!
"
#
##a
##aa
##ab
##ac
##ad
##ae
##af
##ag
##ah
##ai
##aj
##ak
##al
##am
##an
##ao
##ap
##aq
##ar
##as
##at
##au
##av
##aw
##ax
##ay
##az
##b
##ba
##bb
##bc
##bd
##be
##bf
##bg
##bh
##bi
##bj
##bk
##bl
##bm
##bn
##bo
##bp
##bq
##br
##bs
##bt
##bu
##bv
##bw
##bx
##by
##bz
##c
##ca
##cb
##cc
##cd
##ce
##cf
##cg
##ch
##ci
##cj
##ck
##cl
##cm
##cn
##co
##cp
##cq
##cr
##cs
##ct
##cu
##cv
##cw
##cx
##cy
##cz
##d
##da
##db
##dc
##dd
##de
##df
##dg
##dh
##di
##dj
##dk
##dl
##dm
##dn
##do
##dp
##dq
##dr
##ds
##dt
##du
##dv
##dw
##dx
##dy
##dz
##e
##ea
##eb
##ec
##ed
##ee
##ef
##eg
##eh
##ei
##ej
##ek
##el
##em
##en
##eo
##ep
##eq
##er
##es
##et
##eu
##ev
##ew
##ex
##ey
##ez
##f
##fa
##fb
##fc
##fd
##fe
##ff
##fg
##fh
##fi
##fj
##fk
##fl
##fm
##fn
##fo
##fp
##fq
##fr
##fs
##ft
##fu
##fv
##fw
##fx
##fy
##fz
##g
##ga
##gb
##gc
##gd
##ge
##gf
##gg
##gh
##gi
##gj
##gk
##gl
##gm
##gn
##go
##gp
##gq
##gr
##gs
##gt
##gu
##gv
##gw
##gx
##gy
##gz
##h
##ha
##hb
##hc
##hd
##he
##hf
##hg
##hh
##hi
##hj
##hk
##hl
##hm
##hn
##ho
##hp
##hq
##hr
##hs
##ht
##hu
##hv
##hw
##hx
##hy
##hz
##i
##ia
##ib
##ic
##id
##ie
##if
##ig
##ih
##ii
##ij
##ik
##il
##im
##in
##io
##ip
##iq
##ir
##is
##it
##iu
##iv
##iw
##ix
##iy
##iz
##j
##ja
##jb
##jc
##jd
##je
##jf
##jg
##jh
##ji
##jj
##jk
##jl
##jm
##jn
##jo
##jp
##jq
##jr
##js
##jt
##ju
##jv
##jw
##jx
##jy
##jz
##k
##ka
##kb
##kc
##kd
##ke
##kf
##kg
##kh
##ki
##kj
##kk
##kl
##km
##kn
##ko
##kp
##kq
##kr
##ks
##kt
##ku
##kv
##kw
##kx
##ky
##kz
##l
##la
##lb
##lc
##ld
##le
##lf
##lg
##lh
##li
##lj
##lk
##ll
##lm
##ln
##lo
##lp
##lq
##lr
##ls
##lt
##lu
##lv
##lw
##lx
##ly
##lz
##m
##ma
##mb
##mc
##md
##me
##mf
##mg
##mh
##mi
##mj
##mk
##ml
##mm
##mn
##mo
##mp
##mq
##mr
##ms
##mt
##mu
##mv
##mw
##mx
##my
##mz
##n
##na
##nb
##nc
##nd
##ne
##nf
##ng
##nh
##ni
##nj
##nk
##nl
##nm
##nn
##no
##np
##nq
##nr
##ns
##nt
##nu
##nv
##nw
##nx
##ny
##nz
##o
##oa
##ob
##oc
##od
##oe
##of
##og
##oh
##oi
##oj
##ok
##ol
##om
##on
##oo
##op
##oq
##or
##os
##ot
##ou
##ov
##ow
##ox
##oy
##oz
##p
##pa
##pb
##pc
##pd
##pe
##pf
##pg
##ph
##pi
##pj
##pk
##pl
##pm
##pn
##po
##pp
##pq
##pr
##ps
##pt
##pu
##pv
##pw
##px
##py
##pz
##q
##qa
##qb
##qc
##qd
##qe
##qf
##qg
##qh
##qi
##qj
##qk
##ql
##qm
##qn
##qo
##qp
##qq
##qr
##qs
##qt
##qu
##qv
##qw
##qx
##qy
##qz
##r
##ra
##rb
##rc
##rd
##re
##rf
##rg
##rh
##ri
##rj
##rk
##rl
##rm
##rn
##ro
##rp
##rq
##rr
##rs
##rt
##ru
##rv
##rw
##rx
##ry
##rz
##s
##sa
##sb
##sc
##sd
##se
##sf
##sg
##sh
##si
##sj
##sk
##sl
##sm
##sn
##so
##sp
##sq
##sr
##ss
##st
##su
##sv
##sw
##sx
##sy
##sz
##t
##ta
##tb
##tc
##td
##te
##tf
##tg
##th
##ti
##tj
##tk
##tl
##tm
##tn
##to
##tp
##tq
##tr
##ts
##tt
##tu
##tv
##tw
##tx
##ty
##tz
##u
##ua
##ub
##uc
##ud
##ue
##uf
##ug
##uh
##ui
##uj
##uk
##ul
##um
##un
##uo
##up
##uq
##ur
##us
##ut
##uu
##uv
##uw
##ux
##uy
##uz
##v
##va
##vb
##vc
##vd
##ve
##vf
##vg
##vh
##vi
##vj
##vk
##vl
##vm
##vn
##vo
##vp
##vq
##vr
##vs
##vt
##vu
##vv
##vw
##vx
##vy
##vz
##w
##wa
##wb
##wc
##wd
##we
##wf
##wg
##wh
##wi
##wj
##wk
##wl
##wm
##wn
##wo
##wp
##wq
##wr
##ws
##wt
##wu
##wv
##ww
##wx
##wy
##wz
##x
##xa
##xb
##xc
##xd
##xe
##xf
##xg
##xh
##xi
##xj
##xk
##xl
##xm
##xn
##xo
##xp
##xq
##xr
##xs
##xt
##xu
##xv
##xw
##xx
##xy
##xz
##y
##ya
##yb
##yc
##yd
##ye
##yf
##yg
##yh
##yi
##yj
##yk
##yl
##ym
##yn
##yo
##yp
##yq
##yr
##ys
##yt
##yu
##yv
##yw
##yx
##yy
##yz
##z
##za
##zb
##zc
##zd
##ze
##zf
##zg
##zh
##zi
##zj
##zk
##zl
##zm
##zn
##zo
##zp
##zq
##zr
##zs
##zt
##zu
##zv
##zw
##zx
##zy
##zz
$
%
&
'
(
)
*
+
,
-
.
/
0
00
000
001
0018
003
004
007
008
01
010
013
016
0191
02
020
023
025
028
029
03
030
036
04
045
046
047
049
05
050
052
056
059
06
062
07
070
071
074
075
08
080
09
093
094
095
096
0a
0b
0c
0d
0e
0f
0g
0h
0i
0j
0k
0l
0m
0n
0o
0p
0q
0r
0s
0t
0u
0v
0w
0x
0y
0z
1
10
100
1000
1001
1002
1003
1004
1005
1006
1007
1008
1009
101
1010
1011
1012
1013
1014
1015
1016
1017
1018
1019
102
1020
1021
1022
1023
1024
1025
1026
1027
1028
1029
103
1030
1031
1032
1033
1034
1035
1036
1037
1038
1039
104
1040
1041
1042
1043
1044
1045
1046
1047
1048
1049
105
1050
1051
1052
1053
1054
1055
1056
1057
1058
1059
106
1060
1061
1062
1063
1064
1065
1066
1067
1068
1069
107
1070
1071
1072
1073
1074
1075
1076
1077
1078
1079
108
1080
1081
1082
1083
1084
1085
1086
1087
1088
1089
109
1090
1091
1092
1093
1094
1095
1096
1097
1098
1099
11
110
1100
1101
1102
1103
1104
1105
1106
1107
1108
1109
111
1110
1111
1112
1113
1114
1115
1116
1117
1118
1119
112
1120
1121
1122
1123
1124
1125
1126
1127
1128
1129
113
1130
1131
1132
1133
1134
1135
1136
1137
1138
1139
114
1140
1141
1142
1143
1144
1145
1146
1147
1148
1149
115
1150
1151
1152
1153
1154
1155
1156
1157
1158
1159
116
1160
1161
1162
1163
1164
1165
1166
1167
1168
1169
117
1170
1171
1172
1173
1174
1175
1176
1177
1178
1179
118
1180
1181
1182
1183
1184
1185
1186
1187
1188
1189
119
1190
1191
1192
1193
1194
1195
1196
1197
1198
1199
12
120
1200
1201
1202
1203
1204
1205
1206
1207
1208
1209
121
1210
1211
1212
1213
1214
1215
1216
1217
1218
1219
122
1220
1221
1222
1223
1224
1225
1226
1227
1228
1229
123
1230
1231
1232
1233
1234
12345
123456789
1235
1236
1237
1238
1239
124
1240
1241
1242
1243
1244
1245
1246
1247
1248
1249
125
1250
1251
1252
1253
1254
1255
1256
1257
1258
1259
126
1260
1261
1262
1263
1264
1265
1266
1267
1268
1269
127
1270
1271
1272
1273
1274
1275
1276
1277
1278
1279
128
1280
1281
1282
1283
1284
1285
1286
1287
1288
1289
129
1290
1291
1292
1293
1294
1295
1296
1297
1298
1299
13
130
1300
1301
1302
1303
1304
1305
1306
1307
1308
1309
131
1310
1311
1312
1313
1314
1315
1316
1317
1318
1319
132
1320
1321
1322
1323
1324
1325
1326
1327
1328
1329
133
1330
1331
1332
1333
1334
1335
1336
1337
1338
1339
134
1340
1341
1342
1343
1344
1345
1346
1347
1348
1349
135
1350
1351
1352
1353
1354
1355
1356
1357
1358
1359
136
1360
1361
1362
1363
1364
1365
1366
1367
1368
1369
137
1370
1371
1372
1373
1374
1375
1376
1377
1378
1379
138
1380
1381
1382
1383
1384
1385
1386
1387
1388
1389
139
1390
1391
1392
1393
1394
1395
1396
1397
1398
1399
14
140
1400
1401
1402
1403
1404
1405
1406
1407
1408
1409
141
1410
1411
1412
1413
1414
1415
1416
1417
1418
1419
142
1420
1421
1422
1423
1424
1425
1426
1427
1428
1429
143
1430
1431
1432
1433
1434
1435
1436
1437
1438
1439
144
1440
1441
1442
1443
1444
1445
1446
1447
1448
1449
145
1450
1451
1452
1453
1454
1455
1456
1457
1458
1459
146
1460
1461
1462
1463
1464
1465
1466
1467
1468
1469
147
1470
1471
1472
1473
1474
1475
1476
1477
1478
1479
148
1480
1481
1482
1483
1484
1485
1486
1487
1488
1489
149
1490
1491
1492
1493
1494
1495
1496
1497
1498
1499
15
150
1500
1501
1502
1503
1504
1505
1506
1507
1508
1509
151
1510
1511
1512
1513
1514
1515
1516
1517
1518
1519
152
1520
1521
1522
1523
1524
1525
1526
1527
1528
1529
153
1530
1531
1532
1533
1534
1535
1536
1537
1538
1539
154
1540
1541
1542
1543
1544
1545
1546
1547
1548
1549
155
1550
1551
1552
1553
1554
1555
1556
1557
1558
1559
156
1560
1561
1562
1563
1564
1565
1566
1567
1568
1569
157
1570
1571
1572
1573
1574
1575
1576
1577
1578
1579
158
1580
1581
1582
1583
1584
1585
1586
1587
1588
1589
159
1590
1591
1592
1593
1594
1595
1596
1597
1598
1599
16
160
1600
1601
1602
1603
1604
1605
1606
1607
1608
1609
161
1610
1611
1612
1613
1614
1615
1616
1617
1618
1619
162
1620
1621
1622
1623
1624
1625
1626
1627
1628
1629
163
1630
1631
1632
1633
1634
1635
1636
1637
1638
1639
164
1640
1641
1642
1643
1644
1645
1646
1647
1648
1649
165
1650
1651
1652
1653
1654
1655
1656
1657
1658
1659
166
1660
1661
1662
1663
1664
1665
1666
1667
1668
1669
167
1670
1671
1672
1673
1674
1675
1676
1677
1678
1679
168
1680
1681
1682
1683
1684
1685
1686
1687
1688
1689
169
1690
1691
1692
1693
1694
1695
1696
1697
1698
1699
17
170
1700
1701
1702
1703
1704
1705
1706
1707
1708
1709
171
1710
1711
1712
1713
1714
1715
1716
1717
1718
1719
172
1720
1721
1722
1723
1724
1725
1726
1727
1728
1729
173
1730
1731
1732
1733
1734
1735
1736
1737
1738
1739
174
1740
1741
1742
1743
1744
1745
1746
1747
1748
1749
175
1750
1751
1752
1753
1754
1755
1756
1757
1758
1759
176
1760
1761
1762
1763
1764
1765
1766
1767
1768
1769
177
1770
1771
1772
1773
1774
1775
1776
1777
1778
1779
178
1780
1781
1782
1783
1784
1785
1786
1787
1788
1789
179
1790
1791
1792
1793
1794
1795
1796
1797
1798
1799
18
180
1800
1801
1802
1803
1804
1805
1806
1807
1808
1809
181
1810
1811
1812
1813
1814
1815
1816
1817
1818
1819
182
1820
1821
1822
1823
1824
1825
1826
1827
1828
1829
183
1830
1831
1832
1833
1834
1835
1836
1837
1838
1839
184
1840
1841
1842
1843
1844
1845
1846
1847
1848
1849
185
1850
1851
1852
1853
1854
1855
1856
1857
1858
1859
186
1860
1861
1862
1863
1864
1865
1866
1867
1868
1869
187
1870
1871
1872
1873
1874
1875
1876
1877
1878
1879
188
1880
1881
1882
1883
1884
1885
1886
1887
1888
1889
189
1890
1891
1892
1893
1894
1895
1896
1897
1898
1899
19
190
1900
1901
1902
1903
1904
1905
1906
1907
1908
1909
191
1910
1911
1912
1913
1914
1915
1916
1917
1918
1919
192
1920
1921
1922
1923
1924
1925
1926
1927
1928
1929
193
1930
1931
1932
1933
1934
1935
1936
1937
1938
1939
194
1940
1941
1942
1943
1944
1945
1946
1947
1948
1949
195
1950
1951
1952
1953
1954
1955
1956
1957
1958
1959
196
1960
1961
1962
1963
1964
1965
1966
1967
1968
1969
197
1970
1971
1972
1973
1974
1975
1976
1977
1978
1979
198
1980
1981
1982
1983
1984
1985
1986
1987
1988
1989
199
1990
1991
1992
1993
1994
1995
1996
1997
1998
1999
1a
1b
1c
1d
1e
1f
1g
1h
1i
1j
1k
1l
1m
1n
1o
1p
1q
1r
1s
1t
1u
1v
1w
1x
1y
1z
2
20
200
2000
2001
2002
2003
2004
2005
2006
2007
2008
2009
201
2010
2011
2012
2013
2014
2015
2016
2017
2018
2019
202
2020
2021
2022
2023
2024
2025
2026
2027
2028
2029
203
2030
2031
2032
2033
2034
2035
2036
2037
2038
2039
204
2040
2041
2042
2043
2044
2045
2046
2047
2048
2049
205
2050
2051
2052
2053
2054
2055
2056
2057
2058
2059
206
207
208
209
21
210
211
212
213
214
215
216
217
218
219
22
220
221
222
223
224
225
226
227
228
229
23
230
231
232
233
234
235
236
237
238
239
24
240
241
242
243
244
245
246
247
248
249
25
250
2500
251
252
253
254
255
256
257
258
259
26
260
261
262
263
264
265
266
267
268
269
27
270
271
272
273
274
275
276
277
278
279
28
280
281
282
283
284
285
286
287
288
289
29
290
291
292
293
294
295
296
297
298
299
2a
2b
2c
2d
2e
2f
2g
2h
2i
2j
2k
2l
2m
2n
2o
2p
2q
2r
2s
2t
2u
2v
2w
2x
2y
2z
3
30
300
3000
301
302
303
304
305
306
307
308
309
31
310
311
312
313
314
315
316
317
318
319
32
320
321
322
323
324
325
326
327
328
329
33
330
331
332
333
334
335
336
337
338
339
34
340
341
342
343
344
345
346
347
348
349
35
350
3500
351
352
353
354
355
356
357
358
359
36
360
361
362
363
364
365
366
367
368
369
37
370
371
372
373
374
375
376
377
378
379
38
380
381
382
383
384
385
386
387
388
389
39
390
391
392
393
394
395
396
397
398
399
3a
3b
3c
3d
3e
3f
3g
3h
3i
3j
3k
3l
3m
3n
3o
3p
3q
3r
3s
3t
3u
3v
3w
3x
3y
3z
4
40
400
4000
401
402
403
404
405
4050
406
407
408
409
41
410
411
412
413
414
415
416
417
418
419
42
420
421
422
423
424
425
426
427
428
429
43
430
431
432
433
434
435
436
437
438
439
44
440
441
442
443
444
445
446
447
448
449
45
450
451
452
453
454
455
456
457
458
459
46
460
461
462
463
464
465
466
467
468
469
47
470
471
472
473
474
475
476
477
478
479
48
480
481
482
483
484
485
486
487
488
489
49
490
491
492
493
494
495
496
497
498
499
4a
4b
4c
4d
4e
4f
4g
4h
4i
4j
4k
4l
4m
4n
4o
4p
4q
4r
4s
4t
4u
4v
4w
4x
4y
4z
5
50
500
5000
501
502
503
504
505
506
507
508
509
51
510
511
512
513
514
515
516
517
518
519
52
520
521
522
523
524
525
526
527
528
529
53
530
531
532
533
534
535
536
537
538
539
54
540
541
542
543
544
545
546
547
548
549
55
550
551
552
553
554
555
556
557
558
559
56
560
561
562
563
564
565
566
567
568
569
57
570
571
572
573
574
575
576
577
578
579
58
580
581
582
583
584
585
586
587
588
589
59
590
591
592
593
594
595
596
597
598
599
5a
5b
5c
5d
5e
5f
5g
5h
5i
5j
5k
5l
5m
5n
5o
5p
5q
5r
5s
5t
5u
5v
5w
5x
5y
5z
6
60
600
601
602
603
604
605
606
607
608
609
61
610
611
612
613
614
615
616
617
618
619
62
620
621
622
623
624
625
626
627
628
629
6290
63
630
631
632
633
634
635
636
637
638
639
64
640
641
642
643
644
645
646
647
648
649
65
650
651
652
653
654
655
656
657
658
659
6592
66
660
661
662
663
664
665
666
667
668
669
67
670
671
672
673
674
675
676
677
678
679
68
680
681
682
683
684
685
686
687
688
689
69
690
691
6917
692
693
694
695
696
697
698
699
6a
6b
6c
6d
6e
6f
6g
6h
6i
6j
6k
6l
6m
6n
6o
6p
6q
6r
6s
6t
6u
6v
6w
6x
6y
6z
7
70
700
701
702
703
704
705
706
707
708
709
71
710
711
712
713
714
715
716
717
718
719
72
720
721
722
723
724
725
726
727
728
729
73
730
731
732
733
734
735
736
737
738
739
74
740
741
742
743
744
745
746
747
748
749
75
750
751
752
753
754
755
756
757
758
759
76
760
761
762
763
764
765
766
767
768
769
77
770
771
772
773
774
775
776
777
778
779
78
780
781
782
783
784
785
786
787
788
789
79
790
791
792
793
794
795
796
797
798
799
7a
7b
7c
7d
7e
7f
7g
7h
7i
7j
7k
7l
7m
7n
7o
7p
7q
7r
7s
7t
7u
7v
7w
7x
7y
7z
8
80
800
801
802
803
804
805
806
807
808
809
81
810
811
812
813
814
815
816
8164
817
818
8180
819
82
820
821
822
823
824
825
826
827
828
8284
829
83
830
831
832
833
834
835
836
837
838
839
84
840
841
842
843
844
845
846
847
848
849
8493
85
850
851
852
853
854
85404
855
856
857
858
859
86
860
861
862
863
864
865
866
867
868
869
87
870
871
872
873
874
875
876
877
878
879
88
880
881
882
883
884
885
886
887
888
889
89
890
891
892
893
893777
894
89452
895
896
897
898
899
8a
8b
8c
8d
8e
8f
8g
8h
8i
8j
8k
8l
8m
8n
8o
8p
8q
8r
8s
8t
8u
8v
8w
8x
8y
8z
9
90
900
901
901787
902
903
904
905
906
907
908
909
91
910
911
912
913
914
915
916
917
918
919
92
920
921
922
923
924
925
926
927
928
929
93
930
931
932
933
934
935
936
937
938
939
94
940
941
942
943
944
945
946
947
948
949
95
950
951
952
953
954
955
956
957
958
959
96
960
961
962
963
964
965
966
967
968
969
97
970
971
972
973
974
975
976
977
978
979
98
980
981
982
983
984
985
986
987
988
989
99
990
991
992
993
994
995
996
997
9972
998
999
9a
9b
9c
9d
9e
9f
9g
9h
9i
9j
9k
9l
9m
9n
9o
9p
9q
9r
9s
9t
9u
9v
9w
9x
9y
9z
:
;
<
=
>
?
@
[
[CLS]
[MASK]
[PAD]
[SEP]
[UNK]
\
]
^
_
`
a
a0
a1
a2
a3
a4
a5
a6
a7
a8
a9
aa
aaa
aachen
aamir
aaron
ab
ababa
abad
abadia
abajo
abambo
abancay
abarca
abaroa
abascal
abba
abbas
abbe
abbey
abbott
abboud
abc
abd
abdala
abdel
abdiyaspa
abdon
abdul
abdullah
abe
abel
abelardo
abenaki
aberdeen
abierta
abierto
abimael
abiseo
able
abogado
aborigen
aboriginal
about
above
abr
abraham
abreu
abril
abu
abuela
abuelo
abuelos
abugattas
abuna
abuta
abya
ac
acacia
academia
academic
academica
academico
academie
academy
acaena
acalypha
acapulco
acaso
acasuzo
acceso
access
accidente
accion
acciones
account
accra
ace
acerca
acero
aces
acetosa
acetosella
acevedo
aceves
acha
achachilla
achachillanmi
achakachi
achakuna
achakunata
achakunayuq
achala
achallina
acham
achamanta
achan
achani
achanqaray
achapas
achaqullu
achata
achatam
achi
achikay
achiksamaytu
achikyay
achille
achin
achinchik
achinchikchu
achinku
achiote
achiqpi
achirqan
achirus
achisqa
achisqan
achiwa
achka
achkam
achkan
achkata
achkha
achkiq
achkiy
achkiypa
achkiyqa
achkiyta
achu
achual
achuar
achuma
achuni
achupalla
achupallas
achuqalla
achuqcha
achyrocline
aci
acid
acobamba
acompanado
acompanamiento
acordeon
acosta
acre
across
act
acta
actinopterygii
action
actitis
active
actividad
actividades
activists
activity
acto
actor
actores
actors
actos
actriz
actuacion
actual
actualidad
actualidades
actualmente
actuando
acuerdo
acuerdos
acuminata
acuna
acustico
acute
acutifolia
acutus
ad
ada
adam
adams
adan
adaptacion
add
added
addis
addison
adela
adelaida
adelaide
adelante
adele
adelina
ademas
ademiller
ademir
adentro
adios
adis
adj
adjani
adjetivo
administracion
administradores
administration
administrative
administrativo
adobe
adolescente
adolf
adolfo
adorable
adoracion
adquirio
adrian
adriana
adriano
adrien
adrienne
adscendens
adventure
adventures
advisory
ae
aequatorialis
aerea
aeronautics
aeropolipa
aeropuerto
aesculus
aesthetics
af
afc
aff
affair
affairs
afganistan
afgansuyu
afghanistan
afirma
afonso
aforismos
afp
africa
african
africana
afrika
afrikapi
afrikapipas
afro
after
afternoon
afuera
ag
again
against
agaricus
agassi
agatha
agave
age
agencia
agency
agenda
agent
agente
agentes
ageop
aglaeactis
agnes
agnococha
ago
agonia
agostinho
agostini
agosto
agouti
agraria
agrario
agrasanchez
agricolas
agricultura
agriculture
agriornis
agro
agropecuaria
agropecuarias
agrostis
agroturismo
agua
aguabolivia
aguada
aguarico
aguaruna
aguas
aguascalientes
aguda
agueda
aguero
aguila
aguilar
aguilas
aguile
aguilera
aguinaldo
aguinda
aguirre
aguja
agujetas
agustin
agustina
agustino
ah
aha
ahi
ahina
ahinataq
ahipa
ahlfeld
ahmad
ahmed
ahora
ahorcado
ahtisaari
ahus
ai
aida
aidesep
aimara
aime
ain
air
aire
aires
airport
airumuqu
aisen
aissatou
aiton
aix
aixin
aj
aja
ajacopa
ajax
ajedrez
ajeno
ajos
ak
aka
akakllu
akal
akara
akaray
akata
akatanqa
akatiya
akawra
akay
akbar
akcha
akchiq
ake
akhamani
aki
akilla
akillpu
akincha
akira
akisqa
akiy
aklla
akllana
akllanakuspa
akllanakuy
akllanakuykunapi
akllanakuykunapim
akllanakuypi
akllaspa
akllasqa
akllasqam
akllasqan
akllay
akllayhunu
akllaykunamanta
akllu
akodon
akray
aktinyu
aku
akun
akuna
akunam
akunamanta
akunap
akunapaq
akunapas
akunapi
akunaqa
akunata
akunatam
akunawan
akunman
akuq
akuy
akwa
akya
al
ala
alabama
aladdin
alagoas
alain
alajuela
alalay
alameda
alamo
alan
alarco
alarcon
alargada
alas
alaska
alata
alawsi
alba
alban
albany
albanya
albanyapa
alberdi
albero
albert
alberta
alberti
alberto
albertus
albicollis
albifrons
albino
albiventris
albo
albogularis
alborada
albrecht
albufera
albujar
album
albumes
albumkuna
albums
albus
alcala
alcalde
alcaldia
alcance
alcantara
alcazar
alcedo
alchemilla
alci
alcide
alcides
alcon
alcover
alda
aldea
alderetes
aldo
aldrich
alec
alegre
alegres
alegria
aleixandre
alejandra
alejandria
alejandro
alejo
aleksandr
aleluya
aleman
alemana
alemania
alencar
alencastre
aleph
alergia
alergica
alerta
ales
alessandra
alessandria
alessandro
alessio
aleut
alex
alexander
alexandra
alexandre
alexandria
alexandros
alexis
alfaguara
alfaro
alfonsin
alfonsina
alfonso
alfred
alfredo
algarrobo
algebra
algeciras
algo
algodon
algonkin
alguien
algun
alguna
algunas
algunos
alhirya
alhunsu
ali
aliaga
alianza
alias
alicante
alice
alicia
alida
alien
alikuya
aliman
alimanruna
alimanya
alimanyap
alimanyapa
alimanyapi
alimpuchi
alipio
alis
alison
alive
alkali
alki
alkul
all
alla
allaapa
allah
allampa
allampakuna
allampakunam
allampakunamanmi
allampam
allampap
allan
allapa
allapata
allaw
allawka
alle
allegret
allegro
allen
allende
allergy
alli
alliacea
alliance
allichay
allichu
allillamanta
allim
allin
allinchasqa
allinchay
allinchayta
allinchu
allinlla
allinmi
allinqhapaq
allinta
alliodora
allis
allish
allium
alliykuq
allma
allmakunapi
allman
allmankunapi
allmaykuq
allows
alloys
allpa
allpam
allpaman
allpamanta
allpamayu
allpankunata
allpap
allpapi
allpapiqa
allpapura
allpata
allpawayu
allpayuq
allqa
allqaluma
allqamari
allqamarinayuq
allqamayu
allqu
allqumiyu
allqupa
allquwan
allquy
allta
alltayuq
allthemountains
allvar
allwi
allwirha
allwiya
allwya
alma
almada
almagro
almas
almeida
almenara
almendra
almeria
almirante
almiron
almonte
almost
alnus
aloag
alomia
alondra
alone
along
alonso
alonsoa
alosilla
alouatta
aloysia
alpaca
alpes
alpha
alphabet
alphonse
alpikuna
alpine
alqa
alqamari
alqamarinayuq
already
alrededor
als
alsace
also
alstroemeria
alt
alta
altafini
altamirano
altar
altas
altazor
alte
alternativa
alternativo
alteza
althaus
altiplanicas
altiplano
altiplanoextreme
altman
alto
altos
altri
altu
altura
aluminyu
aluta
alva
alvar
alvarado
alvaradop
alvares
alvarez
alvaro
alvear
alverson
alves
alvin
always
alwirtu
am
ama
amabile
amable
amachan
amachana
amachanapaq
amachaq
amachaqmi
amachasqa
amachasqam
amachay
amacuro
amada
amadeo
amadeus
amado
amador
amadori
amaguana
amakari
amalia
aman
amanaku
amancaes
amancio
amanda
amando
amanecer
amanqay
amanta
amantani
amante
amantes
amapula
amar
amarakaeri
amaranthus
amare
amargo
amarilda
amarilla
amarillo
amaringo
amariti
amaro
amarte
amaru
amarumayu
amarumayup
amasisa
amat
amati
amauta
amawaka
amawta
amay
amaya
amayu
amazon
amazona
amazonas
amazonia
amazonian
amazonica
amazonicas
amb
ambassador
ambia
ambicion
ambiental
ambientales
ambiente
amboro
ambos
ambrosio
ambrosioides
amburana
ame
amedeo
ameghino
amelia
amelie
amen
amenazadas
america
american
americana
americanas
americano
americanos
americanus
americas
americo
amerika
amerindia
amerique
ames
ami
amici
amico
amiga
amigdalas
amigo
amigos
amilcar
amin
amir
amirika
amirikanu
amistad
amitabh
amleto
amman
amo
among
amor
amorcito
amore
amores
amori
amorosa
amorrortu
amortiguamiento
amos
amospa
amour
ampa
ampachay
amparo
ampatu
ampay
ampeloprasum
ampliada
ampliado
amplio
ampu
amsterdam
amu
amuesha
amundaray
amuqlli
amusco
amutapi
amy
an
ana
anade
anadenanthera
anafilaxia
anagrama
anairetes
anaki
anakikuna
anakikunam
anakikunap
anakikunapas
anakuna
anales
anali
analisis
analitica
anallaqsi
anallu
analysis
anam
anaman
anamanta
anamarka
anamebi
anamelba
anamura
anan
ananea
ananiya
ananku
anankuna
ananmi
ananpaq
ananpi
ananta
anapaq
anaphylaxis
anapi
anas
anastasia
anastasio
anata
anatidae
anatole
anatomia
anaw
anawkunap
anaya
anayuq
ancash
ancashino
ancha
anchana
anchaq
anchar
anchata
anchatam
anchatas
anchay
anche
anchieta
anchik
anchurapa
ancient
ancon
and
anda
andahuaylas
andalucia
andalusiya
andaluz
andamarca
andarperuano
ande
andean
andere
anders
andersen
anderson
andersoni
andersson
andes
andi
andicola
andina
andinas
andines
andino
andinos
andinus
andoa
andorra
andrade
andre
andrea
andreas
andree
andrei
andres
andreu
andrew
andrews
andris
andriy
andua
andurra
anduwa
andwa
andy
anexo
anez
ang
angamos
ange
angel
angela
angeles
angelfire
angelica
angelina
angelitos
angelo
angelos
angels
angie
angkor
anglo
angola
angolo
angula
angulo
angus
angustia
angustifolia
angustifolium
angustifrons
anhalt
anhinga
anhui
anibal
aniceto
anil
anillo
anillos
anima
animal
animales
animalia
animals
animas
anime
animo
anis
anishinapay
anita
aniversario
anka
ankalli
ankallikurqan
ankallis
ankamarka
ankar
ankara
ankash
ankha
ankichiy
anku
ankucha
ankuna
ankunapi
anman
anmi
ann
anna
annales
annan
anne
annette
anni
annie
anniversary
anno
annona
announcement
annual
annuum
ano
anonimo
anos
another
anpe
anpi
anqa
anqakunap
anqakunata
anqaman
anqamanta
anqap
anqapi
anqapiqa
anqaqa
anqar
anqara
anqas
anqash
anqasqucha
anqata
anqayuq
anqayuqmi
anqu
anra
ans
ansaltu
anselmo
ansu
anta
antacha
antachayri
antakilla
antakuru
antakuyu
antam
antamarka
antamayu
antaniqiq
antaniqiqpa
antaniqiqpi
antanka
antankallu
antapampa
antaquta
antara
antarapa
antartica
antartida
antartika
antasqa
antata
antawa
antawaylla
antawayllacha
antay
ante
antecedentes
antena
antenor
antequera
anterior
anteriormente
antero
antes
antharu
anthology
anthony
anthurium
anti
antibioticos
antigua
antiguas
antiguo
antiguos
antiki
antikuna
antikunamanta
antikunan
antikunap
antikunapi
antikunapim
antikunapiqa
antiman
antimanta
antimony
antinpi
antioqueno
antioquia
antisana
antisensis
antisuyu
antofagasta
antoine
antoinette
antologia
anton
antoni
antonia
antonieta
antonin
antonio
antonioni
antony
antorcha
antropologia
ants
antunez
antunyu
anu
anuario
anuncia
anuncio
anwan
any
anything
ao
aotus
ap
apa
apachana
apachanapaq
apache
apacheta
apachi
apachita
apagado
apamusqa
apamusqam
apamusqan
apan
apana
apanapaq
apanqara
apanqura
apaq
apar
aparece
aparecida
aparicio
aparicion
apariciones
aparniyuq
aparte
apas
apasa
apasanka
apasqa
apata
apay
apaykachana
apaykachanam
apaykuspa
apaza
apella
aperea
apertura
aphi
aphrika
aphrikapi
aphrodite
aphru
aphylla
api
apiaguaki
apim
apiqa
apium
apka
aplaw
aplicada
apocalipsis
apocynaceae
apokalipsisnin
apollo
apolo
apolonia
apostol
apostoles
apoyo
appas
appert
apple
appleton
applications
applied
apra
aprayuq
aprender
aprendiendo
aprendizaje
apres
april
aprista
apu
apukuna
apulliq
apulu
apulupampa
apun
apunchis
apuntes
apure
apurimac
apurimaq
apuros
apusqa
apustul
apustulkunap
apuwasinyuq
apuy
apuyaya
apuyayapa
aq
aqa
aqanisuyu
aqanisuyupa
aqcha
aqchi
aqchu
aqha
aqhi
aqi
aqkuna
aqkunam
aqkunamanta
aqkunap
aqkunaqa
aqkunata
aqkunatam
aqman
aqmi
aqnin
aqninkuna
aqninkunaqa
aqninmi
aqniyuq
aqpa
aqri
aqu
aquaticus
aqucha
aquel
aquella
aquellos
aqui
aquila
aquino
aqullu
aqumarka
aqumayu
aqupampa
aqupampilla
aqupanpa
aqupiya
aqus
aquta
aqutanku
aqway
aqwaykunam
ar
ara
arab
arabe
arabela
arabes
arabia
arabya
arachiq
arachupa
arachupam
arafat
aragon
aragones
aragua
aragun
arahu
arajuno
aramango
aramayo
aramburu
aramides
aramu
aran
arana
aranda
arango
arani
aranibar
aranwa
aranway
aranwaykuna
aranwaypi
araona
araoz
arapa
arapaima
araqullu
arara
araral
ararauna
arata
aratinga
arauca
araucania
araucaria
araujo
arawak
arawi
arawikuna
arawkaniya
arbenz
arbieto
arbizu
arbol
arboleda
arboles
arborea
arbulu
arbustos
arc
arca
arcadia
arcadio
arcangel
arce
arch
archaea
archaeology
archibald
archidona
archipielago
architecture
archivado
archive
archives
archivo
archivos
arcilla
arco
arcos
arctium
arctocephalus
arde
ardea
ardesiaca
ardiente
ardiles
are
area
areas
arellano
arena
arenal
arenales
arenaria
arenas
arendt
arequipa
aretha
arevalo
arezzo
arg
argemone
argentina
argentinas
argentino
argerich
arguedas
arguello
argumento
arhintina
arhintinap
arhintinapa
arhintinapas
arhintinapi
arhintinapipas
arhintinu
ari
aria
arias
arica
ariel
arika
arikipa
arimuy
arina
arinillas
arinki
ariola
ariq
ariqipa
ariqmi
ariquma
ariruma
arisaema
arispa
aristizabal
aristotelis
arithmeticae
arithmetik
ariy
arizona
arjen
arkansas
arles
arlington
arlt
arma
armakuna
armallu
armando
armas
armata
armee
armendariz
armenia
armenteros
armida
arminya
arms
armstrong
army
arnaldo
arnaz
arnhem
arnold
arnoldo
arns
arnulfo
aroma
arosemena
around
arpa
arpay
arqan
arqi
arque
arqueologia
arqueologico
arquitecto
arquitectura
arrabal
arrasco
arrazola
arriba
arrow
arroyo
arrupe
arrus
ars
arsenal
arsenic
arsenio
arsi
art
arte
arteaga
artemio
artemis
artemisa
artes
artesanal
artesania
arthur
article
articles
articulo
articulos
artigas
artist
artista
artistas
artiste
artistica
artisticas
artists
artisunrahu
arts
artupuykama
arturo
aru
arum
aruma
arusiminee
arwi
arwitu
arzobispo
as
asa
asakuna
asalto
asam
asamblea
asamoah
asanaki
asani
asankaru
asanqaru
asapa
asar
asarsuyu
asbun
ascaris
ascazubi
ascension
aschaq
asentadas
asesinato
asesino
asesinos
ash
ashaninka
asheninka
ashka
ashley
ashma
ashta
ashtashqanam
ashtawan
ashuka
asi
asia
asiatica
asignado
asignaturas
asimov
asin
asindapi
asiri
asirtachik
asiru
asiruqucha
asirwayan
asis
asitunas
asiwu
asiy
asiya
ask
aska
askachakuq
askachaw
askachawwan
askaq
askha
asla
aslla
asma
asna
asnacha
asnan
asnaq
asnaqucha
asnu
aso
asociacion
asosiacion
asp
aspa
asparagaceae
aspectos
aspects
asper
aspero
aspi
aspicha
aspidosperma
aspim
aspimanta
aspip
asplenium
asprilla
aspx
asqa
asqan
asqupi
asra
assad
assam
assassin
assembly
assen
assessment
assis
assisi
assisted
associacao
association
asta
astaire
astakurqan
astasqanam
astatine
astawan
astawantaq
astengo
asteraceae
asteroid
asthenes
astika
astocococha
aston
astor
astragalus
astroblepus
astrocaryum
astronium
astronomical
astua
asturiana
asturianu
asturias
asturiaspa
astyanax
asu
asuka
asukar
asukarwayu
asume
asuncion
asunsyun
asunta
asunto
asuntos
asustada
asuwi
aswa
aswan
aswanqa
aswanta
aswantaq
aswantataq
asway
asya
asyap
asyapi
asyapipas
at
ata
atacama
atahuachi
atahuallpa
atahualpa
atakama
atakami
atakasu
atalaya
atam
ataqa
ataqu
ataque
atardecer
atari
ataturk
atavillos
ataw
atawallpa
atawi
atb
atc
ate
ateles
atelier
atenas
ateneo
atha
athapaska
athene
athens
athina
ati
atich
atikun
atilio
atin
atinchik
atinchu
atinki
atinku
atinman
atinmi
atipachaw
atipachawwan
atipana
atipanakuy
atipaq
atiparqan
atipaspa
atipasqa
atipasqan
atipay
atiptin
atiq
atirqan
atirqanchu
atispa
atiy
atiykunawan
atiynin
atiyninmi
atiyniyuq
atiyta
atkins
atlanta
atlantic
atlantico
atlantida
atlantiku
atlas
atletico
atma
atmayuq
atmospheric
atocha
atomic
atomica
ator
atp
atra
atras
atratus
atrorubens
atrovirens
atska
att
atta
attack
attore
atu
atucha
atun
atuq
atuqmantawan
atuqpa
atuqwan
atv
au
auch
auckland
auct
audaz
audiencia
audio
audrey
auf
auflage
augsburg
august
augusta
auguste
augustine
augusto
augustus
aula
aumentada
aun
aung
aunque
aura
aurea
aurelia
aurelio
auricularia
auriculata
aurora
aus
ausencia
ausente
austin
australia
australian
australis
austria
aute
author
authority
auto
autobiografia
autobiography
autodenominacion
autoinstructivo
automatic
automatically
automovil
autonoma
autonomo
autonomous
autor
autora
autores
autoria
autoridades
autorretrato
autres
autry
autumn
aux
auxiliar
av
ava
available
avalos
avaro
avaroa
ave
avec
aveiro
avelino
avellaneda
avena
avenida
aventura
aventuras
aventurero
aventureros
aves
aviacion
avignon
avila
aviles
aviso
aviv
avon
avril
aw
awa
awahun
awajun
awaka
awan
awana
awankay
awaq
awar
awarank
awarawi
award
awards
awariku
awaspa
awasqa
away
awaymantu
awaytiya
awchi
awchu
awha
awi
awidul
awillanu
awina
awiri
awitya
awiw
awkeno
awki
awkillu
awllaqa
awqa
awqakuna
awqakunaqa
awqakunata
awqakuq
awqanakuy
awqanakuypi
awqapata
awqaq
awqaqkuna
awqaqkunam
awqaqkunap
awqaqkunaqa
awqaqkunas
awqaqkunata
awqaqkunawan
awqaqninkuna
awqarqan
awr
awrawa
awril
awrilpi
awriq
awsanqati
awstiriya
awstiriyapi
awstralya
awstralyap
awstralyapa
awstralyapi
awtu
awtunuma
awtunumu
awu
awustu
awustupi
awya
ax
axel
ay
aya
ayacuchano
ayacucho
ayacuchovirtual
ayak
ayakachi
ayakuchu
ayala
ayamarka
ayamarq
ayamaych
ayapata
ayaq
ayar
ayara
ayata
ayawaka
ayawaska
ayawiri
ayay
ayaymama
ayca
aycha
aychanta
aychata
ayer
ayha
ayka
aykili
aykuna
aykusqayki
ayllon
ayllu
ayllukuna
ayllukunapi
ayllum
aylluman
ayllumanta
ayllun
ayllunkuna
ayllunmi
ayllupaq
ayllupi
aylluruna
aym
aymanta
aymar
aymara
aymaras
aymi
aymuray
ayna
ayni
aynim
aynin
ayninta
ayniyuq
ayo
ayopaya
ayora
ayoreo
aypaq
ayparqan
aypaspa
aypasqakunapaq
aypay
aypi
aypik
ayqa
ayqiq
ayqirqan
ayqispa
ayra
ayrampu
ayrapin
ayriway
ayruma
aysana
ayta
ayti
aytu
aytukuna
aytuta
ayu
ayuda
ayudar
ayuntamiento
ayupaya
ayuq
aywan
aywillka
az
azabache
azahares
azangaro
azar
aziz
aznar
aznavour
azogues
azorella
azorin
azpeitia
azteca
aztecan
azuay
azucar
azucena
azul
azulcocha
azules
azurduy
b
b0
b1
b2
b3
b4
b5
b6
b7
b8
b9
ba
baba
babahoyo
babbar
babel
babilonia
babilun
baby
babylon
bac
baca
baccharis
bach
bachata
bachchan
bachiller
bachillerato
back
bacon
bacteria
bacteriana
bacterias
bactris
bactrocera
bad
badalona
baden
baeza
bafta
bagdad
baggio
baglietto
bagri
bagrim
bagua
bahamakuna
bahamas
bahamensis
bahasa
bahia
bahuaja
bai
baila
bailando
bailar
bailarina
baile
bailen
bailes
bailey
baillargeon
bailly
bain
bairdii
baja
bajas
bajitos
bajo
bajos
bak
baker
bakhuys
baku
bala
balada
baladas
balaguer
balakirev
balance
balansani
balao
balboa
balcazar
baldivieso
baldwin
bale
bali
ball
ballad
ballads
ballena
ballestas
ballesteros
ballet
ballivian
ballon
baloncesto
balsa
balsas
balta
baltasar
baltiku
baltimore
baltra
balvin
balzac
balzar
bambas
bambi
bambino
bamboo
ban
banco
bancos
band
banda
bandai
bandaranaike
bande
bandera
banderas
bandido
bandidos
bandolero
bandoneon
bandurria
bang
bangkok
banisteriopsis
banja
banjo
banjul
bank
banks
banla
banladish
banning
bano
banos
banting
bantu
banzer
baptista
baptiste
baquerizo
baquijano
bar
barack
barandiaran
barany
barat
barb
barba
barbadillo
barbados
barbara
barbaros
barbata
barbatus
barbero
barbosa
barboza
barbra
barca
barcelona
barcelonapi
barclay
barco
bardem
bardina
bardot
bari
barinas
baritone
baritono
barker
barkley
barnadesia
barneby
barney
barngarla
barnuevo
baroja
baron
barquisimeto
barr
barra
barral
barranca
barranco
barranquilla
barrantes
barraza
barre
barreda
barrenechea
barrera
barreto
barrett
barrientos
barriga
barrio
barrios
barris
barriukuna
barro
barroco
barron
barros
barroso
barrow
barruku
barry
barrymore
barsacq
bartholomew
bartok
bartoli
bartolina
bartolo
bartolome
barton
baruch
barycenter
bas
basa
basada
basado
basadre
base
baseball
based
basel
bases
basic
basica
basico
basileuterus
basilica
basilika
basilikan
basilio
basinas
basis
basketball
bass
basso
basta
basten
bastidas
bastos
bat
batalla
batallas
batan
bates
bath
batista
batistuta
batlle
baton
batres
battista
battle
batumi
bau
baudelaire
bauer
baure
bautista
bawtista
bay
bayer
bayern
bazan
bb
bbc
bc
bd
bdfa
be
beach
bear
bearn
bearnpa
bearnpi
beast
beat
beata
beatles
beato
beatrice
beatriz
beatty
beau
beautiful
beauty
beauvoir
beaux
bebe
bebel
because
beck
beckenbauer
becker
beckett
become
becomes
becquer
bed
bedford
bedoya
bee
been
beethoven
before
begonia
begum
behind
bei
beijing
being
beirut
beisbol
bel
bela
belafonte
belalcazar
belaunde
belem
belen
belfast
belgica
belgique
belgrano
believe
belisario
bell
bella
bellas
bellavista
belle
belleza
bellido
bellini
bello
bells
belmondo
belmont
belmonte
belo
beloved
below
belozoglu
belter
beltran
belzebuth
belzu
bemol
ben
bena
benavente
benavides
bendezu
benedetti
benedetto
benedicto
benedictus
bengali
beni
benidorm
benigno
benin
benita
benitez
benito
benjamin
benn
bennett
benny
benson
benth
bentham
bentley
beograd
berberidaceae
berberis
berenice
berg
bergamo
bergen
berger
bergerac
bergkamp
bergman
berkeley
berlin
berlioz
bermejo
bermudez
bern
bernabe
bernabeu
bernal
bernard
bernarda
bernardi
bernardino
bernardo
bernhard
bernhardt
bernstein
bernuy
beron
berrio
berrocal
berry
bert
berta
bertel
bertha
bertie
bertolt
bertoni
bertonio
bertrand
besame
besancon
beso
besos
best
bestia
beta
betacea
betancourt
betancur
betanzos
betawiki
bete
beth
bethania
bethlehem
beto
bette
better
betty
between
beverley
beverly
bey
beyond
beyrut
bezzi
bf
bg
bh
bhutto
bi
bianca
bianchi
bianco
biatu
biavo
bibi
bible
bibles
biblia
biblian
biblica
biblicas
bibliografia
bibliografica
bibliography
biblioteca
bibliotecas
bicentenario
bicicleta
bicolor
bidens
bien
bienal
bienvenido
big
biggar
bignoniaceae
bigote
bikini
bilarus
bilbao
bilhika
bilhikapa
bilingue
bilingues
bilisi
bill
billboard
billie
billinghurst
billy
bin
bing
bingen
binidiktu
binin
binomial
bint
bio
biobio
biodiversidad
biografia
biografias
biografica
biografico
biographical
biography
biolib
biologia
biologica
biologicas
biology
biondi
biota
bioy
bir
bird
birdlife
birds
birmanu
birmingham
birostris
birth
bisby
bishop
bisiklita
bismarck
bison
bissau
bisunti
bit
bita
bites
bitstream
bitter
biwa
biyubiyu
bizet
bj
bjørnson
bjørnstjerne
bk
bl
bla
black
blade
blades
blair
blaise
blaize
blake
blanc
blanca
blancas
blanchard
blanche
blanco
blancos
blas
blasco
blasetti
blastocerus
ble
bleu
blind
blog
blognin
blogspot
blonde
blondie
blood
blu
blue
blues
blume
bm
bmg
bn
bnf
bnp
bo
boa
boada
board
bob
bobby
bobonaza
boca
bocanegra
bocas
boccaccio
bocconia
bocelli
bochini
boda
bodas
body
boeing
boeto
boff
bogart
bogota
bogotapi
bogotense
boheme
bohemia
bohemian
bohemya
bohr
bois
boise
boiss
bok
bola
bolanos
bolero
boleros
boletin
bolivar
bolivariana
bolivarmantam
bolivia
bolivian
boliviana
bolivianland
boliviano
bolivianos
boliviensis
bolivision
bollywood
bologna
bolognesi
bolsa
bolsillo
bolsonaro
bolt
boluarte
bolzano
bom
bomarea
bomba
bombon
bon
bonaparte
bonariensis
bond
bondy
bone
bonet
bonete
bongara
bongo
bonifacio
bonilla
boniperti
bonita
bonito
bonn
bonne
bonpl
bonpland
bonus
boogie
book
books
boom
booth
boqueron
bora
borbon
borbor
borda
bordeaux
border
bordo
borges
borghese
borgia
borgnine
borgono
boris
borja
born
borodin
boron
borracho
borrascosas
borrero
borussia
bosch
bosco
bose
bosnia
bosnjak
bosque
bosques
bossa
boston
bot
bota
botafogo
botanic
botanica
botanical
botanico
botanik
botany
botas
botella
botero
bothrops
bots
bougainvillii
boulengerella
boulogne
bound
bounty
bourgoin
bouterse
bow
bowie
box
boy
boyaca
boyd
boyer
boyle
boys
bp
bq
br
brabant
bracamonte
brace
bracho
brachybotrys
brachyotum
bracteata
bradford
bradley
bradomin
brady
bradypus
braga
bragaglia
bragg
brahms
braille
branagh
branch
branco
brand
brando
brandon
brandt
branickii
brasil
brasileira
brasileiro
brasilena
brasileno
brasilia
brasilianus
brasiliensis
brasilniyuq
brasilpa
brasilpi
brasilpipas
brass
brassica
bratislava
braulio
braun
brava
brave
bravo
brazil
brazilian
brazos
brazzaville
brea
break
breakfast
brecht
breitner
bremen
brena
brenda
brent
brero
brescia
brett
breve
breves
brian
briceno
brid
bride
bridge
bridges
bridget
brief
bright
brighton
brigitte
brillante
bring
briq
bristol
britain
britanica
britanico
britannica
britanya
british
brito
britt
britton
brno
broadcast
broadway
broken
bromeliaceae
bromus
bronce
bronckhorst
bronco
bronte
bronx
bronze
brook
brooklyn
brooks
brosnan
brother
brothers
broussais
brown
brownea
browneopsis
bruce
brugmansia
bruja
brujas
brujo
brum
brunari
brunei
brunfelsia
brunke
bruno
brunswick
bruselas
brussel
bruxelles
bryan
bryant
bryce
brynner
bs
bso
bt
bu
buarque
bubulcus
bucay
bucephalophorus
buch
buck
bud
budapest
buddleja
buddy
buen
buena
buenas
buenaventura
bueno
buenos
buffalo
bufo
bufon
bug
bugle
bugs
building
buitres
bukuresti
bukya
bulgaria
bulgarya
bulibya
buliwiyanu
buliwya
buliwyanu
buliwyap
buliwyapi
buliwyapipas
bull
bulletin
bulls
bulo
bundesland
bundesliga
bunge
bunny
bunuel
burbuwnpa
burden
bureau
bures
burgos
burinkin
burinkinpa
burke
burma
burn
burnet
burnham
burning
burns
burr
burro
burt
burton
burundi
bus
busan
busca
buscando
buscar
busch
busco
bush
business
busna
busqueda
bustamante
bustillo
busto
bustos
but
butan
butanika
buteo
butler
butswana
butterfly
butterworths
buwis
buxifolia
bv
bvirtual
bvsde
bw
bwino
bwv
bx
by
bye
byron
bz
bɾ
c
c0
c1
c2
c3
c4
c5
c6
c7
c8
c9
ca
caan
caazapa
caballe
caballero
caballeros
caballo
caballos
cabana
cabanas
cabanillas
cabaret
cabassous
cabaut
cabello
cabeza
cabezas
cable
cabo
cabra
cabral
cabrera
cacao
cacataibo
caccia
caceres
caceria
cache
cachi
cacho
cacique
caco
cactaceae
cactus
cada
cadena
cadenas
cadiz
caenolestes
caer
caerulea
caesalpinia
caesar
caetano
cafe
cage
cagliari
cagney
cahuana
caida
caifanes
caiman
cain
caine
cairo
caitro
caiza
caja
cajabamba
cajal
cajamarca
cajanea
cajas
cajophora
cal
cala
calais
calama
calamagrostis
calavera
calceolaria
calcio
calculo
caldas
calderon
cale
calendario
calendula
calera
caleruega
calgary
cali
calidad
calidris
caliente
calientes
california
californiapi
californicus
caligula
calixto
call
calla
callaghan
callao
callar
callas
calle
called
callejero
callejon
calles
callhua
callicebus
calling
calliphoridae
calmell
caloocan
calor
calpe
caluromys
calvario
calvas
calvatia
calvin
calvino
calvo
calycophyllum
calzada
cama
camacho
camaguey
camaldulensis
camara
camargo
cambiar
cambio
cambios
cambodia
cambridge
came
camelias
camelopardalis
camelot
camelus
cameo
camera
camerini
cameron
camila
camille
camillo
camilo
camina
caminando
caminante
camino
caminos
camiseta
camoes
camp
campa
campaign
campana
campanas
campania
campbell
campeche
campeon
campeonato
campeones
campero
campesina
campesinas
campesino
campesinos
campestre
campestris
campinas
campo
camporredondo
campos
campus
campyloneurum
camus
can
cana
canada
canadas
canal
canales
canar
canaria
canario
canas
canasta
cancer
cancion
cancionero
canciones
cancoes
cancrivorus
cancun
candamo
candarave
candela
candelaria
candia
candid
candida
candidato
candy
canela
canelo
canelon
canelones
canelos
canescens
canete
canetti
cangallo
canis
cannavaro
cannonball
cano
canon
canquella
canseco
canta
cantan
cantando
cantante
cantantes
cantar
cantares
cantaro
cantata
canterbury
cantero
canthon
cantico
cantidad
cantina
cantinflas
canto
canton
cantones
cantor
cantores
cantos
cantua
cantuarias
canyon
canzoni
cao
caoni
cap
capac
capacitacion
cape
capensis
caperucita
capetillo
capilla
capital
capitalismo
capitals
capitan
capitol
capitulo
capitulos
capo
capote
capparis
capra
capricho
capriles
capsicum
captain
caqueta
caquiaviri
car
cara
carabanchel
caracas
caracol
caracter
caracteristicas
carajia
caralt
carangas
caras
caravaggio
caraz
carazo
carbajal
carbo
carbon
carbonera
carbono
carcel
carcova
card
cardenal
cardenales
cardenas
cardiff
cardinale
cardona
cardoso
cardozo
carduelis
care
caretas
carex
carey
cargo
carhuaz
caribbean
caribe
carica
caridad
carino
caripensis
carita
carl
carla
carles
carleton
carlo
carlos
carlota
carmela
carmelitas
carmelo
carmelon
carmen
carmencita
carmin
carmona
carnaval
carne
carnera
carnet
carnevali
carnot
caro
carol
carola
carolina
caroline
carolus
carolyn
carpa
carpenter
carpentier
carpio
carranza
carrasco
carre
carrel
carreno
carrera
carreras
carrero
carretera
carrie
carrillo
carrion
carrizal
carro
carson
carta
cartagena
cartago
cartas
carter
cartero
cartier
cartographic
carunculatus
caruso
carvajal
carvalho
carvallo
cary
casa
casablanca
casada
casado
casados
casal
casals
casanare
casanova
casar
casares
casaretto
casarme
casarse
casas
cascada
cascales
cascara
casco
case
cases
cash
cashibo
casi
casillas
casimira
casimiro
casino
casiri
casma
casmerodius
caso
casona
casos
casosmanta
casospi
caspar
caspi
cassette
cassia
cassinelli
cast
casta
castaneda
castano
castellana
castellano
castellanomanta
castellanos
castellanu
castellari
castelo
castigo
castilla
castilleja
castillo
castle
castlevania
castrillon
castro
cat
catacaos
catacora
catala
catalan
catalina
catalogo
catalogue
cataluna
catamarca
catania
catarata
catarina
catecismo
catedra
catedral
categoria
categorias
category
caterina
cathartes
catherine
catholic
catolica
catolico
catorce
cattone
cauca
caudatus
caudillo
caudillos
causa
causas
cause
causes
cautiva
cav
cava
cave
cavero
cavia
cavour
cayambe
cayetano
cayo
caza
cazador
cazadores
cazorla
cb
cbc
cbs
cc
ccoscco
ccp
cd
cdc
cdi
cdot
ce
ceara
cearensis
cebadilla
cebus
cecil
cecilia
ceciliae
cecropia
cedrela
cedrelinga
ceguera
cei
ceiba
cela
celebrating
celebres
celedonio
celendin
celeste
celestial
celestina
celia
celica
celine
cell
cello
celos
celso
celtis
celula
celular
celulas
cementerio
cemetery
cena
cenaq
cenepa
ceni
cenicienta
ceniza
censales
censo
centenario
centeno
center
centinela
central
centrales
centre
centro
centroamerica
centropelma
centuries
century
ceramica
cerastium
cerati
cerca
cercado
cercano
cerco
cerda
cerdena
cerebro
ceremonia
ceres
cereus
cerezo
cerezos
cerna
cernuda
cero
cerrada
cerrado
cerro
cerron
cerros
certain
cervantes
cervus
cesar
cesare
ceske
cespedes
cestrum
ceu
ceulemans
cevallos
cf
cg
cgi
cgtp
ch
cha
chabuca
chacalon
chacara
chacas
chacha
chachacoma
chachakuma
chachakumani
chachapoyas
chachapuya
chachapuyas
chachaq
chachas
chachita
chaco
chacon
chacra
chad
chadwick
chagas
chaha
chahta
chain
chair
chaja
chaka
chakakuq
chakaltaya
chakamarka
chakana
chakaqucha
chakas
chakata
chakchura
chaki
chakinpi
chakisapa
chakiyuq
chakra
chakrakamay
chakrakunapi
chakrakunata
chakranchikkunapi
chakrapampa
chakrapi
chakrapura
chakrarahu
chakraruna
chakrata
chaku
chakuma
chakunapaq
chakupi
chakuq
chala
chalalan
chalan
chalanpi
chalapi
chalatenango
chalchaleros
challa
challapata
challenge
challua
challwa
challwakuna
challwakunam
challwakunap
challwakunata
challwakunatam
challwam
challwamayupi
challwanka
challwiri
chaltura
chaman
chamaya
chamber
chamberi
chamberlain
chambira
chamikuru
chamorro
champa
champagnat
champagne
champara
champi
champinun
champion
champions
championship
champira
champu
chamqaspa
chan
chana
chanar
chanca
chancay
chancaybanos
chance
chanchamayu
chanchan
chandless
chaney
chang
changchun
change
changes
changing
chango
changsha
chani
chanin
chaninchaq
chaninchasqa
chaninchasqam
chaninniyuq
chaniyuq
chaniyuqmi
chanka
chankaku
chankay
chankillu
chankuwana
channel
chano
chanoc
chanrara
chanson
chansons
chant
chanta
chantapas
chantataq
chante
chao
chapaq
chapari
chapariy
chaparral
chaparro
chapi
chaplin
chapman
chappuis
chapter
chapu
chaqallu
chaqallum
chaqay
chaqlla
chaqllisinchi
chaqllisinchimanta
chaqllisinchipi
chaqna
chaqnasqa
chaqruna
chaqruspa
chaqrusqa
chaqrusqam
chaqullu
chaquy
characidae
character
characters
charadrius
charana
charanku
charankukuna
charapa
charasani
charata
charawa
charazani
charcas
chari
charisteas
charity
charkas
charles
charleston
charlie
charlotte
charlottep
charlottetown
charlton
charly
charro
chart
chase
chaska
chaski
chaskin
chaskinanpaq
chaskinapaq
chaskinchik
chaskiran
chaskirqa
chaskirqan
chaskispa
chaskisqa
chaskiy
chat
chata
chateau
chatham
chauca
chaucha
chavela
chaves
chavez
chavin
chavo
chaw
chawa
chawarpampa
chawchuri
chawin
chawkatu
chawpi
chawpikallki
chawpimayu
chawpin
chawpinmi
chawpinpi
chawpinqa
chawpipacha
chawpipi
chay
chayamun
chayan
chayanta
chayawita
chaychu
chayka
chaykuna
chaylla
chayllapi
chayman
chaymanta
chaymantam
chaymantapacha
chaymantapas
chaymantaqa
chaymantas
chaymantataq
chaymantataqmi
chaymantataqsi
chaymi
chaypacha
chaypi
chaypim
chaypipas
chaypiqa
chaypis
chayqa
chayrayku
chayraykum
chayraykutaq
chayri
chayta
chaytam
chaywan
chaywanmi
chaywanpas
chaywanqa
chaywansi
che
checa
check
checklist
chef
cheikh
cheilanthes
cheito
chejov
chekhov
chelsea
cheltenham
chemical
chemie
chemillen
chemistry
chen
cheney
cheng
chengdu
chenopodium
cheo
cherie
cherokee
cherry
chespirito
chester
chetumal
cheung
chevalier
cheyenne
chez
chh
chhachani
chhalla
chhaqi
chhaqru
chhasku
chhika
chhikan
chhuka
chhulla
chhulli
chhuquruqutu
chi
chia
chiang
chiapas
chiar
chiara
chiarella
chiba
chibcha
chibuleo
chica
chicago
chicas
chicha
chicham
chichas
chichester
chichi
chichiku
chichiqhapaq
chichira
chichu
chichuyay
chiclayo
chico
chicos
chief
chien
chiesa
chifukwa
chiguanco
chiho
chihuahua
chiina
chikama
chikasa
chikayu
chikchi
chikchipa
chiki
chikichasqa
chikichasqanmi
chikitanu
chikitus
chikla
chiklayu
chikmu
chiksuyu
chiksuyupi
chiku
chikun
chikusluwakya
chikyan
chila
chilata
chilaya
chilca
child
children
chile
chilena
chileno
chilensis
chiles
chili
chilikchi
chiliman
chilina
chilinu
chilip
chilipi
chiliqucha
chiliquin
chiliti
chilla
chillanes
chilliqa
chilliwa
chillka
chillkapampa
chillo
chilltu
chillun
chillwar
chilpancingo
chilu
chimaltenango
chiman
chimbo
chimborazo
chimbote
chimie
chimlasay
chimlasayta
chimpa
chimpachikun
chimpachikuq
chimpachisqa
chimpan
chimpansi
chimpu
chimpulla
chimpurasu
chimputi
chimpuya
chimu
chimuriy
chin
china
chinaku
chinandega
chincha
chinchamali
chinchanpi
chinchay
chinchayman
chinchaymanta
chinchayninpi
chinchayqucha
chinchaysuyu
chinchaysuyupi
chinchero
chinchi
chinchilla
chinchina
chinchipi
chinchirkuma
chinchiru
chinchiy
chindul
chinese
ching
chini
chinkasqa
chino
chinu
chipana
chipaya
chipcha
chipin
chipmunks
chipuru
chiqa
chiqan
chiqap
chiqllan
chiqllarahu
chiqniq
chiquimula
chiquinquira
chiquito
chiquitos
chira
chirapaq
chirapaqa
chirca
chiri
chirimaway
chirimuya
chirimuyu
chirinos
chiripa
chiriq
chiris
chiriwanu
chiruki
chiruyuq
chitilla
chiva
chivo
chiwaku
chiwalaki
chiwana
chiwanku
chiway
chiwayru
chloephaga
chloroptera
chloropus
cho
chocano
choco
chocolate
choice
choir
chojna
chol
cholera
choliba
cholita
cholo
choloepus
choluteca
chomwe
chone
chong
chongqing
chonta
chopin
chopra
choque
choquehuanca
chordeleg
choro
chorrillos
chorro
chorus
chosica
chow
chr
chris
christ
christa
christenson
christi
christiaan
christian
christiana
christiane
christie
christina
christine
christmas
christoffer
christoph
christophe
christopher
chrome
chronicles
chu
chua
chubu
chubut
chuchaw
chucho
chuchu
chuck
chuco
chucuito
chugoku
chugur
chukaya
chukcha
chukchu
chuki
chukiqayara
chukirawa
chukiyapu
chuku
chukulati
chukuri
chukuwitu
chukuytu
chul
chulla
chulli
chullpakuna
chullu
chullunku
chullusqa
chulpurunku
chulukanas
chulumani
chuma
chumpaw
chumpi
chumpicha
chumpitaz
chumpiwillka
chun
chunchi
chunchu
chung
chungara
chungcheong
chuni
chunka
chunkacha
chunkamanta
chunkana
chunkantin
chunkara
chunkawata
chunkay
chunki
chunqaq
chunta
chuntu
chunu
chunwa
chunwapa
chunwapi
chunwayuq
chunyi
chupa
chupaka
chupam
chupan
chupasapa
chuqa
chuqi
chuqichaka
chuqik
chuqikillka
chuqin
chuqipampa
chuqipampilla
chuqiquta
chuqitanka
chuqiwanka
chuqiyapu
chuqllu
chuqlluqucha
chuqu
chuqui
chuquibamba
chuquimamani
chuquiraga
chuqur
chuqus
chura
churan
churana
churanam
churarqan
churaspa
churasqa
churay
church
churchill
churchuku
churi
churikimpaya
churikuna
churin
churinkina
churinkuna
churinmi
churinsi
churkampa
churki
churu
churubamba
churulki
churup
churupampa
chururu
churuta
chuschi
chusi
chusku
chusquea
chusun
chuta
chutanu
chutu
chutuchupa
chuulu
chuwa
chuya
chuymaquta
ci
cia
ciangherotti
cicero
ciclista
ciclo
cid
cidade
cidob
ciego
ciegos
cielo
cien
ciencia
ciencias
cieneguilla
cienfuegos
cientifica
cientifico
cientificos
cierto
cieza
cigarra
cinchona
cincinnati
cinclodes
cinclus
cinco
cine
cinema
cinematograficas
cinnamomum
cinq
cinque
cinta
cipolla
cipriani
cipriano
circle
circo
circulo
circus
cirilo
ciro
cisne
cisneros
cita
citas
cite
cities
citizen
citta
city
ciudad
ciudadana
ciudadano
ciudades
ciudadeshermanas
ciutat
civica
civico
civil
civiles
cj
ck
ckochas
cl
clair
claire
clamor
clan
clandestinum
clapton
clara
clarence
claret
clarin
clarinet
clarinete
clark
clarke
claro
clase
clasica
clasico
clasicos
clasificacion
class
classic
classical
classics
classification
classis
claude
claudia
claudio
claus
clausen
clausura
clavatum
clave
clavecin
clavel
claver
clavijo
clayton
clemencia
clemens
clement
clemente
clementina
clements
cleome
cleopatra
clerc
clermont
clethra
cleveland
cliath
clic
click
clifford
climbers
climbing
climinti
clin
clinica
clinical
clint
clinton
cliquea
clitocybe
clive
clock
clodoaldo
clodomiro
clorinda
close
clotilde
cloud
club
clube
clubes
clubs
clusia
clyde
cm
cmb
cn
cnn
co
coahuila
coari
coast
coates
cobain
cobarde
cobb
cobra
cobre
coca
coccinea
coccinellidae
coccion
cocha
cochabamba
cochabambino
cochas
cochrane
cocina
cocker
cockerell
coco
cocoon
cocteau
code
codenpe
codesido
codeso
codigo
coe
coelho
coendou
coerulescens
cofan
coffee
cofre
cogn
cohen
coimbra
cojedes
cojo
col
cola
colaboracion
colan
colaptes
colca
colcha
cold
cole
coleccion
colectiva
colectivo
colegio
coleman
coleoptera
colera
coleridge
colette
colibri
colima
colimes
colin
colina
colinas
coliseo
coll
collaboration
collana
collantes
collao
collar
collected
collection
collections
college
colletia
collins
collo
colmenares
colo
colocolo
colombia
colombiana
colombo
colon
colonia
coloniakuna
colonial
color
colorada
colorado
colorados
colores
colors
coltrane
colubrina
columba
columbe
columbia
columbus
columna
columnas
colunga
com
comaina
comanche
comandante
comando
comas
comayagua
combate
combinados
combo
come
comedia
comedias
comedie
comedy
comencini
comendador
comentarios
comenzo
comer
comercial
comercio
comes
cometa
comets
comfauna
comic
comida
comienzo
coming
comision
comite
command
commandeur
comme
commentationes
commerce
committee
commodore
common
commons
communications
communis
community
como
comp
compacta
compacttoc
compadre
compadres
companero
companeros
compania
company
comparative
compartido
compas
compasion
compay
compendio
competicion
compilacion
compilaciones
compilation
complejo
complemento
completa
completas
complete
completes
completo
completos
complutense
composer
composicion
compositae
compositor
compostela
compound
compounds
compra
comprehensive
compromiso
compton
compuesta
compuesto
computer
comte
comun
comuna
comunal
comunicacion
comunicaciones
comunidad
comunidades
comunista
comunitaria
comunitario
con
conaie
conaiepa
conan
concacaf
concepcion
concepts
concern
concert
concerto
concertos
concha
conchita
conciencia
concierto
conciertos
concolor
concord
concordancias
concordia
concurso
concytec
condado
conde
condecoracion
condena
condenado
condesa
condicion
condor
condori
condoriri
conducido
conductor
conejo
conepatus
conexion
confederacion
confeniae
conference
conferencia
conferencias
confesion
confesiones
conflict
conflicto
conflicts
cong
conga
congo
congregacion
congres
congresista
congreso
congresos
congress
conibo
conjugacion
conjunto
conmebol
conmemoracion
conmigo
connecticut
connection
connery
connor
connors
conoce
conocida
conocidas
conocido
conocimiento
conocimientos
conquest
conquista
conquistador
conrad
consagrado
consejo
consejos
conservacion
conservation
consider
considerada
considered
conspiracion
constance
constante
constantin
constantino
constantinus
constanza
constitucion
constitucional
constrictor
construccion
construir
construyendo
consuelo
consulta
consultado
cont
contact
contacto
contadas
contae
contar
conte
contemporains
contemporanea
contemporaneo
contemporaneos
contenido
content
contento
contes
conti
contiene
contigo
continent
continental
continente
continua
continuo
conto
contos
contra
contrabass
contradiccion
contrahierbas
contralmirante
contrato
contrayerba
contre
contreras
contribucion
contribuciones
contribuir
contribute
contributions
control
contumaza
convenio
convento
conversacion
conversaciones
conversation
convertida
convictorio
convirtio
cook
cool
coolidge
cooper
cooperacion
coordinadora
coordinates
cop
copa
copacabana
copallin
copan
copas
cope
copello
copia
copiapo
copias
coplas
copper
coppola
coproduccion
coquimbo
cor
coracao
coragyps
coraje
coral
corales
corazon
corazones
corbacho
corbiere
corbucci
corbusier
corcuera
cordero
cordia
cordillera
cordoba
cordon
cordova
corea
coria
coriacea
corine
corinthians
cornejo
cornelio
cornelius
cornell
corner
corniculata
corno
cornualles
cornuta
cornwall
coro
coromoto
corona
coronado
coronavirus
coronel
corot
corpo
corporacion
corporation
corpus
corr
corral
corrales
corre
correa
correct
corregida
correo
correspondance
correspondencia
correspondiente
corrida
corrido
corrientes
corrupcion
corsario
corta
cortaderia
cortas
cortazar
corte
cortes
cortez
cortina
corto
cortometraje
cortos
corts
coruna
coruscans
cos
cosa
cosas
coscoroba
cose
cosecha
cosi
cosmos
cosmovision
cossio
costa
costumbres
cota
cotabambas
cotacachi
cotagaita
cotahuasi
cotalo
cote
cotler
coto
cotopaxi
cough
could
council
count
countries
country
county
courbet
course
court
courtney
coutinho
cov
coventry
covid
coward
cowboy
cowboys
cowper
cox
cp
cpl
cq
cr
crack
craig
crane
crash
crassifolium
crassum
crawford
crax
crazy
crc
creacion
creado
creador
create
created
creation
creative
credito
credo
creek
creer
cremona
creo
crepitans
crepusculo
crescentia
crespo
crew
cria
criada
crime
crimea
crimen
crimenes
criminal
criolla
criollo
criollos
crisis
crispus
cristal
cristian
cristiana
cristiani
cristianismo
cristiano
cristianos
cristina
cristo
cristobal
critica
criticas
critico
criticos
critique
croce
crocodilus
croix
cromwell
cronica
cronicas
cronologia
cronquist
crosby
cross
crossing
crotalus
croton
croup
crow
crowd
cruce
crucero
cruces
cruchot
cruel
cruise
crup
crus
crusoe
cruyff
cruz
cruzada
cruzado
cruzeiro
cry
crystal
cs
ct
cu
cuaderno
cuadernos
cuadra
cuadrado
cuadro
cuadros
cual
cuales
cualquier
cualquiera
cuando
cuanto
cuarenta
cuaron
cuarta
cuarteto
cuarto
cuatrec
cuatro
cuauhtemoc
cuba
cubana
cubano
cubilla
cubillas
cubo
cucaracha
cucha
cuchi
cuchillo
cucu
cuculiza
cucumis
cucurbita
cucuta
cueca
cuellar
cuello
cuenca
cuenta
cuentame
cuentas
cuento
cuentos
cuentucuna
cuerda
cuerdas
cuernavaca
cuerpo
cuerpos
cuervo
cuervos
cuesta
cuestion
cuestiones
cueto
cueva
cuevas
cuevo
cuidado
cuji
cukor
culcitium
culebra
culiacan
culo
culpa
culpable
culpaeus
cultivo
culto
cultura
cultural
culturales
culturas
culture
cultures
cumana
cumbe
cumbia
cumbre
cumbres
cumple
cumpleanos
cumulopuntia
cuna
cundadukuna
cundinamarca
cuneata
cuneifolius
cunha
cunicularia
cup
cupiso
cura
curahuara
curandero
curaray
curativos
cure
curicama
curie
curimatella
curimatidae
curitiba
current
currently
curricular
curse
curso
cursos
curtain
curtis
curtiz
curu
curva
cusco
cuscuta
cushing
cuspidata
cusua
cut
cutervo
cuvier
cuya
cuyabeno
cuyo
cuzco
cv
cw
cx
cy
cyanoptera
cyathea
cycadophyta
cyclanthera
cygnus
cyperaceae
cyperus
cyphomandra
cyrano
cysticercosis
cz
czech
cœur
d
d0
d1
d2
d3
d4
d5
d6
d7
d8
d9
da
daddy
dado
dae
dag
daher
dai
daily
dakar
dakota
dal
dalai
dale
dalea
dalence
dales
dalfinat
dali
dallas
dalton
dama
damaris
damas
damasco
damasku
damaso
dame
damian
damiano
dammert
damon
dan
danca
dance
dancing
dane
danger
dangerous
daniel
daniela
daniele
danilo
danny
danova
dans
danse
dansk
dansuyu
dante
danuwyu
danyelpa
danza
danzas
dao
daphne
dar
dara
dare
dari
darien
darijo
darin
dario
dark
darkness
darling
darmstadt
darrow
dartmouth
darwin
daryl
das
daste
dasyprocta
dasypus
data
database
date
datem
datos
datura
daughter
daule
davalos
dave
daves
david
davies
davila
davis
davor
davy
dawn
day
days
db
dc
dcampos
dd
ddr
de
dead
deadly
deal
dean
dear
death
debate
debbie
debe
deben
deber
deberia
debido
deborah
debra
debussy
debut
debye
dec
decada
decca
december
decide
decir
decisiones
declaracion
decreto
decumanus
dedicada
dedicado
dedo
dedos
dee
deep
defence
defensa
defense
defensor
definicion
definitiva
definitivamente
definitive
defoe
degas
degli
degree
degregori
dei
deja
dejame
dejan
dejo
del
delano
delaware
deleg
delfin
delfina
delft
delgado
delia
delibes
delicias
delito
delivered
delivery
dell
della
delle
delmer
delon
delphin
delta
deltoidea
dem
demas
demasiado
demetrio
demi
demille
demis
democracia
democracy
democratica
democratico
demokrata
demon
demonio
demos
dempsey
den
dendrocygna
dene
denegri
deng
denis
denise
denisse
denken
dennis
densidad
dentes
denticulata
dentro
denver
denzel
depardieu
departamental
departamento
departamentos
department
deployment
deporte
deportes
deportiva
deportivo
deportivos
deposito
der
deray
derbez
derbi
derecha
derecho
derechos
derek
dermott
derrama
derrotero
des
desa
desafio
desaguadero
desaparecido
desarrollo
descalzos
descargar
descartes
descentralizacion
desco
desconocida
desconocido
describisqanmanta
descripcion
descriptive
descrita
descubre
descubrimiento
descubrir
desde
desdicha
desencuentro
desengano
deseo
desert
desi
desiderio
desierto
design
desire
desmodium
desmond
desnuda
desnudo
despedida
despertar
despicable
despues
destacado
destinado
destino
destinos
destiny
destruccion
det
details
detalle
detective
detectives
detras
detroit
deuda
deus
deustua
deuteronomium
deutsch
deutsche
deutschen
deutsches
deutschland
deux
development
devi
devil
devon
dexter
deza
df
dfb
dg
dh
di
dia
diabla
diablada
diable
diablo
diablos
diagnosis
diagnostico
diagonal
dialect
dialecto
dialogo
dialogos
dialogue
dialogues
diamante
diamantes
diamond
diamonds
diana
diane
dianthus
diaries
diario
diarios
diary
dias
diavolo
diaz
dibos
dibujos
dic
diccionario
diccionarios
dice
dicen
dices
dicha
dicho
dichotoma
dichotomius
dichotomus
dichter
diciembre
dick
dickens
dickinson
dicotyledoneae
dictadura
dictionary
dictionnaire
did
dida
didactica
didactylus
didelphis
diderot
didi
didier
die
died
diego
diem
dientes
dies
diesel
dieter
dietrich
diez
diferencia
diferente
diferentes
different
diffusa
dificil
dificiles
difteria
difusion
digan
digas
digital
dignidad
digo
dij
dijo
dijon
dilhi
dilip
dimaggio
dimas
dimashq
dime
dimension
dimukrata
dimukratiku
dimukratiya
din
dina
dinastia
dine
dineib
dinero
ding
dinner
dino
dinomys
dintilhac
dio
diogo
dion
dionisio
dionne
dios
diosa
dioses
diosmanta
diospa
diospaj
diouf
dipartamintu
diploma
diplumatiku
diptera
dipterorum
diputacion
diputado
diputados
dir
dirac
dire
direcao
direccion
direct
directa
directe
directed
directo
director
directorio
direito
diretor
dirigida
diriktur
dirk
dirty
dis
disc
disco
discografia
discophon
discos
discours
discovery
discurso
discursos
discusion
discussion
disease
diseases
diseno
disimri
disimripi
disk
disku
diskugraphika
diskukuna
disney
displaystyle
disponible
disquisitiones
dissertation
distancia
distichlis
distincion
distinguidos
distributed
district
distrital
distrito
distritu
distritukuna
distritukunapas
distritum
distritumanta
distritun
distritunkuna
distritunmi
distritup
distritupi
distritupipas
distritupiqa
distritupiqapiqa
distrituqa
distrituwan
dit
diversas
diversidad
diversificacion
diversity
diversos
dividido
divina
divine
divino
divisio
division
divisor
divisyun
divorce
divorcio
diwanaqri
dizzy
dj
djokovic
dk
dl
dm
dmitri
dn
do
doble
dobson
doc
doce
docente
docteur
doctor
doctoral
doctrina
documentacion
documental
documentales
documentary
documento
documentos
documents
dodonaea
dodson
does
doesn
dog
dogma
dogs
doi
doing
dois
doktor
dolares
dolce
dolichophylla
doll
dollar
dolly
dolor
dolores
doltons
dom
domain
domani
domanovic
domecq
domenica
domenico
domestica
dominacion
dominga
domingo
domingos
dominguez
dominguin
dominicana
dominio
dominique
domino
don
dona
donald
donation
donayre
doncella
donde
done
donen
dones
dong
donna
donne
donoso
donovan
doo
doom
door
doors
dora
dorada
dorado
dordrecht
dore
doris
dormido
dormir
dorothea
dorothy
dorset
dortmund
dos
dosis
dossier
dou
double
douglas
dove
dover
down
downarrow
downey
downs
downtown
doyle
dp
dq
dr
dra
dracula
dracunculifolia
draft
drago
dragon
drake
drama
dramatica
drawida
dream
dreams
dresde
dresden
dressler
drew
drive
driver
drogba
druck
drucker
drug
drum
drummond
dryopteris
ds
dt
du
duarte
duas
dub
dublin
duby
duchovny
duck
ducretet
duda
dudas
due
duele
duelo
duena
duenas
duende
dueno
duerme
duetos
duisburg
duke
dulce
dulcis
dumas
dumingu
duminikana
duminikanu
dun
dunal
dunalia
dunantul
dunaway
duncan
duncker
dundee
dunst
duo
dupont
duque
duquesa
dur
dura
duradillo
duran
durand
durango
durante
durazno
durcal
durham
durmiente
duro
duroia
durston
dusicyon
dusseldorf
dust
dustin
duval
dv
dvd
dvorak
dw
dwarf
dwight
dx
dy
dyango
dyke
dylan
dyung
dyus
dyusmanta
dyusmi
dyuspa
dyuspi
dyusqa
dyusta
dyuswan
dz
e
e0
e1
e2
e3
e4
e5
e6
e7
e8
e9
ea
each
eagle
eagles
eamon
earl
early
earth
east
eastern
easton
eastwood
easy
eb
ebert
ebi
ebola
ebro
ec
eccles
echeandia
echenique
echevarria
echeverria
echinopsis
echo
eckersberg
eclipse
eco
ecole
ecologia
ecologica
ecological
economia
economic
economica
economicas
economico
economicos
economics
ecoturismo
ecrit
ecuador
ecuadorian
ecuarunari
ecuatoriana
ecuatoriano
ecuestre
ed
edad
eddie
eddy
edelmira
eden
edgar
edgard
edgardo
edge
edhasa
edic
edicion
ediciones
edificio
edigsa
edilberto
edimburgo
edinburgh
edinter
edison
edit
edita
editada
editado
editar
edited
edith
editing
edition
editions
editor
editora
editores
editorial
editors
edits
edmond
edmonton
edmund
edmundo
edmunso
edna
edouard
eds
edu
eduard
eduardo
educacao
educacion
education
educational
educativa
educativas
educatives
educativo
edulis
edvard
edward
edwards
edwin
ee
eesti
ef
efe
efectivamente
efecto
effect
efrain
eg
egipto
ego
egretta
eguiguren
eguren
egusquiza
eh
ei
eib
eielson
eiffel
eijkman
eileen
ein
einaudi
eindhoven
eine
einer
eines
einfuhrung
einstein
eira
eisenhower
eixample
ej
ejecutiva
ejecutivo
ejemplares
ejemplo
ejercito
ejja
ek
ekman
el
elaboracion
eladio
elaine
elaphoglossum
elaphus
elata
elba
elche
elcomercio
eleanor
elecciones
election
electoral
electra
electric
electrical
electronic
electronica
electronics
elefante
elegans
elegia
elegias
elegido
element
elemental
elemento
elementos
elements
elena
eleodoro
elephanti
elespuru
elguera
elia
elias
elio
eliodoro
eliot
elisa
elisabeth
eliseo
eliza
elizabeth
elizalde
elizondo
ella
ellas
elle
ellen
ellington
elliot
elliott
ellis
ello
ellos
elmer
elogio
eloisa
eloy
els
elsa
else
elsevier
elsie
elton
elva
elvia
elvira
elvis
em
emancipacion
emanuel
emanuele
embajador
embajadores
embargo
embera
embrujo
emece
emergence
emergencia
emergency
emerson
emi
emil
emile
emilia
emiliano
emilio
emily
emir
emision
emisiones
emisora
emite
emitia
emitir
emma
emmanuel
emmer
emmons
emmy
emociones
empalme
emperador
emperatriz
emperor
empezar
empezo
empieza
empire
empresa
empresas
emre
en
ena
enabled
enamorada
enamorado
enanitos
encantada
encanto
encarnacion
encarta
encendidas
enciclopedia
enciclopediadelecuador
enciclopedico
encinas
enciso
encrucijada
encuentran
encuentro
encuentros
encyclopedia
encyclopedie
encyclopædia
end
endangered
endara
endo
ene
enema
enemiga
enemigo
enemigos
enemy
energia
energy
enero
enfant
enfants
enfermedad
enfermedades
enfermo
enfrente
engagement
engagements
engano
engel
engels
engineering
engineers
engl
england
englische
englischer
english
enigma
enjoybolivia
enjoyperu
enlace
enlaces
enlai
enlared
enmascarado
enough
enregistrat
enric
enrico
enrique
enriqueta
enriquez
ensayo
ensayos
ensemble
ensenanza
ensifera
entender
entendimiento
entero
entertainment
entomology
entonces
entrada
entre
entrega
entremes
entretiens
entrevista
entrevistas
entry
environment
environmental
enzo
eo
ep
ephedra
ephesuyuqkunapaq
epic
epidemia
epidemiology
epidendrum
epilogo
epinefrina
episode
episodio
episodios
epistola
epistolario
epoca
epoch
epopeya
eq
eqha
equipo
equisetum
equus
er
era
eran
erase
erasmo
erasmus
ercilla
erdogan
erecta
eres
erfurt
eric
ericaceae
erich
erico
erik
erika
eris
ernest
ernestina
ernesto
ernst
erodium
eros
erosus
errante
errol
error
errores
erwin
erythrina
es
esa
esas
escajadillo
escala
escaladores
escalante
escale
escalera
escallonia
escalona
escandalo
escape
escarabajo
escena
escenas
escenografia
esclava
esclavitud
esclavo
escobar
escobedo
escocia
escogida
escogidas
escogidos
escolar
escondida
escondido
escribir
escrita
escrito
escritor
escritoras
escritores
escritos
escritura
escriva
escuadron
escudero
escudo
escuela
escuelas
escuintla
esculenta
escultura
ese
esencia
esencial
esenciales
eseqyelpa
esfera
esfinge
eskimo
esmeralda
esmeraldas
eso
esopo
esos
esp
espacial
espacio
espada
espaldas
espana
espanol
espanola
espanolas
espanoles
espasa
especial
especiales
especialista
especialmente
especie
especies
espectacular
espectaculo
espectros
espejismo
espejo
espera
esperando
esperanto
esperanza
esperanzas
espia
espinar
espindola
espino
espinosa
espinoza
espiritu
espiritual
espiritualidad
espn
espndeportes
esposa
esprit
esquina
esquivel
esrap
essai
essay
essays
essen
essential
essere
est
esta
estaba
estacion
estaciones
estadio
estadistica
estadisticas
estadistico
estado
estados
estadounidense
estadounidenses
estadual
estaing
estamos
estampas
estan
estanislao
estar
estas
estate
estatua
este
esteban
estefan
estela
estelar
esteli
estenos
estenssoro
ester
estero
esterpa
estetica
esther
estilo
esto
estocolmo
estos
estoy
estrada
estrategia
estrella
estrellas
estremera
estrena
estrenada
estrenado
estreno
estreptococica
estreptococos
estridor
estrofa
estructura
estuardo
estudiante
estudiantes
estudio
estudios
estuve
et
etapa
etc
etcheverry
ete
eten
eterna
eternamente
eternidad
eterno
eternos
ethan
ethel
ethnic
ethnobotany
ethnologue
etica
etienne
etimologia
etnias
etnobotanica
etnobotanico
etnofarmacologico
etnografia
etnoictiologia
eto
ettore
etudes
eu
eua
eucalyptus
eudeba
eugene
eugenia
eugenie
eugenio
eulalia
eulalio
eulogio
eunectes
eupatorium
euphorbia
euphorbiaceae
eur
euridice
euro
europa
europe
europea
european
europeo
eusebio
eustaquio
euterpe
ev
eva
evaluacion
evaluation
evanan
evangelina
evangelio
evangelion
evangelios
evangelizacion
evans
evaristo
evasion
eve
evelyn
even
evenhuis
evening
eventos
events
ever
everett
evert
everton
every
everybody
everyone
everything
evidence
evidencia
evil
evita
evo
evolucion
evolution
evora
ew
ewan
ex
exaltacion
examen
example
excelencia
excelsa
excursion
executive
exeter
exile
exilio
existe
existen
existencia
existing
existir
exito
exitos
exodo
exodus
expansa
expedicion
expedition
experience
experiencia
experiencias
experimentacion
experimental
exploracion
exploration
exposicion
exposition
expresion
expreso
express
extasis
extensa
extension
extensions
exteriores
extinct
extra
extracto
extrana
extranjera
extranjero
extrano
extremadura
extreme
exupery
ey
eye
eyes
ez
ezra
f
f0
f1
f2
f3
f4
f5
f6
f7
f8
f9
fa
faba
fabaceae
fabian
fabiana
fabien
fabio
fabre
fabrica
fabricante
fabula
fabulas
fabulosos
face
facebook
faces
facil
fact
facto
factor
factores
factory
facts
facultad
facultadkuna
facultadnin
facundo
fagot
fagundes
fagus
fair
fairy
faith
fajardo
falcao
falcata
falco
falcon
falconi
faldas
fall
falla
fallaci
fallecimiento
fallecio
falling
falls
false
falso
falta
fam
fama
fame
familia
familiar
familiares
familias
families
famille
family
famine
famous
fan
fancy
fang
fangio
fania
fanning
fanny
fans
fantasia
fantasias
fantasma
fantasmas
fantastic
fantastico
fantasy
faq
far
faraday
faraon
farewell
farfan
faria
farina
faringitis
faro
farrar
farro
farrow
farsa
fasciata
fasciatum
fasciatus
fase
fast
fat
fatal
fate
father
fatima
fats
faulkner
fauna
faunapas
faunistica
faust
fausta
faustino
fausto
faustyna
favio
favor
favorite
favorito
faye
fb
fc
fce
fd
fe
fear
features
featuring
feb
febrero
febres
february
febus
fecab
fecha
fechaacceso
federacion
federal
federation
federer
federico
fee
feedback
feel
feeling
feigenbaum
feine
feira
felice
felicia
feliciano
felicidad
felicita
felipa
felipe
felis
feliu
felix
feliz
fellini
fellow
female
femenina
femenino
femme
femmes
femoralis
fenerbahce
feng
fenice
fenix
fenocin
fenomeno
fer
ferdinand
ferdinando
ferenc
feria
fermi
fermin
fern
fernan
fernanda
fernandez
fernandina
fernandini
fernando
ferox
ferrand
ferrara
ferrari
ferre
ferreira
ferrer
ferrera
ferreri
ferrero
ferreyrae
ferrier
ferro
ferrocarril
ferruginea
festa
festejos
festival
festuca
feu
fever
few
ff
fg
fh
fi
fiallo
fiallos
fibiger
ficcion
ficha
fichas
fici
fiction
ficus
fidel
fidelio
fides
fiebre
fiel
field
fieldiana
fields
fiera
fieras
fierro
fiesta
fiestas
fifa
fifpro
fifth
figaro
fight
fighter
fighting
figlio
figo
figueres
figueroa
figura
figuras
figures
fijacion
filadelfia
file
files
filho
filial
filippo
fille
film
filmada
filmografia
films
filo
filologia
filomena
filosofia
filosofica
filosofico
filosofo
fils
fin
final
finales
finalista
finalmente
find
finds
fine
fines
finger
finn
finsen
fiore
fire
firenze
firma
firme
firminy
first
firth
fiscal
fischer
fisher
fisica
fito
fitzcarrald
fitzgerald
five
fix
fj
fk
fl
flack
flaco
flag
flagstad
flame
flamenco
flamengo
flammarion
flash
flat
flaubert
flauta
flauto
flavescens
flavicauda
flavio
flavirostris
flecha
fleischer
fleming
flesh
fleurs
flexuosa
flight
floagri
flojo
flood
flor
flora
florae
florence
florencia
florencio
florentina
florentino
flores
florez
florian
floriano
florianopolis
floribundum
florida
floristica
flourensia
flower
flowers
floyd
fluminense
flute
fluviatilis
flying
flynn
fm
fn
fo
focus
fois
foldats
folie
folk
folklore
folleto
follies
follow
following
fomento
fonda
fondo
fonseca
font
fontaine
fontana
food
fool
foot
football
footballdatabase
for
forastero
forbes
force
ford
foreign
foreman
forest
forestal
forestales
foresteria
forests
forever
forget
forlan
form
forma
formacion
forman
formar
formas
format
formato
forme
former
formosa
formula
foro
forrest
forsythe
fort
fortaleza
fortuna
fortunato
fortune
forum
forward
foster
fot
foto
fotografia
fotografias
fotografo
fotokuna
fotos
foucault
found
foundation
foundations
four
fourier
fourth
fox
fp
fq
fr
fra
frac
fracaso
fraccion
fragil
fragmento
fragmentos
fraile
frailes
framework
fran
franca
francais
francaise
france
frances
francesa
francesca
francesco
francescoli
francfort
francia
franciolini
francis
francisca
franciscano
francisci
francisco
francisku
franck
franco
francois
francoise
frank
frankenstein
frankfurt
frankie
franklin
frankreich
franquemont
fransis
fransisku
fransiya
fransya
franz
fraser
fraseri
frases
frauen
fray
fraysse
frecuencia
fred
freddie
freddy
fredemo
frederic
frederick
fredericton
fredy
free
freedom
freeman
freestyle
freiburg
freiheit
frenata
french
frente
fresco
freud
freundt
freyre
fria
frias
frida
friday
friedrich
friend
friends
friesland
frio
fritz
from
frondizi
front
frontera
fronteras
fronterizo
frost
frozen
fructosa
fruko
fruktusa
frutescens
fruto
frutos
frutti
fs
ft
fu
fuchs
fuchsia
fue
fuego
fuencarral
fuente
fuentes
fuera
fueron
fuerte
fuerza
fuerzas
fuga
fugitive
fugitivo
fui
fuji
fujimori
fujimorismo
fukuda
fukuoka
fulgencio
fulica
fuliginosa
full
fuller
fulvipes
fun
funakoshi
funcion
function
fund
fundacion
fundamentos
fundesnap
funebre
funeral
funes
fungi
funk
funny
fur
furcraea
furia
furias
furio
furnarius
fury
fusca
fuscicollis
fussballdaten
fuster
futbol
futbolista
futebol
future
futuro
fuzhou
fv
fw
fx
fy
fz
g
g0
g1
g2
g3
g4
g5
g6
g7
g8
g9
ga
gable
gables
gabor
gaborone
gabriel
gabriela
gaby
gaelic
gaetano
gagarin
gaitan
gal
gala
galan
galapagos
galarreta
galarza
galatayuqkunapaq
galatea
galaxia
galdos
galeano
galega
galeras
galeria
galicia
galilee
galilei
galileo
galindo
galisya
gallagher
gallardo
gallega
gallego
gallegos
gallen
gallery
galligu
gallimard
gallina
gallinula
gallium
gallo
gallos
gallururu
galo
galvan
galvani
galvao
galveston
galvez
gama
gamal
gamarra
gamboa
gambya
game
games
gamma
gamochaeta
gana
ganado
ganador
ganas
gandhi
gang
gangster
gano
ganoza
gansu
gao
gaona
garagay
garay
garbancillo
garbo
garces
garci
garcia
garcilaso
gard
gardel
garden
gardens
gardner
garetteer
garfield
garfunkel
garganta
garibaldi
garifuna
garland
garman
garmendia
garner
garnier
garras
garrett
garrido
gary
garza
gas
gasa
gasipaes
gaspar
gasperi
gasset
gassman
gassols
gaston
gastropoda
gastrotheca
gata
gate
gates
gatica
gato
gatos
gaucho
gaudio
gauguin
gaulle
gaultheria
gave
gavilan
gaviota
gaviria
gavras
gay
gaye
gaynor
gazetteer
gb
gc
gd
gdansk
ge
geboren
gedeon
gedichte
gedisa
gees
gelderland
gelehrter
gemayel
gemelas
gemelo
gemelos
gemma
gen
genaro
gendarme
gene
genealogia
genera
generacion
general
generale
generales
generation
generis
genero
genesis
genet
genetica
geneve
genio
genipa
genistelloides
genius
gennaro
genova
genovesa
gente
gentiana
gentianaceae
gentianella
gentleman
genus
geo
geochelone
geoff
geoffrensis
geoffrey
geog
geografia
geografica
geografico
geographic
geographical
geologica
geological
geometria
geonoma
georg
george
georges
georgetown
georgi
georgia
georgica
georgina
georgios
gerais
geral
gerald
geraldine
geraldo
geranium
geranoaetus
gerard
gerardm
gerardo
gerd
gerente
gerhard
germain
germaine
german
germanica
germanium
germanu
germany
germplasm
gerona
geronimi
geronimo
gerrit
gershwin
gertrudis
gervasi
gesi
gessle
gestion
gesu
get
getamap
gets
getting
getulio
gf
gg
gh
ghana
ghil
ghost
ghosts
gi
giacomo
giambattista
giampiero
gian
gianfranco
gianni
giant
gibb
gibson
gichin
gieco
gif
gift
gigante
gigantea
gigantes
giganteum
giganteus
gigartina
gigas
gijon
gil
gilbert
gilberto
giles
gilespi
gill
gillan
gilles
gillespie
gimenez
gina
ginebra
ginger
gioacchino
giorgio
giorgos
giorni
giovanna
giovanni
gippert
gira
giraffa
girault
girl
girls
giro
giron
girona
gisbert
giscard
gisela
gisella
gitana
gitano
giudizio
giulia
giuliano
giulio
giuseppe
give
given
giza
gj
gk
gl
glabra
glabratus
gladis
gladys
glama
glandula
glandulosa
glasgow
glass
glasses
glaube
glauca
gleichenia
glen
glenn
gli
glinka
global
globe
globo
globulus
glomerata
glomeratus
gloria
glory
glosario
gluck
glucosa
glukusa
gm
gmelin
gn
gnaphalium
go
goal
gob
gobernacion
gobernador
gobierno
gobiernonapo
gobiernos
god
goddard
godfather
godfrey
godoy
gods
goes
goethe
gogh
goiania
goias
going
gol
gold
golda
goldberg
golden
golding
goldman
goleador
goles
golfo
golgi
golkuna
golondrina
golpe
gomes
gomez
gomphrena
goncalo
goncalves
gone
gong
gongora
gonna
gonzaga
gonzales
gonzalez
gonzalo
gonzanama
good
goodbye
goofy
google
gora
gordo
gordon
gore
gorgor
gorilla
gorky
gorrion
gorriti
gosta
got
gota
gothic
gott
gottfried
gottingen
gotze
gouazoubira
goulart
gould
gov
government
governor
goya
goyeneche
gozar
gp
gq
gr
grabacion
grabaciones
grabado
grabados
grabar
grace
graceannae
gracia
gracian
gracias
graciela
gracilis
grado
grados
graduyuq
graf
grafica
grafico
graham
gral
grallaria
grama
gramatica
grammar
grammy
gramsci
gran
granada
granadinas
granados
grand
granda
grande
grandes
grandez
grandi
grandiceps
grandiflora
grandifolia
granma
grant
granta
graphic
grass
grasso
grata
gratissima
grau
grave
graveolens
gray
graz
graziani
great
greatest
grecia
greco
gredos
greek
green
greene
greenwich
greenwood
greg
gregor
gregoria
gregorio
gregorius
gregory
gremio
grenoble
greta
grey
grieg
griego
griffith
grigu
grigukunap
griguryanu
griguryu
grijalva
grillo
grimm
grin
grinada
grindelia
gripe
gris
griseb
griselda
grisya
grisyamanta
grisyap
grisyapa
grisyapi
grito
grohmann
grondona
groningen
groove
gropius
grosso
ground
group
groups
grove
große
grupo
gryphus
gs
gt
gu
guadalajara
guadalquivir
guadalupe
guaguanco
guaido
guainia
guaira
guajira
gualberto
gualinga
guaman
guamote
guan
guanacaste
guanajuato
guanajuatocapital
guangdong
guangzhou
guanicoe
guano
guanolema
guanujo
guapo
guarani
guarany
guarda
guardia
guardian
guardiola
guarico
guarneri
guarulhos
guatemala
guaviare
guayaba
guayaquil
guayas
guayasamin
gubirnadur
gubirnasyun
guemes
gueppi
guerisseurs
guerra
guerre
guerrero
guevara
guggenheim
guia
guibovich
guide
guidelines
guido
guild
guillaume
guillen
guillermina
guillermo
guillot
guilmain
guimaraes
guinardo
guinea
guinness
guion
guionista
guitar
guitarra
guitarras
guitarrero
guitarrista
guizar
guizhou
gullit
gulliver
gullstrand
gulu
gun
gunckel
gunnar
guns
gunter
gunther
guo
gurila
gurion
gusta
gustaf
gustan
gustaria
gustav
gustave
gustavo
gusto
gutenberg
gutierrez
guy
guyana
guys
guzman
gv
gw
gx
gy
gyeongsang
gynoxys
gynt
gyorgy
gz
h
h0
h1
h2
h3
h4
h5
h6
h7
h8
h9
ha
haag
haarlem
haas
haase
hab
habakukpa
habana
haber
habia
habitacion
habitantes
habla
hablan
hablar
hablemos
habria
habs
hace
hacer
hach
hacha
hacia
hacienda
haciendo
hackman
had
hadji
haenkeana
hafez
hagman
hagsater
hahn
hai
haile
hainan
hair
haiti
haji
hak
haka
hakan
hal
hala
halcon
halen
haley
half
haliaetus
halifax
halil
halim
hall
halla
hallch
halle
hallka
hallmay
halloween
hallp
hallu
hallyday
hamachi
hamanq
hamawt
hambre
hamburg
hamburger
hamburgo
hamid
hamilton
hamlet
hammer
hamp
hampaway
hampel
hampi
hampikamayuq
hampikamayuqmi
hampikuna
hampikuyninqa
hampina
hampinapaq
hampiq
hampita
hampiy
hampshire
hamun
hamuq
hamuspa
hamusqa
hamut
han
hana
hanachiwa
hanan
hananpi
hanaq
hanaqmanta
hanaqmi
hanaqpi
hancco
hancha
hancock
hand
handbook
handel
handle
hang
hangul
hangzhou
hanja
hank
hanka
hankapi
hanks
hanllalli
hanna
hannah
hannover
hanoi
hanpi
hanqu
hans
hansen
hansuyu
hansuyupa
hao
hap
hapallan
hapirinalla
happen
happened
happening
happiness
happy
hapu
hapun
haq
haqaru
haqay
hara
harata
harawi
harawikuna
harawikunata
harawin
harawina
harawiq
harawiqmi
harcourt
hard
hardcore
harding
hardy
hare
hari
harina
harinosa
hariri
hark
harlem
harlow
harm
harmony
harms
harold
harp
harpa
harper
harpia
harpyja
harriet
harris
harrison
harry
hart
hartford
hartley
hartman
harvard
harvey
has
hasan
hasebe
hash
hasp
hassan
hasta
hastings
hat
hathaway
hatoyama
hatun
hatunkaray
hatunmayu
hatunmi
hatunnanu
hatunpila
hatunqucha
hatunqulla
hatunqullpa
hatuntaki
hatunyaku
haumea
haunted
haute
havana
have
havel
haven
havilland
havre
hawa
hawaii
hawaman
hawamanta
hawan
hawanmanta
hawanpi
hawanqa
hawansuyo
hawapi
hawaqucha
hawaqullay
hawari
hawarikuna
hawas
hawayi
hawaykawsay
hawayuq
hawcha
hawina
hawk
hawke
hawkes
hawking
hawkins
hawks
hay
haya
hayakawa
hayaq
hayaqi
haydee
haydn
hayes
hayk
haylli
hayni
hayniq
hayniyuq
hayri
hayt
haytaq
haytay
hayu
hayunmi
hayunqa
hayupa
hayworth
hb
hc
hcpcanar
hcpl
hcpo
hd
he
head
health
heart
hearts
heat
heath
heathcliff
heaven
heavy
hebe
hebei
hebrew
hechizo
hecho
hechos
hector
hedyosmum
hee
hefei
hegel
heidegger
heidelberg
heidenstam
heidi
heights
heilongjiang
heinemann
heinrich
heinz
helada
helado
held
helder
helechos
helen
helena
helene
helgen
heliotropium
hell
hello
helmut
help
helsinki
helveola
hembra
hemingway
hemiodus
henan
henares
henderson
hendrik
hendrix
heng
henri
henrietta
henriette
henrik
henrique
henriquez
henry
hepatitis
hepburn
her
heraldo
heras
heraud
herb
herbert
herbie
hercule
hercules
here
herederos
heredia
herencia
herida
herido
hering
heritage
herman
hermana
hermanadas
hermanamiento
hermanas
hermann
hermano
hermanos
hermelinda
hermenegildo
herminia
hermosa
hermosillo
hermosura
hernan
hernandez
hernando
hero
heroe
heroes
herpailurus
herr
herrera
herrerae
herrero
hertogenbosch
hertz
herzegovina
herzog
hesperomeles
hesse
hesshaimer
heston
heterophylla
heurelho
hevea
hevia
hewson
hey
heyer
heysen
hf
hg
hh
hi
hich
hidalgo
hidetoshi
hielo
hieracium
hierarchy
hierba
hieron
hierro
higado
higgins
high
highlands
highsmith
higuera
higuita
hija
hijas
hijo
hijos
hik
hikama
hiki
hilaria
hilario
hilarion
hilda
hildebrando
hildebrandt
hildegard
hill
hillary
hillenburg
hilli
hillisapa
hills
hillurina
him
himalaya
himantopus
himno
himself
hina
hinachu
hinalla
hinallataq
hinallataqmi
hinallataqsi
hinam
hinapas
hinapi
hinapis
hinaptinmi
hinaq
hinaqa
hinaqsi
hinaqtin
hinas
hinaspa
hinaspam
hinaspapas
hinaspataq
hinata
hinatam
hinatapas
hinataq
hinataqsi
hinchu
hindemith
hindi
hindustani
hiniral
hinostroza
hip
hipash
hiperion
hipolito
hippeastrum
hippocamelus
hiq
hiqin
hiqitipiqi
hiram
hirculus
hirishhanka
hirka
hiroshima
hiroyuki
hirsiquwina
hirsuta
hirtella
his
hisp
hispanic
hispanica
hispano
hispanoamericana
hispanoamericano
hispavox
hispida
hist
histoire
histoires
historia
historial
historias
historica
historical
historico
historicos
history
hisus
hit
hitchcock
hitler
hitlerpa
hits
hiwaru
hizo
hj
hk
hl
hm
hn
ho
hoffman
hoffmann
hogar
hohere
hoi
hoja
hojas
hokkaido
hola
holanda
holandes
hold
holden
hole
holgado
holguin
holiday
holland
hollanda
hollande
hollin
hollow
holly
hollywood
holman
holmes
holstein
holt
holzmann
hombre
hombres
home
homem
homenaje
homer
homero
homme
hommes
homo
homonima
homonimo
honda
hondo
honduras
honey
honeymoon
hong
hongos
honolulu
honor
honorable
honorario
honorato
honore
honores
honorifico
honorio
honoris
honra
hood
hook
hooker
hookeriana
hoover
hop
hope
hopi
hopital
hopkins
hora
horace
horacio
horario
horas
horatio
horca
hordeum
horizon
horizons
horizonte
horizontes
hormiga
horn
horna
horrible
horrida
horror
horse
horta
hortaleza
hortelano
hortensia
horton
hospital
hospitalet
hossein
hot
hotel
hotelrooms
houghton
hound
hour
hours
house
housing
houssay
houston
how
howard
however
hoy
hoyo
hoyos
hp
hq
hqs
hr
hradec
hs
hsien
ht
htm
html
http
httpdocs
https
hu
hua
huaca
huachi
huacho
huailas
huallaga
huallancaperu
huaman
huamanga
huamani
huana
huanca
huancabamba
huancane
huancavelica
huancayo
huang
huanta
huanuco
huaral
huaras
huaraz
huari
huarochiri
huasaga
huascacocha
huascaran
huata
huaura
huaycan
huaylas
huayllamarca
huayna
huayno
hubb
hubei
huber
hubert
huch
hucha
huchankunamanta
huchayuq
huchayuqrayku
huchha
huchusuma
huchuy
huddersfield
hudson
hudyu
hudyukunap
huehuetenango
huellas
huelva
huerta
huerto
hueso
huesos
huevo
hugh
hughes
hugo
hui
huila
huilca
huile
huillca
huitoto
huk
hukchakuq
hukchan
hukkaq
hukkuna
hukkunapas
hukkunatapas
hukkunataq
huklla
hukllachaspas
hukllachasqa
hukllachu
hukllam
hukllaylla
hukmanpa
huknin
hukniqi
hukniyuq
hukpa
hukta
huktaq
hul
hulkan
hull
hullaqa
hullaqapi
hulyanu
hulyu
hulyupi
huma
humala
human
humana
humanas
humanidad
humanidades
humanismo
humano
humanos
humans
humantay
humanus
humb
humber
humberto
humboldt
humboldti
hume
humilis
hummels
humo
humor
hump
humphrey
hun
hunan
hunaq
hunchback
hundred
hung
hungria
hunin
hunt
hunter
hunu
hunucha
hunukunapaq
hunum
hunumanta
hunun
hununa
hununakusqa
hununakuy
hununakuynin
hununakuypa
hununpa
hunup
hunupi
hunusqa
hunusqam
hunyu
hunyupi
huperzia
huq
hur
hura
huracan
huraw
hurdanya
hurquna
hurqunapaq
hurqunchik
hurqunku
hurquspa
hurquykuspa
hurtado
hurutmi
hurwat
hurwatsuyu
husband
husi
husiy
husk
husqa
hussein
huston
hutk
hutsannaq
hutton
huwa
huwakin
huwan
huwanhuy
huwanpa
huyhua
hv
hw
hwv
hx
hy
hyde
hydrochaeris
hymenaea
hypochaeris
hypochoeris
hypostomus
hyun
hz
i
i0
i1
i2
i3
i4
i5
i6
i7
i8
i9
ia
ian
iau
ib
ibanez
ibarra
ibdb
iberia
iberica
iberico
ibero
iberoamericana
iberoamericano
ibg
ibis
ibn
ibrahim
ibrahimovic
ibsen
ic
ica
icaic
ice
ich
icha
ichana
ichapas
ichaq
ichaqa
icharati
ichasqa
ichataq
iche
ichhu
ichhuna
ichi
ichigkat
ichik
ichilla
ichilu
ichiq
ichiro
ichki
ichkiqucha
ichmaqucha
ichu
ichuna
ichupampa
ichuqa
iconografia
icterus
id
ida
idaho
idea
ideal
ideas
identidad
ideologia
idioma
idiomas
ido
idolo
idolos
ie
iem
iempsa
ieoh
iep
if
ifea
iffhs
ig
ige
iglesia
iglesias
ign
ignacia
ignacio
ignaz
ignescens
igor
igual
iguana
iguanaea
iguaran
ih
ihiptu
ihiptupa
ii
iii
iinei
ij
ik
ika
ikan
iki
ikina
ikitus
iklisiyastis
ikllu
iklluriy
ikran
ikrana
ikraq
ikraqkuna
ikraqmi
ikraqnin
ikraqpas
ikrarqan
ikrasqa
ikrasqan
ikray
ikstrimadura
iksu
ikun
ikuna
ikunayuqmi
ikuy
ikwadur
ikwadurpa
ikwadurpi
ikwaduryanu
ikwayur
ikwayurpa
il
ilan
ilanda
ilandapa
ilandapi
ildefonso
ile
ilex
ili
ilich
iliktrumaqnitiku
iliktrun
iliktrunta
ililaya
ill
illa
illam
illampu
illanchay
illanchaykuq
illap
illapa
illapachaw
illapachawwan
illapapayana
illaq
illawanka
illawi
illay
illaykuna
illaykunawan
illaymanta
illaymi
illayta
illi
illia
illichu
illik
illimani
illimsa
illimsawan
illimsayaku
illimsayaq
illinisa
illinois
illiwa
illka
illkayuq
illla
illtu
illu
illunchu
illuqucha
illustrations
illwa
ilu
iluli
iluman
ilusion
ilustraciones
ilustrada
ilustrado
ilustre
ilustres
ilv
ilya
ilyich
im
ima
image
imagen
imagenes
images
imaginaire
imaginario
imaka
imakunam
imakunapas
imakunata
imakunatapas
imam
imamanpas
imamantachus
imamantapas
iman
imanaw
imanta
imanuw
imapaq
imapas
imappas
imarayku
imaraykuchus
imasa
imasmari
imata
imatachus
imatapas
imataq
imawan
imay
imayay
imayaykuna
imayaykunam
imayaykunap
imayaykunata
imayaymanta
imayaymi
imayayninta
imayaypa
imayayqa
imayka
imaykana
imaykanam
imaykapaq
imaykata
imaymana
imaymanta
imayna
imaynatachus
imaypis
imayuq
imbabura
imdb
imi
imina
immanuel
immunology
imp
impa
impact
impacto
impakucha
impapura
imperdonable
imperial
imperialismo
imperio
importancia
important
importante
importantes
imposible
impostor
impr
imprenta
impresiones
impreso
improve
imre
in
ina
inacabada
inampari
inao
inapaq
inapari
inasyu
inc
inca
incaica
incaico
incana
incarum
incas
inchasqa
inchik
inchis
inchu
inclan
includes
including
incluida
incluido
incluso
incluye
incluyen
incluyendo
inconclusa
inconcluso
incubator
indanza
indepa
independence
independencia
independent
independiente
independientes
index
indexmundi
india
indian
indiana
indianapolis
indiano
indians
indias
indica
indicacion
indicadores
indice
indices
indie
indigena
indigenal
indigenas
indigenous
indigofera
indihina
indihinakunap
indihinakunata
indiku
indillama
indio
indios
indipindinsya
indira
individual
indomable
indonesia
indu
indunisya
indunisyapa
industria
industrial
indya
indyapa
indyapi
indyu
ine
inec
ined
inedita
ineditas
inedito
ineditos
inegi
inei
ines
inesperado
infancia
infanta
infante
infantil
infantiles
infeccion
infecciones
infect
infectasqa
infections
infectious
infernal
inferno
infiel
infierno
infinito
inflorescence
influencia
influenza
info
infobox
infocusco
infogob
infopesa
informacion
informatica
information
informativo
informe
infty
ing
inga
ingenieria
ingeniero
ingenio
inglaterra
ingles
inglesa
inglish
ingmar
ingrid
ingvar
inhiniru
ini
inia
iniap
inicha
inicial
iniciativa
inicio
inide
iniq
inirida
iniru
inirupi
iniy
iniykama
iniykamaqa
iniymanta
iniymi
iniypa
iniypas
iniypi
iniypiqa
iniyta
inka
inkachaka
inkakuna
inkakunap
inkakunaqa
inkallajta
inkallaqta
inkamach
inkan
inkanan
inkap
inkapirka
inkapirqa
inkaraqay
inkarri
inkas
inkatour
inkawasi
inkawi
inki
inkil
inkill
inkinakusqa
inkinakuynin
inkinakuyninpim
inkiq
inkisisyun
inkisiwi
inkisqa
inkisqam
inkuminda
inlatirra
inlatirraniyuq
inlatirrapa
inlatirrapi
inlis
inlish
inlishpi
inlishsimi
inlisya
inlisyakuna
inlisyam
inlisyan
inlisyanin
inlisyap
inlisyapi
inlisyata
inmaculada
inmortal
inmortales
inmunologia
inn
innaq
inner
innerhofer
innocence
innovacion
inocencio
inocente
inocentes
inolvidable
inolvidables
inonu
inorganic
inpi
input
inqa
inqu
inquietud
inquiries
inquisicion
inrena
insecta
insectos
inside
insignis
insiklikakuna
insipida
inspector
instead
institucion
instituciones
institut
institute
institution
instituto
instruccion
instrument
instrumental
instrumento
instrumentos
int
inta
integracion
integrado
integral
integrated
integrifolia
intelectual
inteligencia
inter
interactions
interactive
interamericano
intercontinental
intercultural
interes
interface
interior
interlingua
intermezzo
internacional
internacionales
international
internet
internetpi
interpreta
interpretacion
interpretado
interpretes
intertoto
intervencion
interview
interwicket
interwiki
intestino
inti
intibuca
intichaw
intichawwan
intika
intillama
intima
intimanta
intimo
intimpa
intin
intip
intipa
intiqa
intita
intiwatana
into
intriga
introduccion
introducing
introduction
intrusa
inu
inuktitut
inuku
inukup
inuma
inumanta
inupura
inuwa
inuyt
invasion
invencion
inventario
inverness
investigacion
investigaciones
invierno
invisible
invitacion
invitado
inwan
io
ioannes
ion
iowa
ip
ipa
ipachina
ipachisqa
ipampa
ipayanchik
ipayanku
iphigenie
ipi
ipina
ipisqa
ipistula
ipomoea
iq
iqa
iqakupi
iqchi
iqiptu
iqta
iqtaku
iqtan
iqtana
iquique
iquitos
iqullu
iqun
iquq
iquqm
iquy
ir
ira
iracundos
iran
irana
iranpi
iranu
iraq
iraqi
iraw
iray
irayuq
irc
ireland
irene
iri
iriarte
iriartea
irigoyen
irina
iris
irish
irisqa
iritriya
iriy
irlanda
irma
iron
irons
irpa
irqa
irqan
iru
irukisa
irumanta
irupana
iruphut
iruru
irus
iruta
iruyuq
irvine
irving
irwin
is
isa
isaac
isabel
isabela
isabella
isabelle
isachan
isachaq
isaias
isaiyap
isanka
isaq
isaqa
isbn
iscailarjanco
isella
ishiji
ishinka
ishkay
ishkayaq
ishkaykaq
ishpinku
isi
isiboro
isidoro
isidro
isini
isipi
iskandariya
iskanwaya
iskara
iskay
iskaychay
iskaykaq
iskaylla
iskaymanta
iskaymi
iskaymuyu
iskaynin
iskaynintin
iskaynintinmi
iskayniqin
iskayniyuq
iskillani
isklaw
isku
iskuchaka
iskultur
iskuma
iskupitani
iskusya
isla
islam
islampu
island
islands
islandya
islas
islaw
islay
isle
isluga
isluwakya
isluwinya
isma
ismael
ismail
ismene
ismet
ismu
ismuchiq
ismuchispa
ismuruku
ismusqa
ismuy
iso
isoetes
isola
ispa
ispana
ispanamanta
ispanap
ispanapa
ispanapi
ispanul
ispanulkuna
ispanulkunap
ispanulkunaqa
ispanulkunata
isparaw
ispay
ispi
ispillu
ispiritu
ispiritup
isqa
isqan
isqukuna
isqun
isqunniyuq
israel
israeli
israyil
israyilpa
issn
issue
issues
ist
istambul
istanbul
istiki
istiwis
istrilla
istu
istukulmu
istunya
iswa
it
ita
italia
italian
italiana
italiano
italianu
italica
italo
italy
italya
italyanu
italyap
italyapa
italyapas
italyapi
itam
itaq
itemid
itenez
ithiyupya
iti
itier
itikuna
itikunapi
itim
itinerants
itipi
itipiqa
itis
its
itu
ituchi
iturbide
iturralde
iturregui
ituwata
itv
iu
iucn
iucnredlist
iupac
iv
ivan
ivanhoe
ivanov
ivanovich
ivcher
ives
ivo
iw
iwa
iwan
iwana
iwanhiliku
iwanhilista
iwanku
iwi
iwicha
iwriyu
iwriyukunapaq
iwru
iwrukupa
iwrupa
iwrupamanta
iwrupamantam
iwrupap
iwrupapi
iwrupapipas
iwrupiyu
ix
ixiamas
iy
iya
iyar
iyara
iyobpa
iyu
iyun
iyuq
iz
izq
izquierda
izquierdo
j
j0
j1
j2
j3
j4
j5
j6
j7
j8
j9
ja
jabbar
jaber
jacana
jacaranda
jach
jacha
jachcha
jacinta
jacinto
jack
jackie
jackson
jacob
jacobita
jacobo
jacome
jacopo
jacq
jacquacu
jacqueline
jacques
jade
jae
jaen
jafar
jagger
jaguar
jahuira
jaime
jaimes
jair
jak
jakarta
jake
jakob
jalapa
jalca
jalisco
jallawaya
jama
jamaica
jamaicensis
jamais
jamas
james
jamesi
jamie
jamil
jan
jana
jane
janeiro
janes
janet
janis
janka
jankho
janko
janos
janq
janssens
january
jap
japan
japanese
japon
japones
japonesa
jaqhi
jaqi
jara
jaramijo
jaramillo
jarana
jarani
jardin
jardines
jargon
jaroslav
jaruma
jarupata
jasivia
jason
jaspers
jasraj
jatun
jauari
jauja
jaula
jauregg
jauregui
javier
jawa
jawaharlal
jawi
jawira
jaya
jayra
jayu
jayupaya
jazz
jb
jc
jd
je
jean
jeanette
jeanine
jeanne
jeanneret
jeannette
jefe
jeff
jefferson
jeffery
jeffrey
jekyll
jelskii
jema
jenkins
jennifer
jennings
jenny
jens
jeolla
jeremiyap
jeremy
jerez
jerome
jeronimo
jerry
jersey
jerusalem
jerusalen
jesse
jessica
jessie
jesu
jesucristo
jesucristoc
jesuita
jesuitas
jesuiticas
jesus
jesuspa
jet
jeune
jewish
jf
jg
jh
jhdt
jhon
ji
jiang
jiangsu
jiangxi
jigoro
jila
jilawi
jilguero
jilin
jill
jim
jima
jimbe
jimbo
jimena
jimenez
jimi
jimmy
jin
jina
jinallataq
jinan
jinete
jintao
jipijapa
jiqhalla
jirka
jisk
jitpa
jiwasanaka
jj
jk
jl
jm
jn
jne
jo
joachim
joan
joanna
joanne
joao
joaquim
joaquin
joaquina
job
jobim
jockey
joe
joel
joelpa
joey
johan
johann
johanna
johannes
john
johnny
johns
johnson
johnston
johor
joint
joinville
jolly
jon
jonas
jonaspa
jonathan
jones
jong
jonsson
jonssonligan
jord
jordan
jordi
jorge
jorgenson
jornada
jornal
jorobado
jorullensis
jose
josef
josefa
josefina
josep
joseph
josephine
josh
joshua
josipovic
jost
josuap
josue
jota
joule
journal
journalist
journey
jours
joven
jovenes
joy
joya
joyce
jozef
jozsef
jp
jpg
jpl
jq
jr
js
jt
ju
juan
juana
juanes
juanita
juanito
juarez
jubata
juch
judas
judaspa
judge
judicial
judith
judo
judy
juego
juegos
jueluo
juez
jugador
jugadores
jugando
juglans
juguete
juguetes
juicio
jujan
jujuy
juk
jul
julca
jules
juli
julia
juliaca
julian
juliana
julie
julien
juliet
julieta
juliette
juliflora
julio
julissa
julius
julu
july
jumbilla
jump
jun
juncal
junco
juncus
june
jung
jungla
jungle
junin
junio
junior
juniors
junt
junta
junto
juntos
junu
jupiter
juqhu
jurado
juramento
jurgen
juri
juridica
jurijuri
jurinuqa
jurisprudencia
juro
jurqara
jusk
juss
jussieui
just
justice
justicia
justification
justin
justina
justine
justiniano
justo
justus
jutiapa
juticalpa
jututu
juvenil
juventud
juventus
jv
jw
jx
jy
jz
k
k0
k1
k2
k3
k4
k5
k6
k7
k8
k9
ka
kaa
kabul
kacha
kachachi
kachan
kacharikuna
kacharpari
kacharpaya
kacharqan
kachasqa
kachaykunku
kachi
kachichaq
kachim
kachimayu
kachin
kachiqucha
kachisapa
kachkan
kachkanchu
kachkanku
kachkaptin
kachkaptinqa
kachkaq
kachkaqraq
kachkaspa
kachkayninmi
kachu
kachun
kachunchu
kachura
kafka
kageneckia
kahlo
kai
kaiser
kaka
kakash
kakaw
kakawa
kakun
kakuq
kalalit
kalihun
kaliman
kalina
kalindaryu
kalindaryukama
kalindaryukamaqa
kalindaryukamataq
kalindaryum
kalindaryupi
kalindaryuyuq
kalipuy
kalistu
kallampa
kallaw
kallawaya
kalli
kallpa
kallpachaq
kallpan
kallpanakuy
kallpanay
kallpanayuq
kallpanchaq
kallpanchay
kallpanchaynin
kallpaq
kallpasapa
kallpawan
kallpay
kalsyu
kaluma
kalwaryu
kalyu
kam
kama
kamachi
kamachikuna
kamachikuy
kamachin
kamachina
kamachinakuy
kamachinamanta
kamachiq
kamachiqkuna
kamachiqnin
kamachirqan
kamachisqa
kamachisqan
kamachiy
kamachiykuna
kamachiynin
kamachiyninpi
kamachiypa
kamachiyta
kamalich
kamamoto
kaman
kamana
kamapchu
kamaq
kamaqmi
kamaqnin
kamaqninmi
kamaqninsi
kamarikuspa
kamariq
kamariqninmi
kamariqninsi
kamarirqan
kamarirqanku
kamarispa
kamarisqa
kamarisqan
kamariy
kamarqa
kamarqan
kamasqa
kamasqan
kamataki
kamay
kamaypaq
kamaypas
kamaypi
kamayta
kamayuq
kamayuqmi
kamayuqnin
kamayuqninman
kamayuqninmi
kamayuqpas
kamayuqsi
kambuya
kamillu
kamiri
kamirun
kampa
kampala
kampana
kampanilla
kampionatu
kampiun
kampiunatu
kampiunatukuna
kampiunkuna
kampiuonatu
kampiyunninmi
kamri
kamu
kamuncui
kan
kana
kanada
kanadapi
kanagawa
kanamu
kanan
kananchikpaq
kanankaq
kananmi
kananpaq
kananqa
kananta
kanapa
kanapaq
kanar
kanari
kanaris
kanarya
kanaspa
kanata
kanatapa
kanay
kanayuq
kancha
kanchan
kanchaqi
kanchar
kanchas
kanchayllu
kanchik
kanchu
kandilariya
kandilarya
kane
kanema
kang
kani
kanichana
kanila
kanina
kaninam
kaninanmi
kaniti
kanitipi
kankallu
kankana
kankawa
kanki
kanku
kankuman
kanllaqucha
kanman
kanmanchu
kanmi
kannada
kano
kanon
kanqa
kanqaku
kanqanta
kansai
kansas
kansillir
kansillirnin
kansillirninmi
kant
kanta
kantarawi
kantaray
kanto
kantun
kantunkuna
kantunmi
kantunpa
kantunpi
kantunpiqa
kantunwan
kanun
kanuwa
kapachika
kapak
kapanawa
kapchiq
kapchiy
kapchiymi
kapchiynin
kapchiypa
kapchiypi
kapchiytam
kapena
kaphiy
kapinuta
kapitalista
kapiwara
kapka
kaplina
kapoor
kaptin
kaptinmi
kaptinpas
kaptinqa
kaptinsi
kapuli
kapun
kapunakuq
kapunku
kapuq
kapurata
kapurqan
kapuyninkunayuqmi
kaq
kaqchikel
kaqhina
kaqkama
kaqkuna
kaqkunam
kaqkunaman
kaqkunamanta
kaqkunapi
kaqkunaqa
kaqkunata
kaqkunawan
kaqlla
kaqllam
kaqman
kaqmanta
kaqmi
kaqnin
kaqninkuna
kaqninqa
kaqninta
kaqniyuq
kaqpa
kaqpaq
kaqpas
kaqpata
kaqpi
kaqqa
kaqrayku
kaqsili
kaqta
kaqtapas
kaqtaq
kaqwan
kaqwata
kar
kara
karachi
karagounis
karakas
karal
karan
karanka
karanki
karapunku
karate
karch
karchi
kardinal
kareem
karel
karen
karenina
kari
karim
karin
karina
kariwa
karka
karl
karlsruhe
karlus
karma
karman
karmin
karnawal
karpa
karpov
karqa
karqan
karqanku
karqanmi
karqaptin
karqaspa
karru
karta
kartul
kartulsuyu
kartulsuyupa
karu
karuchu
karum
karunchi
kasarakusqa
kasarakusqam
kasarakuy
kasha
kashamarka
kashamarkapi
kashamarkilla
kashan
kashapampa
kashibo
kashinawa
kashki
kashqa
kasiri
kaska
kaskawil
kasma
kasmasqa
kaspa
kaspam
kaspanmi
kaspapas
kaspaqa
kaspas
kaspi
kasqa
kasqallantaq
kasqan
kasqankuta
kasqanmanta
kasqanta
kassa
kassel
kast
kasta
kastana
kastila
kastilla
kastillanu
kastillap
kastillasimi
kastillu
katalan
katalina
katalunya
katalunyapi
katamayu
katantika
katari
katarip
kate
katharina
katharine
katherine
kathidral
kathleen
kathuliku
katia
katidral
katie
katiguriya
katiguriyam
katisismu
katowice
katsun
katuliku
katy
katz
kawallu
kawallupi
kawalluta
kawalluwan
kawasaki
kaway
kawaynin
kawaypa
kawina
kawineno
kawitu
kawllaymi
kawpaq
kawpaqpas
kawpay
kawra
kawri
kawsa
kawsachikuy
kawsachkan
kawsachkanku
kawsakun
kawsan
kawsana
kawsanakuq
kawsananchikpaq
kawsanankupaq
kawsananpaq
kawsanapaq
kawsanin
kawsanku
kawsaq
kawsaqkuna
kawsaqkunam
kawsaqkunamanta
kawsaqkunap
kawsaqkunapaq
kawsaqkunaqa
kawsaqkunata
kawsaqpa
kawsarqan
kawsaspa
kawsasqa
kawsasqamanta
kawsasqan
kawsasqanmanta
kawsay
kawsaykuq
kawsaykuqkunam
kawsaykuqkunap
kawsaykuqkunata
kawsaykuska
kawsaynin
kawsayninmanta
kawsayninmi
kawsayninpa
kawsayninpi
kawsayninta
kawsayniyuq
kawsaypa
kawsaypaq
kawsaypi
kawsaypura
kawsayta
kawul
kay
kayampi
kayan
kayapas
kayapo
kaychaw
kaychawnam
kayhina
kayish
kaykan
kaykuna
kaykunaqa
kaykunata
kaykunatam
kaykunawan
kaylla
kaylluma
kayman
kaymancha
kaymanta
kaymantam
kaymi
kaynaku
kaynaw
kaynin
kayninkuna
kayninmanta
kayninmi
kayninpa
kayninpaq
kayninta
kayniyuq
kaypa
kaypaq
kaypas
kaypi
kaypim
kaypinam
kaypipas
kaypiqa
kayqa
kayrayku
kaysi
kayta
kaytam
kaytaq
kaytaqa
kaytas
kayuwawa
kaywa
kaywan
kazan
kb
kc
kd
ke
kean
keane
keating
kechwa
kedah
keep
keighley
keiko
keita
keith
kele
keller
kelley
kelly
kemal
kempff
ken
kenji
kennedy
kenneth
kenny
kent
kentucky
kepler
keres
kerr
kevin
kew
key
keyboard
keynes
kf
kg
kh
khaka
khalid
khallka
khallwa
khan
khana
khani
khankiq
khankiqmi
khanna
khara
khari
kharthli
khartum
kharwinchu
khasa
khata
khiki
khilla
khillay
khillaychuki
khillaymanta
khillaynan
khiniya
khipa
khipu
khirkinchu
khocha
khomeini
khota
khrisimasi
khuchi
khuchinilla
khunu
khunuqullu
khunurana
khuru
khurupampa
khuska
khuyaq
khuyay
ki
kichariy
kichasqa
kichay
kichka
kichkankuna
kichkasapa
kichwa
kichwapi
kichwarimay
kichwas
kichwata
kid
kids
kiel
kigali
kikihana
kikillan
kikin
kikinpa
kiko
kiku
kikuyu
kila
kilampu
kilanka
kilish
kill
killa
killachaw
killachawwan
killakama
killakunapim
killamanta
killapa
killapampa
killapi
killapiqa
killaqa
killaqullu
killawat
killawaya
killer
killikacha
killka
killki
killku
killmu
killu
kilmer
kilpuntu
kilta
kilugramu
kilumitru
kilutuwa
kim
kima
kimsa
kimsachata
kimsak
kimsakaq
kimsaluma
kimsamanta
kimsan
kimsantin
kimsayuq
kina
kind
king
kingdom
kings
kingston
kinhuwa
kinray
kinrayninmi
kinrayninpi
kinrayninpiqa
kinraypi
kinsa
kinshasa
kintu
kinu
kinwa
kinwara
kinya
kipa
kipling
kipru
kipu
kipus
kiraly
kirani
kirche
kirchner
kiribati
kirilitsa
kirk
kirkisuyu
kirsten
kiru
kiruni
kiruyuq
kisa
kisapincha
kisillu
kisilluqucha
kiska
kiskachay
kisma
kismapi
kiss
kisu
kisuq
kiswar
kiswara
kita
kitara
kitarahu
kitarata
kiti
kitikuna
kitikunap
kitikunapi
kitilli
kitillikuna
kitillikunapi
kitillim
kitillimanta
kitillinmi
kitillip
kitillipas
kitillipi
kitillipipas
kitillipiqa
kitilliqa
kitim
kitimanta
kitinmi
kitip
kitipi
kitipipas
kitipiqa
kitiqa
kitu
kitupi
kiwi
kiwicha
kiwuta
kiya
kiyaqa
kiyiw
kj
kjarkas
kk
kkollu
kkota
kl
klara
klasiku
klaus
klavier
klavierkonzert
klawil
klein
kleine
kline
klinsmann
klisa
klose
klotzsch
klub
klubkuna
klubmi
kluivert
km
kn
knapp
knight
knopfler
know
knowledge
known
knows
knox
knw
ko
kobayashi
kobe
koch
kocsis
kodama
koeman
koepckeae
kofi
kohl
kohler
kohn
koizumi
kolbe
kolkata
kollpa
koln
kolosoyuqkunapaq
komanso
konex
kong
kongo
konigsberg
konrad
konstantin
konstantinos
konzert
korea
korean
korianu
korsakov
kossel
kostka
kota
kowalska
kowii
kp
kq
kr
kraenzl
kraj
krakow
kralove
kramer
krameria
kraus
krause
kreis
kri
krisniqas
kristin
kristiyanu
kristiyanukuna
kristiyanukunapaq
kristofferson
kristu
kristup
kristuwal
krogh
krr
kruger
krum
krunikamanta
krus
krusiru
kruspi
krzysztof
ks
ksh
ksstilla
kt
ku
kuala
kuba
kubala
kubanu
kubitschek
kubrick
kucha
kuchi
kuchipillan
kuchu
kuchuna
kuchunawanpas
kuchunpi
kuchuspa
kuchuy
kuczynski
kuelap
kuentukuna
kuhn
kuk
kuka
kukama
kukana
kukani
kukapampa
kukapata
kukata
kukimpu
kukuli
kukuna
kukupin
kulantru
kulina
kuliok
kulis
kullash
kulli
kullkitu
kullku
kullu
kulta
kultura
kulumbya
kulumbyap
kulumbyapa
kulumbyapi
kulumbyapipas
kulumpi
kulunya
kulunyan
kulunyankuna
kumamoto
kumanta
kumar
kumarapa
kumayna
kumbinsyun
kumishin
kumpa
kumpi
kumpusitur
kumpusiturpas
kumu
kumunismu
kumunista
kumuniyaa
kun
kuna
kunan
kunankama
kunankamapas
kunanpacha
kunanqa
kunanraq
kunanraqmi
kunantaq
kunaq
kunas
kunata
kuncha
kunchuku
kundadukuna
kundadupi
kunfidirasqa
kung
kungu
kunishige
kunka
kunkakunap
kunkapaq
kunkapaqmi
kunkawa
kunkawaki
kunkistadur
kunkush
kunkuwana
kunming
kunrisista
kunrisu
kunrisun
kunrisunman
kunrisunpi
kunrisupi
kunsipsyun
kunsthistorisches
kunsulam
kuntamana
kunth
kunti
kuntiman
kuntinpi
kuntipampa
kuntisuyus
kuntrawasu
kuntur
kunturi
kunturillu
kunturiri
kunturkanki
kunturkina
kunturkunka
kunturpununa
kunturquta
kunturtawa
kunturwasi
kuntze
kunu
kuo
kuomintang
kupa
kupakuna
kupam
kupi
kura
kuraka
kurakan
kurakanin
kurakanmi
kuraq
kuraray
kurawara
kurdi
kuri
kurikinka
kurinthuyuqkunapaq
kuritampu
kuriya
kurku
kurkumanta
kurkun
kurkunpa
kurkunpi
kurkunta
kurkup
kurkupi
kurkuta
kurkuyuq
kurosawa
kurregimyentukuna
kurt
kuru
kurukuna
kurum
kuruna
kurunawirus
kurunku
kururay
kurwa
kuryu
kusa
kusapata
kusaq
kusasqa
kushillu
kusi
kusipata
kusituy
kusituymi
kusituytam
kuska
kuskalla
kuskan
kuskanchaku
kuskanchik
kuskanniyuq
kuski
kusma
kustarica
kustarika
kustarikapa
kusupampa
kuta
kutaisi
kutakachi
kutana
kutapampa
kutasqa
kutawasi
kuti
kutim
kutimpu
kutimurqan
kutimuspa
kutimusqan
kutin
kutina
kutipay
kutipayaq
kutiqa
kutirqan
kutita
kutitaq
kutu
kutum
kutupaksi
kuwa
kuwait
kuwiha
kuy
kuyakuy
kuyawinu
kuyay
kuyaypa
kuycha
kuykucha
kuyu
kuyuchina
kuyuchinapaq
kuyuchinayuq
kuyuchisqa
kuyuna
kuyuq
kuyuy
kuyuylla
kuyuymi
kv
kw
kwa
kwambiri
kwame
kwok
kx
ky
kyi
kyo
kyoto
kyushu
kz
københavn
l
l0
l1
l2
l3
l4
l5
l6
l7
l8
l9
la
labarthe
labem
laberinto
labios
labor
laboratory
labrador
lac
laca
lachay
lachesis
lachiwa
lactea
ladd
ladislao
lado
ladri
ladron
ladrones
lady
lafayette
lagarto
lagartu
lagenaria
lagidium
lago
lagopus
lagos
lagostomus
lagothricha
lagothrix
lagotricha
lagrima
lagrimas
laguna
lagunas
lagunillas
lahm
lai
laila
laime
laja
lajas
lak
lakachu
lakaya
lake
lakers
laki
lakota
lalla
lalo
lam
lama
lamar
lamarque
lamas
lamay
lamb
lambayeque
lambert
lambrama
lamento
lamiaceae
laminas
lamista
lampa
lampalliqi
lampard
lamud
lan
lana
lanatus
lancaster
lanceolata
lancet
land
landa
landau
landazuri
landeo
landon
landschaftsverband
lane
lang
lange
language
languages
langue
lani
lanka
lanki
lankilayu
lansing
lantana
lanthanu
lanza
lanzado
lanzamiento
lanzo
lao
laos
laozi
lapa
lapansi
lapis
lappa
laq
laqaya
laqha
laqri
laqu
laqukuna
lara
laram
laranha
laranqa
laraw
larco
laredo
lares
larga
large
largest
largo
largometraje
lari
laridae
lariqaqa
laris
larjanco
larqanku
larrain
larranaga
larrea
larriva
larry
lars
larumantataq
larunpi
larus
las
laserie
laso
lasso
last
lastenia
lasunayuq
laszlo
lat
lata
latakunka
late
lateral
latifolia
latigo
latin
latina
latino
latinoamerica
latinoamericana
latinoamericano
latinoamericanos
lau
laudrup
laura
lauraceae
laureano
laurel
laureles
lauren
laurence
laurens
laurent
laurie
lauro
lausanne
lautner
lava
lavalle
lavalleja
laveran
lavoe
lavoisier
law
lawa
lawqa
lawrence
lawriqucha
lay
laya
layakuna
layakunatam
layam
layme
layqa
layu
lazaro
lazarte
lazo
lazon
lb
lc
ld
le
lea
leader
leaders
league
leal
leandro
leao
lear
learn
learning
least
leave
leavitt
leben
lecaro
lecca
leccion
lecciones
lech
leche
lechleri
lectores
lectura
lectures
led
leda
ledesma
ledgard
lee
leeds
leer
leeuwarden
left
legacy
legado
legal
legend
legende
legends
legion
legislacion
legislativa
legrand
legua
leguia
leguminosae
lehm
lei
leiden
leif
leigh
leila
leipzig
leiria
leite
lejano
lejanos
lejos
lelystad
lema
lemmon
lempira
lemus
lena
lengua
lenguaje
lenguas
lengva
lenin
leningrad
lennon
lento
leo
leon
leona
leonard
leonardo
leoncavallo
leoncio
leone
leonel
leonela
leones
leoni
leonid
leonidas
leonor
leonora
leopardus
leopold
leopoldo
lepidium
lepidophylla
lepidophyllum
leporinus
leptodactylus
lequerica
lerida
lerner
leroy
les
leslie
less
lessing
lessonia
lessons
lester
let
leticia
letra
letran
letras
letter
letters
lettre
lettres
leung
lev
levano
levant
levanto
level
levin
levy
lew
lewis
lex
lexico
lexis
lexus
ley
leyenda
leyendas
leyes
leymebamba
lezama
lf
lfp
lg
lh
li
liam
liang
liaoning
lib
libanu
libanupa
liber
liberacion
liberal
liberation
liberec
liberia
libertad
libertador
libertadores
liberty
libirya
library
libre
libreria
libres
libreto
libri
libro
libros
libya
lic
licencia
licenciado
liceo
lichi
lider
lidia
lie
liebe
liechtenstein
lied
liedes
lienzo
lies
life
liga
ligas
ligera
light
ligue
ligularis
likankawur
like
liki
likichu
likuma
lila
lili
lilia
lilian
liliana
lille
lillian
lilloi
lily
lima
limamanta
limap
limapas
limapi
limaq
limaqpa
limaqpi
limatampu
limburg
limena
limitada
limite
limited
limites
limon
limpyupunku
limun
limunqucha
lin
lina
linares
lince
lincha
lincoln
linda
lindbergh
linde
lindl
lindo
lindsay
line
linea
lineal
linear
lineas
lineatum
lineker
linera
lines
ling
lingan
lingua
linguistic
linguistica
linguistico
linguistics
link
links
linli
linnaeus
linne
lino
linsi
linsur
linti
linu
linus
linux
linz
lion
lionel
lions
lios
lipez
lipis
lippia
lippincott
liq
liqiliqi
liqli
liquid
lira
lirica
lirondo
lirqay
liryu
lisa
lisandro
lisboa
lisieux
lispector
list
lista
listado
listas
liste
listed
listen
listritu
listritum
listritun
listritunmi
listritup
listritupi
listritupiqa
lists
liszt
lit
lita
literaria
literarias
literario
literarios
literary
literatura
literaturas
literature
litoral
litterature
little
litunya
lituwa
liu
liv
live
liverpool
lives
livia
living
livingston
livorno
livre
livro
liwi
liwitaka
liwru
liwruchaq
liwruchasqa
liwrukuna
liwrukunapi
liwrukunata
liwrukunatam
liwrum
liwrumanta
liwrupi
liwtu
liyun
liza
lizalde
lizarazu
lizarraga
lizarzaburu
lj
ljubljana
lk
ll
lla
llakhun
llaki
llakillkukuna
llakipampa
llakta
llaktapi
llakusim
llakwash
llallagua
llallawa
llallispas
llam
llama
llamada
llamado
llamakuna
llaman
llamas
llamerada
llamillin
llamk
llamkarqa
llamkaymanaq
llamp
llampu
llanchina
llanchiy
llanganates
llanganati
llank
llanka
llankanuku
llano
llanos
llanqha
llant
llanta
llantan
llanto
llantu
llanu
llanura
llapa
llapan
llaptap
llaptapi
llaptayuq
llaqa
llaqi
llaqta
llaqtacha
llaqtacham
llaqtachapi
llaqtachapiqa
llaqtachaqa
llaqtahunu
llaqtakuna
llaqtakunam
llaqtakunaman
llaqtakunamanta
llaqtakunap
llaqtakunapaq
llaqtakunapas
llaqtakunapi
llaqtakunapim
llaqtakunapipas
llaqtakunaqa
llaqtakunas
llaqtakunata
llaqtakunataq
llaqtam
llaqtaman
llaqtamanmi
llaqtamanta
llaqtamantaqa
llaqtami
llaqtan
llaqtaniq
llaqtankuna
llaqtanmanta
llaqtanmi
llaqtanpi
llaqtanqa
llaqtansi
llaqtap
llaqtapa
llaqtapaq
llaqtapas
llaqtapata
llaqtapi
llaqtapim
llaqtapipas
llaqtapipi
llaqtapiqa
llaqtapis
llaqtapitaq
llaqtapiwan
llaqtapmi
llaqtapura
llaqtapusay
llaqtaq
llaqtaqa
llaqtas
llaqtata
llaqtataqa
llaqtatas
llaqtawan
llaqtaypa
llaqtayup
llaqtayuq
llaqwa
llasaq
llasaqmi
llat
llata
llatapi
llave
llawi
llawlli
llawq
llawsa
llawt
llawturqu
llaxtachan
llega
llegada
llegado
llegar
llego
lleida
llena
lleras
lleva
llevame
llevo
lligalo
llik
llika
llikakuna
llikam
llikan
llikap
llikapi
llikapiqa
llikilliki
llikuha
llimanta
llimphi
llimphim
llimphiq
llimphiqmi
llimphiqpas
llimphisqa
llimphiy
llimphiyuq
llimphiyuqmi
lliphi
llipipipiq
llipt
lliqti
lliw
lliwa
lliwmanta
lliwpaq
llobregat
llona
llora
lloran
llorar
llorente
llosa
lloyd
llu
lluchk
llueve
lluis
llulla
llullu
llullucha
llump
llumpa
llumpam
llumpapi
llumpawan
lluna
llunk
llunku
llup
lluq
lluqi
lluqlla
lluqsimun
lluqsin
lluqsiq
lluqsirqan
lluqsiy
lluqu
llut
lluta
lluvia
lluxi
lluxita
lm
ln
lo
loa
loasa
loayza
lobo
lobos
loca
local
localisation
localised
localising
locas
location
loch
loco
locos
locura
locuras
log
logan
logica
logo
logos
logro
logrono
loi
loire
lois
loja
lola
lolita
lollobrigida
lolo
loma
lomas
lombardi
lombardia
lombardo
lomo
lon
lonchocarpus
london
londono
londres
lone
lonely
long
longest
longicaudis
longifolia
longitud
longmans
lonse
lontra
look
loong
lope
lopes
lopez
lophonetta
lora
lorca
lord
loren
lorena
lorentz
lorenza
lorenzo
lores
loreto
loricariidae
loro
lorraine
los
losada
lost
lothar
lou
louis
louisa
louise
louisiana
lounge
lourdes
louvre
love
loved
lovely
lover
lovers
loves
loving
low
lowell
lower
loy
loynaz
loyola
lozada
lozano
lp
lq
lr
ls
lt
ltd
lu
lua
luanda
lublin
luc
luca
lucanas
lucas
lucca
lucero
luces
lucha
luchino
lucho
lucia
luciana
luciano
lucida
lucie
lucien
lucila
lucille
lucio
luck
lucky
lucrecia
lucy
ludovic
ludovico
ludwig
ludz
luego
lugar
lugares
lugo
lugones
lui
luigi
luis
luisa
luisao
luise
luiseno
luiz
lujan
luka
lukana
lukanamarka
lukas
lukaspa
lukma
lukri
luksimbur
luksur
lukumpa
lukurmata
lula
lulu
luma
lumen
lumiere
luminoso
lumpaki
lumpur
lumu
lumucha
luna
lunar
lune
lunes
lunp
luo
lupaka
lupe
lupinus
lupita
lupulu
lupuna
luq
luqma
luque
lurasnu
luri
lurigancho
lurin
lurinsu
luriqucha
luritu
luriway
luru
lurumayu
lusaka
lusiya
lussac
lusuriaqa
lutea
luther
lutierqa
luto
lutra
luwichu
luwis
lux
luxemburg
luya
luychu
luyu
luz
luzmila
luzuriaga
lv
lw
lx
ly
lycalopex
lycee
lycioides
lycopersicon
lycopodium
lydia
lynch
lynn
lynne
lyon
lz
løkke
m
m0
m1
m2
m3
m4
m5
m6
m7
m8
m9
ma
maastricht
maathai
mabel
mac
maca
macao
macario
macas
macau
macbeth
macbr
macbride
macchi
macdonald
macedo
macedonio
maceio
macera
mach
macha
machaca
machacamarca
machachi
machado
machala
machalilla
machaqa
machaqamarka
machaway
machay
mache
machin
machina
machine
machiqinqa
macho
machu
machuca
macia
macias
mackay
mackenzie
mackintosh
maclaine
maclean
macleod
macmillan
macracantha
macrocarpa
macrophylla
macularius
maculata
maculatum
maculosa
mad
madagascar
madagaskar
madalengoitia
madama
madame
maddie
made
madeira
madeleine
mademoiselle
madera
madero
madidi
madison
madiyan
madona
madonna
madrastra
madre
madres
madrid
madridpi
madrigal
madriz
madueno
mae
maestra
maestro
maestros
maeterlinck
mafia
magalhaes
magallanes
magaly
magazine
magda
magdalena
magdeburg
magellanica
maggie
magia
magic
magica
magico
magiques
magister
magisterial
magisteriales
magna
magnani
magni
magnificent
magno
magnoliopsida
magnum
magnus
mago
magos
maguina
magyar
magyarsuyu
maha
mahal
mahathir
mahdi
mahis
mahler
mahmud
mahon
mahuad
mai
maia
maiden
mail
main
maine
maino
mainz
maior
maipurano
mais
maison
maita
maiz
maj
majeur
major
mak
maka
makara
makas
makati
make
makemake
makes
maki
makidunya
making
makipura
makisapa
makiyasiq
makiyasiqmi
makiyasiy
makiyuq
makoto
makru
makusani
mal
mala
malaga
malaria
malasia
malasya
malawi
malayalam
malcolm
maldicion
maldita
maldito
malditos
maldonado
male
mali
malla
mallarme
malle
mallki
mallkim
mallku
mallma
mallorca
mallqu
malo
malone
malpartida
malquerida
malta
maluma
malva
malwa
malyakhiyap
mam
mama
mamacha
mamallakta
mamallaktata
mamallaqta
mamallaqtakuna
mamallaqtakunap
mamallaqtakunapi
mamallaqtam
mamallaqtamanta
mamallaqtap
mamallaqtapi
mamallaqtapura
mamallaqtaqa
mamallaqtayuq
mamamanta
maman
mamani
mamanpa
mamanqa
mamantaq
mamaqa
mamaqucha
mamay
mamayuq
mambo
mame
mamiferos
mamma
mammal
mammalia
mamuriy
man
mana
manabi
manachu
manage
management
managing
managua
manakuq
manakuy
manam
manan
manana
mananam
mananas
manantial
manapas
manaqa
manaqkunawan
manaraq
manaraqchu
manaraqmi
manaraqtsu
manas
manaspa
manataq
manataqmi
manataqsi
manati
manawa
manawi
manayupa
mancha
manchamantan
manchay
manchester
manchu
manchunka
mancini
manco
mancora
manda
mandan
mandarin
mandato
mandela
mando
mandonii
mane
manejo
manera
manet
manga
manglares
mango
manhattan
mani
mania
manifiesto
manila
maniphistu
maniqui
manitoba
manizales
manka
mankiewicz
manku
mankumarka
mann
mannen
mannheim
manning
manny
mano
manolete
manolito
manolo
manos
manqu
manqus
manrique
mansana
mansion
mansirichi
manso
mansoa
manta
mantapas
mantaro
mantaru
mantikilla
mantilla
manto
manu
manual
manually
manuel
manuela
manuelcha
manuripi
manuscrito
many
manya
manyanpi
manyayuq
manzana
manzanares
manzanero
manzo
mao
map
mapa
mapas
mapcarta
mapiri
mapping
maps
mapuchi
mapudungun
maq
maqa
maqanakurqan
maqanakuspa
maqanakuy
maqanakuypa
maqanakuypaq
maqanakuypi
maqanakuyta
maqaq
maqay
maqaypi
maqchina
maqlluq
maqnisyu
maqnitiku
maqt
maquillaje
maquina
mar
mara
maracay
maradona
marakaypu
maramba
maran
marankani
maranon
maranun
maraq
maras
marathi
marathon
maravilla
maravillas
maravilloso
marawa
maray
marban
marburg
marc
marca
marcel
marcela
marcelina
marceline
marcelino
marcellin
marcello
marcelo
march
marcha
marchena
marcia
marcial
marciano
marco
marconi
marcos
marcus
mare
marea
marechal
mares
marfil
marga
margaret
margarita
margen
marginatum
margot
margoth
marguerite
mari
maria
mariachi
mariah
mariam
marian
mariana
marianela
marianne
mariano
marias
mariategui
maribel
marido
maridos
mariduena
marie
marikawa
marilyn
marin
marina
marine
marinera
marini
marino
mario
marion
mariposa
mariposas
marisa
mariscal
marisol
maristas
maritima
marito
maritza
marius
mariya
mariyap
marjorie
mark
marka
markakuna
markakunap
markam
markamanta
markap
markapata
markapi
markapim
markapipas
markapiqa
markapumaqucha
markaqucha
markara
markawamachuku
markawasi
markawili
market
markets
marko
marksismu
markuna
markus
markuspa
marlene
marley
marlon
marlowe
marmosa
marphil
marple
marq
marques
marquez
marriage
married
marroquin
marrubium
marruecos
mars
marseille
marsella
marsh
marshall
marsu
marsupi
marsupialis
mart
marta
marte
martes
martha
marti
marticorena
martin
martina
martinez
martino
martins
martir
martires
martius
martos
marty
maruku
marvin
marx
marxism
mary
marya
maryland
marzo
marzolini
mas
masa
masacre
masako
masatoshi
masaya
mascagni
mascara
mascaras
masculino
masdevallia
maser
maseru
masi
masias
masikuna
masin
masinkunapaq
masinkunawan
masintin
masinwanpas
masitunya
masiy
mask
maskaq
maskaspa
maskoki
masma
mason
mass
massachusetts
massacre
massiel
massimo
mast
master
masters
mastocitos
mastrocinque
mastroianni
masu
maswa
mat
mata
matador
matagalpa
mataje
mataku
matallana
matamoros
matan
matancera
matanza
matanzas
matar
matara
matarahu
mate
matematica
matematicas
matematico
mateo
mater
materia
material
materials
materna
mathbb
mathcal
mathilde
mathiyu
mathiyup
mathrm
mati
matias
matilde
mato
matos
matrimonial
matrimonio
mats
matt
matteo
matter
matthaus
matthew
matthews
matthias
matto
mattoli
matu
matucana
matukana
matus
matute
maule
maureen
mauri
maurice
mauricio
mauritia
maurizio
mauro
mavila
maw
mawk
mawlli
mawri
mawu
max
maxim
maxima
maximilian
maximiliano
maximo
maximus
maxine
maxwell
may
maya
maych
maychus
mayer
mayii
mayk
maymanpas
maynas
mayniki
mayninpipas
mayo
mayolo
mayor
mayores
mayorga
mayoria
maypi
maypichus
maypipas
maypis
mayqan
mayqin
mayqinchus
mayqinkunachus
mayqinkunapichus
mayra
mays
mayt
mayta
maytaq
maytu
mayu
mayuatu
mayukillap
mayukillapi
mayukuna
mayukunap
mayukunapi
mayum
mayuman
mayumanta
mayun
mayunkunapi
mayup
mayupa
mayupas
mayupi
mayupura
mayuqa
mayuruna
mayusuksu
mayuta
mayutata
mayuwan
maywiy
mazama
mazandaran
mazzola
mb
mbiri
mbya
mc
mccain
mccartney
mcdermott
mcgraw
mcgregor
mclaglen
mclaughlin
mcmahon
mcqueen
md
me
meaning
means
meazza
mechnikov
mecklenburg
med
medal
medalla
medallakuna
medardo
medel
medellin
media
medianoche
mediante
mediawiki
medica
medicago
medical
medicina
medicinal
medicinales
medicine
medico
medicos
medida
medina
medio
medios
meditacion
meditaciones
meditations
mediterraneo
medrano
medusa
meet
meets
meg
megalobulimus
megalopterus
megantoni
megyek
mehmed
mehmet
mei
meier
meir
meissner
meister
mejia
mejillones
mejor
mejores
mel
melaka
melancolia
melanie
melanoleuca
melanoleucus
melanopis
melanops
melanoptera
melanosuchus
melbourne
melchor
mele
melendez
melgar
melgarejo
melhor
melissa
meliton
mella
mellado
melo
melodia
melodias
melodrama
melody
melville
melvyn
members
memoir
memoire
memoires
memoirs
memoria
memorial
memorias
memories
memory
memphis
men
mena
menacho
menchu
mencion
mendel
mendelssohn
mendes
mendez
mendigo
mendonca
mendoza
menem
menendez
meneses
menezes
meng
menino
menor
menos
menotti
mensaje
menstruus
mente
mentha
mentira
mentiras
mentiroso
mephistophiles
mer
mera
mercado
merced
mercedes
merchant
mercosur
mercure
mercurio
mercury
mere
merello
merengue
merganetta
merida
merino
merite
merito
merlin
merrill
merry
meryl
mes
mesa
mescalero
meses
mesili
message
messages
messenger
messi
messiaen
messina
mestizo
mestre
mesut
meta
metachirus
metal
metallic
metallica
metalloid
metalloids
metals
metodo
metriopelia
metro
metropolitan
metropolitana
metropolitano
metros
metz
meu
mexican
mexicana
mexicano
mexicanos
mexicanus
mexico
meyen
meyenii
meyer
meyerhof
meyzan
mez
meza
mezzo
mf
mg
mh
mi
mia
miami
micaela
mich
micha
michael
micham
michaman
michata
michał
michel
michelangelo
michele
micheli
michelle
michelsen
michi
michigan
michiko
michina
michiq
michoacan
mick
mickey
miconia
micrantha
microcuenca
microfon
microphylla
microptera
microsoft
micrurus
middle
middleton
midi
midnight
miedo
miedos
miel
miembro
mientras
miercoles
miers
mifflin
mifune
might
mighty
miguel
miguelito
mihiku
miihiku
mijares
mikael
mikania
mike
mikhail
mikhap
mikhuchinapaq
mikhuchinchik
mikhun
mikhuna
mikhunakuna
mikhunam
mikhunamanta
mikhunapaq
mikhunata
mikhunchik
mikhunku
mikhunkum
mikhuq
mikhuqmi
mikhurana
mikhuspa
mikhuy
miki
mikun
mikuna
mikuy
mikuyan
mikuyta
mil
milagro
milagros
milan
milanes
milano
mildred
milenio
miles
milestone
militar
militares
militaris
milk
mill
milla
millan
millar
millas
millay
mille
millennium
miller
million
millma
millmamanta
millon
millonaria
millonario
millonarios
millones
millp
millq
mills
millu
milluni
milluqucha
millwa
milo
milonga
milos
milosevic
milton
milutinovic
milwaukee
mily
mimi
mimulus
mimus
min
mina
minapunta
minas
minaspata
mincetur
mind
mindo
mine
minedu
mineiro
minem
minera
mineral
minerales
mineria
mineros
minerva
mineur
ming
minh
minha
mini
minica
minimus
mining
miniserie
miniseries
ministerio
ministeriodecultura
ministra
ministro
ministru
ministrum
ministrunin
ministruninmi
ministrunmi
mink
minneapolis
minnelli
minnesota
minor
minsk
minster
minthostachys
mintu
minuto
minutos
minutu
minutus
minutuyuq
minuywanqa
mio
miqapaka
miqu
mir
mira
mirachisqa
miracle
mirada
mirador
miraflores
mirame
mirana
mirananpaq
miranda
mirar
miray
miraykuq
miraykuy
miraymanta
mirayninmanta
mirbeau
miriam
mirko
mirla
miro
miroslav
mirror
mirrors
mirtha
miryan
mirza
mis
misa
misael
miscelanea
miserables
mishana
mishawaka
mishi
mishika
mishikanu
mishiku
mishikunapas
mishikup
mishikupa
mishikupi
mishka
mishki
mishtika
mishu
misi
mision
misiones
misk
miska
miski
miskitu
misma
mismi
mismo
miss
missing
mission
mississippi
missouri
mister
misterio
misterios
misteriosa
misti
mistica
mistikuna
mistikunapaq
mistral
mistress
misuk
misuka
misyunkuna
mit
mita
mitad
mitan
mitchell
mitchum
mito
mitologia
mitos
mitre
mitru
mitrukama
mitrum
mitrumanta
mitte
mitu
mituqucha
miura
mix
mixta
mixto
miya
miyashiro
miyil
miyu
miyusapa
mizuki
miłosz
mj
mk
mkhare
ml
mlp
mm
mn
mndandanda
mnr
mo
mobile
mobutu
mocache
mocha
moche
mode
model
modelo
modelos
modern
moderna
moderne
modernidad
modernismo
moderno
modernos
modest
modesto
modi
modificar
modigliani
modo
modulos
moenkhausia
moglie
mogrovejo
mohamad
mohamed
mohammad
mohammed
mohandas
moi
moises
mojanda
mojarras
mojica
mojiganga
moldenke
molecular
moliere
molina
molinaro
molino
molinos
moll
molle
moller
mollis
mollissima
mollohuanca
molloy
molly
molothrus
moment
momento
momentos
mommsen
momota
momotus
mon
mona
monachus
monagas
monarquia
monasterio
moncada
moncayo
moncloa
mondadori
monde
mondo
moneda
money
monge
mongolia
monica
monicelli
monique
monitor
monja
monjas
monje
monk
monkey
mono
monocotyledoneae
monologo
monos
monroe
monrovia
mons
monsefu
monsenor
monsieur
monster
monsters
monstruo
monstruos
mont
montalban
montalvo
montana
montanas
montanasperuanas
montand
montaner
montanez
montano
monte
monteagudo
montealegre
montecristi
montecristo
monteiro
montejo
montenegro
monteria
montero
monterrey
montes
montesinos
montevideo
montgomery
month
monthly
monti
monticola
montiel
monton
montoya
montpellier
montreal
montserrat
montufar
monument
monumental
monumento
monza
monzon
moon
moor
moore
moors
moquegua
mora
morada
morado
moraes
moral
morale
morales
moran
moratalaz
moravia
morazan
morchella
more
moreau
moreira
morel
morelia
morelli
morelos
morena
morenada
moreno
moreyra
morfologia
morgan
mori
morir
moritz
morning
moro
morocco
morochucos
morona
moronasantiago
morosini
morphology
morris
morrison
morro
morrow
morse
mort
mortal
mortales
morte
mortiz
morton
morus
mosca
moschata
moscoso
moscow
moscu
moses
moseten
moskovits
moskwa
mosoq
mosquera
mosqueteros
most
mostajo
mostly
mostrando
mother
motin
motion
motivo
motivos
motocicleta
motor
motorhead
motown
motta
motu
mount
mountain
mountaineering
mountains
moura
mouse
mouth
mouton
mouvement
moves
movie
movies
movimiento
moving
movistar
moxos
moya
moyano
moysespa
moza
mozart
mp
mpaka
mq
mr
mrs
ms
msn
msnm
mt
mtv
mu
muammar
much
mucha
muchacha
muchachas
muchachita
muchacho
muchachos
muchas
muchik
muchnik
mucho
muchos
muchusqa
muchuy
muddy
mudo
muehlenbeckia
muela
muell
mueller
muera
muere
mueren
muero
muerta
muerte
muerto
muertos
muestra
muhamed
muhammad
muhiniti
muhlenbergia
muhu
muinane
muja
mujer
mujercitas
mujeres
mujibur
mujica
mukmu
muksi
muksichaq
muksichaqta
muksichaqtam
muksichaqwan
mukushigua
mula
mulanpi
mulata
mulato
mulduwa
mulheres
mulinu
mulinupampa
mulla
mullaka
muller
mulli
mullintu
mullipampa
mullipata
mulliwaya
mullu
mullupu
multicaulis
multiflora
multiflorum
multimedia
multimidya
multitud
mumbai
muna
munaku
munakun
munakunchu
munan
munani
munanku
munanmi
munante
munaq
munarqa
munarqan
munaspa
munaspaqa
munasqa
munasqan
munay
munaylla
munchen
mundial
mundiales
mundo
mundos
muneca
munecas
mungul
mungulsuyu
muni
munich
municipal
municipales
municipalidad
municipality
municipio
municipiodecolta
municipios
munimadrid
muniollantaytambo
munisipyu
munisipyukuna
munisipyum
munisipyumanta
munisipyumikan
munisipyunmi
munisipyup
munisipyupas
munisipyupi
munisipyupim
munisipyupipas
munisipyupiqa
munisipyuqa
munisipyuwan
muniz
munoz
munro
munsipyu
munti
muntipuquy
munumintu
munzar
muqiwa
muqu
muqunmi
muququya
mur
mura
murad
murai
murakami
mural
murales
muralla
murawya
muray
murcia
murcielago
murder
murders
murdoch
murga
muriel
muriendo
murillo
murina
murio
murira
muritanya
muriti
muro
muroidea
murphy
murray
murrupun
muru
murucha
muruchata
murukuna
murukunam
murukunata
muruna
muruni
murunkunata
murunkunatam
muruqucha
mururata
mururqa
muruyuq
mus
musa
musambik
musee
musef
museo
museos
museum
mushrooms
mushuk
mushupa
mushuq
music
musica
musical
musicales
musico
musicos
musika
musikanin
musikata
musiku
musikupi
musikuq
musikuqmi
musil
musiyu
musiyukuna
musiyum
musiyun
musk
muskaya
muslim
musna
muspa
musphachinayuq
musphay
musser
mussolini
mussorgsky
must
mustafa
mustasa
mustela
musu
musuq
musuqllaqta
musuqmanta
musuqmantam
musuqta
musyana
musyay
mut
muta
mutabilis
muti
mutis
mutisia
mutur
mutuyllu
muy
muya
muyska
muyu
muyum
muyun
muyuna
muyuntinpi
muyup
muyupampa
muyupayaq
muyupi
muyuq
muyuriq
muyusiki
muyuta
mv
mvp
mw
mwa
mwana
mx
my
myanmar
mykiss
mylossoma
myrica
myrmecophaga
myroxylon
myrsine
myrtilloides
myspace
mysteries
mystery
myung
mz
n
n0
n1
n2
n3
n4
n5
n6
n7
n8
n9
na
naani
nabon
nabus
nac
nacar
nace
nacer
naci
nacida
nacido
nacidos
nacimiento
nacio
nacion
nacional
nacionales
nacionalidad
nacionalidades
nacionalista
naciones
nad
nada
nadal
nadia
nadie
nadine
nagano
nagasaki
nagel
nagoya
naha
nahua
nahuatl
nahumpa
naipaul
nairobi
nak
nakata
nakay
nakayama
naked
nalbandian
nam
namballe
nambi
name
named
names
namiwya
namkin
nan
nana
nanay
nanaywan
nancy
nangaritza
nani
nankay
nankuna
nankunapi
nankunata
nanmi
nanni
nano
nanometro
nanpa
nanpi
nanqa
nansa
nansen
nanta
nantes
nanu
nao
naomi
napa
nape
napha
napo
napoleon
napoli
napolitano
napu
napuruna
napurunakunam
naqch
naqha
naranja
naranjal
naranjito
naranjo
naranjos
narcisa
narciso
narcoticos
narino
nariz
narnia
narracion
narraciones
narrador
narrativa
narrator
nasa
nascimento
nashville
naska
nasl
nassau
nasser
nasturtium
nasua
nasyun
nasyunalista
nasyunkuna
nasyunkunap
nat
nata
natabuela
natacha
natal
natalia
natalie
nataniel
nataq
natasha
natawila
nathan
nation
national
nationale
nations
nativa
nativas
native
natividad
nativos
natriyu
natura
natural
naturales
naturaleza
nature
naufrago
naupa
navaja
naval
navarra
navarrete
navarro
navas
nave
navegable
naves
navidad
navy
naw
nawa
nawahu
nawarra
nawat
nawatl
nawch
nawi
nawidad
nawikaruy
nawikaruypipas
nawikuna
nawikunanchikpaq
nawimpukyu
nawin
nawinchana
nawinpukyu
nawinqucha
nawintsaana
nawirinaykipaq
nawiriy
nawiriyta
nawiriywasi
nawiyuq
nawpa
nawpagradupi
nawpan
nawpaq
nawpaqman
nawpaqnin
nawpaqninmi
nawpaqta
nawpaqtaqa
nawra
nawram
nawray
nawsa
nayarit
nazareno
nazaret
nazareth
nazaria
nazario
nazca
nazi
nb
nba
nbc
nc
nd
ndi
ndiaye
ndipo
nds
ne
neal
near
neate
nebouxii
nebraska
necesito
necessary
nectandra
ned
nee
need
needed
needs
nees
neeskens
negeri
negocio
negocios
negra
negras
negrete
negro
negros
nehemiyap
nehru
neil
neill
neira
neiva
nel
nell
nelly
nelson
nemesio
nena
nene
nengatu
neo
neochen
neotropica
nepal
nepomuceno
neptune
nereo
neri
nero
neruda
nery
ness
nest
nestor
net
neto
network
neue
neuer
neuilly
neuquen
neutral
nevada
nevado
never
neville
new
newark
newbery
newbury
newcastle
newfoundland
newman
newport
news
newsletter
newton
next
neymar
neyra
nf
ng
ngo
nguyen
nh
ni
niagara
nicanor
nicaragua
nicaraguense
niccolo
nice
nicholas
nicholson
nick
nicola
nicolas
nicole
nicolle
nicolson
nicomedes
nicotiana
nicou
nido
niebla
niels
nielsen
niemeyer
nieto
nietzsche
nieva
nieve
nieves
niezgoda
nigel
niger
night
nightingale
nights
nigra
nigricans
nigriceps
nigrum
nihun
nihunpa
nihunpi
nijmegen
nikarawa
nikarawap
nikasyu
nikita
nikola
nikolai
nikolaus
nikun
nikuq
nikurqan
nikusya
nile
nillu
nilsson
nilu
nimoy
nin
nina
ninachay
ninakuru
ninaparaqu
ninapi
ninaqullu
ninas
ninashanka
ninasuyu
ninat
ninawaman
ninchik
ninchikmi
nini
ninku
ninkum
ninmi
nino
ninon
ninos
ninri
ninta
nintendo
nintsik
ninwan
nipal
niphidium
nipina
nipode
niptin
niptun
niq
niqi
niqichisqa
niqimantam
niqin
niqintaq
niqipaq
niqir
niqirya
niqpi
niqpiqa
niquin
nir
niraq
nirku
nirlandis
niro
nirqan
nirvana
nishqachawqa
nispa
nispam
nispan
nispaqa
nisqa
nisqakama
nisqakuna
nisqakunam
nisqakunamanta
nisqakunap
nisqakunapi
nisqakunaqa
nisqakunata
nisqakunataq
nisqam
nisqaman
nisqamanta
nisqamantam
nisqamantaqa
nisqan
nisqankama
nisqankamaqa
nisqanta
nisqap
nisqapaq
nisqapas
nisqapi
nisqapim
nisqapipas
nisqapiqa
nisqaqa
nisqas
nisqata
nisqatam
nisqatapas
nisqataq
nisqataqa
nisqatas
nisqawan
nisqawanmi
nisqawanqa
nisqayuq
nisyu
nit
niteroi
nitida
nitidum
nito
nivalis
nivel
niven
niwa
nixon
niy
niyan
niyaran
niyatiwu
niyta
niyuq
niyxun
nj
njira
nk
nkrumah
nl
nlm
nm
nn
nnumid
no
noah
nobel
nobelpa
nobelprize
noble
nobol
noche
noches
nochevieja
nocturno
nodosa
noe
noeding
noel
noemi
noi
noir
noite
nolasco
nom
nombrado
nombre
nombres
nominacion
nominado
non
nonato
none
noord
noqanchis
nor
nora
norbert
norberto
nord
nordrhein
norfolk
noriega
norma
normal
normalizado
norman
normandie
noroccidental
norodom
noroeste
norris
norsk
norte
norteamericano
norteno
north
northern
northumberland
norton
norway
nos
nosotras
nosotros
nossa
nostalgia
nostra
nostradamus
nostrand
nostri
not
nota
notas
note
notes
nothing
nothofagus
notholaena
nothoprocta
notice
noticia
noticias
noticiero
notiochelidon
notre
notte
nou
nous
nouveaux
nouvelle
nouvelles
nov
nova
novak
novel
novela
novelas
novelista
november
novembre
novemcinctus
noveno
novgorod
novi
novia
noviembre
novio
novios
novo
novoa
novola
novoneyra
now
nowc
np
nq
nr
nrf
nro
ns
nt
ntchito
nthawi
nu
nube
nubes
nubigena
nuclear
nudicaudatus
nuestra
nuestras
nuestro
nuestros
nueva
nuevamente
nuevas
nueve
nuevo
nuevos
nuflo
nui
nuit
nujuano
nukanchik
nukch
nukchu
nukini
nukna
nuknu
num
numatsiqinqa
number
numero
numeros
numic
nuna
nunashimi
nunat
nunca
nunez
nunoa
nunu
nunuq
nunuqkuna
nunuqkunam
nunuqmi
nunuwa
nuovo
nupchuy
nuq
nuqa
nuqanchik
nuqanchikpa
nuqayku
nur
nuremberg
nurgi
nurma
nurnberg
nurwiga
nurwigapa
nurwigapi
nussbaum
nust
nusta
nut
nutans
nutqu
nuw
nuwi
nuwimri
nuwimripi
nv
nw
nx
ny
nycticorax
nyenyezi
nyerere
nyimbo
nynorsk
nyu
nz
o
o0
o1
o2
o3
o4
o5
o6
o7
o8
o9
oa
oasis
oaxaca
oaxaka
ob
obama
obd
obdulio
obispo
obispos
objeto
oblast
oblitas
oblonga
oboe
obovata
obra
obras
obregon
obrera
obrero
observaciones
observations
observatorio
obsesion
obtusifolius
oc
oca
ocampo
ocana
ocasion
ocaso
occidental
occidentalis
occidente
occipitalis
occitan
ocean
oceano
och
ocho
ochoa
ochroma
ochthoeca
ocio
oclc
ocotea
ocotepeque
ocsa
oct
octava
octave
octavio
october
octubre
oculta
ocurrio
od
oda
odar
odas
odd
ode
odeon
oder
odessa
odham
odio
odisea
odocoileus
odorata
odria
odyssey
oe
oea
oecomys
oenothera
oerstedella
oeste
oeuvres
of
ofelia
off
offenbach
office
official
officinale
officinalis
officinarum
oficial
oficiales
oficialmente
oficina
oficio
oficios
ofm
ofrenda
og
oggi
oh
ohio
oi
oido
oj
ojeda
ojo
ojos
ok
oklahoma
ol
ola
olaechea
olafur
olaneta
olavide
olaya
olazabal
old
oleg
oleo
oleracea
oleraceus
olga
olimpicos
olimpo
olinda
oliva
olivacea
olivares
oliveira
olivencia
oliver
olivera
olivia
olivier
olivos
ollanta
ollantay
olmedo
olmos
olof
olomouc
olvidados
olvidar
olvidare
olvidarte
olvide
olvides
olvido
olympia
olympic
olympique
om
omaha
omar
omara
omer
omereque
omiste
oms
omwe
on
ona
onagraceae
onate
onca
once
oncifelis
oncorhynchus
onda
ondas
one
onepage
ones
onetti
online
only
onqa
ontario
onu
onze
oo
op
open
opera
operacion
operation
operations
operator
opereta
ophryosporus
opinion
opiniones
opip
opole
optar
optical
option
opuntia
opus
opusculos
oq
oqe
oquendo
or
oracion
oral
orange
orangutan
oratorio
orbegoso
orbis
orchester
orchestra
orchestre
orchidaceae
ordaz
orden
order
ordine
ordo
ordonez
ordre
orduna
ore
oreailurus
oreas
oregon
oreja
orejas
orellana
oreopanax
oreotrochilus
orestias
orfeo
org
organ
organic
organizacion
organizaciones
organization
organo
organometallic
organos
orgullo
orhan
oriana
oribe
orient
oriental
orientales
orientalis
oriente
origen
origenes
origin
original
originales
originally
originalmente
originaria
origins
orihuela
orilla
orillas
orlando
orleans
ormeno
ormosia
ornans
ornata
ornatus
oro
oropesa
oropeza
orozco
orquesta
orrego
orrell
orsay
orson
ortalis
ortega
orthodoksa
orthophylla
ortiz
ortofoto
oruro
orwell
oryza
oryzomys
os
osaka
osborne
osbourne
oscar
oscura
oscuridad
oscuro
oseaspa
oskar
oslo
osma
osman
oso
osorio
ospina
ossa
ost
osvaldo
oswald
oswaldo
ot
ota
otaria
otavalo
otelo
otero
othello
other
others
othon
otiniano
otomanki
otoniel
otono
otorgada
otorgado
otorgo
otra
otras
otro
otros
ottawa
otto
otus
ou
ould
our
ouro
out
outlaw
outras
outros
ouvrard
ov
ovalifolia
oveja
over
overath
overijssel
overview
ovidio
oviedo
ow
owen
owens
own
ox
oxalis
oxford
oxigeno
oxyura
oy
oyambaro
oye
oz
ozil
p
p0
p1
p2
p3
p4
p5
p6
p7
p8
p9
pa
paaq
pabellon
pablo
pabst
paca
pacaraos
pacari
paccha
pach
pacha
pachacamac
pachachaka
pachacutec
pachahina
pachak
pachakamaq
pachakamay
pachakamilla
pachakawri
pachakcha
pachakmanta
pachakuna
pachakunapi
pachakuti
pachakutik
pachakutinapaq
pachakutiq
pachakutiy
pachakwata
pachakwatap
pachakwatapi
pachakwatapis
pachakwataqa
pacham
pachamama
pachamamaman
pachaman
pachamanta
pachan
pachanas
pachanga
pachanka
pachankam
pachankap
pachanpi
pachanta
pachantin
pachap
pachapanta
pachapaq
pachapi
pachapipas
pachapiqa
pachapis
pachapura
pachaq
pachaqa
pachas
pachata
pachataka
pachataq
pachataqa
pachatin
pachaykamay
pachaykamaymanta
pachaykamaypi
pachayuq
pacheco
pachila
pachitiya
pacho
pachuca
pachyrhizus
pacific
pacifico
pacino
paco
pacos
pacquiao
pacto
padcaya
padilla
padova
padre
padres
padreyoc
padreyuq
padrino
padron
padua
padura
padziko
paez
pag
paga
pagador
paganini
page
pages
pagina
paginas
paglinawan
pags
pahang
paho
pailon
pairumani
pais
paisaje
paisajes
paises
paiute
paixao
paja
pajan
pajaro
pajaros
pak
paka
pakai
pakaqi
pakaqucha
pakaraw
pakarina
pakasmayu
pakasqa
pakay
pakaya
pakcha
pakincha
pakisha
pakistan
paku
pal
palabra
palabras
palace
palacio
palacios
palais
palakala
palama
palamakuna
palamakunam
palamakunata
palamakunatam
palamam
palanda
palanta
palavecino
palazzo
palca
palenque
paleosuchus
palermi
palermo
palestina
palicourea
palistina
palito
palkasu
palla
pallan
pallana
pallanchikpa
pallanqa
pallariq
pallas
pallaspa
pallasqa
pallasqan
pallatanka
pallay
pallida
pallqa
pallqaqucha
pallqarahu
pallqarasu
palm
palma
palmar
palmas
palme
palmeiras
palmer
palmieri
palmira
palo
paloma
palomares
palomas
palomino
palomo
palos
palpa
palta
paltas
palumani
palura
pamela
pampa
pampachiri
pampakunapi
pampam
pampamarka
pampapi
pampaqucha
pampaqullu
pamparahu
pampas
pamplona
pan
pana
panaka
panakan
panakayuq
panama
panaman
panamapa
panamarka
panamericana
panamericano
pananchis
panaqa
panaw
panay
panchakutu
panchito
pancho
panchos
panchu
pancreas
panda
pandilla
pandion
pando
pandora
panduro
pane
panga
pani
paniagua
panico
paniscus
panka
panki
pano
panorama
panpa
panq
panqa
panqachaw
pansaliyu
panta
pantagruel
pantaleon
pantanal
pantanos
pantasqa
pantaychu
pantera
panthera
panti
pantimayu
pantoja
panu
panwa
panzaleo
pao
paola
paolo
papa
papallakta
papam
papandreou
papap
papaqucha
paparawa
papas
papata
papaver
papaveraceae
papaya
pape
papel
papeles
paper
papers
papil
papo
papphammar
papwa
paq
paqaqi
paqarichin
paqarichiq
paqarichirqan
paqarichisqa
paqarichisqan
paqarimuq
paqarimurqa
paqarin
paqariq
paqarirqa
paqarirqaku
paqarirqan
paqarirqaspa
paqarispa
paqarisqa
paqarisqan
paqarisqanmanta
paqariy
paqas
paqaspa
paqay
paqaypampa
paqcha
paqllun
paqpa
paqta
paqtachani
paqtachi
paqtan
paqu
paqucha
paquita
paquito
paqupampa
paququcha
par
para
parada
parade
paradise
parado
paraguariensis
paraguay
paraiba
paraiso
paramaribo
paramo
paramount
paramunqa
parana
parapiti
parapoco
paraqas
parastrephia
paratia
paratiya
parawaku
parawayi
parawayip
parawayipa
parawayipi
paray
parc
parco
parcours
pardalis
pardave
pardo
pared
paredes
pareja
paria
parientes
parigi
parina
parinacota
parinaquta
parinaqutapas
pariona
paris
parish
pariwana
pariwanakuna
pariwanaqucha
park
parker
parki
parkikuna
parkim
parkimanta
parkipi
parkipiqa
parkiqa
parkswatch
parlamento
parma
parmapa
parnaso
parole
paron
parqu
parque
parququcha
parquy
parra
parroquia
part
parte
partes
participacion
participativa
particular
particuliere
partida
partido
partidos
partidu
partidum
partiduman
partidun
partidunpi
partidup
partidupi
partidupim
partie
partir
partitura
partners
parton
party
paruma
parun
paruru
parviflora
parya
paryaqaqa
paryawanka
pas
pasa
pasadena
pasado
pasaje
pasajeros
pasan
pascal
pasco
pascua
pascual
paseo
pashtaq
pashto
pasion
pasiones
pasiphiku
paskwa
pasna
paso
pasochoa
pasos
paspalum
pasqu
pasquale
pasquel
passage
passarella
passiflora
passion
past
pastasa
pastaza
pasteles
pasteur
pasto
pastor
pastores
pastrana
pastu
pastur
pastururi
pasu
pasul
pasupakuy
pasurapa
pat
pata
pataclaun
patagioenas
patagona
patak
patakamaya
patakancha
patakuna
patakunapi
patallaqta
patampuku
patan
patanpi
patapallpa
patapi
pataqunya
patara
patas
patate
paterson
path
pathology
pathoschild
pathways
patil
patilla
patino
patio
patiwillka
patma
patmaku
patman
pato
patranka
patria
patrice
patricia
patricio
patrick
patrimonio
patriota
patrol
patron
patrona
patronanmi
patronato
patrulla
patsa
patsachaw
patsan
patsapa
patsata
patterson
patti
patton
patu
pau
paucar
paucartambo
paul
paula
paulet
paulina
pauline
pauling
paulista
paulo
paulus
paupa
pausini
pav
pavarotti
pavel
pavese
pavia
pavlova
pavon
pavone
pavsa
pawa
pawaq
pawillun
pawkar
pawlu
pawlup
pawqar
pawqaray
pawqarqucha
pawqarqulla
pawqartampu
pawsa
pawshi
pawsirna
pawti
pay
paya
payas
payaso
paychi
paykuna
paykunaqa
paykunata
paymi
paypa
paypaq
paypura
payqa
payqam
payqu
pays
paysandu
payta
paytam
payton
paywan
payyuyay
paz
pb
pc
pd
pdf
pdi
pe
peace
peak
peakbagger
peakery
pearcei
pearl
pearls
pearson
peca
pecado
pecador
pecadora
pecados
pecari
peces
pecho
peck
peckinpah
pecuaria
pedagogico
pedernales
pedro
peer
peggy
peguche
pei
peinture
peisa
peixoto
pejerrey
pekin
pekka
pelado
pelayo
pele
pelecanus
pelechuco
pelicula
peliculas
peligro
peligrosa
peligroso
pelileo
pelle
pellegrini
pelo
pelota
peltocephalus
pen
pena
penaherrera
penal
penaloza
penang
penarol
penas
penelope
peng
penguin
penh
peninsula
penn
pennata
pennisetum
pennsylvania
penny
penon
pensamiento
pensamientos
pensar
pensees
pentandra
pentlandii
people
peor
pepa
pepe
peperomia
pequena
pequenas
pequeno
pequenos
per
pera
perak
perales
peralta
perche
percusion
percy
perdicion
perdida
perdido
perdidos
perdomo
perdon
perdoname
pere
peregrina
peregrinus
pereira
perenensis
peres
peret
pereyra
perez
perezia
perezoso
perfect
perfecta
perfecto
perfil
perfiles
performance
performed
perfume
perico
period
periodic
periodico
periodismo
periodista
periodistas
periodistica
periodisticos
periodo
perkins
perla
permanente
permiso
pernambuco
pernettya
pero
peron
perou
perpetuo
perret
perricholi
perro
perros
perrovaca
perry
pers
persea
persepolis
persica
persie
person
persona
personajes
personal
personales
personalidad
personas
perspectivas
perspective
peru
peruana
peruanas
peruano
peruanos
peruanum
peruanus
peruecologico
perugia
perupi
peruvian
peruviana
peruvianae
peruvianum
peruvianus
perv
pesar
pescado
pescador
peso
pessoa
peste
pete
peter
peterburg
peters
petersburg
petersburgo
peterson
petit
petra
petrarca
petri
petroleo
petronila
petrovic
petrus
peyton
pez
pf
pg
pgs
ph
phaka
phalacrocorax
phalcoboenus
phallcha
phallchacha
phan
phantom
phaqcha
phaqchakuna
phaqcham
phaqcharahu
phaqhcha
phaqut
pharomachrus
pharsi
pharyngitis
phasa
phase
phaseolus
phawan
phawanapaq
phawaq
phawayta
phawka
phd
phelps
phichqa
phil
philadelphia
philander
philharmonic
philharmonie
philharmoniker
philimonpaq
philip
philipinakuna
philipinakunapa
philipinakunapi
philipiyuqkunapaq
philipp
philippe
philippines
philips
philli
phillip
phillips
philosopher
philosophers
philosophical
philosophie
philosophy
phinis
phinsuyu
phinyimpi
phirrinaphi
phiru
phirunku
phiruru
phiskuna
phiskuspa
phista
phistakunku
phistanku
phistasqam
phiwrirupi
phiyi
phleocryptes
phnom
phoenicoparrus
phoenicopterus
phoenix
photo
photos
php
phragmites
phransis
phransisku
phransya
phu
phuku
phukulli
phukuna
phukuya
phuna
phuqllay
phuru
phuruyuqmi
phusa
phusphuru
phutukuna
phutunqu
phutuy
phuyu
phyllis
phylum
physalis
physical
physician
physics
phytelephas
phytologia
pi
pia
piaf
piaget
pianista
piano
pias
piaui
piazolla
piazza
piazzolla
pica
picaflor
picara
picasso
picchu
piccolo
pichaka
pichana
pichiku
pichilemu
pichincha
pichinku
pichis
pichitanka
pichiw
pichiwa
pichka
pichna
pichqa
pichqantin
pichqaqucha
pichqayuq
pichu
pichuco
pichus
pico
picture
pictures
pid
pidgin
pidru
pidrup
pie
piece
pieces
piedad
piedra
piedras
piel
piemonte
piene
piensa
pier
pierce
pierde
pierden
piero
pierola
pierre
pierrend
pies
pieter
pietrangeli
pietri
pietro
pieza
piezas
pii
piiru
pika
pikchu
pikchunqa
piki
pikikuy
pikillaqta
pikkin
pikunachus
pikuta
pil
pila
pilar
pilawit
pilcomayo
pilea
pili
pilichuku
pilikula
pilikulakuna
pilikulam
pilikulamanta
pilikulapi
pilikulapim
pilikulaqa
pilkumayu
pillan
pillaro
pillaru
pilli
pillinku
pilliyuyu
pillku
pillpintu
pillu
pillunkuy
pillunya
pillunyayuqmi
pilon
pilosa
pilotos
pilquya
piluta
pima
pimampiru
pimelodidae
pimentel
pimienta
piminta
pimpinila
pina
pinacoteca
pinakothek
pinal
pinar
pinares
pinas
pinasco
pinchaque
pinchi
pinchikilla
pinchikillachana
pinchikillawan
pinchullu
pindal
pindilig
pindo
pineda
pinedo
pineiro
ping
pinglo
pini
pinillos
pinipi
pink
pinku
pinkuyllu
pinnata
pino
pinos
pinsha
pintadas
pintado
pintikustis
pinto
pintor
pintores
pintura
pinturas
pinu
pinwinu
pinyin
pinzon
pio
pionus
pipa
pipapas
pipas
piper
pipil
pipile
pipis
piptadenia
piqa
piquet
pira
piracicaba
piramide
pirandello
pirata
piratas
pirate
piray
pires
piri
pirini
pirlilla
pirqa
pirqakachun
pirqakuna
pirqam
pirqata
piru
piruru
piruw
piruwanu
piruwchaw
piruwki
piruwman
piruwmanta
piruwpa
piruwpaq
piruwpas
piruwpi
piruwpipas
piruwpiqa
piruwta
pirwa
pirwaqucha
pis
pisa
pisco
pishku
pishna
pishqu
pishtaq
pisi
pisichasqa
pisichaynin
pisilla
pisqa
pisqu
pisqukuna
pisqukunam
pisqukunap
pisqukunaqa
pisqum
pisqupampa
pisququcha
pistishi
pistola
pistolas
pistolero
pisunay
pita
pitapas
pitaq
pithagoras
pithecellobium
pithecia
piti
pitinmi
pitipu
pito
pitsqa
pitti
pittsburgh
pitu
pitucha
pitumarka
pitunilla
pitusiray
piu
piura
piurw
pius
piwin
piwra
pixarwan
piyanu
piypiri
piyu
piyun
pizarro
pj
pk
pl
place
placer
placeres
places
placido
plains
plan
plana
planck
planes
planet
planeta
planetary
planets
planguarani
plano
plant
planta
plantae
plantago
plantarum
plantas
plantilla
plantillam
plantillataqa
plants
plasa
plasencia
plastico
plastiku
plata
plate
plateau
platini
platino
plato
platon
plattduutsch
play
playa
playas
player
players
playhouse
playing
plays
playstation
plaza
please
pleasure
plegades
plegadis
plegarias
plenum
pleurotus
plomo
plon
plowman
pluma
plummer
plural
plurinacional
plus
plutarco
pluto
pluton
plutun
plymouth
plzen
pm
pmc
pmid
pn
png
po
poa
poaceae
poalo
poblacion
poblaciones
pobre
pobres
pocahontas
pocas
pocho
pocket
poco
pocos
poder
poderes
podia
podiceps
podocarpaceae
podocarpus
podocnemis
podria
poe
poecilochrous
poem
poema
poemario
poemas
poeme
poemes
poems
poepp
poeppigiana
poesia
poesias
poesie
poesies
poet
poeta
poetas
poete
poetes
poetica
poeticas
poetico
poetry
point
poirot
poitier
pokal
poker
polanski
polar
polemica
police
policia
policy
politecnica
politica
political
politicas
politico
politicos
politics
politik
politique
politischen
polka
polo
polonia
polonium
polski
polvo
polvora
polydor
polygram
polylepis
polypodium
polystichum
poma
pomabamba
pomacea
pomar
pompeii
ponce
poncena
pondal
pongo
pont
ponte
pontes
pontificia
pony
pooh
poole
poospiza
pop
popayan
pope
popular
populares
population
por
porcel
porco
porfirio
porque
porras
porres
port
porta
portachuelo
portal
porter
portero
portillo
portland
porto
portocarrero
portovelo
portoviejo
portrait
portraits
portsmouth
portugal
portugalete
portugues
portuguesa
portuondo
porvenir
posada
posadas
posee
posesivo
posgrado
posible
posicion
positivo
possible
post
postal
postales
posteriormente
posthume
posthumous
postuma
postumamente
postumo
potencial
potential
potosi
potro
potter
pound
pour
pouteria
powell
power
powers
poyang
poznan
pozo
pozuzo
pp
ppc
ppk
pq
pr
pra
practica
practicas
practice
practices
practico
prada
pradera
pradesh
prado
praga
prague
praha
prairie
pratiques
pratt
pre
precatoria
precio
precursor
predilecto
preface
prefacio
prefectura
preferences
prefiero
pregon
preguntas
preliminar
prelude
preludio
preludios
premier
premiere
premio
premios
prename
prensa
prentice
prescott
presencia
present
presenta
presentacion
presentada
presentado
presente
presented
presents
presidencia
presidencial
president
presidenta
presidente
presidentes
presidential
presidio
presion
presl
presley
press
pressure
prestame
prestige
preston
pretendiente
preto
pretty
preventing
prevention
previamente
previously
priale
price
pride
priest
prieto
prima
primaria
primary
primarya
primavera
prime
primeira
primer
primera
primeras
primero
primeros
primitivo
primo
primuloides
prince
princesa
princesita
princess
princeton
principal
principales
principe
principessa
principio
principios
principles
priodontes
prision
prisionera
prisoner
pristu
priturya
privada
privado
private
privilegio
prix
prize
pro
proano
probablemente
problem
problema
problemas
problems
proceedings
procesion
proceso
procesos
process
processing
prochilodus
procyon
prodan
prodi
prodigiosa
prodigo
produccion
producciones
producida
producido
productions
productokunata
productor
productora
productos
produjo
produzione
proechimys
proeib
proeibandes
prof
profesional
profesiones
profesor
profesores
professor
profeta
profile
profundos
program
programa
programacion
programas
progreso
progress
progressive
prohibida
prohibido
project
projects
projimo
prologo
promesa
prometeo
prometheus
promocion
pronombre
pronombres
pronto
proof
properties
property
propia
propiedad
propietario
propio
propios
propos
proposito
propuesta
prosa
prosas
prose
prosopis
prospero
prost
prostrata
protagonico
protagonista
proteccion
protector
protesta
protista
protocol
proust
provence
providence
providencia
province
provincia
provincial
provincias
provincie
proximo
proyeccion
proyecto
proyectos
prueba
pruebas
prunus
pruphisyunmi
prutina
prutistanti
pruwinsya
pruwinsyakuna
pruwinsyam
pruwinsyamanta
pruwinsyankuna
pruwinsyanmi
pruwinsyap
pruwinsyapa
pruwinsyapi
pruwinsyapim
pruwinsyapipas
pruwinsyapiqa
pruwinsyapiwan
pruwinsyaqa
pruwinsyawan
pruwynsyapi
ps
psarocolius
pseudalopex
pseudoplatystoma
psicologia
psidium
psittacidae
psn
psoralea
psuv
psychotria
pt
pteridaceae
pteridium
pterocnemia
pteroglossus
pteronura
pts
pu
pub
pubescens
pubis
publ
public
publica
publicacion
publicaciones
publicada
publicadas
publicado
publicados
publicas
publication
publications
publicidad
publico
publie
published
publishers
publishing
pubs
puc
puca
pucara
puccini
puchan
puchka
puchkanchik
puchkaspa
puchukachirqan
puchukanqa
puchukarqan
puchukayninkama
puchukayninmi
puchukayninpi
puchunkuna
pucp
pudiera
pudu
puebla
pueblo
pueblos
pueda
puedan
puede
pueden
puedes
puedo
puela
puente
puerta
puertas
puerto
pues
puesto
puga
pugacheva
pugliese
pugna
puhili
puhuyu
puig
pujili
pujol
puka
pukahirka
pukaj
pukakuru
pukallpa
pukamaqasqa
pukanawi
pukaq
pukaqucha
pukara
pukarahu
pukaram
pukaran
pukarani
pukaranra
pukarapi
pukarumi
pukatampu
pukaurqu
pukina
pukllana
pukllanamanta
pukllanapaq
pukllaq
pukllaqmi
pukllaqpas
pukllaqsi
pukllarqan
pukllasqa
pukllasunchis
pukllay
pukllaykamachiq
pukllaykamachiqmi
pukllaykuna
pukllaykunam
pukllaykunapi
pukllaymi
pukllaypi
puku
pukumantawan
pukusana
pukyu
pukyumanta
pukyunmi
pukyunqa
pulaku
pulcher
pulgadas
pulgar
puli
pulinisya
pulitika
pulitiku
pulitikum
pulitikumi
pulitikupas
pulitikus
pulitku
pulitzer
puliwya
pulla
pullira
pullitzer
pullu
pulsacion
pulska
pultumarka
pululawa
pulunya
pulunyapi
pum
puma
pumachu
pumanuta
pumapampa
pumaq
pumaqanchi
pumaqucha
pumaqulluni
pumasillu
pumawanka
pumiranya
pumirapi
pumiri
pump
pun
puna
punapi
punata
puncha
punchana
punchaw
punchawkuna
punchawmanta
punchawpi
punchu
punco
punctata
puni
punin
punk
punkiy
punku
punkukuna
puno
punta
puntarenas
puntas
puntifisya
punto
puntu
punu
punuchiq
punukama
pununa
punuq
punuy
puqu
puquchisqa
puquina
puquio
puquna
puqunanpaq
puquq
puquqwata
puqusqa
puquy
puquykunamanta
pura
purani
pure
purikuk
purimuq
purin
purina
purinakunapim
purinanpaq
purinapaq
purinmi
puriq
puriqchana
puriqkuna
puriqlla
puriqllam
purirqa
purispa
purisqa
puriy
puriynin
puriyninmi
puriyta
purkun
puro
purple
purpose
purpurea
purpureum
purqu
purtugal
purtugalpa
purtuyis
purtuyiskunap
puru
puruchuku
puruha
purum
puruma
purun
purus
purutu
puruwa
purwa
pusan
pusana
pusapuna
pusaq
pusaqkuna
pusaqkunawan
pusaqmi
pusaqnin
pusaqninkuna
pusaqninkunaqa
pusaqninmi
pusaqninpas
pusaqninqa
pusaqnintin
pusaqniyuq
pusaqpas
pusaqsi
pusarqan
pusasqan
pushak
pushana
pushaq
pusilla
pusitiwu
puskanturpa
puskas
pussycat
pusu
pususu
put
putana
putaqa
putin
putina
putis
putre
putu
putum
putumayo
putumayu
pututu
puwaq
puwaqhanka
puwaqpanpa
puwpu
puy
puya
puyanku
puyo
puyol
puytu
puyu
puywanku
puzo
pv
pw
px
py
pyotr
pyrenees
pyrotechnics
pywikipedia
pywikipediabot
pz
q
q0
q1
q2
q3
q4
q5
q6
q7
q8
q9
qa
qachu
qachwa
qahira
qala
qalamarka
qalapuha
qalaqutu
qalasaya
qalawala
qalaywala
qalla
qallanqati
qallapa
qallarikuy
qallarin
qallarina
qallarinan
qallarinmi
qallariq
qallarirqa
qallarirqaku
qallarirqan
qallarispa
qallarisqa
qallarisqan
qallarisqanpi
qallariy
qallariynin
qallariyninpi
qallaw
qallawa
qallawam
qallawap
qallayuq
qallu
qalluchaw
qalluchawmi
qallupi
qallwa
qam
qamkuna
qanawa
qanawimayu
qanchi
qanchis
qanchisnintin
qanchisniyuq
qaniwa
qantu
qapachiqa
qapaq
qapi
qaqa
qaqapampa
qaqatampu
qaqra
qara
qaracha
qarachi
qaralla
qaramanta
qaran
qaranawi
qaranpi
qaranqa
qaranta
qarap
qarapi
qarapuku
qaraqruyuwa
qaraqullu
qaraqutu
qaras
qarawili
qarayuq
qaraywa
qari
qarqan
qarqarqucha
qarqurqan
qarquspa
qarquy
qarwa
qarwamayu
qarwaq
qarwaqucha
qarwarasu
qarwas
qasa
qasaqsuyu
qasi
qasikaypi
qata
qataq
qataqura
qatar
qatasqa
qatawa
qatawi
qati
qatilla
qatin
qatiq
qatiqlla
qatiqnin
qatiqninmi
qatiran
qatispa
qatqa
qatuylla
qaw
qawana
qayakusqa
qayakusqan
qayakusqanpa
qayanqati
qayara
qayay
qaylla
qayllanpi
qayllanpichu
qayna
qaysa
qb
qc
qd
qe
qellqa
qelqa
qelqasqan
qespi
qf
qg
qh
qhachwa
qhali
qhampu
qhanqaraqa
qhapana
qhapaq
qhapaqkunap
qhapaqnin
qhapaqninsi
qhapaqpa
qhapaqsaya
qhaqti
qhaqya
qhari
qharikuna
qharikunawan
qharip
qharipas
qhariqa
qhariqucha
qhasqu
qhatantika
qhatqi
qhatu
qhatuna
qhatuq
qhaturipi
qhawana
qhawanachakuna
qhawanakunti
qhawanillas
qhawaq
qhawaray
qhawaraya
qhawariy
qhawaspa
qhaway
qhaya
qheshwa
qheswa
qhichwa
qhichwam
qhichwaman
qhichwamanta
qhichwap
qhichwapi
qhichwata
qhilla
qhipa
qhipagradupi
qhipan
qhipanpi
qhipanta
qhipantaqa
qhipaq
qhipaqnin
qhipaqnintaq
qhipaqta
qhiqalla
qhishwa
qhiswa
qhiti
qhiwar
qhoranchiskuna
qhuchapampa
qhuchi
qhuchiwat
qhuchuntin
qhulla
qhuna
qhunqhu
qhupiyapu
qhura
qhurqhi
qhusi
qhuya
qhuyam
qhuyapi
qi
qian
qichusqa
qichuy
qichwa
qichwapa
qichwasimipi
qilla
qillay
qillayta
qillma
qillqa
qillqakamayuqninmi
qillqakuna
qillqakunapaq
qillqakunata
qillqam
qillqamanta
qillqamunchik
qillqamurqan
qillqamuy
qillqan
qillqana
qillqanakuna
qillqanapaq
qillqanchik
qillqanku
qillqanmi
qillqap
qillqapampa
qillqapi
qillqapis
qillqaq
qillqaqa
qillqaqkuna
qillqaqkunamanta
qillqaqmi
qillqaqpa
qillqaqpas
qillqaqsi
qillqarqa
qillqarqan
qillqas
qillqashqa
qillqashqam
qillqaspa
qillqasqa
qillqasqakuna
qillqasqam
qillqasqan
qillqasqankuna
qillqasqanpa
qillqasqanpi
qillqasqanqa
qillqasqanta
qillqasqapas
qillqasqata
qillqasunchik
qillqata
qillqay
qillqaya
qillqaymi
qillqaynin
qillqayninmi
qillqayninpi
qillqaypi
qillqayta
qillu
qillwa
qilma
qimara
qimis
qin
qina
qincha
qing
qinghai
qinti
qipa
qipan
qipuncha
qiqin
qiqiri
qiqllam
qirisa
qirisan
qirisankuna
qirisankunaqa
qirisankunata
qiru
qirupallqa
qirupampa
qiruqucha
qirusillas
qispi
qispichinapaq
qispichiq
qispichiqkuna
qispichiqnin
qispichirqan
qispichiy
qispikusqa
qispilla
qispillaqta
qispiqanchi
qiswa
qitara
qitina
qiu
qiwillu
qiwlla
qiwllaqucha
qiwllarahu
qiwna
qiwuna
qj
qk
ql
qm
qn
qo
qom
qori
qosqo
qp
qq
qquelkascan
qquichua
qr
qs
qshks
qt
qu
quand
quando
quang
quaresma
quarterly
quartet
quatre
qucha
quchakuna
quchakunam
quchakunapi
qucham
quchaman
quchamanta
quchan
quchap
quchapampa
quchapanpa
quchapata
quchapi
quchapiqa
quchaqa
qucharqa
quchas
quchawan
quchkuna
quchu
quchuntin
quchup
que
quebec
quebracho
quebrada
quebradas
quechnapo
quechua
quechuas
quechwasimipi
queda
quedate
quedo
queen
queens
queiroz
quejas
quemado
quentin
quercus
queremos
querer
queretaro
querida
querido
quero
quesada
quest
question
questions
quetzaltenango
quevedo
quezon
qui
quiaca
quibdo
quicana
quiche
quichua
quichwa
quien
quienes
quieras
quiere
quiereme
quieres
quiero
quiet
quijano
quijarro
quijos
quijote
quila
quimera
quimica
quimsa
quimsacruz
quincy
quindio
quine
quinn
quinoa
quinones
quinta
quintana
quintanilla
quintero
quintet
quinteto
quinto
quinua
quiquibey
quiroga
quiros
quiroz
quise
quisiera
quispe
quita
quitensis
quito
quiz
quizas
qukun
qulan
qulcha
qulchani
qulla
qullaman
qullana
qullasuyu
qullasuyup
qullasuyupi
qullaw
qullawpi
qullchani
qulli
qullpa
qullpachaq
qullpaqucha
qullpasa
qullqa
qullqamar
qullqan
qullqapampa
qullqapirwa
qullqaquyllur
qullqi
qullqichaka
qullqimanta
qullqincha
qullqip
qullqipunku
qullqiri
qullqita
qullqiyuq
qullu
qulluchi
qullusqa
qulluta
qulluy
qulu
qulumi
qumanchi
qumas
qumlik
qumpaya
qumutu
qun
quncha
qunchamarka
qunchu
qunibu
qunquna
qunqur
qunta
quntumasa
qunuqranra
qunuqucha
qunurana
quoc
qupa
qupaqhawana
qupaqhawanap
quq
qura
qurakunam
quram
quran
qurani
quri
qurikancha
qurimanta
quripata
quriq
qurisapa
quriway
quriwayrachina
quriyunka
qurpa
qurqa
qurqan
qurupuna
qurutu
quruyqu
qurwara
qusan
qusankuna
qusanwan
quspa
qusqa
qusqu
qusqumanta
qusqup
qusqupi
quta
qutakuna
qutapata
qutaqayta
qutawasi
qutsu
qutsukuna
qutsun
qutu
qutum
qutumanta
qutuphaqsi
qutupi
qutupiqa
qutuqa
quturipunta
qutus
qutuwan
quwapaq
quwasa
quwata
quwi
quwiphasa
quya
quyan
quyaynin
quyllur
quyllurcha
quyllurchaw
quyllurchawwan
quyllurkuna
quyllurmi
quyllurpununa
quyta
quywi
qv
qvixote
qw
qx
qy
qz
r
r0
r1
r2
r3
r4
r5
r6
r7
r8
r9
ra
rabat
rabia
rabida
rabin
rabindranath
rabo
race
racemosa
rachel
rachina
racine
racing
rada
radical
radio
radioaficion
radiofonico
radiyu
radoje
radyu
rae
raez
raf
rafael
rafaela
raffaella
raffaello
ragazza
rage
rahman
rahu
rai
raices
railway
raimondi
raimondii
raimundo
rain
rainbow
rainer
raiz
raj
rajesh
rajucolta
rak
raka
rakha
rakhu
rakhuurqu
raki
rakikuna
rakikunam
rakikunata
rakikuq
rakim
rakin
rakina
rakinakurqan
rakinchik
rakinkuna
rakinkunam
rakinmi
rakinpi
rakinqa
rakiqunaykichu
rakiqunaykitsu
rakisqa
rakiy
rakiyuqmi
raldes
raleigh
ralph
ram
rama
ramada
ramalho
rameau
ramirez
ramiro
ramis
ramon
ramona
ramos
ramphastos
ramran
ramsar
ramsay
ramsey
ramun
rana
ranchera
ranchero
rancho
random
randy
range
rangel
ranger
rangers
ranking
rankings
ranrapallqa
ransis
ransisku
ransiya
ransiyap
ransiyapa
ransiyapi
ransya
ransys
ranti
rantin
rantina
ranulfo
ranunculus
raoul
rap
rapa
rapachu
rapanuy
raphael
raphi
raphimuyum
raphin
raphinkunapi
raphinkunata
raphip
raphiqa
raphisapa
raphiwaqracha
raphiyuq
raphiyuqkuna
raphiyuqmi
rapida
raposa
rapra
raprakunayuq
raprayuq
rapto
raqacha
raqay
raqaykuna
raqch
raqra
raquel
raramuri
rasa
rasaq
rashid
rasmussen
rassi
rastlos
rasu
rat
rata
ratas
ratata
raton
rattle
rattus
raul
rauwolfia
raval
ravel
ravelo
ravenna
raw
rawra
rawrana
rawray
rawson
rawul
ray
raya
rayan
rayku
raykum
raykur
raymi
raymikuna
raymim
raymin
raymita
raymond
raymondi
raymundo
rayo
rayonu
rayos
rayu
raza
razon
razones
rb
rbd
rc
rca
rchb
rctv
rd
re
reaccion
reactions
read
reading
ready
reagan
real
reales
realidad
realismo
reality
realizada
realizado
reason
reategui
rebagliati
rebeca
rebecca
rebelde
rebelion
rec
recent
recherches
recibe
recibio
recibir
recien
reciente
recife
recinto
recital
recoge
recoleta
reconciliacion
reconocimiento
reconquista
reconstruccion
recopilacion
recopilatorio
record
recordando
recordar
recording
recordings
records
recreacion
recta
recto
rector
rectores
recuay
recueil
recuerda
recuerdo
recuerdos
recuperacion
recursos
red
redford
redgrave
redirigimos
redonda
redondeada
redondo
reduccion
reed
reeder
reedicion
reeditada
reeditado
reencuentro
rees
reeve
reeves
ref
reference
references
referencia
referencias
reflections
reflexa
reflexion
reflexiones
reforma
refugiados
refugio
regalo
regatas
reggae
reggaeton
reggio
regia
regiae
regimen
regina
reginald
reginaldo
region
regional
regionales
regione
regiones
regis
registro
regnum
regresa
regreso
rehder
rei
reiche
reid
reims
reina
reinaldo
reinhardt
reinhold
reino
reinos
reis
reithermanmi
rekupa
relacion
relacionadas
relacionados
relaciones
related
relations
relato
relatos
release
released
relevos
religion
religiosa
religioso
reloj
reluce
rembrandt
remedios
remember
remigio
remix
remixes
remo
renacimiento
renan
renata
renato
renault
rendo
rendon
rene
renee
rengifo
renoir
renovacion
renuncia
reo
reparto
repens
repente
report
reportaje
reportajes
reports
represas
representacion
representativas
representativos
reprint
reprinted
reprise
reproducir
repubblica
republic
republica
republicado
republicano
republika
republikakunap
republikanu
republikap
republikapa
republikapas
republique
requena
requesens
request
requiem
rescate
rescue
research
resena
reserva
reservada
reservado
reserve
reservoir
residencia
resinosa
resistencia
resistente
resolucion
resources
respectivamente
respiratorias
respiratorio
respiratory
resplendens
resplendes
respuesta
restauracion
resto
restrepo
resultados
resumen
resurreccion
retablo
retalhuleu
retama
reticulata
retirada
retirado
retiro
reto
retorno
retrato
retratos
retrieved
return
returns
reune
reunida
reunion
rev
reva
revenge
reventador
reves
review
reviews
revisada
revised
revision
revisited
revista
revistanchis
revolucion
revolucionaria
revolucionario
revoluciones
revoluta
revolution
revolver
revue
rex
rey
reyes
reykjavik
reyna
reynaldo
reynolds
reynosa
reynoso
reza
rf
rg
rgs
rh
rhapsody
rhea
rhein
rhinanthus
rhodes
rhoeas
rhombeus
rhone
rhynchospora
rhythm
ri
ria
ribas
ribeiro
ribera
riberalta
ribeyro
rica
ricardo
riccardo
ricci
rice
rich
richard
richards
richardson
richet
richie
richmond
richter
rick
ricketts
ricky
rico
ricordi
ricos
ride
riders
ridgwayi
riding
riego
riesgo
riestra
riga
right
rightarrow
rights
rigida
rigidus
rigoberta
rigoletto
rijksuniversiteit
rijn
rik
rikay
rikaynin
rikch
rikcha
rikchakuna
rikchaq
rikcharimuy
rikchasapa
rikhurin
rikhurinman
rikina
riktur
rikuchin
rikuchiq
rikukun
rikukuq
rikukuqpi
rikunalla
rikunapaq
rikunchik
rikunki
rikuq
rikuspa
rikusqa
rikuway
rikuy
rilivu
rima
rimac
rimakuna
rimakunam
rimakunata
rimakuykuna
rimakuykunamanta
riman
rimana
rimanachaw
rimanakuspa
rimanakuy
rimanakuymanta
rimanakuyninpi
rimanakuypa
rimanakuyta
rimanku
rimap
rimaq
rimaqa
rimaqkuna
rimaqmi
rimaqnin
rimaqninmi
rimaqniyuq
rimaqniyuqmi
rimaqpa
rimarirqan
rimarqan
rimarqanku
rimas
rimaspa
rimasqa
rimasqan
rimasqapas
rimay
rimayan
rimaychaw
rimaycuna
rimaykuna
rimaykunam
rimaykunaman
rimaykunamanta
rimaykunap
rimaykunapas
rimaykunapi
rimaykunapiqa
rimaykunaqa
rimaykunata
rimaykunatam
rimayman
rimaymanta
rimaymi
rimaynin
rimayninkuna
rimayninkunam
rimayninmi
rimayninqa
rimaypa
rimaypaqqa
rimaypas
rimaypi
rimaypim
rimayqa
rimaysi
rimayta
rimaytam
rimba
rimbaud
rimini
rimsky
rin
rina
rinchi
rincon
rinconada
rinda
rinehart
ring
ringo
rings
rinovirus
rinri
rinrisapa
rintima
rinza
rio
riobamba
riofrio
riohacha
rioja
rios
ripan
ripley
ripuwlika
ripuwlikap
riq
riqisqa
riqsichipusqan
riqsichirqa
riqsichisqan
riqsikuq
riqsin
riqsinchik
riqsinchikchu
riqsisqa
riqsisqachu
riqsisqam
riqsisqan
riquelme
riqyun
riqyunmi
rirpu
rirqa
rirqan
risa
risaralda
risas
risco
rise
risi
rising
risirwa
risirwakunapas
risirwamanta
risirwapi
risirwapiqa
risirwaqa
rispa
rispampa
rit
rita
ritama
ritawlu
ritmo
ritmos
ritos
ritt
ritter
riva
rivadavia
rivadeneira
rival
rivarola
rivas
rivelino
rivelles
river
rivera
rivero
rivers
riviere
riwi
riy
riyad
rizal
rizzoli
rj
rk
rl
rm
rmm
rn
ro
roa
road
rob
robards
robben
robbie
robbins
robe
robert
roberta
roberto
roberts
robin
robinson
roble
robledo
robles
robo
robot
robson
robustus
roca
rocafuerte
rocco
rocha
rochester
rocio
rock
rocky
rod
rodas
rodeo
rodgers
rodin
rodo
rodolfo
rodr
rodrigo
rodrigues
rodriguez
rodven
roel
rogagua
rogelio
roger
rogerio
rogers
roh
rohwer
roi
roja
rojas
rojo
rojos
roland
rolando
roldan
role
rolf
rolfe
roll
rolland
rollandia
rolling
rollins
roma
romagna
romain
roman
romana
romance
romancero
romances
romancier
romani
romania
romano
romantic
romantica
romanticas
romantico
romanticos
romanu
romanukunap
romanukunapaq
romario
rome
romeo
romeria
romero
romo
romualdo
romulo
ron
ronald
ronaldo
roncalla
ronda
ronde
rondonia
rong
roo
roof
room
rooney
roosevelt
root
roque
rosa
rosada
rosado
rosales
rosalia
rosalie
rosalind
rosario
rosas
rosaura
rose
rosea
rosemary
rosen
rosenberg
rosendo
rosenthal
roses
roseus
roshan
rosita
roskov
rosmarinus
rospigliosi
ross
rossellini
rossello
rossi
rossini
rossy
rostock
rostrata
rostro
rostros
rostworowski
rota
rotational
rotblat
roth
roto
rotterdam
rotundifolia
rouen
rouge
round
rousseau
roussos
rovira
row
rowe
rowland
rowling
roxana
roxette
roy
royal
royale
rozas
rp
rpp
rq
rr
rs
rsssf
rt
rtve
ru
rua
ruan
rubem
ruben
ruber
rubi
rubia
rubiaceae
rubinstein
rubio
rubra
ruburiy
rubus
ruby
rucha
rudiuscula
rudiyu
rudolf
rudolph
rudy
rudyard
rue
rueda
rufescens
ruffo
rufina
rufino
rufus
ruggero
rugulosa
ruinas
ruiz
ruk
ruku
rulfo
rulli
ruman
rumano
rumantiku
rumanu
rumanya
rumasa
rumba
rumbo
rumex
rumi
rumichaka
rumikuna
rumikunata
rumilla
rumim
rumimanta
ruminahui
ruminawi
rumipampa
rumiqullqa
rumiru
rumita
rumiwan
rumiyasqa
rump
rumu
run
runa
runacha
runacham
runak
runakamaq
runakay
runakuna
runakunaka
runakunam
runakunaman
runakunamanta
runakunamantaqa
runakunan
runakunap
runakunapa
runakunapak
runakunapaq
runakunapas
runakunapi
runakunappas
runakunaq
runakunaqa
runakunas
runakunata
runakunatam
runakunatapas
runakunataq
runakunataqa
runakunatas
runakunawan
runakunayuq
runallakta
runallap
runallaqta
runallaqtap
runam
runaman
runamanta
runan
runanin
runankuna
runap
runapa
runapaq
runapas
runapi
runappas
runapura
runaq
runaqa
runas
runashimi
runasimi
runasimillapi
runasimiman
runasimin
runasiminpi
runasimipi
runasimipim
runasimita
runasimitam
runata
runatam
runataqa
runawan
runayay
runayupay
runayuq
runayuqmi
runchu
runkuraqay
running
runs
runtu
runtucha
runtukunata
runtukunatam
runtuma
runtunkunata
runtus
runtuta
runtuy
rup
rupa
rupay
rupestris
ruphasqa
ruphay
rupicola
ruq
ruqa
ruqnaqa
ruqt
ruqutu
ruqyana
ruqyay
ruqyayta
rura
rural
rurales
ruran
rurana
ruranakun
ruranakunmi
ruranakuspa
ruranakuy
ruranakuymi
rurananpaq
ruranapaq
ruranapaqpas
ruranchik
ruranku
ruraq
ruraqkuna
ruraqkunata
ruraqmi
ruraqpa
rurarqan
ruraspa
rurasqa
rurasqakuna
rurasqam
rurasqan
rurasqankuna
rurasqanmi
rurasqapas
ruray
rurayan
ruraychaqa
ruraykun
ruraykuna
ruraykunku
ruraymi
ruraynin
rurayta
ruri
rurichinchay
rurin
ruriq
ruriqucha
rurrenabaque
ruru
ruruchina
ruruchinam
ruruchinap
ruruchinapaq
ruruchinapaqmi
ruruchiq
rurukunam
rurum
rurun
rurunkunaqa
rurunkunatam
rurunqa
rurusapa
ruruyuq
rusa
rusariyu
rusaryu
rusby
rush
rusia
rusiya
rusiyap
rusiyapa
rusiyapi
ruso
russell
russia
russian
rusu
rusya
rusyamanta
rusyap
ruta
ruth
rutherford
rutpa
rutuy
ruud
ruwakun
ruwan
ruwana
ruwanapaq
ruwanku
ruwaq
ruwasqa
ruwasqan
ruway
ruwayan
ruwaykuna
ruwayta
ruwli
ruy
ruya
ruyak
ruysinur
rv
rw
rwanda
rx
ry
ryan
rz
s
s0
s1
s2
s3
s4
s5
s6
s7
s8
s9
sa
saale
saarbrucken
saarland
saavedra
saba
sabado
sabah
sabatini
sabato
sabaya
sabaynu
sabbath
sabe
saber
sabes
sabia
sabias
sabina
sabino
sabio
sabogal
sabor
saboya
saca
sacatepequez
saccharum
sacerdote
sach
sacha
sachas
sachsen
sacramento
sacred
sacrificio
sad
sadat
saddam
saddle
sade
sadio
saenz
safe
saga
sageo
sagittifolium
sagrada
sagrado
sagrados
sagrario
saguinus
sahara
sahun
sai
said
saigon
sailor
saimiri
saint
sainte
saints
saitama
sajama
sakawa
sakay
sakharyap
sakisili
saksarayuq
saksaywaman
saksaywamanpi
sakura
sal
sala
salada
salado
salah
salam
salama
salamanca
salamandra
salamanka
salango
salar
salas
salasaca
salasaka
salaverry
salazar
salce
salcedo
saldana
sale
salem
salenko
sales
salesiano
salgado
salicifolia
salicifolius
salida
salina
salinas
salitral
salitre
salix
salle
sallemanta
sallqa
sallqantay
sallqapampa
sallqapi
salluyu
sally
salma
salmo
salmos
salmukuna
salmun
salome
salomon
salon
salsa
salsero
salt
salta
saltillo
salto
saltu
salud
salut
salvacion
salvador
salvadorpi
salvaje
salvajes
salvatierra
salvatore
salve
salvia
salvini
salvo
salwadur
salwadurpa
salzburg
salzburgo
sam
sama
saman
samana
samaniego
samanku
samanna
samantha
samaq
samay
samaypata
samba
sambafoot
samborondon
sambucus
sambya
same
sami
samiruka
samirya
samk
samoa
sampa
sampaya
samper
sampras
sampson
samuel
samuelpa
samuelson
samun
samwa
san
sana
sanampa
sanampakunam
sanampam
sanampanqa
sanancha
sananchakunayuq
sananchasqan
sananho
sananku
sanchez
sancho
sancta
sancti
sand
sandia
sandino
sandokan
sandor
sandoval
sandra
sandrini
sandro
sang
sangay
sanger
sangre
sanguinea
sanguineus
sani
sanjeev
sanjines
sank
sanka
sankarara
sankay
sankt
sanku
sankurachi
sano
sans
sansa
sanskrit
sant
santa
santakuna
santam
santamaria
santana
santander
santaolalla
santarem
santay
santi
santiago
santiagu
santiagueno
santiestevan
santillana
santisima
santisteban
santiwanis
santo
santoral
santos
sants
santu
santuario
santukuna
santurce
santus
santy
santyagu
santyagup
sanu
sanurya
sanz
sao
sapa
sapachaq
sapajaqi
sapaliri
sapalla
sapallan
sapallu
sapan
sapaq
sapara
sapatillan
sapatu
sapay
saphi
saphintam
sapindus
sapo
saponaria
saposoa
sapporo
sapsi
sapsilla
sapsiwaki
sapu
sapusuwa
saputika
saqa
saqapa
saqapampa
saqarara
saqawaya
saqirqan
saqirqaptinmi
saqmanakuy
saqmanakuyuq
saqra
saqru
saqsarayuq
sara
saraguro
sarah
sarajevo
sarakuru
saramago
saramuyu
sarapu
sarapuqucha
sarasara
sarashima
saravia
sarawak
sarayacu
sarayaku
sarcopterygii
sarcoramphus
sardegna
sardina
sardou
sargentillo
sargento
sarhua
sarita
sarkozy
sarmiento
sarria
sarrusophone
sars
sartre
saruma
sarumilla
sarwa
sas
sasa
sasachakuy
sasalla
saskatchewan
saskatoon
sassy
sat
satan
satanas
sataqchi
satb
satchmo
satelital
satelite
satiliti
satipu
satirica
sativa
sativum
sativus
saturday
satureioides
satureja
saturn
saturnino
saturno
sauce
saud
saul
saunders
saune
saunep
saura
saururus
savage
savalas
save
saved
saviabolivia
savio
savoia
saw
sawa
sawanqaya
sawasiray
sawaya
sawintu
sawkari
sawsi
sawud
sawyer
saxophon
saxophone
say
saya
sayakuq
sayami
sayan
sayana
sayapullu
sayaq
sayarisqanmantapas
sayay
saylla
saypina
sayri
sayrikapur
says
sayt
saywa
saywachi
saywakuna
saywan
saywanpi
saywapi
saywiti
saywitu
saywitukuna
saywitun
saywitunkuna
saywitupas
saywtu
sb
sbu
sc
scala
scale
scandal
scandens
scarabaeidae
scarlet
scarlett
scene
sceneggiatura
scenes
schiller
schinopsis
schinus
schio
schistosomiasis
schleswig
schltr
schmidt
schneider
schoenoplectus
scholarships
school
schopenhauer
schott
schreibt
schriften
schriftsteller
schrodinger
schubert
schulze
schumacher
schumann
schwalb
schwartz
schwarzer
schweinf
schweitzer
schwerin
sci
science
sciences
scientiarum
scientific
scirpus
sciureus
sciurus
sclp
sco
scola
scorsese
scorza
scotia
scotland
scots
scott
scottish
screen
scribd
scribners
script
scrophulariaceae
sd
se
sea
seamus
sean
search
seas
season
seattle
sebastian
seca
secada
seccion
secciones
sechin
sechurae
seco
second
seconds
secos
secoya
secret
secreta
secretaria
secretario
secretary
secreto
secretos
secrets
section
sector
secuestro
secundaria
secundario
secundum
secure
sed
seda
sede
see
seeco
seeler
seen
sega
segment
segovia
seguido
segun
segunda
segundo
segundos
segura
seguro
sei
seidelmann
sein
seine
seis
seix
selaginella
selangor
selassie
seleccion
select
selected
selection
selena
selenium
self
selim
sello
selma
selva
sem
semana
semanal
semanas
semantica
semblanza
semi
semiconductors
semilla
seminario
semiotica
semistriatus
sempere
sempre
sen
sena
senado
senal
sencillo
sencillos
senda
sendai
sendero
senderos
senecio
senegal
senghor
senhora
seniculus
senna
senor
senora
senoras
senorita
senoritas
sense
sentido
sentidos
sentimental
sentimiento
sentimientos
sentir
senza
seo
seoane
seoul
sep
sepp
sept
september
septiembre
septimo
sepulveda
seq
ser
sera
serafin
serafina
seran
serapio
serbia
serena
serenade
serenata
seres
serge
sergei
sergio
seria
serie
series
serjania
sermao
sernatur
serpentes
serpiente
serra
serrania
serrano
serranus
serrasalmus
serrat
service
servicio
servicios
servindi
ses
sessions
sesto
set
sete
setubal
seu
seudonimo
seuil
seul
seven
severa
several
severino
severo
sevilla
sex
sexo
sexto
sexual
seymour
sf
sg
sgt
sh
sha
shaanxi
shadow
shah
shahr
shahrukh
shain
shake
shakespeare
shakira
shallka
shamayka
shamuq
shandong
shane
shanghai
shangkun
shanshu
shanti
shanxi
shapra
shaprarahu
shaqsha
sharanawa
sharon
sharp
shatner
shavelson
shaw
shawsha
she
shearer
sheena
sheet
sheffield
sheikh
sheila
shek
shell
shelley
shen
sheng
shenyang
shepard
shepherd
sherff
sheridan
sheriff
sherlock
sherwood
sheryl
shevardnadze
shevchenko
shi
shield
shiguango
shih
shikoku
shilla
shimi
shimichaw
shimichu
shimikuna
shimikunata
shimillki
shimin
shimipa
shimipi
shimita
shimiwan
shimiyuk
shimiyukkamu
shin
shina
shinahuta
shinalla
shinawatra
shine
ship
shipapa
shipibo
shipibu
shipipu
shipiwu
shiraka
shiraq
shirley
shiu
shiw
shiwi
shmuel
shock
shooting
shop
short
shoshone
shostakovich
shot
should
show
shows
shrewsbury
shropshire
shu
shucullococha
shuk
shuklla
shukllachishka
shumaq
shunku
shunqu
shunqui
shupluy
shuqan
shushufindi
shuti
shutin
shutiyuq
shuwar
shuyturahu
shuyu
si
sibambe
sibelius
sibil
sic
sica
sicalis
sicchez
sichuan
sichura
sichus
sicilia
siciliaspa
sid
sida
side
sidney
sido
siecle
siegesbeckia
siehe
siembra
siempre
siena
siendo
siento
sierra
siete
sieveking
sig
sigismund
siglo
siglos
sigmund
sign
signature
significa
significado
signo
signora
signore
signoret
signos
sigo
sigue
siguiente
siguientes
sihanouk
sihuas
sik
sika
sikas
sikaya
sikchus
siki
sikin
sikllalla
sikra
siksik
siku
sikundu
sikunduman
sikuri
sikuwani
sikwanka
sikwi
sil
sila
silala
silanche
silanda
silandapi
silandaq
silence
silencio
silenciosa
silent
siles
silisya
silla
sillillika
sillp
sillu
sillustani
sillustanipi
sillwi
silq
siluli
siluriformes
silva
silvana
silveira
silver
silvestre
silvia
silvina
silvio
silvistri
sima
simana
simanapi
simba
simbabwi
simbolo
simeon
simi
simichaw
simikuna
simikunallapim
simikunamanta
simikunapi
simikunata
simikunatam
simillapi
simillapim
simim
simiman
simimanta
simimantam
simin
siminmanta
siminmi
siminpi
siminta
simintu
simip
simipa
simipaq
simipas
simipi
simipim
simipipas
simipiqa
simipitaq
simiqa
simita
simitachu
simitam
simitapas
simitaqa
simitas
simiwan
simiyuq
simon
simone
simonelli
simonot
simons
simpi
simple
simplemente
simples
simplificado
simpson
sims
simun
sin
sina
sinaloa
sinaqara
sinatra
since
sincelejo
sinchi
sinchichu
sinchita
sinchiyasqa
sinchulawa
sinclair
sind
sindicato
sindikatu
sindrome
sinfonia
sinfonica
sinfonico
sinfonieorchester
sing
singapore
singapur
singer
singh
singing
single
singles
sings
singular
sinigal
sinik
sinipa
sinkan
sinkrinaqucha
sinku
sino
sinon
sinonimos
sinqa
sinri
sinru
sins
sinta
sintapi
sintesis
sinti
sintimitru
sintinu
sintiru
sintomas
sintomasqa
sintuq
sinurpa
sio
sioux
sip
sipan
siparaya
siparuna
sipas
sipawa
sipe
sipi
sipiq
sipirqan
sipirqanku
sipisqa
sipita
sipiy
siprage
sipris
sipulturas
sipuru
siq
siqana
siqueiros
sir
sira
siracusa
sirbya
sirbyapa
sirena
sirenas
sirinka
siriq
siris
siriwani
siriy
sirk
sirka
sirleaf
sirp
siruela
sirve
sirwila
sirwisa
sirya
siryi
siryono
sisa
sisal
sisayuqkuna
sisi
sispa
sistema
sistemas
sister
sisters
sisyrinchium
sit
sitaqucha
site
sitel
sites
siti
sitimri
sitimripi
sitio
sitios
sitqa
situacion
situacionaguax
situwa
sitwa
siul
sivori
siwar
siwara
siwas
siwi
siwikuna
siwikunap
siwilchasqa
siwilla
siwinaqucha
siwis
siwk
siwla
siwlaqucha
six
sixto
siyu
siyul
size
sj
sk
ska
skay
sketch
sketches
skopje
sky
sl
slade
slaskie
slave
sleep
sleeping
slow
sm
small
smallanthus
smile
smiles
smith
smithsonian
smoke
sn
snake
sneijder
snow
so
soares
soberano
sobre
sobrino
soc
soccer
sochi
social
sociales
socialism
socialismo
socialista
sociedad
sociedades
societatis
societe
societies
society
socio
sociodemograficas
sociologia
socorro
socrates
sofia
sofocles
software
soga
sogno
sol
sola
solamente
solanaceae
solanas
solano
solanum
solar
solares
solari
soldado
soldados
soldan
soldier
sole
soledad
soledades
soleil
soler
solid
solidaridad
solids
solier
solis
solista
solitario
solo
sologuren
solola
solomon
solorzano
solos
soltera
soltero
solucion
solution
som
sombra
sombras
sombrero
some
somebody
someone
somerset
something
sometimes
sommerfeld
somos
somoza
son
sonar
sonata
sonatas
sonate
sonchoides
sonchus
sone
sonene
soneto
sonetos
song
songbook
songo
songs
sonia
sonido
sonny
sono
sonora
sonqo
sonrisa
sons
sont
sony
soo
soon
sophia
sophie
sophiya
sophoniyaspa
soplin
soprano
sor
soras
soraya
sordi
sorel
soria
soriano
sorpresas
sorry
sorvino
sos
sosa
sostenible
sotalia
sotelo
sotil
soto
sotomayor
soukup
soul
sound
soundtrack
sour
source
sources
sous
sousa
south
southern
souvenir
souvenirs
souza
sovietica
soy
soyapango
sozoranga
sp
space
spain
spanish
sparverius
spd
speak
speakers
speaking
special
specialist
species
specified
specimen
specularioides
specularoides
speeches
speed
spelucin
spence
spencer
speothos
sperling
spheniscus
spicata
spicatum
spider
spielberg
spike
spinetta
spinosa
spinosissima
spinosum
spinosus
spinoza
spirit
spirits
spiritual
spiritus
spitz
split
sport
sporting
sports
spp
sprache
spring
springer
springett
springfield
springs
springsteen
spy
sq
sqrt
square
sr
sre
sri
srna
ss
ssc
ssp
st
staatliche
stack
stadium
stadt
stafford
staffordshire
stage
stages
stalin
stallone
stan
standard
standl
stanford
stanisław
stanley
star
stardust
starr
stars
start
starting
state
states
station
statistics
stats
status
stay
steatornis
steel
stefan
stefano
steffi
stein
steinbachii
stella
steno
step
stephan
stephane
stephanie
stephen
steps
stereo
sterling
stern
sterna
steve
steven
stevens
stevenson
stevia
stevie
stewart
still
stipa
stjepan
stock
stockholm
stockton
stoke
stokkermans
stoltenberg
stone
stones
stop
storia
stories
storm
storni
story
stotz
stradivarius
straits
strange
stranger
strangers
strasbourg
strauss
stravinski
stream
streep
street
streets
streicher
streisand
streptococcal
strike
strindberg
string
strings
structural
structure
structures
struthio
stuart
stub
student
studien
studies
studio
study
sturges
stuttgart
style
su
sua
suarez
suave
suaveolens
sub
subcampeon
subcampeona
subclassis
subcuenca
subdivision
subfamilia
subject
subkampiun
sublime
subordo
subscribe
subsp
suc
success
successi
sucedio
sucesion
such
suchi
suchu
suchuq
suchuqkuna
sucre
sud
sudamerica
sudamericana
sudamericano
sudan
suddenly
sue
suecia
suelo
suena
sueno
suenos
suerte
suez
sufijo
sufijos
sugar
suharto
sui
suicide
suite
suites
suiza
sujeto
suk
suka
sukcha
suker
suksu
sukumpiyu
sukuwa
sul
sula
sulca
suleyman
sulimana
sulis
sulla
sullana
sullavan
sullivan
sullk
sullkun
sullu
sulluchiy
sulluku
sulluy
sully
sultan
suluqu
sum
suma
sumac
sumaco
sumak
sumaku
sumalya
sumaq
sumaqta
sumar
sumire
summa
summary
summer
summers
summitpost
sumpawa
sun
sunay
sunaya
sunaymi
sunayta
sunaytam
sunaytas
sunch
sunchi
sunchu
sunchupampa
sunday
sung
suni
sunim
sunin
suniqira
suniwillay
sunkaru
sunkha
sunku
sunqu
sunqumanta
sunqup
sunset
sunshine
sunt
suntu
suntukunam
suntum
suntuntu
suntuqa
suntur
sunturkuna
sunturmi
sunturnin
sunturninpi
sunturninpim
sunturnintaqa
sunturpa
sunturpi
sunturpim
sunturqa
suomi
supa
supay
supaypa
supe
super
supercopa
superfamilia
superfamily
superficie
superior
superkupa
superman
superstar
suphu
supi
suplemento
supplement
support
suprema
supremo
suq
suqta
suqtantin
suqtawask
suqtayuq
suqus
sur
sura
surakachi
suras
surat
surata
surco
sureno
surface
suri
suriki
surimana
surinam
suriwiri
surku
surname
surq
suru
surutu
survey
sus
susan
susana
susanne
suskal
suspiros
sussex
sustantivo
susupi
susyaldimukrata
susyalismu
susyalismuman
susyalista
sut
sutaq
sutherland
suti
sutichaninchaq
suticharqa
suticharqan
sutichasqa
sutichasqam
sutichay
sutiiyuq
sutikuna
sutikunatam
sutim
sutiman
sutin
sutinchasqa
sutinkuna
sutinkunawan
sutinmi
sutinqa
sutinta
sutintam
sutip
sutipaq
sutiqa
sutirimana
sutisuyu
sutita
sutiwan
sutiyki
sutiyup
sutiyuq
sutiyuqmanta
sutiyuqmantam
sutiyuqmi
sutiyuqpa
sutiyuqqa
sutiyuqsi
sutiyuqta
sutru
sutuma
suu
suwa
suwaq
suwasi
suway
suwidsuyu
suwidsuyupa
suwidsuyuyuq
suwisa
suwit
suya
suyk
suyos
suyruqucha
suysa
suysya
suyt
suytukancha
suytuqucha
suyu
suyukuna
suyukunam
suyukunamanta
suyukunap
suyukunapa
suyukunapas
suyukunapi
suyukunapim
suyukunapipas
suyukunata
suyukunawan
suyukunayuq
suyullapi
suyum
suyuman
suyumanta
suyun
suyunin
suyunkunapi
suyunmi
suyunpi
suyuntu
suyup
suyupa
suyupas
suyupi
suyupim
suyupipas
suyupiqa
suyupis
suyupitaq
suyuq
suyuqa
suyus
suyuta
suyuwan
suyuyuq
suzanne
sv
svenska
svensson
svg
svn
sw
swahili
swan
swanson
swasisuyu
swayne
swedish
sweet
swietenia
swing
swings
sword
sx
sy
sydney
sydow
sylvester
sylvia
sylvilagus
symphonic
symphonie
symphoniker
symphony
symptoms
syn
syntax
synthesis
syracuse
syst
system
systema
systematic
systems
sz
szyszlo
t
t0
t1
t2
t3
t4
t5
t6
t7
t8
t9
ta
tabaco
tabaconas
tabasco
tabebuia
tabernaemontana
tabla
tablas
table
tables
taborga
taca
tacana
tachira
tacna
tacuarembo
taday
tadeo
tae
taffarel
tafur
tagalog
tagetes
tagle
tagore
tahiti
tai
taipei
taisha
tait
taiwan
taj
tajacu
tajo
taka
takachi
takakuma
takana
takanakuy
takaq
takaspa
take
taken
takes
taki
takichaq
takichaqmi
takichaqmipas
takichaqpas
takichaqsi
takikuna
takikunap
takikunata
takikunatam
takim
takin
takina
takinku
takinkuna
takinmi
takipayanaku
takiq
takiqkuna
takiqmi
takiqsi
takirqan
takispa
takisqa
takiy
takiyta
taklla
taksa
taksha
takupaya
takyasqa
tal
tala
talag
talara
talawira
talbot
tale
tales
talk
talledo
taller
talleres
tallinn
talmadge
tam
tamandua
tamara
tamarugal
tamaulipas
tamayo
tambien
tambo
tambopata
tambor
tambora
tamil
tampico
tampillu
tampu
tampumach
tampumachay
tampupampa
tampupata
tampurqu
tamrayku
tamya
tamyay
tan
tang
tango
tangos
tani
tania
tanka
tankayllu
tanla
tanqan
tanqana
tansanya
tansanyapa
tant
tanta
tantamayu
tantanakuy
tantanakuykuna
tantanakuykunap
tantanakuymi
tantanakuynin
tantanakuyninkunap
tantanakuyninmi
tantanakuypa
tantanakuypi
tantanakuyqa
tantanakuyta
tantanakuytam
tantara
tantari
tantasqa
tanto
tao
tapakilcha
tapaqari
tapaqucha
tapara
tapia
tapichi
tapiete
tapirus
tapuna
tapuq
tapusqa
tapuy
tapuypi
taq
taqe
taqi
taqna
taquile
tara
taram
tarapaca
tarapacana
tarapaka
tarapi
tarapuku
taraputu
taraqchi
taraqu
tarata
taraxacoides
taraxacum
taray
tarcila
tarcisio
tarde
tarea
target
taricaya
tarija
tarika
tarikiya
tariksa
tarikun
tarinchik
tarinki
taripakuq
taripakuqkunap
taripakuy
taripana
taripanapaq
taripasqa
taripay
tariquia
tarirqan
tarjeta
tarki
tarku
tarma
tarpuq
tarpuy
tarqui
tarragona
tarso
taruka
tarukam
tarush
tarushkancha
tarwi
tarzan
task
tata
tatasi
tate
taupo
tauris
tauro
taurog
taurus
tawa
tawak
tawam
tawamanu
tawanawi
tawantin
tawantinsuyu
tawantinsuyuman
tawantinsuyup
tawantinsuyupi
tawantinsuyuta
tawayuq
tawka
tawllirahu
tawna
tawqa
tawri
taxi
taxonomic
taxonomy
tay
taya
tayapampa
tayaqaqa
tayassu
tayhan
tayik
tayiksuyu
taylor
taypi
tayta
taytacha
taytakura
taytakuram
taytan
taytanpa
taytanqa
taytansi
taytay
taytayuq
tayu
taywan
tb
tbilisi
tc
tchaikovsky
td
te
tea
tealdo
team
teams
teatral
teatro
tech
technical
techniques
techno
technology
tecnica
tecnicas
tecnico
tecnologia
tecnologica
tecnologico
tecoma
tecse
ted
tegucigalpa
teheran
tehran
teide
teil
teixeira
tejada
tejado
tel
tela
telarc
telecomunicaciones
telefilm
telefilme
telefono
telemann
telemundo
telenovela
telenovelas
teles
televisa
televisao
television
telford
tell
tellado
tello
tellurium
telly
telugu
tema
temas
tematica
tempestad
tempi
template
temple
templo
tempo
temporada
temporal
temps
ten
tena
tender
tener
tenerife
tengo
tenia
tenido
teniente
tennessee
tennis
tenochtitlan
tenor
tenorio
tentacion
teodoro
teofilo
teologia
teorema
teoria
tephritidae
tephrosioides
tepic
teqse
tequila
teran
tercer
tercera
terena
terence
terengganu
teresa
teresina
teresita
term
termino
terminos
terms
ternura
terra
terre
terrestre
terrestris
terrible
terribles
territorial
territorio
territorios
territory
terror
terrorismo
terry
tesis
tesla
tesoro
test
testament
testamento
testigo
testimonio
testimonios
teta
tete
teton
tetradactyla
tetuan
tex
texas
text
texte
textes
textil
texto
textos
texts
tf
tg
th
thai
thailand
thalberg
thames
than
thanh
thank
thanks
thansa
thansacham
thansakunam
thansam
thapay
thaqu
thaqupampa
that
thatcher
thatki
thay
thaysuyu
the
theater
theatre
their
them
theme
then
theobroma
theodor
theodora
theodorakis
theodore
theodoro
theoria
theory
there
therese
theristicus
thesalonikiyuqkunapaq
these
thesis
theta
they
thicraskan
thief
thierry
thieves
thing
things
think
third
this
thiya
tho
thomas
thompson
thomson
thorndike
thornton
thorpe
thorvaldsen
those
thought
thoughts
thousand
threatened
three
through
thula
thumana
thumb
thunder
thunichirqan
thunisqa
thunisqan
thunq
thupa
thuqay
thuringen
thursday
thuta
ti
tia
tian
tianjin
tibet
tibetu
ticket
ticlio
ticona
tie
tiempo
tiempos
tienda
tiene
tienen
tienes
tiepolo
tierra
tierras
tiger
tigre
tigres
tigri
tigrinum
tigrinus
tigrisoma
tihiras
tihun
tijeras
tijuana
tijun
tika
tikaku
tikakunata
tiki
tikina
tikipaya
tikira
tiklla
tikrarqamun
tikray
tiksi
tiksicha
tiksimuyu
tiksimuyuntinpi
tiksimuyuntinpim
tiksimuyup
tiksimuyupi
tiksin
tiksisqan
tikti
tikuna
tikunata
tilamayu
till
tillandsia
tilsa
tiluchi
tim
timbal
timbales
time
times
timoteo
timothy
timpu
timun
timuthiyupaq
tin
tina
tinaku
tinamotis
tinas
tinctoria
ting
tingo
tinguipaya
tinieblas
tiniqip
tinki
tinkipaya
tinku
tinkun
tinkuna
tinkuq
tinkurachina
tinkuy
tinta
tintawku
tintay
tintaya
tinti
tintin
tinya
tio
tipa
tipiqucha
tipo
tipografia
tipos
tipuani
tipun
tiputini
tiqri
tiqsi
tiqsimuyup
tiquina
tiquipaya
tirado
tirana
tirano
tiranu
tirapata
tiraqi
tiri
tirika
tirisa
tiro
tirso
tirul
tisaleo
tisnumya
tistamintunpi
tita
titanes
titanic
titanka
titi
titicaca
titiqaqa
titira
title
tito
titre
titu
tituana
titulada
titulado
titulo
titulos
titupaq
titus
tiwanaku
tiwintza
tiwlli
tiwrun
tiwtinku
tixan
tiy
tiyachkan
tiyan
tiyana
tiyanan
tiyananqa
tiyanchu
tiyanku
tiyaq
tiyaqkuna
tiyaqlla
tiyaqmi
tiyarqan
tiyarqanku
tiyaspa
tiyay
tiyaynin
tiyaypi
tiyupunti
tiziano
tj
tk
tl
tlaxcala
tm
tn
to
toba
tobias
toc
toco
tod
toda
todas
todavia
today
todd
todo
todos
todter
together
tognazzi
tohoku
toi
toile
tokio
tokushima
tokyo
tola
toledo
tolima
tolkien
tolstoi
toluca
tom
toma
tomas
tomasa
tombola
tome
tomentosa
tommaso
tommy
tomo
tomorrow
tomos
ton
tone
tong
tonga
toni
tonight
tono
tonto
tony
too
tool
toole
top
topic
toponimia
toponimos
tora
torero
tori
toribio
torino
tormenta
tormes
tormo
torneo
torno
toro
toronto
toros
torquatus
torre
torrealba
torrealva
torrente
torreon
torres
torrez
torrico
torrijos
tortuga
tortura
tosagua
tosca
toscana
tosh
toshiro
tosso
total
toto
totonicapan
totora
totti
touch
toulouse
tour
toure
tourism
tourist
tours
tovar
towards
tower
towers
town
towns
toy
tp
tq
tr
trabaja
trabajadores
trabajando
trabajo
trabajos
track
tract
tractatus
tracy
trad
trade
trademark
tradicion
tradicional
tradicionales
tradiciones
tradisyunal
traduccion
traducciones
traduce
traducida
traducido
traducir
traduction
traductor
tragadero
tragedia
tragedy
tragico
tragodie
traicion
traidor
trail
trailer
train
traite
traje
tramp
trampa
tran
trance
trancoso
tranka
transactions
transcripcion
transcription
transdanuwyu
transito
translate
translated
translatewiki
translation
translations
transmision
transmisiones
transmite
transmitir
transporte
tranvia
trap
trapecio
tras
trata
tratado
tratamiento
travel
travelingluck
traverso
traves
travesia
trayectoria
tre
treasure
treatise
treatment
trece
tree
trees
treinta
trek
trelles
trema
tremarctos
tren
trent
trentino
trento
tres
trevino
treviso
trial
triana
triangulo
tribu
tribunal
tribus
tribute
tributo
trichechus
trichocereus
trichomycterus
tricoche
tricolor
tridactyla
trifolium
trigo
trilce
trilogia
trilogy
tringa
trini
trinidad
trio
triphyllum
triple
tripod
tripoli
triportheus
triptico
tristan
triste
tristes
tristeza
triticum
triunfo
triyu
trobador
trofeo
trofeu
troglodytes
troilo
trois
trombon
trompeta
tropaeolum
trophy
tropical
tropico
tropicos
trotsky
trouble
trova
trovador
trovadores
troveros
troya
trucha
trudeau
true
trueno
truffaut
truhillu
trujillo
truman
trumpet
trunkal
truong
truphyu
trupiku
trust
truth
trutmann
truyanu
try
trygve
tryon
trypanosomiasis
ts
tsa
tsachila
tsaka
tsaki
tsakra
tsalaki
tsay
tsaymi
tsaynaw
tsaypita
tschudi
tschudii
tse
tseltal
tsiartas
tsika
tsima
tsinghua
tsn
tsotsil
tsu
tsuchiya
tsuku
tsunya
tsuri
tsurin
tsuruta
tsutuhil
tt
tu
tuba
tubaguwan
tuberculosis
tuberosa
tuberosum
tubingen
tubino
tucker
tucson
tucuman
tucupita
tudo
tuero
tukachi
tukanu
tukarway
tukawaka
tukri
tuktu
tuktunkunaqa
tuktunnaq
tuktup
tuktuyuq
tuku
tukuchispa
tukuku
tukukun
tukukuq
tukukurqan
tukukuspa
tukukuyninmi
tukumach
tukuman
tukumi
tukun
tukuna
tukunanpaq
tukunari
tukuptin
tukuq
tukuri
tukurqan
tukuspa
tukusqa
tukuy
tukuynin
tulata
tulio
tulkan
tullpa
tullparahu
tullpu
tullu
tullum
tullup
tulluwan
tulluyuq
tulumusa
tum
tumarapi
tumas
tumasamil
tumati
tumawi
tumay
tumba
tumbao
tumbas
tumbes
tumi
tumina
tumipampa
tumpis
tumpu
tumusla
tuna
tunanmarka
tunari
tunas
tunay
tunel
tungurahua
tunicata
tunis
tunisya
tunja
tunka
tunki
tunkurawa
tunkurawra
tunqur
tunqurawra
tunquri
tunshu
tunupa
tupa
tupac
tupah
tupak
tupaq
tupi
tupinamba
tupisa
tupiza
tupu
tupukuna
tupum
tupun
tupuna
tupuq
tupuy
tupuynin
tupuypi
tuqllarahu
tuqti
tuqtu
tuqu
tuqurpuri
tura
turandot
turco
turdus
turi
turin
turismo
turistica
turistico
turkish
turkiya
turkiyapa
turkminsuyu
turku
turkya
turner
turnerpa
turno
turnyu
turpay
turpina
turpu
turqu
turri
turu
turuncha
turup
turupampa
tus
tusquets
tusuq
tusuqmi
tusuy
tusuykuna
tusuymi
tuta
tutapi
tuti
tutta
tutti
tutu
tutupaka
tutura
tuturiru
tuvo
tuwalu
tuwi
tuxtla
tuya
tuychi
tuyo
tuyru
tuywis
tuđman
tv
tvynovelas
tw
twain
twenty
twilight
twin
twist
twitter
two
twv
tx
ty
tycoon
tyler
tyne
type
typha
tyrone
tz
tzu
u
u0
u1
u2
u3
u4
u5
u6
u7
u8
u9
ua
ub
ubaldo
uber
ubers
ubersetzer
ubersetzung
ubicacion
ubinas
uc
ucayali
ucayalina
ucb
ucha
uchku
uchkus
uchpa
uchqu
uchqum
uchu
uchuk
uchukay
uchum
uchumuyla
uchupi
uchuq
uchuqu
uchuraqay
uchuy
uchuylla
ud
ue
ueber
uefa
uf
ufficiale
uffizi
uficial
ufisyal
ufisysal
ug
uganda
ugarte
ugarteche
ugel
ugo
uh
uhu
uhupi
uhutilla
ui
uicn
uj
uju
uk
uka
ukayali
ukhu
ukhuman
ukhun
ukhuna
ukhunman
ukhunpi
ukhupampa
ukhupi
ukhuqucha
ukira
ukranya
ukru
ukrus
ukt
uktuwri
uktuwripi
uku
ukucha
ukuchakunam
ukucham
ukuku
ukumari
ukuna
ukupanku
ukupi
ul
ula
ulanda
ulaymi
ulimpiku
ulin
ulises
uliw
ulla
ullachiya
ullam
ullantay
ullantaytampu
ullauri
ullaya
ulliru
ullku
ullmann
ulloa
ullpina
ullqu
ullqumayu
ullu
ulluku
ullumanta
ullunta
ullup
ulluyuq
ulmus
ulqa
ulrich
ulsan
ulta
ultima
ultimas
ultimate
ultimo
ultimos
ultra
uluchi
ululu
ulva
um
uma
umacha
umachaki
umachakunam
umala
umalli
umallina
umallinamanta
umallinapaq
umalliq
umalliqman
umalliqmi
umalliqnin
umalliqninman
umalliqninmi
umalliqninpas
umalliqninqa
umalliqninsi
umalliqninta
umalliqsi
umam
uman
umana
umanata
umani
umanpi
umanta
umapi
umas
umasuyu
umata
umati
umawa
umawapi
umayu
umbel
umberto
umbral
umina
umir
umiriqi
umirqucha
umpi
umpu
umpukuna
umu
umurata
un
una
unakuna
unam
unamuno
unancha
unanchachaqa
unanchan
unanchanta
unanue
unap
unapaq
unas
unay
unaykaq
unayta
uncaria
uncha
unchaw
unchawkama
unchawkuna
unchawkunapi
unchawmanta
unchawmantam
unchawmantapacha
unchawmi
unchawnin
unchawninmi
unchawniyuq
unchawniyuqmi
unchawpa
unchawpi
unchawpim
unchawpiqa
unchawpis
unchawpitaq
unchawqa
unchay
unchaynin
unchaypi
unchayta
unchu
unchul
uncle
uncredited
und
under
underline
understand
understanding
unduavi
unduras
unduraspa
une
unesco
unfinished
unforgiven
ung
uni
unica
unicef
unichina
unichiy
unicinctus
unico
unida
unidad
unidades
unidas
unido
unidos
unificacion
unificado
unifilis
unikuptin
unimaculatus
union
unipi
unit
unita
unitary
united
unitel
univ
universal
universale
universidad
universidade
universidades
universitaria
universitario
universitas
universitat
universite
universities
university
universo
univision
unka
unkara
unknown
unku
unkuykuna
unmsm
uno
unonopsis
unos
unplugged
unpublished
unqa
unqam
unqaq
unquchiq
unquna
unqunayaq
unquq
unqurichiq
unqusqa
unquy
unquykuna
unquymanta
unquymi
unquyninkunamanta
unquyninmi
unquyniyuq
unquypa
unquypaq
unquyqa
unquyta
unquywan
unriya
uns
unsa
unsaac
unsiya
unter
untersuchungen
untujawi
unu
unuta
unyun
uo
uomini
uomo
up
upa
upamayu
upas
update
updated
upi
upin
upload
upon
upper
uppsala
upu
upuraki
upyana
upyanam
upyaspa
uq
uqa
uqhu
uqi
uqllana
uqllu
uqrus
uqshapallqa
uqshapampa
uqsina
uqsitan
uqu
uqucha
uqunqati
uqupampa
uquq
uquri
uqururu
uquti
uqyachina
uqyaq
uqyay
uqyayllawan
ur
ura
uraka
uralan
uralanpi
uraman
uran
urani
uranpi
uranu
uranus
urap
urapi
urarina
uras
urasuyu
urasuyupa
urasuyupi
uray
urayninpi
urban
urbana
urbanisme
urbano
urbanu
urbanus
urbina
urdaneta
urdu
urdun
urena
urera
ureta
urgente
uri
uribe
uriburu
uriel
urin
urinpi
uriondo
urku
urkuki
urkur
url
urmachkaq
urmamuq
urmaq
urmasqa
urmaykuq
urmiri
urnu
uropygialis
urpay
urpi
urpim
urpu
urpuna
urqu
urqukuna
urqukunam
urqukunamanta
urqukunaniq
urqukunap
urqukunapa
urqukunapi
urqum
urqumanta
urqumayu
urquniq
urqunkuna
urqup
urqupampa
urqupi
urqupinamanta
urquqa
urququcha
urqus
urqusapa
urquwan
urrutia
urss
ursula
ursus
urtica
uru
urubamba
uruchaki
urucu
uruguay
uruguayo
urukunam
urum
urumanta
urunquta
urunquy
urupampa
urupisa
ururillu
ururu
urus
uruta
uruwayi
uruwayipa
uruwayipi
uruya
urwa
us
usa
usaid
usain
usando
usaq
usbiksuyu
use
used
useful
user
users
uses
usi
usiku
usillu
usillukunam
usillum
using
usiqa
usiyanyapi
uskil
uskiykurqan
uslar
uslulu
usnea
usnu
uso
uspa
uspaqucha
uspi
usqa
usqhullu
usqullu
usted
ustedes
usti
usu
usuales
usuario
usukuchi
usulutan
usuma
ususi
ususin
usya
usyanya
ut
uta
utah
utaq
utawalu
utc
ute
utexas
uti
util
utiles
utilis
utilizan
utiq
utirqan
utishi
utku
utkupampa
uto
utopia
utqa
utqaylla
utqayllam
utqhay
utrecht
utsu
utu
utukis
utulu
utun
utuqsi
utura
uturunku
utusku
utuyu
uu
uv
uw
uwa
uwan
uwankara
uwas
uwatana
uwe
uwiha
uwina
uwispu
ux
uxi
uxna
uy
uya
uyakachi
uyan
uyancharqan
uyanchasqa
uyarinakunatapas
uyarispa
uyariy
uyaycharqan
uyaycharqanku
uyaychasqa
uyaychasqan
uyayuq
uyaywa
uychi
uychichaw
uychichawwan
uyka
uymi
uynin
uyq
uytu
uyu
uyulu
uyumbicho
uyun
uyuni
uywa
uywachakunam
uywachakunatam
uywakuna
uywakunam
uywakunap
uywakunapas
uywakunapi
uywakunappas
uywakunata
uywakunatam
uywakunatapas
uywam
uywamanta
uywampullu
uywan
uywana
uywantullu
uywap
uywaqa
uywasqa
uywasqakuna
uywasqan
uywaymanta
uz
v
v0
v1
v2
v3
v4
v5
v6
v7
v8
v9
va
vaca
vacaciones
vacanze
vacas
vaccines
vaccinium
vacia
vaclav
vacuna
vadim
vagabundo
vagina
vague
vahl
vai
vajpayee
val
valcarcel
valda
valdelomar
valderrama
valdes
valdez
valdivia
valdivieso
valdizan
vale
valencia
valente
valentin
valentina
valentine
valentino
valenzuela
valer
valera
valeria
valeriana
valerie
valicha
validado
valiente
valientes
valincia
valladolid
valle
vallea
vallecas
valledupar
vallegrande
vallejo
vallejos
vallenato
valles
vallesia
valletta
valley
valmore
valor
valores
valparaiso
vals
valses
values
valverde
vamos
vampire
vampiro
van
vance
vancouver
vanellus
vanessa
vanguardia
vania
var
varas
varela
varese
vargas
variaciones
varias
variedad
variedades
variegatus
variety
varillas
varios
various
varon
vas
vasco
vasconcelos
vasily
vasos
vasquez
vassilios
vatican
vaticano
vaticanos
vaughan
vaupes
vava
vaya
vaz
vazquez
vb
vc
vd
vda
ve
vea
vec
veces
vecina
vecino
ved
veena
vega
vegas
vegetales
veinte
veintemilla
veinticuatro
veintimilla
veira
veizaga
vejjajiva
vel
vela
velarde
velasco
velasquez
velazquez
velez
velho
veliz
vella
velo
veloso
ven
vena
venado
venaticus
vencer
vendetta
venecia
venegas
veneno
veneto
venevision
venezia
venezolana
venezolano
venezuela
vengador
venganza
vengo
venice
venizelos
vent
venta
ventana
ventanas
ventanilla
ventas
ventura
ventures
venus
veo
ver
vera
veracruz
verano
verapaz
verastegui
verb
verbal
verbena
verbenaceae
verbesserte
verbo
verbs
verdad
verdadera
verdadero
verdades
verde
verdes
verdi
vergara
verlag
verlaine
vermehrte
vernaculos
vernon
veroffentlicht
verona
veronica
veronika
vers
versailles
verse
versicolor
version
versiones
versions
verso
versos
versus
vert
verte
verticillata
vertigo
vertiz
verve
very
veszprem
vete
vez
vf
vg
vh
vi
via
viacha
viagem
viaggio
viajante
viaje
viajero
viajeros
viajes
vial
viana
vianney
vias
vicalvaro
vice
vicente
vicentico
vicenza
viceversa
vichada
vicia
vicio
vicky
victimas
victor
victoria
victoriano
victorino
victorio
victory
vicugna
vicuna
vida
vidal
vidas
vidaurre
video
videos
vidor
vie
vieira
vieja
viejo
viejos
viena
viene
vienen
vienna
viento
vientos
vier
viernes
viet
vietnam
vieux
view
viewed
viewer
vigil
vigo
vii
viii
viktor
vila
vilacota
vilar
vilas
vilca
vilcabamba
vilcanota
vilela
villa
villacorta
village
villagran
villahermosa
villamil
villamontes
villana
villano
villanueva
villar
villaran
villareal
villarreal
villarrica
villarroel
villaverde
villavicencio
villazon
ville
villegas
villena
villiers
villosa
vilnius
vina
vincent
vincente
vincenzo
vinces
vinci
vino
vintage
viola
violence
violencia
violent
violet
violeta
violetas
violin
violon
violoncello
violonchelo
vira
viral
virales
virgata
virgen
virgenes
virgilio
virgin
virginia
virginianus
viridis
virrey
virreyna
virtual
viru
virus
viruses
virusmanta
viscachani
visconti
viscosa
vision
visiones
visit
visita
visitadoras
visitante
visor
vista
visto
visual
visualeditor
vita
vitae
vital
vitier
vitis
vito
vitor
vitoria
vittata
vittorini
vittorio
viuda
viudita
viva
vivaldi
vivanco
vive
vivere
vivero
vives
vivian
viviana
vivien
viviendo
viviente
vivio
vivir
vivo
vizcardo
vizcarra
vizconde
vj
vk
vl
vladimir
vladimiro
vm
vn
vo
vocabulario
vocabvlario
vocacion
vocal
voce
voces
voice
voices
voight
voir
voivodato
vol
volador
volando
volar
volcan
volcanica
volcano
volkswagen
vollach
vols
volta
voltaire
volume
volumen
volumenes
volumes
voluntad
volvamos
volver
volvere
vom
von
vos
voto
vous
voy
voyage
voz
vp
vq
vr
vriesendorp
vs
vt
vtech
vtv
vu
vuela
vuelo
vuelta
vuelvas
vuelve
vuelven
vuelvo
vulgare
vulgares
vulgaris
vulpes
vultur
vv
vw
vx
vy
vybiti
vz
w
w0
w1
w2
w3
w4
w5
w6
w7
w8
w9
wa
wacarpay
wach
wachan
wachana
wachanan
wachanku
wachanqa
wachapala
wachaqalla
wachaspa
wachay
wachi
wachu
wachuma
wachun
wachuqullpa
wachwa
wade
wagner
wah
wahi
wahibo
wahrheit
waikato
wait
waiting
wak
waka
wakachina
wakamayu
wakamayum
wakarpana
wakarpay
wakatay
wakaya
wakcha
wake
wakefield
waki
wakichi
wakichikunankupaq
wakichiy
wakilla
wakin
wakinkuna
wakinllapi
wakinpa
wakip
wakipi
wakira
wakirka
wakllanwatachu
wakllanwatam
wakllanwatap
wakllanwatapaq
wakllanwatapi
wakllanwataqa
wakra
wakupa
walakisa
walasiyu
walaychu
waldo
wales
walicha
walk
walker
wall
walla
wallace
wallakuna
wallam
wallamanta
wallamarka
wallan
wallanka
wallanpi
wallap
wallapi
wallaqa
wallata
wallatani
walli
wallim
wallina
wallis
wallpa
wallparisqa
wallparisqan
wallpasqa
wallqa
wallqan
wallqana
wallqanqa
wallqanqacha
wallqanqan
wallqayuq
walltay
walltaynin
walltaypi
wallunarahu
wallwa
walpers
walsh
walt
walter
walters
walther
walton
waltz
wam
wamachuku
wamali
waman
wamani
wamanim
wamanip
wamanipi
wamanipiqa
wamanlipa
wamanmarka
wamanpallpa
wamanpinta
wamanqa
wamanqapi
wamanrasu
wamanripa
wamantay
wamanurqu
wamaq
wamashrahu
wambuino
wamink
wamp
wampa
wampisa
wampu
wampuna
wampurushu
wampuya
wamra
wamrakuna
wamrakunata
wamuti
wamwisa
wan
wana
wanaku
wanana
wanaquta
wanay
wanchaku
wanda
wang
wanga
wangari
wanipaku
wank
wanka
wankan
wankana
wankani
wankapampa
wankapi
wankar
wankarama
wankarani
wankaray
wankaraylla
wankasanku
wankaskar
wankawillka
wankawillkap
wankaya
wankayu
wankayupi
wankayuq
wanki
wankilli
wankurina
wankurisqa
wankurisqam
wankurisqan
wansa
wansu
want
wanta
wantar
wanted
wanthi
wantsan
wantuq
wantuy
wanu
wanuchin
wanuchinapaq
wanuchiq
wanuchirqan
wanuchispa
wanuchisqa
wanuchisqan
wanuchiy
wanuchiyta
wanuku
wanun
wanuni
wanunmi
wanurqan
wanusqa
wanusqakuna
wanusqakunap
wanusqana
wanusqanam
wanusqanmanta
wanuy
wanuyman
wanuymanta
wanuyninkama
wanuypa
wanuyta
waorani
wapa
wapay
wapi
wapsi
wapsichana
wapsikuna
wapsikunam
wapsim
wapsita
wapsiwan
wapu
waq
waqachina
waqachinakuna
waqachinakunam
waqachinam
waqachinankuna
waqachinata
waqachinchik
waqachiq
waqachiqkuna
waqachiqmi
waqachiqpas
waqachirqan
waqachispa
waqachisqa
waqaq
waqar
waqay
waqaychana
waqaychanapaq
waqaychasqa
waqaynin
waqaypampa
waqaywillka
waqichaq
waqkuna
waqllichiq
waqllisqa
waqlliy
waqra
waqracha
waqrasapa
waqrayuq
waqrayuqmi
waqta
waqtu
waqurunchu
waqwa
waqyaykuna
war
wara
waracha
warachikuy
warak
waraka
waral
warani
waranim
waraniyi
waranka
waranqa
waranqacha
waranqamanta
waranqawata
waranqaysu
waranqu
waranta
waranway
waraq
waraqu
waras
waraspi
warawara
warawarani
waray
warayu
ward
wari
waricha
warikancha
warina
waripampa
warisa
warisata
wariwillka
warkukuq
warma
warmaka
warmi
warmikuna
warmikunap
warmikunata
warmikunawan
warmim
warmin
warminsi
warminwan
warmip
warmipa
warmipas
warmiqa
warmiqucha
warmis
warmita
warmiwan
warmiy
warner
warnes
warren
warrior
warriors
warrusu
wars
warsz
warszawa
warszewiczia
waru
waruchiri
warwasku
warwick
was
wasa
wasanpi
wasawasi
wasay
washa
washington
wasi
wasichaq
wasicharqan
wasichasqa
wasichasqankuna
wasichay
wasichaypi
wasikuna
wasikunam
wasikunap
wasikunapi
wasikunata
wasim
wasiman
wasimanta
wasin
wasinman
wasinmanta
wasinmi
wasinpi
wasip
wasipaq
wasipi
wasipim
wasiqa
wasis
wasita
wask
waska
waskaqucha
waskar
waskaran
waskhaqucha
wasqar
wasta
wastika
wat
wata
watajata
watakama
watakamam
watakamapacha
watakamapim
watakamaqa
watakamas
watakamataq
watakuna
watakunam
watakunapi
watakunaqa
watam
watamanta
watamantam
watamantapacha
watamantas
watamantataq
watan
watana
watanabe
watantin
watap
watapaq
watapi
watapicha
watapikama
watapim
watapimanta
watapipas
watapipi
watapiqa
watapis
watapitaq
watapiwanusqa
wataqa
watas
watasqa
watata
watayuq
watayuqmi
watch
water
waters
watikanu
watikanupi
watimala
watimalapa
watson
watt
watuy
wave
wawa
wawacha
wawakuna
wawakunamanta
wawakunap
wawakunapaq
wawakunapas
wawakunapi
wawakunata
wawamanta
wawan
wawankuna
wawanpa
wawanta
wawap
wawata
wawku
wawqi
wawqikuna
wawqinmi
wawra
way
wayakil
wayana
wayanay
wayaqa
wayaqacha
wayaqi
wayaramirin
wayas
wayaw
wayawa
waych
waychaw
waychu
wayk
waykuru
waylas
waylillas
waylla
wayllakancha
wayllakunapi
wayllamarka
wayllamayu
wayllapampa
wayllaq
wayllaqipa
wayllaqucha
wayllay
wayllayta
wayllukuq
wayllukuqmi
wayllukuqpas
wayllukuqsi
wayllukuy
wayllunk
waymiyi
wayna
wayne
waynilla
waynu
waynuta
waypu
wayq
wayra
wayrapi
wayrasimi
wayrawan
wayru
wayrukuna
wayrunqu
wayruru
ways
waysallpu
wayt
wayta
waytakuna
waytam
waytani
waytapallana
waytara
waytaray
waytasapa
waytayuq
wayu
wayukunapi
wayunka
wayupata
wayuq
wayusa
wayuw
waywacha
waywaka
waywash
wałesa
wb
wc
wcs
wd
we
weah
web
webb
weber
weberbaueri
website
webster
wedd
wedding
wednesday
weeds
week
weekly
weeks
weenhayek
wei
weimar
weinmannia
weissmuller
weksler
welch
welcome
well
welles
wellington
wells
welt
welter
wen
wenceslao
wendy
wer
were
werner
werneria
wes
wesley
west
western
westfalen
westminster
weston
westphalen
westport
wf
wg
wh
what
when
where
which
while
whistle
white
whitman
whitney
who
whole
whom
whoopi
why
wi
wich
wichay
wichhu
wichi
wichinka
wichiqucha
wichq
wichu
wide
widyu
widyum
wiedii
wien
wiener
wiesbaden
wife
wight
wii
wijsa
wik
wikch
wiki
wikidata
wikimapia
wikimedia
wikipedia
wikipedias
wikipedija
wikipidiya
wikipidiyachawpis
wikipidiyamanmi
wikipidiyanniyuqmi
wikipidiyap
wikipidiyapaq
wikipidiyapi
wikipidiyapiqa
wikipidiyaqa
wikipidiyata
wikiquote
wikis
wikisource
wikispecies
wiksa
wiksachaki
wiksanpi
wiksayuq
wiksu
wiktionary
wikunka
wikunku
wila
wilama
wilancha
wilaquta
wild
wilde
wilder
wildlife
wiley
wilfred
wilfredo
wilhelm
wililli
wilka
wilker
wilkes
wilkins
will
willa
willachun
willakamay
willakun
willakuna
willakunata
willakunku
willakuq
willakuy
willakuykuna
willakuykunam
willakuykunata
willakuykunawan
willakuyninkuna
willan
willana
willanakuna
willanakuy
willanakuykuna
willaniqi
willaq
willard
willarqan
willaspa
willasqa
willasqakuna
willasqan
willay
willaykun
willaykuna
willaykunata
willaypi
willayta
willd
willem
william
williams
williamson
willian
willie
willis
willk
willka
willkachasqa
willkamayu
willkanuta
willkapampa
willkapanpa
willkasqam
willkawaman
willkawasi
willku
willy
wilmington
wilson
wilstermann
wilt
wiluyu
wiluyuq
wim
win
wina
winachiq
winakusqana
winan
winanku
winaq
winarin
winarqan
winaspa
winasqa
winasqana
winay
winayan
winaymarka
winaypaq
wincha
winchester
winchu
winchuka
wind
windows
windsor
wing
winger
wings
winisuyla
winisuylapa
winisuylapi
winner
winners
winnie
winnipeg
winston
wint
winter
wintu
winu
wiphala
wiqi
wiqu
wiquntuy
wira
wirakaray
wiraku
wiraqucha
wiraquchakuna
wiraquchakunap
wiraquchapampa
wiraquchapaq
wirasapa
wirata
wirawan
wiririma
wirp
wirrinatu
wiru
wiruchu
wiruti
wirwina
wisaw
wischunku
wisconsin
wish
wisinam
wisk
wiskul
wisnu
wisnup
wispa
witalina
witch
with
within
without
witichi
witis
witkus
witnam
witnampa
witnampi
witness
witoto
witsay
witu
wituq
wives
wiwa
wiyacha
wiyula
wiyulin
wiyulinta
wizard
wj
wk
wl
wm
wmf
wn
wo
wojewodztwo
wolf
wolfe
wolfgang
wolfram
woman
women
won
wonder
wonderful
wonderland
wong
wongsawat
woo
wood
woodard
woodrow
woods
woodward
woody
woolf
worcester
word
words
wordsworth
work
working
works
world
worldcat
worldfootball
worldlingo
worlds
worse
worth
would
wp
wq
wr
wright
write
writer
writers
writing
writings
written
wrocław
wrong
ws
wt
wu
wuhan
wuliwiya
wuliwiyap
wuliwiyapa
wuliwiyapi
wunder
wuppertal
wurdack
wurttemberg
wv
ww
www
wx
wy
wyler
wyman
wyoming
wz
x
x0
x1
x2
x3
x4
x5
x6
x7
x8
x9
xa
xabi
xalapa
xanadu
xanthium
xanthosoma
xavier
xb
xbox
xc
xd
xe
xf
xg
xh
xi
xiamen
xiao
xiaobo
xiaoping
xicohtencatl
xie
xii
xiii
ximena
xin
xinran
xiv
xix
xj
xk
xl
xm
xn
xo
xp
xq
xr
xs
xstrata
xt
xu
xue
xun
xv
xvi
xvii
xviii
xw
xx
xxi
xxii
xxiii
xxx
xy
xylopia
xz
y
y0
y1
y2
y3
y4
y5
y6
y7
y8
y9
ya
yachachin
yachachinku
yachachiq
yachachiqkuna
yachachiqkunap
yachachiqkunaq
yachachiqmi
yachachiqpas
yachachiqsi
yachachirqan
yachachispa
yachachiy
yachachiymanta
yachachiyta
[...]
