!
"
#
##0
##1
##10
##11
##12
##13
##14
##15
##16
##17
##18
##19
##2
##20
##21
##22
##23
##24
##25
##26
##27
##28
##29
##3
##30
##31
##32
##33
##34
##35
##36
##37
##38
##39
##4
##40
##41
##42
##43
##44
##45
##46
##47
##48
##49
##5
##50
##51
##52
##53
##54
##55
##56
##57
##58
##59
##6
##60
##61
##62
##63
##64
##65
##66
##67
##68
##69
##7
##70
##71
##72
##73
##74
##75
##76
##77
##78
##79
##8
##80
##81
##82
##83
##84
##85
##86
##87
##88
##89
##9
##90
##91
##92
##93
##94
##95
##96
##97
##98
##99
$
%
&
'
(
)
*
+
,
-
.
/
0
00
000
001
0018
003
004
006
007
008
01
010
012
013
0140
016
019
0191
02
020
023
025
028
029
03
030
036
04
044
045
046
047
049
05
050
052
056
059
06
060
062
064
07
070
071
073
074
075
08
080
081
087
089
09
090
093
094
095
096
097
098
1
10
100
1000
1001
1002
1003
1004
1005
1006
1007
1008
1009
101
1010
1011
1012
1013
1014
1015
1016
1017
1018
1019
102
1020
1021
1022
1023
1024
1025
1026
1027
1028
1029
103
1030
1031
1032
1033
1034
1035
1036
1037
1038
1039
104
1040
1041
1042
1043
1044
1045
1046
1047
1048
1049
105
1050
1051
1052
1053
1054
1055
1056
1057
1058
1059
106
1060
1061
1062
1063
1064
1065
1066
1067
1068
1069
107
1070
1071
1072
1073
1074
1075
1076
1077
1078
1079
108
1080
1081
1082
1083
1084
1085
1086
1087
1088
1089
109
1090
1091
1092
1093
1094
1095
1096
1097
1098
1099
11
110
1100
1101
1102
1103
1104
1105
1106
1107
1108
1109
111
1110
1111
1112
1113
1114
1115
1116
1117
1118
1119
112
1120
1121
1122
1123
1124
1125
1126
1127
1128
1129
113
1130
1131
1132
1133
1134
1135
1136
1137
1138
1139
114
1140
1141
1142
1143
1144
1145
1146
1147
1148
1149
115
1150
1151
1152
1153
1154
1155
1156
1157
1158
1159
116
1160
1161
1162
1163
1164
1165
1166
1167
1168
1169
117
1170
1171
1172
1173
1174
1175
1176
1177
1178
1179
118
1180
1181
1182
1183
1184
1185
1186
1187
1188
1189
119
1190
1191
1192
1193
1194
1195
1196
1197
1198
1199
12
120
1200
1201
1202
1203
1204
1205
1206
1207
1208
1209
121
1210
1211
1212
1213
1214
1215
1216
1217
1218
1219
122
1220
1221
1222
1223
1224
1225
1226
1227
1228
1229
123
1230
1231
1232
1233
1234
12345
123456789
1235
1236
1237
1238
1239
124
1240
1241
1242
1243
1244
1245
1246
1247
1248
1249
125
1250
1251
1252
1253
1254
1255
1256
1257
1258
1259
126
1260
1261
1262
1263
1264
1265
1266
1267
1268
1269
127
1270
1271
1272
1273
1274
1275
1276
1277
1278
1279
128
1280
1281
1282
1283
1284
1285
1286
1287
1288
1289
129
1290
1291
1292
1293
1294
1295
1296
1297
1298
1299
13
130
1300
1301
1302
1303
1304
1305
1306
1307
1308
1309
131
1310
1311
1312
1313
1314
1315
1316
1317
1318
1319
132
1320
1321
1322
1323
1324
1325
1326
1327
1328
1329
133
1330
1331
1332
1333
1334
1335
1336
1337
1338
1339
134
1340
1341
1342
1343
1344
1345
1346
1347
1348
1349
135
1350
1351
1352
1353
1354
1355
1356
1357
1358
1359
136
1360
1361
1362
1363
1364
1365
1366
1367
1368
1369
137
1370
1371
1372
1373
1374
1375
1376
1377
1378
1379
138
1380
1381
1382
1383
1384
1385
1386
1387
1388
1389
139
1390
1391
1392
1393
1394
1395
1396
1397
1398
1399
14
140
1400
1401
1402
1403
1404
1405
1406
1407
1408
1409
141
1410
1411
1412
1413
1414
1415
1416
1417
1418
1419
142
1420
1421
1422
1423
1424
1425
1426
1427
1428
1429
143
1430
1431
1432
1433
1434
1435
1436
1437
1438
1439
144
1440
1441
1442
1443
1444
1445
1446
1447
1448
1449
145
1450
1451
1452
1453
1454
1455
1456
1457
1458
1459
146
1460
1461
1462
1463
1464
1465
1466
1467
1468
1469
147
1470
1471
1472
1473
1474
1475
1476
1477
1478
1479
148
1480
1481
1482
1483
1484
1485
1486
1487
1488
1489
149
1490
1491
1492
1493
1494
1495
1496
1497
1498
1499
15
150
1500
1501
1502
1503
1504
1505
1506
1507
1508
1509
151
1510
1511
1512
1513
1514
1515
1516
1517
1518
1519
152
1520
1521
1522
1523
1524
1525
1526
1527
1528
1529
153
1530
1531
1532
1533
1534
1535
1536
1537
1538
1539
154
1540
1541
1542
1543
1544
1545
1546
1547
1548
1549
155
1550
1551
1552
1553
1554
1555
1556
1557
1558
1559
156
1560
1561
1562
1563
1564
1565
1566
1567
1568
1569
157
1570
1571
1572
1573
1574
1575
1576
1577
1578
1579
158
1580
1581
1582
1583
1584
1585
1586
1587
1588
1589
159
1590
1591
1592
1593
1594
1595
1596
1597
1598
1599
16
160
1600
1601
1602
1603
1604
1605
1606
1607
1608
1609
161
1610
1611
1612
1613
1614
1615
1616
1617
1618
1619
162
1620
1621
1622
1623
1624
1625
1626
1627
1628
1629
163
1630
1631
1632
1633
1634
1635
1636
1637
1638
1639
164
1640
1641
1642
1643
1644
1645
1646
1647
1648
1649
165
1650
1651
1652
1653
1654
1655
1656
1657
1658
1659
166
1660
1661
1662
1663
1664
1665
1666
1667
1668
1669
167
1670
1671
1672
1673
1674
1675
1676
1677
1678
1679
168
1680
1681
1682
1683
1684
1685
1686
1687
1688
1689
169
1690
1691
1692
1693
1694
1695
1696
1697
1698
1699
17
170
1700
1701
1702
1703
1704
1705
1706
1707
1708
1709
171
1710
1711
1712
1713
1714
1715
1716
1717
1718
1719
172
1720
1721
1722
1723
1724
1725
1726
1727
1728
1729
173
1730
1731
1732
1733
1734
1735
1736
1737
1738
1739
174
1740
1741
1742
1743
1744
1745
1746
1747
1748
1749
175
1750
1751
1752
1753
1754
1755
1756
1757
1758
1759
176
1760
1761
1762
1763
1764
1765
1766
1767
1768
1769
177
1770
1771
1772
1773
1774
1775
1776
1777
1778
1779
178
1780
1781
1782
1783
1784
1785
1786
1787
1788
1789
179
1790
1791
1792
1793
1794
1795
1796
1797
1798
1799
18
180
1800
1801
1802
1803
1804
1805
1806
1807
1808
1809
181
1810
1811
1812
1813
1814
1815
1816
1817
1818
1819
182
1820
1821
1822
1823
1824
1825
1826
1827
1828
1829
183
1830
1831
1832
1833
1834
1835
1836
1837
1838
1839
184
1840
1841
1842
1843
1844
1845
1846
1847
1848
1849
185
1850
1851
1852
1853
1854
1855
1856
1857
1858
1859
186
1860
1861
1862
1863
1864
1865
1866
1867
1868
1869
187
1870
1871
1872
1873
1874
1875
1876
1877
1878
1879
188
1880
1881
1882
1883
1884
1885
1886
1887
1888
1889
189
1890
1891
1892
1893
1894
1895
1896
1897
1898
1899
19
190
1900
1901
1902
1903
1904
1905
1906
1907
1908
1909
191
1910
1911
1912
1913
1914
1915
1916
1917
1918
1919
192
1920
1921
1922
1923
1924
1925
1926
1927
1928
1929
193
1930
1931
1932
1933
1934
1935
1936
1937
1938
1939
194
1940
1941
1942
1943
1944
1945
1946
1947
1948
1949
195
1950
1951
1952
1953
1954
1955
1956
1957
1958
1959
196
1960
1961
1962
1963
1964
1965
1966
1967
1968
1969
197
1970
1971
1972
1973
1974
1975
1976
1977
1978
1979
198
1980
1981
1982
1983
1984
1985
1986
1987
1988
1989
199
1990
1991
1992
1993
1994
1995
1996
1997
1998
1999
2
20
200
2000
2001
2002
2003
2004
2005
2006
2007
2008
2009
201
2010
2011
2012
2013
2014
2015
2016
2017
2018
2019
202
2020
2021
2022
2023
2024
2025
2026
2027
2028
2029
203
2030
2031
20314
2032
2033
2034
2035
2036
2037
2038
2039
204
2040
2041
2042
2043
2044
2045
2046
2047
2048
2049
205
2050
2051
2052
2053
2054
2055
2056
2057
2058
2059
206
207
208
209
21
210
2100
211
212
213
214
215
216
2168
217
218
219
22
220
221
222
223
224
225
226
227
228
229
23
230
231
232
233
234
235
236
237
238
239
24
240
241
242
243
244
245
246
247
248
249
25
250
2500
251
252
253
254
255
256
257
258
259
26
260
261
262
263
264
265
266
267
268
269
27
270
271
272
273
274
275
276
277
278
279
28
280
281
282
283
284
285
286
287
288
289
29
290
291
292
293
294
295
296
297
298
299
3
30
300
3000
301
302
303
304
305
306
307
308
309
31
310
311
312
313
314
315
316
317
318
319
32
320
321
322
323
324
325
326
327
328
329
33
330
331
332
333
334
335
336
337
338
339
34
340
341
342
343
344
345
346
347
348
349
35
350
3500
351
352
353
354
355
356
357
358
359
36
360
361
362
363
364
365
366
367
368
369
37
370
371
372
373
374
375
376
377
378
379
38
380
381
382
383
384
385
386
387
388
389
39
390
391
392
393
394
395
396
397
398
399
4
40
400
4000
4004
401
402
403
404
405
4050
406
407
408
409
41
410
411
412
413
414
415
416
417
418
419
42
420
421
422
423
424
425
426
427
428
429
43
430
431
432
433
434
435
436
437
438
439
44
440
441
442
443
444
445
446
447
448
449
45
450
451
452
453
454
455
456
457
458
459
46
460
461
462
463
464
465
466
467
468
469
47
470
471
472
473
474
475
476
477
478
479
48
480
481
482
483
484
485
486
487
488
489
49
490
491
492
493
494
495
496
497
498
499
5
50
500
5000
501
502
503
504
505
506
507
508
509
51
510
511
512
513
514
515
516
517
518
519
52
520
521
522
523
524
525
526
527
528
529
53
530
531
532
533
534
535
536
537
538
539
54
540
541
542
543
544
545
546
547
548
549
55
550
551
552
553
554
555
556
557
558
559
56
560
561
562
563
564
565
566
567
568
569
57
570
571
572
573
574
575
576
577
578
579
58
580
581
582
583
584
585
586
587
588
589
59
590
591
592
593
594
595
596
597
598
599
6
60
600
601
602
603
604
605
606
607
608
609
61
610
611
612
613
614
615
616
617
618
619
62
620
621
622
623
624
625
626
627
628
629
6290
63
630
631
632
633
634
635
636
637
638
639
64
640
641
642
643
644
645
646
647
648
649
65
650
651
652
653
654
655
656
657
658
659
6592
66
660
661
662
663
664
665
666
667
668
669
67
670
671
672
673
6736
674
675
676
677
678
679
68
680
681
682
683
684
685
686
687
688
689
69
690
691
6917
692
693
694
695
696
697
698
699
7
70
700
701
702
703
704
705
706
707
708
709
71
710
711
712
713
714
715
716
717
718
719
72
720
721
722
723
724
725
726
727
728
729
73
730
731
732
733
734
735
736
737
738
739
74
740
741
742
743
744
745
746
747
748
749
75
750
751
752
753
754
755
756
757
758
759
76
760
761
762
763
764
765
766
767
768
769
77
770
771
772
773
774
775
776
777
778
779
78
780
781
782
783
784
7844
785
786
787
788
789
79
790
791
792
793
794
795
796
797
798
799
8
80
800
801
802
803
804
805
806
807
808
809
81
810
811
812
813
814
815
816
8164
817
818
8180
819
82
820
821
822
823
824
825
826
827
828
8284
829
83
830
831
832
833
834
835
836
837
838
839
84
840
841
842
843
844
845
846
847
848
849
8493
85
850
851
852
853
854
85404
855
856
857
858
859
86
860
861
862
863
864
865
866
867
868
869
87
870
871
872
873
874
875
876
877
878
879
88
880
881
882
883
884
885
886
887
888
889
89
890
891
892
893
893777
894
89452
895
896
897
898
899
9
90
900
901
901787
902
903
904
905
906
907
908
909
91
910
911
912
913
914
915
916
917
918
919
92
920
921
922
923
924
925
926
927
928
929
93
930
931
932
933
934
935
936
937
938
939
94
940
941
942
943
944
945
946
947
948
949
95
950
951
952
953
954
955
956
957
958
959
96
960
961
962
963
964
965
966
967
968
969
97
970
971
972
973
974
975
976
977
978
979
98
980
981
982
983
984
985
986
987
988
989
99
990
991
992
993
994
995
996
997
9972
998
999
:
;
<
=
>
?
@
[
\
]
^
_
`
a
aa
aaa
aachen
aafp
aamir
aaro
aaron
ab
ababa
abad
abadi
abajo
abambo
abancay
abandono
abanico
abarca
abaroa
abascal
abba
abbas
abbe
abbey
abbott
abboud
abc
abd
abdala
abdel
abderus
abdiyaspa
abdo
abdul
abdullah
abe
abel
abelardo
abenaki
aberdeen
abierto
abimael
abiseo
abismo
able
abogado
abori
aborigen
aboriginal
abortos
about
above
abr
abra
abraham
abreu
abril
abstract
abu
abuela
abuelo
abuelos
abugadu
abugattas
abuna
abuta
abya
ac
aca
acacia
acade
academia
academic
academy
acaena
acalypha
acapulco
acaso
acasuzo
acceso
access
accidental
accidente
accio
accion
accomarca
according
account
accounts
accra
ace
acerca
acero
aces
acetosa
acetosella
acevedo
aceves
ach
acha
achachilla
achachillanmi
achakachi
achakuna
achakunam
achakunaqa
achakunata
achakunayuq
achala
achalawan
achallina
acham
achamanta
achampa
achan
achani
achanqaray
achapaq
achapas
achapi
achaq
achaqullu
achata
achatada
achatam
achay
achi
achikay
achiksamaytu
achikyay
achille
achin
achina
achinchik
achinchikchu
achinku
achiote
achiq
achiqpi
achirqan
achirus
achispa
achisqa
achisqan
achiwa
achiy
achiyta
achka
achkam
achkan
achkata
achkatam
achkay
achkha
achkiq
achkiy
achkiypa
achkiyqa
achkiyta
achotillo
achu
achual
achuar
achuma
achuni
achupalla
achupallas
achuqalla
achuqcha
achutillu
achyrocline
aci
acid
aco
acobamba
acompa
acompan
aconcagua
acordeo
acos
acosta
acoustic
acre
acreditada
across
act
acta
actas
actinopterygii
action
actitis
active
actividad
actividades
activists
activity
activo
acto
actor
actores
actors
actos
actriz
acts
actuacio
actual
actualidad
actualidades
actually
actualmente
actuando
acu
acua
acuerdo
acuerdos
aculeata
acuminata
acuminatum
acun
acute
acutifolia
acutus
ad
ada
adalemba
adam
adams
adaptacio
adas
add
adda
added
addis
addison
addition
ade
adela
adelaida
adelaide
adelante
adelina
adema
ademiller
ademir
adenauer
adentro
adio
adios
adis
adj
adjani
adjetivo
administracio
administradores
administration
administrative
administrativo
ado
adobe
adolescente
adolf
adolfo
adolph
adolphe
ador
adora
adorable
adoracio
ados
adria
adrian
adriana
adriano
adrien
adrienne
adsabs
adscendens
adua
adults
advanced
adventure
adventures
advisory
ae
aedon
aequatorialis
aeronautics
aeropolipa
aeropuerto
aesculus
aesthetics
aestivum
af
afc
afe
afectadas
aff
affair
affairs
affinis
affleck
afganista
afgansuyu
afghanistan
afirma
afonso
aforismos
afp
africa
african
africana
africano
afrika
afrikaans
afrikapi
afrikapipas
afro
after
afternoon
afuera
ag
aga
again
against
agaricus
agassi
agassizii
agatha
agave
age
agencia
agency
agenda
agent
agente
agentes
ageop
ageratina
aglaeactis
agnes
agnococha
ago
agoni
agostinho
agostini
agostino
agosto
agouti
agraria
agrario
agrasa
agri
agricultura
agricultural
agriculture
agriornis
agro
agropecuaria
agropecuarias
agrostis
agroturismo
agu
agua
aguabolivia
aguada
aguarico
aguaruna
aguarunas
aguas
aguascalientes
aguda
aguila
aguilar
aguile
aguilera
aguinaldo
aguinda
aguirre
aguja
agujetas
agusti
agustin
agustina
agustino
ah
aha
aherrera
ahi
ahina
ahinapas
ahinataq
ahinataqmi
ahipa
ahlfeld
ahmad
ahmed
ahora
ahorcado
ahtisaari
ahuachapa
ahui
ahus
ai
aid
aida
aidesep
aimara
aime
aimerais
ain
air
aire
aires
airlines
airport
airumuqu
airways
ais
aise
aiton
aix
aixin
aj
aja
ajacopa
ajaja
ajax
ajay
ajedrez
ajeno
aji
ajo
ajos
ak
aka
akademie
akakllu
akal
akara
akaray
akasyu
akata
akatanqa
akatiya
akawra
akay
akbar
akcha
akchiq
ake
akhamani
aki
akikuna
akikunam
akikunap
akikunapas
akikunata
akilla
akillpu
akimanta
akincha
akira
akisqa
akiy
aklla
akllana
akllanakuspa
akllanakuy
akllanakuykunapi
akllanakuykunapim
akllanakuypi
akllarqan
akllaspa
akllasqa
akllasqam
akllasqan
akllawan
akllay
akllayhun
akllaykunamanta
akllaykunata
akllayta
akllu
akodon
akray
aktinyu
aku
akun
akuna
akunam
akunamanta
akunanta
akunap
akunapaq
akunapas
akunapi
akunaqa
akunata
akunatam
akunawan
akunman
akuq
akurqan
akuspa
akusqan
akuy
akuyta
akwa
akwayuq
akya
al
ala
alabama
aladdin
aladino
alagoas
alain
alajuela
alalay
alameda
alamo
alan
alarco
alargada
alas
alasdair
alaska
alastair
alata
alawsi
alaza
alba
alban
albany
albanya
albanyapa
albe
alberdi
alberga
albero
albert
alberta
alberti
albertina
alberto
albertus
albicollis
albifrons
albino
albiventris
albo
albogularis
alborada
albornoz
albrecht
albu
albufera
album
albumkuna
albums
albus
alca
alcala
alcalde
alcaldi
alcance
alcedo
alchaki
alchemilla
alci
alcide
alcides
alco
alcoba
alda
aldao
aldea
alderetes
aldo
aldrich
ale
alec
alegre
alegres
alegri
aleixandre
alejandra
alejandri
alejandro
alejo
aleksander
aleksandr
alekse
aleluya
alema
aleman
alemana
alemania
alembert
alencar
alencastre
aleph
alergia
alerta
ales
alessandra
alessandria
alessandro
alessio
aleut
alex
alexander
alexandra
alexandre
alexandria
alexandros
alexei
alexis
alfa
alfabeto
alfaguara
alfaro
alfe
alfonsi
alfonsina
alfonso
alfred
alfredo
algarrobo
algebra
algeciras
algo
algodo
algonkin
algu
alguien
alguna
algunas
algunos
alhirya
alhiryapa
alhunsu
ali
aliaga
alianza
alias
alicante
alice
alicia
alida
alien
alija
alikuya
aliman
alimanruna
alimanya
alimanyap
alimanyapa
alimanyapi
alimentos
alimpuchi
alipio
alis
alison
alive
alkala
alkali
alki
alkimya
alkul
all
alla
allaapa
allampa
allampakuna
allampakunam
allampakunamanmi
allampakunapas
allampam
allampap
allan
allana
allapa
allapata
allaw
allawka
alle
allegro
allen
allende
allergy
alley
alli
alliacea
alliance
allichaq
allichasqa
allichay
allichu
allillamanta
allim
allin
allinchasqa
allinchay
allinchayta
allinchu
allinlla
allinmi
allinqhapaq
allinta
allintachu
alliodora
allis
allish
allison
allium
alliykuq
allku
allma
allmakunapi
allman
allmankunapi
allmaykuq
alloplectus
allow
allows
alloys
allpa
allpakuna
allpakunata
allpam
allpaman
allpamanta
allpamayu
allpankunata
allpap
allpapi
allpapiqa
allpapura
allpaqa
allpata
allpawan
allpawayu
allpayuq
allqa
allqaluma
allqamari
allqamarinayuq
allqamayu
allqu
allquchay
allqumiyu
allqupa
allquwan
allquy
allta
alltayuq
allthemountains
allu
allvar
allwi
allwirha
allwiya
allwiyapi
allwya
alma
almada
almagro
almas
almaza
almeida
almenara
almeri
almirante
almiro
almodo
almonte
almost
alnus
alo
alomi
alondra
alone
along
alonso
alonsoa
alosilla
alouatta
aloysia
aloza
alpaca
alpaqa
alpes
alpha
alphabet
alphonse
alpikuna
alpine
alpinus
alqa
alqamari
alqamarinayuq
alqamarka
already
alrededor
alrededores
als
alsace
also
alstroemeria
alt
alta
altafini
altagracia
altamirano
altar
altas
altay
altazor
alte
alternativa
alternativo
alteza
althaus
alticola
altipla
altiplano
altiplanoextreme
altman
alto
altos
altri
altu
altura
aluminyu
aluta
alva
alvar
alvarado
alvaradop
alvarez
alvaro
alvear
alverson
alves
alvi
alvin
alwaris
always
alwirtu
am
ama
amabile
amable
amachakunapaq
amachan
amachana
amachanapaq
amachaq
amachaqmi
amachaqsi
amachasqa
amachasqam
amachay
amacuro
amada
amadeo
amadeus
amado
amador
amadori
amaguan
amakari
amalia
aman
amanaku
amancaes
amancio
amanda
amando
amanecer
amanita
amanqay
amanta
amantani
amante
amantes
amapa
amapola
amapula
amar
amarakaeri
amaranthaceae
amaranthus
amare
amargo
amarilda
amarilla
amarillo
amaringo
amariti
amarka
amaro
amarte
amaru
amarumayu
amarumayup
amasisa
amat
amati
amauta
amawaka
amawta
amawtapas
amay
amaya
amayu
amazo
amazon
amazona
amazonas
amazoni
amazonia
amazoniactual
amazonian
amazonica
amb
ambassador
amber
ambi
ambicio
ambiciosos
ambient
ambiental
ambientales
ambiente
amboro
ambos
ambrosio
ambrosioides
amburana
ame
amedeo
ameghino
amelia
amen
amenazadas
america
american
americana
americanas
americano
americanos
americanus
americas
amerika
amerindia
ames
ametller
amhara
ami
amici
amico
amiens
amiento
amiga
amigas
amigo
amigos
amilcar
amin
aminata
amir
amirika
amirikanu
amistad
amitabh
amkirya
amleto
amlq
amman
amo
among
amor
amorcito
amore
amores
amori
amorosa
amorrortu
amortiguamiento
amos
amospa
amour
amours
ampa
ampachay
amparo
ampatu
ampay
ampe
ampeloprasum
ampliada
ampliado
amplio
ampu
amruqa
amsterdam
amu
amuesha
amuna
amundaray
amundsen
amuqlli
amusco
amutapi
amy
an
ana
anadenanthera
anafilaxia
anagrama
anahi
anairetes
anakuna
anakunam
anales
anali
anallaqsi
analysis
anam
anaman
anamanta
anamarka
anamebi
anamelba
anamura
ananea
ananiya
ananmi
ananpaq
ananpi
ananta
anapaq
anaphylaxis
anapi
anaq
anaqa
anarquismo
anarquista
anas
anastasia
anastasio
anata
anatidae
anatole
anaya
anayi
anayuq
ancash
ancashino
ancha
anchana
anchanchu
anchaq
anchar
anchata
anchatam
anchatas
anchay
anche
anchieta
anchik
anchurapa
ancient
anco
and
anda
andahuaylas
andalie
andaluci
andalusiya
andaluz
andamarca
andanc
andarperuano
ande
andean
andere
anders
andersen
anderson
andersoni
andersson
andes
andi
andicola
andina
andinas
andines
andino
andinos
andinum
andinus
ando
andoa
andorra
andra
andrade
andre
andrea
andreas
andrei
andreotti
andres
andreu
andrew
andrews
andris
andriy
andua
andurra
anduwa
andwa
andy
ane
anelka
anexo
ang
anga
angamos
ange
angel
angela
angeles
angelfire
angelica
angelina
angelique
angelitos
angelo
angelos
angels
anger
angie
angkor
anglais
anglo
angola
angolo
angostura
anguivi
angula
angulata
angulo
angus
angustia
angustifolia
angustifolium
angustifrons
anhalt
anhinga
anhui
ani
aniceto
anil
anillo
anillos
anima
animal
animales
animalia
animals
animas
anime
anis
anishinapay
anita
aniversario
anka
ankalli
ankallikurqan
ankallis
ankamarka
ankar
ankara
ankash
ankashpi
ankha
ankichiy
anku
ankucha
ankuna
ankunap
ankunapi
ankunata
anman
anmi
ann
anna
annales
annan
anne
annette
anni
annie
anniversary
anno
annona
annonaceae
announcement
annual
annunzio
annuum
ano
anos
another
anpa
anpe
anpi
anqa
anqakunap
anqakunata
anqaman
anqamanta
anqap
anqapi
anqapiqa
anqaqa
anqar
anqara
anqas
anqash
anqasmi
anqaspas
anqasqucha
anqata
anqayuq
anqayuqmi
anqu
anra
anrreswaylla
ans
ansa
ansaltu
anselmo
ansu
ant
anta
antacha
antachayri
antakilla
antakuru
antakuyu
antall
antam
antamanta
antamarka
antamayu
antan
antanka
antankallu
antapampa
antaq
antaquta
antara
antarapa
antarasu
antaray
antares
antartika
antashka
antasqa
antata
antawa
antawam
antawaylla
antawayllacha
antay
ante
antecedentes
antena
antenor
antequera
anterior
anteriormente
antes
antharu
anthology
anthony
anthropology
anthura
anthurium
anti
antibio
antigua
antiguas
antiguo
antiguos
antiki
antikuna
antikunamanta
antikunan
antikunap
antikunapi
antikunapim
antikunapiqa
antillas
antiman
antimanta
antimony
antinpi
antioquen
antioqui
antioquia
antipa
antisana
antisensis
antisuyu
antivo
anto
antofagasta
antoine
antoinette
antologi
antologia
anton
antonella
antoni
antonia
antonieta
antonio
antonioni
antony
antorcha
antropologi
ants
antu
antun
antunyu
antutawan
antwerpen
anu
anuario
anuncia
anwan
anwar
any
anyone
anything
anza
anzoa
anzu
ao
aos
aotus
ap
apa
apach
apachana
apachanapaq
apache
apacheta
apachi
apachita
apagado
apalli
apampa
apamurqan
apamusqa
apamusqam
apamusqan
apan
apana
apanapaq
apanku
apanqara
apanqura
apaq
apar
aparece
aparecida
apari
aparicio
apariciones
aparniyuq
aparte
apas
apasa
apasanka
apaspa
apasqa
apata
apay
apaykachana
apaykachanam
apaykun
apaykuq
apaykuspa
apaza
ape
apella
aperea
apertura
apes
apha
aphi
aphrika
aphrikapi
aphrikapipas
aphrodite
aphru
aphylla
api
apiaguaki
apim
apiqa
apiruna
apita
apium
apka
aplaw
aplicaciones
aplicada
aplicadas
apo
apocalipsis
apocynaceae
apokalipsisnin
apokriphu
apollo
apolo
apologe
apologi
apologies
apolonia
apoyo
app
appas
appert
apple
appleton
applications
applied
appointment
appreciate
apr
apra
aprayuq
apre
aprender
aprendiendo
aprendizaje
april
aprista
aproximacio
aptin
apu
apucha
apuesta
apukuna
apulli
apulliq
apulu
apulupampa
apun
apunchis
apunqu
apuntes
apure
apuri
apurimaq
apuros
apuspa
apusqa
apustul
apustulkunap
apustulu
apuwasinyuq
apuy
apuyaya
apuyayapa
apuyki
apuyta
aq
aqa
aqanisuyu
aqanisuyupa
aqch
aqcha
aqchi
aqchu
aqha
aqhi
aqi
aqkuna
aqkunam
aqkunamanta
aqkunap
aqkunaqa
aqkunata
aqkunatam
aqkunawan
aqman
aqmi
aqnin
aqninkuna
aqninkunam
aqninkunaqa
aqninmi
aqniyuq
aqpa
aqqa
aqri
aqsapam
aqta
aqtsa
aqtuy
aqu
aquatab
aquaticus
aqucha
aquel
aquella
aquellos
aqui
aquila
aquino
aqullu
aqumarka
aqumayu
aqupampa
aqupampilla
aqupanpa
aqupiya
aququcha
aqus
aquta
aqutanku
aquwitsay
aqway
aqwaykunam
aqyawiri
ar
ara
arab
arabela
arabia
arabya
arabyapa
arachiq
arachupa
arachupam
arafat
arago
aragon
aragone
aragua
aragun
arahu
arajuno
araka
araliaceae
aramango
aramayo
aramburu
aramides
arampampa
aramu
aran
arana
arancibia
aranda
arango
arani
aranjuez
aranwa
aranway
aranwaykuna
aranwaymi
aranwaypi
araona
arapa
arapaima
araqullu
arara
araral
ararauna
arata
aratinga
arau
arauca
araucani
araucaria
araujo
aravaca
arawak
arawaka
arawi
arawikuna
arawiq
arawkaniya
arbela
arbieto
arbitrio
arbizu
arboleda
arboles
arborea
arborescens
arbre
arbulu
arbustos
arc
arca
arcadia
arcadio
arce
arch
archaea
archaeology
arche
archibald
archidona
archipie
architecture
archivado
archive
archives
archivo
archivos
arcilla
arco
arcos
arctium
arctocephalus
arcytophyllum
arde
ardea
ardesiaca
ardiente
ardiles
are
area
arellano
arena
arenal
arenales
arenaria
arenas
arendt
arendts
arequipa
aretha
aretioides
arezzo
arg
argelia
argemone
argentina
argentinas
argentine
argentino
argerich
argu
arguedas
argumento
arhintina
arhintinap
arhintinapa
arhintinapas
arhintinapi
arhintinapipas
arhintinu
ari
aria
arias
arica
ariel
arif
arika
arikipa
arimuy
arin
arinillas
arinki
ariola
ariq
ariqipa
ariqmi
ariquma
arirqan
ariruma
aris
arisaema
arispa
arisqa
aristarain
aristiza
aristo
aristotelis
arithmeticae
arithmetik
ariy
arizona
arjen
arjona
arkansas
arkitiktu
arles
arlington
arlt
arma
armada
armakuna
armallu
armando
armas
armata
arme
armenda
armenia
armenteros
armida
armin
arminya
arms
armstrong
army
arnaldo
arnaz
arnhem
arnold
arnoldo
arns
arnulfo
arol
aroma
arosemena
around
arpa
arpay
arqa
arqan
arqet
arqi
arque
arqueolo
arqueologi
arquitecto
arquitectura
arra
arrabal
arrasco
arreglos
arriba
arrow
arroyo
arroz
arrupe
arrus
ars
arse
arsenal
arsenic
arsenio
arsi
art
arte
arteaga
artemio
artemis
artemisa
artes
artesanal
artesani
arteta
arthur
arti
article
articles
artigas
artist
artista
artistas
artiste
artists
artisunrahu
arts
artupuykama
arturo
aru
arum
aruma
arusimin
arutani
aruwi
arvense
arvensis
arwi
arwitu
arzobispado
arzobispo
as
asa
asach
asakuna
asalto
asam
asamblea
asamoah
asanaki
asani
asankaru
asankarupi
asanqaru
asapa
asar
asarsuyu
asca
ascaris
ascencio
ascensio
aschaq
asentadas
asesinas
asesinato
asesino
asesinos
ash
asha
ashaninka
ashe
ashka
ashley
ashma
ashta
ashtashqanam
ashtawan
ashuampis
ashuka
asi
asia
asiatica
asignado
asignaturas
asimov
asin
asindapi
asiri
asirtachik
asiru
asiruqucha
asirwayan
asitunas
asiwu
asiy
asiya
ask
aska
askachakuq
askachaw
askachawwan
askanku
askaq
askaqkunaqa
askha
asla
aslla
asma
asmara
asn
asna
asnan
asnaq
asnaqucha
asnu
aso
asociacio
asosiacio
asp
aspa
asparagaceae
aspectos
aspects
asper
aspero
aspi
aspicha
aspidosperma
aspim
aspimanta
aspip
aspiq
aspiyasqa
asplenium
asprilla
aspx
asqa
asqan
asqupi
asra
assad
assam
assassin
assassination
assembly
assen
assessment
assis
assisi
assisted
associac
associated
association
asta
astaire
astakurqan
astasqan
astatine
astawan
astawanmi
astawanqa
astawantaq
aste
astengo
asteraceae
asteroid
asthenes
astika
astocococha
aston
astor
astragalus
astrid
astro
astroblepus
astrocaryum
astronium
astronomical
astua
asturiana
asturianu
asturias
asturiaspa
astyanax
asu
asuka
asukar
asukarwayu
asul
asuncio
asuni
asunsyun
asunta
asunto
asuntos
asustada
asuwi
aswa
aswan
aswanmi
aswanqa
aswanta
aswantaq
aswantaqa
aswantataq
asway
asya
asyap
asyapi
asyapim
asyapipas
at
ata
atacama
atahuachi
atahuallpa
atahualpa
atakama
atakami
atakasu
atakuna
atal
atalaya
atam
atamishquen
atamisqui
atan
atanasio
ataq
ataqa
ataqu
ataque
atardecer
atari
atasqa
atatu
atavillos
ataw
atawallpa
atawallpap
atawallpatas
atawi
atc
ate
ateles
atelier
atelocynus
atenas
atencio
ateneo
athapaska
athe
athene
athens
athina
ati
atich
atikun
atikuq
atilio
atin
atinchik
atinchu
atinki
atinku
atinman
atinmi
atipachaw
atipachawwan
atipakuspa
atipakuy
atipana
atipanakuy
atipaq
atipaqkunaqa
atiparqan
atipaspa
atipasqa
atipasqan
atipay
atiptin
atiq
atirqan
atirqanchu
atispa
atiy
atiykunawan
atiymanta
atiymi
atiynin
atiyninmi
atiyniyuq
atiyta
atkins
atla
atlanta
atlantic
atlantiku
atlas
atle
atma
atmayuq
atmospheric
ato
atocha
atomic
ator
atp
atra
atratus
atrice
atrorubens
atrovirens
atska
att
atta
attack
attore
atu
atucha
atun
atuq
atuqmantawan
atuqpa
atuqwan
au
auch
auckland
auct
audaz
audiencia
audio
auditorio
audrey
auf
auflage
augsburg
august
augusta
auguste
augustin
augustine
augusto
augustus
aula
aumentada
aung
aunque
aupa
aupaq
aura
aurea
aurelia
aurelio
auricularia
auriculata
aurora
aus
ausencia
ausente
austen
auster
austin
austral
australia
australian
australis
austria
aute
author
authority
auto
autobiogra
autobiografi
autobiography
autodenominacio
autoinstructivo
automatic
automatically
automo
autonomous
autoportrait
autor
autora
autores
autori
autoridad
autoridades
autorretrato
autres
autry
autumn
aux
auxiliadora
auxiliar
av
ava
available
avaro
avaroa
avati
ave
avec
aveiro
avelino
avellaneda
avena
avendan
avengers
avenida
aventura
aventuras
aventurero
aventureros
avenue
aves
aviacio
avignon
avila
avile
aviles
avio
aviso
aviv
avon
avril
aw
awa
awahun
awaju
awaka
awan
awana
awangardistas
awani
awankay
awanta
awapit
awaq
awar
awarank
awarawi
award
awards
awariku
awaspa
awasqa
away
awaylla
awaymantu
awaytiya
awch
awchi
awchu
awha
awi
awidul
awikaruy
awikaruypi
awikaruypipas
awikuna
awikunanchikpaq
awillana
awillanu
awimayu
awimpukyu
awin
awina
awinchana
awinpukyu
awinqucha
awip
awiri
awirinaykipaq
awiriy
awiriyta
awiriywasi
awitya
awiw
awiyuq
awkeno
awki
awkillu
awkisqucha
awkunap
awllaqa
awpa
awpagradupi
awpan
awpanpi
awpaq
awpaqman
awpaqnin
awpaqninmi
awpaqta
awpaqtaqa
awpata
awqa
awqakuna
awqakunaqa
awqakunata
awqakuq
awqalli
awqanakuy
awqanakuypi
awqapata
awqaq
awqaqkuna
awqaqkunam
awqaqkunap
awqaqkunaqa
awqaqkunas
awqaqkunata
awqaqkunawan
awqaqninkuna
awqarqan
awr
awra
awram
awrawa
awray
awril
awrilpi
awriq
awsa
awsanqati
awsaqucha
awstiriya
awstiriyapi
awstralya
awstralyap
awstralyapa
awstralyapi
awstryapi
awtu
awtunuma
awtunumu
awu
awustu
awustupi
awya
axel
axioma
ay
aya
ayacuchano
ayacucho
ayacuchovirtual
ayahuasca
ayak
ayakachi
ayakuchu
ayakuchupi
ayakunata
ayala
ayamarka
ayamarq
ayamaych
ayan
ayangay
ayapata
ayaq
ayar
ayara
ayata
ayatollah
ayawaka
ayawaska
ayawiri
ayay
ayaymama
ayca
aycha
aycham
aychanta
aychap
aychata
ayer
ayha
ayka
aykili
aykuna
aykusqayki
ayllo
ayllu
ayllukuna
ayllukunapi
ayllullaqta
ayllum
aylluman
ayllumanta
ayllun
ayllunkuna
ayllunmi
ayllupaq
ayllupi
aylluruna
aylluskaq
aym
aymanta
aymar
aymara
aymaras
aymarka
aymaya
aymi
aymitu
aymuray
ayn
ayni
aynin
ayninmanta
ayninta
aynirqan
ayniyuq
ayntaka
ayo
ayopaya
ayora
ayoreo
aypa
aypanapaq
aypaq
ayparqan
aypaspa
aypasqakunapaq
aypay
aypi
aypik
aypura
ayqa
ayqichinapaq
ayqichirqan
ayqiq
ayqirqan
ayqispa
ayra
ayrampu
ayrapin
ayris
ayriwa
ayriway
ayrton
ayruma
aysana
ayta
aytaka
aytam
aytaqa
aytas
ayti
aytu
aytucha
aytukuna
aytukunaqa
aytukunatam
aytuta
ayu
ayuda
ayudar
ayui
ayuntamiento
ayupaya
ayuq
ayuqmi
aywan
ayway
aywillka
az
aza
azabache
azahares
azanaques
azar
azca
azcona
azevedo
azikiwe
aziz
aznar
aznavour
azo
azogues
azorella
azori
azpeitia
azteca
aztecan
azu
azuay
azucena
azul
azulcocha
azules
azurduy
b
ba
baba
babahoyo
babbar
babel
babilonia
babilun
baby
babylon
baca
bacall
baccharis
bach
bachata
bachchan
bachiller
bachillerato
back
bacon
bacteria
bacteriana
bacterias
bactris
bactrocera
bad
badajoz
badalona
baden
bado
baeza
bafta
bagdad
baggio
baghdad
baglietto
bagri
bagrim
bagua
bahamakuna
bahamas
bahamensis
bahasa
bahi
bahia
bahuaja
bai
baia
baila
bailando
bailar
bailarina
baile
bailen
bailes
bailey
baillargeon
bailly
bain
bairdii
baja
bajas
bajitos
bajo
bajos
bak
baker
bakhuys
baku
bal
bala
balada
baladas
balaguer
balakirev
balance
balansani
balao
balboa
balcazar
baldi
baldivieso
baldomero
baldwin
bale
bali
balkan
ball
ballack
ballad
ballads
ballena
ballestas
ballester
ballesteros
ballet
ballivia
ballo
balo
baloncesto
balsa
balsamu
balsamum
balsas
balta
baltasar
baltazar
baltiku
baltimore
baltra
balvin
balzac
balzar
bamba
bambas
bambi
bambino
bambo
bamboo
ban
banco
bancos
band
banda
bandai
bandaranaike
bandas
bandera
banderas
bandida
bandido
bandidos
bandolero
bandoneo
bandurria
bang
bangkok
bangladesh
banisteria
banisteriopsis
banja
banjo
banjul
bank
banks
banla
banladish
banning
bano
banting
bantu
banzer
baptista
baptiste
baquerizo
baqui
bar
barack
barajas
barandiara
barat
barb
barba
barbadillo
barbados
barbara
barbasku
barbata
barbatus
barbero
barbosa
barboza
barbra
barca
barcelona
barcelonapi
barclay
barco
bardana
bardem
bardina
bardot
bari
barinas
baritone
barker
barkley
barnadesia
barneby
barnes
barney
barngarla
barnuevo
baro
baroja
baron
barquisimeto
barr
barra
barral
barranca
barranco
barranquilla
barrantes
barraza
barre
barreda
barrenechea
barrera
barreto
barrett
barretto
barrientos
barriga
barrio
barrios
barris
barriukuna
barriyupi
barro
barroco
barros
barroso
barrow
barruku
barry
barrymore
barsacq
bart
bartholomew
barto
bartolina
bartolo
bartolome
bartolomeo
barton
bartonella
baruch
barycenter
bas
basa
basada
basado
basadre
basaltu
base
baseball
based
basel
bases
basho
basi
basic
basie
basil
basileuterus
basilika
basilikan
basilio
basinas
basis
basketball
baskin
basque
bass
basso
basta
bastante
basten
bastian
bastidas
bastien
bastos
basurto
bat
bata
batalla
batallas
batan
batatas
bataua
bateman
bates
bath
batista
batistuta
batlle
baton
batres
battista
battle
batumi
bau
baudelaire
bauer
baure
bautismo
bautista
bawtista
bay
bayer
bayern
baylo
bayushig
baza
bazalar
bbc
bc
bd
bde
bdfa
be
beach
bear
bearn
bearnpa
bearnpi
bears
beast
beasts
beat
beata
beatles
beato
beatrice
beatriz
beatty
beau
beautiful
beauty
beauvoir
beaux
beb
bebe
bebel
bebo
bec
because
beck
beckenbauer
becker
beckett
become
becomes
becquerel
bed
bedford
bedoya
bee
beecher
been
beethoven
before
begon
begonia
begum
behind
bei
beic
beijing
being
beirut
beisbol
beitra
bejarano
bel
bela
belafonte
belalca
belau
belaunde
bele
belen
belfast
belgique
belgrano
believe
belinda
belisario
bell
bella
bellas
bellavista
belle
belleza
belli
bellido
bellini
bello
bells
belmondo
belmont
belmonte
belo
beloved
below
belter
beltra
belzebuth
belzu
bemol
ben
bena
benacerraf
benavente
benavides
benazir
bend
bendezu
bene
benedetti
benedetto
benedicta
benedicto
benedictus
benedikt
benediktsson
benfica
bengali
bengoechea
beni
benidorm
benigno
benin
benita
benito
benjami
benjamin
benn
bennett
benny
benson
benth
bentham
bentley
benvenuti
beny
benz
benzema
beograd
ber
bera
berberidaceae
berberis
berenice
berg
bergamo
bergen
berger
bergerac
bergkamp
bergman
bergson
berkeley
berli
berlin
berliner
berlioz
berman
bermejo
bermu
bermudas
bern
berna
bernabe
bernal
bernales
bernard
bernarda
bernardi
bernardina
bernardino
bernardo
bernd
bernhard
bernhardt
bernstein
bernuy
bero
berrio
berro
berrocal
berry
bers
bersetzer
bersetzung
bert
berta
bertel
bertha
berthold
bertholletia
berti
bertie
bertolt
bertoni
bertonio
bertrand
besanc
beso
besos
best
bestia
beta
betacea
betancourt
betancur
betanzos
betawiki
beth
betha
bethlehem
beto
betrachtungen
betsy
bette
better
betty
between
beverley
beverly
bey
beyond
beyrut
bezzi
bg
bh
bhutto
bi
bia
bianca
bianchi
bianco
biatu
biavo
białystok
bibi
bible
bibles
bibli
biblia
biblio
bibliografi
bibliography
biblioteca
bibliotecas
bibliothe
bicentenario
bicicleta
bicolor
bida
biden
bidens
bielefeld
bien
bienal
bienvenido
bifida
biflora
big
biggar
biggest
bignoniaceae
bigote
bihari
bikila
bikini
bil
bilarus
bilbao
bile
bilhika
bilhikapa
bilingu
bilingue
bilingues
bilisi
bill
billar
billboard
billie
billinghurst
billy
bilurusu
bin
bing
bingen
bingham
binidiktu
binin
binomial
bint
bio
biobi
biodiversidad
biogra
biografi
biografia
biographical
biography
biolib
biolo
biologi
biological
biology
biondi
biota
bioy
bir
bird
birdland
birdlife
birds
birgit
birmanu
birmingham
birostris
birth
bis
bisby
bishop
bisiklita
bismarck
bison
bissau
bisunti
bit
bita
bites
bitstream
bitter
biwa
bixente
biyubiyu
bizet
bjarni
bjo
bjørnson
bjørnstjerne
bla
black
blade
blades
blair
blaise
blaize
blake
blame
blanc
blanca
blancas
blanchard
blanche
blanco
blancos
blas
blasco
blasetti
blastocerus
ble
bleu
blica
blicas
blico
blind
blog
blognin
blogspot
blonde
blondie
blood
blu
blue
blues
blume
bmg
bn
bnf
bnp
bo
boa
boaco
boada
board
boat
boateng
bob
bobby
bobo
bobonaza
boca
bocanegra
bocas
boccaccio
bocconia
bocelli
bochini
bochsa
bochum
boda
bodas
body
boeing
boeto
boff
bogart
bogota
bogotense
bohe
bohemia
bohemian
bohemya
bohr
bois
boise
boiss
boitempo
bok
bol
bola
bolan
bolena
bolero
boleros
boleti
boli
bolivar
bolivariana
bolivia
bolivian
boliviana
bolivianland
boliviensis
bollywood
bolo
bologna
bolognesi
bolsa
bolsillo
bolsonaro
bolt
boluarte
bolzano
bom
bomarea
bomba
bombo
bon
bonanta
bonaparte
bonariensis
bond
bonding
bondy
bone
bonet
bonete
bongara
bongo
bonham
bonheur
bonifacio
bonifaz
bonilla
boniperti
bonita
bonito
bonn
bonne
bonnie
bonpl
bonpland
bonus
bonvicino
boogaloo
boogie
book
books
boom
boopi
booth
boquero
boquichico
bor
bora
borbo
borbor
borda
bordeaux
border
bordo
bords
borges
borghese
borgia
borgnine
borgon
bori
boris
borja
born
bornemisza
borodin
boron
borracho
borrascosas
borrero
borussia
borzage
bos
bosanski
bosch
bosco
bose
bosio
bosna
bosnia
bosnjak
bosque
bosques
bossa
boston
bot
bota
botafogo
botanic
botanical
botanik
botany
botas
botella
botero
both
bothrops
bots
bottom
bougainvillii
boulengerella
boulevard
boulogne
bound
bounty
bourgoin
bourguiba
bournemouth
bouterse
bouzouki
bovea
bow
bowie
box
boy
boyaca
boyd
boyer
boyle
boys
boyuibe
boza
br
bra
brabant
bracamonte
brace
bracho
brachybotrys
brachyotum
brachyurus
bracteata
brad
bradford
bradley
bradomi
brady
bradypus
braga
bragaglia
braganc
bragg
brahms
braille
branagh
branch
branco
brand
brando
brandon
brandt
branickii
brasil
brasileira
brasileiro
brasilen
brasilia
brasilianus
brasiliensis
brasilniyuq
brasilpa
brasilpi
brasilpipas
brass
brassica
bratislava
bratt
braulio
braun
brava
brave
bravi
bravo
brazil
brazilian
brazos
brazzaville
bre
brea
bread
break
breakfast
brecht
bregas
breitner
bremen
bren
brenda
brent
brero
brescia
bretan
brett
breuer
breve
breves
bri
brian
bribri
brica
bricen
brid
bride
bridge
bridges
bridget
brief
brien
brigada
bright
brighton
brigitte
brillante
brindisi
bring
bringing
briq
bristol
brita
britain
britannica
britanya
british
brito
britt
britten
britton
brno
broadcast
broadway
broken
bromeliaceae
bromus
bronce
bronckhorst
bronco
bronte
bronx
bronze
brook
brooke
brooklyn
brooks
bros
brosnan
brother
brotherhood
brothers
broussais
brown
brownea
browneopsis
bru
bruce
brugge
brugmansia
bruguera
bruja
brujas
brujo
brum
brunari
brunei
brunfelsia
brunke
bruno
brunswick
bruselas
brussel
bruto
bruxelles
bryan
bryant
bryce
brynner
bs
bso
bu
buarque
bubulcus
bucay
bucephalophorus
buch
buck
bud
budapest
buddleja
buddy
bude
budelberger
buen
buena
buenas
buenaventura
bueno
buenos
buffalo
buffon
bufo
bug
bugle
bugs
build
building
buitres
bukuresti
bukya
bul
bula
bulas
bulgaria
bulgarya
bulibya
buliwiyanu
buliwya
buliwyamanta
buliwyanu
buliwyap
buliwyapi
buliwyapipas
bulk
bull
bulletin
bullets
bulls
bulo
bun
bundesland
bundesliga
bunge
bunin
bunny
burbuwnpa
burden
bureau
bures
burgos
burinkin
burinkinpa
burke
burkina
burlington
burma
burn
burnet
burnham
burning
burns
burr
burro
burroughs
burt
burton
burundi
bus
busan
busca
buscando
buscar
busch
busco
bush
business
busna
bustamante
bustillo
busto
bustos
but
butan
butanika
buteo
butler
butswana
butterfly
butterworths
buwis
buxifolia
buyers
buynus
bvirtual
bvsde
bwino
bwv
by
bydgoszcz
bye
byrd
byrne
byron
bɾ
c
ca
caaguazu
caaman
caan
caazapa
caballe
caballero
caballeros
caballito
caballo
caballos
caban
cabana
cabanillas
cabaret
cabassous
cabaut
cabello
cabeza
cabezas
cable
cabo
cabra
cabral
cabrejos
cabrera
caca
cacao
cacataibo
caccia
caceri
cacha
cache
cachi
cacho
cachur
cacique
caco
cactaceae
cactus
cada
cadena
cadenas
caementarius
caenolestes
caer
caerulea
caesalpinia
caesar
caetano
cafe
cafrune
cafu
cage
cagliari
cagney
cah
cahill
cahuana
cai
caifanes
caiman
caimito
caine
caiophora
cairo
caitro
caiza
caja
cajabamba
cajahuaringa
cajal
cajamarca
cajanea
cajas
cajo
cajophora
cal
cala
caladium
calais
calama
calamagrostis
calatrava
calavera
calaveras
calceolaria
calceta
calcio
caldas
caldera
caldero
cale
calendario
calendula
calera
caleruega
calgary
cali
calidad
calidris
caliente
calientes
calif
california
californiapi
californicus
calixto
call
calla
callaghan
callao
callar
callas
calle
called
callejero
callejo
calleri
calles
callhua
callicebus
calling
calliphoridae
callithrix
calmell
caloocan
calophyllum
calor
calpe
caluromys
calvario
calvas
calvatia
calvin
calvino
calvo
calycophyllum
calzada
cam
cama
camacho
camagu
camaldulensis
camara
camargo
cambio
cambios
cambodia
cambridge
came
camelopardalis
camelot
camelus
cameo
camera
camerini
cameron
camila
camilla
camille
camillo
camilo
camina
caminando
caminante
caminho
camino
caminos
camiseta
camo
camp
campa
campaign
campan
campana
campanas
campania
campanilla
campbell
campeche
campeny
campeo
campeona
campeonas
campeonato
campeones
campero
campesina
campesinas
campesino
campesinos
campestre
campestris
camphora
campinas
campo
camporredondo
campos
campus
campyloneurum
camus
can
cana
canada
canadensis
canal
canales
canalla
canaria
canarias
canario
canasta
canc
cancer
cancio
cancionero
canciones
cancrivorus
cancu
candamo
candarave
candela
candelaria
candia
candicans
candid
candidate
candidato
candy
canela
canelo
canelones
canelos
canescens
canetti
cangallo
cangrejo
cani
canillita
canis
cannavaro
cannon
cannonball
cano
canova
canquella
canqui
canseco
canta
cantabria
cantado
cantan
cantando
cantante
cantantes
cantar
cantares
cantata
cantautor
cante
canterbury
cantero
canthon
cantidad
cantina
cantinflas
canto
canton
cantones
cantor
cantores
cantos
cantua
cantuarias
canyon
canzoni
canzoniere
cao
caoni
cap
capa
capacitacio
cape
capensis
caperucita
capetillo
capi
capilla
capita
capitaine
capital
capitalismo
capitals
capitanes
capitata
capitol
capo
caporales
capote
capparis
capra
capricho
capriles
capsicum
capt
captain
caption
caqueta
caquiaviri
car
cara
carabanchel
carabaya
carabobo
caracas
caracol
caracteri
caraji
caralt
carangas
caras
caravaggio
caraz
carazo
carbajal
carballo
carbo
carbon
carbonell
carbonera
carbono
carci
card
cardenal
cardenales
cardi
cardiff
cardinale
cardona
cardoso
cardozo
carduelis
care
career
caretas
carex
carey
cargo
carhuaz
cari
caribbean
caribe
carica
caridad
carin
caripensis
carita
carl
carla
carles
carleton
carlo
carlomagno
carlos
carlota
carmel
carmela
carmelita
carmelitas
carmelo
carmen
carmencita
carmi
carmona
carnaval
carne
carnegie
carnera
carnet
carnevali
carnot
caro
carol
carola
carole
carolina
caroline
carolus
carolyn
carpa
carpenter
carpentier
carpio
carranza
carrasco
carre
carreira
carrel
carren
carrera
carreras
carrero
carretera
carrie
carrillo
carrio
carrizal
carro
carrusel
carson
carta
cartagena
cartago
cartas
cartel
carter
cartero
cartier
cartographic
cartonera
carunculatus
caruso
carvajal
carvalho
carvallo
carver
cary
casa
casablanca
casada
casadas
casado
casados
casal
casals
casanare
casanova
casar
casares
casaretto
casarme
casarse
casas
cascada
cascales
casco
case
cases
casey
cash
cashibo
casi
casilla
casillas
casimira
casimiro
casino
casiri
casma
casmerodius
caso
casona
casos
casosmanta
casospi
caspar
caspi
caspisapa
cassette
cassia
cassin
cassinelli
cast
casta
castan
castejo
castellana
castellano
castellanomanta
castellanos
castellanu
castellari
castelli
castello
castelo
castigo
castilla
castilleja
castillo
castle
castlevania
castrillo
castro
cat
cata
catacaos
catacora
catala
catalina
catalogue
catalun
catamarca
catania
catarata
catarina
catch
catecismo
catedral
categori
category
catenaeformis
caterina
cathartes
catharticum
cathe
cathedral
catherine
catholic
cathy
catita
cato
catorce
cats
cattone
catzeflis
cauca
caucal
caudatus
caudillo
caudillos
causa
causalidad
causas
cause
causes
cautiva
cautivo
cav
cava
cavalleria
cavani
cave
cavero
cavia
cavinen
cavour
cay
cayambe
cayennensis
cayetano
cayo
cayubaba
caza
cazador
cazadores
cazo
cazorla
cb
cbc
cbs
cc
ccoscco
ccp
cd
cdc
cdi
cdot
ce
cea
ceara
cearensis
ceb
cebadilla
cebus
cecil
cecilia
ceciliae
cecropia
cedefoa
cedrela
cedrelinga
ceferino
ceguera
cei
ceiba
cela
celebracio
celebrating
celedonio
celendi
celeste
celestial
celestina
celestino
celia
celica
cell
cello
celos
celso
celtis
celular
cementerio
cemetery
cena
cenaq
cenepa
ceni
cenicienta
ceniza
cenizas
censales
censo
census
centauri
centenario
centeno
center
centinela
cento
central
centrales
centre
centro
centroame
centropelma
centropogon
centros
centuries
century
cepa
cera
cerastium
cerati
cerca
cercado
cercano
cerco
cerda
cerden
cerebro
ceres
cereus
cerezo
cerezos
cerna
cernuda
cero
cerrada
cerrado
cerro
cerros
certain
cervantes
cervera
cervus
ces
cesar
cesare
cesena
cesis
cestrum
ceulemans
cevallos
cf
cg
cgi
cgtp
ch
cha
chabuca
chacalo
chacarera
chacas
chacha
chachacoma
chachacomani
chachakuma
chachakumani
chachapoyas
chachapuya
chachapuyas
chachaq
chachas
chachita
chaco
chacra
chad
chadwick
chagas
chaha
chahta
chain
chair
chaja
chaka
chakakuq
chakaltaya
chakamarka
chakana
chakapampa
chakaqucha
chakas
chakata
chakatasqa
chakchura
chaki
chakin
chakinnaq
chakinpi
chakiqpampa
chakisapa
chakiyuq
chakra
chakrakamay
chakrakuna
chakrakunapi
chakrakunata
chakranchikkunapi
chakrankunapi
chakrapampa
chakrapi
chakrapura
chakrarahu
chakraruna
chakrata
chaku
chakuma
chakunapaq
chakupi
chakuq
chal
chala
chalalan
chalamanta
chalamarka
chalanpi
chalapi
chalatenango
chalchaleros
chalco
challa
challapata
challenge
challenges
challhua
challua
challwa
challwakuna
challwakunam
challwakunap
challwakunata
challwakunatam
challwam
challwamanta
challwamayupi
challwanka
challwawachu
challwawat
challwiri
chaltura
chama
chamana
chamarti
chamaya
chamber
chamberi
chamberlain
chambi
chambira
chambre
chamiku
chamikuru
chamorro
champa
champagnat
champagne
champara
champi
champin
champion
champions
championship
champira
champu
chamqaspa
chan
chana
chanca
chancay
chancayban
chance
chanchamayu
chanchan
chandler
chandless
chaney
chang
changchun
change
changes
changing
chango
changsha
chani
chanin
chaninchaq
chaninchasqa
chaninchasqam
chaninniyuq
chaniyuq
chaniyuqmi
chanka
chankaku
chankap
chankay
chankillu
chankuwan
channel
chano
chanoc
chanqu
chanrara
chanson
chansons
chant
chanta
chantal
chantapas
chantasqa
chantataq
chante
chao
chapaq
chapari
chapariy
chaparral
chaparro
chapi
chaplin
chapman
chappuis
chapter
chapu
chapusqa
chaqallu
chaqallum
chaqas
chaqay
chaqlakayu
chaqlla
chaqllisinchi
chaqllisinchimanta
chaqllisinchipi
chaqllisinchipiqa
chaqna
chaqnasqa
chaqruna
chaqruspa
chaqrusqa
chaqrusqam
chaqullu
chaquy
characidae
character
characterization
characters
charadrius
charan
charanga
charanku
charankukuna
charankuta
charapa
charasani
charata
charawa
charazani
charcas
chari
charisteas
charito
charity
charkas
charles
charleston
charlie
charlotte
charlottep
charlottetown
charlton
charly
charro
chart
chase
chaska
chaski
chaskin
chaskinanpaq
chaskinapaq
chaskinchik
chaskiq
chaskiran
chaskirqa
chaskirqan
chaskispa
chaskisqa
chaskiy
chasteen
chat
chata
chatham
chauca
chaucha
chavela
chaves
chavi
chavin
chavo
chaw
chawa
chawarpampa
chawchuri
chawin
chawinillu
chawkatu
chawpi
chawpikallki
chawpimayu
chawpin
chawpinmanta
chawpinmi
chawpinpi
chawpinqa
chawpipacha
chawpipachakuna
chawpipi
chay
chayamun
chayamuptin
chayan
chayanta
chayawita
chaychu
chayka
chaykuna
chaylla
chayllapi
chayman
chaymanta
chaymantam
chaymantapacha
chaymantapas
chaymantaqa
chaymantas
chaymantataq
chaymantataqmi
chaymantataqsi
chaymi
chayna
chaynallataq
chaynallataqmi
chaypacha
chaypas
chaypi
chaypim
chaypin
chaypipas
chaypiqa
chaypis
chayqa
chayrayku
chayraykum
chayraykutaq
chayri
chayta
chaytam
chaywan
chaywanmi
chaywanpas
chaywanqa
chaywansi
che
checa
check
checklist
chef
chei
cheikh
cheilanthes
chejov
chekhov
chelsea
cheltenham
chemical
chemie
chemille
chemins
chemistry
chen
cheney
cheng
chengdu
chenopodium
cheo
chepe
cherokee
cherry
chespirito
chester
chetumal
cheung
chevalier
cheyenne
chez
chh
chhachani
chhalla
chhaqi
chhaqru
chhasku
chhika
chhikan
chhikaynaykunakamaqa
chhuka
chhulla
chhulli
chhuquruqutu
chi
chia
chiang
chiapas
chiappe
chiar
chiara
chiarella
chiba
chibcha
chibuleo
chica
chicago
chicas
chicha
chicham
chichas
chichester
chichi
chichiku
chichiqhapaq
chichira
chichu
chichuyay
chiclayo
chico
chicos
chief
chien
chiesa
chifukwa
chigan
chiguanco
chiho
chihuahua
chiina
chikama
chikan
chikasa
chikayu
chikchi
chikchipa
chiki
chikichasqa
chikichasqanmi
chikitanu
chikitukus
chikitus
chikla
chiklayu
chikmu
chiksuyu
chiksuyupi
chiku
chikun
chikusluwakya
chikyan
chila
chilata
chilavert
chilaya
chilca
child
children
chile
chilena
chileno
chilense
chilensis
chiles
chili
chilichonse
chilikchi
chiliman
chilina
chilinu
chilip
chilipi
chiliqucha
chiliqui
chiliti
chill
chilla
chillanes
chilliqa
chilliwa
chillka
chillkapampa
chillki
chillkiyuq
chillo
chilltu
chillun
chillwar
chilo
chiloe
chilpancingo
chilu
chima
chimaltenango
chiman
chimbo
chimborazo
chimbote
chimie
chimlasay
chimlasayta
chimlasaywan
chimpa
chimpachikun
chimpachikuq
chimpachikuy
chimpachisqa
chimpan
chimpansi
chimpu
chimpulla
chimpurasu
chimputi
chimpuya
chimu
chimuriy
chin
china
chinaku
chinandega
chinantika
chinaqa
chinaqucha
chinataq
chincha
chinchamali
chinchanpi
chinchay
chinchayman
chinchaymanta
chinchayninpi
chinchayqucha
chinchaysuyu
chinchaysuyupi
chinchero
chinchi
chinchilla
chinchina
chinchipe
chinchipi
chinchirkuma
chinchiru
chinchiy
chincho
chindul
chinese
ching
chini
chinkasqa
chinkirma
chino
chinru
chinu
chipana
chipaya
chipcha
chipika
chipin
chipmunks
chipuru
chiqa
chiqakupi
chiqan
chiqap
chiqarimay
chiqllan
chiqllarahu
chiqniq
chiquimula
chiquinquira
chiquita
chiquito
chiquitos
chira
chirapaq
chirapaqa
chirca
chiri
chiricahua
chirimaway
chirimuya
chirimuyu
chirinos
chiripa
chiriq
chiriqui
chiris
chiriwanu
chiriwata
chiriyaptintaq
chironectes
chiru
chiruki
chiruyuq
chis
chita
chitilla
chittagong
chiva
chivo
chiwaku
chiwalaki
chiwana
chiwanku
chiway
chiwayru
chloephaga
chloroptera
chloropus
cho
chocano
choco
chocolate
choi
choice
choir
chojn
chol
cholera
choliba
cholita
cholito
cholo
choloepus
choluteca
chomolungma
chomwe
chondrichthyes
chone
chong
chongqing
chonta
chopin
chopra
choque
choquehuanca
chordata
chordeleg
choro
choros
chorrillos
chorro
chorus
chosica
chota
chotano
chow
chr
chre
chris
christ
christa
christenson
christentum
christi
christiaan
christian
christiana
christiane
christie
christina
christine
christmas
christoffer
christoph
christophe
christopher
chrome
chronicles
chrysocyon
chu
chua
chubut
chuchaw
chuchis
chucho
chuchu
chuchuqa
chuck
chuco
chucuito
chucuri
chugur
chujn
chukaya
chukcha
chukchu
chuki
chukiqayara
chukirawa
chukis
chukitakarpu
chukiyapu
chukru
chuku
chukulati
chukun
chukuri
chukuwitu
chukuytu
chul
chulla
chulli
chullpakuna
chullpi
chullu
chullunku
chullusqa
chulpurunku
chulu
chulukanas
chulumani
chuma
chumi
chumpaw
chumpi
chumpicha
chumpitaz
chumpiwillka
chumuch
chun
chunchi
chunchu
chung
chunga
chungara
chungcheong
chuni
chunka
chunkacha
chunkam
chunkamanta
chunkana
chunkantin
chunkara
chunkawata
chunkay
chunki
chunkuk
chunqaq
chunta
chuntamarka
chuntu
chunwa
chunwapa
chunwapi
chunwayuq
chunyi
chupa
chupaka
chupam
chupan
chupasapa
chupayuq
chupi
chuqa
chuqana
chuqanapaq
chuqi
chuqichaka
chuqik
chuqikillka
chuqin
chuqipampa
chuqipampilla
chuqiquta
chuqitanka
chuqiwanka
chuqiyapu
chuqllu
chuqlluqucha
chuqu
chuqui
chuquibamba
chuquimamani
chuquiraga
chuqur
chuqus
chura
churan
churana
churanam
churanapaq
churarqan
churas
churaspa
churasqa
churata
churay
church
churchill
churchuku
churi
churikimpaya
churikuna
churin
churinakuna
churinkina
churinkuna
churinmi
churinsi
churip
churkampa
churki
churu
churubamba
churukupti
churulki
churup
churupampa
chururu
churuta
churuti
chusaq
chuschi
chusi
chusku
chuspi
chusquea
chusun
chuta
chutanu
chutu
chutuchupa
chuulu
chuwa
chuwi
chuya
chuymaquta
ci
cia
ciangherotti
cianjur
cica
cicatrices
cicero
ciclista
ciclo
cid
cidade
cido
cidob
cie
ciego
ciegos
ciel
cielito
cielo
cien
ciencia
ciencias
cieneguilla
cienfuegos
cienti
cierto
ciervo
cieza
cigarra
cil
cile
ciles
cima
cimas
cinchona
cincinnati
cinclodes
cinclus
cinco
cine
cinema
cinematogra
cinereus
cingulata
cinnamomum
cinq
cinque
cinta
cio
ciocchini
cipolla
cipriani
cipriano
circa
circle
circo
circuito
circus
cirilo
ciro
cisne
cisneros
cita
citas
cite
cities
citizen
citratus
citta
city
ciudad
ciudadana
ciudadano
ciudadanos
ciudades
ciudadeshermanas
cius
ciutat
civil
civiles
civilisations
ck
cken
cker
ckochas
cl
cla
clair
claire
clamor
clan
clandestina
clandestinum
clapton
clara
clarence
clarendon
claret
clari
clarinet
clarinete
clark
clarke
claro
clase
clasificacio
class
classic
classical
classics
classification
classis
claude
claudel
claudia
claudio
claus
clausen
clausura
clav
clava
clavatum
clave
clavecin
clavel
claver
clavijo
clavo
clayton
cle
clear
clemencia
clemens
clement
clemente
clementina
clements
cleome
cleopatra
clerc
clermont
clethra
cleveland
cli
cliath
clica
click
clifford
clift
clima
climbers
climbing
climinti
clin
clinical
clint
clinton
clio
cliquea
clitocybe
clive
clock
clodoaldo
clodomiro
clorinda
close
clotilde
cloud
clouds
clown
club
clube
clubes
clubs
cluj
clusia
clyde
cm
cmb
cn
cna
cnica
cnicas
cnico
cnidoscolus
cnn
co
coahuila
coari
coast
coates
cobain
cobarde
cobb
cobra
cobre
coca
coccinea
coccinellidae
coccio
cocha
cochabamba
cochabambino
cochas
cochrane
cocina
cocker
cockerell
coco
cocoon
cocos
cocteau
code
codenpe
codesido
codeso
coe
coelho
coello
coendou
coerulescens
cofa
coffee
cofre
cogn
cohen
coimbra
cojedes
cojo
cojup
col
cola
colaboracio
colaboro
colan
colaptes
colas
colca
colcha
cold
cole
coleccio
colectiva
colectivo
colegio
colegios
coleman
coleoptera
coleridge
colette
coletti
colibri
colima
colimes
colin
colina
colinas
coliseo
coll
collaboration
collana
collantes
collao
collar
collard
colle
collected
collection
collections
college
colletia
collier
collins
collo
colmenares
colo
colocolo
cologne
colom
colombia
colombiana
colombo
colon
colonia
coloniakuna
colonial
colonizacio
coloquio
color
colorada
colorado
colorados
colores
colors
coltrane
colubrina
columba
columbe
columbia
columbus
columna
columnas
colunga
com
coma
comadres
comaina
comanche
comandante
comando
comas
comayagua
combate
combinados
combo
come
comedia
comedias
comedy
comencini
comendador
comentario
comentarios
comenzo
comer
comercial
comercio
comes
cometa
comets
comfauna
comic
comida
coming
comisario
comisio
comite
command
commandeur
comme
commentationes
commerce
commercial
commercio
committee
commodore
common
commons
commonscat
commonwealth
communications
communis
community
como
comp
compacta
compacttoc
compadre
compadres
compan
companion
company
comparative
compartido
compasio
compay
compendio
competicio
compilacio
compilaciones
compilador
compilation
comple
complejo
completa
completas
complete
completed
completo
completos
complutense
compose
composer
composicio
compositae
compositor
compostela
compound
compounds
comprehensive
compromiso
compton
compuesta
compuestas
compuesto
computer
comte
comu
comuna
comunal
comunicacio
comunicaciones
comunidad
comunidades
comunismo
comunista
comunitaria
comunitario
con
conacami
conaie
conaiepa
conamaq
conan
concacaf
conceic
concepcio
concepts
concern
concert
concertante
concerto
concertos
concerts
concesio
concha
conchita
conciencia
concierto
conciertos
concilio
concolor
concord
concordancias
concordia
concurso
concytec
condado
conde
condecoracio
condena
condenada
condenado
condesa
condicio
condor
condori
condoriri
conducta
conductor
conejo
conepatus
confe
confederacio
confeniae
conference
conferencia
conferencias
confesio
confesiones
confianza
confidencias
confirmed
conflict
conflicto
conflictos
conflicts
conga
congo
congre
congregacio
congresista
congreso
congresos
congress
conibo
conjugacio
conjunto
conmebol
conmemoracio
conmigo
connecticut
connection
connery
connexa
connor
connors
cono
conoce
conocida
conocidas
conocido
conociendo
conocimiento
conocimientos
conqueror
conquest
conquista
conquistador
conrad
consagrado
consejo
consejos
consenso
conservacio
conservacion
conservador
conservation
conservative
consider
considerada
considered
consorcio
conspicillatum
consta
constance
constant
constante
constantin
constantino
constantinus
constanza
constitucio
constitucional
constitution
constituyente
constrictor
construccio
construir
construyendo
consuelo
consulta
consultado
consultation
cont
contact
contacto
contadas
contae
contar
conte
contempora
contemporains
contenido
content
contento
contes
conti
contiene
contigo
continent
continental
continente
continu
continuacio
conto
contos
contra
contrabando
contrabass
contract
contradiccio
contradicciones
contrahierbas
contralmirante
contrast
contrato
contrayerba
contre
contreras
contribucio
contribuciones
contribuir
contribute
contributions
control
contumaza
convenio
convent
convento
conversacio
conversaciones
conversation
convertida
convictorio
conway
cook
cool
coolidge
cooper
cooperacio
coordinadora
coordinates
cop
copa
copacabana
copaia
copalli
copas
cope
copello
copenhague
copia
copiapo
copias
coplas
copley
coppa
coppe
copper
coppola
coproduccio
coquimbo
cor
cora
corac
coragyps
coraje
coral
corales
corazo
corazon
corazones
corbacho
corbala
corbie
corbucci
corbusier
corcuera
cord
cordero
cordia
cordifolia
cordillera
cordillerano
core
corea
coreopsis
cori
coria
coriacea
corine
corinne
corinthians
cornejo
cornelio
cornelius
cornell
corner
corniculata
corno
cornos
cornualles
cornuta
cornwall
coro
coromoto
corona
coronacio
coronado
coronavirus
coronel
corongo
corot
corpo
corporacio
corporation
corpus
corr
corral
corrales
corre
correa
correct
corregida
correia
correo
correspondance
corresponde
correspondencia
correspondiente
corrida
corrido
corriendo
corrientes
corrupcio
corsario
corta
cortaderia
cortas
corte
cortez
cortijo
cortina
corto
cortometraje
cortos
corts
corun
coruscans
corymb
cos
cosa
cosas
cosby
coscoroba
cose
cosecha
cosi
cosme
cosmos
cosmovisio
cossi
costa
costen
costner
costumbres
cota
cotabambas
cotacachi
cotagaita
cotahuasi
cotalo
cotler
coto
cotopaxi
cough
could
council
count
counter
countess
countries
country
county
courbet
course
court
courtney
coutinho
cov
coventry
cover
covid
coward
cowboy
cowboys
cowper
cox
coyoaca
cozumel
cpl
cquer
cr
crack
cracovia
craig
cram
crane
crash
crassa
crassifolium
crassum
crates
crawford
crax
crazy
crc
cre
creacio
creado
creador
cream
crear
create
created
creative
credo
creek
creer
cremona
creo
crepitans
crepu
crescentia
crespo
crew
cri
criada
criado
cricetidae
crime
crimea
crimen
crimes
criminal
criolla
criollo
criollos
crisanto
crisis
crispus
cristal
cristia
cristian
cristiana
cristiani
cristianismo
cristiano
cristianos
cristina
cristo
cristobal
crit
critic
critical
critique
cro
croce
crocodilus
crocodylus
croix
cromwell
cronologi
cronquist
crosby
cross
crossing
crotalus
croton
croup
crow
crowd
crown
cruce
crucero
cruces
cruchot
cruel
cruise
crup
crus
crusoe
crutzen
cruyff
cruz
cruzada
cruzado
cruzeiro
cry
crystal
cs
cst
ct
ctar
ctea
cter
ctica
cticas
ctico
ctimas
ctor
ctrica
cu
cua
cuaderno
cuadernos
cuadra
cuadrado
cuadro
cuadros
cual
cuales
cualquier
cualquiera
cuando
cuarenta
cuaro
cuarta
cuarteto
cuarto
cuatrec
cuatro
cuauhte
cuba
cubana
cubanas
cubano
cubilla
cubillas
cubo
cucaracha
cucha
cuchi
cuchillo
cuchillos
cucu
cuculiza
cucumis
cucurbita
cucurbitaceae
cue
cueca
cuellar
cuello
cuenca
cuenta
cuentas
cuento
cuentos
cuentucuna
cuerda
cuerdas
cuernavaca
cuerpazo
cuerpo
cuerpos
cuervo
cuervos
cuesta
cuestas
cuestio
cuestiones
cueto
cueva
cuevas
cuevo
cuidado
cuji
cujiri
cukor
cula
culas
culcitium
culebra
culebras
culiaca
cullen
culo
culos
culpa
culpable
culpaeus
cultivo
culto
cultura
cultural
culturales
culturas
culture
cultures
cumana
cumbe
cumbia
cumbias
cumbre
cumbres
cumple
cumplean
cumulopuntia
cun
cuna
cundadukuna
cundinamarca
cuneata
cuneifolius
cunha
cunicularia
cuore
cup
cupiso
cura
curahuara
curan
curandero
curaray
curativo
curativos
cure
curet
curicama
curie
curimata
curimatella
curimatidae
curitiba
current
currently
curri
curricular
curro
curse
curso
cursos
curtain
curtis
curtiz
curu
curva
cusco
cuscuta
cushing
cuspidata
cusquen
custom
cusu
cut
cuta
cutervo
cutipa
cuvier
cuya
cuyabeno
cuyo
cuypers
cuzco
cuzquen
cy
cyanoptera
cyathea
cybill
cycadophyta
cyclanthera
cyclone
cyclopes
cygnus
cymbal
cymbopogon
cymraeg
cynodon
cynthia
cyperaceae
cyperus
cyphomandra
cyrano
cysticercosis
cz
czech
cœur
d
da
dactylon
daddy
dado
dae
daegu
dag
dai
daily
daisy
dakar
dakota
dal
dalai
dale
dalea
dalence
dales
dalfinat
dali
dall
dallas
dalton
dalzotto
dam
dama
damaris
damas
damasco
damasku
dame
damia
damian
damiani
damiano
damien
dammert
damned
damon
dan
danc
dance
dancer
dances
dancing
dane
danger
dangerous
daniel
daniela
daniele
danilo
danny
danova
dans
danse
dansk
dansuyu
dansuyupa
dante
danuwyu
dany
danyelpa
danza
danzas
dao
daphne
dar
dara
dare
dari
darie
darijo
darin
dario
dark
darkness
darling
darmstadt
darrell
darrow
dartford
dartmouth
darwin
daryl
das
daste
dasypodidae
dasyprocta
dasypus
data
database
date
datem
datos
datura
daughter
daule
dave
daves
davi
david
davidsfonds
davies
davis
davor
davy
dawn
day
days
db
dc
dcampos
dd
ddr
de
dea
dead
deadly
deal
dean
dear
deas
death
deaths
debajo
debate
debbie
debe
deben
deber
deberi
deborah
debra
debussy
debut
debye
dec
decay
decca
december
decente
decide
decir
decisiones
decisions
declaracio
decreto
decumanus
dedicada
dedicado
dedo
dedos
dee
deep
default
defence
defensa
defense
defensor
definicio
definitiva
definitivamente
defoe
degas
degli
degree
degregori
dei
deja
dejan
dejo
del
delano
delaware
delfi
delfina
delft
delgado
delia
delibes
delicias
delito
delivered
delivery
deliverymanager
dell
della
delle
dello
delmer
delon
delphin
delta
deltoidea
dem
dema
demasiado
demetrio
demi
demille
demis
demo
democra
democracia
democracy
democratic
demokrata
demokratiku
demon
demonio
demos
dempsey
den
dendrobatidae
dendrocygna
dene
denegri
deng
deni
denis
denise
denisse
denken
dennis
denny
densidad
dentatus
dentes
denticulata
dentro
denver
denys
denzel
deo
depardieu
departamental
departamento
departamentos
department
deployment
depo
deporte
deportes
deportista
deportiva
deportivo
deportivos
der
deray
derbez
derbi
derecha
derecho
derechos
derek
deriva
dermott
derrama
derrotero
dervis
des
desa
desafi
desaguadero
desailly
desaparecido
desaparicio
desarrollo
desayuno
desbordes
descalzos
descargar
descartes
descentralizacion
desco
desconocida
desconocido
describisqanmanta
descripcio
description
descriptive
descrita
descubre
descubrimiento
descubrir
descurainia
desde
desdicha
deseado
deseas
desencuentro
desengan
deseo
desert
deshonra
desi
desiderio
desiderius
desierto
design
desire
desmodium
desmond
desnu
desnuda
desnudo
despedida
despertar
despicable
despue
destacado
destierro
destinado
destino
destinos
destiny
destruccio
desv
det
details
detalle
detective
detectives
determination
detra
detroit
deuda
deudas
deuk
deus
deuteronomium
deutsch
deutsche
deutschen
deutsches
deutschland
deux
dev
development
devi
devil
devocio
devon
dewey
dexter
dez
deza
df
dfb
dfg
dg
di
dia
diabetes
diabla
diablada
diable
diablo
diablos
diabo
diagno
diagnosis
diagnostico
diagonal
dialect
dialecto
dialectos
diallo
dialogue
dialogues
diamante
diamantes
diamond
diamonds
diana
diane
dianthus
diaries
diario
diarios
diary
dias
diavolo
diaz
dibo
dibujo
dibujos
dic
dica
diccionario
diccionarios
dice
dicen
dices
dicha
dicho
dichotoma
dichotomius
dichotomus
dichter
diciembre
dicinales
dick
dickens
dickinson
dico
dicos
dicotyledoneae
dictadura
dictionary
dictionnaire
did
dida
didactylus
didelphis
diderot
didi
didier
didn
die
died
diego
dientes
dieppe
dies
diesel
dieser
dieter
dietrich
diez
diferencia
diferente
diferentes
diffe
different
diffusa
difi
difteria
difusio
digan
digas
dige
digest
digital
dignidad
digo
dijo
dijon
dilema
dilhi
dilip
diloboderus
dimaggio
dimas
dimashq
dime
dimensio
dimiter
dimple
dimukrata
dimukratiku
dimukratiya
din
dina
dinasti
dine
dineib
dinero
ding
dinger
dinner
dino
dinomys
dintilhac
dinusawru
dio
diogo
dion
dionisio
dionne
dios
diosa
dioscorea
dioses
diosmanta
diospa
diospaj
diouf
dipartamintu
diploma
diplomacia
diplumatiku
diptera
dipterorum
diputacio
diputado
diputados
dir
dirac
dire
direc
direccio
direct
directa
directe
directed
directo
director
directorio
directory
direito
diretor
dirigida
diriktur
dirk
dirty
dis
disc
disco
discogra
discografi
discophon
discos
discours
discovery
discurso
discursos
discusio
discussion
disease
diseases
disen
disimri
disimripi
disk
disku
diskugraphika
diskukuna
disney
displaystyle
disponible
disquisitiones
dissertation
distancia
disterigma
distichia
distichlis
distincio
distinguidos
distribuidora
distributed
district
distrital
distrito
distritu
distritukuna
distritukunapas
distritum
distritumanta
distritun
distritunkuna
distritunmi
distritup
distritupi
distritupipas
distritupiqa
distritupiqapiqa
distrituqa
distrituwan
dit
dita
ditas
dith
dition
ditions
dito
ditos
diva
diversas
diversidad
diversificacio
diversity
diversos
dividida
dividido
divina
divine
divino
divisio
division
divisor
divisyun
divorce
divorciado
divorcio
diwanaqri
dixon
diz
dizzy
djokovic
dl
dm
dmitri
dmytryk
do
dobby
doble
dobson
doc
doce
docente
docentes
docteur
doctor
doctora
doctorado
doctoral
doctores
doctrina
documentacio
documental
documentales
documentary
documentation
documento
documentos
documents
dodonaea
dodson
does
doesn
dog
dogma
dogs
doi
doing
dois
doktor
dolce
dolichophylla
doll
dollar
dolly
dolo
dolor
dolores
dolos
doltons
dom
domain
domani
domanovic
dombeyanum
dome
domecq
domenica
domenico
domestica
domi
dominacio
dominga
domingo
domingos
domingui
dominicana
dominio
dominique
domino
don
dona
donald
donation
donayre
doncella
donde
done
donen
dong
donizetti
donna
donne
donoso
donovan
doo
doom
door
doors
doppler
dora
dorada
dorado
dorchester
dordrecht
dore
doria
doris
dormido
dormir
dorothea
dorothy
dorsalis
dorset
dortmund
dos
dosis
dossier
dotos
dou
douard
douat
double
douglas
dove
dover
down
downarrow
downey
downs
downtown
doye
doyle
dr
dra
dracula
dracunculifolia
draft
drago
dragon
dragutin
drake
drama
drawida
draz
dre
dream
dreams
drenthe
dresde
dresden
dressler
drew
dreyfus
drico
drive
driver
drogba
droit
drop
druck
drucker
drug
drugs
drum
drummond
dryopteris
ds
dt
dter
dtl
du
dua
duarte
duas
dub
dubli
dublin
duby
duc
duccio
duchovny
duck
ducretet
duda
dudas
dudley
due
duele
duelo
duen
duende
duerme
duetos
duets
duhalde
duhamel
duisburg
duke
dulanto
dulce
dulcis
dulo
dulos
dumas
dumingu
duminikana
duminikanapa
duminikanu
dun
duna
dunal
dunalia
dunaway
duncan
duncker
dundee
dunst
duo
dupa
dupont
duque
duquesa
dur
dura
duradillo
duran
durand
durango
durant
durante
durazno
durham
durmiente
duro
duroia
durston
dusicyon
dust
dustin
duthurburu
duval
dvd
dvor
dw
dwarf
dwight
dyango
dyke
dylan
dyung
dyus
dyusllam
dyusmanta
dyusmi
dyuspa
dyuspi
dyusqa
dyusta
dyuswan
dz
dzima
dzina
dztwo
dzuc
e
each
eagle
eagles
eanes
ear
earl
early
earth
east
eastbourne
eastern
easton
eastwood
easy
ebert
ebi
ebola
ebro
ec
eca
ecas
ecce
eccles
echeandi
echegaray
echenique
echevarri
echeverri
echinopsis
echo
eckersberg
eclipse
eco
ecolo
ecologi
ecological
econo
economi
economic
economics
ecos
ecoturismo
ecuador
ecuadorian
ecuarunari
ecuatoriana
ecuatoriano
ecuestre
ed
eda
edad
eddie
eddy
ede
edelmira
eden
edgar
edgard
edgardo
edge
edhasa
edic
edicio
ediciones
edificio
edigsa
edilberto
edimburgo
edin
edinburgh
edinter
edipo
edison
edit
edita
editada
editado
editados
editar
edited
edith
editing
edition
editions
editor
editora
editores
editorial
editors
edits
edmond
edmonton
edmund
edmundo
edmunso
edna
edo
edoardo
edouard
eds
edu
eduard
eduardo
educac
educacio
educacion
educared
education
educational
educativa
educativas
educatives
educativo
edulis
edvard
edward
edwards
edwin
ee
eembucu
een
eesti
efe
efectivamente
efecto
efectos
effect
effects
efrai
eg
eger
egipto
ego
egretta
egu
eguiguren
eguren
ehrlich
eib
eidos
eielson
eiffel
eight
eijkman
eileen
ein
einaudi
eindhoven
eine
einer
eines
einfu
einstein
eira
eiro
eisenhower
eixample
ej
eje
ejecutivo
ejemplares
ejemplo
ejemplos
ejja
ek
ekman
el
ela
elaboracio
eladio
elaine
elaphoglossum
elaphus
elata
elba
elche
elcomercio
elder
ele
eleanor
eleazar
elecciones
elected
election
electoral
electra
electric
electrical
electro
electronic
electronics
elefante
elegans
elegi
elegido
elegy
element
elemental
elemento
elementos
elements
elena
eleodoro
eleonora
elephanti
elevacio
eleven
elguera
eli
elia
elias
elinor
elio
eliodoro
eliot
elisa
elisabet
elisabeth
elisabetta
eliseo
eliza
elizabeth
elizalde
elizondo
ella
ellas
elle
ellen
elles
ellington
elliot
elliott
ellis
ello
ellos
elmer
elogio
eloi
eloy
elpidio
els
elsa
else
elsevier
elsie
elton
elva
elvia
elvira
elvis
em
emancipacio
emanuel
emanuele
embajada
embajador
embajadora
embajadores
embargo
embera
emboscada
embrujo
emece
emergence
emergencia
emergency
emerson
emes
emi
emil
emile
emilia
emiliano
emilio
emily
emir
emma
emmanuel
emmer
emmons
emmy
emociones
empalme
emperador
emperatriz
emperor
empezar
empezo
empire
empresa
empresas
emre
en
ena
enabled
enamorada
enamorado
enamorados
enanitos
encadenada
encantada
encanto
encarnacio
encarta
encendida
encendidas
enci
enciclope
enciclopedia
enciclopediadelecuador
encima
encinas
enciso
encontre
encore
encrucijada
encuentra
encuentran
encuentro
encuentros
encyclope
encyclopedia
encyclopædia
end
enda
endangered
endara
ende
endl
endo
ene
enema
enemiga
enemigo
enemigos
enemy
energi
energy
enero
enfance
enfant
enfants
enfermedad
enfermedades
enfermo
enfrente
engagement
engagements
engan
engatu
engel
engels
engineering
engineers
engl
england
engleriana
englische
englischer
english
enigma
enjoybolivia
enjoyperu
enlace
enlaces
enlai
enlared
enmascarado
ennemi
ennio
enough
enredo
enregistrat
enri
enric
enrico
enrique
enriqueta
ensayo
ensayos
ense
ensemble
ensen
ensenada
ensifera
entender
entendimiento
entero
entertainment
entex
entomology
entonces
entrada
entre
entrega
entreme
entretiens
entrevista
entrevistas
entry
environment
environmental
enz
enza
enzo
eo
ep
ephedra
ephesuyuqkunapaq
epi
epic
epidemia
epidemiological
epidemiology
epidendrum
epifanio
epinefrina
epipedobates
episode
episodio
episodios
epistolario
epoch
epopeya
eppi
epstein
eqha
equilibrista
equipo
equisetum
equus
er
era
eran
erasmo
erasmus
ercilla
erdog
erecta
eren
eres
erfurt
ergu
eric
ericaceae
erich
erickson
erico
erik
erika
eris
ernest
ernestina
ernesto
ernst
ero
erodium
eros
erosus
errante
errol
error
errores
erwin
eryngium
erythrina
erythrogenys
erza
es
esa
esas
esbozo
esca
escajadillo
escala
escaladores
escalante
escale
escalera
escallonia
escalona
escape
escarabajo
esce
escena
escenas
escenografi
esclava
esclavitud
esclavo
escobar
escobedo
escocia
escogida
escogidas
escogidos
escola
escolar
escondida
escondido
escoto
escribimos
escribio
escribir
escrita
escritas
escrito
escritor
escritoras
escritores
escritos
escritura
escriva
escuadro
escucha
escuchar
escudero
escudo
escuela
escuelas
escuintla
esculenta
esculentum
escultura
ese
esencia
esencial
esenciales
eseqyelpa
esfera
esfinge
eske
eskimo
esky
eslabo
esmeralda
esmeraldas
eso
esopo
esos
esp
espacial
espacio
espada
espaldas
espan
espanol
esparta
espasa
espe
especial
especiales
especialista
especialmente
especie
especies
especta
espectacular
espectros
espejismo
espejo
espejos
espera
esperaba
esperanc
esperando
esperanto
esperanza
esperanzas
espi
espinar
espino
espinosa
espinoza
espiritu
espiritual
espiritualidad
espn
espndeportes
esposa
esposo
esprit
espuelas
esquina
esquivel
esrap
essai
essay
essays
essen
essential
essere
essex
est
esta
estaba
estacio
estaciones
estadi
estadio
estadistica
estadisticas
estado
estados
estadounidense
estadounidenses
estadual
estaing
estambul
estamos
estampa
estampas
estanislao
estanque
estar
estara
estas
estatal
estate
estatua
este
esteban
estefan
estela
estelar
esteli
estella
esteno
estenssoro
ester
esterilizacio
estero
esterpa
esteve
esther
esti
estilo
esto
estocolmo
estos
estoy
estrada
estrate
estrategia
estrategias
estrecho
estrella
estrellas
estremera
estrenada
estrenado
estreno
estreptoco
estreptococos
estridor
estrofa
estructura
estructuras
estuardo
estudiante
estudiantes
estudio
estudios
estuve
esztergom
et
eta
etapa
etc
etcheverry
ete
eterna
eternamente
eternidad
eterno
eternos
ethan
ethanulniyuq
ethel
ethnic
ethnobotany
ethnologue
etimologi
etiopi
etnias
etnobota
etnofarmacolo
etnografi
etnoictiologi
eto
ettore
etudes
eu
eua
eucalyptus
eucken
eudeba
euge
eugen
eugene
eugenia
eugenio
eulalia
eulalio
eulogio
eunectes
eupatorium
euphorbia
euphorbiaceae
eur
eureka
euro
europa
europe
europea
european
europeo
euse
eusebio
eustaquio
euterpe
eva
evaluacio
evaluation
evan
evana
evange
evangelina
evangelio
evangelion
evangelios
evangelista
evangelizacio
evans
evaristo
eve
evelyn
even
evenhuis
evening
eventos
events
ever
everest
everett
evert
everton
every
everybody
everyone
everything
evic
evidence
evidencia
evil
evita
evo
evolucio
evolution
ewan
ewtn
ex
exaltacio
examen
example
excelencia
excelsa
excursio
executive
exeter
exile
exilio
existe
existen
existencia
existencialismo
existing
existir
exit
exitos
exodus
expansa
expedicio
expedition
experience
experiencia
experiencias
experimentacio
experimental
explicacio
exploracio
exploration
explosivo
exposicio
exposition
expresio
expreso
express
extensa
extensio
extension
extensions
exterior
exteriores
extinct
extra
extracto
extran
extranjera
extranjero
extremadura
extreme
exupe
ey
eye
eyes
eyre
ez
ezequiel
ezra
f
fa
faba
fabaceae
fabia
fabian
fabiana
fabien
fabio
fabiola
fables
fabre
fabricante
fabrizio
fabulosos
face
facebook
faces
facsi
fact
facto
factor
factores
factory
facts
facultad
facultadkuna
facultadnin
facundo
fagot
fagundes
fagus
fair
fairy
faisal
fait
faith
fajardo
falcata
falco
falcon
falconi
faldas
fall
falla
fallaci
fallece
fallecimiento
fallecio
falling
falls
false
falso
falta
fam
fama
fame
familia
familiar
familiares
familias
families
famille
family
famine
famous
fan
fancy
fang
fangio
fania
fanning
fanny
fano
fans
fanta
fantasi
fantasma
fantasmas
fantasmi
fantastic
fantasy
fanto
faq
far
faraday
farao
faraona
farewell
farfa
fargo
faria
farin
faringitis
faro
farrar
farro
farrow
farsa
fasciata
fasciatum
fasciatus
fase
fassung
fast
fat
fatal
fate
father
fatih
fatima
fats
faulkner
fauna
faunapas
fauni
faust
fausta
faustino
fausto
faustyna
faut
fava
favio
favor
favorite
favorito
fay
faye
fayette
fc
fce
fe
fear
feast
features
featuring
feb
febrero
febres
february
febus
fecab
fecha
fechaacceso
federacio
federal
federer
federico
fee
feedback
feel
feeling
feigenbaum
feine
feira
felice
felices
felicia
feliciano
felicidad
felicita
felipa
felipe
felis
feliu
felix
feliz
fellini
fellow
fellowship
female
femenina
femenino
femme
femmes
femoralis
fenerbahc
feng
fenice
feno
fenocin
fer
ferdinand
ferdinando
ferenc
feria
ferias
fermi
fern
ferna
fernand
fernanda
fernandez
fernandina
fernandini
fernando
feros
ferox
ferrand
ferrando
ferrara
ferrari
ferre
ferreira
ferren
ferrer
ferrera
ferreri
ferrero
ferreyrae
ferrier
ferro
ferrocarril
ferruginea
festa
festejos
festival
festuca
feu
fever
few
ff
ffentlicht
fg
fi
fiallo
fiallos
fiat
fibiger
fica
ficas
ficcio
ficcion
ficha
fichas
fici
fico
ficos
fiction
ficus
fidel
fidelio
fiebre
fiebrigii
fiel
field
fieldiana
fields
fiera
fieras
fierro
fiesta
fiestas
fifa
fifpro
fifth
figaro
fight
fighter
fighting
figlio
figo
figueres
figueroa
figura
figuras
figures
fijacio
fil
fila
filadelfia
file
files
filho
filial
filin
filipinas
filippo
fille
filles
film
filmada
filmografi
films
filo
filologi
filomena
filomeno
filos
filoso
filosofi
fils
fin
final
finales
finalista
finally
find
finds
fine
finger
fingers
finn
finsen
fiona
fiore
fiorentina
fiorentino
fire
firenze
firma
firme
firminy
first
firth
fiscal
fischer
fisher
fisiologi
fito
fitzcarrald
fitzgerald
five
fix
fl
flack
flaco
flag
flags
flagstad
flame
flamenco
flamengo
flammarion
flappers
flash
flat
flaubert
flauta
flauto
flavescens
flavicauda
flavio
flavipes
flavirostris
flaviventer
flavus
flecha
fleet
fleischer
fleming
flesh
fleurs
flevoland
flexuosa
flexuosus
flic
flickr
flight
flo
floagri
floccosa
flojo
flood
flor
flora
florae
florales
floreal
floreana
florence
florencia
florencio
florentina
florentino
flores
flori
floria
floriano
floribundum
florida
floristica
flourensia
flower
flowering
flowers
floyd
flu
fluminense
flute
fluviatilis
flying
flynn
fm
fmi
fo
focles
focus
fogo
fois
folclore
foldats
folie
folk
folklore
folleto
follies
follow
following
fomento
fonda
fondo
fonds
fone
fono
fonovideo
fonseca
font
fontaine
fontana
fontanarrosa
food
fool
fools
foot
football
footballdatabase
for
fora
forastero
forbes
forbidden
forc
force
ford
foreign
foreman
forest
forestal
forestales
foresteri
forests
forever
forget
forla
form
forma
formacio
forman
formas
format
formato
forme
former
formosa
formula
foro
forrest
forsythe
fort
fortaleza
fortuna
fortunato
fortune
forum
forward
forza
foster
fot
foto
fotografi
fotokuna
fotos
fou
foucault
found
foundation
foundations
founder
four
fourcroya
fourier
fourth
fox
fr
fra
frac
fracaso
fraccio
fragmento
fragmentos
fragments
fraile
frailes
framework
franc
franca
france
frances
francesa
francesc
francesca
francesco
francescoli
francfort
francia
franciolini
francis
francisca
franciscano
franciscanos
francisci
francisco
francisku
franck
franco
franjo
frank
frankenstein
frankfurt
frankie
franklin
frankreich
franquemont
frans
fransis
fransisku
fransiya
fransya
franz
franzo
frase
fraser
fraseri
frases
frauen
fray
fraysse
fre
frecuencia
fred
freddie
freddy
fredemo
frederic
frederick
fredericton
fredy
free
freedom
freeman
freestyle
freiburg
freiheit
freire
freitas
frenata
french
frente
fresco
freud
freundt
freyre
fri
frica
frida
friday
fridtjof
frieda
friedrich
friend
friends
friesland
fritz
fro
frog
from
frondizi
front
frontera
fronteras
fronterizo
frontier
frost
frozen
fru
fructosa
fructuoso
fruko
fruktusa
frutescens
fruto
frutos
frutti
ft
fu
fuchs
fuchsia
fue
fueginus
fuego
fuegos
fuencarral
fuente
fuentes
fuera
fueron
fuerte
fuerza
fuerzas
fuga
fugitive
fugitivo
fui
fuji
fujian
fujimori
fujimorismo
fujimoritam
fukuda
fukuoka
fulgencio
fulica
fuliginosa
fuliginosus
full
fuller
fulvipes
fun
funakoshi
funcio
funciona
function
fund
fundacio
fundada
fundador
fundamentos
fundesnap
fune
funeral
funerales
funes
fungi
funk
funny
fur
furcraea
furia
furias
furio
furnarius
fury
fusca
fuscater
fuscicollis
fussballdaten
fuster
futbol
futbolista
futebol
future
futuro
fuzhou
g
ga
gabinete
gable
gables
gabor
gaborone
gabriel
gabriela
gabriele
gabriella
gabrielle
gabun
gabus
gaby
gado
gae
gaelic
gaetano
gagarin
gaiba
gail
gaita
gal
gala
galapagoensis
galarreta
galarza
galatayuqkunapaq
galatea
galaxia
galdo
gale
galeano
galega
galego
galeotti
galeras
galeri
galicia
galile
galilei
galileo
galindo
galisya
gallagher
gallardo
gallega
gallego
gallegos
gallen
gallery
galligu
gallimard
gallina
gallinula
gallium
gallo
gallorco
gallos
gallururu
galo
galva
galvani
galveston
gama
gamal
gamarra
gamboa
gambya
game
games
gamma
gamochaeta
gana
ganado
ganador
ganadora
ganas
gandhi
gang
ganja
gano
ganoza
gansu
gao
gaona
gara
garagay
garay
garaycoa
garaycochea
garbancillo
garbo
garce
garci
garcia
garcilaso
gard
gardel
garden
gardens
gardiner
gardner
garetteer
garfield
garfunkel
garganta
garibaldi
garifuna
garland
garman
garmendia
garner
garnier
garras
garrett
garrido
garrincha
garu
gary
garza
gas
gasa
gasipaes
gaspar
gasperi
gassama
gasset
gassman
gassols
gasto
gaston
gastrono
gastropoda
gastrotheca
gastulo
gata
gate
gates
gateway
gatica
gato
gatos
gatti
gaucho
gaudio
gauguin
gaulle
gaultheria
gauss
gave
gaviero
gavila
gavin
gaviota
gaviria
gavras
gay
gaye
gaynor
gazetteer
gbowee
gc
gdalas
gdan
ge
geboren
gedeo
gedichte
gedisa
gees
gel
gelderland
gelehrter
gelman
gelsenkirchen
gema
gemayel
gemelas
gemelo
gemelos
gemma
gen
gena
genaro
genas
gendarme
gene
genealogi
genera
generacio
general
generale
generales
generation
generis
genes
genesis
genet
genevie
genio
genipa
genistelloides
genius
gennaro
geno
genova
genovesa
gente
gentiana
gentianaceae
gentianella
gentleman
genus
geo
geochelone
geoff
geoffrensis
geoffrey
geoffroyi
geog
geogra
geografi
geographic
geographical
geography
geolo
geological
geometri
geonoma
georg
george
georges
georgetown
georgi
georgia
georgica
georgina
georgios
georgius
ger
gerais
geral
gerald
geraldine
geraldo
geranium
geranoaetus
gerard
gerardm
gerardo
gerd
gerencia
gerhard
gerhart
germa
germain
germaine
german
germanica
germanium
germanu
germany
germoplasma
germplasm
gernika
gero
gerona
geronimi
gerrard
gerrit
gerry
gershwin
gertrudis
gervasi
geschichte
gesi
gessle
gestio
gesu
get
getamap
gets
getting
getu
gg
ghana
ghil
ghost
ghosts
gi
giacomo
giambattista
giampiero
gian
gianfranco
gianluca
gianluigi
gianni
giant
gibb
gibba
gibson
gica
gicas
gichin
gico
gicos
gieco
gießen
gif
gift
gigante
gigantea
gigantes
giganteum
giganteus
gigartina
gigas
gigolo
gijo
gil
gilardino
gilbert
gilberto
gilda
giles
gilespi
gilg
gill
gillan
gilles
gillespie
gima
gime
gimen
gimeno
gina
ginas
ginebra
ginger
ginkgophyta
gino
gio
gioacchino
giordano
giorgi
giorgio
giorgos
giorni
giorno
giovanna
giovanni
gippert
gira
giraffa
girault
girl
girls
giro
girona
gis
gisbert
giscard
gisella
gitana
gitano
gitanos
giudizio
giulia
giuliano
giulio
giuseppe
give
given
giza
gk
gl
gla
glabra
glabratus
glacier
gladis
gladys
glama
glandula
glandulosa
glasgow
glass
glasses
glaube
glauca
gleichenia
glen
glenn
gli
glinka
glo
global
globe
globo
globulus
glomerata
glomeratus
gloria
glory
glosario
glota
gloucestershire
glu
gluck
glucosa
glukusa
glutinosa
gm
gmelin
gnaphalium
gnu
go
goal
gob
gobernacio
gobernador
gobierno
gobiernodebolivar
gobiernonapo
gobiernos
gobiernoslocales
god
goddard
godfather
godfrey
godofredo
godoy
gods
goes
goethe
gogh
goia
going
goku
gol
gold
golda
goldberg
golden
golding
goldman
goleador
goleadores
goles
golfo
golgi
golkuna
golondrina
golpe
golpes
gomes
gomez
gomphrena
gonc
gone
gong
gonna
gonza
gonzaga
gonzales
gonzalez
gonzalo
gonzanama
good
goodbye
goodnight
goofy
google
goose
gor
gora
gorda
gordo
gordon
gore
gorgor
gori
gorilas
gorilla
gorky
gorodischer
gorrio
gorriti
gosses
got
gota
gothic
gott
gottfried
gottingensis
gottlieb
gouazoubira
gough
goulart
gould
gov
government
governor
goya
goyeneche
goytisolo
gozar
gp
gr
gra
grabacio
grabaciones
grabado
grabados
grabar
grabo
grac
grace
graceannae
gracia
gracias
graciela
gracilis
grado
grados
graduyuq
graf
grafo
graham
gral
grallaria
grama
gramatica
gramineae
grammar
grammatica
grammatical
grammy
gramsci
gran
granada
granadinas
granados
grand
granda
grande
grandes
grandez
grandi
grandiceps
grandiflora
grandiflorum
grandifolia
granito
granma
grant
granta
graphic
grass
grasset
grasso
grata
gratissima
grau
grave
graveolens
graves
gray
graz
graziani
gre
great
greatest
grecia
greco
gredos
greek
green
greene
greenough
greenwich
greenwood
greg
gregor
gregoria
gregoriana
gregorio
gregorius
gregory
grenoble
gret
greta
grey
grieg
griego
griffith
grigu
grigukunap
griguryanu
griguryu
grijalva
grillo
grima
grimas
grimes
grimm
grin
grinada
grindelia
gringa
gripe
gris
griseb
griselda
grisya
grisyamanta
grisyap
grisyapa
grisyapi
grito
gro
grohmann
grondona
groningen
groove
gropius
gros
grossman
grosso
ground
group
groups
grove
große
gru
grupo
grupos
gryphus
gs
gsater
gu
gua
guacamayo
guadalajara
guadalquivir
guadalupana
guadalupe
guadarrama
guaguanco
guaido
guaini
guaira
guajira
gualberto
gualinga
guama
guaman
guamote
guan
guanacaste
guanajuato
guanajuatocapital
guanare
guangdong
guangzhou
guanicoe
guano
guanolema
guanta
guanujo
guapo
guarani
guarany
guarayu
guard
guarda
guardar
guardia
guardian
guardiola
guarea
guarneri
guarulhos
guastavino
guatemala
guaviare
guayaba
guayaquil
guayas
guayasami
guayzimi
gubirnadur
gubirnasyun
gue
gueda
guerra
guerre
guerrero
guevara
guez
guggenheim
guglielmo
gui
guia
guianensis
guibovich
guide
guidelines
guido
guila
guilas
guild
guillaume
guille
guillermina
guillermo
guillot
guilma
guimara
guinardo
guine
guinea
guinness
guio
guiomar
guion
guionista
guitar
guitarra
guitarras
guitarrero
guitarrista
guitry
guizhou
gula
gullit
gulliver
gullstrand
gulu
gummer
gump
gun
gunckel
gunnar
guns
guo
guqin
gurila
gurion
gusta
gustaf
gustafsson
gustan
gustari
gustav
gustave
gustavo
gusto
gustos
gutenberg
guterres
gutie
gutierrez
guy
guyana
guys
guzheng
guzma
guzmania
gyan
gyeongsang
gynoxys
gynt
gyo
gypsy
h
ha
haag
haarlem
haas
haase
hab
habakukpa
habana
haber
habi
habibie
habich
habitacio
habitantes
habla
hablador
hablan
hablar
hablas
hablemos
hablo
habri
habs
hace
hacer
hach
hacha
hacia
hacienda
haciendas
haciendo
hackman
had
hadji
haenkeana
hafez
haga
hagman
hahn
hai
haifa
haile
hainan
hair
haiti
haji
hajji
hak
haka
hakan
hakira
hal
hala
halco
halcones
hale
halen
haley
half
haliaetus
halifax
halil
halim
hall
halla
hallch
halle
hallka
hallmay
halloween
halloweentown
hallp
hallu
hallyday
hamachi
hamam
hamanq
hamawt
hambleton
hambre
hamburg
hamburger
hamburgo
hamid
hamillu
hamilton
hamk
hamlet
hammer
hammond
hamp
hampaway
hampel
hampi
hampikamayuq
hampikamayuqmi
hampikuna
hampikunata
hampikuyninqa
hampina
hampinapaq
hampiq
hampiqkunap
hampita
hampiwan
hampiy
hampshire
hamun
hamuq
hamuspa
hamusqa
hamut
han
hana
hanachiwa
hanan
hananpi
hanaq
hanaqmanta
hanaqmi
hanaqpi
hancco
hancha
hancock
hand
handbook
handle
hands
hang
hangul
hangzhou
hanja
hank
hanka
hankapi
hankarurish
hanks
hanllalli
hanllallipaq
hanna
hannah
hannover
hanoi
hanpi
hanq
hanqu
hans
hansen
hansuyu
hansuyupa
hao
hap
hapallan
hapirinalla
happen
happened
happening
happiness
happy
hapu
hapun
haq
haqaru
haqay
hara
harakmbet
harakmbut
harata
harawi
harawikuna
harawikunata
harawin
harawina
harawiq
harawiqkuna
harawiqmi
harawiyuq
harbin
harcourt
hard
hardcore
harding
hardy
hare
hari
harina
harinosa
hariri
hark
harka
harlem
harlow
harm
harmodio
harmony
harms
harold
harp
harpa
harper
harpia
harpyja
harriet
harris
harrison
harry
hart
hartford
hartley
hartman
harto
haruki
harvard
harvey
has
hasan
hasebe
hash
hashim
hashimoto
hasp
hassan
hasta
hastings
hat
hatarichinapaq
hathaway
hato
hatoyama
hatun
hatunkaray
hatunmayu
hatunmi
hatunn
hatunpila
hatunqucha
hatunqulla
hatunqullpa
hatuntaki
hatunyaku
haumea
haunted
hauptartikel
hauptmann
haute
havana
have
havel
haven
havilland
having
havre
hawa
hawaii
hawaman
hawamanta
hawan
hawanmanta
hawanmi
hawanpi
hawanqa
hawansuyo
hawapi
hawaqucha
hawaqullay
hawar
hawari
hawarikuna
hawas
haway
hawayi
hawaykawsay
hawayuq
hawcha
hawin
hawk
hawka
hawkay
hawke
hawkes
hawking
hawkins
hawks
hawley
hawtama
hawumiya
hay
haya
hayakawa
hayaq
hayaqi
haydn
hayes
hayk
haylli
hayn
hayni
hayri
hayt
haytaq
haytay
hayu
hayun
hayunmi
hayunqa
hayupa
hayworth
hazard
hcpcanar
hcpl
hcpo
he
head
health
heart
hearts
heat
heath
heathcliff
heaven
heavy
hebe
hebei
hebrew
hechizo
hecho
hechos
hector
hedyosmum
hee
hefei
hegel
hei
heidegger
heidelberg
heidenstam
heidi
heights
heilongjiang
heinemann
heinrich
heinz
heisenberg
helada
helado
held
hele
helechos
helen
helena
helgen
heliotropium
hell
heller
hello
helmut
help
helsinki
helveola
hembra
hemingway
hemiodopsis
hemiodus
henan
henares
henderson
hendrik
hendrix
heng
henri
henrietta
henriette
henrik
henrique
henry
hepatitis
hepburn
her
heraldo
heras
heraud
herb
herbario
herbert
herbie
hercule
hercules
herder
here
heredero
herederos
heredia
herencia
herida
herido
hering
heritage
herman
hermana
hermanadas
hermanamiento
hermanas
hermann
hermano
hermanos
hermelinda
hermenegilda
hermenegildo
hermilio
herminia
herminio
hermitage
hermosa
hermosillo
hermoso
hermosura
herna
hernando
hernani
hero
heroes
herpailurus
herpetologists
herr
herramientas
herrera
herrerae
herrero
hertogenbosch
hertz
herzegovina
herzog
hesperomeles
hesse
hessen
hesshaimer
heston
heterophylla
heurelho
hevea
hevia
hewson
hey
heydər
heyer
heysen
hg
hi
hich
hidalgo
hide
hidetoshi
hielo
hieracium
hierarchy
hierba
hieron
hierro
higgins
high
highland
highlands
highsmith
highway
higuera
higuita
hija
hijas
hijo
hijos
hik
hikama
hiki
hikmet
hilaria
hilario
hilda
hildebrando
hildebrandt
hildegard
hildegarda
hill
hillary
hillenburg
hiller
hilli
hillinmanta
hillinta
hillisapa
hills
hillurina
hilos
him
himalaya
himantopus
himno
himself
hina
hinachu
hinalla
hinallam
hinallapas
hinallataq
hinallataqmi
hinallataqsi
hinam
hinaman
hinan
hinapas
hinapi
hinapis
hinaptinmi
hinaptinqa
hinaq
hinaqa
hinaqsi
hinaqtin
hinas
hinaspa
hinaspam
hinaspapas
hinaspapis
hinaspataq
hinata
hinatam
hinatapas
hinataq
hinataqsi
hinchu
hindemith
hindi
hindustani
hines
hiniral
hinostroza
hip
hipash
hiperio
hipo
hipocampo
hippeastrum
hippocamelus
hips
hiq
hiqin
hiqitipiqi
hiram
hirculus
hirishhanka
hirka
hirohito
hiroshima
hiroyuki
hirsiquwina
hirsuta
hirtella
his
hisp
hispa
hispanic
hispano
hispanoamericana
hispanoamericano
hispavox
hispida
hist
histo
histoire
histoires
historia
historiadora
historial
historias
historical
history
hisus
hisuwpa
hit
hitchcock
hitler
hitlerpa
hits
hiver
hiwaru
hizo
hl
hler
hm
hn
ho
hoehne
hoffman
hoffmann
hogar
hoi
hoja
hojas
hokkaido
hoku
hola
holanda
hold
holden
holdings
hole
holgado
holgui
holiday
holland
hollanda
hollande
holli
hollow
holly
hollywood
holman
holmes
holocausto
holstein
holt
holy
holzmann
hombre
hombres
home
homem
homenaje
homer
homero
hommage
homme
hommes
homo
honda
hondo
honduras
honey
honeymoon
hong
hongos
honneur
honolulu
honor
honorable
honorario
honorato
honore
honores
honori
honorio
honoris
honra
hood
hook
hooker
hookeriana
hoover
hop
hope
hopi
hopkins
hora
horace
horacio
horario
horas
horatio
horca
hordeum
horizon
horizons
horizontal
horizonte
horizontes
hormiga
horn
horna
horrible
horrida
horror
horse
horses
hort
horta
hortaleza
hortelano
hortensia
horton
hospital
hospitalet
hossein
hot
hotel
hotelrooms
houghton
hound
hour
hours
house
housing
houssay
houston
how
howard
however
hoy
hoyo
hoyos
hqs
hr
hradec
hrdlic
hrer
hrung
hsien
hsu
htm
html
http
httpdocs
https
hu
hua
huac
huaca
huachi
huacho
huailas
hualca
huallaga
huallanca
huallancaperu
huama
huaman
huamanga
huamani
huamanripa
huambisa
huan
huanca
huancabamba
huancane
huancavelica
huancayo
huang
huanta
huapi
huara
huaraca
huaral
huaraz
huari
huarmey
huarochiri
huasaga
huascacocha
huascara
huata
huatl
huaura
huayanay
huayca
huayhuaca
huaylas
huayllacancha
huayllamarca
huayna
huayno
huayruro
hub
hubb
hubei
huber
hubert
huch
hucha
huchankunamanta
huchankunata
huchayuq
huchayuqrayku
huchha
huchhanchik
huchusuma
huchuy
huckleberry
huddersfield
hudson
hudyu
hudyukunap
hue
huehuetenango
huella
huellas
huelva
huerta
huerto
hueso
huesos
huevo
huevos
hugh
hughes
hugo
hui
huidobro
huila
huilca
huile
huillca
huin
huitoto
huk
hukchakuq
hukchan
hukkaq
hukkuna
hukkunamantapas
hukkunapas
hukkunatapas
hukkunataq
hukkunawanpas
huklla
hukllachaspas
hukllachasqa
hukllachu
hukllam
hukllaylla
hukman
hukmanpa
hukn
huknin
hukniyuq
hukpa
hukta
huktaq
hul
hulda
hulkan
hull
hullaqa
hullaqapi
hulun
hulya
hulyanu
hulyu
hulyupi
huma
humala
human
humana
humanas
humani
humanidad
humanidades
humanismo
humano
humanos
humans
humantay
humanus
humb
humber
humberto
humboldt
humboldti
humboldtiana
humboldtii
hume
humi
humilis
hummels
humo
humor
hump
humphrey
hun
hunan
hunaq
hunchback
hundred
hunebelle
hung
hungri
hunin
hunt
hunter
hunu
hunucha
hunumanta
hunurifiku
hunyu
hunyupi
huperzia
huq
huqarinapaq
huqin
hur
hura
huraca
huraw
hurdanya
huriqi
hurquna
hurqunapaq
hurqunchik
hurqunku
hurquspa
hurqusqa
hurquykuspa
hurquyta
hurt
hurtado
hurutmi
hurwat
hurwatsuyu
husband
husi
husiy
husk
huso
husqa
hussein
hussey
huston
hutk
hutsannaq
hutsayuq
hutton
huwa
huwakin
huwan
huwanhuy
huwanpa
huyhua
hw
hwan
hwv
hy
hybridus
hyde
hydrochaeris
hylaeamys
hymenaea
hymn
hypochaeris
hypochoeris
hypostomus
hyun
i
ia
iade
iain
ian
ias
iau
iba
iban
ibarra
ibdb
ibe
iberia
ibero
iberoamericana
iberoamericano
ibg
ibis
ibisch
ibn
ibrahim
ibrahimovic
ibsen
ic
ica
icaic
icaza
ice
ich
icha
ichana
ichapas
ichaq
ichaqa
icharati
ichaspa
ichasqa
ichataq
iche
ichhu
ichhumanta
ichhuna
ichi
ichigkat
ichik
ichikawa
ichikllachaw
ichilla
ichilu
ichin
ichina
ichiq
ichiro
ichirqan
ichispa
ichiy
ichki
ichkiqucha
ichmaqucha
ichu
ichun
ichupampa
ichuqa
icon
iconografi
icterus
id
ida
idaho
ide
idea
ideal
ideas
identidad
identity
ideologi
idhlig
idioma
idiomas
idipus
ido
idolos
iem
iempsa
ieoh
iep
if
ifea
iffhs
ig
iga
ige
iglesia
iglesias
ign
ignacia
ignacio
ignaz
ignescens
ignobilis
igo
igor
igual
iguana
iguanaea
iguara
ihiptu
ihiptupa
ii
iii
iinei
iji
ik
ika
ikahina
ikan
ikchi
iki
ikin
ikinitu
ikitu
ikitus
ikla
iklisiyastis
ikllu
iklluriy
ikrakuq
ikran
ikrana
ikranapaq
ikraq
ikraqkuna
ikraqmi
ikraqnin
ikraqpas
ikrarqan
ikrasqa
ikrasqan
ikrasqawan
ikray
ikstrimadura
iksu
iku
ikuma
ikun
ikuna
ikunam
ikunata
ikunayuqmi
ikuptin
ikuy
ikwadur
ikwadurpa
ikwadurpi
ikwaduryanu
ikwayur
ikwayurpa
il
ila
ilan
ilanda
ilandapa
ilandapi
ildefonso
ilex
ili
ilich
iliktrumaqnitiku
iliktrun
iliktruniku
iliktrunta
ililaya
ilina
ill
illa
illam
illampu
illanchaspa
illanchay
illanchaykuq
illanchaykuy
illanchaywan
illap
illapa
illapachaw
illapachawwan
illapapayana
illapapayaq
illapaspa
illapata
illaq
illawanka
illawi
illay
illaykuna
illaykunam
illaykunawan
illaymanta
illaymantapas
illaymi
illayninkunam
illayta
illeg
illi
illia
illichu
illik
illimani
illimsa
illimsawan
illimsayaku
illimsayaq
illinisa
illinois
illiwa
illka
illkayuq
illla
illtu
illu
illunchu
illuqucha
illustrated
illustrations
illwa
ilo
ilqucha
ilu
iluli
iluma
ilusio
ilustraciones
ilustrada
ilustrado
ilustre
ilustres
ilv
ilya
ilyich
im
ima
imachus
image
imagen
images
imaginacio
imaginaire
imaginario
imaginarios
imaka
imakunam
imakunapas
imakunata
imakunatapas
imam
imamanpas
imamantachus
imamantapas
iman
imanaw
imanta
imanuw
imapaq
imapas
imapichus
imappas
imarayku
imaraykuchus
imasa
imasmari
imata
imatachus
imatam
imatapas
imatapis
imataq
imawan
imay
imayay
imayaykuna
imayaykunam
imayaykunap
imayaykunata
imayaymanta
imayaymi
imayayninta
imayayniyuq
imayaypa
imayayqa
imayka
imaykana
imaykanam
imaykapaq
imaykata
imaymana
imaymanta
imayna
imaynam
imaynatachus
imaypis
imayuq
imbabura
imdb
imi
imilla
imina
imira
imiratukuna
immanuel
immunology
imp
impa
impact
impacto
impakucha
impapura
imperdonable
imperial
imperialismo
imperio
importa
importance
importancia
important
importante
importantes
imposible
impostor
impr
imprenta
impresiones
impreso
improve
imre
in
ina
inacabada
inam
inampari
inan
inanmi
inapaq
inasyu
inata
inaugural
inc
inca
incahuasi
incaica
incaico
incana
incarum
incas
inchasqa
inchik
inchis
inchu
incident
incidental
incidente
incisa
incla
includes
including
incluida
incluido
incluye
incluyen
incluyendo
inconclusa
inconcluso
incubator
inda
indanza
indepa
independence
independencia
independent
independiente
independientes
index
indexmundi
indi
india
indian
indiana
indianapolis
indiano
indians
indias
indica
indicacio
indicadores
indie
indigenal
indigenismo
indigenous
indigofera
indihina
indihinakunap
indihinakunata
indiku
indillama
indio
indios
indipindinsya
indira
individual
indomable
indonesia
indu
indunisya
indunisyapa
industria
industrial
indya
indyapa
indyapi
indyu
ine
inec
ined
inegi
inei
ines
inesperado
inez
infancia
infanta
infante
infantil
infantiles
infeccio
infeccion
infecciones
infect
infectasqa
infections
infectious
infernal
inferno
infestans
infiel
infierno
infinito
inflorescence
influencia
influenza
info
infobox
infoboxes
infocusco
infogob
infopesa
informa
informacio
informacion
information
informe
informes
infraorden
infty
infurmasyun
ing
inga
ingenieri
ingeniero
ingenieros
ingenio
inglaterra
ingle
ingles
inglesa
inglish
ingmar
ingrata
ingrid
ingvar
inhin
ini
inia
iniap
inicial
iniciativa
inide
iniesta
iniru
inirupi
initiative
iniy
inka
inkachaka
inkakuna
inkakunap
inkakunaqa
inkakunas
inkallajta
inkallaqta
inkamach
inkan
inkap
inkapirka
inkapirqa
inkaraqay
inkarri
inkas
inkatour
inkawasi
inkawi
inki
inkil
inkill
inkinakusqa
inkinakuynin
inkinakuyninpim
inkiq
inkisisyun
inkisiwi
inkisqa
inkisqakunam
inkisqam
inku
inkuminda
inkunam
inkunata
inlatirra
inlatirraniyuq
inlatirrapa
inlatirrapi
inlis
inlish
inlishpi
inlishsimi
inlisya
inlisyakuna
inlisyakunam
inlisyam
inlisyan
inlisyanin
inlisyap
inlisyapi
inlisyata
inmaculada
inmanta
inmarsat
inmi
inmortal
inmortales
inmunolo
inmunologi
inn
innaq
inner
innerhofer
innocence
innocent
innovacio
ino
inocencia
inocencio
inocente
inocentes
inolvidable
inolvidables
inorganic
inpi
input
inqa
inqu
inquietud
inquiries
inquisicio
inrena
insecta
insectos
inside
insieme
insignis
insiklikakuna
insipida
inspector
inspirado
instead
institucio
instituciones
institut
institute
institution
institutions
instituto
instruccio
instrument
instrumental
instrumento
instrumentos
insuficiencia
int
inta
inte
integracio
integrado
integral
integrated
integrifolia
intelectual
inteligencia
intellivision
inter
interactions
interactive
interamericano
intercontinental
intercultural
intere
interface
interior
interlingua
intermedia
intermezzo
internacional
internacionales
international
internet
internetpi
interpreta
interpretacio
interpretado
interscience
intertoto
intervencio
interview
interwicket
interwiki
intestino
inti
intibuca
intichaw
intichawwan
intika
intillama
intim
intimanta
intimpa
intin
intip
intipa
intiqa
intita
intiwarak
intiwatana
into
intorno
intre
intriga
introduccio
introducing
introduction
introductorias
introductory
intrusa
intruso
inu
inuktitut
inunguis
inuyt
invasio
invasion
invencible
invencio
inventario
inventories
inverness
investido
investigacio
investigaciones
invierno
invisible
invitacio
invitado
inwan
io
ioannes
ion
iowa
ip
ipa
ipachina
ipachisqa
ipampa
ipata
ipayanchik
ipayanku
ipchan
ipi
ipina
ipiqa
ipisqa
ipistula
ipki
ipokratis
ipomoea
iprage
ipta
iq
iqa
iqakupi
iqay
iqchi
iqi
iqichisqa
iqim
iqimantam
iqin
iqintaq
iqip
iqipaq
iqipi
iqiptu
iqiptup
iqiptupi
iqiq
iqiqpa
iqiqpi
iqisqa
iqkuna
iqnin
iqpi
iqpiqa
iqta
iqtaku
iqtan
iqtana
iquin
iquique
iquitos
iqullu
iqun
iquq
iquqm
iquy
ir
ira
iracundos
iraklis
iran
irana
iranpi
iranu
iraq
iraqi
iraw
iray
irayuq
irc
ire
ireland
irene
iri
iriarte
iriartea
irigoyen
irina
iris
irish
irisqa
iritriya
iriy
irka
irlanda
irma
iro
irodalmi
iron
irons
irpa
irqa
irqan
irqi
irqikunap
irqikunapaq
irraminta
irramintam
irriru
iru
irukisa
iruma
irumanta
iruni
irupana
iruphut
iruru
irus
irusapa
iruta
iruyuq
irvine
irving
irwin
is
isa
isaac
isabel
isabela
isabella
isabelle
isachan
isachaq
isadora
isai
isaiyap
isallawi
isan
isanka
isapa
isaq
isaqa
isaura
isbn
iscailarjanco
isconahua
isella
ishiji
ishinka
ishkay
ishkayaq
ishkaykaq
ishpinku
isi
isiboro
isicha
isidoro
isidro
isini
isipi
iskandariya
iskanwaya
iskara
iskay
iskaychay
iskaykaq
iskaylla
iskaymanta
iskaymi
iskaymuyu
iskayn
iskaynin
iskaynintin
iskaynintinmi
iskayniyuq
iskaywan
iskillani
isklaw
isku
iskuchaka
iskultur
iskuma
iskupitani
iskusya
iskut
isla
islam
islamic
islampu
island
islands
islandya
islas
islaw
islay
isle
isluga
isluwakya
isluwinu
isluwinya
isma
ismael
ismail
ismene
ismet
ismu
ismuchiq
ismuchispa
ismuruku
ismusqa
ismuy
ismuykuy
iso
isoetes
isozaki
ispa
ispan
ispana
isparaw
ispas
ispay
ispi
ispiha
ispillu
ispiritu
ispiritup
ispirituqa
isqa
isqam
isqan
isqapas
isqu
isqukuna
isqun
isqunniyuq
israel
israeli
israyil
israyilpa
issn
issue
issues
ist
ista
istambul
istanbul
istiki
istiklal
istilum
istiwis
istrilla
istu
istudyah
istudyarqan
istukulmu
istunya
istuq
isura
iswa
it
ita
italia
italian
italiana
italiano
italianu
italica
italie
italo
italy
italya
italyanu
italyap
italyapa
italyapas
italyapi
itam
itan
itaq
itati
ite
itemid
ithapatu
ithiyupya
iti
itier
itikuna
itikunapi
itim
itimanta
itine
itinerario
itipi
itipiqa
itis
itonama
its
itsuq
itu
ituchi
iturbide
iturralde
iturregui
iturriaga
ituwata
itza
iu
iucn
iucnredlist
iulius
iupac
iv
iva
ivan
ivanhoe
ivanov
ives
ivo
ivoire
iwa
iwan
iwana
iwanhiliku
iwanhilista
iwanhilyu
iwanku
iwi
iwicha
iwkawan
iwriyu
iwriyukunapaq
iwru
iwrukupa
iwrupa
iwrupamanta
iwrupamantam
iwrupap
iwrupapi
iwrupapipas
iwrupisyun
iwrupiyu
ix
ixiamas
iy
iya
iyaku
iyar
iyara
iye
iykama
iykamaqa
iykuna
iykunapi
iymanta
iymi
iynin
iyninmi
iyobpa
iypa
iypas
iypi
iypiqa
iyqa
iyta
iyu
iyun
iyunmi
iyuq
iyuqmi
iywan
iz
izaguirre
izmir
izq
izquierda
izquierdo
j
ja
jabbar
jaber
jaca
jacana
jacaranda
jach
jacha
jachcha
jachuju
jacinta
jacinto
jack
jackie
jackson
jacob
jacobita
jacobo
jacobus
jacopo
jacq
jacquacu
jacqueline
jacques
jad
jada
jade
jado
jae
jafar
jagger
jaguar
jahuira
jaime
jaimes
jair
jak
jakarta
jake
jakob
jalapa
jalca
jalisco
jallawaya
jam
jama
jamaica
jamaicensis
jamais
jamal
jame
james
jamesi
jameson
jamie
jamil
jaminawa
jampikuna
jan
jana
jane
janeiro
janet
janette
janka
jankho
janko
jano
janos
janq
janssens
january
janvier
jap
japan
japanese
japo
japone
japonesa
jaqhi
jaqi
jar
jara
jaramijo
jaramillo
jarana
jarani
jardi
jardim
jardines
jared
jargon
jaro
jaros
jaroslav
jaroslavl
jaruma
jarupata
jasivia
jason
jaspers
jasraj
jate
jatun
jauari
jaufre
jauja
jaula
jaume
jauregg
java
javier
jawa
jawaharlal
jawi
jawira
jaya
jayra
jayu
jayupaya
jazz
jc
je
jean
jeanette
jeanine
jeanne
jeanneret
jeannette
jebero
jefe
jeff
jefferson
jeffery
jeffrey
jeffries
jehan
jekyll
jelskii
jema
jenkins
jenner
jennifer
jennings
jenny
jens
jeolla
jeremiah
jeremiyap
jeremy
jerez
jermaine
jero
jerome
jerry
jersey
jerusale
jerusalem
jesse
jessica
jessie
jesu
jesucristo
jesucristoc
jesui
jesuita
jesuitas
jesus
jesuspa
jesusqa
jet
jeune
jeux
jewish
jezik
jeziku
jf
jfk
jg
jhdt
jhon
ji
jia
jiang
jiangsu
jiangxi
jigoro
jila
jilawi
jilguero
jilin
jill
jim
jima
jimbe
jimbo
jime
jimena
jimi
jimmy
jimo
jin
jina
jinallataq
jinan
jinchupalla
jine
jinete
jinetes
jingle
jinotega
jipijapa
jiqhalla
jirira
jirka
jisk
jitpa
jiwasanaka
jj
jm
jne
jo
joa
joachim
joan
joanna
joanne
joao
joaqui
joaquim
joaquin
joaquina
job
jobim
jobs
jocelyn
jockey
joe
joel
joelpa
joey
johan
johann
johanna
johannes
john
johnny
johns
johnson
johnston
johor
joint
joinville
jolly
jon
jona
jonas
jonaspa
jonathan
jonava
jones
jong
jorale
jord
jorda
jordan
jordi
jorge
jorgenson
jornada
jornal
jorobado
jorullensis
jose
josef
josefa
josefina
josep
joseph
josephine
josh
joshua
josipovic
jost
josuap
josue
jota
joule
journal
journalist
journey
jours
jovellanos
joven
jovice
joy
joya
joyas
joyce
jpg
jpl
jpq
jr
js
ju
jua
juan
juana
juaneco
juanes
juanita
juanito
juazeiro
jubata
jubilee
juch
judas
judaspa
judge
judi
judicial
judiciales
judit
judith
judo
judy
jueces
juega
juego
juegos
jueluo
juez
jugador
jugadores
jugando
juglans
jugo
juguete
juguetes
juho
juicio
juillet
jujan
jujuy
juk
jul
jula
julca
jules
juli
julia
juliaca
julian
juliana
julie
julien
juliet
julieta
juliette
juliflora
julio
julissa
julius
julliard
julu
july
jumbilla
jump
jun
juncal
junceum
junco
juncus
june
juneau
jung
junge
jungla
jungle
juni
juninense
juninho
junio
junior
juniors
junt
junta
juntas
junto
juntos
junu
jupiter
juqhu
jura
jurado
juramento
juri
jurijuri
jurinuqa
jurisprudencia
juro
jurqara
juscelino
jusk
juss
jussieui
just
justice
justicia
justification
justin
justina
justine
justiniano
justo
justus
jutiapa
juticalpa
jututu
juve
juvenil
juveniles
juventud
juventus
jw
k
ka
kaa
kabbah
kabul
kacha
kachachi
kachan
kacharikuna
kacharisqa
kacharpari
kacharpaya
kacharqan
kachasqa
kachaykun
kachaykunku
kachi
kachichaq
kachim
kachimayu
kachin
kachiqucha
kachisapa
kachita
kachiyuq
kachkan
kachkanchik
kachkanchu
kachkanku
kachkaptin
kachkaptinqa
kachkaq
kachkaqraq
kachkaspa
kachkayninmi
kachu
kachun
kachuna
kachunchu
kachura
kafka
kageneckia
kahlo
kai
kaiser
kaka
kakash
kakaw
kakawa
kakun
kakuq
kakurqan
kalalit
kalawasa
kalihun
kalima
kalina
kalindaryu
kalindaryukama
kalindaryukamaqa
kalindaryukamataq
kalindaryum
kalindaryupi
kalindaryuyuq
kaliningrad
kalipuy
kalistu
kallampa
kallaw
kallawaya
kallawpi
kalli
kallki
kallpa
kallpachaq
kallpan
kallpanakuy
kallpanay
kallpanayuq
kallpanchaq
kallpanchay
kallpanchaynin
kallpaq
kallpasapa
kallpawan
kallpay
kalsyu
kaluma
kalwaryu
kalyu
kam
kama
kamachi
kamachikun
kamachikuna
kamachikuy
kamachin
kamachina
kamachinakuy
kamachinamanta
kamachinan
kamachiq
kamachiqkuna
kamachiqmi
kamachiqnin
kamachirqan
kamachisqa
kamachisqan
kamachiy
kamachiykuna
kamachiynin
kamachiyninpi
kamachiypa
kamachiyta
kamachiywan
kamalich
kamamoto
kaman
kamana
kamapchu
kamaq
kamaqmi
kamaqnin
kamaqninmi
kamaqninsi
kamara
kamarikuspa
kamariq
kamariqninmi
kamariqninsi
kamarirqan
kamarirqanku
kamarispa
kamarisqa
kamarisqam
kamarisqan
kamariy
kamarqa
kamarqan
kamasqa
kamasqan
kamataki
kamay
kamaypaq
kamaypas
kamaypi
kamayta
kamayuq
kamayuqkuna
kamayuqmi
kamayuqnin
kamayuqninman
kamayuqninmi
kamayuqpas
kamayuqsi
kamayuquqmi
kambuya
kamillu
kamiri
kamirun
kampa
kampala
kampan
kampana
kampanilla
kampionatu
kampiun
kampiunatu
kampiunatukuna
kampiunkuna
kampiuonatu
kampiyunninmi
kamri
kamu
kamuncui
kamusa
kan
kana
kanada
kanadapi
kanagawa
kanan
kananchikpaq
kanankaq
kananmi
kananpaq
kananqa
kananta
kanapaq
kanarya
kanata
kanayuq
kancha
kanchan
kanchaqi
kanchar
kanchas
kanchayllu
kanchik
kanchu
kandahar
kandilariya
kandilarya
kandoshi
kane
kanema
kang
kangurusuyupi
kani
kanichana
kanila
kanka
kankallu
kankana
kankawa
kanki
kanku
kankuchu
kankuman
kanllaqucha
kanman
kanmanchu
kanmi
kannada
kano
kanon
kanqa
kanqaku
kanqanta
kanraqmi
kansai
kansas
kansillir
kansillirnin
kansillirninmi
kant
kanta
kantarawi
kantaray
kantawriya
kanto
kantor
kantsu
kantu
kantun
kantunkuna
kantunmi
kantunpa
kantunpi
kantunpipas
kantunpiqa
kantunwan
kanuwa
kapachika
kapadia
kapak
kapanawa
kapchiq
kapchiy
kapchiymi
kapchiynin
kapchiypa
kapchiypi
kapchiyta
kapchiytam
kapena
kaphiy
kapillan
kapinuta
kapiqantu
kapirusitamanta
kapitalista
kapiwara
kapka
kaplina
kapoor
kaptin
kaptinmi
kaptinpas
kaptinqa
kaptinsi
kapuli
kapun
kapunakuq
kapunku
kapuq
kapurata
kapurqan
kapuy
kapuynin
kapuyninkunayuqmi
kaq
kaqchikel
kaqhina
kaqkama
kaqkuna
kaqkunam
kaqkunaman
kaqkunamanta
kaqkunap
kaqkunapaq
kaqkunapas
kaqkunapi
kaqkunaqa
kaqkunata
kaqkunawan
kaqlla
kaqllam
kaqman
kaqmanta
kaqmi
kaqnin
kaqninkuna
kaqninqa
kaqninta
kaqniyuq
kaqpa
kaqpaq
kaqpas
kaqpata
kaqpi
kaqqa
kaqraq
kaqrayku
kaqsili
kaqta
kaqtapas
kaqtaq
kaqwan
kaqwata
kar
kara
karachi
karagounis
karakas
karal
karan
karanka
karanki
karapunku
karate
karbuksi
karch
karchi
kardinal
kareem
karel
karen
karenina
kari
karim
karin
karina
kariwa
karka
karl
karloff
karlsruhe
karlus
karma
karman
karmin
karnawal
karpa
karpov
karqa
karqaku
karqan
karqanchu
karqanku
karqanmi
karqaptin
karqaspa
karru
karst
karta
kartul
kartulsuyu
kartulsuyupa
karu
karuchu
karum
karuman
karunchi
karupi
kasarakurqan
kasarakusqa
kasarakusqam
kasarakuy
kasha
kashamarka
kashamarkapa
kashamarkapi
kashamarkilla
kashan
kashanku
kashapampa
kashibo
kashinawa
kashki
kashpi
kashqa
kasiri
kaska
kaskawil
kasma
kasmasqa
kaspa
kaspam
kaspanmi
kaspapas
kaspaqa
kaspas
kaspi
kasqa
kasqallantaq
kasqan
kasqankurayku
kasqankuta
kasqanmanta
kasqanrayku
kasqanta
kassa
kassel
kast
kasta
kastan
kastila
kastilla
kastillakipi
kastillanu
kastillap
kastillasimi
kastillasimipi
kastillu
kat
katalan
katalina
katalunya
katalunyapi
katamayu
katantika
katari
katarip
kate
katharina
katharine
katherine
kathidral
kathleen
kathuliku
kathy
katia
katidral
katie
katiguriya
katiguriyam
katisismu
kato
katowice
katsun
katsutoshi
katuliku
katy
katz
kaunas
kawallu
kawalluni
kawallupi
kawalluqucha
kawalluta
kawalluwan
kawapana
kawasaki
kaway
kawaynin
kawaypa
kawin
kawinen
kawitu
kawllaymi
kawllayninmi
kawpaq
kawpaqpas
kawpay
kawra
kawri
kawsa
kawsachikuy
kawsachkan
kawsachkanku
kawsakun
kawsan
kawsana
kawsanakuq
kawsananchikpaq
kawsanankupaq
kawsananpaq
kawsanapaq
kawsanin
kawsanku
kawsanta
kawsaq
kawsaqkuna
kawsaqkunam
kawsaqkunamanta
kawsaqkunap
kawsaqkunapaq
kawsaqkunapas
kawsaqkunaqa
kawsaqkunata
kawsaqpa
kawsaqraq
kawsarqa
kawsarqan
kawsarqanku
kawsaspa
kawsasqa
kawsasqamanta
kawsasqan
kawsasqanmanta
kawsay
kawsaykuq
kawsaykuqkunam
kawsaykuqkunap
kawsaykuqkunata
kawsaykuqniyuq
kawsaykuska
kawsaynin
kawsayninmanta
kawsayninmi
kawsayninpa
kawsayninpi
kawsayninta
kawsayniyuq
kawsaypa
kawsaypaq
kawsaypi
kawsaypura
kawsayta
kawul
kay
kaya
kayampi
kayan
kayapas
kayapo
kaychaw
kaychawnam
kaye
kayhina
kayish
kaykan
kayku
kaykuna
kaykunam
kaykunaqa
kaykunata
kaykunatam
kaykunawan
kaylla
kaylluma
kayman
kaymancha
kaymanta
kaymantam
kaymi
kaynaku
kaynaw
kaynin
kayninchikmanta
kayninkukamam
kayninkuna
kayninkunata
kayninmanta
kayninmi
kayninpa
kayninpaq
kayninpi
kayninqa
kayninta
kayniyuq
kaypa
kaypaq
kaypas
kaypi
kaypim
kaypin
kaypipas
kaypiqa
kayqa
kayrayku
kaysi
kayta
kaytam
kaytaq
kaytaqa
kaytas
kayuwawa
kaywa
kaywan
kazan
kazimierz
kazuyoshi
kb
ke
kean
keane
keating
kechwa
kedah
keegan
keep
keighley
keiko
keith
keizer
kelantan
kele
keller
kelley
kelly
kemal
kempff
ken
kenan
kendall
kenji
kennedy
kenneth
kenny
kent
kentucky
kenya
kenyatta
kenzo
kepler
ker
keres
kerr
kerry
kerte
kevin
kew
key
keyboard
keynes
keys
kg
kh
khachu
khaka
khalid
khallka
khallwa
khama
khan
khana
khani
khankiq
khankiqkunam
khankiqmi
khanna
khanpa
khara
kharabaq
khari
khartum
kharwinchu
khasa
khata
khiki
khilla
khillay
khillaychuki
khillaymanta
khillayn
khiniya
khipa
khipu
khirkinchu
khiru
khistuna
khocha
khomeini
khota
khrisimasi
khuchi
khuchinilla
khumi
khun
khunu
khunuqullu
khunurana
khuru
khurupampa
khuska
khuur
khuyaq
khuyay
ki
kichariy
kicharqan
kichasqa
kichay
kichaychaw
kichka
kichkankuna
kichkasapa
kichwa
kichwaama
kichwapi
kichwarimay
kichwas
kichwata
kid
kids
kiel
kigali
kikihana
kikillan
kikin
kikinmanta
kikinpa
kikinta
kiko
kiku
kikuyu
kila
kilampu
kilanka
kilimanjaro
kilintan
kilish
kill
killa
killachaw
killachawwan
killakama
killakunapim
killamanta
killap
killapa
killapampa
killapi
killapiqa
killaqa
killaqullu
killata
killawat
killawaya
killer
killikacha
killinchu
killka
killki
killku
killmu
killu
kilmer
kilo
kilpuntu
kilta
kilugramu
kilugramukama
kilumitru
kilutuwa
kim
kima
kimsa
kimsachata
kimsak
kimsakaq
kimsaluma
kimsam
kimsamanta
kimsan
kimsantin
kimsayuq
kin
kina
kind
king
kingdom
kings
kingston
kinhuwa
kininti
kinray
kinrayninmi
kinrayninpi
kinrayninpiqa
kinraypi
kinsa
kinshasa
kinti
kintu
kinu
kinuwa
kinwa
kinwara
kinya
kipa
kipling
kipru
kipu
kipus
kiraly
kirani
kirche
kirchner
kiribati
kirilitsa
kirk
kirkisuyu
kirsten
kiru
kiruni
kiruyuq
kisa
kisapincha
kisillu
kisilluqucha
kiska
kiskachay
kisma
kismapi
kiss
kisu
kisulta
kisuq
kiswahili
kiswar
kiswara
kit
kita
kitakyu
kitara
kitarahu
kitarata
kiti
kitikuna
kitikunap
kitikunapi
kitilli
kitillikuna
kitillikunapi
kitillim
kitillimanta
kitillinmi
kitillip
kitillipas
kitillipi
kitillipipas
kitillipiqa
kitilliqa
kitim
kitimanta
kitin
kitinmi
kitip
kitipi
kitipipas
kitipiqa
kitiqa
kitty
kitu
kitukara
kitupi
kiwi
kiwicha
kiwna
kiwuta
kiya
kiyan
kiyaqa
kiyiw
kjarkas
kkollu
kkota
kl
klara
klasiku
klaus
klavier
klavierkonzert
klawil
klein
kleine
kline
klinsmann
klisa
klose
klotzsch
klub
klubkuna
klubmi
kluivert
kluru
km
kn
knapp
knight
knopfler
know
knowledge
known
knows
knox
ko
kobayashi
kobe
koch
kocher
kocsis
kodama
koeman
koepckeae
kofi
kohl
kohler
kohn
koizumi
kok
kolbe
kolkata
kollpa
kolosoyuqkunapaq
kolvenbach
komanso
komi
kon
konda
konex
kong
kongo
konrad
konstantin
konstantinos
konzert
kordenadakuna
korea
korean
korianu
korkmaz
korsakov
kos
kossel
koster
kostka
kota
kou
kova
kowalska
kowii
kr
kra
kraenzl
kraj
krako
kramer
krameria
kraus
krause
kreis
kri
krishna
krisniqas
kristianu
kristin
kristina
kristiyanu
kristiyanukuna
kristiyanukunap
kristiyanukunapaq
kristja
kristofferson
kristu
kristup
kristuwal
krogh
kroos
krr
kru
krum
krunikamanta
krus
krusiru
krusmanta
kruspi
krzysztof
ks
ksh
ksstilla
ktor
ku
kuala
kuba
kubala
kubanu
kubap
kubitschek
kubrick
kuc
kucha
kuchapampa
kuchi
kuchillu
kuchipillan
kuchokera
kuchu
kuchun
kuchuna
kuchunawanpas
kuchunpi
kuchuspa
kuchuy
kuczynski
kue
kuentukuna
kugler
kuhn
kui
kuk
kuka
kukachakra
kukama
kukan
kukani
kukapampa
kukapata
kukata
kukayna
kukhala
kukimpu
kukuli
kukuna
kukupin
kukush
kulantru
kulina
kuliok
kulis
kullash
kullawa
kulli
kullkitu
kullku
kullu
kulta
kultura
kulumbiya
kulumbu
kulumbya
kulumbyap
kulumbyapa
kulumbyapi
kulumbyapipas
kulumpi
kulumwyapi
kulunya
kulunyan
kulunyankuna
kulunyanmi
kuma
kumamoto
kumanta
kumar
kumarapa
kumaratunga
kumayna
kumbinsyun
kumishin
kumpa
kumpi
kumpusitur
kumpusiturpas
kumu
kumunismu
kumunista
kumuniyaa
kun
kuna
kunan
kunankama
kunankamapas
kunanmi
kunanpacha
kunanqa
kunanraq
kunanraqmi
kunantaq
kunaq
kunas
kunata
kunawan
kuncha
kunchuku
kundadukuna
kundadupi
kunfidirasqa
kung
kungu
kunishige
kunka
kunkakunap
kunkalla
kunkapaq
kunkapaqmi
kunkawa
kunkawaki
kunkistadur
kunkush
kunkuwana
kunming
kunrisista
kunrisu
kunrisun
kunrisunman
kunrisunpi
kunrisupi
kunsipsyun
kunsthistorisches
kunsulam
kuntamana
kunth
kunti
kuntiman
kuntimanta
kuntinpi
kuntipampa
kuntipi
kuntisuyus
kuntranpi
kuntraphaqut
kuntrawasu
kuntur
kunturay
kunturi
kunturikin
kunturillu
kunturiri
kunturkanki
kunturkin
kunturkunka
kunturpun
kunturquta
kunturtawa
kunturwasi
kuntze
kunu
kunze
kuo
kuomintang
kupa
kupakuna
kupam
kupatam
kuphatikiza
kupi
kuposa
kura
kuraka
kurakan
kurakanin
kurakanmi
kurankan
kuraq
kuraqwasi
kuraray
kurawara
kurawasi
kurdi
kuri
kurikinka
kurinthuyuqkunapaq
kuritampu
kuriya
kurku
kurkumanta
kurkun
kurkunpa
kurkunpi
kurkunta
kurkup
kurkupi
kurkuta
kurkuyuq
kurosawa
kurregimyentukuna
kurt
kuru
kurucha
kurukuna
kurum
kurumama
kurun
kuruna
kurunawirus
kurunku
kururay
kururunku
kurwa
kuryu
kusa
kusapata
kusaq
kusasqa
kushillu
kusi
kusikuy
kusipata
kusituy
kusituymi
kusituypa
kusituyqa
kusituyta
kusituytam
kuska
kuskalla
kuskan
kuskanchaku
kuskanchik
kuskanniyuq
kuski
kusma
kustarica
kustarika
kustarikapa
kusupampa
kusuri
kuta
kutaisi
kutakachi
kutana
kutapampa
kutaspa
kutasqa
kutawasi
kuti
kutichispa
kutim
kutimpu
kutimurqan
kutimuspa
kutimusqan
kutin
kutipay
kutipayaq
kutiqa
kutirqan
kutita
kutitaq
kutsra
kutu
kutuchupa
kutum
kutupaksi
kuura
kuwa
kuwait
kuwiha
kuy
kuyakuy
kuyawinu
kuyay
kuyaypa
kuycha
kuykucha
kuyu
kuyucha
kuyuchina
kuyuchinapaq
kuyuchinayuq
kuyuchispa
kuyuchisqa
kuyuna
kuyuq
kuyuy
kuyuylla
kuyuymi
kv
kw
kwa
kwambiri
kwame
kwintu
kwirpu
kwok
ky
kyi
kyle
kylie
kyo
kyoto
kyu
kyui
københavn
l
la
labarthe
labem
laberinto
labio
labios
labor
laboratory
labrador
lac
laca
lach
lachay
lachesis
lachiwa
lachiwap
ladd
ladislao
lado
ladri
ladrillo
ladro
ladrones
lady
lafayette
lafur
lag
laga
lagarto
lagartu
lagartum
lagenaria
lagerlo
lagidium
lago
lagopus
lagos
lagostomus
lagothricha
lagothrix
lagotricha
lagr
laguna
lagunas
lagunillas
lahm
lai
laila
laime
laja
lajas
lajos
lak
lakachu
lakawiti
lakaya
lake
lakers
laki
lakota
lalla
lalo
lam
lama
lamar
lamarck
lamarque
lamas
lamay
lamb
lambayeque
lambert
lambrama
lamento
lamiaceae
lamista
lamo
lampa
lampalliqi
lampard
lamrama
lamud
lan
lana
lanatus
lancaster
lance
lanceolata
lanceolatum
lancet
lancha
land
landa
landau
landeo
landi
landon
landschaftsverband
landsteiner
lane
lang
lange
language
languages
langue
lani
lank
lanka
lanki
lankilayu
lansing
lantana
lante
lanthanu
lanu
lanuginosa
lanza
lanzamiento
lanzarote
lao
laos
laozi
lap
lapa
lapansi
lapis
lappa
laq
laqaya
laqha
laqri
laqu
laqukuna
lara
laram
larama
laranha
laranqa
larati
laraw
larco
laredo
lares
larga
large
largest
largo
largometraje
lari
laridae
lariqaqa
laris
larjanco
larqanku
larrabure
larrai
larran
larrea
larriva
larry
lars
larumantataq
larunpi
larus
las
laserie
laso
lasso
last
lastenia
lasunayuq
lat
lata
latacunga
latakunka
late
later
lateral
lati
latifolia
latin
latina
latino
latinoame
latinoamericana
latinoamericano
latinoamericanos
latte
lau
laudrup
laura
lauraceae
laureano
laurel
laureles
lauren
laurence
laurens
laurent
lauricocha
laurie
lauro
lausanne
lautner
lava
lavalle
lavalleja
laveran
lavoe
lavoisier
law
lawa
lawqa
lawrence
lawriqucha
laws
lawton
lay
laya
layakuna
layakunam
layakunatam
layam
layapas
layme
layqa
layu
lazarte
lazo
lazos
lb
lbum
lbumes
lbumkuna
lc
lcar
lculo
ld
ldegalerie
lder
le
lea
leader
leaders
leadership
leaf
league
leal
leandro
leao
lear
learn
learning
least
leave
leavitt
leben
lebres
lec
lecaro
lecca
leccio
leccion
lecciones
lech
leche
lechleri
lector
lectores
lectura
lecturas
lecture
lectures
led
leda
ledesma
ledgard
lee
leeds
leer
leeuwarden
left
leg
legacy
legado
legal
legazpi
legend
legends
legio
legion
legislacio
legislativa
legislativo
legrand
legua
legui
leguminosae
lehm
lehrstu
lei
leibniz
leiden
leif
leigh
leila
leipzig
leiria
leite
leiva
lejani
lejano
lejanos
lejos
lek
lekishvili
lelystad
lema
lemmon
lempira
lemus
len
lena
lengua
lenguaje
lenguas
lengva
lenin
leningrad
lennon
lent
lento
leo
leocadio
leon
leona
leonard
leonardo
leoncavallo
leoncio
leone
leonel
leonela
leones
leoni
leonid
leonidas
leonor
leonora
leopardus
leopold
leopoldo
lepidium
lepidophylla
lepidophyllum
lepidoptera
leporinus
lepra
leptodactylus
lepus
lequerica
lera
lerdo
lerner
leroy
les
lescano
lesley
leslie
less
lessing
lessonia
lessons
lester
let
leticia
letra
letras
lets
letter
lettera
letteratura
letters
lettre
lettres
leung
lev
levant
levantado
levanto
level
levert
levi
levin
leviticus
levon
lew
lewis
lex
lexicografi
lexis
lexus
ley
leyenda
leyendas
leyes
leymah
leymebamba
lez
lezama
lfp
lg
lgebra
lgica
lham
lhamte
li
lia
liam
liang
liaoning
lib
libanu
libanupa
liber
liberacio
liberal
liberation
liberec
liberia
libertad
libertador
libertadores
libertadur
liberty
libirya
libr
librairie
library
libre
libreri
libres
libreto
libreville
libri
libro
libros
libya
lic
lica
licas
licencia
licenciado
liceo
lichi
lichiquta
lico
licos
lida
lidia
lido
lie
liebe
liechtenstein
lied
liedes
lien
lienzo
lies
lietuviu
life
lifetime
liga
ligas
ligera
light
ligia
ligne
ligue
ligularis
lik
likankawur
like
liki
likichu
likuma
lila
lili
lilia
lilian
liliana
liliopsida
lille
lillian
lilloi
lily
lim
lima
limamanta
limap
limapas
limapi
limaq
limaqpa
limaqpi
limatampu
limay
limburg
limen
limitada
limited
limo
limpyupunku
limun
limunqucha
lin
lina
linares
lince
lincha
lincoln
linda
lindbergh
linde
linden
lindl
lindo
lindsay
line
linea
lineal
linear
lineatum
lineatus
lineker
linera
lines
ling
linga
lingu
lingua
linguistic
linguistics
link
links
linli
linnaeus
linne
lino
linqa
linri
linsi
linsur
linti
linu
linus
linux
linz
lio
lion
lionel
lions
lipayuq
lipis
lippia
lippincott
liq
liqiliqi
liqli
liquid
lira
lirondo
lirqay
liryu
lis
lisa
lisabeth
lisandro
lisas
lisboa
lise
lisieux
lisis
lispector
list
lista
listado
listas
liste
listed
listen
listritu
listritum
listritun
listritunmi
listritup
listritupi
listritupiqa
lists
liszt
lit
lita
lite
literaria
literarias
literario
literarios
literary
literatura
literaturas
literature
lito
litoral
littbarski
litte
little
litunya
lituwa
liu
liuba
liv
live
liver
liverpool
lives
livia
living
livingston
livorno
livre
livro
liwi
liwitaka
liwru
liwruchaq
liwruchasqa
liwrukuna
liwrukunapi
liwrukunata
liwrukunatam
liwrum
liwrumanta
liwrunpi
liwrupi
liwruta
liwtu
lix
liyun
liz
liza
lizalde
lizarazu
lizardo
lizarzaburu
ljubljana
ll
lla
llacta
llahtah
llak
llakhun
llaki
llakikuy
llakillkukuna
llakipampa
llakiy
llakta
llaktapak
llaktapi
llakusim
llakusinmi
llakwash
llallagua
llallawa
llalliq
llallispas
llallisqa
llalliy
llam
llama
llamada
llamado
llamakuna
llaman
llamaq
llamas
llamerada
llamillin
llamk
llamkarqa
llamkaymanaq
llamp
llampu
llan
llanchina
llanchiy
llanganates
llanganati
llank
llanka
llankanuku
llankaymanta
llano
llanos
llanqha
llant
llanta
llantan
llanto
llantu
llanura
llapa
llapan
llaptap
llaptapi
llaptayuq
llaqa
llaqi
llaqta
llaqtacha
llaqtacham
llaqtachapi
llaqtachapiqa
llaqtachaqa
llaqtahun
llaqtakuna
llaqtakunam
llaqtakunaman
llaqtakunamanta
llaqtakunap
llaqtakunapa
llaqtakunapaq
llaqtakunapas
llaqtakunapi
llaqtakunapim
llaqtakunapipas
llaqtakunaqa
llaqtakunas
llaqtakunata
llaqtakunataq
llaqtam
llaqtaman
llaqtamanmi
llaqtamanta
llaqtamantaqa
llaqtami
llaqtan
llaqtankuna
llaqtanmanta
llaqtanmi
llaqtanpa
llaqtanpi
llaqtanqa
llaqtansi
llaqtap
llaqtapa
llaqtapaq
llaqtapas
llaqtapata
llaqtapi
llaqtapim
llaqtapipas
llaqtapipi
llaqtapiqa
llaqtapis
llaqtapitaq
llaqtapiwan
llaqtapmi
llaqtapu
llaqtapura
llaqtapusay
llaqtaq
llaqtaqa
llaqtarunakunapaq
llaqtas
llaqtata
llaqtataqa
llaqtatas
llaqtawan
llaqtaypa
llaqtayup
llaqtayuq
llaqwa
llar
llaro
llasaq
llasaqmi
llasaturaku
llashipa
llat
llata
llatapi
llave
llawi
llawlli
llawq
llawsa
llawt
llawturqu
llaxtachan
lle
llega
llegada
llegado
llegar
llego
llegue
lleida
llena
lleno
ller
lleras
lleva
llevo
lli
lligalo
llik
llika
llikakuna
llikam
llikan
llikanmi
llikap
llikapi
llikapiqa
llikilliki
llikuha
llimanta
llimp
llimphi
llimphim
llimphiq
llimphiqmi
llimphiqpas
llimphisapa
llimphisqa
llimphiy
llimphiyuq
llimphiyuqmi
llimphu
llimpi
lliphi
llipipipiq
llipt
lliqti
lliw
lliwa
lliwmanta
lliwpaq
llobregat
llona
llora
lloran
llorar
llore
llorente
llorona
llosa
lloyd
llu
lluchk
llueve
llui
llulla
llullaspa
llullu
llullucha
llump
llumpa
llumpam
llumpapi
llumpawan
lluna
llunk
llunku
llunkuti
llunpa
llunpaq
llup
lluq
lluqi
lluqlla
lluqsimun
lluqsimuy
lluqsin
lluqsinanpaqpas
lluqsiq
lluqsirqan
lluqsisqa
lluqsiy
lluqu
llusk
llusp
llut
lluta
lluvia
lluxi
lluxita
lm
ln
lo
loa
loaiza
loasa
loayza
loba
lobato
lobelia
lobitos
lobivia
lobo
lobos
loca
local
localisation
localised
localising
locally
locas
located
location
loch
loco
locos
locura
locuras
log
logan
loganiaceae
logis
logo
logos
logro
logron
logros
loi
loire
lois
loja
lola
loli
lolita
lolium
lollobrigida
lolo
loma
lomas
lombardi
lombardia
lombardo
lome
lomo
lomonosov
lon
lonchocarpus
london
londra
londres
lone
lonely
long
longer
longest
longicaudis
longifolia
longitud
longmans
lonse
lontra
look
loong
loose
lope
lopes
lopez
lophonetta
lora
lorca
lord
loren
lorena
lorentz
lorenza
lorenzo
lores
loreto
loretta
loricariidae
loro
lorraine
los
losada
lose
lost
lot
lothar
lou
louie
louis
louisa
louise
louisiana
lounge
lourdes
louvre
love
loved
lovely
lover
lovers
loves
loving
low
lowe
lowell
lower
loy
loynaz
loyola
lozada
lozano
lp
lps
ls
lson
lt
ltd
ltima
ltimas
ltimo
ltimos
lu
lua
luanda
lubitsch
lublin
luc
luca
lucanas
lucas
lucca
lucero
luces
lucha
luchino
lucho
luci
lucia
luciana
luciano
lucida
lucie
lucien
lucignani
lucila
lucille
lucio
luck
lucky
lucre
lucrecia
lucy
lude
ludo
ludovic
ludovico
ludwig
ludwigshafen
ludz
luego
luft
lufthansa
lugar
lugares
lugo
lugones
lugosi
lui
luigi
luis
luisa
luise
luiz
luiza
luja
luka
lukana
lukanamarka
lukas
lukaspa
luke
lukma
lukri
luksimbur
luksur
lukumpa
lukurmata
lula
lulas
lulu
luma
lumbricoides
lumen
lumie
luminoso
lumpaki
lumpur
lumu
lumucha
luna
lunar
lunawana
lund
lune
lunes
lunp
lunya
luo
lupaka
lupe
lupinus
lupita
lupulu
lupuna
lupus
luq
luqma
luque
luquina
lurasnu
luri
lurigancho
lurin
lurinsu
luriqucha
luritu
luriway
luru
lurum
lurumayu
lusaka
lusiya
luskemi
lussac
lustra
lusuriaqa
lute
lutea
luteus
luther
lutierqa
luto
lutra
lutzomyia
luwichu
luwis
lux
luxemburg
luya
luychu
luyu
luz
luzern
luzmila
luzuriaga
lv
lvar
lvarez
lvaro
lveda
lvez
lvora
ly
lycalopex
lyce
lycioides
lycopersicon
lycopodium
lydia
lynch
lynn
lynne
lyon
lyun
løkke
m
ma
maastricht
maathai
mabel
mac
maca
macao
macario
macas
macau
macbeth
macbr
macbride
macbridei
maccartney
macchi
macchu
macdonald
macedo
macedonio
maceio
macera
mach
macha
machaca
machacamarca
machachi
machado
machala
machalilla
machaqa
machaqamarka
machaway
machay
mache
machi
machiko
machin
machina
machine
machiqinqa
macho
machos
macht
machu
machuca
machuqucha
maci
mackay
mackenzie
mackintosh
maclaine
maclean
macleod
macmillan
maco
macracantha
macrocarpa
macrophylla
macularius
maculata
maculatum
maculosa
mad
madagascar
madagaskar
madalengoitia
madama
madame
made
madeinusa
madeira
madeleine
mademoiselle
madera
maderables
madero
madidi
madison
madiyan
madona
madonna
madrastra
madre
madres
madrid
madridpi
madrigal
madrina
madriz
maduen
mae
maestra
maestre
maestri
maestro
maestros
maestrunchis
maeterlinck
maeztu
mafaffa
mafia
maga
magalha
magallanes
magaly
magazine
magda
magdalena
magdeburg
magellanica
magellanicus
maggie
magi
magia
magic
magician
magico
magiques
magister
magisterial
magisteriales
magna
magnani
magnet
magni
magnificent
magnifolia
magno
magnoliopsida
magnum
magnus
mago
magos
maguin
magyar
magyarorsza
magyarsuyu
maha
mahal
mahathir
mahdi
mahis
mahler
mahmoud
mahmud
mahon
mahuad
mai
maia
maiden
maidstone
mail
main
maine
maino
mainz
maior
maipurano
mais
maison
maita
maj
majestad
majeur
major
mak
maka
makacha
makara
makas
makati
make
makemake
makes
maki
makiduniya
makidunya
makimaki
making
makinwan
makipi
makipura
makisapa
makita
makiwan
makiyasiq
makiyasiqmi
makiyasiy
makiyuq
makkah
makoto
makru
makuko
makusani
mal
mala
malaga
malambo
malaria
malasia
malasya
malawi
malaya
malayalam
malayu
malcolm
maldicio
maldita
maldito
malditos
maldonado
male
mali
malibu
malki
malla
mallarme
malle
mallki
mallkikunam
mallkim
mallku
mallma
mallorca
mallqu
malo
malone
malpartida
malquerida
malraux
malta
malti
maluma
malva
malwa
malyakhiyap
mam
mama
mamacha
mamaku
mamallakta
mamallaktapi
mamallaktata
mamallaqta
mamallaqtakuna
mamallaqtakunap
mamallaqtakunapi
mamallaqtakunapiqa
mamallaqtam
mamallaqtamanta
mamallaqtap
mamallaqtapi
mamallaqtapura
mamallaqtaqa
mamallaqtayuq
mamamanta
maman
mamani
mamanpa
mamanqa
mamantaq
mamapa
mamaqa
mamaqucha
mamay
mamayuq
mambo
mame
mami
mamma
mammal
mammalia
mammals
mamuriy
mamut
man
mana
manabi
manachu
manage
management
managing
managua
manam
manan
manantial
manapas
manapuni
manaqa
manaraq
manaraqchu
manaraqmi
manaraqtsu
manas
manataq
manataqmi
manataqsi
manati
manaus
manawa
manawi
manayupa
mancha
manchamantan
mancharisqa
manchay
manchester
manchu
manchunka
mancini
manco
manda
mandamiento
mandamientos
mandan
mandarin
mandato
mandela
mando
mandonii
mane
manejo
manera
manet
manfredi
manga
manglares
mango
manhattan
mani
mania
manifiesto
manila
maniphistu
manipulacio
maniqui
manitoba
manizales
manka
mankacha
mankapi
mankiewicz
manku
mankumarka
mann
mannen
mannheim
manning
manny
mano
manoa
manolete
manolito
manolo
manon
manor
manos
manqu
manqus
manrique
mansana
mansio
mansirichi
manso
mansoa
manson
mansur
manta
mantapas
mantaro
mantaru
mantikilla
mantilla
manto
mantsaypaq
manu
manual
manually
manuel
manuela
manuelcha
manuelita
manuripi
manuscript
manuscrito
manuwil
many
manya
manyaku
manyanpi
manyayuq
manzana
manzanares
manzanero
manzo
mao
map
mapa
mapachi
mapas
mapcarta
mapiri
mapping
maps
mapuchi
mapudungun
maputu
maq
maqa
maqanaku
maqanakun
maqanakuq
maqanakurqan
maqanakuspa
maqanakuy
maqanakuymi
maqanakuypa
maqanakuypaq
maqanakuypi
maqanakuyqa
maqanakuyta
maqaq
maqaqkunata
maqari
maqay
maqaypi
maqchina
maqlluq
maqnisyu
maqnitiku
maqroll
maqt
maqui
maquillaje
maquira
mar
mara
maracay
maradona
marais
marakaypu
maramba
maran
maranha
marankani
maraq
maras
marathi
marathon
maravilla
maravillas
maravilloso
marawa
maray
marba
marburg
marc
marca
marcada
marcel
marcela
marcelina
marceline
marcelino
marcellin
marcello
marcelo
marcet
march
marcha
marche
marchena
marcia
marcial
marciano
marco
marconi
marcos
marcus
mare
marea
mares
marfil
marga
margaret
margarita
margen
margherita
marginatum
margot
margoth
marguerite
margyricarpus
mari
maria
mariachi
mariae
mariah
mariam
mariama
marian
mariana
marianela
marianistas
marianne
mariano
maribel
marido
maridos
mariduen
marie
marikawa
marilyn
marimar
marin
marina
marine
marinera
marinero
marini
marino
mario
marion
mariposa
mariposas
marisa
mariscal
marisela
marisol
maristas
maritima
marito
maritza
marius
mariya
mariyap
marjorie
mark
marka
markakuna
markakunap
markam
markamanta
markap
markapata
markapi
markapim
markapipas
markapiqa
markapumaqucha
markaqucha
markara
markawamachuku
markawasi
markawili
market
markets
markhu
marko
marksismu
markuna
markuni
markus
markuspa
marlene
marley
marlon
marlowe
marmosa
maropa
marphil
marple
marq
marque
marrakech
marriage
married
marroquin
marrubium
marruecos
mars
marseille
marsella
marsh
marsha
marshall
marsu
marsupi
marsupialis
mart
marta
marte
martes
martha
marti
marticorena
martillo
martin
martina
martinez
martino
martins
martius
martos
martti
marty
maru
marucha
maruku
marvin
marx
marxism
marxista
mary
marya
maryam
maryanu
maryland
marzo
marzolini
mas
masa
masacre
masako
masamari
masas
masatika
masatoshi
masawa
masaya
mascagni
masculino
masdevallia
maser
maseru
mashhad
mashu
masi
masikuna
masin
masinkunapaq
masinkunawan
masintin
masinwanpas
masitunya
masiy
mask
maskaq
maskaspa
maskoki
masma
maso
mason
masque
mass
massachusetts
massacre
massenet
massiel
massimo
mast
master
masters
mastocitos
mastrocinque
mastroianni
masu
maswa
mat
mata
matado
matador
matagalpa
mataje
mataku
matallana
matamanta
matamoros
matan
matancera
matanza
matanzas
matar
matara
matarahu
mate
matema
mateo
mater
materia
material
materials
materna
mathbb
mathcal
mathieu
mathilde
mathiyu
mathiyup
mathrm
mati
matilde
matiyu
mato
matos
matrimonial
matrimonio
matrimonios
mats
matse
matsuo
matt
matteo
matter
mattha
matthew
matthews
matthias
matto
mattoli
matu
matucana
matukana
maturation
maturi
matus
matute
mau
maude
maule
maura
maureen
mauri
maurice
mauricio
mauritia
maurizio
mauro
mavila
maw
mawk
mawka
mawlli
mawri
mawu
max
maxim
maxima
maximilian
maximiliano
maximus
maxine
maxwell
may
maya
mayabeque
maych
maychus
mayer
mayii
mayk
mayllakuy
maymanpas
maynas
mayniki
mayninpi
mayninpipas
mayo
mayolo
mayor
mayorazgo
mayores
mayorga
mayori
maypi
maypichus
maypim
maypipas
maypis
maypuran
mayqan
mayqin
mayqinchus
mayqinkunachus
mayqinkunapichus
mayra
mayrana
mays
mayt
mayta
maytaq
maytu
mayu
mayuatu
mayukilla
mayukillap
mayukillapi
mayukuna
mayukunap
mayukunapas
mayukunapi
mayum
mayuman
mayumanta
mayumantawan
mayun
mayunkunapi
mayup
mayupa
mayupampa
mayupas
mayupi
mayupura
mayuqa
mayuruna
mayusuksu
mayuta
mayutata
mayuwan
maywiy
maza
mazama
mazandaran
mazzola
mb
mbiri
mbola
mbolo
mbya
mc
mccain
mccartney
mccoy
mcdermott
mcdiarmid
mcdowell
mcgraw
mcgregor
mclaglen
mclaughlin
mcmahon
mcqueen
md
me
meaning
means
meazza
meca
mecanismo
mecanismos
mechnikov
mecklenburg
med
medal
medalla
medallakuna
medardo
medel
medelli
media
medianoche
mediante
mediawiki
medicago
medical
medicina
medicinal
medicinales
medicine
medico
medida
medina
medio
medios
meditacio
meditaciones
mediterra
medrano
medusa
meet
meeting
meets
meg
megaceras
megalobulimus
megalopterus
megantoni
megasoma
megawati
megye
mehmed
mehmet
mei
meier
meiggs
mein
meir
meissner
meister
meji
mejillones
mejor
mejores
mel
melaka
melancoli
melanie
melanoleuca
melanoleucus
melanopis
melanops
melanoptera
melanosuchus
melayu
melbourne
melchor
mele
melgar
melgarejo
melhor
melissa
melito
mella
mellado
mello
melo
melodi
melodrama
melody
melville
melvin
melvyn
members
memo
memoir
memoirs
memoria
memorial
memorias
memories
memory
memphis
men
mena
menacho
menchu
mencio
mendel
mendeleev
mendelssohn
mendes
mendiburu
mendigo
mendonc
mendoza
mene
menem
menes
meneses
menezes
meng
menino
meno
menor
menores
menos
menotti
mensaje
mensajero
mensajes
menstruus
ment
mente
mentha
mentira
mentiras
mentiroso
mephistophiles
mephitidae
mer
mera
mercader
mercado
merce
merced
mercedes
merchant
mercier
mercosur
mercure
mercurio
mercury
mercy
mere
merello
merengue
merengues
merganetta
meri
merino
merito
merlin
mero
meros
merrill
merry
merson
meryl
mes
mesa
mescalero
mese
meses
mesi
mesili
mesonauta
message
messages
messe
messenger
messi
messiaen
messina
mestizo
mestre
mesut
met
meta
metachirus
metafi
metal
metallic
metallica
metalloid
metalloids
metals
metaxya
methodista
metriopelia
metro
metropolitan
metropolitana
metropolitano
metz
meu
mexicali
mexican
mexicana
mexicano
mexicanos
mexicanus
mexico
meyen
meyenii
meyer
meyerhof
meyza
mez
meza
mezzo
mg
mh
mi
mia
miami
mian
mica
micaela
micas
mich
micha
michael
micham
michaman
michata
michataqa
michał
miche
michel
michelangelo
michele
micheli
michelle
michels
michelsen
michi
michigan
michiko
michina
michiq
michoaca
mick
mickey
mico
miconia
micos
micrantha
microcuenca
microfo
microlepis
microlophus
microphylla
microptera
microsoft
microtis
micrurus
mid
midalla
middle
middleton
mide
midi
midnight
mie
miedo
miedos
miel
miembro
miento
mientras
mier
miers
mies
mifflin
mifune
might
mighty
miguel
miguelito
mihiku
mihikupa
miihiku
mijares
mikael
mikania
mike
mikhail
mikhap
mikhuchinapaq
mikhuchinchik
mikhun
mikhuna
mikhunakuna
mikhunallam
mikhunam
mikhunamanta
mikhunapaq
mikhunata
mikhunchik
mikhunku
mikhunkum
mikhuq
mikhuqmi
mikhurana
mikhuspa
mikhusqa
mikhusqan
mikhuy
miki
mikis
mikrunisya
mikun
mikuna
mikuy
mikuyan
mikuyta
mil
mila
milagres
milagro
milagros
milan
milane
milano
mild
mildred
mile
milenio
miles
milestone
militaire
militar
militares
militaris
military
milk
mill
milla
millar
millas
millay
mille
millennium
miller
million
millma
millmamanta
millo
millonario
millonarios
millones
millp
millq
mills
millu
milluni
milluqucha
millwa
milo
milonga
milos
milpas
milton
milutinovic
milwaukee
mily
mimi
mimulus
mimus
min
mina
minapunta
minas
minaspata
mincetur
mind
mindo
mine
minedu
mineiro
minem
minera
mineral
minerales
minerals
mineri
mineros
minerva
mineur
ming
minh
minha
mini
minimus
mining
minions
miniserie
miniseries
ministerio
ministeriodecultura
ministra
ministro
ministru
ministrum
ministrunin
ministruninmi
ministrunmi
ministry
mink
minneapolis
minnelli
minnesota
minogue
minor
minsk
minster
minthostachys
mintu
minuta
minute
minutes
minuto
minutos
minutu
minutumanta
minutus
minutuyuq
minuyu
minuywa
minuywanqa
mio
mip
miq
miqapaka
miqu
mir
mira
mirachispa
mirachisqa
miracle
mirada
mirador
miraflores
miramar
miran
mirana
mirananpaq
miranda
mirar
miray
miraykuq
miraykuy
mirayman
miraymanta
mirayn
miraynin
mirayninmanta
mirayninmi
mirbeau
mireya
mirgas
miri
miriam
mirim
mirko
mirla
miro
miroslav
mirror
mirrors
mirtha
miryan
mirza
mis
misa
misael
miscela
mise
miserables
misha
mishana
mishawaka
mishi
mishika
mishikanu
mishiku
mishikunapas
mishikup
mishikupa
mishikupi
mishikupipas
mishipan
mishka
mishki
mishtika
mishu
misi
misio
misioneros
misiones
misk
miska
miski
miskita
miskitu
miskolc
misma
mismi
mismo
miss
missing
mission
mississippi
missoula
missouri
mister
misterio
misterios
misteriosa
misti
mistikuna
mistikunapaq
mistral
mistress
misuk
misuka
misyunkuna
mit
mita
mitad
mitan
mitchell
mitchum
mite
mites
mithun
mito
mitologi
mitos
mitre
mitru
mitrukama
mitrum
mitrumanta
mitte
mitu
mituqucha
miura
mix
mixta
mixto
miya
miyil
miyu
miyuchaspa
miyusapa
mizuki
miłosz
mj
mk
mkhare
ml
mlp
mm
mn
mndandanda
mnr
mo
mobile
mobutu
moc
mocache
mocha
moche
mode
model
modelo
modelos
modena
modern
moderna
moderne
modernidad
modernismo
moderno
modernos
modest
modesto
modestus
modi
modificar
modigliani
modo
moenkhausia
moglie
mogrovejo
mohamad
mohamed
mohammad
mohammed
mohan
mohedano
mohr
moi
moines
moire
moires
moise
moix
mojado
mojanda
mojarras
mojen
mojica
mojiganga
molau
moldenke
molecular
molie
molina
molinaro
molino
molinos
moll
molle
molliculum
mollis
mollissima
mollohuanca
molloy
molly
molothrus
moltke
moment
momento
momentos
mommsen
momota
momotus
mompracem
mon
mona
monachus
monagas
monarqui
monasterio
moncada
moncayo
moncloa
mondadori
monde
mondo
mondrago
moneda
monet
moneta
money
monge
mongilardi
mongolia
monica
monicelli
monigote
monique
monitor
monja
monjas
monje
monk
monkey
monnina
mono
monocotyledoneae
monolingu
monos
monroe
monrovia
mons
monsefu
monsen
monserrat
monsieur
monster
monsters
monstruo
monstruos
mont
montalba
montalvo
montan
montana
montanasperuanas
montand
montaner
monte
monteagudo
montealegre
montecristi
montecristo
monteiro
montejo
montemar
montenegro
monteri
montero
monterrey
montes
montesinos
montevideo
montgomery
month
monthly
monti
monticola
montiel
monto
monton
montoya
montpelier
montpellier
montre
montreal
montreux
montserrat
montu
monty
monument
monumental
monumento
monza
monzo
moon
moons
moor
moore
moors
moquegua
mora
morada
morado
moraes
morais
moral
morale
morales
moralespa
moran
moratalaz
moravia
moraza
morchella
more
moreau
moreira
morel
morelia
morelli
morelos
morena
morenada
moreno
moreyra
morfologi
morgan
morgue
mori
morillo
morin
morir
moritz
morning
moro
morocco
morochucos
morona
moronasantiago
morosini
morpeth
morphology
morris
morrison
morro
morrow
morse
mort
mortal
mortales
morte
mortiz
morton
morts
morus
mosca
moschata
moscoso
moscow
moscu
moser
moses
mosete
moshe
moskovits
moskwa
mosoq
mosquera
mosqueteros
moss
most
mostajo
mostly
mosto
mostrando
mostri
mother
moti
motion
motivo
motivos
moto
motocicleta
motor
motown
motta
motu
moulin
mount
mountain
mountaineering
mountains
moura
mouse
moussa
mouth
mouton
mouvement
move
moves
movie
movies
movima
movimiento
moving
movistar
mowima
moxos
moya
moyano
moyen
moyo
moyobamba
moysespa
moza
mozart
mp
mpaka
mpara
mpico
mpicos
mr
mrs
mrta
ms
msn
msnm
mt
mtv
mu
muammar
much
mucha
muchacha
muchachas
muchachita
muchacho
muchachos
muchas
muchedumbre
muchi
muchik
muchnik
mucho
muchos
muchuy
muda
muddy
mudo
muehlenbeckia
muela
muell
mueller
muera
muere
mueren
muero
muerta
muerte
muerto
muertos
muestra
muhamed
muhammad
muhammed
muhiniti
muhlenbergia
muhu
muinane
muja
mujer
mujercitas
mujeres
mujibur
mujica
mujun
mukachi
mukherjee
mukmu
muksi
muksichaq
muksichaqta
muksichaqtam
muksichaqwan
mukushigua
mula
mulan
mulanovich
mulanpi
mulata
mulato
mulatu
mulduwa
mulheres
mulinu
mulinupampa
mulla
mullaka
muller
mulli
mullintu
mullipampa
mullipata
mulliwaya
mullku
mullu
mullupu
mulo
multicaulis
multiflora
multiflorum
multiglandulosa
multimedia
multimidya
multitud
mumbai
mun
munaku
munakun
munakunchu
munan
munani
munanku
munankuchu
munanmi
munaq
munarqa
munarqan
munaspa
munaspaqa
munaspaykiqa
munasqa
munasqan
munay
munaylla
munayta
mundial
mundiales
mundo
mundos
mungui
mungul
mungulsuyu
muni
munich
municipal
municipales
municipalidad
municipality
municipio
municipiodecolta
municipios
munihuaraz
munimadrid
muniollantaytambo
munisipyu
munisipyukuna
munisipyum
munisipyumanta
munisipyumikan
munisipyunmi
munisipyup
munisipyupas
munisipyupi
munisipyupim
munisipyupipas
munisipyupiqa
munisipyuqa
munisipyuwan
munro
munsipyu
munti
muntipuquy
munumintu
munupampa
munzar
muppets
muqiwa
muqu
muqukuna
muqunmi
muququya
mur
mura
murad
murai
murakami
mural
murale
murales
muralla
murasaki
murawya
muray
murcia
murcie
murder
murders
murdoch
murga
murgui
muricatum
muriel
muriendo
murillo
murina
murinus
murio
murira
muritanya
muriti
muro
muroidea
murphy
murray
murrupun
muru
murucha
muruchata
murui
murukuna
murukunam
murukunata
murukunatam
murukunayuq
muruna
muruni
murunkunamanta
murunkunaqa
murunkunata
murunkunatam
muruqucha
mururata
mururqa
muruyuq
muruyuqkuna
mus
musa
musambik
muscoides
muse
musee
museen
musef
museo
museos
museum
mushrooms
mushuk
mushupa
mushuq
music
musica
musical
musicales
musika
musikanin
musikata
musiku
musikupi
musikuq
musikuqmi
musil
musiyu
musiyukuna
musiyum
musiyun
musk
muskaya
muslim
musmuki
musna
muspa
musphachinayuq
musphay
musquynin
musser
mussolini
mussorgsky
must
mustafa
mustasa
mustela
musu
musuq
musuqchasqa
musuqllaqta
musuqmanta
musuqmantam
musuqta
musyana
musyay
musyaymi
mut
muta
mutabilis
muthusqa
muti
mutiny
mutis
mutisia
mutua
mutupi
mutur
mutuyllu
muy
muya
muyska
muyu
muyum
muyuman
muyun
muyuna
muyuntinpi
muyup
muyupampa
muyupayaq
muyupi
muyuq
muyuriq
muyusiki
muyuta
mvp
mw
mwa
mwana
mx
my
myanmar
mycteria
mykiss
mylossoma
myriam
myrica
myrmecophaga
myroxylon
myrsine
myrtilloides
myself
myspace
mysteries
mysterious
mystery
myung
n
na
naani
nabo
nabus
nac
nace
nacer
nach
nachlass
nacho
nacht
naci
nacida
nacido
nacidos
nacimiento
nacio
nacional
nacionales
nacionalidad
nacionalidades
nacionalista
naciones
nacionmanta
nad
nada
nadal
nade
nadia
nadie
nadine
nadu
nagano
nagasaki
nagel
nagoya
naha
nahua
nahumpa
nai
naipaul
nairobi
nak
nakata
nakayama
naked
nalbandian
nam
namballe
nambillo
name
named
names
namiwya
namkin
namo
nan
nana
nanay
nanaywan
nanchang
nancy
nangaritza
nani
nankay
nanni
nano
nanometro
nansen
nantes
naomi
napa
nape
napo
napole
napoleo
napoleon
napoli
napolitano
napu
napuruna
napurunakunam
naranja
naranjal
naranjito
naranjo
naranjos
narcisa
narciso
narco
narin
nariz
narnia
narracio
narraciones
narrador
narradores
narrativa
narrator
narva
nas
nasa
nasal
nascimento
nashville
naska
nasl
nassau
nasser
nasturtium
nasua
nasyun
nasyunalista
nasyunkuna
nasyunkunap
nat
nata
natabuela
natacha
natal
natale
natalia
natalie
nataniel
natasha
natawila
nathan
nathaniel
nation
national
nationale
nationality
nations
nativa
nativas
native
natividad
nativos
natriyu
natura
natural
naturales
naturaleza
nature
nava
navaja
naval
navarone
navarra
navarrete
navarro
navas
nave
navegable
naves
navidad
naviden
navigation
navotas
navy
nawa
nawahu
nawat
nawatl
nawidad
nawintsaana
nayarit
nayib
nazareno
nazaret
nazareth
nazaria
nazario
nazca
nazi
nb
nba
nbc
ncaa
ncash
ncatl
ncer
nchen
nchez
ncia
ncias
ncipe
ncora
ncreas
ncz
nd
ndalo
nde
ndel
ndez
ndi
ndiaye
ndice
ndices
ndida
ndipo
ndo
ndola
ndor
ndose
ndote
ndrome
nds
ndula
ne
nea
neacomys
neal
near
neas
neate
nebouxii
nebraska
necesito
necessary
nectandra
ned
nederlands
need
needed
needs
neerlandesa
nees
neeskens
neeson
negeri
neglected
negocio
negocios
negra
negras
negreri
negrete
negrito
negritos
negro
negros
nehemiyap
nehru
neil
neill
neira
neiva
nekoda
nel
nell
nella
nelly
nelson
nemesio
nen
nena
nene
neo
neochen
neos
neotropica
nepal
nephew
nepomuceno
neptune
neptuno
nereo
neri
nero
neros
neruda
nervio
nery
nes
nesis
nesomimus
ness
nest
nesta
nestor
net
neto
network
netzer
neue
neuer
neuilly
neuque
neutral
neutro
nevada
nevado
nevados
never
neville
nevis
new
newark
newbery
newbury
newcastle
newfoundland
newman
newport
news
newsletter
newton
next
neymar
neyra
nez
nf
ng
nga
ngara
ngaro
ngel
ngela
ngeles
ngo
ngora
ngua
nguez
ngulo
nguye
nh
nha
ni
nia
nic
nica
nicanor
nicaragu
nicaragua
nicario
nicas
niccolo
nice
nich
nicholas
nichols
nicholson
nick
nickel
nico
nicol
nicola
nicolas
nicolaus
nicole
nicolle
nicolson
nicomedes
nicos
nicotiana
nicou
nidas
nido
nie
niebla
niels
nielsen
niemeyer
niente
nieto
nietzsche
nieva
nieve
nieves
niezgoda
nig
nigel
niger
night
nightingale
nights
nigra
nigricans
nigriceps
nigrum
nigsberg
nih
nihun
nihunpa
nihunpi
nihunsimi
nijmegen
nika
nikarawa
nikarawap
nikasyu
nikita
nikola
nikolai
nikolaus
nikos
nikun
nikuq
nikurqan
nikusya
nile
nils
nilsson
nilu
nima
nimas
nimo
nimos
nimoy
nin
nina
ninachaq
ninakuru
ninamango
ninaparaqu
ninapi
ninaqaqa
ninaqullu
ninashanka
ninasuyu
ninat
ninawaman
ninchik
ninchikmi
nini
ninka
ninku
ninkum
ninkupas
ninmi
nino
ninri
ninta
nintendo
nintsik
ninwan
nio
nior
nipa
nipal
nipali
niphidium
nipin
nipode
nippon
niptin
niptun
niq
niqir
niqirya
nir
niraq
nirku
nirlandis
niro
nirqa
nirqan
nirvana
nis
nishiyama
nishqachawqa
nispa
nispam
nispan
nispaqa
nisqa
nisqakama
nisqakuna
nisqakunam
nisqakunaman
nisqakunamanta
nisqakunap
nisqakunapi
nisqakunaqa
nisqakunata
nisqakunataq
nisqakunawan
nisqam
nisqaman
nisqamanmi
nisqamanta
nisqamantam
nisqamantaqa
nisqan
nisqankama
nisqankamaqa
nisqanta
nisqap
nisqapa
nisqapaq
nisqapaqmi
nisqapas
nisqapi
nisqapim
nisqapipas
nisqapiqa
nisqaqa
nisqas
nisqata
nisqatam
nisqatapas
nisqataq
nisqataqa
nisqatas
nisqawan
nisqawanmi
nisqawanqa
nisqayuq
nisyu
nita
nitero
nitida
nitidum
nito
nitrate
nivalis
nivea
nivel
niven
niwa
niwtrun
nix
nixon
niy
niyan
niyaran
niyatiwu
niyta
niyuq
niyxun
niz
nizami
nj
njira
nkrumah
nl
nlm
nm
nmi
nn
nnamdi
nnen
nnumid
no
noah
nobel
nobelpa
nobelprize
nobilis
noble
noboa
nobody
nobol
noche
noches
nochevieja
nocturno
nodosa
noe
noeding
noel
noemi
noi
noir
noite
nolasco
nom
noma
nomatsiguenga
nombrado
nombre
nombres
nome
nomenclature
nominacio
nominada
nominado
nominees
nomo
noms
non
nonato
none
nono
noord
noqanchis
nor
nora
norbert
norberto
nord
nordrhein
noreste
norfolk
noriega
norma
normal
normale
normalizado
norman
normandie
noroccidental
norodom
noroeste
norris
norsk
norte
norteamericano
norten
north
northallerton
northern
northumberland
norton
norway
norwich
nos
nosotras
nosotros
nossa
nostalgia
nostra
nostradamus
nostrand
nostri
nostrum
not
nota
notas
note
notes
nothing
nothofagus
notholaena
nothoprocta
notice
noticia
noticias
noticiero
notifications
notiochelidon
nototriche
notre
notte
nou
nous
nouveau
nouveaux
nouvelle
nouvelles
nov
nova
novak
novara
novarro
novel
novela
novelas
novelista
novella
november
novembre
novemcinctus
noveno
novgorod
novi
novia
novich
noviembre
novio
novios
novo
novoa
novola
novoneyra
now
nowc
noya
np
npa
npi
nr
nrf
nro
ns
nsito
nsson
nssonligan
nsula
nt
nta
ntame
ntara
ntaro
ntchito
nter
ntesis
nthawi
ntica
nticas
ntico
nticos
ntida
ntima
ntimas
ntimo
nto
ntomas
ntu
nu
nube
nubes
nubigena
nuclear
nuco
nudicaudatus
nudo
nuestra
nuestras
nuestro
nuestros
nueva
nuevas
nueve
nuevo
nuevos
nui
nuit
nujuano
nukn
num
numatsiqinqa
number
numeri
numic
nun
nuna
nunashimi
nunat
nunatpi
nunca
nuo
nuovo
nupcial
nuq
nuqa
nur
nuremberg
nurgi
nurma
nurwiga
nurwigapa
nurwigapi
nussbaum
nutans
nutricio
nuw
nuwi
nuwimri
nuwimripi
nuyuy
nv
nwan
ny
nya
nyc
nycticorax
nyenyezi
nyerere
nyi
nyimbo
nynorsk
nyu
o
oa
oasis
oaxaca
oaxaka
ob
obaldi
obama
obando
obd
obdulio
obispo
obispos
objeto
oblast
oblitas
oblonga
oblongifolia
oboe
oboes
obovata
obra
obras
obrego
obrera
obrero
observaciones
observations
observatorio
obsesio
obtusifolius
oca
ocampo
ocan
ocasio
ocaso
occidental
occidentale
occidentalis
occidente
occipitalis
occitan
oce
ocean
och
ocho
ochoa
ochrocephala
ochroma
ochthoeca
ocio
oclc
ocobamba
ocongate
ocotea
ocotepeque
ocsa
oct
octava
octave
octavia
octavio
octavo
october
octobre
octubre
oculta
ocurrio
oda
odar
odas
odd
ode
odeo
oder
odessa
odham
odi
odio
odisea
odisiw
odo
odocoileus
odorata
odri
odyssey
oea
oecomys
oenothera
oerstedella
oeste
oeuvres
of
ofelia
off
offenbach
office
officer
official
officier
officinale
officinalis
officinarum
oficial
oficiales
oficina
oficio
oficios
ofm
ofrenda
og
oggi
ogro
oh
ohio
oi
oimba
ois
oise
ojala
ojeda
ojo
ojos
ok
okinawa
oklahoma
ol
ola
olaechea
olan
olas
olavide
olaya
olaza
old
ole
olea
oleg
oleifolius
oleracea
oleraceus
oles
olga
oli
olimpia
olimpo
olinda
oliva
olivacea
olivares
oliveira
olivencia
oliver
olivera
olivia
olivier
olivos
ollanta
ollantay
olleros
olmedo
olmo
olmos
olo
olof
ologie
olomouc
olor
olsen
olsztyn
olvidados
olvidar
olvidare
olvidarme
olvidarte
olvide
olvides
olvido
olympia
olympic
olympique
om
omaha
omar
omara
omer
omereque
omiros
omiste
oms
omwe
on
ona
onagraceae
onard
onca
once
oncifelis
oncorhynchus
onda
ondas
one
onepage
ones
onetti
ong
online
only
onqa
ons
ontario
onu
onze
op
opac
ope
open
opera
operacio
operation
operations
operator
opereta
ophryosporus
opinio
opinion
opiniones
opip
opole
oporto
oportunidad
oposicio
optar
optical
option
opu
opuntia
opus
oqe
oquendo
or
ora
oracio
oral
orange
orangutan
oras
oratorio
orbegoso
orbignyana
orbis
orchester
orchestra
orchestre
orchidaceae
ordaz
orden
ordenamiento
order
ordine
ordo
ordre
ordun
ore
oreailurus
oreas
orego
oregon
oreja
orejas
orellana
oreomanes
oreopanax
oreotrochilus
orestes
orestias
orfeo
org
orga
organ
organic
organizacio
organizaciones
organization
organometallic
organos
orgullo
orhan
ori
oriana
oribe
orient
oriental
orientales
orientalis
oriente
origen
origin
original
originales
originally
originalmente
originaria
origins
orihuela
orilla
orillas
orita
oritas
orlandini
orlando
orleans
ormen
ormosia
ornans
ornata
ornatus
oro
oropesa
oropeza
orosco
orozco
orphe
orquesta
orqui
orrego
orrell
orsay
orson
ortalis
orte
ortega
orthodoksa
orthophylla
ortiz
ortofoto
oruro
orwell
ory
oryza
oryzomys
os
osa
osaka
osborne
osbourne
oscar
oscura
oscuridad
oscuro
oseaspa
oskar
oslo
osma
osman
oso
osorio
osos
ospina
ossa
ost
osteichthyes
osvaldo
oswald
oswaldo
ota
otaria
otavalo
otelo
otero
othello
other
others
otho
otiniano
oto
otomanki
otomi
oton
otoniel
otorgada
otorgado
otorgo
otra
otras
otro
otros
ottawa
otto
otus
ou
ould
our
ouro
oury
out
outbreak
outer
outlaw
outras
outros
ouvrard
ov
ova
oval
ovalifolia
oveja
over
overath
overijssel
overview
ovidio
oviedo
owen
owens
own
ox
oxalis
oxford
oxi
oxysternon
oxyura
oyambaro
oye
oyo
oz
p
pa
paaq
pabello
pablo
pabst
pac
paca
pacaraos
pacari
pacasmayo
paccha
pace
pach
pacha
pachacamac
pachachaka
pachahina
pachak
pachakamaq
pachakamay
pachakamilla
pachakawri
pachakcha
pachakmanta
pachakuna
pachakunapi
pachakuti
pachakutik
pachakutinapaq
pachakutiq
pachakutiy
pachakutiypa
pachakwata
pachakwatap
pachakwatapi
pachakwatapis
pachakwataqa
pachalluq
pacham
pachamama
pachamamaman
pachaman
pachamanta
pachamantan
pachan
pachanga
pachanka
pachankam
pachankap
pachanpi
pachanta
pachantin
pachantinpi
pachap
pachapa
pachapanta
pachapaq
pachapi
pachapipas
pachapiqa
pachapis
pachapura
pachaq
pachaqa
pachar
pachas
pachata
pachataka
pachatam
pachatapas
pachataq
pachataqa
pachataya
pachatin
pachaykamay
pachaykamaymanta
pachaykamaypi
pachayuq
pacheco
pachila
pachitiya
pacho
pachuca
pachyrhizus
paci
pacific
pacino
paco
pacollo
pacos
pacquiao
pacto
padcaya
padilla
padova
padre
padres
padreyoc
padreyuq
padrino
padro
padua
padura
padziko
paga
pagador
paganini
page
pages
pagina
pagliacci
paglinawan
pahang
paho
pai
pailo
paine
pairumani
pais
paisaje
paisajes
paita
paiute
paixa
paja
pajuelo
pak
paka
pakai
pakaqi
pakaqucha
pakaraw
pakarina
pakasmayu
pakasqa
pakay
pakaya
pakayqasa
pakcha
pakincha
pakir
pakisha
pakista
pakistan
paku
pal
pala
palabra
palabras
palace
palacio
palacios
paladar
palais
palakala
palama
palamakuna
palamakunam
palamakunata
palamakunatam
palamam
palanda
palanta
palavecino
palazzo
palca
palcayo
pale
palenque
paleosuchus
palermi
palermo
palestina
palgrave
palicourea
palistina
palito
palkasu
palla
pallan
pallana
pallanchikpa
pallanqa
pallaq
pallaqi
pallariq
pallaspa
pallasqa
pallasqan
pallatanka
pallay
pallida
pallidicaule
pallqa
pallqaqucha
pallqarahu
pallqarasu
palm
palma
palmar
palmarum
palmas
palme
palmeiras
palmer
palmieri
palmira
palo
paloma
palomares
palomas
palomino
palomo
palos
palpa
palta
paltas
paluma
palumani
palura
pam
pambil
pambuyo
pamela
pampa
pampachiri
pampakuna
pampakunapi
pampam
pampamarca
pampamarka
pampapi
pampaqucha
pampaqullu
pamparahu
pampas
pamplona
pan
pana
panaka
panakan
panakayuq
panama
panamapa
panamapi
panamericana
panamericano
pananchis
panaqa
panaw
panay
panchacoto
panchakutu
panchito
pancho
panchos
panchu
panda
pandilla
pandion
pando
pandora
panduro
pane
panga
pangoa
pangor
pani
paniagua
panicle
paniscus
panka
panki
panku
pano
panorama
panpa
panq
panqa
panqachaw
pansaliyu
panta
pantagruel
pantale
pantaleo
pantanal
pantanos
pantasqa
pantaychu
pantera
panthera
panti
pantimayu
pantoja
panu
panwa
panzaleo
pao
paola
paolo
papa
papakunata
papallakta
papam
papamanta
papandreou
papap
papaqucha
paparawa
papas
papata
papaver
papaveraceae
papaya
pape
papel
papeles
paper
papers
papil
papilmanta
papo
pappa
papphammar
papwa
paq
paqaqi
paqarichin
paqarichiq
paqarichirqan
paqarichisqa
paqarichisqan
paqarimuq
paqarimurqa
paqarimurqan
paqarin
paqarinmi
paqariq
paqarirqa
paqarirqaku
paqarirqan
paqarirqaspa
paqarisa
paqarispa
paqarisqa
paqarisqan
paqarisqanmanta
paqariy
paqas
paqaspa
paqay
paqaypampa
paqcha
paqllun
paqpa
paqta
paqtachani
paqtachi
paqtan
paqu
paqucha
paquita
paquito
paqupampa
paququcha
par
para
paracas
parada
parade
paradise
parado
paraguari
paraguariensis
paraguay
parai
parajachi
paralela
paralle
param
paramaribo
paramount
paramunqa
parana
parapiti
parapoco
paraqas
pararqa
parastrephia
paratiya
parawaku
parawayi
parawayip
parawayipa
parawayipi
paray
paraysapa
parc
parco
parcours
pardalis
pardave
pardo
pare
parecido
pared
paredes
pareja
parents
pari
paria
pariachi
parientes
parigi
parina
parinacota
parinaqucha
parinaquta
parinaqutapas
pariona
paris
parish
pariwana
pariwanakuna
pariwanaqucha
park
parker
parki
parkikuna
parkim
parkimanta
parkipi
parkipiqa
parkiqa
parks
parkswatch
parlamento
parlamintu
parma
parmapa
parnaso
paro
parole
parqu
parque
parququcha
parquy
parra
parroquia
parsons
part
parte
partes
parti
participacio
participativa
particular
particulie
partida
partido
partidos
partidu
partidukuna
partidum
partiduman
partidumanta
partidun
partidunpi
partidup
partidupi
partidupim
partie
parties
partir
partitura
partner
partners
parton
parts
party
paruma
parun
paruru
parviflora
parya
paryaqaqa
paryawanka
pas
pasa
pasadena
pasado
pasaje
pasajeros
pasan
pasaq
pascal
pasco
pascua
pascual
paseo
pashin
pashtaq
pashto
pasio
pasiones
pasiphiku
paskwa
pasn
paso
pasochoa
pasos
paspalum
pasqu
pasquale
pasquel
pass
passage
passarella
passer
passiflora
passion
past
pastasa
pastaza
pasteles
pasteur
pastizales
pasto
pastor
pastoral
pastores
pastrana
pastu
pastur
pastururi
pasu
pasul
pasupakuy
pasurapa
pat
pata
pataclaun
patagioenas
patagona
patak
patakamaya
patakancha
patakuna
patakunapi
patallaqta
patam
patamanta
patampuku
patan
patanpi
patapallpa
patapi
pataqunya
patara
patas
patate
patayuq
paterson
path
pathology
pathoschild
pathways
patil
patilla
patin
patio
patiwillka
patma
patmaku
patman
pato
patos
patpayuq
patranka
patri
patria
patrice
patricia
patricio
patrick
patrimonio
patrio
patriota
patro
patrol
patrona
patronanmi
patronato
patronmi
patrulla
patsa
patsachaw
patsan
patsapa
patsata
patsy
patterson
patti
patton
patu
patuqucha
pau
paucar
paucartambo
paujil
paul
paula
paulet
pauli
paulina
pauline
pauling
paulista
paulo
pauls
paulus
paupa
pausini
pav
pavarotti
pavel
pavese
pavi
pavia
pavlov
pavlova
pavo
pavon
pavone
pavsa
pawa
pawaq
pawillun
pawka
pawkar
pawllu
pawlu
pawlup
pawqar
pawqaray
pawqarqucha
pawqarqulla
pawqartampu
pawqarwara
pawsa
pawshi
pawsirna
pawti
pay
paya
payas
payaso
payawa
paychi
paykuna
paykunaman
paykunap
paykunapaq
paykunaqa
paykunata
payman
paymi
payne
payninta
paypa
paypaq
paypura
payqa
payqam
payqu
payrumani
pays
paysandu
payta
paytam
payton
paywan
paywanmi
payyuyay
paz
pb
pc
pdf
pdi
pds
pe
peace
peak
peakbagger
peakery
peaks
pearcei
pearl
pearls
pearson
peca
pecado
pecador
pecadora
pecados
pecari
peces
pecho
peck
peckinpah
pecuaria
pedago
pedernales
pedersen
pediatr
pedra
pedro
pedunculata
peer
peggy
peguche
pei
peinture
peisa
peixoto
pejerrey
peki
pekka
pela
pelado
pelayo
pele
pelecanus
pelechuco
peli
peligro
peligrosa
peligroso
pelileo
pelle
pellegrini
pelo
pelota
peltocephalus
pen
pena
penal
penang
penas
pendant
pendulum
pene
penelope
peng
penguin
penh
peni
penn
pennata
pennisetum
pennsylvania
penny
pensamiento
pensamientos
pensar
pense
pentandra
pentlandii
penu
people
peor
pepa
pepe
peperomia
pepita
peplus
pepper
pequen
per
pera
perak
perales
peralta
perche
percusio
percy
perdicio
perdida
perdido
perdidos
perdo
perdomo
perdona
pere
peregrina
peregrino
peregrinus
pereira
perenensis
peres
peret
pereyra
perez
perezia
perezoso
perfect
perfecta
perfecto
perfil
perfiles
performance
performed
perfume
peri
perico
perio
period
periodi
periodic
periodismo
periodista
periodistas
perkins
perla
perlas
perlis
permanente
permiso
permission
pernambuco
pernettya
pero
perpetuo
perret
perricholi
perro
perros
perrovaca
perruna
perry
pers
persea
persepolis
persica
persie
person
persona
personajes
personal
personales
personalidad
personas
perspectivas
perspective
perth
peru
peruana
peruanas
peruano
peruanos
peruanum
peruanus
peruecologico
perugia
perupi
peruvian
peruviana
peruvianae
peruvianum
peruvianus
perv
perversa
pesadilla
pesar
pescado
pescador
peso
pessoa
peste
petar
pete
peter
peterburg
peters
petersburg
petersburgo
peterson
petit
petite
petra
petrarca
petri
petrie
petro
petrona
petronila
petroperu
petrovic
petrozzi
petrus
peucedanifolius
peyton
pez
pfalz
pfeiffer
pg
pgs
ph
phaka
phalacrocorax
phalaropus
phalcoboenus
phallcha
phallchacha
phaltan
phan
phane
phantom
phaqcha
phaqchakuna
phaqcham
phaqcharahu
phaqhcha
phaqut
pharomachrus
pharsi
pharyngitis
phasa
phase
phaseolus
phatakunapi
phawan
phawanapaq
phawaq
phawayta
phawchi
phawka
phd
phe
phelps
phi
phichqa
phil
philadelphia
philander
philharmonic
philharmonie
philharmoniker
philimonpaq
philip
philipi
philipinakuna
philipinakunapa
philipinakunapi
philipiyuqkunapaq
philipp
philippe
philippines
philips
philli
phillip
phillips
phillis
philosopher
philosophers
philosophical
philosophie
philosophy
phin
phinis
phinsuyu
phinyimpi
phirrin
phiru
phirunku
phiruru
phiskuna
phiskuspa
phista
phistakunku
phistanku
phistasqam
phistasqan
phiwriru
phiwrirupi
phiyi
phleocryptes
phnom
phoebe
phoenicoparrus
phoenicopterus
phoenix
phosphorus
photo
photos
php
phragmites
phransis
phransisku
phransya
phu
phukllay
phuku
phukulli
phukuna
phukuya
phun
phuqllay
phuru
phuruyuqmi
phusa
phusphuru
phusun
phutukuna
phutunqu
phutuy
phuyu
phuyukunamanta
phuyup
phuyupatamarka
phyllis
phylogeny
phylum
physalis
physical
physician
physics
phytelephas
phytologia
pi
pia
piacenza
piacere
piaf
piaget
pianista
piano
pianos
piaui
piazolla
piazza
piazzolla
pibe
pica
picaflor
picasso
picchu
piccolo
pichaka
pichana
pichi
pichiku
pichilemu
pichilemupi
pichincha
pichinku
pichis
pichitanka
pichiw
pichiwa
pichka
pichna
pichqa
pichqantin
pichqaqucha
pichqayuq
pichu
pichuco
pichus
pico
picos
picture
pictures
pid
pida
pide
pidgin
pido
pidos
pidru
pidrup
pie
piece
pieces
piedad
piedra
piedras
piel
piemonte
piene
piensa
pienso
pier
pierce
pierde
pierden
piero
pierre
pierrend
pierson
pies
pieter
pietrangeli
pietri
pietro
pieza
piezas
pii
piimay
piiru
pika
pikchu
pikchunkunaqa
pikchunqa
piki
pikikuy
pikillaqta
pikkin
pikunachus
pikunatapas
pikuru
pikuta
pikwayu
pil
pila
pilar
pilas
pilawit
pilcomayo
pilea
pilger
pili
pilichuku
pilikula
pilikulakuna
pilikulam
pilikulamanta
pilikulapi
pilikulapim
pilikulaqa
pilim
pilku
pilkumayu
pilla
pillan
pillaru
pilli
pillija
pillinku
pilliyuyu
pillku
pillpintu
pillu
pillunkuy
pillunya
pillunyayuqmi
pilo
pilosa
pilot
piloto
pilotos
pilpichaka
pilquya
piluta
pim
pima
pimampiru
pimelodidae
pimentel
pimienta
piminta
pimpinila
pin
pinacoteca
pinakothek
pinal
pinar
pinares
pinasco
pincha
pinchaque
pinchi
pinchikilla
pinchikillachana
pinchikillata
pinchikillawan
pinchullu
pindal
pindilig
pindo
pineda
pinedo
ping
pinglo
pingu
pinillos
pinipi
pink
pinku
pinkuyllu
pinnata
pino
pinophyta
pinos
pinsha
pinta
pintadas
pintadillo
pintado
pintarillu
pintikustis
pinto
pintor
pintores
pintuq
pintura
pinturas
pinu
pinula
pinus
pinwinu
pinyin
pinzo
pio
pionites
pionus
pipa
pipapas
pipas
pipe
piper
pipil
pipile
pipis
piptadenia
piqa
piquet
pira
piracicaba
piran
pirandello
pirata
piratas
pirate
pirates
piray
pire
pires
piri
pirini
pirlilla
pirqa
pirqakachun
pirqakuna
pirqam
pirqana
pirqapi
pirqata
piru
pirupas
piruru
piruw
piruwanu
piruwchaw
piruwki
piruwman
piruwmanta
piruwpa
piruwpaq
piruwpaqpas
piruwpas
piruwpi
piruwpipas
piruwpiqa
piruwta
pirwa
pirwaqucha
pis
pisa
pisarru
pisco
pishku
pishn
pishqu
pishtaq
pisi
pisichasqa
pisichaynin
pisiga
pisilla
pisiyaynin
pisqa
pisqu
pisqukuna
pisqukunam
pisqukunap
pisqukunaqa
pisqum
pisqup
pisqupampa
pisququcha
pissis
pista
pistishi
pistola
pistolas
pistolero
pisum
pisunay
pita
pital
pitapas
pitaq
piter
pithagoras
pithecellobium
pithecia
piti
pitinmi
pitipu
pitman
pito
pitsqa
pitt
pitti
pittsburgh
pitu
pitucha
pitumarka
pitunilla
pitusiray
piu
piura
piurw
pius
piwin
piwra
pixarwan
piyanu
piypiri
piyru
piyu
piyun
pizarro
pkp
pl
pla
placa
place
placer
placeres
places
plain
plains
plan
plana
planck
plane
planes
planet
planeta
planetary
planets
planguarani
planicie
plano
plant
planta
plantae
plantago
plantarum
plantas
plantilla
plantillam
plantillataqa
plants
plasa
plasencia
plastic
plastiku
plata
plate
plateau
platini
platino
plato
platon
plattdu
plawtich
play
playa
playas
player
players
playhouse
playing
plays
playstation
plaza
ple
please
pleasure
plegades
plegadis
plegarias
plenum
pleurotus
plomo
plon
plowman
pluma
plummer
plural
plurinacional
plus
plutarco
pluto
plutun
plymouth
plzen
pm
pmc
pmid
png
po
poa
poaceae
poalo
poblacio
poblaciones
pobladores
poble
poblenou
pobre
pobres
pobreza
poca
pocahontas
pocas
pocho
pocket
poco
pocoata
poder
poderes
podi
podiceps
podocarpus
podocnemis
podolski
podra
podri
poe
poecilochrous
poem
poema
poemario
poemas
poems
poepp
poeppigiana
poesi
poesia
poet
poeta
poetas
poetry
poincare
point
poirot
poitier
pokal
poko
pola
polaco
polanco
polar
pole
poli
policarpo
police
polici
policial
policy
polis
polite
political
politics
politik
politique
politischen
polka
polo
polonia
polonium
polski
polster
polvo
polydor
polygonaceae
polygonum
polygram
polylepis
polypodium
polyporus
polystichum
polytechnique
poma
pomabamba
pomacea
pomacocha
pomar
pompeii
pompeyo
pompidou
pomwe
ponce
poncen
poncho
pondal
pongo
pongos
pont
ponte
pontes
pontevedra
ponti
pontificia
pony
pooh
poole
poopo
poospiza
pop
popaya
pope
popolo
popular
populares
population
poque
por
porcel
porco
porfirio
porque
porras
porres
port
porta
portachuelo
portal
porte
porter
portero
portillo
portland
porto
portocarrero
portovelo
portoviejo
portrait
portraits
portsmouth
portugal
portugalete
portugue
portugues
portuguesa
portuondo
porvenir
pos
posada
posadas
posee
posei
posesio
posesivo
posgrado
posible
posic
posicio
posiciones
position
positivo
possible
post
postal
postales
posteriores
posteriormente
posthume
posthumous
posthumously
postrer
pot
potamotrygon
potencial
potential
potos
potosi
potro
potsdam
potter
pound
pour
poussin
pouteria
powell
power
powers
poyang
poznan
pozo
pozuzo
pp
ppc
ppk
pr
pra
practice
practices
prada
pradera
pradesh
prado
praemorsus
praga
prague
praha
prairie
prasad
prata
pratibha
pratiques
pratt
prayer
pre
precatoria
precio
precoz
precursor
precursora
predilecto
prefacio
prefectura
prefeitura
preferences
prefiero
prego
preguntas
prehispa
preliminar
preludio
preludios
premiado
premie
premier
premio
premios
premnotrypes
prename
prensa
prentice
preparacio
pres
presa
prescott
presencia
present
presenta
presentacio
presentada
presentado
presente
presented
presents
presidencia
presidencial
president
presidenta
presidente
presidentes
presidential
presidio
presio
presl
presley
press
pressure
prestige
preston
pretendiente
preto
pretty
prevencio
preventing
prevention
previa
previamente
previously
pri
priale
price
pride
prie
priest
prieta
prieto
prima
primaria
primary
primarya
primavera
prime
primeira
primer
primera
primeras
primero
primeros
primitivo
primo
primuloides
prince
princes
princesa
princesita
princess
princeton
principal
principales
principe
principessa
principio
principios
principles
print
printer
priodontes
priory
prisa
prisio
prisionera
prisionero
prisioneros
prisoner
pristu
priturya
privada
privado
private
prive
privilegio
prix
prize
pro
proan
probablemente
problem
problema
problemas
problems
procedimientos
proceedings
procesio
proceso
procesos
process
processing
prochilodus
proclamacio
procyon
proda
prodi
prodigiosa
prodigioso
produccio
producciones
producer
producida
productions
productokunata
productor
productos
products
produzione
proechimys
proeib
proeibandes
prof
profesio
profesional
profesiones
profesor
profesores
profession
professional
professor
profeta
profile
profundo
profundos
program
programa
programas
programming
progreso
progress
progressive
prohibida
prohibido
project
projects
promesa
prometeo
prometheus
promocio
pronombre
pronombres
pronto
proof
properties
property
propia
propiedad
propio
propios
propo
propone
propos
proposals
propuesta
prosa
prosas
prose
prosopis
prost
prostrata
protago
protagonista
proteccio
protector
protei
protesta
protestantismu
protista
protocol
proust
prov
provenc
provence
proviasdes
providence
providencia
province
provincia
provincial
provincias
provincie
proyeccio
proyecto
proyectos
pru
prudhomme
prueba
pruebas
prunus
pruphisyunmi
prutina
prutistanti
pruwinsya
pruwinsyakuna
pruwinsyam
pruwinsyamanta
pruwinsyankuna
pruwinsyanmi
pruwinsyap
pruwinsyapa
pruwinsyapi
pruwinsyapim
pruwinsyapipas
pruwinsyapiqa
pruwinsyapiwan
pruwinsyaqa
pruwinsyawan
pruwynsyapi
pryce
ps
psarocolius
pseudalopex
pseudo
pseudolycioides
pseudoplatystoma
pseudotites
psicologi
psidium
psittacidae
psl
psn
psoralea
psuv
psychotria
pt
pteridaceae
pteridium
pteridopsida
pterocnemia
pteroglossus
pteronura
ptico
ptimo
pts
pu
pub
pubescens
pubis
publ
public
publica
publicacio
publicaciones
publicada
publicadas
publicado
publicados
publication
publications
publicidad
publicitario
publico
publie
publique
publiques
published
publishers
publishing
pubs
puc
puca
pucara
pucarani
puccini
pucha
puchan
puchka
puchkanchik
puchkaspa
puchq
puchukachirqan
puchukanqa
puchukarqan
puchukayninkama
puchukayninmi
puchukayninpi
puchunkuna
puchuq
pucp
pudiera
pudu
puebla
pueblito
pueblo
pueblos
pueda
puedan
puede
pueden
puedes
puedo
puela
puente
puentes
puerta
puertas
puerto
puertorriquen
pues
puesto
puga
pugacheva
pugliese
pugna
puhili
puhuyu
puig
pujili
pujol
puka
pukahirka
pukaj
pukakina
pukakuru
pukallpa
pukam
pukamaqasqa
pukan
pukaq
pukaqucha
pukara
pukarahu
pukaram
pukaran
pukarani
pukaranra
pukarapi
pukarumi
pukatampu
pukatupsa
pukaurqu
pukayaku
pukina
pukllan
pukllana
pukllanam
pukllanamanta
pukllanapaq
pukllaq
pukllaqmi
pukllaqpas
pukllaqsi
pukllarqan
pukllasqa
pukllasunchis
pukllay
pukllaykamachiq
pukllaykamachiqmi
pukllaykuna
pukllaykunam
pukllaykunapi
pukllaymi
pukllaypi
puku
pukumantawan
pukusana
pukutay
pukyu
pukyumanta
pukyunmi
pukyunqa
pulaku
pulcher
pulga
pulgadas
pulgar
puli
pulinisya
pulitika
pulitiku
pulitikum
pulitikumi
pulitikupas
pulitikus
pulitku
pulitzer
puliwya
pulla
pullira
pullitzer
pullu
pullurki
pulpu
pulsacio
pulska
pultumarka
pululawa
pulunya
pulunyapi
pum
puma
pumacahua
pumachu
pumallakta
pumanuta
pumapampa
pumaq
pumaqanchi
pumaqhawa
pumaqucha
pumaqulluni
pumarinri
pumasillu
pumata
pumawanka
pumiranya
pumirapi
pumiri
pump
pumpido
pun
puna
punapi
punata
puncha
punchana
punchaw
punchawkuna
punchawmanta
punchawpi
punchay
punchu
punco
punctata
punen
puni
punin
punk
punki
punkiy
punku
punkukuna
punkupi
punkus
punkuta
puno
punta
puntarenas
puntas
puntifisya
punto
puntu
punu
punukama
pupa
puqu
puquchiq
puquchisqa
puquchisqanchik
puquina
puquio
puquna
puqunanpaq
puquq
puquqwata
puqusqa
puquy
puquykunamanta
puquykunata
puqyala
pura
purani
pure
puri
purificacio
purik
purikuk
purimuq
purin
purina
purinakunapim
purinanpaq
purinapaq
purinmi
puriq
puriqchana
puriqkuna
puriqlla
puriqllam
puriqllap
purir
puririyman
purirqa
purispa
purisqa
purisqan
puriy
puriynin
puriyninmi
puriyta
purkun
puro
purple
purpose
purpurea
purpureum
purqu
purtugal
purtugalpa
purtuyis
purtuyiskunap
puru
puruchuku
puruha
purum
puruma
purun
purupi
purus
purutu
puruwa
purwa
pusachkan
pusan
pusana
pusanapaq
pusapuna
pusaq
pusaqkuna
pusaqkunawan
pusaqmi
pusaqnin
pusaqninkuna
pusaqninkunaqa
pusaqninmi
pusaqninpas
pusaqninqa
pusaqninsi
pusaqnintin
pusaqniyuq
pusaqpas
pusaqsi
pusarqan
pusasqan
pusay
pusaykuq
pushak
pushana
pushaq
pusharu
pushkin
pusi
pusilla
pusitiwu
pusitrun
puska
puskanturpa
pussycat
pusu
pususu
put
putana
putaqa
putin
putina
putis
putre
putu
putum
putumayo
putumayu
putuni
putura
putusi
pututu
puwaq
puwaqhanka
puwaqpanpa
puwpu
puy
puya
puyanku
puyka
puyllu
puyo
puyol
puytu
puyu
puywan
puywanku
puzo
px
pycnocarpum
pygmaea
pyotr
pyre
pyrotechnics
python
pywikipedia
pywikipediabot
q
qa
qachu
qachwa
qaem
qahira
qala
qalamarka
qalapuha
qalaqutu
qalasaya
qalawala
qalaywala
qalla
qallanqati
qallapa
qallari
qallarikuy
qallarin
qallarina
qallarinan
qallarinmi
qallariq
qallarirqa
qallarirqaku
qallarirqan
qallarirqanku
qallarispa
qallarisqa
qallarisqam
qallarisqan
qallarisqanpi
qallariy
qallariynin
qallariyninpi
qallariyninpiqa
qallariypi
qallaw
qallawa
qallawakunam
qallawam
qallawap
qallaykurqa
qallayuq
qallu
qalluchaw
qalluchawmi
qalluchu
qallupi
qallwa
qam
qamkuna
qan
qanaquta
qanchi
qanchis
qanchisnintin
qanchisniyuq
qanchisqucha
qanra
qantu
qapachiqa
qapaq
qapi
qaqa
qaqapampa
qaqaqay
qaqatampu
qaqilla
qaqlla
qaqra
qara
qaracha
qarachi
qaralla
qaramanta
qarampuma
qaran
qaranchu
qaranpi
qaranqa
qaranta
qarap
qarapara
qarapi
qarapuku
qaraqruyuwa
qaraqruyuwakunam
qaraqullu
qaraqutu
qaras
qarata
qarawili
qaraypampa
qarayuq
qarayuqkunam
qaraywa
qari
qariwarmi
qarqan
qarqarqucha
qarqurqan
qarquspa
qarquy
qarquykuspa
qarwa
qarwamayu
qarwaq
qarwaqayan
qarwaqucha
qarwarasu
qarwas
qarwaskancha
qasa
qasaq
qasaqsuyu
qasi
qasikaypi
qata
qatanapaq
qataq
qataqura
qatar
qatasqa
qatawa
qatawi
qati
qatilla
qatin
qatiq
qatiqlla
qatiqnin
qatiqninmi
qatiran
qatispa
qatqa
qatuylla
qaw
qawana
qawaq
qawarinanchikpaq
qayakusqa
qayakusqan
qayakusqanpa
qayakuy
qayanqati
qayara
qayay
qaylla
qayllanpi
qayllanpichu
qayna
qaysa
qellqa
qelqa
qelqasqan
qespi
qh
qhachwa
qhali
qhampu
qhanqaraqa
qhanqaraqha
qhapana
qhapaq
qhapaqkuna
qhapaqkunap
qhapaqnin
qhapaqninsi
qhapaqnsi
qhapaqpa
qhapaqsaya
qhaqti
qhaqya
qharastaq
qhari
qharikuna
qharikunawan
qharinchu
qharip
qharipas
qhariphuyu
qhariqa
qhariqucha
qharita
qhasqu
qhaswa
qhatantika
qhatqi
qhatu
qhatuna
qhatuq
qhaturipi
qhawana
qhawanachakuna
qhawanakunti
qhawanillas
qhawaq
qhawaray
qhawaraya
qhawariy
qhawaspa
qhaway
qhaya
qhepa
qhepamanmi
qheswa
qhichwa
qhichwam
qhichwaman
qhichwamanta
qhichwap
qhichwapas
qhichwapi
qhichwata
qhilla
qhini
qhipa
qhipagradupi
qhipaman
qhipan
qhipanpi
qhipanta
qhipantaqa
qhipaq
qhipaqa
qhipaqnin
qhipaqnintaq
qhipaqta
qhiqalla
qhishwa
qhiswa
qhiti
qhiwar
qhiyurqya
qhoranchiskuna
qhuchapampa
qhuchi
qhuchiwat
qhuchuntin
qhulla
qhun
qhunqhu
qhupiyapu
qhupu
qhura
qhurita
qhurqhi
qhusi
qhuya
qhuyakuna
qhuyakunapi
qhuyam
qhuyapi
qi
qian
qichuspa
qichusqa
qichuy
qichwa
qichwapa
qichwasimipi
qilla
qillay
qillayta
qillma
qillqa
qillqakamayuqninmi
qillqakuna
qillqakunapaq
qillqakunaqa
qillqakunata
qillqam
qillqamanta
qillqamun
qillqamunchik
qillqamurqan
qillqamuy
qillqan
qillqana
qillqanakuna
qillqanapaq
qillqanchik
qillqanku
qillqanmi
qillqap
qillqapampa
qillqapi
qillqapis
qillqaq
qillqaqa
qillqaqkuna
qillqaqkunamanta
qillqaqmi
qillqaqnin
qillqaqpa
qillqaqpas
qillqaqsi
qillqarqa
qillqarqan
qillqas
qillqashqa
qillqashqam
qillqaspa
qillqasqa
qillqasqakuna
qillqasqam
qillqasqan
qillqasqankuna
qillqasqanpa
qillqasqanpi
qillqasqanqa
qillqasqanta
qillqasqapas
qillqasqata
qillqasunchik
qillqata
qillqay
qillqaya
qillqaymi
qillqaynin
qillqayninmi
qillqayninpi
qillqaypi
qillqayta
qillu
qillwa
qillwaqutarit
qilma
qimara
qimis
qin
qina
qinamari
qincha
qing
qinghai
qinti
qipa
qipan
qipanman
qipatana
qipi
qipuncha
qiqin
qiqiri
qiqlla
qiqllam
qirisa
qirisan
qirisankuna
qirisankunaqa
qirisankunata
qiru
qirupallqa
qirupampa
qiruqucha
qirusillas
qispi
qispichikunapaq
qispichinapaq
qispichiq
qispichiqkuna
qispichiqnin
qispichirqan
qispichiy
qispikusqa
qispilla
qispillaqta
qispim
qispiqanchi
qispisqa
qispisqan
qiswa
qitara
qitina
qiu
qiwillu
qiwin
qiwlla
qiwllaqucha
qiwllarahu
qiwn
qiwun
qollanan
qom
qori
qosqo
qquelkascan
qquichua
qs
qshks
qu
quadrangulare
quadruplicatus
quand
quando
quang
quaresma
quarracino
quarterly
quartet
quartett
quatre
quayle
qub
qucha
quchakuna
quchakunam
quchakunapas
quchakunapi
qucham
quchaman
quchamanta
quchamarka
quchan
quchanta
quchap
quchapampa
quchapanpa
quchapata
quchapi
quchapim
quchapiqa
quchapitiq
quchaqa
qucharqa
quchas
quchawan
quchkuna
quchu
quchuntin
quchup
que
quebec
quebracho
quebrada
quebradas
quechnapo
quechua
quechuas
quechwasimipi
queda
quedo
queen
queens
queiroz
quejas
quemado
quena
quentin
quercus
quere
queremos
querer
queri
querida
querido
quero
quesada
quest
question
questions
quetzaltenango
quevedo
quez
quezon
qui
quiaca
quibdo
quican
quiche
quichua
quichwa
quie
quiem
quien
quieras
quiere
quieres
quiero
quiet
quijano
quijarro
quijos
quijote
quila
quimera
quimsa
quimsachata
quimsacruz
quin
quina
quincean
quincy
quindi
quine
quinn
quinoa
quinta
quintana
quintanilla
quinteras
quintero
quintet
quinteto
quinto
quinua
quinze
quiquibey
quiro
quiroga
quiroz
quise
quishuar
quisiera
quispe
quispep
quispicanchi
quita
quitensis
quito
quitoense
quiz
quiza
qukun
qulan
qulcha
qulchani
qulla
qullaman
qullana
qullapaqu
qullasuyu
qullasuyup
qullasuyupi
qullaw
qullawpi
qullchani
qulli
qullpa
qullpachaq
qullpaqucha
qullpasa
qullqa
qullqamar
qullqan
qullqapampa
qullqapirwa
qullqaquyllur
qullqatam
qullqi
qullqichaka
qullqimanta
qullqincha
qullqip
qullqipunku
qullqiri
qullqisapa
qullqita
qullqiyuq
qullu
qulluchi
qulluma
qullup
qullusqa
qulluta
qulluy
qulqan
qulu
qulumi
qumanchi
qumas
qumlik
qumpapata
qumpaya
qumutu
qun
qunawiri
quncha
qunchamarka
qunchu
qunibu
qunima
qunquna
qunqur
qunta
qunti
quntumasa
qunuqucha
qunurana
quo
qupa
qupaqhawana
qupaqhawanap
qupaqhawanapi
qupuraki
quq
quqta
qura
qurakunam
quram
quran
qurani
quri
qurich
qurikancha
qurilasu
qurimanta
qurimina
quripata
quriq
qurisapa
qurita
quriway
quriwayrachina
quriy
quriyunka
qurpa
qurpachana
qurqa
qurqan
qurqi
qurupuna
qurutu
quruyqu
qurwara
qusan
qusankuna
qusanta
qusanwan
quspa
qusqa
qusqan
qusqu
qusqumanta
qusqup
qusqupi
quta
qutakuna
qutapata
qutaqayta
qutawasi
qutsu
qutsukuna
qutsun
qutu
qutum
qutumanta
qutuphaqsi
qutupi
qutupiqa
qutuqa
quturipunta
qutus
qutuwan
quwapaq
quwasa
quwata
quwi
quwiphasa
quwiqucha
quya
quyan
quyansi
quyaynin
quyllur
quyllurcha
quyllurchaw
quyllurchawwan
quyllurkuna
quyllurmi
quyllurpun
quyllurpura
quyta
quywi
qvixote
r
ra
rabat
rabe
rabelais
rabes
rabia
rabin
rabindranath
rabo
racconti
race
raceme
racemosa
rachel
rachina
racine
racing
rad
rada
radcliffe
radical
radicans
radio
radioaficio
radiofonico
radiyu
radoje
radon
radyu
rae
raf
rafael
rafaela
raffaella
raffaello
ragazza
rage
rahman
rahmani
rahu
rahupakinan
rai
raid
railway
raimondi
raimondii
raimundo
rain
rainbow
rainer
rainier
raise
raj
raja
rajapaksa
rajes
rajesh
rajiv
rajoy
rajucolta
rak
raka
rakha
rakhanman
rakhu
rakhuurqu
raki
rakikuna
rakikunam
rakikunata
rakikuq
rakim
rakiman
rakin
rakina
rakinakurqan
rakinalla
rakinchik
rakinkuna
rakinkunam
rakinmi
rakinpi
rakinqa
rakiqunaykichu
rakiqunaykitsu
rakirqan
rakishqa
rakispa
rakisqa
rakiy
rakiynin
rakiyuqmi
raldes
raleigh
ralph
ram
rama
ramada
ramalho
rame
rameau
rami
ramirez
ramiro
ramis
ramo
ramon
ramona
ramos
ramphastos
ramran
ramsar
ramsay
ramsey
ramun
ran
rana
ranchera
ranchero
rancho
randia
randolph
random
randy
range
rangel
ranger
rangers
rankin
ranking
rankings
ranrapallqa
ransis
ransisku
ransiya
ransiyap
ransiyapa
ransiyapi
ransya
ransys
ranti
rantin
rantina
rantinkuna
rantip
rantiq
rants
ranulfo
ranunculus
rao
raoul
rap
rapa
rapachu
rapanuy
raphael
raphi
raphikuna
raphiman
raphimuyum
raphin
raphinkunapi
raphinkunata
raphinmi
raphintinqa
raphip
raphiqa
raphisapa
raphiwaqracha
raphiyuq
raphiyuqkuna
raphiyuqmi
rapid
rapids
raposa
rapra
raprakunayuq
rapranta
raprayuq
rapto
raqacha
raqay
raqaykuna
raqch
raqra
raquel
raramuri
rard
rare
rasa
rasaq
rase
rasgado
rashid
rasmussen
rassi
rastlos
rasu
rasuwillka
rat
rata
ratas
ratata
rate
rato
raton
rats
rattle
rattus
rature
rau
raul
rauwolfia
raval
ravel
ravelo
ravenna
raw
rawanu
rawli
rawra
rawrana
rawranakuna
rawraq
rawray
rawson
rawul
ray
raya
rayan
rayku
raykum
raykur
raymi
raymikuna
raymim
raymin
raymipi
raymita
raymond
raymondi
raymundo
raynal
rayo
rayonu
rayos
rayu
raza
razo
razones
rb
rbara
rbaros
rbd
rbenz
rbol
rboles
rc
rca
rcal
rcel
rchb
rchen
rcito
rcoles
rcova
rctv
rculo
rd
rdenas
rdez
rdoba
rdova
re
rea
reaccio
reactions
read
reading
ready
reagan
real
reales
realidad
realismo
reality
realiza
realizacio
realizada
realizado
really
reas
reason
rebagliati
rebeca
rebecca
rebel
rebelde
rebeldes
rebelio
rec
recent
recep
recherche
recherches
recibe
recibir
recie
reciente
recife
recinto
reciprocity
recital
recoge
recogidos
recoleta
reconciliacio
reconocimiento
reconquista
reconstruccio
recopilacio
recopilatorio
record
recordando
recordar
recorded
recording
recordings
records
recreacio
recta
recto
rector
rectores
recuay
recueil
recuerda
recuerdo
recuerdos
recuperacio
recursos
recurvirostra
red
redencio
redford
redgrave
redirigimos
redonda
redondas
redondeada
redondo
reduccio
reed
reeder
reedicio
reeditada
reeditado
reencuentro
rees
reeve
reeves
ref
refbegin
refend
refer
reference
references
referencia
reflections
reflexa
reflexio
reflexiones
reforma
refugiados
refugio
reg
regalo
regatas
reggae
reggio
regia
regiae
regina
reginald
reginaldo
regio
region
regional
regionales
regione
regiones
registro
regnum
regresa
regreso
rehder
rei
reiche
reid
reimpr
reims
reina
reinaldo
reinfeldt
reinhardt
reinhold
reino
reinos
reis
reithermanmi
rekupa
rela
relacio
relacionadas
relacionados
relaciones
related
relations
relato
relatos
release
released
relevos
religio
religion
religiosa
religioso
reloj
reluce
rembrandt
reme
remedios
remember
remigio
remix
remixes
remo
ren
renacimiento
renaissance
renan
renata
renate
renato
renault
rence
rendo
rene
renee
rengifo
renoir
renovacio
renzo
reo
reparto
repens
repente
repertorio
report
reportaje
reportajes
reports
represas
representacio
representativas
representativos
reprint
reprinted
reprise
repu
repubblica
republic
republica
republicado
republicana
republicano
republika
republikakunap
republikanu
republikap
republikapa
republikapas
republished
requena
requesens
request
requiem
requirements
rer
res
rescate
rescue
research
resen
reserva
reservada
reservado
reserve
reservoir
residencia
resinosa
resistencia
resistente
resistivity
resnais
resource
resources
respiratorias
respiratorio
respiratory
resplendens
resplendes
responso
respuesta
restauracio
resto
restrepo
resultados
resumen
resurreccio
retablo
retalhuleu
retama
reticulata
retirada
retirado
retiro
reto
retorno
retour
retrato
retratos
retrieved
retrouve
return
returns
reu
reuel
reuma
reunida
reunio
reunion
reutemann
rev
reva
reve
revenge
reventador
reverendo
review
reviews
revisada
revised
revisio
revision
revisited
revista
revistanchis
revoluc
revolucio
revolucionaria
revolucionario
revoluciones
revoluta
revolution
revolutionary
revoredo
revue
rex
rey
reyes
reykjavi
reyna
reynaldo
reyno
reynolds
reynos
reynosa
reynoso
rez
reza
rg
rgano
rgen
rgenes
rgeno
rgica
rgio
rgs
rgy
rh
rhapsody
rhea
rhead
rhein
rheinland
rhinanthus
rho
rhodes
rhoeas
rhombeus
rhynchophorus
rhynchospora
rhythm
ri
ria
rialp
rias
ribas
ribeira
ribeiro
ribera
riberalta
ribeyro
ric
rica
ricardo
ricas
ricaurte
riccardo
ricci
rice
rich
richard
richards
richardson
richet
richie
richmond
richter
rick
ricketts
ricky
rico
ricordi
ricos
rida
ride
rider
riders
ridge
ridgwayi
ridi
riding
riduksi
riduksyun
ridusisqa
rie
riego
riesgo
riestra
rieure
rifle
riga
right
rightarrow
rights
rigida
rigidus
rigoberta
rigoletto
rijksuniversiteit
rijn
rik
rikay
rikaynin
rikch
rikcha
rikchakuna
rikchaq
rikcharimuy
rikchasapa
rikhurin
rikhurinman
rikina
riktur
rikturnin
rikuchin
rikuchiq
rikuchirin
rikuchirqan
rikukun
rikukuq
rikukuqpi
rikun
rikuna
rikunalla
rikunapaq
rikunchik
rikunki
rikuq
rikurqan
rikuspa
rikusqa
rikuway
rikuy
rikuyta
rilivu
rima
rimakuna
rimakunam
rimakunata
rimakuykuna
rimakuykunamanta
rimam
riman
rimana
rimanachaw
rimanakuspa
rimanakusqa
rimanakuy
rimanakuymanta
rimanakuymi
rimanakuyninpi
rimanakuypa
rimanakuyta
rimanku
rimap
rimaq
rimaqa
rimaqkuna
rimaqmi
rimaqnin
rimaqninmi
rimaqniyuq
rimaqniyuqmi
rimaqpa
rimaran
rimarin
rimarirqan
rimarisqa
rimarqan
rimarqanku
rimas
rimaspa
rimasqa
rimasqan
rimasqankumanta
rimasqapas
rimay
rimayan
rimaychaw
rimaycuna
rimaykuna
rimaykunam
rimaykunaman
rimaykunamanta
rimaykunap
rimaykunapas
rimaykunapi
rimaykunapiqa
rimaykunaqa
rimaykunata
rimaykunatam
rimayman
rimaymanta
rimaymi
rimaynin
rimayninkuna
rimayninkunam
rimayninmi
rimayninqa
rimayniyuq
rimaypa
rimaypaqqa
rimaypas
rimaypi
rimaypim
rimaypipas
rimayqa
rimaysi
rimayta
rimaytam
rimba
rimbaud
rime
rimini
rimsky
rin
rina
rinaldi
rinchi
rinco
rinconada
rinda
rinehart
ring
ringen
ringo
rings
rinkunara
rinovirus
rinri
rinrihirka
rinrisapa
rintima
rinza
rio
riobamba
riochico
riofri
riohacha
rioja
rios
ripan
ripley
ripuwlika
ripuwlikap
riq
riqisha
riqisqa
riqsichipusqan
riqsichiq
riqsichirqa
riqsichirqan
riqsichisqan
riqsikuq
riqsin
riqsinchik
riqsinchikchu
riqsisqa
riqsisqachu
riqsisqam
riqsisqan
rique
riquelme
riqyun
riqyunmi
riqyunpi
rirpu
rirqa
rirqan
ris
risa
risaralda
risas
risco
rise
rishi
risi
rising
risirwa
risirwakunapas
risirwamanta
risirwapi
risirwapiqa
risirwaqa
rispa
rispampa
risseurs
risun
rit
rita
ritama
ritawlu
ritchie
rite
ritmo
ritmos
rito
ritos
ritt
ritter
ritu
ritual
rituales
ritus
riva
rivadavia
rivadeneira
rival
rivarola
rivas
rivelino
rivelles
river
rivera
rivero
rivers
rivet
rivie
rivulatus
riwi
riwista
riy
riyad
riypa
riyunyun
riz
rizal
rizzoli
rj
rk
rkc
rminos
rmm
rmula
rn
rnberg
ro
roa
road
roald
rob
robards
robben
robbie
robbins
robe
robert
roberta
roberto
roberts
robin
robinson
robinsons
roble
robledo
robles
robo
robot
robson
robustus
roc
roca
rocafuerte
rocco
rocha
rochester
roci
rock
rockas
rocks
rocky
rod
rodas
rodentia
rodeo
rodgers
rodin
rodney
rodo
rodolfo
rodr
rodri
rodrigo
rodrigues
rodriguez
rodven
roe
roel
roes
rogagua
roge
rogelio
roger
rogers
roh
rohwer
roi
roja
rojas
rojo
rojos
rola
roland
rolando
rolda
role
rolf
rolfe
roll
rolland
rollandia
rolling
rollins
rom
roma
romagna
romain
roman
romana
romance
romancero
romances
romancier
romani
romano
romantic
romanu
romanukunap
romanukunapaq
romap
romario
rome
romeo
romeri
romero
romig
romo
romualdo
ron
ronald
ronaldo
roncalla
ronda
ronde
rondo
rong
roo
roof
room
rooney
roosevelt
root
roots
roque
ros
rosa
rosado
rosales
rosali
rosalia
rosalie
rosalind
rosario
rosas
rosaura
rosay
roscio
rose
rosea
rosemary
rosen
rosenberg
rosendo
rosenthal
roses
roseus
roshan
rosi
rosita
roskov
rosmarinus
rosopsida
rospigliosi
ross
rossellini
rossello
rossi
rossini
rossy
rostock
rostrata
rostro
rostros
rostworowski
rota
rotational
rotblat
roth
roto
rotterdam
rotundifolia
rou
rouen
rouge
rough
round
rousseau
roussos
routh
rovira
row
rowe
rowland
rowling
roxana
roxette
roy
royal
royale
rozas
rpa
rpp
rquez
rraga
rrez
rsssf
rsula
rt
rtica
rtida
rtigo
rtir
rtires
rtiz
rtoli
rttemberg
rtve
ru
rua
ruan
rube
rubem
ruben
ruber
rubi
rubia
rubiaceae
rubida
rubin
rubinstein
rubio
rubra
rubrogenys
ruburiy
rubus
ruby
rucha
ruderale
rudiuscula
rudiyu
rudolf
rudolph
rudy
rudyard
rue
rueda
ruelas
rufescens
ruffo
rufina
rufino
rufus
ruggeri
ruggero
rugulosa
rui
ruinas
ruisen
ruiz
ruk
ruku
rule
ruletero
rulfo
rulli
ruma
ruman
rumania
rumano
rumantiku
rumanu
rumanya
rumasa
rumba
rumbero
rumbo
rumex
rumi
rumichaka
rumikuna
rumikunata
rumilla
rumim
rumimanta
rumin
rumipampa
rumiqullqa
rumiru
rumita
rumiwan
rumiyasqa
rumor
rump
rumu
run
runa
runacha
runacham
runak
runaka
runakamaq
runakay
runakuna
runakunaka
runakunam
runakunaman
runakunamanta
runakunamantaqa
runakunan
runakunap
runakunapa
runakunapak
runakunapaq
runakunapas
runakunapi
runakunappas
runakunaq
runakunaqa
runakunas
runakunata
runakunatam
runakunatapas
runakunataq
runakunataqa
runakunatas
runakunawan
runakunayuq
runallakta
runallap
runallaqta
runallaqtamansi
runallaqtap
runam
runaman
runamanta
runan
runanin
runankuna
runap
runapa
runapaq
runapas
runapi
runappas
runapura
runaq
runaqa
runas
runashimi
runashimichaw
runasimi
runasimillapi
runasimiman
runasimin
runasiminpi
runasimipi
runasimipim
runasimita
runasimitam
runata
runatam
runatapas
runataq
runataqa
runawan
runaway
runayay
runayupay
runayupayman
runayuq
runayuqmi
runchu
runku
runkuraqay
running
runs
runtu
runtucha
runtukunata
runtukunatam
runtuma
runtunkunata
runtus
runtuta
runtuy
rup
rupa
rupay
rupestre
rupestris
ruphasqa
ruphay
rupicola
ruq
ruqa
ruqma
ruqnaqa
ruqt
ruqutu
ruqyana
ruqyay
ruqyayta
ruqyaywan
rura
rural
rurales
ruran
rurana
ruranakun
ruranakuna
ruranakunmi
ruranakuspa
ruranakuy
ruranakuymi
rurananpaq
ruranapaq
ruranapaqpas
ruranchik
ruranku
ruraq
ruraqkuna
ruraqkunata
ruraqmi
ruraqpa
rurarqan
rurashqa
ruraspa
rurasqa
rurasqakuna
rurasqam
rurasqamanta
rurasqan
rurasqankuna
rurasqanmi
rurasqapas
ruray
rurayan
ruraychaqa
ruraykun
ruraykuna
ruraykunku
ruraymi
ruraynin
rurayta
rurec
ruri
rurichinchay
rurin
ruriq
ruriqucha
rurrenabaque
ruru
ruruchina
ruruchinam
ruruchinap
ruruchinapaq
ruruchinapaqmi
ruruchinata
ruruchiq
ruruchiqmi
rurukuna
rurukunam
rurukunamanta
rurukunata
rurum
rurun
rurunkunaqa
rurunkunata
rurunkunatam
rurunqa
rurusapa
ruruyuq
rusa
rusariyu
rusaryu
rusaspata
rusby
rush
rusia
rusiya
rusiyap
rusiyapa
rusiyapi
ruso
russell
russia
russian
rustaveli
rusticana
rusu
rusya
rusyamanta
rusyap
ruta
ruth
rutherford
rutpa
rutuna
rutuy
ruud
ruusa
ruwakun
ruwan
ruwana
ruwanapaq
ruwanku
ruwaq
ruwaran
ruwasqa
ruwasqan
ruway
ruwayan
ruwaykuna
ruwayta
ruwli
ruy
ruya
ruyak
ruysin
ruz
rv
rva
rw
rwanda
ry
ryan
rye
ryu
rzano
s
sa
saale
saarbru
saarland
saavedra
saba
sabah
sabandi
sabatier
sabatini
sabato
sabaya
sabaynu
sabbath
sabe
saber
sabes
sabi
sabina
sabino
sabio
sabogal
sabor
saboya
sabra
sabu
sac
saca
sacanche
sacarosa
sacatepe
saccharum
sacerdote
sach
sacha
sacham
sachas
sachsen
sacra
sacramento
sacre
sacred
sacrificio
sacro
sad
sadat
saddam
saddle
sade
sadegh
sadi
sadio
saenz
saer
safe
safety
safo
saga
sageo
sagittata
sagittifolium
sagra
sagrada
sagrado
sagrados
sagrario
saguinus
sahama
sahara
sahun
sai
said
sailor
saimiri
sainete
saint
sainte
saints
saitama
sajama
saka
sakamoto
sakawa
sakay
sakharusa
sakharyap
sakisili
saksamarka
saksarayuq
saksaywaman
saksaywamanpi
sakura
sal
sala
salada
salado
salah
salam
salama
salamanca
salamandra
salamanka
salango
salar
salas
salasaca
salasaka
salaverry
salazar
salce
salcedo
saldan
sale
saleh
salem
salenko
sales
salesiana
salesiano
salesianos
salgado
salguero
sali
salicifolia
salicifolius
salida
salih
salina
salinas
salisbury
salitral
salitre
salix
salle
sallemanta
sallent
sallika
sallqa
sallqantay
sallqapampa
sallqapi
salluyu
sally
salma
salman
salminus
salmo
salmos
salmukuna
salmun
salo
salome
salomo
salon
salqa
salsa
salsero
salt
salta
saltillo
salto
saltu
salud
salut
salvacio
salvador
salvadorpi
salvaje
salvajes
salvat
salvatierra
salvatore
salve
salvia
salvini
salvo
salwadur
salwadurpa
salzburg
salzburgo
sam
sama
saman
samana
samanez
samaniego
samanku
samanna
samantha
samaq
samara
samay
samaypata
samba
sambafoot
samborondo
sambucus
sambya
same
sami
samincha
samiruka
samirya
samk
samoa
sampa
sampaio
sampaya
samper
sampras
sampson
samson
samuel
samuelpa
samuelson
samugari
samun
samwa
san
sana
sanabria
sanampa
sanampakunam
sanampam
sanampanqa
sanancha
sananchakunayuq
sanancham
sananchan
sananchasqa
sananchasqan
sananho
sananku
sancho
sancta
sancti
sand
sandia
sandino
sandokan
sandoval
sandra
sandrich
sandrini
sandro
sandunga
sandy
sang
sangay
sanger
sangre
sangres
sangriento
sanguinea
sanguineus
sani
sanjeev
sanjine
sank
sanka
sankarara
sankay
sankt
sanku
sankurachi
sankurima
sano
sans
sansa
sanskrit
sant
santa
santakuna
santam
santamari
santana
santander
santaolalla
santare
santay
santee
santi
santiago
santiagu
santiaguen
santiestevan
santillana
santisteban
santiwan
santo
santoral
santos
sants
santu
santuario
santukuna
santurce
santus
santy
santyagu
santyagup
sanu
sanurya
sanxian
sanz
sanzio
sao
sapa
sapachaq
sapajaqi
sapaliri
sapalla
sapallan
sapallu
sapamama
sapan
sapanka
sapaq
sapara
saparu
sapatillan
sapatu
sapay
sape
saphi
saphintam
sapindaceae
sapindus
sapir
sapo
saponaria
saposoa
sapporo
sapsi
sapsilla
sapsiwaki
sapu
sapusuwa
saputika
saqa
saqapa
saqapampa
saqarara
saqawaya
saqina
saqirqan
saqirqaptinmi
saqmanakuy
saqmanakuyuq
saqra
saqru
saqsarayuq
sar
sara
saracha
saraguro
sarah
sarajevo
sarakuro
sarakuru
saramago
sarampio
saramuyu
sarandon
sarapu
sarapuqucha
saraqucha
sarasara
sarashima
saravia
sarawak
sarayacu
sarayaku
sarcopterygii
sarcoramphus
sardegna
sardina
sardou
sargentillo
sargento
sarhua
sarita
sarkozy
sarmiento
sarria
sarrusophone
sars
sartre
saruma
sarumilla
sarwa
sas
sasa
sasachakuy
sasalla
sasawini
saskatchewan
saskatoon
sassari
sassy
sastre
sat
sata
sataqchi
satb
satchmo
sate
satelital
satellite
sati
satiliti
satipu
sativa
sativum
sativus
saturday
satureioides
satureja
saturn
saturnino
saturno
sau
sauce
saud
saul
saun
saunders
saura
sauria
saururus
savage
savalas
save
saved
saviabolivia
savio
savoia
saw
sawa
sawanqaya
sawasiray
sawaya
sawintu
sawkari
sawku
sawsi
sawud
sawyer
sax
saxofo
saxophon
saxophone
say
saya
sayachi
sayakuq
sayami
sayan
sayana
sayapullu
sayaq
sayarisqa
sayarisqanmantapas
sayay
sayers
sayk
saylla
saypina
sayri
sayrikapur
says
sayt
saywa
saywachi
saywakuna
saywan
saywanpi
saywapi
saywiti
saywitu
saywitukuna
saywitun
saywitunkuna
saywitupas
saywtu
sayyid
sb
sbu
sc
scala
scale
scandal
scandens
scar
scara
scarabaeidae
scarabaeinae
scaramouche
scaras
scarlatina
scarlatti
scarlet
scarlett
scarone
sce
scene
sceneggiatura
scha
schalke
schefflera
scheler
schelling
scherzo
schiller
schinopsis
schinus
schio
schistosomiasis
schkuhria
schleswig
schltr
schmeichel
schmidt
schneider
scho
schoenoplectus
scholarships
school
schopenhauer
schott
schreibt
schriften
schriftsteller
schro
schu
schubert
schulze
schumacher
schumann
schwalb
schwartz
schwarzer
schweinf
schweinsteiger
schweitzer
schwerin
sci
scielo
science
sciences
scientiarum
scientific
scientist
scimago
scipione
scirpus
sciureus
sciurus
sclp
sco
scola
scoop
scorsese
scorza
scotia
scotland
scots
scott
scottish
screen
scribd
scribners
script
scrophulariaceae
sculo
sculos
sd
se
sea
seamus
sean
search
seas
season
seat
seaton
seattle
sebastia
sebastian
seberg
sec
seca
secada
seccio
secciones
sechi
sechurae
seco
second
seconds
secos
secoya
secrecio
secret
secreta
secretari
secretaria
secretario
secretary
secreto
secretos
secrets
section
sector
secuestro
secundaria
secundario
secundum
secure
sed
seda
sede
see
seeco
seeler
seen
sega
segall
segment
segno
segovia
segu
seguido
seguir
segunda
segundo
segundos
segura
seguridad
seguro
sehuencas
sei
seidelmann
sein
seine
seis
seix
selaginella
selangor
selassie
seleccio
select
selected
selection
selena
selenium
self
selim
sellers
sello
selma
selva
sem
sema
semana
semanal
semanas
sembilan
semblanza
sembradi
semi
semiconductors
semilla
seminario
semio
semistriatus
sempere
sempre
sen
sena
senado
senador
sencillo
sencillos
send
senda
sendai
senderista
sendero
senderos
senecio
senegal
senghor
senhora
seniculus
senna
seno
sensacio
sensacional
sense
sensualidad
sente
sentencia
sentido
sentidos
sentimental
sentimiento
sentimientos
sentir
sentirme
senza
seo
seoane
seoul
sep
separacio
separate
separe
sepas
sepp
sept
september
septie
septiembre
sepu
sepultura
seq
sequel
ser
sera
serafi
serafina
serapio
serbia
serena
serenade
serenata
sereno
seres
serge
sergeant
sergei
sergio
seri
seria
serie
series
serjania
serma
serna
sernatur
serpentes
serpiente
serra
serrana
serrani
serrano
serranus
serrasalmus
serrat
serta
service
services
servicio
servicios
servindi
ses
session
sessions
sesto
set
sete
seto
setu
seu
seudo
seuil
seul
seven
severa
several
severino
severo
sevilla
sex
sexo
sexta
sexto
sextuberculata
sexual
sexualite
sexy
seymour
sg
sgt
sh
sha
shaanxi
shadow
shadows
shady
shah
shahr
shahrukh
shain
shake
shakespeare
shakira
shallap
shallka
shamayka
shamuq
shan
shandong
shane
shanghai
shannon
shanshu
shanti
shanxi
shapra
shaprarahu
shaqiri
shaqsha
sharanawa
sharla
sharon
sharp
sharpe
shatner
shavelson
shaw
shawanti
shawsha
she
shearer
sheena
sheet
sheffield
sheikh
sheila
shek
shell
shelley
shen
sheng
shenyang
shepard
shepherd
sherff
sheridan
sheriff
sherlock
sherman
sherwood
sheryl
shevardnadze
shevchenko
shi
shield
shiguango
shih
shijiazhuang
shikibu
shikoku
shilla
shilltipu
shimi
shimichaw
shimichu
shimikuna
shimikunata
shimillki
shimin
shimipa
shimipi
shimita
shimiwan
shimiyuk
shimiyukkamu
shimon
shin
shina
shinahuta
shinalla
shinallatak
shinawatra
shine
shining
shinkitu
ship
shipapa
shipibo
shipibu
shipipu
shipiwu
shiraka
shiraki
shiraq
shirley
shishi
shiu
shiw
shiwi
shmuel
sho
shock
shoes
shooting
shop
short
shoshone
shoshoni
shostakovich
shot
shota
should
show
showing
shows
shrewsbury
shriver
shropshire
shu
shucullococha
shui
shuk
shuklla
shukllachishka
shumaq
shunki
shunko
shunku
shunqu
shunqui
shupluy
shuqan
shushufindi
shuti
shutin
shutiyuq
shuwar
shuyturahu
shuyu
si
sia
siamo
sibambe
sibelius
sibil
sic
sica
sicalis
sicas
sicchez
sichuan
sichura
sichus
sicilia
siciliaspa
sickan
sico
sicos
sicuri
sid
sida
side
sidney
sido
sie
siegesbeckia
siegfried
siehe
siembra
siempre
siena
siendo
siento
sierra
sies
siete
sieveking
sifuentes
sig
sigchos
sigismund
siglo
siglos
sigmund
sign
signature
significa
significado
signo
signor
signora
signore
signoret
signos
sigo
sigue
siguiente
siguientes
sihanouk
sihuas
sik
sika
sikas
sikaya
sikchus
siki
sikin
siklla
sikllalla
sikra
sikritayu
siksik
siku
sikundu
sikunduman
sikuri
sikuwani
sikwanka
sikwi
sil
sila
silala
silanche
silanchi
silanda
silandapi
silandaq
silence
silencio
silenciosa
silent
siles
silicon
siliquastrum
silisya
silla
sillapaka
sillapata
sillillika
sillp
sillu
sillustani
sillustanipi
sillwi
silq
siluli
silulusa
siluriformes
silva
silvana
silveira
silver
silvestre
silveyra
silvia
silvina
silvio
silvistri
sima
simana
simanapi
simba
simbabwi
simbad
simeo
simi
simia
simichaw
simichu
simikuna
simikunallapi
simikunallapim
simikunamanta
simikunap
simikunapi
simikunaqa
simikunata
simikunatam
simillapi
simillapim
simillatam
simim
simiman
simimanta
simimantam
simin
siminmanta
siminmi
siminpi
siminta
simintu
simios
simip
simipa
simipaq
simipaqpas
simipas
simipi
simipim
simipipas
simipiqa
simipitaq
simiqa
simiqullqa
simita
simitachu
simitam
simitapas
simitaq
simitaqa
simitaqi
simitas
simiwan
simiyuq
simo
simon
simone
simonelli
simonot
simons
simpi
simple
simplemente
simples
simplificado
simpson
sims
simun
sin
sina
sinaloa
sinaqara
sinatra
since
sincelejo
sinchi
sinchichu
sinchita
sinchiyasqa
sinchulawa
sinclair
sind
sindicato
sindikatu
sinensis
sinfo
sinfoni
sinfonieorchester
sing
singapore
singapur
singer
singh
singing
single
singles
sings
singular
sinhala
sinigal
sinik
sinipa
sinkan
sinkiyan
sinkrinaqucha
sinku
sino
sinqa
sinri
sinru
sinruchasqa
sins
sinta
sintapi
sinti
sintimitru
sintinu
sintiru
sintomas
sintomasqa
sintuq
sinu
sinvergu
sio
sion
sioux
sip
sipa
siparaya
siparuna
sipas
sipawa
sipe
sipi
sipikuy
sipiq
sipirqan
sipirqanku
sipisqa
sipita
sipiy
sipris
sipu
sipulturas
sipuru
siq
siqana
siqueiros
sir
sira
siracusa
sirarta
sirbya
sirbyapa
sire
sirena
sirenas
siria
sirinka
siriono
siriq
siris
sirisa
siriwani
siriy
sirk
sirka
sirleaf
sirp
siruela
sirve
sirwila
sirwisa
sirya
siryi
siryono
sis
sisa
sisal
sisayuqkuna
sisi
sisimikhuq
sispa
sistema
sistemas
sister
sisters
sisyrinchium
sit
sitaqucha
site
sitel
sites
siti
sitimri
sitimripi
sitio
sitios
sito
sitqa
situacio
situacionaguax
situation
situwa
sitwa
siul
siwar
siwara
siwas
siwastyan
siwi
siwikuna
siwikunap
siwilchasqa
siwilla
siwin
siwina
siwinaqucha
siwinaquchan
siwis
siwk
siwla
siwlaqucha
six
sixto
siyantpitsu
siyu
siyul
size
sj
sk
ska
skay
skazka
sketch
sketches
ski
skie
skin
skopje
sky
sl
slade
slave
slavey
sleep
sleeping
slenska
slobodan
sloterdijk
slovenia
slow
sm
small
smallanthus
smile
smiles
smith
smithsonian
smo
smoke
sn
snake
sneijder
snow
snowy
so
soares
soberano
sobralia
sobre
sobrino
soc
soccer
sochi
social
sociales
socialism
socialismo
socialista
socie
sociedad
sociedade
sociedades
societatis
societies
society
socio
sociodemogra
sociologi
socorro
soda
soddy
sofi
sofia
sofiya
sofo
software
soga
sogno
soil
soir
sokratis
sol
sola
solamente
solanaceae
solanas
solano
solanum
solar
solares
solari
solda
soldado
soldados
soldier
soldiers
sole
soledad
soledades
soleil
soler
soli
solid
solidaridad
solids
solier
solis
solista
solitario
solo
sologuren
solola
solomon
solos
soloza
soltera
soltero
soltsy
solucio
solution
som
somare
sombra
sombras
sombrero
some
somebody
someone
somerset
something
sometimes
sommer
sommerfeld
somniferum
somos
somoza
son
sonata
sonatas
sonate
sonates
sonchoides
sonchus
sonene
soneto
sonetos
song
songbook
songo
songs
songwriter
sonia
sonido
sonnet
sonnets
sonny
sono
sonora
sonqo
sonrisa
sons
sonsonate
sont
sony
soo
soon
soong
sopa
sophia
sophie
sophiya
sophoniyaspa
sopli
sopra
soprano
sopron
sor
soras
soraya
sordi
sorel
soria
soriano
sorpresas
sorry
sorubim
sorvino
sos
sosa
sospecha
sostenible
sotalia
sotelo
sotil
soto
sotomayor
sotto
sou
soukup
soul
sound
soundtrack
sour
source
sources
sous
sousa
south
southampton
southern
southey
souvenir
souvenirs
souza
sovie
sowerby
soy
soyapango
sozoranga
sp
spa
spaak
space
spain
spanish
spartacus
spartium
sparverius
spassky
spd
spe
speak
speakers
speaking
special
specialist
species
specified
specimen
specularioides
specularoides
sped
spedes
speech
speeches
speed
speluci
spence
spencer
speothos
sperling
spero
spheniscus
spi
spicata
spicatum
spider
spiegel
spielberg
spike
spinetta
spinosa
spinosissima
spinosum
spinosus
spinoza
spirit
spirits
spiritual
spitz
splendor
split
sport
sporting
sports
spp
sprache
spring
springer
springett
springfield
springs
springsteen
spuru
spy
sq
sqrt
square
squeda
squez
sr
sre
sri
srna
ss
ssatou
ssc
sseldorf
ssimo
ssp
st
sta
staatliche
stability
stack
stadium
stadt
staff
stafford
staffordshire
stage
stages
stahl
stalin
stallone
stame
stamford
stamitz
stan
stand
standard
standards
standl
stanford
stanisław
stankovic
stanley
stapleton
star
stardust
starkey
starr
stars
start
started
starting
state
states
station
statistics
stats
status
stay
staying
ste
steatornis
steel
stefan
stefano
steffi
stegui
stein
steinbachii
stella
steno
step
stephan
stephanie
stephen
stephenson
steps
ster
stereo
sterling
stern
sterna
sterreich
steve
steven
stevens
stevenson
stevia
stevie
stewart
sti
stica
sticas
stico
sticos
still
stina
stipa
stipularis
stjepan
stock
stockholm
stockton
stoke
stokkermans
stol
stola
stoles
stoltenberg
stone
stones
stop
stor
storia
stories
storm
storni
story
stotz
stra
strada
stradivarius
straight
straits
strange
stranger
strangers
strasbourg
strauss
stravinski
stream
streep
street
streets
streicher
streisand
streptococcal
strike
strindberg
string
strings
structural
structure
structures
struthio
stuart
stub
student
students
studien
studies
studio
study
stuma
stumamente
stumo
sturges
stuttgart
style
su
sua
suarez
suave
suaveolens
sub
subcampeo
subcampeona
subclassis
subcuenca
subdivision
sube
subfamilia
subject
subkampiun
sublime
subordo
subscribe
subsp
suc
success
successi
sucedio
sucesio
such
suchi
suchu
suchuq
suchuqkuna
sucre
sud
suda
sudame
sudamericana
sudamericano
sudan
suddenly
sue
suecia
sueco
suelo
suen
suena
suero
suerococha
suerte
suez
suffruticosa
sufijo
sufijos
sugar
suguimitzu
suharto
sui
suicide
suicidio
suite
suites
suiza
sujeto
suk
suka
sukcha
suksu
sukumpiyu
sukuwa
sul
sula
sulca
suleiman
sulimana
sulis
sulla
sullana
sullavan
sullivan
sullk
sullka
sullkun
sullu
sulluchiy
sulluku
sulluy
sully
sulta
sultan
sultiruqucha
sulty
suluqu
sum
suma
sumac
sumachay
sumaco
sumak
sumaku
sumali
sumalya
sumaq
sumaqta
sumar
sumire
summa
summary
summer
summers
summit
summitpost
sumpawa
sun
sunata
sunch
sunchi
sunchu
sunchupampa
sunda
sunday
sung
suni
sunil
sunim
sunin
suniqira
suniwillay
sunkaru
sunkha
sunku
sunny
sunqu
sunquman
sunqumanta
sunqup
sunset
sunshine
sunsu
sunt
suntu
suntukunam
suntum
suntuntu
suntuqa
suntur
sunturkuna
sunturmi
sunturnin
sunturninkuna
sunturninpi
sunturninpim
sunturnintaqa
sunturpa
sunturpi
sunturpim
sunturqa
suomi
suona
suosikkia
supa
supachuy
supay
supaypa
supe
super
superciliaris
supercopa
superfamilia
superfamily
superficie
superior
superkupa
superman
superordo
superstar
suphu
suphucha
suphusapa
suphuyuq
supi
suplemento
suppl
support
suprema
supremo
suq
suqawaya
suqta
suqtantin
suqtawask
suqtayuq
suqus
sur
sura
surakachi
suras
surat
surata
surco
surcos
suren
surface
suri
suriki
surimana
surinam
surit
suriwiri
surku
surkupampa
surname
surq
surquillo
surrender
surrey
suru
surutu
survey
survival
sus
susan
susana
susanne
susapaya
suskal
suspiros
sussex
sustantivo
susudel
susupi
susyaldimukrata
susyalismu
susyalismuman
susyalista
sut
sutaq
sutherland
suti
sutichaninchaq
suticharqa
suticharqan
suticharqanku
sutichasqa
sutichasqam
sutichay
sutiiyuq
sutikuna
sutikunatam
sutim
sutiman
sutin
sutinchasqa
sutinchu
sutinkuna
sutinkunata
sutinkunawan
sutinmi
sutinpi
sutinqa
sutinta
sutintam
sutip
sutipaq
sutiqa
sutiqpa
sutirimana
sutirimanap
sutisuyu
sutita
sutiwan
sutiyki
sutiyup
sutiyuq
sutiyuqmanta
sutiyuqmantam
sutiyuqmi
sutiyuqpa
sutiyuqqa
sutiyuqsi
sutiyuqta
sutiyuqwan
sutru
sutuma
suu
suwa
suwaq
suwasi
suway
suwidsuyu
suwidsuyupa
suwidsuyuyuq
suwisa
suwisapi
suwit
suya
suyk
suyos
suyruqucha
suysa
suysuspa
suysya
suyt
suytukancha
suytuqucha
suyu
suyukuna
suyukunam
suyukunaman
suyukunamanta
suyukunap
suyukunapa
suyukunapas
suyukunapi
suyukunapim
suyukunapipas
suyukunata
suyukunawan
suyukunayuq
suyullapi
suyum
suyuman
suyumanta
suyun
suyunin
suyunkunapi
suyunmi
suyunpa
suyunpi
suyunsi
suyuntu
suyup
suyupa
suyupaq
suyupas
suyupi
suyupim
suyupipas
suyupiqa
suyupis
suyupitaq
suyuq
suyuqa
suyus
suyuta
suyuwan
suyuyuq
suzanne
suzy
sv
sven
svenska
svensson
svg
svn
sw
swahili
swamp
swan
swann
swanson
swartz
swasisuyu
swayne
swayze
swedish
sweet
swietenia
swing
swings
sword
swords
sy
sydney
sydow
sylva
sylvanus
sylvester
sylvia
sylvilagus
symphonic
symphonie
symphoniker
symphony
symptoms
syn
syntax
synthesis
syracuse
syst
syste
system
systema
systematic
systems
sz
sze
szlo
szyszlo
t
ta
tabaco
tabaconas
tabasco
tabebuia
tabernaemontana
tabla
tablas
table
tables
taborga
tac
taca
tacana
tacna
tacoma
tacopaya
tacuabe
tacuarembo
taday
tadeo
tae
taenia
taffarel
tafur
tagalog
tagetes
tagle
tagore
tahiti
tai
taipe
taipei
taisha
tait
taiwan
taj
tajacu
tajo
tak
taka
takachi
takakuma
takana
takanakuy
takaq
takarpu
takaspa
take
taken
takes
taki
takich
takichaq
takichaqmi
takichaqmipas
takichaqpas
takichaqsi
takikuna
takikunam
takikunap
takikunata
takikunatam
takim
takin
takina
taking
takinku
takinkuna
takinmi
takipayanaku
takiq
takiqkuna
takiqmi
takiqsi
takirqan
takispa
takisqa
takita
takiy
takiyta
taklla
taksa
taksha
takupaya
takyasqa
tal
tala
talara
talavera
talawira
talbot
tale
tales
talk
talledo
taller
talleres
tallinn
talmadge
tam
tama
taman
tamandua
tamara
tamariz
tamarugal
tamaulipas
tamayo
tambie
tambo
tambopata
tambor
tambora
tamil
taming
tampere
tampico
tampillu
tampu
tampumach
tampumachay
tampupampa
tampupata
tampurqu
tamrayku
tamya
tamyay
tan
tanacetum
tandil
tang
tange
tango
tangos
tani
tania
tanka
tankayllu
tanla
tanner
tanqan
tanqana
tansanya
tansanyapa
tant
tanta
tantamayu
tantanakuy
tantanakuykuna
tantanakuykunap
tantanakuymi
tantanakuynin
tantanakuyninkunap
tantanakuyninmi
tantanakuypa
tantanakuypi
tantanakuypim
tantanakuyqa
tantanakuyta
tantanakuytam
tantara
tantari
tantasqa
tantasqap
tanto
tantos
tao
tapakilcha
tapaqari
tapaqucha
tapara
tapia
tapichi
tapiete
tapiridae
tapirus
tapukuq
tapuna
tapuq
tapusqa
tapuy
tapuypi
tapyamach
taq
taqe
taqi
taqna
taqsa
taquile
tar
tara
taram
tarapaca
tarapacana
tarapaka
tarapi
tarapuku
taraputu
taraqchi
taraqu
tarata
tarawmara
taraxacoides
taraxacum
taray
tarci
tarcila
tarde
tardi
tarea
target
taricaya
tarija
tarika
tarikaya
tarikiya
tariksa
tarikun
tarikuq
tarikurqa
tarinchik
tarinki
taripakuq
taripakuqkunap
taripakuy
taripana
taripanapaq
taripasqa
taripay
tariqui
tarirqan
tarja
tarjeta
tarki
tarku
tarma
taro
tarpuq
tarpuy
tarqu
tarqui
tarragona
tarso
taruka
tarukachi
tarukam
tarush
tarushkancha
tarwi
tarza
tarzan
task
tat
tata
tatasi
tate
tatjana
tatki
taunton
taupo
tauris
tauro
taurog
taurus
tavares
tawa
tawak
tawakuntu
tawam
tawamanu
tawan
tawantin
tawantinmi
tawantinsuyu
tawantinsuyuman
tawantinsuyup
tawantinsuyupi
tawantinsuyuta
tawawan
tawayuq
tawka
tawllirahu
tawna
tawqa
tawri
taxi
taxon
taxonomic
taxonomy
tay
taya
tayapampa
tayaqaqa
tayassu
tayhan
tayik
tayiksuyu
tayinu
tayka
taylandya
taylor
taypi
tayta
taytacha
taytakura
taytakuram
taytan
taytanchispa
taytanmi
taytanpa
taytanqa
taytansi
taytanwan
taytay
taytayuq
tayu
taywan
tbilisi
tbol
tc
tchaikovsky
tdps
te
tea
teachers
tealdo
team
teams
[...]
