!
"
#
##0
##1
##10
##11
##12
##13
##14
##15
##16
##17
##18
##19
##2
##20
##21
##22
##23
##24
##25
##26
##27
##28
##29
##3
##30
##31
##32
##33
##34
##35
##36
##37
##38
##39
##4
##40
##41
##42
##43
##44
##45
##46
##47
##48
##49
##5
##50
##51
##52
##53
##54
##55
##56
##57
##58
##59
##6
##60
##61
##62
##63
##64
##65
##66
##67
##68
##69
##7
##70
##71
##72
##73
##74
##75
##76
##77
##78
##79
##8
##80
##81
##82
##83
##84
##85
##86
##87
##88
##89
##9
##90
##91
##92
##93
##94
##95
##96
##97
##98
##99
$
%
&
'
(
)
*
+
,
-
.
/
0
00
000
001
002
003
004
005
006
007
008
009
01
010
011
012
013
014
015
016
017
018
019
02
020
021
022
023
024
025
026
027
028
029
03
030
032
033
034
035
036
037
038
039
04
040
041
042
043
044
045
046
047
048
049
05
050
051
052
053
054
055
056
057
058
059
06
060
061
062
063
064
065
066
067
068
069
07
070
071
072
073
074
075
076
078
079
08
080
081
082
084
085
086
087
088
089
09
090
091
092
093
094
095
096
097
098
099
1
10
100
1000
10000
1000000
1001
1005
1006
1007
1008
1009
101
1011
1012
1013
1014
1016
1019
102
1020
1021
1024
1025
1027
1028
1029
103
1030
1032
1033
1036
1039
104
1041
1042
1045
1049
105
1050
106
1060
1061
107
1072
108
109
11
110
1100
1101
111
112
1120
1121
1125
113
1130
1131
114
1140
115
1150
116
117
1170
118
119
1190
12
120
1200
1207
121
1210
122
123
1230
123456789
124
1246
125
1250
126
127
128
1280
129
1290
13
130
1300
131
1310
132
1320
133
1330
1336
1339
134
1341
1346
135
1350
1356
136
137
1370
1371
1374
138
1380
139
14
140
1400
141
1410
142
143
1430
1435
1438
144
145
1450
146
1460
1468
147
1470
1471
1475
148
1480
149
1490
1492
1493
1498
1499
15
150
1500
1501
1502
1503
1504
1505
1506
1507
1508
1509
151
1510
1511
1512
1513
1514
1515
1516
1517
1518
1519
152
1520
1521
1524
1525
1526
1527
153
1530
1531
1532
1533
1534
1535
1536
1539
154
1540
1541
1542
1543
1544
1546
1548
1549
155
1550
1551
1552
1553
1556
156
1560
1561
1562
1563
1564
1568
157
1570
1571
1572
1573
1576
158
1580
1581
1582
1583
1585
1586
1587
1589
159
1590
1591
1595
1596
1598
1599
16
160
1600
1602
1604
1605
1606
1607
1608
1609
161
1610
1611
1612
1613
1614
1615
1616
1617
1619
162
1620
1621
1622
1623
1624
1626
1627
1628
1629
163
1630
1631
1632
1633
1634
1635
1636
1637
1638
1639
164
1640
1641
1642
1643
1644
1645
1648
1649
165
1650
1651
1652
1653
1655
1656
1657
1659
166
1660
1661
1662
1663
1664
1667
1668
1669
167
1670
1671
1672
1673
1674
1675
1676
1677
1678
1679
168
1680
1681
1682
1685
1686
1687
1689
169
1690
1691
1698
1699
17
170
1700
1701
1707
171
1710
1711
1714
1715
1718
1719
172
1720
1722
1724
1726
1727
1728
1729
173
1730
1731
1732
1733
1734
1735
1736
1737
1738
174
1740
1741
1742
1743
1744
1745
1746
1747
1748
1749
175
1750
1751
1753
1754
1755
1756
1757
1758
1759
176
1760
1761
1762
1763
1764
1765
1766
1767
1768
1769
177
1770
1771
1772
1773
1774
1775
1776
1777
1778
1779
178
1780
1781
1782
1783
1784
1785
1786
1787
1788
1789
179
1790
1791
1792
1793
1794
1795
1796
1797
1798
1799
18
180
1800
1801
1802
1803
1804
1805
1806
1807
1808
1809
181
1810
1811
1812
1813
1814
1815
1816
1817
1818
1819
182
1820
1821
1822
1823
1824
1825
1826
1827
1828
1829
183
1830
1831
1832
1833
1834
1835
1836
1837
1838
1839
184
1840
1841
1842
1843
1844
1845
1846
1847
1848
1849
185
1850
1851
1852
1853
1854
1855
1856
1857
1858
1859
186
1860
1861
1862
1863
1864
1865
1866
1867
1868
1869
187
1870
1871
1872
1873
1874
1875
1876
1877
1878
1879
188
1880
1881
1882
1883
1884
1885
1886
1887
1888
1889
189
1890
1891
1892
1893
1894
1895
1896
1897
1898
1899
19
190
1900
1901
1902
1903
1904
1905
1906
1907
1908
1909
191
1910
1911
1912
1913
1914
1915
1916
1917
1918
1919
192
1920
1921
1922
1923
1924
1925
1926
1927
1928
1929
193
1930
1931
1932
1933
1934
1935
1936
1937
1938
1939
194
1940
1941
1942
1943
1944
1945
1946
1947
1948
1949
195
1950
1951
1952
1953
1954
1955
1956
1957
1958
1959
196
1960
1961
1962
1963
1964
1965
1966
1967
1968
1969
197
1970
1971
1972
1973
1974
1975
1976
1977
1978
1979
198
1980
1981
1982
1983
1984
1985
1986
1987
1988
1989
199
1990
1991
1992
1993
1994
1995
1996
1997
1998
1999
2
20
200
2000
2001
2002
2003
2004
2005
2006
2007
2008
2009
201
2010
2011
2012
2013
2014
2015
2016
2017
2018
2019
202
2020
2021
2022
2024
2026
203
2034
204
205
206
207
208
209
21
210
2100
211
212
213
214
215
216
217
218
219
22
220
221
222
223
224
225
226
227
228
229
23
230
231
232
233
234
235
236
237
238
239
24
240
241
242
243
244
245
246
247
248
249
25
250
2500
251
252
253
254
255
256
257
258
259
26
260
261
262
263
264
265
266
267
268
269
27
270
271
272
273
274
275
276
277
278
279
28
280
281
282
283
284
285
286
287
288
289
29
290
291
292
293
294
295
296
297
298
299
3
30
300
3000
301
302
303
304
305
306
307
308
309
31
310
311
312
313
314
315
316
317
318
319
32
320
321
322
323
324
325
326
327
328
329
33
330
331
332
333
334
335
336
337
338
339
34
340
341
342
343
344
345
346
347
348
349
35
350
3500
351
352
353
354
355
356
357
358
359
36
360
3600
361
362
363
364
365
366
367
368
369
37
370
371
372
373
374
375
376
377
378
379
38
380
381
382
383
384
385
386
387
388
389
39
390
391
392
393
394
395
396
397
398
399
4
40
400
4000
401
402
403
404
405
4050
406
407
408
409
41
410
411
412
413
414
415
416
417
418
419
42
420
421
422
423
424
425
426
427
428
429
43
430
431
432
433
434
435
436
437
438
439
44
440
441
442
443
444
445
446
447
448
449
45
450
451
452
453
454
455
456
457
458
459
46
460
461
462
463
464
465
466
467
468
469
47
470
471
472
473
474
475
476
477
478
479
48
480
481
482
483
484
485
486
487
488
489
49
490
491
492
493
494
495
496
497
498
499
5
50
500
5000
501
502
503
504
505
506
507
508
509
51
510
511
512
513
514
515
516
517
518
519
52
520
521
522
523
524
525
526
527
528
529
53
530
531
532
533
534
535
536
537
538
539
54
540
541
542
543
544
545
546
547
548
549
55
550
551
552
553
554
555
556
557
558
559
56
560
561
562
563
564
565
566
567
568
569
57
570
571
572
573
574
575
576
577
578
579
58
580
581
582
583
584
585
586
587
588
589
59
590
591
592
593
594
595
596
597
598
599
6
60
600
601
602
603
604
605
606
607
608
609
61
610
611
612
613
614
615
616
617
618
619
62
620
621
622
623
624
625
6251
626
627
628
629
6290
63
630
631
632
633
634
635
636
637
638
639
64
640
641
642
643
644
645
646
647
648
649
65
650
651
652
653
654
655
656
657
658
659
66
660
661
663
664
665
666
667
668
669
67
670
671
672
673
674
675
676
677
678
679
68
680
681
682
683
684
685
686
687
688
689
69
690
691
692
693
694
695
696
697
698
699
7
70
700
701
702
703
704
705
706
707
708
709
71
710
711
712
713
714
715
716
717
718
719
72
720
721
722
723
724
725
726
727
728
729
73
730
731
732
733
734
735
736
737
738
739
74
740
741
742
743
744
745
746
747
748
749
75
750
751
752
753
754
755
756
757
758
759
76
760
761
762
763
764
765
766
767
768
769
77
770
771
772
773
774
775
776
777
778
779
78
780
781
782
783
784
785
786
787
788
789
79
790
791
792
793
794
795
796
797
798
799
8
80
800
801
802
803
804
805
806
807
808
809
81
810
811
812
813
814
815
816
8164
817
818
8180
819
82
820
821
822
823
824
825
826
827
828
829
83
830
831
832
833
834
835
836
837
838
839
84
840
841
842
843
844
845
846
847
848
849
85
850
851
852
853
854
855
856
857
858
859
86
860
861
862
863
864
865
867
868
869
87
870
871
872
873
874
875
876
877
878
879
88
880
881
882
883
884
885
886
887
888
889
89
890
891
892
893
894
89452
895
896
897
898
899
9
90
900
901
901787
902
903
904
905
906
907
908
909
91
910
911
912
913
914
915
916
917
918
919
92
920
921
922
923
924
925
926
927
928
929
93
930
931
932
933
935
936
937
938
939
94
940
941
942
943
944
945
947
948
949
95
950
951
952
953
954
955
956
957
958
959
96
960
961
962
963
964
965
966
967
968
969
97
970
971
972
973
974
975
976
977
978
979
98
980
981
982
983
984
985
986
987
988
989
99
990
991
992
993
994
995
996
997
9972
998
999
:
;
<
=
>
?
@
\
^
_
`
a
aa
aaaa
aachen
aamir
aaro
aaron
ab
ababa
abad
abadi
abajo
abambo
abanto
abarca
abaroa
abba
abbe
abbey
abbott
abbr
abc
abd
abdala
abdel
abdo
abdul
abdullah
abe
abeillei
abel
abelardo
aberdeen
abierto
abimael
abiseo
abogado
aborigen
aboriginal
about
above
abr
abra
abraham
abre
abreu
abrev
abril
abs
absence
absolutetime
abu
abuela
abuelo
abuelos
abugattas
abuna
abya
ac
aca
acacia
acade
academia
academy
acaena
acapulco
acaso
acasuzo
acaulis
acceso
access
accessdate
accidente
accio
accion
ace
acerca
acero
aces
acetosa
acetosella
acevedo
aceves
acf
acha
achachilla
achakuna
achakunata
achala
achalawan
achallina
acham
achamanta
achampa
achani
achaqullu
achata
achay
achi
achikay
achikyay
achille
achin
achinchik
achinku
achiq
achirqan
achisqa
achisqan
achiwa
achka
achkam
achkan
achkata
achkha
achkiq
achkiy
achkiypa
achkiyqa
achkiyta
achu
achuar
achuma
achuni
achupalla
achupallas
achuqalla
achyrocline
aco
acobamba
acompan
acordeo
acosta
acre
acreditada
across
act
acta
acte
action
actitis
actividad
acto
actor
actores
actos
actriz
actuacio
actual
actualidad
actualidades
actuando
acu
acuerdo
acuminata
acun
acutifolia
ad
ada
adam
adams
adaptacio
adas
add
addclass
added
addis
additional
ade
adela
adelaida
adelaide
adema
ademiller
adentro
adio
adios
adis
adj
adjetivo
administrative
administrativo
adn
ado
adolescente
adolf
adolfo
ador
adora
adoracio
adresse
adria
adrian
adriana
adriano
adulta
adventure
adventures
advisory
ae
aek
aerial
aeropuerto
aesculus
af
afc
aff
affair
affairs
affichage
affiche
afficher
afgansuyu
afghanistan
afirma
afonso
aforismos
africa
african
africana
afrika
afrikapi
afrikapipas
afrique
afro
after
afternoon
afuera
ag
aga
again
against
agaricus
agassi
agatha
agave
age
agencia
agency
agent
agente
agentes
aglaeactis
agnes
agnococha
ago
agoni
agosto
agouti
agradecido
agraria
agrario
agri
agricultura
agriornis
agro
agrostis
agrupamiento
agu
agua
aguabolivia
aguada
aguaruna
aguas
aguascalientes
aguda
aguila
aguilar
aguile
aguilera
aguirre
aguja
agujetas
agusti
agustin
agustina
agustino
ah
aha
aherrera
ahi
ahina
ahinapas
ahinataq
ahmad
ahmed
ahora
ahorcado
ahtisaari
ahui
ahus
ai
aidesep
ailleurs
aimara
aime
aimerais
ain
air
airdate
aire
aires
airport
airumuqu
ais
aise
aix
aixin
aj
aja
ajacopa
ajax
ajedrez
ajeno
aji
ajo
ajout
ajoute
ak
aka
akakllu
akal
akara
akaray
akata
akatanqa
akawra
akay
akcha
akchiq
ake
akhana
aki
akikuna
akikunap
akikunapas
akilla
akillpu
akincha
akira
akisqa
akiy
aklla
akllanakuspa
akllanakuy
akllanakuykunapi
akllanakuykunapim
akllanakuypi
akllanasqa
akllaspa
akllasqa
akllasqam
akllay
akllayhun
akllaykunamanta
akllu
akodon
akray
aksana
aktinyu
aku
akun
akuna
akunam
akunamanta
akunap
akunapaq
akunapas
akunapi
akunaqa
akunata
akunatam
akunawan
akunman
akuq
akuspa
akusqan
akuy
akuynin
akuyta
akwa
akya
al
ala
alabama
alagoas
alain
alajuela
alalay
alameda
alamo
alan
alarco
alargada
alas
alaska
alata
alawsi
alaza
alba
albacete
alban
albany
albanya
alberdi
albert
alberta
alberti
alberto
albicollis
albifrons
albino
albipennis
albiventris
albo
albogularis
alborada
albrecht
albu
albufera
album
albumkuna
albums
albus
alca
alcala
alcalde
alcaldi
alcance
alcedo
alchemilla
alci
alcide
alcides
alco
alda
aldea
aldo
aldrich
ale
alegre
alegri
aleixandre
alejandra
alejandri
alejandro
alejo
aleksandr
aleluya
alema
aleman
alemana
alemania
alemanya
alembert
alencar
alencastre
aleph
aleppo
alerta
ales
alessandra
alessandria
alessandro
aleut
alex
alexander
alexandra
alexandre
alexandria
alexis
alfa
alfaguara
alfaro
alfonsi
alfonsina
alfonso
alfred
alfredo
algarrobo
alge
algo
algodo
algonkin
alguien
alguna
algunas
algunos
alhirya
ali
aliaga
alianza
alias
alicante
alice
alicia
alida
alien
alighieri
align
alignment
aliman
alimanya
alimanyap
alimanyapa
alimanyapi
alimanyayuq
alimpuchi
alipio
alis
alison
alive
alkachupha
alkali
alkul
all
alla
allaapa
allampa
allampakuna
allampakunam
allampakunamanmi
allampam
allampap
allan
allapa
allapata
allawka
alle
allegro
allemagne
allemand
allen
allende
alli
allichanapaq
allichasqa
allichay
allillamanta
allin
allinchasqa
allinchay
allinchu
allinlla
allinmi
allinqhapaq
allinta
alliodora
allish
allison
allium
allma
allmakunapi
allpa
allpam
allpaman
allpamanta
allpamayu
allpankunata
allpap
allpapi
allpapiqa
allpapura
allpaqiru
allpata
allpawayu
allpayuq
allpoints
allqa
allqaluma
allqamari
allqamarinayuq
allqamayu
allqu
allqupa
allquwan
allquy
allta
allthemountains
allvar
allwi
allwirha
allwiya
allwya
alma
almada
almagro
almas
almaza
almeida
almeri
almirante
almiro
almost
alnus
alo
alomi
alondra
alone
along
alonso
alonsoa
alouatta
aloysia
aloza
alpaca
alpamayo
alpes
alpha
alphabet
alphonse
alpikuna
alpine
alqa
alqamari
alqamarinayuq
already
alrededor
als
alsace
also
alstroemeria
alt
alta
altamira
altamirano
altar
altas
altay
altazor
alte
altea
alternativa
alternativo
alteza
altiplano
altitud
altman
alto
altos
altre
altri
altu
altura
aluta
alva
alvarado
alvaradop
alvarez
alvaro
alvear
alves
alvi
alvin
always
am
ama
amabile
amable
amacha
amachana
amachanapaq
amachaq
amachaqkuna
amachaqmi
amachasqa
amachasqam
amachay
amada
amadeo
amadeus
amado
amador
amaguan
amakari
amalia
aman
amanaku
amancio
amanda
amando
amanecer
amanqay
amanta
amantani
amante
amantes
amapola
amapula
amar
amarakaeri
amaranthus
amare
amargo
amarilda
amarilla
amarillo
amarka
amaro
amarte
amaru
amarumayu
amaryllidaceae
amasisa
amat
amati
amaurospiza
amauta
amawaka
amawta
amay
amaya
amazilia
amazo
amazon
amazona
amazonas
amazoni
amazonia
amazonian
amazonica
amb
ambato
ambicio
ambiciosos
ambiental
ambiente
amboro
ambos
ambrosio
ambrosioides
amburana
ame
amedeo
ameghino
amelia
amen
america
american
americana
americano
americanos
americanus
americas
americo
amerindia
ames
ami
amico
amiga
amigas
amigo
amigos
amilcar
aminata
amir
amirika
amirikanu
amistad
amkiria
amleto
amman
amo
among
amor
amore
amores
amori
amorosa
amos
amount
amour
ampa
amparo
ampatu
ampay
ampelion
ampeloprasum
ampliada
amplio
ampu
amsterdam
amu
amuesha
amundaray
amusco
amy
an
ana
anadenanthera
anafilaxia
anagrama
anairetes
anakuna
anales
analge
anali
analyse
analysis
anam
anaman
anamanta
anamarka
anamebi
ananea
ananiya
ananmi
ananpaq
ananpi
ananta
anapaq
anapi
anas
anastasia
anastasio
anata
anatidae
anatole
anaya
anayuq
ancash
ancashino
ancha
anchana
anchaq
anchar
anchata
anchatam
anche
anchieta
anchik
ancho
anchor
anchurapa
ancien
ancient
anco
and
anda
andahuaylas
andaluci
andalusiya
andaluz
andamarca
andarperuano
ande
andean
andere
anders
anderson
andersson
andes
andicola
andina
andinas
andino
andinos
andinum
andinus
ando
andorra
andra
andrade
andre
andrea
andreas
andrei
andres
andreu
andrew
andrews
andris
andriy
andurra
anduwa
andy
anexo
ang
angamos
ange
angel
angela
angeles
angelina
angelitos
angelo
angelos
angels
angelus
angie
anglais
angle
angleterre
anglo
angola
angolo
angostura
angula
angulo
angus
angustia
angustifolia
angustifolium
anhalt
anhinga
anhui
ani
anibal
aniceto
anie
anillos
anima
animal
animales
animals
animas
anime
anis
anisognathus
anita
aniversario
anka
ankalli
ankallikurqan
ankallis
ankamarka
ankar
ankara
ankash
ankichiy
anku
ankucha
ankuna
ankunap
ankunapi
ankunata
anman
anmi
ann
anna
annan
annapolis
anne
annee
annette
anni
annie
anniversary
anno
annona
annosinsigno
annual
annuum
ano
anos
another
anouilh
anpa
anpe
anpi
anqa
anqap
anqapi
anqapiqa
anqara
anqas
anqash
anqasqucha
anqayuq
anra
ans
ansa
ansaltu
anselmo
ansu
ant
anta
antacha
antachayri
antakilla
antakuru
antakuyu
antam
antamarka
antamayu
antan
antanka
antankallu
antapampa
antaquta
antara
antarapa
antaray
antartika
antasqa
antata
antawa
antawaylla
antawayllacha
antay
ante
antenor
antequera
anteriormente
antes
anthology
anthony
anthurium
anti
antibio
antigua
antiguas
antiguo
antiki
antikuna
antikunan
antikunap
antikunapi
antikunapiqa
antilles
antiman
antimanta
antinpi
antioquen
antioquia
antisana
antisensis
antisuyu
antiukiya
anto
antofagasta
antoine
antoinette
antologi
antologia
antoloxi
anton
antoni
antonia
antonieta
antonio
antonioante
antonioni
antony
antorcha
antropologi
antu
antun
antunyu
anu
anwan
any
anything
anza
ao
aotus
aou
ap
apa
apachana
apache
apachi
apachita
apamusqa
apamusqam
apamusqan
apan
apana
apanku
apanqara
apaq
apar
aparato
aparece
aparecida
apari
aparicio
apariciones
aparniyuq
aparte
apas
apasanka
apasqa
apata
apaykachana
apaykachanam
apaza
ape
apella
apellido
aperea
apertura
aphi
aphrika
aphrikapi
aphrodite
aphru
aphylla
api
apiaguaki
apiqa
apium
aplaw
apo
apocalipsis
apocynaceae
apokriphu
apollo
apolo
apologe
apologi
apologie
apolonia
app
appas
appert
apra
apre
aprender
aprendiendo
april
aprista
aproximaciones
apu
apuesta
apukuna
apulliq
apulu
apulupampa
apun
apunchis
apunqu
apuntes
apure
apuri
apurimaq
apuros
apustul
apustulu
apuwasinyuq
apuy
apuyaya
apuyayapa
aq
aqa
aqanisuyu
aqch
aqcha
aqha
aqhi
aqi
aqkuna
aqkunam
aqkunap
aqkunaqa
aqkunatam
aqman
aqmi
aqnin
aqninkuna
aqninkunaqa
aqninmi
aqniyuq
aqpa
aqri
aqu
aqucha
aquel
aquella
aquellos
aqui
aquila
aquiles
aquino
aqullu
aqumarka
aqumayu
aqun
aqunqhawaq
aqupampa
aqupampilla
aqupanpa
aqupiya
aqus
aquta
aqutanku
aqway
aqwina
aqyawiri
ar
ara
arab
arabe
arabela
arabia
arabya
arachiq
arachupa
arachupam
arago
aragon
aragua
aragun
arahuacano
arajuno
aramayo
aramburu
aramides
arampampa
aramu
aran
arana
arancibia
aranda
arango
arani
aranwa
aranway
aranwaykuna
aranwaypi
araona
arapa
araqullu
arara
araral
ararauna
arata
aratinga
arau
arauca
araucani
araucaria
araujo
aravaca
arawak
arawakano
arawi
arawikuna
arawkaniya
arbieto
arbitrio
arbizu
arboleda
arborea
arc
arca
arcadia
arce
arch
archaeological
archibald
archidona
archipie
architecture
archive
archived
archivedate
archives
archiveurl
archivo
archivos
arcilla
arco
arcos
arctocephalus
arde
ardea
ardesiaca
ardiente
are
area
arellano
arena
arenal
arenales
arenaria
arenas
arendt
arequipa
arezzo
arg
argemone
argentina
argentine
argentino
argentinos
argerich
argnumber
args
argscount
argsi
argsk
argsv
argtables
argu
arguedas
argument
argumento
argumentos
arguments
arhintina
arhintinap
arhintinapa
arhintinapas
arhintinapi
arhintinapipas
arhintinu
ari
aria
arias
arica
ariel
arika
arikipa
arimuy
arin
arinillas
ariola
ariq
ariqipa
ariquma
ariruma
aris
arisaema
arispa
aristarain
aristotelis
ariy
arizona
arjen
arkanhil
arkansas
arles
arlington
arma
armakuna
armando
armas
armata
arme
armenda
armenia
armenteros
armida
arminya
arms
armstrong
arnaldo
arnaz
arnhem
arnold
arnoldo
arnulfo
arol
aroma
arosemena
around
arpa
arqan
arqi
arqueolo
arqueologi
arquitecto
arquitectura
arra
arrasco
array
arreglos
arremon
arriba
arrow
arroyo
arrus
ars
arsenal
arsenio
art
arte
arteaga
artemio
artemis
artemisa
artemisia
artes
arthur
arti
article
articles
artigas
artikulu
artist
artista
artistas
artists
artisunrahu
arts
artupuykama
arturo
aru
arum
aruma
arusimin
arutani
arwi
arxiv
arzobispo
as
asa
asakuna
asalto
asam
asamblea
asanaki
asani
asankaru
asanqaru
asapa
asar
asarsuyu
ascencio
ascensio
aschaq
asesinas
asesinato
asesino
asesinos
ash
asha
ashaninka
ashe
ashley
ashma
asi
asia
asie
asignado
asimov
asiru
asiruqucha
asitunas
asiy
asiya
ask
aska
askachakuq
askachawwan
askaq
askha
aslla
asma
asn
asnaq
asnaqucha
asnu
asociacio
asp
aspa
asper
aspero
aspi
aspidosperma
aspim
asplenium
aspx
asqa
asqan
asqupi
asra
assam
assassin
assen
assis
assisi
associac
association
asta
astaire
astawan
aste
astengo
asteraceae
astika
astocococha
aston
astor
astragalus
astro
astroblepus
astrocaryum
astronium
asturiana
asturias
astyanax
asu
asuka
asukar
asuncio
asunsyun
asunta
asunto
asuwi
aswa
aswan
aswanqa
aswanta
aswantaq
aswantataq
asway
asya
asyapi
asyapipas
at
ata
atacama
atahuachi
atahuallpa
atahualpa
atakama
atakami
atakasu
atalaya
atam
ataq
ataqa
ataque
atardecer
atari
atatu
ataw
atawallpa
atawallpap
atc
ate
ateles
atelier
atenas
ateneo
athapaska
athe
athene
athens
athina
ati
atikun
atikuq
atin
atinakuna
atinchik
atinchu
atinku
atinman
atinmi
atipachawwan
atipana
atipaq
atiparqan
atipaspa
atipasqa
atipasqan
atipay
atiptin
atiq
atirqan
atirqanchu
atispa
atiy
atiynin
atiyninmi
atiyniyuq
atiyta
atla
atlanta
atlante
atlantic
atlantiku
atlapetes
atlas
atle
atma
ato
atocha
ator
atp
atra
atrorubens
atrovirens
atska
attack
attempt
attore
attr
attribs
atu
atucha
atun
atuq
atuqmantawan
atuqpa
atuqwan
au
auca
auch
aucun
audaz
audio
auditorio
audrey
auf
auflage
august
augusta
auguste
augusto
augustus
aujourd
auki
aula
aumentada
aung
aunque
aupa
aura
aurea
aurelia
aurelio
aurich
auriculata
aurora
aus
ausencia
ausente
auster
austin
australia
australie
australis
austria
aute
auteur
author
authority
authorlink
authors
auto
autobiogra
autobiografi
autobiography
autoinstructivo
autor
autora
autores
autori
autoridades
autorretrato
autos
autre
autres
autriche
autry
autumn
aux
auxiliadora
av
ava
available
avalancha
avalanche
avant
avaro
avaroa
ave
avec
aveiro
avelino
avellaneda
avena
avendan
avenida
aventura
aventuras
aventurero
aventureros
aves
avignon
avila
avile
aviles
aviv
avoid
avoir
avril
aw
awa
awahun
awaka
awake
awan
awana
awani
awankay
awaq
awar
awarank
awarawi
award
awards
awariku
awaspa
awasqa
away
awaymantu
awaytiya
awch
awchi
awchu
awhile
awi
awidul
awikaruy
awikaruypipas
awikuna
awikuray
awimayu
awimpukyu
awin
awina
awinchana
awinpukyu
awinqucha
awiriy
awiriyta
awiriywasi
awiyuq
awki
awkillu
awkullu
awkunap
awllaqa
awpa
awpagradupi
awpan
awpaq
awpaqman
awpaqnin
awpaqninmi
awpaqta
awpaqtaqa
awqa
awqakuna
awqakunaqa
awqakuq
awqanakuy
awqanakuypi
awqapata
awqaq
awqaqkuna
awqaqkunam
awqaqkunap
awqaqkunaqa
awqaqkunata
awqarqan
awra
awrakuna
awrawa
awray
awrilpi
awsa
awsanqati
awstiriya
awstiriyapi
awstralya
awstralyap
awstralyapa
awstralyapi
awstrunisyu
awtu
awtunuma
awtunumu
awustu
awustupi
awya
axel
axioma
ay
aya
ayacuchano
ayacucho
ayacuchovirtual
ayak
ayakuchu
ayala
ayamarka
ayamarq
ayamaych
ayan
ayapata
ayaq
ayar
ayara
ayata
ayatollah
ayawaka
ayawiri
ayay
ayca
aycha
aychanta
aychata
ayer
ayha
ayka
aykili
aykuna
aykusqayki
ayllo
ayllu
ayllukuna
aylluman
ayllumanta
ayllun
ayllunkuna
ayllunmi
ayllupi
aylluruna
aylluskapuraq
aylluskaq
aym
aymanta
aymar
aymara
aymarka
aymi
aymuray
ayn
ayni
aynin
ayninta
ayniyuq
ayo
ayora
ayoreo
aypa
aypalla
aypaq
ayparqan
aypaspa
aypi
aypik
ayqa
ayqirqan
ayqispa
ayra
ayrimana
ayriway
ayruma
aysana
aysay
ayta
aytam
aytas
ayti
aytu
ayu
ayuda
ayui
ayuntamiento
ayupaya
ayuq
aywan
ayway
aywillka
az
aza
azahares
azar
azca
aze
aziz
aznavour
azo
azogues
azorella
azori
azpeitia
azteca
aztecan
azu
azuay
azucena
azul
azulcocha
azules
azur
azurduy
b
ba
baba
babahoyo
babel
babilonia
baby
babylon
baca
baccharis
bach
bachata
bachchan
bachelet
bachiller
bachillerato
back
background
bacon
bacteria
bacteriana
bactrocera
bad
badajoz
badalona
baden
bado
baeza
bafta
bagdad
baggio
baglietto
bagri
bagua
bahamakuna
bahamas
bahi
bahia
bahuaja
bai
baigneuse
baila
bailando
bailar
bailarina
baile
bailes
bailey
baja
bajas
bajitos
bajo
bajos
baker
baku
bal
bala
balada
baladas
balaguer
balance
balansani
balao
balboa
balcazar
baldi
baldivieso
baldomero
baldwin
bali
ball
ballad
ballade
ballads
ballestas
ballet
ballivia
ballo
balo
baloya
balsa
balsas
balta
baltasar
baltazar
baltiku
baltimore
balvin
balzar
bambino
ban
banco
bancos
band
banda
bandai
bandaranaike
bandas
bande
bandera
banderas
bandido
bandidos
bandolero
bandoneo
bandurria
bang
bangkok
bangladesh
banjo
bank
banks
banla
banladish
bano
banting
bantu
baptista
baptiste
baquerizo
baqui
bar
barack
barajas
barandiara
barat
barb
barba
barbados
barbaquwa
barbara
barbata
barbatus
barbero
barbosa
barbra
barca
barcelona
barcelonapi
barclay
barco
bardales
bardina
bardot
bare
bari
bariloche
barinas
baritone
barnadesia
barneby
barngarla
baro
baroja
baron
barquisimeto
barr
barra
barral
barranca
barranco
barranquilla
barrantes
barraza
barre
barreda
barrenechea
barrera
barreto
barretto
barrientos
barriga
barrio
barrios
barris
barriukuna
barro
barroco
barros
barroso
barruku
barry
barrymore
barsacq
bart
barthe
barto
bartolina
bartolo
bartolome
barton
bas
basada
basado
basadre
base
baseball
based
basel
bases
basi
basic
basileuterus
basilica
basilika
basilikan
basilio
basketball
basque
bass
basso
basta
basten
bastidas
bastien
bata
batalla
batallas
batan
batatas
bath
batista
batistuta
batlle
baton
batres
battista
battle
batumi
bau
baudelaire
baure
bautista
bawtista
bay
bayer
bayern
baza
bazalar
bbc
bc
bd
bdfa
be
beach
beans
bear
bearn
bearnpa
bearnpi
beast
beat
beata
beatles
beato
beatrice
beatriz
beatty
beau
beautiful
beauty
beauvoir
beaux
bebe
bec
because
beck
beckenbauer
becker
beckett
bed
bedoya
bee
been
beethoven
before
begin
beginning
begon
begonia
begum
behind
bei
beijing
beim
being
beirut
beja
bel
bela
belafonte
belalca
belarus
belau
bele
belen
belfast
belgique
belgrano
believe
belisario
bell
bella
bellas
bellavista
belle
belleza
belli
bellido
bellini
bello
bells
belmondo
belmont
belmonte
belmopan
belo
below
belter
beltra
belzebuth
belzu
bemol
ben
bena
benavente
benavides
bendezu
bendita
bene
benedetti
benedetto
benedicto
benedictus
benfica
bengali
beni
benidorm
benigno
benin
benita
benito
benjami
benjamin
benn
bennett
benny
benson
benth
benz
beograd
ber
bera
berarb
berberidaceae
berberis
berenice
berg
bergamo
bergen
berger
bergerac
bergkamp
bergman
berkeley
berli
berlin
berlioz
berman
bermejo
bermu
bermudas
bern
berna
bernabe
bernal
bernard
bernarda
bernardi
bernardino
bernardo
bernhard
bernstein
bero
berrocal
berruguete
berry
bers
bersetzer
bert
berta
bertel
bertha
bertolt
bertonio
bertrand
bes
besanc
beso
besos
best
bestia
beta
betacea
betancourt
betancur
betanzos
beth
betha
betis
beto
betoye
bette
better
betty
between
beverly
bey
beyond
bezzi
bg
bgcolor
bhutto
bi
bianca
bianchi
bianco
biatu
bibcode
bibi
bible
biblia
biblian
biblio
bibliografi
biblioteca
bibliotecas
bibliothe
bicentenario
bicolor
biden
bidens
bie
bien
bienal
bienvenido
bifida
big
biggar
biggest
bignoniaceae
bikini
bilarus
bilbao
bilhika
bilhikapa
bilingu
bilingue
bilingues
bilisi
bill
billboard
billie
billinghurst
billion
billy
bin
bing
bingen
binidiktu
binin
bio
biobi
biodiversidad
biogra
biografi
biografia
biographical
biography
biolib
biolo
biologi
biondi
bioy
bir
bird
birdlife
birds
birmanu
birmingham
birostris
birth
bis
bishop
bismarck
bissau
bit
bita
bitstream
bitter
biyubiyu
bizet
bjo
bjørnson
bjørnstjerne
bla
black
blackburn
blacklist
blades
blair
blaise
blake
blame
blanc
blanca
blancas
blanche
blanco
blancos
blank
blas
blasco
blasetti
blason
blastocerus
ble
bleu
blica
blicas
blico
blind
block
blog
blogspot
blonde
blondie
blood
blu
blue
blues
blume
bmg
bnp
bo
boa
boat
bob
bobby
bobonaza
boca
bocanegra
bocas
boccaccio
bocconia
bocelli
boda
bodas
body
boeing
boeto
bogart
bogota
bohe
bohemia
bohemya
bohr
bois
boise
boitempo
bol
bola
bolan
bold
bolero
boleros
boleti
boli
bolivar
bolivia
bolivian
boliviana
boliviensis
bollywood
bologna
bolognesi
bolpebra
bolsa
bolsillo
bolsonaro
bolt
bolton
boluarte
bolzano
bom
bomarea
bombero
bombo
bon
bonaparte
bond
bondy
bone
bonet
bonete
bongara
bongo
bonheur
bonifacio
bonilla
bonita
bonito
bonn
bonne
bonpl
bonpland
bonus
boogaloo
boogie
book
books
boolean
boom
bor
bora
borda
borde
bordeaux
border
bordo
borges
borghese
borgia
bori
boris
borja
born
borrascosas
borrero
borussia
bos
bosch
bosco
bose
bosnia
bosque
bosques
bossa
boston
bot
bota
botafogo
botas
botella
botero
both
bothrops
botswana
bottom
bougainvillii
boulevard
boulogne
bound
bouret
bouriate
bow
bowie
box
boy
boyaca
boyd
boyer
boys
br
bra
brabant
bracamonte
bracamoros
bracho
brackets
brad
bradford
bradley
bradypus
braga
bragaglia
braganc
brahms
braille
branagh
branch
branco
brand
brandenburg
brando
brandon
brandt
branickii
brasil
brasileira
brasileiro
brasilen
brasilia
brasilianus
brasiliensis
brasilniyuq
brasilpa
brasilpi
brass
brassica
bratislava
braulio
braun
brava
brave
bravi
bravo
brazil
brazilian
brazos
brazzaville
bre
bread
break
breakfast
brecht
bremen
bren
brenda
brescia
bretagne
breu
breve
breves
brian
bribri
brica
bricen
bride
bridge
bridges
brief
bright
brighton
brigitte
brillante
bring
bristol
brita
britain
britannica
britannique
british
britt
brno
broadway
broken
bromeliaceae
bromus
bronce
bronco
bronte
bronx
bronze
brooklyn
brooks
bros
brosnan
brother
brothers
broussais
brown
brownea
browneopsis
bru
bruce
brugge
brugmansia
bruguera
bruja
brujas
brujo
brunari
brunei
brunfelsia
brunke
bruno
brunswick
bruselas
brussel
bruto
bruxelles
bryan
bryant
bryce
brynner
bs
bso
bu
buarque
bubulcus
bucaramanga
bucay
bucephalophorus
buch
buck
bud
budapest
buddleja
buen
buena
buenas
buenaventura
bueno
buenos
buffalo
bufo
bugle
builder
buildgallery
building
buildrow
buitres
bukuresti
bukya
bula
bulas
bulgaria
bulgarya
bulibya
buliwiyanu
buliwya
buliwyamanta
buliwyanu
buliwyap
buliwyapi
buliwyapipas
bull
bulldog
bullets
bulls
bulo
bun
bundesland
bundesliga
bunge
bunny
burbuwnpa
bureau
bures
burgos
burinkin
burinkinpa
burke
burkina
burma
burn
burnet
burnham
burning
burns
burr
burro
burt
burton
burundi
bus
busan
busca
buscando
buscarte
busch
busco
bush
business
busna
bustamante
bustillo
busto
but
butan
butanika
buteo
butler
butswana
butterfly
button
buwis
buxifolia
bvirtual
bvsde
bwino
bwv
by
bye
byron
c
ca
caan
caazapa
caballe
caballero
caballeros
caballo
caballos
caban
cabanillas
cabaret
cabello
cabeza
cabezas
cable
cabo
cabra
cabral
cabrera
cacao
cacataibo
caccia
caceres
caceri
cacha
cache
cachi
cacho
cacique
caco
cactaceae
cactus
cada
caddo
cadena
cadenas
cadratin
caenolestes
caer
caesalpinia
caesar
caetano
cafe
cage
cagliari
cagney
cahuana
cai
caifanes
caiman
caine
cairo
caiza
caja
cajal
cajamarca
cajanea
cajas
cajatambo
cajo
cajophora
cal
cala
calais
calama
calamagrostis
calavera
calceolaria
calceta
calcio
caldas
caldero
calderon
cale
calendario
calendrier
calendula
calera
caleruega
calgary
cali
calidad
calidris
caliente
calientes
calif
calificativos
california
californiapi
californicus
calisaya
calixto
call
calla
callao
callar
callas
calle
called
callejero
callejo
calles
calling
callsign
calor
calorie
calpe
caluromys
calvario
calvas
calvatia
calvin
calvino
calvo
calzada
cam
cama
camacho
camagu
camaldulensis
camaleo
camara
camargo
cambio
cambios
cambodia
cambridge
came
camelopardalis
camelot
camelus
cameo
camera
camerini
cameron
cameroun
camila
camille
camillo
camilo
camina
caminando
caminante
camino
caminos
camiseta
camo
camp
campa
campaign
campan
campana
campanas
campania
campbell
campeche
campeo
campeonas
campeonato
campeonatos
campeones
campero
campesina
campesinas
campesino
campesinos
campestre
campestris
campinas
campo
camporredondo
campos
campoverde
campus
camus
can
cana
canada
canal
canales
canalla
canaria
canario
canc
cancer
cancio
cancionero
canciones
candamo
candarave
candela
candelaria
candia
candid
candidato
candy
canela
canelo
canelones
canescens
canetti
cangallo
canis
cannonball
cano
canquella
canseco
canta
cantan
cantando
cantante
cantar
cantares
cantata
canterbury
canthon
cantidad
cantina
cantinflas
canto
canton
cantones
cantor
cantores
cantos
cantua
cantuarias
canyon
canzoni
cao
caoni
cap
capacitacio
cape
capensis
capi
capilla
capita
capital
capitalismo
capitol
capo
caporales
capote
capparis
capra
capricho
capriles
capsicum
captain
caption
captionparameter
capture
caqueta
car
cara
carabanchel
caracas
caracte
caracteri
caraji
caralt
carangas
caras
caravaggio
caraz
carbajal
carballo
carbo
carbonera
carbono
carchi
card
cardenal
cardenales
cardenas
cardi
cardiff
cardona
cardozo
carduelis
care
caretas
carey
cargo
cargoenlazado
cari
caribbean
caribe
carica
caridad
carin
caripensis
carita
carl
carla
carles
carleton
carlo
carlomagno
carlos
carlota
carmela
carmelo
carmen
carmi
carmona
carnaval
carne
carnet
carnevali
caro
carol
carola
carolina
caroline
carpa
carpenter
carpentier
carpio
carranza
carrasco
carre
carrel
carren
carrera
carreras
carrero
carretera
carrie
carrillo
carrio
carro
carrusel
carson
carta
cartagena
cartago
cartas
carte
carter
cartero
cartier
cartography
cartonera
carunculatus
caruso
carvajal
carvalho
carvallo
carver
cary
cas
casa
casablanca
casada
casado
casados
casals
casanare
casanova
casar
casares
casarme
casarse
casas
cascada
cascales
casco
case
cases
casete
cash
cashibo
casi
casilla
casimira
casimiro
casino
casma
casmerodius
caso
casos
casosmanta
casospi
caspar
caspi
cassia
casta
castalia
castan
castellana
castellano
castellanomanta
castellanos
castellari
castello
castelo
castigo
castilla
castilleja
castillo
castle
castlevania
castro
cat
cata
catacaos
catacora
catala
catalana
catalina
catalogue
catalun
catalunya
catamarca
catania
catarata
catarina
cate
catecismo
catedral
categori
categories
category
caterina
cathartes
cathe
cathedral
catherine
catholic
cato
catorce
cats
cattone
cauca
caucau
caudillo
caudillos
causa
causalidad
causas
cautiva
cav
cava
cave
cavero
cavia
cavinen
cavour
cay
cayetano
cayo
caza
cazador
cazadores
cazo
cazorla
cbc
cbs
cc
ccp
cd
cdot
cds
cdu
ce
ceara
cearensis
cebus
cecil
cecilia
ceciliae
cecilio
cecropia
ceden
cedrela
cedrelinga
ceferino
ceguera
ceiba
cela
celebracio
celedonio
celendi
celeste
celestina
celestino
celia
celica
cell
cello
cellprops
cells
celos
celso
celtic
celtis
celular
cembre
cementerio
cemetery
cena
cenepa
ceni
cenicienta
ceniza
censales
censo
cent
centenario
centeno
center
centime
centinela
central
centrales
centre
centro
centroame
century
cera
cerastium
cerati
cerca
cercado
cercano
cerco
ceres
cereus
cerezos
cerna
cernuda
cero
cerrada
cerrado
cerro
cerros
certain
cervantes
ces
cesar
cesare
cestrum
cet
cette
ceux
cevallos
cf
cfg
cgtp
ch
cha
chabuca
chacas
chacha
chachakuma
chachakumani
chachapoyas
chachapuya
chachapuyas
chachaq
chachas
chachita
chaco
chacra
chad
chadwick
chahta
chai
chain
chaine
chair
chaja
chaka
chakaltaya
chakamarka
chakana
chakaqucha
chakas
chakatasqa
chakchura
chaki
chakiyuq
chakra
chakrakunapi
chakrakunata
chakrapampa
chakrapi
chakrapura
chakrarahu
chakraruna
chakrata
chaku
chakuma
chakunapaq
chakupi
chakuq
chal
chala
chalaco
chalalan
chalamanta
chalanpi
chalapi
chalchaleros
chalco
challa
challapata
challe
challwa
challwakuna
challwakunam
challwakunap
challwakunata
challwakunatam
challwam
challwamayupi
challwanka
challwiri
chamarti
chamaya
chamber
chamberi
chamberlain
chambi
chambira
chambre
chamikuru
chamorro
champa
champagnat
champagne
champara
champi
champion
champions
championship
champira
champu
chamqaspa
chan
chana
chanca
chancay
chance
chanchamayu
chanchan
chandler
chandless
chaney
chang
changchun
change
changes
changsha
chani
chanin
chaninchaq
chaninchasqa
chaninchasqam
chaninniyuq
chaniyuq
chanka
chankay
chankillu
chankuwan
chanoc
chanrara
chanson
chansons
chant
chanta
chantapas
chantataq
chante
chants
chao
chapaq
chapari
chapariy
chaparro
chapi
chaplin
chapman
chapter
chapterlink
chapterurl
chapu
chaqallu
chaqay
chaqlakayu
chaqlla
chaqllisinchi
chaqllisinchipi
chaqna
chaqruspa
chaqrusqa
chaqrusqam
chaqullu
chaquy
character
characters
charadrius
charagua
charan
charanku
charapa
charasani
charawa
charazani
charcas
charge
charisteas
charity
charkas
charles
charleston
charlie
charlotte
charlottep
charlottetown
charlton
charly
charra
charro
chars
charte
chase
chaska
chaski
chaskin
chaskinanpaq
chaskiqkuna
chaskiran
chaskirqan
chaskispa
chaskisqa
chata
chauca
chaucha
chavela
chavez
chavi
chavin
chavo
chaw
chawa
chawarpampa
chawchukuna
chawin
chawinillu
chawkatu
chawpi
chawpikallki
chawpin
chawpinpi
chawpipacha
chawpipi
chay
chayan
chayanta
chayawita
chaykuna
chaylla
chayman
chaymanta
chaymantam
chaymantapacha
chaymantaqa
chaymantas
chaymantataq
chaymantataqmi
chaymantataqsi
chaymi
chaynallataq
chaypacha
chaypas
chaypi
chaypim
chaypin
chaypiqa
chaypis
chayqa
chayrayku
chayraykum
chayri
chayta
chaywan
chaywanmi
chaywanpas
chaywanqa
chaywansi
che
checa
check
checking
checktype
chef
cheikh
cheilanthes
chelsea
chemical
chemille
chemins
chen
cheng
chengdu
chenopodium
cheo
cherokee
chespirito
chester
chetumal
cheung
chevalier
cheyenne
chez
chh
chhachani
chhaqru
chhasku
chhikan
chhikaynaykunakamaqa
chhuka
chhulla
chhulli
chhuquruqutu
chi
chiang
chiapas
chiar
chiara
chiarella
chiba
chibcha
chibuleo
chica
chicago
chicas
chicha
chichas
chichen
chichester
chichi
chichiku
chichira
chichu
chichuyay
chiclayo
chico
chicos
chief
chiesa
chiguanco
chiho
chihuahua
chiina
chikama
chikayu
chikchi
chikchipa
chiki
chikichasqa
chikichasqanmi
chikitanu
chikitukus
chikitus
chikla
chiklayu
chikmu
chiksuyu
chiku
chikun
chikusluwakya
chikyan
chila
chilata
chilca
child
children
chile
chilena
chileno
chilense
chilensis
chili
chilikchi
chilina
chilinu
chilip
chilipi
chiliqucha
chiliqui
chiliti
chill
chilla
chillanes
chilliqa
chilliwa
chillka
chillkapampa
chilltu
chillun
chillwar
chilo
chilpancingo
chilu
chimaltenango
chiman
chimbo
chimborazo
chimbote
chimie
chimlasay
chimlasayta
chimpa
chimpachisqa
chimpan
chimpansi
chimpu
chimpulla
chimpurasu
chimputi
chimpuya
chimu
chimuriy
chin
china
chinalinda
chincha
chinchay
chinchayman
chinchaymanta
chinchayninpi
chinchayqucha
chinchaysuyu
chinchaysuyupi
chinche
chinchi
chinchilla
chinchina
chinchipe
chinchipi
chinchirkuma
chinchiru
chinchiy
chindul
chine
chinese
ching
chini
chinkasqa
chino
chinois
chinoises
chinu
chipana
chipaya
chipcha
chipin
chipuru
chiqa
chiqan
chiqap
chiqarimay
chiqllan
chiqniq
chiquimula
chiquinquira
chiquitos
chira
chirapaq
chirca
chiri
chirimaway
chirimuya
chirimuyu
chirinos
chiripa
chiriqunuy
chiris
chiru
chiruki
chiruyuq
chitilla
chiva
chivo
chiwaku
chiwana
chiwanku
chiway
chiwayru
chloephaga
chloroptera
chloropus
cho
chocano
choco
chocolate
choir
chojn
chol
cholita
cholo
choluteca
chone
chong
chongqing
chopin
choque
choquehuanca
chordeleg
chorisia
choros
chorrillos
chorro
chorus
chosica
chow
chquiyapu
chr
chre
chris
christ
christenson
christi
christiaan
christian
christiana
christiane
christie
christina
christine
christmas
christoph
christophe
christopher
chu
chua
chubut
chucho
chuchu
chuck
chucuito
chukaya
chukcha
chukchu
chuki
chukiqayara
chukirawa
chukis
chukiyapu
chuku
chukulati
chukuwitu
chukuytu
chul
chulla
chulli
chullpakuna
chullu
chullunku
chullusqa
chulukanas
chulumani
chuma
chumpi
chumpicha
chumpitaz
chumpiwillka
chumuch
chun
chunchi
chunchu
chung
chunga
chungara
chuni
chunka
chunkacha
chunkana
chunkantin
chunkara
chunkawata
chunkay
chunqa
chunta
chuntu
chuntukuna
chunwa
chunwapa
chunwapi
chunwayuq
chupa
chupaka
chupam
chupan
chupasapa
chuqa
chuqana
chuqi
chuqichaka
chuqik
chuqikillka
chuqin
chuqipampa
chuqipampilla
chuqitanka
chuqiwanka
chuqiyapu
chuqllu
chuqlluqucha
chuqri
chuqu
chuqui
chuquibamba
chuquimamani
chuquiraga
chuqur
chuqus
chuquw
chura
churan
churana
churarqan
churaspa
churasqa
church
churchill
churi
churikimpaya
churikuna
churin
churinkina
churinkuna
churinmi
churinsi
churkampa
churu
churubamba
churulki
churup
churupampa
chururu
chusaq
chuschi
chusi
chusku
chusquea
chusun
chuta
chutu
chuulu
chuwa
chuya
ci
cia
cica
cicatrices
cicero
ciclista
ciclo
cid
cidade
cido
cidob
cie
ciego
ciegos
ciel
cielito
cielo
cien
ciencia
cienciano
ciencias
cieneguilla
cienfuegos
cienti
cierto
cieza
cigarra
cil
cile
ciles
cima
cinchona
cincinnati
cinclodes
cinclus
cinco
cine
cinema
cinematogra
cinq
cinta
cio
ciocchini
cipolla
cipriani
cipriano
circle
circo
circus
ciriaco
cirilo
ciro
cisne
cisneros
cita
citas
citation
citations
cite
cities
citizen
citratus
citta
city
cityline
ciudad
ciudadano
ciudades
ciudadeshermanas
ciutat
civil
civiles
ck
cken
ckochas
cl
cla
claim
claims
clair
claire
clamor
clan
clandestina
clandestinum
clapton
clara
clarence
clarinet
clarinete
clark
clarke
claro
clase
clasecita
clasificacio
class
classe
classes
classic
classical
classics
classification
classique
classis
claude
claudia
claudio
claus
clausura
clavatum
clave
clavijo
cle
cleanargs
clear
clemencia
clement
clemente
clements
cleome
cleopatra
clerc
clermont
cles
clethra
cleveland
cli
cliath
clicas
client
clifford
clima
climbing
climinti
clint
clinton
clio
clipperton
clitocybe
clive
clock
clodoaldo
clodomiro
clorinda
close
closed
clotilde
cloud
clouds
club
clube
clubes
cluj
clusia
clyde
cm
cmb
cn
cne
cni
cnica
cnicas
cnico
co
coahuila
coahuilteco
coast
coat
coauthors
coautor
cobarde
cobra
cobre
coca
coccinea
coccinellidae
cocha
cochabamba
cochas
cocina
cocker
coco
cocoon
cocos
cocteau
code
codelangue
codenpe
codes
codescript
codeso
coe
coelho
coello
coendou
coeur
cofa
coffee
cofre
cogn
cohen
coimbra
coins
cojedes
cojo
col
cola
colaboracio
colaboraciones
colan
colaptes
colca
colcabamba
colcha
cold
cole
coleccio
colectiva
colectivo
colectivos
colegio
coleridge
colette
colibri
colima
colimes
colin
colina
colinas
coliseo
coll
collaboration
collana
collantes
collao
collapsed
collapsible
collapsibles
collar
collazos
colle
collected
collection
collections
college
colletia
collins
collo
colmenares
colo
colocolo
colombia
colombiana
colombie
colon
colonia
coloniakuna
colonial
coloquio
color
colorada
colorado
colorados
colores
colors
colour
colque
colspan
coltrane
columba
columbia
columbus
columna
colunga
com
comaina
comanche
comandante
comando
comarca
comayagua
combate
combo
come
comedia
comedias
comedy
comencini
comendador
comentarios
comenzo
comercial
comercio
comes
cometa
comets
comfort
comida
coming
comisio
comite
comma
command
comme
comment
commerce
commercio
committee
commodore
common
commons
commonwealth
commune
communis
community
como
comp
compact
compadre
compadres
compan
company
comparative
compartido
compasio
compay
compendio
competicio
competition
compilacio
compilaciones
compilation
comple
complejo
complemento
completa
completas
complete
completo
completos
complutense
compose
composer
composicio
compositae
compositor
compostela
compound
compromiso
compton
compuesta
compuesto
computer
comte
comu
comuna
comunal
comune
comunicacio
comunicaciones
comunidad
comunidades
comunista
con
conaie
conaiepa
concacaf
concat
concepcio
concert
concerto
concertos
concha
conchita
conciencia
concierto
conciertos
concolor
concord
concordia
concurso
concytec
condado
conde
condecoracio
condena
condesa
condition
condor
condori
condoriri
conductor
conejo
conepatus
confe
confederacio
conference
conferenceurl
conferencia
conferencias
confesio
confesiones
confessions
confianza
config
configuration
conflict
conflicto
confusa
conga
congo
congre
congregacio
congresista
congreso
congresos
congress
conibo
conj
conjtype
conjugacio
conjunto
conmebol
conmemoracio
conmigo
connecticut
connection
connery
connor
connors
conoce
conocida
conocidas
conocido
conociendo
conocimiento
conqueror
conquest
conquista
conquistador
conrad
consagracio
consagrado
consecutivas
conseil
consejo
consejos
conservacio
conside
considerada
consta
constance
constant
constante
constantino
constanza
constitucio
constitucional
constrictor
construccio
construction
construyendo
consuelo
consulta
consultado
cont
contact
contacto
contae
container
containing
contains
contar
conte
contempora
contemporains
contenant
contenido
content
contento
contes
conti
contiene
contient
contigo
continental
continente
continu
continuacio
conto
contos
contra
contrabass
contradiccio
contradicciones
contralmirante
contre
contreras
contribucio
contribution
control
convenio
convento
conversaciones
conversion
convert
converttable
convictorio
cook
cool
coolidge
cooper
cooperacio
coord
coordfunctions
coordinadora
coordinate
coordinates
coordinatespec
coordonne
coords
cop
copa
copacabana
copalli
copas
cope
copia
copiapo
copias
coplas
coppe
copper
coppola
coproduccio
copy
coqueza
coquimbo
cor
cora
corac
coraje
coral
corales
corazo
corazones
corbacho
corbie
corbucci
corbusier
corcuera
cord
cordero
cordia
cordillera
core
corea
cori
coria
coriacea
corinthians
cornejo
cornelio
cornelius
cornell
corner
corno
cornos
cornualles
cornuta
cornwall
coro
coromoto
corona
coronacio
coronado
coronavirus
coronel
corot
corpo
corporacio
corporation
corps
corpus
corr
corral
corrales
corre
correa
corregida
correo
correspondance
correspondencia
corrida
corrido
corrientes
corrupcio
corta
cortaderia
cortamonte
cortas
corte
cortez
cortina
corto
cortometraje
cortos
corts
corun
coruscans
cos
cosa
cosas
cose
cosecha
cosi
cosme
cosmos
cosse
cossi
costa
costen
costumbres
cota
cotacachi
cotagaita
cotahuasi
cotalo
coto
cotoname
cotopaxi
could
couleur
council
count
country
county
coupe
courbet
court
cov
cover
covid
coward
cowboy
cowboys
cox
cp
cquer
cr
crack
craig
crash
crassifolium
crates
crawford
crax
crazy
cre
creacio
create
created
creator
credo
creek
creer
cremona
creo
crepitans
crepu
crescentia
crespo
cressa
cri
criada
crime
crimea
crimen
criminal
criolla
criollo
criollos
crisis
crispus
cristal
cristian
cristiana
cristiani
cristianismo
cristiano
cristianos
cristina
cristo
cristobal
crit
crite
critique
criture
cro
crocodilus
croix
cromwell
cronologi
croquis
crosby
cross
crossing
crotalus
croton
crow
crowd
cruce
cruces
cruel
cruise
crup
crus
crusoe
cruyff
cruz
cruzado
cruzeiro
cry
crystal
cs
css
csstext
cst
ctar
cter
ctica
cticas
ctico
ctimas
ctor
cu
cua
cuaderno
cuadernos
cuadros
cual
cualquier
cualquiera
cuando
cuarenta
cuarta
cuarteto
cuarto
cuartos
cuatrec
cuatro
cuba
cubana
cubanas
cubano
cube
cubes
cubic
cubillas
cucaracha
cuchi
cuchillo
cuculiza
cucumis
cucurbita
cue
cueca
cuellar
cuello
cuenca
cuenta
cuentas
cuento
cuentos
cuentucuna
cuerdas
cuernavaca
cuerpo
cuerpos
cuervo
cuervos
cuesta
cuestio
cuestiones
cueto
cueva
cuevas
cuevo
cuidado
cukor
cula
culas
culcitium
culebra
culebras
culiaca
culo
culos
culpa
culpable
culpaeus
cultivo
culto
cultura
cultural
culturales
culturas
culture
cultures
cumbe
cumbia
cumbre
cumbres
cumplean
cun
cuna
cundadukuna
cundinamarca
cuneifolius
cunicularia
cuore
cup
cupe
cura
curahuara
curandero
cure
curie
curitiba
curo
curr
current
curricular
curse
curso
curtis
curtiz
curva
cusco
cuscuta
cut
cuta
cutervo
cutipa
cuya
cuyabeno
cuyo
cuzco
cuzquen
cyanoptera
cyathea
cyclanthera
cyclone
cygnus
cymbal
cymbopogon
cyperaceae
cyperus
cyrano
cyrillique
cyrl
czech
cœur
d
da
daddy
dado
dae
dag
dai
daily
dakar
dakota
dal
dalai
dale
dalea
dalence
dali
dallas
dalton
dam
dama
damaris
damas
damasku
dame
damia
damian
damiani
damiano
damien
dammert
dan
danc
dance
dancing
dane
danger
dangerous
daniel
daniela
danielle
danilo
danny
dans
danse
dansuyu
dante
danuwyu
dany
danza
danzas
daphne
dar
dare
dari
darie
darin
dario
dark
darkgray
darkness
darling
darmstadt
darrow
dartmouth
darwin
daryl
das
daste
dasyprocta
dasypus
data
database
datalangue
dataset
datavalue
date
datem
datenaissancemort
dateobject
dates
datestr
datos
datura
daughter
daule
davalos
dave
david
davies
davila
davis
davor
davy
dawn
day
daymonth
days
daza
db
dc
dcampos
dd
de
dea
dead
deadly
deadurl
deal
dean
death
debate
debbie
debe
deber
debilidad
deborah
debra
debussy
debye
dec
decade
december
decide
decimal
decimals
decine
decir
decisiones
declaracio
declaraciones
decreto
dedicada
dedicado
dedo
dee
deep
default
defaultimage
defaultlink
defaults
defaultupright
defaut
defence
defensa
defensor
defined
definitiva
definitivamente
defoe
deg
degas
degli
degre
degree
degrees
dei
deja
dejan
del
delaware
delfi
delfin
delfina
delft
delgado
delia
delibes
delicias
delink
delito
dell
della
delle
delon
delphin
dels
delta
dem
demasiado
demetrio
demi
demis
demo
democra
democracia
democracy
demokratiku
demon
demonio
demos
dempsey
den
dendrocygna
dendrophthora
denegri
deng
denis
denise
denken
denner
dennis
density
dentes
denticulata
dentro
denver
deo
departamental
departamento
department
depend
dependance
depo
deporte
deportes
deportiva
deportivo
deprecated
depuis
der
derbez
derby
derbyshire
derecha
derecho
derechos
derek
deriva
derrama
derrota
derrotero
des
desa
desafi
desaguadero
desaparecido
desarrollo
desayuno
desc
descalzos
descargar
descentralizacion
desconocida
desconocido
describisqanmanta
description
descrita
descubrimiento
descubrimientos
descubrir
desde
desdicha
deseado
desencuentro
desengan
deseo
desert
deshonra
desi
desiderio
desierto
design
desire
desmodium
desmond
desnuda
desnudo
despedida
despertar
despicable
despue
dessins
destacado
destierro
destinado
destino
destiny
destruccio
det
detail
details
detective
detra
detroit
deuda
deus
deutsch
deutsche
deutschen
deutsches
deutschland
deux
deuxie
development
devil
devon
dexter
dez
deza
df
dfb
di
dia
diabetes
diabla
diablada
diable
diablo
diablos
diabo
diada
diagno
diagnostico
diagonal
diagram
dialogue
dialogues
diamante
diamantes
diamond
diamonds
diana
diane
dianthus
diaries
diario
diarios
diary
dias
diavolo
diaz
dibo
dibujos
dic
dica
diccionario
diccionarios
dice
dicen
dicho
dichotoma
dichotomus
dichter
diciembre
dick
dickens
dickinson
dico
dicos
dictadura
dictionary
did
dida
didelphis
diderot
didier
didn
die
diego
dieppe
dies
diesel
dieser
dieter
dietrich
diez
diferente
diffe
different
diffusa
difi
difteria
difusio
digan
digas
dige
digital
digits
dignidad
digo
dijo
dilema
dilhi
dilip
dimaggio
dimas
dime
dimensio
dimukratiku
dimukratiya
din
dina
dinamo
dine
dineib
dinero
ding
dinner
dino
dinomys
dintilhac
dio
dion
dionisio
dionne
dios
diosa
dioses
diospa
diouf
dipartamintu
dipartamintukuna
diploma
diplumatiku
diptera
dipterorum
diputacio
diputado
dir
dire
direc
direccio
direct
directe
directed
direction
directions
directo
director
directorio
direito
diretor
dirigida
diriktur
dirty
disc
disco
discogra
discografi
discophon
discos
discours
discurso
discursos
discusio
disen
disimri
disimripi
disku
diskugraphika
diskugraphiya
diskukuna
diskunkuna
disney
disneypa
display
displayformat
displayinline
displaytitle
disponible
dissertation
distance
distancia
distichlis
distincio
distinguidos
district
distrital
distrito
distritu
distritukuna
distritukunapas
distritum
distritumanta
distritun
distritunkuna
distritunmi
distritup
distritupi
distritupipas
distritupipi
distritupiqa
distrituqa
distrituwan
dit
dita
ditas
dition
ditions
dito
ditos
div
diva
divers
diversas
diversidad
diversificacio
diversos
dividida
dividido
divina
divino
divisio
division
divisions
divisor
divisyun
divlist
divorce
divorcio
divs
divstr
diz
dizzy
djibouti
dl
dm
dmitri
dms
do
doble
dobles
doc
doce
docente
docket
docteur
doctor
doctoral
doctrina
documentacio
documental
documentary
documentation
documento
documentos
documents
dodonaea
dodson
does
doesn
dog
dogma
doi
doibroken
dois
doktor
dolichophylla
dollar
dolly
dolo
dolor
dolores
dolos
doltons
dom
domani
dome
domenica
domenico
domestica
domi
dominga
domingo
dominicana
dominio
dominique
domino
don
dona
donald
doncella
donde
done
donen
dong
donna
donne
donoso
dont
doo
doom
door
doors
dora
dorada
dorado
dore
doris
dormir
dorothea
dorothy
dorset
dortmund
dos
dosis
dou
douard
double
douglas
dove
dover
down
downs
downtown
doyle
dr
dra
draco
dracula
draft
drago
dragon
drake
drama
drapeau
drawida
drawn
dre
dream
dreams
drenthe
dresde
dresden
dressler
drew
drive
droit
drucker
drum
drummond
drums
dryopteris
ds
dsc
dt
du
duarte
dub
dublin
duc
duccio
duck
ducretet
duda
dudas
due
duele
duelo
duen
duende
duerme
duetos
duke
dulce
dulcis
dulo
dulos
dumas
dumingu
duminikana
duminikanu
dun
duna
dunalia
duncan
dundee
dunst
duo
dupont
duque
duquesa
dur
dura
duradillo
duran
durand
durango
durant
durante
durazno
durham
durmiente
duro
durston
dusicyon
dust
dustin
duval
dvd
dvor
dwight
dyango
dying
dylan
dynamo
dynastie
dyus
dyusmanta
dyuspa
dyusqa
dyusta
dz
dztwo
e
each
eagle
eagles
earl
early
earth
east
eastern
eastwood
easy
ebert
ebi
ebro
ec
eca
ecas
eccles
echeandi
echenique
echevarri
echeverri
eckersberg
eclipse
eco
ecolo
econo
economi
economic
economics
ecoturismo
ect
ecuador
ecuarunari
ecuatoriana
ecuatoriano
ed
eda
edad
eddie
eddy
ede
eden
edgar
edgard
edgardo
edge
edhasa
edic
edicio
edicion
ediciones
edificio
edilberto
edinburgh
edinter
edison
edit
editada
editado
edited
edith
editicon
edition
editions
editor
editora
editores
editorial
editors
edmond
edmonton
edmund
edmundo
edna
edouard
eds
edu
eduard
eduardo
educac
educacio
educacion
education
educativa
educativas
educativo
edulis
edvard
edward
edwards
edwin
ee
efecto
efectos
efigenia
efrai
egipto
ego
egretta
egu
eguren
eielson
eiffel
eight
eilean
eileen
ein
einaudi
eindhoven
eine
einer
eines
einstein
eintracht
eira
eiro
eisenhower
either
eixample
eje
ejecutivo
ejemplares
ejemplo
ek
el
eladio
elaine
elaphoglossum
elba
elche
ele
eleanor
elecciones
electoral
electra
electric
electro
elefante
elegans
elegi
elegido
element
elemento
elementos
elements
elena
elephanti
eleuterio
eleutherodactylus
eleven
elguera
eli
elia
elias
elio
eliodoro
eliot
elisa
elisabeth
elisabetta
eliseo
eliza
elizabeth
elizalde
elizondo
ella
ellas
elle
ellen
ellington
elliot
elliott
ellis
ello
ellos
elmer
elogio
eloi
eloro
eloy
els
elsa
else
elseif
elton
elva
elvira
elvis
em
emanuel
emanuele
embajador
embargo
embera
emece
emergence
emergencia
emerson
emi
emil
emile
emilia
emiliano
emilio
emily
emir
emma
emmanuel
emmeline
emmy
empalme
emperador
emperatriz
emperor
empezar
empire
empresa
empty
en
enamorada
enamorado
enanitos
encadenada
encantada
encanto
encarnacio
encendida
encendidas
enci
enciclope
enciclopedia
enciclopediadelecuador
encinas
enciso
encode
encontre
encore
encrucijada
encuentra
encuentran
encuentro
encuentros
encyclopaedia
encyclope
encyclopedia
end
endangered
endara
ending
endpoint
ene
enemiga
enemigo
enemigos
enemy
energi
energy
enero
enfance
enfant
enfants
enfermedad
enfermedades
enfrente
engan
engatu
engel
engels
engl
england
englischer
english
enigma
enjoybolivia
enjoyperu
enlace
enlaces
enlared
enlazar
enmascarado
enne
ennes
enough
enregistrat
enri
enric
enrico
enrique
enriqueta
enriquez
ens
ensayo
ensayos
ense
ensemble
ensen
ensifera
ensign
entendimiento
entero
entertainment
entete
entier
entity
entityid
entonces
entrada
entre
entrega
entreme
entretien
entretiens
entrevista
entrevistas
entry
enz
enza
enzo
eo
ep
ephedra
epi
epic
epidendrum
epinefrina
episode
episodio
episodios
epistolario
epopeya
eqha
equilibrista
equipo
equisetum
equivocacio
equivocado
equus
er
era
eran
eras
erasmo
erasmus
ercilla
erecta
eredivisie
eres
erfurt
eric
ericaceae
erich
erik
erika
erlandais
erne
ernest
ernestina
ernesto
ernst
ero
eros
err
errante
erreur
error
errores
errorprinter
errors
erwin
erythrina
erythrogenys
erza
es
esa
esas
esca
escajadillo
escala
escaladores
escalante
escale
escalera
escallonia
escalona
escape
escapepattern
escapestring
esce
escena
escenas
escenografi
esclava
esclavitud
escobar
escobedo
escocia
escogida
escogidas
escogidos
escola
escolar
escondido
escribio
escribir
escrita
escritas
escrito
escritor
escritores
escritos
escritura
escuadro
escucha
escudero
escudo
escuela
esculenta
esculentum
escultura
ese
esencia
esencial
esenciales
esfera
esfinge
eskimo
esmeralda
esmeraldas
eso
esopo
esos
esp
espace
espaces
espacial
espacio
espada
espagne
espagnol
espaldas
espan
espasa
espe
especial
especiales
especialmente
especta
espectacular
espectros
espejismo
espejo
espera
esperaba
esperanc
esperando
esperanto
esperanza
espi
espinar
espino
espinosa
espinoza
espiritu
espiritual
espn
esposa
esprit
esquina
esquivel
essai
essay
essays
essential
essere
essex
est
esta
estaba
estacio
estaciones
estadi
estadio
estadistica
estado
estados
estadounidense
estadual
estambul
estamos
estampas
estanislao
estar
estas
estatua
este
esteban
estela
estelar
esteli
estenssoro
estero
esther
esti
estilo
esto
estocolmo
estoy
estrada
estrategia
estrecho
estrella
estrellas
estrenada
estrenado
estreno
estreptoco
estreptococos
estridor
estrofa
estructura
estuardo
estudiante
estudiantes
estudio
estudios
estuve
et
eta
etal
etc
ete
eterna
eternamente
eternidad
eterno
eternos
ethan
ethel
ethnologue
etiopi
etiqueta
etnias
etnofarmacolo
eto
ettore
eu
eua
eucalyptus
eudeba
euge
eugene
eugenia
eugenio
eulalia
eulalio
eulogio
eupatorium
euphorbia
euphorbiaceae
eur
euro
eurocopa
europa
europe
europea
european
europeo
eusebio
eustaquio
euterpe
eva
evaluacio
evangelina
evangelio
evangelion
evangelios
evangelista
evans
evaristo
eve
evelyn
evenhuis
evening
event
ever
everton
every
everybody
everything
evic
evidencia
evil
evita
evo
evolucio
evolution
ewan
ex
exaltacio
examen
example
excelencia
excelsa
excerpts
exe
exemple
exeter
exile
exilio
exist
existe
existen
existencia
existir
exists
exit
exitos
exp
expansa
expedicio
expedition
experience
experiencia
experiencias
experimentacio
experimental
explicacio
expo
exponent
export
exposant
exposicio
exposition
expresio
expreso
express
ext
extensa
extensio
extension
extensiontag
exterior
exteriores
external
externallink
externos
extra
extran
extranjera
extranjero
extremadura
extreme
exupe
ey
eye
eyes
eyre
ez
ezra
f
fa
faba
fabaceae
fabia
fabian
fabio
fabre
fabulosos
face
facebook
faces
fachada
facsi
fact
facto
factor
factory
facultad
facultadkuna
facultadnin
facundo
fagot
fagundes
fagus
fair
fairy
fait
faith
fajardo
falcata
falco
falcon
falconi
faldas
fall
falla
fallaci
fallback
fallecio
falling
falls
false
falso
falta
fama
fame
familia
familiar
familiares
familias
famille
family
famine
famoso
famous
fan
fancy
fang
fangio
fania
fanning
fanny
fans
fanta
fantasi
fantasma
fantasmas
fantastic
fantasy
fanto
far
faraday
farao
farewell
farfa
farin
faringitis
faro
farrow
farsa
fasciata
fasciatum
fase
fast
fat
fatal
father
fatima
fats
faulkner
fauna
faunapas
fauni
faust
fausta
faustino
fausto
faut
favio
favor
favorite
favorito
fbc
fc
fce
fe
fear
feast
feature
features
featuring
feb
febrero
febres
february
febus
fecha
fechaacceso
fechahora
fechas
federacio
federal
federer
federico
feel
feeling
feine
feira
felice
felicia
feliciano
felicidad
felicita
felipa
felipe
felis
feliu
felix
feliz
fellini
female
femenina
femenino
feminine
femme
femmes
femoralis
fenerbahc
feng
fenice
feno
fenocin
fer
ferdinand
ferdinando
ferenc
feria
ferias
fermi
ferna
fernanda
fernandez
fernandina
fernandini
fernando
feros
ferox
ferrand
ferrara
ferrari
ferre
ferreira
ferrer
ferrera
ferreri
ferrero
ferro
ferruginea
ferry
festa
festival
festuca
fever
few
feyenoord
ff
fi
fiallo
fibiger
fica
ficas
ficcio
ficcion
ficha
fichas
fici
fico
ficos
fiction
ficus
fide
fidel
fidelio
fiebre
fiel
field
fields
fiera
fieras
fierro
fiesta
fiestas
fifa
fifpro
fifth
figaro
fight
fighting
figlio
figo
figueres
figueroa
figura
figuras
fijacio
filadelfia
file
filedaymonth
filename
files
filho
filin
filipinas
filippo
fill
fille
filler
film
filmada
filmografi
films
filo
filologi
filomena
filoso
filosofi
fils
fin
final
finales
finalista
find
finds
fine
finger
fini
finn
finsen
fiorentina
fiorentino
fire
firenze
firma
firme
firminy
first
firth
fischer
fisher
fisiologi
fito
fitzcarrald
fitzgerald
five
fk
fl
flaco
flag
flags
flagscount
flame
flamenco
flamengo
flamingo
flammarion
flappers
flash
flat
flaubert
flauta
flauto
flavio
flavirostris
flecha
fleischer
fleming
flesh
fleurs
flevoland
flexuosa
flight
flo
float
floor
flor
flora
floreal
florence
florencia
florencio
florentina
florentino
flores
florestano
floria
floriano
floribundum
florida
floristica
flourensia
flower
flowers
floyd
flu
fluminense
flute
flying
flynn
fm
fmt
fo
focles
focus
fogo
fois
foldats
folk
folklore
folleto
follies
following
fomento
fonction
fonda
fondation
fondo
fono
fonseca
font
fontaine
fontana
fontsize
fontstyle
food
fool
foot
football
footballdatabase
footer
footerdaymonth
for
fora
forastero
forbes
force
ford
foreign
forest
forestal
forever
forget
form
forma
formacio
formas
format
formatandcat
formate
formatmessage
formatnum
formato
formatpunt
formats
formatstatements
formatted
formattedafter
formattedbefore
formatting
forme
formosa
foro
forrest
forsythe
fort
fortaleza
fortuna
fortunato
fortune
forum
forward
forza
foster
foto
fotografi
fotokuna
fotos
fou
foucault
found
foundation
four
fourier
fourth
fox
fp
fr
fra
frac
fracaso
fraccio
fraction
fragment
fragmento
fragmentos
fragments
fraile
frailes
frame
frameless
fran
franc
franca
france
frances
francesa
francesca
francesco
francescoli
francia
franciolini
francis
francisca
franciscano
francisci
francisco
francisku
franck
franco
frank
frankenstein
frankfurt
frankie
franklin
frankreich
frans
fransis
fransiskanu
fransisku
fransya
franz
franzo
fraser
fraseri
frases
frauen
fray
fre
frecuencia
fred
freddie
freddy
fredemo
frederic
frederick
fredericton
fredy
free
freedom
freeman
freguesiakuna
freiburg
freiheit
frenata
french
frente
fresco
freud
freundt
freyre
fri
frica
frida
frieda
friedrich
friend
friends
friesland
fritz
fro
frog
froila
from
frondizi
front
frontera
fronteras
fronterizos
frost
frozen
fru
fruko
frutescens
fruto
frutti
fs
fsa
fsi
ft
fu
fuchsia
fue
fuego
fuencarral
fuente
fuentes
fuera
fueron
fuerte
fuerza
fuerzas
fuga
fugitive
fugitivo
fui
fuji
fujian
fujimori
fukuoka
fulbito
fulgencio
fulham
fulica
fuliginosa
fuliginosus
full
fulvipes
fun
funcio
function
functions
fund
fundacio
fundador
fundamentos
fune
funeral
funes
fungi
funk
funny
furia
furnarius
fury
fuscicollis
fusion
fussballdaten
futbolista
futebol
future
futuro
fuzhou
g
ga
gabino
gable
gabriel
gabriela
gabriella
gabun
gaby
gaetano
gafotas
gainsborough
gaita
gal
gala
galapagos
galarreta
galatasaray
galatea
galaxia
galaxy
galega
galeon
galeras
galeri
galiani
galicia
galilei
galileo
galindo
galisya
gallagher
gallardo
gallega
gallego
gallegos
gallen
gallery
galligu
gallimard
gallina
gallinula
gallo
gallos
galo
galva
galvani
gama
gamal
gamarra
gamboa
gambya
game
games
gamma
gamochaeta
gan
gana
ganado
ganador
ganados
ganas
gandhi
gang
gannee
gano
gansu
gao
garagay
garay
garbancillo
garbo
garce
garci
garcia
garcilaso
gard
gardel
garden
gardner
garfield
garfunkel
garganta
garibaldi
garifuna
garland
garman
garmendia
garnier
garras
garrett
garrido
garu
gary
garza
gas
gasa
gaspar
gasset
gassman
gasto
gaston
gastrotheca
gata
gate
gates
gatica
gato
gatos
gaucho
gaudio
gauguin
gaultheria
gauss
gave
gaviero
gavila
gavin
gaviota
gavras
gay
gaye
gazetteer
gdalas
gdan
ge
geboren
gedichte
gedisa
gees
gelderland
gelehrter
gema
gemelas
gemelos
gemini
gemma
gen
gena
genaro
genas
gendarme
gende
gender
gene
genera
generacio
general
generale
generales
generation
generis
genes
genesis
genet
genio
genipa
genistelloides
genius
gennaro
geno
genova
genre
gente
gentiana
gentianaceae
gentianella
gentilefp
gentilefs
gentilemp
gentilems
gentleman
genus
geo
geochelone
geoffrensis
geoffrey
geogra
geografi
geographic
geographical
geojson
geoloc
geomask
geometri
georg
george
georges
georgetown
georgia
georgica
georgina
georgios
geotype
geotypex
ger
gerais
geral
gerald
geraldine
geranium
geranoaetus
gerard
gerardo
gerd
gerhard
gerhart
germa
germain
germaine
german
germanica
germanu
germany
gernika
gero
gerona
gershwin
gertrudis
gervasi
gesi
gessle
gestion
get
getargnums
getargs
getbeststatements
getboolean
getcontentlanguage
getcurrentframe
getcurrenttitle
getdata
getentityidforcurrentpage
getlabel
getparameters
getparametervalue
getparent
gets
gettitle
getu
getvalue
ghana
ghil
ghost
ghosts
gi
giacomo
giampiero
gian
gianfranco
gianni
giant
gibb
gibson
gica
gicas
gico
gicos
gieco
gif
gigante
gigantea
gigantes
giganteum
giganteus
gigartina
gigas
gil
gilbert
gilberto
giles
gillan
gillespie
gime
gimen
gina
ginas
gine
ginebra
gioacchino
gion
giorgio
giorgos
giorni
giovanna
giovanni
gippert
gira
giraffa
girault
girl
girls
giro
girona
girondins
gisbert
gitana
gitano
gitanos
giudizio
giulia
giuliano
giulio
giuseppe
give
given
giza
gje
gladys
glandulosa
glasgow
glass
glauca
glaucus
gleichenia
glenn
gli
glo
global
globe
globo
globosa
globulus
glodean
glomerata
glomeratus
gloria
glory
glosario
gloucestershire
glu
glutinosa
gmatch
gmt
gnaphalium
go
gob
gobernacio
gobernador
gobierno
gobiernodebolivar
gobiernonapo
god
goddard
godfather
godofredo
godoy
gods
goes
goethe
gogh
goia
going
goku
gol
gold
goldberg
golden
golding
goleador
goles
golfo
golgi
golkuna
golpe
golpes
gomes
gomez
gomphrena
gon
gonc
gone
gong
gonna
gonza
gonzaga
gonzales
gonzalez
gonzalo
gonzanama
good
goodbye
goodnight
google
gor
gora
gordo
gordon
gore
gorgor
gorie
gorien
gorilas
gorilla
gorki
gorrio
gorriti
gosses
got
gota
gothic
gottfried
gould
gov
government
goya
goyeneche
gozar
gp
gpzch
gr
gra
grabacio
grabaciones
grabado
grace
graceannae
gracia
gracias
graciela
gracilis
grado
grados
graf
grafo
graham
gral
grallaria
gram
grama
grammar
gramme
grammy
gramsci
gran
granada
granados
grand
granda
grande
grandes
grandi
grandiflora
grant
granta
grass
grasso
grau
grave
graveolens
gray
graz
gre
great
greatest
grec
grecia
greco
gredos
greek
green
greenberg
greene
greenwood
greg
gregor
gregoria
gregorio
gregorius
gregory
grela
gremio
grenade
grenoble
greta
grey
grieg
griego
grigu
grigukunap
griguryanu
griguryu
grima
grimas
grimm
grin
grinada
grindelia
gripe
gris
griseb
griselda
grisya
grisyamanta
grisyap
grisyapa
grisyapi
grito
gro
groningen
groove
gropius
groselle
grosso
ground
group
gru
grupo
grupu
gryphus
gs
gsater
gsub
gu
gua
guadalajara
guadalquivir
guadalupe
guaguanco
guaini
guaira
guajira
guajiro
gualaceo
gualberto
gualinga
guama
guaman
guamote
guan
guanacaste
guanajuato
guanajuatocapital
guangdong
guangzhou
guanicoe
guano
guapo
guarahuau
guarani
guarany
guarda
guardar
guardia
guardiola
guatemala
guaviare
guayaquil
guayas
gubirnadur
gubirnasyun
gue
gueda
guerra
guerre
guerrero
guest
guevara
guez
guggenheim
gui
guia
guide
guido
guila
guilas
guillaume
guille
guillen
guillermo
guillot
guilma
guimara
guinardo
guine
guinea
guio
guion
guionista
guitar
guitarra
guitarras
guitarrero
guitarrista
guiyang
guizhou
gula
gulliver
gullstrand
gump
gun
gunckel
gunnar
guns
guo
gusta
gustaf
gustari
gustav
gustave
gustavo
gusto
gutenberg
gutie
gutierrez
guy
guyana
guys
guzma
guzman
gynoxys
gynt
gyo
h
ha
haag
haarlem
haas
hab
habana
haber
habi
habitacio
habitantes
habla
hablan
hablar
hablemos
hace
hacer
hacha
hacia
hacienda
haciendo
hackman
had
hadji
haenkeana
hahn
hai
haikou
haile
hainan
hair
haiti
hak
haka
hakas
hakira
hal
hala
halco
hale
halen
haley
half
haliaetus
halifax
hall
halla
hallch
halle
hallka
hallmay
hallu
hallyday
ham
hamachi
hamanq
hamawt
hambre
hamburg
hamburger
hamid
hamilton
hamlet
hammer
hamp
hampaway
hampi
hampikamayuq
hampikamayuqmi
hampikuna
hampikuynin
hampina
hampiq
hampita
hampiy
hampiypa
hampshire
hamun
hamuq
hamusqa
hamut
han
hanan
hananpi
hanaq
hanaqmanta
hanaqmi
hanaqpi
hancco
hancock
hand
handbook
handler
handlers
hang
hangul
hangzhou
hanja
hanka
hankapi
hanks
hanllalli
hannah
hannover
hanoi
hanpi
hanqu
hans
hansen
hansuyu
hansuyupa
haoran
hap
hapallan
happened
happiness
happy
hapu
hapun
haq
haqaru
hara
harakmbet
harawi
harawikuna
harawikunata
harawin
harawina
harawiq
harawiqmi
harbin
harbour
harcourt
hard
hardcore
harding
hardy
hare
harinosa
hariri
hark
harlem
harlow
harm
harold
harp
harpa
harper
harpia
harpyja
harriet
harris
harrison
harry
hart
hartford
hartman
harvard
harvey
has
hasan
hasebe
hash
hassan
hasta
hat
hathaway
hatun
hatunkaray
hatunmayu
hatunmi
hatunn
hatunpila
hatunqulla
hatunqullpa
hatuntaki
haunted
hauptartikel
hauptmann
haute
havana
have
having
havre
hawa
hawai
hawaii
hawaman
hawamanta
hawan
hawanmanta
hawanpi
hawanqa
hawansuyo
hawapi
hawaqlla
hawaqucha
hawaqullay
hawari
hawarikuna
hawariykuna
hawayi
hawaykawsay
hawcha
hawk
hawkes
hawking
hawkins
hawks
hay
haya
hayaq
haydn
haye
hayes
hayk
haylli
hayn
hayni
hayt
haytaq
haytay
hayu
hayunmi
hayunqa
hayupa
hayworth
hcpcanar
hcpl
hcpo
hdr
he
head
header
health
heart
hearts
heat
heath
heathcliff
heaven
heavy
hebe
hebei
hebrew
hechizo
hecho
hechos
hector
hee
hefei
hegel
heidegger
heidelberg
heidenstam
heidi
height
heights
heilongjiang
heinemann
heinrich
heinz
helada
helado
hele
helechos
helen
helena
heliotropium
hell
hello
helmut
help
helper
helsinki
helveola
hembra
hemingway
hemiodus
henan
henderson
hendrix
heng
henri
henrietta
henrik
henrique
henry
hepatitis
hepburn
her
heraldo
heras
heraud
herb
herbert
herbie
hercule
hercules
here
heredero
herederos
heredia
herencia
herida
herido
hering
herman
hermana
hermanadas
hermanas
hermann
hermano
hermanos
hermelinda
herminia
herminio
hermosa
hermosillo
hermosura
herna
hernan
hernandez
hernando
hernani
hero
heroes
herpailurus
herr
herrera
herrerae
herrero
hertz
herzegovina
herzog
hesperomeles
hess
hesse
hessen
heston
heterophylla
heure
heurelho
heures
hevea
hewitt
hewson
hey
heyer
hg
hi
hich
hichu
hidalgo
hidden
hideera
hieracium
hierarchy
hierba
hieron
hierro
higgins
high
higher
highland
highlands
highsmith
higuera
hija
hijas
hijo
hijos
hiki
hilaire
hilaria
hilario
hilarion
hilda
hildebrando
hildebrandt
hildegard
hill
hilli
hills
hillurina
himalaya
himantopus
himno
himself
hina
hinachu
hinalla
hinallataq
hinallataqmi
hinallataqsi
hinam
hinapas
hinapi
hinaq
hinaqa
hinaqsi
hinaqtin
hinas
hinaspa
hinaspapas
hinaspataq
hinata
hinatam
hinataq
hinataqsi
hindemith
hindi
hiniral
hinostroza
hip
hiperio
hipo
hipocampo
hippeastrum
hippocamelus
hiq
hiqitipiqi
hiraganaqa
hiram
hirculus
hirishhanka
hirka
hiroshima
hiroyuki
hirsiquwina
hirsuta
hirtella
his
hisp
hispa
hispano
hispanoamericana
hispavox
hispida
histo
histoire
histoires
historia
historial
historias
historical
historique
history
hisus
hit
hitchcock
hitler
hits
hiver
hiwaru
hizo
hler
hm
hn
ho
hockey
hoffman
hoffmann
hogar
hoi
hoja
hojas
hokkaido
hoku
hola
holanda
hold
holden
holgado
holgui
holiday
holland
hollanda
hollande
hollow
hollywood
holmes
holstein
holt
holy
holzmann
hombre
hombres
home
homem
homenaje
homer
homero
hommage
homme
hommes
homo
honda
hondo
honduras
honey
honeymoon
hong
honneur
honolulu
honor
honorable
honorario
honorato
honores
honori
honoris
hood
hook
hookeriana
hoover
hop
hope
hopi
hopkins
hora
horace
horacio
horas
horatio
horca
hordeum
horizon
horizontal
horizonte
horn
horna
horrible
horrida
horror
horse
horses
horta
hortaleza
hortensia
horton
hospital
hospitalet
hossein
hot
hotel
hotelrooms
hotspur
hound
hour
hours
house
houssay
houston
how
howard
hoy
hoyo
hoyos
hr
hrer
hrung
hsien
htm
html
http
https
hu
hua
huac
huaca
huacho
huailas
hualca
huallaga
huama
huaman
huamanga
huamani
huan
huanca
huancabamba
huancane
huancavelica
huancayo
huang
huanta
huapi
huara
huaral
huaraz
huari
huarochiri
huascara
huata
huatl
huayca
huaylas
huayllamarca
huayllay
huayna
huayta
hubb
hubei
hubert
huch
huchayuq
huchayuqrayku
huchha
huchusuma
huchuy
huckleberry
huddersfield
hudson
hudyu
hudyukunap
hue
huehuetenango
huellas
huelva
huerta
huertas
huerto
hueso
huevo
hugh
hughes
hugo
hui
huila
huile
huillca
huitoto
huk
hukchakuq
hukkaq
hukkuna
hukkunapas
hukkunataq
huklla
hukllachasqa
hukn
huknin
hukniyuq
huktaq
hulkan
hull
hullaqa
hullaqapi
hulya
hulyanu
hulyu
hulyupi
huma
humala
human
humana
humanas
humanidad
humanidades
humano
humanos
humb
humber
humberto
humboldt
humboldti
hume
humilis
humo
humor
hump
humphrey
hun
hunan
hundred
hung
hungri
hunin
hunt
huntashqa
hunter
hunu
hunucha
hunumanta
hunyupi
huperzia
huq
hur
hura
huraca
huraw
hurdanya
hurquna
hurqunchik
hurqunku
hurquspa
hurquykuspa
hurtado
hurwat
hurwatsuyu
husband
husi
husiy
husk
husqa
hussein
huston
hutk
huwan
huwanhuy
huwanpa
huyhua
hwv
hy
hyde
hydrochaeris
hymenaea
hymn
hypochaeris
i
ia
ian
iata
iba
iban
ibarra
ibdb
ibe
iberia
iberoamericana
ibirica
ibis
ibn
ibrahim
ibrahimovic
ibsen
ic
ica
icaic
icao
icaza
ice
ich
icha
ichapas
ichaq
ichaqa
icharati
ichasqa
ichataq
iche
ichhu
ichhuna
ichi
ichigkat
ichik
ichilu
ichiq
ichiro
ichispa
ichiy
ichki
ichkiqucha
ichmaqucha
ichu
ichun
ichuqa
ico
icon
iconografi
iconpre
iconprops
icons
iconscount
icontext
icontip
icontotal
icterus
id
ida
idaho
idea
ideal
ideas
identacion
identidad
identificadores
ideologi
idioma
idiomas
ido
ids
iem
iempsa
ieoh
iep
iespana
ietf
if
iffhs
iga
ige
iglesia
iglesias
ign
ignacia
ignacio
ignaz
ignored
ignoreisbn
igo
igor
igual
iguana
iguara
ihiptu
ihiptupa
ii
iii
iinei
ik
ika
ikan
ikcha
ikchi
iki
ikin
ikitus
ikllu
iklluriy
ikran
ikraq
ikraqmi
ikraqnin
ikraqpas
ikrarqan
ikrasqa
ikrasqan
ikrasqankuna
ikray
ikstrimadura
iksu
ikuma
ikun
ikuna
ikunam
ikunata
ikwadur
ikwadurpa
ikwadurpi
ikwaduryanu
ikwayur
ikwayurpa
il
ilan
ilanda
ilandapa
ilandapi
ilandish
ildefonso
ilex
ilha
ili
iliktrumaqnitiku
iliktrun
iliktrunta
ililaya
illa
illampu
illanchay
illanchaykuq
illap
illapa
illapachawwan
illaq
illawi
illay
illaykuna
illaymanta
illaymi
illayta
illi
illichu
illimani
illimsa
illimsayaku
illimsayaq
illinisa
illinois
illiwa
illka
illkayuq
illtu
illu
illuqucha
illwa
ilu
iluma
ilusio
ilustraciones
ilustrada
ilustrado
ilustre
ilv
ilya
ilyich
im
ima
image
imagen
imageparameters
images
imagesstring
imaginacio
imaginario
imaka
imakuna
imakunatapas
imam
imamantapas
iman
imanaw
imanta
imanuw
imapaq
imapas
imappas
imarayku
imaraykuchus
imasa
imasmari
imata
imatapas
imawan
imay
imayay
imayaykuna
imayaykunam
imayaykunap
imayaykunata
imayaymanta
imayaymi
imayayninta
imayaypa
imayayqa
imayka
imaykana
imaykata
imaymana
imayna
imaynam
imaynatachus
imaypis
imayuq
imbabura
imbe
imcanar
imdb
imi
imina
immanuel
imp
impa
impacto
impakucha
impapura
imperdonable
imperial
imperialismo
imperio
importancia
important
importantes
imposible
impostor
impr
imprenta
impresiones
impreso
impromptu
imran
imre
in
ina
inacabada
inakuna
inakuy
inam
inampari
inapaq
inarray
inasyu
inc
inca
incaica
incaico
incana
incarum
incas
inch
inchik
inchu
incidental
incidente
incla
include
included
includes
including
incluida
incluido
incluye
incluyendo
inconclusa
inconcluso
incorrecto
increment
indanza
inde
indent
indepa
independence
independencia
independent
independiente
independientes
index
indexmundi
indi
india
indian
indiana
indianapolis
indiano
indians
indias
indica
indice
indie
indigenal
indigenous
indihina
indihinakunap
indihinakunata
indiku
indio
indios
indipindinsya
indira
individual
individuales
indo
indomable
indone
indonesia
indu
indunisya
industria
industrial
indya
indyapa
indyapi
indyu
ine
inec
ined
inegi
inei
ines
inesperado
inexistente
infancia
infanta
infante
infantil
infantiles
infeccio
infeccion
infectasqa
infernal
inferno
infiel
infierno
infinito
inflorescence
inflorescences
influencia
influenza
info
infobox
infopesa
informacio
informacion
information
informe
infty
ing
inga
inge
ingenieri
ingenio
inglaterra
ingle
ingles
inglesa
inglish
ingmar
ingrid
inherit
inhin
ini
inia
iniru
inirupi
iniy
inka
inkachaka
inkakuna
inkakunap
inkakunaqa
inkallajta
inkallaqta
inkamach
inkan
inkap
inkapirka
inkapirqa
inkaraqay
inkarri
inkas
inkawasi
inkawi
inki
inkikuna
inkill
inkinakusqa
inkiq
inkisisyun
inkisiwi
inkisqa
inkisqam
inku
inkukuna
inkuminda
inkuna
inlatirra
inlatirrapa
inlatirrapi
inline
inlis
inlish
inlisya
inlisyakuna
inlisyam
inlisyan
inlisyanin
inlisyap
inlisyapi
inlisyata
inmaculada
inmanta
inmarsat
inmi
inmortal
inmortales
inmunolo
inn
inner
innocence
innocent
innocents
ino
inocencio
inocente
inocentes
inolvidable
inolvidables
inp
inpi
input
inqa
inqu
inquietud
inquietudes
inrena
insayu
insayukuna
inscrit
inse
insecta
insert
inset
inside
insignia
insignis
insiklikakuna
inspector
instead
institucio
instituciones
institut
institute
institution
instituto
instrumental
instrumentos
instruments
insulaire
insulaires
inta
inte
integracio
integrado
integral
integrifolia
intelectual
inteligencia
inter
interactive
intercontinental
intercultural
intere
interior
interlingua
intermezzo
internacional
internacionales
internal
international
internet
interno
interpreta
interpretacio
interpretado
intertoto
intervencio
interview
interviewer
intestino
inti
intichaw
intichawwan
intika
intikuna
intillama
intimanta
intimes
intimpa
intin
intip
intipa
intiqa
intita
intitule
intiwatana
into
intriga
introduccio
introducing
introduction
intrusa
intuicio
inu
inuktitut
inuyt
invalid
invalide
invasio
invasion
invencible
invencio
inventario
inverness
inverse
investigacio
investigaciones
invierno
invisible
invitacio
invitado
invoke
io
ioannes
ion
iowa
ip
ipa
ipachina
ipairs
ipampa
ipata
ipayanchik
ipayanku
ipi
ipina
ipisqa
ipistula
ipomoea
iq
iqa
iqakupi
iqchi
iqi
iqimantam
iqin
iqintaq
iqipaq
iqipi
iqiptu
iqiq
iqiqpa
iqiqpi
iqkuna
iqpi
iqpiqa
iqta
iqtaku
iqtan
iquen
iquin
iquique
iquitos
iqun
iquq
iquqm
iquy
iquykuna
ir
ira
iracundos
irak
iran
iranu
iraq
iraqi
iraw
irayuq
irb
ire
ireland
irene
iri
iriarte
iriartea
irigoyen
iris
irish
irisqa
iritriya
irlandais
irlande
irma
iro
iron
irons
irpa
irqa
irqan
irqikunapaq
iru
irukisa
irumanta
irupana
iruru
irus
iruta
iruyuq
irving
irwin
is
isaac
isabel
isabela
isabella
isabelle
isadora
isai
isan
isanka
isaq
isaqa
isbn
isbnsugerido
isella
ishinka
ishkay
ishkaykaq
ishpinku
isi
isiboro
isicha
isidoro
isidro
isipi
iskandariya
iskanwaya
iskara
iskay
iskaykaq
iskaykuna
iskaylla
iskaymanta
iskaymi
iskaymuyu
iskayn
iskaynin
iskaynintin
iskaynintinmi
iskayniyuq
isklaw
isknownlanguagetag
isku
iskuchaka
iskultur
iskuma
iskupitani
iskusya
isla
islam
islamic
island
islande
islands
islandya
islas
islaw
islay
isle
isles
isluga
isluwakya
isluwinya
ismael
ismail
ismet
ismu
ismuchiq
ismuruku
ismuy
iso
ispa
ispan
ispana
isparaw
ispay
ispi
ispillu
ispiritu
ispiritup
isqa
isqan
isqapas
isqun
isqunniyuq
israe
israel
israeli
israyil
israyilpa
isset
issn
issue
ist
istadyu
istambul
istanbul
istatua
istiki
istiwis
istrilla
istudyu
istunya
iswa
it
ita
italia
italian
italiana
italiano
italic
italica
italie
italien
italo
italy
italya
italyanu
italyapa
italyapas
italyapi
italyayuq
itaq
itati
ite
item
itemid
items
iter
iteradd
ithana
ithiyupya
iti
itier
itikuna
itikunapi
itim
itinerario
itipi
itipiqa
itonama
its
itu
iturralde
iturregui
ituwata
itza
iu
iucn
iv
iva
ivan
ives
ivo
ivoire
iwa
iwan
iwanhiliku
iwanhilista
iwanku
iwi
iwicha
iwriyu
iwrukupa
iwrukupakuna
iwrupa
iwrupamanta
iwrupap
iwrupapi
iwrupapipas
iwrupisyun
iwrupiyu
ix
ixiamas
ixtahuaca
iy
iya
iyaku
iyar
iyara
iykama
iykuna
iymanta
iynin
iypa
iypi
iyta
iyuq
iz
izq
izquierda
izquierdo
j
ja
jacana
jacaranda
jach
jacha
jachcha
jacinta
jacinto
jack
jackie
jackson
jacob
jacobita
jacobo
jacq
jacqueline
jacques
jad
jade
jae
jagger
jaguar
jahrhundert
jahuira
jaime
jaimes
jairo
jak
jakarta
jake
jakob
jala
jalapa
jalca
jalisco
jalousie
jam
jama
jamai
jamaica
jamaicensis
jamais
jame
james
jamesi
jamie
jamil
jampikuna
jan
jana
jane
janeiro
janet
jankho
jano
janos
janq
january
janvier
jap
japan
japanese
japo
japon
japonais
japone
jaqhi
jaqi
jar
jara
jaramijo
jaramillo
jarana
jarani
jardi
jardines
jardins
jargon
jaro
jaros
jaroslav
jaruma
jarupata
jason
jaspers
jatropha
jatun
jauja
jaujamiperu
jaula
jaume
java
javier
jawa
jawaharlal
jawi
jawira
jaya
jayu
jayupaya
jazz
je
jean
jeanine
jeanne
jeanneret
jeannette
jebero
jefe
jeff
jefferson
jeffrey
jekyll
jelskii
jema
jenner
jennifer
jennings
jenny
jens
jeremy
jerez
jero
jerome
jerry
jersey
jerusale
jerusalem
jesse
jessica
jessie
jesu
jesucristo
jesucristoc
jesui
jesuita
jesus
jesuspa
jet
jeu
jeune
jeux
jewish
jhdt
jhonny
ji
jia
jiang
jiangsu
jiangxi
jigoro
jilawi
jilguero
jilin
jill
jim
jima
jimbe
jime
jimena
jimenez
jimi
jimmy
jimo
jin
jina
jinallataq
jinan
jinete
jipijapa
jirira
jirka
jisk
jitpa
jj
jne
jo
joa
joachim
joan
joanna
joanne
joaqui
joaquim
joaquin
joaquina
job
jobim
jockey
joe
joel
joey
johan
johann
johanna
johannes
john
johnny
johns
johnson
johr
joinville
jolly
jon
jonas
jonathan
jones
jorale
jord
jorda
jordan
jordi
jorge
jornada
jornal
jorobado
jorullensis
jose
josef
josefa
josefina
josep
joseph
josephine
joshua
jost
josue
joule
jour
journal
journalist
journey
jours
joven
joy
joya
joyce
jpeg
jpg
jr
json
jstor
ju
jua
juan
juana
juaneco
juanes
juanito
juarez
juch
judas
jude
judge
judi
judicial
judith
judo
judy
juego
juegos
jueluo
juez
jugador
jugadores
jugando
juglans
juguete
juguetes
juicio
juillet
juin
jujan
jujuy
juk
jul
jula
julca
jules
juli
julia
juliaca
julian
juliana
julie
julien
juliet
julieta
juliette
juliflora
julio
julius
julu
july
jumbilla
jun
junco
juncus
june
juneau
jung
jungla
jungle
juni
junio
junior
juniors
junt
junta
junto
juntos
juq
juqhu
jurado
juramento
juri
jurinuqa
jusk
jussieui
just
justice
justicia
justin
justina
justiniano
justino
justo
justus
jututu
juvenil
juveniles
juventud
juventus
k
ka
kaa
kabul
kacha
kachachi
kachan
kacharikuna
kacharpaya
kachasqa
kachi
kachichaq
kachimayu
kachiqucha
kachisapa
kachkan
kachkanku
kachkaptin
kachkaptinqa
kachkaq
kachkaqraq
kachkaspa
kachkayninmi
kachu
kachun
kachuna
kachunchu
kachura
kafka
kageneckia
kahlo
kai
kaiser
kaiserslautern
kaka
kakaw
kakawa
kakun
kakuq
kalalit
kalindaryu
kalindaryukama
kalindaryukamataq
kalindaryum
kalindaryupi
kalindaryuyuq
kalipuy
kalistu
kallampa
kallaw
kallawaya
kallpa
kallpachaq
kallpan
kallpanakuy
kallpanay
kallpanayuq
kallpanchaq
kallpanchay
kallpanchaynin
kallpaq
kallpay
kalsyu
kaluma
kalwaryu
kalyu
kam
kama
kamachi
kamachikuna
kamachikuy
kamachin
kamachina
kamachinakuy
kamachinamanta
kamachiq
kamachiqnin
kamachirqan
kamachisqa
kamachisqan
kamachiy
kamachiykuna
kamachiynin
kamachiypa
kamachiyta
kaman
kamana
kamapchu
kamaq
kamaqninmi
kamaqninsi
kamarikuspa
kamariq
kamariqninsi
kamarirqan
kamarirqanku
kamarispa
kamarisqa
kamarisqan
kamariy
kamarqa
kamarqan
kamasqa
kamasqan
kamataki
kamatu
kamay
kamaynin
kamaypaq
kamaypi
kamayuchiq
kamayuq
kamayuqkuna
kamayuqmi
kamayuqnin
kamayuqninmi
kamayuqpas
kambuya
kamiri
kamirun
kampala
kampan
kampanilla
kampionatu
kampiun
kampiunatokuna
kampiunatu
kampiunatukuna
kampiunkuna
kampiuonatu
kampiuonatukuna
kamri
kamsa
kamu
kan
kana
kanada
kanadapi
kanagawa
kanan
kananchikpaq
kanankaq
kananmi
kananpaq
kananta
kanapaq
kanarya
kanaryapi
kanata
kanayuq
kancha
kanchan
kanchaqi
kanchar
kanchayllu
kanchik
kanchilla
kanchu
kandilariya
kandilarya
kandoshi
kane
kanema
kang
kanichana
kanila
kankallu
kankawa
kanki
kanku
kankuman
kanlla
kanllaqucha
kanman
kanmanchu
kanmi
kannada
kano
kanqa
kanqaku
kanraq
kansai
kansas
kansillir
kansillirnin
kant
kanta
kantarawi
kantaray
kanto
kantun
kantunkuna
kantunmi
kantunpa
kantunpi
kantunpiqa
kantunupi
kantunwan
kanuwa
kapachika
kapak
kapanawa
kapchiq
kapchiqkuna
kapchiy
kapchiymi
kapchiynin
kapchiypa
kapchiypi
kapchiytam
kapena
kaphiy
kapilla
kapinuta
kapitalista
kapiwara
kapka
kaplina
kapoor
kaptin
kaptinmi
kaptinpas
kaptinqa
kaptinsi
kapuli
kapun
kapunakuq
kapunku
kapuq
kapurata
kapurqan
kapuy
kaq
kaqchikel
kaqhina
kaqkama
kaqkuna
kaqkunam
kaqkunaman
kaqkunamanta
kaqkunapaq
kaqkunapi
kaqkunaqa
kaqkunata
kaqkunawan
kaqlla
kaqllam
kaqman
kaqmanta
kaqmi
kaqnin
kaqninkuna
kaqninqa
kaqninta
kaqniyuq
kaqpa
kaqpaq
kaqpas
kaqpata
kaqpi
kaqqa
kaqrayku
kaqta
kaqtapas
kaqtaq
kaqwan
kaqwata
kar
kara
karachi
karakas
karal
karan
karanka
karanki
karapunku
karate
karchi
kardinal
kareem
karen
karenina
kari
karim
karin
karina
kariwa
karka
karl
karlus
karma
karmin
karnawal
karpa
karqa
karqan
karqanku
karqaptin
karqaspa
karta
kartul
kartulsuyu
kartulsuyupa
karu
karuchu
karum
karun
karunchi
karupi
kasarakusqa
kasarakuy
kasha
kashamarka
kashamarkapi
kashamarkilla
kashan
kashapampa
kashinawa
kasiri
kaska
kaskas
kaskawil
kasma
kaspa
kaspapas
kaspaqa
kaspi
kasqa
kasqallantaq
kasqan
kasqankuta
kasqanmanta
kasqanrayku
kasqanta
kast
kasta
kastan
kastilla
kastillanu
kastillu
katakanawan
katalan
katalina
katalunya
katalunyapi
katamayu
katantika
katari
kate
katharina
katharine
katherine
kathidral
kathleen
kathuliku
katidral
katie
katiguriya
katiguriyam
katsun
katuliku
katz
kawallu
kawallupi
kawalluqucha
kawasaki
kaway
kawaynin
kawaypa
kawin
kawinen
kawitu
kawllay
kawpaq
kawpaqpas
kawpay
kawri
kawsa
kawsachikuy
kawsachkan
kawsachkanku
kawsan
kawsana
kawsananchikpaq
kawsanapaq
kawsanku
kawsaq
kawsaqkuna
kawsaqkunam
kawsaqkunamanta
kawsaqkunap
kawsaqkunapaq
kawsaqkunata
kawsaqpa
kawsarqan
kawsaspa
kawsasqa
kawsasqamanta
kawsasqan
kawsasqanmanta
kawsay
kawsaykuq
kawsaykuqkunam
kawsaykuqkunap
kawsaykuska
kawsaynin
kawsayninmanta
kawsayninpi
kawsayninta
kawsaypa
kawsaypaq
kawsaypi
kawsayta
kawsayuq
kawsillu
kawul
kay
kayampi
kayan
kayapas
kayhina
kayish
kaykuna
kaykunaqa
kaykunata
kaykunatam
kaykunawan
kaylluma
kayman
kaymancha
kaymanta
kaymi
kaynaku
kaynin
kayninkuna
kayninmanta
kayninmi
kayninpaq
kayninta
kayniyuq
kaypa
kaypaq
kaypas
kaypi
kaypim
kaypipa
kaypipas
kaypiqa
kayqa
kayrayku
kaysi
kayta
kaytam
kaytaq
kaytas
kaytawan
kayuwawa
kaywa
kaywan
kazakh
kazakhstan
kazan
kb
kc
ke
kean
keane
kechwa
keep
keighley
keiko
keith
keller
kelley
kelly
kelvin
kemal
kempff
ken
kennedy
kenneth
kenny
kent
kentucky
kenya
keres
kern
kerr
kevin
key
keyboard
keydate
kg
kh
khallka
khan
khana
khankiq
khankiqmi
khanna
khanpa
khara
khari
khata
khilla
khillay
khillaymanta
khillayn
khiniya
khipu
khirkinchu
khiru
khmer
khocha
khoi
khomeini
khota
khrisimasi
khuchi
khuchinilla
khunu
khunuqullu
khunurana
khurupampa
khuska
khuyay
ki
kichasqa
kichay
kichka
kichkasapa
kichwa
kichwapi
kichwarimay
kid
kids
kiel
kikihana
kikillan
kikin
kikinpa
kiko
kikuyu
kila
kilanka
kilish
kill
killa
killachaw
killachawwan
killakama
killakunapim
killamanta
killapa
killapampa
killapi
killaqa
killaqullu
killawat
killawaya
killer
killikacha
killikachap
killka
killki
killku
killmu
killu
kilome
kilometer
kilpuntu
kilta
kilugramu
kilumitru
kilutuwa
kim
kima
kimsa
kimsak
kimsakaq
kimsaluma
kimsan
kimsantin
kimsayuq
kin
kina
kind
kindle
king
kingdom
kings
kingston
kinhuwa
kininti
kinray
kinrayninmi
kinrayninpi
kinrayninpiqa
kinsa
kinshasa
kinu
kinwa
kinwara
kinya
kipa
kipling
kipru
kipu
kirani
kirche
kirchner
kiribati
kirilitsa
kirk
kirkisuyu
kirpana
kiru
kiruni
kiruyuq
kisa
kisapincha
kiskachay
kisma
kismapi
kiss
kisuq
kiswar
kiswara
kita
kitara
kitarahu
kitarata
kiti
kitikuna
kitikunap
kitilli
kitillikuna
kitillikunapi
kitillim
kitillimanta
kitillinkuna
kitillinmi
kitillip
kitillipas
kitillipi
kitillipipas
kitillipiqa
kitilliqa
kitim
kitimanta
kitinkuna
kitinmi
kitip
kitipi
kitipipas
kitipiqa
kitiqa
kitu
kitupi
kiwicha
kiwna
kiwuta
kiyaqa
kiyiw
kjarkas
kk
kkollu
kkota
klara
klasiku
klaus
klavier
klaviere
klavierkonzert
klawil
klein
kleine
klisa
klose
klotzsch
klub
klubkuna
klubmi
kluivert
km
kn
knight
knopfler
know
knowledge
known
knows
ko
kobayashi
kobe
koch
kocsis
kodama
koeman
koepckeae
kofi
kohl
kolkata
kollpa
komanso
komi
konex
kong
kongo
konkani
konrad
konstantin
konstantinos
konzert
korea
korean
korianu
korsakov
kos
kossel
kota
kowalska
kowii
kra
kraenzl
kraj
krako
kramer
krameria
kraus
krause
krebs
kri
krisniqas
kristianu
kristin
kristiyanu
kristiyanukuna
kristiyanukunapaq
kristu
kristup
kristuwal
kritiryukuna
krogh
kru
krum
krus
krusiru
kruspi
ks
ku
kuala
kuba
kubitschek
kubrick
kucha
kuchi
kuchipillan
kuchu
kuchuna
kuchuspa
kuczynski
kue
kuentukuna
kuka
kukama
kukan
kukani
kukapampa
kukapata
kukimpu
kukuli
kukyukuna
kulaburasyunkuna
kulantru
kulictivukuna
kulina
kulintang
kulis
kullawa
kulli
kullku
kulta
kultura
kulumbu
kulumbya
kulumbyap
kulumbyapa
kulumbyapi
kulumbyapipas
kulunya
kulunyan
kumamoto
kumanta
kumar
kumarapa
kumbinsyun
kumpa
kumpi
kumpilasyun
kumpilasyunkuna
kumpusitur
kumu
kumunismu
kumunista
kun
kuna
kunamanta
kunan
kunankama
kunankamapas
kunanpacha
kunanpachapi
kunanqa
kunanraq
kunanraqmi
kunantaq
kunas
kunawan
kunchuku
kundadukuna
kunfederasyunkuna
kung
kungu
kunka
kunkakunap
kunkapaqmi
kunkawaki
kunkistadur
kunming
kunrisista
kunrisu
kunrisun
kunrisunman
kunrisupi
kunsipsyun
kunsthistorisches
kunsulam
kuntamana
kunth
kunti
kuntiman
kuntimanta
kuntinpi
kuntipampa
kuntisuyu
kuntisuyus
kuntrawasu
kuntur
kunturi
kunturillu
kunturiri
kunturkanki
kunturkin
kunturpun
kunturquta
kunturtawa
kunturwasi
kuntze
kunu
kunwintu
kupa
kupakuna
kupam
kura
kuraka
kurakakuna
kurakan
kurakanaka
kurakanin
kurakankuna
kurakanmi
kuraq
kuraray
kurawara
kurawasi
kurdi
kuri
kurikinka
kuriya
kurku
kurkun
kurkunpi
kurkunta
kurkup
kurkupi
kurosawa
kurregimyentukuna
kurt
kuru
kurunawirus
kurunku
kururay
kurwa
kuryu
kusa
kusasqa
kusi
kusipata
kusituy
kusituykuna
kusituymi
kuska
kuskalla
kuskan
kuskanchaku
kuskanchik
kuski
kusma
kusmaillu
kustarica
kustarika
kustarikapa
kusupampa
kuta
kutaisi
kutakachi
kutalu
kutana
kutapampa
kutasqa
kutawasi
kuti
kutim
kutimpu
kutimurqan
kutin
kutipay
kutipayaq
kutiqa
kutita
kutitaq
kutu
kutupaksi
kuwa
kuwait
kuwiha
kuy
kuyakuy
kuyawinu
kuyay
kuyaypa
kuykucha
kuyu
kuyuchina
kuyuchinapaq
kuyuchinayuq
kuyuchisqa
kuyuq
kuyuy
kuyuylla
kuyuymi
kv
kwa
kwambiri
kwiatostan
kwok
ky
kyi
kyo
kyoto
kyu
københavn
l
la
label
labels
labem
laberinto
labios
labor
labrador
lac
laca
lachay
lachesis
lachiwa
ladd
ladislao
lado
ladri
ladro
ladrones
lady
lafur
laga
lagarto
lagartu
lagenaria
lagidium
lago
lagopus
lagos
lagothricha
lagothrix
lagotricha
laguna
lagunas
lagunillas
lahm
lai
laime
laja
lajas
lak
lakachu
lakawiti
lake
laki
lakota
lalla
lalo
lam
lama
lamar
lamarque
lamas
lamay
lamb
lambate
lambayeque
lambert
lamento
lamiaceae
lamista
lamo
lampa
lampalliqi
lamud
lan
lana
lanatus
lancashire
lancaster
lanceolata
land
landa
lande
landeo
landscape
landschaftsverband
lane
lang
langcode
lange
langswitch
language
languages
langue
langues
lani
lanka
lanki
lankilayu
lansing
lantana
lanthanu
lanu
lanza
lanzamiento
lanzarote
lanzhou
lao
laos
laozi
lap
lapa
lapansi
lappa
lapwing
laq
laqha
laqri
laqu
lara
laram
laranqa
laraw
larco
laredo
lares
larga
largo
largometraje
lari
laridae
lariqaqa
laris
larqanku
larrai
larran
larrea
larriva
larry
lars
larunpi
larus
las
laso
lasso
last
lastauthoramp
lastenia
lat
lata
latacunga
latakunka
late
lateral
lati
latifolia
latin
latina
latine
latino
latinoame
latinoamericana
latinoamericano
latinoamericanos
latitude
latn
lau
laura
lauraceae
laureano
laurel
laureles
lauren
laurence
laurens
laurent
lauro
lausanne
lava
lavalle
lavalleja
laveran
lavoe
law
lawa
lawqa
lawrence
lawriqucha
lay
laya
layakuna
layam
laydate
layer
layme
layqa
laysource
layu
layurl
lazio
lazo
lb
lbum
lbumes
lbumkuna
lcar
lccn
ld
le
lea
lead
leader
leading
leaf
league
leal
leandro
lear
least
leave
leaves
leben
lebres
leccio
leccion
lecciones
lech
leche
lechleri
lection
lector
lectores
lectura
lecturas
lectures
led
leda
ledesma
lee
leeds
leer
left
leg
legacy
legado
legal
legend
legende
legends
legio
legislacio
legislative
legrand
legua
legui
lehm
lehrstu
lei
leicester
leiden
leigh
leila
leipzig
leiria
leite
lejano
lejanos
lejos
leko
lema
lement
lemus
len
lena
length
lengua
lenguaje
lenguas
lenin
leningrad
lennon
lento
leo
leon
leona
leonard
leonardo
leoncavallo
leoncio
leone
leonel
leonela
leones
leoni
leonid
leonidas
leonor
leonora
leopardus
leopold
leopoldo
lepidium
leporinus
lepra
leptodactylus
leptotila
lequerica
lerner
leroy
les
lesbia
leslie
lesotho
less
lessing
lessonia
lester
let
leticia
letra
letras
letter
lettera
letteratura
letters
lettre
lettres
leung
lev
levantado
levin
lewis
lex
lexicografi
lexus
ley
leyenda
leyendas
leyes
leymebamba
lez
lezama
lfp
lgica
li
lia
liam
liang
liaoning
lib
libanu
libanupa
libe
liber
liberacio
liberal
liberia
libero
libertad
libertador
libertadores
liberte
liberty
libirya
librairie
library
libraryutil
libre
libreri
libres
libreto
libri
libro
libros
libya
lic
lica
licas
licencia
licenciado
liceo
lichi
lichimanta
lico
lida
lidia
lido
lie
liebe
liebig
liechtenstein
lied
liedes
lien
liens
lienzo
lies
lieu
life
liga
ligas
ligera
light
ligne
ligue
liguria
lika
likankawur
like
liki
likichu
likuma
lila
lili
lilia
lilian
liliana
lille
lillian
lilloi
lily
lima
limamanta
limap
limapas
limapi
limaq
limaqpa
limaqpi
limatampu
limay
limburg
limen
limit
limitada
limo
limon
limpia
limpyupunku
lin
lina
linares
lince
lincha
lincoln
linda
lindbergh
lindl
lindo
lindsay
line
linea
lineal
lineatum
lineatus
lines
linestring
linfo
ling
linga
lingu
lingua
linguistic
linguistics
link
linked
linkfa
links
linli
linnaeus
linne
lino
linsi
linsur
linti
linus
lio
lion
lionel
lions
lipis
liq
lira
lirondo
lirqay
lisa
lisboa
lisis
list
lista
liste
listen
listritu
listritum
listritupi
listritupiqa
lists
listtype
liszt
lit
lita
lite
literaria
literarias
literario
literarios
literary
literatura
literaturas
literature
lito
litoral
litte
little
litunya
lituwa
liu
liv
live
liverpool
lives
livia
living
livingston
livorno
livre
livro
liwi
liwitaka
liwru
liwruchaq
liwruchasqa
liwrukuna
liwrukunapi
liwrum
liwrumanta
liwrupi
liwtu
lix
liyun
liyunpas
liz
liza
lizalde
ljubljana
ll
lla
llaki
llakipampa
llakta
llaktapi
llakwash
llallawa
llama
llamada
llamado
llamakuna
llaman
llamas
llamayu
llamerada
llamillin
llamk
llamp
llampu
llan
llanfair
llanfihangel
llank
llankanuku
llano
llanos
llanpu
llanqha
llanqu
llanta
llanto
llantu
llapa
llapan
llaptap
llaptapi
llaptayuq
llaqa
llaqi
llaqta
llaqtacha
llaqtacham
llaqtachapi
llaqtachapiqa
llaqtachaqa
llaqtahun
llaqtakuna
llaqtakunam
llaqtakunamanta
llaqtakunap
llaqtakunapaq
llaqtakunapas
llaqtakunapi
llaqtakunapim
llaqtakunaqa
llaqtakunas
llaqtakunata
llaqtam
llaqtaman
llaqtamanmi
llaqtamanta
llaqtamantaqa
llaqtami
llaqtan
llaqtaniq
llaqtankuna
llaqtanmi
llaqtanpi
llaqtanqa
llaqtansi
llaqtap
llaqtapa
llaqtapas
llaqtapata
llaqtapi
llaqtapim
llaqtapipas
llaqtapiqa
llaqtapis
llaqtapitaq
llaqtapmi
llaqtapura
llaqtapusay
llaqtaq
llaqtaqa
llaqtarunakunapaq
llaqtas
llaqtata
llaqtataqa
llaqtatas
llaqtawan
llaqtaypa
llaqtayuq
llaqwa
llar
llaro
llasaq
llasaqmi
llat
llata
llatapi
llave
llawi
llawq
llawt
llaxtachan
lle
llega
llegado
llego
llegue
lleida
llena
ller
lleras
llerena
lleva
llevo
llik
llika
llikakuna
llikam
llikan
llikap
llikapi
llikapiqa
llikilliki
llimanta
llimp
llimphi
llimphim
llimphiq
llimphiqmi
llimphiqpas
llimphisqa
llimphisqan
llimphiy
llimphiykuna
llimphiyuq
llimphiyuqmi
llimphykuna
llipt
lliqti
llista
lliw
lliwmanta
llobregat
llona
llora
lloran
llorar
llorente
llosa
lloyd
lluchk
llueve
llui
llulla
llullu
llullucha
llulluchi
llump
llumpa
llumpapi
llumpawan
lluna
llunku
llup
lluq
lluqi
lluqlla
lluqsimuy
lluqsin
lluqsiq
lluqsirqan
lluqsiy
lluqu
llut
lluta
llutaypa
lluvia
lluxi
ln
lo
loa
load
loaddata
loaiza
loasa
loayza
lobato
lobelia
lobivia
lobo
lobos
loca
local
localcase
localdata
localizacio
locas
location
loch
loco
locos
locura
locuras
log
logan
logic
logo
logos
logro
logron
loi
loire
lois
loja
lola
lolita
lolium
lollobrigida
loma
lomas
lombardi
lombardia
lombardo
lome
lomo
lomond
lon
lonchocarpus
london
londres
lone
lonely
long
longest
longicaudis
longifolia
longitud
longitude
longmans
lontra
look
looking
lope
lopes
lopez
lophonetta
lorca
lord
loren
lorena
lorenza
lorenzo
lores
loreto
loro
lorraine
los
losada
lose
lost
lothar
lou
lough
louie
louis
louise
louisiana
loukatka
loukotka
lourdes
louvre
love
loved
lovely
lover
lovers
loves
loving
low
lower
lowercase
loy
loynaz
loyola
lozada
lozano
lp
ls
lt
ltd
ltima
ltimas
ltimo
ltimos
lu
lua
luanda
lublin
luc
luca
lucanas
lucas
lucca
lucero
luces
lucha
luchino
lucho
luci
lucia
luciana
luciano
lucie
lucien
lucila
lucille
lucio
luck
lucky
lucrecia
lucy
lude
ludovico
ludwig
ludz
luego
lugar
lugares
lugo
lugones
lui
luigi
luis
luisa
luiz
luja
luka
lukana
lukanamarka
lukas
lukaspa
luke
lukma
lukri
luksimbur
luksur
lukumpa
lukurmata
lula
lulas
lule
lulu
luma
lumen
lumie
lumpaki
lumu
luna
lunar
lunawana
lune
lunes
lunp
luo
lupaka
lupe
lupinus
lupita
lupuna
luq
luqma
luque
lurasnu
luri
lurigancho
lurin
luriqucha
luritu
luriway
luru
lurumayu
lusaka
lusiya
lussac
lustra
lusuriaqa
lutea
luther
luto
lutra
luwichu
luwis
lux
luxembourg
luxemburg
luya
luychu
luyu
luz
luzmila
luzuriaga
lv
lvarez
lvaro
lvez
lycalopex
lyce
lycioides
lycopersicon
lycopodium
lydia
lynch
lynn
lynne
lyon
m
ma
maastricht
maathai
mabel
mac
maca
macao
macario
macas
macau
macbeth
macbr
macbride
macchi
macdonald
mace
macedo
macedonio
maceio
mach
macha
machaca
machachi
machado
machala
machalilla
machaqa
machaqamarka
machay
mache
machi
machin
machina
machine
machiqinqa
macho
machu
machuca
maci
mackenzie
maclean
macleod
macmillan
maco
macracantha
macrantha
macrocarpa
macrophylla
macularius
maculatum
maculosa
mad
madagascar
madagaskar
madalengoitia
madama
madame
made
madeira
madeleine
mademoiselle
madera
madero
madidi
madison
madiyan
madona
madonna
madrastra
madre
madres
madrid
madridpi
madrigal
mae
maestra
maestro
maestros
maeterlinck
mafia
magalha
magallanes
magaly
magazine
magda
magdalena
magellanica
magia
magic
magisterial
magisteriales
magna
magni
magnificent
magno
magnoliopsida
magnum
magnus
mago
magos
maguin
magyar
maha
mahathir
mahis
mahler
mahmud
mahon
mahuad
mai
maia
maiden
main
maincolor
maine
mainpart
mainsnak
maintenance
maintenancecat
mainz
maior
maipurano
mais
maison
majen
majeur
major
mak
maka
makara
makas
make
makeinvokefunction
makes
maki
makidunya
making
makipura
makisapa
makiyasiq
makiyasiqmi
makiyasiy
makiyuq
makoto
makru
makusani
mal
mala
malaria
malasya
malawi
malayalam
malcolm
maldicio
maldita
maldito
malditos
maldonado
male
mali
malibu
malla
malle
malli
mallki
mallkim
mallku
mallorca
malo
malone
malpartida
malquerida
malta
malte
maluma
malva
malwa
mam
mama
mamacha
mamallaktata
mamallaqta
mamallaqtakuna
mamallaqtakunap
mamallaqtakunapi
mamallaqtam
mamallaqtamanta
mamallaqtap
mamallaqtapi
mamallaqtapura
mamallaqtaqa
mamallaqtatapura
mamallaqtayuq
maman
mamani
mamanpa
mamanqa
mamantaq
mamaqucha
mamay
mamayuq
mambo
mame
mami
mamma
mammal
mamuriy
man
mana
manabi
management
managua
manam
manan
manantial
manaqa
manaraq
manaraqmi
manas
manataq
manataqmi
manataqsi
manawa
manawi
mancha
manchay
manchester
manchu
manchunka
manco
manda
mandan
mandarin
mandato
mandela
mando
mandonii
mane
manejo
manera
manga
manglares
mango
manhattan
mani
manie
manifiesto
manila
manipulacio
maniqui
manitoba
manizales
manka
mankiewicz
manku
mankumarka
mann
mannen
mannheim
manny
mano
manoa
manolete
manolito
manolo
manos
manqu
manqus
manrique
mansana
mansio
mansirichi
mansoa
manta
mantapas
mantaro
mantaru
mantilla
manto
manu
manual
manuel
manuela
manuelcha
manuelita
manuripi
manuscrito
many
manya
manyanpi
manyayuq
manzana
manzanares
manzanero
mao
map
mapa
mapas
mapcarta
mapframe
mapiri
maplink
maps
mapuchi
mapudungun
maq
maqa
maqanakuq
maqanakurqan
maqanakuspa
maqanakuy
maqanakuypa
maqanakuypaq
maqanakuypi
maqanakuyta
maqaq
maqari
maqlluq
maqnitiku
maqroll
maqt
maquillaje
mar
mara
maracay
maradona
marais
marakaypu
maramba
maran
maranha
marankani
maraq
maras
marathi
marathon
maravilla
maravillas
maravilloso
marawa
maray
marba
marc
marca
marcada
marcel
marcela
marceline
marcelino
marcello
marcelo
march
marcha
marche
marchena
marcial
marciano
marco
marconi
marcos
marcus
mare
marea
mares
marfil
marga
margaret
margarita
marge
margin
marginatum
margot
margoth
marguerite
margyricarpus
mari
maria
mariaca
mariachi
mariah
mariam
mariama
mariana
marianela
marianne
mariano
maribel
marido
maridos
mariduen
marie
marilyn
marimar
marin
marina
marine
marinera
marini
marino
mario
marion
mariposa
mariposas
marisa
mariscal
marisol
marito
maritza
mariya
mariyap
mariyaq
marjorie
mark
marka
markakuna
markakunap
markam
markamanta
markap
markapata
markapi
markapipas
markapiqa
markapumaqucha
markaqucha
markara
markawamachuku
markawasi
markawili
marker
market
markhu
marks
marksismu
marksize
markus
markuspa
marlene
marley
marlon
marlowe
marmosa
maroc
marphil
marple
marq
marque
marquez
marriage
married
marroquin
marrubium
marruecos
mars
marseille
marsella
marshall
marsu
marsupi
marsupialis
mart
marta
martes
martha
marti
martillo
martin
martina
martinez
martini
martino
martins
martius
marty
maru
maruku
marvin
marx
mary
marya
maryland
marzo
mas
masa
masacre
masaya
mascagni
masculin
masculino
masdevallia
maseru
masi
masikuna
masin
masinkunapaq
masinkunawan
masintin
masitunya
masiy
mask
maskaq
maskitem
maskitemid
masklabels
maskoki
masma
maso
mason
masque
masquerannee
masquermois
mass
massachusetts
massacre
masse
massimo
mast
master
masters
mastocitos
mastrocinque
mastroianni
masu
mat
mata
matagalpa
mataku
matamoros
matan
matancera
matanza
matanzas
matar
matara
matarahu
match
matchflag
mate
matema
mateo
mater
materia
material
math
mathbb
mathcal
mathilde
mathiyup
mathrm
mati
matiku
matilde
matique
matiyu
mato
matos
matrimonial
matrimonio
matrimonios
matt
matter
matthew
matthews
matthias
matto
mattoli
matu
matucana
matukana
matus
maule
maureen
mauri
maurice
mauricio
mauritia
maurizio
mauro
mavila
maw
mawk
mawlli
mawri
mawu
max
maxim
maxima
maximiliano
maximo
maximum
maximus
maxine
maxwell
may
maya
maych
mayer
mayii
mayk
maymanpas
maymanta
maynas
mayninpipas
mayo
mayolo
mayor
mayorazgo
mayorga
mayori
maypi
maypichus
maypim
maypipas
maypis
mayqan
mayqin
mayqinchus
mayqinkunachus
mayqinkunapichus
mays
mayt
mayta
maytakuna
maytaq
maytu
mayu
mayuatu
mayukillap
mayukillapi
mayuku
mayukuna
mayukunap
mayukunapi
mayum
mayuman
mayumanta
mayun
mayunkunapi
mayup
mayupa
mayupas
mayupi
mayupura
mayuqa
mayuruna
mayusuksu
mayutata
mayuwan
maywiy
mazama
mazzola
mb
mbola
mbolo
mbya
mc
mccartney
mccoy
mcdermott
mcgregor
mclaglen
md
me
means
meazza
meca
mecanismo
mechnikov
mecklenburg
med
medal
medalla
medallakuna
medardo
medelli
media
medianoche
mediawiki
medicago
medicina
medicinal
medicinales
medida
medina
medio
medios
meditacio
meditaciones
medrano
medusa
meet
meets
meg
megalobulimus
megalopterus
megantoni
mei
meier
mein
meir
meister
meji
mejia
mejillones
mejor
mejores
mel
melancoli
melanoleuca
melanoleucus
melanopareia
melanopis
melanops
melanoptera
melanosuchus
melbourne
melchor
mele
melendez
melgar
melgarejo
melhor
melissa
melito
mellado
melo
melodi
melody
melville
melvin
melvyn
members
memo
memoria
memorial
memorias
memories
memory
memphis
men
mena
menacho
menchu
mendel
mendelssohn
mendes
mendez
mendieta
mendigo
mendonc
mendoza
mene
menem
menes
meneses
menezes
meng
menino
meno
menor
menos
menotti
mensaje
ment
menta
mente
mentha
mentira
mentiras
mentiroso
mer
mera
mercader
mercado
merced
mercedes
mercosur
mercure
mercurio
mercury
merello
merengue
merganetta
merida
merino
merlin
mero
meros
merry
merthyr
meryl
mes
mesa
mesacceso
mescalero
meses
mesi
mesili
message
messages
messe
messi
messiaen
messina
mestre
met
meta
metaargs
metal
metallica
metallura
metatable
meter
metre
metres
metriopelia
metro
metropolitan
metropolitana
metropolitano
metros
mettre
metz
meu
mexicali
mexican
mexicana
mexicano
mexicanus
mexico
meyenii
meyer
meyerhof
mez
meza
mezzo
mg
mi
mia
miami
mian
mic
mica
micaela
micas
mich
micha
michael
micham
michaman
michata
miche
michel
michelangelo
michele
michelle
michi
michigan
michiko
michiq
michiy
michoaca
mick
mickey
mico
miconia
micos
micrantha
microne
microptera
microsoft
micrurus
middle
middlesbrough
mide
midi
midlands
midnight
mie
miedo
miedos
miel
miembro
miento
mientras
mifune
mighty
miguel
miguelito
mihiku
mihikupa
miihiku
mikael
mikania
mike
mikhail
mikhun
mikhuna
mikhunakuna
mikhunam
mikhunapaq
mikhunata
mikhunchik
mikhunku
mikhuq
mikhuqmi
mikhuspa
mikhuy
miki
mikis
mikuna
mikuy
mikuyan
mikuyta
mil
mila
milagro
milagros
milan
milane
milano
mile
milenio
miles
milestone
militar
militares
militaris
milk
mill
milla
millar
millas
millay
mille
millennium
miller
million
millma
millmamanta
millo
millonario
millonarios
millones
millp
millu
milluni
milluqucha
milonga
milos
milpas
milton
milwaukee
mily
mimi
mimus
min
mina
minapunta
minas
minaspata
mind
mindo
mine
minedu
mineiro
mineros
minerva
mineur
ming
minh
minha
mini
minin
miniserie
miniseries
ministerio
ministeriodecultura
ministro
ministru
ministrukuna
ministrunin
ministruninmi
ministrunmi
mink
minnelli
minnesota
minor
minsk
minster
minthostachys
minus
minuta
minute
minutes
minuto
minutos
minutu
minutuyuq
minuywanqa
mio
miqapaka
mir
mira
mirachisqa
miracle
mirada
mirador
miraflores
mirana
miranda
mirar
miray
miraykuq
mirbeau
miriam
mirla
miro
miroslav
mirror
mirrors
mirtha
mirza
mis
misa
misael
miscela
mise
miserables
mishana
mishi
mishika
mishiku
mishikunapas
mishikup
mishikupa
mishikupi
mishki
mishtika
misi
misio
misiones
misk
miski
miskitu
misma
mismi
mismo
miss
missing
mission
mississippi
missoula
missouri
mister
misterio
misterios
misteriosa
misti
mistikunapaq
mistral
misyunkuna
mit
mita
mitad
mitan
mitchell
mitchum
mite
mites
mitma
mito
mitologi
mitos
mitre
mitru
mitrukama
mitrum
mitrumanta
mitte
mitu
mituqucha
mix
mixed
mixta
mixto
miyil
miyu
miyusapa
mizuki
mkhare
ml
mlp
mm
mmm
mn
mo
moc
mocache
mocha
moche
mocratique
mod
mode
model
modelo
modelos
modern
moderna
moderne
modernidad
modernismo
moderno
modernos
modest
modesto
modi
modigliani
modo
module
moduledata
modulename
moduleparams
modules
moglie
mogrovejo
mohamad
mohamed
mohammad
mohammed
moi
moines
moins
moire
moires
mois
moise
moises
mojado
mojanda
mojarras
mojica
mojiganga
mol
moldenke
mole
molie
molina
molino
molinos
moll
molle
mollis
mollissima
mollo
mollohuanca
molloy
molly
molothrus
moment
momento
momentos
momota
momotus
mon
mona
monaco
monagas
monasterio
moncada
moncayo
moncloa
mondadori
monde
mondial
mondiale
mondo
moneda
monet
money
monge
mongol
mongolia
monicelli
monique
monitor
monja
monjas
monje
monk
monkey
monnina
mono
monos
monroe
mons
monsefu
monsen
monsieur
monsters
monstruo
monstruos
mont
montalba
montalvo
montan
montana
montand
montaner
monte
monteagudo
montecristi
montecristo
montejo
montemar
montenegro
monteri
montero
monterrey
montes
montesinos
montevideo
montgomery
month
monticola
montiel
montjui
montoya
montpelier
montpellier
montreal
montserrat
montu
monument
monumental
monumento
monza
monzo
moon
moore
moors
moquegua
mora
morada
moraes
moral
morale
morales
moran
moratalaz
moravia
moraza
morchella
more
moreau
moreira
morel
morelia
morelli
morelos
morena
morenada
moreno
moreyra
morfologi
morgan
morgue
mori
morillo
morir
moritz
morning
moro
morocco
morona
moronasantiago
morris
morrison
morro
morrow
morse
mort
mortal
mortales
morte
mortiz
morton
morts
morus
mosca
moschata
moscoso
moscow
moscu
moses
mosete
moskwa
mosoq
mosquera
mosqueteros
most
mostrando
mostrarcalendario
mot
mother
moti
motivo
motivos
moto
motocicleta
motor
motown
mots
motu
mount
mountain
mountains
moura
mouse
mouth
mouton
mouvement
movablebridge
moves
movie
movies
movima
movimiento
moving
movistar
moxos
moya
moyen
moza
mozambique
mozart
mp
mpaka
mpara
mr
mrs
ms
msa
msg
msi
msnm
mt
mtv
mu
much
muchacha
muchachita
muchacho
muchachos
muchas
muchik
muchnik
mucho
muchuy
muddy
mudo
muehlenbeckia
muela
muell
muera
muere
mueren
muero
muerta
muerte
muerto
muertos
muestra
muhamed
muhammad
muhiniti
muhu
muja
mujer
mujeres
mujica
mukachi
muksi
muksichaq
muksichaqta
muksichaqwan
muku
mula
mulanovich
mulanpi
mulata
mulato
mulduwa
mulheres
mulinupampa
mull
mulla
mullaka
muller
mulli
mullintu
mullipampa
mullipata
mulliwaya
mullu
mulo
mult
multi
multiflora
multiflorum
multimidyam
multiple
multitud
mumbai
mun
munaku
munakun
munan
munanku
munanmi
munaq
munarqa
munarqan
munaspa
munasqa
munasqan
munay
munaylla
mundial
mundiales
mundo
mundos
mungul
muni
muniandahuaylas
muniaymaraes
munibongara
municalca
municanete
municarabaya
munich
munichachapoyas
municipal
municipales
municipalidad
municipio
municipiocastilla
municipiodealausi
municipiodecolta
municipiodemejia
municipioderiobamba
municipioesmeraldas
municipios
municontumaza
munihuancavelica
munihuancayo
munihuaral
munihuari
munihuaura
munijaen
munilamar
munilaoroya
muniparuro
muniprovhuarochiri
muniputina
munisanmarcos
munisipyu
munisipyukuna
munisipyum
munisipyumanta
munisipyumikan
munisipyunkuna
munisipyunmi
munisipyup
munisipyupi
munisipyupiqa
munisipyuqa
munitarata
munitarma
munitayacaja
muniurubamba
muniutcubamba
muniyauyos
munro
munsun
munti
muntipuquy
munumintu
muqiwa
muqma
muqu
mur
mura
murad
murakami
mural
murale
muralla
murawya
muray
murcia
murder
murders
murdoch
murga
muriel
muriendo
murillo
murina
murio
murira
muritanya
muriti
muro
murphy
murray
murrupun
muru
muruchata
murukuna
murukunata
muruna
muruni
murunkunata
murunkunatam
muruqucha
mururata
mururqa
muruyuq
mus
musa
musambik
muse
musee
musef
museo
museos
museu
museum
mushuq
music
musica
musical
musicales
musik
musika
musikanin
musiku
musikun
musikupi
musikuq
musique
musiyu
musiyukuna
musiyum
musiyun
musk
muskaya
muslim
musna
musphachiq
musphay
musquynin
mussorgsky
must
mustafa
mustasa
mustela
musu
musuq
musuqllaqta
musuqmanta
musuqta
musyana
musyay
mut
muta
mutabilis
muti
mutis
mutisia
mutur
mutuyllu
muy
muyska
muyu
muyuna
muyuntinpi
muyup
muyupampa
muyupayaq
muyupi
muyuq
muyuriq
muyusiki
mvp
mw
mwana
mx
my
myanmar
mycteria
mykiss
myrica
myrmecophaga
myroxylon
myrtilloides
myself
myspace
mystackj
mysteries
mystery
n
na
naani
nabo
nac
nace
nacer
nach
nacht
naci
nacido
nacidos
nacimiento
nacio
nacional
nacionales
nacionalidad
nacionalidades
nacionalista
naciones
nad
nada
nadal
nade
nadia
nadie
nadine
nadu
nagano
nagasaki
nagel
nagoya
nahua
nai
naipaul
nairobi
naissance
nak
naked
nalbandian
nam
namballe
name
named
namelong
names
namespace
namespaces
namiwya
namkin
nan
nana
nanay
nanaywan
nanchang
nancy
nangaritza
nani
nanni
nano
nanometro
nansen
nantes
naomi
napa
napo
napoleo
napoleon
napoli
napu
napuruna
napurunakuna
napurunakunam
naranja
naranjal
naranjito
naranjo
narcisa
narciso
narco
narin
narnia
narracio
narraciones
narrador
narradores
narrativa
narrator
narva
nas
nasa
nascimento
nashville
naska
nassau
nasser
nasua
nasyun
nasyunalista
nasyunkuna
nasyunkunap
nat
natabuela
natacha
natal
natalia
natalie
natawila
nathan
nation
national
nationale
nations
nativa
nativas
native
natividad
natiwidad
natriyu
natura
natural
naturales
naturaleza
nature
naturel
nava
navaja
naval
navarone
navarra
navarrapa
navarrete
navarro
navas
navbar
nave
naves
navidad
navy
nawa
nawahu
nawat
nawatl
nawidad
nayarit
nazareno
nazaret
nazareth
nazario
nazca
nb
nba
nbc
ncash
ncer
nchen
nchengladbach
nchez
ncia
ncias
ncipe
nconverted
ncora
nd
ndalo
ndataset
nde
ndel
ndez
ndi
ndia
ndiaye
ndice
ndipo
ndola
ndor
ndose
ndote
ndrome
ne
nea
neal
near
neas
nebouxii
nebraska
necesito
necessary
nectandra
ned
need
needed
needs
neerlandesa
nees
negative
negocio
negra
negras
negrete
negrito
negro
negros
nehru
neil
neill
neira
nel
nell
nelly
nelson
nemesio
nena
neo
neos
nepomuceno
neptune
neri
nero
neros
neruda
nery
nes
ness
nest
nestor
net
neto
network
neuer
neuque
neutral
nevada
nevado
never
nevis
new
newark
newbery
newcastle
newell
newfoundland
newman
newport
news
newton
nexp
next
neyra
nez
ng
nga
ngel
ngela
ngeles
ngo
ngora
nguez
ngulo
nh
ni
nia
nic
nica
nicanor
nicaragu
nicaragua
nicas
niccolo
nice
nich
nicholas
nicholson
nicht
nick
nico
nicola
nicolas
nicole
nicomedes
nicos
nicotiana
nidas
nido
nie
niebla
niels
niemeyer
nien
niente
nieto
nietzsche
nieva
nieve
nieves
nig
nige
niger
nigeria
night
nightingale
nights
nigra
nigricans
nigriceps
nigrum
nigsberg
nihun
nihunpa
nijmegen
nika
nikarawa
nikasyu
nikita
nikola
nikolai
nikolaus
nikuq
nikurqan
nikusya
nil
nile
nilo
nilsson
nilton
nima
nimas
nimo
nimos
nimoy
nin
nina
ninaparaqu
ninapi
ninasuyu
ninat
ninawaman
ninchik
ninchikmi
ningu
ninka
ninku
ninkum
ninmi
nino
ninri
ninta
nintendo
nintsik
ninwan
nio
nior
nipal
nipin
niptin
niptun
niqir
niqirya
nir
nirku
nirlandis
niro
nirqan
nirvana
nispa
nispam
nispaqa
nisqa
nisqakuna
nisqakunam
nisqakunap
nisqakunapi
nisqakunaqa
nisqakunata
nisqakunataq
nisqam
nisqaman
nisqamanta
nisqamantam
nisqamantaqa
nisqan
nisqankama
nisqankamaqa
nisqap
nisqapa
nisqapaq
nisqapas
nisqapi
nisqapim
nisqapipas
nisqapiqa
nisqaqa
nisqas
nisqata
nisqatam
nisqatapas
nisqataq
nisqataqa
nisqatas
nisqawan
nisqawanmi
nisqawanqa
nisqayuq
nisyu
nitida
nitidum
nito
nivalis
nivel
niwa
nix
nixon
niy
niyan
niyaran
niyatiwu
niyta
niyuq
nj
njira
njour
nk
nl
nm
nn
no
noah
nobel
noble
nobol
noche
noches
nocturna
nocturno
node
noe
noel
noemi
noi
noir
noite
nolasco
nom
noma
nombre
nombrenormalizado
nombres
nominado
nomlangue
nomme
noms
nomunits
non
nonato
nonautonome
none
noord
noqanchis
nor
nora
norberto
nord
nordrhein
noreste
norfolk
noriega
norma
normal
normale
normalizado
norman
normand
normandie
norodom
norris
norte
norten
north
northern
northumberland
norton
noruega
norve
nos
nosotras
nosotros
nossa
nostalgia
nostra
nostradamus
nostri
not
nota
notas
note
notebook
notempty
notes
nothing
nothofagus
notholaena
nothoprocta
notice
noticia
noticias
notoc
nototriche
notre
notte
nou
nous
nouveau
nouveaux
nouvelle
nouvelles
nov
nova
novak
novel
novela
novelakuna
novelas
novelista
novella
november
novembre
novemcinctus
noveno
novgorod
novi
novia
noviembre
novio
novios
novo
novoa
novus
now
nowiki
npa
nr
nrf
nro
ns
nsito
nssonligan
nsula
nta
ntame
ntara
ntaro
ntchito
nter
ntesis
ntgen
nthawi
ntica
ntico
nticos
ntida
ntima
ntimo
nto
ntomas
nu
nube
nubes
nubigena
nuclear
nuco
nuestra
nuestras
nuestro
nuestros
nueva
nuevas
nueve
nuevo
nuevos
nui
nuit
nukn
num
numatsiqinqa
number
numbers
nume
numero
nummois
nums
numval
nun
nuna
nunashimi
nunat
nunca
nuo
nuovo
nupcial
nuqa
nur
nuremberg
nurma
nurwiga
nurwigapa
nussbaum
nutans
nuvelakuna
nuvilakuna
nuwi
nuwimri
nuwimripi
nv
nwan
ny
nycticorax
nyi
nyimbo
o
oa
oasis
oaxaca
oaxaka
oaxakapi
ob
obama
obd
obdulio
obispo
object
objeto
oblast
obligado
oblitas
oboe
obovata
obra
obrapremiadaenlazada
obras
obrego
obrera
obrero
observaciones
observations
observatorio
obsesio
obtenerdatos
obtusifolius
oc
oca
ocampo
ocan
ocasio
ocaso
occidental
occidentalis
occidente
occipitalis
occitan
oce
ocean
och
ocho
ochoa
ochraceiventris
ochroma
ochthoeca
ocinsoutput
ocio
oclc
ocotea
ocotepeque
ocros
ocsa
oct
octava
octave
octavio
october
octobre
octubre
oculta
ocupacio
ocurrio
oda
odar
odas
ode
odeo
oder
odessa
odham
odi
odio
odisea
odo
odocoileus
odorata
odri
odria
odyssey
oea
oecomys
oenothera
oeste
oeuvres
of
ofelia
off
offenbach
office
official
officinale
officinalis
officinarum
oficial
oficiales
oficina
oficio
oficios
ofm
ofrenda
og
oggi
ogro
oh
ohio
oi
ois
oise
ojala
oje
ojeda
ojo
ojos
ok
okinawa
oklahoma
ol
ola
olaechea
olan
olas
olaza
old
ole
oleg
oleracea
oleraceus
oles
olga
oli
olimpia
olinda
oliva
olivares
oliveira
olivencia
oliver
olivera
olivia
olivier
olivos
ollanta
ollantay
olmedo
olmos
olocalisation
olvera
olvi
olvidados
olvidar
olvidare
olvidarte
olvide
olvido
olympia
olympic
olympique
om
omaha
oman
omar
omara
omer
omereque
omiste
omit
omwe
on
ona
onard
onca
once
oncifelis
oncorhynchus
onda
one
ones
onetti
online
only
ons
ont
ontario
onze
op
opacity
opciones
ope
open
opera
operacio
operation
opereta
ophryosporus
opinio
opiniones
oporto
option
options
opuntia
opus
oquendo
or
ora
oracio
oral
orange
oras
oratorio
orbegoso
orbis
orchester
orchestra
orchestre
orchidaceae
orden
order
ordered
orderedindex
ordo
ordon
ordre
ore
oreailurus
oreas
orego
oregon
oreja
orejas
orellana
oreomanes
oreotrochilus
orestias
orfeo
org
organ
organizacio
organizaciones
orgullo
orhan
ori
oriana
orient
oriental
orientales
orientation
oriente
orig
origargs
origen
origin
original
originales
originally
originalmente
origine
origink
origyear
orihuela
orilla
orillas
orita
oritas
orkney
orlandini
orlando
orleans
ormosia
ornans
ornata
ornatus
oro
oropesa
oropeza
orosco
orozco
orphe
orquesta
orqui
orrego
orsay
orson
ortega
orthodoksa
orthophylla
ortiz
ortofoto
oruro
oryza
os
osa
osaka
osanto
osborne
osbourne
osc
oscar
oscura
oscuridad
oscuro
oskar
oslo
osma
osman
oso
osorio
osos
ospina
ossa
ost
osti
osvaldo
oswaldo
ota
otakebi
otavalo
otelo
otero
othello
other
others
otherwise
oti
oto
otomanki
oton
otorgada
otorgado
otorgo
otra
otras
otro
otros
ottawa
otto
otus
ou
ouest
oui
our
ouro
out
outils
outlaw
outp
output
outras
outstr
ouverture
ova
ovalifolia
ovando
oveja
over
overijssel
overlap
overlapcalc
overlapicons
overlapn
overlapparams
overlapprops
overlappropsi
overlaps
overview
ovidio
oviedo
owen
owens
owl
own
oxalis
oxford
oxi
oxyura
oyambaro
oye
oz
p
pa
paaq
pabello
pablo
pabst
pac
paca
pacari
pacasmayo
paccha
pach
pacha
pachacamac
pachachaka
pachak
pachakamaq
pachakamilla
pachakawri
pachakcha
pachakuna
pachakunapi
pachakuti
pachakutik
pachakutinapaq
pachakutiq
pachakutiy
pachakwata
pachakwatap
pachakwatapi
pachakwatapis
pachakwataqa
pacham
pachamama
pachaman
pachamanta
pachan
pachanga
pachanka
pachankam
pachanta
pachantin
pachap
pachapi
pachapipas
pachapiqa
pachapis
pachapura
pachaq
pachaqa
pachas
pachata
pachataka
pachataq
pachatin
pachaykamay
pachaykamaypi
pacheco
pachila
pachitiya
pachuca
pachyrhizus
paci
pacific
pacifico
pacino
paco
pacos
pacquiao
pacto
pad
padcaya
padding
padilla
padre
padres
padreyoc
padreyuq
padrino
padro
padrone
padua
padura
padziko
paez
paga
pagador
paganini
page
pages
pagina
paho
pai
paine
pairs
pairumani
paisaje
paisajes
paiute
paixa
paja
pajuelo
pak
paka
pakaqi
pakaqucha
pakaraw
pakarina
pakasmayu
pakasqa
pakay
pakaya
pakayqasa
pakcha
pakincha
pakisha
pakista
pakistan
paku
pal
pala
palabra
palabras
palace
palacio
palacios
palais
palakala
palama
palamakunam
palamakunata
palamakunatam
palamam
palana
palanta
palasyu
palavecino
palazzo
palca
pale
palenque
palermi
palermo
palestina
palestine
palicourea
palistina
palito
palla
pallan
pallana
pallanchikpa
pallanqa
pallariq
pallasqa
pallasqan
pallatanka
pallay
pallida
pallidicaule
pallqa
pallqaqucha
pallqarasu
palm
palma
palmar
palmas
palmeiras
palmer
palmieri
palmira
palo
paloma
palomas
palomino
palomo
palos
palpa
palta
palumani
palura
pamela
pampa
pampachiri
pampakunapi
pampam
pampamarka
pampapi
pampaqucha
pamparahu
pampas
pamplona
pan
pana
panaka
panakan
panakayuq
panama
panamapa
panamapi
panamericana
panamirikana
pananchis
panaqa
panathinaikos
panaw
panchakutu
pancho
panchu
panda
pandilla
pandion
pando
panduro
pane
pani
paniagua
paniscus
panka
panki
pano
panorama
panpa
panq
pansaliyu
panta
pantale
pantaleo
pantanal
pantanos
pantaychu
pantera
panthera
panti
pantimayu
pantoja
panu
panwa
panzaleo
pao
paola
paolo
papa
papakuna
papallakta
papam
papandreou
papap
papaqucha
paparawa
papas
papata
papaver
papaveraceae
papaya
pape
papel
papeles
paper
papers
papil
papo
papphammar
papwa
paq
paqaqi
paqarichin
paqarichiq
paqarichisqa
paqarichisqan
paqarimuq
paqarimurqa
paqarin
paqariq
paqarirqa
paqarirqaku
paqarirqan
paqarirqanku
paqarirqaspa
paqarisqa
paqarisqakatiguriya
paqarisqakuna
paqarisqan
paqarisqanmanta
paqariy
paqas
paqaspa
paqay
paqcha
paqllun
paqpa
paqta
paqtachani
paqtan
paqti
paqu
paqucha
paquita
paquito
paqupampa
paququcha
par
para
parada
parade
paradise
parado
paragraphs
paraguari
paraguay
parai
paralle
param
paramaribo
parame
parameter
parameters
paramount
params
paramunqa
parana
parapiti
paraqas
parastrephia
paratiya
parawayi
parawayip
parawayipi
paray
parc
parco
parcours
pardalis
pardave
pardo
pare
parecido
pared
paredes
pareja
parent
parents
pari
paria
parigi
parina
parinacota
parinaquta
parinaqutapas
pariona
paris
parishttp
pariwana
pariwanakuna
pariwanaqucha
park
parker
parki
parkikuna
parkilla
parkim
parkimanta
parkipi
parkipiqa
parkiqa
parkswatch
parlamento
parlanakuypachi
parliament
parma
parmapa
parnaso
paro
parole
parqu
parque
parququcha
parquy
parra
parroquia
parse
parsec
parseflags
part
parte
partes
parti
participacio
participacionkuna
participaciunkuna
participasyunkuna
particular
partida
partido
partidos
partidu
partidukuna
partidum
partidun
partidunpi
partidup
partidupi
partie
parties
partir
partitura
partners
parts
party
paruma
parun
paruru
parviflora
parya
paryaqaqa
paryawanka
pas
pasa
pasadena
pasado
pasaje
pasajeros
pasan
pascal
pasco
pascua
pascual
paseo
pashtaq
pashto
pasio
pasiones
pasiphiku
paskwa
pasn
paso
pasochoa
pasos
paspalum
pasqu
pasquale
pasquel
passage
passarella
passe
passed
passiflora
passion
passo
past
pastasa
pastaza
pasteles
pasto
pastor
pastoral
pastores
pastrana
pastu
pastur
pastururi
pasu
pasupakuy
pasurapa
pat
pata
patagioenas
patagona
patakamaya
patakuna
patakunapi
patampuku
patan
patanpi
patapi
pataqunya
patara
patas
patate
paterson
path
patin
patio
patiwillka
patma
patmaku
pato
patranka
patria
patricia
patricio
patrick
patrimoine
patrimonial
patrimonio
patrio
patriota
patro
patrona
patronanmi
patronato
patronmi
patrulla
patsa
patsan
patsapa
patsata
pattern
patti
patty
patu
pau
paucar
paucartambo
paul
paula
paulet
paulina
pauling
paulino
paulista
paulo
paulus
paupa
pausini
pav
pavarotti
pavel
pavese
pavia
pavo
pavon
pavone
pavsa
pawa
pawaq
pawillun
pawkar
pawlu
pawlup
pawqar
pawqaray
pawqarqucha
pawqarqulla
pawqartampu
pawsa
pawshi
pawsirna
pawti
pay
paya
payas
payaso
paykuna
paykunaqa
paykunata
paymi
paypa
paypaq
paypura
payqa
payqam
payqu
pays
paysandu
paysflag
paysflagbycio
paysflagbyiso
paysflagbyname
payta
paywan
payyuyay
payyuyaykuna
paz
pb
pc
pcall
pcp
pdf
pdi
pe
peace
peak
peakbagger
pearcei
pearl
pearls
pearson
peca
pecado
pecador
pecadora
pecados
pecari
peces
pecha
peck
peckinpah
peco
pedago
pedernales
pedra
pedro
peer
peggy
peguche
pei
peintre
peinture
peisa
peixoto
pejerrey
pela
pelado
pelayo
pele
peleador
pelecanus
peli
peligro
peligrosa
peligroso
pelileo
pelle
pelo
pelota
pen
pena
penal
penang
penas
pene
penelope
penguin
penh
peni
penipe
penn
pennata
pennisetum
pennsylvania
penny
pensamiento
pensar
pense
pentandra
pentlandii
penu
people
peor
pepa
pepe
peperomia
pequen
per
pera
perak
perales
peralta
perche
percusio
percy
perdicio
perdida
perdido
perdidos
perdo
pere
peregrina
peregrinus
pereira
perejil
peret
pereyra
perez
perezia
perfect
perfecta
perfecto
perfil
perfiles
performance
performed
peri
perico
perio
period
periodi
periodical
periodismo
periodista
periodistas
periodo
perito
perkins
perla
permanente
permiso
pernambuco
pernettya
pero
perpetuo
perricholi
perro
perros
perrovaca
perry
pers
perse
persea
persepolis
persica
persie
person
persona
personajes
personal
personalidad
personas
perspectivas
perteneceri
perth
peru
peruana
peruanas
peruano
peruanos
peruanum
peruanus
peruecologico
perugia
peruvian
peruviana
peruvianae
peruvianum
peruvianus
pesadilla
pesar
pescador
peso
pessoa
peste
pet
pete
peter
peterburg
peters
petersburg
petersburgo
peterson
petit
petite
petra
petrarca
petri
petrie
petro
petronila
petrus
peul
peut
peyton
pez
pframe
pg
ph
phalacrocorax
phalcoboenus
phallcha
phallchacha
phane
phantom
phaqcha
phaqchakuna
phaqcham
phaqcharahu
phaqhcha
pharomachrus
pharsi
phasa
phaseolus
phawaq
phawayta
phawka
phaxsi
phe
phelps
phi
phil
philadelphia
philander
philharmonic
philharmonie
philharmoniker
philip
philipinakuna
philipinakunapa
philipp
philippe
philippines
philips
philli
phillip
phillips
philosopher
philosophers
philosophie
philosophiques
philosophy
phin
phinis
phinsuyu
phinu
phinyimpi
phirrin
phirunku
phiruru
phiskuna
phista
phistasqam
phiwrirupi
phiyi
phleocryptes
phnom
phoenicoparrus
phoenicopterus
phoenix
photo
php
phragmites
phransis
phransisku
phransya
phu
phuku
phukuna
phun
phuru
phusa
phusphuru
phutunqu
phutuy
phuyu
phyllis
physalis
phytelephas
pi
pia
piacenza
piacere
pianista
piano
pianos
piaui
piazolla
piazza
piazzolla
pic
pica
picaflor
picap
picasso
picchu
piccolo
pichaka
pichana
pichiku
pichilemu
pichincha
pichinku
pichis
pichitanka
pichiwa
pichna
pichqa
pichqantin
pichqayuq
pichu
pichuco
pichus
pico
pictogramme
picture
pictures
pid
pida
pide
pidgin
pido
pidos
pidru
pidrup
pie
piece
pieces
pied
piedad
piedra
piedras
piel
piemonte
piensa
pienso
pier
pierde
pierden
piero
pierre
pies
pieter
pietrangeli
pietri
pietro
pieza
piezas
pii
piiru
pika
pikchu
pikchunqa
piki
pikillaqta
pikkin
pikunachus
pikuta
pila
pilar
pilas
pilawit
pili
pilichuku
pilikula
pilikulakuna
pilikulam
pilikulan
pilikulankuna
pilikulapi
pilikulapim
pilikulaqa
pilkumayu
pilla
pillaru
pilli
pillku
pillpintu
pillunyayuqmi
pilo
pilosa
piloto
pilotos
pilquya
piluta
pima
pimampiru
pimentel
pimienta
piminta
pimpinila
pin
pinacoteca
pinakothek
pinal
pinar
pinares
pinchaque
pinchi
pinchikilla
pinchikillachana
pinchikillawan
pindal
pindilig
pindo
pineda
pinedo
ping
pinglo
pinillos
pinipi
pink
pinku
pinkuyllu
pinnata
pino
pinsha
pintadas
pintado
pintikustis
pinto
pintor
pintores
pintura
pinturas
pinula
pinwinu
pinyin
pio
pionus
pipa
pipapas
pipas
pipe
piper
pipes
pipil
piqa
pira
pirandello
pirata
piratas
pirate
piray
pire
pires
piri
pirini
pirlilla
pirqa
pirqam
pirqanchik
pirsonal
pirsunal
piru
piruru
piruw
piruwanu
piruwchaw
piruwkatiguriya
piruwki
piruwman
piruwmanta
piruwpa
piruwpaq
piruwpas
piruwpi
piruwpipas
piruwpiqa
pirwa
pis
pisa
pisac
pisco
pishtaq
pisi
pisichasqa
pisichaynin
pisilla
pisqa
pisqu
pisqukuna
pisqukunam
pisqukunap
pisqum
pisqupampa
pisququcha
pistishi
pistola
pistolas
pistolero
pisunay
pit
pita
pital
pitaq
pithecia
piti
pitinmi
pito
pitsqa
pitti
pittsburgh
pitu
pitucha
pitumarka
pitunilla
pitusiray
piu
piura
piurae
pius
piwra
pixarwan
piyanu
piyru
piyu
pizarro
pl
pla
placa
place
placeholder
placer
placeres
places
plain
plains
plan
plana
planck
plane
planes
planet
planeta
planguarani
plano
plant
planta
plantago
plantas
plantilla
plants
plasa
plasencia
plata
plate
plateau
platino
plato
platon
play
playa
playas
player
players
playhouse
playing
plays
playstation
plaza
plazuela
ple
please
plegadis
pleurotus
plin
plomo
plon
pluma
plummer
plural
plurallabel
plus
plusieurs
plutarco
pluto
plymouth
pm
pmc
pmid
png
po
poa
poaceae
poalo
poblacio
pobre
pobres
poca
pocas
pocho
pocket
poco
podcast
poder
poderes
podi
podiceps
podilymbus
podocarpus
podocnemis
podri
poe
poecilochrous
poem
poema
poemario
poemas
poems
poesi
poesia
poet
poeta
poetas
poetry
point
points
pointtable
poirot
poitier
pokal
pol
polaco
polanco
polar
pole
poli
policarpo
police
polici
policial
polis
polite
political
politics
politik
politique
politischen
polka
polo
polonia
polvo
polydor
polygon
polygram
polylepis
polypodium
polystichum
poma
pomabamba
pomacea
pomar
pompeii
ponce
poncen
pongo
pont
ponte
pontes
pontevedra
ponti
pontificia
pooh
poole
poopo
poospiza
pop
popaya
pope
popolo
populaire
popular
populares
population
poque
por
porco
porfirio
porque
porras
porres
port
porta
portachuelo
portal
portalegre
portales
porte
porten
porter
portero
portillo
portland
porto
portocarrero
portovelo
portoviejo
portrait
portugal
portugalete
portugue
portugues
portuguesa
portuondo
porvenir
pos
posadas
posee
posei
posesivo
posible
posicio
position
positive
possible
post
postal
postales
postcode
posteriormente
posthume
posthumous
posthumously
postrer
postscript
potencial
potosi
potro
potter
pouce
pound
pour
poussin
pouteria
powell
power
poznan
pozo
pozuzo
pp
ppc
ppprefix
pprefix
pr
pra
prada
pradera
pradesh
prado
prag
praga
prague
praha
prairie
pre
precatoria
precio
precision
precursora
prefecto
prefectura
prefecturacochabamba
prefecturakuna
prefiero
prefix
prego
preguntas
prehispa
preludio
preludios
premie
premier
premio
premios
prensa
preprocess
preprocesssinglearg
prescott
presencia
present
presenta
presentacio
presentado
presente
presented
presents
presidencia
presidencial
president
presidente
presidentes
presidential
presidio
presio
presl
presley
press
pressure
prestige
presto
preston
pretendiente
pretty
prev
prevencio
previously
pri
price
pride
prie
priest
prieto
prima
primaria
primavera
prime
primeira
primer
primera
primeras
primero
primeros
primitivo
primo
primuloides
prince
princes
princesa
princess
princeton
principal
principales
principe
principessa
principio
principios
print
priodontes
priory
prise
prisionera
prisoner
pristu
priturya
privada
privado
private
prive
privilegio
prix
prize
pro
proan
problem
problema
problemas
procesio
proceso
procesos
proche
prochilodus
proclamacio
procyon
prodigiosa
prodigioso
produccio
producciones
producidos
productions
productor
produzione
proechimys
proeibandes
prof
profanas
profesional
profesiones
profesor
profesores
professor
profeta
profile
profundos
program
programa
programakuna
programas
progreso
progressive
prohibida
prohibido
project
promesa
prometeo
prometheus
prometida
promocio
pronombre
prop
properties
property
propia
propiedad
propio
propo
propos
proprie
props
propuesta
prosa
prosas
prose
prosopis
prostrata
protagonista
prote
proteccio
protector
protei
protesta
protocol
proust
provenc
provence
provided
providence
providencia
province
provincia
provincial
provincie
proyeccio
proyecto
pru
prudencia
prudencio
prueba
pruebas
prunus
pruphisyun
pruphisyunmi
prutistanti
pruwinsya
pruwinsyakuna
pruwinsyakunap
pruwinsyam
pruwinsyamanta
pruwinsyankuna
pruwinsyanmi
pruwinsyap
pruwinsyapa
pruwinsyapi
pruwinsyapim
pruwinsyapipas
pruwinsyapiqa
pruwinsyaqa
pruwinsyawan
pruwynsyapi
ps
psarocolius
psc
pseudalopex
pseudo
pseudoplatystoma
psicologi
psl
psn
psoe
psoralea
psuv
psv
psychotria
pt
pterocnemia
pteroglossus
pteronura
ptico
ptimo
pts
pu
pub
pubescens
pubis
publ
public
publicacio
publicaciones
publicada
publicadas
publicado
publicados
publication
publicationdate
publicationplace
publications
publicitario
publico
publie
publique
publiques
published
publisher
publishername
publishers
publishing
puc
puca
pucara
puccini
puchka
puchukachirqan
puchukarqan
puchukayninkama
puchukayninpi
puchunkuna
pucp
pudiera
pudu
puebla
pueblito
pueblo
pueblos
puede
pueden
puedes
puedo
puente
puerta
puertas
puerto
pues
puesto
puga
pugacheva
pugliese
pugna
puhili
puhuyu
puig
puissance
pujili
pujol
puka
pukahirka
pukaj
pukakuru
pukallpa
pukaq
pukaqucha
pukara
pukarahu
pukaram
pukaran
pukarani
pukaranra
pukarapi
pukatampu
pukaurqu
pukina
pukllana
pukllanamanta
pukllaq
pukllaqkuna
pukllaqmi
pukllaqpas
pukllaqsi
pukllarqan
pukllasqa
pukllasunchis
pukllay
pukllaykamachiq
pukllaykamachiqkuna
pukllaykamachiqmi
pukllaykuna
pukllaykunam
pukllaykunap
pukllaykunapi
pukllaymi
puku
pukumantawan
pukusana
pukuykuna
pukykuna
pukyu
pukyukuna
pukyumanta
pukyumantakuna
pukyunkuna
pukyunmi
pukyunqa
pulaku
pulgar
puli
pulinisya
pulitika
pulitiku
pulitikum
pulitikumi
pulitikupas
puliwya
pulla
pullitzer
pullu
pulo
pulsacio
pulska
pultumarka
pululawa
pulunya
pum
puma
pumachu
pumanuta
pumap
pumapampa
pumaq
pumaqanchi
pumaqucha
pumaqulluni
pumasillu
pumawanka
pumirapi
pumiri
pun
puna
punapi
punata
puncha
punchaw
punchawpi
punchu
punctata
punen
puni
punin
punk
punkiy
punku
puno
punta
puntarenas
puntas
puntifisya
punto
puntu
punu
punukama
pupa
pupusa
puqu
puquchisqa
puquio
puquna
puquq
puquqwata
puqusqa
puquy
pura
purani
pure
purikuk
purimuq
purin
purina
purinakunapim
purinapaq
purinmi
puriq
puriqchana
puriqkuna
puriqlla
puriqllam
purispa
puriy
puriynin
puriyta
purkun
puro
purple
purpurea
purqu
purtugal
purtugalpa
purtuyis
purtuyiskunap
puru
puruchuku
puruha
purum
puruma
purun
purus
purutu
puruwa
pusana
pusanapaq
pusaq
pusaqkuna
pusaqmi
pusaqnin
pusaqninkunaqa
pusaqninmi
pusaqninqa
pusaqnintin
pusaqniyuq
pusaqpas
pusaqsi
pusasqan
pusay
pushak
pushaq
pusilla
pusitiwu
puskanturpa
pususu
put
putana
putaqa
putina
putis
putu
putumayo
putumayu
putuni
pututu
puwaq
puwaqhanka
puwpu
puy
puya
puyanku
puykukuna
puyo
puytu
puyu
puyup
puywanku
px
pyre
python
q
qa
qachu
qachwa
qahira
qala
qalamarka
qalaqutu
qalasaya
qalawala
qalla
qallanqati
qallapa
qallari
qallarikuy
qallarin
qallarinan
qallarinqaku
qallariq
qallarirqaku
qallarirqan
qallarispa
qallarisqa
qallarisqan
qallarisqanpi
qallariy
qallariynin
qallariyninpi
qallaw
qallawa
qallawam
qallawap
qallayuq
qallu
qalluchaw
qallupi
qallwa
qam
qamkuna
qan
qanchi
qanchis
qanchisnintin
qanchisniyuq
qantu
qapachiqa
qapaq
qapi
qaqa
qaqapampa
qaqaqay
qaqatampu
qaqra
qara
qaracha
qarachi
qaramanta
qarampa
qaran
qaranpi
qaranqa
qaranta
qarap
qarapi
qarapuku
qaraqruyuwa
qaraqullu
qaraqutu
qaras
qarawili
qarayuq
qaraywa
qari
qarqan
qarqarqucha
qarqurqan
qarquspa
qarwa
qarwamayu
qarwaq
qarwaqucha
qarwarasu
qarwas
qasa
qasaqsuyu
qasi
qasikaypi
qata
qatan
qataq
qataqura
qatar
qatasqa
qati
qatilla
qatin
qatiq
qatiqnin
qatiqninmi
qatiran
qatispa
qatqa
qaw
qawana
qawaq
qayanqati
qayara
qayay
qaylla
qayna
qaysa
qaytaq
qellqa
qelqa
qespi
qh
qhachwa
qhali
qhampu
qhapana
qhapaq
qhapaqkunap
qhapaqnin
qhapaqninsi
qhapaqpa
qhapaqsaya
qhaqti
qhaqya
qhari
qharikuna
qharip
qhariphuyu
qhariqa
qhariqucha
qhaswa
qhatantika
qhatqi
qhatu
qhatuna
qhatuq
qhaturipi
qhawachiy
qhawana
qhawanachakuna
qhawanakunti
qhawaq
qhawaray
qhawaraya
qhawariy
qhawaspa
qhawasqa
qhaway
qhawayra
qheswa
qhichwa
qhichwam
qhichwaman
qhichwamanta
qhichwapi
qhichwata
qhilla
qhipa
qhipagradupi
qhipan
qhipanpi
qhipanta
qhipantaqa
qhipaq
qhipaqa
qhipaqnin
qhipaqnintaq
qhiti
qhiwar
qhuchi
qhuchuntin
qhulla
qhun
qhunqhu
qhupiyapu
qhura
qhurqhi
qhusi
qhuya
qhuyakuna
qhuyam
qi
qian
qichuy
qichwa
qichwasimipi
qid
qilla
qillay
qillqa
qillqakamayuqninmi
qillqakun
qillqakuna
qillqakunapas
qillqam
qillqamurqan
qillqan
qillqana
qillqanapaq
qillqanchik
qillqanku
qillqankuna
qillqanmi
qillqap
qillqapampa
qillqapi
qillqaq
qillqaqkuna
qillqaqmi
qillqaqninkuna
qillqaqpa
qillqaqpas
qillqaqsi
qillqari
qillqarqan
qillqashqa
qillqaskankuna
qillqaskuna
qillqaspa
qillqasqa
qillqasqakuna
qillqasqam
qillqasqan
qillqasqankuna
qillqasqanpa
qillqasqanpi
qillqasqanqa
qillqasqanta
qillqasqapas
qillqata
qillqay
qillqaya
qillqaymi
qillqaynin
qillqayninmi
qillqayninpi
qillqaypi
qillqayta
qillwa
qilma
qimis
qin
qina
qincha
qing
qinghai
qinti
qipa
qipan
qipuncha
qiqin
qiqlla
qiqllam
qirisa
qirisan
qirisankunaqa
qiru
qirupallqa
qirupampa
qiruqucha
qirusillas
qispi
qispichiq
qispichiqkuna
qispichiqnin
qispichiy
qispilla
qispillaqta
qispiqanchi
qispirqakun
qiswa
qitara
qitina
qiu
qiwillu
qiwin
qiwlla
qiwllaqucha
qiwllarahu
qiwn
qiwun
qiylla
qom
qori
qosqo
qquelkascan
qquichua
qshks
qu
quaestionibus
qualificatif
qualifier
qualifiers
quand
quando
quaresma
quartet
quartier
quatrain
quatre
qucha
quchakuna
quchakunam
quchakunapas
quchakunapi
qucham
quchaman
quchamanta
quchan
quchap
quchapampa
quchapanpa
quchapata
quchapi
quchapiqa
quchapitiq
qucharqa
quchas
quchawan
quchimiy
quchkuna
quchu
quchup
que
quebec
quebracho
quebrada
quechapampa
quechnapo
quechua
quechuas
quechwasimipi
queda
quedo
queen
queens
queiroz
quejas
quelle
quemado
quemu
quena
quentin
quercus
quere
queremos
querer
querida
querido
quero
query
ques
quesada
quest
question
questions
quetzaltenango
quevedo
quez
quezada
quezon
qui
quiaca
quican
quichua
quie
quiem
quien
quieras
quiere
quieres
quiero
quiet
quijano
quijarro
quijos
quijote
quila
quilqasqankuna
quimera
quimsa
quimsacruz
quin
quina
quincean
quincy
quindi
quine
quinn
quino
quinoa
quinta
quintana
quintanilla
quintero
quinteros
quintet
quinteto
quinto
quinua
quiquibey
quiro
quiroga
quiroz
quise
quisiera
quispe
quispep
quita
quitensis
quito
quivalent
quiza
qukun
qulan
qulcha
qulla
qullaman
qullana
qullasuyu
qullaw
qullawpi
qullchani
qulli
qullpa
qullpachaq
qullpaqucha
qullpasa
qullqa
qullqakuna
qullqamar
qullqan
qullqapampa
qullqapirwa
qullqi
qullqichaka
qullqihirka
qullqincha
qullqip
qullqipunku
qullqiri
qullqita
qullu
qulluchi
qulluta
qulluy
qulu
qulumi
qumanchi
qumas
qumpaya
qumutu
qun
quncha
qunchamarka
qunchu
qunibu
qunquna
qunqur
qunta
quntumasa
qunuqucha
qunurana
quo
quote
quoted
quotes
qupa
qupaqhawana
qupaqhawanap
quq
quqta
qura
qurakunam
quram
qurani
quri
qurikancha
quripata
qurisapa
quriway
quriwayrachina
quriyunka
qurpa
qurqa
qurqan
qurupuna
quruta
quruyqu
qurwara
qusan
qusankuna
quspa
qusqa
qusqu
qusqumanta
qusqup
qusqupi
quta
qutapampa
qutapata
qutaqayta
qutawasi
qutsu
qutsukuna
qutsun
qutu
qutumanta
qutuphaqsi
qutupi
qutupiqa
qutuqa
quturipunta
qutus
qutuwan
quwasa
quwata
quwayllu
quwi
quwiphasa
quya
quyacha
quyan
quyaynin
quyllur
quyllurchawwan
quyllurkuna
quyllurmi
quyllurpun
r
ra
rabat
rabes
rabia
rabin
rabo
race
racemosa
rachel
rachina
racine
racing
rad
rada
radical
radio
radioaficio
radius
radiyu
radyu
rae
rafael
rafaela
ragazza
rage
rahman
rahmani
rahu
rai
raid
railway
raimondi
raimondii
rain
rainbow
rainer
raj
rajesh
rak
raka
rakha
rakhu
rakhuurqu
raki
rakikuna
rakikuq
rakim
rakin
rakina
rakinakurqan
rakinchik
rakinmi
rakisqa
rakiy
rakiynin
rakiyuqmi
rakyi
ral
rale
raleigh
ralph
ram
rama
ramada
rambla
rame
rameau
rami
ramirez
ramiro
ramis
ramo
ramon
ramona
ramos
ramphastos
ramran
ramsar
ramsay
ramsey
ramun
ran
rana
ranchera
rancho
random
randy
range
rangel
rangers
rank
ranrapallqa
ransis
ransisku
ransiya
ransiyap
ransiyapa
ransiyapi
ransiyayuq
ransya
ransys
ranti
rantin
rantinkuna
ranulfo
ranunculus
raoul
rap
rapa
rapachu
rapanuy
rapha
raphael
raphi
raphikuna
raphimuyum
raphinkuna
raphiyuq
raphiyuqmi
rapra
raprakunayuq
raprayuq
rapto
raqacha
raqay
raqaykuna
raqch
raqra
raquel
raramuri
rard
rasa
rasaq
rase
rasgado
rasmussen
rastlos
rasu
rat
ratas
ratata
rate
ration
rato
rats
rature
rau
raul
raval
ravel
ravelo
ravenna
raw
rawilu
rawra
rawrana
rawray
rawson
ray
raya
rayan
rayku
raykur
raymi
raymikuna
raymim
raymin
raymita
raymond
raymondi
raymundo
raynal
rayo
rayos
raza
razo
razones
rbara
rbaros
rbd
rbol
rboles
rca
rcal
rcel
rchb
rcito
rcoles
rcova
rctv
rculo
rd
rdenas
rdez
rdoba
rdova
re
rea
reaccio
read
reading
reagan
real
reales
realidad
realismo
reality
realizacio
realizada
realizado
reason
rebagliati
rebeca
rebecca
rebelde
rebeldes
rebeldi
rebelio
rec
recherche
recie
reciente
recife
recital
recoge
recogidos
recoleta
reconciliacio
reconocida
reconocimiento
reconquista
reconstruction
recopilacio
recopilatorio
recopilatorios
record
recordando
recordar
recorded
recording
recordings
recordkuna
records
recta
recto
rector
recueil
recueils
recuerda
recuerdo
recuerdos
recursos
recurvirostra
red
redencio
redford
redgrave
redondeada
redondo
reduccio
redundant
reed
reedicio
reeditada
reeditado
reencuentro
reeve
reevei
reeves
ref
reference
references
referencia
referenciakuna
referencias
reflection
reflections
reflexa
reflexio
reflexiones
reforma
refugiados
refugio
regalo
regexp
reggae
reggaeton
reggio
regia
regina
reginald
reginaldo
regio
region
regional
regionales
regione
regiones
registration
registro
regnum
regreso
rei
reiche
reimpr
reims
reina
reinaldo
reino
reinos
reis
rekupa
rela
relacio
relacionadas
relaciones
relato
relatos
release
released
relevos
religio
religion
religiosa
religioso
reloj
reluce
rembrandt
reme
remedios
remember
remigio
remix
remixes
remo
remove
removestring
remplace
remy
renacimiento
renan
renata
renato
renault
rence
rences
rencor
rendo
rene
renee
rengifo
renoir
renovacio
reo
rep
reparto
repens
repente
replace
replacement
report
reportaje
repre
represas
representacio
representada
representativos
reprise
repu
repubblica
republic
republicano
republik
republika
republikakunap
republikanu
republikap
republikapa
requena
requesens
requested
requiem
requiere
require
required
requires
rer
res
rescate
rescue
research
resen
reserva
reservada
reservado
reservoir
resistencia
resistente
respiratorias
respiratorio
resplendens
responso
respuesta
restauracio
resto
restrepo
resucitar
result
resultado
resultados
resultat
resumen
resurreccio
ret
retablo
retama
reticulata
retirado
retiro
reto
retorno
retour
retourne
retourner
retrato
retratos
retrieved
return
returns
retval
reu
reuel
reuma
reunida
reunio
reunion
rev
reve
revenge
reventador
reverse
review
revisada
revised
revisio
revisited
revista
revolucio
revolucionaria
revolucionario
revoluciones
revoluta
revolution
revue
rex
rey
reyes
reykjavi
reyna
reynaldo
reynolds
reynoso
rez
reza
rfc
rft
rgano
rgb
rgen
rgenes
rgeno
rgica
rgio
rgs
rgy
rhapsody
rhead
rhein
rhin
rho
rhodes
rhoeas
rhythm
ri
ria
rias
ribas
ribeiro
ribera
riberalta
ribeyro
ric
rica
ricain
ricardo
ricas
riccardo
ricci
rice
rich
richard
richards
richardson
riches
richet
richmond
richter
rick
ricketts
ricky
rico
ricos
rida
ride
riders
ridgwayi
ridi
riding
rie
riego
rien
riesgo
rifle
riga
right
rights
rigida
rigth
rijksuniversiteit
rik
rikay
rikaynin
rikch
rikcha
rikchacha
rikchakuna
rikcharimuy
rikchasapa
rikhurin
rikhurinman
rikina
riktur
rikuchin
rikuchiq
rikuchirin
rikukun
rikukuq
rikukuqpi
rikunalla
rikunapaq
rikunchik
rikunki
rikupilasyunkuna
rikuq
rikuska
rikusqa
rikuway
rikuy
rima
rimakuna
rimakunam
rimakunata
riman
rimana
rimanachaw
rimanachay
rimanakuna
rimanakuspa
rimanakusqa
rimanakuy
rimanakuymanta
rimanakuyninpi
rimanakuypa
rimanku
rimaq
rimaqkuna
rimaqnin
rimaqninmi
rimaqniyuq
rimaqniyuqmi
rimarirqan
rimarqan
rimarqanku
rimas
rimaspa
rimasqa
rimasqan
rimasqapas
rimay
rimayan
rimaykatiguriya
rimaykuna
rimaykunam
rimaykunaman
rimaykunamanta
rimaykunap
rimaykunapas
rimaykunapi
rimaykunaqa
rimaykunata
rimaykunatam
rimaylla
rimayman
rimaymancha
rimaymanta
rimaymi
rimaynin
rimayninkuna
rimayninkunam
rimayninmi
rimayninqa
rimaypa
rimaypi
rimayqa
rimayta
rimaytam
rimbaud
rime
rimini
rimsky
rin
rina
rinchi
rinco
rinconada
rinfo
ring
ringen
ringo
rings
rinovirus
rinri
rinrisapa
rintima
rinza
rio
riobamba
riochico
rioja
rios
ripan
ripley
ripuwlika
ripuwlikap
riq
riqisqa
riqsichipusqan
riqsichirqa
riqsikuq
riqsinchik
riqsisqa
riqsisqachu
riqsisqam
riqsisqan
rique
riqyun
riqyunkuna
riqyunmi
riqyunpi
rirpu
rirqan
ris
risa
risaralda
risas
risco
rise
risi
risirwa
risirwakuna
risirwakunapas
risirwamanta
risirwapi
risirwapiqa
rispa
rispampa
rit
rita
ritawlu
rite
ritmo
rito
ritos
ritt
ritu
ritual
rituales
ritus
riva
rivadavia
rivadeneira
rival
rivas
rivelino
rivelles
river
rivera
rivero
rivers
rivet
rivie
riwi
riy
riyad
riypa
riz
rizal
rizzoli
rj
rk
rm
rmm
rmula
rn
rnberg
ro
roa
road
rob
robards
robben
robbie
robbins
robe
robert
roberta
roberto
roberts
robin
robinson
robledo
robles
robo
robot
robson
robustus
roc
roca
rocafuerte
rocha
rochester
roci
rock
rocky
rodas
rodeo
rodgers
rodin
rodney
rodo
rodolfo
rodr
rodri
rodrigo
rodrigues
rodriguez
rodven
roe
roes
roge
rogelio
roger
rogers
rohwer
roi
roja
rojas
rojo
rojos
rola
roland
rolando
rolda
role
rolf
rolfe
roll
rolland
rollandia
rolling
roma
romagna
romain
roman
romana
romance
romancero
romances
romancier
romani
romano
romanos
romantic
romanu
romanukunap
rome
romel
romeo
romeri
romero
romo
romualdo
romulo
ron
ronald
ronaldo
roncalla
ronda
ronde
rondo
rong
roo
roof
room
rooney
roosevelt
root
roque
ros
rosa
rosado
rosales
rosali
rosalie
rosario
rosas
rose
rosea
rosemary
rosen
rosenberg
rosendo
rosenthal
roses
roseus
rosita
rosmarinus
rospigliosi
ross
rossellini
rossi
rossini
rostrata
rostro
rostros
rota
roth
roto
rotterdam
rotundifolia
rou
rouen
rouge
rough
roumain
round
rounding
rousseau
roussos
rovira
row
rowargs
rowland
rowling
rowparams
rowprop
rowprops
rows
roxana
roxette
roy
royal
royale
royaume
rozas
rpm
rpp
rquez
rraga
rrez
rsssf
rt
rtica
rtigo
rtir
rtires
rtiz
rtl
rttemberg
rtve
ru
rua
ruan
rube
ruben
ruber
rubi
rubia
rubiaceae
rubin
rubinstein
rubinus
rubio
rubra
rubrocristatus
ruburiy
rubus
ruby
rucha
rudiuscula
rudiyu
rudolf
rudolph
rudy
rue
rueda
rufescens
ruficollis
rufina
rufino
rufus
rugby
rugulosa
ruinas
ruins
ruisen
ruiz
ruk
ruku
rule
ruletero
rulfo
rulli
ruman
rumantiku
rumanya
rumasa
rumba
rumbero
rumbo
rumex
rumi
rumikuna
rumilla
rumim
rumimanta
rumin
rumiqullqa
rumita
rumiwan
rumiyasqa
rump
rumu
run
runa
runacha
runak
runakamaq
runakapaq
runakay
runakuna
runakunaka
runakunam
runakunaman
runakunamanta
runakunan
runakunap
runakunapa
runakunapak
runakunapaq
runakunapas
runakunapi
runakunaq
runakunaqa
runakunas
runakunata
runakunatam
runakunatapas
runakunataq
runakunatas
runakunawan
runakunayuq
runallakta
runallap
runallaqta
runallaqtap
runam
runaman
runamanta
runan
runanin
runankuna
runap
runapa
runapaq
runapas
runapi
runappas
runapura
runaq
runaqa
runas
runashimi
runasimi
runasimillapi
runasimiman
runasimin
runasimipi
runasimita
runasimitam
runata
runatam
runawan
runayay
runayupay
runayuq
runayuqmi
runkuraqay
running
runtu
runtucha
runtuma
runtus
runtuta
runtuy
rup
rupa
rupay
rupestris
ruphasqa
ruphay
rupicola
ruq
ruqa
ruqt
ruqyay
ruqyayta
rural
rurales
ruran
rurana
ruranakun
ruranakuspa
ruranakuy
ruranapaq
ruranchik
ruranku
ruraq
ruraqmi
ruraqpa
rurarqan
ruraspa
rurasqa
rurasqam
rurasqan
rurasqankuna
rurasqanmi
ruray
rurayan
ruraychaqa
ruraykuna
ruraykunku
ruraymi
ruraynin
rurayta
ruri
rurichinchay
rurin
ruriq
rurrenabaque
ruru
ruruchina
ruruchinakuna
ruruchinam
ruruchinap
ruruchinapaq
ruruchinapaqmi
ruruchiq
rurun
rurunkunaqa
rurunkunatam
rurunqa
ruruyuq
rusa
rusariyu
rusaryu
rush
rusia
rusiya
rusiyaniyuq
rusiyap
rusiyapi
ruso
russell
russia
russie
rusu
rusya
rusyap
ruta
ruth
rutherford
ruusa
ruwakun
ruwan
ruwana
ruwanakuna
ruwanapaq
ruwanaypaq
ruwanku
ruwaq
ruwasqa
ruwasqan
ruway
ruwayan
ruwaykuna
ruwayta
ruwli
ruy
ruya
rv
rwanda
rwd
ry
ryan
rythre
ryu
s
sa
saarbru
saarland
saavedra
saba
sabah
sabato
sabaya
sabaynu
sabbath
sabe
saber
sabes
sabi
sabina
sabino
sabogal
sabor
saca
sacatepe
saccharum
sacerdote
sach
sacha
sachas
sachsen
sacramento
sacre
sacred
sacrificio
sad
sadat
saddle
sadegh
sae
saenz
safe
saga
sagan
sagesse
sagittata
sagrada
sagrado
sagrados
sagrario
saguinus
sahama
sahara
sahun
sai
said
sailor
saimiri
saint
sainte
saints
saitama
sajama
saka
sakaka
sakawa
sakisili
saksarayuq
saksaywaman
saksaywamanpi
sal
sala
salada
salado
salama
salamanca
salamandra
salamanka
salango
salar
salas
salasaka
salaverry
salazar
salce
salcedo
saldan
sale
salem
sales
salesiano
salgado
salicifolia
salicifolius
salida
salina
salinas
salitre
salix
salle
sallemanta
sallqa
sallqakuna
sallqantay
sallqapampa
sallqapi
salluyu
sally
salmo
salmos
salo
salome
salomo
salomon
salon
salsa
salsero
salt
salta
saltillo
salto
salud
salut
salvacio
salvador
salvadorpi
salvaje
salvajes
salvat
salvatierra
salvatore
salvia
salvo
salwadur
salwadurpa
salzburg
sam
sama
saman
samana
samanez
samaniego
samanku
samantha
samay
samaypata
samba
samborondo
sambucus
sambya
same
sami
samirya
samk
samo
samoa
sampaya
samper
sampras
samson
samuel
samuelson
samun
samwa
san
sana
sanampa
sanampam
sanampanqa
sanancha
sananchan
sananchankuna
sananku
sancayo
sanchez
sancho
sancti
sand
sandbox
sandia
sandino
sandokan
sandoval
sandra
sandro
sang
sangay
sangre
sanguinea
sanguineus
sani
sanjeev
sank
sanka
sankarara
sankay
sankt
sanku
sanmiguel
sans
sansa
sanskrit
sant
santa
santacruz
santamari
santana
santander
santare
sante
santi
santiago
santiagu
santiaguen
santiestevan
santillana
santisteban
santiwan
santo
santos
sants
santu
santuario
santukuna
santum
santun
santurce
santus
santy
santyagu
sanu
sanz
sao
sapa
sapajaqi
sapaliri
sapallan
sapallu
sapan
sapaq
sapara
sapatillan
sapatu
sapay
sape
saphi
sapindus
sapo
saponaria
sapsi
sapsilla
sapu
sapusuwa
saputika
saqa
saqapa
saqapampa
saqarara
saqawaya
saqmanakuyuq
saqra
saqru
sar
sara
saraguro
sarah
sarajevo
sarakuru
saramago
sarandi
sarapu
sarapuqucha
sarasara
saravia
sarayacu
sarayaku
sarcoramphus
sardegna
sargentillo
sargento
sarhua
sarita
sarmiento
sarria
sarrusophone
sars
sarsfield
sartre
saruma
sarumilla
sarwa
sas
sasa
sasachakuy
saskatchewan
saskatoon
sastre
sat
sata
satchmo
sate
satellite
sati
satiliti
satillitimanta
satipu
satire
sativa
sativum
sativus
saturday
satureia
satureioides
saturn
saturniens
saturnino
sau
sauce
saucedo
saul
saun
saura
saururus
savage
save
saviabolivia
savoia
saw
sawanqaya
sawasiray
sawaya
sawintu
sawkari
sawsi
sawud
sawyer
saxofo
saxon
saxophone
say
saya
sayana
sayapullu
sayaq
sayers
saylla
saypina
sayri
sayrikapur
sayt
saywa
saywachi
saywakuna
saywan
saywanpi
saywapi
saywiti
saywitu
saywitukuna
saywitun
saywitunkuna
saywitupas
sayyid
sc
scala
scale
scandens
scar
scara
scarabaeidae
scaras
scarlet
scarlett
sce
scene
sceneggiatura
schalke
scherzo
schiller
schinopsis
schinus
schleswig
schltr
schmidt
schneider
scho
school
schopenhauer
schott
schreibt
schriften
schriftsteller
schro
schu
schubert
schumacher
schumann
schwalb
schweinf
schwerin
sci
science
sciences
scientific
scirpus
sciureus
sciurus
sclp
sco
scola
scoop
scorsese
scorza
scotia
scotland
scots
scott
scottish
screen
scribners
script
scula
sculo
sculos
sculpture
sd
sdecimal
se
sea
sean
search
seas
season
seattle
sebastia
sebastian
sec
seca
secada
seccio
secciones
sechi
sechura
sechurae
seco
second
seconde
seconds
secos
secoya
secret
secreta
secretari
secretaria
secretario
secreto
secretos
secrets
section
sections
sector
secuestro
secundaria
secundario
secure
sed
sede
see
seebohmi
seeco
seen
sega
segment
segno
segovia
segu
seguido
segunda
segundo
segundos
segura
seguro
sei
sein
seine
seis
seix
selangor
seleccio
select
selected
self
selim
sello
selva
sem
sema
semana
semanal
semanas
semblanza
semi
semilla
seminario
semio
semistriatus
sempere
sempre
sen
sena
sencillo
sencillos
sencillukuna
senda
sendai
sendero
senderos
senecio
senegal
senhora
seniculus
senna
sensacio
sense
sente
sentencia
sentido
sentidos
sentimental
sentimiento
sentimientos
sentir
sentirme
senza
seo
seoane
seoul
sep
separa
separate
separateur
separator
separe
sepc
sept
september
septembre
septiembre
seq
sequence
ser
sera
serafi
serafina
serapio
serbe
serbia
serbie
serena
serenade
serenata
sereno
seres
serge
sergei
sergio
seri
seria
serial
serie
series
serjania
serma
serna
sernatur
serpiente
serra
serrano
serranus
serrat
servando
service
servicio
servicios
servindi
ses
sessions
sesto
set
setc
sete
seterror
settings
setu
seu
seudo
seuil
seul
seule
seva
seven
severa
several
severino
severo
sevilla
sex
sexo
sexto
sexual
seychelles
seymour
sfinp
sfrac
sgroup
sh
sha
shaanxi
shadow
shah
shahrukh
shake
shakespeare
shakira
shallka
shamayka
shamuq
shan
shandong
shangai
shanghai
shanti
shanxi
shape
shapra
shaprarahu
sharanawa
sharon
sharp
shatner
shavelson
shaw
shawsha
she
shearer
sheet
sheffield
sheikh
shek
shell
shelley
shen
sheng
shenyang
shepard
shepherd
sherff
sheriff
sherlock
sherwood
shetland
shi
shield
shift
shih
shijiazhuang
shikoku
shilla
shimi
shimichaw
shimichu
shimikuna
shimikunata
shimillki
shimipa
shimipi
shimiwan
shin
shinahuta
shinallatak
shinawatra
shine
shinri
ship
shipibo
shipibu
shipipu
shipiwu
shirley
shiw
shiwi
sho
shock
short
shot
should
show
showdate
showlink
showntext
showunit
shrewsbury
shropshire
shu
shucullococha
shuk
shukllachishka
shumaatsina
shumaq
shunku
shuo
shupluy
shuqan
shuqankuna
shushufindi
shuti
shutikuna
shutin
shuwar
shuyturahu
si
sia
sibambe
sic
sica
sicalis
sicas
sicchez
sichuan
sichura
sichus
sicilia
siciliaspa
sico
sicos
sicuri
sid
sida
side
sidney
sido
sie
siehe
siembra
siempre
sien
siena
siendo
sienne
siento
sierra
sies
siete
sieveking
siglo
siglos
sigmund
sign
signe
signes
significa
significado
signo
signora
signore
signos
sigo
sigsig
sigue
siguiente
siguientes
sihanouk
sihuas
sik
sika
sikaya
sikchus
siki
sikin
siklla
sikllalla
sikra
sikritaryu
siksik
siku
sikuri
sikuwani
sikwanka
sikwi
sil
silala
silanda
silandapi
silandaq
silence
silencio
silenciosa
silent
siles
silicciun
silisya
silla
sillp
sillu
sillustani
sillustanipi
sillwi
sillwichaki
silq
siluli
silva
silvana
silver
silverio
silvestre
silvia
silvina
silvio
sima
simana
simanapi
simba
simbabwi
simbad
simeo
simeon
simi
simia
simikuna
simikunallapim
simikunamanta
simikunap
simikunapi
simikunata
simikunatam
simillapi
simillapim
simim
simiman
simimann
simimanta
simimantam
simin
siminmanta
siminmi
siminta
simip
simipa
simipaq
simipas
simipi
simipillika
simipim
simipipas
simipiqa
simipitaq
simiqa
simita
simitam
simitapas
simitaqa
simitas
simiwan
simiyuq
simo
simon
simone
simonelli
simple
simplemente
simples
sims
simun
sin
sina
sinaloa
sinaqara
sinatra
sincelejo
sinchi
sinchichu
sinchita
sinchiyasqa
sinchulawa
sindicato
sindicatu
sindikatu
sine
sinfo
sinfoni
sinfonieorchester
sing
singapore
singapur
singer
singh
singing
single
singles
sings
singular
sinigal
sinipa
sinkan
sinkrinaqucha
sinku
sino
sinqa
sinri
sinru
sins
sint
sinta
sintapi
sinti
sintimitru
sintinu
sintomas
sintomasqa
sio
sioux
sip
sipa
sipan
siparaya
sipas
sipawa
sipi
sipirqan
sipirqanku
sipisqa
sipita
sipulturas
sipuru
siq
siqana
siqueiros
sir
sira
siracusa
sirbya
sire
sirena
sirenas
sirinka
sirinkakuna
siriwani
siriy
sirk
sirka
sirleaf
sirp
siruela
sirya
siryi
siryikuna
siryono
sisa
sisayuqkuna
sischer
sisi
siso
sispa
siste
sistema
sistemas
sister
sisters
sisyrinchium
sitaqucha
site
sitel
sitelink
siti
sitimripi
sitio
sito
situacio
situacionaguax
situwa
siul
siwar
siwara
siwas
siwastyan
siwi
siwikuna
siwikunap
siwilchasqa
siwilla
siwinaqucha
siwis
siwk
siwla
six
sixto
siyu
siyul
size
sizeparameter
sk
ska
skay
sketch
sketches
ski
skie
skipper
sky
skye
skyline
sl
slade
slam
slate
slave
slavey
sleep
sleeping
slink
slove
slow
sm
small
smallanthus
smile
smiles
smiling
smith
smo
smoke
sn
snak
snaktype
sneijder
snow
snowy
snum
so
soares
soberano
sobre
soccer
social
sociales
socialism
socialismo
socialista
socie
sociedad
sociedades
society
socio
sociodemogra
sociologi
socorro
sofi
sofia
sofo
software
soga
sogno
soir
sol
sola
solamente
solanaceae
solanas
solano
solanum
solar
solares
solda
soldado
soldados
sole
soledad
soledades
soleil
soler
soli
solid
solidaridad
solier
solista
solitario
solo
sologuren
solomon
solos
soltera
soltero
solucio
solution
som
sombra
sombras
sombrero
some
someone
somerset
something
somos
son
sonata
sonatas
sonchus
sonene
soneto
sonetos
song
songbook
songs
sonia
sonido
sonnet
sonnets
sonny
sono
sonora
sonoras
sonrisa
sons
sont
sony
soon
sophia
sophie
soprano
sor
soras
soraya
sordi
sorel
soria
soriano
sorpresa
sorpresas
sorrow
sort
sorttype
sorvino
sos
sosa
sostenible
sotelo
soto
sotomayor
sotto
soudan
soukup
soul
sound
soundtrack
sour
source
sourceunit
sourceunitdata
sous
sousa
souspage
south
southampton
southern
souvenir
souvenirs
souza
sovie
soy
soyapango
sozoranga
sp
spa
space
spaces
spain
span
spanish
sparverius
spd
spe
speak
speaking
special
species
specified
specimen
specularioides
spedes
speech
speeches
speed
spence
spencer
speothos
spero
spheniscus
spi
spicata
spider
spielberg
spike
spinosa
spinosissima
spirit
spirits
spitz
splendor
split
sport
sporting
sports
spp
sprache
spring
springer
springfield
springs
springsteen
spuru
spy
sq
sqrt
square
squeda
squez
squitieri
sr
sre
sri
ss
ssatou
ssc
sseldorf
ssign
ssp
ssrn
st
sta
staatliche
stade
stadium
stafford
staffordshire
stage
stages
stallone
stan
stand
standard
standl
stanford
stanisław
stanley
star
stardust
starr
stars
start
startpoint
state
statement
statements
states
station
statue
stay
staying
ste
steatornis
steel
stefan
stefano
stegui
stein
stella
steno
step
stephanie
stephen
steps
stereo
sterling
stern
sterna
steve
steven
stevens
stevenson
stevia
stevie
stewart
sti
stica
sticas
stico
sticos
still
stina
stipa
stock
stockholm
stoke
stola
stoles
stone
stones
stop
stor
storia
stories
storm
storni
story
str
stradivarius
straits
strange
stranger
strangers
strasbourg
strauss
stravinski
stream
streep
street
streetline
streets
streicher
streisand
strike
string
strings
strip
stroke
strong
strtemp
structure
struthio
stuart
student
studien
studies
studio
study
stuma
stumamente
stumo
sturges
stuttgart
style
styles
styletrans
su
sua
suarez
suave
suaveolens
sub
subcampeo
subcampeona
subclassis
subdivision
subfamilia
subject
subkampiun
sublime
subordo
subscription
subsp
substitute
substring
substrings
success
successi
sucedio
such
suchi
suchuq
suchuqkuna
sucre
sud
sudame
sudamericana
sudamericano
sudan
suddenly
sue
suelo
suen
suero
suerte
suffix
suffolk
sufijo
sufras
sugar
suharto
sui
suisse
suite
suites
suivant
suiza
sujeto
suk
suka
sukcha
suksu
sukumpiyu
sukuwa
sul
sula
sulca
sulimana
sulis
sulitaryu
sulla
sullana
sullavan
sullivan
sullkun
sullu
sulluku
sully
sulta
sultan
suluqu
suma
sumac
sumak
sumaku
sumalya
sumaq
sumaqta
sumire
summa
summer
summit
summitpost
sumpawa
sun
sunata
sunchi
sunchu
sunchupampa
sunday
sung
suni
sunila
sunim
sunin
suniqira
suniwillay
sunkaru
sunkha
sunku
sunqu
sunqumanta
sunqup
sunset
sunshine
suntu
suntukunam
suntuntu
suntur
sunturkuna
sunturmanta
sunturmi
sunturnin
sunturninpi
sunturnintaqa
sunturpa
sunturpi
sunturpim
sunturqa
suomi
suona
sup
supa
supay
supaypa
supe
super
superciliaris
supercopa
superficie
superior
superiores
superkupa
superman
superstar
suphu
supi
suplemento
supported
suprema
supremo
suq
suqawaya
suqta
suqtantin
suqtayuq
suqus
sur
sura
surakachi
suras
surat
surata
surco
surcos
suren
suri
suriki
surinam
suriwiri
surku
surq
surrey
suru
surutu
sus
susan
susana
suspiros
sussex
sustantivo
susupi
susyaldimukrata
susyalismu
susyalismuman
susyalista
sut
sutherland
suthusuyu
suti
suticharqan
sutichasqa
sutiiyuq
sutikuna
sutiman
sutin
sutinchasqa
sutinkuna
sutinkunawan
sutinmi
sutinqa
sutinta
sutip
sutipaq
sutirimana
sutisuyu
sutiwan
sutiyki
sutiyup
sutiyuq
sutiyuqmantam
sutiyuqmi
sutiyuqpa
sutiyuqqa
sutiyuqsi
sutiyuqta
sutru
sutuma
suu
suwa
suwaq
suwasi
suwidsuyu
suwidsuyupa
suwidsuyuyuq
suwisa
suwit
suya
suyk
suyo
suypacha
suyruqucha
suysa
suysya
suyt
suytukancha
suyu
suyukuna
suyukunam
suyukunamanta
suyukunap
suyukunapa
suyukunapas
suyukunapi
suyukunapim
suyukunapipas
suyukunata
suyukunayuq
suyullapi
suyum
suyuman
suyumanta
suyun
suyunin
suyunkuna
suyunkunapi
suyunmi
suyunpi
suyuntu
suyup
suyupa
suyupas
suyupi
suyupim
suyupipas
suyupiqa
suyupitaq
suyuqa
suyus
suyuta
suyuwan
suyuyuq
suzanne
sv
svg
sw
swan
swann
swansea
swasisuyu
swayne
sweet
swietenia
swing
switch
switcher
sword
sy
sydney
sylvester
sylvia
sylvilagus
symbole
symphonic
symphonie
symphoniker
symphony
syn
syndactyla
syntax
syr
syracuse
system
systema
szyszlo
t
ta
tab
tabaco
tabaconas
tabasco
tabcode
tabebuia
tabla
tablangue
tablas
table
tableau
tablemerge
tables
taborga
tac
taca
tacana
tacna
tacuabe
tacuarembo
taday
tadeo
tag
tagalog
tagargs
tagcontent
tagetes
tagle
tagname
tagore
tags
tahiti
tai
tail
taille
taipe
taipei
taire
taisha
tait
taiwan
taiyuan
taj
tajacu
tajo
taka
takachi
takakuma
takana
takanakuy
takaq
take
takes
taki
takichaq
takichaqmi
takichaqmipas
takichaqpas
takichaqsi
takikuna
takikunata
takikunatam
takin
takina
takinkuna
takinmi
takipayanaku
takiq
takiqkuna
takiqmi
takiqninkunaqa
takiqsi
takirqan
takispa
takisqa
takiy
takiyta
taklla
takma
taksa
takupaya
tal
tala
talara
talawira
talbot
tale
tales
talk
tallahassee
talledo
taller
talleres
tallinn
tam
tama
taman
tamandua
tamara
tamarugal
tamaulipas
tamayo
tambie
tambo
tambor
tamil
tampico
tampillu
tampu
tampumach
tampupampa
tampupata
tampurqu
tan
tang
tango
tangos
tani
tania
tanka
tankayllu
tanla
tanqana
tansanya
tansanyapa
tant
tanta
tantamayu
tantanakuy
tantanakuykuna
tantanakuykunap
tantanakuymi
tantanakuynin
tantanakuyninmi
tantanakuypa
tantanakuypi
tantanakuyta
tantari
tantasqa
tanto
tao
tapaqari
tapaqucha
tapara
tapia
tapiete
tapirus
tapuna
taq
taqe
taqi
taqna
taquile
tara
taram
tarapaca
tarapacana
tarapaka
tarapuku
taraputu
taraqu
taraska
tarata
tarawasi
taraxacum
taray
tarcila
tarde
tardi
tarea
targ
target
targetunit
targetunitdata
targi
tarija
tarika
tariksa
tarikun
tarikuq
tarinchik
taripakuq
taripakuy
taripasqa
taripay
tariqui
tarirqan
tarjeta
tarki
tarku
tarma
taro
tarpuy
tarqui
tarragona
tartu
taruka
tarukam
tarush
tarushkancha
tarwi
tarza
tarzan
task
tat
tata
tatar
tatasi
tate
tats
taupo
tauris
tauro
taurog
taurus
tawa
tawak
tawam
tawamanu
tawan
tawantin
tawantinsuyu
tawantinsuyup
tawantinsuyupi
tawayuq
tawka
tawllirahu
tawna
tawqa
tax
taxi
tay
taya
tayapampa
tayaqaqa
tayassu
tayhan
tayiksuyu
taylor
taypi
tayta
taytacha
taytakura
taytakuram
taytan
taytanpa
taytanqa
taytansi
taytay
taytayuq
tayu
taywan
tbilisi
tbol
tc
tchad
tche
td
te
tea
team
teams
tears
teatral
teatro
teau
tec
technical
techno
technology
techreport
tecnolo
tecnologi
tecoma
tecse
ted
tedra
tegucigalpa
tegui
tehran
teil
teixeira
tejada
tejado
tekiraka
tel
tela
telarc
tele
telefilm
telefilme
telemann
telemundo
telenovela
telenovelakuna
telenovelas
teles
televisa
televisio
television
tell
tellado
tello
telo
telugu
tem
tema
temas
tembladera
temp
tempestad
tempi
template
templates
temple
templo
tempo
temporada
temporal
temps
ten
tena
tender
tenemos
tener
tenerife
tengo
teni
tenido
teniente
tennessee
tennis
tenor
tenorio
tentacio
teo
teodoro
teofilo
teologi
teorema
teori
tephritidae
tephrosioides
tepic
tequila
ter
tera
tercer
tercera
terence
terengganu
teresa
teresina
teresita
ternura
terra
terrazas
terre
terrestre
terrestris
terrible
terribles
territorial
territorio
terror
terrorista
terry
tes
tesis
tesla
tesoro
tessari
test
testament
testamento
testigo
testimonio
testimonios
tetradactyla
tetua
tex
texas
text
texte
textelien
textes
textfmt
textil
texto
textos
texts
textspl
tez
tframe
th
tha
thai
thailand
thalberg
thames
than
thansa
thansacham
thansakunam
thansam
thapay
thaqu
thaqupampa
that
thay
thaysuyu
the
theater
theatre
their
them
then
theobroma
theodor
theodorakis
theodore
theodoro
theory
there
theristicus
these
thesis
thetable
they
thicraskan
thief
thierry
thieves
thing
things
third
thirdcolor
this
tho
thode
thomas
thompson
thomson
thorpe
thorvaldsen
those
thoughts
thousand
thraupis
threatened
three
through
throwerror
thu
thula
thumana
thumb
thumbnail
thun
thunder
thupa
thuqay
thurluchi
ti
tian
tianjin
tibet
tibetu
tic
tica
ticas
ticket
tico
ticona
ticos
tidyval
tie
tiempo
tiempos
tienda
tiene
tienen
tienes
tienne
tiepolo
tierra
tierras
tiger
tigo
tigre
tigres
tigri
tigrinus
tigrisoma
tihiras
tijuana
tika
tikaku
tikakunata
tiki
tikina
tikipaya
tikira
tiklla
tikrarqamun
tikrasqa
tikray
tiksi
tiksicha
tiksimuyu
tiksimuyuntinpi
tiksimuyup
tiksimuyupi
tiksisqan
tikti
tikuna
tikunata
til
tiles
till
tillandsia
tim
tima
time
timecaption
times
timo
timos
timoteo
timothy
tin
tina
tinaku
tinamotis
tinctoria
tingo
tinieblas
tinki
tinkikina
tinkikuna
tinkipaya
tinkisqa
tinku
tinkun
tinkuq
tinkurachina
tinkuy
tinta
tintawku
tintay
tintaya
tinti
tintin
tipa
tipiqucha
tipo
tipografi
tipos
tipuani
tipun
tiqri
tiqsi
tique
tiques
tiquina
tiqwa
tirado
tirana
tirano
tiranu
tiraqi
tiret
tirika
tirisa
tiro
tirso
tirul
tis
tisaleo
tisnumya
tita
titanes
titanic
titanka
titi
titicaca
titiqaqa
title
titlelink
titlenote
titletype
tito
titre
titu
tituan
titulada
titulado
titus
tiwanaku
tiwanakumanta
tiwintza
tiwlli
tiwlliyuq
tiwtinku
tixan
tiy
tiyachkan
tiyan
tiyana
tiyanan
tiyananqa
tiyanchu
tiyanku
tiyaq
tiyaqkuna
tiyaqlla
tiyaqmi
tiyarqan
tiyay
tiyaynin
tiyaypi
tiyupunti
tiziano
tl
tlaxcala
tmp
tn
to
toba
tobi
tobias
toccata
toco
tod
toda
todas
todavi
today
todd
todo
todos
together
tognazzi
togo
toi
toile
tokio
tokushima
tokyo
tol
tola
toledo
tolima
tolkien
tolsto
tolstoy
toluca
tom
toma
tomas
tomasa
tome
tomentosa
tommaso
tommy
tomo
tomorrow
tomos
ton
tong
tonga
toni
tonight
tonne
tono
tonto
tonumber
tony
too
top
toparse
topeka
topic
topo
tora
torero
toribio
torino
tormenta
tormes
torneo
torneos
torno
toro
toronto
toros
torpedo
torre
torrente
torreo
torres
torrez
torrico
torrijos
tortuga
tortura
tosagua
tosca
toscana
tosh
toshiro
tostring
total
toto
totonicapa
totora
tottenham
totti
touch
toujours
toulouse
tour
tourism
tourist
tours
tous
toutes
tovar
towards
tower
town
toy
tpi
tr
tra
trabaja
trabajadores
trabajo
trabajos
track
tracking
tractatus
tracy
trad
trade
tradicio
tradicional
tradicionales
tradiciones
tradisyunal
traduccio
traducciones
traduce
traducida
traducido
traduction
traductor
traductores
tragadero
tragedia
tragedy
trago
traicio
traidor
trail
trailing
train
traite
trampa
trance
trancoso
trans
transchapter
transcript
transcripturl
transerror
translate
translated
translation
translations
transtitle
tranvi
trap
trapecio
tras
trata
tratado
tratamiento
trave
travel
travelingluck
travelling
travels
travesi
trayectoria
tre
treasure
treatise
trece
tree
trees
treinta
trek
trelles
tremarctos
tren
trent
trentino
trento
tres
trevin
tri
tria
trial
triana
tribu
tribunal
tribus
tribute
tributo
trichocereus
trichomycterus
trico
tricoche
tricolor
tridactyla
trifasciatus
trifolium
trigo
trilce
trilogi
trilogy
trim
tringa
trini
trinidad
trio
triphyllum
tripoli
trista
tristan
triste
tristes
tristeza
triticum
triunfo
triyu
tro
trofe
trofeo
troglodytes
troilo
trois
trombo
trompeta
tronco
trop
tropaeolum
tropical
troppo
trotsky
trouble
trouve
trova
trovador
trovadores
troveros
troya
tru
trucha
true
trueno
truffaut
truhillu
trujillo
truman
trumpet
trung
trunkal
truphyu
truphyukuna
trust
truth
truthy
trutmann
truxillensis
truyanu
try
tryon
ts
tsa
tsachila
tsaka
tsaki
tsakra
tsalaki
tsay
tsaymi
tsaynaw
tsaypita
tsch
tschudi
tse
tsekub
tseltal
tsiartas
tsima
tsinghua
tsotsil
tsu
tsunya
tsuri
tsurin
tsutuhil
tt
ttare
ttingen
tu
tuba
tuberculosis
tuberosa
tuberosum
tubino
tucson
tucuma
tudes
tudo
tuesta
tug
tugu
tuhi
tukachi
tukanu
tukarway
tukawaka
tukri
tuktapari
tuktu
tuktunkuna
tuktunkunaqa
tuktunnaq
tuktuyuq
tuku
tukuchispa
tukuku
tukukun
tukukuq
tukukuspa
tukukuyninmi
tukumach
tukuman
tukumi
tukun
tukuna
tukunanpaq
tukunari
tukurqan
tukuspa
tukusqa
tukusqakuna
tukuy
tukuypaq
tula
tulata
tulio
tulkan
tullius
tullpa
tullparahu
tullpu
tullu
tullup
tulluwan
tulluyuq
tulo
tulos
tulumusa
tum
tumarapi
tumas
tumati
tumatsiq
tumawi
tumay
tumba
tumbas
tumbes
tumi
tumina
tumipampa
tumpis
tun
tuna
tunanmarka
tunari
tunas
tunay
tungurahua
tunisya
tunki
tunkurawa
tunkurawra
tunpis
tunqur
tunqurawra
tunquri
tunshu
tunupa
tupa
tupac
tupah
tupaq
tupi
tupinamba
tupisa
tupiza
tupu
tupukuna
tupum
tupun
tupuq
tupuy
tupuynin
tupuypi
tuqllarahu
tuqti
tuquillo
tuqurpuri
turandot
turco
turdus
turi
turismo
turkiya
turkiyapa
turkme
turkminsuyu
turku
turkya
turner
turnerpa
turno
turnyu
turpay
turpin
turpu
turqu
turquie
turri
turu
turuncha
turup
turupampa
turuq
turuqa
tus
tusquets
tusuq
tusuqmi
tusuy
tusuykuna
tusuymi
tuta
tutapi
tuti
tutta
tutti
tutu
tutupaka
tutura
tuturiru
tuvo
tuwalu
tuwi
tuxtla
tuya
tuychi
tuyo
tuyru
tv
tvar
tvynovelas
tw
twain
twenty
twin
twist
two
twv
tycoon
tyne
type
types
typha
tyrone
tze
tzu
u
ua
ubaldo
ubinas
uc
ucar
ucayali
ucb
ucfirst
ucha
uchin
uchinapaq
uchiq
uchirqan
uchispa
uchisqan
uchiy
uchiyta
uchku
uchkus
uchpa
uchqu
uchu
uchuk
uchukay
uchum
uchumarka
uchumuyla
uchuqu
uchuraqay
uchuy
uchuylla
ud
uefa
uel
uffizi
uficial
ufisyal
ufisysal
uflo
ufrago
uganda
ugarte
ugel
ugelsihuas
ugo
ugru
uhu
uhupi
uists
uj
uju
ujuqa
uk
uka
ukayali
ukch
ukchu
uker
ukhu
ukhuman
ukhun
ukhunman
ukhunpi
ukhupampa
ukhupi
ukini
ukira
ukn
ukraine
ukranya
ukru
ukrus
uktuwri
uktuwripi
uku
ukucha
ukuku
ukulluku
ukumari
ukuna
ukunapaq
ukunapi
ukunata
ukup
ukupasiun
ukupi
ul
ula
ulaymi
ulimpiku
ulin
ulises
ulkuna
ulkunap
ulkunaqa
ulkunata
ulla
ullachiya
ullam
ullantay
ullantaytampu
ullawi
ulliru
ullku
ulloa
ullpina
ullqu
ullqumayu
ullu
ulluku
ullunta
ullup
ulmus
ulqa
ulrich
ulta
ultimate
ultra
ultramar
ululu
ulva
um
uma
umacha
umachaki
umachakunam
umala
umallina
umallinamanta
umallinapaq
umalliq
umalliqkuna
umalliqman
umalliqmi
umalliqnin
umalliqninkuna
umalliqninman
umalliqninmi
umalliqninpas
umalliqninqa
umalliqninsi
umalliqsi
umam
uman
umanata
umani
umanpi
umanta
umapi
umara
umas
umasuyu
umati
umawa
umawapi
umayu
umbel
umberto
umbria
umin
umir
umiriqi
umirqucha
umpi
umpu
umu
umurata
umutu
un
una
unakuy
unakuynin
unakuypa
unakuypi
unam
unamuno
unancha
unanchan
unanchanta
unanchao
unanue
unapaq
unay
unaykaq
unayta
uncaria
uncha
unchaw
unchawkama
unchawkuna
unchawkunapi
unchawmanta
unchawmantam
unchawmantapacha
unchawmi
unchawninmi
unchawniyuq
unchawniyuqmi
unchawpa
unchawpi
unchawpiqa
unchawpis
unchawqa
unchay
unchaynin
unchaypi
unchu
unchul
uncle
uncredited
und
under
unduavi
unduras
unduraspa
une
unesco
unfinished
unforgiven
uni
unicef
unicornio
unicornis
unida
unidad
unidades
unidas
unido
unidos
unificado
unifilis
unio
union
unique
unis
unit
unitary
unite
united
unitnamestring
units
unitstr
unittab
unity
univ
universal
universale
universidad
universidade
universita
universitaria
universitario
universitas
universite
university
universo
univision
unkara
unknown
unku
unkuykuna
unlimited
unmi
unmsm
unnamed
uno
unpa
unpi
unplugged
unpublished
unqa
unqaq
unquchiq
unquna
unqunapaq
unqunayaq
unquq
unqusqa
unquy
unquykuna
unquymanta
unquymi
unquyninkunamanta
unquyninmi
unquypa
unquypaq
unquyqa
unquyta
unquywan
unreleased
unriya
unsa
unset
unsiya
until
unu
unyun
uomini
uomo
up
upa
upamayu
upas
upchuy
update
upi
upon
upper
upright
uprightparameter
upu
upura
upuraki
upyana
upyanam
upyaspa
uq
uqa
uqan
uqanchik
uqayku
uqcha
uqhu
uqi
uqkuna
uqkunam
uqllu
uqmi
uqranra
uqrus
uqshapallqa
uqshapampa
uqsina
uqsitan
uqu
uqucha
uqunqati
uquq
uquri
uqururu
uquti
uqyachina
uqyaq
uqyay
ur
ura
uraka
uralan
uraman
uran
urani
uranpi
uranu
urapi
urarina
uras
urasuyu
urasuyupa
urasuyupi
uray
urayninpi
urban
urbana
urbanisme
urbano
urbanu
urbanus
urbina
urdaneta
urdu
urdun
uregui
ureta
uri
uribe
uriburu
uriel
urin
urinpi
uriondo
urku
urkuki
urkur
url
urmamuq
urmaq
urmasqa
urmaykuq
urmiri
urnu
uropygialis
uros
urpay
urpi
urpikuna
urpu
urqan
urqu
urqukuna
urqukunam
urqukunamanta
urqukunan
urqukunap
urqukunapa
urqukunapi
urqum
urqumanta
urqumayu
urqun
urqunkuna
urqup
urqupampa
urqupi
urqupin
urquqa
urququcha
urqus
urqusapa
urquwan
urrutia
ursula
ursus
urtica
uru
urubamba
uruguay
uruguayo
urum
urumanta
urupampa
urupisa
ururillu
urus
uruta
uruwayi
uruwayipa
uruwayipi
uruya
urwa
us
usa
usage
usain
usaq
usar
usbiksuyu
use
used
uselang
user
usera
uses
usewikidata
ushnu
usi
usillu
usillukunam
usillum
using
usiyanya
usiyanyapi
uskil
uskiykurqan
uslar
uslulu
usn
usnea
usnu
uso
uspa
uspaqucha
uspi
usqa
usqakuna
usqakunap
usqam
usqan
usqhullu
usqullu
ust
usta
usted
ustedes
ustring
usukuchi
usuluta
usya
usyanya
ut
uta
utah
utaq
utawalu
utc
ute
utexas
uti
util
utilis
utilise
utiliser
utilizan
utiq
utirqan
utishi
utku
utkupampa
utm
uto
utopi
utqaylla
utqhay
utrecht
utsu
utu
utukis
utuqsi
utura
uturunku
utusku
utuyu
uu
uwa
uwan
uwas
uwatana
uwe
uwiha
uwispu
uxi
uxn
uy
uya
uyakachi
uyan
uyanchaku
uyancharqan
uyanchasqa
uyarispa
uyariy
uyaychasqa
uyaychasqan
uyayuq
uyaywa
uychi
uychichawwan
uyka
uymanta
uymi
uynin
uyninkama
uypa
uypi
uyq
uyta
uytu
uyu
uyulu
uyumbicho
uyun
uyuni
uywa
uywakuna
uywakunam
uywakunap
uywakunapas
uywakunappas
uywakunata
uywakunatam
uywam
uywampullu
uywan
uywana
uywantullu
uywap
uywasqa
uywasqakuna
uywasqan
v
va
vaca
vacaciones
vacanze
vacas
vaccinium
vaci
vacuna
vadim
vagabundo
vague
vai
val
valca
valde
valdelomar
valderrama
valdez
valdivia
valdivieso
vale
valencia
valente
valenti
valentin
valentina
valentino
valenzuela
valer
valera
valeria
valeriana
valerio
valeur
valeurs
valicha
valid
validdivs
valiente
valientes
valign
valincia
valladares
valladolid
valle
vallecas
vallegrande
vallejo
vallejos
vallenato
valles
valletta
valley
valmore
valo
valor
valores
valos
valparai
vals
valses
value
valuefunc
values
valva
valverde
vame
vamos
vampire
vampiro
van
vancini
vancouver
vanellus
vanessa
vanguardia
vania
vano
vanuatu
var
varas
varela
varese
vargas
varia
variable
variables
variaciones
varias
variedades
variegatus
variety
varios
various
varmantam
varo
vas
vasco
vasconcelos
vasos
vasquez
vatican
vaticano
vaticanos
vaughan
vaupe
vaya
vda
ve
vea
veces
vecina
vecino
vega
vegas
veinte
veintemilla
veinticuatro
veis
veizaga
vejjajiva
vel
vela
velarde
velasco
velasquez
velez
velha
velho
veliko
veliz
vella
velo
veloso
ven
vena
venado
venaticus
vencer
vendetta
venecia
venegas
veneno
venes
veneto
venevisio
venezia
venezolana
venezolano
venezuela
vengador
venganza
vengo
venice
venido
vent
venta
ventana
ventanas
ventanilla
ventas
ventura
venus
veo
ver
vera
veracruz
verano
verapaz
verbal
verbena
verbenaceae
verbo
verdad
verdadera
verdadero
verdades
verde
verdes
verdi
vergara
verge
vergine
vergu
verlag
verlaine
vermehrte
vermicularis
vermilingua
vermont
vernon
vero
verona
veronica
vers
versailles
verse
versicolor
versio
version
versiones
versions
verso
versos
vert
verte
vertical
verticillata
vertu
verve
very
vesti
vete
vez
vfl
vg
vi
via
viagem
viaggio
viaja
viajante
viaje
viajero
viajeros
viajes
vial
viana
vianney
vica
vice
vicente
vicentico
vicenza
viceversa
vich
vichada
vicia
vicio
vico
victor
victoria
victoriae
victoriano
victorio
victory
vicugna
vicun
vida
vidal
vidas
vidaurre
vide
video
videoclips
videos
vidor
vie
viedma
vieille
vieira
vieja
viejo
viejos
viena
viene
vienen
vienes
vienna
viento
vientos
vier
vierges
viernes
vietnam
vieux
view
vigil
viglietti
vigo
vii
viii
viktor
vil
vila
vilas
vilca
vilcabamba
vilela
viles
villa
villacorta
villafa
village
villahermosa
villalba
villamil
villamontes
villana
villano
villanueva
villar
villareal
villarreal
villarrica
villarroel
villaverde
villavicencio
villazo
villca
ville
villegas
villena
villiers
villosa
vilnius
vin
vincent
vincente
vinces
vinci
vingt
vinicio
vino
vintage
viola
violencia
violent
violet
violeta
violetas
violi
violin
violon
violoncello
violonchelo
violonchelos
vip
vira
viral
virales
virgata
virgen
virgilio
virgin
virginia
virginianus
viridis
virrey
virreyna
virtual
viru
virus
visconti
viscosa
viseu
visio
vision
visiones
visit
visita
visitacio
visitadoras
visitamipais
visitante
visor
vista
visto
visual
vita
vitae
vital
vitier
vitis
vito
vitor
vitoria
vittorini
vittorio
viuda
viudita
viva
vivaldi
vivanco
vive
vivere
vivero
vives
vivian
viviana
vivien
viviente
vivio
vivir
vivo
vizcardo
vizcarra
vizconde
vlaar
vladimir
vn
vo
voa
vocabulario
vocacio
vocal
vocales
voce
voces
vogue
voice
voices
void
voir
voivodato
vol
vola
volador
volando
volar
volca
volcano
volkswagen
volley
volo
vols
volta
voltaire
volu
volume
volumen
volumes
voluntad
volvamos
volver
volvera
volvere
vom
von
vor
vora
vori
vorpommern
vos
voto
vous
voy
voyage
voz
vr
vrier
vs
vtech
vtv
vu
vuela
vuelo
vuelta
vuelto
vuelvas
vuelve
vuelven
vuelvo
vulgare
vulgares
vulgaris
vulpes
vultur
vy
vybiti
w
wa
wacarpay
wach
wachan
wachana
wachanan
wachanqa
wachapala
wachaqalla
wachaspa
wachay
wachu
wachun
wachuqullpa
wachuriq
wachwa
wade
wagner
wah
wahi
wahibo
wahrheit
wait
waiting
waji
wak
waka
wakachina
wakamayu
wakan
wakarpay
wakatay
wakcha
wake
wakefield
waki
wakichi
wakichikunankupaq
wakichiy
wakikuna
wakilla
wakin
wakinkuna
wakinllapi
wakipi
wakira
wakirka
wakllanwatachu
wakllanwatakuna
wakllanwatam
wakllanwatapi
walakisa
walasiyu
walaychu
waldo
wales
walicha
walk
walker
wall
walla
wallace
wallakuna
wallam
wallamanta
wallamarka
wallan
wallanka
wallanpi
wallap
wallapi
wallaqa
wallata
wallatani
walli
wallina
wallpa
wallpariq
wallparisqa
wallparisqan
wallpasqa
wallqa
wallqan
wallqana
wallqanqa
wallqanqan
wallqayuq
walltay
walltaynin
walltaypi
wallunarahu
wallwa
walsh
walt
walter
walther
walton
waltz
wam
wamachuku
wamali
waman
wamani
wamanim
wamaninkuna
wamanip
wamanipi
wamanipiqa
wamanpallpa
wamanpinta
wamanqa
wamanqapi
wamanrasu
wamanripa
wamantay
wamaq
wamashrahu
wamink
wamp
wampa
wampisa
wampu
wampuna
wampurushu
wampuya
wamra
wamrakuna
wamrakunata
wamuti
wamwisa
wan
wana
wanaku
wanana
wanarpu
wanay
wanchaku
wanda
wanderers
wang
wangari
wanipaku
wank
wanka
wankan
wankana
wankani
wankapampa
wankapi
wankarama
wankarani
wankaray
wankas
wankasanku
wankaskar
wankawillka
wankaya
wankayu
wankayuq
wanki
wankilli
wankurina
wankurisqa
wankurisqam
wankurisqan
wanpu
wansu
want
wanta
wantar
wanted
wanthi
wantsan
wantuq
wantuy
wanu
wanuku
wanuni
waorani
wapay
wapsi
wapsichana
wapsikunam
wapsim
wapsita
wapsiwan
wapu
waq
waqachina
waqachinakuna
waqachinam
waqachinankuna
waqachinchik
waqachiq
waqachiqkuna
waqachiqmi
waqachispa
waqaq
waqar
waqay
waqaychana
waqaychanapaq
waqaychasqa
waqaynin
waqaypampa
waqaywillka
waqichaq
waqkuna
waqllichiq
waqlliy
waqra
waqracha
waqrayuq
waqrayuqmi
waqta
waqtu
waqurunchu
waqwa
war
wara
waracha
warachikuy
warak
waraka
waral
warani
waranim
waraniyi
waranka
waranqa
waranqacha
waranqamanta
waranqawata
waranqaysu
waranqu
waranta
waranway
waraq
waraqu
waras
waraspi
warawara
warawarani
waray
warayu
ward
warensign
wari
warikancha
warina
waripampa
wariwillka
warkukuq
warma
warmi
warmikuna
warmikunap
warmikunata
warmikunawan
warmim
warmin
warmip
warmipa
warmipas
warmiqa
warmiqucha
warmis
warmita
warmiwan
warmiy
warner
warnes
warren
wars
warsz
warszawa
waru
waruchiri
warwasku
warwick
was
wasa
wasawasi
washa
washington
wasi
wasichaq
wasichasqankuna
wasichay
wasichaypi
wasikamayuq
wasikuna
wasikunam
wasikunapi
wasikunata
wasim
wasiman
wasimanta
wasin
wasinchan
wasinmanta
wasinpi
wasip
wasipi
wasipim
wasita
wasitaqa
wasiwan
wask
waska
waskaqucha
waskar
waskaran
waskhaqucha
wasqar
wasta
wastika
wat
wata
watajata
watakama
watakamam
watakaman
watakamapacha
watakamapim
watakamaqa
watakamas
watakamataq
watakuna
watakunapi
watakunaqa
watam
watamanta
watamantam
watamantapacha
watamantataq
watan
watana
watanabe
watankuna
watantin
watap
watapaq
watapi
watapicha
watapim
watapipas
watapiqa
watapis
watapitaq
wataqa
watasqa
watata
watayuq
watch
water
waters
watikanu
watimala
watimalapa
watimalapi
watkinsi
watson
watt
watts
wave
wawa
wawacha
wawakuna
wawakunamanta
wawakunap
wawakunapaq
wawakunapas
wawakunapi
wawakunata
wawamanta
wawan
wawankuna
wawanta
wawata
wawku
wawqi
wawqikuna
wawra
way
wayakil
wayana
wayanay
wayaqa
wayaqacha
wayaqayuq
wayaqi
wayaramirin
wayas
waych
waychaw
waychu
wayk
waykuru
waylas
waylillas
waylla
wayllakancha
wayllakunapi
wayllamarka
wayllamayu
wayllapampa
wayllaq
wayllaqucha
wayllay
wayllukuq
wayllukuqkuna
wayllukuqmi
wayllukuqpas
wayllukuqsi
wayllukuy
wayllunk
wayn
wayna
waynaruqi
wayne
waypu
wayq
wayra
wayrapi
wayru
wayruru
waysallpu
wayt
wayta
waytakuna
waytam
waytani
waytapallana
waytara
waytaray
wayu
wayukunapi
wayunka
wayupata
wayuq
wayusa
wayuw
waywacha
waywaka
waywash
wałe
wd
we
wea
web
webb
weber
weberbaueri
website
wedd
wedding
weenhayek
wei
weight
weimar
weinmannia
weissmuller
welcome
well
welles
wellington
wells
welt
wen
wendy
werder
were
werner
werneria
weselby
wesley
west
western
westfalen
westminster
weston
westphalen
wh
what
when
where
whether
which
while
whistle
white
whitelist
whitespace
whitman
whitney
who
whoopi
why
wich
wichay
wichhu
wichi
wichinka
wichiqucha
wichq
wichu
wichullu
wide
width
widyu
widyukuna
widyum
wie
wiedii
wien
wiesbaden
wife
wight
wii
wijsa
wik
wikch
wiki
wikibase
wikidata
wikidataid
wikidataquery
wikimapia
wikimedia
wikipe
wikipedia
wikipidiya
wikipidiyaqa
wikiproyectos
wikitext
wiksa
wiksachaki
wiksayuq
wiksu
wikunka
wila
wilama
wilaquta
wild
wilde
wilder
wildlife
wilfredo
wilhelm
wililli
wilkins
will
willa
willakun
willakuna
willakunata
willakunku
willakuq
willakuy
willakuykuna
willakuykunata
willakuykunawan
willakuyninkuna
willakuyqa
willan
willana
willanakuna
willanakuy
willanakuykuna
willaq
willard
willarqan
willaspa
willasqa
willasqakuna
willasqan
willay
willaykuna
willaykunata
willaykuykuna
willaypi
willaypukyukuna
willayta
willd
willem
william
williams
willian
willie
willis
willk
willka
willkachasqa
willkamayu
willkanuta
willkapampa
willkasqam
willkawaman
willkawasi
willku
willow
willy
wilmer
wilmington
wilson
wilt
wiluyuq
win
winchester
winchu
wind
windows
windsor
wing
winger
wings
winisuyla
winisuylapa
winisuylapi
winner
winners
winnie
winnipeg
winston
wint
winter
wintu
winu
wiphala
wiqi
wiqu
wiquntuy
wira
wiraku
wiraqucha
wiraquchakuna
wiraquchapampa
wiraquchapaq
wirasapa
wirata
wirjin
wirp
wirrinatu
wiru
wirwina
wisaw
wischunku
wisconsin
wise
wisina
wisinam
wisk
wisnu
wisnup
wisq
witalina
witch
with
within
without
witichi
witis
witkus
witnam
witnampa
witnampi
witness
witoto
witsay
witu
wives
wiwa
wiyacha
wiyula
wiyulin
wiyulinta
wo
wojewo
wolf
wolfgang
wolfram
woman
women
won
wonder
wonderful
wonderland
wong
woo
wood
woodrow
woods
woodstock
woodward
woody
woolf
word
words
wordsworth
work
working
works
world
worldfootball
worldlingo
worlds
worse
worth
would
wrap
wren
wrexham
wright
writedate
writenum
writer
writers
writings
written
wrong
wu
wuhan
wuliwiya
wuliwiyap
wuliwiyapa
wuliwiyapi
wunder
wuppertal
wurdack
www
wyman
wyoming
x
xalapa
xanadu
xanthium
xanthosoma
xavier
xbox
xi
xiamen
xiang
xiao
xiaobo
xico
xie
xii
xiii
xima
ximena
ximo
xin
xining
xinran
xito
xitos
xiv
xix
xodo
xu
xue
xun
xv
xvi
xvii
xviii
xx
xxi
xxii
xxiii
xxx
xylopia
y
ya
yac
yachachin
yachachiq
yachachiqkuna
yachachiqkunap
yachachiqkunaq
yachachiqmi
yachachiqpas
yachachirqan
yachachispa
yachachiy
yachachiyta
yachakun
yachakunchu
yachakuqkuna
yachakuqkunapa
yachakuy
yachan
yachana
yachanapaq
yachanaypaq
yachanku
yachaq
yachaqarqan
yachaqayta
yachaqkuna
yachaqkunam
yachaqkunap
yachaqkunaqa
yachaqmi
yachaqpa
yachaqpas
yachaqsi
yachasunchik
yachay
yachaychiy
yachaykuna
yachaykunata
yachaymanta
yachaymantapas
yachaymi
yachaynin
yachayninta
yachaypa
yachaypanqa
yachaypi
yachaysunturpa
yachayta
yachaytaqpi
yachaywasi
yachaywasikuna
yachaywasikunan
yachaywasikunapi
yachaywasiman
yachaywasin
yachaywasipi
yacu
yagua
yaguachi
yak
yaka
yakarta
yake
yaku
yakuampi
yakuchaq
yakukuna
yakum
yakuma
yakumamanta
yakumanta
yakumuksi
yakun
yakup
yakupas
yakupi
yakuqa
yakuta
yakutam
yakutaqa
yakuwan
yakuywa
yala
yalaman
yalap
yalapi
yalapipas
yalapura
yalata
yale
yallinakuy
yallisqa
yalta
yamala
yaman
yaminawa
yampara
yampupata
yamt
yan
yana
yanacha
yanachaga
yanakancha
yanama
yanamayu
yanantin
yanapan
yanapaq
yanaparqan
yanapay
yanapayninwan
yanaphaqcha
yanapi
yanaqa
yanaqaqa
yanaqucha
yanarahu
yanarrahu
yanashallash
yanatama
yanatili
yanaurqu
yanawanka
yanawara
yanawiku
yanesha
yang
yanisha
yankee
yanomami
yanqa
yantzaza
yanuna
yanuspa
yanusqa
yao
yapakani
yapantsik
yapaq
yapasqa
yapay
yapu
yapuy
yaq
yaqa
yara
yaranga
yarawi
yarayma
yard
yareta
yarina
yarinaqucha
yarita
yarpay
yarqun
yaruwillka
yashqa
yasuni
yata
yatana
yatawaki
yatin
yau
yauli
yauyos
yaw
yawachi
yawar
yawarch
yawarkucha
yawarman
yawarmanta
yawarnin
yawarninta
yawarpi
yawarqa
yawarqucha
yawarta
yawatisuyu
yawatisuyupi
yawli
yawri
yawrikuna
yawrikunam
yawrim
yawrinkuna
yawrinmi
yawrisqi
yawyu
yaya
yayakuna
yayamari
yayan
yayayku
yaykuchina
yaykuchinapaq
yaykunapaq
yaykurqan
yaykuyta
ye
year
years
yellow
yemen
yemwe
yerba
yerma
yerupaja
yerushalayim
yes
yesenia
yesno
yevich
yi
yine
yitzhak
yiwuti
yo
yokohama
yolanda
yomwe
yong
york
yorkshire
yoro
you
young
your
yours
youth
youtube
yr
yrigoyen
yu
yuan
yucata
yucra
yuen
yuguslawya
yukatan
yukay
yukra
yuku
yuma
yumanayuqmi
yumanu
yumasqa
yun
yunchara
yungay
yunka
yunkay
yunkuyu
yunnan
yunque
yupa
yupakuna
yupam
yupana
yupanamanta
yupanchik
yupanki
yupankip
yupanqui
yupay
yupaychana
yupaychanku
yupaychasqa
yupaykamaqa
yupaykuna
yupaymi
yupayninkuna
yupayninqa
yupayqa
yupayta
yupaywan
yupik
yuq
yuqalla
yuqanaka
yuquy
yura
yurakari
yurakuna
yurakunam
yurakunamanta
yurakunap
yurakunapas
yurakunapi
yurakunaqa
yurakunata
yurakunatam
yuram
yuramanta
yurap
yurapas
yuraq
yuraqchupa
yuraqmarka
yuraqmayu
yuraqq
yuraqqucha
yuraqyaku
yurata
yuri
yurimawas
yurisqa
yurisqakuna
yuru
yurua
yuskadi
yuskara
yuthu
yuyan
yuyay
yuyayyaku
yuyu
yves
yvonne
z
za
zabaleta
zacapa
zacatecas
zafiro
zafra
zagreb
zaka
zamba
zambrano
zame
zamora
zampa
zampon
zaparoana
zapata
zapatero
zapotillo
zar
zaragoza
zarate
zaro
zarzuela
zavala
zavaleta
zayas
ze
zea
zeballos
zedong
zeeland
zeffirelli
zegarra
zeit
zelaya
zenaida
zender
zenit
zenobio
zenon
zeppelin
zero
zeus
zevallos
zh
zhang
zhao
zhejiang
zheng
zhengzhou
zhi
zho
zhongshu
zhou
zhu
zhuang
zi
zidane
ziegfeld
zil
zima
zimbabwe
zinc
zip
zlatan
zo
zoila
zola
zolta
zomwe
zona
zone
zonotrichia
zoo
zoom
zorra
zorrilla
zorrito
zorritos
zorro
zquez
zsa
zu
zuckerman
zuckermann
zuda
zuid
zulen
zulia
zum
zumbi
zun
zur
zurbara
zuri
zurich
zurita
{
|
}
~


¡
¢
£
¤
¥
§
¨
©
ª
«
°
±
²
³
´
µ
¶
·
¹
º
»
¼
½
¿
×
æ
ð
÷
þ
đa
đo
ło
ŋ
œuvre
œuvres
ɛ
ʰ
ʲ
ʻ
ʼ
ʾ
ʿ
ˈ
ː
̀
́
̂
̃
̄
̆
̇
̈
̉
̊
̋
̌
̍
̓
̔
̛
̟
̠
̣
̤
̦
̧
̨
̪
̭
̱
̸
̺
͂
ͅ
΄
α
β
γ
δ
ε
ει
η
θ
ι
κ
και
λ
λης
μ
ματος
ν
νος
ντα
ο
ου
π
ρα
ς
τ
τη
της
του
των
υ
φ
ω
а
в
г
д
и
к
л
н
на
о
р
раи
с
т
у
ч
я
і
ְ
ִ
ֶ
ַ
ָ
ֹ
ּ
ׁ
א
ב
ג
ד
ה
ו
ז
י
ך
ל
מ
ן
ס
ר
ש
״
ا
احمد
الله
بن
د
س
صادق
عبد
ل
محمد
ه
و
ي
َ
ُ
ِ
ٓ
ٔ
ٕ
ހ
ވ
ދ
ި
ެ
߫
ँ
ं
अ
क
ख
ग
ज
ट
ठ
ड
त
थ
द
ध
न
प
फ
ब
भ
म
य
र
ल
ळ
व
श
ष
स
ह
़
ा
ि
ी
ु
ू
ृ
े
ै
ो
्
।
॰
ং
ক
খ
গ
চ
ছ
জ
ঠ
ড
ণ
ত
দ
ন
প
ব
ম
য
র
ল
শ
ষ
স
হ
়
া
ি
ী
ু
ে
্
ਕ
ਖ
ਗ
ਜ
ਪ
ਬ
ਵ
ਾ
ਿ
ੀ
ੁ
ੋ
ੰ
ੱ
ક
ગ
ત
ર
ા
િ
ી
ુ
્
ଆ
଼
ି
େ
୍
க
ங
ட
த
ந
ப
ம
ர
ல
ழ
ா
ி
ு
்
ం
క
గ
డ
త
ప
ర
ల
ా
ి
ీ
ు
ూ
ె
్
ತ
ಳ
ಿ
ು
ೆ
್
ം
ക
പ
ള
ാ
ി
്
ං
ක
ඩ
ද
න
ර
ස
්
ා
ි
ී
ු
ก
จ
ช
ด
ท
น
บ
พ
ภ
ม
ล
ว
อ
ั
า
ิ
ี
ื
ุ
ู
็
่
้
๊
์
་
ཁ
ག
ང
ད
བ
མ
ཡ
ར
ི
ོ
ྫ
ླ
က
တ
န
ဘ
မ
ယ
ရ
သ
ာ
ိ
ီ
း
်
ြ
ွ
ှ
ၢ
ၵ
ႂ
ႆ
მხარე
ᜈ
ᜒ
᜔
ក
ខ
គ
ភ
ម
រ
ស
ា
ិ
ី
ុ
ើ
ែ
្
ᨁ
ᨕ
ᨗ
ᨙ
ᬶ
ᮓ
ᮔ
ᮞ
ᮥ
᮪
​
‌
‍
‎
‏
‑
–
—
‘
’
“
”
„
†
‡
•
…
‪
‭
‰
′
″
‹
›
⁠
⁻
ⁿ
€
↑
→
↓
↔
↷
−
√
∩
∪
≈
≤
≥
⋅
③
④
⑦
─
└
├
☆
ⰲ
ⰽ
ⰾ
ⱀ
ⱁ
ⱄ
ⱏ
ⱐ
ⱑ
ⴰ
ⵉ
ⵎ
ⵖ
ⵜ
ⵣ
⺀
⺄
⺆
⺈
⺊
⺌
⺕
⺝
⺸
⺼
⿰
⿱
⿲
⿳
⿴
⿵
⿶
⿷
⿸
⿹
⿺
⿻
、
。
〢
あ
い
う
え
か
く
け
こ
さ
し
そ
た
っ
て
な
に
の
は
ひ
ま
も
ら
り
る
を
ん
゙
゚
ア
ィ
イ
ウ
オ
カ
キ
ク
ケ
コ
サ
シ
ス
ソ
タ
チ
ッ
テ
ト
ナ
ニ
ノ
ハ
ヒ
フ
ヘ
ホ
ム
メ
モ
ユ
ョ
ラ
リ
ル
レ
ロ
ワ
ヲ
ン
・
ー
㇁
㇂
㇄
㇇
㇈
㇉
㇓
㐁
㐄
㐅
㐌
㐫
㐬
㐭
㐮
㐱
㑒
㒵
㒸
㒼
㓁
㓞
㔾
㕛
㕣
㖾
㘝
㚅
㚇
㚔
㚘
㝉
㝡
㝴
㝵
㞋
㞢
㞷
㠩
㠭
㠯
㡀
㡭
㡿
㢲
㢴
㣇
㣺
㥯
㪅
㫄
㫐
㫒
㫺
㬅
㬎
㬥
㬰
㲋
㳄
㷠
㸒
㸚
㸦
㼌
㼲
㽞
㿟
䀠
䂞
䍃
䏍
䒑
䖍
䖒
䖝
䖵
䙴
䚻
䜌
䝿
䡛
䧹
䪞
一
丁
丂
七
丄
丅
丆
万
丈
三
上
下
丌
不
与
丏
丐
丑
专
且
丕
世
丘
丙
业
东
丞
丢
丣
两
严
並
丨
丩
个
丫
丬
中
丮
丰
丱
串
丵
丶
丷
丸
丹
为
主
丽
丿
乀
乂
乃
久
乆
乇
么
义
之
乌
乍
乎
乏
乐
乑
乔
乖
乗
乘
乙
乚
乛
乜
九
乞
也
习
乡
书
乳
乾
亀
亅
了
亇
予
争
事
二
亍
于
亏
亐
云
互
亓
五
井
亘
亚
亜
亞
亟
亠
亡
亢
交
亥
亦
产
亨
亩
享
京
亭
亮
亯
亰
亲
亳
亶
亷
人
亻
亼
亾
仁
今
介
仌
从
仐
仑
仒
仓
仕
他
付
仝
代
令
以
仲
任
企
伊
伏
伐
休
会
伝
伟
伦
伯
但
位
佐
佑
何
佘
余
作
佥
使
來
侈
侌
侖
侯
侵
便
俊
保
俞
信
修
倉
倍
候
倠
倪
偁
健
備
僉
僕
僧
僮
億
儿
兀
允
兂
元
兄
充
兆
兇
先
光
兊
克
兌
免
兑
兒
兓
兔
党
兜
兟
入
內
全
兩
兪
八
公
六
兮
兰
共
关
兴
兵
其
具
典
兹
兼
冀
冂
冃
冄
内
冈
冉
冊
冋
册
再
冎
冏
冐
冒
冓
冖
冗
冘
军
农
冝
冡
冥
冫
冬
冯
冰
冷
凌
凝
几
凡
凢
凱
凵
凶
凷
凸
凹
出
函
凾
刀
刁
刂
刃
刄
刅
分
切
刍
刑
刕
刖
列
刘
则
初
別
利
别
到
制
刺
則
削
剌
前
剡
剽
劉
力
功
加
劦
助
劫
劳
劵
勃
勇
勉
勒
動
務
勞
勤
勰
勹
勺
勻
勾
勿
匀
匂
包
匆
匈
匊
匋
匍
匕
化
北
匚
匝
匡
匪
匱
匸
匹
区
医
匽
匿
區
十
卂
千
卄
卅
卆
升
午
卉
半
卌
华
卑
卒
卓
单
卖
南
博
卜
卝
卞
占
卡
卢
卣
卤
卦
卩
卪
卫
卬
卯
印
危
即
却
卵
卷
卸
卻
卿
厂
厃
厄
历
厈
厉
厌
厓
厘
厚
原
厤
厥
厦
厨
厭
厲
厶
厷
厸
去
厼
厽
县
叀
参
參
叅
又
叉
及
友
双
反
叐
发
叒
叔
叕
取
受
叚
叜
叟
口
古
句
另
叩
只
召
可
台
叱
史
右
叵
号
司
叹
吂
各
吅
合
吉
吊
吋
同
名
后
吏
向
吕
君
吝
吞
吠
否
含
启
吳
吴
吹
吾
呂
呆
呈
告
员
呙
周
呼
命
咅
和
咎
咠
咢
咨
咸
咼
哀
品
哈
哉
員
哥
哲
唐
商
啇
問
啚
啟
啬
啻
善
喜
喬
單
喿
嗇
嘆
嘉
噩
嚴
囊
囗
囘
囙
囚
四
回
囟
因
囧
囬
困
囱
囷
固
国
圂
圅
國
圍
園
圓
土
圡
圣
圥
在
圭
地
圶
圼
坐
坒
坚
坴
垂
垔
垚
埀
埋
城
埕
埶
執
基
堂
堅
堆
堇
堯
場
塞
墨
壘
士
壬
壯
声
壳
壴
壹
壺
壽
夂
处
夅
夆
备
夊
夋
夌
复
夏
夒
夕
外
夗
夘
多
夜
夢
大
夨
天
太
夫
夬
夭
央
失
夲
头
夷
夸
夹
夻
夾
奂
奄
奇
奈
奉
奎
奏
奐
契
奓
奔
奚
奞
奠
奢
奥
奭
女
奴
奻
好
如
妄
妙
妟
妥
妻
妾
姑
委
姚
姜
威
娃
娄
婁
婴
婷
嬰
嬴
子
孑
孔
孕
孖
字
存
孙
孚
孛
孝
孟
季
孤
学
孫
孱
學
孺
宀
宁
宂
它
宅
宇
守
安
宋
完
宏
宓
宗
官
定
宛
宜
宝
实
客
宣
室
宮
宰
害
家
容
宾
宿
寄
寅
密
富
寒
察
實
寧
審
寫
寬
寮
寸
对
寺
寻
寽
対
寿
封
尃
射
将
將
專
尉
尊
尋
尌
對
小
少
尒
尓
尔
尖
尗
尙
尚
尞
尢
尣
尤
尧
尨
尭
就
尸
尹
尺
尻
尼
尽
尾
尿
局
居
屈
屋
屎
屏
屑
展
屖
屚
属
屠
屡
屬
屮
屯
屰
山
屵
屾
岁
岂
岑
岛
岡
岩
岱
岳
岸
峯
峰
島
崇
崎
崑
崔
崖
崙
崩
嵇
嵬
嶲
巂
巍
巛
川
州
巟
巠
巢
巤
工
左
巧
巨
巩
巫
差
己
已
巳
巴
巷
巸
巽
巾
巿
帀
市
布
希
帚
帛
帝
带
師
席
帶
常
干
平
年
幵
并
幷
幸
幺
幻
幼
幽
幾
广
広
庄
庆
床
底
店
庚
府
度
庫
庭
庵
庶
康
庸
廉
廌
廖
廛
廣
廩
廴
延
廷
建
廾
廿
开
弁
弃
弄
弇
弋
式
弓
弔
引
弗
弘
弜
弟
张
弥
弦
弱
張
強
强
彊
彌
彎
彐
彑
当
彔
录
彖
彗
彡
形
彥
彦
彧
彭
彳
役
彼
往
征
待
律
後
徐
徒
得
徙
從
復
微
徳
徵
德
徽
心
忄
必
忌
忍
志
忝
忠
忩
快
念
忽
忿
思
怠
急
怱
恆
恒
恨
恩
恪
恭
息
恺
悉
患
悤
悲
悶
情
惠
惡
惢
愁
愈
意
愛
感
慈
慧
慮
慶
憂
憲
憶
應
懐
戀
戈
戉
戊
戋
戌
戍
戎
成
我
戒
戔
或
戚
戠
戢
戦
截
戲
戴
戶
户
戸
戹
戼
戾
房
所
扁
扇
手
扌
才
扎
打
托
执
扬
承
技
抗
折
拉
拓
拜
拿
振
掌
排
推
提
摩
撒
操
支
攴
攵
收
攸
改
放
政
敄
敏
敕
敖
敗
敝
敞
敢
散
敦
敫
敬
数
敷
數
斂
文
斉
斊
斗
斤
斥
斩
斬
斯
新
方
於
施
斿
旁
旋
族
旗
无
旡
既
旣
日
旦
旧
旨
早
旬
旱
旲
时
旾
昀
昆
昇
昊
昌
昍
明
昏
易
昔
昗
昜
星
春
昬
昭
是
昱
昴
昷
時
晃
晋
晏
晓
晗
普
景
晶
智
暑
暴
曇
曉
曩
曰
曲
曳
更
曷
書
曹
曼
曾
替
最
朁
會
月
有
朋
服
朔
朕
朗
望
朝
木
朩
未
末
本
札
朮
术
朱
朴
朵
朶
朿
杀
李
杏
村
杜
束
条
来
杨
杰
東
杲
杳
松
析
林
枚
果
枝
枲
枼
某
柔
查
柬
柰
柳
柴
栋
栗
格
桀
桃
桑
桥
桦
桼
梁
梓
條
梟
梨
棄
棉
棘
棠
棥
森
植
楊
楚
楠
業
楽
榮
樂
樊
樹
橋
機
欠
次
欣
欮
欲
欶
欽
款
歆
歇
歌
歐
歛
止
正
此
步
武
歨
歪
歮
歯
歰
歲
歴
歷
歸
歹
歺
死
殊
残
殳
段
殷
殸
殹
殺
殻
殿
毋
毌
母
每
毒
比
毕
毚
毛
毳
氏
氐
民
气
氣
水
氵
氶
氷
永
氺
氾
求
汉
汝
汞
江
池
汪
沃
沈
沓
沙
沝
沫
河
治
泉
法
波
泣
泥
泰
泽
洁
洋
洛
津
洪
洲
洵
活
派
流
济
浦
浩
浪
浮
海
淖
淡
淦
淮
深
淵
清
渚
渠
港
游
湖
湘
湯
溪
滿
漁
漢
漸
潔
潘
潤
澤
澳
濛
濟
濤
火
灬
灭
灰
灵
灷
炅
炎
炏
炗
炙
炜
炭
為
烈
烏
烝
焉
無
焦
焱
然
煉
煜
煞
照
熊
熏
熱
熹
燒
燕
營
燮
爪
爫
爭
爯
爰
爱
爲
爵
父
爻
爽
爾
爿
片
版
牙
牚
牛
牜
牟
牢
牧
牪
特
牽
犀
犬
犭
犮
狂
狄
狊
独
狺
猋
猒
猪
献
獻
玄
率
玉
王
玟
玨
现
玲
珍
珎
珠
班
現
理
琴
瑟
瑩
璠
瓜
瓦
甘
甚
生
産
用
甫
甬
田
由
甲
申
电
甶
男
甸
甹
画
甾
畀
界
畏
畐
留
畜
畟
畢
畧
畨
番
畫
異
畱
當
畺
畾
疊
疋
疌
疑
疒
疾
癶
癸
癹
登
發
白
百
皀
皃
的
皆
皇
皋
皐
皕
皮
皷
皿
盃
盆
盇
盈
益
盍
盎
监
盒
盖
盛
盟
盡
監
盤
盧
目
直
相
盾
省
眇
眉
看
眔
眞
真
眷
眼
眾
着
睘
睪
睿
瞏
瞢
瞿
矍
矛
矞
矢
矣
知
矦
短
石
破
碎
磊
磨
示
礻
礼
社
祁
祖
神
祟
祥
票
祭
祺
禀
禁
福
禸
禹
禺
离
禽
禾
禿
秀
秃
秉
秋
科
秝
秦
移
程
稟
稹
穀
穆
穌
穴
究
穹
空
穿
突
窄
窒
立
竒
竜
竝
竟
章
童
竹
笑
笠
筆
等
答
简
箕
算
箴
節
篤
篪
篭
籍
米
粉
粛
粟
粤
粦
粲
粵
糞
糸
糹
系
紀
約
紅
納
紓
素
索
紫
累
細
絜
絫
絲
絳
維
綽
綿
縣
繇
繼
纍
纟
红
经
绛
绰
维
缶
网
罒
罔
罕
罗
罙
罡
罢
罪
署
罷
羅
羊
羌
羍
美
羔
羕
羗
羞
羡
羣
群
義
羲
羸
羽
翁
翏
習
翔
翕
翟
翠
翼
老
耂
考
者
耆
而
耎
耐
耑
耒
耳
耴
耶
耷
聂
聊
职
聖
聚
聞
聶
聿
肀
肃
肅
肉
肖
肙
肥
肩
肯
育
肴
胃
背
胡
胥
能
脊
脩
膚
臣
臤
臧
自
臬
臭
臯
臱
至
致
臺
臼
臽
臾
臿
舀
舂
舄
與
興
舉
舌
舍
舒
舛
舜
舞
舟
舫
般
艮
良
色
艸
艹
艺
艾
芒
芔
芜
芝
芬
芮
花
芳
芹
芺
芻
苏
苓
苔
苗
苟
若
苦
英
茂
茅
茶
茸
茹
荅
草
荒
荣
荼
莆
莉
莊
莧
莫
莱
莹
莽
菆
菊
菐
華
萧
萬
落
葉
著
葛
董
葵
蒋
蒙
蒦
蒲
蒼
蓋
蓬
蓮
蓺
蔑
蔡
蔣
蕉
蕭
薄
薇
薛
薦
薰
藍
藏
藤
藥
蘇
蘭
虍
虎
虐
虒
虔
處
虖
虗
虘
虚
虛
虜
虞
虫
虹
虽
蚤
蚩
蜀
蜜
蟲
蠡
血
行
衍
衛
衡
衣
衤
表
衮
衰
袁
袞
裕
裘
褭
褱
襄
襾
西
覀
要
覃
見
規
覓
覧
親
覺
覽
见
角
解
言
訁
訇
計
記
許
詩
話
詹
語
誠
誩
説
誰
諶
諸
謙
謝
譚
讀
讠
许
访
话
语
请
谢
谷
豆
豈
豊
豐
豕
豖
豙
象
豦
豩
豪
豸
貇
貝
貞
貟
負
貢
貧
貪
貫
責
貳
貴
買
費
賀
賁
資
賈
賏
賓
賔
賛
賞
賢
賣
質
賴
贊
贛
贝
贡
责
贤
贯
贲
贵
贽
贾
赖
赞
赤
赦
走
赵
超
越
趙
足
趼
路
蹇
身
躬
車
軍
軎
軟
軾
輦
轍
车
辛
辜
辟
辥
辰
辱
農
辵
辶
边
辽
达
迅
过
近
连
迟
迷
追
退
送
适
逆
逐
通
速
造
逢
連
逮
進
遀
遂
遇
運
過
道
達
遠
遣
適
遲
遵
遷
遺
邊
邑
邓
邕
那
邦
邪
邱
郁
郎
郑
郝
部
郭
都
鄂
鄉
鄧
鄭
酉
酋
配
酓
醒
釆
采
里
重
野
量
金
釒
釜
鈞
錢
録
鍾
鎮
鐘
钅
钟
钱
铁
锐
锡
锦
锺
镛
長
镸
长
門
閃
閉
開
閏
閑
閒
間
閔
関
閩
閵
閻
闌
關
门
问
间
闷
闻
闽
阎
阑
阜
阝
阮
阳
阿
陆
陈
陉
降
院
陳
陵
陶
陸
陽
隆
隊
隋
隡
隨
隱
隶
隹
隺
隻
隼
隽
难
雀
雁
雅
集
雈
雋
雍
雐
雔
雙
雚
雜
雝
離
難
雨
雩
雪
雲
零
雷
需
震
霍
霜
霝
霞
露
霸
靈
靑
青
非
靡
面
靣
革
鞏
韋
韓
韦
韩
韭
韯
韱
音
頁
頃
項
須
頗
頡
頻
顛
顯
页
顺
顾
颖
風
颯
风
飒
飛
飞
食
飠
養
饣
首
香
馬
馮
駦
马
骆
骥
骨
高
髟
鬥
鬯
鬲
鬼
魂
魏
魚
魯
鮮
鱼
鲁
鳥
鳳
鶚
鸟
鸿
鹗
鹵
鹽
鹿
麃
麗
麥
麦
麻
黃
黄
黍
黎
黑
黒
黨
黹
黽
黾
鼎
鼓
鼠
鼻
齊
齋
齐
齒
齡
齿
龍
龙
龜
龟
龠
龰
龱
龴
龵
龶
龷
龸
龹
ꆇ
ꉙ
ꙑ
ꦗ
ꦧ
ꦮ
ꦱ
ꭹ
ꮃ
ꮎ
ꮝ
ꮳ
ꯂ
ꯃ
ꯇ
ꯟ
ꯣ
ꯩ








者
艹
ﺎ
ﺖ
ﺩ
ﺮ
ﺴ
ﻌ
ﻧ
ﻮ
ﻯ
﻿
（
）
，
／
：
？
～
𐌰
𐌲
𐌳
𐌶
𐌹
𐌺
𐌾
𐌿
𐍂
𐍃
𐍄
𞤢
𞤤
𞤨
𞤪
𞤵
🜨
𠀁
𠀃
𠀆
𠀉
𠀎
𠀐
𠁁
𠁣
𠂆
𠂇
𠂈
𠂉
𠂊
𠂋
𠂎
𠂒
𠂔
𠂛
𠂡
𠂢
𠂤
𠂬
𠂭
𠂹
𠃊
𠃋
𠃌
𠃍
𠃎
𠃑
𠃓
𠃔
𠃜
𠄌
𠄎
𠄠
𠄢
𠆢
𠆥
𠇍
𠈌
𠌵
𠓜
𠔉
𠔥
𠔼
𠔽
𠔿
𠕀
𠕁
𠕋
𠘧
𠘨
𠙻
𠙼
𠚏
𠚒
𠚤
𠚪
𠣏
𠤎
𠤕
𠥓
𠦄
𠦑
𠦝
𠧒
𠧗
𠧪
𠩺
𠪚
𠫓
𠫔
𠫤
𠬛
𠬝
𠬞
𠬢
𠬤
𠬶
𠮛
𠮦
𠮷
𠯑
𠱠
𠳮
𠷎
𡈼
𡉀
𡉵
𡌥
𡍮
𡏳
𡕒
𡕩
𡕰
𡖅
𡗗
𡗜
𡘆
𡘤
𡧱
𡨄
𡩧
𡬠
𡭽
𡰣
𡰥
𡰪
𡰯
𡰱
𡷈
𡸁
𡿨
𡿩
𡿪
𡿺
𢀖
𢀛
𢀩
𢁙
𢆉
𢆰
𢆶
𢇁
𢇇
𢉖
𢌬
𢌿
𢏚
𢑑
𢑚
𢖻
𢙣
𢛳
𢦏
𢦒
𢧵
𢼄
𢾕
𣁋
𣄼
𣅀
𣅽
𣍘
𣎳
𣎵
𣏋
𣏼
𣗥
𣥂
𣥖
𣦵
𣦼
𣧄
𣪊
𣪠
𣬉
𣳾
𣶒
𤇾
𤊽
𤐫
𤓰
𤔔
𤕨
𤣩
𤰇
𤰔
𤰞
𤴓
𤴔
𤽄
𥁑
𥁕
𥃦
𥃩
𥃭
𥇡
𥑟
𥘅
𥘈
𥝢
𥫗
𥱡
𦈢
𦉪
𦉬
𦉼
𦍌
𦍒
𦎧
𦐇
𦓔
𦔮
𦘒
𦙃
𦚏
𦣝
𦣞
𦣻
𦥑
𦥔
𦥯
𦨉
𦭝
𦰩
𧆞
𧈧
𧘇
𧰨
𧴪
𧴮
𧵩
𧾷
𨸏
𨾴
𩙿
𩠐
𩫏
𩵋
𪉷
𪜀
𪟽
𪠲
𪩲
𫇦
𫔭
𫜸
𫝀
𫠣
𫠩
𫢉
𫥞
𫩏
𫩠
𫪡
𫲽
𫶧
𬀷
𬐘
𬗌
𬙙
𬛸
𬜯
𬟩
𬯁
𬴘
𬺻
𬼉
𬼖
𭀰
𭁈
𭁨
𭅰
𭑈
𭕄
𭗼
𭤨
𭥫
𭻾
𮅕
𮊿
𮍌
𮍏
𮓗
𮥼
𮧮
廾
𰀁
𰀄
𰀈
𰀉
𰀕
𰀠
𰀡
𰀢
𰀪
𰁜
𰃮
𰆊
𰆘
𰋙
𰕎
𰢴
𰧭
𰯲
000--
050--
978612--
a--
aa--
ab--
abando--
abd--
abdo--
abe--
abi--
abs--
absin--
absol--
abu--
ac--
aca--
acan--
acce--
acciden--
ace--
ach--
acha--
achan--
achi--
achiks--
achu--
aco--
acostum--
acre--
act--
activ--
acu--
ad--
ada--
adapt--
add--
ade--
adi--
adiv--
adj--
ado--
adopt--
adul--
ae--
aequ--
aero--
af--
afect--
aff--
afg--
afgan--
afro--
ag--
aga--
age--
ago--
agri--
agro--
agu--
agua--
ah--
ahua--
ai--
air--
aj--
aja--
ak--
aka--
aki--
aku--
akur--
akuy--
al--
ala--
albi--
ale--
aleks--
alergi--
alfa--
ali--
all--
alla--
alli--
allin--
allma--
allqu--
alo--
als--
alt--
alta--
alum--
alw--
am--
ama--
amar--
amay--
amb--
ambas--
ame--
ami--
amist--
ampa--
amphi--
amu--
an--
ana--
anank--
anar--
anco--
and--
anda--
ang--
angu--
ani--
anis--
anka--
anki--
anku--
anna--
ano--
anqa--
ans--
ant--
anta--
ante--
anti--
anu--
any--
ao--
ap--
apa--
apan--
apasion--
apay--
ape--
api--
apo--
app--
appe--
appro--
apra--
apro--
apu--
apun--
aq--
aqa--
aqu--
aqui--
aqw--
aqyay--
ar--
ara--
arc--
ardi--
are--
area--
arg--
argen--
args--
ari--
arin--
arkh--
arma--
ars--
art--
arti--
aru--
as--
asa--
ash--
asi--
asia--
asind--
asindad--
aska--
asp--
aspi--
associa--
astro--
astu--
asu--
at--
ata--
atam--
ate--
ath--
ati--
atin--
atiy--
atma--
ato--
atu--
atun--
atuq--
au--
audio--
auf--
aug--
auric--
auro--
aus--
auto--
aux--
av--
ave--
aventu--
avia--
aw--
awa--
awi--
awin--
awpa--
awqa--
awqaq--
awstr--
ax--
ay--
aya--
ayacu--
ayak--
aycha--
ayllu--
aym--
aynin--
ayqi--
ayqichir--
aytu--
aytucha--
az--
aza--
azer--
azo--
azu--
b--
ba--
bab--
bac--
back--
bad--
bag--
bagh--
bahr--
bai--
bal--
ball--
bamb--
ban--
bar--
bartho--
bas--
bau--
baw--
bawtis--
bay--
be--
bec--
bed--
behr--
bei--
bel--
ben--
bene--
ber--
bert--
bes--
best--
bett--
bg--
bi--
bib--
bici--
bie--
big--
bin--
bio--
bir--
bis--
bisik--
biz--
bla--
black--
blech--
bli--
blo--
blu--
blue--
bo--
boca--
bogot--
bol--
bom--
bon--
boo--
book--
bor--
borg--
borra--
bos--
bot--
bou--
bour--
bow--
box--
br--
bra--
brac--
brach--
brachy--
bre--
bri--
bro--
brom--
bron--
bru--
bry--
bryo--
bs--
bu--
bud--
buil--
bul--
bulga--
bulib--
bun--
buona--
bur--
bus--
but--
by--
c--
ca--
cabr--
cadi--
cahua--
cai--
caja--
cal--
cala--
cali--
calum--
caly--
cam--
cambi--
campy--
can--
cana--
cap--
cape--
capi--
car--
cara--
cari--
caro--
cas--
casa--
casca--
casti--
castro--
cat--
cata--
caud--
cava--
cay--
cc--
ccar--
cd--
ce--
cebad--
cel--
cele--
celebra--
cen--
centra--
ceph--
cer--
cerv--
ces--
cf--
ch--
cha--
chaka--
chaki--
chal--
chamae--
chan--
chaq--
char--
chaw--
chay--
chayamusq--
che--
chh--
chi--
chimpa--
chin--
china--
chiq--
chiqa--
chiqi--
chiri--
cho--
chu--
chul--
chun--
chuqi--
chura--
chuy--
chy--
ci--
cia--
cil--
cin--
cinn--
cir--
circun--
cityof--
ck--
cl--
cla--
clasi--
clay--
cle--
cli--
clo--
co--
coca--
cocc--
code--
coe--
col--
coll--
colo--
colubr--
com--
comad--
comi--
comp--
compil--
con--
conce--
confide--
cong--
conspi--
consti--
cont--
contra--
conyu--
coord--
cop--
cor--
cord--
cori--
cos--
cosmo--
coti--
cott--
cou--
cour--
cov--
cow--
coyo--
cr--
cre--
cri--
cro--
croni--
cruc--
cruz--
cs--
cu--
cua--
cue--
cul--
cumb--
cump--
cun--
cup--
cur--
curt--
cv--
cy--
cyan--
cylindr--
cyph--
cyr--
d--
da--
dacty--
dag--
dai--
dal--
dam--
dan--
dar--
data--
date--
daw--
day--
db--
de--
dea--
dec--
deep--
defe--
defi--
del--
dem--
den--
dendrob--
der--
des--
desa--
desc--
dese--
desensibi--
det--
deter--
determination--
devo--
di--
dia--
dic--
dig--
dimit--
dimu--
din--
dina--
dio--
dios--
dipl--
dir--
dis--
disc--
discip--
disipul--
disp--
dispa--
display--
dissol--
disti--
distribu--
div--
diver--
divor--
dix--
do--
doc--
doi--
dol--
dom--
domi--
don--
dor--
dord--
dorm--
doro--
dos--
dou--
down--
dr--
dra--
ds--
du--
dub--
duc--
dul--
dun--
dupl--
dur--
dy--
dyus--
dz--
e--
ec--
eche--
echi--
eco--
ed--
edel--
edu--
ee--
efe--
eff--
egi--
egy--
ehr--
ein--
eis--
eje--
ejerci--
ek--
el--
ele--
eleph--
eli--
ely--
em--
emer--
emi--
emoti--
emple--
en--
end--
enfer--
ens--
enter--
envi--
environ--
ep--
epi--
eq--
equ--
equi--
er--
erio--
err--
error--
erup--
es--
escon--
escri--
escu--
esp--
espi--
est--
esto--
et--
etche--
ethanul--
ethi--
etno--
eu--
eur--
euro--
eva--
eve--
ew--
ex--
exce--
exe--
exp--
expand--
explo--
ext--
exter--
extra--
ey--
ez--
f--
fa--
fabr--
fair--
fal--
fan--
far--
fasci--
fat--
fe--
feder--
feld--
femm--
feno--
fer--
fetch--
feuil--
fey--
ff--
ffentl--
fi--
fid--
figue--
file--
fili--
filo--
fin--
finan--
find--
fire--
fitz--
fix--
fl--
flag--
flav--
flex--
flo--
flu--
fo--
fol--
foot--
for--
format--
foto--
fou--
fra--
frame--
fre--
free--
fri--
fried--
from--
fru--
fu--
ful--
fulv--
fund--
fur--
fusc--
g--
ga--
gal--
gale--
galle--
gamb--
gan--
gar--
garn--
gas--
gatt--
gavi--
gay--
gaz--
ge--
gen--
geo--
geoff--
ger--
gesc--
get--
ghi--
gho--
gi--
gian--
giga--
gil--
gira--
gla--
glau--
glen--
gli--
glo--
glu--
go--
god--
gol--
gold--
golondr--
gor--
got--
gover--
goy--
gr--
gra--
gradu--
gram--
gre--
gri--
grif--
gro--
groen--
gross--
gru--
gs--
gu--
gua--
guan--
guara--
guay--
gue--
guer--
guerri--
gui--
gul--
gun--
guo--
gur--
gy--
gypti--
h--
ha--
hab--
haban--
habi--
had--
hag--
hak--
hal--
hall--
ham--
hampi--
hamup--
han--
hand--
hap--
haq--
har--
hard--
hark--
has--
hat--
hatari--
hatun--
haw--
hawa--
hawk--
hay--
hayk--
haz--
he--
heart--
hec--
hel--
hemis--
hen--
hend--
hens--
her--
here--
hert--
heter--
hex--
hey--
hi--
high--
higi--
hin--
hina--
hinapt--
hip--
hipo--
hiq--
hir--
hira--
his--
hispano--
hit--
hlu--
ho--
hob--
hoch--
hol--
holl--
home--
homo--
hong--
honr--
hor--
horm--
how--
hr--
hu--
hua--
huac--
hual--
huan--
huay--
huch--
hue--
hui--
huk--
hun--
hunt--
hupay--
huq--
hur--
hy--
hybr--
hydr--
hyper--
i--
ia--
iba--
ibe--
iberoa--
ice--
ich--
icha--
ichhu--
ichi--
ichu--
id--
idel--
iden--
ido--
idy--
if--
ign--
ii--
ik--
ika--
ikra--
ikup--
il--
ili--
ill--
illa--
illi--
illu--
ilu--
im--
ima--
imam--
iman--
imay--
imi--
imp--
impa--
in--
ina--
inaugu--
inc--
inca--
inch--
incom--
incon--
inconqui--
incor--
inde--
indi--
infa--
infl--
info--
infra--
ing--
ini--
initi--
inka--
inki--
inkinak--
inn--
ino--
inoce--
inspi--
instruc--
insur--
inte--
inter--
inti--
intro--
inu--
io--
ip--
ipa--
ipi--
iq--
iqi--
iqiq--
iqu--
ir--
ira--
iri--
iro--
irqi--
iru--
is--
isbn--
ish--
isi--
isinl--
iskay--
iso--
isqa--
ist--
it--
ita--
iti--
itu--
itur--
iu--
iv--
iw--
iwra--
ix--
iy--
iyar--
iz--
j--
ja--
jab--
jalla--
jam--
jampiy--
jan--
jar--
je--
jer--
jere--
jho--
ji--
jim--
jin--
jo--
jon--
jose--
jou--
joy--
ju--
jubi--
jue--
jug--
juk--
jul--
jun--
jur--
juz--
k--
ka--
kach--
kacha--
kai--
kal--
kala--
kali--
kall--
kam--
kama--
kan--
kang--
kanji--
kapu--
kapuq--
kaq--
kar--
kara--
karu--
karun--
kash--
kati--
katis--
kaw--
kawa--
kawsa--
kay--
kazi--
ke--
ken--
ker--
key--
kh--
kharkatiy--
khuru--
ki--
kicha--
kichar--
kikin--
kil--
kilin--
kill--
kilo--
kilog--
kim--
kimsa--
kin--
kinder--
kio--
kir--
kiru--
kisillu--
kiw--
kk--
klas--
kli--
kn--
knoc--
ko--
komm--
kon--
kor--
kos--
kre--
kri--
krist--
krus--
kry--
ks--
ku--
kuka--
kuku--
kul--
kull--
kulu--
kun--
kuna--
kunfidir--
kunka--
kur--
kuri--
kurku--
kuru--
kusa--
kushi--
kusi--
kuti--
kutim--
kutu--
kuwa--
kuy--
kuyu--
kuyuy--
kv--
kwa--
ky--
l--
la--
lac--
lak--
lam--
lamb--
lan--
lance--
land--
lang--
lao--
lap--
laq--
laqu--
lar--
las--
lat--
lau--
law--
lawa--
lay--
ld--
le--
lea--
lec--
led--
leg--
lei--
len--
leo--
leoca--
leon--
les--
let--
leuc--
lev--
lex--
ley--
lez--
li--
lia--
lib--
lic--
lie--
life--
light--
limun--
lin--
link--
liq--
list--
liste--
lit--
litua--
ll--
lla--
llall--
llamk--
llan--
llank--
llaq--
llaw--
llay--
llimp--
lliw--
lluk--
lluq--
lluqsic--
lo--
loco--
lon--
long--
lor--
lou--
ls--
lt--
lu--
luc--
lud--
lug--
lumb--
lumin--
lund--
luq--
luqu--
luru--
lux--
lv--
ly--
lycian--
lyr--
m--
ma--
mac--
maca--
machu--
mad--
mae--
mag--
mage--
magi--
mah--
mai--
main--
maj--
maje--
maju--
mak--
maka--
make--
maki--
mal--
mala--
male--
mall--
mam--
mama--
man--
mana--
manda--
mani--
manu--
manza--
map--
maq--
maqanak--
maqu--
mar--
mara--
marg--
mari--
mas--
masa--
mash--
mask--
mat--
mata--
mati--
matu--
mau--
maw--
mawk--
max--
may--
maylla--
mayu--
maz--
maza--
mazand--
mb--
mc--
me--
med--
meg--
meh--
mei--
mel--
melo--
men--
mephi--
mer--
merid--
mes--
met--
meta--
mexi--
mey--
mez--
mi--
mic--
micro--
mid--
midd--
mie--
mikh--
mil--
mill--
min--
mine--
mini--
minnea--
mio--
mir--
mira--
miray--
mis--
misi--
mit--
miya--
miyu--
ml--
mm--
mn--
mo--
moc--
modi--
moh--
mol--
molda--
mon--
mono--
mont--
monte--
moon--
mor--
moro--
mosqu--
mp--
mr--
ms--
mt--
mtsk--
mu--
much--
muk--
mul--
multi--
mun--
munap--
munay--
muni--
muqu--
mur--
muru--
mus--
musph--
musquy--
mut--
muy--
muyu--
muyuq--
mw--
my--
myr--
myste--
n--
na--
nai--
nak--
nam--
nami--
nan--
nane--
nar--
nas--
nat--
nau--
nav--
navi--
naw--
nazi--
nb--
nd--
ndi--
ne--
nea--
neces--
neer--
nega--
negr--
neo--
nept--
net--
neu--
new--
ney--
ng--
nh--
ni--
nico--
nie--
nig--
niko--
nil--
nin--
nina--
nir--
niw--
niwtrunk--
niy--
nj--
nk--
nl--
nm--
nn--
no--
noc--
noche--
nom--
non--
nor--
nord--
norte--
nos--
not--
nou--
nov--
novo--
ns--
nu--
num--
nuqa--
ny--
o--
oa--
oak--
ob--
ober--
obsc--
oc--
oca--
och--
ocob--
oct--
odo--
of--
off--
og--
oh--
oi--
ojib--
ok--
ol--
ola--
old--
ole--
om--
on--
ona--
one--
op--
or--
ora--
ore--
ori--
oro--
os--
osa--
ost--
ota--
oti--
oto--
ott--
ou--
oub--
out--
ouz--
ov--
ova--
over--
ox--
oxy--
oz--
p--
pa--
pac--
pad--
pai--
pain--
paja--
pak--
paka--
pal--
pala--
palla--
palo--
pamp--
pampa--
pan--
pani--
pano--
papa--
paq--
paqari--
par--
para--
pari--
pas--
pasa--
pash--
pat--
pata--
patu--
pau--
pav--
paw--
pay--
paz--
pe--
pecc--
peder--
pedre--
pei--
pen--
penn--
per--
pere--
peri--
perse--
peru--
pesc--
pet--
ph--
phani--
phata--
phawrik--
phe--
phi--
phry--
phu--
phuk--
phuyu--
phy--
phyll--
pi--
pia--
pic--
pie--
pig--
pii--
pil--
pili--
pill--
pilp--
pimp--
pin--
pio--
piq--
pir--
pira--
pirqa--
pis--
pish--
pisi--
pisqu--
pit--
pita--
pl--
pla--
planita--
plasti--
platy--
play--
ple--
plega--
plum--
po--
pobla--
podoc--
poeppi--
pol--
poli--
poly--
poma--
pomp--
pon--
pop--
por--
pos--
post--
pou--
pra--
prac--
pre--
preli--
pri--
princi--
prisio--
pro--
probable--
proces--
prosc--
pru--
prutun--
ps--
pseudo--
psico--
psittac--
psy--
pt--
pter--
ptero--
pu--
pub--
puc--
puca--
puchuk--
puk--
puka--
puklla--
pul--
puli--
pull--
pulu--
pum--
puma--
pun--
punk--
puq--
puqu--
puquy--
pur--
puri--
purich--
purik--
puririy--
purt--
puru--
pusaq--
push--
pusha--
put--
putu--
puwaq--
puy--
puyst--
px--
py--
pyg--
pyr--
q--
qa--
qala--
qall--
qalla--
qam--
qan--
qaq--
qaqa--
qar--
qara--
qaran--
qaray--
qari--
qata--
qati--
qaw--
qay--
qayan--
qh--
qhar--
qhas--
qhawa--
qhawar--
qhep--
qhucha--
qi--
qill--
qillqa--
qin--
qipa--
qiru--
qish--
qispi--
qol--
qu--
quad--
quadran--
quchun--
que--
qui--
quil--
quill--
quilla--
quin--
quispi--
qullqa--
qullqi--
qun--
quq--
qur--
qura--
quri--
qurpa--
quta--
qutu--
quy--
quya--
r--
ra--
racc--
rad--
radio--
raff--
rag--
rai--
rain--
raj--
rak--
raki--
ram--
rama--
ran--
ranqh--
rap--
raphi--
raq--
ras--
rasu--
rat--
rau--
raw--
ray--
raymi--
rd--
re--
rea--
real--
rec--
reci--
recip--
recom--
recopil--
recup--
red--
ref--
refer--
reg--
regi--
region--
rei--
relev--
remo--
ren--
rende--
renun--
rep--
repro--
req--
reqsic--
res--
resid--
responsab--
resta--
resur--
ret--
reu--
rev--
reve--
revis--
rey--
rez--
rho--
ri--
ric--
ridu--
rie--
rig--
right--
rik--
rikaa--
rikapa--
rikat--
rikhur--
rikuchi--
rikuri--
rima--
rimach--
rimay--
rin--
rio--
riq--
riqsic--
riqsir--
rir--
ris--
rit--
rivu--
riwi--
riy--
rm--
rn--
ro--
rob--
roc--
rock--
roga--
ron--
roo--
ros--
rosa--
rose--
ross--
rot--
rou--
row--
rox--
rt--
ru--
rug--
ruk--
rumi--
run--
runa--
rup--
rupha--
ruq--
rura--
rurach--
rurap--
ruraq--
ruray--
ruru--
rurun--
ruwach--
ruwak--
ruwar--
ruway--
rv--
ry--
s--
sa--
saca--
sacha--
sacri--
sad--
sai--
saks--
sal--
salit--
sam--
sama--
samay--
samin--
san--
sana--
sanc--
sand--
sang--
santa--
sapa--
sapan--
sapp--
saq--
saqi--
saqir--
sar--
sara--
sas--
sat--
sate--
sau--
saw--
sax--
say--
saya--
sayarisqan--
sc--
scale--
scar--
sch--
scha--
sche--
schi--
sci--
sco--
scor--
se--
sea--
sec--
secu--
see--
seg--
sel--
sela--
sem--
semi--
sen--
sensua--
sequ--
ser--
series--
ses--
set--
sever--
sex--
sh--
sha--
shaq--
she--
shi--
shimi--
shin--
sho--
show--
shu--
shun--
shuti--
si--
sic--
sid--
sie--
sig--
sigism--
sik--
siku--
sikund--
sil--
silul--
silve--
simi--
simp--
simpli--
sin--
sintom--
sip--
sipas--
siq--
sir--
sisa--
sisi--
sit--
situ--
siw--
sk--
sky--
sl--
slova--
sm--
smith--
sn--
so--
sobr--
sobra--
sobre--
socio--
socr--
sog--
sokra--
sol--
sole--
soli--
som--
some--
son--
song--
sor--
sos--
sou--
sp--
spa--
spart--
spe--
spec--
speci--
spi--
spo--
sq--
squ--
squa--
sr--
ss--
st--
sta--
stan--
ste--
ster--
sti--
sto--
str--
strat--
straw--
strep--
strom--
stu--
su--
sua--
sub--
suces--
sud--
sue--
sug--
sui--
suk--
sul--
sumaq--
sun--
suni--
sup--
super--
suq--
sur--
sura--
suri--
sus--
sut--
suti--
suw--
suy--
suyt--
suyu--
sv--
svan--
sw--
switch--
sy--
sylv--
symp--
syn--
syr--
sz--
sze--
t--
ta--
tab--
tac--
tad--
tag--
tai--
taj--
tak--
taki--
takiy--
taky--
tal--
tam--
tan--
tanza--
tapuy--
taq--
taqu--
tar--
tara--
tari--
tarik--
tariq--
tarpu--
tart--
taru--
tat--
taw--
tawa--
tawqa--
tay--
taya--
tc--
te--
tea--
tec--
tehuel--
teje--
tel--
tele--
tem--
temp--
ten--
teo--
teoti--
tepe--
teq--
ter--
tetra--
tex--
text--
texto--
th--
tha--
thasn--
the--
thi--
thio--
thir--
tho--
thu--
ti--
tibu--
tic--
tie--
tik--
tika--
tikra--
tikraq--
til--
tim--
tin--
ting--
tinto--
tiq--
tiqsi--
tiqui--
tis--
titi--
title--
tiw--
tiy--
tl--
tn--
to--
toke--
tol--
tom--
ton--
top--
tor--
torn--
toro--
torqu--
tra--
tramp--
tran--
trans--
tras--
tre--
tri--
trim--
trin--
triun--
tro--
trou--
tru--
ts--
tsa--
tsay--
tsu--
tt--
tu--
tuktu--
tuku--
tum--
[...]
