!
"
#
##0
##1
##10
##11
##12
##13
##14
##15
##16
##17
##18
##19
##2
##20
##21
##22
##23
##24
##25
##26
##27
##28
##29
##3
##30
##31
##32
##33
##34
##35
##36
##37
##38
##39
##4
##40
##41
##42
##43
##44
##45
##46
##47
##48
##49
##5
##50
##51
##52
##53
##54
##55
##56
##57
##58
##59
##6
##60
##61
##62
##63
##64
##65
##66
##67
##68
##69
##7
##70
##71
##72
##73
##74
##75
##76
##77
##78
##79
##8
##80
##81
##82
##83
##84
##85
##86
##87
##88
##89
##9
##90
##91
##92
##93
##94
##95
##96
##97
##98
##99
$
%
&
'
(
)
*
+
,
-
.
/
0
00
000
001
002
003
01
02
03
04
05
06
07
08
09
1
10
100
101
102
1021
103
104
1040
1043
105
1052
106
107
108
109
1092
1097
11
110
1101
1103
111
112
113
114
1141
115
116
117
118
119
12
120
121
122
123
124
125
1259
126
127
1270
128
129
13
130
131
132
1327
133
134
135
136
137
138
139
14
140
141
1418
142
143
144
145
146
147
148
149
15
150
151
1517
152
153
154
155
156
157
158
159
1594
16
160
161
162
163
164
165
166
167
168
169
17
170
1706
171
172
173
1735
174
175
1753
1758
1759
176
1761
1763
1764
1766
1767
1768
177
1771
1772
1773
1774
1775
1776
1777
1778
178
1780
1781
1782
1783
1784
1785
1786
1787
1788
1789
179
1790
1791
1792
1793
1794
1795
1796
1797
1798
1799
18
180
1800
1801
1802
1803
1804
1805
1806
1807
1808
1809
181
1810
1811
1812
1813
1814
1815
1816
1817
1818
1819
182
1820
1821
1822
1823
1824
1825
1826
1827
1828
1829
183
1830
1831
1832
1833
1834
1835
1836
1837
1838
18381839
1839
184
1840
1841
1842
1843
1844
1845
1846
1847
1848
1849
185
1850
1851
1852
1853
1854
1855
1856
1857
1858
1859
186
1860
1861
1862
1863
1864
1865
1866
1867
1868
1869
187
1870
1871
1872
1873
1874
1875
1876
1877
1878
1879
188
1880
1881
1882
1883
1884
1885
1886
1887
1888
1889
189
1890
1891
1892
1893
1894
1895
1896
1897
1898
1899
19
190
1900
1901
1902
1903
1904
1905
19051902
1906
1907
1908
1909
191
1910
1911
1912
1913
1914
1915
1916
1917
1918
1919
192
1920
19201919
1921
1922
1923
1924
1925
1926
1927
1928
1929
193
1930
1931
1932
1933
1934
1935
1936
1937
1938
1939
194
1940
1941
19411940
1942
1943
1944
1945
1946
1947
1948
1949
195
1950
1951
1952
1953
1954
1955
1956
1957
1958
1959
196
1960
1961
1962
1963
1964
1965
1966
1967
1968
1969
197
1970
1971
1972
1973
1974
1975
1976
1977
1978
1979
19791978
198
1980
1981
1982
1983
1984
1985
1986
1987
1988
1989
199
1990
1991
1992
1993
1994
19941993
1995
1996
1997
1998
1999
2
20
200
2000
2001
2002
2003
2004
2005
2006
2007
2008
2009
201
2010
2011
2012
2013
2014
2015
2016
2017
2018
2019
202
203
204
205
206
207
208
209
21
210
211
212
213
214
215
216
217
218
219
22
220
221
222
2225
223
224
225
226
227
228
229
23
230
231
232
233
234
235
236
237
238
239
24
240
241
242
243
244
245
246
247
248
249
25
250
251
252
253
254
255
256
257
258
259
26
260
261
262
263
264
265
266
2661
2669
267
268
269
27
270
271
272
273
274
275
276
277
278
279
28
280
281
282
283
284
285
286
287
288
289
29
290
2905
291
292
293
294
295
296
297
298
2988
2989
299
3
30
300
301
302
303
304
305
306
307
308
309
31
310
311
312
313
314
315
316
317
318
319
32
320
321
322
323
3232
324
325
326
327
328
329
33
330
331
332
333
334
335
336
337
338
339
34
340
341
342
343
344
3443
345
346
347
348
349
35
350
35038
351
3519
352
353
354
355
356
357
358
359
36
360
361
362
363
364
365
366
367
368
369
37
370
371
372
373
374
375
376
377
378
379
38
380
381
382
383
384
385
386
387
388
389
39
390
391
392
393
394
395
396
397
398
399
4
40
400
401
402
403
404
405
406
407
408
409
41
410
411
412
413
414
415
416
417
418
419
42
420
421
422
423
424
425
426
427
428
429
43
430
431
432
43280
433
434
435
436
437
438
439
44
440
441
442
443
444
445
446
447
448
449
45
450
451
452
453
454
455
456
457
458
459
46
460
461
462
463
464
465
466
467
468
469
47
470
471
472
47260
473
474
475
476
477
478
479
48
480
481
482
483
484
485
4857
486
487
488
489
49
490
491
492
493
494
495
496
497
498
499
5
50
500
501
502
503
504
505
506
507
508
509
51
510
511
512
513
514
515
516
517
518
519
52
520
521
522
523
524
525
526
527
528
529
53
530
531
532
533
534
535
536
537
538
539
54
540
541
542
543
544
545
546
547
548
549
55
550
551
552
553
554
555
556
557
558
559
56
560
561
562
563
564
565
566
567
568
569
57
570
571
572
573
574
575
576
577
578
579
58
580
581
582
583
584
585
586
587
588
589
59
590
591
592
593
594
595
596
597
598
599
6
60
600
601
602
603
604
605
6050
606
607
608
609
61
610
611
612
613
614
615
616
617
618
619
62
620
621
622
623
624
625
626
627
628
629
63
630
631
632
633
635
636
637
638
639
64
640
641
642
643
644
645
646
647
648
649
65
650
651
653
654
655
656
657
658
659
66
660
661
662
663
664
665
666
667
669
67
670
671
672
673
674
675
676
679
68
680
681
682
683
684
685
686
687
688
689
69
690
691
692
693
694
695
696
697
698
7
70
700
701
702
703
704
705
706
707
708
709
71
712
714
715
716
718
719
72
720
721
723
725
727
729
73
732
734
735
736
739
74
740
741
742
744
747
748
749
75
752
753
755
756
757
758
759
76
760
761
763
765
766
768
769
77
771
773
774
775
776
778
78
780
781
784
786
79
790
792
793
794
799
8
80
807
809
81
812
814
818
82
824
827
828
83
832
833
835
84
842
845
849
85
850
857
857356
86
860
865
87
873
877354
88
880
885
885850
89
893
897
9
90
90220
907
908
91
92
920
922
924
93
930
936
939
94
943
946
949
95
96
962
968
97
971
978
98
989
99
:
;
<
=
>
?
\
_
`
a
aa
aacute
aada
aargau
aaron
ab
abarema
abax
abbildungen
abbott
abbreviata
abbreviatus
abdita
abdominalis
abel
abele
abellini
aberrans
abgebildet
abh
abhandlungen
abies
abietinaria
ablabera
ablaberoides
ablabesmyia
ablerus
abnormis
about
abraham
abraxas
abril
abronia
abrs
abrupta
abruzzo
abt
abteilung
abtheilung
abundant
abutilon
abyssal
abyssinica
abyssinicus
ac
acabaria
acacia
acaciae
acad
acade
academia
academiae
academic
academici
academie
academy
acaena
acaenitinae
acalles
acalolepta
acalypha
acanalonia
acanaloniidae
acanaloniiden
acanthaceae
acanthagrion
acanthocephala
acanthocephalus
acanthochitona
acanthocinini
acanthocreagris
acanthodactylus
acanthoderes
acanthoderini
acanthogorgia
acantholimon
acanthomysis
acanthonevra
acanthophyllum
acanthormius
acanthoscelides
acanthoscurria
acanthurus
acari
acarida
acarina
acarologia
acarology
acarospora
acaulis
accad
accademia
accipiter
accipitridae
accomplies
account
acer
acerentomidae
acerentomon
acerentulus
achaearanea
achaemenes
achalcus
achariaceae
acharius
acheilognathus
achelia
achetidae
achias
achilidae
achille
achrysocharoides
achterberg
achyranthes
acianthera
acicnemis
acicularis
acidiella
acinipe
aciphylla
acizzia
aclerda
aclerdidae
acleris
acmaeodera
acmopolynema
acoma
aconogonon
acontia
acorypha
acraea
acragas
acranthera
acremonium
acrid
acrida
acrididae
acrididen
acridiens
acridiidae
acridinae
acridiodea
acridoidea
acridoideos
acridomorfos
acridomorph
acridomorpha
acritus
acrocera
acrocercops
acroceridae
acrolophus
acroneuria
acronicta
acronychia
acrophyllini
acropora
acroporidae
acropyga
acrossus
acrotritia
acrotylus
acrydiinae
act
acta
actia
actiniaria
actinidia
actinidiaceae
actiniidae
actinodaphne
actinopterygii
actinote
actium
actualise
actualite
aculeata
aculeatus
acuminata
acuminatum
acuminatus
acuta
acutifolia
acutipennis
acutus
acyrthosiphon
ad
ada
adalbert
adam
adama
adams
adansonia
adapsilia
addenda
addison
addit
additamenta
addition
additional
additions
addnl
adelaide
adelbert
adelelmo
adelges
adelgidae
adelognathus
adenia
adenophora
adeonella
adesmia
adesmus
adetus
adiantum
adicella
adiciones
adiectis
adige
adinandra
adjacent
adjectis
adlaw
adlbauer
administratibo
adolf
adolph
adolphe
adolpho
adonisea
adoretus
adoxaceae
adoxomyia
adrian
adrien
adult
adusta
advances
advena
advisory
aechmea
aedes
aega
aegialia
aegidae
aegiochus
aegyptobia
aeletes
aelurillus
aemula
aenasius
aenea
aeneus
aenictus
aeolothrips
aeonium
aequalis
aequatorialis
aerangis
aeranthes
aerenicini
aeschynanthus
aeschynomene
aeshna
aeshnidae
aethes
aethionema
aethiopica
aethiopicus
aethiops
aetideidae
af
afd
affecting
affine
affinis
affinities
affinium
afghanistan
afr
afra
aframomum
afranthidium
afric
africa
africae
africain
africaine
africaines
africains
african
africana
africanum
africanus
afrika
afrikanische
afrikanischen
afrikas
afrique
afrogamasellus
afroleptomydas
afromevesia
afrotropical
after
agabus
against
agalinis
agallia
agalliopsis
agalmyla
agama
agamidae
agaonidae
agapanthia
agapetes
agapetus
agapophytus
agapostemon
agaricaceae
agaricales
agaricomycetes
agaricus
agarwal
agassiz
agathemera
agathidinae
agathis
agathomyia
agathosma
agave
agelanthus
agelasta
agelena
agelenidae
ageratina
agi
agiati
agilis
aglaia
aglaophamus
aglaophenia
aglaopheniidae
agnes
agoliinus
agonopterix
agonum
agosto
agr
agra
agraeciinae
agraeciini
agraria
agrestis
agri
agrias
agric
agricola
agricole
agricoltura
agricultura
agricultural
agriculture
agrilus
agriocnemis
agrionines
agriotypidae
agro
agrochola
agromyza
agromyzidae
agron
agrono
agronomia
agrostis
agrostophyllum
agrothereutes
agrotis
agrypon
agsob
aguriahana
aherrera
ahl
ahmad
ahmed
ahrens
ai
aided
aidia
aiello
aime
ain
air
aires
airy
ais
aise
aises
aisne
aiton
aizoaceae
aka
akad
akademia
akademie
akademien
akademiens
akademii
akademiia
akademiya
akbar
akira
akodon
aktor
al
alabagrus
alabama
alagoas
alain
alam
alan
alaptus
alarie
alaska
alaskensis
alastor
alata
alatus
alba
albacete
albany
albanya
albatross
albert
alberta
albertino
alberto
albescens
albicans
albiceps
albida
albidus
albiflora
albifrons
albin
albipennis
albipes
albitarsis
albizia
albofasciata
albolineata
albomaculata
albomaculatus
albomarginata
alboran
albrecht
albuca
album
albums
albuquerque
alburnus
albus
alcea
alchemilla
alchisme
alchornea
alcis
alcock
alconeura
alcune
alcuni
alcyonidium
alcyoniidae
alcyonium
alderw
alderwerelt
aldrich
aldrichi
ale
alebroides
alec
alectra
alegre
aleiodes
alejandro
aleksandr
aleksei
aleman
alemanya
alenc
aleochara
aleocharinae
alepia
alepocephalidae
alessandria
alessandro
aleucosia
aleuritopteris
aleurodidae
aleurodiscus
aleuropteryx
alex
alexander
alexandre
alexeev
alexeevich
alexis
alexjewitsch
aleyrodidae
aleyrodoidea
alfred
alge
algeria
algerie
algernon
algunas
algunos
alguns
alherya
ali
alicante
alice
aliena
alienus
aligarh
aliso
alkanna
all
alla
allacta
allan
allard
allen
alleni
aller
allertonia
allg
allgemeine
allgen
allied
allier
allies
alliopsis
allison
allium
allman
allo
allobaccha
allobates
allocapnia
allocasuarina
allocosa
allodia
allognosta
allograpta
allopauropus
alloperla
allophylus
alloscirtetica
alloteratura
allotrichoma
alluaud
alluaudi
alluaudomyia
alma
almeda
almeida
alnus
alo
alocasia
aloe
alonso
alopecosa
alopecurus
aloysius
alpaida
alpes
alpestris
alpheus
alphonso
alpicola
alpina
alpine
alpinia
alpinum
alpinus
already
als
alsace
alseodaphne
also
alston
alstonia
alstroemeria
alstroemeriaceae
alta
altaica
altenkirchen
alternans
alternanthera
alternaria
alternata
altica
alticola
altissima
alto
alucita
alvania
alvarez
alves
alvin
alwin
alysia
alysiinae
alysiini
alyssum
alyxia
am
amabilis
amakusanthura
amando
amanita
amaoka
amara
amaral
amaranthaceae
amaranthus
amaryllidaceae
amastris
amata
amateur
amaurobiidae
amaurobius
amauroderma
amauromyza
amay
amazon
amazona
amazonas
amazonia
amazoniana
amazonica
amazonicus
amazons
amber
ambigua
ambiguus
amblyaspis
amblyeleotris
amblyomma
amblyommidae
amblyopone
amblypsilopus
amblyseius
amboinensis
ame
amegilla
ameiridae
ameiva
amelia
amer
america
american
americana
americanas
americanos
americans
americanus
americas
amerika
amerikana
amerikanische
amerikanischen
amerikano
amerikas
amerique
ames
amici
amietophrynus
amihanan
amiota
amiserica
ammannia
ammobates
ammophila
ammotheidae
ammothella
amo
amoena
amoenus
amolops
amomum
among
amorphochelus
amorphophallus
amorphopi
amorphoscelis
amp
ampelisca
ampeliscidae
ampelocissus
ampharetidae
amphiacusta
amphibia
amphibian
amphibians
amphibien
amphicoma
amphiesma
amphiglossus
amphimallon
amphimedon
amphinectidae
amphinemura
amphineurus
amphinomidae
amphiodia
amphiophiura
amphioplus
amphipod
amphipoda
amphiporidae
amphiporus
amphipsylla
amphisbaena
amphisbaenidae
amphisphaeriaceae
amphitrite
amphiura
amphiuridae
amphixystis
amphorophora
ampithoe
ampla
amplexicaulis
amplicephalus
ampulex
ampulicidae
amsel
amsterdam
amur
amurensis
amy
amyema
amyris
an
ana
anabarhynchus
anacamptis
anacardiaceae
anacompsidae
anacroneuria
anadenobolus
anaea
anaglyptus
anagrus
anagyrus
anais
anak
anal
anales
analis
analyses
analysis
aname
anapausis
anaphes
anapidae
anaplecta
anaplectidae
anareolatae
anas
anastatus
anastoechus
anastrepha
anat
anatella
anathallis
anatolica
anatomia
anatomie
anatomy
anaulacomera
anaxipha
anay
ance
anceps
ances
anchietano
anchon
anchovies
anchusa
ancistrinae
ancistrocerus
ancistrus
ancorinidae
ancylis
ancylorhynchus
ancylosis
ancylotrypa
and
andaluci
andaman
andamanensis
andamanica
andaspis
andean
anderen
anders
andersen
anderson
andersoni
andersonii
andersson
andes
andicola
andina
andinus
andira
andra
andre
andrea
andreas
andrei
andrejevitj
andrena
andrenidae
andrenosoma
andres
andrew
andrews
andrey
andriashev
androcymbium
andropogon
androsace
andrzej
andy
aneflomorpha
aneilema
anelaphus
anelosimus
anemia
anemones
anfibios
ang
angel
angela
angeles
angelica
angelo
angewandte
angiopteris
angola
angolensis
angraecum
angrenzenden
anguilliformes
angularis
angulata
angulatus
angusta
angustata
angustatus
angustifolia
angustifolium
angustifrons
angustipennis
angustus
anhalt
aniba
anicetus
anilocra
anim
animal
animalia
animalium
animals
animaux
anisembiidae
anisia
anisocentropus
anisocerini
anisodes
anisomysis
anisoplia
anisopodidae
anisopodus
anisoptera
anisostachya
ankylopteryx
ann
anna
annae
annalen
annales
annali
annals
annamensis
annandale
annandalei
anne
annecke
annectens
annele
annelida
anneliden
annelides
annelids
anni
annis
annls
annona
annonaceae
annonaceen
annonbase
annotated
annotationes
annuaire
annual
annulata
annulatus
annulicornis
annulipes
ano
anobiidae
anochetus
anoectochilus
anographique
anolis
anomala
anomalon
anomaloninae
anomalus
anomiopus
anomis
anomoia
anonyx
anopheles
anoplodactylus
anoplognathus
anoplophora
anoplura
anopsicus
anosia
anostomidae
anostostomatidae
anostraca
anotada
anoxia
anstalten
ant
antaeotricha
antalis
antarctic
antarctica
antarcticus
antennalis
antennata
antennatus
antepipona
anterhynchium
anthaxia
anthene
anthicidae
anthicus
anthidiellum
anthidium
antho
anthob
anthodioctes
anthomyia
anthomyiidae
anthonomus
anthony
anthophila
anthophora
anthophorula
anthospermum
anthostomella
anthozoa
anthracina
anthrax
anthrenoides
anthribidae
anthribus
anthriscus
anthropologische
anthuridae
anthurium
anthus
antidesma
antill
antilles
antillicharis
antilocust
antimima
antioquia
antipathes
antirhea
anto
antocha
antodynerus
antoine
antoinette
anton
antonie
antonina
antonio
antrocephalus
antrodia
ants
anura
anurophorus
anwend
anwendung
any
anyphaena
anyphaenidae
anyphops
anz
anzeiger
ao
aoki
aonidia
aonidiella
aoplus
aou
apamea
apanteles
apanthura
apatania
apataniidae
apatura
aperta
aphaenogaster
aphaereta
aphalara
aphaniosoma
aphanistes
aphanogmus
aphelandra
aphelidesmidae
aphelinidae
aphelinus
aphia
aphid
aphidae
aphides
aphididae
aphidiidae
aphidius
aphidoidea
aphids
aphidsf
aphiidae
aphis
aphodiidae
aphodiinae
aphodius
aphoebantus
aphonoides
aphonomorphus
aphonopelma
aphrodisium
aphrodita
aphroditidae
aphrophora
aphrophoridae
aphylla
aphyllophorales
aphyosemion
aphytis
api
apiaceae
apicalis
apicata
apiculata
apidae
apinagia
apiocera
apiomorpha
apion
apistogramma
apium
aplidium
aplysina
apocephalus
apocrita
apocynaceae
apodacra
apoderus
apogon
apogonia
apogonidae
apoidea
apolysis
apomecyna
apomecynini
aponogeton
aporosa
apotropina
app
apparently
appartenant
appendices
appendicula
appendiculata
appendiculatus
appendix
appias
appl
applied
applique
approach
approximata
apre
aprika
april
apriona
aprionus
apristurus
aprostocetus
apseudes
apsilochorema
apte
aptesis
aptroot
apud
apulia
aqua
aquatic
aquatica
aquifoliaceae
aquila
aquitaine
ar
ara
arab
arabia
arabian
arabica
arabicus
arabis
araceae
arachis
arachn
arachnid
arachnida
arachniden
arachnides
arachnids
arachniodes
arachnodes
arachnoidea
arachnol
arachnological
arachnologiques
arachnology
arachnothryx
aracnidi
aracnidos
aradidae
aradus
araga
arago
aragonesa
araigne
araignees
aralia
araliaceae
aram
aran
aranae
aranas
arane
araneae
aranearum
araneen
aranei
araneida
araneidae
araneides
araneol
araneus
aranhas
arb
arbeiten
arbeitsgemeinschaft
arbor
arborea
arborescens
arboridia
arbuscula
arcana
arcangeli
arch
archer
archibald
archiblattidae
archidendron
archipel
archipelago
archipels
archips
archiv
archive
archives
archytas
arcoppia
arctia
arctic
arctica
arcticus
arctiidae
arctosa
arctostaphylos
arcturidae
arcuata
arcuatus
arcuphantes
arcy
arde
ardenne
ardennes
ardisia
are
area
areas
areca
arecaceae
arenaria
arenarius
arenes
arenicola
arenosa
areolata
areolatae
arg
argas
argasidae
argent
argentata
argentea
argenteus
argentina
argentine
argentinensis
argentino
argentinos
argia
argiolestes
argiope
argostemma
argoviensis
argus
arguta
argyra
argyreia
argyresthia
argyrodes
argyrolobium
argyroploce
arhopala
ariadna
aricidea
arida
aridelus
arie
ariidae
arisaema
aristata
aristea
aristida
aristolochia
aristolochiaceae
arizona
arizonensis
arizonica
ark
arkansas
arkiv
arktischen
armadillidae
armadillidiidae
armadillidium
armadillo
armand
armata
armatus
armenia
armeniaca
armenian
armeria
armigeres
armor
armored
armoured
arn
arnaud
arnaudi
arnebia
arnett
arnold
arnoldi
arnott
aroideana
around
arq
arquivos
arr
arranged
arrangement
arrenurus
arrow
art
artabotrys
arte
artemisia
artemisiae
arten
arter
artes
arthonia
arthrocnodax
arthropod
arthropoda
arthropods
arthrosphaera
arthur
article
articulata
articule
artigas
artist
artista
artists
artium
artocarpus
artois
artro
arts
arturo
arturs
arundinella
arx
as
asa
asahina
asarkina
asarum
asawa
ascalaphidae
asceles
ascher
ascidia
ascidiacea
asclepias
ascochyta
ascogaster
ascomycetes
ascomycota
ascorhynchus
asellidae
asellota
aseminae
aseraggodes
aserbaiyan
ashley
ashmead
ashmeadiella
ashmunella
ashton
asia
asiae
asian
asiat
asiatic
asiatica
asiaticus
asiatiques
asie
asien
asiens
asilidae
asilus
askew
asobara
aspalathus
asparagaceae
asparagus
aspects
asper
aspera
aspergillus
asperula
asphondylia
aspidiotini
aspidiotus
aspidistra
aspidogyne
aspidosperma
aspilota
aspleniaceae
asplenium
asplundia
aspo
ass
assam
assamensis
assimilis
assoc
associated
association
astacidae
astacilla
astaena
astathes
asteia
aster
asteraceae
asteriidae
asterina
asterinaceae
asteroidea
asterolecaniidae
astiphromma
astochia
astr
astracantha
astragalus
astrantia
astroblepus
astrocaryum
astronesthes
astronia
astronidium
astropecten
astropectinidae
asturias
astyanax
asura
asya
asymmetrica
asynapta
asyndetus
asystasia
at
ata
ataenius
atan
atanus
atanycolus
atarba
atas
ataxia
atelopus
atemnidae
ater
aterrima
aterrimus
ateuchus
athamanta
athanase
atherigona
atherimorpha
atherinomorpha
atherinopsidae
atheta
athetine
athetis
atholus
athripsodes
athyreus
athyriaceae
athyrium
athysanella
atlantic
atlantica
atlanticus
atlantique
atlantiques
atlas
atomosia
atopsyche
atra
atracis
atractodes
atractotomus
atractus
atrata
atratus
atriceps
atrichopogon
atripes
atriplex
atropurpurea
attacking
attalea
attaphilidae
attelabus
attempt
attems
attenuata
attenuatus
attheyella
atti
atticolidae
attidae
attides
attila
attus
atylotus
atypophthalmus
au
aube
aubert
aublet
aubre
auchenipteridae
auchenorrhyncha
auckland
auct
aucta
auctorum
aude
audenaerde
audinet
audouin
auf
aufidus
aufsatz
aug
augener
augochlora
augochloropsis
august
augusta
auguste
augustine
augusto
augustus
aulacaspis
aulacidae
aulacorthum
aulacoserica
aulacus
aulagromyza
auletobius
aulonemia
aulonocnemis
aurantiaca
aurantiacus
aurantii
aurata
auratus
aurea
aureum
aureus
auriculata
aurita
aurivillius
aurora
aus
ausbeute
aussereuropaischer
aust
austen
austin
austr
austral
australas
australasian
australe
australia
australian
australica
australien
australiens
australiensis
australis
australischen
australobius
australobolbus
australosymmerus
austria
austriaca
austro
austrobaileya
austrocarabodes
austrodecus
austrolebias
austrolimnophila
austrophorocera
austrosaginae
austrosynapha
austrothaumalea
austrya
aut
autalia
author
authors
auto
autolytus
automeris
autonoma
autonomous
autoserica
autres
autumnalis
auvergne
aux
auxilios
available
avec
aves
aveyron
avicularia
aviculariidae
avril
avulsas
avulsos
award
awards
awtor
ax
axel
axiidae
axillaris
axinella
axinellidae
axonopus
ay
ayenia
aysha
ayyar
az
azerbaijan
azoren
azteca
azur
azurea
b
ba
babaye
babiana
bacanius
baccaurea
baccetti
baccharis
bacchisa
bacescu
bachicoltura
bacidia
back
bacopa
bacteria
bactericera
bactris
bactrocera
bacunculini
bad
badajoz
baden
badia
badius
baeckea
baehr
baeoura
baert
baetidae
baeus
bag
baga
bagian
bagous
bagridae
bagyo
bahamas
bahamensis
bahia
bahiensis
bahin
bailey
baill
baillie
baillon
baird
baja
bak
baker
bakeri
bakh
bakhuizen
bal
balachowsky
balaninus
balanococcus
balanophyllia
balansae
balaod
balay
balcanica
balclutha
balderson
baldratia
baldwin
balf
balfour
balitoridae
balke
balkema
ball
ballana
balogh
balsaminaceae
balta
baltazar
balthasar
baltic
bamboo
bambusa
ban
banchinae
banchini
banchus
band
bandera
bandidus
bang
bangkok
bangladesh
banisia
banisteriopsis
bank
banks
banksi
banksia
banska
bao
baphia
baptist
baptiste
barangay
baranggay
baranov
barasahon
barat
baraud
barb
barba
barbacenia
barbara
barbata
barbatula
barbatus
barber
barberi
barbosa
barbour
barbus
barcelona
barichneumon
baridius
baris
bark
barker
barleria
barlow
barnard
barnardi
barneby
barnes
baron
barr
barrie
barrier
barrigada
barringtonia
barrio
barrion
barron
barros
barton
bartsch
bartsia
barugo
barychelidae
baryconus
barylypa
baryo
baryscapus
bas
basadas
basalis
base
based
basel
baseodiscus
basidiomycetes
basidiomycota
basidiomycotina
basilewsky
basilewskyi
basilia
basiliensa
basiliensia
basin
basse
bassett
bassin
bassler
bassus
bat
bates
batesi
bathyal
bathyaulax
bathyphantes
bathyraja
bathythrix
bato
batocera
batrachians
batrachorhina
batracomorphus
batrisodes
bauchot
baudry
bauer
bauhinia
baumann
bavaria
bay
baybayon
bayer
bayley
bbc
bbeler
bc
bd
bdelloidea
be
beach
beagle
beal
beamer
bean
beania
bearbeitet
bearbeitung
beardsley
beatty
beaufort
beaufortia
beauvois
beaux
bec
becc
beccaloni
beccari
beccarii
beck
becker
beckeri
beddome
bee
beer
bees
beethoven
beetle
beetles
behavior
behaviour
bei
beibl
beier
beih
beiheft
beijing
beilschmiedia
being
beitr
beitra
beitraege
beitrag
beitrage
bekannte
bekannten
bekannter
belba
belfort
belg
belge
belgian
belgique
belgisch
belgium
belhika
belisana
belize
belk
bell
bella
bellamy
bellan
bellardia
belle
belles
bellevalia
bellinger
bellus
belokobylskij
belonging
belonogaster
belvosia
bembidion
bemerkungen
ben
benachbarter
benderitter
benedict
beneficial
beng
bengal
bengalensis
bengalia
benin
benine
benjamin
bennett
benoist
benoit
benoy
benth
bentham
benthic
bentos
bequaert
bequaerti
ber
berberis
berdeniella
berg
bergamo
bergen
berger
bergquist
bericht
berichte
berichten
berichtigungen
beris
berk
berkeley
berl
berland
berlese
berlin
berliner
bermuda
bern
bernard
bernardi
bernardia
bernardino
bernardo
bernhard
bernhardt
bernice
bernkastel
berothidae
berry
bersicht
berthold
berthoumieu
bertiera
bertolani
bertrand
bertus
beru
berucksichtigung
berzins
beschr
beschreibung
beschreibungen
beschrieben
beshear
beskrifning
besleria
besonderer
best
bestimmungs
bestimmungsbu
bestimmungstabelle
bethune
betta
betula
betulaceae
between
beyer
beziehung
bezittingen
bezzi
bezzia
bhat
bhowmik
bhutan
bi
bianchi
bianor
bibio
bibionidae
bibliographic
bibliography
bibliograpiya
bibliopoli
biblioth
biblthca
bibron
bicarinata
bicellaria
bickel
bickhardt
bicknell
bicolor
bicolorata
bicornis
bicornuta
bidens
bidentata
bidentatus
bidessus
bidr
bidrag
bieberstein
biemna
bienko
bifasciata
bifasciatus
bifida
bifidus
biflora
bifurcata
bigelow
bigot
bih
bihang
bij
bijdr
bijdragen
bilineata
bilineatus
bill
billaea
billardie
billbergia
biloba
bilobata
bimaculata
bimaculatus
binazzi
binda
bing
bingen
bingham
binisaya
binodoxys
binotata
bio
bioakustik
biodiversidad
biodiversitatis
biodiversity
biogeografi
biogeographical
biogeographie
biogeography
biography
biol
biolo
biologi
biologia
biologica
biological
biologicheskikh
biologico
biologie
biologiques
biologische
biologischen
biology
bionectriaceae
bionomics
biophytum
biosteres
biosystematics
biota
bipartita
bipolaris
bipunctata
bipunctatus
birds
birgham
birkenfeld
birmani
birmania
biroi
birstein
bis
bisan
biscogniauxia
biscutella
bishen
bisher
bishop
bismarck
bispinosa
bispinosus
bistorta
biswas
bitburg
biton
bittacidae
bittacus
bitter
bivalvia
bivittata
bivittatus
biyograpiya
bl
bla
blaberidae
blaberoidea
black
blackbolbus
blackburn
blackburneus
blackith
blackman
blacksburg
blackwall
blackwelder
blackwell
blacus
blaesoxipha
blake
blakea
blakely
blanchard
blanchardi
blanco
bland
blanda
blankenburg
blatchley
blattaria
blattariae
blattella
blattellidae
blattidae
blattla
blattodea
blattodeasf
blattoidea
blechnaceae
blechnum
bledius
bleeker
blenniidae
blepephaeus
blepharella
blepharicera
blephariceridae
blepharis
blepisanis
blest
bletia
blica
blister
bloch
blossia
blu
blue
blume
blumea
blyth
bner
bo
board
boarmia
bocage
bock
bockka
bockmann
boden
bodenfauna
bodenheimer
bodianus
bodilus
bodotria
bodotriidae
boechera
boeckeler
boehmeria
boerhavia
boesenbergia
boettger
bogan
bogotensis
bogutskaya
bohart
boheman
bohemoslovaca
bohol
boidae
boidin
bois
boisduval
boiss
boissier
bol
bolax
bolbitis
bolboceras
bolboceratidae
boletaceae
boleti
boletim
boletin
boletina
boletus
boli
bolitoglossa
bolitophila
bolivar
bolivari
bolivaritettix
bolivia
boliviana
bolivianus
boliviensis
boll
bollettino
bologna
bolton
bolus
bomarea
bombay
bombini
bombus
bombyliidae
bombylisoma
bombylius
bon
bonamia
bonaparte
bonariensis
bonati
bond
boninensis
bonn
bonpland
bonplandia
bony
book
books
boophis
boott
boppe
bopyridae
bor
boraginaceae
borchsenius
bordat
boreal
boreale
borealis
borelli
boreomysis
borgmeier
borhidi
boring
boris
borisovitsch
borissova
borkent
borkhausenia
borneensis
borneo
bornm
bornmu
borntraeger
boronia
borowski
borstenwu
bory
bosmans
bosq
bosse
bosser
bossiaea
boston
bostrichidae
bot
botanic
botanical
botanique
botanischen
botanischer
botanophila
botany
bothalia
bothidae
bothriocera
bothrogonia
botjantsev
botosaneanu
botrychium
botryosphaeriaceae
botswana
botting
boucek
bouche
bouches
boucomont
boudier
bougainvillia
boulenger
bound
boundary
boundy
bourdot
bourgogne
bourgoin
bourreria
boury
bousquet
bouvardia
bouvier
bowerbank
bowman
box
boyaca
boyer
boyko
br
brabant
brachiaria
brachinus
brachionidae
brachionidium
brachionus
brachiopod
brachiopoda
brachistinae
brachycaudus
brachychiton
brachydesmus
brachyhesma
brachyiulus
brachymeria
brachymyrmex
brachyopa
brachyotum
brachypogon
brachypremna
brachyptera
brachypterus
brachystelma
brachyunguis
brachyura
brackish
bracon
braconid
braconidae
braconiden
braconidernas
braconides
braconids
braconinae
braconologica
bracteata
bracteosa
brade
bradea
bradford
bradley
bradleya
bradshaw
brady
bradycellus
bradysia
braet
braga
bragg
brahmina
brain
branch
branchinecta
branchiopoda
branchiopods
brancsik
brand
brandegee
brandenburg
brandis
brandt
bras
brasil
brasileira
brasileiras
brasileiro
brasiliana
brasilien
brasiliensis
brassaiopsis
brassia
brassica
brassicaceae
brassii
bratislava
brauer
braun
braunsapis
braunsia
brazil
brazilian
brazzaville
bre
breams
bred
breddin
bremek
bremekamp
bremen
bremer
brenan
brenske
bres
bresa
brescia
brescovit
breslau
bretagne
brethes
breuning
brevicauda
breviceps
brevicollis
brevicornis
brevicornu
brevifolia
brevipalpus
brevipennis
brevipes
brevirostris
brevis
brevitrichia
brian
bridelia
bridgman
bridson
brief
briggs
bright
brigitte
brignoli
brill
brimblecombe
brinck
brink
brinton
brischke
bristleworms
brit
britain
britannica
british
britishentomologyvolume
britton
brittonia
brixia
bro
brock
bromelia
bromeliaceae
bromeliad
bromley
bromus
brongn
brongniart
brongniartia
brooker
brooklyn
brooks
broome
broomfield
brot
brote
brother
brotulas
broun
brown
browne
browni
brownii
brtek
bru
bruce
bruch
bruchi
bruchinae
bruchophagus
brues
brulle
brundin
brunei
brunel
brunellia
bruner
brunetti
brunettia
brunfelsia
brunia
brunn
brunnea
brunner
brunneri
brunnescens
brunneus
bruno
brunonia
brussels
brux
bruxelles
bruyns
bryan
bryant
brycinus
brycon
bryconamericus
bryobia
bryologistvol
bryophaenocladius
bryozoa
bryozoan
bryozoans
bu
buccinidae
buccinum
bucculatrix
buch
buchanan
buchdru
buchhandlung
buchnera
buck
buckley
buckton
buckup
budapest
budde
buddleja
buellia
buenos
buffalo
bufo
bufonidae
bug
bugbee
bugs
bugula
bugulidae
buhat
buhatan
buhl
buitenz
buitenzorg
bukid
bulan
bulbine
bulbophyllum
bulbosa
bulbostylis
bulbothrix
bulgaria
bulgarica
bulgarya
bull
bullata
bulletin
bulletins
bullock
bumble
bumblebees
bunchosia
bundesversuchanstalt
bunge
bungto
bunium
bunting
bunzo
bupleurum
buprestidae
buprestoidea
buquet
bur
burbank
burbrink
burchellii
burckhardt
bureau
burgenland
burgeon
burgess
burgos
burkart
burke
burkill
burkina
burks
burm
burma
burman
burmannia
burmanniaceae
burmeister
burmeistera
burmesische
burmoniscus
burr
burret
bursera
burseraceae
burt
burton
burtt
buser
bush
busk
but
butang
butantan
butler
butleri
butnga
butterflies
butterfly
buxifolia
buxus
buzzetti
bv
by
byers
byrrhinus
byrsonima
bystrica
bythitidae
byttneria
byull
c
ca
cab
caballero
cabinet
caccobius
caceres
cachoplistinae
cachrys
cacia
cacopsylla
cacoxenus
cact
cactaceae
cactus
cade
cadrema
cadulus
caeca
caecidotea
caecognathia
caecum
caedicia
caelifera
caen
caenohalictus
caerulea
caerulescens
caesalpinia
caesalpiniaceae
caesia
caespitosa
caffra
caffraria
cagayan
cah
cahiers
cai
cain
caiophora
cairns
calabria
calacademy
caladenia
calais
calamagrostis
calamaria
calamus
calandra
calanoid
calanthe
calathea
calbayog
calcarata
calcaratus
calcarea
calceolaria
calceolariaceae
calcicola
calcidoideos
calcutta
caldasia
caldwell
cale
caledonia
caledonian
calif
california
californica
californicum
californicus
californiensis
caliginosa
caligus
caliscelidae
callia
calliandra
callianthe
callicebus
callichthyidae
callidium
calligonum
calligrapha
callionymidae
callionymus
calliopsis
calliostoma
calliphora
calliphoridae
calliscelio
callistemon
callistethus
callitriche
callochiton
callohesma
callopora
calloporidae
callosa
callyspongia
callyspongiidae
calochortus
calodexia
calodia
calophya
calophyllaceae
calophyllum
caloplaca
calopterygidae
caloptilia
calosoma
calosota
calothamnus
calva
calvados
calvert
calwer
calycina
calycogonium
calycomyza
calymmodon
calypso
calyptotheca
calyptranthes
calytrix
camaenidae
camargo
camaridium
camarines
camarosporium
camb
cambaridae
cambarus
cambefort
cambios
cambodge
cambodia
cambridge
camellia
camenta
cameraria
cameron
cameroon
cameroun
camerunensis
camicas
camille
camillina
camillo
campagne
campagnes
campania
campanula
campanulaceae
campanularia
campanulata
campbell
campbelli
campestris
campiglossa
campo
campodorus
campoletis
camponotus
campopleginae
campoplex
campos
campsicnemus
camptochaeta
camptocladius
camptomyia
camptoptera
camptotypus
campylaspis
campylocentrum
campylocera
campylocheta
campylomyza
campyloneurum
campyloneurus
campylospermum
campylotropis
camus
can
cana
canacidae
canad
canada
canadensis
canadian
canadien
canaliculata
canarias
canariensis
canarium
canary
canavalia
canberra
cancino
candida
candidae
candidatus
candolle
candollea
candona
cane
canescens
cannon
canoparmelia
cantabria
cantal
canterbury
canthidium
canthium
canthocamptidae
canthon
canton
cantuaria
canu
cao
cap
cape
capener
capensis
capillaris
capinera
capitata
capitatus
capitellidae
capitophorus
capnia
capniidae
capo
caporiacco
capparaceae
capparis
caprella
caprifoliaceae
caprimulgus
capsicum
capua
capuron
capuronii
carabidae
carabodes
carabodidae
caracas
caracte
caragana
caralluma
carangidae
carausius
carbonaria
carbonarius
carbonell
carcelia
carcharhiniformes
carcinops
cardamine
cardinalis
cardiochiles
cardiocondyla
cardiodactylus
carduelis
careproctus
carex
caribbean
cariblatta
caridean
carinata
carinatus
carinthia
carios
carl
carlgren
carlia
carlo
carlos
carlyle
carmen
carmichaelia
carnea
carnegie
carnevali
carnosa
carol
caroli
carolin
carolina
carolinae
carolinensis
carolus
carotti
carpathica
carpelimus
carpenter
carpinus
carr
carrera
carroll
carter
cartwright
carum
carvalho
carvalhoi
caryanda
caryomyia
caryophyllaceae
caryophyllia
caryophylliidae
cas
casas
case
casearia
casent
casey
casimir
casinaria
casopis
cassia
cassipourea
castanea
castaneus
castanopsis
castanotherium
castellano
castello
castelnau
castianeira
castilho
castilla
castilleja
castillo
castle
castro
castype
cat
cata
catachlorops
cataglyphis
catagramma
catalog
catalogo
catalogue
catalogus
catalun
catania
catantopidae
catantopinae
catantops
catarina
catasetum
catasticta
cataulacus
category
caterino
catfish
catfishes
catharsius
catocala
catoxyethira
cattleya
cauca
caucalis
caucasica
caucasicus
caucasus
caudata
caudatum
caudatus
caudell
cauliflora
caullery
caumont
caupolicana
causey
cav
cavaco
cavanilles
cavariella
cave
cavendishia
cavernicola
cavernicole
cavernicoles
caves
cavp
cayaponia
cayratia
cazier
ccidos
cctld
ccw
cd
ce
ceanothus
ceara
cebu
cecidomyia
cecidomyiidae
cecil
cecropia
cedusa
ceiba
celaenorrhinus
celama
celastraceae
celastrus
celebensis
celebes
celebica
cellaria
celleporaria
celleporidae
celleporina
celonites
celosia
celtis
celyphus
cembre
cenocoelius
cenopalpus
census
cent
centaurea
centella
center
centipede
centipedes
centipeds
centistes
centr
central
centralbl
centrale
centrali
centralis
centre
centrinaspis
centrinus
centris
centro
centroame
centroclisis
centrodora
centrolene
centromerus
centropogon
centrorhynchus
centrosema
century
cephalaria
cephalocoema
cephalodella
cephalopoda
cephalopods
cephalops
cephalosphaera
cephalotes
ceraclea
ceradenia
ceraeochrysa
ceraia
ceramb
cerambi
cerambyci
cerambycid
cerambycidae
cerambycidarum
cerambyciden
cerambycidæ
cerambycinae
cerambycini
cerambycoidea
ceramius
cerapachys
ceraphron
ceraphronidae
ceraspis
cerastium
ceratagallia
ceratina
ceratinopsis
ceratitis
ceratobaeus
ceratocanthus
ceratocapsus
ceratonereis
ceratophyllidae
ceratophyllus
ceratophysella
ceratopogon
ceratopogonidae
ceratopsyche
ceratosolen
ceratostylis
ceratozetes
ceratozetidae
cercopidae
cercopiden
cercopides
cercopinae
cercopis
cercopoidea
cercospora
cercyon
cerdistus
cerebratulus
ceres
ceresa
ceresium
ceriagrion
ceriana
cerithiopsis
cermeli
cernotina
cerococcidae
cerococcus
cerodontha
ceromya
ceropegia
ceroplastes
ceroplesis
certain
cervigo
cervina
ces
ceska
ceske
ceskoslovenske
cestrum
cet
cetonia
cetoniden
cetoniidae
cetoniinae
cette
ceuthophilus
ceuthorhynchus
ceuthorrhynchus
ceylon
ceylonica
ch
cha
chace
chaco
chaenochela
chaerophyllum
chaetabraeus
chaetocladius
chaetocnema
chaetodon
chaetogonopteron
chaetomiaceae
chaetomium
chaetonotidae
chaetonotus
chaetosphaeria
chaetostoma
chafers
chagnon
chaitophorus
chal
chalarus
chalc
chalcid
chalcidiae
chalcididae
chalcidites
chalciditum
chalcidoid
chalcidoidea
chalcidoides
chalcids
chalcis
chalcoscirtus
chalcosyrphus
chalinidae
challenger
chalybion
cham
chamaecrista
chamaedorea
chamaeleo
chamaeleonidae
chamaemyiidae
chamaesphecia
chamberlin
chambers
chamisso
champ
champagne
champion
championi
chan
chandler
chandra
chandrasekhara
chang
change
changes
channel
chant
chantaramongkol
chao
chaoborus
chaoilta
chapelle
chaperiopsis
chapin
chapman
chapter
characidae
characidium
characiformes
characoids
characteribus
characteristics
characters
charaxes
charente
charentes
chariesthes
charinus
charles
charlotte
charopidae
charpentier
chase
chassalia
chasti
chaudhri
chaudhuri
chave
chaves
che
check
checklist
checklists
cheek
cheesman
cheilanthes
cheiloneurus
cheilosia
cheilotrichia
cheiracanthium
cheirostylis
chelicerca
chelifera
cheliferidae
chelipoda
chelodesmidae
cheloninae
chelonus
chelostoma
chemsak
chen
cheng
chenopodiaceae
chenopodium
cher
chernetidae
chernova
chersodromia
chetogena
cheumatopsyche
chevalier
chevalieri
chevrolat
chew
chez
chi
chiang
chiapensis
chicago
chickering
chiefly
chiffaud
chil
child
chile
chilena
chilenischen
chilensis
chili
chilicola
chilobase
chiloglanis
chilopoda
chilopoden
chilopodes
chilopodi
chilopods
chilothorax
chimarra
chimonobambusa
chin
china
chine
chinensis
chinese
chinesische
ching
chinnock
chinoise
chionaema
chionaspis
chionea
chioneosoma
chionodes
chiov
chiovenda
chirita
chirocephalus
chironomidae
chironomus
chiroptera
chirosia
chirotica
chisocheton
chiton
chiu
chlaenius
chlamydopsis
chlich
chloraea
chloridolum
chloris
chlorita
chloroclystis
chlorogomphus
chloroperlidae
chlorophorus
chlorophytum
chloropidae
chlorops
chloropsina
chlorotettix
chod
choen
choisy
cholus
chomelia
chondrichthyes
chondrodesmus
chong
chongqing
chonocephalus
chontales
chopard
chordata
chordeumatida
chordodes
chordodidae
chorebus
chorinaeus
chorisoneura
chorisoneuridae
chorizanthe
chorizococcus
chorotypidae
chorthippus
chou
chr
christ
christenh
christensen
christenson
christiaan
christian
christiania
christiansen
christine
christoph
christophe
christopher
chromadoridae
chromatoiulus
chromatomyia
chromis
chromonephthea
chromosome
chron
chrysantha
chrysanthrax
chrysina
chrysobalanaceae
chrysobothris
chrysocharis
chrysochlamys
chrysogaster
chrysogorgia
chrysomelidae
chrysometa
chrysomphalus
chrysomya
chrysonotomyia
chrysopa
chrysoperla
chrysophyllum
chrysopidae
chrysopilus
chrysopodes
chrysopogon
chrysoprasis
chrysops
chrysosoma
chrysosplenium
chrysotimus
chrysotoxum
chrysotrichia
chrysotus
chrysso
chsha
chthoniidae
chthonius
chu
chun
chung
churchill
chusquea
chvala
chyliza
chymomyza
chytridiomycota
ci
cicadellidae
cicadellinae
cicadinen
cicadula
cicer
cichlasoma
cichlid
cichlidae
cichlids
cicindela
cicurina
cidos
cie
cienc
ciencias
cient
cienti
cientifica
cies
cifiques
cigliano
ciidae
ciliata
ciliatum
ciliatus
cimbebasia
cinara
cincinnati
cincta
cinctus
cinerascens
cinerea
cinereus
cingulata
cingulatus
cinnamomea
cinnamomum
cipa
circular
circularis
cirolana
cirolanidae
cirratulidae
cirratulus
cirrhilabrus
cirrospilus
cirsium
cis
cissus
cistaceae
cistanthe
cisticola
cistula
cistus
cited
cites
citri
citrina
citrus
city
ciudad
civ
civico
cixidia
cixiidae
cixius
ck
cker
cking
cksichtigung
cl
claassen
clade
cladiella
cladistic
cladocarpus
cladochaeta
cladonia
cladoniaceae
cladonota
cladosporium
cladotanytarsus
claoxylon
clapare
claps
clara
clarence
clarendon
clarias
claridge
clariidae
claripennis
clark
clarke
clarkei
clarki
clarkia
clarus
class
classe
classes
classification
classify
classis
clastoptera
clastrier
clathria
clathrina
claude
claus
clausa
clausen
clavaria
clavata
clavatus
clavelina
clavi
clavicornis
clavigera
clavija
clayton
claytonia
cle
cleidogona
cleisostoma
cleistanthus
cleistes
cleistocactus
clemens
clement
clements
cleomaceae
cleome
cleonus
cleonymus
cleora
clephydroneura
clepsis
cleptometopus
clethra
clidemia
clifford
cliffortia
clinidae
clinocentrus
clinocera
clinodiplosis
clinohelea
clinotanypus
clinteria
clinton
cliona
clionaidae
clistoabdominalis
clitocybe
clitoria
clitumnini
clofeta
cloffa
clonaria
close
closely
clossiana
closterocerus
closterus
clovia
club
clubiona
clubionidae
clupeidae
clupeoid
clusia
clusiaceae
clusiidae
clusiodes
cluzobra
clypeata
clypeatus
clytia
clytini
clytus
cnemaspis
cnemidocarpa
cnemidophorus
cnephasia
cnico
cnidaria
cnidium
cnidoscolus
co
coan
coarctata
coast
coastal
coasts
cobb
cobitidae
cobitis
cobscook
coccid
coccidae
cocciden
coccides
coccids
coccinea
coccinellidae
cocciniglie
coccobius
coccoidea
coccoids
coccoloba
coccomyces
coccophagus
coccorchestes
coccothrinax
coccus
cochenilles
cochinch
cochinchinensis
cochinillas
cochliobolus
cochranella
cockerell
cockerelli
cockroach
code
codonopsis
cods
coe
coeliccia
coelichneumon
coelidia
coelinidea
coelioxys
coelogyne
coelorinchus
coelosphaeridae
coelosternus
coelotes
coenagrion
coenagrionidae
coenochilus
coenonycha
coenonympha
coenosia
coerulea
coerulescens
coffea
cogn
cognata
cognatus
cogniaux
cognita
cohen
coimbra
col
cola
colas
colastes
colchicaceae
colchicum
cole
colec
coleo
coleop
coleophora
coleoptera
coleopteren
coleopteres
coleopterists
coleopterologische
coleopterorum
coleopterous
coleopterum
coleoxestia
colias
colin
coll
colladonus
collaris
collecta
collected
collecting
collection
collectionis
collections
college
collema
collemataceae
collembola
colletes
colletidae
colletinae
colletotrichum
collette
collin
collina
collins
collotheca
colobostema
colobothea
colomb
colombia
colombiana
colombo
colon
colona
colony
color
coloradensis
colorado
colorata
colors
colossendeis
colostygia
colotis
colpochila
colpotrochia
colte
colubridae
colubrina
columba
columbellidae
columbia
columbiana
columbianus
columbidae
columbus
columnea
colus
com
comanthera
comata
comb
combinations
combretaceae
combretum
cometes
comisio
comm
command
commelina
commelinaceae
comments
commiphora
commissie
commission
common
commonwealth
communication
communis
communities
community
como
comorensis
comores
comosa
comp
compacta
compactus
compagno
companhia
company
comparata
comparative
comparettia
comparison
compere
complanata
comple
complete
complex
composition
comprehensive
comprenant
compressa
compressus
compris
compsibidion
compsophorus
compt
compta
compte
comptes
comptosia
computer
comstock
comte
comune
comunicaciones
comunidad
con
conabio
concava
concepcion
concerning
conchapelopia
conchaspididae
conchocarpus
concinna
concinnus
concolor
condado
conde
condylostylus
conescharellina
conference
conferta
confidence
confinis
confluens
conformis
confusa
confusus
congesta
congo
congoensis
congolensis
congr
congress
congridae
conhecidos
conhecimento
conica
conicera
coniceromyia
conidae
conifer
coniopterygidae
coniopteryx
conioscinella
coniothyrium
conjuncta
conle
conn
connaissance
connaraceae
connarus
connecticut
connection
connexa
connnecticut
connues
connus
conocephalidarum
conocephaliden
conocephalinae
conocephalus
conocidos
conocimiento
conocybe
conophorus
conophyma
conophytum
conopidae
conops
conoscenza
conospermum
conostegia
conostigmus
conostylis
conotrachelus
conrad
conserv
conservati
conservation
conservative
conserve
consimilis
consobrina
consp
conspectus
conspersa
conspicua
constance
constant
constantine
constantineanu
constelasyon
constricta
constrictus
contained
containing
contarinia
contd
conterminous
continent
continental
continuatio
continued
contorta
contr
contracta
contractus
contrib
contribucio
contribuic
contribution
contributions
contributo
contribuzione
control
conura
conus
convergens
convexa
convexus
convoluta
convolvulaceae
convolvulus
cook
cooke
cool
cooley
cools
cooper
cooperative
cooperi
copaifera
cope
copeia
copel
copeland
copelatus
copenhagen
copepoda
copepods
copestylum
cophixalus
cophura
copidosoma
copies
copiphorinae
coppins
copr
coprinopsis
coprinus
copris
coprophagen
coprophages
coprophanaeus
coprosma
copte
coptocercus
coptomia
coptops
coptotettix
copturus
coquillett
coquillettidia
cora
coracina
coral
corallimorpharia
corchorus
corda
cordata
cordia
cordifolia
cordilura
corduliidae
cordyla
cordylus
coreana
coregonus
corethrella
coriacea
coriaceus
corinna
corinnidae
cormocephalus
cornejo
cornelis
cornelius
cornell
corner
corniculata
cornigera
cornol
cornus
cornuta
cornutus
coronata
coronatus
corpuz
corre
corrections
corrientes
corrigenda
corrugata
corse
corsica
cortinariaceae
cortinarius
cortodera
corun
corus
corvidae
corvus
coryanthes
corybas
corydalidae
corydalus
corydoras
corylophidae
corymbia
corymbosa
corynoneura
corynoptera
corynosoma
coryphaenoides
coryphantha
coryphopteris
corythalia
corythucha
cosmisoma
cosmophasis
cosmopterigidae
cosmoscarta
cosmosoma
cossidae
cosson
cossonus
costa
costalis
costaricensis
costata
costatus
costello
costus
cote
cotesia
cotoneaster
cottidae
cotton
cottus
couepia
couleur
coult
coulter
council
countries
country
county
cour
courier
coursetia
court
courtenay
courtship
cousinia
coussapoa
coussarea
couvertes
cowan
cox
coxalis
crab
crabs
cracoviensia
craib
craig
crambe
crambidae
crambus
cramer
cramerandstoll
crane
craneflies
crangonyctidae
cranichis
craniella
craspedolepta
craspedosomatidae
crassa
crassicornis
crassifolia
crassipes
crassispira
crassula
crassulaceae
crassus
crataegus
cratichneumon
cratosomus
cratyna
craugastor
craven
crawford
crayfishes
creagrutus
crella
cremastinae
cremastocheilus
cremastus
crematogaster
cremnops
cremona
crenata
crenicichla
crenulata
creoleon
crepidium
crepidomanes
cresson
cretaceous
cretica
creuse
cribb
cricket
crickets
cricotopus
crimea
crinita
crinitus
crinum
criorhina
criotettix
crisia
crispa
cristata
cristatus
cristina
cristo
crites
critical
critics
critique
crits
croat
croatia
crocea
crocidura
crocodiles
crocus
croizat
crops
crosby
crossandra
crossopalpus
crossopetalum
crossotarsus
crotalaria
crother
croton
crous
cruciata
crudia
cruises
crustace
crustacea
crustacean
crustaceana
crustaceans
crustaceorum
crustaces
cruz
cryphalus
cryphia
crypsithyris
crypt
cryptandra
cryptantha
cryptanthus
cryptanura
crypti
cryptinae
cryptocanthon
cryptocarya
cryptocephalus
cryptocercidae
cryptochironomus
cryptocoryne
cryptog
cryptolabis
cryptopidae
cryptopimpla
cryptops
cryptopygus
cryptorhynchus
cryptorrhynchus
cryptus
crytea
csic
csiro
ctenichneumon
ctenidae
ctenitis
ctenizidae
ctenocella
ctenochira
ctenomys
ctenopelma
ctenopelmatinae
ctenophora
ctenophthalmus
ctenotus
ctenus
cuatrec
cuatrecasas
cuatrecasasii
cub
cuba
cuban
cubana
cubaris
cubensis
cubitt
cubocephalus
cucullata
cucullia
cucumis
cucurbitaceae
cucurbitaria
cuenca
cueta
cui
culex
culicidae
culicoides
culiseta
cult
cultivated
culturais
culture
cum
cumacea
cumella
cunaxa
cunaxidae
cunaxidbase
cundinamarca
cuneata
cuneatus
cuneifolia
cuneo
cunha
cunningham
cunninghamii
cunoniaceae
cupania
cupaniopsis
cuphea
cupido
cuprea
cupressaceae
cur
curac
curculio
curculionidae
curculionoidea
curcuma
curini
curitiba
curran
current
curriea
cursoria
curt
curta
curtara
curtis
curtisii
curtonotum
curtus
curvata
curvipes
curvularia
cuscuta
cushman
cusk
cuspidaria
cuspidata
cuspidatus
custodian
cut
cute
cuterebra
cutler
cuttlefishes
cuvier
cyanea
cyanescens
cyaneus
cyanopterus
cyanotis
cyathea
cyatheaceae
cybaeidae
cybaeus
cybianthus
cybister
cybium
cycas
cyclanthaceae
cyclanthera
cyclaspis
cyclocephala
cycloderes
cyclophora
cyclophyllum
cyclopidae
cyclopogon
cyclops
cycloptilum
cyclosa
cyclosorus
cydia
cydistomyia
cylindrepomus
cylindrica
cylindricus
cylindroiulus
cylindromyia
cylindropuntia
cylisticus
cylloceriinae
cymbidium
cymbopogon
cymodoce
cymodusa
cymothoa
cymothoe
cymothoidae
cynanchum
cynipidae
cynoglossidae
cynoglossum
cynoglossus
cynometra
cynorkis
cyperaceae
cyperus
cyphia
cyphocharax
cyphochilus
cyphomyia
cyphomyrmex
cyphopterum
cyphostemma
cypria
cyprididae
cyprinid
cyprinidae
cypriniformes
cyprinodon
cyprinodontidae
cyprinodontiformes
cypripedium
cyprus
cyril
cyrtandra
cyrtanthus
cyrtarachne
cyrtochilum
cyrtodactylus
cyrtolabulus
cyrtolobus
cyrtomium
cyrtoneurina
cyrtophora
cyrtopodion
cyrtopodium
cyrtopogon
cyrus
cytaea
cytherea
cytheropteron
cytisus
cytospora
czech
czeka
czerepanov
czerny
czernyola
d
da
daan
dacnusa
dacnusini
dacryodes
dactylochelifer
dactylocladius
dactylocythere
dactylolabis
dactylorhiza
dacus
daemonorops
daesiidae
dafrika
dagat
daget
dagko
dahl
dahlem
dahlgren
dahlgrenius
dahms
dai
dakar
dako
dakota
dal
dalbergia
dale
dalea
dalechampia
dall
dalla
dalman
dalmas
dalnauka
dalnego
dalton
dalziel
damaeidae
damaeus
damalis
damo
dampiera
damselfishes
dan
dana
danaea
danaw
dance
dangerfield
daniel
danis
danish
dans
danser
dansk
danske
danu
danzig
daphne
daphnia
daphnopsis
dapit
dariusz
darlingtoni
darrel
darwin
darwini
darwinia
darwiniana
das
dasch
dasineura
dasiops
dasyatis
dasybasis
dasychira
dasyhelea
dasypoda
dasypogon
dasysyrphus
dasyvalgus
data
database
databases
date
datos
daucus
dauvin
davallia
davao
davenport
david
davidi
davidiellaceae
davidson
davies
daviesia
davis
davisi
dawson
day
db
dc
de
dea
dean
deans
debach
debenham
debilis
dec
decaisne
decapod
decapoda
decaryi
december
dechambre
decima
decipiens
decne
decora
decorata
decoratus
decorus
decticinae
decumbens
decurrens
deeann
deeleman
deep
defaut
definitions
deflexa
degeer
degli
dehaasia
dehra
dei
deinbollia
deinopis
deitz
dejean
dekada
del
delavayi
delaware
delhi
delia
delias
delicata
delicatula
delicatus
dell
della
delle
delong
delosperma
delphacidae
delphacodes
delta
deltocephalus
deltochilum
delucchi
dem
demange
demissa
demonax
demosponges
demospongiae
den
dendrobium
dendrocalamus
dendrocerus
dendrochilum
dendrocnide
dendrolimus
dendronephthya
dendropanax
dendropemon
dendrophile
dendrophthora
dendropsophus
dendryphantes
dendy
deng
denis
denkschr
denkschriften
denmark
denning
dennis
dennstaedtia
dennstaedtiaceae
densa
densiflora
dentaires
dentaliidae
dentalium
dentata
dentatus
denticulata
denticulatus
denton
denys
deos
dep
deparia
departamento
department
depohl
depositados
deposited
depressa
depressaria
depressus
dept
der
deraeocoris
derbidae
derek
dermaptera
dermateaceae
dermestidae
derocalymmidae
derolus
deronectes
deropeltis
derovatellus
derris
dertiere
des
descamps
deschampsia
descoings
descr
described
descric
descripcio
descripcion
descripsit
descripta
descriptas
descriptif
description
descriptiones
descriptionibus
descriptions
descriptive
descriptorum
descritti
descrizione
descurainia
desenvolvimento
desert
deserta
deserticola
desertorum
desfontaines
desidae
designation
designations
designazione
desmazie
desmet
desmiphora
desmiphorini
desmodium
desmometopa
desmopachria
desmoscolex
desmosomatidae
desutter
desvaux
desvoidy
detail
detailed
determination
deutsch
deutsche
deutschen
deutschland
deutschlands
deutzia
deux
deuxie
deuxieme
devario
development
devrien
dewalt
dewarumez
dexia
dexosarcophaga
deyrolle
di
diachasmimorpha
diadasia
diadegma
diadelia
diadema
diaea
diagn
diagnose
diagnosen
diagnoses
diagnosis
diagnost
diagnostic
diagnostycznych
diakonoff
dialium
diamant
diamantes
diamesa
diana
diane
dianella
dianthus
diaparsis
diapetimorpha
diaphana
diapheromeridae
diaphorina
diaphorus
diaphus
diaporthaceae
diaporthe
diaptomus
dias
diascia
diasemopsis
diaspididae
diaspidinae
diaspidini
diaspidiotus
diaspinae
diaspine
diaspis
diaspiti
diastylidae
diastylis
diathoneura
diaz
dicaelotus
dicaeum
dichaea
dichaetomyia
dichaetophora
dichapetalaceae
dichapetalum
dichelacera
dichelus
dichochrysa
dichomeris
dichorisandra
dichotoma
dichotomius
dichroa
dichrogaster
dichrooscytus
dichrorampha
dick
dickinson
dicliptera
dicraeus
dicrania
dicranomyia
dicranophoridae
dicranophorus
dicranoptycha
dicranopygium
dicranota
dicranotropis
dicrotendipes
dict
dictionary
dictya
dictyna
dictynidae
dictyophara
dictyopharidae
dictyoptera
dicyema
dida
didemnidae
didemnum
didiscus
didto
didymella
didymocarpus
didymoglossum
die
diederich
dieffenbachia
diego
diels
dierama
diestrammena
dieter
dietrich
dietz
different
differentiis
difficilis
diffusa
digital
digitalis
digitaria
digitata
digitatus
digonogastra
diin
dikraneura
dikrella
diksyunaryo
dilar
dilatata
dillenia
dilleniaceae
dillon
dilma
dilobopterus
dilophus
diluta
dimeria
dimidiata
dimidiatus
diminuta
dimorpha
dimorphanthera
dimorphism
din
dinarthrum
dinastiya
ding
dinhi
dinotrema
dinter
dioclea
dioctria
diogmites
diolcogaster
dionysia
diopatra
diopsidae
diopsis
diopsiulus
diores
diosaccidae
dioscorea
dioscoreaceae
diospilus
diospyros
diostracus
diostrombus
dipcadi
diphascon
diphucephala
diphyus
diplazium
diplazon
diplazontinae
diplectrona
diplocephalus
diplocolenus
diplodia
diplonevra
diplopoda
diplopoden
diplopodes
diplopodi
diplopodorum
diplopteridae
diplostix
diplotaxis
diplotoxa
diplura
dipluridae
diplusodon
diplycosia
dipoena
dipsacaceae
dipseudopsis
dipt
diptera
dipteren
dipteres
dipterocarpaceae
dipterocarpus
dipterorum
dipturus
dique
direction
directory
dirhinus
diri
diriges
dirphia
dirphya
dirsh
dis
disa
discalis
dischidia
discocalyx
discodes
discolor
discovered
discovery
discrepans
discussion
disease
diseases
disjuncta
disney
disonycha
disophrys
dispar
disperis
disporella
dissertation
dissimilis
dissotrocha
distans
distant
distaplia
distenia
disteniidae
disteniinae
disteniinæ
disterigma
disticha
distichodontidae
distincta
distinctus
distinguenda
distoleon
distribution
distributional
distributions
district
distrito
disyembre
ditassa
ditaxis
diterrane
diteur
dithmarschen
dition
ditrichophora
diuris
div
divaricata
divergens
divers
diversa
diverses
diversifolia
diversity
diversus
dives
diving
divisa
divisio
division
dixa
dixella
dixidae
dixon
dlabola
dliche
dmitri
dmitriev
dmitriy
dmitry
dmytro
dna
dnopherula
do
doane
doblies
docalidia
docosia
documents
docums
dod
dodd
dodge
dodonaea
dodson
doeringiella
dognin
dohrn
dohrni
dohrniphora
doi
doklady
dola
doleschall
dolicheremaeus
dolichocephala
dolichoderus
dolichomitus
dolichopeza
dolichopoda
dolichopodidae
dolichopus
dolichos
dolichurus
doliocarpus
dollfus
doloclanes
dolomedes
dolophilodes
domain
dombeya
dombrow
domenico
domin
domingensis
domingo
dominguez
dominica
dominican
dominicana
dominique
don
donald
donatella
donau
dong
donie
donisthorpe
donk
donn
donnell
donner
donovan
doradidae
doratulina
dorcadion
dordogne
doria
dorkeld
dorn
dorsal
dorsalis
dorstenia
dorvilleidae
doryctes
doryctinae
dorylomorpha
dorylus
dorymyrmex
doryopteris
dos
dost
dothideomycetes
dott
douard
doubleday
doubs
douce
douces
douglas
doutt
dov
downey
dozier
dpolar
dr
draba
drabescus
dracaena
draco
draconarius
dracophyllum
dracula
draft
dragonflies
dragonfly
drainage
drake
dransfield
drapetis
drassodes
drassyllus
drechsler
dredged
drei
drepanidae
drepanosticta
dresden
dressler
drew
drimia
drimys
drinker
drino
dritter
dro
drosanthemum
drosera
droseraceae
drosophila
drosophilidae
druce
drummondii
drury
drusus
dryadaula
dryadella
dryas
drymaria
drymeia
drymonia
dryopteridaceae
dryopteris
drypetes
dsc
dsee
dt
dtirol
du
duas
dubia
dubiaranea
dubiosa
dubium
dubius
dublin
ducetia
duchassaing
ducke
duckei
duda
dudley
dudleya
due
duellman
duffy
dufour
dufourea
dugang
duguetia
duha
dume
dumont
dun
dunal
duncan
dung
dunn
duolandrevus
duomyia
duplachionaspis
duplex
duplicata
dura
durand
durante
durch
durden
duret
during
durivault
duro
duroia
durudako
dusona
dutch
duzee
dwest
dwight
dworakowska
dwyer
dyar
dyckia
dyer
dyke
dynastidae
dynastinae
dypsis
dysaphis
dyschirus
dyschoriste
dysdera
dysderidae
dysderina
dysidea
dysmachus
dysmicoccus
dysodia
dysoxylum
dysphania
dytiscidae
dz
dzhanokmen
dziedzickia
e
eacute
eades
eardley
earle
early
earring
eason
east
eastern
eastop
eau
eaux
eb
ebenaceae
ebenus
eberhard
eblisia
ebmer
eburia
eburnea
eburodacrys
echange
echeandia
echeveria
echidnopsis
echinata
echinatus
echiniscidae
echiniscus
echinocereus
echinoderes
echinoderm
echinodermata
echinoderms
echinoidea
echinopsis
echinorhynchus
echium
echiura
eckernfo
eckl
ecklon
ecnomidae
ecnomus
ecol
ecologia
ecological
ecology
econ
economic
ecosystems
ecphylus
ecsenius
ectemnonotum
ectinohoplia
ectobiidae
ectobius
ectoprocta
ectropis
ecuador
ecuadorensis
ed
edgar
edinb
edinburgh
edipucrs
edited
editio
edition
editions
editor
editorial
editors
edizione
edm
edmond
edmonds
edmund
edn
edosa
edouard
edred
eds
edu
eduard
eduardo
education
edulis
edvard
edward
edwards
edwardsi
edwardsia
edwardsiana
edwin
eel
eels
eesti
effect
effects
efferia
effusa
egesina
egg
eggs
egle
egon
egregia
egypt
egypte
egyptian
ehara
ehipto
ehlers
ehrenberg
ehretia
ehrmann
eichl
eichler
eigenmann
eight
eileen
eilema
ein
eine
einem
einer
eines
einige
einiger
einschliesslich
eiphosoma
ejemplares
ek
ekman
ekmanii
ekonomiya
el
elacatinus
elachertus
elachiptera
elachista
elaeagnus
elaeocarpaceae
elaeocarpus
elaeodendron
elaphidion
elaphidionini
elaphocera
elaphoglossum
elaphropeza
elapidae
elasmobranch
elasmobranchii
elasmobranchs
elasmus
elata
elatior
elatostema
elaver
electra
electric
electronic
elegans
elegantula
elegantulus
elegia
elementary
elemento
elena
elench
elenco
eleocharis
eleotridae
elephantomyia
eleutheratorum
eleutherodactylidae
eleutherodactylus
eleven
elfried
elias
elimaea
elimia
eliott
elisabeth
elix
eliza
elizabeth
elke
ella
elleanthus
elliot
elliott
ellipteroides
elliptica
elliptio
ellis
ellsworth
elmer
elmeri
elmohardyia
eloeophila
elongata
elongatum
elongatus
elsinoe
elton
elymnias
elymus
elytra
elytrimitatrix
em
emanuel
emarginata
emarginatus
embelia
emberiza
emberizidae
embia
embiidina
embioptera
embiopterasf
emblyna
embrik
emden
emeljanov
emendata
emendations
emerson
emersonella
emerton
emery
emeryi
emig
emil
emile
emilia
emilio
emmanuel
emmesomyia
emmo
emo
emoia
emory
empa
empecamenta
emperador
emphasis
empididae
empire
empis
empoasca
empoascanara
en
enallagma
enaria
enarmonia
encarsia
encentrum
encephalartos
enchir
enchytraeidae
enci
encycl
encyclia
encyclope
encyclopedia
encyrtid
encyrtidae
encyrtids
encyrtinae
encyrtus
end
endangered
endasys
endemic
enderlein
enderleinellus
endiandra
endl
endlicher
endlicheria
endomychidae
endro
enemies
enemy
eneopterinae
enero
engel
engelmann
engl
england
engler
english
enicospilus
enlinia
enlumine
enne
enneapterygius
enoplognatha
enrico
enrique
ensifera
ensign
enslin
ent
entedon
entocytheridae
entognatha
entoloma
entolomataceae
entom
entomobrya
entomobryidae
entomocenotiques
entomofauna
entomol
entomolo
entomologen
entomologi
entomologia
entomologiae
entomologica
entomologicae
entomological
entomologicheskago
entomologicheskoe
entomologicheskogo
entomologicheskojo
entomologicheskoye
entomologicke
entomologiczne
entomologicæ
entomologie
entomologique
entomologiques
entomologische
entomologischen
entomologischer
entomologisches
entomologisk
entomologiske
entomologist
entomologiste
entomologists
entomology
entomon
entomophaga
entomophagous
entomophthoraceae
entomotaxonomia
entoprocta
entre
entyloma
enum
enumeratio
enumeration
environment
environmental
environs
eois
eophileurus
eorum
eos
eoscarta
eosentomidae
eosentomon
eotetranychus
epacris
epactoides
epalpus
epania
epeolus
ephedra
ephedrus
ephemeroptera
ephraim
ephydra
ephydridae
epibryon
epicaridea
epicauta
epicephala
epicharis
epicr
epicypta
epidapus
epidendrum
epierus
epilampra
epilampridae
epilamproidea
epilobium
epilohmannia
epinephelinae
epinephelus
epinotia
epipactis
epiphanidae
epiphragma
epiplema
epirhyssa
episinus
epistrophe
episymploce
epitonium
epitoxus
epitranus
epizoanthus
eptatretus
equisetum
er
eragrostis
eratoneura
erde
erdo
erebia
erebus
erechthias
erecta
erected
eremiaphila
eremippus
eremobates
eremobatidae
eremobelba
eremochelis
eremogone
eremophila
eremurus
eretmapodites
eretmocerus
erga
ergebn
ergebnisse
eria
eriachne
eriborus
eric
erica
ericaceae
erich
erichson
ericoides
ericsson
eridolius
erigeron
erigone
erigonine
erigorgus
erik
eriksson
eriocaulaceae
eriocaulon
eriococcidae
eriococcus
eriogonum
erioptera
eriopyga
eriosema
eriosoma
eriospermum
eriosyce
eristalinus
eristalis
eritrea
eritrichium
erl
ernest
ernst
ero
erodium
erpe
errantes
errantia
errata
erromenus
erse
erste
erster
erubescens
erycibe
erylus
eryngium
erysimum
erysiphaceae
erysiphe
erythmelus
erythranthe
erythridula
erythrina
erythrococca
erythrodiplax
erythrogonia
erythroneura
erythroneurini
erythropus
erythroxylaceae
erythroxylum
erythrus
es
esben
escalera
escallonia
escaryus
escharella
eschmeyer
eschweilera
escobar
escola
esenbeck
esenbeckia
eskwelahan
esnault
esp
espagne
espan
espanola
espanya
espanyol
espe
espece
especes
especial
especie
especies
esperiana
esperiopsis
espi
esq
essai
essay
essays
essig
essonne
est
estado
estados
esther
estola
estrada
estuarine
estuary
estudio
estudios
estudo
estudos
et
etat
etc
eteone
ethelwynn
etheostoma
ethiopia
ethiopian
ethmia
eti
etiopici
etlingera
etude
etudes
euagathis
eubazus
eubelidae
eublemma
eubulus
eucalypti
eucalyptus
eucelatoria
eucera
eucereon
euceros
eucharis
eucharitidae
eucosma
eudarcia
eudendrium
euderces
euderus
eudistoma
eudonia
eudorylas
eufriesea
euge
eugen
eugene
eugenia
eugeniae
eugenies
eugenio
eugeny
euglossa
euglyphis
euglypta
euhesma
euhybus
eukiefferiella
eukoenenia
eulalia
eulasia
eulecanium
eulechria
eulitorals
eulophia
eulophidae
eulophus
eumasta
eumastacidae
eumastacoidea
eumenes
eumenidae
eumenidi
eumerus
eunice
eunicea
eunicidae
eunidia
eunoe
euodynerus
euonymus
euophrys
euopius
euparatettix
eupelmidae
eupelmus
eupelops
eupeodes
euphaedra
euphausiacea
euphausiids
eupholidoptera
euphorbia
euphorbiaceae
euphorbiae
euphoresia
euphoria
euphorinae
euphranta
euphrasia
euphrosine
euphthiracarus
euphyia
euphylidorea
eupithecia
euplectrus
euplexoptera
euploca
euploea
eupogonius
euproctis
euprosopia
eupteryx
eur
eurasia
eure
eurema
eurhadina
eurhopalothrix
eurithia
europ
europa
europaea
europaeae
europaischen
europas
europe
european
eurya
eurybrachidae
eurycope
eurycotis
eurydice
euryglossa
euryglossina
euryopis
eurypon
euryproctus
eurysternus
eurytoma
eurytomidae
eusandalum
euscelidia
euschmidtiidae
euseius
euselasia
euselates
euspilotus
eustala
eusterinx
eustomias
eutanyacra
eutardigrada
eutettix
euthalia
euthyrrhaphidae
eutrichosiphum
eutrichota
euxesta
euxestonotus
euxoa
evacanthus
evaluation
evanescens
evania
evaniella
evaniidae
evans
evansi
evarcha
evaza
evelyn
evenhuis
everett
evers
evert
evgenii
evgenyi
evic
evich
evidence
eviota
evippa
evol
evolution
evolutionary
evolvulus
ewald
ewing
ex
exact
exactas
exacum
excavata
excavatus
excellens
excelsa
except
excisa
excl
excluding
exclusive
excoecaria
exe
exechia
exechiopsis
exell
exetastes
exhibentes
exhyalanthrax
exigua
exiguus
exilis
eximia
eximius
exitianus
exley
exobasidium
exocelina
exocentrus
exochus
exogone
exomalopsis
exoneura
exoprosopa
exorista
exosphaeroma
exostema
exot
exothecinae
exotic
exotica
exotico
exotiques
exotische
exp
expansa
expe
exped
expeditie
expedition
expeditions
experiment
experimental
expert
explor
exploration
explorations
exploring
expose
extant
extensa
extension
external
extremadura
eyprepocnemis
ez
ezzat
f
fa
fabaceae
fabriciana
fabricii
fabricius
fac
face
facialis
facility
facultad
faculte
faculty
fadogia
fagaceae
fage
fagonia
fagraea
fahraeus
fahringer
faiditus
fain
fairchild
fairfield
fairmaire
falcata
falcatus
falco
fall
fallax
falle
fallen
false
fam
fami
familia
familiarum
familias
familie
familien
families
famille
familles
family
fan
fang
fannia
fanniidae
fao
far
faramea
farfante
fargeau
fargesia
farinosa
farjon
farmington
fasc
fasciata
fasciatus
fasciculata
fascicule
fascipennis
faso
fastigiata
faubel
fauchald
fauna
faunae
faunal
faune
faunengebietes
fauni
faunistic
faunistica
faunistik
fauny
fautin
fauvel
favolaschia
favret
fbva
fe
fea
feae
features
feb
february
fed
fedde
feddes
federal
federated
federico
fedorov
fedotova
fedtschenko
feeding
fejervarya
felder
felipe
felix
felsche
felt
female
females
femoralis
femorata
femoratus
fenestrata
fenestrulina
feng
fenn
fennah
fenner
fennica
fenzl
fer
ferdinand
ferguson
fern
ferna
fernald
fernandes
fernandez
fernando
ferns
ferocactus
ferox
ferrara
ferraris
ferreira
ferrero
ferrie
ferris
ferruginea
ferrugineus
ferula
ferulago
fery
festa
festiva
festival
festivus
festschrift
festuca
few
ff
ffer
fi
fica
ficinia
fico
ficus
fide
fidena
fieb
fieber
field
fieldiana
fifth
fifty
fig
figs
figure
figures
fiji
fil
file
files
filicornis
filifolia
filiformis
filipes
filippo
film
fimbriata
fimbriatus
fimbristylis
fin
finali
fines
finiste
finl
finland
fiorinia
firenze
first
fis
fisch
fischer
fischeri
fish
fishbase
fisher
fisheri
fisheries
fishery
fishes
fishing
fisica
fisicas
fissa
fissidentalium
fissistigma
fitch
fitzgerald
fitzinger
fitzpatrick
five
fixation
fl
flabellata
flabellifera
flabellum
flaccida
flat
flatidae
flatiden
flava
flavescens
flavicans
flaviceps
flavicollis
flavicornis
flavida
flavidus
flavifrons
flavipalpis
flavipennis
flavipes
flavitarsis
flaviventris
flavomaculata
flavum
flavus
fleas
flechtmann
flensburg
flensburgi
fletcher
fletcheri
flexamia
flexuosa
flickr
flies
flint
flora
florae
floram
flore
florence
flores
florestal
florestas
floribunda
florida
floridana
floridanus
floridensis
florist
flow
flower
flowering
flowers
fluminensis
fluviatilis
fly
fo
focke
foddai
foerster
foetida
foldi
folge
folia
foliosa
folk
folsomides
fomitopsidaceae
fomitopsis
fond
fondamental
fonscolombe
fonseca
fontaine
fontana
fontella
food
fopius
for
forbes
forbesii
forcepia
forcipata
forcipomyia
ford
fore
foreign
forel
forening
forest
forestry
forests
forficulidae
forh
form
formant
formen
formerly
formes
formica
formicidae
forming
formosa
formosan
formosana
formosanus
formosatettix
formosus
forms
forrest
forrestii
forsch
forschung
forschungsinstitut
forschungsreise
forsok
forsska
forst
forster
forsteri
forsteronia
forstinsecten
forstinsekten
forstlichen
forstlicher
fortis
fortsetzung
forty
fosberg
fossil
foster
found
foundation
four
fourn
fourth
foveolata
foveolatus
fowler
fox
fr
fra
fragilis
fragm
fragmenta
fragoso
fragrans
franc
francais
francaise
france
franch
franche
franchet
francis
francisco
franco
francois
francolinus
franganillo
frangile
frank
frankenia
frankfurt
franklin
frankliniella
franses
fransya
frantis
franz
franzi
fraser
fraseri
frater
fraterna
fraternus
fre
frea
fred
frederic
frederick
frederico
frederik
fredrik
free
freeman
fregatten
french
frequenamia
fresh
freshwat
freshwater
freunde
frey
freycinetia
freyhof
freyi
freyn
freytag
freziera
fribourg
fricke
friedr
friedrich
friedrichs
fries
friese
friesodielsia
frigida
fringillidae
frison
fritillaria
fritsch
fritz
friuli
fro
frodin
froehlich
froeschner
froese
froggatt
from
frontalis
frontispice
frost
fruhstorfer
fruhstorferi
fruit
fruits
frutescens
fruticosa
fryxell
fu
fuchs
fuchsia
fuckel
fuego
fugax
fuhrmannodesmidae
fuirena
fujian
fulgens
fulgida
fulgoridae
fulgoriden
fulgoroidea
fulgoromorpha
fuliginosa
fuliginosus
full
fullaway
fuller
fulva
fulvescens
fulvipes
fulvus
fumipennis
fumosa
fundacio
fundulus
fundy
funebris
fung
fungal
fungi
fungorum
fungus
funkhouser
funna
fur
furcata
furcatus
furcifer
furnariidae
further
fusarium
fusca
fuscata
fuscescens
fuscicornis
fuscipennis
fuscipes
fuscum
fuscus
fuse
fusiformis
fuzetek
fversigt
fyodorovich
g
ga
gabon
gabonensis
gabriel
gadiform
gadiformes
gadila
gaertnera
gagea
gagne
gagnep
gagnepain
gahan
gahnia
gaimard
gainesville
gajbe
gal
gala
galactia
galapagos
galathea
galeandra
galeodes
galeodidae
galepsus
galerina
galiano
galianthe
galicia
galil
galileo
galium
gall
gallen
gallery
galletti
gallieniellidae
gallinsectes
gallo
galloway
galls
gallut
galumna
galumnidae
galzin
gama
gamasellus
gamasiphis
gamasomorpha
gamble
gambusia
game
gamit
gammarus
gams
ganoderma
ganodermataceae
gao
garay
garci
garcia
garcinia
gard
garden
gardenia
gardenology
gardens
gardiner
gardner
gardneri
garfit
gargara
garman
garonne
garra
garrett
garrulax
gart
garten
gary
gaspard
gasteracantha
gasteranthus
gastrancistrus
gastrochilus
gastrodia
gastromyzon
gastropoda
gastroserica
gastrotheca
gastrotricha
gates
gatostuig
gattung
gattungen
gauld
gaultheria
gaurax
gawas
gawl
gay
gayle
gaylussacia
gaz
gazette
gbif
gdn
ge
gebiet
gebiete
gebietes
geburtstage
geer
gehyra
geissanthus
geissorhiza
gekkonidae
gekkota
gelabert
gelechia
gelechiidae
gelinae
gelis
geminata
gemminger
gen
gene
genera
general
generale
genere
generi
generic
generis
genero
generos
generum
geneva
geneve
geniates
geniculata
geniculatus
genista
genitalia
genootsch
genootschap
genoplesium
genova
genre
genres
gent
gentiana
gentianaceae
gentianella
gentil
gentili
gentilis
gentry
gentryi
genuina
genus
geobot
geodia
geodiidae
geoffrey
geoffroy
geogarypus
geogr
geogra
geographic
geographical
geographie
geol
geological
geology
geolycosa
geometridae
geomyza
geonoma
geophilidae
geophilomorpha
geophilus
geophis
geordnet
georg
george
georges
georgia
georgiana
geotrupidae
ger
gera
gerais
geraniaceae
geranium
geranomyia
gerb
gerbillus
gerd
gergithus
gerhard
gerlach
germ
germa
germain
german
germanica
germany
germar
germarostes
geron
gers
gerstaecker
gertsch
gertschi
gervais
ges
gesammelt
gesammelten
gesammelter
gesammten
geschiedenis
gesellsch
gesellschaft
gesneria
gesneriaceae
gestro
gestroi
getreu
geum
gewa
gewest
ghana
ghillean
ghosh
giacomo
giacopo
gianfranco
giant
gibba
gibbosa
gibbosus
gibbs
gibson
gica
gicas
gico
gicos
gidako
gide
giesbert
gigantea
giganteum
giganteus
gigantochloa
gigantodax
gigas
giglio
gihapon
gijsbert
gijswijt
gil
gilbert
gilg
gilia
gill
gilles
gillespie
gillet
gillett
gillette
gilli
gilmour
gimbart
gimpel
gin
ginagamit
ginbahin
gingagamit
ginhatag
ginhimo
ginhulagway
ginklasipika
ginngaranan
ginns
ginsasapitan
ginsasaurog
gintatawag
gintukod
gion
gionale
gions
giordani
giorgi
giorn
giornale
giovanni
girard
girault
girona
gironde
giulia
giuseppe
gje
glaber
glaberrima
glabra
glabrata
glabrescens
glabrum
glacialis
gladiolus
glandulifera
glandulosa
glaphyra
glaphyridae
glaresis
glasby
glauca
glaucescens
glaucum
glaucus
glaziovii
gleason
glenea
gler
gli
global
globba
globe
globis
globosa
globosus
glochidion
gloeoporus
glomera
glomerata
glomeridae
glomeris
glomeromycota
glomus
gloriosa
glossosoma
glossosomatidae
glumac
glutinosa
glycaspis
glycera
glyceria
glyceridae
glycosmis
glycyphana
glyphipterix
glypta
glyptini
glyptomorpha
glyptotendipes
glyptothorax
gmelin
gmina
gnamptodon
gnamptodontinae
gnamptogenys
gnaphalopoda
gnaphosa
gnaphosidae
gnaphosoidea
gnathia
gnathiidae
gnathocera
gnato
gne
gnidia
gnomidolon
gnophomyia
gnophos
gnypeta
go
gob
gobies
gobiesocidae
gobiid
gobiidae
gobio
gobyerno
godfrey
godman
godoy
goecke
goeldi
goephanes
goera
goerodes
goetghebuer
goia
goldblatt
golfe
golfo
golofa
golovatch
gomes
gomesa
gomez
gomon
gomphandra
gomphidae
gomphillaceae
gomphines
gomphocerinae
gomphodesmidae
gomphrena
gomphus
gomy
gon
gonatocerus
gonc
gondwanaland
gongora
gonia
goniada
goniadidae
goniagnathus
goniasteridae
gonioscelis
goniothalamus
gonocarpus
gonolobus
gonomyia
gonza
gonzalagunia
gonzalez
good
goodenia
goodeniaceae
goodyera
goot
gopher
gordh
gordius
gordon
gorgoniidae
gorochov
gorton
gory
gorybia
goryphus
gos
gosse
gossweileri
gossypium
gotra
gottfried
gottlieb
gouania
gould
gounelle
goux
gov
govaerts
government
goyaz
goyder
gozma
gr
gracile
gracilicornis
gracilior
gracilipes
gracilis
gracillariidae
gracillima
grady
graeca
graellsia
graf
graffenrieda
graham
grahami
grahamstown
grallipeza
graminea
grammitis
grammonota
gran
granada
granados
granara
grand
grandcolas
grande
grandi
grandidier
grandidieri
grandiflora
grandiflorum
grandifolia
grandis
granger
grania
grant
grantia
grantiidae
granulata
granulatus
granulosa
granulosus
graphics
graphidaceae
graphis
graphium
graphocephala
graphomya
graptomyza
grass
grasshopper
grasshoppers
grata
gratiosa
graubu
grav
gravenhage
gravenhorst
gravier
gray
grayi
graz
grazia
gre
great
greater
greathead
greca
greece
green
greene
greenfield
greeni
greenidea
greenland
greenwood
greer
gregoriano
gregorio
gregory
greifswald
grenada
grenadiers
gressitt
gressitti
gressoria
gresya
greta
greuter
grevillea
grewia
grey
grichanov
griechenlands
griffini
griffith
griffithii
griffiths
grigori
grigorian
grimaldi
gripopterygidae
gris
grisea
griseb
grisebach
grisescens
griseus
grissell
griswold
griyego
gro
groenlandica
grogan
grootaert
gross
grossa
grossheim
grosso
grossulariaceae
ground
group
groupe
grouper
groups
grove
groves
grube
grupo
gruppe
gruppen
gruppering
gruyter
gryllacriden
gryllacrididae
gryllacris
gryllidae
gryllides
gryllinae
gryllini
grylloidea
gryllomorphini
grylloptera
gryllotalpa
gryllotalpidae
gryllotalpoidea
gryllus
grymnogryllini
gryon
gsater
gsd
gsds
gu
guadalajara
guadeloupe
guam
guanacaste
guangdong
guangxi
guangxiensis
guangzhou
guapira
guarea
guarro
guatemala
guatemalensis
guatteria
gud
gue
guene
guentheri
guercio
guettarda
guez
guglielmone
gui
guia
guiana
guianensis
guide
guides
guidetti
guido
guignardia
guignot
guihaia
guilelmi
guilherme
guillarmod
guillaume
guillaumin
guillermo
guimaraes
guin
guine
guinea
guineensis
guioa
guizhou
gulf
gullan
gummi
gunnar
gunnera
gunungiella
guo
gupta
gurania
gurjanova
gurney
guruguti
gusarov
gusenleitner
gustaf
gustav
gustavia
gustavo
gutierrez
guttata
guttatus
guy
guyana
guyanas
guyane
guyanensis
guymer
guzmania
gyera
gymnangium
gymnetron
gymnocalycium
gymnochthebius
gymnodia
gymnognatha
gymnolaemata
gymnomyces
gymnophora
gymnophthalmidae
gymnopleurus
gymnopternus
gymnosporangium
gymnosporia
gymnostachyum
gymnothorax
gymnotus
gynacantha
gynaecoserica
gynodiastylis
gynopeltididae
gynoplistia
gyo
gypona
gyponana
gypsophila
gyptischen
gyranusoidea
gyrinus
gyrodactylus
gyrophaena
h
ha
haan
haas
habana
habenaria
habermehl
habitat
habits
habranthus
habrobracon
habrocestum
habronattus
habronyx
habropoda
habropogon
habrotrocha
hacia
hack
hackel
hackelia
haddow
hadena
hadi
hadin
hadrodactylus
hadto
hadton
haeckel
haemaphysalis
haematopota
haemulidae
hafniae
hagan
hagen
hague
hahn
hahnia
hahniidae
hain
hainan
hainanensis
haines
haisheng
haiti
hajdu
hakea
hakes
halalaimus
haldeman
hale
halecium
halectinosoma
halenia
halford
halfte
halichoeres
halichondria
halichondriidae
haliclona
halictidae
halictus
haliday
haliophasma
haliplus
hall
halle
hallier
halocyprididae
halodiplosis
halophila
halosphaeriaceae
halticoptera
ham
hamata
hamataliwa
hamatus
hamb
hambleton
hamburg
hamburger
hamburgi
hamburgischen
hamilton
hamlett
hammann
hammer
hammond
hampshire
hampson
han
hance
hancock
hand
handb
handbook
handbuch
handl
handlingar
hanitsch
hanley
hannover
hans
hansen
hanson
hansson
hanstro
hanstrom
hao
hapithus
haplidia
haplinis
haplochromis
haplodrassus
haploniscidae
haploniscus
haplophthalmus
haplophyllum
haplosclerida
haplozetidae
hapon
hara
harani
harbin
hardy
hardyi
harling
harmer
harmothoe
harms
harold
haroldius
harpactea
harpagophoridae
harpalus
harper
harriet
harriman
harring
harrington
harris
harrison
harry
hart
harten
hartig
hartlaub
hartley
hartman
hartmann
hartmeyer
hartw
hartwig
harv
harvard
harvey
harz
hasenpusch
hassler
hastata
hastatus
haswell
hatch
hatschbachii
hatusima
hauman
haupt
hauptsa
hauseri
hausskn
haussknecht
haut
haute
hautes
haven
havniae
hawaii
hawaiian
hawaiiensis
hawksworth
haworth
haworthia
hay
hayashi
hayat
hayata
hayden
haye
hayop
hayward
he
head
healy
hebard
hebei
hebeloma
hebes
hecalapona
hecalus
hechtia
hedley
hedotettix
hedqvist
hedwigia
hedychium
hedyosmum
hedyotis
hedysarum
heemstra
heft
hefte
hegel
heikki
heilipus
heim
heinrich
heinz
heinze
heisteria
heizmannia
helcogramma
helconinae
heldr
helen
helena
helenae
heleomyzidae
helianthemum
helichrysum
helicia
heliconia
heliconiaceae
heliconius
helicopsyche
helicopsychidae
helicteres
helictopleurus
helictotrichon
heligmonevra
helina
heliococcus
heliocopris
helionides
helionidia
heliophanus
heliophila
heliotropium
helius
helixanthera
hellen
heller
helleri
helminthoglypta
helminthoglyptidae
helmut
helodon
helophilus
helophorus
helotiaceae
helotiales
helsinki
hem
hemerobiidae
hemerobius
hemerodromia
hemibagrus
hemiberlesia
hemiceras
hemichordata
hemictenius
hemidactylus
hemigrammus
hemigraphis
hemileius
hemilophini
hemimeridae
heminothrus
hemipenthes
hemiphileurus
hemipt
hemiptera
hemiramphidae
hemisphaerius
hemisphere
hemiteles
hemithyrsocera
hemp
hempel
hemsl
hemsley
henan
henckelia
hend
hendel
henderson
hendrik
heneral
hengduan
henicidae
henk
henn
hennemann
hennig
hennings
henrard
henri
henricia
henriettea
henrik
henry
henryi
henschia
hentschel
hentz
heorhya
hepner
hepper
heptapteridae
her
heracleum
herald
heraty
herausgegeben
herb
herbert
herbst
hercostomus
herdman
heriades
herina
hering
heringia
heritiera
herman
hermann
hermannia
hermetia
herna
hernandez
herniaria
herpetofauna
herpetol
herpetologica
herpetological
herpetology
herre
herrera
herrich
herrings
herriot
herrn
hershkovitz
hersilia
hersiliidae
herting
hervy
herzog
herzogtum
hesionidae
hesperantha
hesperia
hesperiidae
hesperis
hesse
het
hetaerina
heterachthes
heteracris
heteragrion
heteralonia
heterochelus
heteroconis
heterodrilus
heterogomphus
heteromeringia
heteromysis
heteronemiidae
heteronotus
heteronychia
heteronychus
heteronyx
heterophylla
heteropoda
heteropogon
heteroptera
heteropterys
heterospathe
heterospilus
heterostemma
heterotropus
heuchera
heude
heuschrecken
hewitson
hewitt
hexacorallians
hexacorals
hexapoda
hexatoma
heyden
heydon
heyer
heyograpiya
hi
hibbertia
hibiscus
hickman
hiemalis
hieracium
hiern
hierodula
hieron
hieronymus
higgins
high
higher
hil
hilaire
hilara
hilarempis
hilaris
hilbig
hildebrand
hildebrandtii
hilgardia
hilipus
hill
hille
hilliard
hills
himal
himalaya
himalayas
himalayensis
himalopsyche
hime
himenopteros
himertosoma
hin
hincks
hind
hine
hini
hintonii
hintz
hinz
hipo
hippa
hipparchia
hippasa
hippeastrum
hippoboscidae
hippocampus
hippolyte
hippopsis
hipporrhinus
hipposideros
hiptage
hira
hiraea
hirashima
hirmoneura
hiroe
hiroshi
hirsuta
hirsutum
hirsutus
hirta
hirtella
hirtipes
hirtodrosophila
hirtus
hirtz
hirundo
his
hishimonus
hispanica
hispanicus
hispaniola
hispida
hispidula
hispidus
hist
hister
histeridae
histeroidea
histoire
historia
historical
historico
historie
history
histrio
hit
hitchc
hitchcock
hitherto
hiton
hiya
hjalmar
hjortstam
hler
hlke
hn
hnatiuk
hnel
hner
ho
hobbs
hoch
hochberg
hochr
hochreutiner
hochst
hochstetter
hockeria
hoddle
hodgson
hoehne
hoek
hoese
hoffer
hoffm
hoffman
hoffmann
hoffmannia
hofmuseums
hogg
hogna
hohenbergia
hohenbuehelia
hokkaido
holarctic
holcocephala
holl
holland
hollis
holm
holmberg
holmgren
holmiae
holochelus
holochlora
hololepta
holoplatys
holopogon
holorusia
holothrix
holothuroidea
holotrichia
holsinger
holstein
holthuis
holtt
holttum
holub
holzschuh
hom
homalium
homalomena
homaloptera
homalotylus
home
homepage
homoeogamiidae
homolobinae
homolobus
homoneura
homoporus
homopt
homopte
homoptera
homopteren
homopterous
honda
hondt
honduras
hong
hongchang
honolulu
hood
hoog
hook
hooker
hookeri
hooper
hope
hopea
hopkins
hoplia
hopliinae
hoplitis
hoplocorypha
hoplolabis
hoplophorella
hoplophthiracarus
hoplopleura
hopper
hoppers
horace
horae
horak
hordeum
horismenus
hormius
horn
horned
hornera
horni
horrida
horridus
hors
horsfieldia
horst
horstmann
hort
horti
horticulture
hortipes
horton
horwood
hoshino
host
hosts
hot
hottes
hou
houghton
house
housed
houtou
hove
hovea
hovore
how
howard
howden
howdeni
howe
howell
hoy
hoya
hr
hrung
hsia
hsieh
hsien
hsu
htm
html
http
hu
hua
huang
hub
hubb
hubbard
hubbardiidae
hubbell
hubbs
hubei
huber
huberi
hubert
huckett
hucusque
hudson
huernia
huesca
hugh
hughes
hugo
hugonia
hui
huitie
hull
hulley
hulyo
human
humbert
humbertii
humboldt
humeralis
humile
humilis
hunan
hundred
hung
hungariae
hungarian
hungarica
hungaricae
hungarici
hungary
hunsru
hunt
hunter
hunyo
hunziker
huo
huperzia
hurd
hureau
hutchings
hutchinson
hutton
huynh
hyadina
hyalina
hyalinus
hyalonema
hyaloscyphaceae
hybalus
hybanthus
hybomitra
hybos
hybosoridae
hybotidae
hybrida
hydaticus
hyde
hydnocarpus
hydnophytum
hydra
hydractinia
hydraena
hydraenidae
hydrangeaceae
hydrellia
hydriastele
hydriomena
hydrobaenus
hydrobiidae
hydrobiologia
hydrobiologica
hydrobiosidae
hydrochus
hydrocotyle
hydroides
hydromanicus
hydrophiidae
hydrophilidae
hydrophiloidea
hydrophoria
hydrophorus
hydroporus
hydropsyche
hydropsychidae
hydroptila
hydroptilidae
hydrotaea
hydrovatus
hydrozoa
hygrocybe
hygrophila
hygrophoraceae
hygrotus
hyla
hylaeus
hyland
hylarana
hyles
hylidae
hyllisia
hyllus
hyloxalus
hym
hyme
hymedesmia
hymedesmiidae
hymen
hymenaster
hymeniacidon
hymenocallis
hymenochaetaceae
hymenochaete
hymenophyllaceae
hymenophyllum
hymenoplia
hymenopodidae
hymenoptera
hymenopteren
hymenopteres
hymenopterologica
hymenopterologie
hymenopterorum
hymenopterous
hymenoscyphus
hypanthidioides
hyparrhenia
hypena
hypenetes
hypera
hyperaspis
hypericaceae
hypericum
hyperoliidae
hyperolius
hyphessobrycon
hyphoderma
hyphodontia
hyphomycetes
hyphydrus
hypocacculus
hypocaccus
hypochthonellidae
hypocrea
hypocreaceae
hypocreales
hypoderma
hypodynerus
hypoestes
hypogastrura
hypogastruridae
hypognatha
hypogymnia
hypolepis
hypoleuca
hypolimnas
hypolytrum
hypoponera
hyposerica
hyposmochoma
hyposoter
hypostomus
hypothenemus
hypotrachyna
hypoxis
hypoxylon
hypsibiidae
hypsibius
hypsiboas
hypsicera
hyptia
hysteropterum
hystrichopsyllidae
hystrix
i
iain
ian
iassus
iba
ibe
iberian
iberica
ibidionini
ic
icacinaceae
ice
icerya
ichi
ichikawa
ichneumon
ichneumonen
ichneumonibus
ichneumonid
ichneumonidae
ichneumonidea
ichneumoniden
ichneumonidenfauna
ichneumonides
ichneumoninae
ichneumonini
ichneumonoidea
ichneumonologia
ichneumonologica
ichneumonum
ichthyodes
ichthyol
ichthyology
ici
icius
icon
icones
iconographie
idaea
idaho
identification
identity
ideoblothrus
ides
idiasta
idiocera
idiocerus
idiopidae
idiops
idoteidae
idris
idrobiologia
ifan
ig
igbaw
ignacio
ignatz
ignaz
ignobilis
igo
igor
iguanidae
ihap
iheringia
ihre
ihrer
ii
iii
ika
ikaduha
ikalima
ikan
ikatulo
ikeda
il
ilarom
ilburnia
ildis
ile
iles
ilex
ilina
ill
ille
illicium
illies
illiesia
illiger
illinoia
illinois
illustr
illustrantes
illustrata
illustrated
illustrations
illustris
ilocos
iloilo
iltis
ilybius
ilyich
im
image
imajima
imbricata
img
imitans
imitator
immaculata
immaculatus
immature
imp
impar
impatiens
impe
imperial
imperiale
imperialis
imperyo
impormasyon
importance
important
importante
impressa
impressum
impressus
imprimerie
in
inada
inaequalis
inc
inca
incana
incerta
incertae
incertus
incisa
incisus
incl
included
including
incognita
incompleta
inconspicua
inconstans
ind
inde
indes
index
india
indian
indiana
indianapolis
indias
indica
indicum
indicus
indie
indien
indies
indigenous
indigofera
indischen
indistincta
individual
indo
indochina
indochine
indonemoura
indonesia
indonesian
indonesya
indotipula
indre
industr
industrial
industry
indya
ine
ined
inermis
inexpectata
infesting
inflata
inflatus
inform
information
infurcitinea
infuscata
infuscatus
inga
ingalsuo
ingens
inger
ingles
ingram
ingrisch
inhabiting
ini
iningles
ininglis
injurious
inland
innsbruck
inocybaceae
inocybe
inom
inonotus
inopinata
inops
inornata
inornatus
inostemma
inra
ins
inscitiae
insect
insecta
insecten
insectes
insectorum
insectos
insects
insecutor
insekten
insektenbiologie
insektenfamilie
insektenfauna
insektenkunde
insel
inseln
inseto
insetos
insetti
insignis
insolita
insolitus
inst
instar
institut
instituta
institute
institution
instituto
instituts
instrumenta
insulana
insulanus
insularis
insularum
int
inte
integer
integra
integrated
integrifolia
interactive
interest
interesting
interior
intermedia
intermedium
intermedius
international
internet
interrupta
interruptus
into
intricata
introduced
introduction
invalid
inventaire
inventory
invertebr
invertebrata
invertebrate
invertebrates
investigaciones
investigations
involucrata
ioc
iopi
iorio
iowa
iphiaulax
iphinoe
ipni
ipomoea
ips
iqbal
ira
iran
iranian
iranica
iraq
ircinia
iredale
ireland
irena
irian
iridaceae
iridescens
iridomyrmex
iris
irish
irregularis
irrorata
irwin
is
isaac
isabel
isabela
isachne
isatis
isbn
ischaemum
ischen
ischiopsopha
ischnochiton
ischnochitonidae
ischnomesus
ischnopsyllidae
ischnoptera
ischnotoma
ischnura
ischnus
ise
ishania
ishii
isidore
isidro
isis
isla
island
islands
islas
isle
isles
isnb
isodictya
isodontia
isoetaceae
isoetes
isoglossa
isohypsibius
isole
isolepis
isomyia
isoneuromyia
isonychus
isoperla
isophya
isopod
isopoda
isopoden
isopodes
isopodi
isopods
isoptera
isotoma
isotomidae
israel
issidae
issiden
issue
ist
istanbul
istituto
it
ital
italia
italian
italiana
italiane
italiani
italiano
italica
italochrysa
italy
italya
italyano
itara
itatiaia
ithaca
iti
itinere
itis
ito
iton
itoplectis
its
iucn
iv
ivan
ivanovich
ivanovitsch
ivie
ivoire
ivory
iwamoto
ix
ixia
ixodes
ixodida
ixodidae
ixora
ixorida
iya
iz
izv
izvestiya
j
ja
jaap
jaapiella
jack
jackson
jacksoni
jacob
jacobi
jacobs
jacobson
jacobsoni
jacobus
jacot
jacq
jacquemontia
jacques
jacquin
jago
jahrb
jahrbu
jahrbuch
jahrbucher
jahre
jahren
jahresber
jakob
jaltomata
jamaica
jamaicensis
james
jamesbrittenia
jamesonia
jan
janeiro
jangoux
janirella
janiridae
jansen
janson
janssens
january
jap
japaga
japan
japanagromyza
japanese
japanische
japanischen
japans
japonenses
japonica
japonicum
japonicus
jard
jaroslav
jaschhof
jason
jassargus
jatahy
jatropha
java
javana
javanica
javanicus
javensis
javier
jawa
jay
jaya
jb
je
jean
jeannel
jeanneli
jebb
jeekel
jeff
jefferson
jeffrey
jena
jenk
jenkins
jennifer
jensen
jerry
jersey
jerusalem
jerzy
jesse
jesus
jewett
jh
jhingran
ji
jiahua
jiang
jin
jirkov
jisaburo
jl
jnict
jo
joa
joachim
joan
job
jocque
joeropsis
johan
johann
johannes
johannsen
john
johnrehnia
johns
johnson
johnsoni
johnston
johnstoni
johnstonii
jonathan
jones
jonesi
jong
joppa
jordan
jordani
jordanoleiopus
jorden
jorge
jose
josef
joseph
josephine
jour
jourbook
journ
journal
joy
joyce
jpg
jr
ju
juan
jucunda
jucundus
judd
judson
juglans
juin
jul
jules
julia
julian
julidae
julien
julin
julio
julius
julus
july
jumelle
jumellea
jumping
jun
juncaceae
juncea
juncus
june
jungiella
junior
juniperus
junk
junonia
jupeng
jura
jurinea
jurinella
jusqu
juss
jussieu
just
justicia
juz
juzepczuk
k
ka
kaagi
kaarangay
kababarak
kabahin
kabisay
kada
kadam
kafer
kag
kagamhanan
kagoshima
kahaluag
kahoronan
kahuman
kai
kailola
kaiserlich
kaiserlichen
kalanchoe
kalawdan
kalayaan
kalb
kalendaryo
kalibutan
kalimantan
kaltenbach
kalugaringon
kalyptorhynchia
kamchatka
kamendaka
kamerun
kamijo
kamimuria
kamptozoa
kan
kanaar
kanagawa
kanan
kanaren
kanarischen
kanda
kanehira
kang
kannedom
kano
kansas
kant
kanta
kap
kapellen
kapital
kapuropod
karabag
karaman
karat
kardinal
karel
karg
karl
karling
karlis
karlsruhe
karny
karrer
karsch
karshomyia
karst
karsten
karstenia
kartikasari
karuhaan
karyotype
kasarigan
kasawangan
kasaysayan
kasparyan
kaszabi
katalog
kataloge
katapos
katawhan
katherine
katloan
kato
katoliko
katunaan
katundan
katungod
katydid
katydids
kaukerfe
kaup
kaupod
kaussari
kavkaza
kawai
kay
kazakhstan
ke
keay
kefersteinia
keilbachia
keirans
keith
kelisia
keller
kellogg
kelly
kelsey
keltern
kempf
kendrick
keng
kennedy
kenneth
kennis
kenntnis
kenntniss
kennzeichnung
kensley
kent
kenthal
kentucky
kenya
kenyensis
kenyentulus
ker
kerala
keratella
kerey
kermes
kermesidae
kern
keroplatidae
kerr
kerrich
kerrii
kertesz
kessler
kevan
kevin
kew
key
keys
keyserling
khalaim
khan
khasia
ki
kibara
kieffer
kiel
kielmeyera
kiev
kilala
kilalado
kiliae
kilimandjaro
killifish
killip
killipii
kilometro
kilonii
kim
kimikal
kimmins
kimura
kinabalu
kinabaluensis
kinabuhi
kinatsila
kinberg
kinbergonuphis
king
kingdom
kingii
kingsolver
kirby
kiril
kiritchenko
kirk
kirkaldy
kirkia
kirkii
kirkpatrick
kirsch
kiser
kiss
kit
kitaa
kivuensis
kl
klackenberg
kladograma
klapa
klase
klasse
klassen
klaus
kleptochthonius
klimaszewski
klotzsch
klug
kluge
kluijver
kluwer
km
kmk
knab
knapp
knautia
knema
knight
kniphofia
knowledge
knowlton
known
knull
knuth
ko
kobayashi
kobresia
kobuski
koch
kochi
koehler
koehne
koeleria
koeltz
koenigstein
kohl
kohlmeyer
koidzumi
kokujev
kol
kolbe
koleopterologische
kolla
kologie
koltun
komarov
komarova
komo
kompositor
komunidad
komyun
kon
kondratieff
kong
kongl
kongliga
kongo
konigl
koninklijk
koninklijke
kononova
konowia
konrad
konstantinovich
kontyu
koponen
korea
korean
koreana
koreanus
korovin
korthals
kortii
kos
koso
koste
kosterm
kostermans
kostjukov
kosztarab
kota
koteja
kott
kottelat
koyama
koza
kozlov
kozlovi
kraatz
krabbe
kraenzl
kraenzlin
kraepelin
krai
krakow
kral
kramer
krapov
krapovickas
kraus
krause
krauss
kraussi
kreis
kreuznach
kriechbaumer
krieger
krikken
krishna
kristensen
kristian
kristotomus
kritische
krivosheina
kroasya
krober
krombein
krug
krupp
krypt
krøyer
ku
kuala
kudenov
kuhn
kuijt
kuiter
kulang
kulczynski
kullander
kultura
kumar
kumata
kumm
kun
kundi
kung
kungl
kungliga
kunkel
kunth
kuntze
kunzea
kunzeana
kuoh
kurahashi
kurata
kurile
kurilensis
kurt
kurtzman
kurz
kusel
kusigemati
kussakin
kutob
kuwana
kuwayama
kuzinellus
kuznetzov
kwon
ky
kybos
kyllinga
kyoto
kyushu
kze
l
la
lab
labaw
label
labena
labeo
labeobarbus
laberge
labi
labium
laboratorio
laboratory
laboulbeniaceae
labridae
lac
laccophilus
lace
lacerta
lacertidae
lacertilia
lachemilla
lachenalia
lachesilla
lachnaea
lachner
lachnum
laciniata
lackschewitz
lacordaire
lacroix
lactarius
lactea
lacustris
ladislaus
lae
laelia
laemophloeidae
laeta
laetus
laevicaudata
laevicephalus
laevigata
laevigatus
laevis
lafresnaye
lagerstroemia
laguna
lagynochthonius
lahn
laidlaw
laing
lake
lakes
lakip
lalawigan
lallemand
lam
lamarche
lamarck
lamb
lambdin
lambers
lambert
lambillionea
lameere
lamellata
lamellicorn
lamellicornen
lamellicornes
lamellicornia
lamiaceae
lamiaires
lamiales
lamiens
lamiidae
lamiides
lamiidæ
lamiinae
lamiini
lamiinæ
laminacauda
lamites
lammers
lamos
lamotte
lampides
lampona
lamponidae
lampranthus
lamprogaster
lamprosema
lampyridae
lamyctes
lamyra
lan
lanao
lanata
lancaster
lance
lanceolata
lanceolatum
lanceolatus
lanceoppia
lancifolia
land
landes
landolphia
landschaft
lane
lanei
lang
lange
langerhans
langes
langona
language
languedoc
lanka
lankesteriana
lannea
lanneau
lansberge
lantz
lanuginosa
laophonte
laophontidae
laos
lapeirousia
laphria
laphystia
laporte
lapponica
lappula
large
larinia
larry
lars
larsen
larson
larus
larva
larvae
larval
las
lasalle
laserpitium
lasianthus
lasiocampidae
lasiocercis
lasiodora
lasioglossum
lasiopetalum
lasiopogon
lasioptera
lasioserica
lasiosina
lasiosphaeriaceae
lasius
last
lat
lata
late
lateralis
laternaria
latham
lathrolestes
lathyrus
lathys
laticeps
laticollis
laticornis
latifolia
latifolium
latifrons
latin
latindiidae
latipennis
latipes
lato
latr
latreille
latrunculia
latus
latvia
laubenfels
laubheuschrecken
lauenburg
laupala
lauraceae
laurence
laurens
laurent
laurentii
laurifolia
lausanne
lauterb
lauterbach
lauxania
lauxaniidae
lavoisiera
lavranos
law
lawas
lawrence
lawrencei
lawson
laxa
laxiflora
lazar
lazarides
lazio
ldl
le
lea
leach
lead
leader
leaf
leafhopper
leafhoppers
leafl
leander
leandra
leandri
leaves
lebanon
lebbe
lebeckia
lebel
lebia
lecane
lecania
lecanidae
lecanodiaspididae
lecanodiaspis
lecanora
lecanoraceae
lechevalier
lecithocera
lecomte
leconte
lecta
lecteria
lectotipi
lectotype
lectotypes
lecypages
lecythidaceae
ledebour
ledebouria
ledermanniella
ledermannii
ledomyia
ledovitogo
ledra
lee
leea
leech
leechi
leeuwenhoek
left
leg
legeriomycetaceae
legrand
legumes
legumineuses
leguminosae
lehm
lehmann
lehmannii
lehnert
lehr
lehrer
leia
leiden
leif
leiophron
leioproctus
leiopsammodius
leiothrix
leipzig
leita
leitao
leitung
leiva
lek
lelaps
lelej
leleupi
lellinger
lellingeria
lem
lemann
leme
lendenfeld
leng
leningrad
lentibulariaceae
lentinus
leo
leon
leonard
leonardi
leonardo
leone
leonensis
leonhard
leop
leopold
leotiomycetes
lepadella
lepage
lepanthes
lepanthopsis
lepeletier
lepeophtheirus
lepesme
lepida
lepidagathis
lepidanthrax
lepidasthenia
lepidiota
lepidium
lepidodexia
lepidonotus
lepidoptera
lepidopteren
lepidopterous
lepidosaphes
lepidosperma
lepidostoma
lepidostomatidae
lepidotrigla
lepidozona
lepidus
lepindex
lepiota
lepisiota
lepisorus
lepithrix
leporinus
lepraria
leptacis
leptanilla
leptanthura
leptasterias
leptataspis
lepthyphantes
leptocentrus
leptocera
leptoceridae
leptocerus
leptochilus
leptochiton
leptoclinides
leptoconops
leptodactylus
leptodermis
leptodesmus
leptogaster
leptogenys
leptogium
leptognathia
leptogorgia
leptoiulus
leptomenes
leptonema
leptoneta
leptonetidae
leptopelis
leptophylla
leptopsyllidae
leptosciarella
leptosiphon
leptospermum
leptosphaeria
leptosphaeriaceae
leptostylis
leptostylus
leptotarsus
leptothorax
leptotyphlops
leptura
lepturges
lepturinae
lepturini
lepturinæ
ler
lerista
leroy
les
leschenaultia
leskia
leslie
lesne
lespedeza
lespesia
less
lesser
lessert
lessertia
lesson
lestes
lestidae
lestin
lestodiplosis
let
lethe
lethrus
letters
lettres
leucadendron
leucandra
leucania
leucantha
leucaspis
leucauge
leucocelis
leucochrysa
leucocoryne
leucon
leucophenga
leucopholis
leucophora
leucopis
leucopogon
leucoptera
leucosolenia
leucospermum
leucospidae
leucospis
leucostoma
leucothyreus
leuctra
leuctridae
leur
leurs
levant
level
levels
levi
levis
levy
levyns
lew
lewerentzischen
lewis
lewisi
leyden
leymus
leyte
lez
lfte
li
lia
liacarus
lian
liang
liao
lias
liaslight
liasnames
liatongus
libanotis
libellula
libellulidae
libellulinen
liberia
liberty
libnotes
libraire
librairie
libraria
librarie
library
libro
liburnia
libya
licania
licaria
lice
lich
lichenized
lichenol
lichenologistvol
lichenophanes
lichtenstein
lichtwardt
licuala
lides
lie
liebermann
liede
lieferung
lieftinck
lienhard
life
light
ligia
ligidium
ligulata
liguria
ligusticum
ligyra
lii
like
lilacina
liliaceae
liliopsida
lilium
lilloa
lilloana
lily
lim
lima
limacodidae
limbata
limbatus
limburg
limenitis
liminaire
limitrophes
limnebius
limnephilidae
limnephilus
limnichidae
limnichus
limnodriloides
limnonectes
limnophila
limnophora
limnophyes
limnoria
limonia
limoniidae
limonium
limosina
limotettix
limousin
lin
linaceae
linaria
linatin
lincei
lincoln
linda
lindau
lindberg
lindbergi
linden
linder
lindera
linderniaceae
lindinger
lindl
lindley
lindleyana
lindner
lindneri
lindneromyia
lindsaea
lindsaeaceae
lindsey
line
lineare
linearifolia
linearis
lineata
lineatus
lineidae
lineolata
lineus
ling
lingnan
link
linn
linnaea
linnaemya
linnaeus
linnavuori
linne
linnean
linognathus
linsley
linum
linyphia
linyphiid
linyphiidae
linzer
lio
liochthonius
liocranidae
liodrosophila
liogenys
liolaemus
liophis
liparetrus
liparidae
liparis
liparochrus
liphistius
liponeura
lipotriches
lipsiae
liriomyza
lisboa
lisbon
lispe
lispocephala
lissoclinum
lissodendoryx
lissonota
lissonotini
list
lista
listados
liste
listrognathus
lists
literary
literatura
literature
lithobates
lithobiidae
lithobiomorpha
lithobius
lithocarpus
lithops
lithospermum
lithurgus
lito
litophiles
litoralis
litoria
litsea
litsinger
little
littoral
littoralis
liu
liv
livebearers
liverpool
livida
lividus
living
liwat
lix
lixophaga
lixus
lizard
lizards
ljubljana
lkerkd
lkerkunde
ll
lleida
ller
lloyd
lloydia
lma
lo
loan
loasaceae
lobanov
lobata
lobatus
lobelia
lobophytum
loboptera
lobsters
loca
localities
locis
lock
locris
locust
locustidae
locustodea
locusts
lodovico
loes
loesener
loew
loftus
logania
loganiaceae
loginova
logo
logunov
lohmanniidae
loi
loir
loire
loiret
lokal
lomandra
lomaptera
lomariopsis
lomatia
lomatium
lombardiya
lombardo
lomelosia
lonchaea
lonchaeidae
lonchocarpus
lonchodes
lonchodinae
lonchodini
lonchoptera
lonchura
lond
london
londt
long
longa
longchamps
longhorned
longicauda
longicaudata
longiceps
longico
longicollis
longicorn
longicornes
longicornia
longicornier
longicornis
longiflora
longifolia
longifolium
longipalpis
longipedicellata
longipennis
longipes
longipetiolata
longirostris
longiseta
longispina
longissima
longistyla
longitarsus
longiventris
longman
longo
longula
longulus
longus
longworth
lonicera
lons
loomis
loots
lopes
lopez
lophiostoma
lophodermium
lophopidae
lophothericles
lopidea
lora
loranthaceae
lord
lordiphosa
lorence
lorenz
lorenzo
loricariidae
lorraine
los
lot
lotononis
lotto
lotus
louiche
louis
louisa
louisiana
loureiro
lourteig
lousebase
love
loveridge
low
lowe
lower
lowrie
lowry
loxandrus
loxoblemmus
loxocera
loxosceles
loxosoma
loxosomella
loxostege
loyalty
loze
lt
ltd
lu
lublin
lubomir
luc
lucanidae
lucas
lucena
lucens
lucerne
luchtmans
lucia
lucida
lucidus
lucien
lucilia
lucinda
lucjan
luctuosa
luctuosus
ludwig
ludwigia
luer
lugar
lugd
lugens
lugo
lugubris
luhman
luidia
luigi
luis
luisa
luisia
luiz
lukasz
lumbricillus
lumbrineridae
lumbrineris
lumpur
luna
lunata
lunatus
lund
lundae
lundbeck
lundell
luo
lupinus
lurida
luridus
lusitanica
lutea
luteipes
luteola
lutescens
luteum
luteus
luteyn
luther
lutjanus
lutrochidae
lutz
lutzomyia
luxembourg
luzon
luzonensis
luzonica
luzula
lxviii
lyangouzov
lycaena
lycaenidae
lycaste
lycenchelys
lycianthes
lycium
lycodes
lycophytes
lycopodiaceae
lycoriella
lycorininae
lycosa
lycosaeformia
lycosidae
lydella
lye
lygaeidae
lygocoris
lygodactylus
lygosoma
lygus
lyman
lymantria
lymantriidae
lymeon
lynch
lynchia
lyndley
lyndon
lyneborg
lyon
lyonia
lyons
lysandra
lysianassidae
lysimachia
lysiteles
lyssomanes
lythraceae
lytocarpia
lytta
lzel
m
ma
maa
maandbl
maas
mabea
mabibilngan
mabuya
macaranga
macbride
macfie
macgillivray
machado
machadoi
machaerina
machaerium
machaerota
machaerotidae
machilus
machimus
mackerras
macleania
macleay
macmillan
macoma
macquart
macqueen
macra
macrantha
macrobenthos
macrobiotidae
macrobiotus
macrobrachium
macrocalyx
macrocarpa
macrocarpaea
macrocentrus
macrocephalus
macrocera
macroclinium
macrodactylus
macroglossum
macrojoppa
macrolabis
macrolobium
macromia
macrophylla
macrophyllum
macrops
macropsis
macropus
macrosiphoniella
macrosiphum
macrosolen
macrospora
macrosteles
macrostemum
macrostomus
macrostyla
macrostylis
macroteleia
macrotera
macrothemis
macrotrachela
macrouridae
macrozamia
maculata
maculatum
maculatus
maculipennis
maculipes
maculosa
maculosus
madag
madagascar
madagascariensis
madagaskar
maddison
made
madeira
madeiras
madhuca
madison
madras
madrid
maechidius
maehr
maerua
maesa
mag
magasin
magazin
magazine
magdalena
magdalenae
magellanes
magellanica
magelona
magna
magnifica
magnificus
magnolia
magnoliaceae
magnoliopsida
magnus
mago
magsaysay
maguire
maguirei
mah
mahanungod
mahendra
mahitungod
mahnert
mahunka
mai
maianthemum
maiden
main
maine
mainland
mainly
mainz
maira
maire
maireana
mairei
major
makikit
makino
makrokylindrus
mal
malabarba
malaccensis
malaconothrus
malacostraca
maladera
malagasy
malaia
malaisei
malanea
malawi
malaxis
malay
malaya
malayan
malayana
malayensis
malayischen
malaysia
malaysian
malcolm
maldanidae
maldonado
male
males
malesi
malesia
malesiana
malgache
malgaches
mali
malicky
mallada
mallinella
malloch
mallochohelea
mallophora
mallorca
mallota
mallotus
malme
malmgren
malmgreniella
malpighia
malpighiaceae
malthonica
malus
malva
malvaceae
mamaev
mamet
mammal
mammalia
mammalian
mammals
mammea
mammillaria
man
management
mancha
manche
manchester
mandevilla
mandibularis
mandibulata
manduca
manettia
manfred
mangelia
mangifera
mango
mangora
mangulo
mani
manihot
manila
manilkara
manitoba
mann
mannerheim
mannheims
manni
mannii
manning
manota
mansfeld
manson
mant
mantidae
mantiqueira
mantispa
mantispidae
mantissa
mantodea
mantodeasf
manual
manuel
manulea
manunurat
manuscript
many
mao
map
mapa
mapania
maps
mar
marais
maranha
maranta
marantaceae
marasmiaceae
marasmius
marc
marcel
marcgravia
march
marchant
marche
marchi
marco
marcos
marcus
marcusenius
mardon
mare
margaret
margarinotus
margarita
margarites
margarodidae
margattea
marginalis
marginata
marginatum
marginatus
mari
maria
mariae
marian
mariana
mariano
marie
marilia
marin
marina
marine
marinos
marins
marinus
mario
marion
marionina
maritima
maritime
maritimes
maritimus
marius
mark
markgr
markgraf
markham
markhaseva
markle
marklund
marlborough
marlierea
marmorata
marmoratus
marne
maroc
maroccana
maroccanus
marotta
marphysa
marpissa
mars
marschall
marsdenia
marseille
marseul
marsh
marshall
marshalli
marsilea
marso
mart
martelli
martens
martha
marti
martin
martinez
martini
martinique
martins
martius
martynov
maruina
marullo
marusik
marx
mary
maryland
marzio
mas
masahiro
masaki
masao
masaridae
masaridi
mascagnia
mascareignes
mascarene
masdevallia
masi
masicera
maskell
maslin
masner
mason
masovya
mass
massa
massachusetts
massaisteppen
massalongo
massarina
massee
mast
mastacembelus
masterman
masters
mastophora
mastrus
masuda
masumoto
masunod
mat
matayba
mate
matelea
mateo
mater
material
materials
materiaux
matesova
math
mathematisch
mathias
mathis
matic
matile
matique
matisia
mato
mats
matsucoccus
matsumura
matsumurana
matsushita
matthew
matthews
matthiola
mattiastrum
mattos
matuda
maturo
maucci
maupay
maura
maurice
maurie
mauritius
maurits
max
maxillaria
maxillariella
maxillopoda
maxim
maxima
maximilian
maximiliani
maximowicz
maximus
maxon
maxwell
may
maya
mayda
mayenne
mayer
mayflies
mayfly
mayo
mayr
mayri
maytenus
mazarredia
mazur
mazus
mazz
mcallister
mcalpine
mcatee
mccafferty
mccarthy
mcclure
mccomb
mcconnell
mccosker
mccoy
mcdaniel
mcdiarmid
mcdunnough
mceachran
mcintosh
mckamey
mckenzie
mcknight
mclachlan
mclellan
mcmurtry
mcvaugh
me
mealy
mealybug
mealybugs
mecistocephalidae
mecistocephalus
mecklenburg
mecometopus
meconematidae
meconematinae
meconematini
mecoptera
mecyclothorax
med
meddel
meddelelser
meddn
meded
mededeelingen
mededelingen
medetera
media
mediae
medicago
medical
medina
medinilla
medio
mediocris
mediorhynchus
mediterranea
mediterranean
mediterraneus
medius
medler
medvedev
meenoplidae
meeres
meetings
megachile
megachilidae
megacyllene
megalastrum
megalomus
megalomyrmex
megalopodidae
megalops
megaloptera
megalyridae
megapodagrionidae
megarhyssa
megaselia
megaspilidae
megastethodon
megastigmus
mehiko
meigen
meigenia
meijere
meillon
meinander
meiner
meinert
meioneta
meisn
meisner
meissn
mekong
melaleuca
melaloncha
melampyrum
melanagromyza
melanargia
melanaspis
melander
melanesian
melanges
melangyna
melanichneumon
melanocephala
melanocephalus
melanochaeta
melanogaster
melanoleuca
melanopli
melanoplinae
melanoplus
melanostoma
melanotaenia
melanozosteria
melanthiaceae
melanura
melastoma
melastomataceae
melbourne
melecta
melhania
meliaceae
melica
melichar
melicope
melinda
meliola
meliosma
meliphagidae
melipona
melissodes
melissoptila
melitaea
melitta
melittidae
melle
mellicta
mello
melo
melocactus
melochia
meloidae
melolontha
melolonthidae
melolonthiden
melolonthinae
melolonthini
melpomene
melsheimer
melzer
mem
members
membracidae
membracis
membracoidea
membranacea
memecylon
memo
memoir
memoire
memoires
memoirs
memoranda
memorial
memorias
memorie
men
mendax
mendes
mendidius
mendoncia
mendoza
menegazzia
menemerus
menesia
menezes
meniscomorpha
menon
menor
mens
menstruus
ment
mentzelia
menzel
menzies
meoneura
mer
meranoplus
mercedes
mercet
mergus
meriania
meridionale
meridionalis
merionoeda
merle
mermessus
merodon
meromacrus
meromyza
merosargus
merostachys
merr
merremia
merrill
merrillii
merritt
mertens
meru
meruliaceae
mes
mesa
mesabolivar
mesanthura
mesembr
mesembrius
mesembryanthemum
mesnil
mesoamerica
mesoceration
mesochorinae
mesochorus
mesocyclops
mesogonia
mesoleius
mesoleptus
mesomyia
mesopolobus
mesorhaga
mesosa
mesosemia
mesostenus
mesostigmata
messina
messor
mestosoma
mestre
mesua
meta
metacatharsius
metachroma
metacnephia
metagonia
metalimnobia
metallica
metallicus
metamorphosin
metapenaeopsis
metaphidippus
metaphycus
metapocyrtus
metaseiulus
metastelma
metazygia
metcalf
meteorus
metepeira
meth
methia
metioche
metopa
metopia
metopidiothrix
metopiinae
metopina
metopius
metrichia
metriocnemus
metro
metrodorae
metrosideros
metschnikowia
mettenius
meuffels
meurthe
meuse
meve
mex
mexican
mexicana
mexicanum
mexicanus
mexico
mexique
mey
meyer
meyeri
meyrick
mez
mga
mhnt
mi
miagrammopes
mias
mica
micans
micarea
micaria
micas
mich
michael
michaelsen
michailovitsh
michaux
michel
michelia
michelotti
michener
michigan
mickel
miconia
micos
micrantha
micranthes
micrapate
micrasema
micrathena
micrathyria
micro
microbiol
microbotryum
microcarpa
microcentrum
microcephala
microcerella
microcharis
microcharon
microchelonus
microchilus
microchrysa
microcionidae
microcos
microdon
microdrosophila
microdynerus
microdytes
microentomology
microgaster
microgasterinae
microgasterini
microgastrinae
microhylidae
microinvertebrates
microlepia
microlepidoptera
microlepis
microlicia
micromus
micromyrtus
micronesia
micronesian
micropeza
micropezidae
micropholis
microphthalma
microphthalmus
microphylla
microphyllum
microplitis
microporella
microps
micropsectra
microscopical
microserica
microsorum
microstylum
microtatorchis
microtendipes
microterys
microtropis
microtus
microvalgus
microzetidae
micrura
micrurus
midden
middle
middleton
midges
midi
midl
midland
mie
miers
mifflin
migeon
migidae
miguel
mihai
miiz
mik
mikania
mikhail
miksic
milan
milano
mildbraed
mildbraedii
mildred
mile
mileewa
miles
milesia
milichia
milichiella
milichiidae
militar
militaris
miliusa
mill
millenium
miller
milleri
millettia
millidge
millipede
millipedes
millipeds
millot
milne
miltochrista
miltogramma
milwaukee
milyon
mimegralla
mimela
mimetica
mimetidae
mimetus
mimica
mimnermidae
mimomyia
mimosa
mimosaceae
mimudea
mimus
mimusops
min
minas
mindanao
minelli
minettia
mineure
ming
miniata
minibiotus
minilimosina
minima
minimus
ministe
ministerio
ministro
ministry
minnesota
minor
minoru
minosuke
minturn
minuartia
minus
minuscula
minuta
minutiflora
minutissima
minutissimus
minutum
minutus
miomantis
mipte
miq
miquel
mira
mirabile
mirabilis
miranda
miridae
mirine
mirollia
mirosternus
mirus
misc
miscellanea
miscellaneous
mischocyttarus
mishchenko
mispila
miss
mission
missione
mississippi
missouri
mistshenkoana
misumena
misumenops
mit
mitchell
mite
mites
mitis
mitjaev
mitracarpus
mitrasacme
mitrella
mitrephora
mitsuhiro
mitt
mitteilung
mitteilungen
mittel
mitteleuropa
mitteleuropas
mittheilungen
miturgidae
mixta
mixtus
miyake
mjo
mktg
mm
mme
mnemosyne
mniej
mniobia
mo
moc
mochokidae
mocquard
modena
modern
modesta
modestum
modestus
modicogryllus
modisimus
moenkhausia
moffett
mogoplistidae
mogoplistinae
mohammad
mohrig
moire
moires
moirs
moldenke
molecular
molgula
molgulidae
molina
molle
mollinedia
mollis
mollisia
mollissima
mollusca
mollusks
molophilus
molopopterus
molupyo
momoi
momordica
mon
monachii
monaco
monanthotaxis
monardia
monatsber
monaxonida
moncalvo
monde
mongolei
mongolia
mongolica
mongolicus
mongolii
mongoloraphidia
monhystera
monhysteridae
monimiaceae
monitore
monkey
monne
monnina
monniot
monocelididae
monocelis
monocentrus
monochamus
monoculodes
monod
monodontomerus
monog
monogononta
monogonta
monogr
monografi
monografia
monografieen
monograph
monographia
monographiae
monographic
monographie
monographisch
monographische
monographs
monohelea
monomorium
monopis
monro
monserrat
monsonia
monstera
mont
montagu
montana
montanum
montanus
monte
montevideo
montezumia
monthly
montiaceae
monticola
montipora
montis
montivaga
montreuil
montrouzier
monts
moore
moorei
moquin
mor
mora
moraceae
moraea
moraes
moral
morales
moran
morawitz
morbihan
mordecai
mordellidae
mordellistena
mordv
mordvilko
more
morei
moreira
morel
morella
morellia
moreno
morgan
mori
moriarty
morillo
morinda
morio
moritz
morley
mormia
mormodes
mormyridae
morocco
moron
morot
morpho
morphological
morphologically
morphologie
morphology
morren
morris
morrison
morse
mortensen
mortierella
morton
mosc
moscou
moscow
moselle
mosely
moser
moses
moskva
mosqua
most
mostly
moth
moths
motschulsky
mound
mount
mountain
mountains
moure
mouriri
mowd
mozambique
mr
mrac
mt
mts
mu
muchmore
mucor
mucronata
mucronatus
mucuna
muell
mueller
muelleri
muelleria
muesebeck
mughiphantes
mugilidae
mugilogobius
muhammad
muhlenbergia
muir
mulaik
mulhouse
muller
muls
mulsant
multicolor
multiflora
multioppia
muma
mun
munchen
munda
mundi
mundus
munich
municipal
munidopsis
munisipalidad
munisipyo
munksgaard
munna
munnopsidae
munro
munroe
munroi
munting
muraenidae
murakami
muraltia
murcia
murdannia
muricata
muricidae
muridae
murina
murphy
murray
murrayi
murrill
mus
musa
musca
muscari
muscicapidae
muscicola
muscidae
muse
musea
musee
museen
musei
museo
museu
museum
museums
mushi
music
musika
muslim
mussaenda
musser
mutabilis
mutica
mx
my
myanmar
myartseva
mycale
mycalesis
mycalidae
mycena
mycenaceae
mycetia
mycetophila
mycetophilidae
mycodiplosis
mycodrosophila
mycol
mycologia
mycomya
mycoscience
mycosphaerella
mycosphaerellaceae
mycotaxon
mycotaxonvol
myctophidae
mydaea
mydas
mydidae
myers
myersi
mygalomorph
mygalomorphae
myiopharus
mykol
myllaena
myllocerus
mylothris
mymaridae
myndus
myolepta
myopa
myopias
myosotis
myospila
myotis
myoxanthus
myrceugenia
myrcia
myriapod
myriapoda
myriapoden
myriapodes
myriophyllum
myriopoda
myriopoden
myriopteris
myristica
myristicaceae
myrmarachne
myrmecaelurus
myrmecia
myrmecocystus
myrmecophilinae
myrmecophilus
myrmelachista
myrmeleon
myrmeleonidae
myrmeleontidae
myrmica
myrsine
myrtaceae
mysida
mysidae
mysidia
mysidopsis
mystus
mythicomyia
myxilla
myzocallis
myzostoma
myzostomida
myzus
møller
n
na
nac
nacaduba
nach
nachbarlander
nachrichten
nachrichtenblatt
nachtr
nachtra
nachtrag
nacional
nad
nadudultan
nag
naga
nagatomi
nagin
naging
naglalakip
nagpapakita
nagtikang
nagtukod
nagy
nahabilin
nahamutang
nahamutangan
nahilalakip
nahimo
nahimutang
nahinabo
najas
nakahara
nakai
nakalista
nakalutaw
nakamura
nakapula
nal
nam
nama
namaquensis
namatay
name
named
namen
names
namibia
namumutang
namuno
nana
nancy
nangangarat
nanhitabo
nannastacidae
nannastacus
nanning
nanophyes
nanum
nanus
napili
naples
napoli
napomyza
napp
napulo
narcisse
narcissus
narendran
narita
nartshuk
nas
nasa
naseka
nasekomye
nasekomykh
nash
naskrecki
nasod
nasodnon
nasonovia
nassarius
nassau
nasuta
nasutus
nat
natal
natalensis
natalia
natatolana
natawo
nathan
nathaniel
nation
national
nationale
nationalis
native
natl
natn
natu
natur
naturae
natural
naturale
naturales
naturali
naturalist
naturalista
naturaliste
naturalistes
naturalists
naturalium
nature
naturelle
naturelles
naturels
naturf
naturforsch
naturforschenden
naturforschender
naturgesch
naturgeschichte
naturh
naturhist
naturhistorischen
naturhistorisches
naturhistorisk
naturk
naturkunde
naturw
naturwiss
naturwissenschaften
naturwissenschaftliche
naturwissenschaftlichen
naturæ
natuurhist
natuurhistorisch
natuurk
natuurlijke
naubos
naudin
nauk
nauka
naukowe
naupactus
nautilocalyx
nava
navarra
navarretia
navas
navia
nazeer
nch
nchen
nchez
nchner
ncia
ncias
nd
nden
nder
ndern
ndez
ne
neal
nealcidion
neanthes
near
nearctic
nearctica
nearktischen
nearktycznego
neastacilla
neavei
neboiss
nebraska
nebria
nebst
nebulosa
nebulosus
necroscia
necrosciini
nectandra
nectarinia
nectopsyche
nectria
nectriaceae
necydalis
ned
nederl
nederlandes
nederlandsche
nederlandse
needham
neerl
neerup
nees
neglecta
neglectus
negli
negrobov
negros
neighboring
neighbourhood
neighbouring
neivamyrmex
nel
nell
nella
nelson
nelsoni
nelsonii
nemacheilus
nemania
nemapogon
nematocera
nematoda
nematomorpha
nemeritis
nemertae
nemertea
nemertesia
nemertina
nemertini
nemesia
nemesiidae
nemestrinidae
nemestrinus
nemobiini
nemophora
nemopteridae
nemoraea
nemoralis
nemoria
nemotelus
nemoura
nemouridae
neoamerioppia
neoathyreus
neobisiidae
neobisium
neoblattella
neobythites
neocaledonica
neochauliodes
neoclytus
neocompsa
neoconocephalus
neocorynura
neodexiopsis
neoechinorhynchus
neoempheria
neoepiscardia
neoitamus
neolamprologus
neolaparus
neolasioptera
neolimonia
neoliodes
neolitsea
neolophonotus
neomochtherus
neomyia
neonauclea
neopanorpa
neoperla
neopetrobia
neoplatyura
neoplocaederus
neopromachus
neopsylla
neoregelia
neoscona
neoseiulella
neoseiulus
neoserica
neotheronia
neotrichia
neotrichoporoides
neotro
neotrop
neotropic
neotropica
neotropicais
neotropical
neotropicale
neotropische
neotropischen
neottia
nepal
nepalensis
nepalomyia
nepaloserica
nepenthaceae
nepenthes
nephodia
nephrolepis
nephrotoma
nephthea
nephtheidae
nephtyidae
nephtys
nepticula
neptis
neptosternus
neptune
nereididae
nereis
neriene
nero
nerocila
neros
nervilia
nervosa
nes
nesiomiris
nesis
nesom
nesophrosyne
nesticidae
nesticus
net
netelia
netherlands
nethinius
network
neu
neubeschreibungen
neucha
neue
neuen
neuer
neues
neumann
neur
neurigona
neuro
neuroleon
neuroptera
neuropteren
neuropterida
neuropteroid
neuropteroidea
neuropterous
neustadt
neuwied
nevada
nevadensis
neville
new
newly
newm
newman
newport
newportia
news
newsletter
newstead
newsteadia
newton
nez
nezumia
nf
ng
nga
ngadto
ngain
ngan
ngaran
ngatanan
ngel
nguyen
nherr
nhm
ni
nia
nica
nicaise
nicaragua
nicholas
nicholls
nichols
nickle
nicolai
nicolas
nicolaus
nicolet
nicotiana
nicrophorus
nidularium
nie
niedbala
niedersachsen
nielsen
nielson
niem
nier
nierstrasz
nigel
niger
nigeria
nigerrima
nigl
niglich
niglichen
nigra
nigrescens
nigricans
nigriceps
nigricollis
nigricornis
nigrifrons
nigripalpis
nigripennis
nigripes
nigrita
nigritarsis
nigritus
nigriventris
nigromaculata
nigropunctata
nigrum
niisato
nijhof
nikol
nikolai
nikolaievich
nikolaj
nikolajev
nikolaus
nikolayevich
nil
nilea
nilobezzia
nils
nilsson
nimba
nin
nina
nine
nio
nipaecoccus
niphetogryllacris
niphona
niphoparmena
nipponensis
nipponica
nira
nishida
nissley
nitens
nitida
nitidula
nitidulus
nitidum
nitidus
nitocrella
nitra
nivalis
nivea
nixon
niya
nizinski
nky
nl
nn
no
nobilis
nobuo
nobyembre
noccaea
nocticolidae
noctuidae
nodc
nodosa
noe
noegus
noel
nogodinidae
nogrady
noguera
noir
noire
nola
nolana
nolidae
nom
noma
nomada
nomen
nomencl
nomenclator
nomenclatural
nomenclature
nomia
nomina
nomioides
nompar
nomura
nomyc
nomyce
non
nonea
nonfried
noordeloos
nopte
nord
nordfriesland
nordic
noren
norenburg
norfolk
norma
normal
norman
normandie
norops
norrbom
norris
norte
norteame
north
northeast
northeastern
northern
northwest
northwestern
norton
noruega
norvellina
norway
nos
nosodendron
nosopsyllus
nososticta
nostima
not
nota
notabilis
notas
notata
notatus
note
notes
noteworthy
nothoblattidae
nothobranchiidae
nothobranchius
nothofagus
notholaena
nothoscordum
nothria
nothrus
notice
notices
notiobiella
notiphila
notiser
notizbl
notizen
notizie
notodontidae
notolomatia
notomastus
notommata
notommatidae
notonemouridae
notophthiracarus
notoplax
notopleura
notoplites
notostraca
nototriche
notoxus
notropis
notul
notulae
notylia
nouv
nouveau
nouveaute
nouveaux
nouvel
nouvelle
nouvelles
nov
nova
novae
novaeguineae
novaezealandiae
novantinoe
novara
novarum
novas
nove
november
novi
novis
novit
novitates
novo
novoguineensis
novon
novorum
novos
novosibirsk
novosti
now
noxious
noyes
nr
nter
ntesis
nther
nu
nubigena
nuculana
nuda
nudus
nueva
nuevas
nuevo
nuevos
nuisibles
number
numicia
nunomura
nuova
nuove
nuovi
nuovo
nuper
nupserha
nutans
nutt
nuttall
nuttalliellidae
nutting
nuytsia
nwards
ny
nya
nyctaginaceae
nyctemera
nyctiboridae
nyctiophylax
nyi
nyl
nylander
nymphaea
nymphalidae
nymphoides
nymphon
nymphonidae
nysius
nyssodrysternum
nzib
nzungen
o
oa
oak
oakes
oaxacana
obadiah
oberea
obereopsis
oberonia
oberthu
obesa
obesus
oblast
obliqua
obliquus
oblonga
oblongifolia
oblongus
obovata
obozr
obozrenie
obozreniye
obozrenye
obrium
obs
obscura
obscurata
obscurior
obscuripennis
obscuripes
obscurum
obscurus
observ
observationibus
observations
obshch
obshchestva
obsoleta
obsoletus
obtained
obtusa
obtusifolia
obtusus
ocas
occ
occas
occasional
occidental
occidentale
occidentales
occidentalis
occipitalis
occulta
occultus
occur
occurrence
occurring
oce
ocean
oceanapia
oceanogr
oceanographic
oceanography
oceans
ocellata
ocellatus
ocellularia
och
ochi
ochicanthon
ochna
ochnaceae
ochoa
ochodaeus
ochracea
ochraceus
ochrilidia
ochrosia
ochrotrichia
ochthebius
ochthera
ochyroceratidae
ocotea
ocrepeira
oct
octarrhena
octave
october
octomeria
octopoda
octopodidae
octopus
octopuses
oculata
oculatus
ocymyrmex
ocyptamus
oddeleni
oder
odoardo
odonaspidini
odonata
odonaten
odonates
odonatologica
odontocera
odontocolon
odontomachus
odontomelus
odontomyia
odontopyge
odontopygidae
odontopyginae
odontosyllis
odontotrypes
odontria
odorata
odore
odorrana
odostomia
odynerus
oecanthidae
oecanthus
oeceoclades
oecetis
oecleus
oecobius
oecophoridae
oedaspis
oedemeridae
oedignatha
oedipodinae
oedothorax
oenanthe
oenopota
oenothera
oes
oesterr
oestlund
oestridae
of
off
office
official
officina
officinalis
ofv
ofversigt
og
ogaza
ogcodes
ogloblin
ogv
ohashi
ohaus
ohba
ohbayashi
ohio
ohwi
oijen
oil
ois
oise
okada
okamoto
okeana
okinawa
oklahoma
okolie
okres
oktubre
ol
ola
olanda
olavius
olax
olbiogaster
old
oldenlandia
oldroyd
ole
olearia
oleg
olenecamptus
olesicampe
olethreutes
olgae
oliarus
olidiana
oligantha
oligochaeta
oligodon
oligomyrmex
oligonychus
oligosita
oligota
olios
olipara
oliv
olivacea
olivaceus
olive
oliveira
olivella
oliver
olivier
olof
ologamasidae
ologamasidbase
olpiidae
om
omalodes
omaloplia
oman
omicron
omkring
ommata
ommatius
omnes
omo
omocestus
omorgus
omphale
on
onagraceae
oncaea
oncholaimidae
oncholaimus
oncideres
onciderini
oncidium
oncometopia
oncopsis
oncostemum
one
oneirodes
onesia
onira
oniscidea
oniscoidea
onitis
online
only
ono
onobrychis
ononis
onosma
ontario
ontherus
onthophagides
onthophagus
onthophilus
onuphidae
onuphis
onychiurus
onychogomphus
onychophora
onychopterocheilus
ooctonus
ooencyrtus
oonopidae
oonops
oost
oosterbroek
op
opaca
opacifrons
opacus
opegrapha
opera
ophelia
opheliidae
ophelimus
ophiacantha
ophiacanthidae
ophiactis
ophichthidae
ophichthus
ophidiidae
ophidiiform
ophidiiformes
ophioglossum
ophiomusium
ophiomyia
ophion
ophioninae
ophiopogon
ophiorrhiza
ophiostoma
ophiothrix
ophiura
ophiuridae
ophiuroidea
ophryotrocha
ophrys
ophthalmolampini
opiinae
opiliones
opisthacantha
opistognathus
opisyal
opius
opogona
opopaea
oppiidae
oppositifolia
opred
opredelitel
opredeliteli
opte
opuntia
opuscula
or
orange
oras
orasema
orb
orbea
orbicularis
orbiculata
orbigny
orbiliaceae
orbiniidae
orbitalis
orchadian
orchard
orchestina
orchi
orchid
orchidaceae
orchidee
orchids
orchis
orchymont
orconectes
order
orders
ordine
ordines
ordnung
ordo
ordre
oregon
oregonensis
oreocarya
oreocharis
oreochromis
oreodera
oreogrammitis
oreohelix
oreopanax
oreophila
oreophryne
ores
oresbius
orestias
orfelia
org
organ
organisation
organised
organisms
organization
orgilinae
orgilus
oribatella
oribatida
oribatula
oribatulidae
oribotritia
orient
oriental
orientale
orientales
orientalia
orientalis
orientalischen
oriente
origin
original
orimarga
oriopsis
ormerod
ormosia
ormyridae
ormyrus
ornamental
ornata
ornatus
orne
ornebius
ornithidium
ornithocephalus
ornithogalum
ornithologists
orobanchaceae
orobanche
orocharis
orophea
orphnidae
orphnus
orqui
orquideologia
orrell
orsodacnidae
orsolobidae
orstom
ortega
orth
orthetrum
orthezia
ortheziidae
orthocentrus
orthocladius
orthomorpha
orthonevra
orthophytum
orthopodomyia
orthoporus
orthopt
orthopte
orthoptera
orthopteran
orthopterans
orthopterasf
orthopteren
orthopterenfauna
orthopteres
orthopterist
orthopterists
orthopteroid
orthopteroidea
orthopteroides
orthopterological
orthopterologiques
orthopterologische
orthopterorum
orthopterous
orthosia
orthostigma
orthotrichia
orthotylus
ortiz
orto
orton
ortopteroides
ortotteri
oryctes
oryzopsis
os
osaka
osbert
osborn
osbornellus
oscar
oscinella
oshanin
osiris
oskar
oslash
oslo
osmia
osmiini
osmoxylon
osmylidae
osphronemidae
ossaea
ossian
ost
ostafrika
ostafrikas
ostariophysi
ostasiatische
osteichthyes
osten
osterreichischen
ostracoda
osvaldo
oswald
oswaldo
ot
otago
other
others
otho
otholobium
otinotus
otiorhynchus
otiorrhynchus
otiothops
otites
otostigmus
ottawa
otte
otterbein
ottis
otto
otus
ou
oudemans
ouest
oulopterygidae
ouml
our
ouratea
ouvrard
ov
ovalifolia
ovalis
ovata
ovatus
over
overseas
overview
overzeesche
oviparous
ovtsharenko
owen
oxalidaceae
oxalis
oxford
oxira
oxya
oxycera
oxydesmidae
oxydesmus
oxyethira
oxyhaloidae
oxyopes
oxyopidae
oxypetalum
oxypoda
oxyrhachis
oxysarcodexia
oxyteline
oxytorinae
oxytropis
oyakawa
ozarba
ozerov
ozodicera
ozoroa
ozyptila
p
pa
pablo
pabst
pac
pachira
pachnoda
pachybrachis
pachycarpus
pachycephala
pachycondyla
pachycraerus
pachydactylus
pachydema
pachydissus
pachygnatha
pachymenes
pachyneuron
pachyphylla
pachyphyllum
pachyserica
pacif
pacific
pacifica
pacifico
pacificus
pacifique
packard
padugang
paduniella
paecilomyces
paeonia
paepalanthus
pag
pagaronia
pagdudumara
pagdumara
pagdurama
page
pageno
pages
paggamit
paghimo
pagination
pagka
pagkaon
pagkayana
pagos
paguridae
pagurus
pai
paik
paine
paiva
pakadto
pakistan
pakli
pal
pala
palaarktische
palaarktischen
palaearctic
palaearctics
palaearktische
palaearktischen
palaemnema
palaemonidae
palaemonoidea
palaeopsylla
palaeorhiza
palaquium
palatinate
palauensis
palawan
palawanensis
pale
palearctic
palearktycznego
palencia
palermo
pales
palestina
palestine
palicourea
palisot
pall
pallas
pallenopsis
pallens
pallescens
pallida
pallidicornis
pallidipennis
pallidipes
pallidula
pallidum
palliduphantes
pallidus
pallipes
palm
palma
palmata
palmer
palmeri
palms
palo
palpada
palpalis
palpares
palpimanidae
palpomyia
paludicola
paludosa
palustris
palythoa
pambansa
pambolus
pamendanga
pamilya
pamphagidae
pamunuan
pan
panahon
panam
panama
panamensis
panchlora
panchloridae
pandanaceae
pandanus
pandora
panellus
panesthia
panesthiidae
pangasinan
pangonius
paniculata
paniculatum
panicum
panimalay
panorpa
panorpidae
panurginus
panzer
panzeria
pap
papa
pape
paper
papers
paphiopedilum
papilio
papilion
papilionaceae
papilionidae
papilionoideae
papillata
papillosa
papp
papua
papuan
papuana
papuani
papuanus
papuensis
par
para
parabezzia
paraboea
paracentrobia
parachernes
parachironomus
paracladopelma
paraclius
paracoccus
paracrias
paradelphomyia
paradorydium
paradoxa
paradoxopsyllus
paradoxosomatidae
paradoxus
paraense
paraensis
paraeuchaeta
paragomphus
paraguay
paraguayensis
paragus
parai
paralastor
paraleptophlebia
paralimna
paralimnophila
paralimosina
paraliparis
parallela
parallelia
parallelus
paramonov
paramunnidae
parana
parancistrocerus
parandrinae
paranthura
paraonidae
parapercis
paraphaenocladius
paraphlepsius
paraphylax
pararge
parasigmoidella
parasit
parasite
parasites
parasitic
parasitica
parasitiformes
parasitoid
parasitoids
parasitos
parasmittina
parastacidae
parastasia
parastrangalis
parasyrisca
paratanytarsus
paratendipes
paratetrapedia
paratettix
parathesis
paratrechina
paratrichius
paratropus
paravilla
paravitrea
parc
pardosa
parectopa
parempheriella
parent
parenti
parentia
pareumenes
parhost
parides
parin
parinari
paris
parisus
park
parker
parkeri
parkhurst
parkia
parlatoria
parlatorini
parmasto
parmelia
parmeliaceae
parmotrema
parnassia
parnassius
parodi
parodia
parokya
paromalus
paronychia
parornix
parque
parra
parris
pars
parsa
parsonsia
part
parte
parthenicus
partial
particular
particulie
partido
partie
parties
partis
parts
parui
parva
parviflora
parviflorum
parvifolia
parvifolium
parvula
parvulus
parvum
parvus
parydra
paryphoconus
pas
pascoe
paspalum
passalora
passerini
passiflora
passifloraceae
pasteels
pastinaca
pat
patag
patagonica
patch
patellapis
patens
pathologie
patologia
patouillard
patricia
patrick
patrimoines
patterns
patula
pau
pauciflora
pauciflorum
pauesia
paugy
paul
paula
paulian
pauliani
paulista
paullinia
paulo
paulus
pauly
pauper
pauridiantha
pauropoda
pauropodidae
pauropus
pav
pavanelli
pavetta
pavia
pavonia
pawson
pax
paxton
pays
paz
pdf
pe
pearlfishes
pearson
pebrero
peces
peck
peckham
peckhamia
peckia
pecluma
pectinata
pectinatus
pectinicornia
pectoralis
peculiaris
pedagogicznej
pedaria
pedicellata
pedicia
pediciidae
pedicularis
pediobius
pedro
peduncularis
pedunculata
pegler
pegomya
pegoplata
pegoscapus
pei
peking
pekka
pelagic
pelargonium
pelastoneurus
pelecinidae
pelecopsis
pelecorhynchus
pelegrina
peleteria
pelexia
pelidnota
pelikula
peliococcus
pellaea
pellegrin
pellenes
pelletier
pellionia
pellizzari
pellucida
peloribates
peltacanthina
peltata
peltigera
pemphigus
pen
penaeidae
penaeoid
penai
pendant
pendula
peng
penicillata
penicillatus
penicillium
peninsula
peninsular
peninsularis
peniophora
penn
pennell
pennington
pennisetum
pennsylvania
penny
penstemon
pentacalia
pentacentrinae
pentagona
pentagonia
pentaphylacaceae
pentaschistis
pentatomidae
penteado
penthimia
people
peperomia
peponidium
per
perakensis
percheron
percidae
perciformes
percina
percy
perdita
perditorulus
peregrina
peregrinus
pereira
perenniporia
perez
pergalumna
peribaea
periclimenaeus
periclimenes
pericoma
perilampidae
perilampus
perilissus
perilitus
perinereis
peringueyi
peripatopsidae
periphyllus
periplaneta
periplus
peripsychoda
periscepsia
periscyphis
perisphaeriidae
perissomastix
perissus
peristylus
peritelus
peritrichia
perizoma
perkins
perkinsi
perla
perlidae
perlodidae
pernambuco
pero
peromyia
peromyscus
perplexa
perplexus
perpusilla
perrier
perrieri
perry
pers
perscheloribates
persea
persica
persicaria
persicus
persimilis
personata
persoon
persoonia
pertusaria
pertusariaceae
perty
peru
peruana
peruanus
peruv
peruvian
peruviana
peruvianum
peruvianus
pesarini
pesca
pesquisas
pest
pestalotiopsis
pests
petalocephala
petch
peter
peterburg
peterburgsk
peters
petersb
petersbourg
petersburg
petersen
peterson
petiolaris
petiolata
petit
petr
petra
petrak
petrie
petro
petrobia
petromyzontidae
petrop
petrophile
petrorossia
petrosia
petrovich
petrovitj
petrovitz
petrunkevitch
petter
pettibone
peu
peucedanum
peucetia
pez
peziza
pezzi
pfeiffer
pfl
pflanzen
pflanzenfam
pflanzenkrankheiten
pflanzenla
pflanzenr
pflanzenreich
pflanzenw
ph
phacelia
phaea
phaedrotoma
phaenocarpa
phaeochrous
phaeogenes
phaeophilacris
phaeosphaeria
phaeosphaeriaceae
phaeostigma
phaius
phalacrocorax
phalacrotophora
phalaenopsis
phalangopsidae
phalangopsinae
phallic
phalops
phaloria
phan
phanaeus
phanerochaetaceae
phanerochaete
phaneroptera
phaneropteridae
phaneropteriden
phaneropterinae
phanerotoma
phanerotomella
phanoperla
phaonia
pharaphodius
pharsalia
phascolion
phascolosoma
phaseolus
phasgonuridae
phasia
phasianidae
phasmatidae
phasmatodea
phasmid
phasmida
phasmidae
phasmidasf
phasmiden
phasmids
phasmodinae
phasmoiden
phasmoptera
pheidole
phelipanche
phelister
phellinus
phelotrupes
phelsuma
phenacaspis
phenacoccus
phenax
phengodidae
pherbellia
pherusa
phiale
phibalosomini
phidippus
phidoloporidae
phil
philad
philadelphia
philadelphus
philaenus
philautus
philhygra
philibert
philibertia
philinae
philip
philipp
philippe
philippi
philippine
philippinen
philippinensis
philippines
philipson
phillip
phillips
philobota
philodendron
philodicus
philodina
philodinidae
philodromidae
philodromus
philogenia
philoliche
philophylla
philoponella
philopotamidae
philopteridae
philornis
philos
philoscia
philosciidae
philosepedon
philosophical
philosophy
philotheca
philotrypesis
philygria
phintella
phlaeothripidae
phlebia
phlebotomine
phlebotomus
phlegmariurus
phlegra
phlox
phlugis
phobetes
phoebe
pholcid
pholcidae
pholcus
pholeomyia
pholetesor
pholiota
phoma
phomopsis
phora
phoracantha
phoradendron
phorbas
phorbia
phoridae
phorocera
phoroncidia
phoronida
phortica
photinia
photinus
photographic
phoxichilidiidae
phoxocephalidae
phradis
phraortes
phreatia
phrixgnathus
phronia
phrudinae
phrurolithus
phrynium
phrynobatrachus
phrynocephalus
phryxe
phthiracaridae
phthiracarus
phthiria
phthiridium
phumosia
phygadeuon
phyla
phylica
phylinae
phyllachora
phyllachoraceae
phyllachorales
phyllagathis
phyllanthaceae
phyllanthus
phyllium
phyllobius
phyllocnistis
phyllodactylus
phyllodoce
phyllodocida
phyllodocidae
phyllodromica
phyllogomphoides
phyllolabis
phyllonorycter
phyllophaga
phylloptera
phylloscopus
phyllostachys
phyllosticta
phyllotreta
phylloxera
phylloxeridae
phylogenetic
phylogenetics
phylogenetisches
phylogenie
phylogeny
phylum
phymatostetha
phyriens
phys
physalaemus
physalis
physaria
physcia
physciaceae
physiculus
physiologie
physique
physiques
physis
physocephala
physoconops
phytobia
phytocoris
phytodietus
phytoecia
phytoliriomyza
phytologia
phytomyptera
phytomyza
phytonomus
phytopath
phytopathologica
phytophagous
phytosciara
phytoseiid
phytoseiidae
phytoseiidbase
phytoseius
phytotax
phytotaxa
pi
piaui
pic
picardie
picea
piceus
pichi
pichon
picidae
pickard
picos
picramnia
picta
pictet
pictipennis
pictipes
pictorial
picturata
pictus
pidonia
pidopte
pie
piemonte
pier
pierce
pierfelice
pieridae
pieris
pierre
pieter
pietro
pila
pilaria
pilato
pilchards
pilea
pilg
pilger
pilifera
pilipes
pilipinas
pilipino
pillai
pillans
pilophorus
pilosa
pilosella
pilosocereus
pilosopo
pilosum
pilosus
pilsbry
pilze
pilzk
pimelea
pimelodella
pimelodidae
pimpinella
pimpla
pimplinae
pin
pinaagi
pinaceae
pinahalipot
pinalia
pinanbasaran
pinanga
pine
pines
pinetorum
ping
pinguicula
pinguis
pinhey
pini
pinicola
pinnaspis
pinnata
pinto
pinulongan
pinus
pio
piona
pionosyllis
piotr
piper
piperac
piperaceae
pipira
pipistrellus
pipiza
pipizella
pipoly
pipunculidae
pipunculus
pira
piracicaba
pirata
pires
piriqueta
pisauridae
pisces
pisikal
pisione
pismo
pista
pitard
pitcairnia
pithecellobium
pitkin
pito
pittier
pittieri
pittino
pittosporaceae
pittosporum
pityophthorus
piza
pl
placida
placidochromis
plagiata
plagiobothrys
plagiognathus
plagiolepis
plagiostenopterina
plagithmysus
plains
plana
planch
planchon
planchonella
planetella
planipennia
planktonic
planococcus
plant
plantae
plantaginaceae
plantago
plantarum
plantas
planters
plantes
plants
planus
plastophora
plata
platanthera
plate
plateau
platensis
plateros
plates
platnick
platycephalidae
platycheirus
platychelus
platycleis
platycnemididae
platycnemis
platycoelia
platygaster
platygastridae
platyhelminthes
platylabus
platylister
platylomalus
platymantis
platymetopius
platynectes
platynus
platypalpus
platypezidae
platyphylla
platyptilia
platypus
platyrhacidae
platyrhacus
platysoma
platystele
platystictidae
platystomatidae
platythyrea
platyura
platyzosteria
plaumanni
ple
plebeia
plebejus
plecia
plecoptera
plecopterasf
plecopteren
plectiscidea
plectranthias
plectris
plectrocnemia
plectrohyla
plenum
pleopeltis
pleospora
pleosporaceae
pleosporales
pleotrichophorus
plesioneuron
plestiodon
plethodon
plethodontidae
pleuralis
pleuraphodius
pleurobema
pleuronectidae
pleuronectiformes
pleurospermum
pleurota
pleurothallis
pleurothyrium
pleurotomella
pleurotus
plexauridae
plexippus
plicata
pligeti
plinia
plo
ploceus
plocoglottis
pls
plumbaginaceae
plumbea
plumosa
plumularia
plumulariidae
plus
plusieurs
pluteus
pmax
pneumatopteris
png
pnigalio
po
poa
poaceae
pob
poblacion
pochazia
poco
pocock
podagrion
podalonia
podismopsis
podkarpacie
podlech
podocarpaceae
podocarpus
podochilus
podomyrma
podonomus
podos
podoscirtinae
podospora
podostemaceae
podotenus
poecilanthrax
poecilia
poeciliidae
poecilimon
poecilochroa
poecilocloeus
poecilominettia
poecilopharis
poecilosclerida
poecilosomella
poeppig
pogonomyrmex
pohl
poilanei
point
points
poiret
poissons
poitou
pol
polana
poland
polaris
polaszek
polemoniaceae
polemonium
polhill
poli
policy
polikhety
polis
polish
polistes
polita
politica
political
politika
politikal
politiko
politus
polkinghorne
poll
pollenia
pollock
polonaise
polonya
polskie
poltys
polyalthia
polyamia
polyantha
polybia
polyblastus
polybotrya
polycarpa
polycarpaea
polycentropodidae
polycentropus
polychaeta
polychaete
polychaeten
polychaetes
polychaetous
polyche
polychrotidae
polycirrus
polyclinidae
polycyrtus
polycystididae
polydesmida
polydesmidae
polydesmus
polydora
polydrosus
polygala
polygalaceae
polygenis
polygonaceae
polygonatum
polygonum
polygyridae
polylepis
polymastia
polymera
polymerus
polymorpha
polymorphus
polynema
polynesia
polynoe
polynoidae
polyommatus
polyosma
polypedilum
polyphaga
polyphagidae
polyphagoidea
polyphylla
polypiers
polyplacidae
polyplax
polyplectropus
polypodiaceae
polypodium
polyporaceae
polypores
polyporus
polyrhachis
polyscias
polyspora
polystachya
polystichum
polysyncraton
polytechnic
polyura
pomacentridae
pomacentrus
pomaderris
pomeranya
pomona
ponana
ponder
ponera
ponges
pont
ponthieva
pontica
pontifica
poole
poore
poorly
pop
popillia
popov
popul
popular
populasyon
population
populus
por
porcellio
porcellionidae
porcellionides
porella
porifera
porina
porinaceae
porites
poropuntius
porphir
porphyrinia
porphyrophora
porras
porricondyla
porroglossum
port
portal
portanus
porter
porteri
portici
porto
portoricensis
portugal
portulaca
position
post
posta
poste
potamogeton
potentilla
pothos
pothyne
pouco
poulsen
pour
pourriot
pouteria
pouzar
pouzolzia
powell
powers
powiat
poyde
pp
practical
pradesh
prado
praecox
praestans
pragae
prague
praha
prain
prance
prangos
prantl
praon
praravinia
prasina
prasinocyma
prasophyllum
pratensis
pratt
prawns
praze
pre
predaceous
predators
predatory
prefectura
prefecture
prefektura
preferences
preiss
preliminar
preliminary
prell
premie
premier
prep
prepared
prepona
pres
present
presented
preserved
presidente
presl
preslia
press
prestonia
pretoria
preuss
preussen
preussischen
previously
pri
price
pridgeon
prima
primary
primates
primer
primera
primeve
primnoidae
primula
primulaceae
primus
prince
princeps
princesse
princeton
principales
principalmente
princis
pringlei
prins
prinsipe
prinsloo
print
printing
priolepis
prionides
prionidæ
prioninae
prionini
prionolabis
prionospio
prionus
prionyx
prir
pristaulacus
pristigasteridae
pristimantis
pristimera
pristomerus
pristomyrmex
pritchard
pritchardia
private
pro
proales
proasellus
probaryconus
probinsya
problems
probles
proc
procambarus
proceedings
procera
proceratium
procerus
prociphilus
procladius
procris
procryptocerus
proctacanthus
proctolabinae
proctor
procumbens
prod
prodasineura
prodecatoma
prodidomidae
prodidomus
prodr
prodromus
producta
productus
prof
professor
profile
proft
profunda
progomphus
progr
program
programme
progress
project
prolifera
prolixa
promachus
prominens
pronephrium
propedies
propinqua
propinquus
propose
proposed
proprioseiopsis
prosaptia
proscopiidae
proseriata
prosevania
prosimulium
prosoeca
prosopis
prosoplus
prosopocera
prostemmiulus
prosthechea
prostigmata
prostrata
protaetia
protandrena
protapanteles
protea
proteaceae
protection
protium
protocalliphora
protodrilus
protohermes
protonemura
protoneura
protoneuridae
protoptila
protoribates
protosticta
protozoans
protracheoniscus
protura
prout
prov
provancher
provenant
provence
province
provinces
provincia
provincial
provinzen
provisional
proxima
proximus
pru
pruinosa
pruinosus
prunus
psaenythia
psammisia
psammophila
psammotettix
psapharochrus
psathyrella
psathyrellaceae
psectrocladius
pselaphidae
pselaptrichus
psellidotus
pselliophora
pseudacteon
pseudagrion
pseudanophthalmus
pseudanthias
pseudapis
pseudaulacaspis
pseudepipona
pseuderanthemum
pseudicius
pseudione
pseudoanthidium
pseudobagrus
pseudobradya
pseudocercospora
pseudochromidae
pseudochromis
pseudococcidae
pseudococcus
pseudocyclosorus
pseudocyphellaria
pseudoderopeltis
pseudoeurycea
pseudogaurax
pseudolasius
pseudoligosita
pseudolimnophila
pseudolycoriella
pseudomma
pseudomops
pseudomyrmex
pseudonapomyza
pseudoneureclipsis
pseudoneuropteroid
pseudonicsara
pseudonortonia
pseudopanurgus
pseudophacopteron
pseudophasmatidae
pseudophylliden
pseudophyllinae
pseudophyllinen
pseudopoda
pseudosmittia
pseudostenophylax
pseudothyridium
pseudotocepheus
pseudotorymus
pseudotrochalus
pseudozygoneura
pseuduvaria
psidium
psila
psilidae
psilochorus
psilocybe
psilopa
psilotreta
psilotrichum
psittacanthus
psittacidae
psocoptera
psoralea
psorophora
psorospermum
psyche
psychidae
psychoda
psychodidae
psychomyia
psychomyiidae
psychotria
psydrax
psyl
psylla
psyllaephagus
psyllidae
psyllids
psylloidea
psyrassa
psyttalia
pt
ptecticus
pteraster
pterid
pteridaceae
pteris
pterocarpus
pterocheilus
pterocomma
pterogenia
pterogramma
pterolepis
pterolophia
pteromalidae
pteromalus
pteronemobius
pterophorus
pteroplistinae
pteropodidae
pteroptrix
pteropus
pteros
pterospermum
pterostichus
pterostylis
pterotricha
pterula
ptilinopus
ptilodexia
ptiloglossa
ptinidae
ptychadena
ptychodactiaria
ptychoptera
ptyelus
ptyssiglottis
pu
pub
puberula
pubescens
publ
public
publicac
publicacio
publicaties
publication
publications
publique
publish
published
publishers
publishing
puccinellia
puccinia
pucciniaceae
puebla
puella
puellina
puerto
pulchella
pulchellum
pulchellus
pulcher
pulcherrima
pulchra
pulchripes
pulchrum
pulicidae
puliciphora
pulitzer
pulla
pullata
pullus
pulmonata
pulong
pultenaea
pulverulenta
pulvinaria
pumila
pumilio
pumilum
pumilus
punctata
punctatum
punctatus
puncticollis
punctifrons
punctipennis
punctulata
punctulatus
pungens
puno
punoan
puntius
purcell
pure
puro
purposes
purpurascens
purpurea
purpureus
purpuricenus
purpusii
pursh
pusa
pusilla
pusillum
pusillus
pusio
pustulata
puto
putoidae
putranjivaceae
puy
puya
puyde
puydi
px
pycnandra
pycnogonida
pycnogonum
pycnonotus
pycnophyes
pycnoscelididae
pycreus
pygeum
pygmaea
pygmaeus
pygommatius
pygophora
pygopleurus
pygopodidae
pygora
pyralidae
pyramica
pyramidalis
pyramidellidae
pyrausta
pyre
pyrenaica
pyrenopeziza
pyrenula
pyrgocyphosoma
pyrgodesmidae
pyrgomorphidae
pyrgotidae
pyrgulopsis
pyrgus
pyriformis
pyrola
pyronemataceae
pyrostria
pyrrosia
pyrus
pyura
pyuridae
q
qd
qiao
qin
qinghai
quadrastichus
quadrata
quadratus
quadrimaculata
quadrimaculatus
quadripunctata
quae
qualea
quarantine
quararibea
quarterly
quartinia
quas
quate
quatre
quatrefages
quatrie
quatrieme
que
quebec
quedenfeldt
quednau
queensl
queensland
queiroz
quelques
quentin
quercus
quero
quezon
qui
quicke
quiina
quinn
quintero
quip
quoy
r
ra
rabdophaga
raccolte
raccolti
racemosa
rachicerus
rachispoda
radcl
radcliffe
radiata
radiation
radicans
radlk
radlkofer
rafae
rafael
raffles
rafinesque
ragge
ragni
rainbow
rainer
raion
raisonne
rajidae
rajiformes
ral
rale
raleigh
ralph
ramakrishna
ramalina
ramalinaceae
ramazzotti
ramb
rambold
rambur
rambycides
rami
ramme
ramos
ramosa
ramosissima
ramphotyphlops
ramularia
ramulus
ramusella
ran
rana
rancho
randall
randia
range
ranidae
ranunculaceae
ranunculus
rao
raphidiidae
rapporte
rar
rara
rard
rare
raros
rasbora
raspailia
raspailiidae
rast
rastenii
ratcliffe
rathbun
ration
rattus
ratzeburg
rauh
rault
rauno
rauvolfia
raven
ravenna
ravinia
ray
raychaudhuri
rayment
raymond
raynal
rayon
rays
rbg
rbgs
rchb
rd
rde
rdoba
re
rea
read
reading
real
reale
reared
rearing
rec
recencio
recent
recently
receuillis
rech
recherche
recherches
rechinger
recientes
recilia
reclassification
recommended
record
recorded
records
recta
rectus
recueil
recueillies
recueillis
recuellis
recurva
recurvata
red
redefinition
redescripciones
redescription
redescriptions
redhead
redia
redtenbacher
reducta
reduviidae
reed
reeder
reef
reeks
rees
reese
reeve
reference
references
reflexa
reformata
reg
regalis
regan
regarding
regel
regensburg
regia
regina
reginae
regio
region
regional
regione
regioni
regionow
regions
regis
register
regna
regni
regno
regnum
regularis
rehder
rehiyon
rehm
rehn
reiche
reichenbach
reichenbachia
reichsmuseum
reid
reihe
reinhard
reinhardt
reinhold
reino
reinwardtia
reip
reipubl
reis
reise
reisen
reiss
reitter
related
relation
relationship
relationships
relatives
relihiyon
remaining
remane
remarkable
remarks
remarques
remaudie
remijia
remm
remota
remy
ren
renato
renaud
rend
rendle
rendsburg
rendus
rene
renealmia
renfermant
renner
rentz
renvoize
rep
repanda
repens
reperensya
repert
report
reported
reports
repositories
repre
reprint
reproduction
rept
reptans
reptile
reptiles
reptilia
reptilien
reptilium
repu
republic
republica
republicii
republika
res
resa
research
reseda
reserva
reserve
resource
resources
resseliella
restio
restionaceae
restrepia
resultats
results
ret
retama
reteporella
reticulata
reticulatum
reticulatus
retrieved
retusa
retzius
reunion
reuter
rev
reveal
review
revis
revisa
revisao
revised
revisio
revision
revisional
revisionary
revisione
revisionen
revisions
revisited
revista
revoluta
revta
revue
rex
rey
reynolds
rez
rezenten
rg
rgen
rhabdoblatta
rhabdomastix
rhacaplacarus
rhacocleis
rhaconotus
rhacophoridae
rhacophorus
rhadinaea
rhadinopsylla
rhagio
rhagionidae
rhagoletis
rhagophthalmus
rhamnaceae
rhamnus
rhamphomyia
rhandlingar
rhantus
rhaphidophora
rhaphidophoridae
rhaphidophoroidea
rhaphium
rhaphuma
rhegmoclema
rhein
rheinlande
rhene
rheocricotopus
rheotanytarsus
rheum
rhin
rhinanthus
rhine
rhineland
rhinella
rhingia
rhiniidae
rhinocricidae
rhinocricus
rhinocypha
rhinogobius
rhinolophus
rhinophoridae
rhinotragini
rhionaeschna
rhipicephalus
rhipidia
rhipidura
rhipsalis
rhizoecus
rhizopulvinaria
rhizotrogus
rho
rhodacaridae
rhode
rhodesia
rhodesiella
rhodiola
rhododendron
rhodoneura
rhodopina
rhodora
rhodostemonodaphne
rhombodera
rhopalomyia
rhopalopsole
rhopus
rhorus
rhus
rhyacophila
rhyacophilidae
rhynchaenus
rhynchites
rhynchium
rhynchophora
rhynchosia
rhynchospora
rhynchota
rhynchotal
rhynchozoon
rhyncomya
rhyparochromidae
rhyparus
rhysida
rhysodesmus
rhyssemus
rhyssinae
rhyssomatus
rhytidoponera
rhytiphora
rhytismataceae
rhytismatales
ri
ria
riale
rias
riaux
ribaut
ribautia
ribeiro
ribera
ribes
ric
rica
ricains
rican
ricania
ricaniidae
ricaniiden
ricardo
rice
riceland
ricerche
rich
richard
richardiidae
richards
richardson
richman
richter
ricker
rico
ridionale
ridl
ridley
ridleyi
ridsdale
rie
riedelia
riedl
riek
riel
rieurement
riga
right
rigida
rigidoporus
rijks
ril
riley
rimavska
rimentale
rin
rineloricaria
ringuey
rinodina
rinorea
rio
riodinidae
rioja
rios
riparia
ripipteryx
rique
riques
ris
risbec
risiocnemis
risso
rissoidae
rita
rito
ritsema
ritter
rivadavia
rive
rivellia
river
rivera
rivista
rivularis
rivulidae
rivulus
rizal
rizzini
rj
rke
rl
rlitz
rmer
rn
rnberg
rneos
rner
rnicke
rnios
ro
rob
robbins
robert
roberto
roberts
robertsi
robertson
robertus
robineau
robins
robinson
robinsoni
robinsonii
robiquetia
robson
robusta
robustagramma
robustum
robustus
robyns
roccellaceae
rocha
rocinela
rock
rocky
rodentia
rodne
rodney
rodni
rodolfo
rodr
rodri
rodrigo
rodrigues
rodriguez
rodriguezia
rodzina
roem
roemer
roepera
roeselia
roewer
rogadinae
rogas
roger
rogers
rohacek
rohdendorf
rohwer
roi
rojas
roland
role
rolf
rolfe
rollins
rom
roma
romagn
romagna
romaleidae
roman
romand
romania
romano
rome
romero
romulea
ronald
roncus
rondani
rondeletia
ronderos
rondibilis
rondon
ronimo
ropalidia
roper
ropica
roque
roques
roret
rorippa
rosa
rosaceae
rosae
rosario
rose
rosea
rosellinia
rosemary
rosen
rosenburgh
rosenst
roseum
roseus
roskov
ross
rossellidae
rossi
rossica
rossicae
rossii
rossiiskoi
rossman
rostrata
rostratus
rotala
rotatoria
roth
rothmaler
rothmannia
rothschild
rothschildi
rotifera
rotterdam
rotunda
rotundata
rotundatus
rotundifolia
rouge
roughley
roupala
rourea
roussillon
roux
rowe
rowell
rowland
rowlandius
roxas
roxb
roxburgh
roy
royal
royale
royen
royle
rozprawy
rre
rsr
rster
rtidos
rto
rttemberg
ru
rubella
rubens
ruber
rubescens
rubi
rubia
rubiaceae
rubicunda
rubida
rubiginosa
rubra
rubripes
rubsaamen
rubtsov
rubus
rudd
rudebeck
rudgea
rudis
rudo
rudolf
rudolph
rudow
rudy
ruellia
rufa
rufescens
ruff
ruffo
ruficeps
ruficollis
ruficornis
rufipennis
rufipes
rufithorax
rufiventris
rufula
rufus
ruggiero
rugicollis
rugier
rugosa
rugosus
rugulosa
rugulosus
ruhland
ruiz
rumex
rundschau
rungia
rupert
rupestris
rupicola
ruprecht
rus
rusby
ruschia
ruspolia
russ
russe
russelia
russell
russia
russian
russischen
russkago
russkoe
russo
russula
russulaceae
rustica
rusticus
rusya
rutaceae
rutelidae
ruteliden
rutelinae
rutelini
ruthe
rutherford
rutilans
rutilia
ruwenzori
rwanda
ry
rydb
rydberg
rye
ryland
rymosia
rysunkow
rytidosperma
rytigynia
ryukyu
ryvarden
s
sa
saale
saarburg
saaristo
sabah
sabella
sabellaria
sabellariidae
sabellidae
sabethes
sabiaceae
sabicea
sabrosky
sabroskyi
sabulosa
sacc
saccardo
saccharomycetales
saccharomycetes
saccharum
sachalinensis
sacken
sada
sadao
sadton
saeger
saether
saga
sagami
sageretia
saggio
sagina
sagittaria
sahara
saigusa
saint
sainte
saissetia
saitis
saito
sakai
sakhalin
sakit
sakob
salacia
salamanca
salatan
salazar
saldanha
salganea
salicaceae
salicifolia
salicis
salina
salisbury
salix
salka
salle
salmon
salmonidae
salog
salomona
salsola
salt
saltator
saltatoria
saltatorial
salter
salticid
salticidae
salticiddb
salticus
salvador
salvelinus
salvia
salvii
salvin
salzburg
sam
sama
samaai
samar
sammlung
sammlungen
samoa
samson
samtang
samuel
samuels
san
sanborne
sanchezia
sand
sanders
sandflies
sando
sandwich
sandwith
sanguinea
sanguineus
sanguisorba
sanicula
sanidad
sanjappa
sankt
sans
sansevieria
sant
santa
santalaceae
santana
santander
santiago
santis
santo
santos
santschi
sao
saocat
saperda
saperdini
sapindaceae
saponaria
sapotaceae
sapporo
saprinus
sapromyza
saprosites
saprosma
sara
sarasin
sarawak
sarawakensis
sarcoglottis
sarcophaga
sarcophagidae
sarcophyton
sarcoptiformes
sardegna
sardines
sardinya
sargent
sargus
sarona
saropogon
sars
sarsia
sarthe
sasa
sasakawa
sasaki
sasscer
sastre
satchelliella
sato
saturniidae
satyrium
satyrus
saudi
sauma
saunders
saunier
saurauia
sauria
sauropus
saussure
saussurea
saussurei
sauter
sauterelles
sauteri
sauvagesia
savchenko
savigny
savoie
sawada
saxatilis
saxicola
saxifraga
saxifragaceae
saxony
say
saylor
sber
sborni
sbornik
sc
scaber
scabiosa
scabra
scaevola
scalaris
scale
scalenet
scales
scambus
scand
scandens
scandinaviae
scandinavica
scandix
scapheremaeus
scaphinotus
scaphoideus
scaphosepalum
scaphyglottis
scaphytopius
scaptia
scaptodrosophila
scaptomyza
scapularis
scapulaseius
scarab
scarabaeidae
scarabaeiden
scarabaeoidea
scarabaeus
scarabe
scarabs
scarbrough
scaridae
scaridiidae
scaris
scarus
scatella
scathophaga
scathophagidae
scatophila
scatopsciara
scatopse
scatopsidae
scelimenae
scelio
scelionidae
sceliphron
sceloporus
scelotrichia
scenopinidae
scenopinus
scha
schaefer
schaeffer
schatz
schauer
schauff
schaum
schaus
scheel
schefflera
schein
scheller
scheloribates
scheloribatidae
schen
schendylidae
schendylops
schenkel
schenkling
schicha
schiedea
schildla
schildlaus
schindler
schiner
schinus
schinz
schischkin
schismatoglottis
schistocerca
schistura
schizachyrium
schizaphis
schizocosa
schizomavella
schizomyia
schizonycha
schizopera
schizoporella
schizoprymnus
schizostachyum
schizotetranychus
schizothorax
schlechtendal
schlechter
schlechteri
schlegel
schleswig
schltdl
schltr
schlupfwespen
schluss
schmalfuss
schmarda
schmid
schmidt
schmidti
schmiedeknecht
schmitz
schmutterer
schneid
schneider
scho
schoch
schockaert
schoenlandella
schoenoplectus
schoenus
scholtz
school
schoolmeesters
schott
schotte
schoutedeni
schrader
schradera
schrank
schrenk
schriften
schriftenreihe
schrire
schro
schrottky
schu
schubart
schuh
schult
schultes
schulthess
schultz
schultze
schultzei
schulz
schulze
schum
schumacher
schumann
schuster
schutzgeb
schwant
schwartz
schwarz
schwarzer
schwarzhans
schwarzi
schwedischen
schweinf
schweinfurth
schweinfurthii
schweinitz
schweiz
schweizerischen
schwenke
sci
sciades
sciaenidae
scialabba
sciaphila
sciapus
sciara
sciaridae
science
sciences
scient
scientarum
scientiarum
scientific
scientifique
scientifiques
scienze
scilla
scinax
scincidae
sciobia
sciomyzidae
sciophila
scirpus
sciuridae
sclater
scleria
sclerolobium
scleropterinae
sclerotiniaceae
scoble
scolelepis
scoliocentra
scolopendra
scolopendridae
scolopendromorpha
scolopia
scoloplos
scolops
scolytodes
scolytus
scoparia
scopoli
scopolia
scopula
scorpaena
scorpaenidae
scorpaeniformes
scortechinii
scorzonera
scotinotylus
scotophaeus
scotopteryx
scott
scotti
scottish
scrapter
scripps
scripta
scrobipalpa
scrophularia
scrophulariaceae
scrupocellaria
scudder
scuola
scutellaria
scutellaris
scutellata
scutellatus
scutigera
scylaticus
scyliorhinidae
scyllarus
scymnus
scyphozoa
scythris
scytodes
scytodidae
se
sea
seabra
search
searsia
seas
sebaea
sebastes
sebastian
sebastiania
sec
secamone
seccio
second
seconde
secretary
sect
sectio
section
secunda
secundum
secundus
securidaca
sedentaria
sedis
sedum
see
seed
seemann
seeno
seevers
segeberg
segers
segger
segovia
segunda
seguy
sei
seidenf
seidenfaden
seine
seiner
sektion
seladerma
selaginella
selaginellaceae
selago
selbyana
selecta
selected
selena
selenaspidus
selenocephalus
selenophorus
selenopidae
selenops
selinum
selliguea
sellnickochthonius
seltene
selys
sem
semaeomyia
semaeopus
semecarpus
semenov
semidalis
semiothisa
sempervivum
sen
senberg
senck
senckenb
senckenberg
senckenbergiana
senckenbergischen
senecio
senegal
senegalensis
senilis
senior
senna
senotainia
sens
sensu
sentes
sentro
seoul
seow
sep
separata
sepedon
sephena
sepia
sepiidae
sepsidae
sepsis
september
septentrionalis
septie
septoria
septyembre
sequences
ser
sereno
serge
sergei
sergentomyia
sergestoid
sergey
sergio
seriana
serica
sericania
sericea
sericesthis
sericeus
sericini
sericoides
serie
series
serinus
serixia
serjania
serm
serolidae
seront
serpens
serpentes
serpents
serpocaulon
serpula
serpulidae
serra
serranidae
serranus
serrata
serratus
serromyia
serrulata
serruria
sertularella
sertularia
sertulariidae
serv
serve
server
servic
service
services
serville
servir
ses
sesbania
seseli
sesiidae
sesioctonus
sessiliflora
sessilifolia
sessilis
setaria
setifera
setiger
setigera
setodes
setosa
setosus
setsuya
setulosa
seu
seven
several
severnogo
sevilla
sewell
sex
sexual
seychellensis
seychelles
seyrig
seyrigi
shaanxi
shadab
shade
shads
shafee
shallow
shamshev
shan
shandong
shanghai
shannon
shannoni
shannonomyia
shanxi
shao
shark
sharkey
sharkov
sharks
sharma
sharp
sharpe
shatalkin
shaw
shawn
she
shear
sheets
shehbaz
shelf
shelford
shelfordia
shelley
shells
shen
shenefelt
sheng
sherman
shi
shiel
shiino
shikoku
shilling
shima
shimizu
shinji
shinonaga
shiraki
shoemaker
shore
shorea
short
showa
shrimps
shrubs
shu
shui
shumakov
shun
si
sia
sialis
siam
siamensis
siberia
sibinia
sibirica
sibiricus
siboga
sibogae
siboglinum
sic
sica
sichuan
sichuanensis
sicilia
sicily
sicula
sicyonia
sicyos
sida
side
sideroxylon
sidlangan
sidney
siebenburgischen
siedlce
sierra
sierwald
sigalionidae
sigara
sigfrid
sigismund
siglo
signalisations
signata
signatus
significance
signiphora
signoret
siit
sikkim
sikkimensis
sil
silba
silene
silesya
silk
siluriform
siluriformes
silva
silvae
silvatica
silveira
silvestri
silvestrii
silvestris
silvia
silvicola
silvius
similar
simile
similis
simillima
simillimus
simira
simmonds
simmons
simon
simoni
simplex
simpson
simpsonichthys
simulans
simulator
simuliidae
simulium
sin
since
sinclair
sine
sinensis
sinensium
singapore
singbahan
singer
singh
single
singles
singularis
sini
sinica
sinicae
sinirangan
sinningia
sinocyclocheilus
sinoni
sinophorus
sinopodisma
sinopsis
sinoxylon
sinuata
sinuatus
sinularia
sinuosa
sinurat
siparuna
siphanta
siphocampylus
siphona
siphonaptera
siphonogorgia
siphonophora
siphonophoridae
sipuncula
sipyloidea
sir
sire
siriella
sirj
sisoridae
sist
sistema
sistematica
sistens
sisymbrium
sisyphus
sisyra
sisyrinchium
site
sithole
sitobion
sitona
sitticus
sitz
sitzb
sitzungsberichte
sium
sive
sivec
six
sixth
siyam
siyudad
sjo
sjostedt
sk
ska
skandinaviens
skara
skates
skaya
skelley
skelton
skuse
sladen
slagtet
slaterocoris
slawomir
sler
sleum
sleumer
sliwa
sloanea
slope
slough
slovakia
slovenica
slovenske
sluiter
sm
small
smaller
smaragdina
smet
smetana
smicridea
smilacaceae
smilax
smit
smith
smithers
smithi
smithiana
smithii
smiths
smithson
smithsonian
smittia
smittina
smittinidae
smittium
smittoidea
snails
snake
snakes
snellen
snoeks
snow
snyder
so
soares
sobarocephala
sobota
sobralia
sobre
soc
sochinsogonia
social
socialis
socie
sociedad
sociedade
societa
societas
societatis
societe
society
socotra
sodalis
sodiro
soest
sofia
soft
sohmer
soika
soil
solanaceae
solange
solanum
soleidae
solem
solenopsis
soli
solida
solieria
solis
solitari
solitaria
solitarius
sollas
solms
solomon
solomonensis
solothurn
solpugidae
solva
somalia
somaliensis
somatidia
somatochlora
somatogyrus
some
somme
sommer
son
sond
sonder
sonerila
song
songs
sonorella
sons
soo
sophie
sophonia
sophora
sophronica
sophrops
sopra
sorbus
sordariomycetes
sordida
sordidus
sorex
sorghum
soria
soricidae
soror
soto
soula
soule
soulier
sound
source
sous
sousa
south
southeast
southeastern
southern
southwest
southwestern
souza
sov
soveticae
soviet
sowerby
sowie
soyka
sp
spach
spain
spalangia
spangler
spanish
spanning
sparasion
sparassidae
sparidae
sparsa
spathiinae
spathiphyllum
spathius
spathoglottis
spatholobus
spathulata
spatulata
spb
spe
spear
spearman
spec
special
speciation
specie
speciebus
specierum
species
speciesfungorum
specific
specificas
specimen
specimens
speciosa
speciosum
speciosus
specklinia
spectabilis
speg
spegazzini
speiser
spelda
spelobia
spence
spencer
speocera
spergularia
spermacoce
spermophilus
spermophora
speta
sphaeradenia
sphaeralcea
sphaerocera
sphaeroceridae
sphaerodactylus
sphaerodoropsis
sphaeroma
sphaeromatidae
sphaerophoria
sphaerostephanos
sphaerosyllis
sphaerotheriida
sphaerotherium
sphecidae
sphecodes
sphegigaster
sphegina
sphenometopa
sphenomorphus
sphenophorus
sphenorhina
spherillo
sphex
sphingidae
sphingonotus
sphinx
spicata
spidcat
spider
spiders
spigelia
spilichneumon
spilococcus
spilogona
spilomyia
spilosmylus
spilosoma
spindlar
spinelli
spinescens
spinicaudata
spinifer
spinifera
spinigera
spinipes
spinnen
spinnenfauna
spinnentiere
spinola
spinosa
spinosum
spinosus
spinotarsus
spinulosa
spio
spionidae
spiradiclis
spiraea
spiralis
spiranthes
spirembolus
spirobolellus
spirobolus
spirorbis
spirostreptidae
spirostreptoidea
spirostreptomorpha
spirostreptus
spix
spixiana
splendens
splendida
splendidus
spmweb
spogostylum
spolecnosti
spolia
sponge
sponges
spongia
spongiadae
spongiaires
spongien
spongillidae
spongodes
spooner
sporidesmium
sporisorium
sporobolus
spp
sprague
sprats
spreng
spring
springer
springs
spruce
spruceana
sprucei
spyridium
squalius
squamata
squamosa
squamosus
squarrosa
squez
squids
sr
sri
ssp
ssr
sssr
st
sta
staatlichen
staatliches
staatsinstituts
staatss
staatssamml
stachys
stackelberg
stackelbergi
stactobia
stages
stagonospora
staines
stal
stalle
standard
standl
standley
standleyi
stanford
stanhopea
stanley
stantonia
stapelia
stapf
stapfia
staphylinidae
starfishes
stark
starksia
starnes
starr
stary
stasimopus
state
states
stathmopoda
station
status
staudinger
stauffer
staurogyne
ste
steamer
steatoda
stebbing
stebnicka
stedt
steene
steenis
steenstrupia
stefan
stefaniola
stefano
steffan
stegana
steganacarus
stegastes
stehman
steiermark
steiermarks
stein
steinburg
steindachner
steiner
steinmann
stejneger
stekhoven
stelis
stellaria
stellata
stellatus
stelletta
stemmiulus
stemodia
stenamma
stenandrium
stenasellus
stenellipsis
stenhelia
stenhomalus
stenia
stenobothrus
stenocercus
stenochironomus
stenocranus
stenocrates
stenodyneriellus
stenodynerus
stenolophus
stenoma
stenomacrus
stenopelmatidae
stenopelmatoidea
stenophylax
stenophylla
stenophyllum
stenopneusticae
stenopogon
stenopsyche
stenoptera
stenospermation
stenostephanus
stenostomum
stenotabanus
stenus
stepanowitsch
stephan
stephanidae
stephanoderes
stephanopis
stephen
stephens
stephenson
sterculia
sternorrhyncha
steropleurus
sterphus
sterr
sterreichischen
sterreichischer
stethynium
stett
stettin
stettiner
steud
steudel
steven
stevenia
stevens
stevenson
stevia
stewart
steyerm
steyermark
steyermarkii
steyskal
sthenelais
stiassny
sticherus
stichopogon
stick
sticos
stictochironomus
stictopisthus
stiewe
stigma
stigmacros
stigmaphyllon
stigmatica
stigmidium
stilobezzia
stilpnoiden
stilpnus
stilpon
stimpson
stipa
stipagrostis
stipitata
stirton
stizocera
sto
stock
stockh
stockholm
stoetzel
stoll
stolonifera
stomatium
stomiidae
stone
stonedahl
stoneflies
stonefly
stor
storena
storia
storozhenko
storr
story
str
strabomantidae
straits
straminea
strand
strandi
strangalia
strasser
strategus
stratiomyidae
stratiomys
strauch
streblocera
strepsiptera
streptanthus
streptocarpus
streptocephalus
striata
striatum
striatus
stricta
stridulation
striga
strigamia
strigidae
strigoderma
strigosa
strigula
strobilanthes
strobl
strong
strongylophthalmyia
strongylosoma
strophanthus
strophariaceae
stroudia
strouhal
structure
structures
strumigenys
struthanthus
strychnos
stsl
stuart
stuckenbergi
stud
studer
studi
studia
studien
studies
studio
studium
study
studying
stueber
sturm
stuttgart
stuttgarter
styela
styelidae
stygobromus
stylaster
stylasteridae
stylata
stylidiaceae
stylidium
stylogaster
stylogyne
styloniscus
stylops
stylosanthes
styrax
styria
styringomyia
su
sua
suaeda
suaveolens
suavis
sub
subantarctic
subba
subcontinent
subcordata
suberites
suberitidae
subfam
subfami
subfamilia
subfamiliae
subfamilie
subfamilies
subfamiliy
subfamily
subfasciata
subge
subgen
subgenera
subgenus
subi
sublette
suborbo
suborde
suborder
suborders
subordo
subregion
subsessilis
subspecies
subterranea
subtilis
subtribe
subtropical
subulata
suc
succ
sucking
suctobelbella
suctobelbidae
sud
sudamerlycaste
sudan
sudre
sue
sueciae
suecica
sueo
suffusa
sugad
sugar
sugbo
sugbong
sugli
sugonjaev
suh
suhito
suhpalacsa
sui
suillia
suillus
suisse
suite
sul
sulawesi
sulcata
sulcatus
sulla
sulle
sulod
sulphurea
sulpiz
sultan
sultats
sultus
sumala
sumatera
sumatra
sumatrana
sumatranus
sumatrensis
summary
summerh
summerhayes
sumpay
sumptu
sun
sunda
sunod
sunyatsenia
sup
superba
superbus
superfamilia
superfamily
superior
superiore
suppl
supple
supplement
supplementa
supplementary
supplemento
supplementum
supply
sur
suragina
sureshan
surigao
surinam
suriname
surinamensis
surrounding
surv
survey
sus
susan
sutton
suturalis
suzuki
sv
svederus
svensk
svenska
sverige
sveriges
svetlana
svg
sw
swain
swainson
swainsona
swallen
swartz
swartzia
sweden
swedish
sweeney
sweet
sweltsa
swertia
swinhoe
switzerland
swiza
syagrus
syahan
sybistroma
sybra
sycon
sycophila
sydney
sydow
sydowia
sykes
syll
syllepte
syllidae
syllis
syllitus
sylvain
sylvatica
sylvestris
sylvia
sylvicola
sylviidae
symb
symbolae
symmorphus
sympetrum
sympherobius
symphurus
symphyla
symphytum
sympiesis
symplecta
symplectoscyphus
symplocaceae
symploce
symplocos
symposium
sympycnus
syn
synagelides
synagris
synaldis
synanthedon
synaphea
synasellus
synave
syncephalis
synchaeta
synchiropus
syneches
synema
syngnathidae
syngonanthus
synidotea
synodontis
synodus
synoicum
synonomic
synonym
synonyma
synonymia
synonymic
synonymical
synonymicus
synonymie
synonymies
synonymis
synonyms
synonymy
synop
synopeas
synopses
synopsis
synoptic
synoptical
synoptische
syntormon
syntretus
syria
syriaca
syriacus
syrie
syritta
syrphidae
syrphoctonus
syrphophagus
syrphus
sysmyr
syst
systasis
systates
syste
systellochela
system
systema
systematic
systematica
systematicae
systematics
systematicus
systematik
systematische
systematischen
systematyczno
systems
systoechus
systropus
syudad
syzeuctus
syzygium
sze
szepligeti
szeptycki
szkoly
szlach
szlachetko
szlo
szynski
t
ta
tab
tabanidae
tabanus
tabelle
tabernaemontana
table
tables
tabok
tachikawa
tachina
tachinidae
tachydromia
tachytrechus
tacloban
taczanowski
tadao
tadzhikistan
tadzhikskoi
taenaris
taeniaptera
taeniata
taeniatus
taeniodera
taeniophyllum
taeniopterygidae
taf
tag
taga
tagalog
tagsa
taharana
tai
taihoku
taipei
taiti
taiwan
taiwana
taiwanensis
takada
takagi
takahashi
takakuwa
takaoka
takashi
takasi
taken
takenoshin
takeo
takeuchi
takiya
tale
talisia
talwar
tamaricella
tamarix
tamarixia
tambourissa
tamerlan
tamopsis
tamsi
tan
tanacetum
tanaidacea
tanaka
tanaostigmodes
tanasevitch
tandon
tang
tanganyika
tangara
tanita
tantilla
tanyproctus
tanypus
tanystylum
tanytarsus
tanzania
tao
tapeinosperma
taphrina
tapinocyba
tapinoma
tarachodes
tarachodidae
taraxacum
tarbinsky
tard
tardieu
tardigrada
tardigrade
tardigrades
tardigradi
tarenna
targioni
tarn
tarragona
tarsalis
taschenberg
taschkent
tasiocera
tasmania
tasmanian
tasmanica
tasmaniensis
tat
tatak
tatsuya
tattersall
taubert
taurica
tautoneura
tavakilian
tavares
tawar
tawo
tax
taxa
taxapad
taxon
taxono
taxonomi
taxonomia
taxonomic
taxonomical
taxonomie
taxonomische
taxonomy
taylor
taylori
te
team
teau
tech
technical
technology
technomyrmex
tectaria
tectariaceae
tedania
tegenaria
teiidae
teil
teinobasis
tel
telamonia
telebasis
telenga
telenomus
teleogryllus
teleostei
telipogon
tellina
telmatobius
telmatoscopus
telopea
teloschistaceae
temelucha
temminck
temperate
ten
tenax
tenebrosa
tenedos
tenella
tenellus
tenera
tenerife
tenison
tennessee
tent
tentamen
tenthredinidae
tenue
tenuicornis
tenuiflora
tenuifolia
tenuipalpidae
tenuipalpidbase
tenuipalpus
tenuipes
tenuiphantes
tenuis
tenuissima
teocchi
teodor
tephritidae
tephritis
tephritopyrgota
tephrochlamys
tephrosia
tepper
ter
teratosphaeria
terebella
terebellidae
terebellides
terellia
terence
teres
teretrius
tereznikova
teritoryal
teritoryo
termeszetrajzi
terminalia
terminalis
termination
ternstroemia
terpsichore
terra
terrestre
terrestres
terrestri
terrestria
terrestrial
terrestris
territoire
territories
territory
terry
tersbourg
tersilochus
teruel
tervuren
tes
tessellata
tessellatus
tessmannii
testacea
testaceus
testudinella
testudines
tetanocera
tethina
tethya
tetilla
tetrablemmidae
tetracampidae
tetracanthella
tetracera
tetracondylidae
tetragnatha
tetragnathidae
tetragona
tetragoneura
tetragonia
tetralonia
tetraloniella
tetramesa
tetramorium
tetranchyroderma
tetranychidae
tetranychus
tetraodontidae
tetraponera
tetrapterys
tetraria
tetrastemma
tetrastichinae
tetrastichus
tetrastigma
tetratheca
tetrigidae
tetriginae
tetrigoidea
tetrix
tetsuo
tettig
tettigidae
tettigidea
tettigonia
tettigoniidae
tettigoniodea
tettigonioidea
tettigonoidea
teucholabis
teuchophorus
teugels
teuthida
texana
texananus
texanus
texas
texensis
text
th
thagria
thai
thailand
thalamoporella
thalassinidea
thaler
thalictrum
thamnophilidae
thamnotettix
thanatus
tharra
that
thatcher
thaumalea
thaumaleidae
thaumatogelis
thaumatomyia
thaxter
the
theaceae
thecla
theil
their
theischinger
thelcticopis
thelephora
thelotrema
thelymitra
thelypteridaceae
thelypteris
thenea
theobald
theod
theodoor
theodor
theodore
theodoric
theophile
theory
theraphosidae
thereva
therevidae
thericleidae
theridiidae
theridion
theron
theronia
thes
theses
thesis
thesium
thespidae
thevenetimyia
thgen
thibaudia
thie
thiele
thienemanniella
thiere
thierry
thinophilus
thionia
thiopische
thiopischen
third
thirteen
thirty
this
thismia
thlaspi
thodique
thomas
thomasi
thomisidae
thomisus
thompson
thompsoni
thoms
thomson
thomsoni
thomsoniani
thomsonii
thoracica
thoracicus
thoracochaeta
thorectes
thorectidae
thorelii
thorell
thos
those
thottea
thraupidae
threatened
three
thricops
thrinchostoma
thripidae
thrips
thrixspermum
through
thrypticus
thu
thuan
thuiaria
thulin
thumb
thumbnail
thunb
thunberg
thunbergia
thunot
thuringen
thuringia
thw
thwaites
thyene
thymelaeaceae
thymoites
thyreodon
thyreus
thyridanthrax
thyrididae
thys
thysanoptera
thysanotus
ti
tian
tibellus
tibet
tibiae
tibialis
tibouchina
tica
ticino
tick
ticks
ticksbase
tico
tidskr
tidskrift
tidsskr
tidsskrift
tiefsee
tiegh
tienne
tiere
tierformen
tiergeographie
tierk
tierkd
tierkunde
tierreich
tierwelt
tigaman
tiger
tigr
tigridia
tigrina
tigris
tijdschr
tijdschrift
tikader
tikang
til
tilapia
tilia
till
tillandsia
tilletia
tillyard
tim
timber
timberlake
time
timea
timema
times
timia
timm
timonius
timorensis
timoshkin
timothy
tinatawag
tindale
tinea
tineidae
tingena
tingidae
tinkham
tinmudlok
tinodes
tipi
tipicos
tipos
tippins
tippmann
tipula
tipulidae
tipulodina
tisbe
titan
title
tixier
tjeder
tken
tmarus
tmesisternus
to
tobias
tocantins
tocker
tococa
toda
today
todd
together
togo
tohoku
tohru
toines
tokai
tokuichi
tokunaga
tokyo
tol
toledo
tolkanitz
toll
tolmie
tologie
tom
toma
tomas
tomaspis
tome
tomentella
tomentosa
tomentosum
tomentosus
tomitaro
tomophyllum
tomoplagia
tomopteris
tomosvaryella
tomus
ton
tong
tonides
tonkin
tonkinensis
tonnoir
top
topobea
topomyia
toppdoma
topsent
tord
tordylium
torenia
torilis
torino
toro
torquata
torr
torre
torres
torrey
torsten
tortonese
tortricidae
tortrix
tortuosa
torymidae
torymoides
torymus
tos
toscana
tosio
tosquinet
tot
toulouse
tour
tournefortia
tous
tovomita
toward
towards
town
townes
townesi
townsend
townsendi
toxocarpus
toxomerus
toxophora
toxorhina
toxorhynchites
toyama
toyohi
tozzetti
tr
trab
trabajos
trachelas
trachelipodidae
trachelipus
tracheophyta
trachusa
trachyandra
trachylepis
trachymene
trachymyrmex
trachysphyrus
tradescantia
tragia
tragopa
traite
trametes
tranfaglia
trans
transactions
transeius
transiens
translated
translation
transvaal
transvaalensis
transversa
transversalis
transversus
trappe
trathala
traub
traugott
traulia
trav
travail
travassos
travaux
tre
treadwell
trechus
tree
trees
trel
trelease
tremella
trenc
trentepohlia
trentino
trento
trenton
tres
treubia
trewavas
tria
triaenodes
triana
triangularis
triangulata
triapitsyn
triaspis
trib
tribal
tribalus
tribe
tribes
tribo
tribu
tribus
tricalysia
tricentrus
trichacis
trichaphodius
trichesthes
trichilia
trichobius
trichocentrum
trichocera
trichocerca
trichocercidae
trichoceridae
trichocomaceae
trichoderma
trichodesma
trichoglottis
trichogramma
trichogrammatidae
tricholoma
tricholomataceae
trichomalopsis
trichomalus
trichomanes
trichomasthus
trichomycteridae
trichomycterus
trichomyia
trichoniscidae
trichoniscoides
trichoniscus
trichonta
trichophthalma
trichophyton
trichopilia
trichopoda
trichoptera
trichorhina
trichosalpinx
trichosanthes
trichosetodes
trichosia
trichospermum
trichotanypus
trichotosia
tricimba
triclistus
tricolor
tricorynus
tricyphona
tridactyle
tridactylidae
tridactyloidea
tridens
tridentata
tridentatus
trididemnum
trieces
triepeolus
trier
trieste
trifasciata
trifasciatus
trifida
triflora
trifolium
triglidae
trigona
trigonalidae
trigonella
trigonidiinae
trigonidium
trigonoptera
trigonostemon
trigonotis
trilineata
trilineatus
trillium
triloba
trilobata
trimaculata
trimalaconothrus
trimerotropis
trimest
trimma
trin
trinidad
trinitatis
trinius
triodia
triodontella
triodopsis
trionymus
trioxys
trioza
triozidae
tripartita
triphleba
triplectides
triplophysa
tripogon
tripteroides
tripterygiidae
tripunctata
trirhithrum
trisetum
tristaniopsis
tristis
triteleia
trithemis
triumfetta
trivittata
trixoscelis
trjapitzin
trnava
trochalus
trochanteriidae
trochidae
trochilidae
trochosa
trogidae
troglodytes
troglohyphantes
trois
troisie
trollius
trombidiformes
trop
tropaeolum
tropica
tropical
tropicale
tropicalis
tropicus
tropidia
tropidion
tropidocephala
tropidosteptes
tropiduchidae
tropiduridae
tropischen
trott
trotter
trox
troyte
trudy
true
truman
truncata
truncatus
trupanea
trust
trustees
trychosis
tryon
trypanaeus
trypeta
trypeticus
trypetisoma
tryphon
tryphonider
tryphonidum
tryphoninae
tsacas
tsai
tseng
tsiang
tsina
tsino
tsuan
tter
ttingen
tu
tuberculata
tuberculatum
tuberculatus
tuberosa
tubeufiaceae
tubificidae
tubificoides
tubig
tubtob
tubulipora
tucker
tucuman
tude
tudes
tuig
tul
tulasne
tulipa
tullgren
tulo
tumida
tuna
tungod
tunisia
tunisie
turanogryllus
turbellaria
turbicellepora
turbinata
turbonilla
turcz
turczaninow
turdidae
turdus
turgeon
turin
turkestan
turkestanica
turkey
turkeya
turkish
turkmenistan
turner
turnera
turneri
turo
turraea
turridae
turrill
tuthill
tutin
tuttle
tutzing
twelve
twenty
two
tycherus
tychius
tylden
tylecodon
tyler
tylophora
tympanogaster
type
typen
types
typha
typhlocyba
typhlocybinae
typhlodromips
typhlodromus
typhlopidae
typhlops
typhlotanais
typhonium
typhula
typi
typica
typique
typophyllum
typosyllis
tyrannidae
tyrannochthonius
tyrol
tyromyces
tzvelev
u
uapaca
uber
ubersicht
ubirajara
ubos
uc
ucd
uchida
udagawa
ueber
uebersicht
ueckermann
ueshima
uetz
ufige
ug
ugalde
uganda
ugolino
ugsa
ugyops
uhler
uitlandsche
uk
ukraine
ukrainian
ukrainskoi
ulbrich
ule
ulei
ulf
ulidiidae
uliginosa
ulmer
ulmus
uloboridae
uloborus
ulohan
ulrich
ulster
um
uma
umbellata
umbellifer
umbellifers
umbilicaria
umbrina
umbrosa
umgebenden
umgebung
un
una
uncaria
uncinata
uncinatus
uncinia
und
under
understanding
undescribed
undulata
undulatus
une
unesco
ungarischen
ungarn
ungricht
unguiculata
uni
unibersidad
unica
unicolor
unido
unidos
uniflora
uniformis
union
unionidae
unionis
united
univ
universal
universidad
universidade
universita
universitatis
universite
university
unknown
unom
unonopsis
unpublished
unrecorded
unter
unterarten
unterfamilie
untersuchungen
up
upat
update
updated
updates
upemba
upod
upon
upper
uppsala
uppstallning
upright
upsal
upsaliae
uracanthus
uranotaenia
urb
urban
urera
urgleptes
urhe
uriz
url
urmo
urocystis
uroleucon
uromenus
uromyces
urophora
urophyllum
urosigalphus
uroxys
urquhart
urss
urtica
urticaceae
uruguay
uruigbaw
uruubos
us
usa
usda
use
usen
user
usia
uska
uso
ussr
ussuriensis
ustilaginaceae
ustilaginales
usually
utah
utahensis
utetes
utrecht
utricularia
uuml
uusahan
uvaria
uvarov
uvaroviella
uwe
uyeno
uzbekistan
v
va
vaccinium
vacelet
vachal
vagans
vaginata
vahl
vaillant
vainio
val
valais
valdivia
valencia
valenciana
valenciennes
valentine
valeriana
valerianella
valeton
valid
valida
validus
valladolid
valle
valley
value
van
vance
vancouver
vanda
vandel
vandellia
vangueria
vanilla
vaniz
vanschuytbroeck
vanuatu
var
varanus
vararia
vargas
vari
varia
variabilis
varians
variation
varicolor
varicorhinus
variegata
variegatus
various
varipes
varius
varronia
varshney
vary
vasc
vasco
vascular
vasculares
vasey
vasil
vasilievich
vasseur
vassilczenko
vatica
vatke
vaucluse
vaud
vaurie
ve
vecchione
vedy
veg
vega
vegetal
vegetale
vel
velarifictorus
veldkamp
velenovsky
vell
vellozia
velloziaceae
velox
velutina
velutinum
velutinus
vende
veneto
venez
venezia
venezillo
venezolana
venezuela
venezuelensis
venosa
ventilago
ventralis
ventricosa
venturia
venturiaceae
venusta
venustus
vepidi
vepris
ver
vera
verae
verbascum
verbena
verbesina
verbreitung
verdc
verdcourt
verde
verein
vereine
vereines
vereins
vereniging
verh
verhandelingen
verhandlungen
verhoeff
verlag
vermeulen
verna
vernalis
vernon
vernonia
vero
verona
veronica
verrallina
verrill
verrucaria
verrucariaceae
verrucosa
verrucosus
versicolor
version
versuch
vertebrates
verteneuil
verticalis
verticillata
verticordia
vertigo
vervoort
verzeichnis
verzeichniss
vespa
vespertilionidae
vespidae
vespidi
vespoidea
vestita
vestitus
vestnik
vet
vetensakad
vetensk
vetenskaps
vetenskapsakademiens
vezda
vi
viaggio
viana
viburnum
vicente
vicenza
vicia
vicina
vicine
vicinity
vicinus
viciria
vickery
vict
victor
victoria
victoriae
victorian
vid
vidal
vidensk
videnskabelige
video
vidua
vie
vieillot
vienna
vienne
viereck
viet
vietnam
vietnamensis
viette
view
viggiani
vigna
vignes
vignon
viguier
vii
viii
viktor
vila
vilaine
vilgalys
vilkamaa
villa
villanueva
ville
villela
villeneuve
villers
villiers
villiersi
villosa
villosum
villosus
vincent
vincetoxicum
vine
vink
viola
violacea
violaceae
violaceus
violovitsh
viperidae
vipio
viraktamath
virens
vireo
virescens
virgata
virgatus
virgin
virginia
viridescens
viridiflora
viridis
viridula
virola
vis
visaya
viscosa
viscosia
viscum
vision
vismia
vitaceae
vitaly
vitiensis
vitis
vitripennis
vittaria
vittata
vittatus
vivem
vives
vizcaya
vlaams
vlaanderen
vladimir
vladimirovich
vladivostok
vo
vochysia
vochysiaceae
voegtlin
voeltzkow
vogel
voisins
voivodato
vol
volker
vollenhovia
vollesen
vols
volucella
volume
volumen
volumes
vom
von
voor
vorarlberg
vorderasien
vorla
vorpommern
vorwiegend
vos
vosges
voss
vostoka
voy
voyage
vratislaviae
vre
vres
vriesea
vropte
vrydagzynea
vses
vsesoyeiznogo
vulgaris
vulgo
vulkaneifel
vvedensky
vyssh
w
wa
wageningen
wagler
wagner
wagneri
wagneriana
wahl
wahlberg
wahlenbergia
wainstein
wakefield
walckenaer
walckenaeria
waldheim
wales
walker
walkeri
wall
wallace
wallacei
walley
wallich
wallichii
wallingford
wallis
wallonie
walo
walpers
walsh
walsingham
walt
walter
walters
waltheria
walton
wang
wanless
war
waray
waraynon
warb
warburg
warchalowska
ward
wardii
warncke
warneckea
warren
warsaw
warszawa
was
wash
washington
wasmann
wasp
wasps
wassh
wasshausen
watanabe
water
waterhouse
waters
waterston
watling
wats
watson
watsonia
wattenwyl
waw
wax
wayne
wcsp
weaver
weaving
web
webb
webbia
weber
weberbaueri
weberi
websayt
website
webster
wedd
weddell
weele
wegrzynowicz
wei
weidner
weigend
weiler
weinmannia
weiss
weitere
weiterer
weitzman
welbourn
wellington
wells
welt
welwitsch
welwitschii
wen
wendelbo
wendell
wendl
wendland
wendlandia
wenig
wenzel
werff
werner
werneri
wernham
wesley
wesm
wesmael
wesmaelius
wesolowska
west
westafrika
western
westerwald
westerwaldkreis
westfalens
westlichen
westphalia
westw
westwood
wet
weta
wetensch
wetenschappen
wh
whalley
wharton
wheeler
wheeleri
which
white
whiteflies
whitehead
whitei
whitley
whitten
whittier
wickham
wicklow
wide
wie
wiebes
wiedemann
wiedemannia
wiedenmayer
wiehler
wien
wiener
wiens
wiesbaden
wieser
wight
wikstroemia
wilbur
wilcox
wilczek
wild
wilde
wildekamp
wildlife
wilfred
wilhelm
wilhem
wilkes
wilkinson
will
willard
willd
willdenow
willdenowia
willem
willemia
willemse
willey
willi
william
williams
williamsi
williamsii
williamson
willink
willis
williston
willy
wilson
wilsoni
wilsonii
wilton
wimm
wimmer
winaray
windham
wing
wingfield
wings
winifred
winkl
winnertz
winnertzia
winston
winter
winterbottom
winthemia
wintrebert
wirbellose
wirjoatmodjo
wirth
wirthi
wisconsin
wise
wiss
wissadula
wissenschaften
wissenschaftliche
wissenschaftlichen
with
within
withius
witte
wittei
wittlich
wittmer
wladyslaw
wojciech
wolf
wolff
wolfgang
wolfram
wolfsgarden
wollaston
women
wong
wood
woodii
woodiphora
woods
woodsia
woodson
woolley
woon
work
working
works
world
worm
wormaldia
worms
wray
wright
wrightia
wrightii
writ
wroclaw
wsrp
wu
wulfila
wulp
wunderlich
wurdack
wurdackii
wurmbea
wuyi
www
wydundra
wyeomyia
wygodzinsky
wyk
wyoming
wytsman
wyzszej
x
xanthesma
xanthophenax
xanthophyllum
xanthopimpla
xanthorhoe
xanthorrhoeaceae
xanthosoma
xanthostemon
xaver
xavier
xenia
xenillus
xenofrea
xenofreini
xenophrys
xenoplatyura
xenopsylla
xenylla
xerophaeus
xerophila
xestia
xestoblatta
xestocephalus
xi
xia
xiangwei
xiao
xico
xie
xii
xiii
xingbao
xinjiang
xiphidiopsis
xiphocentron
xiphosomella
xiv
xix
xizang
xizangensis
xizicus
xl
xlii
xliv
xlvii
xlviii
xons
xorides
xoridinae
xu
xue
xv
xvi
xvii
xviii
xx
xxi
xxii
xxiii
xxiv
xxix
xxv
xxvi
xxvii
xxviii
xxxii
xxxiii
xxxix
xxxv
xxxvi
xxxvii
xya
xylaria
xylariaceae
xyleborus
xyletobius
xyleutes
xylocopa
xylophanes
xylopia
xylosma
xylota
xylotrechus
xynobius
xyridaceae
xyris
xysmalobium
xysticus
xystodesmidae
xystrocera
y
yaginuma
yaginumaella
yale
yamamoto
yamazaki
yan
yana
yang
yanus
yao
yasnosh
yat
ye
year
years
yeast
yeates
yelicones
yellow
yemen
yevgeni
yezoceryx
yi
yih
yin
yinaknan
ying
yllenus
yngve
yong
yonne
york
yoshida
yoshimoto
yoshino
you
young
yousuf
ypthima
yu
yuan
yucca
yue
yun
yunck
yuncker
yunnan
yunnanensis
yuri
yushania
yvelines
yves
yvri
z
za
zabka
zaglyptogastra
zagulajev
zahlbr
zahlbruckner
zahradni
zaire
zaitzev
zajciw
zak
zakarias
zaluzianskya
zamarada
zambia
zamboanga
zamia
zamiaceae
zamora
zanthoxylum
zanzibar
zaphne
zapparoli
zaprionus
zaprochilinae
zaragoza
zashchita
zatypota
zavattari
zayas
zborni
zdzisława
ze
zea
zeal
zealand
zebra
zehneria
zehntner
zeitschr
zeitschrift
zeitung
zelandiae
zelandotipula
zell
zeller
zelotes
zenkeri
zentral
zephronia
zephyranthes
zeria
zerova
zeszyty
zethus
zettel
zetterstedt
zeuxine
zeyh
zeyher
zeyl
zeylanica
zh
zhang
zhao
zhejiang
zheng
zhi
zhiltzova
zhong
zhongshan
zhou
zhu
zhurn
zhurnal
zibrowius
zieria
zika
zilah
zimbabwe
zimiromus
zimmer
zimmerman
zimsen
zin
zingiber
zingiberaceae
ziziphus
zleme
znanych
zoarcidae
zobodat
zodariidae
zodarion
zodion
zombrus
zompro
zona
zonata
zonatus
zone
zoo
zoogeograficzne
zoogeographic
zoogeographical
zoogeography
zool
zoolo
zoologi
zoologia
zoologica
zoologicae
zoological
zoologicheskii
zoologicheskiy
zoologicheskogo
zoologici
zoologico
zoologie
zoologii
zoologique
zoologiques
zoologisch
zoologische
zoologischen
zoologischer
zoologisches
zoologist
zoologitscheskogo
zoology
zoonomen
zoosystema
zoosystematica
zootaxa
zootaxon
zootaxonomica
zoraida
zornia
zorotypus
zosterops
zs
ztg
zu
zucc
zum
zumpt
zur
zusammenstellung
zwei
zweite
zweiter
zwick
zwickau
zwischen
zygaena
zygaenidae
zygia
zygina
zyginama
zygogynum
zygomycetes
zygomycota
zygomyia
zygophylax
zygophyllaceae
zygophyllum
zygoptera
zygothrica
{
|
}
~
¦
«
°
²
´
»
×
ło
ˈ
ː
̀
́
̂
̃
̄
̆
̇
̈
̉
̊
̌
̓
̛
̣
̦
̧
̨
α
ς
о
ٔ
ा
्
்
ി
്
‎
–
—
‘
’
‚
“
”
„
†
•
…
→
↔
↷
③
④
⑦
△
♀
♂
⺀
⺄
⺆
⺈
⺊
⺌
⺕
⺝
⺸
⺼
⿰
⿱
⿲
⿳
⿴
⿵
⿶
⿷
⿸
⿹
⿺
⿻
〢
い
え
か
く
け
た
て
と
の
は
ら
れ
゙
゚
ア
イ
ウ
オ
カ
キ
ク
コ
サ
シ
ス
タ
チ
ッ
テ
ト
ハ
ヒ
フ
ホ
マ
ユ
ョ
ラ
リ
ル
ロ
ン
・
ー
㇁
㇂
㇄
㇇
㇈
㇉
㇓
㐁
㐄
㐅
㐌
㐫
㐬
㐭
㐮
㐱
㑒
㒵
㒸
㒼
㓁
㓞
㔾
㕛
㕣
㖾
㘝
㚅
㚇
㚔
㚘
㝉
㝡
㝴
㝵
㞋
㞢
㞷
㠩
㠭
㠯
㡀
㡭
㡿
㢲
㢴
㣇
㣺
㥯
㪅
㫄
㫐
㫒
㫺
㬅
㬎
㬥
㬰
㲋
㳄
㷠
㸒
㸚
㸦
㼌
㼲
㽞
㿟
䀠
䂞
䍃
䏍
䒑
䖍
䖒
䖝
䖵
䙴
䚻
䜌
䝿
䡛
䧹
䪞
一
丁
丂
七
丄
丅
丆
万
丈
三
上
下
丌
不
与
丏
丐
丑
专
且
丕
世
丘
丙
业
东
丞
丢
丣
两
严
並
丨
丩
个
丫
丬
中
丮
丰
丱
串
丵
丶
丷
丸
丹
为
主
丽
丿
乀
乂
乃
久
乆
乇
么
义
之
乌
乍
乎
乏
乐
乑
乔
乖
乗
乘
乙
乚
乛
乜
九
乞
也
习
乡
乳
乾
亀
亅
了
亇
予
争
事
二
亍
于
亏
亐
云
互
亓
五
井
亘
亚
亜
亞
亟
亠
亡
亢
交
亥
亦
产
亨
亩
享
京
亭
亮
亯
亰
亲
亳
亶
亷
人
亻
亼
亾
仁
今
介
仌
从
仐
仑
仒
仓
仕
他
付
仝
代
令
以
任
企
伊
伏
伐
休
会
伯
但
位
何
佘
余
作
佥
使
來
侈
侌
侖
侯
侵
便
保
俞
信
修
倉
倍
候
倠
備
僉
僕
儿
兀
允
兂
元
兄
充
兆
兇
先
光
兊
克
兌
免
兑
兒
兓
兔
党
兜
兟
入
全
兩
兪
八
公
六
兮
兰
共
关
兵
其
具
典
兹
兼
冀
冂
冃
冄
内
冈
冉
冊
冋
册
再
冎
冏
冐
冒
冓
冖
冗
冘
军
农
冝
冡
冥
冫
冬
冷
几
凡
凢
凵
凶
凷
凸
凹
出
函
凾
刀
刁
刂
刃
刄
刅
分
切
刍
刑
刕
刖
列
刘
则
初
別
利
别
到
制
刺
則
削
剌
前
剡
剽
劉
力
功
加
劦
助
劫
劳
劵
勃
勇
勉
勒
動
務
勞
勤
勹
勺
勻
勾
勿
匀
匂
包
匆
匈
匊
匋
匍
匕
化
北
匚
匝
匡
匪
匱
匸
匹
区
医
匽
匿
區
十
卂
千
卄
卅
卆
升
午
卉
半
卌
华
卑
卒
卓
单
卖
南
卜
卝
卞
占
卡
卢
卣
卤
卦
卩
卪
卬
卯
印
危
即
却
卵
卷
卸
卻
厂
厃
厄
历
厈
厉
厌
厓
厘
厚
原
厤
厥
厨
厭
厲
厶
厷
厸
去
厼
厽
叀
参
參
叅
又
叉
及
友
双
反
叐
发
叒
叔
叕
取
受
叚
叜
叟
口
古
句
另
叩
只
召
可
台
叱
史
右
叵
号
司
叹
吂
各
吅
合
吉
吊
吋
同
名
后
吏
向
吕
君
吝
吞
否
含
启
吳
吴
吹
吾
呂
呆
呈
告
员
呙
周
命
咅
和
咎
咠
咢
咨
咸
咼
哀
品
哉
員
哥
哲
唐
商
啇
問
啚
啬
啻
善
喜
喬
單
喿
嗇
噩
嚴
囊
囗
囘
囙
囚
四
回
囟
因
囧
囬
困
囱
囷
固
国
圂
圅
國
圍
圓
土
圡
圣
圥
在
圭
地
圶
圼
坐
坒
坚
坴
垂
垔
垚
埀
埋
埶
執
基
堂
堅
堆
堇
堯
塞
墨
壘
士
壬
壯
声
壳
壴
壹
壺
壽
夂
处
夅
夆
备
夊
夋
夌
复
夏
夒
夕
外
夗
夘
多
夜
夢
大
夨
天
太
夫
夬
夭
央
失
夲
头
夷
夸
夹
夻
夾
奂
奄
奇
奈
奉
奎
奏
奐
契
奓
奔
奚
奞
奠
奢
奥
奭
女
奴
奻
好
如
妄
妙
妟
妥
妻
妾
姑
委
姜
威
娄
婁
婴
嬰
嬴
子
孑
孔
孕
孖
字
存
孚
孛
孝
孟
季
孤
学
孫
孱
學
宀
宁
宂
它
宅
宇
守
安
宋
完
宏
宓
宗
官
定
宛
宜
宝
客
宣
室
宮
宰
害
家
容
宾
宿
寄
寅
密
富
寒
察
寧
審
寫
寬
寮
寸
对
寺
寻
寽
対
寿
封
尃
射
将
將
專
尉
尊
尋
尌
對
小
少
尒
尓
尔
尖
尗
尚
尞
尢
尣
尤
尧
尨
尭
就
尸
尹
尺
尻
尼
尽
尾
尿
局
居
屈
屋
屎
屏
屑
展
屖
屚
属
屠
屡
屬
屮
屯
屰
山
屵
屾
岁
岂
岑
岡
岩
岳
岸
峯
島
崇
崑
崔
崖
崙
崩
嵬
嶲
巂
巛
川
州
巟
巠
巢
巤
工
左
巧
巨
巩
巫
差
己
已
巳
巴
巷
巸
巽
巾
巿
帀
市
布
希
帚
帛
帝
带
師
席
帶
常
干
平
年
幵
并
幷
幸
幺
幻
幼
幽
幾
广
広
庄
床
底
店
庚
府
度
庫
庭
庶
康
庸
廉
廌
廛
廣
廩
廴
延
廷
建
廾
廿
开
弁
弃
弄
弇
弋
式
弓
弔
引
弗
弘
弜
弟
弥
弦
弱
張
強
强
彊
彌
彎
彐
彑
当
彔
录
彖
彗
彡
形
彥
彦
彧
彭
彳
役
彼
往
待
律
徒
得
徙
從
復
微
徵
心
忄
必
忌
忍
志
忝
忠
忩
快
念
忽
忿
思
怠
急
怱
恆
恒
恩
恭
息
悉
患
悤
悲
悶
惠
惡
惢
愁
愈
意
愛
感
慈
慧
慮
憂
憲
應
戀
戈
戉
戊
戋
戌
戍
戎
成
我
戒
戔
或
戚
戠
戢
戦
截
戲
戶
户
戹
戼
戾
房
所
扁
扇
手
扌
才
打
托
执
承
折
拉
拜
拿
掌
推
提
摩
支
攴
攵
收
攸
改
放
政
敄
敏
敕
敖
敗
敝
敞
敢
散
敦
敫
敬
数
敷
數
斂
文
斉
斊
斗
斤
斥
斩
斬
斯
新
方
於
施
斿
旁
旋
族
无
旡
既
旣
日
旦
旧
旨
早
旬
旱
旲
时
旾
昆
昇
昌
昍
明
昏
易
昔
昗
昜
星
春
昬
是
昱
昴
昷
時
晃
晋
晏
普
景
晶
智
暑
暴
曇
曩
曰
曲
曳
更
曷
書
曹
曼
曾
替
最
朁
會
月
有
朋
服
朔
朕
朗
望
朝
木
朩
未
末
本
札
朮
术
朱
朵
朶
朿
杀
杏
杜
束
条
来
東
杲
杳
松
析
林
枚
果
枝
枲
枼
某
柔
查
柬
柰
柴
栗
桀
桑
桼
梁
條
梟
梨
棘
棠
棥
森
楚
業
楽
榮
樂
樊
欠
次
欣
欮
欲
欶
欽
款
歆
歇
歌
歛
止
正
此
步
武
歨
歪
歮
歯
歰
歲
歴
歷
歸
歹
歺
死
殳
段
殷
殸
殹
殺
殻
殿
毋
毌
母
每
毒
比
毕
毚
毛
毳
氏
氐
民
气
氣
水
氵
氶
氷
永
氺
氾
求
汝
汞
江
沃
沓
沙
沝
泉
法
波
泣
泥
泰
洛
洪
活
派
流
浦
浪
浮
淡
淮
清
渚
渠
湯
滿
漸
火
灬
灭
灰
灵
灷
炅
炎
炏
炗
炙
炭
為
烈
烏
烝
焉
無
焦
焱
然
煞
熊
熏
燕
營
燮
爪
爫
爭
爯
爰
爱
爲
爵
父
爻
爽
爾
爿
片
牙
牚
牛
牜
牟
牢
牧
牪
牽
犀
犬
犭
犮
狂
狄
狊
独
狺
猋
猒
猪
献
獻
玄
率
玉
王
玟
玨
珎
班
琴
瑟
瑩
瓜
瓦
甘
甚
生
産
用
甫
甬
田
由
甲
申
电
甶
男
甸
甹
画
甾
畀
界
畏
畐
留
畜
畟
畢
畧
畨
番
畫
異
畱
當
畺
畾
疊
疋
疌
疑
疒
疾
癶
癸
癹
登
發
白
百
皀
皃
的
皆
皇
皋
皐
皕
皮
皷
皿
盃
盆
盇
盈
益
盍
盎
监
盒
盖
盛
盡
監
盤
盧
目
直
相
盾
省
眇
眉
看
眔
眞
真
眷
眼
眾
着
睘
睪
睿
瞏
瞢
瞿
矍
矛
矞
矢
矣
知
矦
短
石
破
碎
磊
磨
示
礻
礼
祟
票
祭
禀
禁
禸
禹
禺
离
禽
禾
禿
秀
秃
秉
秋
科
秝
秦
移
稟
穀
穌
穴
究
穹
空
穿
突
窄
窒
立
竒
竜
竝
竟
章
童
竹
笑
笠
筆
等
答
箕
算
箴
節
篤
篭
米
粉
粛
粟
粤
粦
粲
糞
糸
糹
系
約
納
素
索
紫
累
細
絜
絫
絲
維
綿
縣
繇
纍
纟
缶
网
罒
罔
罕
罗
罙
罡
罢
罪
署
罷
羅
羊
羌
羍
美
羔
羕
羗
羞
羡
羣
群
義
羲
羸
羽
翁
翏
習
翕
翟
翠
翼
老
耂
考
者
耆
而
耎
耑
耒
耳
耴
耶
耷
聂
聊
聖
聚
聶
聿
肀
肃
肅
肉
肖
肙
肥
肩
肯
育
肴
胃
背
胡
胥
能
脊
脩
膚
臣
臤
臧
自
臬
臭
臯
臱
至
致
臺
臼
臽
臾
臿
舀
舂
舄
與
興
舉
舌
舍
舛
舜
舞
舟
般
艮
良
色
艸
艹
艾
芒
芔
芬
芮
花
芳
芺
芻
苔
苗
苟
若
苦
英
茶
茸
荅
草
荒
荣
荼
莆
莧
莫
莽
菆
菊
菐
華
萬
落
葉
著
葛
董
葵
蒙
蒦
蒼
蓋
蓬
蓺
蔑
蔡
蕉
蕭
薄
薛
薦
薰
藍
藏
藥
蘭
虍
虎
虐
虒
虔
處
虖
虗
虘
虚
虛
虜
虞
虫
虽
蚤
蚩
蜀
蜜
蟲
蠡
血
行
衍
衛
衣
衤
表
衮
衰
袁
袞
褭
褱
襄
襾
西
覀
要
覃
見
規
覓
覧
親
覽
见
角
解
言
訁
訇
計
詹
誩
諸
讠
谷
豆
豈
豊
豐
豕
豖
豙
象
豦
豩
豪
豸
貇
貝
貞
貟
負
貢
貧
貪
貫
責
貳
貴
買
費
賁
資
賈
賏
賓
賔
賛
賞
賢
賣
質
賴
贊
贝
贡
责
贯
贲
贵
赖
赞
赤
赦
走
越
足
路
蹇
身
躬
車
軍
軎
軟
輦
车
辛
辜
辟
辥
辰
辱
農
辵
辶
边
达
过
近
连
迷
追
退
送
逆
逐
通
速
造
逢
連
逮
進
遀
遂
過
道
達
遣
適
遷
遺
邊
邑
邕
那
邦
邪
郎
部
郭
都
鄉
酉
酋
配
酓
釆
采
里
重
野
量
金
釒
錢
钅
長
镸
长
門
閃
閉
開
閏
閑
閒
間
閔
閵
閻
闌
门
间
闷
阑
阜
阝
阿
降
陳
隆
隊
隋
隡
隨
隱
隶
隹
隺
隻
隼
隽
难
雀
雁
集
雈
雋
雍
雐
雔
雙
雚
雜
雝
離
難
雨
雩
雪
雲
零
雷
需
霍
霜
霝
霞
霸
靈
靑
青
非
靡
面
靣
革
韋
韦
韭
韯
韱
音
頁
頃
項
須
頗
頡
頻
顛
页
風
风
飛
飞
食
飠
養
饣
首
香
馬
馮
駦
马
骨
高
髟
鬥
鬯
鬲
鬼
魚
魯
鮮
鱼
鲁
鳥
鳳
鸟
鹵
鹿
麃
麗
麥
麦
麻
黃
黄
黍
黎
黑
黒
黨
黹
黽
黾
鼎
鼓
鼠
鼻
齊
齋
齐
齒
齿
龍
龙
龜
龟
龠
龰
龱
龴
龵
龶
龷
龸
龹
者
艹
？
�
𠀁
𠀃
𠀆
𠀉
𠀎
𠀐
𠁁
𠁣
𠂆
𠂇
𠂈
𠂉
𠂊
𠂋
𠂎
𠂒
𠂔
𠂛
𠂡
𠂢
𠂤
𠂬
𠂭
𠂹
𠃊
𠃋
𠃌
𠃍
𠃎
𠃑
𠃓
𠃔
𠃜
𠄌
𠄎
𠄠
𠄢
𠆢
𠆥
𠇍
𠈌
𠌵
𠓜
𠔉
𠔥
𠔼
𠔽
𠔿
𠕀
𠕁
𠕋
𠘧
𠘨
𠙻
𠙼
𠚏
𠚒
𠚤
𠚪
𠣏
𠤎
𠤕
𠥓
𠦄
𠦑
𠦝
𠧒
𠧗
𠧪
𠩺
𠪚
𠫓
𠫔
𠫤
𠬛
𠬝
𠬞
𠬢
𠬤
𠬶
𠮛
𠮦
𠮷
𠯑
𠱠
𠳮
𠷎
𡈼
𡉀
𡉵
𡌥
𡍮
𡏳
𡕒
𡕩
𡕰
𡖅
𡗗
𡗜
𡘆
𡘤
𡧱
𡨄
𡩧
𡬠
𡭽
𡰣
𡰥
𡰪
𡰯
𡰱
𡷈
𡸁
𡿨
𡿩
𡿪
𡿺
𢀖
𢀛
𢀩
𢁙
𢆉
𢆰
𢆶
𢇁
𢇇
𢉖
𢌬
𢌿
𢏚
𢑑
𢑚
𢖻
𢙣
𢛳
𢦏
𢦒
𢧵
𢼄
𢾕
𣁋
𣄼
𣅀
𣅽
𣍘
𣎳
𣎵
𣏋
𣏼
𣗥
𣥂
𣥖
𣦵
𣦼
𣧄
𣪊
𣪠
𣬉
𣳾
𣶒
𤇾
𤊽
𤐫
𤓰
𤔔
𤕨
𤣩
𤰇
𤰔
𤰞
𤴓
𤴔
𤽄
𥁑
𥁕
𥃦
𥃩
𥃭
𥇡
𥑟
𥘅
𥘈
𥝢
𥫗
𥱡
𦈢
𦉪
𦉬
𦉼
𦍌
𦍒
𦎧
𦐇
𦓔
𦔮
𦘒
𦙃
𦚏
𦣝
𦣞
𦣻
𦥑
𦥔
𦥯
𦨉
𦭝
𦰩
𧆞
𧈧
𧘇
𧰨
𧴪
𧴮
𧵩
𧾷
𨸏
𨾴
𩙿
𩠐
𩫏
𩵋
𪉷
𪜀
𪟽
𪠲
𪩲
𫇦
𫔭
𫜸
𫝀
𫠣
𫠩
𫢉
𫥞
𫩏
𫩠
𫪡
𫲽
𫶧
𬀷
𬐘
𬗌
𬙙
𬛸
𬜯
𬟩
𬯁
𬴘
𬺻
𬼉
𬼖
𭀰
𭁈
𭁨
𭅰
𭑈
𭕄
𭗼
𭤨
𭥫
𭻾
𮅕
𮊿
𮍌
𮍏
𮓗
𮥼
𮧮
廾
𰀁
𰀄
𰀈
𰀉
𰀕
𰀠
𰀡
𰀢
𰀪
𰁜
𰃮
𰆊
𰆘
𰋙
𰕎
𰢴
𰧭
𰯲
00--
000--
001--
01--
0101--
0102--
0103--
0104--
0172--
0173--
0178--
02--
03--
04--
05--
06--
07--
08--
09--
1931--
80--
85--
a--
aa--
ab--
abe--
aber--
abi--
abis--
abor--
abro--
abru--
absc--
abstr--
abu--
abys--
ac--
acant--
acantho--
acar--
acca--
ach--
acha--
achipt--
achr--
achyro--
aci--
acicu--
acin--
aco--
acon--
aconti--
acos--
acou--
acro--
acroce--
act--
actin--
actino--
acu--
acule--
acuti--
acy--
ad--
ada--
ade--
adel--
adelo--
aden--
adeno--
ador--
adria--
adriati--
ae--
aegi--
ael--
aen--
aenig--
aequ--
aequi--
aer--
aerug--
aes--
aet--
aethi--
af--
afg--
afr--
afro--
afze--
ag--
aga--
agao--
age--
agi--
agla--
agni--
agri--
agu--
agui--
agy--
ah--
ai--
ak--
aka--
aki--
akti--
aky--
al--
ala--
alab--
alas--
alba--
albi--
albis--
albo--
alci--
ale--
alec--
alek--
alepi--
aleu--
alex--
alf--
algi--
ali--
all--
allo--
alni--
alo--
alph--
alter--
alti--
alu--
alve--
aly--
am--
ama--
amat--
amau--
amaurobioi--
ambi--
ambly--
amblysc--
ambo--
ambro--
ame--
ami--
ammo--
ammotre--
ammox--
amni--
amo--
amp--
ampha--
amphi--
ampho--
ampli--
amy--
amyg--
an--
ana--
anar--
anchi--
ancistr--
ancy--
ancylo--
and--
andro--
ane--
aner--
ang--
angu--
anguli--
angus--
angusti--
angustifo--
ani--
anis--
aniso--
anisog--
anisom--
anna--
annu--
annula--
ano--
anomo--
anoplo--
ant--
antarc--
antarcti--
ante--
anten--
antho--
anthracoi--
anthuri--
anti--
antic--
antio--
antir--
antro--
anu--
anuro--
ao--
ap--
apat--
ape--
aph--
aphel--
apho--
aphro--
aphy--
api--
apici--
apicu--
apl--
aplo--
aply--
apo--
apob--
apodan--
apop--
app--
appe--
approxi--
apt--
apte--
aptero--
aqui--
aquilo--
ar--
ara--
arbeits--
arc--
arch--
archi--
arci--
arcti--
arcto--
arcu--
are--
areni--
arg--
argy--
argyro--
ari--
aris--
ariz--
arm--
armi--
arn--
arom--
arr--
arrhe--
art--
arthr--
articu--
aru--
aruna--
ary--
as--
asa--
asca--
asco--
asel--
ash--
asi--
aspi--
aspido--
aspidog--
ass--
asthe--
asti--
astr--
asty--
asy--
at--
ata--
atel--
ather--
athy--
atkin--
atlanti--
atom--
atop--
atri--
atro--
atta--
atu--
aty--
au--
aug--
aulo--
aure--
auri--
auricu--
auro--
aus--
austro--
aut--
auto--
av--
ava--
ave--
aver--
avi--
awa--
ax--
ay--
az--
azor--
b--
ba--
bac--
bach--
baci--
bacu--
bad--
bae--
bag--
bai--
bais--
bak--
bal--
bale--
bam--
ban--
bar--
bara--
bart--
barth--
bary--
bas--
basi--
bat--
bathy--
batra--
bau--
baum--
bax--
bay--
bayer--
be--
beau--
bec--
bed--
bee--
bei--
bel--
bele--
belo--
bem--
ben--
ber--
berg--
bermu--
bes--
bet--
beta--
beu--
bey--
bha--
bi--
bibli--
bic--
biden--
bier--
big--
bij--
bili--
bill--
bin--
bio--
bir--
biro--
bis--
bisch--
bisig--
bit--
bitecti--
bl--
bla--
blain--
blan--
blat--
ble--
blen--
bleph--
blephar--
blepharo--
blo--
bloom--
bo--
boc--
bod--
boe--
boett--
bogo--
bol--
bolbo--
bom--
bomby--
bomolo--
bon--
bond--
bonel--
bopy--
bor--
bos--
bot--
bothr--
bothri--
botryospha--
bou--
bouc--
boug--
bougain--
bour--
bous--
bow--
boy--
br--
bra--
brac--
brach--
brachi--
brachy--
brachyce--
brachycory--
brachyg--
brachytar--
bracte--
brad--
brah--
bre--
bren--
brevi--
brey--
bri--
bric--
brid--
bris--
bro--
broad--
bru--
bry--
bryo--
bryop--
bu--
buc--
buce--
budd--
buena--
bug--
bul--
bulbi--
bulbo--
bulga--
bun--
bur--
bus--
but--
bux--
by--
byr--
c--
ca--
cab--
caco--
cad--
caeci--
cael--
caeno--
caer--
caes--
caffro--
cal--
cala--
calam--
calca--
calce--
calci--
cale--
cali--
call--
calli--
callichrom--
callim--
callist--
callit--
callo--
calo--
calv--
caly--
calyco--
calypt--
cam--
cami--
camp--
campe--
campt--
camptop--
campy--
campylo--
can--
cana--
cancell--
candi--
canth--
cap--
capit--
capno--
capro--
captu--
car--
cara--
carcha--
card--
carde--
cardi--
cardioc--
cari--
carin--
carini--
carino--
carn--
carni--
carpo--
cary--
caryo--
cas--
cat--
cata--
caten--
catha--
catop--
cau--
caudi--
cauli--
caulo--
cav--
cavi--
cay--
caye--
ce--
ceci--
cel--
cele--
cell--
ceno--
centro--
ceph--
cephalo--
cephalopo--
cer--
cera--
cerati--
cerato--
ceratos--
cerco--
cercopi--
cere--
ceri--
cero--
cerotai--
cervi--
ces--
ceton--
cey--
ch--
cha--
chaen--
chaet--
chaeto--
chaetog--
chaetop--
cham--
char--
charac--
chau--
che--
cheil--
cheiro--
cheli--
chelo--
chi--
chia--
chias--
chiri--
chiro--
chlamy--
chlo--
chloro--
cho--
choero--
chon--
chondrac--
chondro--
chor--
chori--
chr--
chrom--
chromo--
chry--
chryso--
chu--
chy--
chydo--
ci--
cica--
cicat--
cida--
cili--
cilia--
cilio--
cin--
cinc--
cincti--
cine--
cinn--
cir--
circi--
circu--
circum--
cirr--
cirrhi--
cirri--
cirro--
cis--
citr--
ck--
cl--
cla--
clad--
clado--
clar--
clari--
clat--
clathr--
clau--
clavu--
cle--
cleido--
cler--
cleto--
cli--
clim--
clin--
clit--
clo--
clof--
cly--
clype--
cne--
cnemo--
cni--
co--
coc--
cocci--
cocco--
coch--
cochlea--
coco--
coe--
coelo--
coelogyno--
coeno--
col--
colo--
colos--
colum--
com--
comm--
comp--
compres--
compso--
con--
conferti--
coni--
conop--
conside--
coo--
coph--
copi--
copt--
copu--
cor--
cord--
cordi--
cordu--
cordulega--
cordy--
cordylo--
core--
cori--
coris--
corn--
corni--
cornu--
coro--
corru--
corti--
cory--
coryph--
cos--
cosc--
cosci--
cosm--
cosmo--
cosmopho--
costi--
costu--
cot--
cou--
cow--
cra--
cran--
cras--
craspe--
crassi--
crassifo--
crater--
craw--
cre--
cren--
crenu--
crepi--
cres--
cri--
cribr--
cris--
cro--
croco--
cros--
cross--
crot--
cru--
cruci--
crus--
cry--
crypt--
crypto--
cten--
cteno--
ctenop--
cu--
cub--
cuc--
cucu--
cucull--
cuer--
cul--
cum--
cunei--
cup--
cupu--
cur--
curvi--
cus--
cuspi--
cy--
cyan--
cycl--
cyclo--
cyclop--
cyclor--
cyclot--
cycno--
cylin--
cylindro--
cym--
cymo--
cyni--
cyno--
cyph--
cypri--
cyr--
cyrtacanth--
cyrtauc--
cyrti--
cyrto--
cysto--
cythe--
cze--
czerw--
d--
da--
dacry--
dacty--
dactyla--
dactylo--
daed--
dai--
dal--
dam--
damer--
damp--
dan--
dar--
das--
dasy--
dau--
de--
deal--
dec--
decem--
decor--
defin--
defl--
dei--
deigh--
del--
delph--
dem--
den--
dendr--
dendro--
densi--
denti--
dep--
depau--
der--
derop--
des--
descar--
desmo--
deter--
deu--
deuter--
dev--
dew--
dewa--
di--
dia--
diab--
diac--
diad--
diaphero--
diat--
diba--
dic--
dice--
dich--
dichr--
dicran--
dicro--
dicy--
didy--
didymo--
die--
dier--
diff--
dig--
digly--
dilo--
din--
dinop--
dinotop--
dio--
diop--
dios--
dip--
dipl--
diplo--
diplog--
dipo--
diproto--
dir--
diru--
dis--
disc--
disci--
disco--
discoi--
discothy--
disti--
diu--
diy--
dja--
do--
dob--
doc--
docum--
dod--
dode--
dol--
dolich--
dolicho--
dolo--
dom--
don--
dor--
doro--
dorsi--
dorso--
dory--
dothi--
dou--
dow--
dr--
dra--
dre--
drepan--
dro--
dru--
drum--
dry--
drymo--
du--
dubi--
dug--
dui--
dul--
dun--
duo--
dupl--
duplo--
dur--
duri--
dus--
duvi--
dy--
dys--
dysc--
dziedz--
e--
ear--
east--
eat--
eatoni--
eb--
ebu--
ec--
eccopt--
echi--
echin--
echino--
eci--
eco--
ecti--
ectop--
ed--
eff--
eg--
ehr--
ei--
eich--
eil--
ein--
eis--
ek--
el--
ela--
elac--
elae--
elaph--
elas--
elat--
ele--
elec--
elegan--
eleuthero--
eli--
elli--
elo--
elonga--
ely--
em--
emer--
emplec--
ems--
en--
ench--
end--
ener--
eng--
engr--
engy--
enhy--
enig--
enne--
eno--
enop--
ensi--
ent--
eny--
eo--
eop--
epac--
eph--
ephemer--
ephi--
ephial--
ephipp--
epi--
epic--
epiphy--
equat--
equatori--
er--
ere--
erec--
erem--
eremo--
eret--
eri--
erin--
erio--
erioc--
eriop--
eriot--
erl--
erland--
erno--
ero--
erra--
ery--
eryth--
erythro--
es--
esa--
esc--
esca--
esch--
escha--
esp--
est--
et--
ethi--
eti--
etmo--
eu--
eube--
euc--
euch--
eucha--
euchi--
eucly--
eucy--
eudo--
euer--
eug--
eulo--
eum--
eume--
eun--
eup--
eupha--
euphr--
euphy--
euplec--
eur--
euro--
eury--
eus--
eusi--
euth--
euthy--
ev--
ever--
evro--
ex--
exam--
excel--
exe--
exhi--
exo--
exop--
exp--
exten--
extr--
exy--
ey--
ez--
f--
fa--
fac--
fais--
fal--
falci--
fan--
far--
fascicu--
fat--
fau--
fe--
fend--
fenes--
fer--
ferru--
fest--
feu--
fi--
fic--
fil--
fili--
fimbri--
fin--
fir--
fis--
fit--
fl--
fla--
flabelli--
flac--
flage--
flagell--
flagelli--
flam--
flave--
flavi--
flavis--
flavo--
flavol--
flavom--
flavos--
flex--
flexu--
flor--
flori--
flu--
flus--
fo--
fol--
folio--
fon--
fonti--
for--
forhand--
fos--
fou--
fove--
fow--
fr--
fra--
fraga--
fre--
frei--
frey--
fri--
fried--
friv--
fro--
fron--
fru--
fu--
fuer--
fuji--
ful--
fulgo--
fuli--
fulvi--
fulvo--
fumi--
fune--
fur--
fusc--
fusci--
fusco--
fusi--
g--
ga--
gadi--
gal--
gala--
gale--
gam--
gambi--
gamm--
gamp--
gan--
gand--
gang--
gangl--
gar--
gara--
garg--
gastr--
gastro--
gau--
gaudi--
gay--
gaz--
ge--
geck--
gek--
gel--
geli--
gemm--
gen--
geni--
geo--
geog--
geomy--
geop--
geophil--
geos--
geot--
gephy--
ger--
ges--
ghes--
gi--
gian--
gib--
gibbi--
gibbo--
gida--
gies--
giff--
gig--
gil--
gim--
gin--
ginki--
giu--
giv--
gla--
glab--
glabri--
gladi--
glaphy--
glauc--
glauci--
gle--
gleiche--
gleno--
gli--
glo--
globi--
globu--
globula--
glomer--
glos--
glosso--
glu--
glyci--
glyph--
glypho--
glypt--
glyptop--
gnat--
gnatho--
go--
gober--
goet--
gol--
gold--
gom--
gomph--
gon--
goni--
gont--
gor--
gorg--
gos--
got--
gott--
gou--
gov--
gow--
gr--
gra--
grac--
gracil--
gracili--
grad--
grae--
gram--
gramini--
graph--
grapt--
grati--
gre--
green--
grega--
gri--
grig--
gro--
groen--
gru--
grun--
gry--
gryll--
gryllo--
gu--
gua--
guay--
guaz--
gue--
gui--
gund--
gus--
gussa--
gut--
guth--
gutti--
gy--
gym--
gymnas--
gymno--
gymnos--
gyro--
h--
ha--
habi--
habro--
had--
hadro--
haem--
haemat--
haemor--
haes--
hafe--
hag--
hal--
hale--
hali--
halic--
halo--
halt--
ham--
hami--
han--
hans--
haplo--
hapsi--
har--
hart--
has--
hase--
hat--
hau--
haus--
haw--
hay--
he--
hebe--
hec--
hed--
hedw--
hedy--
hel--
heli--
helica--
helico--
helio--
hell--
helm--
helo--
hem--
hemero--
hemi--
hemicy--
hemig--
hemis--
hemispha--
hemp--
hen--
hend--
heni--
hens--
hepi--
hept--
hepta--
her--
herac--
herc--
hes--
hespe--
hespero--
het--
heter--
hetero--
heterop--
hetro--
heu--
hex--
hexa--
hexac--
hexact--
hexat--
hey--
hi--
hier--
high--
hil--
hilar--
hille--
hin--
hipp--
hippo--
hippoc--
hippop--
hir--
hiro--
hirsu--
hirti--
hiru--
his--
hissa--
ho--
hob--
hod--
hof--
hol--
holco--
holo--
holos--
holz--
hom--
homalo--
homo--
hon--
hondu--
hong--
hono--
hopl--
hopland--
hoplo--
hor--
horn--
hors--
hosp--
hot--
hou--
how--
hr--
hu--
hua--
hub--
hul--
hum--
humi--
hus--
hut--
hy--
hyac--
hyali--
hyalo--
hybo--
hybri--
hyd--
hydno--
hydro--
hygro--
hylo--
hymen--
hyno--
hyp--
hypae--
hyper--
hypero--
hyph--
hypo--
hypob--
hypoc--
hypomy--
hypop--
hypor--
hypse--
hypsi--
hypso--
hyr--
hyste--
hystr--
i--
iba--
ibe--
ibi--
ic--
ice--
ichn--
ichthy--
ide--
idi--
idios--
ido--
ig--
igni--
igu--
ii--
iji--
ika--
il--
ili--
ill--
ily--
im--
imbec--
imbr--
imit--
imp--
impli--
impor--
impro--
impunc--
in--
inaequi--
inaugu--
inc--
incom--
ind--
indo--
influ--
infra--
infu--
ing--
inop--
inqui--
ins--
insu--
int--
inter--
interes--
intra--
inu--
inve--
invest--
io--
ion--
iop--
iph--
ipo--
ir--
iri--
irido--
iro--
irro--
irvi--
is--
isch--
ischi--
ischno--
ischyro--
ishi--
isi--
iso--
isoch--
isocy--
isop--
isot--
isotomo--
ist--
isth--
it--
itu--
iu--
iv--
iwa--
ix--
iz--
j--
ja--
jae--
jan--
jar--
je--
jen--
jer--
jes--
ji--
jin--
jo--
joa--
job--
jou--
ju--
jug--
jul--
juli--
jun--
juni--
jø--
k--
ka--
kaba--
kaemp--
kai--
kal--
kala--
kali--
kall--
kam--
kan--
kap--
kar--
kara--
kas--
kasa--
kash--
kashmi--
kat--
kata--
kath--
katu--
kau--
kawa--
kaz--
kazu--
ke--
kei--
kel--
kem--
kemp--
ker--
kes--
kha--
ki--
kies--
kim--
kin--
kina--
kinn--
kinorhy--
kinos--
kir--
kirg--
kit--
kl--
klapp--
klein--
klo--
klop--
kne--
kni--
kno--
ko--
kohl--
koi--
kol--
kom--
kon--
kor--
kos--
kot--
kra--
kras--
krato--
kre--
kri--
kro--
kru--
kry--
ku--
kue--
kuh--
kul--
kun--
kur--
kurd--
kus--
kusc--
kwa--
ky--
l--
la--
lab--
laboul--
lac--
lacci--
lace--
lachn--
lacti--
lae--
laevi--
lag--
laga--
lagaro--
lago--
lam--
lamel--
lamii--
lamp--
lampro--
lan--
lanci--
land--
lapi--
lapp--
lar--
las--
lasi--
lasio--
lasiop--
lat--
late--
lateri--
lati--
latic--
lau--
laura--
law--
lax--
laxi--
le--
lea--
lec--
lecan--
lecith--
lee--
leg--
leh--
lei--
leiop--
lem--
len--
lenn--
lenti--
leo--
lep--
lepa--
lepi--
lepido--
lepri--
lept--
lepto--
leptocy--
leptog--
leptop--
leptoph--
leptos--
leptot--
leptu--
les--
lesu--
let--
lethr--
leuc--
leuco--
leucog--
leucop--
leucos--
leucot--
leve--
levi--
ley--
li--
lie--
lieb--
lig--
ligni--
ligu--
ligula--
lilje--
lim--
limno--
lin--
lind--
lio--
lip--
lipo--
lipop--
lis--
lisso--
lit--
lith--
litho--
lithop--
lito--
litto--
litu--
liv--
ll--
llor--
lo--
lobi--
lobo--
lobu--
log--
loh--
lom--
lonch--
long--
longe--
longi--
longis--
loph--
lopho--
lophop--
lophot--
los--
lou--
lox--
loxo--
loxog--
lt--
lu--
lub--
luc--
luci--
lud--
lued--
lum--
lunu--
lusi--
lut--
lute--
lutei--
ly--
lyc--
lyci--
lyco--
lycopo--
lygo--
lyra--
lysi--
lyth--
m--
ma--
maa--
mac--
maca--
mace--
maci--
mack--
macro--
macrog--
macrole--
macropo--
macrorhy--
macu--
maculi--
mad--
mada--
madr--
mae--
mag--
magka--
magni--
mah--
mahesh--
mai--
maju--
maka--
maki--
mal--
malac--
mam--
man--
mani--
mant--
mao--
mar--
mara--
maren--
marga--
margaro--
mari--
mas--
masca--
mast--
mat--
mate--
mau--
mauri--
mawa--
max--
may--
maza--
mc--
mcd--
mck--
mdccc--
me--
meco--
mecy--
med--
medio--
mediter--
meeres--
meg--
mega--
megace--
megal--
mego--
mei--
mel--
melan--
melano--
melanop--
melanos--
melanot--
meli--
melit--
melito--
mell--
mem--
membr--
membrani--
men--
mer--
meri--
mes--
meso--
mesop--
mesoplo--
mesos--
meta--
meteori--
metop--
metri--
metro--
metz--
mex--
mi--
mic--
micra--
micran--
micro--
mid--
mik--
mil--
milt--
mime--
mimo--
min--
minu--
minuti--
mir--
miri--
miro--
misc--
misi--
misy--
mit--
mitro--
mix--
miy--
mjo--
mo--
moc--
moch--
modi--
moe--
mog--
mol--
moll--
molo--
molor--
moluc--
mom--
mon--
monac--
monili--
mono--
monop--
monos--
mont--
monte--
mor--
mos--
mosk--
mot--
mou--
mu--
mucro--
mul--
mult--
multi--
multis--
multise--
mun--
mur--
mura--
mus--
musci--
muti--
my--
myc--
myce--
myco--
myel--
myi--
mylo--
myodo--
myop--
myr--
myrio--
myrme--
myrmeco--
myrmo--
mysm--
myst--
myxi--
n--
na--
nad--
nae--
nag--
nagka--
nagu--
naha--
nahi--
nai--
naka--
nal--
nam--
nan--
nang--
nann--
nanno--
nano--
nape--
napo--
nar--
nara--
nas--
nat--
natur--
nau--
nauc--
nay--
nd--
ne--
nea--
nebu--
nec--
necta--
nel--
nema--
nemat--
nemato--
nemo--
neo--
neoa--
neoch--
neodi--
neog--
neole--
neom--
neop--
neor--
neos--
neot--
neph--
nept--
ner--
nes--
neso--
nesop--
neu--
neuro--
nev--
new--
ng--
ni--
nic--
nico--
nicoba--
nidi--
nie--
nig--
nigr--
nigri--
nigric--
nigro--
nilgi--
nim--
ning--
niph--
nipo--
nipp--
nippon--
nippono--
nit--
niti--
nitidi--
nive--
nn--
no--
noc--
nocti--
nodi--
nodu--
nogue--
nom--
non--
nor--
nord--
nordwest--
norweg--
not--
notho--
noti--
noto--
nova--
novae--
novo--
nu--
nubi--
nucu--
nudi--
nun--
nur--
ny--
nyc--
nycti--
nym--
nymph--
nys--
o--
oa--
oax--
ob--
obe--
ober--
obi--
obl--
oblance--
oblique--
obo--
obr--
obs--
obscur--
obtec--
obtu--
obtusi--
oc--
occi--
och--
ochro--
oct--
octo--
ocu--
ocula--
ocy--
od--
odi--
odo--
odon--
odonta--
odonto--
oe--
oeco--
oed--
oedi--
oedipo--
oen--
oer--
of--
off--
og--
ographi--
oh--
oka--
oke--
oku--
ol--
old--
olden--
ole--
olig--
oligac--
oligo--
olym--
om--
omo--
omph--
omphalo--
on--
onco--
onis--
ono--
ony--
onych--
oop--
oos--
op--
opac--
opercu--
ophi--
ophio--
ophiog--
ophiop--
ophthal--
ophthalmo--
opist--
opistho--
oplo--
opsi--
or--
ora--
orb--
orche--
ore--
orec--
oreo--
oreog--
oreop--
ori--
oriz--
ornati--
orni--
ornith--
oro--
orop--
orph--
orth--
oru--
ory--
oryz--
os--
ossian--
ost--
oste--
osterre--
ostra--
ot--
oti--
otop--
ou--
out--
ov--
ovi--
ox--
oxi--
oxy--
oxye--
oxyphy--
oy--
ozodi--
p--
pa--
pac--
pach--
pacha--
pachy--
paed--
pag--
pagu--
pai--
pal--
pall--
pallidi--
palpi--
palu--
pam--
pami--
pan--
panna--
pap--
papa--
papu--
par--
para--
paran--
pare--
parme--
parmula--
paro--
parvi--
pas--
pasi--
passa--
pat--
pater--
pau--
pauci--
pauro--
paw--
pax--
pay--
pe--
pec--
pecti--
pectina--
pectini--
pecu--
ped--
pedemon--
peder--
pedi--
pedice--
peduncu--
pei--
pell--
pelo--
pelt--
peltop--
pemph--
pen--
pendle--
penta--
pento--
per--
peri--
peric--
peris--
perit--
pes--
pet--
peta--
peti--
petro--
pey--
peye--
pfe--
ph--
pha--
phac--
phae--
phaed--
phaen--
phaeo--
phaeog--
phaeot--
phakop--
phal--
phalacro--
phanero--
phas--
phau--
phel--
phen--
phero--
phi--
phil--
philo--
phle--
phlo--
phloe--
phloeo--
pho--
phoen--
phoenic--
pholi--
phor--
phot--
phrag--
phro--
phry--
phrygano--
phth--
phthi--
phy--
phyll--
phyllo--
phyllop--
phylo--
phys--
physo--
phyto--
pi--
pic--
pie--
piez--
pig--
pili--
pilo--
pimpl--
pin--
pini--
pio--
pipt--
piptu--
pisi--
pit--
pl--
pla--
plac--
placo--
plagi--
plagio--
plagiorhy--
plan--
plani--
plank--
plano--
plat--
platy--
platyce--
platyrha--
ple--
plec--
plecto--
plectr--
plei--
pleo--
plesi--
pleu--
pleuro--
plic--
plo--
plu--
plum--
pluma--
pluri--
pluvi--
po--
pod--
poda--
podo--
poe--
poeci--
poecilo--
pogon--
pol--
poly--
polyac--
polyc--
polyo--
pom--
poma--
pon--
pona--
por--
porphy--
porphyro--
port--
pos--
post--
pota--
potamo--
potan--
pou--
pour--
pow--
poz--
pra--
prae--
praet--
praeter--
praxi--
pre--
pri--
prin--
prion--
priono--
pro--
probo--
proc--
prognatho--
proso--
prosopo--
prosp--
proto--
protos--
protr--
protu--
pru--
przewal--
psa--
psam--
psammo--
psect--
pseu--
pseuda--
pseudan--
pseudec--
pseudo--
pseudoc--
pseudoca--
pseudon--
pseudos--
psil--
pso--
psy--
psych--
pt--
pter--
ptero--
ptery--
ptil--
ptilo--
pty--
ptych--
pu--
pub--
pubi--
pug--
pul--
pulchri--
pull--
pulver--
pulvi--
pun--
punc--
puncti--
punctori--
punctu--
pupi--
pur--
purpu--
pustu--
put--
py--
pyc--
pycnan--
pycno--
pygidi--
pygmae--
pygo--
pyr--
pyrami--
pyrg--
pyri--
pyro--
pyrrhu--
pyxi--
q--
qin--
qu--
quad--
quadra--
quadri--
quadril--
quadris--
quat--
que--
quer--
querci--
qui--
quin--
quinque--
r--
ra--
race--
raco--
rad--
radi--
raff--
raffa--
rah--
rain--
rako--
ram--
rami--
ramph--
ramu--
ran--
raphi--
raphidi--
ras--
rat--
raw--
rd--
re--
rec--
recti--
red--
refer--
refl--
reg--
reic--
reim--
rein--
reli--
remi--
ren--
reni--
rep--
res--
ret--
reti--
retro--
rev--
rey--
rez--
rg--
rha--
rhabd--
rhabdo--
rhago--
rham--
rhamph--
rhaphi--
rhe--
rhi--
rhin--
rhino--
rhipi--
rhipido--
rhiz--
rhizop--
rhizophy--
rho--
rhodo--
rhom--
rhombi--
rhomboi--
rhopalo--
rhy--
rhynch--
rhyncho--
rhys--
rhyti--
rhytido--
ri--
rid--
rie--
rigi--
rigidi--
rin--
ring--
rio--
rit--
rivu--
ro--
rob--
roc--
roche--
rod--
rol--
roll--
rologi--
rom--
roti--
rotu--
rotund--
rotundi--
rotundifo--
rou--
rouma--
row--
roz--
ru--
rubi--
rubr--
rubri--
rubro--
rufi--
rufo--
rugi--
rum--
runci--
rus--
rut--
ruti--
ry--
s--
sa--
sabat--
sabu--
sac--
sad--
sag--
sagit--
sagitti--
saha--
sahl--
sai--
saka--
sal--
sala--
salam--
sali--
salo--
salu--
salva--
sam--
sammel--
san--
sancti--
sand--
sapp--
sapphi--
sar--
sarco--
sard--
sarg--
saro--
sarrace--
sas--
sat--
satu--
sau--
saw--
sax--
saz--
sc--
sca--
scab--
scabri--
scal--
scali--
scaph--
scar--
scel--
sch--
scha--
sche--
schedo--
schi--
schil--
schim--
schis--
schiz--
schizo--
schizop--
schlie--
schn--
scho--
schoen--
schr--
schre--
schw--
schwa--
sci--
scin--
scler--
sclero--
sclerop--
scol--
scole--
scolop--
scolopo--
scop--
scopu--
scor--
scot--
scri--
scru--
scu--
scul--
sculpt--
sculptu--
scur--
scutel--
scy--
scyph--
scyta--
se--
sea--
sec--
sed--
see--
seg--
sei--
sel--
sele--
selec--
sell--
sem--
semi--
semil--
semper--
sen--
sep--
septem--
ser--
seri--
seric--
serpu--
serri--
serru--
ses--
set--
seta--
seti--
sett--
sex--
sey--
sh--
sha--
she--
shi--
sho--
shr--
shu--
si--
sia--
sib--
sibi--
sibo--
siby--
sic--
sicy--
sido--
sieb--
sig--
signi--
sil--
silu--
silver--
sim--
simba--
simi--
simo--
simpl--
simplici--
simu--
sin--
sino--
sip--
siph--
siphono--
sir--
sisy--
sit--
sitzung--
sjo--
sk--
ske--
skott--
sla--
sli--
slo--
slos--
sm--
smer--
smi--
smic--
smicro--
smy--
snail--
so--
sobr--
sol--
sola--
sole--
soleno--
solo--
solpu--
son--
soph--
sor--
soro--
sou--
sp--
spad--
span--
spani--
spar--
sparr--
sparsi--
spat--
spathi--
spathu--
spatu--
spe--
specu--
sper--
spermophor--
spha--
sphaer--
sphaero--
sphe--
spheco--
spheno--
sphinc--
sphodro--
sphy--
sphyro--
spi--
spic--
spici--
spicu--
spil--
spin--
spini--
spinos--
spint--
spinu--
spira--
spiro--
spirob--
sple--
spodo--
spon--
spondy--
spong--
spor--
spu--
squ--
squali--
squam--
squami--
squamu--
sr--
st--
sta--
stachy--
stag--
stagni--
stal--
staphy--
stau--
stauro--
ste--
stec--
stega--
stego--
steiro--
stelli--
steno--
stenope--
stern--
sterno--
sthe--
sti--
stic--
sticho--
sticto--
stictop--
stig--
stil--
stiph--
stipu--
sto--
str--
stram--
streb--
stri--
striati--
strickl--
strig--
strobi--
struthi--
stu--
stucken--
stuh--
sty--
stygi--
stylo--
stypo--
styra--
su--
sua--
sub--
subu--
sud--
sue--
suff--
suffru--
sug--
sui--
sul--
sulci--
sum--
sumba--
sun--
sunde--
sup--
super--
superci--
sur--
sus--
sutherl--
sv--
sw--
swam--
sy--
syl--
sym--
symph--
symphor--
symphy--
symphytog--
syn--
syr--
sz--
sza--
sze--
szil--
t--
ta--
tab--
tac--
tach--
tachi--
tachy--
taeni--
tai--
tak--
taka--
tal--
tala--
talau--
tali--
tam--
tamauli--
tan--
tanao--
tany--
tapin--
tapro--
tar--
tara--
tas--
tasm--
tat--
tau--
tax--
tay--
te--
teac--
tec--
tein--
tel--
tele--
tem--
temnos--
ten--
teneb--
tenebro--
tentacu--
tenu--
tenui--
tenuifo--
tenuiro--
teph--
ter--
tereb--
terebra--
tes--
testu--
tetr--
tetra--
tetrac--
tetracne--
tetract--
tetragon--
tetran--
tetrao--
tetras--
teu--
tex--
text--
th--
thal--
thale--
tham--
thamno--
thap--
thau--
thaumast--
the--
theco--
theis--
theo--
ther--
thermo--
thiene--
tho--
thom--
thor--
thorac--
thou--
thry--
thu--
thur--
thy--
thyme--
thyri--
thyro--
thyrsi--
ti--
tian--
tibi--
tida--
tig--
til--
tim--
tin--
tinc--
tincto--
tis--
titu--
to--
tol--
tom--
ton--
top--
topo--
tor--
torqu--
tortu--
toru--
[...]
