!
"
#
##0
##1
##10
##11
##12
##13
##14
##15
##16
##17
##18
##19
##2
##20
##21
##22
##23
##24
##25
##26
##27
##28
##29
##3
##30
##31
##32
##33
##34
##35
##36
##37
##38
##39
##4
##40
##41
##42
##43
##44
##45
##46
##47
##48
##49
##5
##50
##51
##52
##53
##54
##55
##56
##57
##58
##59
##6
##60
##61
##62
##63
##64
##65
##66
##67
##68
##69
##7
##70
##71
##72
##73
##74
##75
##76
##77
##78
##79
##8
##80
##81
##82
##83
##84
##85
##86
##87
##88
##89
##9
##90
##91
##92
##93
##94
##95
##96
##97
##98
##99
$
%
&
'
(
)
*
+
,
-
.
/
0
00
000
00043
000708
0021
00937
01
010
01497
016666666667
02
026
03
0313
033333333333
0354
04
0405
05
06
0610
066666666667
0692
07
0734
08
083333333333
0855
08664
08903
09
1
10
100
1000
10000
1002
1004
1007
101
1010
1015
1018
102
1028
103
104
105
106
1061
107
10794
108
109
11
110
1100
111
112
11273
113
11331
1137
11379
114
1142
115
1150
1152
116
116666666667
117
118
119
12
120
1200
12013
12023
12033
121
122
1220
1221
1222
1225
1226
123
1230
1238
124
1240
1241
1242
1245
1248
125
1250
1252
1253
1256
126
1264
1268
127
1276
128
1280
1285
1286
129
1290
1293
1296
13
130
1300
1305
1306
131
1317
132
133
133333333333
134
1346
1348
1349
135
1350
1352
1353
13557
1359
136
1360
1361
1362
1363
1364
1365
1366
1368
137
1370
1371
13737
1374
1377
1378
138
1380
1382
1386
1387
1389
139
1390
1391
1394
1397
1398
14
140
1400
1401
1408
141
1410
1411
1413
1416
1419
142
1420
1422
1423
1424
143
1430
1431
1433
1436
1437
144
1445
1448
145
1450
1452
1455
1456
1459
146
1462
1463
147
1474
148
1483
1484
1486
149
1492
1495
1498
15
150
1500
1502
1503
1504
1506
1507
151
1511
1512
152
1520
1521
1523
1524
1525
1527
1529
153
1532
1533
1534
1535
1536
1537
1538
1539
154
1540
1541
1544
1545
1546
1547
1548
1549
155
1550
1552
1553
1554
1556
1559
156
1560
1561
1563
1564
1565
1566
1568
1569
157
1570
1571
1572
1573
1574
1575
1576
1577
158
1580
1582
1583
1584
1585
1586
1588
1589
159
1590
1591
1592
1593
1594
1595
1596
1597
1598
1599
16
160
1600
1601
16019
1602
1603
1604
1605
1606
1607
1608
1609
161
1610
1611
1612
1613
1614
1615
1616
1617
1618
1619
162
1620
1621
1622
1623
1624
1625
1626
1627
1628
1629
163
1630
1631
1632
1634
1635
1637
1638
1639
164
1640
1641
1642
1643
1644
1645
1646
1647
1648
1649
165
1650
1651
1652
1653
1654
1655
1656
1657
1658
1659
166
1660
1661
1662
1663
1664
1665
1666
166666666667
1667
1668
1669
167
1670
1671
1672
1673
1674
1675
1676
1677
1678
1679
168
1680
1681
1682
1683
1684
1685
1686
1687
1688
1689
169
1690
1691
1692
1693
1694
1695
1696
1697
1698
1699
17
170
1700
1701
1702
1703
1704
1705
1706
1707
1708
1709
171
1710
1711
1712
1713
1714
1715
1716
1717
1718
1719
172
1720
1721
1722
1723
1724
1725
1726
1727
1728
1729
173
1730
1731
1732
1733
1734
1735
1736
1737
1738
1739
174
1740
1741
1742
1743
1744
1745
1746
1747
1748
1749
175
1750
1751
1752
1753
1754
1755
1756
1757
1758
1759
176
1760
1761
1762
1763
1764
1765
1766
1767
1768
1769
177
1770
1771
1772
1773
1774
1775
1776
1777
1778
1779
178
1780
1781
1782
1783
1784
1785
1786
1787
1788
1789
179
1790
1791
1792
1793
1794
1795
1796
1797
1798
1799
18
180
1800
1801
1802
1803
1804
1805
1806
1807
1808
1809
181
1810
1811
1812
1813
1814
1815
1816
1817
1818
1819
182
1820
1821
1822
1823
1824
1825
1826
1827
1828
1829
183
1830
1831
1832
1833
183333333333
1834
1835
1836
1837
1838
1839
184
1840
1841
1842
1843
1844
1845
1846
1847
1848
1849
185
1850
1851
1852
1853
1854
1855
1856
1857
1858
1859
186
1860
1861
1862
1863
1864
1865
1866
1867
1868
1869
187
1870
1871
1872
1873
1874
1875
1876
1877
1878
1879
188
1880
1881
1882
1883
1884
1885
1886
1887
1888
1889
189
1890
1891
1892
1893
1894
1895
1896
1897
1898
1899
19
190
1900
1901
1902
1903
1904
1905
1906
1907
1908
1909
191
1910
1911
1912
1913
1914
1915
1916
1917
1918
1919
192
1920
1921
1922
1923
1924
1925
1926
1927
1928
1929
193
1930
1931
1932
1933
1934
1935
1936
1937
1938
1939
194
1940
1941
1942
1943
1944
1945
1946
1947
1948
1949
195
1950
1951
1952
1953
1954
1955
1956
1957
1958
1959
196
1960
1961
1962
1963
1964
1965
1966
1967
1968
1969
197
1970
1971
1972
1973
1974
1975
1976
1977
1978
1979
198
1980
1981
1982
1983
1984
1985
1986
1987
1988
1989
199
1990
1991
1992
1993
1994
1995
1996
1997
1998
1999
2
20
200
2000
2001
2002
2003
2004
2005
2006
2007
2008
2009
201
2010
2011
2012
2013
2014
2015
2016
2017
2018
2019
202
2020
2021
2022
2023
2024
2025
203
204
205
206
2067
207
208
209
21
210
211
212
213
214
215
216
216666666667
217
218
219
22
220
221
222
223
224
225
226
227
228
229
23
230
2300
231
232
233
233333333333
234
235
236
237
238
239
24
240
2400
241
242
243
244
245
246
247
248
249
25
250
2500
251
252
253
254
255
256
257
258
259
26
260
2600
261
262
263
264
265
266
266666666667
267
268
269
27
270
271
272
273
274
275
276
277
278
279
28
280
2800
281
282
283
283333333333
284
285
286
287
288
289
29
290
291
292
293
294
295
296
297
298
299
3
30
300
3000
301
302
303
304
305
306
307
308
309
31
310
311
312
313
314
315
316
3166
316666666667
317
318
319
32
320
321
322
323
324
325
326
327
328
329
33
330
331
332
333
333333333333
334
335
3354
336
337
338
339
34
340
341
342
343
344
345
346
347
348
35
350
3500
351
352
353
354
355
356
357
3573
358
359
36
360
361
362
363
364
365
366
366666666667
367
368
369
37
370
371
372
373
374
375
376
377
378
38
380
382
383333333333
384
385
3852
386
388
389
39
390
392
394
395
396
398
399
4
40
400
4000
401
402
403
404
405
406
407
408
409
41
410
411
412
413
414
415
416
416666666667
419
42
420
421
422
423
424
425
426
428
43
430
431
432
433
433333333333
434
435
436
437
438
439
44
440
441
442
443
444
445
446
4467
4469
447
448
449
45
450
451
452
453
454
455
456
458
46
460
462
463
464
465
466
466666666667
467
468
469
47
470
472
473
474
475
476
478
479
48
480
481
482
483
483333333333
484
486
487
488
49
491
492
493
494
495
496
498
499
5
50
500
5000
502
503
504
505
506
508
51
510
513
514
515
516
516666666667
517
518
519
52
520
521
522
524
525
526
527
528
529
53
530
532
533333333333
534
535
538
539
54
540
541
542
543
544
545
546
547
548
55
550
551
552
553
554
558
559
56
560
561
563
564
566666666667
569
57
570
571
58
580
581
582
583333333333
586
587
589
59
590
5934
6
60
600
6000
61
610
613
616666666667
62
620
623
624
625
63
630
631
632
633333333333
635
639
64
640
642
646
647
648
65
650
651
66
660
666666666667
67
670
671
672
673
674
675
68
680
682
683333333333
69
7
70
700
7000
71
716666666667
72
73
731
733333333333
736
74
7420
75
750
755
7567
76
760
766666666667
76667
77
7742
78
780
78333
783333333333
786
79
790
792
793
8
80
800
8000
8001
81
816666666667
82
83
830
832
8331
83333
833333333333
835
8354
84
840
842
844
845
85
850
85270
85474
86
866666666667
868
86820
87
87822
88
883333333333
89
89416
9
90
900
91
916666666667
92
928
929
93
933333333333
94
944
946
95
950
954
956
958
96
960
966
966666666667
97
978
979
98
983333333333
99
:
;
<
=
>
?
@
[
\
]
^
_
`
a
aa
aachen
aarhus
aaron
ab
aba
abablewo
abad
abaj
abany
abchazisce
abchaziska
abchaziskeje
abd
abela
abelia
abelija
abelkiwka
aber
abgerufen
abies
abinka
abiturienc
abja
abjaca
ablatiw
abo
abonentow
about
abraham
abrahama
absolutnu
absolwowas
abt
abulfaz
aby
ac
aca
acacia
acad
academia
acanthaceae
acanthus
acaulis
ace
aceho
acej
aceje
acer
aceraceae
ach
achillea
achim
achima
achimenes
achlejce
achmoj
achmy
achoti
achov
achownik
achowskaja
achowy
achtarsk
achtinsk
achtne
achu
acinos
ack
acker
aconitum
acorus
actaea
actinidia
acu
acuminata
acy
acych
acym
acymi
ad
ada
adac
adachu
adaja
adam
adams
adane
adanja
adanje
adans
adansonia
adas
adelbert
adenauer
adjektiw
adjektiwa
adjektiwow
adjektiwy
adler
administratiwne
administrator
admiral
adny
adolf
adolfa
adolph
adolphe
adonis
adonisro
adorf
adosc
adou
adow
adoxaceae
adresowane
adresy
aduje
adwacec
adwokat
adygiska
adyn
adło
ae
aenne
aesculus
aestivalis
afd
affinis
afghanistan
afghanistanje
afiksow
africa
african
africe
afrika
afrikaans
afriki
afriku
afriska
afriskeho
afriski
afriskich
ag
agaj
agan
agapanthus
agare
agave
agavoideae
agawowych
age
agnes
agric
agrimonia
agrostis
aguilera
ah
aha
ahac
ahach
ahachu
ahami
ahan
ahas
ahi
ahmed
ahnu
ahny
ahnyc
ahnychu
ahnyli
ahnył
ahom
ahorn
ahow
ahowa
ahowac
ahowachu
ahowanja
ahowanje
ahowanjom
ahowas
ahrens
ahu
ahuja
ahuje
ahujo
ai
aichele
aigner
ailanthus
ainaz
ainu
aira
aires
aiton
aizkraukle
aizpute
aj
aja
ajaz
ajba
ajdarken
ajewe
ajewsk
ajiw
ajs
ajsk
ajsko
ajtmatow
ajuga
ak
aka
akac
akachu
akad
akademie
akademija
akademije
akademiji
akademischer
akaja
akas
akcent
akcentowanje
akceptowac
akcije
akciju
akcjabrsk
akdepe
akelaja
akent
akhani
aki
akiai
akkol
akmene
akmola
akni
akny
ako
akow
akowa
akowac
akowanja
akowano
akowany
akowas
akowje
akownosc
akowny
akowskeho
akowskemu
akowski
aktiwist
aktiwistka
aktiwitow
aktiwity
aktiwne
aktiwnje
aktiwny
aktiwnych
aktiwnymi
aktobe
aktualna
aktualne
aktualny
akuja
akuju
akuzatiw
aky
al
ala
alabama
alain
alal
alamow
alan
alanska
alaska
alba
alban
albanc
albans
albansce
albanska
albanskej
albanskeje
albanski
albert
alberta
alberto
albida
albin
albrecht
albrechtowki
album
albus
alc
alchemija
alchemilla
ale
aleksandar
aleksander
aleksandr
aleksandra
aleksandro
aleksandrowic
aleksej
aleksejewic
alessandro
alex
alexander
alexandra
alexandre
alexis
alfabec
alfabet
alfabeta
alfabetom
alfons
alfred
alga
algeriska
algeriskej
algeriski
ali
alice
alie
alija
alijew
alisma
aljowa
alkaloidy
alkar
all
allan
allaorol
alle
allen
allende
aller
alles
allioideae
allium
allmusic
alma
almaty
alnus
aloe
alois
aloja
alojs
alojsa
alopecurus
alowej
alpach
alpestre
alpestris
alpha
alpina
alpinum
alpinus
alpow
alpska
alpski
alpy
als
alt
altaj
altajskim
altcunnewitz
alte
alten
altenberg
alternatiwa
alternatiwne
althaea
altissima
altmaier
altmittweida
alu
alucita
aludok
alwin
alyssum
alytus
alzette
am
amara
amarant
amaranthaceae
amaranthus
amarylisowych
amaryllidaceae
amaryllis
ambroz
ame
amelanchier
america
american
americana
americe
amerika
ameriki
ameriku
ameriska
ameriske
ameriskeho
ameriskej
ameriskeje
ameriski
ameriskich
ameriskim
amerisko
ami
amilja
amize
ammophila
amorpha
amos
ampfer
amsterdam
amt
amte
amtliches
amtsberg
amtshauptmannschaft
amudarja
amur
amurskej
amwrosijiwka
amy
an
ana
anacardiaceae
anach
anagallis
analysis
analyzowac
analyzu
analyzuje
analyzy
anam
anami
ananas
ananjiw
anastasiadis
anatolij
anbe
anc
anchusa
and
andach
andawa
anders
anderson
andijon
andijona
andijonskej
andorra
andorraski
andov
andow
andre
andrea
andreas
andree
andrej
andreja
andrejewic
andrejewna
andrew
andrews
andric
andrickeho
andricki
andrijiwka
andrijowyc
andritzki
andrjejewka
android
androsace
andrus
andrzej
andy
ane
anecy
aneho
anej
aneje
anemone
anenii
anfa
angak
angaz
angela
angele
angeles
angelika
angelo
angelu
angiosperm
anglica
angola
angren
anguilla
angustifolia
angustifolium
anhaltska
anhaltskej
anhaltskeje
ani
anicy
anime
anis
anita
anja
anje
ank
anka
anke
anki
ankowic
ankowyc
anku
anmerkungen
ann
anna
annaberg
annalena
annan
anne
annegret
annette
annua
annuus
anny
anoho
anom
anosta
anostu
anosty
anow
ans
ansambl
ansambla
ansamblu
ansce
anscy
ansk
anska
anske
anskeho
anskej
anskeje
anskemu
anski
anskich
anskim
anskimi
ansko
anskoho
ansku
anstwa
anstwo
ansu
ant
anta
ante
anthericum
anthony
anthoxanthum
anti
antifas
antigua
antiki
antirrhinum
antje
anto
antoine
antologija
anton
antona
antoni
antonia
antonino
antoniny
antonio
antonymy
antopal
antsla
antti
antwerpen
anu
any
anych
anyks
anym
ao
apajew
aparaty
apatity
ape
apel
apfel
apg
aphylla
apiaceae
apioideae
apku
aplicy
apocynaceae
app
appan
appl
apple
aprikoza
aprikozowc
aprjelewka
apryl
apryla
aprylom
aprylu
aputova
aquatica
aquilegia
ar
ara
arabis
arabs
arabsce
arabska
arabske
arabskeho
arabskej
arabskeje
arabski
arabskim
araceae
arach
aral
aramejs
aranz
ararat
aras
araucaria
arbeit
arborescens
arbutifolia
archa
archangelsk
archangelskej
archeologa
archeologiske
archidiakon
architekt
architekta
architekturu
architektury
archiv
archive
archiw
archiwa
archiwar
archiwje
archiwowane
arcybiskop
arcybiskopa
arcybiskopstwa
arcywo
arcyz
are
arec
arecaceae
arechawsk
arenaria
arenc
arendt
arenosa
arg
argentea
argentinska
argentinskej
argentinskeje
argentinski
argon
arhorod
aria
ariogala
arisaema
aristolochia
ariwske
arizona
arjan
arje
arkansas
arkaws
arkent
arki
arlachc
armand
armeje
armen
armenjanow
armenjenjo
armens
armensce
armenska
armenskej
armenskeje
armenski
armensko
armeria
armin
armoracia
armstrong
arn
arne
arno
arnold
arnoltice
arnos
arnow
arnsdorf
aro
arojo
aromatisce
aronia
aronija
aronowych
arow
arowa
arowac
arowas
arowy
ars
arsce
arska
arskeho
arskej
arskeje
arski
arsko
arsku
art
artemisia
arten
arthur
artikl
artikla
artikulowac
artocarpus
aru
aruba
aruncus
arundinacea
arvense
arvensis
arxiv
ary
arys
arzberg
as
asa
asach
asaka
asam
asami
asawka
asc
asch
asclepiadoideae
asclepias
ase
asecy
asej
asiatica
asimilacije
asipowic
asiw
asne
asneho
asneje
asnik
asnikow
asnja
asnje
asnosc
asny
asnych
asnym
asocie
asom
asopis
asopisa
asopisach
asopisaj
asopisow
asopisu
asopisy
asow
asowa
asowac
asowachu
asowas
asowe
asowje
asowy
asowych
asparagaceae
asparagus
aspekt
aspektow
aspekty
asperula
asquith
assembler
ast
asta
astana
astany
aste
asteraceae
asteroid
astilbe
asto
astrachan
astragalus
astrawjec
astrid
astrologija
astronawt
astronom
astronomija
astronomiska
astryna
asu
asuje
asuncio
aswjeja
asy
at
ata
ataj
atatu
atava
atbasar
atd
ate
atej
atentat
atentatnik
athen
atk
atka
atki
atko
atkom
atkow
atku
atlantiskeho
atlantiski
atlantiskim
atlas
atlyk
atnje
atom
atomow
atomoweje
atomy
atow
atrata
atributy
atriplex
atropa
atstwa
atstwje
atstwo
atura
aty
atym
atyrau
au
aubl
auce
auch
auct
audio
aue
auerbach
auf
aufl
auflage
augentrost
augsburg
august
augusta
auguste
augustin
augusto
augustus
augustusburg
auras
aurea
aureum
auriculata
aus
auschkowitz
austin
australis
austriaca
austriacum
auto
ava
avellana
avena
avignon
avin
avium
aw
awa
awanhard
awarsce
awc
awdijiwka
awdiodatajow
awgusc
awgust
awgusta
awgustom
awic
awinsk
awje
awka
awki
awokado
awowych
aws
awstralija
awstraliji
awstralska
awstralskej
awstralskeje
awstralski
awstriska
awstriske
awstriskej
awstriskeje
awstriski
awstriskich
awstrisko
awstrisku
awta
awtach
awto
awtobiograf
awtodro
awtomatisce
awtonomiju
awtonomna
awtonomne
awtonomneho
awtonomnej
awtonomneje
awtonomny
awtonomnym
awtor
awtora
awtorach
awtorka
awtorojo
awtorom
awtorow
awtow
awtowa
awusy
awy
axel
axillaris
az
aza
azaryc
azec
azerbaijan
azerbajdz
azija
azije
aziji
aziju
aziska
aziski
aziskim
aziz
aznavour
azow
azowa
azowskeho
azu
azy
ał
ała
ałe
ałka
ało
ałoj
ałosc
ałostnje
ałzata
ałzojc
ałzowe
ałzy
aʀ
aʧ
b
ba
baader
bab
babaday
babanka
babin
babis
babow
babrujsk
babsk
babska
baby
babydus
babylon
babynci
bac
baccata
bach
bachmac
bachmut
back
bad
baden
badenska
badensko
baerbock
baerenstamma
bagen
bagenz
bahac
bahamy
bahia
bahna
bahnach
bahno
bahnow
bahnowa
bahnowy
bahorowa
bahr
bahrain
bahretal
bahus
baill
baja
baje
bajka
bajkalskeho
bajki
bajkow
bajku
baker
bakerowa
bakterije
baku
bakuwa
baladow
balas
balbasawa
baldone
baldwin
balkan
balkanabat
balkanje
balkanskej
balkanskeje
balkanski
balkanskich
balkarska
balkarskej
balkas
balke
balko
ball
ballota
baloz
balta
balthasar
baltikumje
baltiske
baltiskeho
baltiski
baltiskich
baltiskim
baltoji
balvi
balykc
bambruch
bami
bamiz
bamz
ban
banana
banc
bance
band
bandleader
banecy
banglades
banjowc
banjowcowych
bank
banka
banki
bankownik
bankowy
bannewitz
bantu
bantuske
bantuskich
baptiste
bar
baran
baranawic
baraniwka
barawucha
barba
barbach
barbados
barbami
barbara
barbaraea
barbic
barbjene
barbjenje
barbjenk
barbjerska
barbow
barbu
barbuda
barbuk
barby
barc
barcelona
barley
barlinje
barmowka
barnaula
barneby
barnim
baroka
barokna
barokny
barokowy
baron
barre
barry
bars
bart
barta
barth
barthe
bartko
bartom
bartous
bartskeje
baruch
baruth
barys
barysaw
barzel
bas
basarabeasca
based
basel
baselitz
basen
basic
basist
basketballowc
baskiska
basni
basnic
basnica
basnik
basnika
basnikow
basniske
basniski
basnistwa
basnistwo
basnjach
basnje
basnjemi
basnjerka
basnjes
basnjow
bassia
bastard
batjowo
batken
battista
baturyn
bau
baudouin
bauer
baum
bauska
bautzen
bautzener
baxt
bay
bayerischer
bayern
bayerska
bayerskej
bayerskeje
bayerski
bayerskim
baz
baza
bazalija
baze
bazlik
bazowe
bazu
bazuja
bazuje
bazy
bałcar
bałdrijan
bałdrijanecy
bałdrijanowych
bb
bbc
bbern
bbrick
bchen
bd
be
beata
beate
beatles
beaty
bebel
bechtle
beck
beckenberg
becker
bedeutung
bedr
beermann
beeskow
beethoven
begonia
begoniaceae
bei
beierfeld
beilrode
beinwell
beitra
beitrag
bejerecy
bejmak
bekobod
bel
bele
belgern
belgershain
belgiska
belgiskej
belgiskeje
belgiski
belize
bell
bella
bellen
bellwitz
beln
belten
belz
bemiz
ben
bena
benda
bender
benedikt
benedikta
benej
benes
benin
benjamin
bennewitz
benno
beno
benth
ber
berberidaceae
berberis
berdyc
berehomet
berehowe
bereket
beresowyzja
berestec
berez
berezan
bereziwka
berezna
bereznyj
berezyne
berg
bergan
bergbaubedingter
bergen
bergenia
bergenija
berger
berggießhu
bergisch
bergmann
bericht
beringowy
berkenbru
berlin
berlina
berlinje
berlinom
berlinska
berlinskeho
berlinskej
berlinskeje
berlinski
berlinskim
bermuda
bern
bernard
bernbruch
bernd
bernhard
bernsbach
bers
bersteland
bertolt
bertsdorf
beru
beruniy
beryslaw
berzdorf
bes
beschreibende
beshariq
beshkent
besonderer
best
beste
bestensee
bestimmungsbuch
beta
betonica
bettel
bettina
betula
betulaceae
bevo
bewohnter
bezde
bezkow
bhutan
bi
biatletka
biała
białogard
białogo
białystok
białystoku
biblija
biblije
bibliji
bibliju
bibliograf
bibliografija
bibliografije
bibliografiji
bibliographie
bibliographisches
bibliotece
biblioteka
bibliotekar
biblioteki
biblioteku
bibliske
bibrka
bic
biden
bidens
bie
bieb
biedenkopf
biehla
bielatal
bielefeld
bielsko
bienenmu
bierlein
bierun
biflora
big
bijachu
bila
bild
bildatlas
bildung
bilen
bilhorod
biljajiwka
biljari
bill
billy
bilohirja
bilokorowyc
bilong
bilozerka
bilozerske
bils
bilycke
bilyky
bimbawka
bin
bing
bingen
binse
biobliographisches
biochemikar
biografie
biografien
biografija
biografije
biografiji
biografiski
biographie
biolib
biologa
biologie
biologija
biologischen
biosferowy
birke
birky
birs
biruint
birz
bis
biskop
biskopa
biskopej
biskopic
biskopicy
biskopske
biskopstwa
biskopstwo
bisky
bislams
bison
bissau
bitwa
bitwis
bitwje
bitwu
bitwy
bitz
bixa
bjahoml
bjalynic
bjar
bjarnat
bjarnata
bjaroza
bjarozawka
bje
bjec
bjedrich
bjedricha
bjedrichecy
bjedrichom
bjedrusk
bjelaazjorsk
bjelaja
bjelgorod
bjeloomut
bjeloozjorskij
bjelyj
bjen
bjenadz
bjenc
bjerastawica
bjerazino
bjerje
bjerjes
bjeru
bjerwałd
bjesada
bjesadu
bjesady
bjeta
bjety
bjez
bjezbo
bjezdowy
bjezdwe
bjezdz
bjeze
bjezkonfesionelna
bjezkonfesionelny
bjezmała
bjezmo
bjezposre
bjezstras
bjezstronski
bjeztoho
bjezwokrjesne
bjezwokrjesnej
bjezwuwzac
bjo
bke
bkowice
bl
bla
black
blady
blagowes
blahodatne
blair
blakate
blake
blaki
blaku
blanc
blank
blanka
blaschke
ble
blec
bles
bletilla
bli
blica
blida
blidar
blidarski
blido
blidom
blidz
blind
blis
bliska
bliske
bliskeho
bliskej
bliskeje
bliski
bliskich
bliskim
blisko
bliskosc
bliwje
bliz
blizko
blizkosc
blo
blok
bloka
bloku
blonde
blood
bloom
blu
blue
blues
bluesowy
blume
blumen
blun
blus
blv
blysmus
bna
bne
bneho
bnej
bneje
bner
bni
bnic
bnica
bnicow
bnicy
bnik
bniki
bnikow
bnit
bnitz
bnje
bnosc
bnowe
bnu
bny
bnych
bnym
bnymi
bo
bob
bobby
bobolc
bobolce
bobolcy
bobos
bobow
bobr
bobritzsch
bobrow
bobrowskeho
bobrowycja
bochtar
bochum
bocka
bockau
boderitz
bodo
bodz
bodø
bog
bogatynia
bogna
bogorodskoje
boguc
boguchwał
bogume
bogumił
bogusławski
boguwe
boha
bohabojosc
bohac
bohachwał
bohata
bohate
bohateho
bohatej
bohateje
bohatosc
bohats
bohatstwo
bohatu
bohaty
bohatych
bohatym
bohemica
bohl
bohom
bohorodc
bohot
bohotska
bohotski
bohotskim
bohow
bohu
bohuchwał
bohume
bohumił
bohuslav
bohuslaw
bohuwe
bohuz
boiss
boja
bojarka
bojec
bojes
bojis
bojkiwske
bojosc
boju
bok
boka
bokach
boki
bokomaj
bokow
boku
bolborc
bolborcy
bolboschoenus
boldumsaz
bolechiw
bolesław
bolesławiec
bolhrad
boli
boliwiska
boliwiskej
boliwiskeje
bologna
bolosc
bols
bom
bombardowanju
bomby
bon
bonaire
bonaparte
bonasus
bonn
bonnje
bonpl
boogie
books
bor
boraginaceae
borago
boranecy
borbora
borboru
borchert
borealis
borecy
borek
boris
borisoglebsk
borisow
borna
borne
borneo
borno
borny
borodino
borodjanka
borova
borowa
bors
borsdorf
borut
borynja
boryslaw
boryspil
borzna
bos
bosc
bosna
bosnis
bosniska
bosniskej
bosniskeje
bosniski
bosnisko
bosporus
boston
bosy
bot
botanica
botanical
botanicky
botanik
botanikar
botaniske
botany
botsuana
botswana
bottrop
bow
bowa
bowac
bowali
bowanja
bowanje
bowanjo
bowas
bował
bowc
bowe
boweje
bowie
bownik
bowy
boy
boysun
boz
bozanka
bozowc
bołhars
bołharsce
bołharska
bołharskej
bołharskeje
bołharski
br
bra
brac
brachuje
brachypodium
braclaw
brahyn
brajiliw
bram
brambach
bramborskeho
brand
brandenburg
brandis
brandkraut
brandt
branibor
braniborska
braniborske
braniborskeho
braniborskej
braniborskeje
braniborski
braniborskim
braniborsku
branitz
brankac
bras
brasicaceae
braslaw
brassica
brassicaceae
bratisławje
bratr
bratra
bratraj
bratram
bratrej
bratrom
bratrow
bratrowc
bratrowskeje
bratrowstwa
bratrowstwo
braun
brauna
braunkohlenrevier
braz
brazilska
brazilskej
brazilskeje
brazilski
bre
brecht
breisgau
breitenbrunn
breitingen
bremen
bremerhaven
brentano
brest
bresta
brestskej
bretanja
bretons
brian
briceni
brid
bridson
briefe
briesen
brieskow
brigada
brigadnicy
brigadnik
brigadow
brigadowanja
brigadowanje
brigady
brigitte
brijuni
britain
britaniska
britaniskeje
britannica
brithenig
british
britiska
britiske
britiskeho
britiskej
britiskeje
britiski
britiskich
britisko
britton
brjansk
brjazyna
brjazynje
brjo
brjoha
brjohach
brjohi
brjohom
brjohomaj
brjohowa
brjohu
brjoze
brjuch
brjuchowyc
brjus
brne
brnje
brno
bro
broce
brockhaus
brod
broda
brodecke
brodkojce
brodtkowitz
brody
brodz
brojer
brombeerstrauch
bromus
bronis
bronisław
bronisławo
bronjo
bronkow
bronnicy
bronzowe
bronzoweje
bros
browa
browary
brown
broz
bru
bruce
bruk
bruki
bruna
brunc
brune
brunei
brunhild
brunica
brunicowa
brunicowe
brunicoweho
brunicoweje
brunicowu
brunicowy
brunicowych
brunicowym
brunicu
brunicy
bruno
brunoc
brunow
bruns
bruny
brusnica
brusy
brusyliw
bryl
bryland
bryonia
brzeg
brzez
bschu
bu
bubnowas
bubonar
buc
buch
buchanan
buchara
bucharskej
buchary
buche
buchholz
buchu
buck
buckow
bucova
buda
budapest
budar
budarja
budarjec
budarjowa
buddleja
bude
budestec
budestecach
budestecy
budissin
budissinensis
budu
budys
budyska
budyske
budyskeho
budyskej
budyskeje
budyskemu
budyski
budyskich
budyskim
budysku
budz
buenos
bug
buj
buja
buje
bujo
buk
buka
bukac
bukec
bukecach
bukecy
bukojc
bukojna
bukovina
bukow
bukowc
bukowina
bukowinje
bukowka
bukowych
buksowc
buky
bulank
bulawynske
bulgakow
bull
bulmahn
bulung
bundesministerium
bundesregierung
bunge
bunhe
bur
bura
buram
bureau
buren
burg
burgsta
burja
burjatska
burkhardtsdorf
burkina
burma
burow
burs
burska
burske
burskeho
burskeje
burski
burskich
burskim
burundi
bus
busch
buschmann
bush
business
busk
buske
buston
butrowa
butry
butterfly
buttolo
buturlinowka
buxaceae
buxus
buz
buzka
by
byc
bych
bychaw
bychmy
bychu
bydgoszcz
bydla
bydlachu
bydlenja
bydlenje
bydlenju
bydlenske
bydlenski
bydlenskich
bydles
bydli
bydlis
bydliło
byho
byki
bykiwka
bykowo
bylbasiwka
byli
bynovec
byrgarska
byrgarske
byrgarskej
byrgarskeje
byrgarskich
byrgarskim
byrnjez
bys
bystrica
bytkiw
bytom
bytosc
bytostne
bytostnje
bywa
bywaja
bywas
byws
był
była
byłe
było
byłoj
bz
bzez
błaz
bło
błohas
błos
błudz
błys
c
ca
cach
cachor
cachorowowych
cachorowych
caerulea
caesia
cahul
caicosowe
cajander
cala
calamagrostis
calceolaria
cale
calendula
california
californica
calliandra
callitrichaceae
callitriche
caltha
calvin
calystegia
cambridge
camenca
cameron
cami
campanula
campanulaceae
campbell
campestris
camponotus
camprowanje
can
canadensis
canariensis
canescens
cani
canina
canis
cannabaceae
cannabis
canned
canta
cantemir
cany
capitata
caprifoliaceae
capsella
car
cara
cardamine
cardaria
carex
carica
carja
carl
carla
carlo
carlos
carlsberg
carnea
carolina
carota
carpinus
carr
carrie
carstens
carstwa
carstwo
carstwu
carter
carthamus
cartoonist
carum
caryophyllaceae
cas
casa
casel
casimir
casnik
casnika
casniku
caspar
caspari
cass
cassia
castanea
castanopsis
castro
cat
catalpa
catholic
cav
cavertitz
cayennowy
cazeneuve
cazow
cc
cd
cdot
cdu
ce
ceadi
cebrykowe
cedra
cedrus
cej
celastraceae
celjachany
cellist
cem
cembalist
cen
census
censusa
centaurea
centaurium
center
centimetrow
centra
central
centralna
centralne
centralneho
centralnej
centralneje
centralnoafriska
centralnu
centralny
centralnych
centralnym
centrum
centruma
centrumje
cephalanthera
cerachowka
cerar
cerasifera
cerastium
cerasus
ceratophyllum
cerkwa
cerna
cersk
cespitosum
cesvaine
ceuta
ch
cha
chabar
chabarowsk
chach
chaenomeles
chakaska
cham
chamaesyce
chamberlain
chamisso
chanecy
chang
chanje
chantow
chanty
chaos
char
charakter
charaktera
charakteristiske
charakteristiski
charakterizuje
charcyzk
charkiw
charkiwa
charkiwskej
charles
charlie
charlotte
chas
chasow
chata
chawka
chc
chce
chcedz
chcemy
chces
chch
chcu
chcyc
chcych
chcychu
chcyli
chcys
chcył
chcyła
che
checklist
chelak
chelna
chelno
chemberk
chemije
chemiju
chemikar
chemiski
chen
cheng
chenopodiaceae
chenopodium
cher
cherl
cherson
chersonskej
chev
chi
chiba
chibazo
chicago
chile
chilska
chilskej
chilski
chimboy
chimki
china
chinensis
chinje
chinoz
chins
chinsce
chinska
chinske
chinskej
chinskeje
chinski
chiny
chirac
chirchiq
chiroqchi
chirurg
chisor
chitan
chle
chlebnikow
chlibodarske
chlorantha
chlorofyl
chloroplast
chlovice
chlumec
chman
chmelnyckeho
chmelnyckyj
chmilnyk
chmjel
chmjelny
chmjelow
chmoj
chmy
cho
choc
chocholskij
chocimsk
chodno
chodoriw
chodz
chojnan
chojnata
chojniki
cholmy
cholodne
cholopenic
cholowy
chom
chomutowka
chor
choreograf
chorhoj
chorhojc
chorhoje
chorjecy
chorlowo
chorobna
chorol
choros
chorosc
chorostkiw
chorowatosc
chorowaty
chorowni
chortnica
chortoq
chorug
chorwac
chorwatow
chorwats
chorwatsce
chorwatska
chorwatske
chorwatskeho
chorwatskej
chorwatskeje
chorwatski
chory
chorych
chorzo
chos
choszczno
chote
chotkowo
chotyn
chow
chowa
chowac
chowachu
chowanc
chowanja
chowanje
chowanju
chowanske
chowanskeho
chowar
chowas
chowcy
chołmc
chołmcu
chołmje
chołmy
chr
chrapow
chre
chrestiwka
chribjec
chribjet
chribjetom
chris
christa
christian
christiana
christiane
christina
christine
christmas
christoph
christopher
chrjebi
chrjebja
chro
chrobły
chromozomow
chromozomowa
chronice
chronik
chronika
chronikar
chroniki
chronist
chrtni
chrustalnyj
chrympawa
chrys
chrysta
chrystus
chrystusa
chrystyniwka
chrza
chse
chsische
chsischen
chsischer
chten
chto
chu
chuang
chuderov
chudoba
chudobka
chudoby
chudowina
chudy
chudych
chudym
chudz
chuja
chuje
chun
church
churchill
chusej
chust
chutne
chutnje
chutnosc
chwac
chwalba
chwalbu
chwalic
chwata
chwatachu
chwatas
chwatkom
chwatnje
chwile
chwilku
chwilu
chyriw
chło
ci
cia
cichorium
cie
cieszyn
cil
cile
cilej
ciliata
cimicifuga
cimis
cimt
cin
cinerea
cinnamomum
cio
circaea
cistaceae
cities
citowane
citowanski
citrona
citronowa
citrus
cituje
city
ciuca
civitas
civitates
cjurupy
ck
ckchen
cke
ckel
cken
ckendorf
ckensteina
cker
ckersdorf
ckerswalde
cki
ckner
ckowy
cksichtigung
cku
clara
clark
clarke
clarkia
class
classification
claude
claudia
clauß
claußnitz
clav
cle
clematis
clemens
clement
cleopatra
clethra
cleveland
clinton
clive
club
cm
cna
cnarstwa
cnarstwje
cnarstwo
cnarstwom
cnarstwoweho
cnarstwowy
cnarstwu
cne
cneho
cnej
cneje
cnemu
cni
cnis
cnje
cny
cnych
cnym
co
coccinea
cochlearia
code
codiakalnej
codru
coeloglossum
coffea
cohen
cokor
cokorom
cokorowa
cokow
colchicum
colditz
colias
colin
collection
collina
collins
colorado
columbia
com
come
comicowy
committee
commons
commonwealth
commonwealtha
communis
company
compostela
compressus
comrat
conach
conan
connecticut
conrad
consolida
constance
convar
convolvulaceae
convolvulus
cony
cook
coolidge
coologa
cooper
corchorus
cordata
cordifolia
cork
cornelius
cornes
corniculatus
cornus
coronilla
coronopus
corydalis
coryloideae
corylus
cos
costa
costes
coswig
cotoneaster
cottbus
coult
country
countryjowy
courtenay
cow
cowa
cowac
cowali
cowanja
cowanjach
cowanje
cowanjow
cowanju
cowar
cowarjow
cowas
cował
cownje
coz
crantz
crasnoe
crassula
crassulaceae
crataegus
crenata
creole
cres
crescent
cretica
cricova
crinitz
crispa
crispien
criuleni
crocus
croo
crottendorf
cruciata
cs
css
csu
csv
cu
cucullata
cucumis
cucurbita
cucurbitaceae
cuja
cuje
cukuzine
cuman
cunnersdorf
cupcini
cupressaceae
curac
curry
curt
curtis
curuba
cus
cuza
cuze
cuzeho
cuzeje
cuzore
cuzy
cuzych
cuzym
cvikov
cvikova
cwitkowe
cwjetajewa
cy
cybla
cyblic
cyblink
cybuliw
cycak
cycakow
cycas
cycawka
cycawkowych
cyhele
cyhelnica
cyhelnicy
cyklus
cyle
cympl
cyna
cyneje
cyperaceae
cypernska
cyperus
cypresa
cypresowych
cypripedium
cyril
cyrila
cyrkej
cyrkwi
cyrkwic
cyrkwina
cyrkwine
cyrkwinsce
cyrkwinska
cyrkwinske
cyrkwinskeho
cyrkwinskej
cyrkwinskeje
cyrkwinski
cyrkwinskich
cyrkwinskim
cyrkwinsku
cyrkwiny
cyrkwjach
cyrkwjam
cyrkwje
cyrkwjow
cyrkwju
cyroba
cyrobu
cyroby
cytan
cytisus
cyz
cyła
cyłe
cyłeho
cyłej
cyłeje
cyłk
cyłka
cyłkowna
cyłkowne
cyłkowneho
cyłkowneje
cyłkownje
cyłkowny
cyłku
cyłoho
cyłokromne
cyłole
cyłone
cyłu
cyły
cyłych
cyłym
cz
cze
czerniewice
czesław
czorneboh
czyn
cław
cławja
cławju
d
da
dabit
dabrec
dac
dach
dachau
dachu
dadz
dag
dagda
dagestan
dagestanskich
dagmar
dahlen
dahlitz
dahme
dai
dainiai
daj
daja
dajo
dakota
dale
dalej
dalewuwic
dali
dalic
dalicy
dalinje
dalmaciskej
dalmaciskeje
dalmatis
daloka
dalokej
dalokeje
daloki
dalokich
dalokim
daloko
dalokodro
dalokosc
dalokoz
dals
dam
dama
damac
dami
dammendorf
damna
damy
dan
dana
danc
dance
dandy
dane
daniel
daniela
daniwka
danja
danje
dans
dansce
danska
danskej
danskeje
danski
danuta
daphne
dar
darbnja
darganata
dari
daric
darin
darja
dark
darmo
darmstadt
darohi
darow
darske
darskeho
darskeje
darstellung
daruj
dary
das
dashtobod
data
database
dataja
dataje
date
datiw
datlowc
datow
datowa
datowanje
datowej
datuje
datum
daty
daucus
daugai
daugavpils
dave
david
davis
dawa
dawac
dawaja
dawas
dawał
dawid
dawk
dawki
dawkow
dawno
dawyd
dawydowka
day
daz
daß
dał
dała
dało
dbaden
dby
dc
dce
dd
ddr
de
dean
death
debalcewe
debatowac
debora
debricy
debrikecy
debsecy
dec
december
decembra
decembrje
decembru
decne
decumbens
dedenjewo
dedowsk
defa
definicija
definicije
definiciji
definiert
definitny
definowac
definowane
definowany
definuje
deho
dej
deje
dejka
dek
dekan
deker
deklamowac
deklinacija
deklinacije
deklinaciji
del
delan
delanach
delany
delavayi
delaware
delc
dele
deleka
delen
delenk
delfiny
delic
delitzsch
deljatyn
della
delni
delnich
delnim
delnja
delnje
delnjeho
delnjej
delnjeje
delnjo
delnjone
delnjos
delnjoserbow
delnjoserbs
delnjoserbsce
delnjoserbska
delnjoserbske
delnjoserbskeho
delnjoserbskej
delnjoserbskeje
delnjoserbski
delnjoserbskich
delnjoserbsku
delnjołuz
delnju
delphinium
delta
deltu
delty
dem
demjany
demograf
demokrat
demokratisce
demokratiska
demokratiske
demokratiskej
demokratiskeje
demokratiski
demokratiskich
demokratow
demonstrowac
demu
den
denijewo
denis
denn
denov
dentaria
department
depsk
der
deraue
deraz
derbno
derby
dereneczna
derenek
deret
derje
derjeme
derland
derle
derwan
derz
des
deschampsia
deschanel
descr
desf
designer
deski
desmond
desna
desr
dessau
detaile
detlef
deum
deus
deutsch
deutschbaselitz
deutsche
deutschen
deutscher
deutsches
deutschland
deutschlands
deutschneudorf
deutzen
deutzia
dewastacija
dewaste
dewcija
deyzidoxs
dez
dha
di
diakon
dialekc
dialekt
dialekta
dialektach
dialektow
dialekttexte
dialekty
dialog
diana
diane
dianthus
dibrowa
dick
dictionary
die
diego
diels
diensdorf
diera
dieter
dietmar
dietrich
dietz
diferenca
diferencowanje
diger
digitalis
digitalizat
digitalnym
digitaria
digraf
dihtjari
diktator
diktatury
diminutiw
dims
din
dio
dioica
diospyros
diplomat
diplomowany
diplomowy
dippoldiswalde
dipsacaceae
dipsacoideae
dipsacus
direktna
direktne
direktnje
direktny
direktor
direktora
direktorka
direktorom
dirigent
dirigowas
dirk
dis
disciplina
disertacija
disertaciju
disident
diskusija
diskusije
diskusiji
diskutowane
diskutowas
displaystyle
dispoziciji
dissen
dissenchen
distans
district
districts
distrikt
dith
dittersbach
ditz
divis
division
diwycja
dj
djaboł
dk
dka
dkach
dkami
dkar
dke
dkej
dki
dkich
dko
dkojtych
dkom
dkosc
dkow
dkowa
dkowac
dkowanje
dkowice
dkp
dku
dkuje
dla
dlanska
dlanske
dlanskej
dlau
dle
dlica
dlina
dlouha
dlow
dma
dmitrij
dmitrijew
dmitrow
dmytriwka
dna
dnac
dne
dneho
dnej
dneje
dnemu
dnestrovsc
dni
dnic
dnica
dnicy
dnik
dnika
dniki
dnikom
dnikow
dnipra
dnipropetrowsk
dnipropetrowskej
dnis
dnistrowskyj
dnistwa
dnistwo
dnja
dnjach
dnjankowych
dnje
dnjej
dnjeje
dnjemi
dnjepr
dnjepra
dnjestr
dnjestra
dnjo
dnjom
dnjow
dnjowy
dnju
dno
dnoc
dnosc
dnota
dnotne
dnotny
dnotow
dnotu
dnoty
dnu
dny
dnych
dnym
dnymi
do
doba
dobe
dobele
doberlug
doberschu
dobje
dobkovice
doblin
dobom
dobra
dobranecy
dobre
dobreho
dobrej
dobreje
dobremu
dobri
dobrig
dobrik
dobrindt
dobrjanka
dobrjoług
dobrna
dobro
dobroc
dobroho
dobromyl
dobropillja
dobros
dobroslaw
dobrotwir
dobroty
dobrowo
dobru
dobrucky
dobrus
dobry
dobrych
dobrym
dobrynje
dobu
dobudz
doby
dobyc
dobychu
dobyli
dobytk
dobywa
dobywac
dobył
dobyła
doc
docent
doch
dochodow
dochody
docpe
docyła
doda
dodac
dode
dodz
dohlad
dohladowar
dohma
dohna
doho
dohromady
doi
dojc
doje
dojta
dojte
dojty
dok
dokal
dokelz
doko
dokonja
dokonjanosc
dokonjec
doks
doktor
doktora
dokuc
dokulaz
dokument
dokumentach
dokumentacija
dokumentation
dokumentow
dokumentuje
dokumenty
dokładna
dokładne
dokładnis
dokładnje
dokładnosc
dokładny
dokładnym
dokładz
dolan
dole
dolgoprudnyj
dolgowitz
dolina
dolinje
dolinu
doliny
dollinger
dolna
dolnej
dolni
dolnos
dolnoserbskeje
dolnoserbski
dolnoserbskich
dolny
dolyna
dom
doma
domach
domas
domc
domestica
domi
domic
dominik
dominika
dominikanska
dominikanski
domizna
domizniski
domiznje
domiznowe
domiznu
domizny
domja
domjaca
domjace
domjaceje
domjacnosc
domjacu
domjacy
domjacych
domjacym
domje
domjo
domju
dommitzsch
domo
domodedowo
domoj
domom
domoro
domosc
domostna
domostne
domostneho
domostnej
domostneje
domostnica
domostnicy
domostnik
domostnikow
domostnje
domostny
domostnych
domostnym
domostnymaj
domow
domowe
domowina
domowinje
domowinska
domowinskeho
domowinskeje
domowinski
domowinu
domowiny
dompuc
doms
domsdorf
domske
domu
domy
don
dona
donald
donat
dondus
done
donecke
donew
donin
doniz
donjeck
donjecka
donjeckej
donnerhak
donnerhakec
donom
donos
donostia
donske
dopisowar
dopisowas
dopisy
dopjelni
dopo
dopokaz
dopokaza
dopokazac
dopokazane
dopokazuja
dopokazuje
dopokazy
dopomina
dopomni
dopomnic
dopomnjec
dopomnjenki
dopomnjenkow
doporuc
dopołdnja
dopr
dopre
dopus
dora
dore
dorf
dorfchemnitz
dorfhain
doris
dorjecy
dornic
dornica
doro
dorosc
dorost
dorosta
dorothea
dorski
dortmund
dos
dosaha
dosahuje
dosc
dosko
doslidnycke
dospołne
dospołnis
dospołnje
dospołny
dostluk
dostojnosc
dotal
dotalne
dotalneho
dotalny
dotalnych
dotwarjenja
dou
douard
doubice
doubravou
douglas
douglasija
dow
dowa
dowac
dowaca
dowace
dowacej
dowaceju
dowachu
dowacu
dowacy
dowacych
dowacym
dowali
dowanja
dowanje
dowanjo
dowanju
dowas
dowało
dowbys
dowe
dowidz
dowjedz
down
downie
dowol
dowola
dowolene
dowoli
dowolic
dowolnosc
dowoz
dowy
doyle
doz
dozady
dozrawja
doł
doła
dołach
dołha
dołhac
dołhe
dołheho
dołhej
dołheje
dołhi
dołhich
dołhim
dołhimi
dołho
dołhoc
dołhojc
dołhojte
dołhole
dołhosc
dołhostniki
dołhu
doły
dołz
dp
dr
dra
draba
drabiw
drac
drachhausen
drahic
drak
drake
drakowych
drama
dramatikar
dramatiki
dramaturg
dramaturgowka
drapalc
drapalcowe
drapalcowych
drapata
drapaty
drasc
drasta
drastow
drastu
drasty
drawsko
dre
dream
drebach
drebkau
drehnow
dreho
drei
dreiheide
drej
dren
dresden
drese
dreyer
drezdenko
dricy
drina
dripatka
drje
drjebiznje
drjebiznowych
drjec
drjen
drjenow
drjewa
drjewjana
drjewjane
drjewjans
drjewjany
drjewjanych
drjewnica
drjewno
drjewo
drjewore
drjez
drjezna
drjowk
drjowka
drnovs
dro
drobna
drobne
drobnostki
drobnus
drobny
drobnych
droby
drobys
drochia
drogojce
droha
drohe
drohi
drohobyc
drojte
drosera
droseraceae
drowioletne
droz
drozelena
drozelene
drozeleny
dru
druge
druha
druhanov
druhdy
druhdz
druhe
druheho
druhej
druheje
druhemu
druhi
druhich
druhim
druhimi
druhoho
druhomu
druhu
druskininkai
druz
druzy
drvenik
dry
drybin
drych
drym
ds
dsb
dski
dskim
dstwa
dstwje
dstwo
dstwom
dstwow
dstwu
dt
dtirol
du
dual
dub
duba
dubc
dubia
dubium
dubja
dubje
dubju
dublin
dublinje
dubljany
dubna
dubo
dubow
dubowe
dubowych
dubrawa
dubrawje
dubrawka
dubrawy
dubrjenk
dubrjenske
dubrovnik
dubrowka
dubrowna
duby
dubys
duc
duch
ducha
duchcov
duchej
duchesnea
ducho
duchom
duchon
duchow
duchowna
duchowne
duchowneho
duchownej
duchowni
duchownje
duchowno
duchownstwa
duchownu
duchowny
duchownych
duchownym
duchownymi
duchu
ducy
duda
dugi
duisburg
duja
duje
dujes
dujo
duke
dulig
duljowo
dulkata
dulki
dum
dumort
dunaj
dunaja
dunajiwci
dunaju
dunn
durbe
durch
durian
durinska
durinske
durinskeho
durinskej
durinskeje
durinski
durinskim
durjach
durje
durjemi
durles
dus
dusetos
dusyk
duz
dvd
dve
dwacec
dwacetych
dwaj
dwanac
dwanaty
dwe
dweju
dwina
dwiny
dwo
dwoje
dwojorjadkata
dwora
dworje
dwory
dwudomnje
dwudz
dwule
dwure
dwusplaz
dwuzdo
dy
dych
dycha
dychnic
dychom
dykan
dylan
dym
dymer
dymerka
dynastije
dypk
dypka
dypkate
dypki
dypkom
dypkow
dypku
dyrbach
dyrbi
dyrbimy
dyrbis
dyrbja
dyrbjach
dyrbjachu
dyrbjał
dyrbjała
dyrbjało
dyrbjec
dyrbjeli
dyrbjes
dyrbju
dyrlich
dyrlicha
dys
dytar
dyz
dz
dze
dzerz
dzierz
dzierzyn
dzin
dziny
dzisna
dzjarz
dzjatlawa
dztwo
dzyrzecz
dłej
dło
długi
e
ea
ear
earl
earth
east
ebe
eberhard
ebersbach
ebersdorf
ebert
ebuskeho
ebuskej
ebuskeje
ebuskim
ebuz
ebuza
ebuzom
ebuzu
ebywanja
ebywas
ec
ecach
ech
echa
echach
echadz
echami
echi
echium
echod
echoda
echodne
echodz
echow
echu
eckardt
eckl
eco
ecozelene
ecozeleny
ecy
ed
eda
edac
edan
edawac
edawachu
edc
edchadnicy
edchadnik
edchadz
eddie
ede
edelgard
eden
edews
edewzac
edgar
edicions
edinburgh
edinet
edition
editor
edkraju
edlez
edme
edmjec
edmjena
edmjeno
edmjenow
edmjet
edmjetow
edmjety
edmond
edmund
ednos
edoc
edołho
edpomorska
edpomorskej
edpomorskeje
edpołoz
edrasc
edre
edrjenc
eds
edstaja
edstajec
edstajenja
edstajenje
edstajenju
edstaji
edstajic
edstajichu
edstajowas
edstawy
edstejer
edstejic
edstojic
edsyda
edsydka
edsydow
edsydowas
edsydstwa
edsydstwo
edsydu
edsydy
edsydz
edsłowo
eduard
eduarda
eduva
edvard
edward
edwards
edwidz
edwin
edz
edło
edłoha
ee
ef
efojo
efredaktor
egon
egorsk
egums
egyptowska
egyptowskej
egyptowskeje
egyptowski
ehlad
ehladac
ehladane
ehladany
ehladowac
ehladowas
ehmke
ehnje
ehnjena
ehnjene
ehnjenje
ehnjenju
ehnjes
eho
ehodla
ehomo
ehoz
ehrenberg
ehrenfriedersdorf
ehrenpreis
ei
eibenstock
eiche
eichel
eichigt
eichler
eichow
eichwalde
eifel
eikiai
eilenburg
ein
eine
einem
einen
einer
eines
einfu
einja
einstein
eintrag
einwohner
eis
eisenhower
eisenhu
eisenreich
eiserode
ej
eja
ejara
ejc
eje
ejemy
ejes
ejewice
ejkow
ejo
eju
ek
eka
ekc
ekecy
ekny
eknyc
ekonom
ekonomiske
ekr
ekroc
eks
eksekutiwy
eksemplarow
ekserce
eksistenca
eksistencu
eksistency
eksistowac
eksistowace
eksistowacych
eksistowas
eksistuja
eksistuje
eksistujetej
eksonymow
ekupc
ekupca
ekupcow
ekupcy
ekupstwo
ekwador
ekwadorski
ekwator
ekwatora
ekwatorialna
ekwatorje
ekładowas
el
ela
elach
elacy
elak
elaka
elake
elakich
elakim
elakimi
elako
elakokło
elakore
elakoris
elakorosc
elakorych
elakorym
elakovsky
elakołopjenaty
elam
elanne
elata
elatine
elatior
elbe
elbija
elc
elchow
ele
elec
eledz
elegans
elej
elektre
elektriske
elektrogorsk
elektrostal
elektrougli
element
elementa
elementaj
elementami
elementow
elementy
elemi
elen
elena
eleny
eleocharis
eler
eles
eleusis
eleza
eleznica
eleznicu
eleznicy
elezniska
elezniske
elezniskej
elezniskeje
elezniski
elezniskich
elezniskim
eleznogorsk
elezny
eleznych
elezo
eli
elias
elic
elikowska
elipsoid
eliptiske
elis
elisabeth
elisty
elity
eliw
eliwa
eliwje
elizabeth
eljabinsk
eljabinska
eljabinskej
eljo
elka
elke
elki
elkich
elkojty
elle
ellefeld
ellen
elliott
ellis
elm
elne
elnica
elnik
elnis
elnja
elnje
elnosc
elny
elnyk
elnym
elo
elodea
elojo
elom
elongata
elow
elowe
elowy
els
elsce
elska
elske
elskeho
elskej
elskeje
elski
elskich
elskim
elsko
elskoho
elskomu
elskore
elsku
elsner
elsnig
elster
elsterberg
elstertrebnitz
elsterwerda
elstwa
elstwje
elstwo
elterlein
elu
elva
elytrigia
em
emanuel
embi
eme
ement
emeritowany
emeriwci
emi
emil
emiraty
emje
emjenowa
emjenowachu
emjenowana
emjenowane
emjenowanje
emjerc
emjerca
emjercach
emjercy
emjetowac
emma
emmanuel
emo
emr
emu
emuz
emy
emyslowac
emyslowanja
en
ena
enaj
enak
enas
enc
enca
encom
encow
encu
ency
encyclopedia
encyklopedija
end
ende
endemit
endergebnis
endl
ene
eneho
enej
eneje
enemu
energije
energiju
eng
enga
engel
engels
engholm
engl
engler
english
eni
enic
enice
enie
enik
enika
enikecy
eniwka
eniz
enja
enjach
enjam
enje
enjemi
enjena
enjeny
enjer
enjo
enjom
enjow
enjowa
enjowanje
enjowe
enjoweho
enjowy
enjowych
enju
enk
enka
enkar
enkarja
enki
enkiwskyj
enko
enkow
enku
enocowas
enoho
enos
enosc
enov
enovice
enrico
enrique
ens
ensa
ensce
ensk
enska
enske
enskeho
enskej
enskeje
enski
enskich
enskij
enskim
ensko
ensku
ensnis
ensslin
enstwa
enstwo
enstwow
enstwu
entwicklung
enu
eny
enych
enym
enymi
enzian
enzyklopa
eo
ep
epc
epca
epcowy
epcu
epetiwka
epilobium
epimedium
epipactis
epipogium
epo
epochi
epoda
epodac
epodobnje
epos
epołoz
eppendorf
epre
epros
eprosy
epruwowac
eps
epuc
epus
epytowac
epytowanja
epytowanjach
epytowanje
epytowanjow
epytowanju
epytowas
epytuje
equisetum
er
era
eradz
eragrostis
eranthis
eraz
erba
erben
erbisdorf
erbyniwka
erc
erchej
erchwica
ercy
erde
erdrauch
erdz
ere
erecta
erectum
eretyne
erfurt
erhard
erhardt
eri
eric
ericaceae
erich
ericy
erik
erika
eriophorum
eris
eritreja
erja
erjac
erjach
erjam
erje
erjec
erjej
erjemi
erjemisinowo
erjenja
erjes
erjo
erjom
erjow
erju
erk
erka
erkaske
erkaskej
erkasow
erkasy
erkeska
erki
erkizowo
erkner
erku
erkubler
erkubła
erkubło
erkubłu
erlangen
erlau
ern
erna
erneho
ernej
ernelycja
ernest
ernesto
erni
ernihiw
ernihiwa
ernihiwskej
ernik
ernika
ernis
erniwci
ernja
ernjachiw
ernje
ernjojty
ernjowc
ernju
ernogolowka
ernore
ernst
ernsta
ernu
erny
erodium
eronskij
erophila
erosc
erowc
erp
erpac
erpjec
erpjenka
erpjenkowych
erpjes
erpnje
erpnosc
ers
ersk
erska
erske
erskeho
erskej
erskeje
erski
erskich
erskim
ersku
ersten
erstwa
erstwe
erstwje
erstwjenis
erstwo
erstwom
erstwowe
erstwoweho
erstwowym
erstwu
erstwy
erstwych
ert
ertil
ertl
eru
erusti
erwin
erwjen
erwjena
erwjene
erwjeneho
erwjenej
erwjeneje
erwjenje
erwjenkowych
erwjeno
erwjenobruna
erwjenobrune
erwjenojc
erwjenojte
erwjenowioletne
erwjenu
erwjeny
erwjenych
erwjenym
erwjenymi
erwone
erwonohrad
erykaw
erysimum
erythronium
erythroxylum
erz
erza
erzgeb
es
esac
esadz
esahuja
esahuje
esakliwe
esat
esate
esatk
esatkach
esatki
esatkow
esatku
esatnik
esaty
esatych
esc
esch
esche
esejist
esenguly
eserbs
esiw
esk
eska
eske
esken
eskimo
esko
esky
esle
eslic
esmyk
esnic
espan
espenhain
esperanto
espyt
espyta
espytnicy
espytnik
espytnikow
esse
essen
est
esta
estac
estaing
estawajcy
estawce
estawki
este
estetiske
estis
estisce
estiska
estiskej
estiskeje
estiski
estne
estneho
estnohamtski
estny
estnym
estragon
estre
estrjen
estrjeni
estrjenje
estrjenju
estupne
estupnic
estupnych
esty
esuu
eswe
esydlencow
esydlenje
esydlenju
esydli
esydlic
esydlichu
esłys
et
eta
etable
etaj
etau
etej
eteriske
ethnologue
eti
etiopiska
etiopiskej
etiopiskeje
etnikowo
etniska
etniskich
etnograf
etnografiskich
etnologa
etorhny
etorz
etou
etow
etoz
etr
etrek
etrog
etrus
etska
etwari
etworic
etyliwka
etymologisches
etło
eu
eucalyptus
euge
eugen
eugene
eukalyptowc
euonymus
euphorbia
euphorbiaceae
euphrasia
eurazije
euraziji
euro
europa
europaea
europaeus
europe
european
europjanow
europje
europska
europske
europskeho
europskej
europskeje
europski
europskich
europskim
europu
europy
euroregiona
eurovision
eustatius
eva
evans
everest
evic
evnice
evo
evolution
ew
ewa
ewahu
ewald
ewan
ewangelij
ewangelscy
ewangelska
ewangelske
ewangelskeho
ewangelskej
ewangelskeje
ewangelski
ewangelskich
ewangelskim
ewangelsko
ewangelsku
ewaz
ewc
ewca
ewe
ewic
ewidz
ewinyc
ewisuja
ewjatnac
ewjaty
ewjec
ewjedz
ewjele
ewjesc
ewo
ewobroc
ewodz
ewostajic
ewoz
ewozne
ewro
ews
ewsk
ewys
ewza
ewzac
ewzachu
ewzate
ewzał
ewzała
ex
exkursionsflora
extended
extinct
exupe
ez
ezahe
ezbe
ezdre
ezjednosc
ezjenosc
ezkazgan
ezno
ezwuk
ezwuki
ełoz
f
fa
fabaceae
faber
fabian
fabrice
fabricius
fabrika
fabrikant
fabriki
fabrikow
fabule
fabulow
fachowej
fachoweje
fachowych
factbook
facto
faeser
fagaceae
fagus
fajn
fakt
faktisce
faktor
faktorow
faktow
fakty
fakulc
fakulta
falcata
falka
falkenberg
falkenstein
falklandske
falls
fals
faluja
faluje
familie
families
family
fanipal
fantaziju
fara
farap
farar
fararja
fararjej
fararjo
fararjom
fararjow
farg
farje
farn
farske
farskeho
farski
faru
fas
fasada
fascyna
faska
faso
fastiw
fatez
fattu
faust
fazy
faßke
fc
fdp
fe
februar
februara
februarje
februaru
federacija
federacije
federaciji
federaciju
federaciske
federaciski
federal
federation
federico
fehrow
fejetonist
fel
felber
felidae
feliks
feliksa
feliksowy
felipe
felis
felix
felixsee
felsenbirne
felsenblu
femininum
fenomen
fenzl
fer
ferdinand
ferdinanda
ferejske
ferenc
fergana
ferganskeho
ferganskim
fernando
ferrari
ferro
ferrowy
ferruginea
festiwal
festiwalu
festuca
fetthenne
ff
ffer
ffler
fi
fiala
fichte
fichtwald
fico
ficus
fidz
fiedler
figa
figlar
figowc
figura
figurow
figury
fijałka
fijałkowa
fijałkowych
fikse
filantrop
filiala
filialna
filiformis
filip
filipa
filipendula
filipiny
fillmore
film
filma
filmach
filmje
filmow
filmowa
filmowc
filmowe
filmoweje
filmowy
filmowych
filmy
filolog
filologije
filologiju
filozof
filozofije
filozofiju
filozofiske
filozofiskej
filozofiski
fin
financ
financow
financy
finet
fingerhut
fingerkraut
fini
finkenheerd
finougriske
finougriskich
fins
finsce
finska
finskeho
finskej
finskeje
finski
finsko
finsterwalde
firefox
firma
firmy
first
fisch
fischer
fitschen
fl
fla
flachs
flath
flavescens
flavum
fleißdorf
fleming
fletist
flexuosa
flieder
flintu
flo
flockenblume
flora
floraweb
florenc
flores
florian
floribunda
florida
flowering
floyd
flu
fluitans
fo
focke
folge
folk
folklora
folklorny
folkloru
folkowy
fominsk
fonem
fonemy
fontana
footballowy
for
ford
forkel
forma
formach
formalnje
formami
forme
formje
formow
formu
formule
formy
forst
fort
fortunei
forum
foster
fota
foto
fotograf
fotografije
fotografka
fotowy
foundation
fox
fr
fra
frac
fragaria
frage
fragilis
fragrans
frajs
frakcija
frakcije
frakciski
franc
franca
france
francesco
franch
franchet
francis
francisco
franciska
franco
francom
francos
francosce
francoska
francoske
francoskeho
francoskej
francoskeje
francoski
francoskich
francoskim
francosko
francosku
francozojo
frangula
frank
franka
franke
frankenberg
frankenthal
frankfurt
frankiwsk
frankiwska
franklin
frankobrod
frankobroda
frankobrodz
frankow
frankowe
frankowska
frankowskeho
frankska
frankski
franopol
frantis
franz
franziska
frau
frauen
frauendorf
frauenmantel
frauenstein
fraxinus
fre
fred
frederick
frederiksen
free
freiberg
freibergu
freiburg
freiherr
freis
freistaates
freital
frencel
frencl
frencla
frenzelsberg
frida
frido
friederike
friedersdorf
friedland
friedrich
friedricha
fritillaria
fritz
friulska
frizis
frizisce
friziska
frjanowo
frjazino
fro
frohburg
from
fronc
fronta
frontu
fronty
fru
frunza
frunze
fruticosa
fry
fryc
fryca
fryco
fryxell
fu
fuchs
fuchsia
fuchsija
fuchsschwanz
fudforum
fuen
full
fumaria
fumariaceae
fumarioideae
fun
fungowac
funguje
funk
funkcija
funkcije
funkciji
funkcijow
funkciju
funkcionar
funkcionarojo
funkcionarow
funke
futur
future
fuzionowali
fyzikar
fyziku
fyziologa
g
ga
gabat
gablenz
gabriel
gabriela
gabriele
gabun
gadz
gaertn
gagarin
gagauska
gagea
gaglow
gagnep
gahlen
galab
galaosiyo
galega
galeobdolon
galeopsis
galerija
galgant
galicija
galiciska
galiciskej
galilei
galiny
galium
gallagher
gallinchen
galway
gambija
gamble
gandhi
gar
garabekewu
garabogaz
garci
gard
gardos
garfield
gargz
garliava
garrigue
garten
gartendatenbank
gary
gas
gaston
gasyn
gat
gatne
gatojce
gauck
gaulle
gawl
gay
gaz
gazli
gazojak
gb
gdan
gdynia
ge
geburtstag
gedeck
gedenksta
gedichte
geert
gefa
gegen
gegenwart
geho
geising
geisler
geithain
geißblatt
geißblattgewa
geißklee
geißler
gel
gelanski
gelenau
gelgaudis
geln
gelsenkirchen
gemeinden
gemeindeteil
gemeindeverzeichnis
gemkow
gen
gene
genera
generacija
generacije
generacijow
generaciju
general
generala
generalny
generalnym
generowane
genezis
genista
genitiw
genitiwje
genitiwom
genscher
gentiana
gentianaceae
gentianella
gentianopsis
genua
genus
genusaj
genusy
geo
geograf
geograficzny
geograficznym
geografije
geografisce
geografiska
geografiske
geografiskeho
geografiskej
geografiskeje
geografiski
geografiskich
geografiskim
geologa
georg
georga
george
georges
georgewitz
georgia
georgij
georgisce
georgiska
georgiskej
georgiskeje
georgiski
ger
gera
gerais
gerald
geraniaceae
geranium
gerat
gerd
gerda
gerhard
gerharda
geringswalde
germanica
germanist
germanistiku
germanizacije
germanizator
germanske
germanskeho
germanskej
germanskich
germplasm
gero
gerschwitz
gersdorf
gertrud
geschichte
geschichten
gesellschaft
gesetz
gesneriaceae
gestapo
gestern
get
geum
geva
gewo
geyer
geywitz
gg
gge
ghana
ghanaski
ghindes
gi
giacomo
giai
gibraltar
giffey
gigantea
gilbert
gillo
gineja
gineje
gineji
gineju
gingawa
ginkgo
giorgia
giovanni
girl
giscard
gisela
gitara
gitarist
gitaristka
giulio
giuseppe
given
gk
gla
glabra
gladbach
gladiolus
gladstone
glandulosa
glasgow
glashu
glaubitz
glauca
glaucium
gle
glenn
gliniec
glinka
glinsk
glinzig
glitztal
gliwice
globosa
globularia
glockenblume
glodeni
glos
glossen
glottolog
glu
glus
glyceria
glycyrrhiza
gmbh
gmejna
gmejnach
gmejnami
gmejnje
gmejnomaj
gmejnow
gmejnska
gmejnske
gmejnskeho
gmejnskej
gmejnskeje
gmejnski
gmejnskich
gmejnskim
gmejnu
gmejny
gmelin
gmina
go
goda
goethe
gogolow
gogolowk
gohrisch
golc
gold
golden
golenio
golf
golfa
golfu
golicyno
golob
golschow
golte
gonza
good
google
gora
gorbac
gorden
gordon
gorki
gornau
gornsdorf
gorodok
gors
gorzo
gos
gosen
gossypium
got
gotha
gott
gottfried
gottfrieda
gotthelf
gotthold
gottleuba
gottlieb
gottlob
gotttrau
gottwald
gov
govaerts
gołbin
gołkojc
gołkojce
gołyn
gołynk
gra
grabin
grabina
gracilis
grad
graebn
graf
grafikar
grafikarka
grafiske
graham
gramatice
gramatika
gramatikar
gramatiki
gramatiku
gramatiske
gramatiski
graminea
grammar
grammatik
gramow
granatowe
grand
grande
grandiflora
grandis
grant
grapefruit
grat
gratow
graty
graustein
grawe
gray
graz
gre
great
green
greene
greenwich
gregor
gregorianiskej
gregorianiskeje
greifenhain
greifswald
gremij
grenada
grenadiny
grenville
gres
grey
gribanowskij
grigis
grigoriopol
grima
grimma
grin
griseb
grjeks
grjeksce
grjekska
grjekske
grjekskeho
grjekskej
grjekskeje
grjekski
grjekskim
grjeksko
gro
grobin
grod
grodk
grodka
grodkojske
grodkowskeho
groitzsch
grojlich
gross
grosso
grossularia
grossulariaceae
group
groz
groß
großdehsa
große
großenhain
großer
großha
großharthau
großhartmannsdorf
großnaundorf
großolbersdorf
großpo
großru
großschirma
großthiemig
großweitzschen
gru
grundkurs
grunow
gruyter
gryfice
gryfino
grys
grzymkowice
gu
guadeloupe
guam
guarani
guaranis
guatemala
guawa
gubadag
guben
gubin
gubina
gudrun
gudz
guernsey
guevara
guhrow
guide
guido
guimara
gulben
gulbene
guliston
gumdag
gundermann
gurage
gurbansoltan
gurlitt
gus
guss
gusta
gustaf
gustav
gustaw
guttenberg
guwernement
guwerner
guy
guyana
gw
gymnadenia
gymnazialny
gymnaziast
gymnazij
gymnazija
gymnaziju
gyo
gypsophila
gysi
gyula
gz
gło
głogow
głowan
głubczyce
h
ha
haag
haapsalu
haase
haasow
habartice
habeck
habent
habichtskraut
habilitowas
hable
habola
habolski
habrachc
habrovany
habry
hac
hach
hacz
had
hadam
hadama
hadjac
hadz
haeupler
hagen
hahn
hahnenfuß
haidemu
hainewalde
hainichen
hainsimse
haiti
haj
haja
hajduk
hajenje
hajes
haji
hajic
hajki
hajna
hajnec
hajnic
hajnicy
hajnik
hajnk
hajnku
hajno
hajo
hajowy
hajsyn
haju
hakle
hakowar
hakowarka
hakowy
hala
halac
halbendorf
hale
hales
hali
halka
hall
halle
hals
halsbru
halyc
ham
hamamelis
hamburg
hamburga
hamburgu
hamilton
hamm
hammarstro
hamor
hamora
hamors
hamorska
hamorskeje
hampshire
hamt
hamta
hamtej
hamtsce
hamtska
hamtske
hamtskej
hamtskich
hamty
han
hana
hanamarja
hanau
hanc
hancawic
hance
hand
handbook
handbuch
handrij
handrija
handrijom
handrik
handros
handwo
hani
hanje
hanka
hanki
hanku
hanna
hannah
hannelore
hannes
hannover
hannoverje
hanns
hans
hansa
hansen
hanski
hanso
hansowe
hansy
hanu
hanus
hany
hanzo
hapl
haplik
haplk
happy
har
hara
haradok
haradzeja
haradzis
harald
harari
hard
harding
hardraht
harfa
harmonija
harmonije
harmoniji
harmoniju
harold
harrassowitz
harris
harrison
harry
hart
hartha
hartmann
hartmannsdorf
hartmut
hartriegel
haru
hary
has
hasa
hasach
hasan
haselbachtal
haslow
haspelmath
hassel
hasy
hat
hata
hatach
hatas
hatk
hatna
hatow
hatoweje
haty
haubitz
hauff
haupt
hauptmann
haus
hausdorf
havel
havli
haw
hawaii
hawje
haws
hayata
hayes
haz
hazar
haß
hał
hałuz
hałuza
hałuzach
hałuzow
hałuzy
hałz
hałzata
hałzy
hbe
hbjelsk
hdy
hdys
hdyz
hdz
he
head
heart
heat
heath
heavy
hebrejs
hebrejsce
hebrejskeho
heck
hecker
hedera
hedwig
heft
heger
heide
heideblick
heideland
heidelberg
heidemarie
heidenau
heidersdorf
heidleberg
heiko
heil
heilbronn
heilmittel
heilpflanzen
heimat
heine
heinemann
heiner
heinersbru
heinrich
heinricha
heinsdorfergrund
heinz
heise
heitmann
hej
hejdar
hejdus
hejtman
hejtmanstwa
hektarow
hela
heldr
hele
helen
helena
helene
helga
helge
helgoland
helianthemum
helianthus
helictotrichon
heliotropium
hell
helleborus
heller
helma
helmut
helmuta
helmutom
helsinki
hemisferje
hemisfery
hempel
hemsl
henc
hendrich
hendricha
hendrichecy
hendrichom
hendricks
hendrik
henic
hennersdorf
henning
henri
henricus
henrik
henry
her
hera
herb
herba
herbert
herbig
herbski
herbst
herbstwa
herbstwo
herbstwu
herc
herca
hercegowina
hercegowinje
hercegowinu
hercegowiny
hercy
herden
herder
herman
hermana
hermanecy
hermann
hermanna
hermenau
hermsdorf
herne
herniaria
herpna
herrmann
herrn
herta
herz
herzberg
herzog
hesa
hesle
hessenska
hessenske
hessenskej
hessenskeje
hesła
hesło
hesłom
heterophylla
heuss
heute
hewak
hewas
hh
hi
hibac
hibanja
hibanje
hibanju
hibic
hibiscus
hic
hicka
hida
hidu
hidz
hier
hieracium
hierarchy
hierochloe
hieronymus
higgins
high
hihac
hihak
hijak
hila
hilbersdorf
hildegard
hill
hillary
hilz
himalaja
himalaje
himalaji
himantoglossum
hinak
hinas
hinc
hindenburg
hindi
hindis
hippocrepis
hirja
hirne
hirnycke
hirnyk
hirschfeld
hirschstein
hirsuta
hirsutum
hirta
his
hischcz
hispanica
hispaniola
hispida
hist
historia
historical
historija
historiju
historikar
historisce
historische
historisches
historiska
historiske
historiskeho
historiskej
historiskeje
historiski
historiskich
historiskim
historiskimi
historisku
history
hitler
hitlera
hiz
hl
hla
hlada
hladac
hladachu
hladaja
hladajcy
hladajo
hladas
hlau
hlavni
hlberg
hle
hlebjojta
hlej
hlejc
hlen
hlental
hler
hlewacha
hli
hlina
hlinjane
hlinjanych
hlinka
hlinowc
hliny
hlo
hlobyne
hltroff
hluchiwci
hlusk
hlyboka
hlybokaje
hlynjany
hm
hma
hme
hmer
hn
hnac
hnada
hnadowne
hnadu
hnas
hne
hnica
hnichen
hniwan
hnizdyc
hnje
hno
hnoja
hnu
hnuc
hny
hnyc
hnychu
hnydom
ho
hoberska
hoberske
hoberski
hochoza
hochschulen
hodler
hodowna
hodowne
hodownika
hodowny
hody
hodz
hoffm
hoffmann
hogrozna
hohenbucko
hohenleipisch
hohenzollern
hohndorf
hohnstein
hoholewe
hojambaz
hojn
hokejist
hokkaido
hokowc
hola
holach
holan
holana
holanec
holanska
holanske
holanskej
holanski
holanskich
holc
holca
holcami
holcow
holcu
holcy
hole
holes
holger
holi
holic
hollande
holm
holmiwskyj
holoby
holocausc
holocaust
holocausta
holowne
holowyne
holsteinska
holsteinskej
holsteinskeje
holu
hom
home
homel
homela
homelskej
homole
hon
hona
honac
honach
honak
honc
honduras
hongkong
honic
honow
hook
hooker
hoover
hoppe
hor
hora
horach
horam
horami
horbac
horca
horce
horcej
horco
horcym
hordeum
hordosc
hordy
hordz
horin
horinach
horinami
horinow
horiny
horis
horisław
horiwka
horjanach
horjanski
horje
horjeka
horjo
horka
horki
horliwje
horliwka
horliwosc
horn
hornc
horni
hornich
hornim
hornist
hornja
hornje
hornjeho
hornjej
hornjeje
hornjo
hornjoho
hornjopfalcowski
hornjoserbs
hornjoserbsce
hornjoserbska
hornjoserbske
hornjoserbskeho
hornjoserbskej
hornjoserbskeje
hornjoserbski
hornjoserbskich
hornjoserbskim
hornjoserbsko
hornjołuz
hornju
horno
hornow
horochiw
horod
horoda
horodenka
horodnja
horodnycja
horodok
horodys
horow
hors
horst
hort
hortensija
hortensijowych
horu
hory
hos
hosc
hospodar
hospodarja
hospodarsce
hospodarska
hospodarske
hospodarskeho
hospodarskeje
hospodarski
hospodarskich
hospodarskim
hospodarsku
hospodarstwa
hospodarstwo
hospodowac
hospoza
hospozy
hostomel
hostre
hot
hotak
hotel
hotela
hotl
hotlk
hotohijak
hotowa
hotowac
hotowas
hotowe
hotowy
hotzenplotz
house
how
howa
howac
howace
howacej
howachu
howacy
howacych
howacym
howane
howanja
howanje
howanju
howard
howas
hował
howc
howe
howjado
howka
howlandowa
howy
hoyerswerda
hozdz
hołbik
hołe
hołym
hr
hra
hrab
hrabal
hrabinstwa
hrabja
hrabje
hrabny
hrabowa
hrabowka
hrac
hradec
hradecky
hradyzk
hrafske
hraja
hrajachu
hraje
hrajer
hrajerjow
hrajerka
hrajes
hrajki
hrajny
hran
hranic
hranica
hranicow
hranicu
hranicy
hranite
hranitne
hranity
hrał
hre
hrebinka
hrebinky
hren
hrer
hrib
hribow
hriby
hrige
hrimanka
hriwnow
hrjebach
hrjebjach
hrjebje
hrjebjen
hrjebjenju
hrjebjow
hrjebju
hrjehor
hrjehorja
hro
hroch
hroda
hrodiwka
hrodna
hrodnjanskej
hrodom
hrodow
hrodowska
hrodowski
hrodu
hrody
hrodz
hromadami
hromadnik
hromadu
hromady
hromadz
hromakowych
hrona
hronow
hrow
hroz
hroznje
hrozny
hrozy
hrsdorf
hrsg
hru
hruba
hrube
hrubje
hrubjelc
hruboc
hruby
hrudz
hrung
hruzko
hry
hryciw
hrymajliw
hrymzyc
hrys
hryst
hsb
hstadt
ht
htm
html
http
https
hu
huba
huber
hubert
hubertus
hubic
hubinka
hubinkowych
hubje
hubjenje
hubjeny
hubka
hubku
hubu
huby
huc
hudz
hugh
hughes
hugo
huja
huje
hujo
hujwa
human
humanist
humb
humboldtowej
humilis
humoristiski
humulus
humusowe
hunc
hunsru
hunti
huraz
hurmi
hurtova
hus
husa
husacy
husan
husc
husce
huselske
husitow
husjatyn
huska
huski
huslach
husle
husler
huslic
husowka
husta
huste
husto
hustodosc
hustosc
husty
hustych
hustym
hutberg
huz
hvar
hvi
hwa
hwe
hwizdec
hwizdz
hwje
hwo
hy
hyacinthaceae
hyacinthoides
hyacintowych
hybrid
hybrida
hybridna
hybridum
hybridy
hydrangea
hydrangeaceae
hydrocharitaceae
hymna
hymny
hync
hyoscyamus
hypericaceae
hypericum
hyperonymy
hyponymy
hys
hł
hła
hładka
hładke
hładki
hładkowac
hładku
hładz
hłe
hło
hłohonc
hłomac
hłosami
hłosom
hłosow
hłosy
hłowa
hłowac
hłowje
hłowna
hłowne
hłowneho
hłownej
hłowneje
hłowneju
hłownje
hłownu
hłowny
hłownych
hłownym
hłowu
hłowy
hłrjec
hłubiny
hłuboka
hłuboke
hłubokej
hłuboki
hłubokich
hłubokim
hłuboko
hłubokosahace
hłubokosc
hłubs
hłupon
hłuposc
hłus
i
ia
iadorys
iai
ialoveni
ian
iargara
iauliai
ibe
ibej
iberis
iberiskeje
ibjen
ibliz
ibn
ibor
ibrachc
ibrjo
ibrjohom
ibska
ibuti
ibuz
ibuzk
ibyslav
ic
ica
icach
icam
icami
icar
icarka
ice
icec
icetych
ich
icha
ichad
ichadz
icheho
ichi
ichilnosc
ichim
ichiro
ichmy
icho
ichod
ichoda
ichodna
ichodne
ichodneho
ichodnej
ichodnje
ichodnu
ichodny
ichodnych
ichodz
ichon
ichor
ichovice
ichow
ichowa
ichu
icke
ickosrbska
icky
icomaj
icon
icow
icowych
icpe
icu
icy
icz
id
ida
idac
idaho
idar
idara
idatne
idatnje
idatny
idawk
ideal
ideale
ideja
ideje
idejemi
idejow
ideju
identiski
identita
identitu
identity
ideologisce
idle
idles
ido
idow
idowa
idowje
idowom
idowska
idowske
idowskeho
idowskeje
idowski
idowskich
idowsko
idowsku
idoł
idruz
idu
idz
idła
idłate
idłaty
idło
idłom
idłomaj
idłow
ie
iedzi
iez
ifre
iglu
ignac
ignacy
ignalina
ignaz
igor
igry
ihac
ihladowac
ihladowarjo
ihladowarjow
ihladowas
iho
ihodz
ihotowac
ihotowachu
ihotowane
ihotowanju
ihotowany
ihotowas
ihotował
ihotuje
ihowac
ihr
ihranite
ihranity
ihre
ihrer
ihłosowachu
ihłosowanjom
ii
iii
ij
ija
ijaty
ijał
ijduvon
ije
ijec
ijecy
ijej
ijejo
ijes
ijewo
iji
ijima
ijimuje
ijo
ijom
ijomne
ijomnje
ijow
ijowa
ijskej
ijskeje
ijski
iju
ik
ika
ikach
ikata
ikaty
ikaz
ikaza
ikazuje
ikec
iki
ikisce
ikiskeje
ikistan
ikistana
ikistanje
iknje
iknosc
iko
ikojta
ikom
ikow
ikowa
ikowana
ikro
ikryw
ikrywne
iks
iku
ikus
ikład
ikłady
ikładz
il
ilale
ilapate
ile
ilez
ili
ilic
iljic
iljinskij
iljowo
ilka
ill
illecebrum
illeg
illinci
illinka
illinois
illmersdorf
ilon
ilovik
ilowajsk
ilse
ilu
ilustracija
ilustracije
ilustrator
ilustrita
ilustrowaneje
ilute
im
ima
imac
imaj
iman
imas
imdb
ime
imeretiskej
imi
imie
imion
imis
imjeni
imjeno
imny
imnyc
imo
imoj
imon
imonyte
imov
imowac
impatiens
imperatiw
imperfekt
imperfektiwne
imuja
imuje
imy
imz
in
ina
inac
inach
inaja
inam
inami
inari
inas
inaty
inc
incana
indefinitny
index
indiana
indica
indicum
indiska
indiskeho
indiskej
indiskeje
indiski
indiskim
indiwidualne
indoariske
indoeuropska
indoeuropske
indoeuropski
indoeuropskich
indoeuropskim
indonesien
indoneska
indoneskej
indoneskeje
indoneski
industrializacija
industrializacije
industrializaciju
industrialnik
industrija
industrije
industrijne
industrijowe
industriju
indz
ine
inej
infinitiw
info
informacija
informacije
informacijow
informatikar
information
informowac
informowas
ingo
ingolstadt
ingrid
ingrida
ingus
ingwer
inhalt
ini
inic
inichu
iniciatiwu
iniciator
inicie
inili
inimy
ininkai
inis
inił
iniła
iniło
inj
inja
injachu
injan
injanskeje
inje
injec
injene
injenja
injenje
injenjo
injeny
injes
injesc
injese
injesechu
injesł
injow
injowa
ink
inka
inki
inkl
inkluziwnje
inkow
inku
innocenc
innych
ino
inohra
inom
inomaj
inos
inov
inow
inowa
inowcow
inowe
inowej
inoweje
inowu
inowy
inowych
ins
insektow
insekty
insk
inska
inske
inskeho
inskej
inskeje
inski
inskich
inskij
inskim
insku
inspektor
inspice
instalowac
instituc
institucija
institucije
institucijow
institucionalizowanje
institut
instituta
institute
instituts
instrument
instrumental
instrumentow
instrumenty
instwo
integraciju
integrifolia
integrowac
inteligency
intendant
intensiwne
intensiwnje
intermedia
international
interne
internec
internet
internetowym
interpretacije
interpretaciju
interpretowac
interpunkcije
interview
introduction
inu
inuc
iny
inz
io
ione
ionys
ios
iovo
iowa
ip
ipa
ipac
ipadnje
ipadny
ipan
ipica
ipisuje
ipny
ipo
ipomoea
iposłucharjow
ipowe
ipołdnis
ipołdnju
ipołoz
iprawi
iprawjeny
ipuc
ipus
ir
ira
irady
irak
iran
irana
iranje
iranom
iranske
iranskej
iranski
iraz
irdyn
ire
ireland
irena
irene
iridaceae
iris
irjadowac
irjadowana
irjadowane
irjadowanje
irjadowany
irjaduja
irjaduje
irje
irkutsk
irkutska
irkutskej
iro
iroda
irodna
irodne
irodneho
irodnu
irodny
irodnych
irodnym
irodos
irodosle
irodospytnik
irodowe
irodu
irody
irodz
iron
irot
irpin
irs
irsce
irska
irskeho
irskej
irskeje
irski
irtys
iruc
irunaj
irunajo
irunanje
irunanju
irunowac
irving
irvintos
is
isaac
isabel
isadz
isahu
isaku
isbn
isc
isce
ische
ischl
iscy
iselt
iser
iserka
isfana
isfara
ishtixon
isk
iska
iske
iskeho
iskej
iskeje
iskeju
iski
iskich
iskim
iskimi
isko
isku
islam
island
islands
islandsce
islandska
islandski
isle
islennost
isnje
isny
isnyc
iso
isow
isowc
isowcowych
ispomnjenja
israel
israela
israelski
israelu
issn
issue
issyk
ist
ista
istajenje
istajeny
istaji
istanbul
istaraws
istaw
istawa
istawje
istawne
istawom
istawow
iste
istej
istiklol
istjakowe
istojnosc
istosc
istow
istra
istrorumuns
istu
istup
istupi
istupna
istupne
istupny
istupuje
isty
isu
isudz
iswojic
isła
isłach
isław
isława
isło
isłodz
isłow
isłowa
isłowo
isłowow
isłus
it
ita
itac
itachu
itaj
itaja
itajo
italica
itals
italsce
italska
italske
italskeho
italskej
italskeje
italski
italskich
italskim
italsko
italsku
itam
itamy
itanja
itanje
itanju
itanka
itanki
itar
itarja
itarjej
itarjo
itarjow
itas
itawa
itawje
itawske
itawu
itawy
itał
itcy
ite
iteho
itej
itk
itka
itke
itkich
itkim
itkimi
itko
itkowac
itkowne
itkownej
itkownje
itkownu
itkownym
itku
itna
itne
itnosc
itny
itnych
ito
itoc
itogi
itok
itoka
itoki
itoku
itomni
itomnosc
itomny
itomnych
itosc
itr
its
ity
itych
itym
itło
iu
ius
iv
ivan
ivo
iw
iwa
iwac
iwacewic
iwachu
iwadle
iwadz
iwadła
iwadło
iwadłowa
iwadłowe
iwadłowu
iwadłowy
iwadłowych
iwaja
iwajcy
iwajo
iwali
iwamy
iwan
iwana
iwanawa
iwane
iwanej
iwanino
iwaniwka
iwanja
iwanje
iwanjom
iwanju
iwankiw
iwano
iwanofrankiwskej
iwanopil
iwanowic
iwanowo
iwanowskej
iwantejewka
iwany
iwanyc
iwar
iwarja
iwarjow
iwarski
iwas
iwatej
iwał
iwała
iwc
iwci
iwe
iweho
iwej
iweje
iwi
iwic
iwich
iwidnje
iwis
iwisnik
iwisowar
iwize
iwizna
iwił
iwja
iwjanjec
iwje
iwjec
iwjej
iwjeje
iwjen
iwjena
iwjene
iwjenja
iwjenje
iwjenjo
iwjenjobe
iwjenjom
iwjenjopisa
iwjenju
iwjenske
iwjenskeho
iwjenski
iwjenskich
iwjeny
iwk
iwka
iwki
iwkow
iwku
iwna
iwne
iwnic
iwnik
iwnje
iwnosc
iwnus
iwny
iwnym
iwo
iwobroc
iwoc
iwochach
iwochow
iwosc
iwostejne
iwotnik
iwoz
iws
iwu
iwuc
iwuzna
iwuzne
iwuznej
iwuzni
iwuznosc
iwuzny
iwuznych
iwy
iwych
iwym
iwymi
iwza
iwzac
iwzata
iwzaty
ix
iz
izamknje
izamknjenje
izamkny
izamknychu
izetbegovic
izjaslaw
izma
izmajil
izna
iznach
iznamjenja
iznje
iznow
iznowych
iznu
izny
izwuk
izwukowane
ił
iła
iłan
iłe
iłkate
iłki
iło
iłoha
iłoj
iłoz
iłuk
iʀɔu
j
ja
jaani
jablonne
jablunec
jabluniw
jabrik
jabrikowych
jabłon
jabłuc
jabłuka
jabłuko
jabłukowe
jace
jach
jachmy
jachroma
jachu
jack
jackfruit
jacki
jackson
jacob
jacobsdorf
jacq
jacques
jacsławk
jacych
jadra
jadranskeho
jadranskim
jadrje
jadrjes
jadro
jadroweho
jadroweje
jadwiga
jahlic
jahn
jahnsdorf
jahoda
jahodka
jahodki
jahodowe
jahody
jahotyn
jahr
jahrb
jahrbu
jahre
jahren
jahrhundert
jahrhunderts
jahwe
jahwy
jahły
jak
jako
jakob
jakobson
jakub
jakuba
jakubas
jakubec
jakubom
jakula
jakutsce
jakutska
jakutskej
jalaquduq
jalizawa
jalta
jam
jama
jamach
jamaika
jamaiski
jamalskich
james
jamje
jamno
jamow
jampil
jamu
jamy
jan
jana
janak
janas
janawic
janc
jancz
jandz
jane
janecy
janeiro
janej
janek
janez
janje
jank
janka
jano
janom
janov
jans
janska
janske
janu
januar
januara
januarje
january
janukowyc
janus
janusz
januszowo
januszpol
jaobod
japan
japans
japansce
japanska
japanske
japanskeho
japanskej
japanskeje
japanski
japanskim
japonica
japonicum
japonicus
japos
jar
jara
jaremc
jargon
jarmolynci
jarobrod
jarome
jaroslav
jaroslawl
jaroslawskej
jarosław
jarowa
jarqo
jarvisowa
jaryc
jas
jasc
jasen
jasien
jaskrawje
jasna
jasne
jasnis
jasnje
jasnohirka
jasnozelene
jasny
jasnych
jasnym
jason
jassinja
jastrze
jastwa
jasyniwka
jasynuwata
jat
jatbje
jatby
jatr
jaty
jatych
jaunjelgava
java
jawor
jawora
jaworiw
jawornik
jaworzno
jayli
jazor
jazorina
jazorki
jazyc
jazyk
jazyka
jazyki
jazykom
jazzowa
jazzowy
jałorc
jba
jbach
jbje
jbne
jbneho
jbny
jbnych
jbnym
jbow
jbu
jby
jc
jce
je
jean
jec
jedla
jedlova
jedlovou
jedna
jednac
jednanja
jednanjach
jednanje
jednas
jedne
jednej
jedneje
jednoc
jednodomna
jednoho
jednokwe
jednokło
jednole
jednomu
jednora
jednore
jednoreho
jednorje
jednory
jednorych
jednorym
jednosplaz
jednota
jednotka
jednotki
jednotkow
jednotliwca
jednotliwcy
jednotliwe
jednotliwy
jednotliwych
jednotliwym
jednotny
jednotu
jednoty
jednu
jednym
jedyn
jeff
jefferson
jeffrey
jegis
jegorjewsk
jehlic
jehlinowych
jeho
jehserig
jehły
jej
jeja
jeje
jejka
jejko
jejkojc
jejkojta
jejkojte
jejkojtych
jejkow
jeju
jekaterinburga
jelan
jelena
jelenia
jelenjow
jelgava
jeli
jelito
jelizo
jelsk
jemen
jemilc
jemjel
jemjelica
jemjelnica
jemu
jemy
jen
jena
jenac
jenak
jenakej
jenakijewe
jenakokło
jenc
jend
jendz
jene
jenej
jeneje
jeni
jenic
jenisej
jeniseja
jenje
jenka
jenkec
jenkecy
jennifer
jeno
jenoho
jenohło
jenotliwe
jenoz
jens
jentsch
jenu
jenym
jer
jerejmjentau
jerjewana
jerky
jersey
jerusalem
jerzy
jes
jesau
jeseni
jesenin
jesewitz
jesik
jesil
jetr
jewgenij
jewi
jewis
jewja
jez
jezjarys
jezuit
jezupil
ji
jic
jich
jidis
jidisce
jiedlitz
jiena
jieznas
jihlava
jihoc
jihomoravsky
jilem
jim
jimaj
jimmy
jin
jindr
jir
jira
jitk
jitkov
jitro
jiwow
jizerou
jizerske
jizerskich
jizzax
jiłocy
jiłow
jiłowka
jj
jna
jnach
jne
jnic
jnica
jnje
jnomaj
jnow
jnowych
jnske
jnskeho
jnskej
jnskeje
jnski
jnskich
jnskim
jnsku
jnu
jny
jo
joachim
joan
jochen
joe
jogo
joh
johan
johann
johanna
johannes
johanngeorgenstadt
johannisbeere
johanniskraut
john
johna
johnny
johnson
johnstonowa
joho
jom
jomboy
jomu
jon
jona
jonas
jonathan
jonava
jones
jonis
jonsdorf
jordan
jordana
jordaniska
jordaniskeje
jorge
jos
joschka
jose
josef
josefa
joseph
josip
journal
jow
jowka
jowle
jowo
joyce
jpg
jr
js
jska
jske
jskeho
jskej
jskeje
jski
jskich
jskim
jsko
jskom
jskow
jsku
jstwe
jstwy
jswecy
ju
juan
jubileja
judeo
judit
judith
judy
jugendlexikon
juglans
juh
juha
juho
juhoc
juhoruskej
juhosłowjanska
juhosłowjanskej
juhosłowjanskeje
juhosłowjanski
juhosłowjanskich
juhowuchod
juhowuchoda
juhowuchodna
juhowuchodne
juhowuchodnej
juhowuchodneje
juhowuchodnje
juhowuchodny
juhowuchodnym
juhowuchodz
juhozapad
juhozapadna
juhozapadne
juhozapadnej
juhozapadnje
juhozapadnym
juhozapadz
juhu
jules
julia
julian
juliana
juliane
julij
julija
juliju
julius
juma
jumbjerowych
juncaceae
juncus
june
jung
junge
jungha
junij
junija
juniju
junior
juniperus
jupiter
jura
juracis
juraj
jurbarkas
jurij
jurist
juristka
jurja
jurjej
jurjom
jurk
juro
jus
juss
just
justicny
justicu
justin
justowska
jutnic
jutr
jutrach
jutrobo
jutrow
jutrowne
jutrowneho
jutrownika
jutrownu
jutrowny
jutrownych
jutry
jutta
juz
jwoda
jwodstwa
jwody
jwodz
jzes
k
ka
kabardino
kabardinsce
kabaretist
kabaretistka
kabinec
kabinet
kabineta
kabpils
kac
kach
kachowka
kachu
kackrow
kaczyn
kadamdz
kadz
kadłobja
kaharlyk
kahren
kahsel
kai
kaikai
kais
kaiser
kaj
kaja
kajka
kajke
kajkeho
kajkej
kajkeje
kajkez
kajki
kajkich
kajkim
kajkiz
kajkosc
kajku
kajkuz
kajmanowe
kajo
kajyndy
kak
kaka
kaki
kal
kala
kalaallisut
kalac
kalawa
kalawy
kale
kaledonskej
kaledz
kalevi
kali
kalich
kaliforniska
kaliforniskej
kaliforniskeje
kalinin
kaliningrad
kaliningradskej
kalininjec
kalinkawic
kaliopi
kallas
kallaste
kallio
kalmiuske
kalmyksce
kalmykska
kalmykskej
kalts
kaluga
kalus
kalvarija
kalyniw
kalyniwka
kalyta
kam
kama
kamaryn
kambodz
kamc
kamenice
kamenicy
kamenna
kamenz
kameramuz
kamerun
kamery
kami
kamien
kamienna
kamin
kamjanec
kamjanka
kamjanyj
kamjen
kamjenc
kamjenca
kamjencej
kamjencom
kamjencu
kamjenej
kamjenica
kamjenicy
kamjenja
kamjenje
kamjenjemi
kamjenjow
kamjenjowac
kamjenju
kamjenka
kamjenskeho
kamjenskim
kamjentna
kamjentne
kamjentnej
kamjentny
kamjentnych
kamor
kamus
kan
kanada
kanadiska
kanadiskej
kanadiski
kanadu
kanady
kanadz
kanal
kanala
kanale
kanariske
kanariskich
kancler
kanclera
kanclerjo
kanclerku
kanclerom
kancow
kandalaks
kandava
kandidat
kandidata
kandidatka
kandidatow
kandidaty
kandidowac
kandidowas
kanecy
kaniw
kank
kanka
kanonik
kanonikojo
kanonow
kanony
kansas
kant
kantemirowka
kanther
kantor
kantora
kap
kapatkewic
kapałce
kapałka
kapałki
kapałku
kapital
kapitla
kapitlu
kapitol
kapler
kapralc
kapralcowych
kaprije
kapry
kaps
kapsla
kapsle
kapslowe
kapslowy
kapyl
kapłan
kapłana
kapłanom
kar
kara
karabach
karabacha
karac
karadz
karaganda
karagandy
karakalpaksce
karakalpakstan
karakol
karakum
karambola
karanc
karaz
karbowane
karc
kardamom
kardamon
kardengewa
kardinal
karel
karelic
karels
karelsce
karelska
karelskej
karen
karibika
karibiskeho
karibiskim
karin
karja
karjeru
karjery
karjo
karjow
karka
karksi
karl
karla
karlecy
karlheinz
karliwka
karlo
karlovarsky
karlowa
karlowej
karlsbrunn
karlsruhe
karma
karol
karolina
karpatach
karpatami
karpatow
karrenbauer
karska
karski
karsten
karta
kartach
kartam
kartograf
karty
kas
kascjukowic
kasija
kaskelen
kaspar
kasper
kaspiske
kaspiskeho
kaspiskim
kassel
kastanija
kastornoje
kasze
kat
kata
katalans
katalansce
katalanska
katalogu
katar
katarina
kate
katechet
katechizm
katedrala
kategorija
kategorije
katerina
katerynopil
katharina
kathlow
katholische
katholskich
katja
kato
katolikojo
katolikow
katolscy
katolska
katolske
katolskeho
katolskej
katolskeje
katolski
katolskich
katolskim
katolskiposoł
katolskoho
katolsku
katowice
katrin
kattaqo
katu
katy
katych
katyrny
katzer
kauderwelsch
kaulfu
kaunas
kaunasa
kausche
kavarskas
kawc
kawkaz
kawkaza
kawkazom
kawkazu
kaz
kazachs
kazachsce
kazachskej
kazachskeje
kazachski
kazachstan
kazachstana
kazachstanje
kazachstanom
kazanja
kazas
kazimierz
kazlows
kazlu
kaznje
kał
kałac
kałata
kałaty
kb
kc
kdepe
ke
kec
kecach
kecy
kedz
kehelojta
keho
kehra
keila
kein
keith
kej
keje
kejz
kek
keka
keles
kelko
kelkoz
kelly
kelme
kelmenci
keltiska
keltiske
keluch
kelucha
kelus
kem
kemerowa
kemerowo
kemerowskej
kemin
kemjel
kems
ken
kenia
kennedy
kenneth
kenny
kent
kenta
kentskej
kentucky
kenz
ker
keramik
kerben
kerc
kerk
kerki
kerkow
kerkowa
kermus
kern
kernera
kerstin
ketlic
ketlicach
ketlicy
ketzerbachtal
kevin
kew
keyboarder
kg
khan
khoisan
khro
ki
kib
kibus
kic
kich
kicman
kiechle
kiefer
kiekebusch
kiel
kiesinger
kij
kija
kijes
kijew
kijewa
kijewje
kijewskej
kilank
kildinstroj
kilian
kiliana
kilija
kilingi
kilometer
kilometra
kilometrach
kilometraj
kilometrami
kilometrow
kilometru
kilometry
kim
kimi
kimjelc
kin
kina
kinc
kinder
kindisch
king
kingmanowy
kinic
kinkel
kino
kinshasa
kinspork
kiny
kirawsk
kirche
kirchhain
kirgisce
kirgiska
kirgiskej
kirgiskeje
kirgiziskej
kirgiziskeje
kiribati
kirk
kirnitzschtal
kirow
kirowa
kirowohrad
kirowohradskej
kirowsk
kirowskej
kirowskij
kirs
kirsce
kirska
kirskej
kirskeje
kis
kisa
kisalina
kisalnik
kisała
kisałe
kisały
kisałych
kislik
kislink
kisljaj
kiss
kisyca
kisycowych
kit
kita
kitac
kitana
kitane
kitany
kitar
kitej
kitelnic
kitkata
kitlik
kitne
kito
kitob
kitom
kittlitz
kitts
kitzscher
kivio
kiw
kiwano
kiwci
kiwerci
kiwi
kiwka
kiwske
kiz
kjok
kk
kla
klada
klaipe
klama
klanki
klankodz
klara
klasa
klasifikacija
klasiskeho
klasiskeje
klasiski
klasiskich
klasow
klasy
klaus
klawdijewo
klawe
kle
klec
kleck
klee
klein
kleine
kleines
kleinha
kleinradmeritz
klemens
klemensa
klement
klemperer
klen
klepsch
kli
klic
klima
klimawic
klimek
kliment
klimu
klimy
klin
klina
klinc
klingenthal
klinka
klipphausen
klis
klo
klokoc
klon
klonowych
klosterwasser
klow
klu
klub
klubu
kluc
kluczbork
klukoc
kluks
km
kmane
kmanosc
kmjec
kmjen
kmjena
kmjenow
kmjeny
kmo
kna
knabenkraut
knauthe
knautia
kne
knebel
knica
kniha
knihach
knihami
kniharnja
knihi
knihic
knihikupc
knihiwjazar
knihow
knihowni
knihownik
knihownja
knihownje
knihownju
knihu
kniz
knize
knje
knjejstwa
knjejstwje
knjejstwo
knjejstwom
knjejstwu
knjeni
knjenje
knjez
knjeza
knjezam
knjezej
knjezom
knjezow
kno
knoblauch
knorawa
knothe
knoty
know
knut
knyk
ko
koalicija
koalicije
koaliciji
koaliciju
kobeljaky
kobjela
kobjelkac
kobjeln
koblenz
koblic
koblica
koblicy
kobołk
kobołkowych
kobresia
kobryn
kobylecka
koc
koch
kocha
kochanawa
kochc
kocht
kochty
kocjubynske
kocor
kocora
kod
koda
kode
kodow
kodowanjom
kodra
kodrecy
kodu
kody
kodyma
kodz
koehne
koeleria
kofej
kofejowc
kofi
kogon
kohl
kohlom
koho
kohtla
kojc
kojce
kojeti
kojta
kojte
kojty
kojtych
kokand
kokla
kokorc
kokoric
kokornak
kokos
kokosowe
kokota
kokrajny
kokrik
kokrikowych
kokrjow
koks
kokulinda
kol
kola
kolas
kolbe
kolc
kole
kolektiw
kolektiwje
kolena
kolenowskij
kolesa
koleso
kolesowanska
kolesowar
kolij
kolije
kolkwitz
kolky
kolla
koloc
kolokacije
kolomna
kolomyja
kolonija
kolonije
koloniju
kolonizacije
kolosnykowe
kolumbiska
kolumbiski
kom
komaj
komandant
komandowas
komarno
kombinacije
kombinowac
komdz
komi
komikar
komis
komisar
komisija
komisije
komiteja
kommisarisce
komonc
komora
komorje
komorki
komorow
komorowa
komorowje
komorowski
komory
kompakt
kompaß
kompensowac
kompleks
kompleksne
kompleksny
kompletnje
komplikowane
komponenta
komponenty
komponist
komponista
komponistka
komponistow
komponowanje
kompozer
kompozicije
kompoziciju
komptendorf
komu
komunalne
komunalny
komunalnych
komunikaciski
komunist
komunistiska
komunistiskeho
komunistiskeje
komunistiski
komunistow
komys
kon
koncentraciskeho
koncentraciskim
koncentrowas
koncentruje
koncept
koncert
koncerta
koncertach
koncertna
koncertow
koncerty
kondicional
konferenca
konferency
konfesije
konflikt
konflikta
konflikty
konfucius
konfuciusa
kongo
kongres
kongresa
kongresu
koni
konibodom
konik
konja
konjaca
konjacy
konje
konjecy
konjej
konjugacija
konjugacije
konjunktiw
konkret
konkretne
konop
konrad
konrada
konsekwentnje
konserwatiwna
konserwatiwneje
konserwatiwny
konserwatiwnych
konsonant
konsonantow
konsonanty
konstantin
konstantinowic
konstantyno
konstrukcija
konstrukcije
konstrukter
konsumentow
kontakt
kontaktow
kontakty
kontarne
konteksc
kontinenc
kontinent
kontinenta
kontinenty
kontrolowac
kontrolowane
kontrolu
konwerb
konys
koordinatami
koordinaty
koordinowac
kopac
kopajhorod
kopan
kopani
kopanski
kopar
koparka
koparske
koparskeho
kopcu
kope
kopenhagen
kopf
kopor
koporc
koporcami
koporcy
koppatz
kopr
koprica
koprik
koprzywna
kops
kopyc
kopys
kor
korc
korecy
koreja
koreji
korejs
korejska
korejskej
koreju
koresponduje
koriander
korigowac
korinc
korjen
korjeniny
korjenja
korjenje
korjenjemi
korjenjewo
korjenjow
korjukiwka
korla
korle
korlu
kormjenka
korn
kornat
korniska
kornyn
korolewo
koroljow
korop
koropec
korosten
korostys
korowynci
korpus
korpusa
korsakow
korsice
korsun
korus
korutanska
korutanskeje
korzym
korzymja
kos
kosa
kosarnja
kosawa
kosc
koschendorf
kosiw
koslow
kosmac
kosmata
kosmate
kosmaty
kosmic
kosmos
kosmy
koso
koson
kosonsoy
kosowa
kosowiki
kosowo
kosta
kostjantyniwka
kostorz
kostrjawa
kostrjenka
kostroma
kostromskej
kostryz
kosy
kosyc
kosyk
koszalin
kotarez
kotec
kotecach
kotecy
kotelniki
kotelwa
kotmar
kotołki
kotr
kotra
kotrajz
kotraz
kotre
kotrehoz
kotreje
kotrejez
kotrejuz
kotrejz
kotremuz
kotrez
kotrohoz
kotromuz
kotruz
kotry
kotrych
kotrychz
kotrym
kotrymajz
kotrymi
kotrymiz
kotrymz
kotryz
kottmar
kou
kouty
kov
kova
kovice
kovo
kow
kowa
kowac
kowane
kowanja
kowanje
kowanju
kowany
kowar
kowarnje
kowas
kował
kowc
kowdor
kowe
koweho
kowej
kowel
kowic
kowjel
kowna
kowne
kowneho
kownej
kowneje
kowny
kownych
kownym
kowo
kowronc
kowske
kowskeho
kowski
kowu
kowy
kowych
kowym
koz
koza
kozakow
kozarcy
kozel
kozelec
kozels
kozjatyn
kozliw
kozlov
kozowa
kozy
kozylist
kozylistowe
kozylistowych
kozyn
kozync
koßwig
koła
kołbasu
kołbasy
koło
kołobrzeg
kołowokoło
kołwaz
kołwro
kp
kpd
kr
kra
krabac
krabat
krabata
kraborovice
kraft
kraj
kraja
krajach
krajam
krajan
krajana
kraje
krajej
krajemi
kraji
krajina
krajinach
krajinje
krajinow
krajinowy
krajinu
krajiny
krajme
krajna
krajne
krajneho
krajnej
krajneje
krajnemu
krajnoradneho
krajnostawski
krajnostawskim
krajnu
krajny
krajnych
krajnym
krajo
krajom
krajomaj
krajow
kraju
krakec
krakecy
krako
krakow
krakowa
krakowec
krakowje
kral
krala
kralej
kralestwa
kralestwje
kralestwo
kralestwu
kralojo
kralom
kralow
kralowa
kralowc
kralowna
kralownu
kralowny
kralowska
kralowske
kralowskeho
kralowski
kralowskim
kralowy
kralu
kramatorsk
kramp
krapanj
krapkowice
krappe
krasjatyc
kraskowo
krasna
krasnapolle
krasnaselski
krasne
krasnje
krasnoarmejsk
krasnodar
krasnodarskim
krasnogorsk
krasnohoriwka
krasnojarsk
krasnojarska
krasnojarskim
krasnojilsk
krasnosc
krasnosmykarka
krasnotorka
krasnozawodsk
krasnoznamjensk
krasny
krasnyj
krasyliw
kratowo
krause
krawc
krawca
krawcec
krawcom
krawcowa
krawina
krawinowych
krawnik
krawz
kre
kree
krefeld
kreis
kreischa
kreises
kreisky
krej
krejc
kreje
kremenc
kremenec
kremer
kremitzaue
kresse
kretinga
kretschmann
kretschmer
kric
kriebstein
kriepitz
krieschow
krim
krimskotatarsce
kripina
kris
kristersson
kristina
kritika
kritikar
kritikarka
kritiki
kritiku
kritisce
kritizowas
kritizuje
krizy
krjec
krjen
krjo
krjudowac
krk
kro
krob
kroc
krok
kroku
kroma
kromach
kromje
kromu
kromy
krone
kronos
kropac
kropnja
kropywnyckeho
kros
krosno
krosnowar
krosnowas
krostitz
kru
kruc
krucemburk
kruch
kruchi
kruh
kruha
kruhach
kruhi
kruhlaje
kruhow
kruhu
kruko
krupa
krupki
krupy
krus
kruta
krute
krutej
krutosc
krutu
kruty
krutych
kruwy
kruz
kryc
krygar
kryjace
krym
krynhelecy
krynica
krynka
krynyc
krynycja
krys
krystof
krytosymjenjakow
krywic
kryz
krzysztof
ks
ksne
kste
kto
ku
kuba
kubanski
kubas
kubica
kubicec
kubinka
kuble
kubler
kublerja
kublerjow
kubs
kuby
kubła
kubłac
kubłanis
kubłanja
kubłanje
kubłanju
kubłanske
kubłanski
kubłar
kubłas
kubło
kubłow
kuc
kuchar
kuchinska
kuchni
kuchnje
kudirkos
kudz
kuhn
kuja
kujawsko
kujbys
kuje
kukac
kukawka
kukelic
kuklik
kukow
kukowa
kukowje
kukurica
kul
kula
kuldi
kule
kulenka
kuli
kulman
kulob
kulojc
kulojta
kulojte
kulojty
kulojtych
kulow
kulowa
kulowata
kulowate
kulowatej
kulowaty
kulowatych
kulowc
kulowca
kulowje
kulowskej
kultiwe
kultiwowana
kultiwuje
kultur
kultura
kulturach
kulturdenkmale
kulturelne
kulturje
kulturlexikon
kulturna
kulturne
kulturneho
kulturnej
kulturneje
kulturnemu
kulturnik
kulturno
kulturnu
kulturny
kulturnych
kulturnym
kulturnymi
kulturow
kulturowe
kulturu
kultury
kulykiw
kulykiwka
kumkwat
kums
kumwałd
kumyr
kunanbajuly
kunda
kundrac
kunemil
kunersdorf
kunnersdorf
kunratice
kunst
kunstdenkma
kunth
kuntze
kunysz
kunze
kupa
kupach
kupami
kupawna
kupc
kupcow
kupfer
kupi
kupic
kupis
kupił
kupje
kupjel
kupjele
kupjelow
kupoj
kupomaj
kupow
kupowac
kupowy
kupu
kupy
kura
kurachiwka
kurachowe
kurc
kurdjumiwka
kure
kuressaare
kurgan
kurijowy
kurjo
kurkuma
kurowskoje
kurs
kursa
kurse
kursk
kurska
kurskej
kurskeje
kursy
kurt
kurta
kurth
kurwjerch
kurwjercha
kuryliwci
kurymo
kurz
kus
kusk
kut
kutach
kutejnykowe
kutno
kutow
kutowa
kutuzow
kuty
kuwait
kuz
kuzłarnic
kuzło
kve
kwadratnych
kwadratnym
kwartal
kwarte
kwas
kwasny
kwasu
kwe
ky
kybartai
kyjov
kynice
kyo
kypc
kyriakos
kyrilisce
kyriliskeho
kyriliski
kyriliskim
kyrkonos
kyrnasiwka
kytlice
kyzyl
kyzylkum
kła
kładz
kłasc
kło
kłobuck
kłobuk
kłodzko
kłosa
kłosach
kłosopo
kłosy
kłubic
l
la
laasow
labem
labkraut
labska
lac
lach
lachu
laciniata
lada
ladach
ladan
ladins
ladislav
ladogaskeho
ladus
lady
ladyz
laevigata
lafontaine
lag
lagrowa
lagrowy
lahis
lahm
lahnstein
lahojsk
lajnert
lajskeho
lake
lam
lama
lambda
lambrecht
lambsdorff
lamiaceae
lamium
lampertswalde
lampranthus
lamy
lan
lanata
lanatus
lanc
lanceolata
lancetojte
lancetojtych
land
landes
landkreis
landtagswahl
lang
langa
lange
langewahl
langi
langu
language
languages
laniwci
lanka
lany
lanzyna
laos
lapanov
lapata
lapate
laps
lapy
laras
larik
larine
larix
larry
lars
larwy
las
lassen
last
lastovo
lat
lathyrus
latifolia
latifolium
latifolius
latin
latk
latnaja
latvijas
laubsdorf
laubst
laucha
lauchhammer
laura
laurent
laurus
lausick
lausitz
lausitzer
lausitzisches
lauter
lauterbach
lautitz
laußig
law
lawa
lawe
lawendel
lawica
lawitz
lawojce
lawrence
lawska
lawskej
lawskeje
lawskich
laz
lazar
lazdijai
lba
lbach
lbam
lbami
lbje
lbna
lbne
lbneho
lbnemu
lbny
lbnych
lbnym
lbokmani
lbow
lbu
lby
lc
lca
lcaj
lcami
lcow
lcy
ld
le
lea
leach
leag
lebapskej
leben
leber
lebrun
lebusa
lec
leca
lech
lecy
led
ledeb
ledec
ledz
lee
leersia
leeuwarden
legenda
legendy
legislaturnej
legnica
lehde
lehmann
lehn
lehr
lehrbuch
lein
leine
leinkraut
leipzig
leisnig
lej
leja
lejna
lejnik
lejnje
lejno
lek
leksiki
leksikograf
leksikon
lektor
lektorka
lelc
lemberk
lemi
lemis
lemke
lemna
lemnoideae
lemy
len
lena
lenc
lene
lengefeld
lengenfeld
lenger
lengua
leni
lenin
lenina
leningrad
leningradskej
leninskije
lenja
lenje
lenjo
lenjom
lenju
lenk
lenka
lenkar
lennon
lenowych
lens
lentibulariaceae
lentvaris
leny
lenych
lenz
leo
leon
leonard
leone
leonhard
leonhardi
leonid
leopold
leova
lepel
lepidium
lepidoptera
lepus
ler
lerchensporn
lermontow
leroy
les
lesa
lesc
lesce
lesiew
lesiewska
lesja
leska
leske
leskeho
leskej
leskeje
leski
leskim
lesnoj
lesny
lesotho
lestwa
leszek
let
letis
letisce
letiska
letiskej
letiskeje
letiski
letyc
leuben
leubsdorf
leuthen
leutheusser
leutnant
leverkusen
lew
lewakand
lewis
lexikon
leyen
lez
lezly
leznic
lgow
lgowskij
lheim
lhota
li
lia
liai
liang
libanojce
libanon
libanonski
liberec
libereca
libereckim
liberecky
liberija
libice
libknjechta
libo
libon
libor
library
libs
libyska
lic
lica
license
lichan
lichtenau
lichtenberg
lichterfeld
lichu
lida
lie
liebe
liebenau
liebenwerda
liebknecht
liebschu
liebstadt
liechtenstein
lied
lieder
lielva
liepa
lieschgras
lieskau
lieske
life
light
lightning
lihula
like
likino
liklik
likojta
likojte
lila
lili
liliaceae
lilija
lilijanka
lilijowc
lilijowych
lilium
lille
lilongwe
limba
limbach
limbark
limbaz
limberg
limeta
limodorum
limosella
lin
linaceae
linaria
linc
lincoln
lincz
linda
linde
lindgren
lindl
lindner
lindow
lindroz
line
linealne
lingua
linguae
linguistics
linija
linije
liniji
liniju
link
linki
linkuva
linn
linnaea
linne
linnean
linum
linux
liny
linz
lipa
lipcani
lipic
lipina
lipinki
lipiny
lipje
lipjeck
lipnica
lipnice
lipova
lipowych
lips
lipsc
lipsk
lipska
lipske
lipsku
lipu
lipy
lis
lisa
lisabeth
lisabon
lisc
liski
lisne
list
lista
listach
listera
listow
listowa
listowanje
listy
litaws
litawsce
litawska
litawskeho
litawskej
litawskeje
litawski
literarna
literarne
literarneho
literarnej
literarneje
literarnje
literarno
literarnu
literarny
literarnych
literarnym
literat
literatur
literatura
literaturje
literaturow
literaturu
literatury
lithocarpus
litograf
litome
little
littoralis
lityn
liu
live
liverpool
liwkosc
lix
liz
lił
liła
ljachawic
ljany
ljozna
ljub
ljuban
ljubar
ljubas
ljubc
ljubec
ljubes
ljubin
ljubjercy
ljubljana
ljublynec
ljuboml
lk
lka
lkau
lkel
lker
lkerung
lklingen
lknitz
lkowa
ll
lla
llemann
ller
lln
llo
lloyd
llrose
lmus
lmusec
ln
lna
lnd
lne
lneho
lnej
lneje
lneju
lni
lnic
lnica
lnicy
lnik
lnika
lnikow
lnis
lniwosc
lniwy
lnje
lnosc
lnski
lnu
lny
lnych
lnym
lnymi
lo
lobelia
lobendava
lobendorf
lobin
lobnja
lochce
lochke
lochko
lochkoatlet
lochkoatletka
lochwycja
lodni
lodohokejist
lodowe
lodowej
lodu
lohko
lohmen
lojew
lok
lokac
lokalne
lokatiw
loksa
lolium
lom
lomaj
lomiwka
lommatzsch
lomne
lon
london
londona
londonje
long
longifolia
loni
lonicera
lopatyn
lopud
lora
lorenc
lorenca
lorenz
lorenzo
los
losar
losino
lossatal
losyniwka
lotar
lothar
lotos
lotoska
lotowe
lotoweho
lotowy
lotus
lou
louis
louise
louisiana
lour
love
low
lowa
lowac
lowachu
lowanja
lowanje
lowas
lował
loz
lozano
lozowe
lp
ls
lsce
lsk
lska
lske
lskeho
lskej
lskeje
lskemu
lski
lskich
lskim
lsko
lsku
lt
lteren
ltiges
ltsamaa
lu
luanda
luba
luban
lubaty
lube
lubeje
lubhozdz
lubi
lubic
lubica
lubicy
lubij
lubija
lubijej
lubijom
lubijska
lubijskeho
lubijskej
lubijskeje
lubiju
lubin
lubina
lubiny
lubje
lubjenc
lubjenski
lubka
lublin
lubliniec
lubnjow
lubnjowa
lubny
lubo
luboc
lubochow
luboln
luboraz
lubos
lubosc
lubowac
lubowany
lubowas
lubozna
luboznje
lubsko
lubu
lubuje
lubus
lubuskie
luby
lubych
lubym
luc
luchow
luchowicy
lucia
lucida
lucidum
luck
lucka
lucy
lud
luda
ludam
ludami
ludej
ludger
ludlic
ludmila
ludmile
ludmilu
ludnosc
ludom
ludospyt
ludovici
ludow
ludowa
ludowe
ludoweho
ludowej
ludoweje
ludowi
ludowu
ludowume
ludowy
ludowych
ludowym
ludu
ludvi
ludwig
ludwiga
ludwigshafen
ludwik
ludy
ludz
ludza
luga
lugau
luhansk
luhanska
luhanske
luhanskej
luhyny
lui
luigi
luis
luise
luja
luje
lujo
luka
lukas
lukiw
luknov
luknovskim
lula
lumpf
lunaria
lundell
lunga
luninec
lunzenau
lupina
lupinus
lusatia
lutarjecy
lute
lutea
luther
luthera
lutherska
lutherski
lutobc
lutol
lutowac
lutyjecy
lutz
luxemburg
luxemburgska
luxemburgski
luz
luzula
lva
lwo
lwowa
ly
lychnis
lycoctonum
lydnevi
lyman
lymanc
lymanske
lynowycja
lyntupy
lynx
lypowec
lyrika
lyrikar
lyriki
lyriku
lys
lysec
lysimachia
lysjanka
lythraceae
lythrum
lytkarino
lze
m
ma
maardu
maarten
maas
mac
macao
macdonald
mach
machac
machern
macht
mackenroth
macrocarpa
macron
macrophylla
maculatum
madagaskar
madagaskara
madagaskarje
madaus
madeira
madison
madlen
madlena
madleny
madlow
madona
madonna
madrid
madz
magacin
magacina
magadan
magazin
magdalena
magdanly
magdeburgske
magee
magic
magister
magnitnyj
magnolia
magnolie
magnus
magtymguly
maheriw
mahiljow
mahiljowa
mahiljowskej
mahonia
mahonija
mahr
mai
maiac
main
maine
maizie
maj
maja
majak
majakowskij
majestosc
majka
majluu
major
majron
maju
majus
mak
makariw
makeba
makedons
makedonsce
makedonska
makedonskeho
makedonskej
makedonskeje
makedonski
makijiwka
makino
makinsk
makkabejow
makos
makowych
maks
maksa
maksimalna
maksimalnje
maksimalnu
maksimilian
maksymilian
mal
mala
malachowka
maladzec
malajzija
malajzije
malaryta
malawi
malaysia
malc
malczyce
male
malec
malediwy
malena
males
mali
malic
malin
malink
malinka
malinkowa
malino
mallorca
malotaraniwka
mals
malta
maltas
malu
malus
malva
malvaceae
malxetal
maly
malyn
mam
mama
mamy
man
mana
management
manager
manc
mandarina
mandat
mandela
mandla
mandlowa
mandz
manewyc
manfred
mang
mango
manhus
manice
manihot
maniok
manjow
mankiwka
mann
mannheim
manning
mannsfeld
mannsschild
manov
mans
mansijska
mansow
manuel
manuela
manuskript
many
mapa
mar
marakuja
marc
marcel
marchaty
marco
marcus
mare
marek
marg
margare
margaret
margarete
margot
marhamat
marhata
mari
maria
mariai
marian
marianne
mariano
mariany
maribor
marie
marienberg
marija
marijampole
marije
marijina
marijineje
marijiny
mariju
marin
marina
marino
mario
marion
maris
maritima
maritimus
mariupol
marja
marjan
marjana
marjaniwka
marje
marjec
marjina
marjinka
marjom
marjorie
marju
mark
marka
marke
markersbach
markhrabinstwo
markhrabja
markhrabje
marki
markkleeberg
markneukirchen
marko
markoc
markojska
markow
markransta
marku
markus
markvartice
marlene
marokko
marron
mars
marseille
marshall
mart
marta
martens
marti
martin
martina
martini
martinique
martius
martrar
martuni
marty
marus
marx
marxowej
mary
maryland
mas
masa
masaryk
mase
maseru
masiw
maskulinum
maslenka
maslenkowych
massachusetts
massen
mastkraut
masty
masu
masy
mat
mata
mataj
matej
mateja
mateju
matematikar
matematiku
matera
material
materiala
materialije
mateusz
mathias
matka
mato
matovic
mattha
matthias
maturje
maturowas
maturu
mauno
maurice
mauritius
mauschwitz
mawretanska
max
maxi
maxim
maxima
maximilian
may
mayer
mayotte
mayr
maz
mazane
mazowiecka
mazowiecki
mazowska
mazowskim
mazsalaca
mazurska
mazyr
mazz
mała
małe
małeho
małej
małeje
małemu
małgorzata
małka
małke
małkej
małki
małkich
małkimi
małko
małksy
mało
małobyrgarski
małokwe
małopo
małopr
małoratar
małoro
małostronski
małowapnate
małowapnite
małowutkate
małsec
małsecy
mału
mały
małych
małym
małymi
mb
mba
mc
mcam
mcami
mchen
mckinley
mcova
mcow
mcy
mdr
me
mec
mecen
mecklenburg
mecklenburgska
mecklenburgsko
med
medalju
medenyc
media
medicago
medicinar
medicinu
mediciny
medije
medijow
medijowy
medik
medwjedka
medz
mehlbeere
mehlis
mehmed
mehrere
mehrja
mehßow
meier
mein
meine
meinhof
meinhold
meisn
meißen
meja
meje
meji
meju
melampyrum
melandrium
melanie
melanocarpa
melbourne
melda
melde
meles
melica
melilla
melilotus
melnycja
melodija
melodije
melodiju
meloni
memorandum
men
mena
mende
menschen
mentha
menziesii
mer
merboltice
mercurialis
meri
meridian
meridiana
meridiany
merkel
merkmale
merkur
merr
mertin
merynka
merz
merzdorf
mes
meschgang
mesembryanthemum
mespilus
metaforiske
metal
metalowa
metasequoia
meter
metoda
metodami
metody
metra
metrach
metrami
metropolowy
metropolowym
metrow
metry
mette
metz
metzler
mexicana
mexico
mexika
mexiko
mexikom
mexiku
mexiski
mey
meyer
meyers
mez
mezopotamiska
mezopotamiskej
mezopotamiskeje
mfa
mi
miasto
mic
mica
mich
michael
michaela
michail
michailowic
michajlowic
michal
michale
michalk
michalovice
michał
michała
michałk
michałki
michałkowa
michałom
michałska
michałskej
michałskeje
michea
michel
michigan
michiganskim
michnjewo
michx
micki
micrantha
microcarpa
microphylla
microsoft
midentala
midwayske
mie
miere
miguel
mihalic
mika
mikas
mikawc
mike
mikow
mikoło
mikula
mikus
mikławs
mil
mila
milan
milbradt
milc
mildenau
mile
milenka
miler
miles
miliardow
milicz
miliduch
milimetrow
milinarni
milinarnja
milinarnje
milion
miliona
milionaj
milionami
milionow
milionowe
miliony
milkersdorf
mill
millefolium
miller
milos
milutinovic
mimosa
mimoza
min
mina
minakale
minakał
minakała
minakałskej
minakałskeje
minas
mind
minh
minima
miniplanet
minister
ministerium
ministerjo
ministerka
ministerscy
ministerska
ministerskeho
ministerski
ministerskim
ministerstwa
ministerstwje
ministerstwo
ministra
ministrojo
ministrom
minnesota
minor
minoru
minsk
minska
minskowskej
minuartia
minus
miny
minze
mio
miq
miquelon
mir
mirabilis
mirek
miro
miroslav
mis
misionar
misionskich
missen
mississippi
missouri
mit
mitas
mitsotakis
mitte
mitteleuropas
mittelherwigsdorf
mitterrand
mittweida
mixdorf
miz
mizuki
miła
miłe
miłkec
miłkecy
miłoc
miłoraz
miłosc
miłosz
miły
miłych
mj
mjadzel
mjany
mjasa
mjasne
mjaso
mjatwic
mjazy
mje
mjec
mjechka
mjechke
mjechki
mjechkim
mjechko
mjedowka
mjedwjedjew
mjedwjedz
mjedz
mjelc
mjen
mjena
mjenach
mjenami
mjendelejewo
mjenja
mjenje
mjeno
mjenom
mjenomaj
mjenow
mjenowac
mjenowachu
mjenowana
mjenowane
mjenowaneho
mjenowanej
mjenowaneje
mjenowani
mjenowanu
mjenowany
mjenowanych
mjenowanym
mjenowas
mjenował
mjenowe
mjenowej
mjenuja
mjenujcy
mjenuje
mjertyn
mjerwa
mjes
mjeta
mjetac
mjetar
mjetarka
mjetel
mjetele
mjetelica
mjetelow
mjetlic
mjez
mjeza
mjezach
mjezow
mjezsobu
mjeztym
mjezu
mjezuja
mjezuje
mjezwoc
mjezy
mjezybor
mjezyborja
mjezyc
mjezynarodna
mjezynarodne
mjezynarodneho
mjezynarodnej
mjezynarodneje
mjezynarodnje
mjezynarodny
mjezynarodnych
mjezynarodnym
mjezysłowjans
mjezywo
mjeły
mjo
mjory
mle
mlitz
mljet
mlo
mloka
mloko
mm
mme
mmel
mna
mne
mni
mnich
mnichow
mnichowa
mnichowje
mnis
mnje
mno
mnohe
mnohich
mnohim
mnohimi
mnoho
mnohokwe
mnoholic
mnohosc
mnozy
mnu
mny
mo
mobile
mobilizowac
mobilne
moc
mocach
mocami
moch
mochi
mochowc
mockrehna
mocow
mocu
mocy
model
modele
modelu
moderator
moderatorka
modere
moderna
moderne
moderneho
modernej
moderneje
modernu
moderny
modernych
modernym
modl
modli
modlic
modlitiwy
modlitwa
modlitwy
modus
modusu
modłej
modłeje
modłeji
moehringia
moench
moers
mohammed
mohan
mohanom
mohilno
mohn
mohuc
mohyliw
mohł
mohła
mohłe
mohło
moja
moje
mojedla
mojeho
mojej
mojeje
mojemu
moji
mojich
mojim
moju
mokre
mokrych
moks
molat
moldawska
moldawskej
moldawskeje
moldovei
mole
molecular
molemo
moler
molerja
molerka
moll
moller
mollis
moloc
molodjoz
molowane
mon
monaco
monarchija
monarchije
monarda
monastyrys
monastyryska
monc
mongolow
mongols
mongolska
mongolske
mongolskej
mongolskeje
mongolskich
monika
monino
monkowych
monogr
monotypiski
monroe
mons
monstera
mont
montana
montanum
monte
montevideo
montgomery
montserrat
moon
moore
mor
morac
moraceae
morales
moravskoslesky
morawa
morawiecki
morawje
morawski
morawsko
morawu
morawy
morchej
mordar
mordwinska
more
morfemy
morfologiji
morgan
mori
moric
morica
moritz
moritzburg
morja
morjach
morjo
morjom
morju
morlok
morrison
mors
morsowym
mortkow
mortwa
mortwe
mortwy
mortwych
morus
mos
mosak
mosambik
mosc
moschata
moscheutos
moskowske
moskowskej
moskwa
moskwje
moskwu
moskwy
mospyne
most
mosta
mostami
mostom
mostow
mosty
mostyska
motawa
motiw
motiwami
motiwy
moto
motorski
mots
motydłowska
mount
mountains
mov
movice
movie
mowa
mowe
mowoc
mowomo
moworo
mowozelene
mowy
moz
mozart
mozilla
mozow
mr
mre
mro
mrowja
mrowje
mrowjow
ms
msce
mscislaw
mscy
mska
mske
mskeho
mskej
mskeje
mskemu
mski
mskich
mskim
mskimi
msko
mskoho
mskore
msku
mt
mu
muborak
muc
muce
mucha
muchi
muchownik
mudra
mudrina
mudrosc
mudry
muell
muer
mugabe
muhammad
muka
mukac
muki
mukowej
mukowym
muku
mulda
mulde
muldenhammer
muler
multiflorum
multimedialne
mun
munc
muralis
murgap
muri
murja
murjach
murje
murjer
murjow
murjowa
murju
murmansk
murmanska
murmanskej
murmas
murowani
murray
murter
mus
musa
muscari
muscat
museum
musiat
music
muska
muskatowe
muskatowy
muskau
muske
muskeho
muski
muskich
mustafa
muster
mustvee
mustwa
mustwo
musy
mutalibow
mute
mutlic
mutter
muz
muzej
muzeja
muzejownik
muzeju
mułkecy
my
myanmar
mychajliwka
mychajlo
mychaliwka
mydles
mydlica
mydłowcowych
mykolajiw
mykolajiwka
mykulynci
mylic
myosotis
myrhorod
myricaria
myriophyllum
myrne
myrnohrad
myroljubiw
myroniwka
myroniwskyj
myropil
myrsinoideae
myrsinowych
myrtaceae
myrtowych
mys
mysl
mysla
myslach
myslachu
mysle
myslemi
myslene
myslenje
myslenju
mysles
mysli
myslic
myslił
myslo
myslow
myslu
myszko
mysłowice
myta
mytis
myto
mytologiji
mytom
mzdu
mło
młoda
młode
młodeho
młodej
młodeje
młodemu
młodosc
młodoserbow
młodoserbskeho
młodostni
młodostny
młodostnych
młodus
młody
młodych
młodym
młodz
młoz
młyn
młyna
młynk
młynka
młynkec
młynkowa
młynski
n
na
nabe
nabok
naboz
naby
nac
nach
nachabino
nachic
nachilnosc
nachrichten
nachsko
nachtkerze
nachwilnje
nachwilny
nacijow
nacionalist
nacionalsocialisc
nacionalsocialistiskeho
nacionalsocialistiskeje
nacionalsocialistiski
nacionalsocialistiskim
nacionalsocialistow
nacionalsocializma
nad
nadawk
nadawka
nadawki
nadawkom
nadawkow
nadawku
nadbe
nade
naden
nades
nadho
nadme
nadobny
nadobo
nadobu
nadosc
nadpad
nadpadnje
nadpady
nadpadz
nadpismom
nadregionalnje
nadregionalny
nadro
nadrobnis
nadrobnje
nadwirna
nadz
nagel
nagelowa
naha
nahe
nahi
nahladne
nahladnosc
nahladny
nahladow
nahlady
nahle
nahlenc
nahles
naho
nahromadz
nahuatl
nai
naj
najblis
najbliz
najbo
najbohats
najc
najdle
najdostojnis
naje
najebac
najgros
najho
najhorcys
najhusc
najhłubs
najjuz
najkrasnis
najkro
najle
najlubs
najmjen
najmjenje
najmło
najnis
najnows
najpopularnis
najpozdz
najprjedy
najrads
najrjen
najs
najsewjernis
najskerje
najspe
najstars
najswe
najswjec
najsylnis
najsławnis
naju
najwaz
najwjace
najwjets
najwoblubowanis
najws
najwuchodnis
najwuspe
najwutrobnis
najwuznamnis
najwys
najzapadnis
najznac
nakai
nako
nakromne
nakł
nakład
nakładnik
nakładnistwa
nakładnistwje
nakładnistwo
nakładom
nakładz
nalc
nale
nalez
nalic
nalij
nalika
nalikowc
nalikowych
nalutowarnja
nalutowarnje
nam
namac
namaj
namaka
namakac
namakachu
namakaja
namakali
namakamy
namakane
namakanki
namakas
namakatej
namakał
namangan
name
namen
names
nami
namibija
namjec
namjet
namjetowac
namjetowany
namjetowas
namjetuje
namjety
namjeznych
namo
namocu
namołwjes
namre
nams
namysło
nan
nana
nanajpozdz
nancy
nanej
nanom
nanuzowac
naomi
napadne
napadnje
napis
napisa
napisac
napisami
napisane
napisał
napismom
napisom
napisy
napjatosc
napjec
napohlad
napoleon
napoleona
napominas
naporst
naposledk
naposledku
napoł
napołoz
napr
napras
naprawo
naprawow
naprawy
napus
nar
naran
naraz
narc
narcisa
narcissus
nare
narew
narkewyc
naro
naroc
narod
naroda
narodej
narodna
narodne
narodneho
narodnej
narodneje
narodnemu
narodnin
narodninam
narodniny
narodnje
narodnosc
narodnostneje
narodnu
narodny
narodnych
narodnym
narodow
narody
narodyc
narodz
narosc
narowlja
narowne
narowny
narownymi
narthecium
narty
naruna
narunac
narunanje
narva
naryn
nas
nasadz
naselenija
nasen
nasle
naspomni
naspomnic
naspomnichu
naspomniła
naspomniło
naspomnjena
naspomnjene
naspomnjenja
naspomnjenje
naspomnjeny
nast
nasta
nastac
nastachu
nastajenja
nastajenje
nastajeny
nastajic
nastajnosc
nastali
nastanje
nastanu
nastate
nastaty
nastawa
nastawaja
nastawas
nastawk
nastawka
nastawki
nastawkow
nastawku
nastał
nastała
nastało
nastork
nastroj
nastroje
nastupa
nastupajo
nastupanju
nastupi
nastupic
nasturtium
nasua
nasyp
nasypach
nat
natans
nathanael
nation
national
nationale
nationality
nato
natoc
natu
natur
naturfu
natus
natwar
natwara
natwari
natwaric
natwarichu
natwarili
natwarił
natwariła
natwarje
natwarjena
natwarjene
natwarjeny
nau
naujoji
naum
naumiestis
naundorf
naunhof
nauru
navassa
navoiy
nawahrudak
nawajelnja
nawapolack
nawe
nawjaza
nawjazujo
nawjec
nawjednik
nawjedowac
nawjedowanjom
nawjedowar
nawjedowas
nawjeduje
nawka
nawkec
nawki
nawod
nawoda
nawodnica
nawodnistwom
nawodom
nawodow
nawodu
nawopac
nawopak
nawors
nawoz
nawro
nawsowc
nawsowca
nawsy
nawuc
nawuknje
nawukny
nawuknyc
nawuknył
naz
nazajtra
nazalne
nazarbajew
nazbe
nazdala
nazelen
nazhonic
nazhonił
nazhonjenja
nazhonjenjemi
nazhonjenjow
nazwuc
nazyma
nazymje
nazymnika
nazymska
nazymske
nazymski
nazymu
nazymy
nałoz
nbach
nberg
nborn
nbrunn
nbrunner
nbsp
nc
nca
ncach
ncej
nces
nchen
nchengladbach
nchez
nchritz
ncia
ncipe
nco
ncom
ncow
ncowac
ncowany
ncowka
ncowki
ncowku
ncu
ncuja
nd
ndchen
nde
nden
nder
ndez
ndr
ndrskich
ndz
ne
nebraska
nebst
nec
nechen
neck
neda
nedo
nees
nefeld
negacija
negatiwne
negatiwnje
nege
neglecta
neglectum
nehammer
neho
neiche
neil
neiße
neißemu
nej
neje
nejepi
neju
nek
nekrolog
nektar
nektara
nel
nelipiwka
nelke
nelson
nemenc
nemis
nemoralis
nemorosa
nemu
nemyriw
nen
nencow
neotrop
neottianthe
nepal
nepolokiwci
nepomuk
neraditz
neringa
neruda
nerwow
nerwy
nes
net
netanjahu
netis
netreba
netrebka
network
netzschkau
neu
neudorf
neue
neuen
neuendorf
neuensalz
neuer
neues
neuhaus
neuhausen
neuhof
neukieritzsch
neukirch
neukirchen
neuko
neumann
neumark
neuss
neustadt
neutralne
neuzelle
nevada
neville
nevis
new
newalde
newcastle
newe
news
newton
nexus
nez
nfeld
ng
nge
ngen
nger
ngera
ngerei
nhain
nhainichen
nheide
ni
nia
niai
nic
nica
nicar
nice
nich
nicholas
nicht
nichto
nici
nick
nico
nicolae
nicolas
nicolaus
nicole
nicu
nicy
nidło
nidłowych
nie
nieder
niederau
niederdorf
niederlausitz
niederwiesa
niederwu
niemirowice
nig
nigella
niger
nigerija
night
nigra
nigreichs
nigritella
nigrum
nigsfeld
nigshain
nigskerze
nigstein
nigswalde
nigswartha
nihdy
nihdz
nij
nijazow
nik
nika
nikami
nikaragua
nikaraguwa
nikec
nikecy
nikej
nikel
niki
nikoho
nikol
nikola
nikolaj
nikolajewic
nikolajewsk
nikolaus
nikolske
nikom
nikomu
nikos
nikow
nikowych
niku
nil
nila
nili
nim
nima
nimaj
nimaja
nimale
nimam
nimamy
nimatej
nimi
nimo
nimome
nimowo
nin
nina
nio
nis
nishon
niska
niske
niskej
niskeje
niski
niskich
niskim
nisku
nisou
nisporeni
nistwa
nistwo
nita
nitida
nitki
nitkojta
nitz
niw
niwa
niwec
niwele
niwow
niwowy
nixon
niz
nił
niła
niło
nj
nja
njaboz
njace
njach
njachu
njacych
njamorojce
njanskeho
njanskeje
njanski
njanskim
njaswiz
njate
njatiw
nje
njebe
njebja
njebjelc
njebjes
njebjesa
njebjesach
njebjesam
njebjeske
njebjeskej
njebjeski
njebjo
njebjom
njebju
njeboc
njeboh
njebu
njebuchu
njebudu
njebudz
njeby
njebych
njebychmy
njebychu
njec
njech
njecha
njecham
njechan
njechas
njechorn
njecy
njeda
njedaloko
njedawno
njedo
njedoc
njedocpe
njedoko
njedosaha
njedostatki
njedowe
njedyrbi
njedz
njeeksistuja
njeeksistuje
njehan
njehladajo
njeho
njehodz
njej
njeja
njejapcy
njejasnje
njeje
njejewi
njejo
njejsc
njejsmy
njejstej
njejsu
njejsy
njejsym
njeju
njek
njekc
njekedz
njekr
njekrasowskij
njelez
njelic
njemało
njemcow
njeme
njemen
njemena
njemi
njemo
njemu
njen
njena
njenadz
njenahladne
njenamaka
njenapadne
njenasadz
njenastupi
njenca
njene
njenja
njenje
njenjemi
njenjese
njenjesu
njenjo
njenjow
njenju
njeny
njenych
njepila
njepo
njepoc
njepole
njeporadz
njeporowje
njeposre
njepr
njeprawidłownje
njeprawy
njepus
njepłac
njeradecami
njere
njerodz
njerozdz
njes
njesc
njese
njesebic
njeserbuje
njeses
njesko
njesme
njespe
njespo
njespokojnosc
njespro
njesu
njeswac
njeswe
njesłus
njesłys
njetrjeba
njetrjebaja
njetrjebam
njetrjebamy
njetrjebas
njetrjebaws
njewaz
njewe
njewidz
njewinowatosc
njewjesc
njewjesta
njewjestu
njewjesty
njewo
njewobdz
njewobkedz
njewobs
njewobsedz
njewoc
njewotpowe
njewotwisna
njewotwisne
njewotwisnej
njewotwisneje
njewotwisnje
njewotwisnosc
njewotwisny
njewotwisnych
njewotwisnym
njews
njewuc
njewuspe
njewustupuje
njewuz
njez
njezadz
njezamo
njezapomnic
njezboz
njezdas
njezhubi
njezme
njeznaje
njeznarowy
njeznate
njeznaty
njezrałe
njezwuc
njo
njoho
njom
njomu
njotna
njotne
njotneho
njotnje
njotny
njow
njowa
njowac
njowas
njowy
njowych
nju
nk
nka
nkar
nkate
nkateho
nkecy
nki
nkom
nkow
nkro
nku
nky
nl
nlandska
nlandskej
nle
nn
nner
no
noafriska
noafriski
noameriskeho
nobelowe
nobeloweho
noc
nocach
noch
nochc
nochce
nochcedz
nochcemy
nochcu
nochcys
nocy
noe
noemi
noginsk
nogorsk
noha
nohajcy
nohi
noho
nohomaj
nohow
nohu
noi
noj
nojce
noje
nokwe
nolinoideae
nolte
nom
nomen
nominatiw
nominatiwje
nomu
non
nookat
noot
nopolitiske
norak
norbert
nord
nordhoff
normalne
normalnej
normalnje
normalny
normalnym
normam
norman
normow
normy
north
northern
norwegs
norwegsce
norwegska
norwegskej
norwegskeje
norwegski
nos
nosac
nosamis
nosc
noserbsce
noserbski
nosiwka
noslicy
nosom
nosowy
nossen
nost
nosti
nostne
nostneho
nostnu
nostny
nostnych
nostnym
nostnymi
nosy
nosyc
nosyn
nosłowjanske
nosłowjanski
nosłowjanskich
not
nota
note
notes
notu
nou
nov
nova
nove
november
novi
noviny
novo
novy
now
nowa
nowac
nowak
nowaka
nowakom
nowalukoml
nowane
nowany
nowas
nował
nowc
nowe
noweho
nowej
noweje
nowember
nowembra
nowembrje
nowemu
nowgorod
nowgorodskej
nowhorod
nowhorodske
nowi
nowin
nowina
nowinach
nowinar
nowinarka
nowinarstwo
nowinje
nowinow
nowinu
nowiny
nowka
nowo
nowoamwrosijiwske
nowoazowsk
nowoc
nowochopjorsk
nowochopjorskij
nowodnistrowsk
nowodonecke
nowoekonomic
nowoho
nowohrodiwka
nowohryhoriwka
nowohujwynske
nowoiwanowskoje
nowojaworiwsk
nowokastornoje
nowomykolajiwka
nowoorz
nowoozerjanka
nowoseelandska
nowoseelandskeje
nowoseelandski
nowoseliwka
nowoselycja
nowosibirsk
nowosibirska
nowosibirskej
nowosilka
nowoslicy
nowoso
nowotny
nowotrojicke
nowotwar
nowowolynsk
nowoworonjez
nowowudac
nowozałoz
nows
nowu
nowy
nowych
nowyj
nowym
nowymi
noz
noze
nołopjenakowych
npd
nr
nrw
ns
nsch
nschwalde
nsdap
nsekresse
nsel
nska
nske
nskeho
nskej
nskemu
nski
nskich
nskim
nskimi
nsku
nsky
nsldz
nster
nstler
nt
ntefering
nter
nther
nu
nuc
nuclear
nuda
nuhel
nuia
nuje
nuk
nukl
nuknica
nukus
nukusa
nuloweho
nulowy
nulu
numerale
numerusaj
nun
nuncius
nuphar
nur
nurafshon
nurobod
nurota
nus
nutans
nuthe
nutr
nutrnje
nutt
nuza
nuzne
nuznje
nuznosc
nuzowac
nuzowany
nuzowas
nuzu
nuzy
nvu
nwo
ny
nyc
nych
nycja
nydej
nygace
nyj
nykyforowe
nym
nymaj
nymi
nymphaea
nymphaeaceae
nysa
nysowa
nysowym
nysu
nysy
nyts
nyy
nyz
nz
o
oara
oazowe
ob
oba
obal
obama
obec
obeliai
ober
oberhausen
oberlausitz
oberlausitzer
obero
oberoderwitzer
oberscho
obersorbisch
obersorbischen
obertyn
oberwiesenthal
obje
objekt
objektow
objektowe
objekty
oblasc
oblast
obnik
obojan
obolensk
obuchiw
obuchowo
obyvatel
oc
occidentalis
occitan
ocean
oceana
oceaniji
oceanje
oceanom
och
ochotona
ochranow
ochranowskeje
ochroleuca
ocimum
ocnit
od
odenski
oder
odesa
odesaskej
odesy
odincowo
odontites
odorata
odoratum
odzina
oe
oederan
oelsa
oelsnitz
oenothera
oeuropski
of
offenbach
office
officinale
officinalis
ofice
oficialna
oficialne
oficialnje
oficialny
oficielna
oficielne
oficielneho
oficielnej
oficielnje
oficielny
oficielnych
og
ogre
ogrosen
oguz
oh
ohangaron
ohio
ohne
ohnowa
ohnowac
ohnowane
ohnowanja
ohnowanje
ohnowanjo
ohnowanjom
ohnowanju
ohnowas
ohnował
ohnuje
oho
ohodla
ohomo
ohorn
ohridskeho
ohridski
oi
ois
oj
ojbin
ojc
ojcach
ojce
ojedne
ojo
ojska
ojskeje
ojta
ojte
ojty
ojtych
ojz
ok
oka
okcitans
okcitansce
oke
oklahoma
okny
okres
okresech
okrilla
okrouhlic
okrouhlice
oktjabrskij
oktober
oktobra
oktobrje
oktobrom
oktobru
ol
ola
olaf
olaine
olbernhau
olbersdorf
olchowatka
old
olda
oldenburg
oldr
ole
oleaceae
oleksandriwka
oleksijewo
oleniwka
olenjegorsk
oleracea
oles
olesko
olesno
olewsk
olga
olhynka
olib
oliv
oliver
olivier
oliwa
olkowo
ollenhauer
olmaliq
olnik
olny
olo
olochow
olomoucky
olot
olpon
olta
olyka
olympia
olympiska
olympiske
olympiski
olymskij
olys
om
omaj
oman
omega
omi
omna
omne
omnik
omnikowych
omnje
omnosc
omny
omnych
omnym
omo
omsk
omu
on
ona
onagraceae
onam
onami
onc
one
onio
onja
onjace
onje
onjegaski
onju
onkach
onki
onkow
online
ononis
onop
onow
ons
onsce
onska
onske
onskeho
onskej
onski
onskim
ontario
ontepa
onu
ony
oo
op
opa
open
opera
operacije
operator
operowa
operowy
operu
ophrys
opil
opis
oplis
opojty
opokow
opole
opolske
opolskie
opolskim
opomaj
opowyc
opozicije
oppeln
opr
opus
opła
opłe
opłota
opłotu
opłych
opłym
oqqo
oqtosh
or
ora
orach
oraki
oranz
oratiw
orb
orba
orbea
orchester
orchestra
orchidaceae
orchideja
orchidejowych
orchija
orchis
orders
ordz
oregon
orej
orenburg
orenburga
orenburgskej
org
organ
organist
organistka
organizacija
organizacije
organizaciji
organizacijow
organizaciju
organizator
organizowac
organizowas
organizuje
organow
organy
orgyia
orhei
oric
orica
orichowe
orient
orienta
orientale
orientalis
orientalist
orientowac
origin
original
originala
originalna
originalne
originalnje
originalny
orjechowo
orjol
orka
orla
orlowka
orna
ornak
ornakec
orne
ornecy
orneho
ornej
orneje
ornica
ornicy
ornithogalum
ornje
ornjow
ornjowje
orno
ornobaj
ornobo
ornoboha
ornobohom
ornobyl
ornoho
ornomorsk
ornomorske
ornosyki
ornow
ornu
ornucha
ornuchi
orny
ornych
ornyj
ornym
orobanchaceae
orobanche
orom
orosz
ors
orsesowa
orska
orstwa
orstwo
orstwowy
ort
orte
ortkiw
ortografija
ortografiji
ortsnamen
ortsnamenbuch
ortsteile
orty
oru
oruskeho
ory
orz
os
osada
osakskim
oscar
oschatz
osetis
osetisce
osetiska
osetiskeje
osijek
oskar
oslo
osm
osmaniskeho
osmaniskim
osmanskeho
osnabru
ossa
ossel
ost
ostejne
oster
ostrau
ostrava
ostriw
ostro
ostrog
ostrogoz
ostrov
ostrownoj
ostruz
oswald
ota
otaci
otakar
otepa
otfried
other
otiska
otiskej
otiskeje
otiski
otok
otrawensk
otrawnewe
ottendorf
otterwisch
ottewig
otto
oty
otych
otynija
ou
oudolen
out
ov
ova
ovata
ovesna
ovice
ovsky
ow
owa
owac
owace
owaceho
owacej
owach
owachmy
owachu
owacu
owacy
owacych
owacym
owali
owalne
owalnych
owana
owance
owane
owaneho
owanis
owanja
owanjach
owanjam
owanje
owanjo
owanjom
owanjow
owanju
owanka
owanki
owanska
owanske
owanskeho
owanski
owanskich
owanskim
owansku
owany
owanych
owar
owarja
owarjam
owarjemi
owarjo
owarjow
owarka
owas
ował
owała
owałe
owało
owałoj
owc
owca
owce
owe
oweho
owej
oweje
owica
owidiopol
owje
owk
owka
owki
owku
owkwa
owna
owne
ownik
ownika
ownje
ownosc
ownostne
owny
owom
owruc
owska
owskeho
owskej
owski
owu
owy
owych
owym
oxalis
oxford
oz
ozems
ozemsce
ozemska
ozemske
ozemskeho
ozemskej
ozemskeje
ozemski
ozemsko
ozerne
ozjory
oßnig
oł
oła
ołar
oława
ołc
ołdk
ołdz
ołki
ołkow
ołma
ołmik
ołmow
ołmy
oło
ołta
ołte
ołtej
ołteje
ołtnica
ołtobrune
ołtojta
ołtojte
ołtojty
ołtozelene
ołtu
ołty
ołtych
ołtym
oły
oʒou
p
pa
pablo
pabrade
pac
pachy
pachysandra
pacifiku
pad
pada
padach
padas
paderborn
padnje
padnjenych
padny
padnyc
padnychu
padnył
padorunje
padow
padswille
padus
pady
padz
paeonia
paeoniaceae
pafka
pafos
pag
page
paho
pahor
pai
paide
paire
pak
pakc
pakic
pakistan
pakistana
pakistanje
pakistanski
pakruojis
palacky
palais
palanga
palaquium
palast
palc
paldiski
palenc
palenca
pales
palestina
pali
pall
pallens
pallida
palma
palman
palmerston
palmowy
palmowych
palmyra
palne
palow
paluoja
palustre
palustris
pan
panama
panc
panchen
panda
pande
pandz
pane
panecy
panemune
panero
paneve
panic
paniculata
paniculatum
panicum
panino
panis
panisce
paniska
paniske
paniskeho
paniskej
paniskeje
paniski
pank
pannewitz
pannonica
panny
panorama
pantelejmoniwka
paolo
papaja
papaver
papaveraceae
papitz
papjera
papjeru
papjery
pappel
papproth
paprika
paproc
paprotna
papuwa
par
para
paradiz
parafijiwka
paraguay
paraguayju
paralelnje
parczewski
pardubicky
parietaria
paris
parisa
pariski
parisu
park
parka
parkach
parkent
parkow
parkowanis
parku
parla
parlamenc
parlament
parlamenta
parnik
paroubek
parowac
parses
parsk
part
partei
parthenocissus
parthenstein
particip
partikla
partikle
partner
partnera
partnerske
party
paru
parviflora
paryc
pas
pasaz
pasc
paseka
pasiwnymi
pasma
pasmje
pasmo
pasmom
pasmow
pasnik
passiflora
passifloraceae
passionsblume
pastawy
pasternak
pastwach
pastwina
pastwis
pastyr
pasvalys
pat
pata
pater
paternoster
patras
patrice
patricia
patrick
patta
pau
paul
paula
paulo
paulownia
paulsdorf
paulus
pausa
pav
pavel
pavle
pavlov
paw
pawc
pawk
pawkowa
pawlecy
pawlina
pawlowsk
pawlowskij
pawoł
pawoła
pawołej
pawołom
pax
paxtakor
paxtaobod
payariq
paz
pazlic
pazlicy
pc
pdf
pds
pe
pec
pech
pedagog
pedagoga
pedagogiku
pedagogiski
pedagogowka
pedicularis
pedro
peel
peer
pegau
peitz
pela
pelahijiwka
pelargonija
pelargonium
pelhr
pen
pendula
penig
penis
pennsylvania
pentandra
penza
people
per
perec
perehinske
perejaslaw
peremys
perennis
perepiat
perepiatycha
perepisi
perfekt
perfoliata
perioda
periodowy
periody
periodz
perm
perma
permske
permskim
pernak
pero
perrier
pers
persica
persicaria
persis
persiskeho
persiskeje
persiski
personennamen
perspektiwy
perss
peru
peruski
perwomajske
perwomajskyj
peschen
peski
pete
peter
petersburg
petershain
petr
petra
petriwka
petro
petrosjan
petrus
petry
petrykaw
petunia
petunija
petzold
peuker
pez
pfalca
pfalcowski
pfalcy
pfer
pflanzen
pflanzenbestimmung
pflanzenfu
pflanzennamen
pflanzenportra
pflanzenr
pflanzenwelt
pflege
pforzheim
pfriemengras
pful
ph
phacelia
phi
phil
philip
philipp
philippe
phillips
phleum
phlomis
phoenix
php
phylogenetic
phylogeny
phytelephas
phyton
pi
pianist
pianistka
pic
pica
picea
pichow
picnjanskeho
picnjo
picnju
pico
picowanskich
picu
picy
pidbuz
pidgin
pidhajci
pidkamin
pidla
pidwoloc
pidz
pie
pieck
piekary
pien
pierce
pierre
pietist
pietistow
pietro
pihawka
pihel
pihelom
pija
pik
pikały
pikinini
pil
pilk
pilnje
pilnosc
pilosa
pilot
piltene
pilulifera
pilzen
piment
pimenta
pin
pina
pinaceae
pinc
pincy
pinsk
pinus
pione
piotr
piper
pis
pisa
pisac
pisachu
pisaja
pisana
pisane
pisanja
pisanje
pisanju
pisanskim
pisany
pisanych
pisanymi
pisar
pisas
pisał
pisin
piskent
piskiwka
pisma
pismawjedz
pismik
pismika
pismikami
pismikej
pismiki
pismikistajer
pismikom
pismikomaj
pismikow
pismikowanju
pismje
pismo
pismowstwa
pismowstwje
pismowstwo
pisomne
pisomnje
pistacia
pistacija
pisum
pitahaya
pitnak
pitosporum
pitt
pius
piwa
piwarz
piwdenne
piwnic
piwo
piz
pił
piła
pjaca
pjacy
pjan
pjasc
pjata
pjate
pjateje
pjatk
pjatnac
pjaty
pjatym
pjatypillja
pje
pjec
pjech
pjecy
pjedlic
pjekar
pjekarski
pjelnjene
pjelowe
pjelsc
pjen
pjenjez
pjenjezy
pjenk
pjer
pjera
pjerite
pjerjeljos
pjerjeswjet
pjerkojta
pjero
pjerojty
pjers
pjes
pjetas
pjetrowskij
pjo
pjowac
pkarjecy
pl
pla
plac
place
plahowanje
plahuja
plahuje
plan
planach
planch
planck
plane
planet
planje
planowa
planowana
planowane
planowaneho
planowar
planowas
planowe
plant
plantaginaceae
plantago
plantarum
plants
plany
plata
platana
platanthera
platanus
platterbse
platy
platzeck
plawni
play
ple
plec
plede
plena
plenkovic
ples
plesawka
plesna
pleso
plessa
pli
plista
plo
plouc
plowdiw
plumbaginaceae
plunge
plural
plurala
pluralu
plus
pluskwamperfekt
plusnikecy
pluto
pluwizny
ply
plzen
pnica
pnicowych
po
poa
poaceae
pobeda
poboz
pobrachuje
pobrjo
pobrjoha
pobrjohach
pobrjohom
pobrjohu
pobrjoze
poc
pochad
pochada
pochadz
pochod
pochowa
pochowany
pockau
pod
poda
podac
podachu
podarmo
podate
podaty
podawa
podawac
podawanje
podawas
podawk
podawkach
podawki
podawkow
podał
podc
poddanow
poddruz
poddz
poden
podgorjenskij
podho
podilsk
podilska
podilskyj
podjes
podkarpatska
podkopki
podlaska
podle
podlesie
podlez
podluz
podmo
podmoklany
podmoky
podnisterska
podnjesterska
podnurjena
podoba
podobje
podobna
podobne
podobnje
podobnosc
podobny
podobnych
podobnym
podobu
podocarpus
podokarpus
podolsk
podolskej
podpe
podpisa
podpisany
podre
podro
podroda
podrodow
podroz
pods
podse
podsekcija
podskupina
podsteja
podstejes
podstupim
podstupimje
podswo
podus
podwo
podwys
podz
podzemske
podłoz
podłu
poet
poetiske
poezija
poezije
poeziji
poeziju
pofalla
pohanskich
pohibuje
pohl
pohlad
pohlada
pohladac
pohled
poho
pohonc
pohonjowas
pohosc
pohrebys
pohrjeb
pohrjebnis
pohubjen
pohłubs
poir
pojark
poje
pojednanja
pojednanjow
pokaza
pokazac
pokazachu
pokazaja
pokazali
pokazał
pokazki
pokazowac
pokazowachu
pokazowas
pokazuja
pokazuje
pokazujo
pokiwy
pokoj
pokoja
pokr
pokroc
pokrowka
pokrowsk
pokutny
pokład
pokładnik
pol
pola
polach
polack
polacy
polak
polakow
polarneho
polarny
pole
polemoniaceae
polemonium
polenz
police
policija
policije
politice
politik
politika
politikar
politikarka
politiki
politiku
politisce
politische
politischen
politiska
politiske
politiskeho
politiskej
politiskeje
politiski
politiskich
politiskim
politisku
politologa
poljana
poljanka
poljarnyj
poljarnyje
polk
polkowice
polo
polonne
polow
polska
polskiego
polsko
poltawa
poltawskej
poltawy
polu
polycnemum
polygala
polygalaceae
polygonaceae
polygonatum
polygonum
polyommatus
pomazku
pomałku
pomału
pome
pomelo
pomha
pomhac
pomhachu
pomhaj
pomhas
pomhał
pomhało
pomjatka
pomjen
pomjenowa
pomjenowana
pomjenowane
pomjenowanja
pomjenowanje
pomjenowany
pomjenuja
pomjenuje
pomjezneje
pomnik
pomnika
pomnikaj
pomnikami
pomniki
pomnikom
pomnikos
pomnikow
pomnikowej
pomo
pomoc
pomocne
pomocnik
pomocny
pomocu
pomocy
pomorcy
pomorjany
pomorska
pomorske
pomorski
pomorskie
pomorskim
pompidou
pomurnik
pomysli
pon
pona
pone
ponich
poninka
poniz
ponornycja
ponos
ponyri
pop
popadnyc
popilnja
popjer
popjerjowc
popjernik
popla
popojcach
popojce
popov
popowa
popowy
popołdnju
popr
poprad
poprawom
poprica
popularnowe
population
populus
popus
por
porach
porady
poradz
poraz
porazawa
porc
porchow
porchowa
porchowsku
pore
porjad
porjada
porjadk
porjadka
porjadku
porjadnje
porjadu
porjedz
porjen
porno
pornographie
porodz
porokowac
porokowas
porokuje
poros
porow
pors
porsc
porschdorf
porst
porstnik
porstow
porsty
port
porta
portal
portland
porto
portugals
portugalsce
portugalska
portugalskej
portugalskeje
portugalski
portulaca
portulacaceae
portłak
portłakowych
poruc
poruhrskej
pory
porynsko
pos
posaarska
posaarskej
posaarskeje
posad
posedz
poselstwo
posesiwne
posjolok
poskic
poskitk
poskitkom
posledni
poslednich
poslednim
poslednja
poslednje
poslednjeho
poslednjej
poslednjeje
poslednjemu
poslednju
posme
posmjertne
posmjertniny
posole
posoł
posoła
pospe
pospochi
pospyt
pospyta
pospyty
posre
post
postaja
postajec
postajeja
postajena
postajene
postajenja
postajenje
postajenju
postajeny
postaji
postajic
postajichu
postajił
postara
postawa
postawy
postpozicije
postrow
postup
postupowac
postupowace
postupowachu
postupowacy
postupowanje
posudz
poswjec
posylnjuje
posłus
posłuz
potac
potajkim
potamogeton
potamogetonaceae
potentilla
potik
potok
potom
potomnicy
potomnik
potomnikow
potr
potre
potrjebu
potrjebuja
potrjebuje
potrjeby
potrjechena
potrjechene
potrjechi
potsdam
potter
potwjerdz
potło
pour
poustevna
pow
powarowo
powaz
powe
powell
power
powiat
powiata
powiatom
powiaty
powjerch
powjercha
powjerchu
powjets
powo
powoblic
powodz
poworino
powostanki
powoła
powołanja
powołanje
powołanju
powołanske
powołanskeho
powołany
powro
pows
powuc
powys
powło
poytug
poz
pozadku
pozbe
pozbudz
pozdac
pozdatna
pozdatne
pozdatnje
pozdatny
pozdatnych
pozdecy
pozdz
pozhubjowas
pozicija
pozicije
poziciji
poziciju
pozitiwne
pozitiwnje
poznan
poznanju
poł
połc
połdnju
połdra
połkule
połkuli
połkupa
połkupje
połkupu
połkupy
połle
połme
połna
połne
połnej
połnje
połno
połnocy
połnoho
połnu
połny
połnym
połobs
połobske
połobski
połobskich
połodnic
połojca
połojcu
połojcy
połon
połoz
połpica
połsc
połsta
połstatych
połsuchich
pp
pping
ppiu
pr
pra
prades
praecox
pragermanskeho
praha
prahi
prahu
praj
praja
prajene
prajes
praji
prajic
prajił
prajo
praju
praksy
praktisce
praktiske
praktiskich
prale
prapremjera
pras
praskeho
praskej
praskeje
praski
praskim
prasłowjanskeho
pratense
pratensis
prawa
prawach
prawdinskij
prawdz
prawe
praweho
prawej
praweje
prawemu
prawicarska
prawicarski
prawidła
prawidłow
prawidłowne
prawidłownje
prawiznik
prawje
prawniski
prawnistwo
prawo
prawoc
prawom
prawopis
prawopisa
prawopisneje
prawopisny
prawopisu
praworo
prawow
prawowe
prawu
prawy
prawym
praz
praze
pre
prec
predikat
preferuje
prefiksy
preil
preilack
preis
premier
premiera
premierminister
premierministrom
premierojo
premuda
preparandu
prepozicija
prepozicije
pres
presbyter
president
presl
press
presse
preteritum
pretzschendorf
preußler
prez
prezens
prezidenc
prezident
prezidenta
prezidentej
prezidentka
prezidentom
prezidentowe
prezidentowych
prezidija
pri
pric
priebus
priekule
prienai
priestewitz
prietitz
prima
primel
primigenius
primorje
primorskim
primula
primulaceae
princ
prince
princesna
princip
principje
priozjorsk
pris
pristen
priwatna
priwatne
priwatny
prjamicyno
prjawoz
prjedaws
prjedownikow
prjedy
pro
problem
problematiki
problematiku
problemow
problemy
procentami
procentow
proces
procesa
procesow
procesu
procesy
proch
procha
procumbens
procyon
prodrustwownik
producent
producentka
produkcija
produkcije
produkciju
produkt
produkty
produkuja
produkuje
prof
profesor
profesora
profesorom
profesorow
profesuru
profetow
program
programa
programe
programje
programow
programy
project
projekc
projekt
projekta
projektach
projektow
projektowanje
projekty
prokop
prokudin
proletarskij
promjenja
promjenjach
promjo
promowowany
promowowas
pronomen
pronomena
pronomenach
pronomenow
pronomeny
propagator
pros
prosc
prosi
prosta
prostak
proste
prostrata
prosty
prosy
prosyc
prosymy
protec
protecy
protest
protestanc
protestowas
proto
protwino
protyce
protyka
protykar
protyki
protyku
provency
providencia
prowinca
prowincow
prowincu
prowincy
proz
proza
prozaist
prozu
prozy
pru
pruc
prudnik
prudy
prudz
pruhi
pruhu
prunella
prunifolia
prunus
prus
pruska
pruske
pruskeho
pruskej
pruskeje
pruski
pruskich
pruskim
prusko
prut
pruwowac
pruwowanja
pruwowanje
pruz
prvic
pryberez
pryluky
prypjat
prys
pryskawc
prystan
przewo
przyłuski
ps
psa
psalmy
psami
pschi
pseudofumaria
pseudolysimachion
pseudonym
pseudonymom
pseudotsuga
psez
psi
pskow
pskowskej
psowje
psowodz
pstruhac
psy
psyc
psychiater
psychologie
psyk
pszczyna
ptac
ptak
ptaki
ptakow
pttk
pu
pubescens
publ
public
publicist
publicistka
publikacije
publikacijow
publikowas
publikum
publikumej
publique
puc
puccinellia
pucherjak
pucherjakowych
puerto
puknu
pulegioides
pulsatilla
pulsnitz
pulyny
pumila
pumpa
pumpe
punctata
pundowanje
pundowanju
punk
pupawac
pupk
pupki
purkyne
purpurascens
purpurc
purpurea
purpureum
purpurowa
purpurowe
pursh
pus
pusc
puschmann
pusilla
pustomyty
pustych
putin
putnik
putnikowych
putyla
py
pykiw
pyr
pyracantha
pyramidalis
pyrenaica
pyrenaicum
pyrenejach
pyrenejow
pyrjatyn
pyrola
pyrolaceae
pyrus
pyrzyce
pys
pysc
pysk
pyskawa
pyskownic
pyta
pytac
pytaja
pytanje
pytanju
pytas
pytał
pytnyc
pła
płac
płas
pławna
pławno
pło
płoda
płodami
płodow
płodowa
płodowe
płodoweje
płodowych
płodowym
płody
płodz
płomjenja
płomjo
płon
płona
płone
płoninach
płoninje
płoninow
płoninu
płoniny
płony
płonych
płotach
płoty
płuhom
płun
płuwar
płuwarka
pʃeu
pʃiu
q
qamashi
qarshi
qashqadaryoskej
qiziltepa
qo
qorako
qorasuv
qorovulbozor
qu
qua
que
queen
quelle
quercus
qui
quinn
quinquefolia
quito
qumqo
quo
quva
quvasoy
r
ra
rab
rabenau
rabocy
rac
raca
race
racej
raceje
racemosa
rach
racha
rachel
rachiw
rachlow
rachlowa
rachlowc
rachlowje
rachow
rachowa
rachowje
rachu
racibo
racin
rackwitz
rad
rada
radas
raddusch
rade
radeberg
radebeul
radeburg
radechiw
radensdorf
radija
radijo
radio
radisne
radius
radlow
radlubin
radme
radnica
radnicy
radobyle
radom
radomys
rados
radosc
radosti
radowas
rads
radu
radul
radun
radus
radvilis
radwor
radworja
radworju
radworska
radworske
radworskeho
radworskej
radworskeje
radworski
radworskim
rady
radyserb
radz
radłow
raf
rafael
rafflesia
ragow
rahac
rain
rainer
raj
raja
rajc
rajhorodok
rajon
rajona
rajonje
rajonow
rajs
rajske
rak
rakec
rakecach
rakecy
rakojdy
rakow
rakuska
rakuskeho
rakuskej
rakuskeje
rakuskemu
rakuski
rakusko
rakvere
ralbic
ralbicach
ralbicy
ralf
rali
ralph
ralskem
ram
rama
ramaly
rambutan
ramelow
rami
ramiku
ramjenja
ramjenjomaj
ramjenskoje
ramjo
ramkiwka
ramnow
ramo
ramon
ramygala
ran
rana
randy
rane
ranis
ranja
ranje
ranjeni
ranjenych
ranjom
ranju
rano
ranu
ranunculaceae
ranunculus
rany
rapa
raphanus
rapla
rapper
raqo
rar
ras
rasch
raschau
raseiniai
rasony
rastko
rat
ratar
ratarja
ratarjo
ratarjow
ratarske
ratarskeho
ratarski
ratarskich
ratarstwa
ratarstwo
rathen
rathmannsdorf
ratne
raty
rau
rauchiwka
rauen
rauschwitz
rava
rawa
rawc
rawca
rawka
rawp
rawpowa
rawska
ray
raymond
raz
razej
razmes
raznje
razow
razu
razy
rał
rała
rba
rbach
rbb
rbje
rbow
rbu
rby
rc
rca
rce
rcec
rchb
rchecy
rchen
rchenkojte
rchi
rchow
rchowa
rchowje
rchtegott
rcom
rcu
rcules
rcy
rde
rdla
re
reagan
reagon
reaguje
reaktorow
realitu
realizowac
rec
recensije
rech
rechenberg
recitowas
recklinghausen
records
recta
red
redakcija
redakcije
redakciji
redakciju
redaktor
redaktora
redaktorka
redaktorom
redaktorstwo
redigowas
redukowac
redukowane
redukowanje
reed
ref
referent
referowas
reflektuje
reformacija
reformacije
reformaciji
reformator
reformje
reformowar
reformu
reformy
regel
regia
regina
region
regiona
regionach
regionalna
regionalne
regionalnje
regionalny
regionalnych
regionech
regionej
regionje
regionow
regiony
regis
registruje
regni
regularnje
rehder
rehnsdorf
reich
reicha
reichenau
reichenbach
reichenwalde
reiherschnabel
reimann
reiner
reinhard
reinhardtsdorf
reinhold
reinmuth
reinsberg
reise
rej
reja
reje
rejow
rejowar
rejowarka
reju
rejuje
rejwar
rejza
rekonstruowac
rektor
relatiwnje
remscheid
ren
renate
renc
rene
reni
renner
renome
renowe
renstein
rentsch
repens
reportaz
reprezentant
reprezentantow
reprezentowas
reprezentuje
reprint
reprodukowac
reptans
repten
repu
republic
republice
republika
republiki
republikow
republiku
republiky
res
research
reseda
resident
resources
resp
respektiwnje
results
reticulata
rettich
reut
reutlingen
rev
reveal
review
revolution
rewda
rewe
rewolucija
rewolucije
rewoluciji
rewoluciju
rewolucionar
rex
rexrodt
reykjavi
rez
rezerwat
rezidenca
rezidencu
rezina
rezultat
rezultuje
rfer
rg
rgen
rgenc
rhamnaceae
rhamnus
rhein
rhen
rhenis
rhinanthus
rho
rhode
rhus
ri
ribes
ric
rica
rice
rich
richard
richarda
richardson
richter
ricinus
rick
rico
riesa
riesenhuber
riester
rietavas
rietz
riff
riga
rigi
rije
rijeka
rijenk
rijki
rika
riko
rili
rimski
rin
ring
ringlota
rio
riordan
ripky
ris
rishton
riske
rispengras
rita
ritter
ritz
rivanj
river
riwi
riwne
riwych
rizo
rił
rja
rjachu
rjad
rjada
rjadach
rjadej
rjadki
rjadnik
rjadny
rjadow
rjadowac
rjadowane
rjadowanja
rjadowanje
rjadowanju
rjadowni
rjadownje
rjadownjow
rjadu
rjaduje
rjana
rjane
rjaneho
rjanej
rjaneje
rjanosc
rjanu
rjany
rjanych
rjanym
rjaponka
rjata
rjatow
rjazan
rjazanskej
rje
rjec
rjeda
rjedz
rjeja
rjejes
rjek
rjekny
rjekowje
rjekł
rjemjeslnicy
rjemjeslnikow
rjemjesło
rjen
rjena
rjenc
rjencowych
rjene
rjeneho
rjenej
rjenja
rjenje
rjenjom
rjenju
rjenow
rjenska
rjenske
rjenski
rjenu
rjeny
rjenych
rjes
rjetkej
rjeutow
rjo
rjow
rjowac
rjowas
rju
rjuja
rjuje
rk
rka
rkach
rkatej
rkaty
rkawy
rke
rkej
rkendorf
rkhamor
rki
rkisch
rkischheide
rkmenabat
rkmenabata
rkmenbas
rkmengala
rko
rkojty
rkow
rkowach
rkowc
rkowcowych
rkowow
rkowy
rku
rle
rlenk
rli
rlica
rlich
rlitz
rliwje
rlus
rmala
rmer
rn
rna
rnac
rnberg
rne
rneho
rnej
rneje
rner
rni
rnica
rnichen
rnicowych
rnicy
rnicza
rnik
rnika
rnikec
rnikecy
rniki
rnikom
rnikow
rnis
rnistwa
rnistwo
rnistwowe
rnitz
rniwka
rnjacy
rnje
rno
rnosc
rnow
rnu
rny
rnyc
rnych
rnym
ro
road
roalson
rob
robert
roberta
roberto
roberts
robertson
robin
robinia
robinija
roboc
roc
rocha
rochlica
rochlitz
rock
rockingham
rockowa
rockoweje
rockowy
rod
roda
rodach
rodaj
rodami
rodecy
rodej
rodewisch
rodni
rodniki
rodom
rodomaj
rodow
rodowe
rodu
rody
rodynske
rodz
roem
rogen
roger
rogers
roggosen
rogly
rogow
rogozno
rogun
rohac
rohatyn
rohodz
roholn
rohrbach
rohrkolben
roj
rojo
roka
roke
rokeho
rokej
roki
rokich
rokim
rokis
roko
rokosc
rokostniki
rokszyce
roku
rokyni
rokytne
rola
rolach
roland
role
rolf
roli
roll
rolling
rollowy
roloff
rolu
rom
roma
roman
romana
romance
romaniska
romaniske
romaniskich
romaniw
romanow
romantiki
romany
romitan
romjanow
romje
romjenjo
romodan
roms
romske
romskeho
romskej
romskeje
romski
romskim
romsko
romuald
ronald
rondo
roosevelt
ropjelsc
rory
ros
rosa
rosaceae
rosc
rose
rosea
rosenbach
rosenhain
rosenthal
roslin
rosmarin
rosowka
ross
rossau
rossos
rostlin
rostlina
rostlinach
rostlinam
rostlinami
rostlinje
rostlinow
rostlinske
rostlinski
rostlinskich
rostlinskim
rostlinu
rostliny
rostock
rostok
rostow
rostu
roswin
rosław
rosławowice
rot
rote
roth
rothmaler
rotterdam
rotundifolia
row
rowa
rowac
rowaca
rowace
rowach
rowachu
rowacy
rowali
rowana
rowane
rowaneho
rowanej
rowaneje
rowanja
rowanje
rowanjom
rowanju
rowanske
rowany
rowanych
rowanym
rowar
rowas
rował
rowała
rowało
rowc
rowe
roweho
rowej
rowje
rowjenkow
rownis
rowno
rownom
rowohlt
rowow
rowu
rowy
rowych
roxb
roy
royal
roz
rozbe
rozbic
rozbudz
rozc
rozdil
rozdilna
rozdz
rozec
rozelena
rozelene
rozestajenja
rozestajenje
rozestajenjow
rozetu
rozeznawa
rozeznawac
rozeznawaja
rozeznawanje
rozeznawatej
rozhałuz
rozhałuzowana
rozhałuzowane
rozhałuzowany
rozhałuzowanych
rozhałz
rozhlad
rozhlada
rozhladna
rozhledz
rozhne
rozhło
rozhłosa
rozhłosownik
rozhłosowy
rozhłosu
rozjasnic
rozjasnjowac
rozjasnjowas
rozkazowar
rozkc
rozkidowac
rozkluc
rozko
rozkoc
rozlatc
rozme
rozmnoz
rozmołwa
rozmołwach
rozmołwje
rozmołwy
rozmyslowac
rozmyslowanja
rozmyslowas
roznos
rozpac
rozpad
rozpadz
rozpisowac
rozpisuje
rozpjers
rozporach
rozpowe
rozpr
rozprawa
rozprawja
rozprawje
rozprawjec
rozprawjes
rozprawow
rozprawu
rozprawy
rozpus
rozradowany
rozraz
rozre
rozrisanje
rozrisowac
rozrjadowac
rozrjadowanje
rozrjaduje
rozrosc
rozrybowanju
rozs
rozsochatec
rozsud
rozsudna
rozsudnje
rozsudny
rozsudz
rozswe
rozsypne
roztok
roztr
roztło
rozum
rozumi
rozumic
rozumja
rozwaz
rozwe
rozwic
rozwjazac
rozwo
rozwod
rozwodecy
rozwoz
rozwuc
rozz
rozłoz
roßwein
rołka
rołki
rołku
rpils
rr
rrro
rs
rsava
rschnitz
rska
rske
rskeho
rskej
rskeje
rski
rskich
rskim
rsku
rst
rstenwalde
rster
rt
rta
rte
rter
rterbuch
rth
rtk
rtko
rttemberg
rttembergska
rttembergskej
rttembergskeje
rty
rtym
ru
ruanda
ruba
rubar
rubel
rubens
rubia
rubiaceae
rubis
rubjez
rubra
rubrum
rubus
ruc
ruce
rucy
ruda
rudej
rudi
rudky
rudne
rudnik
rudnoho
rudnych
rudnycja
rudolf
rudolfa
rudolph
rudz
rudzensk
ruhr
ruhrskeho
ruiz
ruja
rujany
ruje
rujemy
rujo
ruju
ruka
rukach
rukej
ruki
rukojc
rukojte
rukomaj
rukopis
rukopisa
rukopisnym
rukopisow
rukopisu
rukopisy
rukow
ruksz
ruksze
rukszenice
ruku
rulik
rum
ruma
rumach
rumburk
rumej
rumex
rumje
rumnosc
rumuns
rumunsce
rumunska
rumunskej
rumunskeje
rumunski
rumy
runa
rundschau
rune
rung
runina
runinach
runinje
runinu
runiny
runja
runje
runjec
runjewon
runjez
runoc
runoprawosc
runu
runy
runym
rupac
rupestris
rupik
rupikowych
ruppia
rus
rusce
ruscus
rusins
ruska
ruske
ruskeho
ruskej
ruskeje
ruskemu
ruski
ruskich
ruskim
rusko
rusku
ruskusowych
rusnok
rusojo
rusow
russell
russian
russischen
rut
ruta
rutaceae
ruth
rutowych
rutte
ruz
ruza
rva
rve
ry
ryba
rybarstwo
rybni
rybnik
rybnis
rybork
rybow
rybuje
ryby
ryc
rych
rychbach
rychtar
rychwałd
rychwałdsku
rychwałdz
rychwałt
rydb
rylsk
rym
ryn
ryna
rync
rynje
rynki
rynku
rys
rysowar
rysowas
rysuje
rysy
rywuznac
ryz
ryzawa
ryzawy
ryzy
rz
rzburg
rze
rzeczko
rzy
rła
rłach
rło
rłow
rłowych
s
sa
saale
saar
saarbru
saaremaa
saarow
saba
sabile
sabina
sabine
sac
saca
sacach
sacaj
sach
sacha
sachalin
sachalinska
sachalinskej
sachsen
sachsendorf
sacow
sacu
sacy
sad
sada
sadlic
sadowa
sadowe
sadowy
sadu
sady
sadz
safonowo
safran
sagina
sagittaria
saha
sahac
sahace
sahaja
sahara
sahary
sahra
saint
sakar
sakarc
sakrament
sakscy
sakska
sakske
sakskeho
sakskej
sakskeje
sakskemu
sakski
sakskich
sakskim
saksko
saksku
saksofonist
salacgri
salamanca
salantai
salaspils
salbei
saldus
salecharda
salicaceae
salicifolia
salicornia
salihorsk
salisb
salisbury
salix
sallgast
salomon
salow
salowski
salsola
salvador
salvia
salzburg
sam
sama
samara
samarkand
samarkanda
samarqandskej
sambija
sambir
sambucus
same
sameho
samej
sameje
sami
samis
samiska
samiske
samo
samoa
samoho
samolus
samomu
samostatna
samostatne
samostatneho
samostatnej
samostatneje
samostatneju
samostatnje
samostatnosc
samostatnu
samostatny
samostatnych
samowo
samsna
samsne
samsneho
samsnej
samsneje
samsnu
samsny
samsnych
samsnym
samu
samuel
samy
samych
samym
san
sanc
sanders
sandow
sandra
sandwichowe
sandz
sane
sanguineum
sanicula
sankt
sanna
sanskrit
santa
santiago
santo
sanz
sap
saparmyrat
sapawa
sapawje
sapindaceae
sapockin
saponaria
sar
sara
sarah
sarajewje
sarajewo
saran
sarata
saratow
sarda
sardis
sargsjan
sari
sarkan
sarkisjan
sarkozy
sartana
saryagas
sas
saskia
sasnowy
saspow
sat
sataniw
satbajew
satelitowy
saterfrizis
sativa
sativum
sativus
satkula
satkule
satureja
saturn
saue
sauer
sauerland
saulkrasti
saururus
sawa
sawana
sawdi
sawran
saxatile
saxatilis
saxifraga
saxifragaceae
say
sayda
sc
scabiosa
scandens
sce
sceny
sch
scha
schacksdorf
schadz
schaefer
schafgarbe
schanzberg
scharping
schauer
schaumkraut
schavan
sche
scheel
scheibenberg
scheidemann
schen
schenk
schenkendo
schidnycja
schiedel
schilda
schildau
schiller
schilling
schily
schirach
schirgiswalde
schkeuditz
schlaubetal
schlechteberg
schleinitz
schlema
schleswigsko
schlettau
schlieben
schltdl
schltr
schmaler
schmeil
schmellwitz
schmid
schmidt
schmiedeberg
schmogrow
schmu
schmutz
schnarrenberger
schneebeere
schneeberg
schneid
schneider
scho
schodz
schoenoplectus
schoenus
scholz
scholze
schommer
schorbus
schori
schorlemer
schotendotter
schott
schraden
schrankia
schreiber
schriften
schro
schronisko
schto
schu
schubert
schuck
schult
schulz
schulze
schulzendorf
schumacher
schuster
schwali
schwarz
schwarze
schwarzenberg
schwegler
schweiz
schwerin
schwertlilie
schwesig
schwingel
schwosdorf
sci
science
scilla
scirpus
scleranthus
scop
scott
scrophularia
scrophulariaceae
scutellaria
scy
scyła
scz
sdaj
se
sea
seamonkey
sean
seattle
sebastia
sebastian
sebi
sebje
sebjewe
sebnitz
sect
securigera
sed
seda
sedle
sedleti
sedlic
sedlis
sedmac
sedme
sedmihro
sedmy
sedniw
sedowe
sedum
sedz
sedło
see
seebohm
seehofer
seelitz
segge
sehmatal
sei
seidel
seifert
seiffen
sein
seine
seiner
seite
seiters
sej
sejm
sejma
sejmej
sejmika
sejmje
sek
seka
sekcija
sekcije
sekcijow
sekle
seklic
seklowas
sekretar
sekretara
sekretarom
seksualne
sekundy
sele
selenc
selerij
selimovic
seljatino
sellessen
selorodz
selydowe
sem
seme
semeniwka
semiluki
seminar
seminara
seminarje
seminarski
seminaru
semitiske
sempervirens
sempervivum
sen
senator
senbrunn
senegal
senftenberg
senior
senkewyc
separatistiskej
separatistiskeje
sepicy
september
septembra
septembrje
septembru
sequences
sequoia
ser
serb
serba
serbach
serbaj
serbam
serbami
serbin
serbina
serbinje
serbis
serbisce
serbiska
serbiske
serbiskeho
serbiskej
serbiskeje
serbiski
serbisko
serbja
serbjo
serbow
serbowe
serbowka
serbowki
serbowstwa
serbs
serbsce
serbscy
serbska
serbske
serbskeho
serbskej
serbskeje
serbskeju
serbskemu
serbski
serbskich
serbskim
serbskimi
serbsko
serbskoho
serbskopazlic
serbskore
serbskosc
serbsku
serbstwa
serbstwo
serbstwu
serbuje
serdar
serdyte
serednje
sergej
sergejewic
sergen
sergio
serhetabat
serhijiwka
serija
serije
serjebrjanyje
serlica
sernjany
serpnewe
serrasalmus
serrata
sers
service
serz
ses
sestrunj
set
setaria
sew
sewastopol
sewerne
sewjer
sewjera
sewjerje
sewjerna
sewjerne
sewjerneho
sewjernej
sewjerneje
sewjernje
sewjerno
sewjernu
sewjerny
sewjernych
sewjernyj
sewjernym
sewjeroc
sewjerofrizis
sewjerogermanske
sewjeromorsk
sewjerone
sewjerorynsko
sewjerosakskim
sewjerosamis
sewjerowuchod
sewjerowuchodneho
sewjerowuchodnej
sewjerowuchodneje
sewjerowuchodnje
sewjerowuchodny
sewjerowuchodnym
sewjerowuchodz
sewjerozapad
sewjerozapadna
sewjerozapadne
sewjerozapadneho
sewjerozapadnej
sewjerozapadneje
sewjerozapadnje
sewjerozapadny
sewjerozapadnym
sewjerozapadz
sewjeru
sex
sey
seybold
seychelle
sezam
sfals
sfiksowane
sg
shahrisabz
shahrixon
shakespeare
shargu
shehbaz
sherobod
shirin
sho
shofirkon
show
shumanay
si
sia
siatkowska
sibirica
sibirska
sibirskej
sibirskeje
sibiu
sich
sichuan
sicilskeje
sie
sieb
sieben
siebold
siedlung
siegen
siegfried
siegmund
siehdichum
sielow
siemianowice
sienfan
sierra
siewisch
sigismund
sigmar
sigmund
sigulda
sil
silba
silene
sillama
silly
silva
silvestris
silvio
sim
sima
simbabwe
simbabweski
simferopola
simmersdorf
simnas
simon
simone
simplex
simse
sin
sina
sinai
sinapis
sind
sindi
sinensis
singapur
singer
singular
singulara
singularje
sint
sipila
sir
sirdaryo
sis
sisymbrium
situacija
situacije
situaciji
situaciju
siwersk
siwerskyj
size
sj
sjanno
sjergijew
sjerpuchow
sk
ska
skabiose
skach
skadow
skadowsk
skaits
skakar
skala
skalat
skale
skali
skalinka
skalna
skalne
skalnic
skalny
skalnych
skandinawiskej
skandinawiskeje
skanecy
skarbis
skaskow
skata
skaty
skatych
skaudvile
skała
skałach
skałar
skałarja
skału
skały
ske
skec
skecy
skedz
skeho
skej
skeje
skemu
skerje
ski
skibami
skic
skice
skich
skicow
skicuje
skicy
skidzel
skie
skim
skimi
skimmia
skjarbos
skludz
sko
skoc
skoho
skoku
skole
skom
skomponowa
skonstituowa
skopic
skopje
skopju
skora
skorica
skorigowac
skorkov
skoro
skorochodowe
skoropuskowskij
skoru
skorz
skosłowakska
skosłowakskej
skosłowakskeje
skosłowakski
skotu
skow
skowa
skowac
skowc
skowe
skowej
skownic
skowy
skowych
skr
skradz
skro
skruc
skrunda
skryje
sku
skuc
skudz
skuhrov
skulojc
skuodas
skupin
skupina
skupinach
skupinam
skupinje
skupinow
skupinu
skupiny
skus
skutk
skutka
skutkach
skutki
skutkow
skutkowac
skutkowachu
skutkowacy
skutkowanja
skutkowanje
skutkowanjo
skutkowanju
skutkowas
skutkował
skutkowne
skutkownosc
skutkuja
skutkuje
skwyra
sky
skład
składa
składnosc
składnostnje
składnostny
składowac
składowachu
składz
skłoninach
skłoninje
sl
sla
slabada
slade
slava
slave
slavi
slavic
slavica
slavische
slavni
slawen
slawharad
slawische
slawist
slawistiki
slawistiku
slawistka
slawske
slawuta
slawutyc
sle
slepjanska
slepjanskej
slepjanskeje
slepo
slepoho
slepom
slepy
sler
sleumer
slin
slinc
slink
slinka
slinku
sliwin
slo
slobidka
sloboda
slobozia
slonim
slopis
sloupno
slovak
slowc
slowjansk
slowka
slsl
slub
slubi
sluck
sluz
sm
smalininkai
smaljawic
small
smalnic
smarhon
smaz
sme
smila
smilawic
smilax
smilnosc
smiltene
smith
smithsonian
smjec
smjelzyna
smjerc
smjerdnic
smjerdz
smjertne
smjertny
smjetanka
smo
smochc
smogorjow
smolensk
smoler
smolerja
smolerjec
smolerjom
smoliny
smotryc
smuhu
smuz
smy
smyc
sn
sna
snac
snadne
snadnje
snadny
snadz
snano
sne
sneho
snej
sni
snic
snica
snik
snis
snistwowy
sniz
snjatyn
snje
snjegiri
snjer
snjez
snjow
snowsk
sny
snych
snym
snz
so
soares
sobi
sobota
sobotka
sobotu
sobu
sobuawtor
sobuc
sobudz
sobus
sobustaw
sobustawojo
sobustawom
sobustawow
sobustawy
sobuwudawac
sobuz
sobuzałoz
soc
sochacze
sochaczew
sochar
social
socialdemokratiskeje
socialdemokratiski
socialistiska
socialistiskej
socialistiskeje
socialistiski
socializma
socialna
socialne
socialneho
socialnej
socialneje
socialnodemokratiskeje
socialnu
socialny
socialnych
socialnym
societas
society
sociologa
sofija
sofijiwka
sofrino
softwara
software
softwaru
softwary
sojce
sok
sokal
sokolca
sokolnik
sokolovec
sokoł
sokoła
sokołske
sokołski
sokyrjany
sol
solanaceae
solanum
solawa
solawu
soldanella
soledar
solingen
solncewo
solnjec
solo
solotwyn
solotwyno
solz
som
somalija
sommer
sommerwurz
somoc
son
sonetow
song
songs
sonja
sonnenhu
sonnewalde
sony
sophie
sopot
sopranistka
sorabija
sorabist
sorabistice
sorabistika
sorabistiki
sorabistiku
sorabistiske
sorabistka
sorabistow
sorben
sorbisch
sorbische
sorbischen
sorbischer
sorbisches
sorbs
sorbus
sorc
soroca
sorsa
sorta
sorte
sorten
sortow
sorty
sos
sosniwka
sosnowiec
sosny
sosnycja
sotr
sotra
sotrow
sotru
sotry
soudrz
soulowa
source
south
sow
sowa
sowjetska
sowjetske
sowjetskeho
sowjetskej
sowjetskeje
sowjetski
sowjetskich
sowjetskim
sowrjecy
sowych
sołun
sp
spa
spac
spach
spadki
spadkow
spadny
spaduje
spahn
spale
spali
span
spar
sparganiaceae
sparganium
spargel
sparik
spark
spartina
spas
spd
spe
spec
species
specifikacija
specifiske
specimen
speciosa
spectabilis
spektrum
spencer
spergula
spergularia
spermatophyta
spermatophytina
spessart
spi
spicata
spicatum
spiegel
spiel
spindelstrauch
spinkomaj
spinosa
spiralis
spiranthes
spis
spisa
spisac
spisach
spisane
spisar
spisał
spisow
spisowac
spisowarjo
spisowna
spisownej
spisowneje
spisownu
spisy
spitzberg
spjateho
spjaty
spjec
spjelnic
spl
splaha
splahow
splaz
splec
splendens
split
splo
spo
spoc
spochi
spody
spodz
spohn
spokojnosc
spokojom
spolec
spomina
spominamy
spomnjene
spomo
spomoz
sponiz
spork
sporka
sporskeho
sport
sporta
sportnis
sportowa
sportowc
sportowe
sportowy
sposre
spowe
spoz
społnomo
spr
sprache
sprachen
sprachenpolitik
sprawne
sprawnje
sprawnosc
spre
spree
spreenhagen
spreewald
sprekelia
spremberg
spremberger
spreng
springer
sprjejcy
sprjewi
sprjewiny
sprjewinym
sprjewja
sprjewjansko
sprjewje
sprjewju
sprjojcy
sprjowje
spro
spus
spyta
spytac
spytachu
spytaja
spytali
spytas
spytał
spytecy
spytowachu
spło
sr
srakane
srbska
sre
sri
sribne
srjeda
srjedu
srjedz
srjejz
srjeznjewskij
sroka
srpska
srpskeje
srws
ss
ssd
ssel
sseldorf
sselu
sser
ssere
ssi
ssmuth
ssp
ssr
ssw
st
sta
stac
stach
stachow
stachowa
stachu
stachys
stacija
stacije
stadt
stadtmitte
stadło
stagne
staicele
staj
staja
stajec
stajene
stajeny
stajes
staji
stajic
stajichu
stajił
stajne
stajnje
stajny
stali
stalin
stalinizma
stam
stameny
stami
stan
standard
standl
stange
stanislav
stanisław
stanisława
stanje
stanley
stanu
stany
stap
stapelia
staphylea
star
stara
starac
staraja
staras
starc
stare
stareho
starej
stareje
staremu
stargard
stari
stark
starke
starobes
starobin
starobje
starobu
starodawna
starofilologa
starogrjeksce
starogrjekskeho
starohro
starokostjantyniw
staromychajliwka
staroorientalistika
staropo
starosc
staroserbskeho
starosta
starosłowjanskeho
starowe
starowysokone
staroz
stars
start
staru
stary
starych
staryj
staryja
starym
starymi
stas
stasi
stat
stata
statach
statam
statami
state
statej
states
statistica
statistical
statistice
statisticky
statistik
statistika
statistiku
statistiska
statistiski
statistisku
statna
statne
statneho
statnej
statneje
statnik
statnje
statnu
statny
statnych
statnym
statok
statoka
statoki
statokow
statoku
statom
statow
status
statusom
staty
statystyczny
stauchitz
staupitz
stavanger
staw
stawa
stawac
stawachu
stawacy
stawas
stawizna
stawiznach
stawiznam
stawiznami
stawiznar
stawiznarka
stawiznic
stawiznisce
stawizniske
stawizniskeho
stawizniskeje
stawizniski
stawizniskich
stawizniskim
stawiznopis
stawiznow
stawiznu
stawizny
stawje
stawow
stawowe
stawoweho
stawowemu
stawropol
stawropolskim
stawy
stawys
stał
stała
stało
ste
stebliw
stebnyk
stecky
stefan
stefanie
steffen
steffi
steho
stein
steinbachs
steinberg
steinbrech
steinbru
steiner
steinho
steinitz
steinmeier
steinreich
stej
steja
stejace
stejachu
stejacy
stejacych
steje
stejes
steji
stejis
stejitej
stejnis
stejo
stellaria
stempel
stende
stenhain
stepa
stepan
stepanakerta
stephan
stephen
stepnjak
stepnogorsk
stern
sterreich
steve
steven
stewart
sti
stiftung
stil
stilu
stimm
stipa
stiz
stka
stki
stkow
stlik
stna
stnach
stnami
stne
stni
stnica
stnicowych
stnicy
stnik
stniki
stnje
stnjena
stnjene
stnjeny
stno
stnom
stnosc
stnostne
stnow
stny
stnych
sto
stobod
stochowa
stockholm
stockholmje
stoja
stojachu
stojes
stoji
stojnis
stoki
stolbowaja
stole
stoleti
stolica
stolicow
stolicu
stolicy
stolin
stolistnik
stollberg
stolpe
stoltenberg
stom
stomaj
ston
stone
stones
stonic
stopjen
stopnja
stopnjow
stoporsk
stopr
stopy
stor
storc
storch
storchschnabel
store
storkow
storoz
story
stosc
stotu
stovice
stow
stowac
stowanje
stowar
stowarni
stowarnja
stowarnje
stowbcy
stowe
stownik
stowy
stowym
stoz
stoła
stołom
stołp
stołpik
stołpika
stołpikach
stołpikate
stołpikatych
stołpiki
stołpikowe
stołpiku
stołpin
stołpy
str
stra
strach
stracha
strachi
strachoc
strachom
strachowac
stradow
stralsund
strapace
stras
strasburger
strategisce
strauß
straußgras
straz
stre
strehla
strelicija
strelitzia
strenc
stres
striata
stricta
strictum
striegistal
striesow
strigosa
strilys
strittmatter
strjaz
strjela
strjelica
stro
strobel
strobice
strohmberg
stron
strona
stronach
stronami
stronjan
stronje
stronki
stronomaj
stronow
stronski
stronu
strony
strowa
strowe
strowotna
strowotu
strowy
stru
struck
structure
struga
struktura
strukturje
strukturow
strukturu
struktury
struppen
stryj
stryz
strzelce
strzelin
stu
stuart
studenc
student
studenta
studentam
studentami
studentow
studentske
studentskeho
studentskich
studentskim
studien
studies
studij
studija
studije
studijne
studijnym
studijo
studijow
studiju
studnja
studowac
studowaceje
studowacy
studowacych
studowany
studowas
studował
studuje
studzianek
stupa
stupas
stupi
stupic
stupino
stupił
stupjenc
sturm
stuttgart
stwa
stwach
stwe
stwic
stwje
stwjelca
stwo
stwori
stworic
stworił
stworjena
stwow
stwu
stwy
sty
stych
styki
stykuje
stym
stymi
stysk
stło
su
suaveolens
subac
subate
subjekt
subjekta
subjekty
subsp
substancy
substantiw
substantiwach
substantiwow
substantiwy
subtribus
subtropiska
subtropiskej
subtropiskich
subulata
suc
sucha
suche
sucheho
suchej
suchi
suchich
suchim
suchy
sud
sudan
sudana
sudanom
sudetow
sudety
sudnik
sudniski
sudnistwa
sudnistwje
sudnistwo
sudobja
sudowa
sudz
sufiks
sufiksa
sufiksom
sufiksow
sufiksy
suhl
suk
sukac
sukach
suknje
suknju
sul
sule
suliko
sulimierski
suls
sultan
sulukta
sumach
sumak
sumakowych
sumatra
sumow
sumpfried
sumskej
sumy
sun
sunak
sunbird
sunt
suny
superintendent
superintendenta
supina
sur
suraz
surinamska
surowe
surowin
sus
susak
susan
susanne
suschow
susod
susoda
susodna
susodne
susodneho
susodnej
susodneje
susodny
susodnych
susodnym
susodnymi
susodow
susodstwje
susodz
sutysky
suu
suure
suworow
suworowe
svalbard
sve
sven
svenja
svor
sw
swahils
swaljawa
swaziska
swe
sweet
swift
swini
swinjarnja
swinjo
swir
swislac
swit
switlodarsk
swj
swjata
swjate
swjateho
swjatej
swjateje
swjateju
swjatemu
swjatk
swjatki
swjatkownic
swjatnicy
swjatoc
swjatohirsk
swjatoho
swjatohoriwka
swjatokr
swjatomu
swjatu
swjaty
swjatych
swjatym
swjec
swjedz
swjerdlowsk
swjerdlowskej
swjerdlowskij
swjetlahorsk
swjo
swo
swoboda
swobodna
swobodne
swobodneho
swobodnej
swobodneje
swobodnik
swobodnje
swobodnu
swobodny
swobodnych
swobodnym
swobodu
swobody
swoje
swojeho
swojej
swojeje
swojeju
swojemu
swojich
swojim
swojimaj
swojimi
swojoho
swojomu
swojoraznosc
swoju
swora
sy
syc
sydas
sydlenskeho
sydlenskemu
sydlenskim
sydlerjo
sydlerjow
sydlerskostawiznisce
sydlis
sydney
sydny
sydom
sydomdz
sydomle
sydrik
sydła
sydło
sydłom
sydłow
syjk
sykora
sylna
sylne
sylneho
sylnej
sylnis
sylnje
sylnosc
sylnu
sylny
sylnych
sylnym
sylnymi
sylt
sylvatica
sylvaticum
sylvestris
sylwija
sylzow
sylzy
sym
syman
symana
symank
symbol
symbolizuje
symbolom
symjen
symjencowych
symjenis
symjenja
symjenjow
symjo
symphoricarpos
symphytum
syn
syna
synagoga
synaj
synchronore
synej
synjawa
synje
synjowydne
syno
synojo
synom
synonym
synonymom
synonymy
synow
sypac
syrdarja
syringa
syriska
syriskej
syriski
syrotka
syst
system
systema
systematic
systematice
systematics
systematika
systematisce
systemje
systemom
systemow
systemy
sytkiwci
sywna
sywny
syzygium
syła
sz
szczecin
szczecinek
szczew
szczewek
szczuki
szlubowska
szlurpkiszki
sztemon
szwejki
szydło
sła
słaba
słabe
słabje
słabosc
słaby
słabych
słac
słanc
słanca
słancom
słancow
słancy
sława
sławna
sławne
sławno
sławny
słał
słała
sło
słoden
słodz
słoma
słomu
słomy
słona
słonej
słoneje
słonjel
słonowinowy
słony
słow
słowa
słowach
słowacy
słowakow
słowaks
słowaksce
słowakska
słowakske
słowakskeho
słowakskej
słowakskeje
słowakski
słowakskim
słowami
słowc
słowian
słowjan
słowjanami
słowjanow
słowjanska
słowjanske
słowjanskeho
słowjanskej
słowjanskeje
słowjanski
słowjanskich
słowjanskim
słowjanskimi
słowjansku
słowje
słowjenjo
słowjens
słowjensce
słowjenska
słowjenskej
słowjenskeje
słowjenski
słowjesa
słowjeso
słowne
słownik
słownika
słownikach
słownikar
słowniki
słowniku
słownych
słowo
słowom
słowoskład
słowoskładowy
słowosle
słowow
słubice
słuchohrow
słuchowe
słupce
słus
słuz
słys
sɔ
t
ta
tabela
tabulka
tabulki
tac
tach
tachant
tachantska
tachantskeho
tachantskej
tachantskeje
tachantski
tachantsku
tachantstwa
tachantstwje
tachantstwo
tachantstwu
tadaloko
tadej
tadeusz
tadic
tadz
tadła
tadło
tadłow
tafla
tafle
tafli
taflic
taflu
taft
tag
tai
taiwan
taj
tajcy
tajirowe
tajka
tajke
tajkeho
tajkej
tajkeje
tajkele
tajki
tajkich
tajkim
tajkimi
tajku
tajna
tajne
tajneje
tajnje
tak
take
taki
takle
takrjec
taksony
talac
talakiwka
talalajiwka
talas
taldom
taldykorgan
tale
talent
taler
talgar
talimarjon
tallinn
tallinna
talne
talowaja
talpenberg
talpin
talsi
tam
tamaricaceae
tamarillo
tamariska
tamariske
tamarix
tambow
tami
tamle
tamna
tamne
tamneho
tamnej
tamneje
tamni
tamnis
tamnu
tamny
tamnych
tamnym
tamsalu
tamura
tan
tanec
tanecy
tanis
tanja
tanka
tannenberg
tansanija
tansaniji
tapa
tar
tara
taraclia
taras
tarasowe
taraxacum
tarnojsk
tarnowskie
tartu
tarutyne
tas
taschendorf
taschenlexikon
tastatura
tastatury
tastow
tatarbunary
tatarica
tatarka
tatarojo
tatarow
tatarsce
tatarska
tatarski
tatarstan
tatort
tatry
taucha
tauche
tauer
taunus
taura
taurage
tawrijsk
taxiatosh
taxodiaceae
taxon
taxonomy
taylor
tbilisija
tc
tca
tce
tcho
tcm
tcny
tcow
tdz
te
tebi
tebje
tecelin
tecelina
technika
techniki
techniku
technisce
techniska
techniske
techniskej
techniskeje
techniski
technologiju
ted
tefan
tehdom
tehdomnis
tehdy
tehdys
teho
tehodla
teichland
teichlandschaft
teil
tej
teje
tejele
tejen
tejle
tejn
teke
tekeli
teksc
tekst
teksta
tekstach
tekstar
tekstom
tekstow
tekstowa
tekstowe
tekstoweho
tekstowy
teksty
tel
tele
telenes
telewizija
telewiziji
telewizijny
telewizna
telewizny
telko
tels
teltow
tema
temam
temami
tematiku
tematisce
temir
temirtau
temje
temler
temow
temperatura
temperaturami
temperaturu
temperatury
temu
temy
ten
tendag
tendenca
tendency
tene
tenella
tenisowy
tennessee
tennisowa
tennisowy
tenor
tenpflanzen
tenuifolia
tenuis
teodozjo
teofipol
teolog
teologa
teologije
teologiju
teoretikar
teoretisce
teoretiske
teorija
teorije
teoriju
teplic
teplodar
teplyk
teppner
ter
terebowlja
terenje
teresa
teresin
tereswa
tereza
terezyne
terich
teritorij
teritorija
teritorijach
teritorije
teritorijej
teritorijow
teritoriju
termin
terminologie
terminus
termiz
ternopil
ternopila
ternopilskej
terorist
terpe
terpje
terra
territorial
terry
terska
terskej
terskeje
terski
terstwo
tes
tesalonic
testament
testamenta
tetijiw
teucrium
texas
texasa
text
tez
th
tha
thailandska
thailandski
thalheim
thalictrum
thallwitz
tharandt
tharuns
that
thatcher
the
thell
theo
theodor
thermalbad
theuma
thiendorf
third
this
thlaspi
thomas
thomson
thonberg
thorsten
throll
thu
thuja
thum
thunb
thunbergia
thunderbird
thymelaea
thymian
thymus
ti
tibet
tich
ticin
tiefensee
tiger
tilia
tilich
tilioideae
tillich
tim
time
timis
timo
timor
timotejej
tina
tinchlik
tinctoria
tinov
tiny
tiraspol
tiraspolul
tirol
tirolu
tirpersdorf
tis
titl
title
titlom
tito
titul
titulom
tj
tjac
tjotkino
tjumen
tk
tka
tkach
tkalc
tkata
tkaty
tke
tkej
tki
tkich
tkim
tkimi
tkle
tko
tkobiografija
tkole
tkow
tku
tky
tla
tle
tlec
tler
tlerjow
tlerski
tlerstwa
tlic
tlik
tlinach
tlis
tlowac
tlowas
tluja
tluje
tlumac
tna
tnar
tne
tneho
tnej
tneje
tnemu
tni
tnica
tnich
tnik
tnika
tnikow
tnim
tnis
tnistwa
tnistwach
tnistwje
tnistwo
tnja
tnje
tno
tnoho
tnu
tny
tnych
tnym
to
tobago
tobak
tobe
tobias
tobu
toc
tochłowice
tod
todaloko
togo
toho
tohodla
tohole
tohorunja
tok
toki
tokmok
tokpisins
toktogul
toky
tola
tole
tolkien
tolstoj
tom
toma
tomach
tomaj
tomami
tomas
tomasz
tomata
tome
tomentosa
tomilino
tomis
tomje
tommy
tomow
tomowa
tomsk
tomu
tomule
tomy
ton
tonas
toni
tonow
tony
top
topinambur
topis
topisu
topola
topoł
tor
torc
toreck
torgau
torhos
torhow
torius
tornitz
toron
toronto
torr
torsten
torun
tos
tour
tow
towa
towac
towachu
towars
towarstwa
towarstwach
towarstwam
towarstwje
towarstwo
towarstwow
towarstwowe
towarstwoweho
towarstwowy
towarstwu
towas
towe
toweho
towej
toweje
towemu
towste
towy
towych
towym
towymaj
toz
toł
toła
tołmac
tołow
tołsc
tołsta
tołste
tołstosc
tołsty
tr
tra
trac
trade
tradicija
tradicije
tradiciji
tradicijow
tradiciju
tradicionalne
tradicionelne
tradicionelnje
tradow
tragant
tragus
train
trajace
traje
trajes
trajne
trakai
tramwajka
tran
tranje
trans
transitiwne
transportowac
transsibirskej
trapa
tras
trattendorf
traugott
trawa
trawic
trawnikach
trawniki
trawow
trawu
trawy
tre
trebsen
tree
trej
trenar
trenowac
tres
trespe
treuen
tri
tribus
tribusa
tribusej
tribusow
trichophorum
tricolor
triebel
trientalis
trier
trifolium
trinidad
tris
trisetum
triticum
trittin
trix
trje
trjeba
trjebac
trjebaj
trjebaja
trjebamy
trjebas
trjebał
trjebicy
trjebin
trjebjen
trjebule
trjechi
trjechowska
trnik
trniki
tro
trochowanja
trochowanje
trochu
trockij
trohro
trohroda
trohrodz
trojicko
trojicy
trom
trop
tropach
tropicos
tropiska
tropiskej
tropiskich
tros
trossin
trostjanec
trout
trow
trowa
trowac
trowe
trowej
trowje
trowka
trowom
trowska
trowskeje
trowy
trpis
trs
tru
trubi
trubjer
trubownik
truc
trudla
trudownik
trudownikowych
truki
truman
trump
trupin
truskalca
truskawc
truskawec
truss
try
tryc
trym
trymi
trzebiel
trzebnica
ts
tsa
tschentscher
tschernik
tschernitz
tstotk
tstotka
tstotkach
tstotki
tstotkom
tstotkomaj
tstotkow
tstotku
tsuga
tt
tte
tten
ttenstadt
tter
ttgen
ttingen
ttrige
ttriger
ttysaca
ttysacu
tu
tuberaria
tuberosa
tuberosum
tuc
tuchorskim
tuchow
tuchwilny
tuchwilnym
tuchwilu
tudy
tudys
tuja
tuje
tuk
tuka
tukums
tula
tulc
tule
tulipa
tulpa
tumanjan
tumic
tumicy
tun
tuneziska
tunica
tuniki
tunje
tupa
tupc
tupe
tupi
tupje
tuplice
tupy
tur
tura
turaw
turbiw
turcz
turijsk
turistiskeho
turistiski
turistow
turizm
turjej
turjo
turka
turkistan
turkmenistan
turkmenistana
turkmenistanje
turkmenski
turkojo
turkow
turkows
turkowsce
turkowska
turkowske
turkowskeho
turkowskej
turkowskeje
turkowski
turkowskich
turkowsku
turkskich
turksowe
turku
turm
turne
turner
turnow
tursunzoda
tus
tusk
tuta
tute
tutej
tuteje
tuteju
tuto
tutoho
tutomu
tutu
tutych
tutym
tutymi
tuvalu
tuwa
tuz
tv
tvardit
twa
twar
twara
twarc
twari
twaric
twarja
twarjachu
twarje
twarjena
twarjenja
twarjenje
twarjenjow
twarjenju
twarjes
twarnis
twaroz
twarske
twarskeho
twarski
twarskich
twary
twer
twerskej
twja
twjerda
twjerde
twjerdy
twjerdz
two
twoja
twoje
twojeho
twojej
twojeje
twojich
twojim
twoju
twori
tworic
tworitej
tworja
tworjace
tworjaceho
tworjachu
tworjacy
tworjacych
tworjenja
tworjenje
tworjenjom
tworjenju
tworjes
tworow
twory
twu
ty
tyc
tych
tychle
tychy
tydz
tyhelk
tykac
tykanc
tyknyc
tykowana
tykowane
tyler
tym
tymannyj
tymi
tymian
tymjenjach
tymjenka
tymle
tyn
tyna
tyno
typ
typa
typha
typhaceae
typisce
typiska
typiske
typiski
typusowa
typusowy
typy
tyrcec
tyri
tyrihranite
tyrihranity
tyrilic
tyriro
tyrjo
tyrjoch
tyrjomi
tyrnac
tyrs
tyrska
tys
tysa
tysac
tysacy
tysmenycja
tytuve
tywriw
tz
tzberg
tze
tzengru
tztal
tła
tłe
tło
tłoc
tłom
tłomo
tłoro
tłow
tłownja
tłoz
tłozelene
tły
tłych
tʃ
u
ua
uadits
ub
uber
uble
ubojo
ubow
ubr
ubs
ubsce
ubska
uc
ucher
uchqo
uchquduq
udac
udelnaja
udmurtska
udniw
udo
udovi
udrowac
udrowas
udz
uebigau
uel
ufy
uganda
ugljan
uhelna
uhniw
uhyst
ui
uj
uja
ujc
uje
ujemy
ujes
ujetej
ujgurska
ujo
uju
uk
uka
ukc
ukino
ukmerge
ukow
ukowskij
ukraina
ukrainje
ukrainjenjo
ukrains
ukrainsce
ukrainska
ukrainskeho
ukrainskej
ukrainskeje
ukrainski
ukrainu
ukrainy
ukrajinka
ukrajinsk
ukrcensus
ul
ula
ulach
ulan
ulbig
ule
uler
ulerjemi
ulerjo
ulerjow
ulf
uli
uling
ulinka
ulis
uljanowsk
ulla
ullstein
ulm
ulmer
ulmus
ulow
ulrich
ulrike
ulska
ulske
ulskeho
ulskej
ulskeje
ulski
ulskich
ulskim
ulsku
ulstwa
ulstwje
ulstwo
ulu
um
uman
umawa
umba
umbach
umberto
umborn
ume
umea
umilina
umpac
umpata
umpate
umpatych
umsiedlung
umsk
un
una
uncarina
und
under
underground
une
unesco
ungerberg
ungheni
ungu
uni
unicode
uniflora
unija
unije
uniji
uniju
union
united
universidade
universita
university
uniw
uniwersalny
uniwersic
uniwersita
uniwersitne
uniwersitny
uniwersitow
uniwersitu
uniwersity
uniwersytet
unland
uno
unow
unowje
uns
unserer
unter
unterschiedlichen
untersuchungen
unterwegs
unwu
up
upa
upan
upanije
upc
update
upica
upiznojte
upizny
upje
upow
upy
ur
ura
ural
urala
uralske
uralskich
urana
urania
uranus
urawia
urawka
urawno
urb
urban
urec
urganch
urgut
urho
uric
uricy
urli
urnalist
urnalistka
urowac
ursidae
ursula
ursus
urtica
urticaceae
uruguay
uruguayski
urza
us
usa
usb
usda
usekraut
user
ust
ustin
ustyluh
usu
uta
utah
utc
utena
utowe
utricularia
uu
uwa
uwac
uwacha
uwarawic
uwarowka
uwas
uwe
uwy
uz
uzbekistan
uzbekistana
uzbekistanje
uzbeksce
uzbekskej
uzbekskeje
uzda
uzgen
uzor
uzyn
v
va
vaatz
vabalninkas
vabinsky
vaccinium
vadul
val
valdema
valdi
vale
valentin
valeriana
valerianaceae
valerianella
valga
valka
valker
valletta
vallisneria
valls
valmiera
van
vanessa
vangaz
vanilla
vanuatu
var
varakl
varaz
vare
varia
variegata
varniai
varnsdorf
varphi
vatikanske
vatikanski
vatra
vattenfall
ve
veb
vec
veg
veisiejai
vejprty
vele
velen
veli
veljkovic
velka
velke
velky
vella
velvet
venc
venezuela
venezuelski
venta
ventis
ventspils
vepr
vera
verbascum
verde
verein
vereine
verena
verlag
vermont
verna
vernalis
verner
vero
veronica
veronika
verrucosa
verschwundene
verschwundener
versicolor
verticillata
verticillatum
verum
very
ves
vesele
vesely
veszpre
vetoria
vetschau
vez
vi
via
viburnum
vicente
vicia
victor
victoria
vieks
vierkirchen
viesi
vietnam
vietnama
vievis
vii
viii
viktor
vil
vile
viljandi
vilkavis
vilkija
villa
villosa
vilnius
vilniusa
vilosta
viminalis
vincent
vinifera
vinohradech
viola
violaceae
vir
virbalis
virginia
virginiana
viridis
vis
visaginas
viscosa
viscum
vista
vitaceae
vitis
vkovice
vladimi
vladimir
vlkanov
vo
vobkent
voda
vogel
vogelsang
vogelsberg
vogtl
voigt
voke
vol
volk
volker
volkseigener
volkskunde
volmer
volta
volume
vom
von
vor
vorjohann
vorname
vornamen
vorst
vortaro
vota
vrch
vrgada
vs
vserossijskoj
vulca
vulgare
vulgaris
vulpes
vulpia
vy
vysoc
vysoka
w
wa
wabic
wabska
wac
wach
wachdat
wachow
wachu
wadecy
wadelsdorf
wadz
wagenknecht
wagner
waha
wahlen
wahlkreis
wahrenbru
wahu
waigel
waj
waja
wajchtar
wajo
waju
wak
wake
wakulenc
walc
wald
waldemar
waldheim
waldhufen
walds
waldst
wales
walewski
wali
walic
walizis
walizisce
waliziska
waliziskej
waliziskeje
waliziski
wall
walow
walowy
waloz
walt
walter
waltera
walther
wam
wamaj
wami
wan
wanak
wanc
wanda
wanem
wang
wanilja
wanja
wanje
wanjom
wanju
wanka
wanske
wapnite
wapnitych
wapnjarka
wapno
wapnowych
war
warapajewa
warb
wari
warianc
warianta
wariantach
wariantu
warianty
waric
warichius
warie
warijanty
warja
warjene
warjenju
warjo
warjow
warka
warki
warko
warlam
warmbrun
warminsko
warnoc
warnowac
warny
wars
warske
warskich
warszawa
warwa
warłynka
was
wasabi
washington
wasilewic
wasilewskij
wasiljewic
wasser
wasserlinse
wasserschlauch
wasserstern
wasylkiw
watson
watt
watutine
watzinger
wawer
wawicy
wawkawysk
wawrik
waz
wał
wała
wałbrzych
wałcz
wałd
wałda
wałdz
wałe
wałtar
wbohi
wbohow
wbozy
wc
wcy
wda
we
web
weber
webowe
webowy
webowych
webstrona
webstronach
webstronje
webstrony
websydło
wechselburg
weclich
weds
wedsce
wedska
wedske
wedskej
wedskeje
wedski
weg
wegerich
wegeta
wehle
wehlen
wehner
weho
weide
weidenro
weil
weimar
weimarje
weimarskej
weimarskeje
weinbo
weischlitz
weise
weiss
weizsa
weiß
weiße
weißenborn
weißer
weißig
wej
wejsne
wek
welcher
welika
welka
wellington
wels
welt
welyka
welyke
welyki
welykodolynske
welykyj
welzow
wen
wenden
wendisch
wendische
wendischen
wendisches
wends
wendyc
wenedyk
wenn
wenus
wenzel
wer
werb
werba
werbach
werben
werbje
werbow
werby
werchnjac
werchnje
werchnjotorecke
werchowyna
werda
werden
werk
werke
werminghoff
wermsdorf
werner
wernera
weronika
wers
wersija
wersije
wersiji
wersiju
werte
weser
weskow
west
westerwald
westerwelle
westfalska
westfalskej
westfalskeje
westliche
whatwg
white
who
wi
wic
wica
wicarska
wicarskej
wicarskeje
wicarski
wicebsk
wicebska
wicebskej
wiceprezident
wichor
wichowy
wicke
wicu
wicy
wid
wida
widejow
widlic
widnica
widnoje
widwin
widz
widzy
wie
wiebelsheim
wiebodzin
wieczorek
wiedemar
wiederau
wielkie
wielkopolski
wien
wiena
wienje
wienskeho
wienskim
wies
wiesa
wiesbaden
wiesenau
wiesenbad
wiesendorf
wiesengrund
wiesenraute
wight
wijawka
wijawkowych
wije
wijel
wijtiwci
wik
wikach
wikar
wikawa
wikawje
wikawska
wikawy
wiki
wikimedia
wikimedije
wikipedia
wikipedija
wikipedije
wikipediji
wikipediju
wikisource
wikispecies
wikisłownik
wikisłowniku
wikow
wikowanis
wikowanje
wikowanske
wikowanskej
wikowanski
wikowanskich
wikowanskim
wikowar
wiktor
wilamows
wilchiwka
wilcze
wild
wildau
wilde
wildwachsende
wilejka
wilfried
wilhelm
wilhelma
will
willd
willem
willemsen
willi
william
williams
willmersdorf
willy
wils
wilsdruff
wilson
win
wina
winar
winarjec
winc
wincar
windows
winfried
winger
winica
winicach
winicy
winje
wink
winkiwci
winkler
winklerowa
winko
winnycja
winnycje
wino
winom
winoujs
winow
winowa
winowatosc
winowc
winowca
winowych
winston
winter
winu
winy
wioletna
wioletne
wioletnje
wiolinist
wir
wird
wirth
wirtschaft
wis
wisa
wisace
wisachu
wisacych
wisaja
wisajo
wisas
wisata
wisate
wisaty
wisconsin
wissen
wissenschaft
wissenschaften
wissenschaftliche
wissing
wisła
wita
witac
witaj
witaminy
witany
with
witkojc
wittenberg
wittenbergu
wiz
wja
wjac
wjace
wjacekro
wjacele
wjacere
wjacore
wjacori
wjacorych
wjacorymi
wjacsławk
wjacy
wjacław
wjacława
wjalikaja
wjas
wjaska
wjat
wjatka
wjaz
wjaza
wjazac
wjazba
wjazbje
wjazbow
wjazby
wjazjomy
wjazon
wje
wjec
wjechelca
wjednica
wjednicy
wjednik
wjednika
wjednistwa
wjednistwo
wjednistwom
wjedrje
wjedro
wjedu
wjedz
wjel
wjela
wjelan
wjelc
wjelcej
wjele
wjelec
wjelekc
wjelezłotowka
wjelike
wjeliki
wjelimir
wjelk
wjelki
wjelkow
wjelkowa
wjelkowje
wjelkowy
wjelu
wjen
wjenka
wjer
wjerab
wjerba
wjerbic
wjerbinka
wjerbjez
wjerbnje
wjerbno
wjerbowych
wjerc
wjerch
wjercha
wjerchnjadzwinsk
wjerchnjetulomskij
wjerchow
wjerchowstwa
wjerchowstwo
wjerjebina
wjerjeja
wjerjes
wjers
wjertko
wjertnych
wjertulka
wjes
wjesc
wjesce
wjesel
wjesela
wjesele
wjeseles
wjeseli
wjeselic
wjeselo
wjeselom
wjeselu
wjeska
wjeskach
wjeski
wjeskow
wjesku
wjesna
wjesne
wjesneho
wjesnej
wjesneje
wjesneju
wjesnjanosta
wjesnjanostu
wjesnjenjo
wjesnu
wjesny
wjesnych
wjesnym
wjesnymaj
wjesnymi
wjesoła
wjesołe
wjesołosc
wjesoły
wjetka
wjetryna
wjets
wjewjerc
wjezc
wjo
wk
wka
wki
wladimir
wladimira
wladimirowic
wladimirskej
wladiwostoka
wlec
wliw
wliwa
wliwom
wliwow
wliwy
wna
wne
wnik
wnuk
wny
wnych
wo
wob
wobaj
wobalka
wobalki
wobalku
wobarac
wobaras
wobbe
wobc
wobchad
wobchada
wobchadna
wobchadne
wobchadnej
wobchadny
wobchadnych
wobchadz
wobchod
wobchoda
wobchodz
wobchowa
wobchowac
wobchowali
wobchowane
wobchowanje
wobchowany
wobchował
wobdata
wobdate
wobdaty
wobdawa
wobdz
wobe
wobej
wobeju
woben
wobhladac
wobhladowac
wobhladowak
wobhladowas
wobhladuje
wobhospodarjes
wobhrodz
wobicy
wobje
wobjed
wobjednawa
wobjedowac
wobjim
wobjima
wobjimowas
wobjimuje
wobkedz
wobknjez
wobkruc
wobkruh
wobkruz
woble
woblec
woblic
woblizowas
woblubowana
woblubowane
woblubowany
wobmasowas
wobmjezowac
wobmjezowana
wobmjezowane
wobmjezowanja
wobmjezowanje
wobmjezowany
wobmjezowanym
wobmjezuje
wobmyslenja
wobnaz
wobnowi
wobnowic
wobnowjenje
wobnowjenju
wobohac
woboje
wobora
wobory
wobpr
wobradz
wobraz
wobraza
wobrazach
wobrazami
wobrazki
wobrazom
wobrazow
wobrazowka
wobrazowki
wobrazowy
wobrazu
wobrazy
wobre
wobro
wobroc
wobrostach
wobrot
wobrotnic
wobroty
wobrys
wobs
wobsadku
wobsadz
wobsah
wobsaha
wobsahi
wobsahom
wobsahowac
wobsahowas
wobsahowje
wobsahu
wobsahuja
wobsahuje
wobsedz
wobsko
wobskorz
wobstac
wobstara
wobstarac
wobstatk
wobsteja
wobstejaca
wobstejace
wobstejachu
wobstejacy
wobstejes
wobsteji
wobstejnosc
wobstojnosc
wobstraz
wobswe
wobsydlena
wobsydlene
wobsydlenja
wobsydlenje
wobsydleny
wobsydlenych
wobsydlenym
wobsydstwa
wobsydstwje
wobsydstwo
wobtwjerdz
wobwe
wobwliwowana
wobwod
wobwoda
wobwodej
wobwodow
wobwody
wobwodz
wobydlene
wobydleny
wobydler
wobydleri
wobydlerja
wobydlerjej
wobydlerjemi
wobydlerjo
wobydlerjow
wobydlerka
wobydlerstwa
wobydlerstwje
wobydlerstwo
wobydlerstwom
wobz
wobzamknjenja
wobzamkny
wobłuk
wobłuka
wobłukac
wobłukach
wobłuki
wobłukow
wobłuku
woc
wochoz
wochozach
wochozy
wochło
wocla
woda
wodjanske
wodnjo
wodopad
wodopady
wodorunje
wodowa
wodowe
wodoweho
wodowy
wodowych
wodu
wody
wodychowas
wodz
wodzisław
wohan
wohen
wohenja
wohenjow
wohenju
wohla
wohnja
wohnju
wohre
wohroz
woidke
wojacy
wojak
wojaka
wojakam
wojakami
wojakow
wojciech
wojerec
wojerecach
wojerecami
wojerecy
wojerowske
wojerowskeho
wojerowskej
wojerowskeje
wojerowski
wojerowskim
wojerska
wojerske
wojerskeho
wojerskej
wojerskeje
wojerski
wojerskich
wojerskim
wojersku
wojewo
wojnar
wojnyliw
wojowac
wojowachu
wojowanja
wojowanjach
wojowanje
wojowanjo
wojowanju
wojowar
wojowarjow
wojowarka
wojowas
wojtyła
wojuja
wojuje
wok
woka
wokal
wokala
wokale
wokalemi
wokalna
wokalneje
wokalow
wokatiw
wokna
woknami
woknje
woknjes
wokno
woknom
woko
wokolina
wokolinje
wokolinu
wokoliny
wokolne
wokolnosc
wokolnych
wokomik
wokomiknje
wokomiku
wokos
wokołk
wokołkach
wokołki
wokołkojtych
wokołkowych
wokoło
wokr
wokrjes
wokrjesa
wokrjesach
wokrjesaj
wokrjesej
wokrjesna
wokrjesne
wokrjesneho
wokrjesnej
wokrjesny
wokrjesnym
wokrjesom
wokrjesomaj
wokrjesow
wokrjesu
wokrjesy
wola
wole
wolena
woleny
wolerske
woles
wolf
wolff
wolfgang
wolfram
wolfsburg
wolfsmilch
wolga
wolgi
wolgograd
woli
wolic
wolij
wolija
wolije
wolijowa
wolkenstein
wolnowacha
wolo
woloc
wolodarka
wolodymyr
wolodymyriwka
wologda
wologodskej
wolokolamsk
wolowec
woltersdorf
wolu
wolumen
wolze
wom
womac
women
womłodz
won
wona
wonaj
wone
wonej
woni
wonja
wonjace
wonjanka
wonjata
wonjaty
wonjec
wonjeja
wonka
wonkowna
wonkowne
wonkowneho
wonkownej
wonkowny
wonkownych
wono
wonu
wony
wonych
wonym
wood
wopac
wopak
wopaka
wopalen
wopic
wopis
wopisa
wopisac
wopisana
wopisane
wopisanje
wopisma
wopismje
wopismo
wopisowac
wopisowas
wopisuja
wopisuje
wopodstatni
wopokaza
wopokazuje
wopomnis
wopomnjec
wopomnjenska
wopomnjenski
wopon
wopona
wopor
woporniwosc
woporow
wopory
wopowe
wopr
wopras
woprawdz
wopro
woprowac
wopus
wopyc
wopyt
wopyta
wopytac
wopytowali
wopytowarjow
wopytowas
wopłodz
wopłokowas
wopłonjene
woranawa
worcyn
worcynje
worden
worjech
worjechi
worjes
worjoł
worklec
worklecach
worklecy
world
wornar
worochta
woronjez
woronowycja
worowo
worowskogo
wors
wort
wortschatz
worzel
wos
wosada
wosadach
wosadna
wosadnej
wosadneje
wosadnik
wosadnu
wosadny
wosadnych
wosadow
wosadu
wosady
wosadz
wosebita
wosebite
wosebitej
wosebiteje
wosebitosc
wosebitu
wosebity
wosebitych
wosebitym
wosebje
wosec
woskrjesensk
wosme
wosmjoch
wosmy
wosoba
wosobina
wosobinam
wosobinami
wosobinow
wosobinsce
wosobinska
wosobinske
wosobinski
wosobinskich
wosobiny
wosobje
wosobow
wosobowe
wosoboweho
wosobowy
wosobu
wosoby
wosom
wosomdz
wospjet
wospjetowac
wospjetowas
wospjetuje
wosrjedz
wosta
wostac
wostachu
wostaji
wostajic
wostali
wostanje
wostanu
wostas
wostatne
wostawa
wostawas
wostał
wostała
wostrowc
wostudz
wosud
woswe
woswjec
wosyk
wot
wotbagrowana
wotbagrowanja
wotbagrowanych
wotbe
wotboc
wotbyc
wotbłys
wotc
wotchadz
wotchilenja
wotchilenje
wotdz
wote
wotebe
wotedac
wotedatych
wotemre
woten
wotes
wotewe
wotewre
wotewri
wotewrjena
wotewrjene
wotewrjenje
wotewrjenju
wotewrjenosc
wotewrjeny
wotewrjenych
wotewrjenym
wothladajo
wotho
wothło
wothłosowac
wothłosowanju
wotje
wotkas
wotkaz
wotkazanje
wotkazy
wotkry
wotkryc
wotkrychu
wotkrywanju
wotkrywar
wotle
wotlez
wotlic
wotliw
wotme
wotmjezowanja
wotmjezowanje
wotmołwa
wotmołwi
wotmołwic
wotmołwu
wotmołwy
wotne
wotnos
wotnoz
wotpadnu
wotpaduja
wotpali
wotpo
wotpoc
wotpohlad
wotpohladom
wotpohlady
wotpokaza
wotpokazac
wotpokazuje
wotpowe
wotpołoz
wotprawa
wotpros
wotpuc
wotpus
wotpłac
wotradz
wotraz
wotre
wotrjad
wotrjada
wotrjedz
wotroc
wotrohu
wotrosc
wotrow
wotrowa
wotrowje
wotrowskeje
wotrowski
wotroz
wots
wotsadz
wotstawk
wotstawkom
wotsteja
wotstejaca
wotstejace
wotstejo
wotstorc
wotstorkowac
wotstroni
wotstronic
wotstronjene
wotstronjenje
wotstup
wotstupi
wotstupic
wotstupje
wotsudz
wottam
wottorhana
wottorhane
wottorhowac
wottr
wottras
wottud
wottło
wotuc
wotwaz
wotwe
wotwisne
wotwisnje
wotwisnosc
wotwisny
wotwisuje
wotwjedz
wotwo
wotwobroc
wotwodz
wotwonka
wotwoz
wotwołana
wotwołane
wotwołany
wotz
wotzamkny
wotłoz
wow
wowc
wowca
wowcow
wowcy
wowka
wowki
wowkowynci
wownjow
wows
wowsyc
woz
woza
wozboz
wozjewi
wozjewic
wozjewichu
wozjewili
wozjewił
wozjewiła
wozjewja
wozjewjena
wozjewjene
wozjewjeneho
wozjewjenja
wozjewjenje
wozjewjenju
wozjewjeny
wozjewjes
wozmje
woznam
woznamjeni
woznamjenja
woznamjenjec
woznamjenjeja
woznamjenjenja
woznamjenjes
woznamom
woznamy
woznjamjenja
woznjesenskij
wozow
wozrodz
wozu
wozy
wozyc
woł
woła
wołac
wołas
wołbramecy
wołmica
wołmjana
woło
wołobuz
wołtar
wołtarja
wołtarjom
wołtarju
wołtarnis
wołyn
wołynska
wołynskej
wray
wrestler
wright
wro
wrobl
wrocław
wrota
wrotach
wrotam
wrotami
wrotar
wrotow
ws
wsach
wsam
wsche
wschowa
wskej
wsomaj
wsow
wsu
wsy
wu
wube
wubjerk
wubrac
wubrane
wubranka
wubranych
wubudz
wuc
wuchadz
wucho
wuchod
wuchoda
wuchodej
wuchodna
wuchodne
wuchodneho
wuchodnej
wuchodneje
wuchodnje
wuchodnu
wuchodny
wuchodnych
wuchodnym
wuchodoeuropskej
wuchodone
wuchodosakskim
wuchodz
wuchowac
wuchowanje
wuchwaluje
wud
wuda
wudac
wudata
wudate
wudaty
wudawa
wudawac
wudawanje
wudawanju
wudawar
wudawas
wudawki
wudał
wudobyc
wudobywa
wudobywachu
wudobywanis
wudobywanja
wudobywanje
wudolinowych
wudospołnjena
wudowy
wudre
wudrjen
wudwo
wudwor
wudz
wuermeling
wuformowac
wuformulowac
wuhanc
wuherska
wuherskeho
wuherskej
wuherskeje
wuherski
wuhla
wuhlad
wuhlada
wuhladko
wuhledar
wuhlehirsk
wuhlikowy
wuhljar
wuhlo
wuhlowe
wuhnac
wuhnaty
wuho
wuhorbjenje
wuhotowac
wuhotowane
wuhotowanje
wuhotowar
wuhotowas
wuj
wuja
wujasni
wujasnic
wujasnjec
wujasnjenja
wujasnjenje
wujasnjowac
wuje
wujednac
wujer
wujes
wujez
wujezd
wujezdz
wukas
wukaz
wukazac
wukecy
wuknje
wuknjenje
wuknjes
wuknu
wuknyc
wuknył
wuko
wukon
wukonja
wukonjał
wukonjec
wukonjeja
wukonjes
wukony
wukr
wukraja
wukrajnych
wukraju
wukranc
wukroc
wukubłac
wukubłanja
wukubłanje
wukubłanju
wukubłany
wukładowac
wukłasc
wulce
wulcy
wule
wulec
wulff
wulic
wuliw
wuliwa
wuliwje
wuliwom
wulka
wulkan
wulke
wulkeho
wulkej
wulkeje
wulkemu
wulki
wulkich
wulkim
wulkimi
wulkobritaniska
wulkobritaniskeje
wulkobur
wulkodubrawskeho
wulkogmejna
wulkoho
wulkokwe
wulkome
wulkomis
wulkomo
wulkopo
wulkore
wulkoregionu
wulkosc
wulkotne
wulkotnje
wulkowo
wulku
wume
wumjetowac
wumjetuje
wumjełske
wumo
wumoz
wumre
wun
wunamakar
wunjow
wunos
wuns
wunuc
wunuzowac
wupada
wupadaja
wupaz
wupe
wupjelnjene
wupo
wupokazuje
wuporjedz
wupowe
wupoz
wuppertal
wupr
wupraja
wuprajamy
wuprajec
wuprajenja
wuprajenje
wuprajenju
wupraji
wuprajic
wuprajił
wupras
wupro
wupros
wupruwowac
wupuc
wupus
wupys
wupłac
wupło
wuradz
wuraz
wuraznje
wurazowy
wurde
wure
wuric
wuricy
wurjedz
wurjekowanje
wurjekowanju
wurjekuje
wuroc
wurosc
wurostkach
wurostki
wurostkow
wuryc
wurywanis
wurzen
wus
wusadz
wusahuja
wusc
wuska
wuske
wuskej
wuski
wuskich
wuskidz
wuskim
wusko
wuskoc
wusku
wuskus
wuskutk
wuskutki
wuskutkowa
wuskutkowac
wuskutkowas
wuskutkuje
wusle
wusme
wusoka
wusoki
wuspe
wustajen
wustajic
wustaw
wustawa
wustawje
wustawkach
wustawki
wustawoweho
wustawu
wustawy
wustojnje
wustorkowas
wustro
wustup
wustupi
wustupowac
wustupowaca
wustupowace
wustupowanje
wustupowas
wustupuja
wustupuje
wustupujetej
wusudz
wusus
wuswe
wuswjec
wuswobodz
wusypowac
wusypowachu
wusypowas
wusyła
wusyłanja
wusyłanje
wusyłanju
wusłys
wutkate
wutkatych
wutora
wutoru
wutołc
wutr
wutrac
wutrajna
wutrajnosc
wutrajny
wutroba
wutrobach
wutrobic
wutrobje
wutrobnje
wutrobojta
wutrobojte
wutrobow
wutrobu
wutroby
wutwar
wutwari
wutwarjena
wutwarjene
wutwori
wutworic
wutworichu
wutworił
wutworiło
wutworja
wutworjena
wutworjenja
wutworjenje
wutworjenju
wutykowac
wutło
wuwaluje
wuwaz
wuwe
wuwi
wuwic
wuwichu
wuwikowac
wuwili
wuwinyc
wuwite
wuwiwa
wuwiwac
wuwiwaja
wuwiwanje
wuwiwar
wuwiwas
wuwiwała
wuwiła
wuwjedz
wuwo
wuwodz
wuwopras
wuwotpoc
wuwoz
wuwuc
wuwzac
wuz
wuzbe
wuznac
wuznam
wuznama
wuznamjeni
wuznamjenjenje
wuznamjenjeny
wuznamna
wuznamne
wuznamnej
wuznamny
wuznamnych
wuznamnym
wuzwoleny
wuzwoli
wuzwolichu
wuzwolił
wułoz
ww
www
wy
wydz
wyhoda
wyk
wylem
wylema
wylkowe
wylok
wym
wynnyky
wynohradiw
wyoming
wyrgac
wyrka
wys
wysoc
wysoka
wysokaje
wysoke
wysokeho
wysokej
wysokeje
wysoki
wysokich
wysokim
wysokimi
wysoko
wysokodubrawsku
wysokos
wysokosc
wysokowsk
wysoku
wytwo
wyz
wza
wzac
wzachu
wzajomne
wzajomnje
wzajomnosc
wzał
wzała
wzda
wzdac
władysław
wło
włosanc
włosow
włosy
x
xa
xalqobod
xaqqulobod
xaver
xavier
xhtml
xi
xii
xiii
xiv
xiva
xl
xlsx
xml
xo
xonobod
xp
xv
xvi
xvii
xx
xxiii
y
ya
yakkabog
yangi
yangiobod
yangirabod
yangiyer
yangiyo
yaypan
ybar
ybiz
yca
yce
ych
ycja
ycke
yckie
ycy
ydac
ydar
ydłow
yearbook
years
yet
yhyryn
yi
yjca
yky
ylow
ylowje
ylowk
ym
ymjerojce
ymkent
yn
yna
ynadijowo
ynci
yndlar
yne
ynec
yno
ynoq
ynsk
york
yorku
you
young
your
youtube
yrec
yrjajewe
yroke
yrskyj
yrwonaja
ys
ysk
ytawa
ytkawic
ytomyr
ytomyra
ytomyrskej
yu
yunnan
yunnanensis
ywiec
ywjenja
yy
yz
z
za
zabajkalska
zabawjer
zabe
zabic
zabolotiw
zabolottja
zabrij
zabrod
zabrze
zabyc
zabyws
zabył
zabłudz
zac
zachadz
zacharias
zachariwka
zachod
zachodniopomorskie
zachodom
zachodz
zachopjen
zachowa
zachowac
zachowanje
zacpe
zadar
zadnim
zadnjej
zadre
zadwe
zady
zadz
zafarowane
zafarowani
zagmejnowa
zagmejnowachu
zagmejnowana
zagmejnowane
zagmejnowanja
zagmejnowany
zagmejnowas
zagor
zagorjanskij
zagreb
zagrebje
zahac
zahajenja
zahaji
zahajichu
zahe
zahlenformat
zahnac
zahne
zahon
zahonach
zahony
zahor
zahoric
zahoritosc
zahorjeny
zahorju
zahra
zahroda
zahrodach
zahrodka
zahrodkar
zahrodna
zahrodne
zahrodnik
zahrodny
zahrodow
zahrodu
zahrody
zahrodz
zahsow
zais
zaja
zajac
zajachu
zajata
zajaty
zajcewe
zajdow
zaje
zajec
zajim
zajimawa
zajimawe
zajimje
zajimow
zajimowac
zajimowachu
zajimowas
zajimy
zak
zaka
zakarpatska
zakarpatskej
zakas
zakaz
zakaza
zakazachu
zakazana
zakazane
zakazany
zakazu
zakazuje
zakc
zakitowac
zakitowanja
zakitowanje
zakitowanju
zakitowanski
zakitowar
zakitowas
zaklinc
zakluc
zako
zakon
zakonja
zakonjach
zakonje
zakonjej
zakonjow
zakonju
zakrjejc
zakrjow
zakroc
zakrzew
zakulene
zakupne
zakład
zakładna
zakładne
zakładneho
zakładnej
zakładnje
zakładnu
zakładny
zakładnych
zakładnym
zakłady
zakładz
zala
zale
zalez
zalic
zalis
zalisne
zaliw
zaliwa
zaliwje
zaliwom
zalizci
zalizne
zaliznjak
zaliznyc
zalkent
zalutowac
zam
zame
zamenhof
zamjelc
zamkar
zamo
zamordowani
zamordowany
zamoz
zamołwic
zamołwitosc
zamołwity
zamołwitych
zamołwjenjo
zan
zana
zander
zane
zanec
zanic
zanjerodz
zanka
zanos
zanowa
zaozjorsk
zapad
zapada
zapadna
zapadne
zapadneho
zapadnej
zapadneje
zapadnje
zapadnu
zapadny
zapadnych
zapadnym
zapadopomorske
zapadopomorskeho
zapadosłowjanska
zapadosłowjanske
zapadosłowjanski
zapadosłowjanskich
zapadowas
zapadołuz
zapadz
zapis
zapisa
zapisac
zapisane
zapisał
zapisk
zapiskach
zapiski
zapisowar
zapisowas
zapisu
zapisy
zapjec
zaplanowana
zapo
zapoc
zapodac
zapoljarnyj
zaporiz
zapowe
zapołoz
zapr
zapre
zaprudnja
zapuc
zapus
zapusc
zapytiw
zapłac
zarac
zarafshon
zarajsk
zarasai
zare
zarec
zaric
zarjad
zarjada
zarjadnik
zarjadnis
zarjadniska
zarjadniske
zarjadniskeho
zarjadniskemu
zarjadniski
zarjadniskim
zarjadnisku
zarjadnistwa
zarjadnistwje
zarjadnistwo
zarjadnistwom
zarjadnistwu
zarjadow
zarjadowa
zarjadowac
zarjadowachu
zarjadowana
zarjadowane
zarjadowanja
zarjadowanjach
zarjadowanje
zarjadowanjow
zarjadowanju
zarjadowany
zarjadowas
zarjaduja
zarjaduje
zarjady
zarjec
zarjedz
zarjenk
zaroc
zarodk
zarosc
zarow
zaruc
zarys
zas
zasadach
zasadne
zasadnje
zasady
zasadz
zasakrowa
zasc
zasej
zaslawje
zaso
zasobu
zaspe
zaspy
zasrjew
zastajeny
zastaji
zastajic
zastanis
zastarac
zastaranje
zastarowas
zastaruje
zastawna
zastojnik
zastojnstwa
zastojnstwje
zastojnstwo
zastro
zastup
zastupi
zastupjene
zastupjer
zastupjerjo
zastupjerjow
zastupjerka
zastupnik
zastupowac
zastupowaca
zastupowacy
zastupowas
zastupuje
zasudz
zaswe
zasy
zasydlenja
zasydli
zasydlichu
zasłuz
zasłys
zatoka
zatr
zatras
zatys
zau
zavka
zavou
zawe
zawido
zawiercie
zawinuje
zawisc
zawjedz
zawjedł
zawjerc
zawjesc
zawod
zawoda
zawodny
zawodow
zawodske
zawody
zawodz
zawostajenstwa
zawostajenstwo
zawostaji
zawoz
zawoła
zawre
zawrjena
zawrjene
zawrjeny
zawro
zaz
zazbe
załhow
załhozdz
załom
załoz
zba
zbar
zbaraz
zbe
zberka
zbic
zbigniew
zbje
zbliz
zbne
zbo
zboka
zboriw
zbork
zboz
zbu
zbudz
zby
zbytk
zbytki
zbytne
zc
zd
zda
zdac
zdach
zdalena
zdalene
zdalenej
zdalenosc
zdaleny
zdaloka
zdas
zdawa
zdemir
zdene
zdna
zdne
zdni
zdnic
zdnik
zdnim
zdninach
zdnja
zdnjeho
zdnjen
zdny
zdnych
zdnym
zdo
zdobom
zdoby
zdobyc
zdom
zdow
zdrasc
zdro
zdruha
zdu
zdwo
zdy
zdychowanja
zdychuje
zdz
ze
zea
zebnica
zebnicu
zebnicy
zecy
zef
zefa
zefo
zehren
zeit
zeithain
zeitschrift
zeitung
zej
zejicy
zejler
zejlerja
zejlerjom
zejlerjowe
zejlerjoweho
zejlerjowych
zekne
zela
zelena
zelene
zeleneho
zelenej
zeleneje
zeleni
zelenina
zeleninu
zelenis
zelenka
zeleno
zelenoborskij
zelenogradskij
zelenohirske
zelenojte
zelenskij
zelenu
zeleny
zelenych
zelenym
zelenymi
zelezna
zelis
zelo
zelwa
zeman
zemi
zemic
zemicy
zemja
zemjan
zemjanski
zemjanstwa
zemje
zemjenjo
zemjerz
zemju
zemljanky
zemre
zemske
zemskeho
zemskej
zemskeje
zemski
zemskich
zemskim
zen
zepe
zeppelin
zernic
zerzawojta
zes
zeschadz
zeserbs
zestaja
zestajane
zestajał
zestajec
zestajena
zestajene
zestajenje
zestajenkow
zestajenkowych
zestajeny
zestaji
zestarjena
zestarjene
zeta
zetka
zetkachu
zetkanja
zetkanje
zetkanju
zettlitz
zeul
zeuthen
zeyh
zez
zezbe
zezna
zeznac
zeznał
zgorzelec
zgorzelecki
zhang
zhibnjene
zhibujomne
zhladuje
zho
zhoni
zhonic
zhonił
zhorjelc
zhorjelca
zhorjelcom
zhorjelcu
zhorjelskeho
zhorjelski
zhorjelskim
zhotowi
zhotowic
zhotowja
zhotowjenje
zhre
zhromadne
zhromadneho
zhromadnej
zhromadnje
zhromadnosc
zhromadnu
zhromadny
zhromadnych
zhromadnym
zhromadz
zhubi
zhubic
zhubichu
zhubili
zhubił
zhubiła
zhubja
zhubjene
zhubjeny
zhubjenych
zhudz
zhuriwka
zhusc
zi
zielona
ziemiak
ziergeho
ziest
ziltendorf
zilupe
zimmermann
zin
zingiberaceae
zittau
zjaljony
zjaw
zjawne
zjawneho
zjawnje
zjawnosc
zjawny
zjawnych
zjawnym
zjawy
zje
zjec
zjednoc
zjewi
zk
zka
zki
zkow
zku
zlarin
zle
zli
zlic
zlik
zliwje
zlo
zlochka
zm
zmandz
zme
zmes
zmij
zminyc
zmis
zmjen
zmjerzkokruta
zmo
zmocowac
zmocowachu
zmors
zmuz
zmylk
zmylki
zmylkow
zmysle
zmysł
zna
znac
znachu
znaja
znajachu
znaje
znajemy
znajer
znajes
znajmjen
znajomne
znajomosc
znaju
znali
znamjeni
znamjenja
znamjenjow
znamjes
znamjo
znapr
znata
znate
znateho
znatej
znateje
znatemu
znatosc
znaty
znatych
znatym
znatymi
znawa
znawac
znawas
znał
znała
zne
znej
znic
znik
zniz
znja
znje
znjemo
znjesc
znjese
znjewuz
zno
znos
znow
znowa
znowazałoz
znowazjednoc
znutr
zny
znymi
zo
zoba
zofiano
zofio
zojo
zoloc
zolotonos
zolotuchino
zolotyj
zonc
zootiere
zop
zor
zora
zorach
zoran
zori
zorina
zorinje
zorjanske
zorje
zorna
zorno
zorom
zorow
zoru
zory
zow
zowa
zowac
zowanjo
zowas
zowka
zowych
zrawja
zrałe
zrałosc
zre
zrealizowac
zrjadowac
zrjadowane
zrn
zro
zrosc
zrozumi
zrozumic
zrozumjenje
zrozumliwe
zrudne
zrudny
zrudoba
zrudobu
zrudoby
zrudz
zruna
zrunana
zrunane
zrunanje
zrunany
zrunanych
zsa
zsc
zschaitz
zschepplin
zschopau
zschorlau
zschornau
zske
zskej
zskeje
zski
zu
zub
zubami
zubate
zubic
zubica
zubki
zubkow
zubornic
zubornica
zubr
zuby
zucc
zucy
zuhres
zuja
zujewo
zujiwka
zum
zur
zuru
zus
zusa
zusej
zusoweje
zuzana
zve
zverinac
zwadne
zwady
zwahr
zwajzk
zwarnuj
zwaz
zwe
zwei
zwenkau
zwenyhorodka
zwergmispel
zwisach
zwischen
zwisk
zwiska
zwiski
zwiskow
zwisku
zwisowace
zwisuje
zwjahel
zwjazac
zwjazana
zwjazane
zwjazanej
zwjazanosc
zwjazany
zwjazk
zwjazka
zwjazkach
zwjazkarjo
zwjazkarjow
zwjazkej
zwjazki
zwjazkom
zwjazkow
zwjazkowa
zwjazkowe
zwjazkoweho
zwjazkowej
zwjazkoweje
zwjazkowemu
zwjazkowi
zwjazkowu
zwjazkowy
zwjazkowych
zwjazkowym
zwjazku
zwjazuja
zwjazuje
zwjenigorod
zwjerch
zwjercha
zwjers
zwjets
zwjozdnyj
zwo
zwoble
zwobraznjenje
zwobraznjenjom
zwobroc
zwobruc
zwonica
zwonka
zwonkowna
zwonkowne
zwonojte
zwony
zwoprawdz
zwopre
zwosta
zwotkel
zwotkelz
zwre
zwu
zwuc
zwuk
zwuka
zwuki
zwukow
zwukowe
zwukowych
zwurazni
zwuraznic
zwuraznja
zwuz
zwys
zy
zyc
zygaena
zygmunt
zyma
zymje
zymna
zymne
zymny
zymokruta
zymske
zymski
zymskich
zymu
zymy
zyna
zync
zynk
zynka
zynki
zypergras
zypries
zys
zz
zła
złaha
złahodz
złe
złeho
zło
złoc
złokomorowskeho
złokomorowski
złokomorowskim
złota
złote
złoto
złotoryja
złotoz
złoty
złotych
złoz
zły
złyc
złych
złym
{
|
}
~
£
¤
§
¨
©
«
¬
­
¯
°
±
²
³
´
µ
·
¹
º
»
½
×
ß
ßler
ßnitz
æ
ð
ø
đ
đinđic
ħ
ı
ł
ła
łac
łach
łachu
łahoda
łahodny
łahow
łaja
łali
łamac
łami
łane
łanja
łanje
łanju
łanosc
łanowc
łany
łanych
łar
łarka
łarnik
łarnistwa
łas
łastojc
ławce
ławeho
ławjele
ławosc
ławrjenc
ławrjenca
ławy
ławych
łaz
łaza
łazk
łazowskej
łazowskeje
łazowski
łazu
łazyc
łał
łc
łca
łcow
łcy
łe
łeho
łej
łeje
łki
ło
łobez
łobinje
łobiny
łobja
łobje
łobjo
łobjom
łobjowy
łobju
łobo
łoboda
łoboz
łochc
łohro
łohrodz
łoj
łojow
łojte
łom
łoms
łomsk
łomska
łon
łonam
łonami
łonka
łonki
łonojo
łonom
łonow
łonske
łonskich
łony
łopac
łopatkojte
łopjelsc
łopjena
łopjenach
łopjenami
łopjenaty
łopjency
łopjenka
łopjeno
łopjenow
łopjenowa
łopjenowe
łopjenowy
łopjenowych
łopjenu
łopjes
łorus
łorusce
łoruska
łoruskej
łoruskeje
łoruski
łos
łosc
łoskoc
łow
łowa
łowac
łowanja
łowanje
łowas
łowe
łoweho
łoweje
łowjec
łowjek
łowjeka
łowjekej
łowjekojo
łowjekow
łowjeku
łowjeske
łowjeskeho
łowjeskej
łowjeskeje
łowjeski
łowjeskich
łowjestwa
łowy
łowych
łoz
łozwuc
łsce
łska
łske
łskeho
łskej
łskeje
łski
łskich
łskim
łsku
łstwa
łstwje
łstwo
łstwow
łstwowa
łstwowe
łstwowy
łu
łubi
łuc
łuce
łuchow
łuchowa
łuh
łuhojtych
łuhowa
łuje
łuka
łukach
łukajcyny
łuki
łuknadz
łukojce
łukow
łukowa
łukowc
łuku
łupjanska
łupoj
łus
łusc
łusk
łuty
łuwoc
łuz
ły
łych
łyknowc
łym
łymi
łys
łz
łł
ŋ
œ
ɐ
ɑ
ɔ
ɔdʑou
ɔi
ɔn
ɔtu
ɕ
ə
ɛ
ɡ
ɣ
ɥ
ɨ
ɪ
ɪdou
ɪhou
ɪkou
ɪlou
ɪtou
ɪzdʑou
ɪzou
ɪʀ
ɬ
ɲ
ɸ
ɾ
ʀ
ʀɔzu
ʁ
ʃ
ʃou
ʊ
ʎ
ʒ
ʔ
ʧ
ʧou
ʰ
ʲ
ʹ
ʻ
ʼ
ʾ
ʿ
ˀ
ˁ
ˇ
ˈ
ˌ
ː
ːː
ˑ
ˮ
̀
́
̂
̃
̄
̆
̇
̈
̉
̊
̋
̌
̓
̔
̚
̛
̣
̥
̦
̧
̨
̩
̪
̯
͂
ͅ
͠
͡
΄
α
β
γ
δ
ε
ζ
η
θ
ι
λ
μ
ν
ξ
ο
π
ρ
ς
σ
τ
υ
φ
χ
ψ
ω
ϕ
а
абхазии
аи
александр
б
баи
беларусь
большая
большои
брокгауза
бюро
в
вка
владимир
во
вологда
вологодская
воронеж
воронежскои
г
гл
год
года
голова
город
города
городе
городов
городок
городского
госстатслужба
губернии
д
данные
державна
дзюба
доп
думка
е
евреи
енциклопедія
енциклопедіі
ефрона
ж
жылдагы
з
за
завод
и
иван
изд
издание
ил
информация
историческая
к
ка
калкынын
кам
камітэт
карт
кн
книга
кол
ком
кон
координаціи
краи
кыргыз
кыргызскои
кыштактарынын
кю
л
ла
ли
м
минск
михаи
михаил
мл
мои
море
москва
московскии
муниципальных
мі
н
на
нан
народная
населения
населення
наук
нацыянальны
наявного
не
ни
нкр
новыи
нтш
о
областеи
области
область
облустарынын
образовании
окончательные
он
ондорунун
онов
ош
п
па
перепись
пмр
по
под
подмосковья
поселков
прик
прил
р
рабочии
развитие
разрезе
раи
ргб
регионов
ред
редкол
республика
республикасынын
республике
республики
року
россии
рск
русскии
русь
рэспублікі
с
са
саи
саны
саратовская
село
ск
ская
скии
словарь
служба
смоліи
советская
социально
спб
среднегодовая
статистики
статыстычны
стихи
стлб
стр
сть
судаков
сучасноі
т
та
таджикистан
таи
тибиндеги
типа
томах
у
уездныи
укра
украі
усть
ф
х
характеристики
ц
ч
чисельн
численность
чня
ш
шаар
шаарларынын
щ
ъ
ы
ын
ь
э
экз
экономические
экономическое
энциклопедическии
энциклопедия
ю
я
января
янка
ђ
є
і
ін
інститут
історіі
ј
љ
њ
ћ
џ
ѣ
ѧ
ѫ
ҍ
ҕ
ө
өфө
ְ
ֲ
ִ
ֵ
ֶ
ַ
ָ
ֹ
ּ
ֿ
ׁ
׃
א
און
ב
ה
ו
ח
ט
י
ך
כ
ל
ם
מ
ן
נ
ס
ע
ף
פ
צ
ק
ר
ש
ת
ا
ة
ت
ج
ح
ر
ع
ل
م
ه
و
ي
َ
ِ
ّ
ْ
ٔ
ٕ
ं
ई
ए
क
ग
ज
ण
द
ध
न
प
ब
भ
म
य
र
ल
श
स
ह
़
ा
ि
ी
ु
ू
े
्
ং
ব
ল
া
্
్
་
མ
ོ
აღწერა
ეროვნული
ივლისი
მოსახლეობის
ნოემბერი
სამსახური
საქართველოს
საყოველთაო
სტატისტიკის
ជ
ព
រ
ា
្
ᵉ
‌
‎
‏
–
—
‘
’
‚
“
”
„
†
•
…
‧
′
″
⁠
⁡
⁴
⁵
⁶
₁
₂
€
№
ⅰ
ⅷ
↑
→
↔
↷
⇒
−
∘
⋅
③
④
⑦
─
│
┌
┐
└
┘
├
┤
┬
┴
┼
█
△
►
◄
☉
♀
♂
⯓
ⴰ
ⴱ
ⵉ
ⵍ
ⵎ
ⵓ
ⵔ
ⵕ
ⵢ
⺀
⺄
⺆
⺈
⺊
⺌
⺕
⺝
⺸
⺼
⿰
⿱
⿲
⿳
⿴
⿵
⿶
⿷
⿸
⿹
⿺
⿻
〢
い
ぇ
か
く
け
こ
さ
し
そ
た
っ
て
な
の
ゃ
ゅ
ょ
る
゙
゚
ア
ィ
イ
ウ
ェ
エ
オ
カ
キ
ク
ケ
コ
サ
シ
ス
ソ
タ
チ
ツ
テ
ト
ナ
ニ
ヌ
ネ
ハ
ヒ
フ
ヘ
ホ
マ
メ
モ
ャ
ヤ
ュ
ユ
ョ
ヨ
ラ
リ
ル
レ
ロ
ワ
ン
・
ー
㇁
㇂
㇄
㇇
㇈
㇉
㇓
㐁
㐄
㐅
㐌
㐫
㐬
㐭
㐮
㐱
㑒
㒵
㒸
㒼
㓁
㓞
㔾
㕛
㕣
㖾
㘝
㚅
㚇
㚔
㚘
㝉
㝡
㝴
㝵
㞋
㞢
㞷
㠩
㠭
㠯
㡀
㡭
㡿
㢲
㢴
㣇
㣺
㥯
㪅
㫄
㫐
㫒
㫺
㬅
㬎
㬥
㬰
㲋
㳄
㷠
㸒
㸚
㸦
㼌
㼲
㽞
㿟
䀠
䂞
䍃
䏍
䒑
䖍
䖒
䖝
䖵
䙴
䚻
䜌
䝿
䡛
䧹
䪞
一
丁
丂
七
丄
丅
丆
万
丈
三
上
下
丌
不
与
丏
丐
丑
专
且
丕
世
丘
丙
业
东
丞
丢
丣
两
严
並
丨
丩
个
丫
丬
中
丮
丰
丱
串
丵
丶
丷
丸
丹
为
主
丽
丿
乀
乂
乃
久
乆
乇
么
义
之
乌
乍
乎
乏
乐
乑
乔
乖
乗
乘
乙
乚
乛
乜
九
乞
也
习
乡
乳
乾
亀
亅
了
亇
予
争
事
二
亍
于
亏
亐
云
互
亓
五
井
亘
亚
亜
亞
亟
亠
亡
亢
交
亥
亦
产
亨
亩
享
京
亭
亮
亯
亰
亲
亳
亶
亷
人
亻
亼
亾
仁
今
介
仌
从
仐
仑
仒
仓
仕
他
付
仝
代
令
以
任
企
伊
伏
伐
休
会
伝
伯
但
位
何
佘
余
作
佥
使
來
侈
侌
侖
侯
侵
便
保
俞
信
修
倉
倍
候
倠
備
僉
僕
儿
兀
允
兂
元
兄
充
兆
兇
先
光
兊
克
兌
免
兑
兒
兓
兔
党
兜
兟
入
全
兩
兪
八
公
六
兮
兰
共
关
兵
其
具
典
兹
兼
冀
冂
冃
冄
内
冈
冉
冊
冋
册
再
冎
冏
冐
冒
冓
冖
冗
冘
军
农
冝
冡
冥
冫
冬
冷
几
凡
凢
凵
凶
凷
凸
凹
出
函
凾
刀
刁
刂
刃
刄
刅
分
切
刍
刑
刕
刖
列
刘
则
初
別
利
别
到
制
刺
則
削
剌
前
剡
剽
劉
力
功
加
劦
助
劫
劳
劵
勃
勇
勉
勒
動
務
勞
勤
勹
勺
勻
勾
勿
匀
匂
包
匆
匈
匊
匋
匍
匕
化
北
匚
匝
匡
匪
匱
匸
匹
区
医
匽
匿
區
十
卂
千
卄
卅
卆
升
午
卉
半
卌
华
卑
卒
卓
单
卖
南
卜
卝
卞
占
卡
卢
卣
卤
卦
卩
卪
卬
卯
印
危
即
却
卵
卷
卸
卻
厂
厃
厄
历
厈
厉
厌
厓
厘
厚
原
厤
厥
厨
厭
厲
厶
厷
厸
去
厼
厽
叀
参
參
叅
又
叉
及
友
双
反
叐
发
叒
叔
叕
取
受
叚
叜
叟
口
古
句
另
叩
只
召
可
台
叱
史
右
叵
号
司
叹
吂
各
吅
合
吉
吊
吋
同
名
后
吏
向
吕
君
吝
吞
否
含
启
吳
吴
吹
吾
呂
呆
呈
告
员
呙
周
命
咅
和
咎
咠
咢
咨
咸
咼
哀
品
哉
員
哥
哲
唐
商
啇
問
啚
啬
啻
善
喜
喬
單
喿
嗇
噩
嚴
囊
囗
囘
囙
囚
四
回
囟
因
囧
囬
困
囱
囷
固
国
圂
圅
國
圍
圓
土
圡
圣
圥
在
圭
地
圶
圼
坐
坒
坚
坴
垂
垔
垚
埀
埋
埶
執
基
堂
堅
堆
堇
堯
塞
墨
壘
士
壬
壯
声
壳
壴
壹
壺
壽
夂
处
夅
夆
备
夊
夋
夌
复
夏
夒
夕
外
夗
夘
多
夜
夢
大
夨
天
太
夫
夬
夭
央
失
夲
头
夷
夸
夹
夻
夾
奂
奄
奇
奈
奉
奎
奏
奐
契
奓
奔
奚
奞
奠
奢
奥
奭
女
奴
奻
好
如
妄
妙
妟
妥
妻
妾
姑
委
姜
威
娄
婁
婴
嬰
嬴
子
孑
孔
孕
孖
字
存
孚
孛
孝
孟
季
孤
学
孫
孱
學
宀
宁
宂
它
宅
宇
守
安
宋
完
宏
宓
宗
官
定
宛
宜
宝
客
宣
室
宮
宰
害
家
容
宾
宿
寄
寅
密
富
寒
察
寧
審
寫
寬
寮
寸
对
寺
寻
寽
対
寿
封
尃
射
将
將
專
尉
尊
尋
尌
對
小
少
尒
尓
尔
尖
尗
尚
尞
尢
尣
尤
尧
尨
尭
就
尸
尹
尺
尻
尼
尽
尾
尿
局
居
屈
屋
屎
屏
屑
展
屖
屚
属
屠
屡
屬
屮
屯
屰
山
屵
屾
岁
岂
岑
岡
岩
岳
岸
峯
島
崇
崑
崔
崖
崙
崩
嵬
嶲
巂
巛
川
州
巟
巠
巢
巤
工
左
巧
巨
巩
巫
差
己
已
巳
巴
巷
巸
巽
巾
巿
帀
市
布
希
帚
帛
帝
带
師
席
帶
常
干
平
年
幵
并
幷
幸
幺
幻
幼
幽
幾
广
広
庄
床
底
店
庚
府
度
庫
庭
庶
康
庸
廉
廌
廛
廣
廩
廴
延
廷
建
廾
廿
开
弁
弃
弄
弇
弋
式
弓
弔
引
弗
弘
弜
弟
弥
弦
弱
張
強
强
彊
彌
彎
彐
彑
当
彔
录
彖
彗
彡
形
彥
彦
彧
彭
彳
役
彼
往
待
律
後
徒
得
徙
從
復
微
徵
心
忄
必
忌
忍
志
忝
忠
忩
快
念
忽
忿
思
怠
急
怱
恆
恒
恥
恩
恭
息
悉
患
悤
悲
悶
惠
惡
惢
愁
愈
意
愛
感
慈
慧
慮
憂
憲
應
懐
戀
戈
戉
戊
戋
戌
戍
戎
成
我
戒
戔
或
戚
戠
戢
戦
截
戲
戶
户
戹
戼
戾
房
所
扁
扇
手
扌
才
打
托
执
承
折
拉
拜
拿
掌
推
提
摩
支
攴
攵
收
攸
改
放
政
敄
敏
敕
敖
敗
敝
敞
敢
散
敦
敫
敬
数
敷
數
斂
文
斉
斊
斗
斤
斥
斩
斬
斯
新
方
於
施
斿
旁
旋
族
无
旡
既
旣
日
旦
旧
旨
早
旬
旱
旲
时
旾
昆
昇
昌
昍
明
昏
易
昔
昗
昜
星
春
昬
是
昱
昴
昷
時
晃
晋
晏
普
景
晶
智
暑
暴
曇
曩
曰
曲
曳
更
曷
書
曹
曼
曾
替
最
朁
會
月
有
朋
服
朔
朕
朗
望
朝
木
朩
未
末
本
札
朮
术
朱
朵
朶
机
朿
杀
杏
杜
束
条
来
東
杲
杳
松
析
林
枚
果
枝
枲
枼
某
柔
查
柬
柰
柴
栗
桀
桑
桼
梁
條
梟
梨
棘
棠
棥
森
楚
業
楽
榮
樂
樊
欠
次
欣
欮
欲
欶
欽
款
歆
歇
歌
歛
止
正
此
步
武
歨
歪
歮
歯
歰
歲
歴
歷
歸
歹
歺
死
殳
段
殷
殸
殹
殺
殻
殿
毋
毌
母
每
毒
比
毕
毚
毛
毳
氏
氐
民
气
氣
水
氵
氶
氷
永
氺
氾
求
汝
汞
江
沃
沓
沙
沝
泉
泊
法
波
泣
泥
泰
洛
洪
活
派
流
浦
浪
浮
海
淡
淮
清
渚
渠
湯
滿
漸
火
灬
灭
灰
灵
灷
炅
炎
炏
炗
炙
炭
為
烈
烏
烝
焉
無
焦
焱
然
煞
熊
熏
熱
燕
營
燮
爪
爫
爭
爯
爰
爱
爲
爵
父
爻
爽
爾
爿
片
牙
牚
牛
牜
牟
牢
牧
牪
牽
犀
犬
犭
犮
狂
狄
狊
独
狺
猋
猒
猪
献
獻
玄
率
玉
王
玟
玨
珎
班
琴
瑟
瑩
璠
瓜
瓦
甘
甚
生
産
用
甫
甬
田
由
甲
申
电
甶
男
甸
甹
画
甾
畀
界
畏
畐
留
畜
畟
畢
畧
畨
番
畫
異
畱
當
畺
畾
疊
疋
疌
疑
疒
疾
癶
癸
癹
登
發
白
百
皀
皃
的
皆
皇
皋
皐
皕
皮
皷
皿
盃
盆
盇
盈
益
盍
盎
监
盒
盖
盛
盡
監
盤
盧
目
直
相
盾
省
眇
眉
看
眔
眞
真
眷
眼
眾
着
睘
睪
睿
瞏
瞢
瞿
矍
矛
矞
矢
矣
知
矦
短
石
破
碎
磊
磨
示
礻
礼
祟
票
祭
禀
禁
禸
禹
禺
离
禽
禾
禿
秀
秃
秉
秋
科
秝
秦
移
稟
穀
穌
穴
究
穹
空
穿
突
窄
窒
立
竒
竜
竝
竟
章
童
竹
笑
笠
筆
等
答
箕
算
箴
節
篤
篭
米
粉
粛
粟
粤
粦
粲
糞
糸
糹
系
約
納
素
索
紫
累
細
絜
絫
絲
維
綿
縣
繇
纍
纟
约
缶
网
罒
罔
罕
罗
罙
罡
罢
罪
署
罷
羅
羊
羌
羍
美
羔
羕
羗
羞
羡
羣
群
義
羲
羸
羽
翁
翏
習
翕
翟
翠
翰
翼
老
耂
考
者
耆
而
耎
耑
耒
耳
耴
耶
耷
聂
聊
聖
聚
聶
聿
肀
肃
肅
肉
肖
肙
肥
肩
肯
育
肴
胃
背
胡
胥
能
脊
脩
膚
臣
臤
臧
自
臬
臭
臯
臱
至
致
臺
臼
臽
臾
臿
舀
舂
舄
與
興
舉
舌
舍
舛
舜
舞
舟
般
艮
良
色
艸
艹
艾
芒
芔
芬
芮
花
芳
芺
芻
苔
苗
苟
若
苦
英
茶
茸
荅
草
荒
荣
荼
莆
莧
莫
莽
菆
菊
菐
華
萬
落
葉
著
葛
董
葵
蒙
蒦
蒼
蓋
蓬
蓺
蔑
蔡
蕉
蕭
薄
薛
薦
薰
藍
藏
藥
蘭
虍
虎
虐
虒
虔
處
虖
虗
虘
虚
虛
虜
虞
虫
虽
蚤
蚩
蜀
蜜
蟲
蠡
血
行
衍
衛
衣
衤
表
衮
衰
袁
袞
褭
褱
襄
襾
西
覀
要
覃
見
規
覓
覧
親
覽
见
角
解
言
訁
訇
計
記
詹
語
誩
諸
讠
谷
豆
豈
豊
豐
豕
豖
豙
象
豦
豩
豪
豸
貇
貝
貞
貟
負
貢
貧
貪
貫
責
貳
貴
買
費
賁
資
賈
賏
賓
賔
賛
賞
賢
賣
質
賴
贊
贝
贡
责
贯
贲
贵
赖
赞
赤
赦
走
越
足
路
蹇
身
躬
車
軍
軎
軟
輦
车
辛
辜
辟
辥
辰
辱
農
辵
辶
边
达
过
近
连
迷
追
退
送
逆
逐
通
速
造
逢
連
逮
進
遀
遂
過
道
達
遣
適
遷
遺
邊
邑
邕
那
邦
邪
郎
部
郭
都
鄉
酉
酋
配
酓
釆
采
里
重
野
量
金
釒
錢
钅
長
镸
长
門
閃
閉
開
閏
閑
閒
間
閔
閵
閻
闌
门
间
闷
阑
阜
阝
阿
降
陳
隆
隊
隋
隡
隨
隱
隶
隹
隺
隻
隼
隽
难
雀
雁
集
雈
雋
雍
雐
雔
雙
雚
雜
雝
離
難
雨
雩
雪
雲
零
雷
需
霍
霜
霝
霞
霸
靈
靑
青
非
靡
面
靣
革
韋
韦
韭
韯
韱
音
頁
頃
項
須
頗
頡
頻
顛
页
風
风
飛
飞
食
飠
養
饣
首
香
馬
馮
駦
马
骨
高
髟
鬥
鬯
鬲
鬼
魂
魚
魯
鮮
鱼
鲁
鳥
鳳
鸟
鹵
鹿
麃
麗
麥
麦
麻
黃
黄
黍
黎
黑
黒
黨
黹
黽
黾
鼎
鼓
鼠
鼻
齊
齋
齐
齒
齿
龍
龙
龜
龟
龠
龰
龱
龴
龵
龶
龷
龸
龹
者
艹
ﻌ
ﻤ
﻿
？
�
🜨
𠀁
𠀃
𠀆
𠀉
𠀎
𠀐
𠁁
𠁣
𠂆
𠂇
𠂈
𠂉
𠂊
𠂋
𠂎
𠂒
𠂔
𠂛
𠂡
𠂢
𠂤
𠂬
𠂭
𠂹
𠃊
𠃋
𠃌
𠃍
𠃎
𠃑
𠃓
𠃔
𠃜
𠄌
𠄎
𠄠
𠄢
𠆢
𠆥
𠇍
𠈌
𠌵
𠓜
𠔉
𠔥
𠔼
𠔽
𠔿
𠕀
𠕁
𠕋
𠘧
𠘨
𠙻
𠙼
𠚏
𠚒
𠚤
𠚪
𠣏
𠤎
𠤕
𠥓
𠦄
𠦑
𠦝
𠧒
𠧗
𠧪
𠩺
𠪚
𠫓
𠫔
𠫤
𠬛
𠬝
𠬞
𠬢
𠬤
𠬶
𠮛
𠮦
𠮷
𠯑
𠱠
𠳮
𠷎
𡈼
𡉀
𡉵
𡌥
𡍮
𡏳
𡕒
𡕩
𡕰
𡖅
𡗗
𡗜
𡘆
𡘤
𡧱
𡨄
𡩧
𡬠
𡭽
𡰣
𡰥
𡰪
𡰯
𡰱
𡷈
𡸁
𡿨
𡿩
𡿪
𡿺
𢀖
𢀛
𢀩
𢁙
𢆉
𢆰
𢆶
𢇁
𢇇
𢉖
𢌬
𢌿
𢏚
𢑑
𢑚
𢖻
𢙣
𢛳
𢦏
𢦒
𢧵
𢼄
𢾕
𣁋
𣄼
𣅀
𣅽
𣍘
𣎳
𣎵
𣏋
𣏼
𣗥
𣥂
𣥖
𣦵
𣦼
𣧄
𣪊
𣪠
𣬉
𣳾
𣶒
𤇾
𤊽
𤐫
𤓰
𤔔
𤕨
𤣩
𤰇
𤰔
𤰞
𤴓
𤴔
𤽄
𥁑
𥁕
𥃦
𥃩
𥃭
𥇡
𥑟
𥘅
𥘈
𥝢
𥫗
𥱡
𦈢
𦉪
𦉬
𦉼
𦍌
𦍒
𦎧
𦐇
𦓔
𦔮
𦘒
𦙃
𦚏
𦣝
𦣞
𦣻
𦥑
𦥔
𦥯
𦨉
𦭝
𦰩
𧆞
𧈧
𧘇
𧰨
𧴪
𧴮
𧵩
𧾷
𨸏
𨾴
𩙿
𩠐
𩫏
𩵋
𪉷
𪜀
𪟽
𪠲
𪩲
𫇦
𫔭
𫜸
𫝀
𫠣
𫠩
𫢉
𫥞
𫩏
𫩠
𫪡
𫲽
𫶧
𬀷
𬐘
𬗌
𬙙
𬛸
𬜯
𬟩
𬯁
𬴘
𬺻
𬼉
𬼖
𭀰
𭁈
𭁨
𭅰
𭑈
𭕄
𭗼
𭤨
𭥫
𭻾
𮅕
𮊿
𮍌
𮍏
𮓗
𮥼
𮧮
廾
𰀁
𰀄
𰀈
𰀉
𰀕
𰀠
𰀡
𰀢
𰀪
𰁜
𰃮
𰆊
𰆘
𰋙
𰕎
𰢴
𰧭
𰯲
00--
01--
05--
09--
65--
72--
75--
80--
81--
82--
85--
86--
87--
93--
95--
a--
aa--
ab--
aba--
abchazi--
abd--
ablaw--
abo--
absol--
absolu--
ac--
ach--
acu--
acutifo--
ad--
ada--
adres--
ae--
afg--
afr--
ag--
agito--
ah--
ai--
aizo--
aj--
ak--
akademi--
akcep--
ako--
akow--
akti--
aktiwiz--
aktual--
aktuali--
akwar--
al--
ala--
alan--
alar--
albic--
ale--
ali--
aljak--
all--
allge--
alpin--
als--
alt--
alu--
am--
amac--
amary--
ame--
ampelo--
an--
ana--
analy--
and--
ane--
ang--
anhalt--
ani--
anne--
anony--
ans--
ant--
anti--
antiks--
antro--
ao--
ap--
apel--
apenn--
api--
apote--
appro--
aquati--
ar--
ara--
aral--
arc--
arche--
are--
arg--
argument--
ariz--
ark--
arktis--
aro--
arow--
ars--
art--
artiku--
aru--
as--
asa--
asfalt--
asimi--
assy--
ast--
at--
ata--
atmos--
atro--
au--
auf--
aus--
aw--
aws--
awto--
ay--
az--
ał--
ało--
b--
ba--
bad--
bag--
bal--
bald--
balea--
balsami--
balt--
baltof--
ban--
bank--
bar--
barents--
barok--
bas--
bata--
bay--
baz--
bał--
bb--
be--
beau--
beck--
bego--
bei--
bel--
belgi--
ben--
benga--
ber--
berg--
bes--
beth--
bhu--
bi--
bie--
bifo--
big--
bija--
bila--
biog--
biograf--
biologi--
biosfer--
bir--
bis--
bje--
bjelo--
bjen--
bjez--
bla--
bli--
blo--
blok--
blun--
bm--
bo--
bob--
bodam--
bog--
bohos--
bohot--
bol--
bolos--
bom--
bombar--
bor--
bos--
bot--
botanis--
botsw--
bou--
boz--
boł--
br--
bra--
brac--
bram--
bre--
bri--
briga--
brit--
brita--
brja--
brjo--
bro--
bru--
bryl--
bu--
bub--
buch--
budjon--
buj--
buk--
bul--
bunde--
bur--
burg--
burs--
bus--
by--
bycanti--
byd--
bydle--
byrg--
byrgar--
bys--
bło--
błu--
c--
ca--
caesal--
calycan--
came--
can--
capp--
car--
carol--
cas--
cat--
cał--
ce--
cecil--
cen--
ch--
cha--
chamae--
che--
chi--
cho--
chos--
chro--
chu--
chwa--
chło--
ci--
cil--
cin--
cistercie--
citro--
ciwi--
ciwilizac--
ck--
cken--
cla--
clau--
clay--
cle--
clu--
cna--
cni--
co--
colu--
com--
comme--
con--
conc--
cons--
conser--
cont--
cor--
cori--
coro--
cors--
cour--
cow--
crassifo--
craw--
cre--
cris--
cu--
cult--
cunning--
cy--
cyat--
cych--
cyhe--
cylindr--
cyper--
cywusto--
cyłokro--
cz--
cłow--
d--
da--
dacty--
dal--
dale--
dalmac--
daloko--
dam--
dan--
dar--
dc--
dd--
de--
deb--
deba--
debi--
dec--
defin--
dek--
dekla--
deklam--
del--
dem--
demons--
den--
densi--
denun--
der--
derb--
des--
detai--
deu--
di--
diag--
dias--
dich--
dicho--
die--
dif--
difa--
digi--
digita--
digitaliz--
dikta--
dikto--
din--
dio--
diplo--
direkc--
dis--
disci--
diskrim--
dispon--
distan--
distri--
divar--
dj--
dla--
dni--
dno--
do--
doda--
dohlad--
doje--
dom--
domi--
domiz--
domow--
don--
dopis--
dopje--
dopo--
doro--
dos--
dosto--
dostu--
dou--
dow--
doz--
dołho--
dr--
dra--
dre--
drje--
dro--
dru--
ds--
dt--
du--
dub--
dud--
dum--
dwo--
dwojo--
dwu--
dwubar--
dwud--
dy--
dyrdom--
dz--
e--
ebe--
eby--
ec--
echi--
eco--
ed--
eda--
edc--
edchad--
edic--
edpis--
edri--
eds--
edstaj--
edsu--
edsy--
ee--
ef--
efor--
ege--
egyp--
ehn--
eho--
ei--
eich--
ein--
eis--
ej--
ek--
eka--
ekle--
eks--
eksak--
eksem--
eksperiment--
eksplo--
ekspon--
ekstre--
ekup--
ekwa--
ekła--
el--
ela--
elaeag--
elako--
ele--
elek--
elektro--
eli--
elsas--
elu--
em--
emanc--
emi--
emje--
emy--
en--
end--
energ--
enk--
enoc--
enter--
entom--
ep--
epasty--
ephe--
epo--
epodo--
epru--
epruwow--
epy--
epła--
er--
erch--
eri--
erja--
erk--
ern--
eroz--
erp--
ers--
ert--
eru--
eryth--
es--
esat--
esc--
esch--
eska--
esper--
est--
estup--
esun--
esy--
et--
eti--
etor--
etr--
etrje--
etwar--
etwo--
ety--
etym--
etymologi--
eu--
euraz--
euro--
evange--
eve--
evi--
evro--
ew--
ewa--
ewc--
ewisow--
ewjat--
ewje--
ewo--
ex--
exper--
ez--
ezje--
ezym--
eła--
f--
fa--
fabr--
fanat--
fant--
far--
fascin--
fał--
fe--
federat--
fel--
femin--
fenici--
fer--
ferej--
feu--
feuda--
ff--
fi--
figu--
fijał--
fikti--
fil--
filip--
fin--
fir--
fjo--
fl--
fla--
fleks--
flo--
flu--
fo--
fonet--
fono--
for--
formu--
fr--
fra--
frag--
frakc--
frank--
fraze--
fre--
frekwent--
frid--
frie--
fu--
fun--
fungo--
fy--
fyz--
fyzika--
g--
ga--
gael--
galer--
gall--
galo--
gar--
gas--
gat--
ge--
geb--
gel--
gen--
genetis--
geo--
geologi--
geome--
ger--
germaniz--
gesneri--
ghe--
gi--
giga--
ginej--
gips--
gla--
glo--
glom--
gluti--
go--
goet--
gold--
got--
gra--
graf--
grat--
gre--
greu--
gri--
grich--
gro--
grodk--
groß--
gru--
gu--
guate--
gumi--
guter--
gutt--
guy--
gw--
gym--
gymnazia--
h--
ha--
had--
haj--
hal--
ham--
hamt--
han--
har--
has--
hat--
haus--
haw--
he--
hebre--
hedys--
hej--
hek--
hektograf--
hel--
heli--
hep--
her--
herb--
hess--
hi--
hinr--
hipp--
hippoc--
histor--
hl--
hli--
hm--
hn--
hnad--
hno--
ho--
hobr--
hoch--
hof--
holland--
holos--
hom--
hon--
hor--
horin--
horli--
hos--
hospod--
hot--
how--
hoł--
hr--
hra--
hrab--
hraj--
hrje--
hro--
hroma--
hroz--
hrym--
hu--
hub--
humbold--
hus--
hwiz--
hy--
hyacin--
hydro--
hypo--
hł--
hło--
hłow--
hłub--
hłuc--
i--
ia--
iai--
ib--
ibi--
ic--
id--
ida--
idealiz--
identifi--
ideo--
ideologi--
ifro--
igno--
ihla--
iho--
ihotowa--
ij--
ija--
iji--
ik--
ikaz--
iki--
ikles--
il--
ilega--
ilu--
im--
imo--
imperia--
impli--
impon--
improwiz--
in--
ina--
inc--
indepen--
indi--
indiwidua--
indo--
indus--
industri--
iner--
infi--
infor--
informac--
ing--
ino--
ins--
inscen--
insek--
inspi--
insta--
inte--
integro--
inteli--
intensi--
inter--
interpre--
inwaz--
inwest--
io--
ip--
ipa--
ipo--
ipodo--
ipos--
ipoł--
ipra--
ir--
irja--
iro--
irun--
iruna--
irunow--
is--
isko--
islam--
iso--
ispo--
ispor--
ist--
istoj--
istro--
istup--
iswo--
it--
ita--
itali--
itaws--
itko--
itkow--
ito--
ity--
iv--
iw--
iwa--
iwi--
iwis--
iwja--
iwo--
iz--
izam--
izje--
izo--
izolo--
ił--
j--
ja--
jablo--
jad--
jaho--
jam--
jan--
jar--
jas--
jat--
jau--
je--
jedno--
jehli--
jej--
jer--
jeruz--
jes--
ji--
jim--
jns--
jo--
jos--
js--
jst--
ju--
jubi--
juho--
jurje--
jwo--
k--
ka--
kajkos--
kak--
kal--
kalifor--
kam--
kan--
kap--
kapit--
kapon--
kar--
kara--
kari--
kas--
kat--
kata--
kato--
kawka--
kaz--
kał--
ke--
kehe--
kek--
kelt--
kem--
ken--
ker--
ki--
kili--
kin--
kirc--
kis--
kisa--
kit--
kla--
klasi--
klasifi--
kle--
klein--
kli--
klin--
klotz--
km--
knje--
ko--
koalici--
kodifi--
kol--
kolon--
kolonia--
koloniz--
kolum--
kom--
kombin--
komed--
komen--
kompju--
kompjuter--
kompli--
kompon--
kompu--
komu--
kon--
koncen--
koncepc--
konci--
konfesi--
konfi--
konfront--
konku--
konsek--
konsol--
konstitu--
konstru--
kontinu--
kontra--
kontro--
koordin--
kop--
kor--
korek--
kores--
korespon--
korigo--
korn--
korona--
koruta--
kos--
kosa--
kow--
koł--
kr--
kra--
kraj--
krasn--
kre--
kreat--
kredi--
kreol--
krie--
krim--
krit--
kriteri--
kritiz--
krje--
kro--
kru--
kruh--
krumbie--
kry--
ks--
ku--
kuchi--
kul--
kulow--
kulti--
kulturno--
kunst--
kup--
kur--
kuri--
kurs--
kus--
kut--
kuz--
kwa--
kwadra--
kwalifi--
kwas--
kwi--
ky--
kymr--
kło--
kłub--
l--
la--
labi--
lac--
lae--
lag--
laj--
lam--
lampe--
lan--
land--
lapp--
las--
lat--
lau--
laur--
law--
le--
lea--
lech--
legi--
lehn--
lej--
lek--
leksi--
len--
leo--
ler--
les--
leuc--
lew--
lg--
li--
liber--
liberal--
libre--
libys--
lic--
lie--
likwid--
lin--
lingu--
linguist--
lip--
lipp--
literar--
ll--
ln--
lo--
lodow--
logi--
loh--
loj--
lokal--
lokali--
lom--
lor--
los--
loth--
lou--
lowa--
ls--
lt--
lu--
lub--
lubje--
lubo--
luc--
lud--
luz--
lwo--
ly--
lyca--
lyco--
m--
ma--
mac--
madag--
mag--
magel--
magi--
magni--
magnoli--
mai--
maj--
mak--
maksima--
mal--
man--
mang--
manife--
mar--
marc--
mark--
mart--
mas--
mat--
matemat--
materi--
matur--
maz--
mazur--
mał--
mało--
mb--
mc--
me--
mec--
med--
medic--
mej--
melc--
meli--
melo--
men--
mer--
mes--
meta--
meteor--
mexi--
mi--
mic--
mif--
mika--
mil--
min--
mir--
mis--
misio--
mit--
mj--
mje--
mjer--
mjerz--
mjezy--
mno--
mnoho--
mo--
mobi--
mobiliz--
moderniz--
modifi--
modl--
mold--
moldaws--
mole--
mon--
mongo--
mono--
monofy--
mor--
morali--
mordwin--
morfologi--
morph--
mos--
moto--
moty--
mowob--
mowoz--
moz--
mro--
msko--
mu--
muc--
muchor--
mudro--
multi--
mun--
munic--
mus--
musli--
muz--
muł--
my--
myrs--
mysti--
mło--
n--
na--
nac--
naciona--
nacionalsocia--
nacionalsocialist--
nad--
nadik--
nadob--
nahla--
nahra--
nai--
naj--
najs--
nako--
nakład--
nali--
nalu--
nam--
namo--
nan--
nanuz--
napina--
napje--
napjeln--
napo--
napodob--
naprod--
nar--
narod--
narys--
nas--
nast--
nat--
naty--
nawa--
nawi--
nawjaz--
nawje--
nawk--
nawod--
naz--
nazal--
nazhon--
nc--
nd--
ndr--
ne--
nega--
negat--
nego--
ner--
nes--
neu--
neutra--
ng--
ni--
nia--
nie--
nieder--
nig--
nigs--
nik--
nim--
nimo--
nja--
nje--
njena--
njepo--
njepraw--
njeru--
njes--
njewo--
njewob--
njez--
njeza--
njo--
nl--
no--
noafr--
noc--
nom--
nomina--
nor--
nord--
nos--
noserb--
not--
nowo--
nowosee--
ns--
nt--
nu--
nudica--
nuk--
numer--
nur--
nuz--
ny--
o--
oaz--
ob--
ober--
obtusifo--
oc--
och--
ochots--
od--
oe--
oeurop--
of--
ofer--
offici--
og--
oh--
oi--
oj--
ok--
ol--
olei--
oleks--
oliwoz--
olsz--
om--
on--
op--
or--
ora--
orche--
orchi--
organiz--
orne--
orni--
ors--
ort--
ortodok--
os--
oset--
osm--
ost--
ott--
ou--
ov--
ow--
owa--
owc--
oxa--
oz--
oł--
ołar--
p--
pa--
pac--
pacifi--
pad--
pak--
pal--
palatali--
pam--
pan--
par--
para--
pas--
pat--
patro--
pauci--
paw--
pawlo--
paz--
pe--
pec--
pel--
pelt--
pen--
per--
perio--
peti--
petro--
pfa--
ph--
phy--
phys--
pi--
pic--
pico--
pie--
pik--
pil--
pin--
pis--
pisa--
piwa--
pje--
pjer--
pl--
pla--
plat--
ple--
ples--
pli--
plu--
po--
pobrac--
poc--
pochod--
pod--
podkop--
podnur--
podob--
podołhos--
podpis--
pods--
podty--
podzem--
poet--
pohi--
pohnu--
poho--
pokaz--
pol--
polic--
polica--
polit--
pomj--
pomo--
pon--
ponur--
pop--
popje--
popoł--
popr--
popula--
popularizo--
por--
portre--
pos--
poskak--
post--
postaj--
postor--
postup--
posy--
posłuc--
potaj--
potajns--
potor--
pow--
powo--
powobje--
poz--
pozhu--
pozit--
poł--
pr--
pra--
prak--
prakti--
pras--
prasłow--
praw--
prawo--
pre--
preciz--
prezen--
pri--
prje--
pro--
prodru--
produ--
profil--
progres--
prokla--
promo--
propag--
prote--
pru--
prut--
pry--
ps--
psche--
pseu--
pseudo--
psi--
pu--
publ--
puc--
pulc--
pum--
pund--
pur--
purpu--
pus--
putnik--
py--
pyr--
pyrami--
pyta--
pła--
pło--
płu--
pɔ--
pʃ--
q--
qua--
que--
r--
ra--
rad--
radika--
raf--
raj--
rally--
ram--
rami--
ran--
ras--
rat--
ratar--
rau--
raz--
rc--
re--
reag--
reak--
real--
reali--
rec--
recens--
red--
redakci--
redigo--
ref--
reflek--
refor--
regens--
reggae--
regi--
regis--
regu--
rei--
rej--
rekonstru--
rekru--
relat--
ren--
reprezen--
res--
respek--
resta--
restawro--
retor--
rev--
rewid--
rewoluci--
rez--
rezer--
rezid--
rezig--
rezul--
rhy--
ri--
ridro--
riet--
rig--
rix--
rja--
rjad--
rje--
rjemjes--
rka--
rko--
rkow--
rli--
rn--
ro--
rob--
roc--
rod--
roko--
rom--
ros--
rot--
rotac--
rou--
row--
rowa--
roz--
rozbuch--
rozjas--
rozjim--
rozki--
rozkla--
rozmje--
rozmoł--
rozpad--
rozpo--
rozpu--
rozris--
roztor--
rozwi--
roł--
rs--
rst--
rt--
ru--
rum--
rus--
rut--
ry--
ryb--
ryba--
rym--
ryn--
rys--
ryt--
rz--
s--
sa--
saar--
sac--
sad--
sagitt--
sakro--
saks--
sal--
sam--
sama--
samo--
san--
sangu--
sap--
saparmu--
sar--
sardin--
sas--
sat--
sc--
sce--
sch--
schle--
scho--
schrifts--
schwa--
sciadop--
se--
sea--
sed--
see--
sek--
selow--
sem--
semit--
sen--
ser--
serbisko--
ses--
set--
seve--
sew--
sewjero--
sfał--
sformu--
sha--
she--
shi--
shu--
si--
sicil--
sie--
sieg--
sig--
signaliz--
sil--
sim--
sin--
sinfo--
sir--
sis--
sk--
ska--
skand--
ske--
sko--
skomple--
skoncen--
skonkreti--
skład--
skłon--
sl--
sla--
sle--
slepjan--
slo--
slove--
sm--
smil--
smjer--
smo--
smu--
sn--
sna--
so--
sobu--
sobuskut--
social--
sol--
som--
son--
sonnen--
sor--
sorab--
sos--
sozi--
sp--
spa--
spe--
specia--
specializ--
specie--
spi--
spjat--
spje--
spo--
spodo--
spohla--
spoko--
spomj--
spr--
sprach--
spraw--
spy--
squa--
sr--
ss--
st--
sta--
stabi--
stan--
starog--
staroluthe--
starosłow--
start--
stat--
statist--
staw--
stawiz--
ste--
sti--
stilist--
stiliz--
stimu--
sto--
stop--
stor--
stoł--
stra--
stron--
strowot--
strze--
stu--
stwo--
sty--
su--
sub--
suc--
sud--
sudet--
suec--
suk--
sun--
super--
sur--
sva--
sve--
svi--
svo--
sw--
swjat--
swo--
swobo--
swojo--
sy--
sydle--
sykty--
syl--
sym--
sympatiz--
syn--
synchro--
syp--
syri--
sz--
sła--
słans--
sło--
słomj--
słu--
słuc--
t--
ta--
taflo--
tage--
taj--
tak--
tam--
tamar--
tan--
tar--
tas--
tatar--
taus--
taxo--
tc--
te--
tec--
tech--
teich--
tel--
tele--
telefo--
telewiz--
tem--
ten--
teoreti--
tep--
ter--
tes--
teu--
th--
tha--
thailand--
the--
thie--
thiet--
thu--
ti--
tig--
tim--
tk--
tka--
tko--
tkodo--
to--
tok--
tom--
tor--
torpe--
tow--
toz--
toł--
tr--
tra--
tradi--
tram--
trans--
trav--
tre--
tri--
trje--
tro--
trolley--
trop--
trow--
trs--
tru--
truska--
try--
ts--
tt--
tu--
tuc--
tuchwi--
tudom--
tun--
tunez--
tur--
turist--
turkm--
twar--
two--
ty--
tyk--
tym--
typ--
tyri--
tyrr--
tz--
tło--
u--
ua--
ub--
ubs--
uc--
udmurt--
udro--
ug--
uga--
uj--
ujo--
uk--
ul--
ulbr--
uligi--
ull--
um--
un--
uni--
uns--
up--
ur--
ura--
us--
uten--
uwa--
uz--
uzbe--
v--
va--
vacc--
vagi--
val--
vale--
van--
varie--
vati--
ve--
vene--
venez--
vent--
ver--
ves--
vi--
vil--
vinc--
vir--
virgi--
vis--
vo--
vor--
vul--
vy--
w--
wa--
wac--
walc--
wald--
wan--
wap--
war--
warjete--
warten--
was--
waw--
wbo--
we--
web--
wehr--
wei--
weiß--
wen--
wer--
west--
wett--
whi--
wi--
wic--
wica--
wid--
wie--
wik--
wikow--
wil--
win--
wir--
wis--
wita--
wiz--
wje--
wjel--
wjer--
wjes--
wjesnja--
wk--
wladi--
wladis--
wo--
wob--
wobar--
wobdar--
wobhla--
wobko--
wobliz--
wobnow--
wobru--
wobs--
wobsad--
wobstar--
wobsy--
wobty--
woby--
wobzam--
woc--
wodo--
wodrje--
wohi--
wohn--
woj--
wojer--
wojow--
wojwo--
wol--
wolc--
wole--
wolij--
wom--
won--
wopis--
wopo--
wopr--
wopyt--
wopła--
wopło--
worak--
wos--
wose--
wosob--
wosła--
wot--
wotba--
wotbagro--
wotc--
wotchi--
wote--
wotew--
wothla--
wotkła--
wotmo--
wotmoł--
wotpis--
wotstro--
wottor--
wotwla--
wotzam--
wowli--
wozje--
woł--
wrjo--
ws--
wu--
wubi--
wubje--
wubra--
wuc--
wuchodo--
wuchodofran--
wuchodosłow--
wuchwa--
wud--
wude--
wudos--
wudospoł--
wudy--
wuhi--
wuhli--
wuhn--
wuho--
wuja--
wuklu--
wukm--
wuko--
wukr--
wukraj--
wukristaliz--
wukub--
wukła--
wulic--
wulk--
wulkan--
wulko--
wulkodubr--
wulkogme--
wulkoło--
[...]
