!
"
#
##0
##1
##10
##11
##12
##13
##14
##15
##16
##17
##18
##19
##2
##20
##21
##22
##23
##24
##25
##26
##27
##28
##29
##3
##30
##31
##32
##33
##34
##35
##36
##37
##38
##39
##4
##40
##41
##42
##43
##44
##45
##46
##47
##48
##49
##5
##50
##51
##52
##53
##54
##55
##56
##57
##58
##59
##6
##60
##61
##62
##63
##64
##65
##66
##67
##68
##69
##7
##70
##71
##72
##73
##74
##75
##76
##77
##78
##79
##8
##80
##81
##82
##83
##84
##85
##86
##87
##88
##89
##9
##90
##91
##92
##93
##94
##95
##96
##97
##98
##99
$
%
&
'
(
)
*
+
,
-
.
/
0
00
000
0001
00043
001
002
0021
003
004
01
010
014
02
026
03
0313
0354
04
0405
05
06
0610
0692
07
0734
08
0855
08664
09
1
10
100
1000
10000
1002
1003
1004
1005
1007
1009
101
1010
1012
1015
1018
102
1025
1028
103
1030
1031
1032
104
1046
105
1050
106
1061
107
1072
10794
108
1084
1088
109
11
110
1100
1106
1108
111
112
1127
11273
113
11331
1137
11379
114
1142
1144
1146
1147
115
1150
1152
1154
1156
1158
116
1166
117
1170
1171
118
1180
1185
1189
119
1198
12
120
1200
1201
12013
12023
12033
1204
1206
1207
1209
121
1210
1212
1213
1214
1216
1218
122
1220
1221
1222
1223
1224
1225
1226
1227
1228
123
1230
1231
1233
1234
123456
1237
1238
124
1240
1241
1242
1244
1245
1248
125
1250
1251
1252
1253
1254
1256
126
1261
1263
1264
1265
1268
127
1270
1272
1276
128
1280
1281
1283
1285
1286
129
1290
1291
1292
1293
1296
13
130
1300
1301
1302
1304
1305
1306
1307
1309
131
1312
1314
1315
1316
1317
1318
1319
132
1320
1322
1323
1324
1328
1329
133
1331
1333
1334
1336
1338
1339
134
1340
1342
1343
1345
1346
1347
1348
1349
135
1350
1351
1352
1353
1355
13557
1356
1357
1359
136
1360
1361
1362
1363
1364
1365
1366
1368
137
1370
1371
13737
1374
1375
1376
1377
1378
138
1380
1381
1382
1383
1385
1386
1387
1389
139
1390
1391
1392
1394
1396
1397
1398
1399
14
140
1400
1401
1404
1407
1408
1409
141
1410
1411
1412
1413
1416
1417
1418
1419
142
1420
1421
1422
1423
1424
1426
1427
1429
143
1430
1431
1433
1436
1437
1438
1439
144
1441
1444
1445
1446
1447
1448
1449
145
1450
1451
1452
1453
1455
1456
1457
1458
1459
146
1460
1462
1463
1464
1465
1466
1468
1469
147
1470
1471
1472
1474
1475
1476
1477
1478
148
1483
1484
1486
1489
149
1490
1492
1493
1494
1495
1498
1499
15
150
1500
1501
1502
1503
1504
1506
1507
1508
1509
151
1510
1511
1512
1515
1516
1518
1519
152
1520
1521
1522
1523
1524
1525
1526
1527
1528
1529
153
1530
1531
1532
1533
1534
1535
1536
1537
1538
1539
154
1540
1541
1542
1544
1545
1546
1547
1548
1549
155
1550
1552
1553
1554
1555
1556
1558
1559
156
1560
1561
1562
1563
1564
1565
1566
1567
1568
1569
157
1570
1571
1572
1573
1574
1575
1576
1577
1578
158
1580
1581
1582
1583
1584
1585
1586
1587
1588
1589
159
1590
1591
1592
1593
1594
1595
1596
1597
1598
1599
16
160
1600
1601
16019
1602
1603
1604
1605
1606
1607
1608
1609
161
1610
1611
1612
1613
1614
1615
1616
1617
1618
1619
162
1620
1621
1622
1623
1624
1625
1626
1627
1628
1629
163
1630
1631
1632
1633
1634
1635
1636
1637
1638
1639
164
1640
1641
1642
1643
1644
1645
1646
1647
1648
1649
165
1650
1651
1652
1653
1654
1655
1656
1657
1658
1659
166
1660
1662
1663
1664
1665
1666
1667
1668
1669
167
1670
1671
1672
1673
1674
1675
1676
1677
1678
1679
168
1680
1681
1682
1683
1684
1685
1686
1687
1688
1689
169
1690
1691
1692
1693
1694
1695
1696
1697
1698
1699
17
170
1700
1701
1702
1703
1704
1705
1706
1707
1708
1709
171
1710
1711
1712
1713
1714
1715
1716
1717
1718
1719
172
1720
1721
1722
1723
1724
1725
1726
1727
1728
1729
173
1730
1731
1732
1733
1734
1735
1736
1737
1738
1739
174
1740
1741
1742
1743
1744
1745
1746
1747
1748
1749
175
1750
1751
1752
1753
1754
1755
1756
1757
1758
1759
176
1760
1761
1762
1763
1764
1765
1766
1767
1768
1769
177
1770
1771
1772
1773
1774
1775
1776
1777
1778
1779
178
1780
1781
1782
1783
1784
1785
1786
1787
1788
1789
179
1790
1791
1792
1793
1794
1795
1796
1797
1798
1799
18
180
1800
1801
1802
1803
1804
1805
1806
1807
1808
1809
181
1810
1811
1812
1813
1814
1815
1816
1817
1818
1819
182
1820
1821
1822
1823
1824
1825
1826
1827
1828
1829
183
1830
1831
1832
1833
1834
1835
1836
1837
1838
1839
184
1840
1841
1842
1843
1844
1845
1846
1847
1848
1849
185
1850
1851
1852
1853
1854
1855
1856
1857
1858
1859
186
1860
1861
1862
1863
1864
1865
1866
1867
1868
1869
187
1870
1871
1872
1873
1874
1875
1876
1877
1878
1879
188
1880
1881
1882
1883
1884
1885
1886
1887
1888
1889
189
1890
1891
1892
1893
1894
1895
1896
1897
1898
1899
19
190
1900
1901
1902
1903
1904
1905
1906
1907
1908
1909
191
1910
1911
1912
1913
1914
1915
1916
1917
1918
1919
192
1920
1921
1922
1923
1924
1925
1926
1927
1928
1929
193
1930
1931
1932
1933
1934
1935
1936
1937
1938
1939
194
1940
1941
1942
1943
1944
1945
1946
1947
1948
1949
195
1950
1951
1952
1953
1954
1955
1956
1957
1958
1959
196
1960
1961
1962
1963
1964
1965
1966
1967
1968
1969
197
1970
1971
1972
1973
1974
1975
1976
1977
1978
1979
198
1980
1981
1982
1983
1984
1985
1986
1987
1988
1989
199
1990
1991
1992
1993
1994
1995
1996
1997
1998
1999
2
20
200
2000
2001
2002
2003
2004
2005
2006
2007
2008
2009
201
2010
2011
2012
2013
2014
2015
2016
2017
2018
2019
202
2020
2021
20210529152746
2022
2024
2025
203
204
205
206
2067
207
208
209
21
210
2100
211
212
213
214
215
216
217
218
219
22
220
221
222
223
224
225
226
227
228
229
23
230
2300
231
232
233
234
235
236
237
238
239
24
240
2400
241
242
243
244
245
246
247
248
249
25
250
2500
251
252
253
254
255
256
257
258
259
26
260
2600
261
262
263
264
265
266
267
268
269
27
270
2700
271
272
273
274
275
276
277
278
279
28
280
2800
281
282
283
284
285
286
287
288
289
29
290
291
292
293
294
295
296
297
298
299
3
30
300
3000
301
302
303
304
305
306
307
308
309
31
310
3100
311
312
313
314
315
316
3166
317
318
319
32
320
321
322
323
324
325
326
327
328
329
33
330
331
332
333
334
335
3354
336
337
338
339
34
340
3400
341
342
344
345
346
347
348
35
350
3500
351
352
354
355
356
357
3573
358
359
36
360
3600
361
362
363
364
365
366
367
368
369
37
370
371
372
373
374
375
376
377
378
379
38
380
381
382
384
385
3852
386
387
388
389
39
390
392
394
395
396
398
399
4
40
400
4000
401
402
403
404
405
406
407
408
41
410
411
412
413
414
415
416
419
42
420
422
424
426
427
428
43
430
432
433
434
436
438
44
440
441
442
443
444
445
446
4467
4469
447
448
449
45
450
451
452
453
454
455
456
458
46
460
462
463
464
465
466
467
468
47
470
472
473
474
475
476
477
478
479
48
480
481
482
483
484
486
489
49
491
492
493
494
496
497
498
499
4990
5
50
500
5000
501
502
503
505
51
510
511
513
515
516
517
518
519
52
520
521
522
523
524
525
526
529
53
530
532
534
535
536
538
539
54
540
541
542
545
548
549
55
550
552
554
559
56
560
561
57
570
576
58
580
581
583
589
59
590
593
5934
596
597
6
60
600
6000
602
605
61
62
620
623
625
63
630
631
632
639
64
640
642
65
650
66
660
662
665
67
670
677
679
68
680
682
69
690
7
70
700
7000
705
707
71
72
720
727
73
731
736
74
7420
75
750
755
7567
757
76
760
768
77
770
7742
775
7766
777
778
78
780
79
790
792
793
8
80
800
8000
8001
805
81
82
823
8274
83
832
8331
835
8354
84
840
844
85
850
852
85270
85474
858
86
862
87
870
87822
88
880
882
883
89
89416
9
90
900
903
906
907
91
912
916
92
929
93
935
94
940
944
95
950
956
958
96
960
965
966
97
974
975
978
98
981
983
99
993
999
9999
:
;
<
=
>
?
@
\
^
_
`
a
aa
aachen
aarhus
aaron
ab
aba
abablewo
abaj
abap
abbas
abbott
abc
abchaziska
abchaziskeje
abd
abdelkader
abdullah
abel
abelia
abelija
abend
aber
abhandlungen
abi
abies
abituru
abjaca
abjacy
ablatiw
ablawtowych
ablo
ablon
ablona
ablonas
ablono
abo
abonentow
about
above
abraham
absolutneje
absolutnje
absolutnu
absolwowas
abt
abtisa
abu
abulfaz
aby
ac
aca
acacia
acad
academia
academy
acanthaceae
acanthus
acaulis
access
ace
aceho
acej
aceje
acer
aceraceae
ach
achille
achillea
achim
achimenes
achowa
achownica
achownik
achowy
acht
achu
acinos
ack
acker
aconitum
acorus
acta
actaea
actinidia
acu
aculeaticarpa
acuminata
acutifolia
acy
acych
acym
acymi
ad
ada
adachu
adaja
adalbert
adam
adams
adanja
adanje
adans
adansonia
adas
addis
adelbert
adenauer
adjektiw
adjektiwach
adjektiwow
adjektiwy
adler
adm
administraciju
administratiwne
administratiwnje
administrator
administratorojo
admiral
adolf
adolfa
adolfo
adolph
adom
adonis
adorf
adow
adoxa
adoxaceae
adresy
adrian
adwacec
adwerb
adwerbialny
adwerby
adwokat
adyn
adło
ae
aenne
aere
aerial
aesculus
aestivalis
aestivum
af
afa
afd
afef
afews
affinis
afghanistan
afghanistana
afghanistanje
afghanski
afiksow
afiksy
afrew
africa
african
africe
afrika
afrikaans
afrikahaus
afriki
afriku
afriska
afriskeho
afriskeje
afriski
afriskich
afroaziske
after
ag
agapanthus
agave
agavoideae
agawowe
agawowych
agens
agent
agnes
agostino
agric
agricola
agrimonia
agrostis
aguilera
aguirre
ah
aha
ahan
ahanja
ahecha
ahi
ahmed
ahnu
ahny
ahnyc
ahnychu
ahow
ahowane
ahrens
ahu
ahuja
ahuje
ai
aichele
ailanthus
aime
ainu
aipo
aira
aires
aise
aiton
aizoaceae
aizoides
aj
aja
ajba
ajs
ajsko
ajtmatow
ajuga
ak
aka
akach
akad
akademia
akademie
akademija
akademije
akademiji
akademiju
akademischer
akantusowe
akantusowych
akcent
akceptowane
akceptuje
akcije
akelaja
akhani
aki
akkads
ako
akordeonist
akovec
akow
akowa
akowanju
akowano
akowje
akowska
akowske
akowskeho
akowskemu
akowski
aktiwist
aktiwistka
aktiwitow
aktiwity
aktiwna
aktiwne
aktiwnje
aktiwny
aktiwnych
aktobe
aktualizowanju
aktualna
aktualne
aktualnje
aktualny
aktualnym
aku
akuje
akuzatiw
akuzatiwa
al
ala
alabama
alain
alal
alan
alanskej
alaska
alb
alba
albans
albanska
albanskej
albanskeje
albanski
albert
alberta
alberto
albicans
albickij
albida
albin
albino
albrecht
albrechta
albrechtowce
albrechtowka
albrechtowki
album
albuma
albumy
albus
alby
alc
alcea
alchemilla
ale
alef
alejandro
aleksandar
aleksander
aleksandr
aleksandra
aleksandrowic
aleksej
aleksejewic
aleksis
alessandro
alex
alexander
alexandra
alexandre
alexis
alfabec
alfabet
alfabeta
alfabetom
alfons
alfonso
alfred
alfredo
algeriska
algeriskej
algeriski
algi
algirdas
ali
alice
alicia
align
alija
alijew
alisma
alison
alkaloidy
all
allan
alle
allen
allende
aller
alles
allioideae
allison
allium
allman
allmusic
alma
almaty
alnus
aloe
alois
alojs
alojsa
alonso
alopecurus
alowej
aloys
alpach
alpen
alpestre
alpestris
alpha
alphonse
alpina
alpinist
alpinum
alpinus
alpow
alpska
alpski
alpy
als
also
alt
altaj
altajske
altajskich
altajskim
altberliner
alte
alten
altenberg
alternatiwa
alternatiwna
alternatiwne
alternatiwnje
alternatiwny
althaea
altissima
alto
altstadt
alucita
alva
alves
alvin
alwin
alyssum
am
amaconas
amadeus
amanda
amara
amaranthaceae
amaranthus
amarylisowe
amarylisowych
amaryllidaceae
amaryllis
amas
amba
ame
ameisenbla
amelanchier
amer
americ
america
american
americana
americanum
americe
amerika
ameriki
ameriku
ameriska
ameriske
ameriskeho
ameriskej
ameriskeje
ameriski
ameriskich
ameriskim
amerisko
amhars
ami
amiga
amilja
amman
ammophila
amo
amorpha
amos
ampelopsis
ampfer
amsterdam
amte
amudarja
amur
amurskej
amus
amy
an
ana
anacardiaceae
anach
anagallis
anales
analyse
analysis
anam
anami
ananas
anarchist
anatolij
anatom
anbe
anc
anchusa
ancient
and
anda
andach
andaluziskej
andawa
anderen
anders
anderson
andijona
andijonskej
ando
andorra
andorraski
andow
andowa
andra
andre
andrea
andreas
andree
andrej
andrejewic
andrejewna
andrew
andrews
andrianampoinimerina
andric
andrickeho
andricki
andrijowyc
andritzki
android
androidowe
androsace
andrzej
andy
ane
anec
anecy
aneho
anej
aneje
anemone
anfa
anfang
angaz
angegeben
angel
angela
angele
angeles
angelika
angelo
angels
angelu
angers
angiosperm
anglica
anglo
angola
angolski
angustifolia
angustifolium
angustifolius
anhalt
anhaltska
anhaltskej
anhaltskeje
anhaltsko
ani
anie
anisum
anita
anja
anje
ank
anka
anke
anker
anki
anku
ann
anna
annaberg
annan
anne
annegret
annemarie
annette
anno
annua
annuus
anny
ano
anoho
anom
anomu
anosta
anostu
anosty
another
anow
anpa
ans
ansambl
ansambla
ansamblowc
ansamblu
anscy
ansicht
ansk
anska
anske
anskeho
anskej
anskeje
anskemu
anski
anskich
anskim
ansko
ansku
ansonowa
ansonowy
anstwa
anstwje
anstwo
ant
anta
antananarivo
antarktis
ante
anthericum
anthocharis
anthony
anthoxanthum
anti
antifas
antigua
antiki
antilow
antirrhinum
antje
anto
antoine
antologija
anton
antona
antoni
antonia
antonio
antropologa
antti
antwerpen
anu
any
anych
anym
ao
aorist
ap
apajew
aparine
apennina
apera
apetala
apfel
apg
aphylla
apiaceae
apiales
apioideae
aplicy
apo
apocynaceae
apollo
apotekar
app
appa
appan
appl
apple
application
aprikozowc
april
apryl
apryla
aprylom
aprylu
aquatica
aquilegia
ar
ara
arabidopsis
arabis
arabs
arabsce
arabska
arabske
arabskeho
arabskej
arabskeje
arabski
arabskich
arabskim
araceae
arach
arago
araka
araliaceae
aralskeho
aramejs
arami
aranz
ararat
aras
araucaria
arborea
arborescens
arbutifolia
arc
archa
archangelsk
archangelskej
archeologa
archeologije
archeologiju
archeologiske
archidiakon
archipel
archipela
architekt
architekta
architektka
architektura
architekturu
architektury
archiv
archive
archiw
archiwa
archiwar
archiwje
arcybiskop
arcybiskopstwa
arcywo
are
area
areal
arealu
arec
arecaceae
arenaria
arenc
arendt
arenosa
arg
argemone
argentea
argentinska
argentinskej
argentinskeje
argentinski
argentinsko
argon
argun
ari
aria
aricia
arisaema
aristolochia
aristolochiaceae
arizona
arizonica
arje
ark
arkansas
arki
arktiskeho
arktiski
arlachc
armand
armeje
armeju
armeniaca
armenjanow
armenjenjo
armens
armenska
armenskeho
armenskej
armenskeje
armenski
armensko
armeria
armin
armoracia
armstrong
arn
arne
arno
arnold
arnos
arnow
arnsdorf
aro
arojo
aroma
aromatisce
aronia
aronija
aronowe
aronowych
arow
arowa
arowskej
arowy
arrhenatherum
ars
arsce
arska
arskeho
arskej
arskeje
arskemu
arski
arsko
arsku
art
arte
artemisia
arten
arthur
article
artikel
artikl
artikla
artikle
artiklow
artikulacija
artocarpus
arts
artur
arturo
aru
aruba
arumuns
aruncus
arundinacea
arvense
arvensis
arvid
arxiv
ary
as
asa
asach
asam
asami
asarina
asarum
asawka
asc
asch
ascii
asclepiadoideae
asclepias
asecy
asej
asiatica
asimilacija
asistent
asne
asnik
asnikar
asnikow
asnja
asnje
asnosc
asny
asnych
asom
asopis
asopisa
asopisach
asopisaj
asopismowstwa
asopisow
asopisu
asopisy
asow
asowe
asowje
asowy
asowych
asowym
asparagaceae
asparagus
aspekt
aspekty
asperula
asphodelaceae
assembler
association
assur
assyric
assyriologiskich
assyriska
ast
asta
astana
astany
aste
asteraceae
asteridy
asteroid
astilbe
asto
aston
astrachan
astragalus
astrid
astrofyzikar
astrologa
astronawt
astronom
astronomija
astronomiska
astronomiske
astronomiski
asty
asu
asuncio
asy
at
ata
atatu
atd
ate
atej
atentac
atentat
atentata
atentatnik
athanasius
athen
atk
atka
atki
atko
atkom
atkow
atku
atlantik
atlantikom
atlantiskeho
atlantiski
atlantiskim
atlas
atnje
atom
atoma
atomow
atomoweje
atomowy
atomy
atow
atrata
atributa
atributy
atriplex
atropa
atskeho
atstwo
atu
aty
au
aubl
auch
auct
aucuparia
audio
audrey
aue
auerbach
auf
aufbau
aufkla
aufl
auflage
augsburg
august
augusta
auguste
augustin
augusto
augustus
augustusburg
aurea
aureum
auriculata
aurita
aus
ausbau
auschwitz
ausfu
ausgabe
ausgegeben
austin
australia
australian
australis
austriaca
austriacum
auswahl
aut
auto
autocollapse
automatic
av
ava
avellana
avena
avignon
avium
aw
awa
award
awarsce
awdiskeje
awgusc
awgust
awgusta
awgustom
awje
awka
awowe
awowych
awskeho
awstralija
awstralije
awstraliji
awstralska
awstralskej
awstralskeje
awstralski
awstralsko
awstric
awstriska
awstriskej
awstriskeje
awstriski
awstrisko
awstrisku
awta
awtach
awto
awtobiograf
awtodro
awtomatisce
awtomatiske
awtomobilowy
awtonomiju
awtonomna
awtonomne
awtonomneho
awtonomnej
awtonomneje
awtonomny
awtonomnym
awtor
awtora
awtorach
awtorje
awtorka
awtorojo
awtorow
awtow
awtowa
awtowych
awy
axel
axillaris
ayers
az
aza
azec
azerbaijan
azerbajdz
azes
azija
azije
aziji
aziju
aziska
aziski
aziskim
aziz
aznavour
azow
azowskeho
azowskim
azu
ał
ała
ało
ałzata
ałzate
ałzojc
ałzojte
ałzowe
ałzy
b
ba
baader
bab
baba
babel
babin
babis
baby
babydus
babylon
babylonica
bac
baccata
bach
back
background
baczyn
bad
baden
badenska
badenskeje
badenski
badensko
badiski
baerbock
baerenstamma
bagaps
bagen
bahai
bahia
bahna
bahnach
bahnhof
bahno
bahnowa
bahnowy
bahnowych
bahorowa
bahrain
bahro
bai
bailey
baill
baja
bajka
bajkalskeho
bajki
bajkow
baker
bakov
bakterije
baku
bakuwa
baldwin
balearach
baletowa
baletowy
balkan
balkanabata
balkanje
balkanskej
balkanskeje
balkanskich
balkarskej
balko
ball
ballade
ballota
balsaminaceae
balsaminowe
balthasar
baltikumje
baltiske
baltiskeho
baltiski
baltiskich
baltiskim
bamberg
bamz
ban
banana
banc
bance
band
bandera
bandleader
banecy
banglades
banic
banja
banjowc
banjowcowe
banjowcowych
bank
banka
banki
bankowki
bankownik
bankowy
banks
banku
bantami
bantoid
bantu
bantujo
bantuske
bantuskich
baptiste
bar
barba
barbach
barbados
barbara
barbaraea
barbarossa
barbic
barbje
barbjene
barbjenje
barbjerska
barbjerski
barbne
barbow
barbowe
barbowy
barbu
barbuda
barby
barc
barcelona
barentsoweho
bariki
barker
barmen
barmowka
barnaula
barneby
barney
baroka
barokna
barokny
barokowy
baron
barre
barrett
barry
bars
bart
barta
barth
barthe
bartholoma
bartko
bartl
bartom
barton
bartsch
bartska
bartskej
bartskeje
baruch
baruth
bas
base
baseballowy
based
basel
baselitz
basen
basilicum
basionym
basist
basketballowc
baskis
basni
basnica
basnik
basnika
basniske
basnistwa
basnje
basnjerka
basnjow
bassia
bastard
batista
battista
bau
baudouin
bauer
baum
baumann
bausch
bautzen
bautzener
baworski
baxter
bay
bayerischer
bayern
bayerska
bayerskeho
bayerskej
bayerskeje
bayerski
bayerskim
bayreuth
baz
baza
bazalna
baze
bazlik
bazowa
bazowe
bazowy
bazowych
bazu
bazuja
bazuje
bazy
bałcar
bałdrijan
bałdrijanowe
bałdrijanowych
bb
bbc
bben
bc
bchen
bd
be
beach
beast
beat
beata
beate
beatles
beatrice
beatrix
beaumont
bebel
bec
bechtle
beck
becker
beckmannia
bedeutung
bedr
bee
beeskow
beethoven
begin
begonia
begoniaceae
bei
beim
beirdd
beispiel
beitra
beitrag
bejmak
bel
bela
bele
belgern
belgiska
belgiskeho
belgiskej
belgiskeje
belgiski
belize
bell
bella
belladonna
bellen
beln
belo
ben
bena
benada
bender
benedict
benedikt
benedikta
benes
benetice
benjamin
bennett
benno
benny
beno
benoi
benth
benue
ber
berberidaceae
berberis
berberske
bercht
berddef
bereitgestellt
berg
bergan
bergbaubedingter
bergen
bergenia
bergenija
berger
bergerac
bergman
bericht
beringoweho
beringowy
beringowym
berlin
berlina
berliner
berlinje
berlinom
berlinska
berlinskeho
berlinskej
berlinskeje
berlinski
berlinskim
bermuda
bern
bernard
bernardo
bernau
bernd
bernhard
bernice
bernstein
berry
bersetzt
bert
berta
berthold
bertolonii
bertolt
bertram
bertrand
beru
beschra
beschreibung
besonderer
bessarabska
best
beste
bestimmt
bestimmungsbuch
beta
bethmann
bethune
betonica
bettel
bettina
betty
betula
betulaceae
between
bevo
bewohnter
bey
beyond
bezkow
bg
bgc
bgia
bhutan
bi
biatlet
biatletka
biała
białystok
białystoka
białystoku
biblija
biblije
bibliju
bibliograf
bibliografija
bibliografije
bibliografiji
bibliographie
bibliotece
biblioteka
bibliotekar
biblioteki
biblioteku
bic
biden
bidens
bieb
biedenkopf
bielefeld
bienen
biflora
bifolia
big
bignoniaceae
bijadło
bikpela
bild
bildatlas
bilder
bildung
bilingual
bill
billy
bilong
bimbawka
bimucronata
bin
bing
bingen
bingenje
biochemikar
biodiversitylibrary
biografie
biografija
biografije
biografiji
biografiski
biographie
biolib
biologa
biologie
biologiezentrum
biologija
biologischen
biosferoweho
biosferowy
bird
birke
birmingham
bis
biskop
biskopa
biskopic
biskopicy
biskopske
biskopstwa
biskopstwo
bisky
bislams
bismarck
bissau
bitte
bitterfeld
bitwa
bitwis
bitwje
bitwu
bitwy
bixa
bjar
bjarnat
bjarnata
bjars
bje
bjedrich
bjedricha
bjedrichom
bjelaja
bjelgorod
bjelyj
bjen
bjenc
bjermich
bjero
bjerwałdsku
bjesada
bjesady
bjeta
bjetu
bjety
bjez
bjezdz
bjeze
bjezkonfesionelna
bjezkonfesionelny
bjezposre
bjezstras
bjezstronski
bjeztoho
bjezunc
bjezwokrjesne
bjezwuwzac
bjezłopjenc
bjezłopjenowy
bjo
bl
bla
black
blackstonia
blagowes
blahoslav
blak
blakate
blake
blanc
blanche
blanco
blaschke
blaue
blaz
ble
blec
bletilla
blica
blick
blida
blidar
blidarski
blido
blidz
blind
blis
bliska
bliskeho
bliskej
bliskeje
bliski
bliskich
bliskim
blisko
bliskosc
bliz
blok
bloka
bloku
blood
bloom
blu
blue
blues
bluesowa
bluesowy
blume
blumen
blun
blus
blut
blv
blysmus
bms
bn
bna
bne
bneho
bnej
bneje
bner
bni
bnica
bnicow
bnicy
bnik
bnika
bnikach
bniki
bnikow
bnitz
bnje
bnosc
bnowe
bnu
bny
bnych
bnym
bo
bob
bobby
bobo
bobolc
bobolce
bobolcy
bobos
bobowy
bobr
bobra
bochum
bodamski
bodo
body
bodyclass
bog
bogatynia
bogna
boguchwał
bogume
bogumił
boguwe
boha
bohac
bohachwał
bohata
bohate
bohatej
bohaty
bohatych
bohemica
bohot
bohota
bohotska
bohotskeje
bohotskim
bohowka
bohu
bohuchwał
bohuchwała
bohuchwałom
bohume
bohumila
bohumił
bohuslav
bohuwe
bohuz
boise
boiss
boissier
boja
boju
bok
boka
bokach
bokej
boki
bokomaj
boku
bol
bolborc
bolborcach
bolborcy
bolboschoenus
bolesław
boli
boliwiska
boliwiskej
boliwiskeje
boliwiski
bologna
bolosc
bols
bombardowanju
bombus
bomby
bon
bonaparte
bonn
bonnie
bonpl
bonus
boogie
book
bookmarklet
books
bor
boraginaceae
borago
boranecy
border
borealis
borg
boris
borisa
borisow
borisowic
borkh
born
borna
borne
borneo
bornitz
borny
bors
bos
bosc
bosna
bosnic
bosnis
bosniska
bosniskej
bosniskeje
bosniski
bosnisko
bosporus
boston
bot
botanica
botanical
botanicky
botanik
botanika
botanikar
botaniske
botany
both
bothriochloa
botryoid
botrys
botswana
botswany
bottom
bougainvillea
bourbon
bourbona
boutros
bow
bowa
bowac
bowarja
bowas
bowe
boweje
bowie
bownik
box
boxstyle
boy
boyd
boyle
boz
bozanka
bozowc
bołhars
bołharsce
bołharska
bołharskej
bołharskeje
bołharski
br
bra
brac
brachypodium
brad
bradl
bradley
bramborskeho
brand
brandenburg
brandkraut
brandon
brandt
branibor
braniborska
braniborske
braniborskeho
braniborskej
braniborskeje
braniborski
braniborskich
braniborskim
braniborsku
brankac
bras
brasicaceae
brasil
brassica
brassicaceae
bratisława
bratisławje
bratr
bratra
bratrom
bratrow
bratrowc
bratrowska
bratrowskeje
bratrowstwa
braun
braut
brazilc
brazilska
brazilskej
brazilskeje
brazilski
brazilskim
brazzaville
bre
brecht
breisgau
breiten
breitengrad
bremen
bremerhaven
brendler
brentano
brest
bresta
brestskej
bretons
brian
bridge
bridges
bridson
briefe
brien
briesen
brigada
brigadnicy
brigadnik
brigadnikow
brigadow
brigadowanje
brigadu
brigady
brigitte
brit
britain
britaniska
britaniskej
britaniskeje
britannica
brithenig
british
britiska
britiske
britiskeho
britiskej
britiskeje
britiski
britiskich
britiskim
britisko
britta
britton
brjansk
brjazyna
brjazynje
brjo
brjoha
brjohach
brjohom
brjohomaj
brjohowa
brjohu
brjoze
brjuch
brjuchata
brna
brnje
brno
bro
brockhaus
brod
broda
brodac
brodawa
brody
brodz
brojc
brojer
bromeliaceae
bromus
bronis
bronisław
bronja
bronjo
bronzowe
bronzoweje
brooks
bros
brothers
browa
brown
browning
browser
broz
bru
bruce
bruk
bruki
brukow
bruna
brune
brunei
brunica
brunicowa
brunicowe
brunicoweho
brunicowej
brunicoweje
brunicowu
brunicowy
brunicowych
brunicowym
brunicu
brunicy
brunje
brunner
bruno
brunoc
brunojte
bruns
bruny
brusk
brusy
bruyns
bryl
bryonia
brzeg
brzeski
brzez
bs
btu
bu
bubonar
buc
buch
bucharskej
buchary
buche
buchgesellschaft
buchholz
buchu
buck
budapesc
budapest
budar
budarja
budarjec
budarjowa
buddleja
bude
budestec
budestecach
budestecy
budissin
budissinensis
budu
budys
budyska
budyske
budyskeho
budyskej
budyskeje
budyskemu
budyski
budyskich
budyskim
budysku
budz
buenos
bug
buj
buje
buk
buka
bukaresc
bukec
bukecach
bukecy
bukojna
bukojnje
bukojny
bukow
bukowc
bukowe
bukowina
bukowinje
bukowiny
bukowka
bukowych
buksowc
bukwica
bukwicy
bulank
bulbi
bulbosus
bull
bulletin
bullock
buna
bundesarchiv
bundesautobahn
bundesstraße
bunge
bur
bura
burda
bureau
burg
burja
burkart
burke
burkina
burma
burnett
burns
burow
bursa
burseraceae
burska
burske
burskeho
burskeje
burski
burskich
burskim
burton
burundi
burundija
bus
busch
bush
business
but
butkevic
butler
butr
butterfly
buxaceae
buxus
by
byc
bycantiniski
bychu
bydgoszcz
bydla
bydlachu
bydlenja
bydlenje
bydlenjemi
bydlenske
bydlenski
bydlenskich
bydles
bydli
bydlis
bydliło
byli
byrd
byrgarska
byrgarske
byrgarskej
byrgarskeje
byrgarskim
byrgle
byrnjez
byron
bys
bystrica
bytosc
bywa
bywaja
bywas
byws
był
była
było
bz
bzez
bzw
błaz
bło
błohas
błys
błysknica
c
ca
caballus
cach
cachor
cachorowe
cachorowowych
cachorowych
cactaceae
caerulea
caeruleum
caesia
cak
calamagrostis
calamintha
calamus
calceolaria
cale
calendar
calendula
cali
calibrachoa
california
californica
californicum
calliandra
calling
calliteara
callitrichaceae
callitriche
caltha
calvin
calycanthus
calystegia
cambridge
camelina
camellia
cameron
camillo
campanula
campanulaceae
campbell
campestre
campestris
camphora
camponotus
can
canach
canada
canadensis
canariensis
canberra
candolle
canescens
canina
canis
cannabaceae
cannabis
canned
cannon
canta
canum
cany
capensis
capillaris
capitata
capitatum
capitol
capparaceae
caprea
capri
caprifoliaceae
capsella
capsicum
captain
car
cara
caracas
caras
cardamine
cardamines
cardaria
carex
carey
carica
caricaceae
carja
carl
carla
carlo
carlos
carmen
carnea
carolina
caroline
carolinum
caros
carota
carpinus
carpzov
carr
carrie
carson
carstens
carstwa
carstwo
carstwu
carter
carthamus
cartoonist
caru
carum
caryophyllaceae
caryophyllales
cas
casa
case
cash
casnik
casnika
caspar
caspari
cass
cassandra
cassia
cassidy
cassini
castanea
castanopsis
castro
cat
catabrosa
catalana
catalpa
categoria
category
cathedral
catherine
catholic
cav
całtki
całtkowe
cc
cd
cdot
cdu
ce
cec
cecil
cedra
cedrela
cedrelowc
cedrus
cela
celastraceae
celastrales
cele
celi
cellist
cellistka
cellpadding
cellspacing
celsius
celu
cem
cembalist
cenic
cenit
censusa
centaurea
centaurium
center
centimetrow
centra
central
centralblatt
centralna
centralne
centralneho
centralnej
centralneje
centralnemu
centralnu
centralny
centralnych
centralnym
centro
centrum
centruma
centrumje
centrumom
century
cephalanthera
cerasifera
cerastium
cerasus
ceratocephala
ceratonia
ceratophyllum
cerceus
cerna
cersk
cesare
cese
cespitosa
cespitosum
ch
cha
chabada
chabar
chaenomeles
chalcha
cham
chamaedrys
chamaesyce
chamberlain
chamerion
chamisso
chandler
chanecy
chang
chanje
channel
chantow
chanty
chaos
chapm
char
charakter
charaktera
charakteristiske
charakteristiski
charkiwa
charkiwskej
charles
charlesa
charlie
charlotte
charly
charts
chas
chasow
chata
chawka
chc
chce
chcedz
chces
chcu
chcyc
chcychu
chcys
che
check
checklist
chelidonium
chelna
chelno
chemija
chemije
chemiju
chemikar
chemiska
chemiske
chemiski
chemiskich
chemnitz
chen
cheng
chenopodiaceae
chenopodium
cher
cherry
chersonskej
chester
chev
chi
chicago
child
chile
chilska
chilskej
chilskeje
chilski
chimaphila
chin
china
chinense
chinensis
chinese
chinje
chins
chinsce
chinska
chinske
chinskej
chinskeje
chinski
chinskich
chinsku
chinu
chiny
chirac
chirurg
chle
chlebnikow
chlorantha
chlorofyl
chloroplast
chlovice
chlumec
chmelnyckeho
chmelnyckyj
chmjel
cho
choc
chodat
chodz
choi
chojnan
chomutov
choreograf
choreografka
chorhoj
chorhojc
chorhoje
chorjecy
chorobna
chorosc
chorowni
chorownja
chortnica
chorwac
chorwat
chorwatow
chorwats
chorwatsce
chorwatska
chorwatskeho
chorwatskej
chorwatskeje
chorwatski
chorwatsko
chory
chorych
chos
chow
chowac
chowanc
chowanja
chowanje
chowanju
chowanske
chowar
chowarka
chowas
chowc
chowcy
chołm
chołmc
chołmca
chołmcu
chołmje
chr
chrapow
chre
chribjec
chris
christa
christen
christensen
christian
christiana
christiane
christie
christina
christine
christmas
christoph
christopher
chrjebi
chrjebja
chro
chromozomow
chromozomowa
chronice
chronik
chronikar
chroniki
chronist
chronologija
chronologiji
chrustalnyj
chrympawa
chrys
chrysantha
chrysosplenium
chrysta
chrystusa
chrystusu
chrza
chse
chsische
chsischen
chsischer
chsisches
chte
chto
chu
chuang
chuck
chudobka
chudych
chudz
chuje
chun
church
churchill
chwac
chwalba
chwilu
chło
ci
cia
cichorium
cie
cil
cile
ciliata
cimicifuga
cin
cindy
cinerea
cinnamomum
cio
ciolos
circaea
cistaceae
cistercienski
citakan
citat
cite
cithakan
cities
citrona
citronowa
citrus
citrusowy
city
ciutat
civitas
civitates
ciwilizacije
ck
cka
cke
ckel
cken
ckensteina
cker
ckler
ckner
ckowy
cksichtigung
cla
clapton
clara
clarence
clark
clarke
clarkia
class
classification
claude
claudia
claudio
claudius
claus
clauß
clav
clava
claytonia
cle
clear
clematis
clemens
cleopatra
clethra
clethraceae
clifford
clinopodium
clinton
clive
clowan
club
cm
cmbox
cna
cnarski
cnarstwa
cnarstwje
cnarstwo
cnarstwom
cnarstwoweho
cnarstwowy
cnarstwu
cne
cneho
cnis
cnje
cny
cnych
co
coccinea
cochlearia
cocker
code
codes
codiakalnej
coeli
coeloglossum
coffea
cohen
cokor
cokora
cokorowa
cokow
colchicum
colditz
cole
colias
colin
collapse
collapsed
collapsible
collection
college
collina
collins
color
colorado
colspan
columbia
column
com
come
comedian
comicowy
commelina
commelinaceae
committee
common
commons
commonscat
commonwealth
commonwealtha
communications
communis
comosa
company
completes
compressus
compton
con
conach
conakry
conan
congress
connie
conow
conrad
cons
consolida
constance
constant
content
continental
control
convallaria
convallariaceae
convar
convolvulaceae
convolvulus
cony
cook
coologa
cooper
coordinate
coordinatelink
coordinaterr
coordinates
corchorus
cordata
cordifolia
core
corey
corinna
corispermum
cork
cornaceae
cornelia
cornelius
cornell
corniculatus
cornus
cornuta
coronaria
coronilla
coronopus
corpus
corydalis
coryloideae
corylus
cos
costa
cotinus
cotoneaster
cottbus
coult
country
countryjowa
countryjowy
county
couroupita
courtenay
coville
cow
cowanja
cowanje
cowar
cowarjow
cowas
cownik
cowniki
cownikom
cowy
cox
craig
crane
crantz
crassula
crassulaceae
crataegus
crawford
crazy
cream
crenata
creole
cres
crescent
cretica
crispa
cristina
croatia
crocus
cromwell
cross
cruciata
crusio
cruz
crvenkovski
cs
css
csu
ctor
cu
cucullata
cucumis
cucurbita
cucurbitaceae
cucurbitales
cuje
cultural
culture
cum
cupressaceae
curac
curassavicum
current
curry
curt
curtis
cus
custa
cut
cutter
cuza
cuze
cuzore
cuzy
cuzych
cvikov
cy
cybla
cyblic
cycaki
cycakow
cycas
cycawka
cycawkowe
cycawkowych
cyclamen
cyfry
cyhelc
cyhelnicy
cyle
cylindriske
cylindriskej
cylindriski
cymbalaria
cympl
cyna
cynosurus
cyperaceae
cypernska
cypernskeje
cypernski
cyperus
cypresa
cypresowe
cypresowych
cypripedium
cyrano
cyril
cyrila
cyrkej
cyrkwi
cyrkwic
cyrkwina
cyrkwine
cyrkwinohudz
cyrkwinsce
cyrkwinska
cyrkwinske
cyrkwinskeho
cyrkwinskej
cyrkwinskeje
cyrkwinski
cyrkwinskich
cyrkwinskim
cyrkwinsku
cyrkwjam
cyrkwje
cyrkwjow
cyrkwju
cyroba
cyrobu
cyroby
cytisus
cyz
cyła
cyłe
cyłeho
cyłej
cyłeje
cyłk
cyłkowna
cyłkowne
cyłkowneho
cyłkownej
cyłkowneje
cyłkownje
cyłkowny
cyłkownych
cyłku
cyłokromne
cyłokromowe
cyłole
cyłone
cyłu
cyły
cyłym
cz
cze
czerniewice
czesław
czyn
cław
cławja
cławju
d
da
dabit
dabo
dabrec
dac
dach
dachu
dacian
dactylis
dadz
dafu
dag
dagestan
dagestanskich
dagmar
dahurica
dai
daj
daja
dal
dalai
dale
dalej
daleposre
dali
dalic
dalmaciska
dalmaciskej
dalmaciskeje
dalmatis
dalmatisce
daloka
dalokeje
dalokim
daloko
dalokodro
dalokosc
dals
dalwica
dam
dami
dan
dana
danc
dance
dandy
dane
dangerous
daniel
daniela
dann
danny
dans
dansce
danska
danskej
danskeje
danski
dante
daphne
dar
darbni
darbnja
dari
daric
darin
darina
darja
dark
darko
darmstadt
darnley
darow
darryl
darske
darskeho
darskeje
darstellung
dary
das
dass
data
database
dataja
dataje
dataji
datajow
datajowe
datajowy
date
dateje
datiw
datiwa
datlowc
datow
datowa
datowanje
datowe
datowej
datowu
datum
datuma
datumje
datumom
daty
daucus
dave
david
davis
dawa
dawid
dawida
dawki
dawson
day
daz
dazu
daß
dał
db
dc
dchen
dd
ddddff
ddorfif
ddr
de
dean
death
debora
debricy
debrikecy
debsecy
dec
december
decembra
decembrje
decembru
decimalne
decimalnje
decne
decumbens
default
deficit
definicija
definicije
definiciji
definiciju
definitny
definowac
definowali
definowana
definowane
definowanje
definowany
definuja
definuje
deho
dej
dejka
dek
dekan
deker
deklinacija
deklinacije
deklinaciji
deklinaciju
dekoratiwne
del
delan
delanach
delany
delavayi
delaware
delc
dele
delegacija
deleka
delen
delenk
delfiny
delic
della
delni
delnich
delnim
delnja
delnje
delnjeho
delnjej
delnjeje
delnjone
delnjos
delnjoserbs
delnjoserbsce
delnjoserbska
delnjoserbske
delnjoserbskeho
delnjoserbskej
delnjoserbskeje
delnjoserbski
delnjoserbskich
delnjoserbsku
delnjołuz
delnju
delphinium
delta
deltu
delty
dem
demjany
demograf
demokrat
demokratisce
demokratiska
demokratiske
demokratiskej
demokratiskeje
demokratiski
demokratow
demonstratiwne
den
denis
denn
dennis
dentaria
dentata
der
derbno
derby
deren
dereneczna
derenek
deret
derje
des
deschampsia
descr
description
desf
design
designer
designerka
desmond
desr
dessau
desv
det
detail
detaile
detect
detlef
detonsa
detroit
deus
deuterium
deutsch
deutsche
deutschen
deutscher
deutsches
deutschland
deutschlands
deutzia
dewastacija
dewaste
dewcija
deyzidoxs
dezember
dezimalgrad
df
di
dia
diagram
diakon
diakonom
dialekc
dialekt
dialekta
dialektach
dialektny
dialektow
dialekttexte
dialekty
diana
diane
dianthus
diarra
diasporje
dicentra
dich
dichasium
dichazij
dichotoma
dichtung
dick
dickinson
dictamnus
dictionary
die
diecezy
diego
diels
dierks
diervillaceae
dies
diese
diesem
dieser
dieter
dietmar
dietrich
dietz
diferenca
diferencu
diferency
diftong
diftongi
diftongow
diftongy
diger
digitalis
digitalizat
digitalizowane
digitaria
digitata
digraf
diktator
diktatury
dillenii
dim
diminutiw
din
dinger
dins
dio
dioica
dioksid
dioscorea
diospyros
diplom
diplomat
diplomowana
diplomowany
diplomowy
diplotaxis
diplotricha
dipsacaceae
dipsacoideae
dipsacus
diq
direktna
direktne
direktnje
direktny
direktor
direktora
direktorka
direktorom
dirigent
dirk
dirty
disciplina
discolor
disertacija
disertaciju
disident
diskografija
diskusija
diskusije
diskusijne
diskusijnej
diskusijnych
diskutowane
diskutuj
disney
dispela
display
dispoziciji
distans
disticha
distribucija
districts
distrikta
dith
ditz
divaricatum
diversification
diversity
divis
dixie
dj
djokovic
dk
dka
dkach
dkami
dkar
dke
dkej
dki
dkich
dko
dkojtych
dkom
dkow
dkowanja
dkowanje
dkp
dku
dkwusle
dla
dlanska
dlanske
dlanskej
dlanskich
dlanskimi
dle
dlicher
dlina
dlow
dm
dma
dmitrij
dms
dna
dnac
dnaty
dne
dneho
dnej
dneje
dni
dnica
dnich
dnicu
dnicy
dnik
dnika
dniki
dnikom
dnikow
dnim
dnimi
dnipra
dnipro
dnipropetrowskej
dnis
dnistwa
dnistwje
dnistwo
dnja
dnjach
dnjankowe
dnjankowych
dnje
dnjeho
dnjej
dnjeje
dnjemi
dnjepr
dnjepra
dnjeprje
dnjestr
dnjestra
dnjestrje
dnjom
dnjow
dnju
dno
dnoc
dnosc
dnota
dnotne
dnotny
dnotow
dnotu
dnoty
dnoweje
dnu
dny
dnych
dnym
do
doba
doberschu
dobje
dobra
dobranecy
dobre
dobreho
dobro
dobroc
dobros
dobrowo
dobru
dobruckeho
dobrucky
dobrus
dobry
dobrych
dobrynje
dobu
dobudz
doby
dobyc
dobychu
dobywanja
dobywanje
doc
docent
docentka
docpe
docyła
doda
dodac
dodawa
dodawk
dode
dodz
dog
dohlad
dohladowar
dohna
dohromady
dojc
doje
dojta
dojte
dojty
dok
dokelz
doko
doktor
doktora
dokument
dokumentach
dokumentacija
dokumentacije
dokumentaciji
dokumentaciju
dokumentarny
dokumentation
dokumentow
dokumenty
dokładna
dokładne
dokładnis
dokładnje
dokładnosc
dokładny
dokłady
dokładz
dole
dolens
dolila
dolina
dolinje
dolinu
doliny
dolna
dolni
dolnoserbskeje
dolnoserbski
dolnoserbskich
dolny
dolores
dom
doma
domach
domas
dombois
domestica
domin
domingo
domini
dominic
dominik
dominika
dominikanska
dominikanski
domizna
domizniski
domiznje
domiznowe
domiznu
domizny
domja
domjaca
domjace
domjaceje
domjacnosc
domjacy
domjacym
domje
domoj
domom
domoro
domosc
domostna
domostne
domostneho
domostneje
domostnica
domostnicy
domostnik
domostnje
domostny
domostnych
domostnym
domostnymaj
domow
domowe
domowina
domowinjan
domowinje
domowinska
domowinskeje
domowinski
domowinu
domowiny
doms
domske
domu
domy
don
dona
donald
donat
donatec
donec
doniz
donje
donjebjeswzac
donjeck
donjecka
donjeckej
donjeckeje
donn
donnerhak
donom
donovan
doors
dopisowar
dopisowas
dopokaz
dopokazac
dopokazane
dopokazy
dopomina
dopomni
dopomnic
dopomnjec
dopomnjenki
doporuc
doppeltraube
dopre
dopus
dora
dorf
dorfkirche
doria
doris
dorjecy
dornic
dornica
doro
dorosc
dorost
dorosta
dorothea
dorothy
dortmund
dos
dosaha
dosahuja
dosahuje
dosc
dosko
dospołna
dospołne
dospołni
dospołnje
dospołny
dospołnym
dotal
dotalne
dotalneho
dotalny
dotalnych
dotwarjenja
double
douglas
douglasija
dow
dowac
dowaca
dowace
dowaceho
dowacej
dowaceju
dowachu
dowacy
dowacych
dowacym
dowanja
dowanje
dowas
dowało
dowe
dowje
dowjedz
down
downie
downs
downtown
dowola
dowolene
dowoleny
dowoli
dowolnosc
doyle
doz
dozady
dozrawja
doł
doła
dołach
dołha
dołhe
dołheho
dołhej
dołheje
dołhi
dołhich
dołhim
dołhimi
dołho
dołhoc
dołhojc
dołhojte
dołhole
dołhosc
dołhostnik
dołhostniki
dołhostołpikate
dołhostołpikowe
dołhota
dołhotu
dołhoty
dołhoz
dołhu
dołki
doły
dr
dra
draba
drac
dracaena
dragan
drahos
drake
drakowe
drakowych
drama
dramatikar
dramatiki
dramaturg
dramaturgowka
dramy
drapalc
drapalcowe
drapalcowych
drapata
drapaty
drasc
drasta
drastu
drasty
drastynos
drawidske
dre
dream
drebach
drei
drej
dren
dresden
drew
drewitz
dreyer
drina
drino
dripatka
drjanski
drje
drjebiznje
drjebiznowych
drjec
drjen
drjewa
drjewjana
drjewjane
drjewjans
drjewjany
drjewo
drjez
drjowk
drjowka
dro
drobna
drobnostki
drobnus
drobny
droby
droc
drofijałkojte
drogi
drohi
drojte
drosera
droseraceae
drowioletna
drowioletne
droz
drozelena
drozelene
drozeleny
dru
drude
druge
druha
druhdy
druhdz
druhe
druheho
druhej
druheje
druhemu
druhi
druhich
druhim
druhimi
druhu
drummondii
drustwownik
druz
druzy
dry
drych
drym
ds
dsb
dska
dskeho
dskej
dski
dskim
dstwa
dstwje
dstwo
dstwom
dstwow
dstwu
dt
dten
dtirol
du
dual
duala
duarte
dub
dubach
dubc
dubia
dubic
dubina
dubium
dubja
dubju
dublin
dublinje
dubo
dubow
dubowych
dubrawa
dubrawje
dubrawka
dubrawu
dubrawy
dubrjenske
dubrovnik
dubrowka
duby
duc
duch
duchcov
duchesnea
duchon
duchowne
duchowneho
duchowni
duchownstwa
duchowny
duchownych
duchownym
duchownymi
duchu
ducy
duda
dudek
dudławe
duisburg
duja
dujadła
dujadło
duje
dujo
duke
dulcis
dule
dulig
dulkata
dulki
dum
dumas
dumort
dunaj
dunaja
dunajom
dunaju
duncan
dunn
dupa
duran
durch
durinska
durinskeho
durinskej
durinskeje
durinski
durinskim
durje
dus
dusyk
dutch
duz
dv
dvd
dve
dwacec
dwaj
dwanac
dwanaty
dwe
dweju
dwina
dwiny
dwo
dwojorjadkata
dwora
dworje
dworom
dwubarbne
dwudomna
dwudomne
dwudomnje
dwudz
dwule
dwure
dwusplaz
dwustołpowe
dy
dychnic
dyer
dyk
dylan
dym
dynastije
dypk
dypka
dypkaj
dypkami
dypkate
dypki
dypkom
dypkomaj
dypkow
dypkowane
dypku
dyrbi
dyrbis
dyrbja
dyrbjachu
dyrbjała
dyrbjes
dyrdomdejnik
dyrlich
dz
dze
dzerz
dzierz
dztwo
e
ea
ear
earl
early
earring
earth
east
eastern
ebe
eben
ebenaceae
ebenfalls
ebenowe
eberhard
ebersbach
eberswalde
ebert
ebla
ebstein
ebuskeho
ebuskej
ebuskeje
ebuski
ebuskim
ebuz
ebuza
ebuzom
ebuzu
ebywas
ec
ecach
ecam
ecami
ech
echa
echach
echadz
echami
echi
echinochloa
echinops
echium
echo
echod
echoda
echodne
echodny
echodow
echodz
echow
echte
echu
eckardt
eckart
ecke
eckhard
eckige
eckl
eco
ecowas
ecozelene
ecozeleny
ecseri
ecuador
ecy
ed
eda
edac
edachu
edan
edate
edc
edchadnicy
edchadnik
edchadny
edchadnym
edchadz
eddie
edews
edewzac
edgar
edi
edicions
edinburgh
edit
edith
edition
editor
edkraju
edlez
edme
edmjena
edmjeno
edmjet
edmjety
edmond
edmund
ednos
edpomorska
edpomorskej
edpomorskeje
edpołoz
edre
edrjenc
eds
edstaja
edstajeja
edstajenja
edstajenje
edstajenju
edstaji
edstajichu
edstejer
edstejic
edsyda
edsydka
edsydku
edsydow
edsydstwa
edsydstwo
edsydu
edsydy
edsydz
edsłowo
edu
eduard
eduarda
eduardo
edulis
edvard
edward
edwards
edwidz
edwin
edwjec
edz
edznamjes
edło
edłoga
edłoha
edłohach
edłohami
edłohi
edłohow
edłohowe
edłohu
edłopjenje
edłoze
ee
ef
efedra
efredaktor
efredaktorka
egon
egyptologa
egyptowska
egyptowskej
egyptowskeje
egyptowski
ehlad
ehnje
ehnjene
ehnjenje
ehnjenju
eho
ehodla
ehoz
ehrenb
ehrh
ei
eibau
eibenstock
eichler
eigen
eilen
ein
einbindung
eine
einem
einen
einer
eines
einfu
eingabe
eingebunden
eingesetzt
einige
einja
einmal
einsiedel
einstein
einteilung
eintrag
einzelnachweis
eis
eisenach
eisenacha
eisenhu
eisenreich
eisler
ej
eja
ejara
ejczuka
eje
ejkow
ejo
eju
ek
ekasanc
ekc
ekecy
ekkehard
eknyc
ekonom
ekonomiske
ekroc
eksaktnje
eksamen
ekscelentne
ekscelentny
eksemplarow
eksilu
eksistencu
eksistency
eksistowace
eksistowachu
eksistowas
eksistuja
eksistuje
eksistujetej
eksperta
eksplicitnje
eksponaty
ekspresionizma
eksterne
eksterny
ekue
ekupc
ekupcy
ekupski
ekwador
ekwadorski
ekwator
ekwatora
ekwatorje
ekwatorom
ekwatorowej
ekwiwalenty
el
ela
elach
elaeagnaceae
elaeagnus
elak
elaka
elake
elakich
elakimi
elako
elakokło
elakore
elakoris
elakorosc
elakorych
elakorym
elakovsky
elakołopjenaty
elaku
elam
elata
elatinaceae
elatine
elatior
elatius
elbe
elbija
elbrus
elc
elchow
ele
eleanor
elegans
elej
elektronegatiwitu
elektronow
elektrony
element
elementa
elementami
elementow
elementy
elemi
elen
elena
eleny
eleocharis
eler
elerka
eletwarc
elevation
eleza
eleznica
eleznicu
eleznicy
elezniska
elezniske
elezniskej
elezniskeje
elezniski
elezniskich
elezniskim
eleznisku
elezoweje
elfriede
eli
elias
elic
elikowska
eliot
elipsoid
elipsoida
elipsoidz
eliptiske
elis
elisabeth
elisty
elity
eliw
eliwa
eliwje
elizabeth
eljabinsk
eljabinska
eljabinskej
eljo
elka
elke
elki
ella
elle
ellen
elliott
ellis
elne
elnica
elnik
elnja
elnjowych
elodea
elom
elongata
elow
elowe
els
elsaskej
elsce
else
elska
elske
elskeho
elskej
elskeje
elskeju
elski
elskich
elskim
elsko
elsku
elsner
elster
elsterberg
elstwa
elstwje
elstwo
elu
elytrigia
em
ema
emanuel
emanuela
ematisce
eme
ement
emeritowany
emerson
emerus
emi
emil
emilio
emily
emje
emjen
emjenowa
emjenowachu
emjenowana
emjenowane
emjenowanja
emjenowanje
emjerc
emjerca
emjercach
emjercy
emma
emmanuel
emmy
empire
empty
emr
emu
emus
emuz
emy
en
ena
enak
enas
enc
enca
enclosed
encow
encu
ency
encyclopedia
encyklopedija
encyklopedije
end
ende
endemit
enderlein
endl
endokarp
ene
eneho
enej
eneje
eneju
enemu
energije
energiju
engel
engelm
engels
engl
england
engler
english
eni
enicyn
enik
enika
eniro
eniwka
enja
enjach
enjam
enje
enjemi
enjena
enjeny
enjer
enjerstwo
enjo
enjom
enjow
enjowa
enjowe
enjoweho
enjowej
enjoweje
enjowu
enjowy
enjowych
enjowym
enju
enk
enka
enkach
enkar
enkarja
enki
enko
enkow
enku
ennio
eno
enosc
enov
enrico
enrique
ens
ensa
ensce
ensk
enska
enske
enskeho
enskej
enskeje
enski
enskich
enskim
ensko
ensku
ensnis
ensslin
enstwa
enstwo
enstwu
entomologa
entsprechenden
entspricht
entwicklung
enu
environmentalchemistry
eny
enych
enym
enymi
enzyklopa
eo
ep
epc
epca
epcu
ephedra
epilobium
epimedium
epipactis
epipogium
epipremnum
episuje
epiteton
epoda
epodac
epodobnje
epos
epołoz
epre
epros
eps
epus
epytowanja
epytowanjach
epytowanje
epytowanjow
equisetum
equus
er
era
erady
eradz
eragrostis
eranthis
erba
erben
erc
erchej
erchwica
ercy
erde
erdmann
ere
erecta
erectum
erfolgt
erga
erhard
erhardt
eric
ericaceae
ericales
erich
ericha
ericy
erik
erika
eriophorum
erja
erjac
erjam
erje
erjej
erjemi
erjes
erjo
erjom
erjow
erju
erk
erka
erkannt
erkaskej
erkasow
erkeska
erkeskej
erki
erkowe
erku
erkuble
erkubler
erkubła
erkubło
erkubłu
erlangen
ern
erna
ernej
ernest
ernestine
ernesto
erni
ernihiwa
ernihiwskej
ernik
ernika
erniku
erniwci
ernja
ernje
ernjojty
ernjow
ernjowc
ernju
ernore
ernsk
ernst
ernsta
erny
erodium
erophila
eros
erosc
erotiske
erowc
erowid
erp
erpjenka
erpjenkowe
erpjenkowych
erpjes
ers
erska
erske
erskeho
erskej
erskeje
erski
erskich
erskim
ersku
erste
erstellt
ersten
erster
erstwa
erstwe
erstwje
erstwjenis
erstwo
erstwom
erstwowe
erstwoweho
erstwowy
erstwowym
erstwu
erstwych
ertowy
eru
erubescens
eruca
erwin
erwjen
erwjena
erwjene
erwjeneho
erwjenej
erwjeneje
erwjenje
erwjenkowe
erwjenkowych
erwjeno
erwjenobruna
erwjenobrune
erwjenojc
erwjenojta
erwjenojte
erwjenojty
erwjenowioletne
erwjenu
erwjeny
erwjenych
erwjenym
erwjenymi
erysimum
erythraea
erythronium
erythroxylaceae
erythroxylum
erz
erza
es
esac
esadz
esahaja
esahuja
esahuje
esakliwe
esar
esat
esate
esatkach
esatki
esatkow
esaty
esatych
esc
esche
escobar
esculenta
esculentum
escur
escura
escuras
escurs
eseje
esejist
esiw
eska
eske
eskimo
esko
esky
esle
eslic
esmyk
esnic
esoterikar
espan
esperanto
esperantore
espyt
espyta
espytnica
espytnicy
espytnik
espytnika
espytnikow
esse
essen
esser
est
esta
estaing
estas
estawki
este
estiano
estis
estisce
estiska
estiskej
estiskeje
estiski
estne
estneho
estnohamtski
estny
estre
estrjen
estrjeni
estrjenje
estrjenju
estupne
estupnic
estupnych
esty
esunjenje
eswe
esydlencow
esydlenja
esydlenje
esydlenju
esydli
esydlic
esydlichu
et
etable
etau
etc
etej
eteriske
ethnologue
eti
etienne
etiopiska
etiopiskej
etiopiskeje
etna
etnija
etniska
etniskej
etnograf
etnografiskich
etnologa
etorhny
etorz
etow
etoz
etrus
etwa
etwara
etwari
etwarjena
etymologija
eu
eucalyptus
euge
eugen
eugene
eugenio
eukalyptowc
eule
euonymus
euphorbia
euphorbiaceae
euphrasia
euproctis
eurazija
eurazije
euraziji
euro
europa
europaea
europaeum
europaeus
europasmu
europe
europeada
europeady
european
europjanow
europje
europska
europske
europskeho
europskej
europskeje
europski
europskich
europskim
europu
europy
euroregionej
eurosidy
eurovision
ev
eva
evangelista
evans
evelyn
even
everes
everest
evic
evidence
evo
evolution
ew
ewa
ewald
ewan
ewangelij
ewangelscy
ewangelska
ewangelske
ewangelskeho
ewangelskej
ewangelskeje
ewangelski
ewangelskich
ewangelskim
ewangelsko
ewangelsku
ewaz
ewc
ewca
ewe
ewentualne
ewentualnje
ewisowace
ewisuja
ewjate
ewjaty
ewjec
ewjedz
ewjesc
ewo
ewodz
ewoz
ewozne
ewro
ewsk
ewza
ewzac
ewzachu
ewzate
ewzał
ewzała
ex
example
excelsior
exkursionsflora
explorer
extended
extinct
extra
exupe
eyckec
ez
ezdre
ezwuk
ezwuki
ezwukow
ezymuja
ełamos
ełoz
f
fa
fabaceae
fabales
faber
fabian
fabiana
fabrice
fabricius
fabrika
fabrikant
fabriki
face
fachowa
fachowe
fachowej
fachoweje
fachowy
fachowych
facto
fagaceae
fagopyrum
fagus
fajn
fake
faki
fakt
faktisce
faktor
fakulc
fakulta
fakultatiwny
fakulty
falcata
falk
falka
falkenberg
fall
falls
falowac
falowacych
fals
faluja
faluje
familie
families
family
fan
fanny
fantastischen
fantasyjowy
fara
farar
fararja
fararjec
fararjo
fararjom
fararjow
farbe
farg
farina
farje
farlowe
farn
farrell
farske
farskeho
farski
faru
fas
fasada
fasadz
fascyna
faska
faso
fattu
faust
fay
faza
fazy
faßke
fałat
fc
fdp
fe
februar
februara
februarje
fed
federacija
federacije
federaciji
federaciju
federaciski
federaciskich
federal
federation
federico
feige
fejetonist
felber
feld
felder
felidae
feliks
feliksowy
felis
felix
femininum
feministka
feniciskeho
fenomen
fenzl
fer
ferdinand
ferdinanda
ferejska
ferejski
ferenc
ferganskeho
ferganskim
fergany
ferguson
ferna
fernando
ferrari
ferreira
ferro
ferrowy
ferruginea
fest
festival
festiwal
festiwalu
festuca
feuerbach
feuerfalter
feurich
ff
ffews
ffler
fi
fica
fichte
fico
ficus
fidel
fidz
fiedler
field
fifa
figlar
figowc
figura
figury
fijałka
fijałkojte
fijałkomo
fijałkowa
fijałkowe
fijałkowych
fiktiwna
fiktiwne
filantrop
file
filiala
filialna
filiformis
filip
filipa
filipendula
filipiny
film
filma
filmach
filmje
filmografija
filmow
filmowa
filmowc
filmowe
filmoweje
filmowy
filmowych
filmpreis
filmy
filolog
filologije
filologiju
filozof
filozofije
filozofiju
filozofiskej
filozofiski
filozofka
fin
final
finale
finalu
financ
financny
financow
financowas
financy
finck
find
fine
finet
fingerkraut
fini
fink
finougriske
finougriskich
fins
finsce
finska
finskeho
finskej
finskeje
finski
finskich
finsko
fire
firefox
firma
firmy
first
fisch
fischer
fit
fitschen
fitzgerald
fjodor
fjodorow
fl
flabellata
flag
flash
flath
flava
flavescens
flavum
fleming
flensburg
fletist
fletistka
flexuosa
flickr
fließtext
fließtextkoordinate
flo
float
flockenblume
flora
floraweb
florenc
florenca
florence
flores
florian
floribunda
florida
floty
flower
flowering
flowers
floyd
flu
fluitans
flundra
fluss
fn
fo
foetida
foghat
folge
folgen
folgenden
folgt
folk
folklorny
folkowy
fonem
fonema
fonemow
fonemy
fonetika
fonologija
font
fontana
fontsize
footballowc
footballowy
for
force
ford
forest
forever
forkel
form
forma
formac
formach
formami
format
formatami
formate
formatowac
formatowanje
formatowanska
formats
formaty
formica
formje
formle
formomaj
formosa
formosissima
formow
formu
formuja
formula
formule
formulu
formy
forrest
forschungen
forssk
forst
forster
forsthaus
fort
fortschritt
fortunei
forum
foster
fota
foto
fotograf
fotografije
fotografka
fotothek
fotowa
fotowy
foundation
four
fox
fr
fra
frac
fragaria
frage
fragen
fragilis
fragment
fragrans
frajs
frakcija
frakcije
frakcijow
frakciju
frakciski
fraktur
franc
franca
france
francesco
franch
franchet
francis
francisco
franck
franco
francom
francos
francosce
francoska
francoske
francoskeho
francoskej
francoskeje
francoski
francoskich
francoskim
francosko
francosku
francoz
francozojo
frangula
frank
franka
frankfurt
frankie
frankiwsk
frankiwska
franklin
frankobrod
frankobroda
frankobrodz
frankowska
frankowskeho
frankowskeje
frankowski
frantis
franz
franziska
frau
frauen
frauendorf
frauke
fraxinus
frazy
fre
fred
freddie
freddy
frederick
free
freiberg
freiberga
freibergskej
freibergu
freiburg
freiheit
freiherr
freire
freis
freistaates
frencel
french
frencl
frencla
freund
frido
friederike
friedhelm
friedhof
friedland
friedman
friedrich
friedricha
friisk
frisch
fritillaria
fritz
frizis
frizisce
friziska
friziske
frizow
fro
from
fronc
front
fronta
fronty
fru
fruit
frunze
fruticosa
fry
fryca
fryco
fryxell
fu
fuchs
fuchsia
fuchsija
fudforum
fuen
fugach
fulda
full
fullonum
fumaria
fumariaceae
fumarioideae
fun
fundacije
fundator
fung
funguja
funguje
funk
funkcija
funkcije
funkcijemi
funkciji
funkcijow
funkciju
funkcionalnosc
funkcionar
funktion
futur
future
fyzika
fyzikar
fyzikarka
fyzikochemikar
fyziku
fyziologa
g
ga
gabata
gabriel
gabriela
gabriele
gabun
gaertn
gaetano
gagarin
gagea
gagnep
galega
galeobdolon
galeopsis
galerija
galiciska
galiciskej
galiciskeje
galilei
galileo
galium
gallagher
galli
gallis
gambija
gamble
gandhi
gape
gar
garci
gard
garden
gardos
garegin
garfield
garrett
garrigue
garten
gartendatenbank
gary
gas
gat
gatojce
gaul
gauleiter
gaulle
gawl
gay
gaz
gb
gd
gdan
gdynia
ge
gebhard
gebhardt
gebiet
gebiete
geburtstag
gedanken
gedeck
gedichte
gefa
gegen
gegenwart
geho
gel
gelanski
gelbling
gelfalter
gemeinde
gemeinden
gemeindeteil
gemeindeverzeichnis
gen
genannt
gene
genera
generacija
generacije
generacijow
general
generala
generalneho
generalny
generalnym
generation
genetika
genetikar
genista
genitiw
genitiwa
genitiwje
genitiwom
gentiana
gentianaceae
gentianella
gentianopsis
gentiloni
genua
genus
genusaj
genusu
genusy
geo
geocentriska
geoffrey
geograf
geograficzny
geograficznym
geografija
geografije
geografisce
geografiska
geografiske
geografiskeho
geografiskej
geografiskeje
geografiski
geografiskich
geografiskim
geograph
geographische
geohack
geologa
geologisce
geometrija
geometriski
geometriskim
georg
georga
george
georgea
georges
georgi
georgia
georgij
georgis
georgiska
georgiskeho
georgiskej
georgiskeje
georgiski
georgius
ger
gera
gerais
gerald
geraniaceae
geranium
gerat
gerd
gerhard
gerharda
gerhardom
german
germanica
germanist
germanistiki
germanistiku
germanistka
germanizator
germanske
germanskich
germany
germplasm
gernot
gero
gerschwitz
gersdorf
gersdorfa
gertrud
gerundet
gerundium
geschichte
geschichten
gesellschaft
gesetz
gesetzt
gesneriaceae
gesnerijowe
gesnerijowych
gespra
gestapo
gestern
gestis
get
getdate
getfullyear
getmonth
geum
gewa
gewo
gewu
gg
gh
ghana
ghanaski
gheorghe
gi
giacomo
gian
gibb
gibraltar
gibt
gif
giftpflanzen
gigantea
giganteum
gilbert
gina
gineja
gineje
gineji
ginejskim
gineju
gingawa
ginkgo
giona
giordano
giovanni
gippius
girl
giscard
gisela
gitara
gitarist
gitaristka
gitaru
giulio
giuseppe
given
gje
gk
gl
gla
glabra
gladiolus
glagolica
glandulosa
glauca
glaucium
glaucum
glen
glenn
glich
gliniec
glinka
glinsk
global
globosa
globularia
globus
glockenblume
glomerata
glory
glottolog
glu
glutinosa
glyceria
glycyrrhiza
gmbh
gmejna
gmejnach
gmejnam
gmejnami
gmejnje
gmejnomaj
gmejnow
gmejnscy
gmejnska
gmejnske
gmejnskeho
gmejnskej
gmejnskeje
gmejnski
gmejnskich
gmejnskim
gmejnu
gmejny
gmelinii
gmina
gmt
gnu
go
god
goes
goethe
gold
golden
goldene
gole
golf
golfa
golfowc
golfu
golian
golo
golte
gong
gonza
good
google
gora
goran
gorbac
gordimer
gordon
gori
gorodok
gospelowy
gossypium
got
gotha
gotiska
gotiski
gott
gottfried
gottfrieda
gotthelf
gotthold
gottleuba
gottlieb
gottlob
gottloba
gotttrau
gottwald
gov
govaerts
gołkojc
gołkojce
gołyn
gołynk
gra
grab
grabar
grabin
grabina
grace
gracilis
grad
graebn
graf
grafikar
grafikarka
grafiske
graham
grahamii
grain
gramatice
gramatika
gramatikar
gramatiki
gramatiku
gramatiska
gramatiske
gramatiski
gramatiskim
graminea
grammar
grammatik
gramow
gran
grand
grande
grandiflora
grandiflorum
grandifolia
grandis
grant
grass
grat
gratow
graty
grau
graubu
graveolens
graves
gray
graz
gre
great
grechuta
green
greenberg
greenberga
greene
greenwich
greenwichski
gregg
gregor
gregorian
gregorianiskeho
gregorianiskej
gregorianiskeje
gregorianiskim
gregory
greifswald
greifswaldz
grenadiny
gres
grether
grey
grid
grigorij
grimm
grimma
grin
grindeanu
griseb
grjebjens
grjeks
grjeksce
grjekska
grjekske
grjekskeho
grjekskej
grjekskeje
grjekskemu
grjekski
grjekskim
grjeksko
gro
grodk
grodka
grodkom
grodkowskeho
grodku
grodzki
grodzkie
groitzsch
grojlich
grosso
grossularia
grossulariaceae
group
grover
groz
groß
große
großen
großer
großra
gru
gruyter
grys
gt
gu
gua
guadeloupe
guarani
guaranis
guaraniske
guatemala
guatemalski
guben
gubin
gubina
gudrun
gudz
guericke
guernsey
guevara
gui
guide
guido
guilandinae
guillaume
guillermo
guinea
guipa
guitar
guive
gumijowc
gundermann
gunnar
gunther
gurage
guru
guss
gusta
gustaf
gustav
gustave
gustavo
gustaw
gustawa
gut
guterres
guthrie
guttenberg
guwernement
guwerner
guwernerka
guy
guyana
gv
gw
gwara
gymnadenia
gymnazialneho
gymnazialny
gymnaziast
gymnazij
gymnazija
gymnaziju
gyo
gypsophila
gysi
gyula
gz
gło
głogo
głomac
głowan
h
ha
haag
haas
habeck
haben
habent
haber
habichtskraut
habilitowas
habitus
habla
hable
hablojte
habola
habole
habolenjo
haboli
habolski
habrachc
habsburg
hac
hach
had
hadam
hadama
hadz
hadza
haeupler
hag
hagen
hahn
haiti
haj
haja
hajduk
haje
hajenje
hajes
haji
hajk
hajkach
hajki
hajna
hajnca
hajnec
hajnic
hajnicy
hajnik
hajnk
hajnku
hajno
hajo
hajowy
hakle
hakowar
hakowarka
hakowarski
hakowy
hala
halbe
halbendorf
hale
hali
halimione
halka
hall
halle
hallier
hallt
haloragaceae
hals
halyc
ham
hamamelidaceae
hamamelis
hamburg
hamburga
hamburgu
hamilton
hammarstro
hammond
hammurabi
hamor
hamora
hamorje
hamorska
hamorskej
hampshire
hamt
hamta
hamtej
hamtsce
hamtska
hamtske
hamtskej
hamtskeje
hamtskich
hamtsku
han
hana
hanau
hanc
hance
hand
handbook
handbuch
handke
handrij
handrija
handrijom
handrik
handros
handwo
hanggre
hanka
hann
hannah
hanne
hannelore
hannes
hannover
hannovera
hannoverje
hanns
hano
hans
hansa
hansen
hanski
hanso
hansowe
hansy
hants
hanus
hany
hanza
hanzo
hap
har
hara
harald
harari
hard
hardcore
hardham
hardwara
hardwary
harfa
harka
harmonija
harmonije
harmoniji
harmoniju
harold
harrassowitz
harris
harrison
harry
hart
hartman
hartmann
hartmut
hartriegel
haru
harvey
has
hasa
hashim
haslow
haslowje
haspelmath
hast
hasy
hat
hata
hatach
hatami
hatas
hatk
hatna
hatow
hatowa
hatowej
hatoweje
haty
hauff
haupt
hauptmann
haus
hauser
have
havel
havli
hawaii
hawe
hawje
hawkins
haws
hay
hayata
hayes
haz
hałuz
hałuza
hałuzach
hałuzami
hałuzow
hałuzu
hałuzy
hałz
hałzata
hbe
hbjelsk
hcard
hdy
hdys
hdyz
hdz
he
head
header
heart
heat
heavy
hebe
hebrejs
hebrejsce
hebrejskeho
hecker
hector
hedera
hedin
hedwig
hedysarum
heesters
heft
hei
heide
heidelberg
heidi
heidleberg
heike
heiko
heil
heilbronn
heilmittel
heilpflanzen
heimat
hein
heine
heiner
heino
heinrich
heinricha
heinz
heise
hejdar
hejdus
hejtman
hektarow
hela
helas
heldr
helen
helena
helene
helga
helgoland
helianthemum
helianthus
helictotrichon
heliotropium
hell
helleborus
heller
helm
helma
helmojta
helmut
helmuta
helmutom
help
helper
helsinki
helvetica
hemerocallis
hemisferje
hemisfery
hempel
hemsl
hen
henc
hendrich
hendricha
hendrichecy
hendrichom
hendricks
hendrik
hendrix
hennig
henning
henri
henricus
henriette
henrik
henry
henryi
henryk
hentschel
hepburn
her
herausgegeben
herb
herba
herbert
herbig
herbski
herbst
herbstwa
herbstwo
herbstwu
herc
hercegowina
hercegowinje
hercegowinski
hercegowinu
hercegowiny
herder
here
herman
hermana
hermanecy
hermann
hermanna
hermenau
hermsdorf
herniaria
herr
herrmann
herrn
herta
herz
herzog
hesle
hessenska
hessenskej
hessenskeje
hesła
hesło
hesłom
het
heterophylla
heterotetiska
heuss
heute
hewak
hi
hia
hibanja
hibanje
hibanju
hibiscus
hic
hicka
hicks
hier
hieracium
hierarchy
hiern
hierochloe
hieronymus
higgins
high
hila
hilde
hildebrandt
hildegard
hill
hillary
hillmann
hills
hilse
hilz
him
himalaja
himalaje
himalaji
himantoglossum
hinak
hinas
hinc
hindenburg
hindi
hindis
hintergrundfarbe
hinterhermsdorf
hip
hippocastanaceae
hippocastanum
hippocrepis
hippuris
hirsch
hirsuta
hirsutissima
hirsutum
hirta
his
hispanica
hispaniola
hispida
hist
historia
historical
historija
historikar
historikarjo
historisce
historische
historisches
historiska
historiske
historiskeho
historiskej
historiskeje
historiski
historiskich
historiskim
historisku
history
hit
hitler
hitlera
hits
hiz
hl
hladac
hladajo
hladanje
hladar
hlau
hlavni
hle
hlebjojta
hlej
hlen
hler
hli
hlina
hlinjane
hlinjany
hlinjanych
hlinka
hlinowe
hlt
hm
hmann
hme
hmer
hn
hnas
hne
hnel
hnica
hnliche
hny
hnyc
hnydom
ho
hoberska
hoberske
hoberski
hoch
hochkant
hochkirch
hochoza
hochozy
hochschulen
hochst
hochstein
hodler
hodownika
hody
hodz
hof
hofer
hoffm
hoffmann
hofmann
hohnstein
hohwald
hojenska
hojenski
hojer
hojn
hokejist
hokejistka
hokkaido
hokowc
hokowcowe
hola
holach
holan
holana
holanec
holanska
holanske
holanskej
holanski
holanskich
holc
holca
holcow
holcu
holcus
holcy
hole
holes
holger
holi
holland
hollywood
holm
holmes
holocausc
holocaust
holocausta
holostea
holosteoides
holst
holsteinska
holsteinskej
holsteinskeje
holu
hom
home
homel
homela
homelskej
homeotetiska
hon
hona
honach
honduras
honecker
hong
honjaka
honow
hook
hooker
hop
hope
hoppe
hor
hora
horach
horam
horami
horca
horcym
hordeum
horicontalna
horicontalnje
horin
horinach
horinami
horinow
horinske
horiny
horiwka
horjanach
horjanski
horje
horjeka
horka
horn
hornc
horne
horni
hornich
hornim
hornist
hornja
hornje
hornjeho
hornjej
hornjeje
hornjo
hornjoho
hornjoserbs
hornjoserbsce
hornjoserbska
hornjoserbske
hornjoserbskeho
hornjoserbskej
hornjoserbskeje
hornjoserbski
hornjoserbskich
hornjoserbskim
hornjoserbsko
hornjołuz
hornju
horno
horod
horoda
horow
horst
horsta
hort
hortensija
hortensijowe
hortensijowych
hortensis
horu
hory
hos
hosc
hospitala
hospodar
hospodarsce
hospodarska
hospodarske
hospodarskeho
hospodarskej
hospodarskeje
hospodarski
hospodarskich
hospodarskim
hospodarsku
hospodarstwa
hospodarstwo
hossein
host
hostname
hot
hotel
hotzenplotz
house
houston
how
howa
howac
howaca
howace
howaceho
howacej
howachu
howacy
howacych
howacym
howanja
howanju
howany
howanym
howard
howas
howc
howe
howka
howy
howych
hoya
hoyerswerda
hoz
hołym
hr
hra
hrab
hrabal
hrabina
hrabinstwa
hrabja
hrabje
hrabowka
hrac
hradec
hraja
hrajachu
hraje
hrajer
hrajerjo
hrajerjow
hrajerka
hrajes
hrajkanis
hrajny
hran
hranic
hranica
hranicami
hranicow
hranicu
hranicy
hranite
hranity
hrany
hre
hren
hrer
hribow
hriby
hrige
hrimanka
hriwnow
hrjebach
hrjebjach
hrjebje
hrjebjen
hrjebjenju
hrjebju
hrjehor
hrjehorja
hrliche
hro
hroch
hroda
hrodna
hrodnjanskej
hrodom
hrodow
hrodowska
hrodowskej
hrodowski
hrodu
hrody
hrodz
hromadnik
hromadu
hromadz
hromakowe
hromakowych
hronow
hrow
hroz
hrsdorf
hrsg
hru
hruba
hrube
hrubje
hrubjelc
hruboc
hruby
hrubych
hrudz
hrung
hry
hrymzaki
hrymzyc
hryst
hsb
hstadt
ht
htm
html
http
https
hu
hub
huba
huber
hubert
hubertus
hubinka
hubinkowe
hubinkowych
hubka
hubku
hubu
huby
huc
huds
hudson
hudz
hugh
hughes
hugo
huja
huje
hujetej
human
humanist
humb
humberto
humboldtowej
humilis
hummel
humoristiski
humozne
humulus
humusowe
hunger
hunt
hunter
huraz
hus
husacy
husat
husc
husce
husitow
huska
huski
husle
husler
husowka
husta
huste
hustej
husto
hustosc
hustu
husty
hustych
hustym
huxley
hvar
hwa
hwe
hwizdz
hwje
hwo
hwow
hy
hyacinthaceae
hyacinthoides
hyacinthus
hyacintowe
hyacintowych
hybrid
hybrida
hybridna
hybridum
hybridus
hybridy
hydrangea
hydrangeaceae
hydrocharitaceae
hyles
hymna
hymny
hyn
hync
hyoscyamus
hypecoum
hypericaceae
hypericum
hypotezy
hł
hła
hładka
hładke
hładki
hładkokromne
hładz
hło
hłohonc
hłomac
hłosow
hłowa
hłowac
hłowje
hłowna
hłowne
hłowneho
hłownej
hłowneje
hłowneju
hłownje
hłownu
hłowny
hłownych
hłownym
hłowoc
hłowu
hłowy
hłuboke
hłubokej
hłuboki
hłubokich
hłubokim
hłuboko
hłubokosahace
hłubokosc
hłupon
hłus
i
ia
iai
ian
iauliai
ibe
ibej
iberis
iberiskeje
ibjen
ibliz
ibn
iboj
ibrahim
ibrjo
ibrjoha
ibrjohom
ibuti
ibuz
ibuzk
ic
ica
icach
icam
icami
icar
icarka
icarus
ice
icec
ich
icha
icheho
ichi
ichim
ichiro
ichod
ichoda
ichodne
ichodneho
ichodnje
ichodny
ichodnych
ichodz
ichon
ichor
ichow
ichowa
ichu
ichupe
icke
ickosrbska
icky
icon
icowe
icowych
icu
icy
id
ida
idac
idadz
idaho
idaj
idaja
idar
idara
idas
idata
idate
idatne
idatnje
idatny
idatnymi
idaty
idatymi
idawa
idawaj
idawk
idał
ideal
ideja
ideje
idejow
ideju
identiske
identiski
identita
identity
ideologija
idle
idles
idow
idowa
idowje
idowka
idowska
idowske
idowskeho
idowskej
idowskeje
idowski
idowskich
idowskim
idowsko
idowsku
idruz
idz
idła
idłac
idłate
idłaty
idło
idłom
idłow
ie
iedzi
ies
if
ifrowanje
ig
iglu
ignac
ignacio
ignacy
ignaz
igor
ihn
iho
ihotowac
ihotowas
ihr
ihranite
ihranity
ihre
ihrer
ii
iii
ij
ija
ije
ijec
ijecy
ijima
ijimaja
ijo
ijom
ijomnje
ijowa
ijska
ijskej
ijskeje
iju
ik
ika
ikac
ikach
ikata
ikatu
ikaty
ike
ikej
iki
ikis
ikiskej
ikiskeje
ikistan
ikistana
ikistanje
ikmz
iko
ikojta
ikojte
ikom
ikow
ikowa
ikowe
ikowy
ikryw
ikrywne
ikrywnych
iku
ikus
ikład
ikładaj
ikładowy
ikłady
ikładz
il
ilapata
ilapate
ile
ili
ilic
ilija
ilin
ilja
iljic
iljin
ilka
ill
illecebrum
illeg
illinois
illustration
ilse
iltgen
ilustracija
ilustracije
ilustrator
ilustratorka
ilustrita
im
ima
image
imagemap
imageright
images
imaj
iman
imdb
ime
imeretiskej
img
imi
imis
imjeno
immer
imo
imon
imov
imp
impatiens
imperatiw
imperfekt
important
impresije
imuja
imy
imz
in
ina
inac
inach
inaja
inam
inami
inan
inap
inas
inaty
inc
incana
incisa
incorrect
increment
indefinitny
independent
index
india
indiana
indica
indicum
indikatiw
indikuje
indira
indirektny
indiska
indiskeho
indiskej
indiskeje
indiski
indiskim
indoariske
indoeuropska
indoeuropske
indoeuropskej
indoeuropskich
indoeuropskim
indogermanist
indonesien
indoneska
indoneskej
indoneskeje
indoneski
industrializacije
industrializaciju
industrialnik
industrija
industrije
industrijne
industrijneho
industrijowe
industrijowy
industriju
indz
ine
inej
inermis
inerwne
ines
inferred
infinitiw
infinitiwje
inflata
inflexus
inflorescence
inflorescences
info
infoboks
infobox
infoboxen
infokas
informacija
informacije
informacijow
informaciju
informaciskeho
informaciski
informatika
informatikar
information
informationen
informkesto
informowac
informuje
infrastruktura
inge
ingeborg
ingiz
ingo
ingolstadt
ingrid
ingus
ini
inic
inichu
iniciatiwu
iniciator
inicie
inimy
initosc
inił
inj
inja
injachu
injan
injanskeje
inje
injene
injeny
injes
injesc
injese
injesechu
injowa
ink
inka
inkami
inki
inkl
inklusive
inklusiwnje
inkluziwnje
inkom
inkow
inku
inline
innenstadt
innerhalb
innocenc
innocenca
innych
ino
inohra
inohru
inom
inomaj
inos
inow
inowa
inowcow
inowcy
inowe
inoweho
inowej
inoweje
inowu
inowy
inowych
inowym
input
ins
insektow
insektoz
insekty
insk
inska
inske
inskeho
inskej
inskeje
inskemu
inski
inskich
inskim
inskis
insku
inspektor
inst
instalowac
instituc
institucija
institucije
institucijow
institut
instituta
institute
institution
instituts
instr
instrument
instrumenta
instrumental
instrumentow
instrumenty
instytut
integrifolia
intendant
intensiwne
intensiwnje
intermedia
international
internationale
interne
internec
internet
internetowa
internetowe
internetowym
internetquelle
interview
introduction
inu
invisa
inwentar
iny
inyn
inz
io
ion
iony
ios
iowa
ip
ipa
ipadny
ipica
ipo
ipojte
ipomoea
ipowe
iprawi
iprawjeny
ipuc
ir
ira
irak
irakski
iran
irana
iranje
iranom
iranska
iranske
iranskej
iranskeje
iranski
ire
ireland
irene
iridaceae
irina
iris
irish
irjadowac
irjadowana
irjadowane
irjadowanje
irjadowany
irjaduja
irjaduje
irkutsk
irkutska
irkutskej
iro
irodna
irodne
irodneho
irodnu
irodny
irodnych
irodnym
irodos
irodosle
irodospytnik
irodowe
irodu
irody
irodz
iron
irow
irs
irsce
irska
irskeho
irskej
irskeje
irski
irskim
irsko
irtys
iruc
irunaj
irunajo
irunanje
irunowanja
irunuj
irving
irvingiaceae
is
isaac
isabel
isabella
isahu
isbn
isc
ische
iser
iserka
isk
iska
iske
iskeho
iskej
iskeje
iskeju
iski
iskich
iskim
iskimi
isko
isku
islam
islama
island
islands
islandsce
islandska
islandskeje
islandski
isle
iso
isolepis
isow
isowc
isowcowych
isoweekdate
isoyear
ispomnjenja
ispomnjenje
ispomnjenka
ispomnjenki
israel
israela
israelska
israelski
israelu
iss
issn
issue
issyk
ist
ista
istada
istadas
istajenje
istajeny
istanbul
istanbulu
istaw
istawa
istawje
istawne
istawnym
istawom
istej
istka
istosc
istow
istrorumuns
istup
istupa
istupi
istupja
istupna
istupne
istupny
istva
isty
iswojowace
isła
isława
isławy
isło
isłowa
isłowjesnik
isłowow
isłus
it
ita
itac
itach
itaj
italc
italica
itals
italsce
italska
italske
italskeho
italskej
italskeje
italski
italskim
italsko
italsku
itam
itanja
itanje
itanka
itanki
itas
itawa
itawje
itawskich
itawu
itawy
itcy
ite
iteho
itej
itis
itke
itkich
itko
itkowne
itkownej
itkownje
itkownu
itkowny
itna
itne
itny
itnych
ito
itoc
itok
itoka
itoki
itoku
itomne
itomnosc
itosc
its
itske
ittershagen
ity
itych
itym
iu
ius
iuxta
iv
iva
ivan
ivanov
ivica
ivo
iw
iwa
iwabjeja
iwac
iwachu
iwadle
iwadz
iwadła
iwadło
iwadłom
iwadłowa
iwadłowe
iwadłoweje
iwadłowu
iwadłowy
iwadłowych
iwaj
iwaja
iwajo
iwajomne
iwali
iwan
iwana
iwane
iwaneho
iwanej
iwaneje
iwanja
iwanje
iwanju
iwano
iwanofrankiwskej
iwanowic
iwanowskej
iwany
iwanym
iwar
iwarja
iwarjo
iwarjow
iwarske
iwarski
iwas
iwatej
iwała
iwc
iwe
iwi
iwic
iwidła
iwisk
iwiski
iwisnik
iwisnikow
iwisowar
iwize
iwizna
iwiznojte
iwja
iwje
iwjeje
iwjena
iwjene
iwjenja
iwjenje
iwjenjobe
iwjenju
iwjenske
iwjenskeho
iwjenski
iwjeny
iwk
iwka
iwne
iwnic
iwnik
iwnosc
iwny
iwo
iwobroc
iwoc
iwochi
iwochow
iworski
iwosc
iwostejne
iwotnik
iwowe
iwowych
iws
iwuzna
iwuzne
iwuznej
iwuznosc
iwuzny
iwuznych
iwy
iwych
iwymi
iwza
iwzac
iwzata
iwzaty
ix
iz
izamknje
izamknjene
izamknjenje
izamknjenju
izamkny
izemju
izetbegovic
izma
izna
iznach
iznamjenja
iznamjenjach
iznamjo
iznje
iznow
iznowe
iznowych
iznu
izny
izolowana
izotop
izotopy
izwuc
izwuk
izwukowane
izwukowanych
izwukuje
ił
iła
iłan
iłe
iłkach
iłkate
iłki
iłkowe
iłkowych
iło
iłoha
iłohu
iłoj
j
ja
jablonec
jablonne
jabrik
jabrikowych
jabłon
jabłuc
jabłuka
jabłuko
jabłukowe
jabłukowy
jace
jacek
jach
jachu
jack
jacki
jackson
jacob
jacobi
jacopo
jacq
jacqueline
jacques
jacquinii
jacsławk
jacych
jadra
jadranskeho
jadranskim
jadrje
jadrjes
jadro
jadroweho
jadroweje
jadwiga
jahlic
jahn
jahoda
jahodka
jahodojte
jahodowe
jahody
jahr
jahrb
jahrbu
jahrbuch
jahre
jahren
jahrhundert
jahrhunderts
jahły
jak
jako
jakob
jakobson
jakowlewic
jakub
jakuba
jakubas
jakubec
jakubom
jakula
jakutska
jakutskej
jam
jama
jamach
jamaika
jamaiski
jamalskich
james
jamie
jamje
jamow
jamu
jamy
jan
jana
janak
janas
jancz
jane
janecy
janeiro
janej
janek
janez
janhoefer
janka
janko
jano
janom
jans
janska
januar
januara
januarje
january
janus
janusz
januszowo
januszpol
japan
japanese
japans
japanska
japanske
japanskeho
japanskej
japanskeje
japanski
japanskim
japonica
japonicum
japonicus
japos
jara
jargon
jaro
jarobrod
jarobrodz
jarome
jaroslav
jaroslawskej
jarosław
jasc
jasen
jaskrawje
jasna
jasne
jasnis
jasnje
jasnomo
jasnoro
jasnoz
jasnozelene
jasny
jason
jastwa
jastwje
jastwo
jat
jatbje
jatby
jatr
jatronka
jaty
jatych
java
javascript
javier
jawora
jaworje
jay
jazor
jazorina
jazyc
jazyk
jazz
jazzowa
jazzowy
jałorc
jba
jbach
jbam
jbami
jbje
jbne
jbneho
jbny
jbnych
jbnym
jbow
jbu
jby
jc
jce
jd
je
jean
jeanne
jec
jeden
jedlova
jedna
jednac
jednanja
jednanjach
jednas
jedne
jedneho
jednej
jedneje
jednobarbne
jednodomna
jednoho
jednokc
jednokwe
jednokło
jednole
jednomu
jednonerwne
jednora
jednore
jednorej
jednoremu
jednorje
jednory
jednorych
jednorym
jednosplaz
jednosymjenjowe
jednota
jednotka
jednotkami
jednotki
jednotkow
jednotliwa
jednotliwe
jednotliwy
jednotliwych
jednotliwymi
jednotneho
jednotny
jednotow
jednotu
jednoty
jednu
jednym
jedyn
jeff
jefferson
jeffrey
jegis
jehlinowych
jeho
jehły
jej
jeja
jeje
jejka
jejko
jejkojc
jejkojta
jejkojte
jejkojty
jejkojtych
jejkow
jeju
jekaterinburg
jekaterinburga
jelena
jelenia
jeleniogo
jeli
jelizo
jelo
jemen
jemjel
jemjelica
jemu
jen
jena
jenac
jenak
jenakej
jenakim
jenakokło
jenc
jend
jendz
jenic
jenisej
jeniseja
jeniseju
jenje
jenka
jenkec
jenkecy
jenna
jennifer
jenny
jenoz
jens
jensen
jentsch
jerjewana
jerry
jersey
jerusalem
jerzy
jes
jeseni
jesper
jesse
jessen
jest
jesu
jetzt
jetztfixed
jewi
jewic
jewis
jewił
jewja
jez
jezuit
ji
jic
jich
jidis
jihlava
jill
jim
jimi
jimmy
jin
jindr
jir
jira
jitk
jitro
jiwow
jizerou
jizerske
jizerskich
jiłocy
jiłow
jiłowka
jna
jnach
jne
jneho
jnic
jnica
jnje
jnomaj
jnow
jnowe
jnowych
jnske
jnskeho
jnskeje
jnski
jnskich
jnskim
jnu
jny
jnych
jo
joa
joachim
joan
joaqui
jochen
jodie
joe
joel
joey
johan
johann
johanna
johannes
johannesa
johanngeorgenstadt
john
johna
johnny
johnson
jon
jonas
jonathan
jones
jong
jonna
jonny
joop
jopara
jopek
jord
jordan
jordana
jordaniska
jordaniskej
jordaniskeje
jorge
jos
jose
josef
josefa
joseph
josip
journal
journey
jovan
jow
joy
joyce
jpeg
jpg
jr
js
jska
jske
jskeho
jskej
jskeje
jski
jskich
jskim
jsko
jskom
jskow
jsku
jstwo
ju
juan
jubileja
judeo
judgement
judith
judoka
judy
jugend
jugendlexikon
juglans
jugoton
juh
juha
juho
juhoc
juhoruskej
juhosłowjan
juhosłowjanska
juhosłowjanskej
juhosłowjanskeje
juhosłowjanski
juhosłowjanskich
juhosłowjanskim
juhosłowjansko
juhosłowjansku
juhowuchod
juhowuchoda
juhowuchodna
juhowuchodne
juhowuchodnej
juhowuchodneje
juhowuchodnje
juhowuchodnym
juhowuchodz
juhozapad
juhozapada
juhozapadna
juhozapadne
juhozapadnej
juhozapadneje
juhozapadnje
juhozapadnych
juhozapadnym
juhozapadz
juhu
jules
juli
julia
julian
juliana
julianday
juliane
julianiskeho
julie
julien
julij
julija
juliju
julius
juliusa
jumbjerowe
jumbjerowych
jun
juncaceae
juncea
juncker
juncus
june
jung
junge
jungha
juni
junij
junija
juniju
junior
juniperus
jupiter
jur
jura
juraj
jurij
juris
jurist
juristka
jurja
jurjewic
jurjom
jurk
juro
jus
juss
jussieu
just
justicny
justicu
justin
justowska
justus
jutnic
jutnitz
jutrow
jutrowna
jutrowne
jutrowneho
jutrownika
jutrowny
jutry
jutta
juz
jv
jwoda
jwodstwa
jwody
jwodz
k
ka
kabardino
kabaretist
kabaretistka
kabinec
kabinet
kabineta
kac
kach
kachetiskej
kaczyn
kadz
kai
kaikai
kairo
kais
kaiser
kaj
kaja
kajke
kajkeho
kajkej
kajki
kajkich
kajkosc
kajkostnik
kajkostnika
kajku
kak
kakawowc
kaki
kaktusowe
kaktusowych
kala
kalaallisut
kalahari
kalawa
kalawy
kale
kaledonskej
kaledz
kalender
kalendrowym
kali
kalich
kaliforniska
kaliforniskej
kaliforniskeje
kalinin
kaliningrad
kaliningradskej
kaliopi
kaljandra
kallfell
kalmykskej
kalts
kaluga
kam
kama
kambodz
kamc
kamen
kamenice
kamenicy
kamenz
kameradstwo
kameramuz
kamerun
kameruna
kamerunje
kamerunski
kami
kamien
kamienica
kamjanec
kamje
kamjen
kamjenc
kamjenca
kamjencej
kamjencom
kamjencu
kamjenej
kamjeneje
kamjenica
kamjenicy
kamjenizny
kamjenja
kamjenje
kamjenjec
kamjenjow
kamjenju
kamjenskeho
kamjenskej
kamjenskim
kamjentna
kamjentne
kamjentnej
kamjentneje
kamjentny
kamjentnych
kamor
kampf
kamzyc
kan
kanada
kanadiska
kanadiskej
kanadiski
kanadu
kanady
kanadz
kanal
kanala
kanale
kanalu
kanariske
kanariskich
kancler
kanclera
kanclerka
kanclerku
kanclerom
kancow
kandidat
kandidata
kandidatka
kandidatom
kandidowas
kanecy
kank
kankowa
kann
kannst
kanonik
kansas
kantona
kantor
kantora
kap
kapałce
kapałka
kapałki
kapałku
kapałnik
kapic
kapital
kapitan
kapitel
kapitl
kapitla
kapitlu
kapitol
kaplan
kapler
kapralc
kapralcowe
kapralcowych
kapsla
kapsle
kapslowe
kapslowy
kapłan
kapłanom
kar
kara
karabach
karabacha
karabachskeje
karac
karadz
karafia
karagandy
karakalpaksce
karakalpakstan
karakum
karanc
karbowane
karc
kardamom
kardinal
karel
karels
karelska
karelskej
karen
karibice
karibiskeho
karibiskim
karikaturist
karim
karin
karja
karjera
karjeru
karjery
karjo
karka
karl
karla
karlheinz
karlo
karlovac
karlowej
karlsruhe
karminc
karol
karolina
karoline
karp
karpacz
karpatach
karpatami
karpatow
karpaty
karpy
karrenbauer
karska
karske
karski
karsten
karta
kartach
kartam
karte
karten
kartenlevel
kartograf
kartow
karty
kas
kasija
kaspar
kasper
kaspiske
kaspiskeho
kaspiskim
kassel
kastanija
kasze
kat
kata
katalans
katalansce
katalogu
katar
katarina
katastrofje
kate
katechet
katechizm
katedra
katedrala
katedrali
katedralu
kategorie
kategorija
kategorije
kategoriji
kategorijow
kategoriju
kategorizowanje
katharina
kathmandu
katholische
katholskich
katie
katja
kato
katolikojo
katolikow
katolscy
katolska
katolske
katolskeho
katolskej
katolskeje
katolski
katolskich
katolskim
katolsku
katrin
katu
katy
katych
katym
katymi
katyrna
katyrny
katze
kauderwelsch
kaulfu
kaunas
kaunasa
kausativ
kawc
kawe
kawkaske
kawkaskich
kawkaz
kawkaza
kawkazom
kawkazu
kay
kaz
kazachs
kazachska
kazachskej
kazachskeje
kazachski
kazachstan
kazachstana
kazachstanje
kazachstanom
kazanja
kazimierz
kazus
kazusow
kał
kałac
kałata
kałate
kałaty
kb
kc
kde
ke
keating
kec
kecach
kecy
kedz
kehelojta
kehelojty
kehelojtych
keho
keila
kein
keine
keith
kej
keje
kejz
kek
keka
kelko
keller
kellogg
kelly
keltiske
keltiskich
keluch
kelucha
keluchi
keluchowe
kelus
kem
kemerowa
kemerowskej
kems
ken
kenaan
kendall
kenija
kennedy
kennedyja
kenneth
kenny
kenrick
kent
kenta
kentskej
kentucky
ker
kerc
kerk
kerki
kerkow
kerkowa
kermus
kern
kernera
kerstin
ketlic
ketlicach
ketlicojc
ketlicy
kevin
kew
key
keyboarder
kg
khan
khoisan
khojsanske
ki
kic
kich
kichawa
kickxia
kiefer
kiesinger
kigali
kijes
kijew
kijewa
kijewje
kijewskej
kijewskeje
kilank
kili
kilian
kiliana
kilometer
kilometra
kilometrach
kilometraj
kilometrami
kilometrow
kilometru
kilometry
kilowattowu
kim
kin
kina
kind
kinder
king
kingdom
kinje
kino
kinshasa
kinspork
kiny
kirche
kirchengalerie
kirchner
kirgiska
kirgiskeje
kirgiziskej
kirgiziskeje
kiribati
kirk
kirnitzsch
kirow
kirowa
kirowohradskej
kirowsk
kirowskej
kirs
kirska
kirskej
kirskeje
kirsten
kis
kisa
kisalina
kisaliny
kisalnik
kisała
kisałe
kisały
kisałych
kislica
kislik
kislika
kislink
kiss
kisyca
kisycowe
kisycowych
kit
kita
kitac
kitana
kitane
kitany
kitar
kitarovic
kitarska
kitej
kitelnic
kitkata
kitkowc
kitlik
kitne
kitnych
kito
kitom
kittlitz
kiz
kjarcma
kk
klada
kladno
kladogram
klaipe
klajtonija
klama
klammer
klanki
klankodz
klara
klarinetist
klasa
klasifikacija
klasikar
klasiki
klasiske
klasiskeho
klasiskeje
klasiski
klasiskich
klasow
klasowy
klasse
klasy
klaus
klawe
kle
klee
klein
kleine
kleiner
kleines
klemens
klemensa
klement
klemperer
klen
klepsch
kli
klic
klikn
klima
klimek
kliment
klimowych
klimu
klimy
klin
klinc
klingenthal
klinojte
klinowe
kliny
klipphausen
klix
klo
klon
klonowe
klonowych
klub
kluc
klukoc
kluks
klunkate
km
kmanosc
kmjec
kmjen
kmjena
kmjenow
kmjeny
kmo
kmoch
kna
knauthe
knautia
kne
knebel
knight
kniha
knihach
kniharnja
kniharnje
knihi
knihic
knihikupc
knihiwjazar
knihow
knihownik
knihownja
knihownje
knihownju
knihu
kniphofia
kniz
knize
knjejskich
knjejstwa
knjejstwje
knjejstwo
knjejstwom
knjejstwu
knjeni
knjenje
knjez
knjeza
knjezam
knjezom
knjezow
kno
knothe
knoty
know
knut
knykac
ko
koalicija
koalicije
koaliciji
koaliciju
kobjela
kobjelkac
koblenz
koblic
koblica
koblicy
kobołk
kobołkata
kobołkowe
kobołkowych
kobresia
kobrezija
koc
koch
kochc
kocht
kochtate
kochty
kocor
kocora
kod
koda
kode
kodom
kodow
kodowanja
kodowanje
kodowanju
koduja
kody
kodz
koehne
koeleria
koenig
koernig
kofej
kofi
kohl
kohla
kohlom
koho
kojc
kojce
kojta
kojte
kojty
kojtych
kokakerk
kokla
kokorc
kokoric
kokornak
kokos
kokota
kokrajne
kokrajny
kokrik
kokrikowe
kokrikowych
koks
kokulinda
kola
kolas
kole
kolektiw
kolektiwje
koleso
kolesowanska
kolesowar
kolij
kolije
kolla
kolonialneho
kolonialny
kolonie
kolonija
kolonije
kolonijow
koloniju
kolonistow
kolonizacije
kolumbiska
kolumbiskej
kolumbiski
kolumbus
kom
koma
komaj
komandant
kombinacija
kombinacije
kombinacijow
kombinat
kombinationen
kombinowac
komediant
komentar
komi
komikar
komikarka
komis
komisar
komisija
komisije
komiteja
kommt
kommunismus
komonc
komorje
komorow
komorowa
komorowje
komorowska
komorowski
komory
kompakt
komparatiw
kompaß
kompjuterowy
kompjuterowych
kompleks
kompleksna
kompleksne
kompleksny
kompleksnych
kompletna
kompletne
kompletnje
komplikowane
komponenta
komponenty
komponist
komponista
komponistka
komponistow
kompozer
kompozicija
kompozicijach
kompozicije
komu
komunalne
komunalny
komunalnych
komunist
komunistiska
komunistiskeho
komunistiskeje
komunistiski
komunistiskim
kon
koncentraciskeho
koncentraciskich
koncentraciskim
koncept
koncepta
koncert
koncertna
koncertow
koncerty
kondicional
konferenca
konferency
konfesije
konfesijow
konflikc
konflikt
konfliktam
konfucius
konfuciusa
konfuciusu
kongo
kongoski
kongres
kongresa
kongresu
kongruenca
konja
konjaca
konjec
konjecach
konjecy
konjugacija
konjugacije
konjugacijow
konjunktiw
konkret
konkurency
konomie
konop
konopjowc
konopowe
konrad
konrada
konsekwentnje
konserwatiwna
konserwatiwneje
konserwatiwny
konserwatiwnych
konsonant
konsonanta
konsonantach
konsonantom
konsonantow
konsonantowe
konsonantowej
konsonanty
konstanta
konstantin
konstantinowic
konstanza
konstrukcija
konstrukcije
konstrukter
konstruowane
konsumentow
kontakt
kontakty
konteksc
kontext
kontinenc
kontinent
kontinenta
kontinentach
kontinentalneje
kontinenty
kontinuum
kontrabasist
kontrola
kontrolu
konwerb
konwerbowa
konwerby
koor
koordinatami
koordinate
koordinaten
koordinatensysteme
koordinatow
koordinatowy
koordinaty
kopan
kopanski
kopar
koparka
koparske
koparskeho
koparski
kopcu
kope
kopenhagen
kopf
kopieren
kopor
koporcy
kopr
kops
kor
korc
koreja
koreje
koreji
korejs
korejska
korejskej
korejski
koreju
korektne
korektnje
korjen
korjenina
korjeninowc
korjeninska
korjeninske
korjenja
korjenje
korjenjemi
korjenjow
korla
korle
korlowym
korlu
kormjenka
korn
korpus
korsakow
korsice
korutanska
korutanskeje
korzym
kos
kosa
kosc
koslow
koslowa
koslowje
kosmac
kosmata
kosmate
kosmaty
kosmatych
kosmatymi
kosmic
kosmonawt
kosmos
kosmy
koso
kosowa
kosowo
kosowski
kosta
kostorz
kostrjawa
kostrjenka
kostromskej
kosu
kosy
kosyc
kosyk
koszalin
kotec
kotecach
kotecy
kotmar
kotołce
kotołki
kotr
kotrajz
kotraz
kotre
kotrehoz
kotrejez
kotrejuz
kotrejz
kotremuz
kotrez
kotruz
kotry
kotrych
kotrychz
kotrymi
kotrymiz
kotrymz
kotryz
kov
kova
kovac
kow
kowa
kowane
kowanja
kowanje
kowanju
kowanstwje
kowany
kowar
kowas
kowc
kowe
koweho
kowej
kowel
kowjel
kowk
kowka
kowna
kowne
kowneho
kownej
kowneje
kowny
kownych
kownym
kowske
kowskeho
kowski
kowu
kowy
kowych
kowym
kowymi
koz
koza
kozakow
kozel
kozylist
kozylistowe
kozylistowych
kozync
koła
koło
kołobrzeski
kołowokoło
kołwaz
kołwro
kp
kpd
kr
kra
krabat
krabatowy
kraft
kraj
kraja
krajach
krajam
krajan
krajana
kraje
krajej
krajemi
krajina
krajinach
krajinje
krajinowa
krajinowy
krajinu
krajiny
krajme
krajna
krajne
krajneho
krajnej
krajneje
krajneju
krajnemu
krajnobohotski
krajnoradneho
krajnostawski
krajnostawskim
krajnu
krajny
krajnych
krajnym
krajo
krajom
krajomaj
krajow
kraju
krakecy
krako
krakow
krakowa
krakowje
kral
krala
kralej
kralestwa
kralestwje
kralestwo
kralestwu
kralojo
kralom
kralow
kralowc
kralowna
kralownu
kralowny
kralowska
kralowske
kralowskeho
kralowski
kralowsko
kralu
kramp
krapp
krasna
krasnodarskim
krasnojarsk
krasnojarska
krasnojarskim
krasnosmykar
krasnosmykarka
krasny
kraus
krause
krautz
krawc
krawca
krawcec
krawcowa
krawina
krawinowych
krawnik
krawz
krc
kre
kree
kreis
kreise
kreises
kreisfreien
kreisky
krejc
kremer
kress
kretschmann
kretschmer
krieg
krieger
krim
krimijow
kriminalkow
krimje
kripina
kritika
kritikar
kritikarka
kritiki
krizy
krjec
krjeml
krjen
krjo
krk
kro
krob
kroba
kroc
krok
krokodil
kroku
kroma
kromach
kromate
krome
kromje
kromu
kromy
kronos
kropac
kropywnyckeho
kros
krosno
krosnowar
kru
kruc
krug
kruh
kruha
kruhi
kruhojte
kruhow
kruhu
krus
kruta
krute
kruty
kruwjace
kruz
kryc
kryda
krygar
kryjace
krys
krystof
krytosymjenjakow
krywne
krzysztof
ks
kssz
kt
kto
ktpo
ku
kuba
kubanski
kubas
kubica
kubjen
kuble
kubler
kublerja
kublerjow
kublerski
kubrick
kubs
kuby
kubła
kubłac
kubłanis
kubłanja
kubłanje
kubłanske
kubłanski
kubłar
kubłas
kubło
kuc
kuchar
kuchinje
kudo
kudz
kuhn
kujawsko
kujbys
kuje
kukac
kukawka
kukelic
kuklik
kukow
kukowa
kukowje
kula
kule
kulenka
kulenkowe
kuli
kulkata
kulman
kulojc
kulojta
kulojte
kulojty
kulojtych
kulow
kulowa
kulowata
kulowate
kulowatej
kulowaty
kulowatych
kulowc
kulowca
kulowje
kulowskej
kulowskich
kultiwowana
kultiwuje
kultur
kultura
kulturach
kulturdenkmale
kulturelne
kulturje
kulturna
kulturne
kulturneho
kulturnej
kulturneje
kulturnemu
kulturnik
kulturnu
kulturny
kulturnych
kulturnym
kulturow
kulturowe
kulturu
kultury
kulu
kumor
kums
kumwałd
kumwałda
kundrac
kunnersdorf
kunratice
kunst
kunstdenkma
kunstverlag
kunth
kuntze
kunysz
kunze
kupa
kupach
kupam
kupami
kupfer
kupi
kupił
kupje
kupjel
kupjele
kupjelow
kupnicy
kupoj
kupomaj
kupow
kupowy
kupu
kupy
kura
kurc
kure
kurgana
kurganskej
kurijowy
kurile
kurjo
kurs
kursa
kursk
kurska
kurskeho
kurskej
kurskeje
kursow
kursu
kursy
kurt
kurta
kurwjerch
kurwjercha
kurwjerchowka
kurymo
kurz
kus
kusk
kut
kutach
kutaisija
kute
kutno
kutowa
kutuzow
kuty
kuwait
kuz
kuzłarnic
kve
kw
kwadrat
kwadratny
kwadratnych
kwadratnym
kwas
kwasny
kwe
kwiatostan
ky
kylie
kypc
kyrilisce
kyriliskeho
kyriliskej
kyriliski
kyriliskim
kyrkonos
kytlice
kyzylkum
kładz
kło
kłobuk
kłokojte
kłosa
kłosach
kłosojtych
kłosopo
kłosow
kłosy
kłubic
l
la
label
labem
labkraut
laburnum
lac
lach
laciniata
lada
ladach
ladins
ladislav
ladko
ladoga
ladogaskeho
ladogaski
ladogaskim
ladus
lady
laevigata
laevis
lafontaine
lag
lage
lagerlo
lagrowa
lagrowy
lahm
lai
lajder
lajnert
lajskeho
lajsta
lajsty
lake
lakes
lal
lala
lam
lama
lambda
lambrecht
lamiaceae
lamiales
lamium
lampedusa
lampranthus
lamy
lan
lana
lanata
lanatus
lanceolata
lanceolatum
lancetojte
lancetojtych
lancifolia
land
landa
landes
landeskoordinaten
landesmuseen
landkreis
landkreisen
lane
lang
langa
lange
langen
langer
langi
langu
language
languages
lanka
lany
lanzyna
laos
lapa
lapami
lapata
lapate
lape
lapow
laps
lapy
laras
larik
larix
larry
lars
larwy
las
lask
laso
lassen
last
lat
lathraea
lathyrus
latifolia
latifolium
latifolius
latin
latitude
latk
latvijas
lauchhammer
laura
lauraceae
laurence
laurens
laurent
laurus
lausitz
lausitzer
lausitzisches
laut
lauterbach
law
lawa
lawica
lawrence
lawska
lawske
lawskeje
lawskich
laxa
laxiflora
layout
lazar
lb
lba
lbach
lbami
lbne
lbneho
lbnemu
lbny
lbnych
lbnym
lbokmani
lbow
lbu
lby
lc
lca
lcow
lcy
ld
le
lea
leach
leaf
leag
lear
leb
lebapskej
leben
lebens
leberecht
lec
leca
lech
lecy
lecythidaceae
led
ledeb
ledz
lee
leer
leersia
left
legenda
legendy
legislaturnej
lehmann
lehnjenske
lehrbuch
leidenfrost
leine
leipzig
lej
leja
lejna
lejnik
lejnjanski
lejnje
lejno
leksiki
leksikograf
leksikon
lektor
lektorka
lem
lemberk
lemberka
lemi
lemis
lemke
lemma
lemna
lemnoideae
len
lena
lenc
lene
lenga
lengua
leni
lenin
lenina
leningrad
leningradskej
leningradz
leninski
lenja
lenje
lenjom
lenju
lenk
lenka
lenkar
lennon
lenowe
lenowych
lens
lenske
lenski
lentibulariaceae
leny
lenych
lenzen
leo
leon
leonard
leonardo
leone
leonhard
leonhardi
leonid
leopard
leopardus
leopold
lepidium
lepidoptera
lepsius
lepus
lepy
ler
lermontow
lernu
leroy
les
lesa
lesce
lesebuch
leser
leska
leske
leskeho
leskej
leskeje
leski
leskim
leslie
lesny
leso
lesotho
lesseps
lessing
lestwa
leszek
let
lethe
letis
letisce
letiska
letiskej
letiskeje
letiski
letter
letzte
letzten
leucadendron
leucojum
leutnant
level
levi
lew
lewis
lexikon
leyen
lez
leznic
lfte
li
lia
liang
libanon
libanonski
liber
liberec
libereca
libereckim
libon
libor
library
libretist
libreville
libs
libyska
libyskej
lic
lica
licencu
lichan
lichanju
licht
lichtenberg
lichtenhofa
lichu
lie
liebe
liebknecht
liechtenstein
lied
lieder
liepa
lieske
life
lift
light
lightning
lika
like
liklik
likojta
likojte
likowa
lila
lili
liliaceae
lilija
lilijanka
lilijowc
lilijowe
lilijowych
lilium
lille
lilongwe
lima
limasa
limba
limodorum
limosella
lin
linaceae
linaria
linc
lince
lincoln
lincz
linda
linden
lindernia
lindgren
lindl
lindner
lindow
lindsay
line
linealne
linealno
lingua
linguae
linguistics
linija
linije
liniji
liniju
linja
link
linka
linkach
linke
linked
linki
linkow
links
linku
linn
linnaea
linne
linnean
linum
linux
linz
lipa
lipic
lipinach
lipiny
lipje
lipjeck
lipnica
lipowe
lipowych
lips
lipsk
lipska
lipskom
lipsku
lipy
liriodendron
lis
lisa
lisc
lise
list
lista
listera
listowa
listowane
listowanje
listowej
lists
listuje
listy
lit
litaws
litawsce
litawska
litawskej
litawskeje
litawski
litawskim
literarna
literarne
literarneho
literarnej
literarnu
literarny
literarnych
literarnym
literat
literatur
literatura
literaturje
literaturow
literaturu
literatury
lithocarpus
litograf
litome
litoralis
little
littoralis
liu
live
liverpool
living
liz
lize
liła
ljub
ljubljana
lk
lka
lkel
lker
lkerung
lklingen
lkowa
ll
lla
lle
llen
ller
lln
llo
lloyd
llt
lmus
lmusec
ln
lna
lnd
lne
lneho
lnej
lneje
lneju
lni
lnic
lnica
lnicu
lnicy
lnik
lnikami
lnikow
lnis
lnje
lnski
lnu
lny
lnych
lnym
lnymi
lo
lobata
lobelia
location
loch
lochke
lochko
lochkoatlet
lochkoatletka
locmap
lodni
lodohokejist
lodohokejowy
lodowcowa
lodowej
lodu
logikar
logo
loire
loituma
loje
lok
lokalne
lokalny
lokalnych
lokatiw
lola
lolium
lom
lomaj
lomne
lon
london
londona
londonje
long
longifolia
longitude
lonicera
looks
loop
loos
lora
loranthaceae
lord
lorenc
lorenca
lorenz
lorenzo
los
losar
lotar
lothar
lothringen
lotoska
lotowe
lotoweho
lotowy
lotowym
lotus
lou
louis
louisa
louise
louisiana
lour
love
lovelace
low
lowry
loz
lozano
lp
ls
lsce
lsk
lska
lske
lskeho
lskej
lskeje
lskemu
lski
lskich
lskim
lsko
lsku
lt
ltere
ltu
lu
lua
luanda
luba
lubac
luban
lubanja
lubanju
lubata
lubatu
lubaty
lubeje
lubhozdz
lubicy
lubij
lubija
lubijej
lubijom
lubijska
lubijskeho
lubijskej
lubijskeje
lubijsku
lubiju
lubin
lubina
lubjenc
lubjenski
lubka
lublin
lubnjow
lubnjowa
lubnjowje
luboc
lubochow
lubolinka
luboln
luboraz
lubos
lubosc
lubostnica
lubowac
lubowo
lubuju
lubus
luc
lucas
lucia
luciano
lucida
lucidum
lucius
lucka
lucy
lud
luda
ludami
ludej
ludlic
ludmila
ludmile
ludmilu
ludnosc
ludospyt
ludovici
ludow
ludowa
ludowe
ludoweho
ludowej
ludoweje
ludowu
ludowy
ludowych
ludowym
ludu
ludvi
ludwig
ludwiga
ludwigshafen
ludwik
ludy
ludz
luft
luga
luhansk
luhanska
luhanskej
luigi
luis
luisa
luise
luja
luje
luka
lukas
lukin
luknov
luknova
luknovskim
lumpf
luna
lunaria
lundell
lunyu
lupina
lupinus
lupus
lusaka
lusatia
lutea
luther
luthera
lutherowy
lutherska
lutherski
lutnjer
lutobc
lutol
lutolu
lutyjecy
lutz
luxemburg
luxemburgska
luxemburgskej
luxemburgskeje
luxemburgski
luz
luzula
lv
lva
lwo
lwowa
ly
lycaena
lychnis
lycoctonum
lydnevi
lymantria
lyn
lynn
lynx
lyrika
lyrikar
lyrikarka
lyriku
lysimachia
lythraceae
lythrum
lz
lze
lzer
m
ma
maar
maarten
maas
mac
macdonald
mach
machac
machen
macht
mack
macrocarpa
macron
macrophylla
maculatum
maculinea
madagaskar
madagaskara
madagaskarje
madaus
made
madeleine
madison
madlen
madleny
madona
madonna
madrid
madridz
madz
mae
magacin
magacina
magazin
magdeburg
magdeburgske
magee
magic
magister
magna
magnolia
magnoliaceae
magnolie
magnoliopsida
magnus
maguire
maharas
mahiljowa
mahiljowskej
mahler
mahonia
mahonija
mahr
mai
maianthemum
maik
main
maine
mainz
maire
maizie
maj
maja
majakowskij
majka
major
majus
mak
make
makeba
makedonjan
makedons
makedonsce
makedonska
makedonskeho
makedonskej
makedonskeje
makedonski
makino
makowe
makowych
maks
maksa
maksim
maksimalna
maksimalnje
maksimalnu
maksimalny
maksimalnymi
maksimilian
maksimiliana
makule
mal
mala
malajzija
malajzije
malawi
malaysia
malcolm
malczyce
male
malec
males
mali
malic
malija
maliju
malin
malink
malinka
malinkowa
mall
malline
mallorca
malpighiales
malschwitz
malta
maltas
maltaski
malty
malu
malus
malva
malvaceae
maly
mam
mama
mamo
mamy
man
mana
management
manager
manc
manchester
mandat
mandawje
mandela
mandelbrot
mandlowa
mandz
manfred
manihot
maniok
manjow
mann
mannheim
manning
mans
mansijska
mansow
manuel
manuela
manzarek
map
mapa
mapami
mapje
maplevel
mapow
mapowe
mapoweje
mapowych
maps
mapsize
mapu
mapy
mar
marc
marcel
marco
marcus
mare
marek
margaret
margarete
margarethe
margarita
margin
margot
marhata
marhold
mari
maria
mariah
marian
marianne
mariano
marie
marienberg
marija
marije
marijina
marijineho
marijinej
marijineje
marijiny
marilyn
marin
marina
marino
mario
marion
maris
maritima
maritimus
marius
marja
marjan
marjana
marje
marjec
marjom
marjorie
marju
mark
marka
marke
marker
market
markhrabinstwa
markhrabinstwo
markhrabja
markhrabje
marki
marko
markoc
markojska
markovic
markowsko
marks
markt
marktype
marku
markus
marlene
marokko
marokku
marron
mars
marseille
marshall
mart
marta
marten
martens
martha
marti
martin
martina
martini
martinique
martinus
martius
martrar
marty
marus
marx
marxa
marxowej
mary
mas
masa
masaryk
maseru
masiw
masiwa
maskulinum
maslenka
maslenkowe
maslenkowych
masowy
massachusetts
masson
master
masu
masy
mat
mate
matej
mateja
matematice
matematikar
matematikarka
matematiki
matematiku
matematiska
matematiske
material
materiala
materialije
materialijow
matern
mateusz
mathias
mathilde
matice
mato
matovic
matt
matteo
mattha
matthew
matthias
maturje
maturowas
maturu
maureen
maurice
mauro
mawretanska
max
maxa
maxi
maxim
maxima
maximilian
maxwell
may
mayall
mayen
mayer
mayr
mays
maz
mazowiecka
mazowiecki
mazowskim
mazz
mała
małe
małeho
małej
małeje
małemu
małka
małke
małkej
małki
małkich
małkimi
małko
małksa
małksy
małku
mało
małobyrgarski
małokc
małokwe
małopo
małoratar
małoro
małostronski
małowapnate
małowapnite
małowapnitych
małowutkate
małsec
małsecy
mału
mały
małych
małym
małymi
mb
mba
mbo
mbox
mc
mcaj
mccain
mccartney
mckinley
mcow
mcy
mdr
me
mebl
mecen
mecklenburg
mecklenburgska
mecklenburgskeje
mecklenburgsko
med
meda
medalju
media
mediawiki
medicago
medici
medicina
medicinar
medicinu
mediciny
medijach
medije
medijow
medijowe
medijowy
medik
medina
meer
meglenorumuns
mehlis
mehmed
mehr
mehrere
mehrja
meiche
meier
mein
meine
meinhof
meisn
meißen
meja
meje
meji
mejlowy
meju
melampyrum
melandrium
melanie
melanocarpa
melchior
melda
meles
meli
meliaceae
melianthaceae
melica
melijowcowe
melilotus
melona
memorandum
men
mencl
menschen
mentha
menyanthaceae
menziesii
mer
mercer
mercurialis
meri
merian
meridian
meridiana
meridianje
meridiany
merkel
merkmale
merr
mertin
merzdorf
mes
mesembryanthemum
mespilus
message
meta
metadaty
metal
metale
metallica
metalow
metalowa
metasequoia
meteorologa
meter
metoda
metodami
metodow
metody
metra
metrach
metrami
metro
metropolowemu
metropolowy
metropolowym
metrow
metry
mew
mexicana
mexico
mexika
mexiko
mexikom
mexiku
mexiska
mexiskeho
mexiski
mey
meyer
meyers
mez
mezopotamiska
mezopotamiskej
mezopotamiskeje
mezopotamiskich
mezopotamisku
mezzosopranistka
mg
mhnt
mi
mia
miasteczko
miasto
mic
mica
mich
michael
michaela
michail
michailowic
michajlowic
michal
michalk
michał
michała
michałk
michałkowa
michałom
michałska
michałskej
michałskeje
michel
michelangelo
michele
michelle
michigan
michiganskim
michx
mick
mickach
micki
micrantha
microcarpa
microphylla
microsoft
midentala
mie
mieu
miguel
mihalic
mika
mikawc
mike
mikow
mikro
mikroformat
mikroformaty
mikula
mikławs
mil
mila
milan
milano
milbradt
milc
mile
miler
miles
miliardow
milii
milimetrow
milinarni
milinarnja
milinarnje
milinu
milion
miliona
milionaj
milionami
milionom
milionomaj
milionow
milionowe
miliony
militer
milium
mill
millefolium
miller
milos
milton
milutinovic
milzener
mimosa
mimulus
min
mina
minakale
minakał
minakała
minakałskej
minakałskeje
minas
mind
minderheiten
mineraloga
minh
mini
miniatur
minima
minimalne
minimus
minister
ministerka
ministerska
ministerskeho
ministerski
ministerskim
ministerstwa
ministerstwje
ministerstwo
ministra
ministrom
minnesota
minor
minoru
minsk
minska
minskowskej
minuartia
minus
minuta
minute
minuty
miny
mio
mipela
miq
mir
mira
mirabilis
miranda
miriam
miro
miroslav
mirtschin
mis
misionar
misionskich
miss
mission
mississippi
missouri
mit
mita
mitas
mitchell
mite
mitte
mitteldeutscher
mitteleuropas
mitterrand
mizuki
miła
miłkec
miłkecy
miłoc
miłoraz
miłoraza
miłosz
miłych
mj
mjasa
mjasne
mjasny
mjaso
mje
mjec
mjechka
mjechke
mjechki
mjechko
mjedwjedz
mjedz
mjeltka
mjen
mjena
mjenach
mjenami
mjeniny
mjenja
mjenje
mjeno
mjenom
mjenomaj
mjenow
mjenowac
mjenowachu
mjenowana
mjenowane
mjenowaneho
mjenowanej
mjenowaneje
mjenowanu
mjenowany
mjenowanych
mjenowanym
mjenowanymi
mjenowas
mjenowe
mjenowy
mjenowym
mjenuja
mjenujcy
mjenuje
mjertyn
mjerwa
mjes
mjetar
mjetarka
mjetel
mjetelica
mjetelow
mjetlic
mjez
mjeza
mjezach
mjezota
mjezotu
mjezoty
mjeztym
mjezu
mjezuja
mjezuje
mjezy
mjezybor
mjezyborja
mjezyc
mjezynadpis
mjezynarodna
mjezynarodne
mjezynarodneho
mjezynarodnej
mjezynarodneje
mjezynarodnje
mjezynarodny
mjezynarodnych
mjezynarodnym
mjezywo
mjełow
mjeły
mk
ml
mlada
mlo
mloko
mly
mm
mn
mna
mne
mni
mnich
mnichow
mnichowa
mnichowje
mnis
mnje
mno
mnoc
mnohe
mnohich
mnoho
mnohokwe
mnoholic
mnohota
mnozelene
mnozy
mnu
mny
mo
moa
mobile
mobilne
moc
mochi
mochowc
mochowy
mockrehna
mocow
mocy
modalne
mode
model
modelo
moderator
moderatorka
moderna
moderne
moderneho
modernej
moderneje
moderny
modernych
modernym
modibo
modl
modlerske
modlerski
modlitwy
modowa
modowy
modul
modula
module
modus
modusu
modusy
modłej
modłeje
modłeji
moehringia
moench
mohammad
mohammed
mohan
mohana
mohanom
mohuc
moja
moje
moji
mojim
mokr
mokre
mokrych
moku
mol
moldawska
moldawskeho
moldawskej
moldawskeje
moldovei
mole
molecular
molekul
molekularbiologiske
molekulargenetiskich
molekule
molemo
moler
molerja
molerka
molina
molinia
moll
molle
moller
mollis
mollissima
momenc
mon
monaco
monarch
monarchija
monarchije
monarda
monat
mongolow
mongols
mongolska
mongolske
mongolskej
mongolskeje
mongolski
mongolskich
monica
monika
monitor
monkowe
monkowych
mono
monobook
monogr
monotypiski
monstera
mont
montana
montanum
montanus
monte
montevideo
montgomery
montia
montsoreau
moody
moon
moore
mor
morac
moraceae
morales
morawa
morawje
morawski
morawsko
morawu
morawy
morchej
morchwje
mordar
more
moreno
morfem
morfemy
morfologija
morfologiji
morfologiskich
morgan
mori
moric
morica
morisonii
moritz
morja
morjach
morjo
morjom
morju
morris
morrison
morsowym
morton
mortwa
mortwe
mortwych
morus
moryczanie
mos
mosak
mosaka
mosambik
mosc
moschata
moscheutos
moses
moskowskej
moskowskeje
moskowski
moskwa
moskwje
moskwu
moskwy
most
mosta
mostami
mostar
mostom
mostow
mosty
motawa
motki
moto
motorski
mount
mountain
mountains
mov
mowe
mowje
mowobruna
mowobrune
mowoc
mowomo
moworo
mowoz
mowozelene
mowozeleny
mowy
moz
mozart
mozilla
mozl
mr
mrd
mre
mro
mrowja
mrowje
mrowjow
ms
msce
mscy
mska
mske
mskeho
mskej
mskeje
mskemu
mski
mskich
mskim
mskimi
msko
mskore
mskostatny
msku
mt
mtv
mu
muc
muce
mucha
muchi
muchow
muchownik
mudra
mudrosc
muell
mueller
muer
mugabe
muhammad
muka
muki
mukowej
muku
mulde
muler
multiflora
multiflorum
multiple
mun
munc
munch
muralis
murgab
muri
murja
murjach
murje
murjer
murjow
murjowa
murju
murmansk
murmanska
murmanskej
murray
mus
musa
musaceae
muscari
muscat
museum
musiat
music
musicalowy
muska
muskau
muske
muskeho
muski
muskich
muskle
muslimojo
mustafa
muster
mustwa
mustwo
musy
mute
mutlic
mutne
mutnje
mutter
muz
muzej
muzeja
muzeje
muzejownik
muzeju
mułkec
mułkecy
mw
my
myc
mych
mydles
mydlica
mydłowcowe
mydłowcowych
mykolajiwa
mykolajiwskej
myosotis
myrica
myricaceae
myricaria
myriophyllum
myrsinoideae
myrsinowe
myrsinowych
myrtaceae
myrtowe
myrtowych
mys
mysla
mysle
myslena
myslis
mystikar
myta
myto
mytologija
mytologiji
mytom
mz
mło
młoda
młode
młodeho
młodeje
młodosc
młodoserbow
młodoserbskeho
młodostni
młodostnych
młody
młodych
młodz
młoz
młyn
młyna
młynk
młynka
młynkec
młynkowa
młynski
n
na
nabe
nabite
naboz
nabudz
naby
nac
nach
nachic
nachrichten
nachsko
nacht
nachwilnje
nacional
nacionaldemokratiskeje
nacionalist
nacionalneho
nacionalny
nacionalsocialisc
nacionalsocialistiska
nacionalsocialistiskeho
nacionalsocialistiskej
nacionalsocialistiskeje
nacionalsocialistiski
nacionalsocialistiskim
nacionalsocialistow
nacionalsocializma
nacionalsocializmej
nad
nadawk
nadawki
nadawkom
nadawkow
nadawku
nadbe
naden
nadez
nadine
nadir
nadobneho
nadobny
nadpad
nadpadnje
nadpadow
nadpadz
nadpis
nadpisa
nadpisowy
nadregionalnje
nadregionalny
nadro
naduty
nadz
nadzemske
nagel
nagelowa
naha
nahe
nahi
nahich
nahladne
nahle
nahlenc
naho
nahrac
nahromadz
nahuatl
nai
naj
najas
najblis
najbliz
najbo
najbohats
najc
najdle
naje
najebac
najgros
najhornis
najhusc
najhłubs
najjuz
najkro
najle
najmjen
najmjenje
najmło
najnis
najnows
najpopularnis
najprjedy
najrjen
najs
najsewjernis
najskerje
najstars
najsylnis
najsławnis
najwaz
najwjace
najwjets
najws
najwuchodnis
najwuspe
najwuznamnis
najwys
najzapadnis
najznac
nakai
nako
nakromne
nakł
nakład
nakładnica
nakładnik
nakładnistwa
nakładnistwje
nakładnistwo
nakładom
nakładz
nalc
nale
nalez
nalic
nalij
nalika
nalikowc
nalikowe
nalikowych
nam
namaka
namakac
namakachu
namakaj
namakaja
namakali
namakamy
namakana
namakane
namakanis
namakanki
namakany
namakas
namakatej
namakał
name
named
namen
names
namespace
nami
namibia
namibija
namibije
namjec
namjet
namjetowac
namjetowany
namjetowas
namjety
namjezna
namo
namołwjes
namre
nan
nana
nanajpozdz
nancy
nanpa
naomi
napadne
napadnje
napadz
napis
napisa
napisami
napisane
napisał
napismom
napisom
napisy
napohlad
napoj
napole
napoleon
napoleona
napoleonskich
naporst
naposledk
naposledku
napoł
napołoz
napr
napras
naprawo
naprawy
napus
nar
naran
naraz
narc
narcisa
narcissus
nardus
nare
naroc
narod
naroda
narodna
narodne
narodneho
narodnej
narodneje
narodnin
narodninam
narodniny
narodnosc
narodnu
narodny
narodnych
narodnym
narodow
narody
narodz
narosc
narowne
narowny
narownych
narownymi
nartheciaceae
narthecium
nartus
narty
naruna
narunac
narunanje
narunał
narva
nas
nasa
nasadz
nasle
naspomni
naspomnichu
naspomniła
naspomniło
naspomnjena
naspomnjene
naspomnjenja
naspomnjenje
naspomnjeny
nassau
nast
nasta
nastac
nastachu
nastajena
nastajenja
nastajenje
nastajeny
nastali
nastanje
nastanu
nastate
nastaty
nastawa
nastawaja
nastawas
nastawk
nastawka
nastawkach
nastawki
nastawkow
nastawku
nastał
nastała
nastało
nastork
nastroj
nastroje
nastrojow
nastup
nastupa
nastupajo
nastupanju
nastupi
nasturtium
nasua
nasyp
nasypa
nasypach
nasypy
nat
natalie
natans
natascha
nathan
nathanael
nation
national
nationale
nato
natoc
natu
natur
natural
naturalistes
naturfu
natus
natwar
natwari
natwaric
natwarichu
natwariła
natwarje
natwarjena
natwarjene
natwarjeny
natwarjes
nau
nauk
naum
naumann
naundorf
nauru
navbar
navbox
nawe
nawigaciju
nawigaciska
nawigacisku
nawitabela
nawitabele
nawitabelu
nawjaza
nawjec
nawjednik
nawjedowar
nawjedowas
nawjeduje
nawjes
nawka
nawkec
nawki
nawod
nawoda
nawodnica
nawodnistwom
nawodom
nawodow
nawodu
nawopac
nawopak
nawro
nawsowc
nawsowca
nawsy
nawukny
nawuknył
naz
nazalne
nazalnje
nazalny
nazalnych
nazarbajew
nazdalina
nazelen
nazhonjenja
nazyma
nazymje
nazymnika
nazymska
nazymske
nazymski
nazymu
nazymy
nałoz
nberg
nbsp
nc
nca
ncach
ncej
nchen
nchez
nchhausen
ncia
ncipe
nco
ncom
ncomaj
ncow
ncowce
ncowka
ncowki
ncowkow
ncowku
ncu
nd
ndchen
nde
nden
nder
ndez
ndr
ndrskich
nds
ndz
ne
neapel
neapla
nebst
nec
neck
neckar
neda
nedo
need
nees
nefeld
negacija
negaciji
negaciju
negatiwne
negatiwnje
neglecta
neglectum
neho
neil
neiße
nej
neje
neju
nek
nekrolog
nektar
nektara
nektarowe
nel
nellie
nelly
nelson
nelumbo
nemoralis
nemorosa
nemu
nen
nena
nencow
nengo
neotrop
neottianthe
nepal
nepalu
nepomuk
ner
neretva
neruda
nerwach
nerwami
nerwna
nerwny
nerwow
nerwy
nes
neschwitz
net
netanjahu
netreba
netrebka
netweaver
network
netzseite
neu
neubert
neudorf
neue
neuen
neuendorf
neues
neuhaus
neukirch
neuko
neumann
neurologa
neuruppin
neustadc
neustadt
neustadta
neustrelitz
neutralne
neutralny
neutrum
nevada
never
neville
nevis
new
news
newton
nexus
nez
nf
nfeld
ng
nge
ngel
ngen
ngengrad
nger
ngere
nh
nhainichen
nhoff
ni
nia
niagara
nic
nica
nicar
nice
nich
nicholas
nicht
nichto
nici
nick
nico
nicola
nicolas
nicolaus
nicole
nicotiana
nicu
nicy
nidło
nidłowe
nidłowych
nie
nieder
niederlausitz
niedersorbisches
niederwiesa
niels
nielsen
niemeyer
niez
nig
nigella
niger
nigerija
nigerije
nigeriski
night
nigra
nigricans
nigritella
nigritiske
nigrum
nigstein
nigswalde
nigswartha
nihdy
nijazow
nik
nika
nikami
nikaragua
nikaraguwaski
nikec
nikecy
niki
nikol
nikola
nikolai
nikolaj
nikolajewic
nikolajewsk
nikolaus
nikolic
nikos
nikow
nikowe
nikowych
nikris
nil
nila
nili
nils
nilu
nim
nima
nimaj
nimaja
nimale
nimatej
nimi
nimo
nin
nina
ning
nino
nio
nis
niska
niske
niskej
niskeje
niski
niskich
nisku
nisou
nistwa
nistwo
nita
nitida
nitki
nitkojta
nitkojte
nitz
niue
nivalis
niwa
niwc
niwowje
niwowy
nixon
niz
nił
niła
niło
nj
nja
njaboz
njach
njachu
njanske
njanskeho
njanskeje
njanski
njanskim
njate
nje
njeakcentowane
njebe
njebjelc
njebjeske
njebjo
njebjom
njebjomo
njeboh
njebro
njebu
njebuchu
njeby
njec
njech
njechan
njechorn
njechornju
njeda
njedaloko
njedo
njedocpe
njedoko
njedosaha
njedyrbi
njedz
njeeksistuja
njeeksistuje
njefunguje
njehladajo
njeho
njehodz
njej
njeja
njejapcy
njejasnje
njeje
njejewi
njejsu
njejsy
njejsym
njek
njekc
njekosmate
njele
njelic
njemcow
njeme
njemen
njemena
njemenu
njemjenowany
njemo
njemu
njen
njena
njenahladne
njenamaka
njenapadne
njenapadny
njenastupi
njenca
njene
njenja
njenjach
njenje
njenjemi
njenjese
njenjesu
njenjow
njenju
njeny
njenych
njenym
njepila
njepokaza
njepokazuje
njeporadz
njeporowje
njeposre
njepr
njeprawidłowna
njeprawidłowne
njeprawidłownje
njeprawy
njeprawych
njepłac
njere
njeregularne
njerodz
njerozdz
njerozeznawa
njerozhałuzowane
njerune
njerunych
njes
njesc
njese
njeserbuje
njeses
njesme
njespe
njesteji
njesu
njeswac
njesymetriske
njesłus
njewa
njewarjene
njewe
njewidz
njewjesc
njewo
njewobkedz
njewobsahuja
njewobsedz
njewobsteji
njewotpowe
njewotwisna
njewotwisne
njewotwisneho
njewotwisnej
njewotwisneje
njewotwisnje
njewotwisnosc
njewotwisny
njewotwisnych
njewotwisnym
njews
njewuspe
njewustupuja
njewustupuje
njewuz
njez
njezabudz
njezamo
njezapomnic
njezboz
njezdas
njezme
njeznaje
njeznarowy
njeznate
njeznaty
njezrałe
njezrosc
njo
njom
njotna
njotne
njotneho
njotnje
njotny
njow
njowe
njowy
njowych
nju
njuje
nk
nka
nkar
nkecy
nki
nkom
nkow
nkro
nku
nky
nl
nlands
nlandska
nlandskej
nlandskeje
nm
nn
nnen
nner
nnnnnn
no
noafriska
noafriski
noafrisko
noameriskeho
nobelowe
nobeloweho
nobilis
noc
nocat
noch
nochcu
nochcys
nocy
nodosa
nodyn
noe
noeditsection
noel
noemi
noetiopiske
noha
nohi
noi
noise
noj
noka
nokorejska
nokorejski
nokwe
nolina
nolinoideae
nolte
nom
nomen
nomenklatury
nomeny
nomina
nominalne
nominatiw
nominatiwje
nominatiwom
non
none
noot
noprajeny
nora
norbert
nord
nordahl
nordhausen
nordhoff
nordiska
nordiski
normalna
normalne
normalnej
normalneje
normalnje
normalnu
normalny
normalnym
norman
normje
north
northern
norwegs
norwegsce
norwegska
norwegskej
norwegskeje
norwegski
nos
nosac
nosamis
nosc
nosemitiske
noserbska
noserbski
noslicy
nosmykarka
nosowy
nost
nostitz
nostne
nostneho
nostny
nosy
nosyn
nosłowjanske
nosłowjanskich
not
nota
note
notes
notica
notoc
notu
notuj
noty
nov
nova
nove
november
novi
novo
novy
now
nowa
nowaja
nowak
nowaka
nowakom
nowane
nowany
nowas
nowc
nowe
noweho
nowej
noweje
nowember
nowembra
nowembrje
nowemu
nowgorod
nowgorodskej
nowin
nowina
nowinach
nowinar
nowinarka
nowinje
nowinow
nowinu
nowiny
nowka
nowo
nowoc
nowoseelandska
nowoseelandskej
nowoseelandskeje
nowoseelandski
nowosibirsk
nowosibirska
nowosibirskej
nowosibirskom
nowoslicy
nowoso
nowotny
nowotwar
nowowe
nowozałoz
nowrap
nows
nowu
nowy
nowych
nowyj
nowym
nowymi
noz
noze
nozelene
nołopjenakowe
nołopjenakowych
npd
nprinc
nr
ns
nschten
nsdap
nska
nske
nskeho
nskemu
nski
nskich
nskim
nsldz
nster
nstler
nt
ntefering
nteichen
nter
nther
nu
nuc
nuclear
nuda
nugent
nuhel
nuje
nuk
nukleus
nuknica
nuknicy
nukusa
nul
nuloweho
nulowy
nulu
number
numeral
numerale
numerus
numerusa
numerusaj
numerusu
numerusy
nun
nuncius
nuphar
nur
nutans
nutr
nutt
nuttallii
nuzna
nuzne
nuznej
nuznje
nuzny
nuzu
nvu
nw
nwald
ny
nyc
nych
nyctaginaceae
nydej
nygace
nyi
nyj
nym
nymaj
nymi
nymphaea
nymphaeaceae
nymphalidae
nymphoides
nysa
nysu
nysy
nyts
nz
nzenberga
o
oazje
oazowe
ob
oba
obama
obec
oben
ober
oberlausitz
oberlausitzer
obero
obersorbisch
obersorbischen
oberwiesenthal
oberz
obje
objekt
objekta
objektow
objektowe
objektowy
objekty
oblasc
oblast
obnik
obodritojo
obovata
obres
oc
occidentalis
occitan
occur
ocean
oceana
oceanija
oceaniji
oceanje
oceanom
oceanow
och
ochotona
ochranow
ochranowska
ochranowskeje
ochridski
ochroleuca
ocimum
ocymoides
od
odd
oder
odesa
odesaskej
odesy
odontites
odorata
odoratum
oe
oelsnitz
oenothera
oeuropska
oeuropski
of
off
office
officinale
officinalis
ofice
oficialna
oficialne
oficialnje
oficialny
oficielna
oficielne
oficielneho
oficielnej
oficielnemu
oficielnje
oficielny
oficielnych
oficielnym
og
oguzskej
oh
ohio
ohne
oho
ohridskeho
ohridski
oi
ois
oj
ojc
ojcach
ojce
ojo
ojska
ojskeje
ojski
ojta
ojte
ojty
ojtych
ojtymi
ojz
ok
oka
okcitans
okcitansce
okcitanske
okcitanski
oklahoma
oko
okres
okrilla
oksid
oktober
oktobra
oktobrje
oktobrom
oktobru
ol
ola
olaf
old
oldenburg
ole
oleaceae
oleracea
oles
olesch
olez
olga
oliv
oliveira
oliver
olivier
oliwozelene
olnik
olny
olochow
olof
ologie
olsem
olsztyn
olta
olympia
olympiska
olympiske
olympiski
om
omaj
oman
ombox
omega
omi
omna
omne
omnik
omnikowe
omnikowych
omny
omnym
omo
omphalodes
omsk
on
ona
onagraceae
onassis
onc
one
onja
onjegaski
onju
onkach
onki
onkow
online
only
onobrychis
ononis
onop
onow
ons
onsce
onske
onskeho
onskej
onski
onskim
onsku
ontario
onu
ony
oo
op
opa
opcionalna
opcionalne
opcionalny
open
openoffice
openstreetmap
opera
operacije
operowa
operowy
opfer
ophrys
oplis
opojty
opol
opole
opolski
opolskim
opomaj
opozicije
optime
opuntia
opuntija
opus
opła
opłe
opłotu
opłych
opłym
or
ora
oralny
oranje
oranz
orb
orba
orbea
orbit
orchester
orchestra
orchidaceae
orchideja
orchidejowe
orchidejowych
orchija
orchis
orders
ordz
ore
oregon
orej
orenburga
orenburgskej
org
organ
organist
organistka
organizacija
organizacije
organizaciji
organizacijow
organizaciju
organizator
organizowachu
organizowas
organizuje
organy
orgyia
oric
orica
orient
orienta
orientale
orientalis
orientalist
origin
original
originala
originalna
originalne
originalnje
originalny
orjol
orka
orlando
orle
orn
orna
ornak
ornakec
orne
ornecy
orneho
ornej
orneje
ornica
ornicy
ornithogalum
ornitologa
ornje
ornjow
ornjowje
orno
ornobo
ornoboha
ornobohom
ornoc
ornoho
ornojte
ornomo
ornosyki
ornu
ornucha
orny
ornych
ornym
orobanchaceae
orobanche
orom
ors
orsesowa
orska
orstwa
orstwo
ort
orte
ortega
ortenburg
ortografija
ortografiji
ortsnamen
ortsnamenbuch
oru
ory
orła
os
osakskim
oscar
osetis
osetiska
osetiskej
osetiskeje
osetskej
osetskeje
osgb
osijek
oskar
oskemena
oslo
osmaniske
osmaniskeho
osmaniski
osmaniskim
osmanow
osmanskeho
osnabru
ost
ostejne
osten
osti
ostrava
ostro
ostrog
oswald
ot
ota
otakar
otakebi
otfried
other
otis
otiska
otiskej
otiskeje
otiski
ottawa
ottendorf
otto
oty
ou
out
ov
ova
ovalis
ovata
ove
over
ovice
ow
owa
owac
owachu
owacy
owacych
owali
owalne
owalnych
owalnymi
owana
owance
owane
owanis
owanja
owanjach
owanje
owanjom
owanju
owanka
owanki
owanska
owanske
owanskeho
owanski
owanskich
owanskim
owany
owanych
owar
owarja
owarjo
owarjow
owarka
owas
ował
owała
owałe
owało
owc
owca
owce
owe
oweho
owej
oweje
owen
owica
owje
owka
owki
owku
own
owna
ownika
ownosc
ownostne
owom
owska
owske
owskeho
owskej
owski
owu
owy
owych
owym
owysokone
oxalidaceae
oxalidales
oxalis
oxford
oz
ozean
ozeane
ozemjan
ozems
ozemsce
ozemska
ozemskeho
ozemskej
ozemskeje
ozemski
ozemskich
ozemskim
ozemsko
oł
oła
ołar
ołarstwo
ołc
ołdz
ołki
ołkow
ołmate
ołmic
ołmik
ołmy
ołow
ołta
ołte
ołteho
ołtej
ołteje
ołtka
ołtnica
ołtobe
ołtobrune
ołtojta
ołtojte
ołtojty
ołtozelene
ołtu
ołty
ołtych
ołtym
ołuz
p
pa
paasikivi
pablo
pac
pachysandra
paciens
pacifiku
pacifiskeho
pad
pada
padach
padding
padleft
padnje
padnjenych
padny
padorunje
padow
padus
pady
padz
paeonia
paeoniaceae
pag
page
pages
paho
pai
paire
paires
pak
pakc
pakic
pakistan
pakistana
pakistanje
pakistanski
palais
palaquium
palast
palasta
palatalizowany
palau
palc
palen
palenc
palenje
paleontologa
palestina
palestine
pali
palisa
paliwaka
pall
pallens
pallida
palma
palman
palmowe
palmowy
palmowych
palne
palow
palowje
paltu
palty
paludosa
palustre
palustris
pama
pan
panama
panamy
panc
panchen
panda
pandz
pane
panero
paneve
panic
paniculata
paniculatum
panicum
panis
panisce
paniska
paniske
paniskeho
paniskej
paniskeje
paniski
panisko
pank
pannonica
panorama
panoramio
panter
panthera
paolo
papa
papaver
papaveraceae
paprika
paproc
papuwa
par
para
paraguay
paraguayan
paraguayja
paraguayju
paraguayski
paralelnje
paramdypk
parameter
parameters
parametra
parametrach
parametraj
parametrami
parametrje
parametrom
parametromaj
parametrow
parametry
parazitnic
parchim
parcowski
parczewski
parietaria
paris
parisa
pariski
parisu
parizu
park
parka
parkach
parker
parki
parkom
parkow
parkowy
parks
parku
parla
parlamenc
parlament
parlamenta
parlamentariska
parlamentariski
parlamentowych
parochie
parry
parserskimi
parsons
partei
parthenocissus
particip
participy
partikla
partikle
partiklu
partitiw
partner
partnerske
party
parukownik
parviflora
pas
pasaz
pascal
pasiw
pasma
pasmach
pasmje
pasmo
pasmom
pasmow
pasnik
passiflora
passifloraceae
pasternak
pastwach
pastwis
pastyr
pat
pata
pater
patny
patra
patriarch
patricia
patrick
patrik
patrono
patta
patula
pau
paul
paula
pauli
paulo
paulownia
paulowniaceae
paulus
pav
pavel
pavle
pawc
pawel
pawkowa
pawlina
pawlowsk
pawoł
pawoła
pawołej
pawołom
pax
payne
paz
pazlic
pazlicach
pazlicy
pc
pd
pdf
pds
pe
peak
pec
pech
pedagog
pedagoga
pedagogiku
pedagogiski
pedagogowka
pedaliaceae
peder
pedicularis
pedro
peipuski
peking
pela
pelargonija
pelargonium
pelhr
pen
pendula
penis
pennsylvania
pentandra
penza
people
pepper
per
perenne
perennis
perepiat
perepiatycha
perfekt
perfoliata
perforatum
perikarp
perioda
periodu
periody
periodz
perkusionist
perma
permske
permskim
pernak
pernambuco
pero
perrier
perry
pers
persica
persicaria
persis
persiske
persiskeho
persiskej
persiskeje
persiski
persiskim
personalne
personennamen
perspektiwy
perss
peru
peruski
peruviana
peruwa
peruwje
petar
pete
peter
petera
petersburg
petersen
petit
petr
petra
petraea
petri
petro
petrorhagia
petrowic
petrus
petry
petunia
petunija
petzold
peuker
peve
pez
pfalca
pfalcu
pfalcy
pfeiffer
pfer
pflanzen
pflanzenfu
pflanzennamen
pflanzenportra
pflanzenr
pflanzenwelt
pflege
pful
pgp
ph
phacelia
phaeum
phalaris
phaseolus
phi
phil
philadelphus
philip
philipp
philippa
philippe
philippinen
phillips
phleum
phlomis
phlox
phoenix
php
phylogenetic
phylogenetics
phylogeny
phytelephas
phytolacca
phytolaccaceae
phyton
pi
pia
piaf
pianist
pianistka
pic
pica
picea
pichow
picnjanskeho
picnjo
picnju
pico
picowanska
picramniaceae
picu
pidgin
pidz
pie
pieces
pieck
pier
pieris
pierre
pies
piet
pietist
pietistow
pietizma
pietro
pihawka
pija
pije
piju
pik
pikinini
piko
pikselach
pikselow
pilk
pilop
pilosa
pilot
pilotka
pilulifera
pilzen
pimenta
pin
pinaceae
pinguicula
pink
pinochet
pinus
pione
piotr
pipe
piper
piperaceae
pis
pisa
pisac
pisachu
pisaj
pisaja
pisana
pisane
pisanja
pisanje
pisanju
pisanske
pisany
pisar
pisas
pisał
pisin
pisma
pismach
pismawjedz
pismik
pismika
pismikaj
pismikami
pismikej
pismiki
pismikistajer
pismikom
pismikomaj
pismikow
pismikowanju
pismje
pismo
pismow
pismowe
pismowstwa
pismowstwo
pisomne
pisomnje
pistacia
pistacija
pisum
pitosporum
pittosporaceae
pius
piwa
piwarnja
piwarnje
piwo
piz
piła
piłsudski
pjaca
pjacy
pjan
pjasc
pjata
pjate
pjateho
pjateje
pjatk
pjatnac
pjaty
pjatym
pje
pjec
pjech
pjecy
pjedlic
pjedz
pjekar
pjekarski
pjelnjene
pjelsc
pjen
pjenjez
pjenjezy
pjenk
pjera
pjerite
pjeritych
pjerkojta
pjerojty
pjers
pjetas
pl
pla
plac
plahowane
plahowanje
plahuja
plahuje
plain
plan
plana
planach
planch
planck
planet
planeta
planowa
planowana
planowane
planowaneho
planowany
planowar
planowas
planowe
planoweje
plant
plantaginaceae
plantago
plantarum
plantas
plantilla
plants
planuje
plany
plata
platana
platanaceae
platanthera
platanus
platforma
platformy
platowej
platy
platycarpa
platyphyllos
platz
platzeck
play
ple
please
plebeius
plec
plena
ples
plesawka
plesna
pln
plouc
plu
plumbaginaceae
plummer
plunkett
plural
plurala
pluraliski
pluralowe
pluralu
plus
pluskwamperfekt
plusnikecy
pluwizna
pluwizny
ply
png
pngdataja
pnica
pnicowe
pnicowych
po
poa
poaceae
pobo
poboz
pobrachuje
pobrjo
pobrjoha
pobrjohach
pobrjohom
pobrjohu
pobrjoze
poc
pochad
pochada
pochadna
pochadz
pochod
pochowa
pochowana
pochowany
pod
poda
podac
podaj
podaja
podata
podate
podatu
podaty
podawa
podawac
podawaja
podawanje
podawas
podawk
podawki
podawkow
podał
podc
poddruz
poddz
pode
podilskyj
podjes
podklasa
podkopki
podkopkow
podle
podlez
podnjesterska
podnjesterskej
podnurjene
podoba
podobna
podobne
podobnej
podobnje
podobnosc
podobny
podobu
podocarpus
podokarpus
podokarpusowe
podolskej
podolskeje
podołhojte
podołhostnej
podołhostnych
podpe
podpis
podpisa
podporjad
podpr
podro
podrobnosc
podroda
podrodow
podroz
podrys
podsekcija
podskupina
podskupinu
podskupiny
podstars
podsteja
podstejes
podstrona
podstrony
podstupim
podstupimje
podstupimske
podswo
podtitul
podtitulom
podtribus
podwo
podz
podzemske
podzemskich
podłu
poet
poezija
poezije
pogoda
pohl
pohlad
poho
pohonc
pohrjebnis
poir
pojark
pojednanja
pojednanjow
poka
pokaza
pokazac
pokazachu
pokazaj
pokazaja
pokazanje
pokazał
pokazka
pokazowac
pokazuja
pokazuje
pokazujo
pokerowar
pokiw
pokiwy
pokroc
pokrywa
pokutny
pol
pola
polach
polacy
polak
polakow
polarne
polarneho
polarny
pole
polemoniaceae
polemonium
polenz
poli
policajski
policija
policije
politbe
politice
politics
politik
politika
politikar
politikarjow
politikarka
politiki
politiku
politisce
politische
politischen
politiska
politiske
politiskeho
politiskej
politiskeje
politiski
politiskich
politiskim
politisku
politologa
politologowka
poliwka
polo
polonicum
polow
polska
polski
polskiego
polsko
poltawskej
poltawy
polu
polycarpa
polycnemum
polygala
polygalaceae
polyglot
polygonaceae
polygonatum
polygonum
polyommatus
pomału
pome
pomha
pomhac
pomhaj
pomhas
pomjen
pomjenowa
pomjenowachu
pomjenowana
pomjenowane
pomjenowanja
pomjenowanje
pomjenowany
pomjenowanych
pomjenowas
pomjenował
pomjenuja
pomjenuje
pomjezna
pomjezneje
pomnik
pomnika
pomnikaj
pomnikami
pomniki
pomnikom
pomnikos
pomnikow
pomnikowej
pomniku
pomo
pomoc
pomocna
pomocne
pomocneho
pomocnik
pomocny
pomocnych
pomocu
pomocy
pomorcy
pomorske
pomorskim
pomurnik
pona
pone
ponich
ponichoweje
ponos
ponowe
pontia
pop
popadnyc
popec
popis
popisom
popjer
popjerjowc
popjernik
popla
popojcach
popojce
popov
popowa
popowy
poprad
poprawom
popro
popularnowe
popularny
population
populus
por
pora
porach
poradz
porami
poraz
porc
porchow
porchowa
pore
poriki
porjad
porjada
porjadk
porjady
porjedz
porn
porno
pornografija
pornografije
pornographie
pornography
porodz
poros
porow
pors
porsc
porst
porstnik
port
porta
portal
porter
porto
portrait
portret
portretowy
portugals
portugalsce
portugalska
portugalskej
portugalskeje
portugalski
portugalsko
portulaca
portulacaceae
portłak
portłakowe
portłakowych
poruc
pory
porynsko
pos
posaarska
posaarskej
posaarskeje
posedz
poselstwo
posesiwne
posesiwny
position
positionskarte
posjolok
poskic
poskitk
poskitkom
posle
posledni
poslednich
poslednim
poslednja
poslednje
poslednjeho
poslednjej
poslednjeje
poslednjemu
poslednju
posmjertne
posmjertniny
posole
posoł
posoła
pospe
pospyt
pospyty
posre
post
postaja
postajena
postajene
postajenja
postajenje
postajenju
postajeny
postaji
postajic
postajił
postawa
postawy
postpozicije
postup
postupowace
postupowacy
posudz
poswjec
posyłki
posyłkow
posłownje
posłuz
potac
potajkim
potamogeton
potamogetonaceae
potaninii
potentilla
potoc
potocki
potok
potom
potomnicy
potomnikow
potre
potrjebuja
potrjebuje
potrjeby
potrjechena
potrjechene
potrjecheneho
potrjechenej
potrjecheny
potrjechenym
potsdam
potter
potło
pour
poustevna
pove
pow
powe
powell
powiat
powiata
powiatej
powiatom
powiaty
powjerch
powjercha
powjerchom
powjerchu
powjets
powo
powoblic
powodz
powostanki
powoła
powołachu
powołanja
powołanje
powołanske
powołanskeho
powołany
pows
powuc
powys
poz
pozadk
pozadka
pozadkom
pozadku
pozawnist
pozbe
pozbudz
pozdatna
pozdatne
pozdatny
pozdatnych
pozdatnym
pozdecy
pozdz
pozicija
pozicije
poziciji
poziciju
poziciska
poziciskeje
poziciskich
pozitiwnje
poznan
poznanju
poł
połc
połchło
połdra
połkule
połkuli
połkupa
połkupje
połkupu
połkupy
połle
połme
połne
połny
połnych
połnym
połobs
połobscy
połobske
połobski
połobskich
połodnic
połojca
połojcu
połojcy
połon
połoz
połpica
połpicy
połpr
połsc
połsta
połsuchich
pp
ppiu
pr
pra
prades
pradomizna
praecox
praetorius
prager
praha
prahi
prahu
prajene
praji
prajic
praksy
praktiskich
prale
prapremjera
prare
pras
praskeho
praskej
praskeje
praski
praskim
prastawiznar
pratense
pratensis
prawa
prawach
prawdz
prawe
praweho
prawej
praweje
prawicarska
prawicarski
prawidła
prawidłach
prawidło
prawidłow
prawidłowne
prawidłownje
prawidłowny
prawiznica
prawiznik
prawje
prawniske
prawniski
prawnistwa
prawnistwo
prawo
prawoc
prawopis
prawopisa
prawopisny
prawopisu
praworo
prawosławna
prawow
prawowe
prawy
prawym
praz
praze
pre
prec
predefinic
predigergesellschaft
predikat
predloga
predloz
preferuje
prefiks
prefiksa
prefiksow
prefiksy
preis
premier
premiera
premierka
premierminister
premierministerka
premierministrom
prenzlau
preparandu
prepozicija
prepozicije
prepozicijow
prepoziciju
pres
presbyter
president
presl
press
preterita
preteritum
preußischen
preußler
prezens
prezensa
prezidenc
prezident
prezidenta
prezidentej
prezidentka
prezidentku
prezidentom
prezidentowe
prezidentowych
prezidentstwo
prezidija
pri
pric
prima
primarne
primorskim
primula
primulaceae
princ
princa
prince
princesna
princip
principal
prinz
prioritu
pripjata
pris
pritzelago
priwatiw
priwatiwny
priwatna
priwatne
priwatny
prjawoz
prjedaws
prjedownikow
prjedy
pro
problem
problemow
problemy
procent
procentach
procentami
procentow
proces
procesion
procesu
procesy
procha
procumbens
procyon
prodrustwownik
producent
producentka
product
produkcije
produkciju
produkowanje
produkt
produktiwny
produkty
produkuja
produkuje
prof
profesor
profesora
profesorom
profesorow
profesuru
program
programa
programe
programej
programje
programow
programy
project
projekc
projekcija
projekciji
projekciske
projekt
projekta
projekty
prokop
prokudin
proleptic
promjenja
promjenjach
promjenjow
promjes
promjo
promowowana
promowowany
promowowas
prompt
pronomen
pronomena
pronomenach
pronomenje
pronomenow
pronomeny
propagator
properties
proporcije
pros
prosc
prosta
prostak
proste
prostrata
prosty
protec
protest
protestanc
protestantiski
proto
protyce
protyka
protykar
protyki
protyku
provenc
prowinca
prowincach
prowincow
prowincu
prowincy
proz
proza
prozaist
prozu
prozy
pru
pruc
prunella
prunifolia
prunus
prus
pruska
pruske
pruskeho
pruskej
pruskeje
pruski
pruskim
prusko
prut
pruwowanje
pruz
prynkojte
prypjat
prys
pryskawc
ps
psalmow
psalmy
pseudo
pseudoacacia
pseudofumaria
pseudolysimachion
pseudonym
pseudonymom
pseudotsuga
pskowskej
psowje
psowodz
pstruhac
psy
psyc
psychiater
psychoanalytikar
psycholog
psychologa
psychologie
pt
ptac
ptak
ptaki
ptakow
pttk
pu
pubescens
publ
public
publicist
publicistka
publik
publikacije
publikacijow
publique
puc
puccinellia
pucherjak
pucherjakowe
pucherjakowych
puerto
puertorikoski
puka
puknje
puknu
pukpuk
pulchellum
pulcherrima
pulchra
pulegioides
pulsatilla
pumila
pumilio
pumilum
pumpa
punctata
punk
pupawac
pupk
pupki
pupkowe
purkyne
purple
purpurascens
purpurbarbne
purpurc
purpurea
purpureum
purpurne
purpurowa
purpurowe
pursh
pus
pusc
pusilla
pusta
pustych
putin
putnik
putnikowe
putnikowych
putniske
px
py
pyr
pyracantha
pyramidalis
pyrenaica
pyrenaicum
pyrenejach
pyrenejow
pyrenejska
pyrinae
pyrola
pyrolaceae
pyrus
pys
pysc
pysk
pyskate
pyskawa
pyskownic
pyta
pytac
pytanje
pytas
płac
płachtakowar
pławna
pławno
pło
płoda
płodami
płodow
płodowa
płodowe
płodoweho
płodoweje
płodoweju
płodowu
płodowy
płodowych
płodowym
płody
płodz
płomjenja
płomjenjowka
płomjo
płon
płona
płone
płonina
płoninach
płoninje
płoninow
płoninu
płoniny
płonje
płony
płonych
płotach
płun
płuwac
płuwaca
płuwar
płuwarka
q
qaiser
qarshi
qashqadaryoskej
qu
qua
quadrivalvis
quatre
que
queen
queensland
quelle
quellen
quercus
qui
quinn
quinquefolia
quito
quo
qwerty
r
ra
raab
rab
rabbi
rac
raca
race
racej
racemosa
rach
racha
rachel
rachlow
rachlowa
rachlowc
rachlowje
rachow
rachowa
rachowje
rachu
racin
rackwitz
rad
rada
radama
radde
rade
radeberg
radiarsymetriske
radiata
radibor
radijo
radio
radius
radlubin
radnica
radnicu
radnicy
radom
rados
radosc
radovan
radowas
rads
radu
radus
radwor
radworc
radworja
radworju
radworska
radworske
radworskeho
radworskej
radworskeje
radworski
radworskich
radworskim
radworsku
rady
radyserb
radz
raf
rafael
rafflesia
rafflesiaceae
rahmenlos
raimondo
rain
rainbow
rainer
raj
raja
rajon
rajona
rajonje
rajonow
rajs
rajtarki
rak
rakec
rakecach
rakecy
rakojdach
rakojdy
rakotonas
rakuska
rakuskeho
rakuskej
rakuskeje
rakuskemu
rakuski
rakusko
ralbic
ralbicach
ralbicy
ralf
rallyejowy
ralph
ram
rama
ramelow
ramik
ramiku
ramo
ramona
ramosum
ran
rana
ranavalona
randall
randy
rane
rang
ranis
ranja
ranje
ranju
rano
ranunculaceae
ranunculus
rany
rapa
rapac
raphanus
rapper
rapperka
rar
rard
ras
rastko
rasy
rat
ratar
ratarja
ratarjow
ratarske
ratarskeho
ratarski
ratarskich
ratarstwje
ratarstwo
rathaus
ration
rau
ravensbru
rawa
rawc
rawca
rawcow
rawka
rawp
rawpowa
rawska
ray
raymond
raz
razej
raznje
razow
razu
razy
rał
rba
rbb
rbel
rbow
rbu
rby
rc
rca
rce
rcec
rchb
rchen
rchenkojte
rchow
rchowa
rchowje
rchtegott
rcom
rcu
rcy
rde
re
reagan
reagon
real
rebecca
rec
rech
rechnerische
rechts
recordings
records
rect
recta
red
redakcije
redakciji
redakciju
redaktor
redaktora
redaktorka
redaktorom
redaktorstwo
redaktorstwom
reden
redigowas
redirect
redler
redukowane
reduplikacija
reed
referendumje
referent
refleksiwne
reflist
reformacija
reformacije
reformaciji
reformator
reformje
reformowany
reformowar
reformu
reformy
reftext
regalis
regel
regensburg
regent
reggaejowy
regia
regina
reginald
regio
region
regiona
regionach
regionalna
regionalne
regionalneho
regionalnje
regionalny
regionalnych
regionalnym
regionam
regionej
regionje
regionow
regiony
regni
regnitz
regularna
regularnje
rehder
reich
reicha
reichenbach
reihe
reiherschnabel
reimann
reiner
reinhard
reinhardt
reinhold
reinmuth
reise
rej
rejowar
rejowarka
rejtinga
rejwar
rektor
rekursion
relationships
relativ
relatiwnje
relewantne
relief
reload
ren
renate
renato
renc
render
rene
renesansy
renner
renstein
rentsch
repens
repert
replace
reportaz
reporter
reprezentant
reprezentuje
reprint
reptans
repu
republic
republice
republik
republika
republikanska
republikanskeje
republiki
republikow
republiku
republiky
rer
res
research
reseda
resedaceae
resident
resources
resp
respektiwnje
ret
reticulata
retorikar
retrova
return
retusa
reut
rev
reveal
review
revista
revolution
revue
rewe
rewolucija
rewolucije
rewoluciji
rewoluciju
rewolucionar
rewolucionarka
rex
rey
reykjavi
rez
reza
rezerwat
rezerwata
rezidenca
rezidencu
rezultat
rezultuje
rfer
rfler
rg
rgb
rgen
rgens
rger
rgy
rh
rhamnaceae
rhamnus
rhein
rhen
rhenis
rheum
rhinanthus
rhino
rhizophoraceae
rho
rhus
rhynchospora
rhythm
ri
ria
ribes
ric
rica
ricardo
rice
rich
richard
richarda
richards
richardson
richter
ricinus
rick
rico
rieger
rietschel
rietschelowych
rietzschel
riga
right
rigi
rigida
rijeka
rijenk
rijki
rik
rili
rimski
rin
rina
ring
ringen
rinowe
rinowy
riny
rio
riordan
rire
ris
riski
rita
ritter
ritz
river
rivera
rivularis
riwi
riwne
riwneho
riwych
rix
rixdorf
rizo
rił
rja
rjachu
rjad
rjada
rjadach
rjadce
rjadej
rjadnik
rjadny
rjadom
rjadomaj
rjadow
rjadowane
rjadowanje
rjadowe
rjadownje
rjadowy
rjadu
rjaki
rjana
rjany
rjaponka
rjata
rjatow
rjazanskej
rje
rjec
rjeda
rjedz
rjeja
rjek
rjekny
rjemjeslnik
rjemjeslnikow
rjemjesło
rjen
rjena
rjenc
rjencowe
rjencowych
rjene
rjeneho
rjenej
rjenja
rjenje
rjenjom
rjenjow
rjenju
rjenska
rjenske
rjenski
rjenu
rjeny
rjenych
rjenym
rjer
rjes
rjetkej
rjo
rjow
rju
rjuja
rjuje
rk
rka
rkach
rkatej
rkaty
rke
rkej
rki
rkisch
rkmenabata
rkmenbas
rko
rkosło
rkow
rkowach
rkowc
rkowcowe
rkowcowych
rkowow
rkowy
rku
rla
rle
rlenk
rli
rlica
rlich
rlicy
rlitz
rlus
rmer
rn
rna
rnac
rnberg
rnbergu
rne
rneho
rnej
rneje
rner
rnica
rnicowe
rnicowych
rnicy
rnik
rnika
rnikec
rnikecy
rnikom
rnikow
rnis
rnistwa
rnistwje
rnistwo
rnistwowe
rnjaca
rnjacy
rnje
rno
rnosc
rnow
rnołuz
rnu
rny
rnych
rnym
ro
road
roalson
rob
robbins
robert
roberta
roberto
roberts
robertson
robespierre
robin
robinia
robinija
robinson
roboc
robruna
robrune
robur
robustna
roc
rocha
roche
rock
rockabillyjowy
rockowa
rockoweje
rockowy
rod
roda
rodach
rodaj
rodami
rodecy
rodej
rodni
rodolfo
rodom
rodomaj
rodos
rodow
rodowe
rodrigo
rodu
rody
rodz
roelof
roem
rogen
roger
rogers
rogow
rogozno
rohac
rohodz
rohowcowe
rohowe
rohowin
roj
rok
roka
roke
rokeho
rokej
roki
rokich
rokim
roko
rokosc
rokostnik
rokostniki
rokostnikow
roku
rolach
roland
rolf
roll
rolling
rollowy
roloff
rolu
rom
roma
roman
romana
romance
romaniska
romaniske
romaniskich
romanist
romanje
romanow
romantiki
romany
romjanow
romje
romjenjo
romo
roms
romska
romske
romskeho
romskej
romskeje
romski
romskim
romsko
romuald
ron
ronald
ronan
rondo
ronnie
ronny
roosevelt
ropjelsc
ropucha
rory
ros
rosa
rosaceae
rosales
rosc
rose
rosea
roselt
rosenberg
rosenthal
roslin
rosmarinus
rosowka
rosowkowe
rosowkowych
ross
rossi
rostlin
rostlina
rostlinach
rostlinam
rostlinami
rostlinje
rostlinow
rostlinska
rostlinske
rostlinski
rostlinskich
rostlinskim
rostlinu
rostliny
rostock
rostok
rostow
rostu
rot
rota
rote
roth
rothmaler
rothschild
rotterdam
rotundifolia
rotundifolium
rotwarc
routemaprouteicon
rouy
row
rowa
rowac
rowaca
rowace
rowachu
rowacy
rowali
rowami
rowana
rowane
rowanja
rowanje
rowanjemi
rowanju
rowanske
rowany
rowanych
rowar
rowas
rował
rowała
rowc
rowcowe
rowe
roweho
rowej
rowje
rowna
rownis
rowno
rownoho
rownom
rowohlt
rowow
rows
rowy
rowych
roxb
roy
royal
roz
rozbudz
rozc
rozdz
rozec
rozelena
rozelene
rozeta
rozetu
rozeznawa
rozeznawac
rozeznawaja
rozeznawanje
rozeznawatej
rozhałuz
rozhałuzowana
rozhałuzowane
rozhałuzowanja
rozhałuzowany
rozhałuzowanych
rozhlad
rozhlada
rozhladna
rozhledz
rozhło
rozhłosa
rozhłosowa
rozhłosoweho
rozhłosownik
rozhłosowy
rozhłosu
rozkazowar
rozkc
rozko
rozlatc
rozmach
rozme
rozmnoz
rozmołwy
rozpac
rozpadnu
rozpadz
rozpjers
rozporach
rozpr
rozprawa
rozprawjes
rozprawy
rozpus
rozpłodz
rozraz
rozrjadowanje
rozrjaduja
rozrjaduje
rozrosc
rozrybowane
rozrybowanju
rozs
rozsud
rozsudny
rozsudz
rozswe
rozumi
rozumic
rozumja
rozwic
rozwod
rozwuc
rozz
rołce
rołka
rołki
rołkojte
rołkowe
rołku
rołowo
roły
rp
rq
rr
rs
rska
rske
rskeho
rskej
rskeje
rski
rskich
rskim
rsku
rst
rstenberg
rster
rt
rta
rtb
rte
rteho
rtej
rter
rterbuch
rtk
rtner
rttemberg
rttembergska
rttembergskej
rttembergskeje
rttembergsko
rty
rtym
ru
ruanda
ruandy
rubar
rubel
rubens
rubia
rubiaceae
rubicaulis
rubin
rubinstein
rubjez
rubra
rubrum
rubus
ruc
ruce
ruda
rudej
rudi
rudne
rudnik
rudnoho
rudnych
rudolf
rudolfa
rudolph
rufa
rufus
rugbyjowc
rugiswalde
rugosa
ruhr
ruhrskeho
ruina
ruiz
ruj
ruja
rujany
ruje
rujetej
ruka
rukach
rukej
ruki
rukojc
rukojte
rukomaj
rukopis
rukopisow
rukopisu
rukow
ruksz
ruksze
rukszenice
ruku
rule
rulik
rum
ruma
rumburk
rumej
rumex
rumje
rumnosc
rumnostnje
rumunojo
rumuns
rumunsce
rumunska
rumunskeho
rumunskej
rumunskeje
rumunski
rumy
runa
rundschau
rundung
rune
rung
runge
runicy
runina
runinje
runinu
runiny
runja
runje
runjez
runklica
runoc
runoprawosc
runy
runych
rupac
rupestre
rupestris
rupicola
rupija
rupik
rupikowe
rupikowych
ruppia
rupr
rus
ruscaceae
rusce
ruscus
rusins
ruska
ruske
ruskeho
ruskej
ruskeje
ruskemu
ruski
ruskich
ruskim
rusko
rusku
ruskusowe
ruskusowych
rusojo
rusow
russell
russia
russian
russischen
rut
ruta
rutaceae
ruth
rutowe
rutowych
rutwica
rwalde
ry
ryan
ryba
rybarstwo
rybnica
rybnis
rybork
rybow
ryby
ryc
rychbach
rychtar
rychtarja
rychwałd
rychwałdskej
rychwałdskeje
rychwałdsku
rychwałdz
rydb
ryn
ryna
rync
rynje
rys
rysowanski
rysowar
rysowarka
rysuje
ryszard
ryz
ryzawa
ryzawy
ryzy
rz
rzburg
rze
rła
rłach
rło
rłow
rłowy
rłowych
rłowym
s
sa
saale
saar
saarbru
saaremaa
saarje
sabine
sablon
sac
saca
sacach
sacaj
sach
sacha
sachalin
sachalinska
sachalinskej
sachs
sachsen
sacow
sacy
sad
sada
sadach
sadlic
sadow
sadowy
sadowych
sadu
sady
sadz
saechsische
saffron
sagen
sagina
sagittaria
saha
sahace
sahaja
sahara
saharje
saharu
sahary
sahelske
sahra
said
saint
sakanja
sakska
sakske
sakskeho
sakskej
sakskeje
sakskemu
sakski
sakskich
sakskim
saksko
saksku
saksofonist
saksoswe
sale
salecharda
salicaceae
salicifolia
salicornia
salisb
salix
salomon
salowski
salsola
salt
salvador
salvadorski
salvatore
salvia
salzburg
sam
sama
samara
samarkanda
samarqandskej
samarskej
sambija
sambiju
sambir
sambiski
sambucus
same
samej
sameje
sami
samis
samiska
samiske
samiskich
sammy
samo
samoa
samoho
samojedz
samolus
samostatna
samostatne
samostatnej
samostatneje
samostatneju
samostatnje
samostatnosc
samostatnu
samostatny
samostatnych
samsna
samsne
samsneho
samsnej
samsneje
samsnje
samsnu
samsny
samsnym
samsnymi
samuel
samuela
samych
samym
san
sanc
sand
sandawe
sander
sanders
sandra
sandro
sandz
sane
sanguineum
sanguisorba
sanicula
sankt
sanogo
sanskrit
sanskrita
santa
santalaceae
santiago
santo
santos
sap
saparmurat
sapawa
sapawje
sapindaceae
saponaria
saponiny
sapotaceae
sar
sarah
sarajewje
sarajewo
saratow
sarda
sardiniska
sardiniskej
sardis
sardisce
sardiski
sarkozy
sarracenia
sas
satelit
satelitowe
satelitowy
saterfrizis
saterland
satirikar
sativa
sativum
sativus
satkula
satkule
satureja
satyrium
satzzeichen
sauer
saururaceae
saururus
sav
save
sawa
sawana
sawdi
saxatile
saxatilis
saxifraga
saxifragaceae
sbe
sc
scabiosa
scabra
scandens
sce
sceny
sch
scha
schadz
schaefer
schafgarbe
schauer
scheele
schen
schenk
schildau
schiller
schilling
schirach
schke
schleicher
schleife
schlesien
schleswigsko
schlo
schloss
schltdl
schltr
schlu
schmaler
schmeil
schmid
schmidt
schmitt
schmutz
schneeberg
schneid
schneider
schnell
scho
schodz
schoenoplectus
schoenus
scholl
scholz
scholze
schori
schott
schowa
schowanym
schownja
schownje
schownju
schrankia
schraubel
schreiber
schreiner
schrenk
schriften
schriftenreihe
schriftsteller
schro
schronisko
schu
schubert
schuck
schulenburg
schult
schultz
schultze
schulz
schulze
schum
schumacher
schumann
schur
schuster
schwali
schwarz
schwarze
schwarzer
schwedt
schwegler
schweiz
schweizer
schwerin
schwesig
sci
sciadopitys
science
sciencefictionowy
scilla
scirpoides
scirpus
scleranthus
scolochloa
scop
scoparius
scorpioides
scott
scrophularia
scrophulariaceae
scutellaria
scy
scyła
sd
sdaj
sdot
se
sea
seamonkey
sean
search
seattle
sebastia
sebastian
sebi
sebje
sebnitz
secale
second
sect
section
securidaca
securigera
sed
sedlic
sedlis
sedmac
sedme
sedmihro
sedmjoch
sedmy
sedum
sedz
sedło
see
seehofer
sei
seidel
seifert
seiffen
sein
seine
seiner
seite
sej
sejm
sejma
sejmej
sejmika
sejmje
sejmow
sejmski
sek
sekcija
sekcije
sekcijow
sekciju
seklic
sekretar
sekretara
sekretarka
sekretarom
seksualne
sektion
sekunda
sekundach
sekunden
sekundow
sekundy
sele
selecta
selenc
selimovic
selma
selo
selorodz
sem
seme
seminar
seminara
seminarje
seminarski
semitiske
semitiskich
semper
sempervirens
sempervivum
sen
senata
senator
senegal
senegalski
senftenberg
senior
seniorow
sensu
sep
separatistiskej
separatistiskeje
sepicy
sepium
september
septembra
septembrje
sequences
sequoia
sequoiadendron
ser
sera
serb
serbach
serbaj
serbam
serbami
serbin
serbinje
serbis
serbisce
serbiska
serbiske
serbiskeho
serbiskej
serbiskeje
serbiski
serbisko
serbiskochorwats
serbja
serbow
serbowe
serbowka
serbowki
serbołuz
serbs
serbsce
serbscy
serbska
serbske
serbskeho
serbskej
serbskeje
serbskeju
serbskemu
serbski
serbskich
serbskim
serbskimi
serbskitv
serbsko
serbskopazlic
serbskore
serbsku
serbstwa
serbstwo
serbterm
serew
sergej
sergejewic
sergio
serija
serije
seriji
serijowy
seriju
serlica
sernjan
sernjany
serotina
serpik
serpyllifolia
serrasalmus
serrata
sers
server
serwer
ses
sessions
set
setacea
setaria
setosa
sets
setzen
seven
severin
seversk
sew
sewastopol
sewjer
sewjera
sewjerje
sewjerna
sewjerne
sewjerneho
sewjernej
sewjerneje
sewjernemu
sewjernje
sewjernu
sewjerny
sewjernych
sewjernym
sewjero
sewjeroafris
sewjeroc
sewjerofrizis
sewjerogermanske
sewjeroirski
sewjerokorejski
sewjerone
sewjerorynsko
sewjerosakskim
sewjerosamis
sewjerowuchod
sewjerowuchoda
sewjerowuchodne
sewjerowuchodneho
sewjerowuchodnej
sewjerowuchodneje
sewjerowuchodni
sewjerowuchodnje
sewjerowuchodny
sewjerowuchodnym
sewjerowuchodz
sewjerozapad
sewjerozapada
sewjerozapadna
sewjerozapadne
sewjerozapadneho
sewjerozapadnej
sewjerozapadneje
sewjerozapadnje
sewjerozapadnym
sewjerozapadz
sewjeru
sex
seybold
sg
sh
shadow
shakespeare
shaw
shehbaz
shelby
sheldon
shift
shirley
sho
should
show
si
sia
siatkowska
sibirica
sibiricum
sibirska
sibirskej
sibirskeje
sich
sichuan
sicilska
sicilskej
sicilskeje
side
sidney
sie
sieb
sieben
siebold
sieboldiana
sieboldii
siedlung
siegfried
siegmund
siehe
siemens
sienfan
sierra
sigismund
sigmar
sigmund
sign
sigrid
sigrun
sike
sil
silene
silke
silly
silva
silvana
silvestris
silvio
sima
simaroubaceae
simbabwe
simbabweski
simferopola
simmonds
simon
simone
simonom
simonowa
simple
simplex
simpson
sims
sin
sina
sinai
sinapis
sind
sinensis
singer
single
singt
singular
singulara
singularje
sinologa
sinpin
sint
sir
siraya
sire
sisymbrium
sit
situacija
situacije
situaciji
situaciju
siwerskyj
size
sj
sjabloon
sk
ska
skabelon
skach
skaits
skakanski
skakar
skakarka
skala
skale
skalinka
skalna
skalne
skalnic
skalny
skalnych
skalu
skandinawiska
skandinawiskej
skandinawiskeje
skanec
skanecy
skaskow
skata
skaty
skatych
skała
skałach
skałar
skałarja
skałow
skału
skały
ske
skec
skecy
skedz
skeho
skej
skeje
skemu
skerje
ski
skic
skich
skie
skim
skimmia
skin
skinner
skjarbos
sknic
sko
skomponowa
skopje
skopju
skora
skorach
skorje
skoro
skoru
skosłowakska
skosłowakskej
skosłowakskeje
skosłowakski
skow
skowa
skowc
skowe
skowej
skowka
skownic
skowy
skowych
skr
skradin
skro
skruc
sku
skulojc
skupin
skupina
skupinach
skupinam
skupinami
skupinan
skupinje
skupinomaj
skupinow
skupinu
skupiny
skutk
skutka
skutkowac
skutkowachu
skutkowacy
skutkowali
skutkowanja
skutkowanje
skutkowanju
skutkowas
skutkował
skutkuje
sky
skyline
skład
składnosc
składnostnje
składnostny
składowac
składz
skłoninach
skłoninje
sl
sla
slade
slater
slav
slave
slavic
slavica
slavische
slavischen
slavisk
slawen
slawische
slawist
slawistiki
slawistiku
slawistka
sle
slepjanska
slepjanskej
slepjanskeje
slepo
slepoho
slepom
slepych
sleumer
slim
slinc
slink
slinka
slinku
slip
slo
sloboda
slovak
slovakia
slovensky
slowc
slowka
slsl
slub
slubju
slys
sm
small
smallimage
smallimageright
smalltext
smalnic
smaz
sme
smilax
smith
smithsonian
smjec
smjelzyna
smjerc
smjerdnic
smjerdz
smjertne
smjertny
smjetanka
smo
smochc
smogorjow
smolensk
smolenska
smoler
smolerja
smolerjec
smolerjom
smrk
smuz
smy
sn
sna
snac
snadne
snadnje
snadny
snadz
snano
sne
sneho
snej
sneje
sni
snic
snis
sniski
snistwowy
snið
snje
snjer
snjow
snu
sny
snych
snym
so
soares
sobota
sobotka
sobotu
sobu
sobuawtor
sobudz
sobus
sobustaw
sobustawa
sobustawojo
sobustawom
sobustawow
sobuwudawac
sobuzałoz
soc
sochacze
sochaczew
sochar
sochumija
social
socialdemokratiskeje
socialdemokratiski
socialistiska
socialistiskej
socialistiskeje
socialistiski
socialistiskim
socialistow
socializma
socialna
socialne
socialneho
socialnodemokratiskeje
socialnu
socialny
socialnych
societas
society
sociologa
sofia
sofija
softredirect
softwara
software
softwaru
softwary
sohn
soja
sojce
sok
sokolnik
sokoł
sokoła
sokołske
sokołski
sol
solanaceae
solanum
solawa
solawje
solawu
solawy
soldanella
solid
solidarita
soll
sollte
solo
solotej
solz
som
some
something
sometimes
sommer
somniferum
somoc
son
song
songs
songyun
sonja
sophie
sopranistka
sorabija
sorabist
sorabistika
sorabistiki
sorabistiku
sorabistka
sorben
sorbian
sorbische
sorbischen
sorbischer
sorbisches
sorbs
sorbus
sorc
sorin
sorta
sortach
sorte
sorten
sortierschlu
sortkey
sortow
sorty
sos
sotra
sotru
sotry
soul
soulowa
soulowy
source
south
sow
sowa
sowie
sowjetska
sowjetske
sowjetskeho
sowjetskej
sowjetskeje
sowjetski
sowjetskich
sowjetskim
sowrjecy
sowy
sowych
sp
spa
spac
space
spaces
spach
spadki
spadkow
spadny
spale
span
spar
sparganiaceae
sparganium
spargel
sparik
spartina
spathulata
spd
spe
spec
special
specialist
specialistow
specialne
specialnu
specialny
specialnych
specielnje
species
specifiske
specifisku
specimen
speciosa
spectabilis
speedwayjowc
spektrum
spektruma
spencer
spergula
spergularia
spermatophyta
spermatophytina
spezialformate
spi
spicata
spicatum
spiegel
spiel
spike
spinacia
spince
spinkach
spinkomaj
spinosa
spion
spiraea
spiranthes
spirit
spis
spisa
spisac
spisach
spisar
spisał
spisow
spisowac
spisowarjo
spisowna
spisowneje
spisownu
spisy
spjateho
spjatnis
spjaty
spjatym
spjec
splacnjene
splaha
splaz
splendens
split
splo
spo
spoc
spody
spodz
spohn
spolec
spominamy
spork
sporka
sporku
sport
sporta
sportnis
sportowa
sportowc
sportowe
sportowy
sposre
spowe
spoz
społk
społnomo
spp
spr
sprache
sprachen
sprachenpolitik
sprawiedliwos
sprawnosc
spree
spreewald
sprekelia
spremberg
spreng
springer
sprinter
sprjejc
sprjewi
sprjewiny
sprjewinym
sprjewja
sprjewje
sprjewju
sprjojcy
spurium
spus
spws
spyta
spytachu
spytecy
spłodz
sq
square
sr
sre
sri
srjedz
srjeznjewskij
sroka
srpska
srpskeje
srws
ss
ssd
sse
ssel
sseldorf
sselu
ssen
sser
ssere
ssp
ssr
st
sta
stac
stach
stachow
stachowa
stachu
stachys
stacija
stadion
stadt
stadło
stage
stahl
staj
staja
stajene
stajeny
stajenym
stajes
staji
stajic
stajnje
stajny
stajnych
stali
stalin
stalina
stam
stameny
stami
stampa
stan
standard
standardausgabe
standardma
standardna
standardne
standardnej
standardnje
standardny
standardnym
standardz
standl
stange
stanislav
stanisław
stanisława
stanje
stanley
stanu
stap
stapelia
staphylea
staphyleaceae
staples
star
stara
starac
staraja
staras
stare
stareho
starej
stareje
staremu
stari
starke
staroba
starobje
starobu
starodawna
starofilologa
starogrjekskeho
starohro
starolutherskeje
staroorientalistika
staropo
starosc
staroserbskeho
starosta
starostawiznar
starostu
starosłowjanskeho
starowe
starowysokone
staroz
starr
stars
start
staru
stary
starych
starym
stas
stasi
stat
stata
statach
statam
statami
state
statej
states
station
statistica
statistical
statistice
statistik
statistika
statistikar
statistiki
statistiska
statistiski
statistisku
statna
statne
statneho
statnej
statneje
statnik
statnika
statnje
statnoprawnik
statnu
statny
statnych
statnym
statok
statoki
statokow
statoku
statom
statow
status
statusa
staty
staw
stawa
stawac
stawacy
stawaja
stawas
stawiznach
stawiznam
stawiznami
stawiznar
stawiznarja
stawiznarka
stawiznic
stawiznisce
stawizniske
stawizniskeho
stawizniskeje
stawizniski
stawizniskich
stawiznow
stawizny
stawje
stawowe
stawoweho
stawowemu
stawropolskim
stawy
stał
stała
stało
ste
stecky
steel
stef
stefan
stefana
stefanie
stefanovski
steffen
steffi
stehmann
steho
steht
stein
steinbachs
steinberg
steiner
steinmeier
stej
steja
stejace
stejachu
stejacy
stejacych
stejes
steji
stejis
stejitej
stejnis
stellaria
stellata
stelle
stempel
sten
step
stepa
stepan
stepanakerta
stepanowic
stephan
stephanie
stephen
stepy
sterilne
stern
sternberg
sterreich
steve
steven
stevens
stevie
stewart
sti
stiftung
stil
stila
stile
still
stiller
stilow
stilowe
stilu
stimm
stipa
stka
stkaty
stki
stkow
stlicher
stna
stnach
stnami
stne
stneho
stni
stnica
stnicowe
stnicowych
stnicy
stnik
stnika
stniki
stnje
stnjena
stnjene
stnjenje
stnjeny
stno
stnom
stnosc
stnostne
stnostnych
stnow
stny
stnych
sto
stockholm
stockholmje
stojaty
stole
stoleti
stolica
stolicow
stolicu
stolicy
stolistnik
stolonifera
stolpe
stom
stomaj
stone
stones
stonic
stopjen
stopjenja
stopjenje
stopjenju
stopnja
stopnje
stopnjow
stopnjowa
stopnjowanje
stopnjowej
stopnjoweje
stopr
store
storkow
story
stos
stosc
stow
stowar
stowarnja
stowe
stowy
stowym
stołom
stołp
stołpa
stołpik
stołpika
stołpikach
stołpikami
stołpikate
stołpikaty
stołpikatych
stołpiki
stołpikom
stołpikow
stołpikowe
stołpikowych
stołpikowym
stołpiku
stołpin
stołpinskemu
stołstnjene
str
stra
strach
stracha
stralsund
stranka
stras
strasburger
stratan
strategisce
stratiotes
strauch
strauss
straz
straße
stre
street
strelicija
strelitzia
stres
striata
stricta
strictum
strigosa
string
striping
strittmatter
strjaz
stro
stron
strona
stronach
stronjan
stronje
stronki
stronomaj
stronow
stronski
stronskim
stronu
strony
strowotna
strowotniskich
strowotu
struck
struga
struktura
strukturow
strukturu
struktury
stu
stuart
stub
studenc
student
studentam
studentami
studentow
studentske
studentskeho
studentskich
studentskim
studie
studien
studies
studij
studija
studije
studijne
studijnym
studijo
studijow
studijowy
studiju
studio
studnic
studnja
studowac
studowachu
studowacych
studowany
studowas
studował
study
stufe
stupas
stupjenc
sturm
stuttgarc
stuttgart
stwa
stwach
stwe
stwje
stwjelca
stwjelco
stwo
stwori
stworic
stworił
stworjena
stwu
sty
stych
styki
style
stym
stło
su
suaveolens
subhirtella
subjekt
subjekta
subjektom
subjektow
subkontinenc
subnationalen
subsp
subst
substanca
substancy
substantiw
substantiwa
substantiwach
substantiwami
substantiwje
substantiwom
substantiwow
substantiwy
subtribus
subtropiska
subtropiskej
subtropiskich
subularia
subulata
suc
succisa
such
sucha
suche
suchej
suchi
suchich
suchim
suchota
suchy
sucre
sudan
sudana
sudanom
sudanske
sudetica
sudetow
sudety
sudnica
sudnik
sudniski
sudnistwa
sudnistwje
sudnistwo
sudnistwom
suffruticosa
sufiks
sufiksa
sufiksaj
sufiksom
sufiksow
sufiksu
sufiksy
suhl
suite
suk
sukac
sukach
sul
suliko
sulimierski
sullivan
suls
sultan
sumak
sumakowe
sumakowych
sumatra
sumeric
sumeris
summer
sumow
sumskej
sun
sunak
sunbird
sung
sunset
sunt
super
superintendent
superlatiw
supina
sur
surinamensis
surowin
surrounded
survey
sus
susan
susanne
susodna
susodne
susodneho
susodnej
susodneje
susodny
susodnych
susodnym
susodnymi
susodstwje
susodz
sutherland
suu
suwi
suworow
sv
svalbard
sve
sven
svg
svoboda
sw
swahils
swap
swaziska
swe
sweet
swietenia
swift
swislac
swisle
swj
swjata
swjate
swjateho
swjatej
swjateje
swjateju
swjatk
swjatka
swjatkach
swjatki
swjatkownic
swjatnis
swjatoc
swjatokr
swjaty
swjatych
swjatym
swjec
swjedz
swjerdlowskej
swjo
swo
swoboda
swobodna
swobodne
swobodneho
swobodnej
swobodneje
swobodni
swobodnik
swobodnje
swobodny
swobodnych
swobodnym
swobodu
swobody
swoje
swojeho
swojej
swojeje
swojeju
swojemu
swojich
swojim
swojimaj
swojimi
swoju
swora
sy
syc
syd
sydlachu
sydle
sydlenskeho
sydlenskemu
sydlenski
sydlenskim
sydlerjo
sydlerjow
sydlerskostawiznisce
sydlis
sydney
sydom
sydomdz
sydomle
sydrik
sydła
sydło
sydłom
sydłow
sykawow
sykora
syktywkara
sylna
sylne
sylneho
sylnis
sylnje
sylnosc
sylnu
sylny
sylnych
sylnym
sylt
sylvatica
sylvaticum
sylvestris
sym
syman
symana
symank
symbol
symbola
symbole
symbolom
symbolow
symjen
symjencowych
symjenis
symjenja
symjenjemi
symjenjow
symjo
symphoricarpos
symphytum
syn
syna
synagoga
synchronore
synchronowy
synom
synonym
synonymom
synonymy
synow
syntagmy
syntaks
syntaksa
syntaksu
syntaksy
syntax
syrdarja
syriacus
syrik
syringa
syriska
syriskej
syriskeje
syriski
syrotka
syst
system
systema
systematic
systematice
systematics
systematik
systematika
systematiki
systemej
systemje
systemom
systemow
systemy
sywna
sywny
syzygium
sz
szablon
szczecin
szl
szlo
szlubowska
szlurpkiszki
sztemon
szydło
szymborska
sła
słabje
słabym
słac
słanc
słanca
słancom
słancow
słancy
sławna
sławny
sławomir
sło
słoden
słodz
słona
słonej
słoneje
słonjel
słonowinowy
słony
słowa
słowach
słowacy
słowak
słowakow
słowaks
słowaksce
słowakska
słowakske
słowakskeho
słowakskej
słowakskeje
słowakski
słowami
słowc
słowian
słowjanow
słowjanska
słowjanske
słowjanskeho
słowjanskeje
słowjanski
słowjanskich
słowjanskim
słowjanskimi
słowjansku
słowje
słowjencow
słowjenjo
słowjens
słowjensce
słowjenska
słowjenskej
słowjenskeje
słowjenski
słowjesa
słowjeso
słowna
słowne
słownik
słownika
słownikach
słownikar
słowniki
słowniku
słownych
słowo
słowom
słowomaj
słowoskład
słowoskłada
słowoskładz
słowosle
słowow
słowu
słuchohrow
słus
słuz
słys
t
ta
tab
tabela
tabelach
tabele
tabeli
tabellen
tabelow
tabelowe
tabelowu
tabelu
table
tabulka
tac
tach
tachant
tachantska
tachantskeho
tachantskej
tachantskeje
tachantski
tachantsku
tachantstwa
tachantstwje
tachantstwo
tachantstwu
tadaloko
tadeja
tadeusz
tadic
tadz
tadła
tadłow
tafla
tafle
tafli
taflic
taflow
taflu
tag
taim
taiwan
taiwanje
taj
tajka
tajke
tajki
tajkich
tajkim
tajku
tajna
tajne
tajneje
tak
takle
takrjec
takson
taksonomija
taksony
tal
talk
tallinn
tallinna
tam
tamara
tamaricaceae
tamariska
tamarix
tamascheq
tamazight
tambow
tami
tamle
tamne
tamnis
tamny
tamnych
tamnym
tamura
tan
tana
tandem
tanec
tanecy
tang
tangowy
tanis
tanja
tanka
tansanija
tansanije
tansaniji
tanski
tar
tara
taras
taraxacum
tarstwa
tartu
tartuwa
tas
taschenbuch
taschenlexikon
tasol
tasta
tastatura
tastatury
tastow
tatarica
tatarojo
tatarow
tatarska
tatarski
tatarstan
tatjana
tatort
tatry
taurage
taxodiaceae
taxodium
taxonomy
taxus
tayloe
taylor
taz
tbilisija
tc
tce
tcho
tcm
tdeprecated
tdz
te
teama
tebi
tebje
tecelin
tecelina
technika
techniki
techniku
technisce
techniska
techniske
techniskej
techniskeje
techniski
techniskich
tectorum
ted
tehdom
tehdy
tehdys
teho
teil
tej
teje
tejn
teksc
tekst
teksta
tekstach
tekstar
tekstom
tekstow
tekstowe
tekstoweje
tekstowy
tekstowym
tekstowymaj
teksty
tel
teleskop
telet
telewizija
telewiziji
telewizijna
telewizijny
telewizna
telewizny
telko
tell
tels
teltow
tema
temam
temami
temje
temler
temperatura
temperaturami
temperaturu
temperatury
templat
template
templates
temple
tempus
temu
temy
ten
tendenca
tene
tenella
tenisowa
tenisowy
tenist
tennessee
tennisowa
tennisowy
tenor
tenorsaksofonist
tenpflanzen
tenuifolia
tenuis
teolog
teologa
teologije
teologiju
teoretikar
teorija
teorije
teoriju
tepe
teplic
teplicach
teppner
ter
tere
terenje
teresa
tereza
terich
teriche
teritorij
teritorija
teritorijach
teritorije
teritorijej
teritorijom
teritorijow
teritoriju
terka
termin
terminologie
terminus
terminusy
ternopil
ternopila
ternopilskej
terorist
teroristiskim
terra
terry
terska
terskej
terskeje
terski
terstwo
tes
tesakowar
tesakowarka
test
testowa
testy
teucrium
tex
texas
texasa
texasu
text
texte
textstyle
tez
th
tha
thailandska
thailandskej
thailandskeje
thailandski
thalictrum
than
tharuns
that
thatcher
the
theaceae
theater
thell
thelma
them
then
theobald
theobroma
theodor
theodora
theodore
theol
theorie
there
theresa
therese
they
thietmar
thietmara
thilo
thing
things
third
this
thlaspi
thomas
thomasowy
thome
thompson
thomson
thornton
thraker
three
throll
through
thu
thuja
thumb
thunb
thunbergia
thunbergii
thunderbird
thymelaea
thymelaeaceae
thymus
ti
tibec
tibet
tica
tich
ticin
tie
tige
tiger
tigris
tigrow
til
tilia
tilich
tilicha
tilichowa
tilioideae
till
tillich
tilney
tim
time
times
timo
timor
tina
tinctoria
tino
tip
tiraspol
tirol
tirola
tirolski
tirolu
tis
tischendorf
tit
titel
titelformat
titels
title
titleclass
titlom
tito
titul
titula
titularny
titule
titulemi
tituln
titulna
titulom
titulow
tj
tk
tka
tkaja
tkalc
tkata
tkaty
tke
tkej
tki
tkich
tkim
tkimi
tko
tkobiografija
tkostołpikate
tkow
tku
tl
tle
tler
tlerjow
tlerski
tlerstwa
tlik
tlinach
tlis
tlustulimu
tmbox
tna
tnar
tnavbar
tne
tneho
tnej
tneje
tni
tnica
tnik
tnika
tnis
tnistwa
tnistwach
tnistwje
tnistwo
tnja
tnje
tno
tnoho
tnu
tny
tnych
tnym
to
tobago
tobak
tobias
tobołka
toc
tod
todalokim
todaloko
todd
tofieldia
together
togo
toho
tohodla
tohorunja
tok
toki
tokio
tokipona
tokpisins
tola
tole
toledo
tolkien
tolstoj
tom
toma
tomach
tomaj
tomas
tomasz
tomata
tome
tomentosa
tomentosum
tomis
tomislav
tomje
tommaso
tommy
tomow
tomowa
tomu
tomy
ton
tonga
tongue
toni
tonow
tony
too
tooltip
top
topis
topisu
topografija
topografiske
topographische
topoł
tor
torhos
torhow
torius
torminalis
toron
toronto
torr
torre
torsten
torun
tos
toulouse
tour
tow
towa
towar
towars
towarstwa
towarstwach
towarstwam
towarstwami
towarstwje
towarstwo
towarstwow
towarstwowe
towarstwoweho
towarstwowy
towarstwu
towe
toweho
towej
toweje
towemu
town
towy
towych
towym
towymaj
toz
toł
toła
tołmac
tołow
tołsc
tołski
tołsta
tołste
tołstojte
tołstosc
tołsty
tpi
tpjsonj
tr
tra
trac
tracy
trade
tradicija
tradicije
tradiciji
tradicijow
tradiciju
tradicionalny
tradicionelne
tradicionelnje
tragus
train
trajacy
traje
trajes
trajne
tramwajka
tran
tranjach
trans
transitiwne
transitiwnych
transkripcija
transkripciji
transparentnje
transsibirskej
transsibirskeje
transwersalnej
trapa
trasow
trasy
traugott
trautv
trawa
trawnikach
trawniki
trawojte
trawow
trawy
tre
tree
trej
trenar
trenarka
tres
trevor
triandra
tribus
tribusa
tribusami
tribusej
tribusom
tribusow
tricephala
trichophorum
tricolor
trientalis
trier
triera
trifolium
trinidad
trio
trionum
trisetum
triticum
trje
trjeba
trjebaja
trjebas
trjebin
trjebjen
trjebule
trnik
trnika
tro
trochu
trockij
trodle
trohro
trohroda
trohrodom
trohrodz
troja
trojicy
trom
trop
tropach
tropaeolaceae
tropaeolum
tropicos
tropiska
tropiskej
tropiskich
tropy
trout
trow
trowa
trowe
trowej
trowje
trowka
trowom
trowska
trowsko
trowy
tru
trubjer
trubownik
truc
trudla
trudownik
trudownikowe
trudownikowych
truk
truki
truman
trump
trupin
trus
truskalca
truskalcy
truskawc
truss
try
trybach
tryc
trych
trymi
ts
tsipras
tstotk
tstotka
tstotkach
tstotki
tstotkom
tstotkomaj
tstotkow
tstotku
tsuga
tt
tte
tten
ttenstadt
tter
ttingen
ttir
ttrige
ttriger
ttysac
ttysaca
ttysacu
tu
tuberaria
tuberosa
tuberosum
tubist
tuc
tucholsky
tuchorski
tuchorskim
tuchwilna
tuchwilny
tuchwilnym
tuchwilu
tucker
tudys
tula
tule
tulipa
tull
tulpa
tumic
tumicy
tunbergija
tuneziska
tuneziskej
tuneziski
tunica
tunis
tuo
tupa
tupe
tupela
tupi
tupje
tuplice
tupy
tura
turcz
turgida
turistiska
turistiske
turistiskeho
turistiski
turistow
turizm
turizma
turjej
turjo
turkmenistan
turkmenistana
turkmens
turkmenskeje
turkmenski
turkows
turkowsce
turkowska
turkowske
turkowskeho
turkowskej
turkowskeje
turkowski
turkowskich
turkowsko
turkowsku
turkskich
turm
turne
turner
turnow
tuta
tute
tutej
tuteje
tuteju
tuto
tutoho
tutomu
tutu
tutych
tutym
tutymi
tuvalu
tuwa
tuz
tv
twar
twara
twarc
twari
twaric
twarje
twarjenja
twarjenje
twarjenjow
twarjenju
twarnis
twaroz
twarske
twarskeho
twarskeje
twarski
twarskich
twarstwo
twary
twerskej
twica
twjerda
twjerde
twjerdy
twjerdz
two
twoja
twoje
twoji
tworby
twori
tworic
tworitej
tworiła
tworja
tworjaca
tworjace
tworjachu
tworjacy
tworjacych
tworjene
tworjenja
tworjenje
tworjenju
tworjes
tworoho
twory
txantiloi
ty
tych
tydz
tykac
tykanc
tykowana
tym
tymi
tymjenjach
tymjenka
tymle
tyn
typ
typa
typaj
type
types
typha
typhaceae
typisce
typiska
typiske
typiski
typje
typograf
typow
typusowa
typusowy
typy
tyrcec
tyri
tyridz
tyrihranite
tyrihranity
tyriko
tyrikro
tyrile
tyrilic
tyriro
tyrirohac
tyrjo
tyrjoch
tyrjomi
tyrnac
tyrs
tys
tysa
tysac
tysacy
tysy
tz
tze
tzen
tzinger
tzlich
tła
tłe
tło
tłobrune
tłoc
tłomo
tłoro
tłos
tłownja
tłoz
tłozelene
tły
tłych
u
ua
uadits
uahe
uba
uber
ubojo
ubs
ubska
uc
ucher
uckermark
ud
ude
udmurtskej
udo
udovi
udz
uebigau
ufer
ufy
uganda
ugandy
ugljan
ugriske
uh
uhlmann
uhyst
ui
uir
uja
uje
ujetej
ujskim
uju
uk
uka
ukc
ukow
ukraina
ukrainjan
ukrainje
ukrainjenjo
ukrains
ukrainsce
ukrainska
ukrainskeho
ukrainskej
ukrainskeje
ukrainski
ukrainskich
ukrainsko
ukrainu
ukrainy
ukrajinka
ul
ula
ulach
ulan
ulbrichec
ulbricht
ule
ulen
uler
ulerjo
ulerjow
ulex
ulf
uli
uliginosa
uling
ulinka
ullrich
ullstein
ulm
ulmaceae
ulmer
ulmus
ulow
ulrich
ulrike
ulska
ulske
ulskeho
ulskej
ulskeje
ulski
ulskich
ulskim
ulsku
ulstwa
ulstwo
ulu
um
umbellata
umbellatum
umberto
umbrosa
ume
umi
umpac
umpata
umpate
umpatej
umpatopłodowe
umpatych
umsiedlung
umwandlungen
un
una
uncarina
uncinata
und
under
underground
une
unesco
ungar
unger
uni
unicode
uniflora
unija
unije
uniji
uniju
union
united
univ
universita
university
univerzita
uniwersalna
uniwersalny
uniwersic
uniwersita
uniwersitach
uniwersitne
uniwersitny
uniwersitow
uniwersitu
uniwersity
uniwersytet
unknown
uno
unow
unowje
uns
unsere
unten
unter
unterstu
untersuchungen
untervorlage
unterwegs
unu
uo
up
upa
upan
upanije
upc
update
upe
upica
upiznojte
upiznow
upizny
upje
upow
upper
upright
upy
ur
ura
ural
urala
uralske
uralskich
urana
urania
urb
urban
urdus
urewe
uric
url
urla
urnalist
urnalistka
urs
ursidae
ursula
ursus
urtica
urticaceae
uruguayski
uruk
us
usa
usage
usb
usda
use
used
user
uses
using
ust
ustin
usual
usually
usw
ut
uta
utc
uteny
utf
utm
utricularia
uv
uva
uvalekovski
uvena
uwas
uwe
uz
uzbekistan
uzbekistana
uzbekistanje
uzbeks
uzbekskej
uzbekskeje
v
va
vabinsky
vaccinium
vaginata
val
valdi
vale
valencia
valentin
valentina
valeriana
valerianaceae
valerianella
valle
valley
vallisneria
valls
valparai
value
van
vanessa
vanilla
vanuatu
var
varadkar
varaz
vare
vari
varia
variegata
varnsdorf
varphi
vasco
vater
vatikanske
vatikanski
vattenfall
ve
veb
vec
veg
vehla
veidne
vejprty
vel
veljkovic
velky
velvet
venc
venezuela
venezuele
venezuelski
venta
ver
vera
veratrum
verb
verbascum
verbenaceae
verde
verena
vergeben
vergissmeinnicht
verlag
verna
vernalis
verner
vernon
vernus
vero
veronica
veronika
verrucosa
verschwundener
versicolor
version
vertical
verticillata
verticillatum
verum
verwendung
very
ves
vesper
vetoria
vez
vi
via
viburnum
vicente
vicia
vicki
victor
victoria
vidal
video
vier
vierkirchen
vietnam
vietnama
view
vii
viii
viktor
vile
vill
villa
village
villosa
villosum
vilnius
vilniusa
vilniuskim
viminalis
vincent
vincenzo
vinifera
vinohradech
viola
violaceae
virgatum
virgin
virginia
virginiana
viridis
vis
viscosa
viscum
vista
vitaceae
vitis
vivaldi
vladimi
vladimir
vlastimil
vlatko
vo
vocant
vod
vogel
vogt
vogtl
vogtland
voigt
vojislav
vol
volk
volker
volkmar
volkseigener
volkskunde
vollsta
volta
volume
vom
von
vor
vorangestellt
vorjohann
vorlage
vorlagen
vortaro
vorwerk
vota
vous
vp
vrch
vrchlicky
vs
vu
vuc
vulgare
vulgaris
vulparia
vulpes
vulpia
vy
vysoc
w
wa
wac
wach
wachu
wadecy
wadz
wagenknecht
wagner
waha
wahlen
wahu
waj
waja
wajo
walc
walcojta
walcojte
wald
waldhufen
walds
waldst
wales
walewski
wali
walizis
walizisce
waliziska
waliziskej
waliziskeje
waliziski
walk
walker
wall
walle
walo
walt
walter
waltera
walther
wam
wami
wan
wanak
wanc
wanem
wang
wanja
wanje
wanju
wanpela
wanske
want
wapnite
wapnitych
wapnowych
wapnu
war
warb
wari
wariabla
wariable
wariablu
wariacije
warianc
warianta
wariantach
wariantu
warianty
waric
warichius
warie
warjetety
warjow
warka
warko
warmbrun
warmin
warner
warnoc
warren
wars
warske
warskeho
warskich
warszawa
warta
wartenberg
warłynka
was
washington
washingtonje
wasilewskij
wasilij
wasiljewic
wasser
watej
water
waterplant
watson
watt
watts
wau
wauer
wawer
wawrik
wayne
waz
wał
wałd
wałda
wałe
wałtar
wbohow
wc
wcy
wda
we
web
webarchiw
webb
webelements
weber
webkit
weblinks
webowe
webowy
webowych
webstrona
webstronach
webstronje
webstrony
websydło
websydłow
weclich
wedekind
weder
weds
wedsce
wedska
wedske
wedskeho
wedskej
wedskeje
wedski
weg
wegen
wehle
wehlen
wehner
weho
weide
weigel
weil
weimar
weimarje
weimarskej
weimarskeje
weise
weiss
weitere
weizmann
weizsa
weiß
weiße
weißeritzkreis
weißig
weißling
weißwasser
wej
wejsne
wek
welcher
welches
wells
welsh
welt
welwic
wen
wencel
wenden
wendisch
wendische
wendischen
wendisches
wendish
wends
wendt
wendys
wenedyk
wenn
wenus
wenzel
wer
werb
werba
werbach
werbalne
werbej
werbje
werbow
werbowe
werbowy
werbowych
werby
werden
werk
werke
werminghoff
werner
wernera
werra
wersija
wersije
wersiji
wersijow
wersiju
wert
werte
wertikalna
wertikalnje
weser
wesley
west
westermann
westerwelle
westfalska
westfalskej
westfalskeje
wgs
what
when
where
which
white
whitney
who
wi
wiadukt
wic
wica
wicarsk
wicarska
wicarskeho
wicarskej
wicarskeje
wicarski
wicarskich
wicarsko
wicebsk
wicebska
wicebskej
wicekancler
wiceprezident
wiceprezidentka
wichor
wickel
wicu
wicy
wida
wide
widlic
width
widwin
widz
widła
wie
wieczorek
wiedemann
wiedergeburt
wielki
wielkie
wielkopolski
wielun
wien
wiena
wienje
wienskeho
wienski
wienskim
wies
wiesbaden
wiese
wiesen
wight
wijata
wijawka
wijawkowe
wijawkowych
wijel
wijelach
wikach
wikar
wikawa
wikawje
wikawska
wikawskej
wikawy
wiki
wikijach
wikijowu
wikikod
wikikodz
wikimedia
wikipe
wikipedia
wikipedii
wikipedija
wikipedije
wikipediji
wikiprojekt
wikisource
wikisłownik
wikow
wikowanis
wikowanje
wikowanske
wikowanskej
wikowanskeje
wikowanski
wikowanskich
wikowanskim
wikowar
wiktionary
wiktor
wilamows
wild
wilde
wildwachsende
wilfried
wilhelm
wilhelma
will
willd
willemsen
willi
william
williama
williams
williamson
willie
willis
willy
wilson
wim
win
wina
winar
winarjec
winc
wincar
wind
windisch
window
windows
winfried
winger
winica
winicach
wink
winkler
winklerowa
winko
winnycja
winnycje
wino
winowa
winowatosc
winowc
winowca
winowe
winowy
winowych
winston
winter
wioletna
wioletne
wioletnje
wiolinist
wiolinistka
wir
wird
wirth
wirtha
wirtschaft
wirtuoza
wis
wisace
wisacych
wisaja
wisajo
wisata
wisate
wisaty
wisconsin
wisle
wissen
wissenschaft
wissenschaften
wissenschaftliche
wisła
wisława
wita
witaj
witaminy
witanojce
with
witkojc
wittenberg
wittenbergu
wiz
wjac
wjace
wjacekro
wjacele
wjacere
wjacezmyslnosc
wjacore
wjacori
wjacorych
wjacorymi
wjacsław
wjacsławk
wjacław
wjacława
wjas
wjaska
wjatka
wjaz
wjazany
wjazba
wjazbje
wjazbow
wjazbu
wjazby
wjazon
wje
wjec
wjechelca
wjechlawka
wjednik
wjednika
wjednistwa
wjednistwo
wjednistwom
wjedrje
wjedro
wjedrowe
wjedu
wjedz
wjela
wjelan
wjelc
wjelcej
wjele
wjelec
wjelekc
wjelezłotowka
wjelike
wjelk
wjelkow
wjelkowa
wjelkowje
wjelkowy
wjen
wjenka
wjerba
wjerbic
wjerbinka
wjerbjez
wjerbnje
wjerbno
wjerbowe
wjerbowych
wjerby
wjerbłuz
wjerc
wjerch
wjercha
wjerchow
wjerchowstwa
wjerchowstwo
wjerhar
wjerjebina
wjers
wjertnych
wjertulka
wjes
wjesc
wjesce
wjesel
wjesela
wjeselo
wjeselohra
wjeska
wjeskach
wjeski
wjeskow
wjesku
wjesna
wjesne
wjesneho
wjesnej
wjesneje
wjesneju
wjesnjanosta
wjesnjanostka
wjesnu
wjesny
wjesnych
wjesnym
wjesnymaj
wjesnymi
wjesłowar
wjets
wjewjerc
wka
wladikawkaza
wladimir
wladimira
wladimirowic
wladimirskej
wladislaw
wladiwostoka
wliw
wliwom
wna
wne
wnu
wnuk
wny
wnych
wo
wob
wobaj
wobalce
wobalka
wobalki
wobalku
wobbe
wobc
wobchad
wobchada
wobchadna
wobchadne
wobchadnej
wobchadny
wobchadnych
wobchadz
wobchod
wobchodnik
wobchowa
wobchowac
wobchowachu
wobchowali
wobchowane
wobchowanje
wobchowany
wobchowanych
wobchowała
wobchowało
wobchowuje
wobdata
wobdate
wobdaty
wobdawa
wobdz
wobe
wobeju
woben
wobhladac
wobhladowak
wobhladowanju
wobhladuje
wobhospodarja
wobhospodarjes
wobhrodz
wobje
wobjednawa
wobjednawaja
wobjim
wobjima
wobjimowas
wobjimuje
wobkedz
wobknjez
wobkromach
wobkromu
wobkruc
wobkruh
wobkruhu
wobkruz
woble
woblic
woblubowana
woblubowane
woblubowany
wobmjezowana
wobmjezowane
wobmjezowanja
wobmjezowanje
wobmjezowany
wobmjezowanym
wobmjezuje
wobnaz
wobnowi
wobnowjenje
wobory
wobpr
wobraz
wobraza
wobrazach
wobrazaj
wobrazami
wobrazarnja
wobrazk
wobrazki
wobrazkom
wobrazom
wobrazomaj
wobrazow
wobrazowa
wobrazowe
wobrazowka
wobrazowki
wobrazowy
wobrazu
wobrazy
wobro
wobroc
wobrostach
wobrotnic
wobrys
wobrysu
wobs
wobsadz
wobsah
wobsaha
wobsahi
wobsahom
wobsahowa
wobsahowac
wobsahowane
wobsahowas
wobsahowe
wobsahuja
wobsahuje
wobsahujo
wobsedz
wobskorz
wobstac
wobstara
wobstatk
wobsteja
wobstejaca
wobstejace
wobstejachu
wobstejacy
wobstejes
wobsteji
wobstejnosc
wobswe
wobsydlena
wobsydlene
wobsydlenja
wobsydlenje
wobsydleny
wobsydlenych
wobsydlenym
wobsydstwa
wobsydstwje
wobsydstwo
wobsłuz
wobtwjerdz
wobwliwowana
wobwliwowane
wobwliwuje
wobwod
wobwoda
wobwodej
wobwodow
wobwody
wobwodz
wobydla
wobydlene
wobydleny
wobydler
wobydlerja
wobydlerjej
wobydlerjemi
wobydlerjo
wobydlerjow
wobydlerjowpopulation
wobydlerjowwobydlerstwo
wobydlerske
wobydlerstwa
wobydlerstwje
wobydlerstwo
wobydlerstwom
wobzamknje
wobzamknjenja
wobzamkny
wobłuk
wobłuka
wobłukac
wobłukach
wobłuki
wobłukow
wobłuku
woc
wochoz
wochozach
wochozy
woda
wodach
wodarnja
wodnjo
wodopad
wodopady
wodorunje
wodowa
wodowe
wodoweho
wodowy
wodowych
wodrjewjene
wodrjewjeny
wodu
wody
wodz
wohen
wohenjow
wohnju
wohroz
woidke
wojacy
wojak
wojakow
wojciech
wojerec
wojerecach
wojerecami
wojerecy
wojerowske
wojerowskeho
wojerowskej
wojerowskeje
wojerowskemu
wojerowski
wojerowskim
wojerowsku
wojerske
wojerskeho
wojerskej
wojerskeje
wojerski
wojerskich
wojerskim
wojersku
wojewo
wojnar
wojowac
wojowachu
wojowanja
wojowanje
wojowar
wojowarka
wojowas
wojte
wojtyła
wojwodina
wok
woka
wokal
wokala
wokalach
wokale
wokalej
wokalemi
wokalna
wokalnej
wokalneje
wokalnu
wokalom
wokalomaj
wokalow
wokalu
wokatiw
wokna
woknje
woknjes
wokno
woko
wokolina
wokolinje
wokolinu
wokoliny
wokolne
wokolnych
wokomiku
wokołk
wokołkach
wokołki
wokołkojte
wokołkojtych
wokołkowe
wokołkowych
wokołku
wokoło
wokrjes
wokrjesa
wokrjesach
wokrjesaj
wokrjesej
wokrjesna
wokrjesne
wokrjesneho
wokrjesnej
wokrjesny
wokrjesnym
wokrjesom
wokrjesomaj
wokrjesow
wokrjesu
wokrjesy
wola
wolena
woleni
woleny
wolerjo
wolerske
woles
wolf
wolff
wolfgang
wolfganga
wolfram
wolfsburg
wolga
wolgi
wolgograd
woli
wolij
wolija
wolije
wolijowa
wolijowc
wolo
wolodymyr
wologda
wologodskej
wolumen
wolze
wom
womacka
woman
women
won
wona
wone
wonej
woni
wonja
wonjaca
wonjace
wonjacych
wonjanka
wonjata
wonjaty
wonjec
wonjeja
wonka
wonkowna
wonkowne
wonkowneho
wonkownej
wonkowneje
wonkowny
wonkownych
wono
wony
wood
wopac
wopak
wopic
wopis
wopisa
wopisac
wopisana
wopisane
wopisanje
wopisany
wopisma
wopismje
wopismo
wopisn
wopisowac
wopisuje
wopodstatni
wopodstatnjenje
wopomnis
wopomnjec
wopomnjenska
wopomnjenski
wopon
wopona
wopor
woporow
wopory
wopr
woprawdz
wopro
wopus
wopyc
wopyt
wopyta
wopytaja
wopytowarjow
wopytowas
wopłodz
wopłonjene
wopłonjeny
worcyn
worcynje
worden
worjech
worjechi
worjechowe
worjechowy
worjes
worjoł
worklec
worklecach
worklecy
works
world
wornar
woronjez
worowo
wors
wort
wosada
wosadach
wosadna
wosadnej
wosadneje
wosadnik
wosadnu
wosadny
wosadnych
wosadow
wosadu
wosady
wosadz
wosebita
wosebite
wosebitej
wosebiteje
wosebitosc
wosebitu
wosebity
wosebitych
wosebitym
wosebje
wosec
wosme
wosmjoch
wosmy
wosoba
wosobach
wosobina
wosobinam
wosobinje
wosobinow
wosobinska
wosobinske
wosobinski
wosobiny
wosobje
wosobow
wosobowe
wosoboweho
wosobowy
wosobowych
wosobu
wosoby
wosom
wosomdz
wospjet
wospjetowac
wospjetuje
wosrjedz
wosta
wostac
wostachu
wostaj
wostaji
wostanje
wostanu
wostas
wostatne
wostawa
wostawaja
wostawas
woswjec
wosyk
wosyka
wot
wotbagrowana
wotbagrowane
wotbagrowanja
wotbagrowanych
wotbe
wotboc
wotbłys
wotc
wotchilenja
wotchilenje
wotdz
wote
wotebe
wotedatych
wotemre
wotewe
wotewre
wotewri
wotewrje
wotewrjena
wotewrjene
wotewrjenje
wotewrjenju
wotewrjeny
wotewrjenych
wotewrjenym
wothladajo
wothło
wotje
wotkaz
wotkaza
wotkazaj
wotkazami
wotkazom
wotkazow
wotkazowac
wotkazowy
wotkazuje
wotkazy
wotkry
wotkryc
wotkrychu
wotkryje
wotkryli
wotkryta
wotkrytych
wotkrywanju
wotkrywar
wotle
wotlez
wotliw
wotme
wotmołwa
wotmołwi
wotne
wotnos
wotnoz
wotpadnu
wotpadnyc
wotpali
wotpo
wotpoc
wotpohlad
wotpokaza
wotpowe
wotpołoz
wotprawa
wotpuc
wotre
wotrjad
wotrjada
wotrjedz
wotroha
wotrohu
wotrosc
wotrow
wotrowa
wotrowje
wotrowskej
wotrowskeje
wotrowski
wotroz
wots
wotsadz
wotstawk
wotstawkom
wotsteja
wotstejaca
wotstejace
wotstejacy
wotstejo
wotstroni
wotstronic
wotstronjene
wotstronjenje
wotstronjenju
wotstronjeny
wotstup
wotstupi
wotstupje
wottam
wottorhachu
wottorhana
wottorhane
wottud
wottwari
wotwe
wotwisne
wotwisnje
wotwisnosc
wotwisny
wotwisuja
wotwisuje
wotwisujo
wotwjedz
wotwo
wotwobroc
wotwodz
wotwołana
wotwołane
wotwołany
wotzamkny
wow
wowc
wowka
wownjow
wows
wowsyc
woz
wozjewi
wozjewichu
wozjewił
wozjewiła
wozjewjena
wozjewjene
wozjewjenja
wozjewjenje
wozjewjeny
wozjewjes
woznam
woznamjeni
woznamjenja
woznamjenjec
woznamjenjenja
woznamjenjenje
woznamjenjes
woznamom
woznamy
woznjamjenja
woznjesenskij
wozow
wozrodz
wołac
wołbramecy
wołmica
wołmjana
wołobuz
wołojnik
wołtar
wołtarjom
wołtarnis
wołyn
wołynska
wołynskej
wp
wrap
wray
wrestler
wright
wrjec
wrjosowe
wrjosowych
wro
wrocław
wrota
wrotach
wrotami
wrotar
wrotow
ws
wsach
wsam
wsecy
wskej
wsomaj
wsow
wsu
wsy
wu
wube
wubrac
wubrane
wubranka
wubudz
wuc
wuchadz
wuchod
wuchoda
wuchodej
wuchodna
wuchodne
wuchodneho
wuchodnej
wuchodneje
wuchodnje
wuchodnu
wuchodny
wuchodnych
wuchodnym
wuchodo
wuchodoeuropskej
wuchodofrankowski
wuchodokus
wuchodone
wuchodoromaniske
wuchodosakskim
wuchodosłowjanske
wuchodz
wud
wuda
wudac
wudas
wudata
wudate
wudaty
wudaw
wudawa
wudawac
wudawanje
wudawanju
wudawar
wudawas
wudał
wudobywa
wudobywachu
wudobywanis
wudobywanja
wudobywanje
wudolinowych
wudrjen
wudwo
wudwor
wudyri
wudz
wuhanc
wuherska
wuherskeho
wuherskej
wuherskeje
wuherski
wuhla
wuhlad
wuhladko
wuhladnis
wuhlik
wuhlikowy
wuhlo
wuhlowych
wuhnac
wuhnate
wuhnaty
wuho
wuhorbjenje
wuhotowane
wuhotowanje
wuhotowar
wuhotowas
wuhrody
wujasnjenje
wuje
wujes
wujez
wujezd
wujezdz
wukaz
wukmanju
wuknje
wuknjenje
wuknjes
wuknu
wuknyc
wuko
wukonjes
wukony
wukraja
wukrajne
wukrajnych
wukraju
wukranc
wukubłac
wukubłanja
wukubłanje
wukubłanju
wukubłany
wulce
wule
wulff
wulic
wuliw
wuliwa
wuliwje
wuliwom
wulka
wulkan
wulkana
wulkaniskeho
wulke
wulkeho
wulkej
wulkeje
wulkemu
wulki
wulkich
wulkim
wulkimi
wulkobritaniska
wulkobritaniskej
wulkobritaniskeje
wulkobur
wulkoburskich
wulkogmejna
wulkogmejny
wulkokwe
wulkome
wulkomis
wulkomo
wulkomocy
wulkopo
wulkopr
wulkore
wulkosc
wulkowjerch
wulkowo
wulkowosady
wulkołopjenaty
wulku
wume
wumjen
wumre
wun
wunamakar
wunjow
wunjowje
wunos
wuns
wupada
wupadaja
wupjelnjene
wupo
wupoz
wuppertal
wupr
wupraja
wupraji
wuprajił
wupuc
wupys
wuradz
wuraz
wurazny
wurde
wure
wuric
wuricach
wuricy
wurjadny
wurjekowac
wurjekowane
wurjekowanja
wurjekowanje
wurjekowanju
wurjekuja
wurjekuje
wurlic
wuroc
wurosc
wurostkach
wurostki
wurostkow
wuryc
wurywanis
wurywar
wus
wusahuja
wusc
wuska
wuske
wuski
wuskich
wuskidz
wuskim
wusko
wusku
wuskutk
wuskutki
wuskutkowas
wuskutkuje
wusle
wusme
wuspe
wusrs
wustajen
wustaw
wustawa
wustawje
wustawki
wustawoweho
wustawu
wustawy
wustup
wustupa
wustupi
wustupic
wustupowac
wustupowaca
wustupowace
wustupowanje
wustupowas
wustupuja
wustupuje
wustupujetej
wustupy
wusus
wuswjec
wuswobodz
wusyła
wusyłanja
wusyłanje
wutkate
wutkatu
wutkatych
wutołc
wutrajna
wutrajny
wutrobic
wutrobojc
wutrobojta
wutrobojte
wutrobojty
wutrobu
wutroby
wutwar
wutwari
wutwarjena
wutwarjene
wutwor
wutwori
wutworic
wutworił
wutworiła
wutworiło
wutworja
wutworjena
wutworjene
wutworjenja
wutworjenje
wutworjenju
wutło
wuwi
wuwic
wuwichu
wuwili
wuwite
wuwity
wuwiwa
wuwiwachu
wuwiwaja
wuwiwanje
wuwiwar
wuwiwarjow
wuwiwas
wuwiwała
wuwiła
wuwiło
wuwjedz
wuwuc
wuwzac
wuz
wuzamkny
wuzbe
wuznac
wuznam
wuznama
wuznamjeni
wuznamjenjenja
wuznamjenjenje
wuznamna
wuznamne
wuznamnej
wuznamnu
wuznamny
wuznamnych
wuznamnym
wuzwoleny
wuzwoli
wuzwolichu
wuzwolił
www
wy
wydz
wyk
wylem
wylema
wym
wyrgac
wys
wysoc
wysoka
wysoke
wysokeho
wysokej
wysokeje
wysoki
wysokich
wysokim
wysokimi
wysoko
wysokone
wysokos
wysokosc
wysoku
wytwo
wza
wzac
wzajomnosc
wzda
władysław
wło
włosanc
włosojta
włosy
x
xa
xaver
xavier
xe
xhtml
xi
xii
xiii
xiv
xml
xn
xo
xp
xs
xv
xvi
xvii
xviii
xx
xxiii
xxx
xyz
y
ya
yahoo
yang
yann
ybar
yc
yca
ych
ycka
yckie
ydar
year
yearbook
years
yellow
yes
yet
yi
yke
ylowje
ym
ymjerojce
yn
yna
yndlar
yne
ynka
yo
yong
york
yorka
yorku
you
young
your
youtube
ys
ysa
ysenburg
ytomyr
ytomyra
ytomyrskej
yu
yue
yunnan
yunnanensis
yva
yves
yvonne
yy
yz
z
za
zabajkalskim
zabawjer
zabe
zabrij
zac
zach
zacharc
zacharias
zachariasa
zachod
zachodom
zachodz
zachowali
zachowanje
zadar
zadnim
zadnje
zadre
zady
zadz
zafarowani
zagmejnowa
zagmejnowachu
zagmejnowana
zagmejnowane
zagmejnowanja
zagmejnowany
zagmejnowas
zagmejnuje
zagreb
zagrebje
zahajena
zahajenje
zahaji
zahajichu
zahe
zahon
zahonach
zahonc
zahony
zahor
zahoritosc
zahorjeny
zahroda
zahrodach
zahrodka
zahrodkar
zahrodna
zahrodne
zahrodnik
zahrodny
zahrody
zahrodz
zais
zaja
zajachu
zajata
zajaty
zajdow
zaje
zajec
zajim
zajimawa
zajimawe
zajimawosc
zajimawostka
zajimawostki
zajimow
zajimy
zak
zaka
zakarpatska
zakarpatskej
zakaz
zakaza
zakazachu
zakazana
zakazane
zakazanej
zakazany
zakazu
zakec
zakitowanja
zakitowanje
zakitowanju
zakitowanski
zakitowar
zakitowas
zako
zakon
zakonja
zakonje
zakonju
zakonsce
zakonski
zakrjow
zakulene
zakład
zakładna
zakładne
zakładneho
zakładnej
zakładnje
zakładnu
zakładny
zakładnych
zakładnym
zakładz
zale
zaliw
zaliwa
zaliwach
zaliwje
zaliwom
zaliwy
zaliznjak
zame
zamek
zamenhof
zamkar
zamo
zamordowana
zamordowaneho
zamordowani
zamordowany
zamosty
zamołwitosc
zamołwity
zan
zana
zander
zane
zanec
zanjerodz
zanka
zannichellia
zanom
zanowa
zapad
zapada
zapadna
zapadne
zapadneho
zapadnej
zapadneje
zapadni
zapadnje
zapadnu
zapadny
zapadnych
zapadnym
zapado
zapadogermanske
zapadopomorskeho
zapadoromaniske
zapadosłowjanska
zapadosłowjanske
zapadosłowjanski
zapadosłowjanskich
zapadoturkowske
zapadołuz
zapadz
zapis
zapisa
zapisac
zapisaj
zapisane
zapisany
zapisał
zapisk
zapiskach
zapiski
zapiskow
zapisow
zapisowar
zapisu
zapisuja
zapo
zapoc
zapodac
zaporiz
zapołoz
zappa
zapr
zapuc
zapus
zapusc
zare
zarjad
zarjada
zarjadnik
zarjadnis
zarjadniska
zarjadniske
zarjadniskeho
zarjadniskemu
zarjadniski
zarjadniskich
zarjadniskim
zarjadnisku
zarjadnistwa
zarjadnistwje
zarjadnistwo
zarjadnistwom
zarjadnistwu
zarjadow
zarjadowa
zarjadowac
zarjadowachu
zarjadowana
zarjadowane
zarjadowanja
zarjadowanjach
zarjadowanje
zarjadowanjow
zarjadowanju
zarjadowany
zarjadowas
zarjaduja
zarjaduje
zarjady
zarjenk
zarodk
zarosc
zarostowane
zarys
zas
zasadnje
zasadz
zaso
zaspach
zasrjew
zastajeny
zastaji
zastanis
zastaranje
zastaruje
zastojnik
zastojnstwa
zastojnstwje
zastojnstwo
zastrow
zastupi
zastupjene
zastupjer
zastupjerjo
zastupjerjow
zastupjerka
zastupnik
zastupowac
zastupowaca
zastupowacy
zastupowas
zastupuje
zasudz
zasunjenjom
zasydlenja
zasydli
zasydlichu
zasłuz
zatr
zavou
zawe
zawinowac
zawinuje
zawjedz
zawod
zawoda
zawodow
zawody
zawodz
zawostajenstwa
zawostajenstwo
zawostaji
zawre
zawrjena
zawrjene
zawro
zaz
zazelenjenju
załhow
załom
załoz
zba
zbar
zbarja
zbarka
zbe
zbigniew
zbo
zbork
zboz
zbudz
zby
zbytk
zbytki
zbytne
zc
zd
zda
zdac
zdalena
zdalene
zdalenej
zdalenosc
zdaleny
zdaloka
zdemir
zdene
zdna
zdne
zdnic
zdnik
zdnim
zdnja
zdnjeho
zdnjej
zdnjeje
zdnotu
zdnoty
zdnu
zdny
zdnych
zdnym
zdo
zdobom
zdoby
zdobyc
zdobychu
zdom
zdow
zdrasc
zdro
zdruha
zdu
zdwo
zdy
zdz
ze
zea
zebnic
zebnica
zebnicu
zebnicy
zecy
zef
zefa
zefo
zeichen
zeichens
zeit
zeitschrift
zeitung
zej
zejicy
zejler
zejlerja
zela
zelena
zelene
zeleneho
zelenej
zeleneje
zeleni
zelenina
zeleninu
zelenis
zelenje
zelenka
zeleno
zelenojc
zelenojte
zelenskij
zelenu
zeleny
zelenych
zelenym
zelenymi
zelis
zelo
zeman
zemi
zemic
zemicach
zemicy
zemja
zemjan
zemjanka
zemjanski
zemjanstwa
zemje
zemjerz
zemju
zemr
zemre
zemske
zemskeho
zemskej
zemskeje
zemski
zemskich
zemskim
zen
zentrum
zepe
zeppelin
zernic
zerzawojta
zes
zeserbs
zestaja
zestajane
zestajał
zestajeja
zestajene
zestajenje
zestajenki
zestajenkow
zestajenkowe
zestajenkowych
zestajeny
zestajenych
zestaji
zestajił
zestarjene
zeta
zetka
zetkachu
zetkanis
zetkanjach
zetkanje
zetkanju
zetkawamy
zeyh
zez
zezna
zezrawja
zgorzelec
zgorzelecki
zh
zhang
zhas
zhibnjena
zhibnjene
zhibnjeny
zhibujomne
zhorbjene
zhorjelc
zhorjelca
zhorjelcom
zhorjelcu
zhorjelskeho
zhorjelskej
zhorjelski
zhorjelskim
zhotowi
zhotowic
zhotowja
zhotowjene
zhotowjenje
zhotowjerja
zhotowjerjo
zhotuje
zhromadne
zhromadneho
zhromadnej
zhromadnje
zhromadnosc
zhromadnu
zhromadny
zhromadnych
zhromadnym
zhromadz
zhruba
zhubi
zhubichu
zhubili
zhubił
zhubiła
zhubja
zhubjenych
zhubjes
zi
ziegler
zielona
ziemiak
ziemskie
ziergeho
zimbabwe
zimmermann
zinaida
zingiber
zingiberaceae
zipfelfalter
zisch
zjawne
zjawneho
zjawnje
zjawnosc
zjawny
zjawnych
zjawnym
zje
zjec
zjednoc
zjewi
zk
zka
zkami
zki
zkow
zku
zle
zli
zlic
zlik
zliwje
zmandz
zme
zmes
zmjerzkokruta
zmo
zmors
zmylk
zmylki
zmysle
zmysł
zna
znac
znaja
znaje
znajemy
znajes
znajmjen
znajomna
znajomne
znajomosc
znamjeni
znamjenja
znamjenjow
znamjes
znamjo
znamka
znata
znate
znateho
znatej
znateje
znatemu
znatosc
znaty
znatych
znatym
znawa
znawac
zne
znej
znic
znik
zniz
znje
znjemo
znjene
zno
znow
znowa
znowazałoz
znowazjednoc
znutr
zny
znymi
zo
zoba
zonc
zor
zora
zorach
zoraj
zorami
zoran
zorina
zorinje
zoriny
zorje
zornowca
zorom
zorow
zoru
zory
zostera
zow
zowe
zowej
zowka
zowych
zrawja
zrałe
zrałoc
zrałosc
zrałoty
zre
zrjadowak
zrosc
zruna
zrunana
zrunane
zrunanje
zrunany
zrunanych
zsa
zschocke
zschopau
zsef
zu
zub
zubata
zubate
zubaty
zubatych
zubatymi
zubic
zubica
zubki
zubkow
zubornic
zubornica
zuby
zucc
zuce
zucy
zugeho
zukunft
zum
zur
zuru
zus
zusa
zusoweje
zwadne
zwadny
zwahr
zwe
zwei
zweimal
zweisprachigen
zweiter
zweites
zwerg
zwisach
zwischen
zwisk
zwiska
zwiski
zwisku
zwjazac
zwjazana
zwjazane
zwjazanej
zwjazany
zwjazanych
zwjazk
zwjazka
zwjazkach
zwjazkaj
zwjazkarjo
zwjazkarjow
zwjazkej
zwjazki
zwjazkom
zwjazkow
zwjazkowa
zwjazkowe
zwjazkoweho
zwjazkowej
zwjazkoweje
zwjazkoweju
zwjazkowemu
zwjazkowu
zwjazkowy
zwjazkowych
zwjazkowym
zwjazku
zwjazuja
zwjazuje
zwjazujetej
zwjerch
zwjets
zwo
zwobraznic
zwobraznili
zwobraznja
zwobraznjec
zwobraznjeja
zwobraznjenja
zwobraznjenje
zwobraznjenjom
zwobrazowac
zwobrazowanje
zwobruc
zwonica
zwonka
zwonkowna
zwonkowne
zwonojta
zwonojte
zwony
zwoprawdz
zwosta
zwotkel
zwotkelz
zwr
zwre
zwuc
zwuk
zwuka
zwuki
zwukow
zwukowa
zwukowe
zwukowu
zwukowych
zwuraznja
zwuraznjec
zwuz
zwys
zy
zyc
zygaena
zygmunt
zygophyllaceae
zyka
zyma
zymach
zymje
zymneje
zymnych
zymokruta
zymokruty
zymske
zymski
zymu
zymy
zyna
zync
zynka
zynki
zynkonos
zz
złe
złeho
zło
złokomorowskeho
złokomorowski
złokomorowskim
złota
złote
złotej
złoto
złotow
złotoz
złoty
złow
złoz
zły
złyc
złym
{
|
}
~
£
¤
§
¨
©
«
¬
­
¯
°
±
²
³
´
µ
¶
·
¹
º
»
½
¿
×
ß
ßig
ßler
æ
ð
ø
đ
đinđic
ħ
ı
ł
ła
łac
łach
łachu
łahoda
łahodny
łahow
łaj
łaja
łam
łamanje
łane
łanje
łanju
łanowc
łany
łar
łarka
łarnik
łarnistwa
łarnistwow
łas
łastojc
ławosc
ławrjenc
ławrjenca
ławrjencowe
ławych
łaz
łaza
łazej
łazk
łazowskej
łazowskeje
łazu
łazy
łazyc
łał
łc
łca
łcow
łe
łeho
łej
łeje
ło
łobina
łobinje
łobiny
łobja
łobjo
łobjom
łobjowej
łobjowy
łobju
łoboda
łohlinowe
łohro
łohrodz
łoj
łojte
łom
łoms
łomsk
łomska
łon
łonam
łonami
łonka
łonki
łonojo
łonom
łonow
łonske
łonski
łonskich
łonskim
łonskimaj
łonstwo
łony
łopac
łopatkojte
łopjelsc
łopjen
łopjena
łopjenach
łopjenami
łopjenate
łopjenaty
łopjency
łopjenje
łopjenka
łopjeno
łopjenow
łopjenowa
łopjenowe
łopjenowy
łopjenowych
łopjes
łorus
łorusce
łoruska
łoruskej
łoruskeje
łoruski
łos
łosc
łow
łowa
łowe
łoweho
łowjec
łowjek
łowjeka
łowjeske
łowjeski
łowjeskich
łowjestwa
łowy
łowych
łowym
łoz
łozwuc
łska
łske
łskeho
łski
łskich
łsku
łstwa
łstwje
łstwo
łstwow
łstwowa
łstwoweje
łstwowy
łu
łuc
łuce
łuchow
łuchowa
łuh
łuha
łuhojtych
łuhowa
łuj
łuka
łukach
łuki
łuknadz
łukojce
łukow
łukowa
łukowych
łuku
łupjanska
łupjanskej
łupjanskeje
łupoj
łupoje
łupoji
łus
łusc
łusk
łuty
łuz
ły
łych
łyknowc
łyknowcowe
łym
łymi
łys
łz
ŋ
œ
ǀ
ǁ
ɑ
ɔ
ɕ
ə
ɛ
ɡ
ɥ
ɦ
ɨ
ɬ
ɭ
ɯ
ɲ
ɸ
ɾ
ʀ
ʁ
ʃ
ʊ
ʒ
ʔ
ʕ
ʥ
ʨ
ʲ
ʷ
ʻ
ʼ
ʾ
ʿ
ˀ
ˁ
ˇ
ˈ
ˌ
ː
̀
́
̂
̃
̄
̆
̇
̈
̉
̊
̋
̌
̓
̔
̚
̛
̣
̦
̧
̨
̯
͂
ͅ
͠
α
β
γ
δ
ε
ζ
η
θ
ι
λ
μ
ν
ξ
ο
π
ρ
ς
σ
τ
υ
φ
χ
ψ
ω
а
абхазии
аи
б
баи
беларусь
биографическии
большая
большои
брокгауза
бюро
в
века
владимир
во
военная
вологда
вологодская
воронеж
воронежскои
г
гл
год
года
голова
город
города
городе
городов
городок
городского
госстатслужба
губернии
д
да
дагестана
данные
державна
дзюба
доп
думка
е
евреи
енциклопедія
енциклопедіі
если
ефрона
ж
жылдагы
з
за
завод
и
из
изд
издание
ил
информация
историческая
к
ка
калкынын
кам
камітэт
карт
категория
китап
кн
книга
кол
ком
кон
координаціи
краи
кыргыз
кыргызскои
кыштактарынын
кю
л
ла
ле
ли
м
масштаб
ме
минск
михаил
мл
мои
москва
московскии
муниципалитеты
муниципальных
мі
н
на
накъде
нан
народная
населения
населення
наук
нацыянальны
наявного
не
ни
нкр
новыи
нтш
о
областеи
области
область
облустарынын
образовании
окончательные
он
ондорунун
онов
осипов
особенности
п
па
перепись
пмр
по
под
подмосковья
портал
поселков
прик
прил
р
рабочии
развитие
разрезе
раи
ргб
ред
редкол
республика
республикасынын
республике
республики
року
россии
россия
русскии
русь
рын
рэспублікі
с
са
саи
саны
саратовская
се
село
ск
ская
скии
слобода
словарь
служба
смоліи
собрание
советская
социально
спб
среднегодовая
статистики
статыстычны
стихи
стлб
стр
строительства
сть
судаков
сучасноі
т
та
таджикистан
таи
ти
тибиндеги
типа
то
томах
ты
у
уездныи
укра
украі
усть
ф
х
характеристики
хикәи
ц
ч
чисельн
численность
число
чня
ш
шаар
шаарларынын
шабле
шаблон
шиғырҙар
шупашкар
шур
щ
ъ
ы
ын
ь
э
экз
экономические
экономическое
энциклопедическии
энциклопедия
ю
я
язык
января
ђ
є
і
ін
інститут
історіі
ј
љ
њ
ћ
џ
ѣ
ѧ
ѫ
ҍ
ҙ
ҡалып
ү
ӏ
ә
әләр
ө
өфө
կաղապար
ְ
ִ
ֵ
ֶ
ַ
ָ
ֹ
ּ
ֿ
ׁ
׃
א
און
ב
גא
ה
הא
ו
ון
זיי
ח
ט
י
ך
ל
ם
מ
ן
נ
ס
ע
פ
צ
ק
ר
ש
ת
תבנית
ا
الگو
ة
ت
ج
ح
ر
سانچہ
ع
قالب
ل
م
ن
ه
و
ي
َ
ِ
ّ
ْ
ٔ
ٕ
ނ
ވ
ފ
ތ
ަ
ް
ँ
ं
क
ग
च
ज
ञ
ट
ढ
ण
त
द
ध
न
प
फलकम
ब
म
य
र
श
ष
स
ह
ा
ि
ी
ु
ू
े
ो
्
ঁ
ং
চ
ট
দ
ধ
ন
ব
ম
মপ
র
ল
স
া
ি
ূ
ে
্
ਨ
ਾ
ੂ
ં
ચ
ઢ
ા
ો
ଚ
ଛ
ଞ
ଟ
ା
େ
୍
ப
ர
வ
ா
ு
ை
்
మ
స
ూ
్
ಂ
ಟ
ು
ೆ
್
ം
ഫലക
ක
ල
ස
්
ැ
ි
ก
ล
ั
ิ
ี
ู
แบบ
แม
่
้
์
་
མ
ོ
თარგი
틀
ជ
ទ
ព
រ
រគ
ា
ូ
ំ
័
្
ᵉ
‌
‎
‏
–
—
‘
’
‚
“
”
„
‟
†
•
…
‰
′
″
‹
›
⁄
⁠
⁴
⁵
⁶
€
№
ⅰ
ⅷ
↑
→
↔
↷
⇒
∅
∇
−
≈
≥
⊙
③
④
⑦
─
│
┌
┐
└
┘
├
┤
┬
┴
█
△
▼
◄
☉
♀
♂
ⴰ
ⴱ
ⵉ
ⵍ
ⵎ
ⵓ
ⵔ
ⵕ
ⵢ
⺀
⺄
⺆
⺈
⺊
⺌
⺕
⺝
⺸
⺼
⿰
⿱
⿲
⿳
⿴
⿵
⿶
⿷
⿸
⿹
⿺
⿻
〢
あ
い
う
ぇ
え
か
く
け
こ
さ
し
そ
た
っ
て
な
に
の
は
ひ
ま
も
ゃ
ゅ
ょ
ら
り
る
を
ん
゙
゚
ア
ィ
イ
ウ
ェ
エ
オ
カ
キ
ク
ケ
コ
サ
シ
ス
ソ
タ
チ
ッ
ツ
テ
ト
ナ
ニ
ヌ
ネ
ハ
ヒ
フ
ヘ
ホ
マ
メ
モ
ャ
ヤ
ュ
ユ
ョ
ヨ
ラ
リ
ル
レ
ロ
ワ
ン
・
ー
ㄹ
ㅇ
㇁
㇂
㇄
㇇
㇈
㇉
㇓
㐁
㐄
㐅
㐌
㐫
㐬
㐭
㐮
㐱
㑒
㒵
㒸
㒼
㓁
㓞
㔾
㕛
㕣
㖾
㘝
㚅
㚇
㚔
㚘
㝉
㝡
㝴
㝵
㞋
㞢
㞷
㠩
㠭
㠯
㡀
㡭
㡿
㢲
㢴
㣇
㣺
㥯
㪅
㫄
㫐
㫒
㫺
㬅
㬎
㬥
㬰
㲋
㳄
㷠
㸒
㸚
㸦
㼌
㼲
㽞
㿟
䀠
䂞
䍃
䏍
䒑
䖍
䖒
䖝
䖵
䙴
䚻
䜌
䝿
䡛
䧹
䪞
一
丁
丂
七
丄
丅
丆
万
丈
三
上
下
丌
不
与
丏
丐
丑
专
且
丕
世
丘
丙
业
东
丞
丢
丣
两
严
並
丨
丩
个
丫
丬
中
丮
丰
丱
串
丵
丶
丷
丸
丹
为
主
丽
丿
乀
乂
乃
久
乆
乇
么
义
之
乌
乍
乎
乏
乐
乑
乔
乖
乗
乘
乙
乚
乛
乜
九
乞
也
习
乡
乳
乾
亀
亅
了
亇
予
争
事
二
亍
于
亏
亐
云
互
亓
五
井
亘
亚
亜
亞
亟
亠
亡
亢
交
亥
亦
产
亨
亩
享
京
亭
亮
亯
亰
亲
亳
亶
亷
人
亻
亼
亾
仁
今
介
仌
从
仐
仑
仒
仓
仕
他
付
仝
代
令
以
仮
任
企
伊
伏
伐
休
会
伝
伯
但
位
何
佘
余
作
佥
使
來
侈
侌
侖
侯
侵
便
保
俞
信
修
倉
倍
候
倠
備
僉
僕
儿
兀
允
兂
元
兄
充
兆
兇
先
光
兊
克
兌
免
兑
兒
兓
兔
党
兜
兟
入
全
兩
兪
八
公
六
兮
兰
共
关
兵
其
具
典
兹
兼
冀
冂
冃
冄
内
冈
冉
冊
冋
册
再
冎
冏
冐
冒
冓
冖
冗
冘
军
农
冝
冡
冥
冫
冬
冷
几
凡
凢
凵
凶
凷
凸
凹
出
函
凾
刀
刁
刂
刃
刄
刅
分
切
刍
刑
刕
刖
列
刘
则
初
別
利
别
到
制
刺
則
削
剌
前
剡
剽
劉
力
功
加
劦
助
劫
劳
劵
勃
勇
勉
勒
動
務
勞
勤
勹
勺
勻
勾
勿
匀
匂
包
匆
匈
匊
匋
匍
匕
化
北
匚
匝
匡
匪
匱
匸
匹
区
医
匽
匿
區
十
卂
千
卄
卅
卆
升
午
卉
半
卌
华
卑
卒
卓
单
卖
南
卜
卝
卞
占
卡
卢
卣
卤
卦
卩
卪
卬
卯
印
危
即
却
卵
卷
卸
卻
厂
厃
厄
历
厈
厉
厌
厓
厘
厚
原
厤
厥
厨
厭
厲
厶
厷
厸
去
厼
厽
叀
参
參
叅
又
叉
及
友
双
反
叐
发
叒
叔
叕
取
受
叚
叜
叟
口
古
句
另
叩
只
召
可
台
叱
史
右
叵
号
司
叹
吂
各
吅
合
吉
吊
吋
同
名
后
吏
向
吕
君
吝
吞
吠
否
含
启
吳
吴
吹
吾
呂
呆
呈
告
员
呙
周
命
咅
和
咎
咠
咢
咨
咸
咼
哀
品
哉
員
哥
哲
唐
商
啇
問
啚
啬
啻
善
喜
喬
單
喿
嗇
噩
嚴
囊
囗
囘
囙
囚
四
回
囟
因
囧
囬
困
囱
囷
固
国
圂
圅
國
圍
圓
土
圡
圣
圥
在
圭
地
圶
圼
坐
坒
坚
坴
垂
垔
垚
埀
埋
埶
執
基
堂
堅
堆
堇
堯
塞
墨
壘
士
壬
壯
声
壳
壴
壹
壺
壽
夂
处
夅
夆
备
夊
夋
夌
复
夏
夒
夕
外
夗
夘
多
夜
夢
大
夨
天
太
夫
夬
夭
央
失
夲
头
夷
夸
夹
夻
夾
奂
奄
奇
奈
奉
奎
奏
奐
契
奓
奔
奚
奞
奠
奢
奥
奭
女
奴
奻
好
如
妄
妙
妟
妥
妻
妾
姑
委
姜
威
娄
婁
婴
嬰
嬴
子
孑
孔
孕
孖
字
存
孚
孛
孝
孟
季
孤
学
孫
孱
學
宀
宁
宂
它
宅
宇
守
安
宋
完
宏
宓
宗
官
定
宛
宜
宝
客
宣
室
宮
宰
害
家
容
宾
宿
寄
寅
密
富
寒
察
寧
審
寫
寬
寮
寸
对
寺
寻
寽
対
寿
封
尃
射
将
將
專
尉
尊
尋
尌
對
小
少
尒
尓
尔
尖
尗
尚
尞
尢
尣
尤
尧
尨
尭
就
尸
尹
尺
尻
尼
尽
尾
尿
局
居
屈
屋
屎
屏
屑
展
屖
屚
属
屠
屡
屬
屮
屯
屰
山
屵
屾
岁
岂
岑
岡
岩
岳
岸
峯
島
崇
崑
崔
崖
崙
崩
嵬
嶲
巂
巛
川
州
巟
巠
巢
巤
工
左
巧
巨
巩
巫
差
己
已
巳
巴
巷
巸
巽
巾
巿
帀
市
布
希
帚
帛
帝
带
師
席
帶
常
干
平
年
幵
并
幷
幸
幺
幻
幼
幽
幾
广
広
庄
床
底
店
庚
府
度
庫
庭
庶
康
庸
廉
廌
廛
廣
廩
廴
延
廷
建
廾
廿
开
弁
弃
弄
弇
弋
式
弓
弔
引
弗
弘
弜
弟
弥
弦
弱
張
強
强
彊
彌
彎
彐
彑
当
彔
录
彖
彗
彡
形
彥
彦
彧
彭
彳
役
彼
往
待
律
徒
得
徙
從
復
微
徵
心
忄
必
忌
忍
志
忝
忠
忩
快
念
忽
忿
思
怠
急
怱
恆
恒
恩
恭
息
悉
患
悤
悲
悶
惠
惡
惢
愁
愈
意
愛
感
慈
慧
慮
憂
憲
應
懐
戀
戈
戉
戊
戋
戌
戍
戎
成
我
戒
戔
或
戚
戠
戢
戦
截
戲
戶
户
戹
戼
戾
房
所
扁
扇
手
扌
才
打
托
执
承
折
拉
拜
拿
掌
推
提
摩
支
攴
攵
收
攸
改
放
政
敄
敏
敕
敖
敗
敝
敞
敢
散
敦
敫
敬
数
敷
數
斂
文
斉
斊
斗
斤
斥
斩
斬
斯
新
方
於
施
斿
旁
旋
族
无
旡
既
旣
日
旦
旧
旨
早
旬
旱
旲
时
旾
昆
昇
昌
昍
明
昏
易
昔
昗
昜
星
春
昬
是
昱
昴
昷
時
晃
晋
晏
普
景
晶
智
暑
暴
曇
曩
曰
曲
曳
更
曷
書
曹
曼
曾
替
最
朁
會
月
有
朋
服
朔
朕
朗
望
朝
木
朩
未
末
本
札
朮
术
朱
朵
朶
朿
杀
杏
杜
束
条
来
東
杲
杳
松
析
林
枚
果
枝
枲
枼
某
柔
查
柬
柰
柴
栗
桀
桑
桼
梁
條
梟
梨
棘
棠
棥
森
楚
業
楽
榮
樂
樊
欠
次
欣
欮
欲
欶
欽
款
歆
歇
歌
歛
歡
止
正
此
步
武
歨
歪
歮
歯
歰
歲
歴
歷
歸
歹
歺
死
殳
段
殷
殸
殹
殺
殻
殿
毋
毌
母
每
毒
比
毕
毚
毛
毳
氏
氐
民
气
氣
水
氵
氶
氷
永
氺
氾
求
汝
汞
江
沃
沓
沙
沝
泉
泊
法
波
泣
泥
泰
洛
洪
活
派
流
浦
浪
浮
海
淡
淮
清
渚
渠
湯
滿
漸
火
灬
灭
灰
灵
灷
炅
炎
炏
炗
炙
炭
為
烈
烏
烝
焉
無
焦
焱
然
煞
熊
熏
熱
燕
營
燮
爪
爫
爭
爯
爰
爱
爲
爵
父
爻
爽
爾
爿
片
牙
牚
牛
牜
牟
牢
牧
牪
牽
犀
犬
犭
犮
狂
狄
狊
独
狺
猋
猒
猪
献
獻
玄
率
玉
王
玟
玨
珎
班
琴
瑟
瑩
璠
瓜
瓦
甘
甚
生
産
用
甫
甬
田
由
甲
申
电
甶
男
甸
甹
画
甾
畀
界
畏
畐
留
畜
畟
畢
畧
畨
番
畫
異
畱
當
畺
畾
疊
疋
疌
疑
疒
疾
癶
癸
癹
登
發
白
百
皀
皃
的
皆
皇
皋
皐
皕
皮
皷
皿
盃
盆
盇
盈
益
盍
盎
监
盒
盖
盛
盡
監
盤
盧
目
直
相
盾
省
眇
眉
看
眔
眞
真
眷
眼
眾
着
睘
睪
睿
瞏
瞢
瞿
矍
矛
矞
矢
矣
知
矦
短
石
破
碎
磊
磨
示
礻
礼
祟
票
祭
禀
禁
禸
禹
禺
离
禽
禾
禿
秀
秃
秉
秋
科
秝
秦
移
稟
穀
穌
穴
究
穹
空
穿
突
窄
窒
立
竒
竜
竝
竟
章
童
竹
笑
笠
筆
等
答
箕
算
箴
節
篤
篭
米
粉
粛
粟
粤
粦
粲
糞
糸
糹
系
約
納
素
索
紫
累
細
絜
絫
絲
維
綿
縣
繇
纍
纟
约
缶
网
罒
罔
罕
罗
罙
罡
罢
罪
署
罷
羅
羊
羌
羍
美
羔
羕
羗
羞
羡
羣
群
義
羲
羸
羽
翁
翏
習
翕
翟
翠
翰
翼
老
耂
考
者
耆
而
耎
耑
耒
耳
耴
耶
耷
聂
聊
聖
聚
聶
聿
肀
肃
肅
肉
肖
肙
肥
肩
肯
育
肴
胃
背
胡
胥
能
脊
脩
膚
臣
臤
臧
自
臬
臭
臯
臱
至
致
臺
臼
臽
臾
臿
舀
舂
舄
與
興
舉
舌
舍
舛
舜
舞
舟
般
艮
良
色
艸
艹
艾
芒
芔
芬
芮
花
芳
芺
芻
苔
苗
苟
若
苦
英
茶
茸
荅
草
荒
荣
荼
莆
莧
莫
莽
菆
菊
菐
華
萬
落
葉
著
葛
董
葵
蒙
蒦
蒼
蓋
蓬
蓺
蔑
蔡
蕉
蕭
薄
薛
薦
薰
藍
藏
藥
蘇
蘭
虍
虎
虐
虒
虔
處
虖
虗
虘
虚
虛
虜
虞
虫
虽
蚤
蚩
蜀
蜜
蟲
蠡
血
行
衍
衛
衣
衤
表
衮
衰
袁
袞
褭
褱
襄
襾
西
覀
要
覃
見
規
覓
覧
親
覽
见
角
解
言
訁
訇
計
記
詩
詹
語
誩
説
誰
諸
讠
谷
豆
豈
豊
豐
豕
豖
豙
象
豦
豩
豪
豸
貇
貝
貞
貟
負
貢
貧
貪
貫
責
貳
貴
買
費
賁
資
賈
賏
賓
賔
賛
賞
賢
賣
質
賴
贊
贝
贡
责
贯
贲
贵
赖
赞
赤
赦
走
越
足
路
蹇
身
躬
車
軍
軎
軟
輦
车
辛
辜
辟
辥
辰
辱
農
辵
辶
边
达
过
近
连
迷
追
退
送
逆
逐
通
速
造
逢
連
逮
進
遀
遂
過
道
達
遣
適
遷
遺
邊
邑
邕
那
邦
邪
郎
部
郭
都
鄉
酉
酋
配
酓
釆
采
里
重
野
量
金
釒
錢
钅
長
镸
长
門
閃
閉
開
閏
閑
閒
間
閔
閵
閻
闌
门
间
闷
阑
阜
阝
阿
降
陳
隆
隊
隋
隡
隨
隱
隶
隹
隺
隻
隼
隽
难
雀
雁
集
雈
雋
雍
雐
雔
雙
雚
雜
雝
離
難
雨
雩
雪
雲
零
雷
需
霍
霜
霝
霞
霸
靈
靑
青
非
靡
面
靣
革
韋
韦
韭
韯
韱
音
頁
頃
項
須
頗
頡
頻
顛
页
風
风
飛
飞
食
飠
養
饣
首
香
馬
馮
駦
马
骨
高
髟
鬥
鬯
鬲
鬼
魂
魚
魯
鮮
鱼
鲁
鳥
鳳
鸟
鹵
鹿
麃
麗
麥
麦
麻
黃
黄
黍
黎
黑
黒
黨
黹
黽
黾
鼎
鼓
鼠
鼻
齊
齋
齐
齒
齿
龍
龙
龜
龟
龠
龰
龱
龴
龵
龶
龷
龸
龹
者
艹
ﻌ
ﻤ
﻿
？
𠀁
𠀃
𠀆
𠀉
𠀎
𠀐
𠁁
𠁣
𠂆
𠂇
𠂈
𠂉
𠂊
𠂋
𠂎
𠂒
𠂔
𠂛
𠂡
𠂢
𠂤
𠂬
𠂭
𠂹
𠃊
𠃋
𠃌
𠃍
𠃎
𠃑
𠃓
𠃔
𠃜
𠄌
𠄎
𠄠
𠄢
𠆢
𠆥
𠇍
𠈌
𠌵
𠓜
𠔉
𠔥
𠔼
𠔽
𠔿
𠕀
𠕁
𠕋
𠘧
𠘨
𠙻
𠙼
𠚏
𠚒
𠚤
𠚪
𠣏
𠤎
𠤕
𠥓
𠦄
𠦑
𠦝
𠧒
𠧗
𠧪
𠩺
𠪚
𠫓
𠫔
𠫤
𠬛
𠬝
𠬞
𠬢
𠬤
𠬶
𠮛
𠮦
𠮷
𠯑
𠱠
𠳮
𠷎
𡈼
𡉀
𡉵
𡌥
𡍮
𡏳
𡕒
𡕩
𡕰
𡖅
𡗗
𡗜
𡘆
𡘤
𡧱
𡨄
𡩧
𡬠
𡭽
𡰣
𡰥
𡰪
𡰯
𡰱
𡷈
𡸁
𡿨
𡿩
𡿪
𡿺
𢀖
𢀛
𢀩
𢁙
𢆉
𢆰
𢆶
𢇁
𢇇
𢉖
𢌬
𢌿
𢏚
𢑑
𢑚
𢖻
𢙣
𢛳
𢦏
𢦒
𢧵
𢼄
𢾕
𣁋
𣄼
𣅀
𣅽
𣍘
𣎳
𣎵
𣏋
𣏼
𣗥
𣥂
𣥖
𣦵
𣦼
𣧄
𣪊
𣪠
𣬉
𣳾
𣶒
𤇾
𤊽
𤐫
𤓰
𤔔
𤕨
𤣩
𤰇
𤰔
𤰞
𤴓
𤴔
𤽄
𥁑
𥁕
𥃦
𥃩
𥃭
𥇡
𥑟
𥘅
𥘈
𥝢
𥫗
𥱡
𦈢
𦉪
𦉬
𦉼
𦍌
𦍒
𦎧
𦐇
𦓔
𦔮
𦘒
𦙃
𦚏
𦣝
𦣞
𦣻
𦥑
𦥔
𦥯
𦨉
𦭝
𦰩
𧆞
𧈧
𧘇
𧰨
𧴪
𧴮
𧵩
𧾷
𨸏
𨾴
𩙿
𩠐
𩫏
𩵋
𪉷
𪜀
𪟽
𪠲
𪩲
𫇦
𫔭
𫜸
𫝀
𫠣
𫠩
𫢉
𫥞
𫩏
𫩠
𫪡
𫲽
𫶧
𬀷
𬐘
𬗌
𬙙
𬛸
𬜯
𬟩
𬯁
𬴘
𬺻
𬼉
𬼖
𭀰
𭁈
𭁨
𭅰
𭑈
𭕄
𭗼
𭤨
𭥫
𭻾
𮅕
𮊿
𮍌
𮍏
𮓗
𮥼
𮧮
廾
𰀁
𰀄
𰀈
𰀉
𰀕
𰀠
𰀡
𰀢
𰀪
𰁜
𰃮
𰆊
𰆘
𰋙
𰕎
𰢴
𰧭
𰯲
00--
01--
02--
03--
04--
05--
06--
07--
08--
09--
56--
57--
61--
71--
72--
74--
78--
80--
81--
82--
83--
85--
86--
87--
88--
89--
92--
93--
95--
978374--
98--
a--
aa--
ab--
aba--
abc--
abchaz--
abd--
abe--
abi--
abitu--
ablaw--
absol--
absolut--
ac--
aca--
acant--
ach--
acu--
acuti--
ad--
ada--
adapt--
adel--
admini--
administrations--
adres--
ae--
af--
afgh--
afghani--
afro--
ag--
aglom--
aglu--
agrar--
agres--
agua--
ah--
aha--
ahow--
ai--
aice--
aj--
ajowc--
ak--
aka--
akademi--
akcept--
akci--
akti--
aktiwiz--
aktu--
aktuali--
aku--
akwar--
al--
ala--
alb--
alc--
ale--
aleks--
ali--
aljak--
all--
allge--
alof--
alpin--
als--
alt--
alte--
alto--
alweola--
alytu--
am--
amate--
amaz--
amazon--
ambo--
ambor--
ami--
amo--
amplexica--
amts--
amud--
amygd--
an--
ana--
analog--
analogi--
analy--
analytis--
anato--
anc--
and--
ane--
ange--
angl--
anglika--
ango--
angu--
ani--
anisophy--
ann--
anna--
anne--
ano--
ans--
ant--
anti--
antiks--
antro--
ao--
ap--
apen--
apennin--
apo--
app--
appa--
appro--
aput--
aquati--
aque--
aquifo--
ar--
ara--
arali--
arauc--
arbei--
arc--
archeolog--
arcy--
ardi--
are--
arg--
argen--
argenti--
ari--
ark--
armen--
arn--
aro--
arow--
ars--
art--
artiku--
aru--
arund--
as--
asa--
asimi--
assy--
ast--
astro--
asu--
at--
atlan--
atmos--
atri--
atro--
aty--
au--
auf--
auranti--
aus--
ausge--
austro--
aut--
automat--
av--
ava--
aw--
awa--
awstra--
awto--
awtomat--
ay--
az--
aza--
ał--
ałzo--
b--
ba--
bab--
babel--
bac--
bad--
baham--
bai--
baj--
bakter--
bal--
bala--
bald--
balden--
bals--
balsami--
balt--
baltof--
bamb--
bambus--
ban--
bank--
bapt--
bar--
barbi--
barents--
bas--
basket--
batt--
bau--
baum--
bay--
baz--
bał--
be--
beau--
bec--
beck--
bee--
bei--
bel--
belgi--
belie--
ben--
benga--
ber--
berdd--
berg--
bern--
beski--
bess--
betel--
bey--
bhi--
bhu--
bhumi--
bi--
biało--
biber--
bibi--
bie--
bieb--
bien--
bier--
big--
bil--
bild--
bin--
biog--
biograf--
biolog--
bis--
bje--
bjelo--
bjen--
bjer--
bjez--
bl--
bla--
blatt--
ble--
blido--
bloe--
blok--
blu--
blun--
bo--
bob--
boden--
bog--
boh--
bohe--
bohos--
boj--
bojow--
bol--
bombo--
bon--
bor--
born--
bos--
bot--
botsw--
bouc--
bougain--
bow--
bowa--
box--
boy--
boz--
boł--
br--
bra--
brachy--
brambo--
brazi--
bre--
break--
breit--
brig--
brigad--
brin--
brink--
brit--
brja--
brjo--
bro--
brock--
brod--
brodaw--
bronz--
bru--
bruno--
bs--
bu--
buc--
buch--
budd--
buddhist--
budjon--
bug--
buk--
bulb--
bulga--
bunde--
bung--
bur--
burg--
bus--
but--
butter--
by--
bycanti--
byd--
bydle--
byrg--
byrgar--
bys--
bystr--
bytos--
bø--
bło--
błu--
c--
ca--
caesal--
callen--
calo--
calophy--
cam--
campro--
can--
capi--
capp--
car--
carni--
carol--
caryophy--
cas--
casa--
cat--
caucas--
cav--
caver--
cał--
cc--
ce--
cec--
cejd--
cent--
centime--
central--
cephal--
ceratophy--
ch--
cha--
chalcedon--
cham--
chamae--
chant--
char--
che--
chi--
chlo--
cho--
chow--
chr--
chu--
chwa--
chy--
chło--
ci--
cie--
cil--
cin--
citro--
ciwi--
ciwilizac--
ck--
cken--
cla--
cle--
cli--
clo--
clu--
co--
cocc--
coeru--
colu--
com--
comic--
con--
coolog--
cor--
cordi--
cori--
coria--
corn--
coron--
corr--
cors--
cory--
cos--
cour--
cow--
cran--
crassifo--
cre--
cret--
cri--
cris--
cristi--
cro--
cru--
crypt--
cu--
cucu--
cum--
cunn--
cunningh--
current--
cus--
cuspi--
cy--
cyat--
cybl--
cygo--
cyhe--
cyk--
cylindr--
cyło--
cyłokro--
cz--
cze--
cław--
cłow--
d--
da--
dacty--
daj--
dal--
dale--
daloko--
dam--
dan--
dar--
das--
daten--
dau--
daw--
dd--
ddor--
ddorfi--
de--
deba--
debi--
dec--
defin--
dek--
dekla--
del--
dem--
democ--
demons--
den--
densi--
depart--
der--
deriwac--
des--
det--
develop--
dezi--
di--
dia--
diakr--
die--
diff--
digi--
digital--
digo--
dikt--
dill--
dim--
din--
dio--
direkc--
disc--
discipl--
disku--
diskusi--
disponujo--
disti--
distri--
dit--
ditt--
diversifo--
dj--
dla--
dm--
dno--
do--
dobl--
dobr--
doby--
doc--
dohlad--
doje--
dol--
doln--
dolom--
dom--
domiz--
domow--
doms--
don--
dopje--
dopo--
doppel--
dor--
doro--
dos--
dou--
dow--
doz--
dołho--
dr--
dra--
dre--
drje--
drjew--
dro--
droho--
dru--
ds--
dt--
du--
dub--
duch--
dud--
dunk--
dur--
durin--
dus--
dv--
dwacet--
dwan--
dwo--
dwojo--
dwu--
dwuhub--
dy--
dyr--
dyrdomdej--
dz--
dzie--
dzy--
dłu--
e--
ea--
eah--
eby--
ec--
echo--
eco--
ed--
eda--
edchad--
edel--
edi--
eds--
edstaj--
edsy--
edło--
ee--
ef--
efed--
efektiw--
ege--
egypt--
ehe--
ehren--
ei--
eich--
eichen--
ein--
einge--
eis--
eisen--
ej--
ek--
ekolog--
eksekut--
eksem--
eksi--
eksk--
ekskluz--
ekso--
eksperi--
el--
ela--
elako--
ele--
elekt--
elektris--
elektron--
elektrotech--
eleon--
eli--
elipt--
els--
em--
ema--
emi--
emy--
en--
end--
energ--
eniw--
enk--
enne--
eno--
ent--
entit--
ents--
enzensbe--
ep--
epig--
epje--
epod--
epodob--
epru--
epy--
epytowa--
er--
erc--
erch--
ere--
erig--
erin--
erio--
erios--
erit--
erja--
erk--
ern--
eroz--
erp--
ers--
erst--
erwjeno--
eryth--
erz--
es--
esc--
esch--
esper--
est--
esta--
estruktur--
esun--
esy--
et--
ethn--
etiop--
etno--
etor--
etorhn--
etwa--
etwo--
etym--
etymolog--
eu--
eudi--
eukaryo--
euph--
euraz--
euro--
ev--
eva--
evangel--
ew--
ewa--
ewo--
ex--
exper--
ey--
ez--
f--
fa--
fabr--
face--
fair--
falow--
fan--
far--
fas--
fał--
fałdow--
fe--
fed--
feje--
fel--
feld--
felic--
fer--
fermen--
fernseh--
feud--
ff--
ffentl--
fi--
figu--
fijał--
fil--
filip--
filt--
fin--
fini--
finoug--
fir--
fit--
fl--
flam--
flav--
fleis--
flek--
fleksi--
flie--
flo--
flu--
fly--
fo--
foeti--
folk--
fonet--
fonologi--
for--
format--
fosil--
foto--
fou--
fr--
fra--
frank--
frauen--
frazeolog--
fre--
fred--
free--
freie--
frie--
frieden--
frig--
fro--
froh--
fru--
fu--
fun--
fung--
funkci--
fy--
fylo--
fyz--
g--
ga--
gael--
gal--
galer--
gamb--
gang--
gar--
garry--
gas--
gat--
gaud--
gaw--
gd--
ge--
gehei--
geist--
geiß--
gel--
gen--
general--
genetis--
geo--
geodet--
geologi--
geometr--
geore--
ger--
gersten--
gesch--
get--
gh--
gi--
gian--
gil--
gill--
ginej--
giuli--
gl--
gla--
gland--
glauc--
glei--
glu--
go--
god--
goet--
goid--
gold--
gorz--
got--
gotha--
gra--
graf--
grammat--
gran--
gre--
gri--
griff--
gris--
gro--
grodk--
gross--
groß--
gru--
grund--
gry--
gu--
gua--
guaya--
gui--
gund--
gut--
guy--
gw--
gy--
gym--
głubc--
h--
ha--
haar--
hac--
had--
haid--
haj--
hal--
ham--
hammer--
hamt--
han--
hana--
hand--
har--
hard--
hart--
has--
hasel--
hat--
hau--
haupt--
haus--
haw--
haz--
he--
hebr--
hei--
heil--
heksadecima--
hell--
hen--
her--
herr--
herz--
het--
heter--
hey--
hi--
high--
hil--
hilb--
hille--
him--
hinr--
hip--
hippoc--
his--
hist--
hit--
hl--
hli--
hm--
hn--
hnadow--
ho--
hoch--
hodg--
hof--
hokej--
holl--
holos--
holz--
hom--
home--
hon--
hop--
hor--
horbi--
hos--
hospi--
hot--
hoł--
hr--
hra--
hrab--
hrja--
hrje--
hro--
hrva--
hu--
hub--
humbold--
hung--
hur--
huron--
hurr--
hus--
hy--
hyac--
hydra--
hydro--
hyper--
hypo--
hł--
hła--
hło--
hłow--
hłu--
hłuc--
i--
ia--
iai--
ibe--
ibi--
ibs--
ic--
ica--
ich--
id--
ida--
idealiz--
iden--
identifi--
ideo--
ideologi--
idow--
ie--
if--
ifor--
ig--
igno--
ihl--
iho--
ihotowa--
ihr--
ij--
ija--
ik--
iko--
il--
ilega--
ili--
ill--
ilust--
im--
imi--
imo--
imp--
imper--
imperia--
implemen--
in--
ina--
inc--
indi--
indigen--
individu--
indiwidu--
indiwiduel--
indo--
indochi--
indon--
indus--
industria--
industrie--
industrij--
infor--
informac--
ing--
ini--
ino--
inofi--
ins--
insek--
instal--
inte--
integro--
inten--
intensi--
inter--
interpre--
intro--
inty--
inu--
inwaz--
io--
ion--
ip--
ipa--
ipo--
ipodo--
ipoł--
ipra--
ir--
irak--
iran--
ire--
irja--
iro--
iruna--
is--
isen--
islam--
iso--
ispo--
ist--
ista--
istro--
iswo--
it--
ita--
itaj--
ito--
iv--
ivo--
iw--
iwa--
iwi--
iwje--
iwo--
iwostej--
iwuz--
iz--
izje--
izna--
izol--
ił--
iło--
j--
ja--
jagiel--
jaho--
jaj--
jak--
jam--
jama--
jan--
jar--
jasm--
jau--
java--
jawo--
je--
jed--
jedno--
jednotl--
jehli--
jehła--
jejofor--
jen--
jere--
jerje--
jeru--
jes--
jew--
jez--
ji--
jo--
jos--
jovi--
js--
ju--
jubi--
juho--
jung--
jur--
jwo--
k--
ka--
kabar--
kad--
kal--
kalifor--
kalk--
kall--
kalmy--
kam--
kan--
kanad--
kandi--
kap--
kapit--
kapon--
kapor--
kar--
kara--
karbi--
karl--
kas--
kat--
kata--
kate--
kato--
kawa--
kaz--
kał--
kałob--
ke--
kehe--
kel--
kelt--
kem--
ken--
ker--
kerk--
kess--
kho--
ki--
kic--
kich--
kilo--
kin--
kinspo--
kirch--
kirg--
kirgiz--
kis--
kisa--
kit--
kla--
klap--
klas--
klasif--
kle--
klein--
kli--
klin--
klinopis--
kljaz--
klo--
kloster--
klotz--
km--
kni--
knihi--
kno--
ko--
koalici--
kobje--
kod--
kodie--
kodif--
koe--
kolon--
kolonia--
kolu--
kom--
kombin--
komeli--
komen--
kommunist--
kompi--
kompju--
kompjuter--
kompl--
kompo--
kompu--
komu--
kon--
konce--
koncent--
konsek--
konsti--
kontra--
kope--
kopt--
kor--
koral--
korek--
korespo--
korig--
korn--
korona--
korsi--
koruta--
kos--
kosa--
kosmo--
kostoł--
kostr--
kott--
kov--
kow--
kowa--
koz--
kozie--
koł--
koło--
kr--
kra--
kraj--
kre--
kredi--
kreol--
kretz--
kreuz--
krist--
krit--
kriteri--
kritiz--
kro--
kru--
kruh--
krumbie--
kry--
krynhe--
krytosym--
krze--
ks--
kt--
ku--
kuchi--
kuja--
kuku--
kulo--
kult--
kultiwo--
kultu--
kultur--
kunst--
kup--
kupa--
kur--
kurdi--
kuri--
kurs--
kurz--
kus--
kut--
kuz--
kw--
ky--
kło--
kłub--
l--
la--
labi--
lac--
lag--
lage--
lai--
lam--
lan--
land--
lang--
lanugi--
lapp--
lar--
las--
lasio--
lat--
lau--
lauen--
laur--
lav--
law--
lax--
lay--
lb--
ld--
le--
lea--
leb--
lech--
led--
lee--
leg--
legi--
lei--
lej--
leks--
leksika--
lem--
len--
lepi--
lept--
leptog--
ler--
les--
let--
leu--
leuc--
leut--
lew--
li--
lic--
lie--
light--
ligu--
lin--
lingui--
linguisti--
lip--
lipp--
lis--
lissa--
lit--
litera--
liturgi--
liz--
lju--
lk--
lkow--
ll--
ln--
lo--
lob--
lodow--
loh--
lok--
lokali--
lom--
long--
loris--
los--
loth--
lotos--
lou--
low--
lp--
ls--
lt--
lu--
lub--
luc--
lud--
ludomordar--
lute--
luty--
luz--
lv--
lwo--
ly--
lyca--
lyco--
lyn--
lø--
m--
ma--
mac--
mad--
mae--
mag--
maga--
magel--
magi--
mah--
mai--
maj--
mak--
mal--
mala--
male--
mam--
man--
mandshu--
mangi--
mans--
map--
mar--
marat--
marc--
mark--
markt--
marx--
mary--
mas--
mat--
matemat--
maur--
maurit--
may--
maz--
mało--
mb--
mc--
mcc--
me--
mecha--
med--
mega--
mein--
mej--
melan--
melbou--
melo--
mem--
meme--
men--
mer--
mes--
mesop--
meta--
meteorolog--
metod--
metro--
metz--
mexi--
mez--
mezop--
mg--
mi--
mic--
micro--
mie--
mikro--
mil--
min--
minera--
mini--
mir--
mira--
mis--
mision--
mit--
mj--
mje--
mjechko--
mjed--
mjez--
mjezy--
ml--
mm--
mno--
mnoho--
mo--
mobi--
moc--
modifi--
modl--
mohi--
mol--
mon--
mongo--
mono--
monofy--
mont--
mor--
morav--
moraw--
mord--
mordwin--
morfologi--
mos--
moti--
mov--
mowo--
mowowio--
moz--
mro--
ms--
msko--
mt--
mu--
muc--
mult--
mun--
mus--
musli--
muz--
my--
myan--
myd--
myos--
myris--
myrs--
myrt--
mys--
mz--
mło--
młodos--
młyn--
n--
na--
nabi--
nac--
nach--
nacionalno--
nad--
naf--
nahl--
nahra--
nai--
naj--
najc--
nakro--
nakupow--
nalu--
nam--
namanga--
nan--
nap--
napje--
nar--
narod--
nas--
naspo--
nat--
nau--
naum--
naw--
nawi--
nawigaci--
nawje--
nawod--
naz--
nc--
nd--
ndr--
ne--
nebel--
nec--
nef--
negaci--
negat--
nego--
ner--
nes--
netz--
neu--
new--
nf--
ng--
nh--
ni--
nie--
nieder--
nig--
nik--
nilosaha--
nim--
nimo--
nin--
nippon--
nis--
nj--
nja--
njamor--
nje--
njekand--
njena--
njepraw--
njeru--
njes--
njewo--
njewobmjez--
njez--
njo--
njow--
nk--
nl--
nn--
no--
noc--
noch--
noctu--
nom--
nopra--
nor--
nord--
nos--
nosłow--
not--
notiro--
now--
nowo--
nowokuz--
ns--
nt--
nu--
nudica--
nuk--
nul--
numm--
nur--
nuzow--
ny--
nz--
o--
ob--
ober--
obercu--
obli--
obod--
obodri--
obsc--
obserwa--
obtusifo--
oc--
och--
ochot--
octa--
od--
oe--
of--
off--
offen--
og--
oghuz--
oh--
oi--
oj--
ok--
ol--
ola--
ole--
oleks--
olig--
olog--
om--
on--
oner--
oniki--
onja--
op--
opciona--
opol--
opozic--
opti--
opulifo--
or--
ora--
orb--
orche--
ordin--
ore--
organiz--
orn--
ornit--
orno--
ors--
ort--
ortodok--
os--
osman--
osob--
ost--
ot--
ou--
out--
ov--
ow--
owa--
owc--
own--
oxy--
oxycoc--
oz--
oł--
ołar--
ołmo--
ołtoz--
p--
pa--
pac--
pachy--
pacif--
pad--
pader--
paja--
pak--
pakos--
pal--
palatali--
paleo--
palesti--
palt--
pam--
pan--
papje--
par--
para--
parale--
parti--
parvi--
pas--
pat--
pau--
pauci--
paw--
pawlo--
paz--
pc--
pe--
pec--
peduncu--
pel--
pelle--
pelt--
pen--
pennsylva--
pentaphy--
per--
perdd--
pere--
perfo--
perga--
perif--
perio--
periodi--
pesta--
peti--
petici--
petro--
petu--
pfa--
pfarr--
pfe--
ph--
pher--
pherdd--
phoe--
phon--
phot--
phy--
phyllo--
phys--
pi--
pia--
pic--
pie--
pigmen--
pihe--
pik--
pikto--
pin--
pis--
pisa--
pitos--
piwa--
pjat--
pje--
pjetro--
pjo--
pl--
pla--
plahowa--
plan--
plat--
platt--
ple--
plec--
plot--
plu--
plus--
po--
pobrac--
poc--
pod--
podnur--
podol--
podoł--
poet--
pogro--
pohi--
pohnu--
poho--
pohrje--
pok--
pokła--
pol--
poly--
polygo--
polys--
pom--
pomj--
pomo--
ponow--
pont--
pontif--
pop--
popje--
popoł--
popra--
por--
porno--
pos--
post--
postaj--
postpo--
postup--
posy--
potrje--
pott--
poul--
pow--
powo--
poz--
pozic--
pozit--
poł--
pp--
pr--
pra--
prakt--
prasłow--
praw--
pre--
preciz--
prefer--
prezen--
pri--
prior--
prje--
pro--
produ--
produkc--
propag--
prote--
proto--
prowensa--
pru--
prut--
pry--
prze--
przy--
ps--
pseu--
pseudo--
pt--
pu--
publik--
puc--
pulc--
pum--
pup--
purp--
purpur--
pus--
putnik--
py--
pyr--
pyrami--
pyta--
pytha--
pła--
pło--
płu--
q--
qu--
qua--
quadra--
que--
qui--
r--
ra--
rad--
radika--
radio--
raf--
rag--
ragu--
raj--
rak--
ram--
ran--
rar--
ras--
rat--
rau--
raz--
rc--
rclin--
re--
reak--
real--
realist--
realiz--
rec--
red--
redukow--
refer--
refl--
refleksi--
regi--
regu--
regula--
regulow--
rei--
rein--
reine--
rej--
rekon--
relac--
relat--
reli--
ren--
repre--
reprezen--
res--
resta--
ret--
reu--
rev--
revol--
rewoluc--
rey--
rez--
rezer--
rezid--
rg--
rh--
rho--
rhyn--
ri--
rich--
rid--
rie--
riesen--
rin--
ris--
rja--
rjad--
rjap--
rje--
rjemjes--
rjen--
rk--
rkow--
rli--
rn--
ro--
rob--
roc--
rock--
rod--
roh--
rohr--
roko--
rom--
roman--
ron--
ros--
rot--
rou--
routen--
row--
rowa--
roz--
rozet--
rozmoł--
rozris--
rozum--
roß--
roł--
rp--
rr--
rs--
rst--
rsten--
rt--
ru--
rubi--
ruder--
rudo--
ruja--
ruko--
rum--
rupp--
rus--
russi--
rut--
ry--
ryb--
ryba--
ryn--
rys--
rz--
rze--
s--
sa--
saar--
sabi--
sac--
sad--
sagitt--
saks--
sal--
salon--
salz--
sam--
samo--
san--
sand--
sap--
sapin--
sar--
saraj--
sas--
saurur--
sav--
saxo--
sc--
scar--
sce--
sch--
schei--
scher--
scheu--
schie--
schla--
schle--
schleswig--
schne--
scho--
schre--
schwa--
schwanen--
schwe--
sci--
scop--
scor--
sd--
se--
sea--
sec--
sed--
see--
sei--
sek--
seksu--
sem--
sen--
sep--
separa--
ser--
ses--
set--
sew--
sewjero--
sexua--
seych--
seyde--
sfałdow--
sh--
shad--
shep--
sher--
sho--
shut--
si--
sib--
sibi--
sie--
sil--
silber--
silika--
simm--
simult--
sin--
sir--
sit--
sj--
sk--
ska--
skand--
ske--
sko--
skoj--
skorp--
skutk--
skład--
skłon--
sl--
sle--
slepjan--
slo--
slove--
slow--
sm--
sme--
smil--
smje--
smjert--
smo--
smuh--
sn--
sna--
snooker--
so--
sobi--
sobu--
soc--
social--
socialno--
socio--
sof--
sogd--
soj--
sok--
sol--
solaw--
solno--
som--
somali--
somot--
son--
sonder--
sonnen--
sor--
sorab--
sorben--
sortie--
sos--
sou--
sound--
sow--
soy--
sozi--
soziali--
sp--
spa--
span--
spe--
specif--
spha--
spi--
spira--
spitz--
spje--
spo--
spont--
spr--
sprach--
spy--
sq--
squa--
sr--
ss--
st--
sta--
staat--
stabi--
stadt--
staj--
stan--
star--
starodarbn--
starog--
staroserbs--
starosłow--
start--
statist--
staw--
stawiz--
ste--
step--
steu--
sti--
sto--
stock--
stoj--
stoll--
stop--
stow--
stoł--
str--
stra--
straß--
stro--
stron--
strowot--
struktu--
strze--
stu--
stunt--
stwo--
sty--
su--
sub--
subg--
sudan--
sudet--
suec--
suk--
sul--
summ--
sun--
super--
supp--
sur--
sus--
susod--
sv--
sve--
sw--
swjat--
swjatop--
swjatopraj--
swjer--
swo--
swobo--
sy--
syd--
sydom--
sylv--
sym--
syn--
syp--
syrot--
sz--
szcze--
sze--
szk--
sła--
słans--
sło--
słow--
słu--
słucho--
t--
ta--
tab--
tag--
tage--
tages--
taj--
tak--
tal--
tam--
tamari--
tan--
tapis--
tar--
tas--
tatar--
tau--
taur--
taxo--
tbi--
tc--
te--
tech--
techno--
teich--
tekto--
tel--
tele--
telef--
telewiz--
telewizij--
tem--
temper--
ten--
tenui--
tenuifo--
teolog--
teore--
ter--
terito--
teror--
terri--
tetra--
th--
tha--
thail--
the--
thie--
thor--
thrak--
thu--
thur--
ti--
tie--
til--
tim--
tinc--
tip--
tis--
tit--
tj--
tjume--
tk--
tka--
tko--
tkodo--
tl--
to--
toc--
tod--
tok--
tokaw--
tom--
ton--
top--
topograf--
tor--
tos--
tow--
toz--
toł--
tołsto--
tr--
tra--
tradi--
trans--
trau--
trav--
traw--
trawuz--
tre--
tri--
tria--
trichos--
trif--
trig--
tril--
trilog--
trip--
triv--
trje--
tro--
trop--
trow--
tru--
truska--
ts--
tt--
tu--
tuc--
tuchwi--
tulp--
tuman--
tunguz--
tupi--
tupo--
turis--
turk--
turr--
turs--
tv--
twar--
two--
ty--
tym--
typ--
typolog--
tyri--
tyrr--
tz--
tło--
u--
ua--
ubs--
uc--
ud--
udmurt--
ug--
uga--
uh--
ujgu--
ujo--
uk--
ukot--
ul--
uligi--
ulm--
ultra--
um--
un--
und--
uni--
uns--
unter--
up--
ur--
ura--
urb--
urs--
uru--
us--
ust--
ut--
uyu--
uz--
v--
va--
vacc--
val--
van--
var--
vati--
ve--
vec--
vel--
venezu--
vent--
ver--
verga--
verge--
verglei--
verze--
ves--
vi--
via--
vig--
vikipe--
vil--
viole--
virg--
vis--
vivi--
vje--
vla--
vo--
voj--
vol--
volk--
vor--
vri--
vs--
vu--
vy--
w--
wa--
wac--
wag--
wagen--
wald--
walen--
wan--
wap--
war--
wari--
warjete--
wart--
was--
waw--
wałbr--
we--
web--
week--
weg--
wegetac--
wehr--
weig--
wein--
weis--
wej--
wela--
well--
wellen--
welt--
wen--
wer--
weron--
west--
wett--
whe--
wi--
wic--
wid--
wie--
wien--
wiki--
wikow--
wil--
wild--
win--
wiol--
wiole--
wir--
wis--
wita--
witt--
wja--
wjace--
wjaz--
wje--
wjel--
wjele--
wjeli--
wjerch--
wjes--
wjesnja--
wo--
wob--
wobchow--
wobhl--
wobhladow--
wobmjez--
wobnow--
wobsad--
wobsy--
wobwi--
wobwliw--
woc--
wodo--
wodrje--
wohn--
woj--
woje--
wojwo--
wok--
wol--
wolc--
wolij--
wom--
won--
wopo--
wopomnje--
wopyt--
wor--
wose--
woso--
wosobin--
wot--
wotba--
wotbagro--
wotc--
wote--
wothl--
wotmjez--
wotstro--
wotzamk--
wowli--
woz--
wozdo--
wozje--
woł--
wro--
ws--
wu--
wubi--
wubra--
wuc--
wuchodo--
wud--
wudospoł--
wudy--
wuhn--
wuho--
wuhor--
wuja--
wuk--
wukm--
wuko--
wukraj--
wul--
wulk--
wulkodu--
wulkodubra--
wulkopło--
wulkołop--
wun--
wunam--
wupje--
wupraj--
wur--
wurjek--
wuros--
wuru--
wury--
wus--
wusko--
wustup--
wuswo--
wusy--
wutro--
wuwa--
wuwo--
wuz--
wuzamk--
wuzna--
wuzwo--
wy--
wys--
wysoko--
wzajo--
wło--
włok--
x--
xa--
xant--
xe--
xi--
xo--
xx--
y--
ya--
yasu--
yc--
yi--
ym--
yn--
yo--
yosh--
ys--
yu--
z--
[...]
