!
"
#
##0
##1
##10
##11
##12
##13
##14
##15
##16
##17
##18
##19
##2
##20
##21
##22
##23
##24
##25
##26
##27
##28
##29
##3
##30
##31
##32
##33
##34
##35
##36
##37
##38
##39
##4
##40
##41
##42
##43
##44
##45
##46
##47
##48
##49
##5
##50
##51
##52
##53
##54
##55
##56
##57
##58
##59
##6
##60
##61
##62
##63
##64
##65
##66
##67
##68
##69
##7
##70
##71
##72
##73
##74
##75
##76
##77
##78
##79
##8
##80
##81
##82
##83
##84
##85
##86
##87
##88
##89
##9
##90
##91
##92
##93
##94
##95
##96
##97
##98
##99
$
%
&
'
(
)
*
+
,
-
.
/
0
00
000
0002
001
002
003
004
006
007
008
01
010
011
012
014
015
016
017
018
019
02
020
0203
021
022
023
024
025
027
03
031
033
035
036
037
038
039
04
040
0405
041
042
043
045
046
047
048
049
05
050
051
052
053
055
056
058
06
060
061
062
063
064
065
066
067
068
069
07
072
073
074
075
076
078
08
081
082
084
085
0855
086
087
088
089
09
090
0907
091
092
093
097
098
099
1
10
100
1000
10000
1001
1002
1003
1004
1005
1006
1007
1009
101
1010
1011
1012
1013
1015
1017
1019
102
1020
1021
1022
1023
1024
1025
1027
1028
1029
103
1031
1032
1033
1034
1035
1037
1038
1039
104
1044
1045
1046
1048
1049
105
1050
1053
1054
1055
1056
1057
1059
106
1060
1061
1062
1063
1064
1066
1067
1068
107
1070
1073
1074
1075
1077
108
1080
1081
1082
1083
1084
1085
1086
1087
109
1093
1094
1095
1096
1097
11
110
1100
1102
1104
1105
1108
1109
111
1110
1111
1112
1113
1117
1118
1119
112
1120
1121
1123
1125
1126
1127
1129
113
1132
1133
1137
114
1141
1142
1143
1144
1145
1146
1147
1148
115
1150
1153
1154
1156
1157
1159
116
1160
1161
1163
1164
1168
117
1172
1175
1177
1178
118
1180
1181
1182
1185
1186
1187
1188
1189
119
1190
1191
1192
1193
1198
12
120
1200
1206
1208
121
1210
1212
1214
1217
122
1220
1221
1222
1225
1227
1229
123
1230
1232
1234
12345
1235
1238
1239
124
1240
1241
1242
1243
1247
1248
125
1250
1252
1253
1254
1255
1256
1257
1258
1259
126
1260
1261
1263
1266
1267
1268
127
1270
1271
1273
1275
1276
1277
1279
128
1280
1281
1284
1286
1287
1288
1289
129
1290
1291
1293
1294
1295
1296
1299
13
130
1300
1303
1304
1306
1308
1309
131
1310
1312
1313
1314
1318
1319
132
1320
1321
1322
1325
1326
1327
133
1332
1333
1335
1337
1339
134
1340
1341
1342
1343
1345
1346
1347
1349
135
1350
1351
1352
1354
1357
1359
136
1360
1361
1362
1363
1364
1365
1368
1369
137
1370
1371
1372
1373
1374
1375
1376
1377
1378
1379
138
1380
1381
1382
1386
1389
139
1390
1391
1392
1393
1395
1397
1399
14
140
1400
1401
1402
1405
1406
1409
141
1410
1411
1412
1413
1414
1415
1416
1417
1418
1419
142
1420
1421
1422
1423
1425
1426
1428
1429
143
1430
1432
1433
1434
1436
1437
1438
144
1441
1442
1444
1445
1448
145
1450
1451
1452
1453
1456
1458
1459
146
1460
1461
1462
1465
1466
1467
1468
1469
147
1471
1473
1474
1475
1476
1478
1479
148
1480
1481
1482
1485
1487
149
1490
1491
1492
1494
1496
1497
1498
15
150
1500
1501
1502
1503
1504
1505
1506
1508
151
1510
1511
1512
151223
1513
1514
1515
1516
1517
1519
152
1520
1521
1523
1524
1525
1527
1528
1529
153
1532
1533
1534
1535
1537
1538
154
1540
1543
1545
1546
1547
1548
1549
155
1550
1551
1552
1554
1555
1556
1557
1558
156
1560
1562
1564
1566
1568
1569
157
1571
1572
1574
1575
1576
1577
158
1580
1584
1585
1586
1587
1588
159
1592
1593
1594
1595
1596
1597
1599
16
160
1600
1601
1602
1603
1604
1605
1606
1607
160700
1609
161
1610
1613
1614
1615
1616
1617
1618
162
1621
1622
1623
1624
1625
1626
1628
1629
163
1630
1631
1632
1633
1634
1635
1636
1637
1639
164
1640
1641
1642
1643
1644
1645
1647
1648
1649
165
1650
1651
1652
1653
1654
1656
1657
1659
166
1660
1662
1665
1666
1669
167
1670
1671
1672
1673
1674
1675
1676
1677
1678
168
1680
1683
1685
1687
1689
169
1690
1691
1692
1694
1695
1696
1697
1699
17
170
1700
1702
1703
1704
1707
1708
171
1710
1711
1712
1713
1714
1715
1716
1717
1719
172
1722
1723
1724
1725
1727
1729
173
1730
1734
1735
1736
1737
1738
1739
174
1740
1741
1745
1747
1749
175
1750
1754
1756
1757
1758
176
1760
1761
1762
1763
1764
1765
1766
1767
1768
1769
177
1770
1771
1772
1773
1774
1775
1776
1778
1779
178
1780
1782
1783
1784
1785
1786
1787
1788
1789
179
1790
1791
1792
1793
1794
1795
1796
1797
1799
18
180
1800
1802
1803
1804
1805
1806
1807
1808
1809
181
1810
1811
1812
1813
1814
1815
1816
1817
1818
1819
182
1820
1821
1822
1823
1824
1825
1826
1827
1828
1829
183
1830
1831
1832
1833
1834
1835
1836
1837
1838
1839
184
1840
1841
1842
1843
1844
1845
1846
1847
1848
1849
185
1850
1851
1852
1853
1854
1855
1856
1857
1858
1859
186
1860
1861
1862
1863
1864
1865
1866
1867
1868
1869
187
1870
1871
1872
1873
1874
1875
1876
1877
1878
1879
188
1880
1881
1882
1883
1884
1885
1886
1887
1888
1889
189
1890
1891
1892
1893
1894
1895
1896
1897
1898
1899
19
190
1900
1901
1902
1903
1904
1905
1906
1907
1908
1909
191
1910
1911
1912
1913
1914
1915
1916
1917
1918
1919
192
1920
1921
1922
1923
1924
1925
1926
1927
1928
1929
193
1930
1931
1932
1933
1934
1935
1936
1937
1938
1939
194
1940
1941
1942
1943
1944
1945
1946
1947
1948
1949
195
1950
1951
1952
1953
1954
1955
1956
1957
1958
1959
196
1960
1961
1962
1963
1964
1965
1966
1967
1968
1969
197
1970
1971
1972
1973
1974
1975
1976
1977
1978
1979
198
1980
1981
1982
1983
1984
1985
1986
1987
1988
1989
199
1990
1991
1992
1993
1994
1995
1996
1997
1998
1999
2
20
200
2000
20000
200000
2001
2002
2003
2004
2005
2006
2007
2008
2009
201
2010
2011
2012
2013
2014
2015
2016
2017
2018
2019
202
2020
2021
2022
2024
2025
203
204
2046
205
206
207
2070
208
209
21
210
211
212
213
214
2149
215
2150
216
2163
217
218
219
22
220
221
222
223
2236
224
225
226
227
228
229
23
230
23092010
231
232
233
234
235
236
237
238
239
24
240
2400
241
242
243
244
2443
245
246
2467
247
248
249
25
250
2500
25000
250000
251
252
2522
253
254
255
256
257
258
259
26
260
2600
261
262
263
264
265
2656
266
267
268
269
27
270
271
272
273
274
275
276
277
278
279
28
280
2800
281
282
283
284
285
286
287
288
289
29
290
291
2913
292
293
294
295
296
2962
297
298
2984
299
3
30
300
3000
300000
3008
301
302
303
304
305
306
307
308
309
31
310
311
312
313
314
315
316
317
318
319
32
320
3200
321
322
323
324
325
326
327
328
329
33
330
331
332
333
334
335
3354
336
337
3372
338
339
34
340
341
342
343
344
345
346
347
348
349
35
350
351
352
353
354
355
356
357
358
359
36
360
361
362
363
364
365
366
367
368
369
37
370
371
372
373
374
375
376
377
378
379
38
380
381
382
383
384
385
386
387
388
389
39
390
391
392
393
3937
394
395
396
397
398
399
4
40
400
4000
40000
401
402
403
404
405
406
407
408
409
41
410
411
412
413
414
415
416
417
418
419
42
420
421
4217
422
423
424
425
426
427
428
429
43
430
431
432
433
434
435
436
437
438
439
44
440
441
442
443
444
445
446
447
448
449
45
450
451
452
453
454
455
456
4565
457
458
459
46
460
461
462
463
464
4649
465
466
467
468
469
47
470
471
472
473
474
475
476
4760
477
478
479
48
480
481
482
483
484
485
486
487
488
489
49
490
491
492
493
494
495
496
497
498
499
5
50
500
5000
50000
500000
501
502
503
504
505
506
507
508
509
51
510
511
512
513
5136
514
515
516
517
518
5187
519
52
520
521
522
523
524
525
5259
526
527
528
529
53
530
531
532
533
534
535
536
537
538
539
54
540
541
542
5425
543
544
545
546
547
548
549
5492
55
550
551
552
553
554
555
556
557
558
559
56
560
561
562
563
564
565
566
567
568
569
57
570
571
572
573
574
575
576
577
578
579
58
580
581
582
583
584
585
586
587
588
589
59
590
591
592
593
594
595
596
597
598
599
6
60
600
6000
601
602
603
604
605
606
607
608
609
61
610
611
612
613
614
615
616
617
618
619
62
620
621
622
623
624
625
626
627
628
629
63
630
6302
631
632
633
634
635
6357
636
637
638
639
64
640
641
642
643
644
645
646
647
648
649
65
650
651
652
653
654
655
656
657
658
659
66
660
661
662
663
664
665
666
667
668
669
67
670
671
672
673
674
675
676
677
678
679
68
680
681
682
683
684
685
686
687
688
689
69
690
691
692
693
694
6947
695
696
697
698
699
7
70
700
701
702
703
704
705
706
707
708
709
71
710
711
712
713
714
715
716
717
718
719
72
720
721
722
723
724
725
726
727
728
729
73
730
731
732
733
734
735
736
737
738
739
74
740
741
742
743
744
745
746
747
748
749
7492
75
750
751
752
753
754
755
756
757
758
759
76
760
761
762
763
764
765
766
767
768
769
77
770
771
772
773
774
775
776
777
778
779
78
780
782
783
784
785
786
787
788
789
79
790
791
792
793
794
795
796
797
798
799
8
80
800
8000
801
802
803
804
805
806
807
808
809
81
810
811
8112
812
813
814
815
816
817
818
819
82
820
821
822
823
824
825
826
827
828
829
83
830
831
832
833
834
835
836
837
838
839
84
840
841
842
843
844
845
846
847
848
849
85
850
851
852
853
854
855
856
857
858
859
86
860
861
862
863
864
865
866
867
868
869
87
870
871
872
873
874
875
876
877
878
879
88
880
881
882
883
884
885
886
887
888
889
89
890
891
892
893
894
895
896
897
898
899
9
90
900
9000
901
902
903
904
905
906
907
908
909
91
910
911
912
913
914
915
916
917
918
919
92
920
921
922
923
924
925
926
927
928
929
93
930
931
932
933
934
9343
935
936
937
938
939
94
940
941
942
944
945
946
947
948
949
95
951
952
954
955
956
957
958
96
960
961
962
963
964
965
966
967
968
969
97
970
971
972
973
974
975
976
977
978
979
98
980
981
982
983
984
985
986
987
988
989
99
990
991
992
993
994
995
997
998
999
:
;
<
=
>
?
@
\
^
_
`
a
aa
aaaaaa
aat
aatlar
aatları
aatlarını
aatlıq
aatnın
aatı
ab
aba
abadanlas
abakan
aban
abandoned
abas
abat
abay
abba
abbas
abbatlıg
abbey
abcelil
abd
abdal
abdde
abdennanova
abdra
abdrahmanovo
abdras
abdu
abdul
abdulhamid
abdulino
abdulkarimovo
abdulla
abdullah
abdullino
abdulovo
abduraman
abduramanov
abdureim
abdures
abduveliyeva
abe
abendsonne
abes
abhaz
abhazca
abhaziya
abibulla
abide
abidedir
abideler
abideleri
abidelerinden
abidesi
abidesidir
abik
abinsk
abkai
abla
ablam
ablayev
ablayevo
ables
ablon
ablonlar
ablonlarnı
ablonları
ablıkino
about
above
abraham
abramovskaya
abs
absala
abtei
abu
abune
abzakovo
abzanovo
abzayevo
abzelilovo
abı
abıl
abılkasım
abılqasım
abınen
ac
academy
acag
acaq
acaqsin
acayip
account
accı
ace
aceba
acele
acem
acemistan
acemistanda
acemistang
achterburgwal
aci
acigastra
acinonyx
act
activist
actm
acutus
acı
acıg
acıko
acılar
acılıqqa
acınıqlı
acıq
ad
ada
adac
adag
adaki
adalar
adaları
adalarında
adalarını
adalarının
adalet
adaletli
adam
adamdır
adamg
adamivka
adamlar
adamlardan
adamlarg
adamlarga
adamlarnen
adamlarnı
adamlarnın
adamları
adamlarından
adamlarını
adamnı
adamnın
adams
adamsin
adamı
adan
adana
adansonia
adas
adası
adasına
adasında
adasındaki
adasının
aday
adden
adel
adelaida
ades
adeske
adet
adeti
adetin
adetince
adetler
adetleri
adetlerine
adetlerinen
adetlerini
adette
adf
adi
adibek
adiga
adil
adilar
adim
adin
adippe
adise
adiseler
adiselerni
adiselernin
adiy
adlandıra
adlandıralar
adlandırdı
adlandırdılar
adlandırıla
adlandırıldı
adlandırılg
adlar
adları
adlarınen
adlarını
adlarının
adlaylar
adliye
adlı
adm
administartiv
admiral
adnan
adnen
adnı
adnın
adres
adresine
adresler
adriatik
adrino
adrinsk
adsız
adult
advokat
adı
adıdır
adıgeya
adıgeysk
adılar
adım
adın
adına
adında
adındaki
adından
adınen
adını
adının
adıq
adır
adıyaman
aepyceros
aerial
aero
aeroflotskiy
aeshna
af
afanasyevo
afar
afg
afifu
afis
afize
afonino
africa
african
africana
africano
africanus
afrika
afrikada
afrikadaki
afrikalı
afrikanın
afro
afroamerikanlarnın
afs
aft
afta
aftada
aftadan
aftalıq
after
afu
afur
afuriy
afı
afına
afında
afını
afının
ag
agac
against
agama
agan
agar
agatangel
age
agent
agenti
agentligi
agentliginen
agentliginin
agilis
agino
aginskoye
aglais
agnes
agnosticism
agoda
agora
agra
agrar
agrarnaya
agrarnoye
agraulis
agriocnemis
aguila
ah
ahbaz
ahi
ahin
ahla
ahlar
ahlıstino
ahmat
ahmed
ahmerovo
ahmet
ahmetov
ahmetovo
ahovo
ahovskaya
ahrarne
ahsen
ahsiy
ahsiyet
ahsiyeti
ahsı
aht
ahtarsk
ahtem
ahtqa
ahtuba
ahtubinsk
ahu
ahulova
ahun
ahunovo
ahunya
ahzade
ahı
ahır
ahırki
ahırı
ahırında
ahırısı
ahıs
ahıslar
ahıslarnın
ahısnın
ahısqa
ai
aida
aiguille
aile
ailede
ailelerde
ailenin
ailesi
ailesinde
ailesindeki
ailesinden
ailesine
ailesinen
ailesini
ailesinin
aileviy
ain
aipetri
air
airbus
airdir
airge
airi
airidir
airimiz
airinde
airler
airlerden
airleri
airlerinden
airlerinin
airlernin
airnin
airport
ais
aisovo
ait
aitovo
aittir
aix
ajderha
ajestrovo
ajinka
ak
aka
akad
akademik
akademiyası
akademiyasına
akademiyasında
akademiyasını
akademiyasının
akam
akarovo
akasına
akberda
akbula
akc
akdes
aket
aketip
aki
akim
akimiyet
akimiyeti
akimiyetinde
akimiyetine
akimiyetini
akimiyetinin
akimiyetni
akimiyetnin
akimov
akimovka
akir
akira
akis
akisinqila
akiv
akkordeon
aklap
aknazarovo
ako
akovo
akropol
aks
aksakovo
aksam
aksaray
aksi
aksine
akso
aktajıdın
aktas
aktau
akti
aktif
aktiv
aktivisti
akto
aktrisa
aktrisası
aktsiya
aktu
aktual
akustik
akvariumda
akyar
akı
akırtıp
akırıp
al
ala
alabas
alaca
alacag
alacant
alacaq
aladi
aladı
aladılar
alag
alakende
alalar
alama
alamag
alamaq
alaması
alan
alana
alang
alanlar
alanmaq
alanması
alanmasını
alanuv
alanya
alanı
alanında
alap
alar
alaraq
alarda
alardan
alarg
alari
alarina
alarini
alarnen
alarni
alarnin
alarnı
alarnın
aları
alarında
alarını
alarının
alas
alaska
alasız
alatau
alav
alay
alayim
alayı
alayıcı
alayım
alba
albarraci
albas
albat
albatlı
albatlılar
albatta
albedo
albert
alberta
alberto
albiceps
albom
albomlar
albomları
albomnın
albomı
albomını
albomının
albu
album
alc
alcedo
alciler
alda
aldar
aldarovo
aldas
alderete
aldi
aldilar
aldim
aldin
aldı
aldılar
aldım
aldıma
aldın
aldına
aldında
aldındaki
aldından
aldını
ale
alebe
aleksander
aleksandr
aleksandra
aleksandrov
aleksandrovic
aleksandrovka
aleksandrovsk
aleksandrovskaya
aleksandrovskiy
aleksey
alekseyevic
alekseyevka
alekseyevskaya
alekseyevskiy
alelhusus
alem
alemania
alemi
alemine
ales
alet
aleti
aletidir
aletiy
aletler
aletleri
aletlerini
aletli
aletnin
alettir
alev
alexander
alexandre
aleyhem
aleyka
aleyku
aleysk
alfabe
alfo
alfons
alfred
alg
alga
algan
algoritm
algoritmler
algoritmleri
algoritmnin
alhambra
ali
aliba
alibek
alibesi
alicante
alicenap
align
alignbars
alihesi
alim
alime
alimi
alimler
alimleri
alimlernin
alimni
alimnin
alimov
alin
alinde
aline
aling
alini
alinin
alino
alip
aliq
alis
alisa
alitus
aliy
aliya
aliye
aliyev
alizade
alkino
all
alla
allag
allaguvat
allah
allahnın
allahqa
allahtan
allak
allan
allarda
allasi
allegra
alligator
allı
alma
almadilar
almadim
almadı
almadım
almag
almaga
almagansın
almak
almalı
alman
almana
almanca
almaniya
almaniyada
almaniyag
almaniyanın
almanlar
almaq
almaqta
almas
almasa
almasan
alması
almasın
almatı
almay
almaysın
almaz
almazov
almuhametovo
almıs
alnik
alo
aloe
alom
alone
alouatta
alp
alper
alpha
alphabet
alplar
alpları
alps
alqada
alqalı
alqan
als
alsa
alsaq
alsın
alt
alta
altaica
altan
altar
altarı
altav
altay
altaysk
altayskoye
alte
altenburg
alter
alternativ
alternative
altes
alti
altiplano
altmıs
alto
altstadt
altı
altıcıg
altın
altına
altıncı
altında
altından
altınjar
alu
alupka
alupkada
alupkadaki
alus
aluston
aluv
aluvdan
aluvg
aluvlar
aluvnın
aluvı
alı
alıdır
alıg
alılar
alım
alın
alına
alında
alından
alındı
alıng
alınma
alınmaları
alınması
alıns
alıntı
alını
alınıp
alıp
alıq
alıqtan
alır
alırman
alıs
alıyor
am
ama
amadey
amadı
amag
amaliya
amam
amamları
aman
amangildino
amanita
amansız
amaq
amaqta
amaqtan
amas
amasya
aması
amay
amayip
amazon
ambarı
amber
amberi
amberidir
amberlerge
ambernin
amda
amdan
amdi
amelde
ameldeki
amelge
ameliy
ameliyat
ameliyatındaki
america
american
amerika
amerikada
amerikadaki
amerikadan
amerikag
amerikalı
amerikan
amerikanen
amerikanlı
amerikanın
amet
amethan
ametist
ametov
ametova
ametovnı
ametovnın
amg
amhara
ami
amil
amiller
aminevo
amirovo
amit
amiz
amk
amlar
amma
amman
amnesty
amni
amnı
amo
among
amor
amore
amphiprion
amritsar
amsterdam
amu
amur
amurdan
amurskoye
amvrosiyivka
amza
amzibas
amzinka
amı
amının
amız
an
ana
anac
anada
anadan
anadolu
anadoludan
anadolug
anadır
anag
anakkale
analar
anam
anama
anamdan
anan
ananege
ananeler
ananeleri
ananeviy
ananyiv
ananın
anapa
anaq
anaqlar
anaqlarnın
anas
anasi
anastacia
anastasivka
anastasiya
anası
anasına
anasınen
anasını
anasının
anatidae
anatoliy
anatoliya
anatomiyası
anatomy
anatı
anav
anax
anayasa
anayasası
anayım
anc
anca
ancak
ancana
ancaneyandari
ancaq
ance
ancek
anceles
ancelesteki
ancelo
and
anda
andaki
andan
anday
ande
andersen
andersson
andhra
andi
andican
andir
andirlar
andorra
andra
andre
andrew
andrey
andreyev
andreyevic
andreyevka
andreyevskaya
andreyevskiy
andriy
andriyas
andriyevo
andriyivka
andromeda
andrus
andı
andır
ane
anemon
anemone
anemonefish
anen
anets
anfiteatro
ang
angarsk
angel
angela
angeles
angels
angers
angi
angkor
angola
angry
angustifolia
anhalt
anhay
ani
anim
anima
animal
animation
animatsiya
animatsıya
animdan
anime
animesi
animiz
animizni
animni
anin
anina
anindan
anini
aninin
anip
anisimovo
anistan
anistannın
anivka
aniyev
anjero
anka
ankara
ankarada
ankaya
anket
ankırı
anlar
anlardan
anlardır
anlarg
anlari
anlarini
anlarnin
anlarnı
anlarnın
anları
anlarıda
anlarına
anlarında
anlarından
anlarını
anlarının
anlas
anlı
anlıg
anlıq
anmi
anmiz
anmı
anmız
anna
annam
anne
anneksiyasından
annen
anni
annin
annovka
annı
annın
anos
another
anovo
anoye
anqara
anqarag
anri
ans
ansambl
ansambli
ansamblinin
ansamblnin
anse
anser
ansicht
ansin
ansk
anska
anske
anskiy
ansuv
ansuvı
ansın
ant
anta
antalya
antarctica
antarktida
antarktidanın
antarktik
antarktika
antelope
antenna
antennalı
anthophora
antidiskriminatsion
antigua
antik
antilopa
antilopası
antisovet
antlas
anto
antologi
antologia
antologiyasının
anton
antonin
antonio
antonivka
antonovka
antopil
antratsıt
antuan
anu
anuy
anuyskoye
any
anzeiger
anı
anıdır
anım
anın
anına
anında
anından
anınen
anınnı
anını
anının
anıp
anıtsa
anıy
ao
aosta
ap
apa
apansızdan
apaqayı
apaqayım
apaqayıma
apaqayımnın
apaqayın
aparteid
apatitı
apatura
apay
apayevo
apaylar
apayı
apc
api
apis
apishanede
apishaneden
apishanege
apiske
apkino
aplıgin
aplınka
apmag
apollo
apollon
apon
apostolove
apparatında
appazov
apple
applied
apqalag
apqan
apraz
aprel
aprelevka
aprelnin
april
aps
apte
apteka
apteni
aptesi
apıs
aq
aqa
aqalas
aqam
aqar
aqaret
aqay
aqayg
aqaynın
aqayı
aqbaba
aqbardaq
aqc
aqd
aqibeti
aqilin
aqiqat
aqiqaten
aqiqatnı
aqiqatta
aqiqatı
aqiqiy
aqirin
aqko
aqlap
aqlar
aqlardan
aqlarg
aqlarnı
aqlarnın
aqları
aqlarına
aqlarını
aqlarının
aqlas
aqleyiz
aqli
aqlig
aqlı
aqlıg
aqmag
aqmaq
aqmec
aqmescit
aqmescitde
aqmescitke
aqmescitni
aqmescitnin
aqmescitte
aqmescitteki
aqmescitten
aqnen
aqni
aqnin
aqnı
aqnın
aqqa
aqqan
aqqaya
aqqayın
aqqin
aqqus
aqqı
aqqın
aqqına
aqqında
aqqındadır
aqqındaki
aqqından
aqqını
aqqıqıy
aqraba
aqrep
aqs
aqsa
aqsaq
aqsaqal
aqsay
aqsu
aqsız
aqsızlıq
aqta
aqtac
aqtan
aqtas
aqto
aqtı
aqtır
aquila
aqul
aqyar
aqyarda
aqyardaki
aqyarde
aqyarg
aqyarnın
aqıl
aqıllı
aqılı
aqılına
aqımına
aqırtıp
aqırın
aqırıp
ar
ara
arab
araba
arabadan
arabalar
arabalarnı
arabasın
arabat
arabatskaya
arabistan
arabistannın
arabiyya
arac
arada
aradan
arag
aragon
arait
araitler
arakı
aral
aralam
araları
aralarında
aralarındaki
aralarından
aralig
aralıg
aralık
aralıq
aram
arama
aramaq
araması
aran
aranda
araneus
aranga
aranko
arap
arapc
araplar
araq
ararat
araret
arareti
aras
arashiyama
araslanovo
arası
arasın
arasına
arasında
arasındaki
arasından
arasınnda
arat
aravind
araz
arb
arba
arbaj
arbas
arbat
arbiy
arbuzovka
arbuzınka
arbında
arbındaki
arc
arca
arch
architecture
archive
archived
archives
archontophoenix
arco
arctic
arctos
ard
ardahan
ardatov
ardea
ardi
ardı
ardından
are
area
areket
areketi
areketinde
areketine
areketini
areketinin
areketke
areketler
areketlerge
areketleri
areketlerinde
areketlerine
areketlerini
areketlerinin
areketlerni
areketlernin
areketli
areketni
areketnin
areketsiz
arekette
arem
aren
arena
arenga
aresin
aresiz
aret
areti
aretlene
aretler
aretleri
aretlerni
aretlernin
areyevo
arf
arfesi
arfesinde
arfi
arfidir
arfine
arfinen
arfini
arfinin
arfler
arfleri
arg
argentina
argentinanın
argiope
argorod
argynnis
arhangel
arhangelsk
arhangelskoye
arhara
arheologik
arheologiya
arhip
arhipelagındaki
arhiv
arhivi
arhivinde
ari
aribas
arif
arifler
ariflerdir
arifleri
ariflerinen
ariflerinin
ariflerni
arifmetika
ariften
arip
aripovo
aristan
aristanda
aristandaki
aristanin
aristannın
aristotel
aristotelnin
arivka
ariza
arizona
arka
arkadyevka
arkaul
arktik
arkı
arkın
arl
arlar
arlarının
arli
arlz
arlıg
arlıq
arma
armag
arman
armas
armavir
armenia
armenian
armiya
arms
armstrong
armut
army
arna
arnavutlıq
arnold
aromatnoye
around
arovka
arovo
arp
arpa
arpanet
arpat
arpqa
arpta
arptan
arpıs
arq
arqa
arqadas
arqalı
arqan
arqası
arqasına
arqasında
arqasından
arqiy
arqnın
arqqa
arqs
arqta
arqtan
arqında
arqındaki
arrive
ars
arskiy
arslan
arslanovo
arslanı
arsın
art
arta
artaul
arte
artek
artenschutz
artes
arthur
article
articles
artificial
artina
artist
artisti
artists
artlar
artlarda
artlarnı
artları
artlarını
artlı
arto
artonian
artqa
artqac
artqan
arts
artsız
arttı
arttırdı
arttırmaq
arttırıcı
arttırılg
artu
artur
artuv
artvin
artı
artık
artılma
artılsan
artım
artın
artına
artında
artından
artının
artıq
aru
arun
aruv
arvensis
arya
arzamas
arzu
arzı
arı
arıg
arım
arıntsi
arıp
arıpovo
arıq
arıs
as
asa
asabalıg
asam
asami
asan
asanin
asanov
asanovo
asaray
asarayda
asaraydaki
asaraydan
asarayg
asaraylı
asaraynı
asaraynın
ascensor
asclepias
asi
asin
asina
asinda
asindan
asinen
asini
asiya
asiyada
asiyadaki
asiyadan
asiyag
asiyalı
asiyanı
asiyanın
asker
askerden
askerge
askeri
askeriy
askerler
askerlerge
askerleri
askerlerinen
askerlerinin
askerlerni
askerlernin
askerlik
askerlikke
askernen
askino
aslayevo
aslı
aslında
asma
asmag
asovenskaya
aspiranturasına
asqar
asqic
asrav
asret
asreti
asretlik
ass
assaigs
assambleya
assambleyaca
assambleyag
assambleyanın
assambleyası
assambleyasının
assc
assembly
association
ast
asta
astka
astrahan
astronomik
astronomiya
astronomiyacı
astta
astı
astın
astına
astında
astındaki
astından
astırıp
asv
ası
asıdır
asıl
asıllı
asılzade
asılzadeler
asılı
asılımdı
asılıp
asın
asına
asında
asındaki
asından
asınen
asını
asının
asıp
asır
asırda
asırdaki
asırdan
asırg
asırlar
asırlarda
asırlardaki
asırlardan
asırlarg
asırlarnın
asırları
asırlarında
asırlıq
asırnın
at
ata
atacama
atacaqlar
atakama
atal
atalar
atam
atamanovka
atan
atar
atas
atası
atasın
atatu
atay
ateizm
ates
atheism
athene
athens
athletics
atildi
atilg
atilip
atilla
atina
atip
atiqiy
atiqiyat
atiqiyatc
atis
atka
atkan
atki
atkona
atkıs
atlag
atlanta
atlantic
atlantik
atlantis
atlanıp
atlap
atlaq
atlar
atlarda
atlarnı
atları
atların
atlarına
atlarını
atlas
atlites
atlı
atlılar
atmag
atman
atmaq
atna
atnı
atnın
atom
atov
atqa
atqan
atqanda
atqıs
atr
atra
atsk
atskiy
atstekler
atsın
atta
attacus
attan
atthis
atti
attica
attila
attı
attılar
attın
atui
atura
atuv
atymnus
atı
atıcılıq
atıflar
atık
atıldı
atılg
atılmaq
atılıp
atım
atıma
atımdı
atımdın
atımnı
atımnın
atın
atına
atında
atını
atının
atıp
atır
atırav
atırdag
atıs
atıy
au
auc
audi
audio
auf
aug
august
aul
auma
aurantiaca
aurantium
aurata
aurelia
aurgazı
auritus
aurora
aus
australia
australian
australis
austria
auto
autoguide
autumn
aux
auz
auzca
av
ava
avada
avadan
avaları
avale
avangard
avantu
avanı
avanın
avcı
avcılıq
avda
avdet
avel
avenida
avenue
aveska
avesligi
avesta
avg
avgust
avgustnin
avgustnın
avgustta
aviatsiya
aviri
avka
avlar
avle
avrasiya
avro
avropa
avropada
avropadaki
avropag
avropalı
avropalılar
avropanın
avru
avstraliya
avstraliyada
avstraliyadaki
avstraliyalı
avstraliyanın
avstriya
avstriyag
avstriyalı
avstriyanın
avstroneziya
avtobus
avtobuslar
avtomatik
avtomatizatsiya
avtomobil
avtonomiyalı
avtovokzal
avuc
avul
avulga
avurg
avus
avuz
avza
avı
avıl
avına
avıp
award
axis
axmet
ay
aya
ayac
ayag
ayaka
ayan
ayaq
ayaqlarin
ayaqları
ayaqlı
ayaqmas
ayaqqa
ayaqqap
ayaqta
ayat
ayata
ayatfenlik
ayatiy
ayatiyat
ayatlarını
ayatnın
ayatqa
ayatqan
ayatı
ayatına
ayatında
ayatından
ayatını
ayatının
ayaz
aybar
aybek
ayca
aycag
ayda
aydala
aydamaq
aydan
aydap
aydar
aydarı
aydas
ayday
ayder
aydin
aydir
aydut
aydutlar
aydı
aydın
aydınlatılg
aye
ayeler
ayelerini
ayelerni
ayesi
ayesinen
ayet
ayevka
ayevo
ayg
ayhan
ayi
ayim
ayin
ayip
ayiq
ayka
ayki
aykino
aykivka
aykovskiy
aylan
aylanc
aylandırıp
aylanma
aylansam
aylanıp
aylar
aylarda
aylarnen
aylarnın
ayları
aylarında
aylarındaki
aylarının
aylend
aylı
aylıq
ayma
ayman
aynap
ayni
aynoye
aynı
aynıdır
aynın
ayran
ayres
ayret
ayreti
ayretlenu
ayretli
ayrette
ayri
ayrı
ayrıca
ayrıdan
ayrıldı
ayrılg
ayrılıp
ayrımcılıq
ayrımcılıqnın
ays
ayse
aysel
aysin
aysın
ayt
ayta
aytacag
aytacaqsin
aytadı
aytalar
aytaman
aytarman
aytasin
aytayım
ayte
aytilg
aytip
aytkan
aytlı
aytmag
aytmaq
aytmay
aytqan
aytqanin
aytqanların
aytqanlarına
aytqanı
aytqanına
aytsa
aytsana
ayttı
ayttın
ayttırıp
aytugan
aytuvlı
aytı
aytıla
aytılg
aytılmaz
aytılıp
aytılır
aytın
aytıp
aytıs
ayuntamiento
ayurveda
ayuv
ayuvlar
ayva
ayvan
ayvanat
ayvanlar
ayvanlarnı
ayvanlarnın
ayvannın
ayvazov
ayvazovskiy
ayvazovskiynin
ayya
ayı
ayıcı
ayım
ayına
ayınace
ayında
ayından
ayının
ayıp
ayıplar
ayıq
ayır
ayıra
ayıralar
ayırdan
ayırdı
ayırg
ayırlar
ayırmag
ayırmaq
ayıruv
ayırı
ayırıla
ayırıldı
ayırılg
ayırılmaz
ayırılıp
ayırıp
ayıs
az
aza
azac
azadan
azalar
azalardan
azalarnın
azaları
azalarına
azalarını
azalarının
azalıg
azalıqları
azam
azamat
azanın
azap
azaq
azası
azasıdır
azat
azatlıq
azatlıqlarg
azatlıqqa
azavad
azbar
azbarda
azbardaki
azbarnın
azbarı
azbarına
azbarında
azbarından
azda
azdan
azdır
azek
azerbaiya
azerbaycan
azerbaycanca
azerbaycanda
azerbaycang
azerbaycanlı
azerbaycannın
azerbaycanın
azeri
azernes
azg
azi
azikeyevo
azimovnın
azir
aziya
aziz
azko
azlar
azlas
azlıq
azlıqlar
azman
azmeyevo
aznagulovo
aznayevo
azov
azovskoye
azı
azına
azında
azından
azınlıqlarnın
azının
azır
azırda
azırladı
azırlag
azırlamaq
azırlang
azırlanması
azırlap
azırlav
azırlay
azırlıq
azərbaycanlı
azərbaycanlıları
b
ba
baa
baar
baarde
baarinde
baba
babadag
babalarovo
babam
babama
babamdan
babamnın
baban
babanın
babasi
babası
babasıdır
babasına
babasından
babasınen
babasını
babasının
babay
babayevo
babbage
babug
babulg
babur
baburiyler
babus
baby
babıntsi
bac
bach
bachas
back
background
bad
badana
badem
baden
badethane
badethanenin
badius
badra
badraq
badusev
badut
bag
bagac
bagate
bagazı
bagerovo
bagrationovsk
bagıp
bah
bahadır
bahai
bahamalar
bahasa
bahc
bahi
bahir
bahmac
bahmut
bahreyn
bahs
baht
bahtigareyevo
bahtin
bahtlı
bahtı
bahtın
baile
baimovo
bais
bajenovo
bakalavr
bakalı
bakanlıg
bakayevo
bakeyevo
bakhchysarai
baki
baks
baksan
baktın
baku
bakuda
bakı
bakıradı
bal
bala
balaban
balac
baladan
balag
balahna
balahta
balaklavskiy
balakliya
balalar
balalarg
balalarnı
balaları
balalarından
balalarını
balalarının
balalig
balalı
balalıg
balalıq
balalıqta
balalıqtan
balam
balan
balanı
balanın
balas
balası
balasın
balasına
balasınen
balasını
balasının
balavuz
balc
bald
baldus
balet
baley
balgazı
bali
balic
balina
balka
balkan
ball
ballar
ballarga
ballarnı
ballarnın
balları
ballet
balloon
ballı
balqan
balqanlarda
balqanlarg
balqar
balqarca
balqariyade
balqariyadeki
balqurt
bals
balta
baltac
balteatus
baltik
baltimor
baltimore
baltiysk
baltıq
balıc
balıg
balıkesir
balıklı
balın
balıq
balıqc
balıqlar
balıqlava
bam
bamberg
ban
band
banff
bang
bangkok
banglades
bangladesh
bani
bank
banknın
bant
baobab
baq
baqa
baqalı
baqar
baqası
baqip
baqis
baqla
baqladan
baqmadan
baqmag
baqmay
baqqal
baqqan
baqqanda
baqsam
baqsan
baqsı
baqti
baqtı
baqu
baqıla
baqıldı
baqımından
baqın
baqıp
baqır
baqırmag
baqıs
bar
bara
baraban
barabanovka
barabar
barabinsk
baraboy
baradı
baradılar
barag
barakovskaya
baralar
baraman
baranivka
baranovka
baraq
bararman
baras
barasın
barayatırg
barayatırman
barayım
barbados
barbara
barbuda
barc
barcelona
barcino
bardı
bardılar
bardır
barek
barg
bargan
bargas
barguzin
barini
barip
baris
barlig
barlıg
barmag
barmam
barmaq
barmayman
barmi
barmı
barnaul
barokko
baron
barrikadı
barselona
barsukovo
barsın
bartz
bartın
baruv
barvinkove
barıla
barılg
barın
barıp
barır
barırman
barıs
bas
basa
basamaqlarında
basamaqta
base
basi
basilica
basilika
basit
bask
baska
baskakov
basketbol
baskunc
baslaydı
basma
basmag
basmahanede
basqan
basqanından
basqı
basqın
basqıncı
basqıncılarına
basqıncılarından
basqınınen
basra
bass
basshunter
basta
bastan
bastavales
basti
bastı
bastıra
bastırdı
bastırg
bastırılg
bastırıp
bastırıqqa
bası
basıla
basıldı
basılg
basılıp
basılıs
basım
basıma
basımızg
basın
basına
basını
basıp
bat
batalova
bataqlıg
bath
batip
batkivs
batmag
batman
batması
batqan
batqanda
batterfla
battle
batu
batı
batıp
batır
batırlıg
batırov
bauerschaft
bauman
bautista
bavariya
bavırım
bavırına
bay
bayag
bayavut
bayazitovo
baybakovo
baybars
bayburt
bayc
baydar
baydavletovo
bayevo
bayg
baygazi
baygol
bayguzino
baykal
baykalsk
bayki
baykibas
baylan
baylanıs
baylap
baylar
baylardın
baylay
baylıg
baylıq
baymaq
baymurzino
bayqus
bayrac
bayrag
bayrak
bayram
bayramdan
bayramları
bayramnın
bayramı
bayramıdır
bayramında
bayramından
bayraq
bayraqları
bayraqlarında
bayraqnın
bayraqtaki
bayron
bayıldı
baza
bazan
bazar
bazarc
bazarda
bazarg
bazarı
bazarında
bazasının
bazen
bazilikası
bazirga
bazı
bazıda
bazıları
bazılarında
bazırga
bb
bbc
bbg
bc
bd
be
beach
bear
beatles
beautiful
bebiy
bec
because
becenek
becere
becergen
becerikli
becerikligi
beceriknen
becerip
beceru
bedava
beden
bedeniy
bedey
bedeyevo
bediiy
bedin
bediy
bediyat
bee
beech
beetle
before
begena
begendin
behesht
behice
behtemir
bei
beilstein
being
beinn
bek
beka
bekabad
bekbav
bekc
bekes
beketovo
beki
bekir
bekirnin
bekirov
bekirova
beklegen
beklenilgen
beklep
bekleribek
bekley
bekleyler
bekmez
bekovo
bektemir
bekto
bel
bela
belarus
belarusc
belarusde
belarusian
belarusians
belaruslularnın
belarusnin
belarusnın
belaya
belbek
belc
bele
belebey
belediye
belediyesi
belediyye
belegi
belek
belekler
beleknin
belenkoye
belfast
belfor
belfort
belge
belgesel
belgeseli
belgi
belgiledi
belgilegen
belgilemek
belgilendi
belgilene
belgilengen
belgisiz
belgorod
belgrad
beli
belief
belime
belin
beline
belini
belinin
belinskiy
belirtmek
beliz
belki
bell
bella
belledin
belley
belleyler
belleysin
belli
bellidir
bellied
bellilik
bellisiz
bells
belogorsk
belogorskiy
belogorye
belokatay
belokuriha
belomorsk
beloozo
belorec
beloret
belorus
belotserkovka
belovo
beloye
belozersk
belskiy
belt
beltir
beluc
belus
belz
belıy
bem
ben
bencamin
bend
benekli
bengal
bengalce
bengali
beni
benidorm
benim
benin
bent
benti
bentnin
bentten
benua
benz
ber
beraber
beraberlikte
berbat
berda
berdi
berdiler
berdim
berdsk
berdıc
berdımuhamedov
bere
berecek
beredi
bereg
beregove
beregovoy
beregovoye
berejanka
berejanı
berek
bereket
bereketli
bererek
beresin
berestec
bereyim
berezan
berezanka
berezivka
berezna
berezne
berezneguvate
bereznik
berezniki
bereznıy
berezovka
berezına
berezıne
bergen
bergendir
bergeni
bergenin
bergenmen
bergi
bergige
bergiler
bergman
bergmannın
bergtocht
beri
berici
berildi
berile
berilecek
berilgen
berilgendir
berilir
berilmesi
berilmey
berilu
berin
beringei
berip
berir
beris
beriyim
berizkı
berke
berkenzwam
berkutovo
berla
berli
berlin
berlinde
berliner
berlinge
berme
bermedi
bermege
bermegen
bermek
bermekte
bermekten
bermem
bermemek
bermesi
bermey
bermeysin
bermiy
bernardo
berners
bernina
bernini
bero
bers
berse
bersen
bersene
bersin
bertsı
beru
berıslav
bes
besin
besindir
besinin
besiz
beskid
beslene
beslengen
besley
bespalovo
best
besteka
bestelengen
bet
bete
beter
beteyi
beth
bethoven
bethovennin
beti
betim
betin
betinde
betini
betke
betli
beton
bette
betulinus
between
bey
beyan
beyanatlarnı
beyanatında
beyannamesini
beyannatlarnı
beyaz
beyazlar
beyde
beyden
beydin
beyge
beyi
beyin
beyit
beyleri
beylernin
beynin
beyonse
beyrut
bez
bezanson
bezengen
bezir
bf
bg
bha
bhc
bi
biber
bibliografiya
biblioteca
bibliothek
bibrka
bic
bicag
bicolor
bicornis
bicycle
big
bihar
bijbula
bik
bikberda
bike
bikesi
bikini
bikkulovo
bikmetovo
biks
biksler
bil
bila
bilas
bilcegibi
bild
bildi
bildik
bildiler
bildim
bilding
bildirdi
bildire
bildirgen
bildirgeni
bildirgenine
bildirile
bildiris
bildirmek
bildirmeni
bildiru
bile
bileceg
bilecegi
bilecegidir
bilecegini
bilecek
bilecik
bileler
bilemen
bilemiz
bilen
bilenke
bilermen
bilesin
bileyim
bilgen
bilgeni
bilgenin
bilgenmen
bilgi
bilgige
bilgiler
bilgileri
bilgilerni
bilgilernin
bilgili
bilginin
bilgisayar
bilgisi
bilgisini
bilgorod
bilim
bilin
biline
bilingen
bilinmegen
bilinmez
bilip
bilir
bilirler
bilirmi
bilirmiz
bilirsin
bilis
biliyim
bilka
bilkivska
bilkı
bill
billa
billed
billi
bilmak
bilmege
bilmegen
bilmek
bilmem
bilmesini
bilmey
bilmeyim
bilmeysin
bilmez
bilogirya
bilokorovıc
bilokurakıne
bilopilla
bilousivka
bilovodsk
bilozerka
bilsin
bilu
bilıy
bimovka
bin
bina
binaen
binalar
binalarda
binalarnın
binaları
binalarında
binanın
binası
binasında
binasının
binayen
binde
bindeki
bine
bingen
bingo
bini
binin
binomio
binsk
binskaya
binskiy
biografiya
biologiya
bir
bira
biraz
birazdan
birc
bird
birde
birdemligini
birden
birdir
birds
birer
birev
birevge
birevi
birevidir
birevinin
birevnen
birevu
birge
biri
biridir
birikmesinden
birimidir
birimizge
birimiznen
birimizni
birimiznin
birimleri
birin
birinci
birinciden
birincisi
birinde
birinden
birine
birinen
birini
birinin
birisi
birisidir
birisine
birisinin
birkac
birkı
birle
birlem
birlemge
birlemi
birleri
birlerinden
birlerine
birlerini
birles
birlig
birligi
birliginde
birligine
birligini
birliginin
birlik
birlikler
birliknin
birlikte
biro
birobican
birs
birsi
birsk
biru
bis
biser
bison
bissau
bit
bitaraf
bite
bitirdi
bitire
bitirgen
bitirgenden
bitirildi
bitirilgen
bitirilmegen
bitirilu
bitirip
bitis
bitken
bitkence
bitkisiz
bitlis
bitmedi
bitmesi
bitmey
bitmez
bittersweet
bitti
bittiler
bitu
biuletyn
biv
bivka
bixler
biy
biya
biyaz
biye
biyeler
biyetke
biyge
biyin
biykeler
biylegen
biyografi
biysk
biz
bizans
bizansnın
bizde
bizden
bizdi
bizge
bizim
bizler
bizlerge
bizni
biznin
bizon
bj
bla
black
blackpink
blagodatne
blagodatnıy
blagovar
blagoves
blagovis
blanca
blason
blau
blaubeuren
blauboyren
blaue
blec
blick
blijneye
blin
blisnin
bloblar
bloblarnı
block
bloem
bloemknoppen
blog
blok
bloku
blondes
blossom
blu
blue
blıznu
bm
bmt
bmw
bn
bnan
bo
board
boat
bobino
bobrov
bobrovka
bobrovo
bobrovıtsa
bobrık
bobrınets
bobrıtsa
bobrıtska
boc
boca
bodaninskiy
bodaybo
boeing
bog
bogac
bogdan
bogdanivka
bogdanovka
bogdanovo
bogdo
bogema
bogoduhiv
bogolu
bogorodc
bogorodsk
bogorodskoye
bogoslovka
bogotol
boguc
boguslav
boina
bokove
bokovo
boksitogorsk
bol
bola
bolacaq
boladı
bolalar
bolaman
bolan
bolar
bolarak
bolaraq
bolarman
bolat
bolatnın
bolayım
bold
boldu
boldug
boldun
boldı
boldın
boldırevka
boletus
bolg
bolgan
bolgrad
bolhov
bolivia
boliviano
boliviya
bolmag
bolmagan
bolmam
bolmanda
bolmaq
bolmas
bolmasa
bolmasın
bolmasına
bolmay
bolmaydı
bolmaz
boloria
bolotnoye
boloto
bolozon
bols
bolsa
bolsam
bolsan
bolsun
bolsın
bolt
bolu
bolup
bolur
bolurman
boluyak
bolıp
bolır
bombus
boml
bomırka
bon
bonasus
bondan
bondari
bondarivka
bondhus
bondo
bondurivka
bonn
bonı
bonın
book
booking
bookmaket
books
boom
bor
bora
borag
boran
boranc
boranlı
borc
borcunı
border
bordo
borealis
boris
borisoglebsk
borisovka
borisovo
borisovskaya
borivske
borki
borlaq
born
borneo
bornı
boroda
borodino
borok
borova
borovic
borovinka
borovla
borovoy
borovoye
borovsk
bors
borsukı
boru
borza
borzna
borıs
borısivka
borıspil
bos
bosag
bosna
bosnia
bospor
bosporos
bosporostaki
boston
bot
bota
botanic
botanik
botanika
botası
botlar
botlarnı
botnın
botsuana
botsvana
bottom
botton
boulevard
bovka
bovo
box
boy
boya
boyarka
boykivske
boyko
boykot
boylap
boyları
boylarında
boylarından
boynu
boynun
boynuna
boynunda
boynunın
boys
boysung
boysunmag
boysunıp
boyu
boyun
boyuna
boyunca
boyunda
boyundaki
boyunı
boyunın
boyı
boz
boza
bozdı
bozg
bozlay
bozma
bozması
bozqurtlar
boztorg
bozucı
bozula
bozuldı
bozulg
bozuq
bpp
bq
br
bra
brachypelma
bragimovo
brahea
brahim
brai
braim
braimiy
braimov
brain
brand
brandenburg
brani
branice
brasil
brassicae
brataliv
bratsk
bratske
bratslav
brauchle
braun
brayevo
brayiliv
brays
brazil
brazilde
brazilli
brazilnin
brazzavil
brde
bre
bremen
brennerei
bresson
brest
bretan
brgece
brid
bridge
bridok
brighton
brik
brill
brimstone
bris
britan
britaniya
britaniyalı
britaniyanın
britannica
british
brnin
brnın
brodetske
brodı
bronnitsı
brooklyn
brothers
brovarı
brovkı
brown
brsk
brskiy
brskoye
bru
bruecke
bruennichi
bruklin
brunettes
bruney
bruni
brunnen
brussels
brusıliv
bryce
bs
bt
bts
bu
bua
bubble
bubo
buc
bucaq
bucarest
buda
budapes
budda
buddizm
budkı
budo
budı
budır
budıs
buenos
buffalo
bufo
bug
bugayivka
bugor
bugu
buguruslan
buhara
buharadan
buharag
buhranı
building
bujumbura
bukac
bukan
buker
bukı
bul
bula
bulan
bulaniha
bular
bulardan
bulardır
bularg
bularnı
bularnın
bulas
bulat
bulatovo
bulay
buldern
bule
bulg
bulgar
bulgaria
bulletin
bullockoides
buluna
bulunalar
bulundı
bulundılar
bulung
bulunmag
bulunmaq
bulunmaqta
bulunsa
bulunuvı
bulunıp
bulunır
bulus
bulut
bulutlar
bulutı
bun
bunda
bundala
bundan
bunday
bunen
bunevats
bunin
bunjevac
bunker
bunlar
bunı
bunın
bura
buralı
burangulovo
buranovka
buranovo
buray
burc
burdur
burdvan
burdwan
bureya
burg
burgundiya
burhanettin
burkina
burkivtsi
burla
burluk
burlı
burma
burnas
burning
burnu
burnunda
burnundan
burnunı
burnunın
bursa
bursada
burst
burtu
burulc
burun
burunda
burundi
burunduq
burung
burunin
burunlı
burunı
burza
burın
bus
bush
business
busk
but
butan
buteo
buteogallus
butia
butterfly
buturlino
buturlinovka
butırki
buv
buvye
buy
buynaksk
buyruq
buyurg
buyır
buz
buza
buzan
buzat
buzau
buzav
buzday
buzg
buzka
buzlu
buzlug
buzluq
buzuli
buzuluk
bw
bwv
by
byan
bydgoszcz
bı
bıc
bıdgos
bıkovo
bımivka
bından
bınske
bının
bır
bıraqıp
bıstra
bıstriyivka
bıstrık
bıstrıy
bıt
bıtino
bıtom
bızar
bızav
bızavnı
bızavnın
bızavın
c
ca
caba
cabo
cabında
caddesi
caddesinde
cadele
cadelesi
cadra
cadı
caenorhabditis
cafe
cafer
caffer
cag
caixa
cakarta
cakomo
calama
calatayud
calayır
calbarıp
calculus
calg
calidris
california
californianus
call
calle
calling
calliphora
calopteryx
calumma
calı
cam
camala
camalanen
camalanın
camanaqlı
camasp
camayka
camboya
cambridge
camc
camelopardalis
cami
camide
camige
camiler
camileri
camilerni
camin
caminin
camisi
camisinin
camp
campbell
campo
can
canabat
canada
canadensis
canal
canavar
canbaz
candan
candi
cang
canibek
canike
canim
canin
canis
canko
canlanıp
canlı
canon
cansever
cansız
cantares
canterbury
canto
cantıq
canyon
canı
canım
canın
canına
cape
capitol
caplarında
capo
capra
captalarnı
car
caracara
carbo
cardan
cardinal
cargonet
carina
carl
carlıq
carmen
carolinensis
carpenters
carrera
cartes
cartı
cas
casa
cascade
casco
casino
cassius
cast
castillo
castle
castles
castro
cat
catala
catalana
catalans
catalunya
catar
catedral
category
caterpillar
cathedral
catherine
catopsilia
cattle
catır
caudata
caustic
cav
cava
cavap
cave
cavg
cavlar
cavmasın
cavsın
cavto
cavurunu
cavın
cavıp
cayav
cayg
caylav
cayrag
cayrap
caytamg
cayılg
cayılıng
cayılıp
cayıp
cayıq
caz
cbd
cc
cd
ce
cebbar
cebe
cebede
cebege
cebelerde
cebir
cebrail
cebrayıl
cec
cedid
cedric
cedvel
cedvelde
cedvelge
cedveli
cedvelinde
cedveline
cedvelleri
ceennem
ceennemde
ceetinden
ceetten
cefakes
cefferson
cegi
ceginin
ceiling
cek
cekler
cekson
cela
celal
celcetbez
celcetmez
celil
celis
celkesinden
cell
cella
celp
cemaat
cemaatc
cemaatları
cemaatnın
cemaatı
cemaatının
cementerio
cemetery
cemil
cemilev
cemilevnin
cemiyet
cemiyeti
cemiyetinde
cemiyetine
cemiyetini
cemiyetinin
cemiyetleri
cemiyetnin
cemiyette
cemrik
cen
cenab
cenaze
cenevez
ceneviz
cenevizler
cenevizlerge
cenevizlernin
cenevre
ceng
cengiz
cengiznin
cenk
cenka
cenkc
cenki
cenkinde
cenkinden
cenkine
cenkinin
cenkke
cenkler
cenkleri
cenkles
cenkni
cenknin
cenkte
cenkten
cenktir
cennet
cenova
cens
census
centaurea
center
central
centre
centro
century
cenu
cep
ceppar
cer
cerca
cercopis
ceresc
cerge
ceriagrion
cerinorubellum
cermay
cerret
cerro
cersi
cervus
ceryan
ceryanlarnı
ceryanlarında
ceryanı
ceryanına
ceryanında
ceryanının
cesaret
cesedi
cesedini
cesu
cete
cetekc
cetip
cetmes
cetmez
cetonia
cetti
cev
cevabı
cevabını
cevap
cevdet
cevdetova
cevher
ceviz
cevizi
cevizinin
cevizli
ceyms
ceza
cezair
cezalar
cezalav
cezam
cezası
cezasına
cf
ch
cha
chain
chal
chamaeleo
chamber
chameleon
champ
championship
championships
chaos
chaplin
characters
charadrius
charaxes
charles
charlotte
chateau
che
cheetah
chelonia
chernobyl
cherry
chervona
chervonnaya
chf
chi
chicago
chick
chicken
child
children
chile
china
chinese
chobe
chocolate
chonrav
chornobyl
chorraum
christchurch
christmas
christopher
chrysomya
chs
chufut
chugach
church
ci
cia
cian
ciberdi
cibere
ciberedi
cibergen
ciberip
cibi
cibuti
cidade
ciddiy
ciencias
cig
ciger
cigit
cigitler
cihaz
cihazlar
cihazlarnı
cilindros
cilis
cilt
cim
cimmi
cin
cinaiy
cinayet
cinayetc
cinerea
cins
cinsi
cities
citroe
citrus
city
ciudad
ciutat
civarları
civarlarında
civarı
civarında
civarındaki
civil
ciyis
ciyren
cize
cizeler
ck
cke
cl
clarinet
class
clear
climograma
clock
close
closeup
clouds
clown
club
clusiana
clytia
cm
cme
cn
co
coa
coast
coat
cobar
coca
coccinella
coconut
cocos
code
codex
cog
coi
cok
col
cola
colda
colg
colga
collapse
collar
collection
collections
college
colman
cologne
color
colorado
colors
colour
cols
columbia
colın
colına
com
comercio
comma
comments
common
commons
commonwealth
como
comolungma
compan
company
completes
complex
composite
computer
computerhotline
comu
con
concepcio
concert
cone
confluence
cong
conni
cons
contenant
content
contest
contra
convolvulus
cook
copenhagen
copper
copulation
copy
coq
coqu
coracias
coral
corc
core
cornuta
coromandelianum
corporation
corun
corvus
corythornis
cos
cosef
council
country
county
couple
court
covanni
cover
covid
covo
coyg
coys
coyulg
coyıp
cozef
cp
cra
crash
crater
creek
crepuscular
cret
cretli
crette
crh
crimea
crimean
criminal
crimson
cristatus
cristo
croacia
crocodylus
crocus
crop
cropped
cross
crossing
crown
crowned
cruiser
cruz
crystal
crystals
cs
ct
cu
cub
cube
cuc
cucullatus
cucurbita
cult
cultivar
cultura
cultural
culture
cuma
cumanicus
cumhuriyet
cumhuriyeti
cumhuriyetinde
cumhuriyetindeki
cumhuriyetinden
cumhuriyetine
cumhuriyetini
cumhuriyetinin
cumhuriyetinın
cumhuriyetke
cumhuriyetler
cumhuriyetlerde
cumhuriyetleri
cumhuriyetlerinden
cumhuriyetnin
cumhuriyettir
cunicularia
cup
curc
curial
current
curtı
cut
cuvırıp
cuzeppe
cv
cvn
cyanea
cyathigerum
cycle
cygnus
cymbium
cyprus
cyrl
cz
cze
czech
cı
cıg
cıkayeva
cılama
cılan
cılap
cılarından
cılatıp
cılg
cılt
cıltlıq
cılıs
cınsiy
cınsı
cınsının
cının
cırlay
cısmiy
cıya
cıyanc
cıyg
cıyın
cıyınlarda
cıyıntıg
cıyıntıq
cıyıntıqları
cıyıp
cıyıs
d
da
daa
dabır
dac
dactylorhiza
dad
dag
dagestanskiye
daha
dahil
dail
daim
daima
daimiy
dair
daire
dairelerinde
dairesi
dairesinde
daki
dala
dalg
dali
dalinin
dalları
dallol
dalmatovo
dalneye
dalniy
dalnık
dalı
dalıdır
dalıp
dam
dama
damaliscus
dame
damg
damselflies
damselfly
damı
dan
danaus
danca
dance
dancer
dancing
dane
danesi
daniel
daniela
danil
danilovka
danimarka
danimarkalı
danimarkanın
dankivka
dankov
danoz
dansk
dante
dantenin
danılivka
daqqa
dar
daraman
darasun
dare
daresi
darg
dari
dariy
dark
darma
darog
darovskoy
darqalg
darqata
daru
darwin
darya
daryino
das
data
dateformat
datnı
dava
davag
davalar
davalarda
davalarnın
davalas
davam
davanı
davanın
davası
davasında
davasının
davet
davetinen
david
davla
davletkulovo
davletovo
davlets
davrana
davranıp
davranıs
davul
davulcı
davus
davut
davıdivka
davıdkı
davıdovskaya
daw
day
dayanaraq
dayanmaq
daym
dayın
dayır
db
dc
dd
ddet
ddeti
ddetine
ddetli
ddg
ddin
de
dead
deal
death
debaltseve
debu
dec
december
deckenfresken
deckenfresko
declared
dede
dedesi
dedi
dedig
dediler
dedim
dedin
dedovskiy
dee
defa
defalarca
defans
defense
defin
definition
definitions
defter
deg
degen
degende
degenim
degenin
degenler
degenlerge
deger
degeri
degerleri
degerli
degernin
degil
degildir
degilim
degiller
degilmi
degilsin
degirmen
degirmeni
degirmenko
degirmenleri
degis
degree
degta
deha
dei
dekabr
dekabrde
dekabrnin
deki
dekodlanması
dekompozitsiya
dekorativ
del
dela
delegat
delegatı
delen
delhi
deli
delias
delicata
delili
della
delta
dem
dema
deme
demek
demektir
demensk
demesi
demir
demirbeton
demirci
demiryol
demiryolları
demis
demodocus
demografiya
demokrat
demokratik
demokratiya
demoleus
demyanovka
demıdivka
den
dena
denali
dendritic
dendrobates
dendrocygna
deneme
denemeleri
denildi
denile
denilgen
denilir
denir
denis
denktas
denmark
denoised
dep
departamenti
depo
deportatsiya
deposında
deppnin
depressiya
depuis
deputat
deputatları
deputatı
der
dera
derajna
derbent
derbi
derc
derdin
dere
derebc
derebeylik
derece
derecede
derecege
dereceli
derecesi
derecesine
derecesini
dereko
deresi
deresinde
deresinin
derevna
derevıc
dergac
dergisi
derim
derin
derjanivka
derler
dermenci
derneg
dernegi
derneginin
dernek
dernekamp
ders
dersi
dersin
dersler
dersleri
derslerin
derslerini
derslik
dert
derti
dervis
derviza
dervizada
dervizalarda
dervizanı
dervizası
derya
des
desa
desant
descriptions
desde
dese
desek
deseler
desem
desen
desenka
desierto
desna
destan
destannı
destannın
destanı
destanını
deste
destek
desteklemek
destino
det
detail
deus
deutsch
deutsche
dev
devam
devamlı
devamı
devamında
devanagari
deve
development
devid
devir
devirde
devirdeki
devirden
devirge
deviri
devirinde
devirlerde
devirlerden
devirleri
devirlerinde
devirlerini
devirnin
devleken
devlet
devletc
devleti
devletidir
devletinde
devletinden
devletine
devletinen
devletini
devletinin
devletke
devletler
devletlerara
devletlerde
devletleri
devletlerinde
devletlerine
devletlerinin
devletlernen
devletlernin
devletnen
devletni
devletnin
devlette
devletten
devlettir
devletını
devri
devrim
devrimi
devrinde
devrinden
devrine
devrini
devrinin
devriy
dey
deya
deyerli
deyerlik
deyler
deysin
di
diadematus
diagnostika
diagram
dialog
dialognı
diametri
diamonds
diana
diapazonı
diaspora
diasporası
diasporasının
diatoniktir
dibag
dibrivka
dibrova
diceros
dictionary
dictyophorus
die
diesel
dig
diger
digeri
digerine
digerinin
digerler
digerleri
digitata
digta
dikens
dikensnin
dil
dila
dilde
dilekc
diler
dili
diliff
dim
dimes
din
dinamik
dinamikası
dinamitnin
dindas
dinde
dindir
dinge
dinghausen
dini
dinidir
dininde
dinine
dinini
dininin
diniy
dinler
dinlerinin
dinlernin
dinnin
dinos
dinovo
dinozavr
dio
diofant
diplom
diplomatik
diplomını
diqqat
diqqatnen
diqqatnı
diqqatqa
diqqatını
dir
dirce
direction
direginin
direk
direkler
direkli
direktor
direktorı
diri
dirijor
dirijorı
dirijorıdır
dirligi
dis
discovery
disk
diskografiya
disney
display
dissertatsiyanı
dissertatsiyasını
dissident
dissidentlik
district
dit
ditrih
ditrihnin
divan
divanı
divanına
divar
divarg
divarlarnın
divarları
divarlarında
divarnın
divarı
divarında
divarının
divnogorsk
diy
diya
diyarına
diyas
diydi
diydiken
diye
diyego
diyler
diz
dizel
dj
dk
dka
dla
dları
dll
dmila
dmitriy
dmitriyev
dmitriyevic
dmitriyevka
dmitriyevskiy
dmitrov
dmitrovsk
dmıtrivka
dmıtro
dn
dneprovka
dnipro
dnipropetrovsk
dniprovsk
dniprovska
dnistrovskıy
do
dobra
dobric
dobropilla
dobrorez
dobroslav
dobrovelıc
dobroye
dobruca
dobrucada
dobrucadaki
dobrucag
dobrucanın
dobrıy
doc
dog
dogujiyev
doha
dokorı
doktor
doktora
doktorlıq
doktorı
dokuc
dokız
dolana
dolandi
dolang
dolap
dolas
dolgan
dolgiy
dolgoprudnıy
dolgoye
dolina
dolinka
dollar
dollarg
dolma
dolomit
dolına
dolınivka
dolınka
dolınska
dolınske
dom
domanivka
dome
domen
domeni
domestica
domikan
domingo
dominika
dominikan
dominulus
domodedovo
domuz
don
donald
donan
donatıldı
donatılg
donets
donetsk
dong
donske
donskoe
donu
doom
door
doors
doppi
doqsan
doquz
doquzıncı
doqız
dor
dore
dorenin
dorn
dorogino
dorogın
dorojnoye
doros
dorovic
dorovka
dorovskaya
dorsal
dorset
dortmund
dos
doslidne
dost
dostlar
dostlarının
dostlas
dostlug
dostluq
dostu
dostum
dostun
dotsent
double
douglas
dova
dovbıs
dovjansk
dovjok
dovskaya
down
dp
dr
drabiv
dragla
drama
dramatik
dramaturg
dramaturglar
dramaturgı
dravidarum
dream
dreams
dresden
drezden
dris
drisovo
drive
drogobıc
dronovo
druga
druge
drugıy
drujba
drujelu
drujkivka
drujne
drujnoye
dryas
dsc
dsst
dt
dtm
du
dua
dualar
dualarnı
dubay
dubinino
dubivka
dubki
dubla
dublin
dublinliler
dubna
dubno
dubova
dubove
dubovets
dubovka
dubovoye
dubovıy
dubrava
dubrova
dubrovka
dubrovnik
dubrovskiy
dubrovıtsa
dubına
dubıs
duck
dudag
dudaq
duero
duet
duglas
dugong
dugu
duisburg
dukat
dulat
dum
duman
dumanlatıp
dumanlı
duminic
dunay
dunayivtsi
dunes
dur
durasovo
durbar
durga
during
dus
dusk
dust
dut
dutch
dutu
duva
duvadaqlar
duval
duvan
duvanko
duyg
duyula
dvd
dvig
dvinskoy
dvora
dvoric
dvorjak
dvorjaknın
dvorı
dynamics
dz
dzerjinsk
dzerjinskiy
dztwo
dzu
dı
dıkanka
dılar
dım
dımkovskaya
dımlılıg
dın
dır
dıs
dıvlın
e
eadet
eaecf
eagle
eali
ealileri
ealini
ealinin
ealisi
ealisinde
ealisinden
ealisine
ealisini
ealisinin
early
earth
east
eastern
eating
ebalino
ebbu
ebe
ebediy
ebediyat
ebediyen
ebekino
ebet
ebnoye
ebu
ebula
ebıkovo
ec
ecce
ecdadı
ecdatları
ecek
eceksin
ecel
ecelep
eceli
ecevit
eclipse
ecnebiy
economic
ecosoc
ecu
ecuador
ed
eda
edayiv
eddi
ede
edebiy
edebiyat
edebiyatqa
edebiyats
edebiyatta
edebiyatı
edebiyatına
edebiyatında
edebiyatından
edebiyatını
edebiyatının
edem
edemova
eden
edep
edgar
edi
edicions
edige
edik
edil
ediler
edilnin
edim
edin
edip
edipnin
edir
edirne
edisonnın
edit
edited
edition
ediye
ediyor
edo
edu
eduard
edvard
edvin
edwin
ee
een
eer
eerc
eerde
eerdeki
eerden
eerdir
eerge
eeri
eeridir
eerinde
eerindedir
eerindeki
eerinden
eerine
eerini
eerinin
eerler
eerlerara
eerlerde
eerlerden
eerleri
eerlerinde
eerlerinden
eerlerine
eerlerinen
eerlerini
eerlerinin
eerlernin
eerni
eernin
eesti
ef
efendi
efendiko
efendinin
effaf
efiqa
efka
efla
efsane
efsanege
efsaneviy
eg
ege
egem
egen
eger
egerek
egertki
eggs
egi
eginde
eginden
eginin
egins
egip
egiz
eglence
eglenceli
eglenmek
ego
egodsk
egodskiy
egorsk
egovarskoye
egret
egretta
egypt
egzamino
eh
ehabl
ehc
ehem
ehir
ehiya
ehiyanın
ehov
ehova
ehrak
ehram
ehramlar
ehramları
ehramı
ehri
ehrin
ehrinde
ehrine
ehzade
eiffel
eilean
eines
eip
eit
ej
ejder
ek
ekalov
ekber
ekc
eke
eken
ekende
ekenin
ekenler
ekensin
eker
ekersiz
eki
ekige
ekil
ekilde
ekildi
ekile
ekilge
ekilgen
ekili
ekilinde
ekillendi
ekillendirile
ekillendirilgen
ekillendiru
ekillengen
ekillenu
ekiller
ekillernin
ekilli
ekim
ekimc
ekimi
ekimler
ekimlik
ekimser
ekin
ekinci
ekinciden
ekincisi
ekindi
ekindiden
ekip
ekis
ekisi
ekisini
ekke
ekkeles
ekken
ekku
ekle
ekler
ekleri
eklerinen
eklerni
eklernin
ekles
ekli
eklidir
eklik
ekliknin
eklinde
eklindeki
ekline
eklini
ekmek
ekmi
ekni
eknin
ekonomik
eks
ekseri
ekseriy
ekseriyeten
ekseriyeti
ekseriyetnen
ekseriyette
eksile
eksna
ekspeditsiya
ekspert
ekspirnin
ekte
ekten
ekti
ektir
ekvador
ekvadornın
ekvatorial
el
ela
elaboliha
elak
elal
elaphus
elazıg
elba
elbet
elbette
elc
eldar
elde
elden
eldin
ele
elebi
elebicihan
elebicihannın
elebinin
electrolytic
elegans
elehov
elek
elektrik
elektrogorsk
elektron
elektrostal
element
elen
elena
elendi
eler
eleri
elerinde
elerinden
eleslengen
eleslenip
eleven
elevka
elge
elgen
eli
elifbe
elifbede
elifbeden
elifbedir
elifbeler
elifbeleri
elifbesi
elifbesidir
elifbesinde
elifbesindeki
elifbesinden
elifbesine
elifbesinen
elifbesini
elifbesinin
elik
elim
elimdi
elin
elinde
elindeki
elinden
eline
elinin
elista
elivka
elizabet
elize
elkovka
ella
eller
ellerin
ellerinin
elli
ellif
ellifdes
ellifi
ellifidir
ellifler
ellifleri
elliflik
ellifnin
ellison
elma
elmar
elmaz
elnen
elnin
elnık
elon
els
elu
elveris
elvira
elvis
elyazma
elyazmalar
elye
elymnias
elzara
elzı
elınde
elındeki
em
emal
emanet
embankment
embay
emberler
emc
emce
emcesi
emegi
emek
emekc
emekli
emel
emeler
emen
emenlerge
emerivtsi
emes
emetivka
emetove
emgen
emi
emil
emin
emine
eminek
eminem
eminim
eminliknen
emir
emiri
emirine
emirinen
emirler
emirlerine
emirlikleri
emiru
emis
emiyet
emiyeti
emiyetini
emiyetke
emiyetli
emiz
emizgen
emmanuel
emoji
empayr
emperor
empionatı
empionatında
empionatının
empionı
empire
empty
emre
emri
emrinen
emrovka
ems
emu
emıs
en
ena
enako
enallagma
enbe
encyclopaedia
encyclopædia
end
endeavour
endek
enden
enderivka
endese
endi
endiden
endigisi
endirilgen
endis
endisi
endisler
endisleri
endisligi
endislik
ene
enegler
enem
ener
energetik
energetika
energiya
energoatom
energy
enga
engen
engineering
england
english
eni
enigı
enin
enis
enistan
eniye
enka
enkivskıy
enko
enkonen
enkonın
enkov
enkove
enkovo
enkursk
enkı
enligi
enmesi
enn
ennai
ennan
enni
eno
enrayt
enriko
ensk
enskaya
enske
enskiy
enskoye
enskıy
enstitu
entertainment
entrance
entre
entsiklopediya
entsiklopediyası
enver
eo
ep
epetivka
epetsk
epik
epimiz
episi
episinde
episinden
episine
episinen
episini
episinin
epistmologiya
episyrphus
epivka
epken
epkenin
eps
epsi
epsı
epılivka
equus
er
era
erbabı
erbabıdır
erbakovo
erbakul
erbap
erbaplar
erbapları
erbaplarınen
erbaplarının
erbayevo
erbet
erc
erdog
erdın
erec
erecepova
eref
erefine
erefli
erek
erekulevo
eremhovo
eremisinovo
eremos
erems
eren
erepanovo
erepas
erepovets
ereslenip
erg
erga
erganovka
ergen
ergeyev
eri
erickson
erigine
erik
erim
erir
eris
erisi
erisinde
eristalinus
erithacus
eritreya
eriyat
erka
erkaske
erkassı
erkası
erkegi
erkek
erkekler
erkeklerni
erkeklernin
erken
erkes
erkesiya
erkesiyade
erkesiyadeki
erkessk
erkez
erkezler
erkin
erkinligi
erkler
erlak
erler
erles
erli
erlik
ermeni
ermenice
ermeniler
ermenilerden
ermenistan
ermis
ermita
ermiz
erna
ernan
ernavka
ernelıtsa
ernigiv
ernigivka
ernigovka
ernivtsi
ernobil
ernogolovka
ernov
ernovka
ernst
ernus
ernıs
ero
eron
eronsk
erotları
erovo
ers
ersin
ersk
erte
erten
ertesi
ertil
ertis
erttemen
ertug
eruption
ervona
ervone
ervonosilka
ervonoye
ervonıy
erythrocephalus
erythropus
erzag
erzurum
es
esabatlar
esabatı
esabı
esabına
esap
esapc
esaplama
esaplayıcı
esapqa
esaray
esas
esasc
esasen
esaslag
esaslana
esaslang
esaslanıp
esasları
esaslarını
esaslı
esassız
esası
esasıdır
esasına
esasında
esasını
esculentus
ese
eseniki
eser
eserden
eserdir
eserge
eseri
eseridir
eserin
eserinde
eserini
eserler
eserlerde
eserlerden
eserleri
eserleridir
eserlerin
eserlerinde
eserlerinden
eserlerine
eserlerinen
eserlerini
eserlerinin
eserlerni
eserlernin
eserni
esernin
esi
esin
esinde
esindeki
esinden
esine
esinen
esini
esinin
esir
esiri
esirler
esirleri
esirlik
esirlikke
esitken
esk
eska
eskadron
eske
esken
eskende
eskender
eski
eskiden
eskiov
eskirgen
eskis
eskisi
eskiy
eskoye
eslav
esli
esnaf
esnas
esnası
esnasına
esnasında
esnasını
esnoc
esnokovka
esnokovo
espan
esperanto
esperantoca
essen
essise
essiseler
essiseleri
essiselernin
essisenin
essisesi
estados
estatal
estate
esten
ester
estetik
estival
estonca
estonia
estoniya
estrada
estvo
esvatini
eswatini
et
ete
etecek
etecem
etedi
etegi
eteginde
eteklerinde
etel
eteler
etem
etemiz
eter
eterek
eterler
etermen
etermiz
etesin
eteyim
etgen
eti
etici
eticiler
eticisi
etildi
etildiler
etile
etilecekten
etileler
etilemesidir
etilgen
etilgende
etilgendir
etilgeni
etilgenine
etilgeninen
etilgenini
etilgenler
etilip
etilir
etilmedi
etilmege
etilmegen
etilmesi
etilmesine
etilmesini
etilmesinin
etilmez
etilse
etilu
etim
etimologiyası
etin
etinde
etinden
etine
etini
etinin
etip
etiyade
etiyadeki
etiyim
etke
etken
etkende
etkenden
etkendir
etkeni
etkeninde
etkeninden
etkenine
etkenini
etkenler
etkenlerge
etkenleri
etkenlerine
etkenlernin
etkenmen
etkennin
etkensin
etleri
etli
etlino
etme
etmeden
etmedi
etmediler
etmege
etmegen
etmegenler
etmek
etmeknen
etmekni
etmekte
etmektir
etmeli
etmen
etmesi
etmesinden
etmesine
etmesinen
etmesini
etmey
etmeyip
etmez
etmis
etni
etnik
etno
etnocazı
etnogenez
etnogenezde
etnogenezi
etnogenezinde
etnografik
etnologiya
etnonimi
etos
etosha
etrafin
etraftaki
etrafı
etrafına
etrafında
etrafındaki
etse
etsek
etseler
etsen
etsin
ette
etti
ettiler
ettin
ettirdi
ettire
ettirgen
ettirip
ettirmek
etu
etırman
eu
eucharis
eue
eugene
euro
europe
european
eurovision
eut
ev
eva
evan
evc
evde
evden
eve
evel
evela
evelce
evelde
evelden
evelina
evelki
evelleri
evelsi
evening
evensk
ever
everest
every
evge
evi
evic
evik
evikler
eviklik
evil
evin
evinde
evine
evini
evinin
evirdi
evire
evirgen
evirildi
evirile
evirilecek
evirilgen
evirilip
evirilu
evirip
evirmek
evka
evket
evla
evlendi
evlene
evlengen
evlenip
evlenmek
evlenu
evler
evlerde
evlerge
evleri
evlerinde
evlerinden
evlerine
evlerini
evlerni
evlernin
evli
evliligi
evlilik
evliya
evni
evnin
evo
evolution
evoy
evoye
evqiy
evre
evresinde
evrim
evsk
evskaya
evskiy
ex
example
exercise
experience
explicit
exposure
express
extensive
extraliiga
ey
eyaleti
eyaletinin
eyata
eyatqan
eyatqanda
eyc
eyden
eye
eyecan
eyecanlanuv
eyed
eyevo
eyfel
eyge
eyh
eyi
eyiciler
eyik
eyilik
eyim
eyin
eyit
eyka
eykel
eykelc
eykeli
eykelinin
eykeller
eykeltras
eyle
eylen
eyler
eylerini
eylerni
eylernin
eymi
eyni
eynin
eytan
eytanlar
eytanın
eyvaz
eyyet
eyyeti
eyyetinin
eyyubi
eyzens
ez
ezan
ezberden
eze
ezelden
ezerler
ezgi
ezilecek
ezilgen
ezilmesi
ezilmesinde
ezilu
ezip
ezme
ezmek
ezmesi
f
fa
faal
faali
faaliyet
faaliyeti
faaliyetinde
faaliyetine
faaliyetinen
faaliyetini
faaliyetinin
faaliyetlerden
faaliyetlerini
faalleri
fabrikası
fabrikasında
facade
face
facebook
facia
facialı
facianı
faciası
factory
fagus
fahri
fahriy
fair
fais
faiz
faizi
fakto
faktorları
faku
fakulteti
fakultetinde
fakultetine
fakultetini
fakultetinin
falcon
falenopsisnin
fall
falls
falo
famberhorst
familiyan
familiyası
familiyasından
family
familya
familyasından
fan
fank
fantast
fantastika
fantasy
faqat
faqır
far
farac
faraziyesi
farer
farm
faro
farq
farqlana
farqlı
farqlılas
farqı
farro
fars
farsc
farsiy
farz
fas
fashion
faso
fast
fastiv
fat
fatej
fatih
fatiha
fatlandı
fatlandıruv
fatlar
fatlarnın
fatma
fatı
fatına
fatınen
fatını
fatının
fayda
faydalana
faydalang
faydalanmaq
faydalanuv
faydalanılg
faydalanıp
faydalı
fayl
fayllar
fayllarnı
fayız
fazla
fazıl
fazılnın
fe
feb
february
feda
fedaka
federal
federativ
federatsiya
federatsiyası
federatsiyasının
federiko
fedorivka
fedorogorskoye
fedorovic
fedorovıc
fedosiyivka
fedotovskaya
fedovskoye
feeding
fek
fela
felder
feldmars
feldweg
felekiyat
felemenk
felemenkc
felemenknin
feliks
felipe
felis
fellini
felsefe
felsefec
felsefeci
felsefeciler
felsefecilernin
felsefecisi
felsefede
felsefesi
felsefesinde
felsefesini
felsefesinin
felsefiy
felsegeciler
female
fen
fena
fenerbahc
feniks
fenler
fenomen
feodal
feodor
feodoro
fer
ferag
ferdinand
ferdiy
ferg
ferman
fermanı
fermi
ferngeym
fernsehturm
ferrocarril
fest
festival
festivali
festivalinde
festivalinin
feth
fetih
fetisla
fetret
fevqula
fevral
fevralnin
fevralnın
fevralsk
fevzi
fezada
fezadan
ff
ffuz
fi
fici
fie
field
fig
figeras
fighting
figure
fikir
fikirde
fikirge
fikiri
fikirin
fikirler
fikirlerini
fikirlerni
fikirles
fikirnen
fikri
fikrince
fikrine
fikrini
fikriy
fil
filatov
filatovka
fild
file
filialı
filippinler
filippovka
filippovo
filippovskaya
filistin
filistinnin
filleri
film
filmde
filmden
filmi
filminde
filminin
filmler
filmlerde
filmleri
filmlernin
filmni
filmnin
filmografiya
filologiya
filtered
filtis
fin
final
finans
fince
find
fine
finland
finlandiya
finlandiyanın
fira
firdevs
fire
fireworks
first
fis
fish
fishing
fitne
fitness
fitr
five
fiy
fiyatc
fiyatlar
fiyatı
fizik
fizika
fizikacı
fizikadan
fizikiy
fj
flag
flamenko
flamingo
flavescens
flensburg
flex
fleyta
flickr
flight
float
flora
florentsiya
florida
flotu
flower
flowers
flu
fly
flying
fm
fo
fog
fogu
fok
fokino
folklend
folklor
folklorı
fominsk
fominskaya
fon
fond
fondu
fonetik
font
fontan
fontsize
food
footer
for
foralberg
force
ford
fore
forest
formal
format
formation
formatında
formica
formula
foros
forpost
fort
fortaleza
fortepiano
fortress
forum
forumı
fosna
foti
foto
fotog
fotogalereyası
fotograf
fotografiya
fotolar
fotoresim
fotoresimi
fotoresimleri
fotoresmi
fotosu
foundation
fountain
four
fr
fra
fractal
frame
frameless
franc
france
francesco
francisco
frank
frankfurt
frankivsk
franklin
frans
fransisko
fransua
fransız
frants
frantsisk
franzo
frauenkirche
frayburg
frayleben
frazeologiya
freaky
frecce
frederiko
free
freiburg
french
frenk
frenkc
frenkistan
frenkistanda
frenkistannın
fresco
freska
freud
freyd
freydnin
frica
frida
fridrih
frislandiya
fritillary
frog
frolovo
from
front
frontera
frontmeni
fru
fruit
frunze
frus
fsc
fti
ftisi
ftp
ftpmail
fu
fuc
fuente
full
fulva
funikulo
funtovo
fuqare
fuqareler
fuqarelerge
furmanov
furtuna
furun
fury
fus
fusu
futbol
futbolcı
futbolcısı
future
fuyu
fws
fındıq
fındıqlı
fırqa
fırqalar
fırqanın
fırqası
fırqasına
fırqasından
fırqasının
fırsat
fırsatlar
fırsatı
fırında
fıs
fıstıq
fəaliyyətinə
g
ga
gabon
gabriel
gada
gadomtsi
gagarin
gagauz
gaillardia
gakuen
gal
gala
galaktika
galaktikası
galapagos
galata
galatasaray
galaxy
galc
galereya
galereyası
galereyasında
galeri
galericulata
galerie
galic
galiley
galileynin
galina
galisiya
galiza
gallen
gallery
gallinago
galtsov
galuzzi
galıc
gama
gambiya
game
gametofit
gampern
gan
gandaki
gandhari
gandhi
gandi
ganes
ganga
gannivka
gannopil
ganovo
gao
gar
gara
garden
gardens
garip
garkavets
garsia
gas
gasimov
gaspra
gaspralı
gaspranın
gasprinskaya
gasprinskiy
gasprinskiyge
gasprinskiynin
gaspıralı
gatc
gate
gates
gaura
gautama
gavrilov
gavrilovka
gavrilovskiy
gavrıs
gay
gayana
gaynı
gaysın
gayvoron
gaz
gazet
gazeta
gazetacı
gazetacılıq
gazetada
gazetag
gazetalar
gazetalarda
gazetaları
gazetalarında
gazetanı
gazetanın
gazetası
gazetasına
gazetasında
gazetasını
gazetasının
gazeteciler
gazetesi
gazetinde
gazi
gaziantep
gaziosmanpas
gdansk
ge
gebeden
gec
gece
gecede
geceleri
gecesi
gecesinde
gedik
gegen
geiranger
gel
gelaltar
geldi
geldin
gelis
gemi
gemici
gemide
gemiler
gemileri
gemilernin
geminen
gemini
geminin
gemisi
gemisinde
gemisinin
gen
genc
gence
gendzi
gene
genel
genellikle
general
generalitat
generation
generativ
genetik
geneva
genic
genis
genler
genotsid
genri
genrihovic
genutia
geographicus
geoinfobox
geologic
geologik
geologiya
georg
george
georgia
georgian
georgiy
georgiyevka
georgiyevskoye
gepard
ger
geray
geraydan
gerayg
geraylar
geraynı
geraynın
gerbi
gerc
geregi
gerek
geri
german
germany
gerodot
gertsa
gertsogı
ges
getey
getmanı
gewo
gey
geyser
gg
gge
gh
ghost
gi
giaginskaya
giallo
giant
gibi
gidir
gidroagregatlı
gidroelektrik
gif
gigant
giganteus
gil
gilgames
gilo
gimn
gimnasto
gimnaziya
gimnaziyada
gimni
gimnidir
gimnler
gin
ginde
ginden
gine
gini
ginin
ginino
ginskaya
giovanni
giraffa
giray
giraybay
giraybaynın
girdi
girey
girka
girl
girls
girne
girnık
girnıtske
girske
gitara
gitaracı
gitaracısı
gitarası
gitarci
gitler
giuseppe
giz
giza
gize
gizeh
gizlemey
gizlene
gizli
gizliden
gje
gl
gla
glaciar
glacier
glass
glazunovka
glin
glinka
glivitse
global
globalles
globus
globıne
glu
glubokiy
gluhiv
gluhivtsi
glumc
glus
glıboc
glıboka
glına
glınske
gmeli
gminası
gnas
gnativka
gnatovka
gnatpil
gniezno
gnivan
go
goal
god
gods
gog
gogh
gognın
gogolnin
going
gol
gola
gold
golden
golesta
golitsın
golos
golovanivsk
golovası
golovc
golubivka
golubiyevıc
golubtsovo
golıs
gomel
gomera
gon
gonc
gone
gonepteryx
gonohovo
gonorivka
google
gor
gora
gorbac
gorbas
gorbatov
gorc
gordiyivka
gordon
gorges
gorilla
gorka
gorki
gorkiy
gorkiynin
gorkovskoye
gorna
gornaya
gorno
gornostayivka
gornoye
gornozavodsk
gornıy
gorod
gorodenka
gorodets
gorodis
gorodkivka
gorodna
gorodnıtsa
gorodok
gorodovikovsk
gorodıs
gorohiv
gorohovets
goropas
gors
goru
gorı
gorın
gorıs
gos
goshawk
gospel
got
gotiya
gotlar
gottlieb
gov
government
goya
gp
gr
gra
grabarivka
grabovets
grac
grad
graf
grafik
grafikiy
grajdan
grajdanlıq
gran
grand
grande
grandi
granitne
grant
grapsus
gras
grass
grasshopper
grats
graubu
gravitatsiya
gravu
gray
grayvoron
great
greater
greatwall
grebenık
grebinka
grebla
greda
greece
green
greenland
gregori
grekove
grema
gremi
gremmi
gremuc
grenada
grenadinler
grendi
grene
grengen
grenile
grenilgen
grenilmesi
grenip
grenlandiya
grenme
grenmege
grenmek
grenu
gresovskiy
gretici
gretken
gretme
gretmek
gretmesi
gretmesini
gretmesinin
gretti
grettiler
gretu
grey
gribanovskiy
gribovka
gridcolor
gridinskaya
grigoriy
grigoryevka
gripen
gris
griva
grivna
gro
grodno
gromadske
grosstrappe
grosu
group
groznıy
gru
grud
grumman
grup
gruppa
gruppadaki
gruppadan
gruppag
gruppalar
gruppaları
gruppalarına
gruppalarında
gruppanı
gruppanın
gruppası
gruppasıdır
gruppasına
gruppasından
gruppasını
gruppasının
grus
gruzko
grıgorenko
grıgorivka
grıs
gu
gua
guadalajara
guam
guan
guanahuato
guangxi
guard
guba
gubaha
guberniya
guberniyası
guberniyasının
gubino
gubkin
gubnık
gudur
guide
guides
gula
guli
gulkevic
gull
gulnara
gulu
gumanitar
gumennıh
gumerovo
gun
gunc
gupta
gura
guryevsk
gurzuf
gurzufta
gus
gusa
gusar
gusev
gusevka
gusevo
gustav
gustave
guta
gutenberg
gutovo
gutı
guyva
gvardeysk
gvardiya
gvardiyske
gvatemala
gvineya
gvozdavka
gyps
gıda
h
ha
habarovsk
habarı
habarın
habbl
haber
haberi
haberler
haberlerge
haberlernen
haberlernin
haberni
habersiz
hablemitog
hac
hacabadinova
hacci
hacı
hacıtarhan
hadim
hadimi
hadimleri
hadimlerinen
hadimlerinin
hadu
hafen
hafiz
hafuz
hafız
hafıznın
hahlak
hain
hainlik
haiti
hakan
hakk
hakkıdır
hakkında
haklay
hal
hala
halal
halefi
hali
haliaeetus
halife
halifeligi
halifelik
halifesi
halil
halilov
halilovo
halim
halk
hall
halls
hallstatt
halq
halqara
halqlar
halqlarara
halqlarg
halqlarnen
halqlarnın
halqları
halqlarına
halqlarından
halqlarının
halqnı
halqnın
halqqa
halqtır
halqı
halqımız
halqımıznın
halqın
halqına
halqından
halqınen
halqını
halqının
haltern
ham
hamburg
hamilton
hamutc
hamır
hamırdan
han
hana
hand
handan
handın
hane
hanedanı
hanede
haneden
haneler
haneleri
hanesi
hang
hanga
hangi
hangul
hanja
hanlar
hanlarnın
hanları
hanlarına
hanlarının
hanlıg
hanlıq
hanlıqnın
hanlıqqa
hanlıqta
hannı
hannın
hans
hansaray
hansarayda
hansaraynın
hantı
hanum
hanuman
hanı
hanıdır
hanım
hanımdır
hanımnın
hanımvurqun
hanımı
hanın
hanına
hanının
haq
haqan
haqas
hara
harabali
harabe
haraks
harbin
harbor
harbour
hard
hare
hareka
haren
harezm
harezmde
harezmi
harezms
harita
haritacı
haritada
haritası
haritasında
haritonovo
harkiv
harkov
harlovo
harmandir
harovsk
harrison
harry
hart
hartsızk
harukava
has
hasan
hasanovo
hasavyurt
hasht
hasiyetleri
hasselik
hasselikler
hasta
hastahane
hastahanede
hastahanenin
hastahanesi
hastahanesinde
hastahanesine
hastalang
hastalanıp
hastalig
hastalıg
hastalıq
hastalıqlardan
hastalıqtan
hastır
hasın
hat
hata
hatay
hatice
hatir
hatirin
hatirini
hatlarında
hattat
hattı
hatun
hatıra
hatıralar
hatıralarda
hatıraları
hatırası
hatırasına
hatırlay
hauptbahnhof
haus
hausdu
havayi
have
havfsızlıq
havsızlıq
hawaii
hawk
hawkeye
hay
hayal
hayaliy
hayat
hayatı
haybulla
hayc
hayrettin
hayriye
hayto
hayın
hayır
hazar
hazarlar
hazarlarnın
hbir
hbiri
hc
hcm
hdr
he
head
headed
header
heart
heaven
heavy
hecale
hedionda
heide
height
heilig
heiligengrabe
heiliggrabkapelle
hel
hela
helena
helens
heliaca
helianthus
heliconius
helicopter
hell
hellabrunn
helophilus
helsinki
hem
hemerocallis
henin
henry
henryk
henrık
hep
hepsi
her
herbert
herbst
hercegovina
hercules
herengracht
heritage
hero
herodias
heron
hersek
herseknin
herson
hersones
hersonesni
hersonesnin
hersonesos
herzegovina
herzogenburg
hes
hesperia
het
heteractis
heykelleri
heyrus
hh
hi
hic
hicret
hicriy
hidalgo
high
highway
hika
hikmet
hil
hila
hilari
hill
hills
hilok
him
himalaya
himalayalar
himik
himiya
himiyacı
himiyacısı
himiyeviy
himki
hindi
hindice
hindistan
hindu
hippeastrum
hiragana
his
histo
historia
historical
history
hit
hitap
hitit
hitler
hiv
hive
hiy
hiyanet
hiyeti
hizmet
hizmetc
hizmeti
hizmetin
hizmetka
hk
hla
hlamov
hle
hlebnoye
hlebodarovka
hleborob
hlibodarske
hlopunovo
hlıvnu
hmelnitskiy
hmelnıtskıy
hmelo
hmilnık
hms
hning
ho
hobgood
hoc
hoca
hocalı
hocalıg
hocalıq
hochaltar
hodakı
hofgarten
hofkirche
hohlovo
hoholskiy
hokusay
hole
holm
holmogorı
holodnıy
hols
holunitsa
holy
holzer
homann
home
homenkı
hommik
homo
homutovka
hon
honda
honduras
hong
honor
hop
hope
hor
horan
horasan
horaz
horizon
horlug
horluqtan
hornet
horol
horos
horostkiv
horse
hortus
hos
hose
hosta
hot
hotel
hotmıjsk
hotın
hotınets
hour
house
hova
hove
hovo
hovsk
how
hoy
hoza
hp
hpf
hq
hr
hre
hrec
hres
hri
hristian
hristianlar
hristianlarnın
hristianlıq
hristianlıqnın
hristo
hristofor
hrom
hromadske
hromatik
hronologik
hrus
hrustalne
hrustalnıy
hryvnia
hrıstınivka
hs
hsan
hst
hta
htar
htarlar
htelif
htm
html
http
https
hu
huan
huasca
hubble
hucur
hudson
hue
huerta
huesca
hukuk
hulay
human
hummingbird
hun
hunlar
hunlarnın
hunnular
huns
hunting
hur
hurma
hurt
husainovo
hust
hususan
hususiy
hususiyet
hususiyeti
hususiyetler
hususiyetlerden
hususiyetleri
hususiyetlerinden
hususiyetlerine
hususiyetlerini
hususiyetlikler
hususiyettir
hususında
hutir
hutor
hutorı
hvb
hvorosta
hvoynaya
hybrid
hyemalis
hypermnestra
hı
hıdır
hıdırellez
hıdırlez
hının
hırsız
hırvat
hırvatc
hırvatistan
hırvatistannın
hıs
hızlandırıcılarını
hızmet
hızmetc
hızmeti
hızmetinde
hızmetine
hızmetini
hızmetinin
hızmetke
hızmetler
hızmetleri
həyatı
i
ia
iab
iarı
ib
iba
ibadet
ibadethane
ibadethanege
ibadethanesi
ibadethanesidir
ibadethanesinde
ibadethanesinin
iban
ibareler
ibaret
ibarettir
iberek
iberekke
ibex
ibin
ibini
ibinnin
ibis
ibn
ibo
ibranice
ic
icadiy
icadı
icat
icatc
icatka
icatlar
ice
iceland
ici
icra
icracı
icracıları
icracılarının
icrasında
icret
icretc
icreti
icretnin
icriy
id
ida
idan
idare
idareleri
idaresi
idaresinde
idaresindeki
idaresinden
idaresine
idaresini
idaresinin
idariy
iddalas
iddetli
iddia
ide
idea
idel
iden
idi
idir
idlər
idnin
idolmaster
idov
idrovo
idı
ietf
if
ifa
ifade
ifadeledi
ifadelegen
ifadeli
ifadesi
ifadesini
ifaiy
ifalı
ift
iftc
iftles
iftligine
iftlik
ig
igan
igay
ige
igi
igim
iginde
igine
igini
iginin
iglesia
igrı
iguana
igulovo
iha
ihanı
ihinsk
ihinskaya
ihlallerine
ihlallerinen
ihlallerini
ihtila
ihtimalnen
ihtimalı
ihtisas
ihtisasiy
ihtisaslı
ihtiyac
ihtiyacı
ihtiyat
ii
iii
iir
iirden
iiri
iirini
iirinin
iiriy
iiriyet
iiriyeti
iiriyetinin
iirler
iirleri
iirlerin
iirlerinde
iirlerinden
iirlerine
iirlerinen
iirlerini
iirlerinin
iirlerni
iirlernin
iirnin
ijemye
ik
ika
ikago
ikagoda
ikanın
ike
ikey
ikeyevo
iki
ikke
ikler
iklerden
ikleri
iklernin
ikli
iklik
iklikler
iklim
iklimi
ikni
iknin
ikovo
ikte
ikten
iktin
il
ila
ilan
ilar
ilav
ilaw
ilc
ildap
ildi
ildirg
ildə
ile
ilede
ileka
ilengir
iler
ilerde
ilerden
ilerge
ileri
ileride
ilerideki
ileriledi
ilerin
ilerinden
ilerine
ilerinen
ilerinin
ilermen
ilernen
ilerni
ilernin
ilg
ilgen
ilgili
ilham
ili
ilig
iligi
iligimizni
iliginin
ilik
ilikke
ilikni
ilim
ilimdir
ilimge
ilimi
ilimler
ilimlerden
ilimleri
ilimlerinin
ilimnen
ilimni
ilimnin
ilin
ilip
iliq
ilir
ilis
ilk
ilka
ilki
illa
ille
illerge
illik
illinois
illu
illustrated
ilmag
ilmez
ilmi
ilminin
ilmiy
ilovo
ilovskaya
ilse
ilt
ilter
ilu
ilə
im
ima
image
images
imagesize
imal
imalde
imaldeki
imalden
imalge
imalinde
imaline
imaliy
imam
iman
imanovsk
imaye
imayesine
imbay
imbetovo
imda
imdaki
imdan
imdb
imde
imden
imdi
imdige
imdiki
imdilik
imdir
ime
imeni
img
imi
iminde
imini
imis
imiz
imizni
imiznin
imka
imla
imleri
imli
imligi
imlik
imlikler
imliler
immature
imnen
imni
imnin
imova
imovo
imperator
imperatorları
imperatorlıg
imperatorı
imperatric
imperial
imperiya
imperiyası
imperiyasında
imperiyasını
imperiyasının
important
impression
improvizatsiya
imseline
imsk
imtian
imtianlar
imtianlardan
imtianlarnın
imtianları
imza
imzaladı
imzaladılar
imzalag
imzalamag
imzalandı
imzalang
in
ina
inachis
inana
inanacag
inanc
inang
inanin
inanmag
inanmaq
inanmasan
inanmay
inanmaysin
inanıla
inar
inası
inat
inatlig
inatqa
inayetini
inc
incan
incarnata
ince
inceleme
incelemeleri
incelemesi
inceler
inci
incir
inciri
increment
incubator
ind
inda
indagacions
indaki
indan
inde
indeki
indemey
indemeysin
inden
index
indi
india
indian
indiana
indica
indin
indistan
indonesia
indonesian
induistler
induizm
indı
ine
inen
inferno
infinite
info
informacji
informatika
informatikanın
information
ing
ingak
inge
ingen
ingenece
ingeneler
ingenelerdir
ingeneleri
ingenlik
ingiliz
ingilizce
ingl
inglaterra
ingliz
inglizce
ington
inhabitants
ini
inin
ininin
inino
inip
inis
inist
injener
injenersin
inka
inkevic
inkis
inli
inline
inmarsat
inmoy
innenansicht
innenhafen
innenraum
inni
innikovo
innin
ino
inok
inov
inovka
inqila
inqqiyat
ins
insan
insanda
insang
insaniy
insaniyet
insaniyetlik
insaniyetnin
insanlar
insanlarg
insanlarnı
insanlarnın
insanlıq
insanlıqnın
insanlıqqa
insannen
insannı
insannın
inside
insk
inskaya
inskiy
inskoye
instagram
institut
institute
institutı
institutına
institutında
institutını
institutının
intelligence
intensiv
interior
international
internationalnın
internet
internetni
internette
into
introduction
intuitsiyag
invalides
io
ip
ipa
ipc
ipitsıno
iplaq
ipler
iprage
iptidaiy
ipunovo
iq
iqa
iqacag
iqar
iqarg
iqasin
iqayim
iqip
iqlar
iqlarini
iqlarni
iqli
iqmag
iqnen
iqni
iqnin
iqqa
iqtan
iqti
iqtidarı
iqtidarını
iqtilar
iqtim
iqtin
iqtiq
iqtisadiy
iqtisadiyat
iquv
ir
ira
irade
iradesi
irag
iran
iranian
iraq
iraz
irazi
irc
irdi
irdilar
irdiler
irdim
irdin
ire
ireler
irem
irg
irge
irgen
iri
irici
irildi
irile
irilgen
irilip
irilir
irilmesi
irim
irin
irina
irip
iris
irket
irketi
irketinden
irketinin
irkiy
irlas
irma
irmag
irmaq
irmege
irmek
irmiz
irokiy
irokoye
iron
irovo
irq
irs
irsin
iru
is
isa
isaac
isaakovic
isabel
isap
isar
isbat
isbatlag
isbatı
isbn
ischnura
ise
isfaha
isfahan
isi
isidir
isim
isimi
isimleri
isimli
isin
isine
isini
isinin
iskcon
iskeleti
iskoc
isla
island
islandia
islands
islas
islıkc
ismailgaspirali
ismi
iso
ispan
ispanca
israel
israr
iss
isse
issesi
issi
issidir
issn
ist
istan
istanbul
istasyonun
istaya
iste
istedi
istedin
istegen
istegeni
istegenler
istegenleri
istegi
isteginen
istek
istemedi
istemegen
istemegeni
istemek
istemey
istemeysin
istep
ister
istese
istesen
istey
isteyim
isteyler
isteymiz
isteysin
istidadı
istidat
istidatlı
istikla
istila
istimalcılıq
istinat
istiqballi
istisal
istisalcıları
istisalcısı
istismar
istisna
istiy
istlerge
istoozo
istılanın
istıye
isvec
isvic
isyan
isyanı
isə
it
ita
itaat
italia
italian
italic
italie
italy
italyan
italyanca
italyanlar
itc
ite
item
itesin
iti
itibar
itibaren
itibarg
itibarlı
itibarı
itidir
itildi
itile
itilir
itilmez
itim
itinde
itine
itini
itinin
itip
itir
itken
itkenlerini
itler
itlerge
itleri
itlerinde
itlerinden
itlerini
itli
itligi
itmeysin
itni
itnin
itovo
its
itsa
itsinler
itsuwari
itta
itte
itti
ittifaq
ittifaqdas
ittifaqnın
ittim
ittin
ittiru
itunes
iulia
iv
iva
ivan
ivanovo
ive
ivede
iveler
iveleri
ivelerine
ives
ivesi
ivesidir
ivesinde
ivesinden
ivesinin
ivete
ivka
ivtsi
ix
iy
iya
iyada
iyadaki
iyalı
iyanın
iyapper
iyden
iye
iyer
iyerarhik
iyerle
iyerlemege
iyesi
iygi
iyi
iym
iyu
iz
iza
izaat
izar
izci
izciler
izcileri
izda
izdami
izdan
izde
izdeki
izdemi
izden
izdir
izg
izge
izgi
izgiler
izgileri
izgili
izi
izin
izinde
izinden
izine
izinen
izini
izinin
izlep
izler
izleri
izm
izmi
iznen
izni
iznin
j
ja
jabokrıc
jacea
jacques
jaguar
jaipur
jak
jakarta
jalpi
jamala
james
jan
jana
janakpur
jane
janeiro
janeyro
janna
janr
janrlarda
janrları
janrı
janrında
janrının
january
janı
japan
japanese
japon
japonca
japoncada
japonlar
jardi
jas
jasc
jatrophae
javanus
jay
jaya
jazz
jbwr
jda
je
jean
jec
jefferson
jeleznodorojnaya
jeleznodorojnogo
jeleznodorojnoye
jeleznodorojnıy
jeleznogorsk
jem
jemc
jeneva
jerdevka
jerebılivka
jerevtsi
jerez
jerusalem
jes
jesus
jet
jevsk
jewishgen
jews
jezebel
jg
jgsys
ji
jigalovo
jigimont
jilino
jin
jinskiy
jirnovsk
jiy
jizdra
jizn
jlar
jma
jmerınka
jmorskiy
jna
jnoye
jnıy
jo
joan
johannes
john
johnny
jonathan
jones
jordan
joseph
journal
jovkva
jovti
jpeg
jpg
jr
ju
juan
jubatus
juin
jukov
jukovka
jukovo
jukovskiy
july
jumhu
jump
june
junonia
juravli
juravliha
juravlivka
juravlo
juravlınka
jurbıntsi
jurnalist
jurnalisti
jurnalistika
jurnalistler
jurnalında
justify
justin
juvenile
jv
jyauti
jye
jı
jıdac
jılı
jın
jıntsi
jıtomır
jıtta
jıtıntsi
k
ka
kabakovo
kaban
kabansk
kabarı
kabineti
kabinetindeki
kabinetinin
kabo
kabul
kabırg
kac
kadak
kadam
kadar
kadavoor
kadavur
kadir
kados
kadr
kaduy
kadın
kadırovo
kadıy
kaeng
kaf
kafatı
kafedrasında
kafka
kafkanın
kag
kagarlık
kagura
kahovka
kain
kainlık
kaja
kakovo
kakuk
kal
kala
kalabalık
kalac
kalamita
kalanc
kalas
kalasının
kalatayud
kalay
kalc
kaldı
kaldırıp
kale
kalecikkaya
kalendo
kalevala
kalg
kalgan
kalgay
kali
kalidasa
kaliforniya
kaliforniyadaki
kalinin
kalinina
kaliningrad
kalinino
kalininskiy
kalinovka
kalinovskaya
kalinovskiy
kalinsk
kalitva
kalkas
kalligrafiya
kalmakovo
kalmanka
kalmas
kalo
kalos
kalovo
kalovsk
kalsa
kalta
kaltan
kaltay
kaltayevo
kaluga
kalus
kalyon
kalınivka
kalınız
kalıp
kalır
kamayevo
kamboc
kamc
kamen
kamenka
kamennıy
kamensk
kamera
kameralarnı
kamerun
kames
kamin
kampaniya
kampaniyası
kamyana
kamyane
kamyanets
kamyanka
kamyanogirka
kamyanske
kamyanıy
kamıs
kamıza
kan
kanada
kanadalı
kanadanın
kanal
kanalnın
kanalı
kanalında
kanar
kanariya
kanarya
kanava
kanc
kandakovka
kandalaks
kandrı
kanha
kani
kanibek
kaniv
kanji
kanlı
kanlıg
kann
kanna
kannur
kansk
kantata
kantemirovka
kanton
kantonı
kantsela
kantsleri
kanyon
kanyonı
kanıbek
kaohsiung
kap
kapa
kapella
kapellası
kapelle
kapik
kapitan
kapitanivka
kapitannın
kapusta
kapı
kapısı
kapısının
kar
kara
karabag
karabanovo
karabas
karabu
karabulak
karac
karaca
karadag
karadeniz
karagay
karager
karaguj
karahan
karaim
karakaya
karakol
karakul
karakurt
karalac
karamalı
karaman
karamzin
karan
karanayevo
karanbas
karap
karas
karaso
karasuk
karatal
karatay
karayar
karaydı
karazirikovo
kardas
kardinal
kare
kareliya
kareliyade
kareliyadeki
karenina
kargac
kargalı
kargapolye
kargat
kargino
kargopol
karib
karikatura
karimovo
karintiya
karip
karkalı
karkinit
karl
karla
karlivka
karlsrue
karmalu
karmalı
karmanovo
karmasan
karmel
karmen
karmıs
karnataka
karo
karolina
karovo
karpat
karpivka
karpova
karpovka
karpovo
karpılivka
kars
karsı
kart
kartayganda
karte
kartkisa
karttın
kartye
karyavdı
karyer
karyera
karyerası
karyerasını
karımskoye
karıs
kas
kasa
kashan
kasimov
kaspiy
kaspiysk
kaspiyskiy
kastamonu
kastanje
kastellet
kastiliya
kastornoye
kasım
kasına
kasında
kata
katakana
katalanca
katalog
katalogı
kataloniya
kataysk
katedral
kategoriya
kategoriyası
katerınivka
katerınopil
kath
kathmandu
katmandu
katolik
katolikler
katoliklik
katovitse
katowice
katrus
katu
katun
katunskoye
katı
kavak
kavalerları
kavimleri
kavkaz
kavkazda
kavkazdan
kavkaznın
kay
kaya
kayda
kayevo
kaygador
kaylas
kaymas
kaynarca
kayratlı
kaysın
kaytıp
kayupovo
kayır
kaz
kaza
kazac
kazak
kazakhstan
kazaklar
kazan
kazanc
kazandı
kazang
kazanka
kazankovka
kazannın
kazantsevo
kazarma
kazayak
kazna
kaznalı
kazo
kazı
kbas
kbes
kbo
kc
ke
keba
kebap
kebezen
kebir
kec
kece
kecenin
keday
keder
kederli
kedrovıy
kef
kefalet
kefe
kefede
kefedeki
kefeden
kefege
kefeni
kefermarkt
kegıc
keila
keilas
kek
kel
kelareva
keldi
keldiler
keldim
keldin
kele
kelecegi
kelecegini
kelecek
keleceknin
kelecekte
kelecekteki
keledi
kelediler
keleler
kelen
kelermiz
keley
keleyim
kelgen
kelgende
kelgendir
kelgeni
kelgenin
kelgeninen
kelgenini
kelgenler
kelgenlerge
kelgenmen
kelgensin
keli
kelime
kelin
kelins
kelip
kelir
keliri
kelirim
kelirsin
kelis
kelmedi
kelmedin
kelmege
kelmegen
kelmek
kelmekte
kelmentsi
kelmes
kelmesi
kelmey
kelmez
kelmezden
kelpeden
kels
kelse
kelsene
keltirdik
kelu
kem
kemal
kemalına
keman
kemane
kembric
kemelc
kemer
kemeri
kemerler
kemeron
kemerovo
kemigi
kemik
kemikleri
kemligi
kemlik
kemmel
kemmelles
ken
kenan
kenar
kenarlarnı
kenarlarını
kenarı
kenarında
kenarından
kenassa
kencaliyevanın
kence
kenceler
kend
kende
kenden
kendi
kendin
kendir
kendirler
kendisi
kene
kenegez
kengen
keni
kenimni
kenin
keninden
kenine
keninen
kenini
kenis
keniya
kenler
kenleri
kennedi
kensin
kent
kenterberi
kentke
kentte
kentteki
ker
kerala
keramik
kerc
kerdi
kere
kereden
keregi
kerek
kerekler
kerekli
kerekmey
kerekmiz
kereksin
kerektir
kereler
kereste
kerge
kergin
kerginles
keri
keric
kerim
kerimcanov
kerkold
kerleut
kerlevu
kermen
kermenc
kermenden
kermeni
kermeninin
kermennin
keru
kervan
kes
kese
kesegi
kesek
kesekli
kesen
keser
kesici
kesildi
kesile
kesilgen
kesilip
kesin
kesip
kesis
kesizlik
kesizlikni
kesizliknin
keske
kesken
keskin
kesnen
kesnin
kesti
kesu
ket
kete
ketecek
keteceksin
ketedi
ketediler
keteler
ketem
ketemen
keten
keter
keterim
ketermiz
ketersin
ketesin
keteyim
ketgen
ketilgen
ketin
ketip
ketirdi
ketirdiler
ketirdim
ketirdin
ketire
ketirecek
ketireler
ketirgen
ketirildi
ketirile
ketirilgen
ketirilip
ketirilmey
ketirip
ketirme
ketirmege
ketirmek
ketiru
ketis
ketiyim
ketken
ketkende
ketkenini
ketkenler
ketkensin
ketmedi
ketmege
ketmek
ketmekte
ketmen
ketmes
ketmesine
ketmesini
ketmez
ketpes
ketsem
ketsen
ketsin
ketti
kettikc
kettiler
kettim
kettin
ketu
ketyatırg
kevde
kevdesi
kew
key
keyevo
keyf
keyfin
keyfiyeti
keyfiyetli
kez
kezintiler
kezip
kezlev
kezlevde
kezlevden
kezlevge
kg
khagani
khamovniki
khan
khmer
khv
ki
kiber
kibernetika
kiberpank
kibi
kibileri
kic
kid
kiel
kiev
kigi
kihot
kikineiz
kiknur
kil
kila
kildino
kilemarı
kiler
kilerde
kilerni
kiliy
kiliya
kilmez
kilo
kilometr
kilometrden
kilometrlik
kilovatt
kilse
kilsede
kilseni
kilsenin
kilsesi
kilsesinde
kilsesindeki
kilsesinden
kilsesinin
kim
kimdir
kimer
kimerde
kimge
kimi
kimin
kimisi
kimler
kimligini
kimlik
kimmer
kimmerikos
kimmerler
kimnen
kimnin
kimse
kimsege
kimseni
kimsesiz
kimsin
kin
kina
kinayeli
kinaz
kinazlıg
kind
kinde
kinden
kindrativka
kine
kinematograf
kines
king
kingdom
kingfisher
kingisepp
kingleyk
kini
kinles
kinni
kinnin
kino
kinovo
kins
kinskiy
kinza
kip
kipc
kir
kira
kiralıq
kiraz
kirche
kirchspiel
kirdi
kirdiler
kirdim
kire
kirec
kirecek
kireler
kirensk
kirer
kirermen
kirey
kireyim
kirgen
kirgende
kiribati
kirik
kiril
kirillov
kirillovka
kirim
kirin
kirip
kiris
kirjac
kirligi
kirmans
kirmege
kirmegen
kirmek
kirmey
kirov
kirovo
kirovograd
kirovsk
kirovskiy
kirovskoye
kirpic
kirs
kirsete
kirsetildi
kirsetilgen
kirsetilu
kirsetip
kirsetken
kirsetti
kirsetu
kirskaya
kiru
kis
kiselo
kisi
kiska
kisnıtsa
kistenli
kitabin
kitabiyat
kitabı
kitabına
kitabında
kitabından
kitabını
kitabının
kitap
kitapc
kitaphane
kitaphanesi
kitaphanesinde
kitaphanesinin
kitaplar
kitaplarnı
kitaplarnın
kitapları
kitapların
kitaplarında
kitaplarından
kitaplarını
kitapnı
kitapnın
kitapqa
kitapta
kitaptan
kito
kitsa
kitsman
kitts
kiv
kivertsi
kivka
kivska
kivske
kivtsi
kiy
kiye
kiyes
kiyev
kiyevde
kiyevdeki
kiyeyim
kiygen
kiygeni
kiyik
kiyim
kiyinip
kiyip
kiymege
kiyomizu
kizel
kizilovoye
kja
kke
kken
kko
kla
klara
klarnet
klassik
klassitsizm
klavdiy
kle
kledi
kleer
kleiner
klemek
klep
kler
klerden
klerge
kleri
klerinde
klerine
klerini
klerinin
klernen
klerni
klernin
kletna
klevan
kli
kligi
klik
klikleri
klikte
klim
kliment
klimi
klimovka
klimovo
klimovskaya
klin
klinovka
klinton
klintsı
klip
klo
kloc
klod
kloster
klosterkirche
klu
klubları
klubu
klubunda
klubundan
klubunın
klymenko
km
kmege
kmes
kmi
kmita
kmytiv
kna
knen
kni
knin
knock
know
ko
kob
koba
kobela
kobyl
kobzar
kobılın
koc
kod
koda
kodeks
kodlarnın
kodra
kodu
kodıma
kohanivka
kohma
koimbra
kojanka
kojay
kojuhivka
kok
koka
kokluz
kokos
koks
koksa
kol
kola
kolc
kolg
kolga
kollaboratsionist
kollec
kolleci
kollecinde
kollektiv
kolnoye
koloda
kolodez
kologriv
kolokol
kolomak
kolombiya
kolomenskoye
kolomna
kolomıya
kolorado
kolos
kolosivka
kolpna
koltsovo
kolumb
kolumbiya
kolumbiyası
kolumbnın
kolın
kolıs
kolıvan
komandanlıg
komandanı
komandiri
komargorod
komaric
komariha
komarivka
komarno
komarovka
komarovo
komediya
komi
komiks
komintern
komissarları
komissarlıg
komissarlıq
komissarı
komissiya
komissiyag
komissiyası
komissiyasının
komitesi
komitet
komiteti
komitetine
komitetini
komitetinin
komitetler
komitetnin
kommuna
kommunar
kommunist
kommunistik
kommunizm
komodo
komorlar
kompaniyivka
kompleksi
kompleksı
kompyuter
kompyuterler
kompyuterlernen
kompyuterlernin
kompyuternen
kompyuterni
kompyuternin
kompyutert
komsomol
komsomolsk
komsomolskiy
komsomolskoe
komsomolskoye
komsu
komu
komıs
kon
konak
kondakovka
kondopoga
kondratovskaya
konetsgorye
konfederat
konfederatsiyası
konferentsiya
konferentsiyada
konferentsiyag
konferentsiyalar
konferentsiyası
konferentsiyasında
kong
kongo
kongress
kongressi
kongressinde
kongressinin
kono
konopla
konoplo
konos
konotop
konrad
konserva
konskovola
konsol
konstantin
konstantinogradovka
konstantinopolis
konstantinov
konstantinovka
konstantinovo
konstruktsiya
konsul
kontakt
konte
kontinental
kontrolindeki
kontsert
kontserti
kontsertini
kontsertke
kontsertler
kontsertnin
kontsertte
konu
konurbatsiyası
konus
konya
konıs
koordinatsiyasını
kop
kopani
kopaygorod
kopenhagen
kopiyivka
kopiyok
kopuk
kopıs
kor
kora
korbala
korbu
korc
kordon
kordıs
kore
korea
korean
koreatimes
koreiz
korenevo
korenovsk
korets
koreya
koreyaca
koreyada
koreyalı
koreyanın
korfu
koridor
korjivka
korlık
kormiha
kormilovka
korneyevka
kornın
korobeynikovo
koroc
korolivka
korolo
koronavirus
korop
koropets
koros
korosteli
korosten
korostivtsi
korostıs
korovino
korovıntsi
korporatsiyalar
korpusta
korpusı
kors
korsakov
korsika
korsun
kortes
koru
korziha
kos
kosa
kosciol
kosiha
kosiv
kosivka
kosmik
kosmos
kosovo
kosta
kostenko
kostino
kostomuks
kostopil
kostroma
kostu
kosı
kot
kotelna
kotelniki
kotelnikovo
kotelva
kotivka
kotla
kotlas
kotor
kotovo
kotsu
kotu
kov
kovalev
kovali
kovalivka
kovalo
kovardı
kovdor
kove
kovel
kovernino
kovetska
kovil
kovka
kovo
kovrov
kovs
kovskaya
kovskiy
kovu
kovıc
kovılkino
koza
kozac
kozak
kozatske
kozelets
kozels
kozelsk
kozinka
kozino
kozliv
kozlivka
kozlovka
kozmodemyansk
kozova
kozulka
kozyntsi
kozın
kozıntsi
kr
kra
krachan
krakov
kral
kramatorsk
kran
krapivinskiy
krasa
krasilovo
kraskovskaya
krasna
krasnaya
krasne
krasnoarmeysk
krasnoarmeyskaya
krasnoarmeyskiy
krasnoborsk
krasnobrodskiy
krasnodar
krasnodubrovskiy
krasnogirka
krasnogorsk
krasnogorskiy
krasnogorskoye
krasnograd
krasnogvardeyskoye
krasnokama
krasnokamensk
krasnokamsk
krasnokutsk
krasnookta
krasnopavlivka
krasnoperekopsk
krasnopil
krasnopilla
krasnos
krasnosilka
krasnoslobodsk
krasnovis
krasnovka
krasnoyar
krasnoyarka
krasnoyarovo
krasnoyarsk
krasnoyarskoye
krasnoye
krasnoznamenka
krasnoznamensk
krasnozo
krasnıy
krasnıye
krasıliv
krasılivka
kravc
kraystc
kre
kredit
krekten
kremenc
kremenets
kreminna
kreml
kremli
kremlin
krepost
kres
kresttsı
kretov
kreuz
kreuzgang
krinic
kris
krishna
kristalları
kristallik
kristallı
kristian
kristof
kristofer
kro
krolevets
krominskaya
kromı
kropotkin
kropıvna
kropıvnıtskıy
kru
kruger
krugloye
kruiz
krus
krutiha
krutinka
krutoy
krym
krymr
krıc
krıjanivka
krıjopil
krılivka
krılovka
krım
krıma
krımsk
krımskaya
krımskiy
krımskiynin
krınıc
krınıtsa
krıs
krıve
krıvos
krıvotın
krıvıy
ks
ksaverivka
ksek
ksekc
ksekli
ksekligi
ksekliginde
ksekligindeki
ksekliginden
kseklik
kseklikte
ksektir
ksel
kseldi
kselip
kselis
kseltu
ksemburg
ksiz
kstovo
ksu
kt
ktay
kte
kten
ktes
kti
ktir
kto
ktu
ku
kuak
kuala
kub
kuba
kubanka
kubanın
kubovo
kuc
kudas
kudrino
kudımkar
kuganak
kugarc
kuhna
kujener
kuk
kukavka
kuknın
kukus
kul
kulak
kulebaki
kules
kulic
kuliga
kulikovo
kulis
kulna
kuloy
kultura
kulunda
kulus
kulıkivka
kulıns
kuman
kumanlar
kumo
kumovo
kun
kunakbayevo
kundra
kungur
kunkas
kupc
kupino
kuptsov
kupyansk
kura
kuragino
kuras
kurat
kurayevo
kurc
kurdi
kurdu
kurgan
kurganinsk
kurgannoye
kurgas
kurmanayevo
kurmaza
kurne
kuro
kurort
kurortnoye
kurortı
kurosava
kurovo
kurs
kursk
kursları
kursqa
kursta
kursu
kurtamıs
kurtka
kurtulus
kuruldu
kurulus
kurumu
kurus
kuruv
kuruvka
kurya
kurılivka
kurılivtsi
kus
kuscetbez
kuskarovo
kut
kutok
kutub
kutus
kutuzov
kutıs
kuvakino
kuvana
kuvandık
kuvanıp
kuyalnık
kuyanovo
kuyavlar
kuybıs
kuytun
kuyu
kuyuk
kuza
kuzey
kuzeyevo
kuzma
kuzmanın
kuzmenko
kuzmenkonın
kuzminka
kuzminovka
kuzminskaya
kuzmıntsi
kuznec
kuznetsk
kuznetskiy
kuznetsovka
kuznetsovo
kuznetsovskaya
kuznetsovskiy
kvadrat
kvadratik
kvant
kvartet
kvebek
kventin
kvitka
kvitneve
kyiv
kyivde
kyivdeki
kyoto
kyrbasy
kyrenia
kyu
kı
kıdırıp
kıl
kılıc
kılıs
kınalı
kır
kırdan
kıriyivka
kırk
kırnasivka
kırs
kırıkkale
kırılivka
kırım
kırımda
kırımlı
kıs
kıtaygorod
kıtmanovo
kıyanka
kıyiv
kıyivde
kıyivnin
kız
kızdı
kızil
kızkardas
kızı
kızıl
kızıla
l
la
laach
labinsk
laboratory
lac
lacerta
laddu
laddular
ladi
ladies
ladilar
ladim
ladimi
ladin
ladiq
ladus
lady
ladı
ladıjın
ladılar
ladım
ladın
laf
laflar
lag
laga
lagan
lager
lageri
lagerinde
lagerine
lagerlerge
lagerlerine
lago
lagoon
laguna
lahdenpohya
lahemaa
lahta
lahı
lake
lakin
lale
lam
lama
lamadi
lamag
lamanın
lamaq
lamaqta
laması
lamasına
lamay
lamaz
lambat
lambis
lamborghini
lamda
lamlar
lamları
lamlarından
lampa
lampası
lamprotornis
lamı
lamına
lamında
lamının
lamıs
lan
lana
lanata
lanc
land
landeh
landi
landing
lands
landscape
landschaftspark
landshut
landı
landılar
lang
language
languages
lanip
lanivtsi
lanka
lanma
lanmaq
lanmaz
lanmazdan
lanskiy
lantı
lantılar
lanuv
lanuvı
lanzarote
lanı
lanıp
lanır
laon
laos
lap
laptev
laqırdı
lar
larda
lardan
lardır
larg
large
lari
larim
larimdan
larimni
larimnin
larin
larina
larinda
larindan
larinen
larini
larinin
larix
larnen
larni
larnin
larnı
larnın
larus
ları
larıdır
larım
larımız
larımıznı
ların
larına
larında
larından
larınen
larını
larının
las
lasa
lasam
lasan
lasiodora
lasın
lat
lata
latacaq
late
latin
latince
latip
latmag
latmaq
latn
latqan
lattı
latviya
latıla
latılg
latınlar
latıp
latır
launch
laureatı
laureatıdır
lav
lava
lavanda
lavini
lavrentiy
lavrivka
lavuq
lavı
law
lay
laya
layan
laycaq
layim
laylar
laymız
laysin
layım
layıs
laz
lazarevka
laziz
lazurnoye
lbav
lbe
lber
lbs
lbu
lc
lcemil
lde
ldedi
lden
ldes
ldi
ldik
ldiler
ldim
ldu
le
leaf
learn
leba
lebeda
lebedivka
lebedın
lecek
leddin
leden
ledi
lediler
ledim
left
legen
legend
legende
legenini
leh
lehc
lehistan
lehistanda
lehistandaki
lehistang
lehistanlı
lehistannın
lehistanın
leibniz
lejnevo
lek
lekandı
leksiy
lektsiyalar
leler
lelernin
lem
lema
lemde
leme
lemege
lemegen
lemek
lemekte
lemes
lemesi
lemezı
lemi
lemindeki
lemli
lemo
len
lena
lenara
lenbach
lendi
lendirmek
lengen
lenin
leninabad
leninciler
leningrad
lenino
leninsk
leninskiy
leninskoye
lenip
lenk
lenmekte
lenmesi
lennaya
lennıy
lent
lenu
leo
leon
leonardo
leone
leonid
leonidovka
leonivka
leonovskaya
leopard
leopold
leova
lep
lepetıha
leptosia
leptotes
ler
lerc
lerce
lerde
lerden
lerge
leri
lerim
lerimiz
lerin
lerinde
lerinden
lerine
lerinen
lerini
lerinin
lerler
lernen
lerni
lernin
lersin
les
lesa
leshoz
lesi
lesinden
lesinin
lesko
lesli
lesnic
lesnoy
lesnoye
lesogorsk
lesosibirsk
lesoto
lesser
let
letildi
letile
letilgen
letken
letmege
leto
letsk
letu
letıc
leucocephalus
leus
lev
level
levha
levhada
levi
levitska
levitskiy
levkiv
levıy
ley
leyatqan
leyha
leyhalar
leyhalarnın
leyhaları
leyhanın
leyhası
leyhasına
leyhasını
leyhasının
leyim
leyk
leyla
leyler
leyman
leymaniye
leyptsig
leysin
leyzer
lez
lezetli
lg
lgbt
lge
lgede
lgeler
lgelerde
lgeleri
lgelerinde
lgelik
lgen
lgence
lgende
lgendir
lgeni
lgenin
lgenine
lgenini
lgenler
lgensin
lgeri
lgernin
lgesi
lgesinda
lgesinde
lgesindeki
lgesine
lgesinin
lgesinın
lgov
lgovskoye
lhamid
lhan
lhanlı
lhaym
li
libellula
liberal
liberiya
libiya
libiyanın
library
lic
lica
lichen
lider
lideri
lideridir
liderleri
lidivka
life
lift
lig
liga
light
lighthouse
lights
ligi
liginde
ligini
lihtens
lik
like
likke
liknin
likovo
likte
lila
lilar
lilit
lilium
lill
lim
lima
liman
limani
limanları
limannoye
limanı
limanına
limanında
limanının
limena
limler
limsk
lin
lincoln
linda
linde
linden
line
lineda
linegrey
lineynoye
link
linka
linnaeus
lino
linskiy
lion
lions
lip
lipa
lipetsk
lipka
lipovka
lipovskoye
liq
liqlas
lir
lirası
lirik
lis
lisa
lisaniyat
lisaniyatnın
lisans
lise
lisin
lisitsa
lisivs
liski
liskı
lisna
lisne
lisnıc
lisova
lisove
lissabon
list
listan
listva
listvennoye
lisıluv
literatura
literature
lithuania
litkı
litografiyası
litoria
litseyni
little
litvanca
litvaniya
litvaniyanın
litın
livadiya
live
livejournal
lives
livida
living
livnı
lix
liya
liyetli
liza
lk
lka
lke
lkede
lkege
lkeler
lkeleri
lkelerinden
lkelernin
lken
lkenin
lkenında
lkes
lkesi
lkesidir
lkesinde
lkesindeki
lkesinın
lki
lkin
lkino
lkiyet
lkovo
lku
ll
lla
llah
llegenda
ller
llerde
llerden
llerge
lleri
llerin
llerinde
llerinin
llerni
lli
llibres
llic
llinka
llinoys
llintsi
lloyd
llu
lman
lme
lmedi
lmege
lmegen
lmek
lmekc
lmekte
lmemmedov
lmen
lmener
lmesi
lmey
lmez
lmi
lmiy
lmiye
ln
lnara
lni
lnin
lo
lobez
lobna
lobos
lobovo
loc
local
locatie
location
loch
lockheed
locomotive
lodeynoye
lodo
lofoten
log
loginovskaya
logo
loh
lohvıtsa
loire
lok
lokac
lokot
lombardiya
lomond
lomonosov
lomonosovo
lomov
lomuvatka
london
londonda
londondaki
londra
londres
lonely
long
looking
lopan
lopatın
lopatınka
lopatıntsi
lopes
lopesan
lopez
lord
loro
los
losiha
losino
lotos
lotterie
louhi
louis
louvre
lov
love
lovelace
lover
lovka
lovla
low
lower
loxodonta
loxura
loye
lozova
lozove
lozovoye
lp
lr
ls
lse
lsin
lt
ltd
ltesi
lticos
ltirdik
ltirgen
lto
ltu
lu
luar
luba
lublin
lubnı
luc
luca
ludovicianus
ludwig
ludır
lug
luga
lugansk
luganska
luganskoye
luginı
lugova
lugove
lugovoye
luh
luhovitsı
lui
luis
lujitsa
lujok
luk
luka
lukas
lukino
lukinskaya
lukiv
lukoyanov
lular
lum
lumpur
lun
luna
lundan
lunen
lunino
lunın
luq
lus
lusiya
lutea
lutsk
lutugıne
luvr
luxembourg
luza
luzonicum
lvi
lviv
lvm
lya
lyas
lyic
lyinka
lyinovka
lyinskiy
lyinskoye
lynx
lypchany
lypovets
lypovetskyi
lyriothemis
lı
lıca
lıdır
lıg
lık
lıkul
lılar
lılıg
lılıq
lıman
lımanske
lıntsi
lının
lıpivka
lıpla
lıpova
lıpovets
lıq
lıqları
lıqlas
lıqlı
lıqnı
lıqnın
lıqtan
lıs
lısa
lısiyivka
lıskovo
lısogirka
lısva
lıtamak
lıtarla
lıtkarino
lıy
m
ma
maalde
maalle
maallede
maallesi
maallesinde
maallesinin
maalliy
maarif
maarifc
maas
mabedi
mabet
mabu
mac
macaca
macao
macar
macarca
macaristan
macaristannın
macarlar
macarlarnın
macedonia
maceralar
machaon
machine
machu
macılar
mada
madagaskar
madan
madde
maddeler
maddelerinden
maddesi
maddiy
made
maden
madencilik
madeniy
madennin
madhya
madi
madiq
madonna
madrid
madı
mae
maestre
mag
maga
magadan
magas
magazine
magdagac
magdalınivka
magellan
magical
magilo
magna
magnifica
magnirostris
magnus
magyar
maha
mahac
mahadev
mahal
mahallesi
mahalnın
maharıntsi
mahatma
mahfuz
mahkeme
mahkemesi
mahkemesinin
mahku
mahlu
mahmud
mahmut
mahmutovo
mahnivka
mahnıları
mahrem
mahsulat
mahsulatlarını
mahsullar
mahsulları
mahsullarını
mahsulı
mahsulını
mahsulının
mahsus
mahuldu
mai
maiden
main
maine
mais
maiyeti
maiyetine
majar
major
mak
makan
makariv
makarora
makarovka
makarovo
makarovskaya
makaryev
makaryevka
makau
makedon
makedonca
makedoniya
makedoniyanın
makeme
makemege
makemesi
makemesine
makemesinin
makemesiz
makgadikgadi
making
makiyivka
makovka
makovo
maks
maksim
maksimal
maksimovka
maksimovo
maksimovskaya
maksu
maktanma
maku
makus
makı
mal
mala
malachite
maladzec
maladı
malahovo
malar
malardan
malarg
malarnın
maları
malarına
malarında
malarını
malarının
malavi
malay
malaya
malayziya
malbork
malc
malcan
maldan
malden
maldivler
male
malernin
malgobek
mali
malik
malikligi
maliktir
malinin
malinovka
malinovoye
malinovskiy
maliye
maliyeviy
mall
mallar
mallard
mallarnın
malları
mallarını
mallnitz
mallorca
malmıj
malo
maloarhangelsk
malos
maloyaroslavets
maloye
malta
malu
malı
malıdır
malım
malın
malınivka
malıs
malıy
malıye
mam
mama
mamas
mamay
mambet
mambets
mamonovo
mamontova
mamontovo
mams
mamut
mamıs
man
mana
manac
manada
management
manalarnı
manali
manalı
manastır
manastırnın
manastırı
manastırında
manastırının
manası
manasına
manasında
manasınen
manasını
manasının
manasız
manat
manatı
manay
manc
mancha
mancur
mandalac
mandarin
mandelbrot
mandinga
mandir
mane
maneken
manevi
maneviy
manevıc
mang
mangulovo
mangup
mangus
manhattan
manhetten
mani
mania
manialarnen
manim
manisa
maniy
mankaliya
mankivka
manlar
manları
manlıq
mann
mannheim
mannın
manon
manov
manovo
mans
mansi
mansiysk
mansur
mansız
mantar
mantarı
mantis
mantra
mantrası
manturovo
mantıq
mantıqiy
manyara
manzara
manzarası
manı
manın
mao
map
mapa
maplandia
maps
maq
maqale
maqalede
maqaleler
maqalelerden
maqaleleri
maqalelerini
maqalelerinin
maqalelernen
maqaleni
maqalenin
maqalesi
maqalesine
maqalesini
maqam
maqnı
maqsadı
maqsadına
maqsadında
maqsadınen
maqsat
maqsatlarnı
maqsatnı
maqsatqa
maqsud
maqta
maqtadır
maqtalar
maqtanma
maqtav
mar
mara
maraliha
maralnik
maras
marazliyivka
marble
marc
marcel
march
marco
marcos
mardarivka
mardin
mare
marg
marganets
margaret
margarita
margin
mari
maria
marie
mariel
mariinsk
marina
marine
marino
maritime
mariupol
mariy
mariya
mark
marka
markalı
marke
market
markevic
markivka
marko
markos
markova
markovo
markus
marlen
marmara
marmolada
marmoratus
marruecos
mars
marsalis
marsel
marsz
mart
marta
martagon
martin
martinnın
martnin
martnın
martsiyanove
martta
martınivka
martınovo
marum
marus
maryanivka
maryanovka
maryatın
maryevka
maryinka
maryino
marınivka
mas
masa
masal
masallar
masalları
masallı
masalnı
masalı
masaq
masası
mask
maskara
maskarad
maskası
masla
maslenitsa
maspalomas
masraf
massac
massandra
massivi
ması
masıdır
masına
masında
masından
masını
masının
mat
mata
matanuska
matbaa
matbaasında
matbuat
matbuatta
matbuatında
matc
match
matem
matematik
matematika
material
materiallar
mathbb
mating
matiss
matlar
matlarg
matnen
matnı
matnın
matnının
matqa
matros
matrosovka
mattan
matter
matu
matura
matveyevka
matı
matına
maunt
mauritius
mausoleo
mavi
mavlu
mavı
max
maxima
maximus
may
maya
mayac
mayak
mayakı
mayaq
maydan
maygas
mayim
mayis
mayka
maykl
maykop
mayma
mayn
maynts
mayor
mays
maysk
mayskiy
mayskoye
maytapar
mayı
mayından
mayıs
mayısnin
mayısnın
mayıstan
maz
mazanka
mazanovo
mazoviya
mazun
mazurivka
mbelek
mbu
mc
mcculloch
mcdonnell
mda
mdan
mdar
mdarlarnın
mdarları
mdarı
mde
mdeki
mden
mdi
mdu
me
meadow
mebus
mec
mecaziy
mecbur
mecburiy
mecburiyet
mecburiyetini
mechanism
mecidiye
mecidli
meclis
meclisi
meclisinde
meclisinin
mecliske
meclisnin
mecmua
mecmuada
mecmualar
mecmualarda
mecmualarında
mecmuanı
mecmuanın
mecmuası
mecmuasında
mecmuasından
mecmuasını
mecmuasının
mecu
medal
medalini
meden
medeniy
medeniye
medeniyet
medeniyeti
medeniyetinden
medeniyetine
medeniyetini
medeniyetinin
medeniyetke
medeniyetleri
medeniyetli
medeniyetnen
medeniyetni
medeniyetnin
medeniyets
medet
medi
media
mediawiki
medieval
medim
medin
medine
mediyev
mediyevnin
mednogorsk
medrese
medresede
medresege
medreseni
medresenin
medresesinde
medvedevka
medvedevo
medvedevskaya
medvedivka
medvejyegorsk
medvenka
medın
meerkat
mefku
mege
megen
mehanik
mehanikiy
mehanizmi
mehiko
mehmed
mehmet
meinov
mejdurec
mejgorye
mejova
mejıric
mek
meka
mekan
mekanidir
mekeyevo
mekke
mekkede
mekkege
meklenburg
mekni
meksika
meksikada
meksikanın
mekte
mektebi
mektebinde
mektebinden
mektebine
mektebini
mektebinin
mekteler
mektep
mektepke
mektepler
mekteplerde
mektepleri
mekteplerinde
mekteplerinin
mektepni
mektepnin
mektepte
mektepten
mektu
mektup
mektuplar
melampus
melanerpes
melas
meleagris
melehovo
melek
melenki
meler
melerden
melerge
meleri
melerini
melernin
meles
melevs
melevu
meli
melik
melitopol
melk
melker
mellifera
melnıkı
mem
memeli
memeliler
memet
memetov
memleket
memleketi
memleketidir
memleketin
memleketinde
memleketine
memleketini
memleketinin
memleketke
memleketler
memleketlerara
memleketlerarası
memleketlerde
memleketlerdeki
memleketlerden
memleketlerge
memleketleri
memleketlerinde
memleketlerinden
memleketlerini
memleketlerinin
memleketlernen
memleketlernin
memleketni
memleketnin
memlekette
memleketten
memlekettir
memlu
memnu
memorial
memorialı
memu
memur
memuriy
memuriyet
memuriyeti
memuriyetinin
memurı
men
mena
menba
menbalar
menbalarda
menbalarg
menbalarında
menbalarından
menbası
menbasıdır
menda
mendeleyevo
menden
mendirmen
meneuz
menfaat
menfaatına
menfaatını
menfiy
mengu
meni
menim
menin
menjevets
menk
menli
menlik
menlisılu
menlisıluv
menmen
mennan
mens
mensu
mentel
mentsevo
mer
mera
merag
meramet
meraq
meraqlandirg
meraqlandırg
meraqlang
meraqlanmag
meraqlı
meraqlıdır
meraqlısı
meraqnen
merasim
merasimi
merc
mercan
mercedes
mercury
merden
merdiven
merdiveni
merdivenler
merfeld
merhamet
meri
merih
merkel
merkez
merkezge
merkezi
merkezidir
merkezinde
merkezinden
merkezine
merkezinin
merkeziy
merkezleri
merkezlerinden
merkezlerinin
merkit
merkuri
mermer
mermerden
mernin
merops
merov
mersin
mert
mertav
merum
meryem
meryemnin
mes
mesa
mesafe
mesafede
mesciti
mese
mesela
mesele
meselede
meseleler
meselelerde
meselelerge
meseleleri
meselelerinen
meselelerini
meselelerinin
meselelerinnen
meselelernen
meselelerni
meselelernin
meseleni
meselesi
meselesine
meselesini
mesi
mesih
mesin
mesinde
mesinden
mesine
mesinen
mesini
mesinin
mesit
mesken
mesku
mesleat
mesleatc
meslekdes
mesopotamiya
messa
messenger
messier
mesu
met
meta
metal
meteli
meteora
metga
meti
metin
metinde
metinden
metinen
metini
metinin
metinler
metinlerde
metinleri
metinlerini
metinlerni
metinli
metinnin
metke
metler
metleri
metni
metnin
metovo
metr
metrden
metrdir
metrge
metrlik
metro
metropol
metropolitan
metsenat
mette
mevamlarına
mevcu
mevcut
mevcuttır
mevla
mevlu
mevsim
mevsimde
mevsimi
mevta
mevzu
mevzuda
mevzular
mevzularda
mevzularg
mevzularnı
mevzuları
mevzularına
mevzularınen
mevzularını
mevzulı
mevzusı
mevzusına
mevzusında
mexico
mey
meycek
meydan
meydana
meydanc
meydang
meydanlıg
meydanlıq
meydanı
meydanında
meydanındaki
meydanını
meyil
meyilleri
meysin
meyva
meyvaları
meyvası
mez
mezar
mezarda
mezarlıg
mezarlıqta
mezarı
mezarını
mezen
mezhep
mezhepleri
mezku
mezquita
mezun
mg
mge
mglin
mhnt
mi
miaoli
mic
michael
microlophus
microsoft
middle
midi
mifologiya
mig
migel
miguel
mihael
mihail
mihaylov
mihaylovic
mihaylovka
mihaylovskaya
mihaylovskiy
mihaylovskoye
miheyevskaya
mijgirya
mika
mikelancelo
mikhail
mikroneziya
mil
mila
milan
miles
milet
miliaris
milimetr
military
militsiya
milky
mill
millet
milletc
milleti
milletimin
milletimiznin
milletimnin
milletinin
milletke
milletler
milletlerara
milletlerarası
milletlerde
milletlerge
milletlernin
milletli
milletnin
milletvekiliyken
milli
milliard
milliarddan
milliardg
million
milliondan
milliong
milliy
milliyet
milliyetc
milos
milove
milyon
mimar
mimarcılıq
mimariy
mimarlar
mimarlıg
mimarlıq
mimarı
min
mina
minare
minaresi
minav
mind
minda
mindan
minde
minden
minder
mindim
mine
minen
mineral
minerallar
mingen
mingende
minh
mini
miniatu
minih
minihnin
minin
minip
minmege
mino
minor
minsk
minus
minusinsk
miqdar
miqdarda
miqdarı
miqdarını
miqyasında
mir
miranda
miras
mirasc
mirası
mireyev
mirnoye
mirnıy
mironovka
mirounga
mis
misal
misalde
misali
misalidir
misalinde
misaller
misallerge
misallerine
misapir
misapiri
miscanti
mishor
misk
miskin
misli
miss
missing
mission
missisipi
mississippiensis
mist
misto
misumena
mit
mite
miting
mitingi
mitinskaya
mitridat
mitrofanovka
mitte
mitterbach
mitu
miy
miyeke
miyi
miyig
miyine
miynin
miz
miza
mizahiy
mizde
mizdeki
mizge
mizni
miznin
mk
mkin
mkinnin
mku
ml
mlas
mle
mleden
mler
mleri
mlerini
mlesi
mlesini
mli
mligi
mlik
mlikler
mlikleri
mliklernin
mliknin
mln
mlrd
mlıniv
mlınok
mm
mmege
mmi
mnen
mnhn
mni
mnin
mnoye
mnı
mnın
mo
mobil
mobile
moc
mod
modası
mode
model
modeli
modelini
modeller
modellerge
modellerini
modellerni
modelles
modern
mog
mogilo
mogoc
mogoy
mogoytuy
mogıliv
mohandas
mohovoye
mojarı
mojaysk
mojga
mokla
moks
mol
moldav
moldova
moldovada
moldovanın
molitskiy
moll
molla
mollalar
mollası
mollu
moloc
molodijne
molodo
molot
molotov
molyer
mon
mona
monako
monarch
monarh
monarhiya
monarhiyadan
monarhiyası
monarhı
monasterio
monastery
monastırskaya
monastırıs
monastırıska
monatov
monbelyar
monblan
monc
monde
money
mong
mongol
mongolian
monitor
monkey
mono
monreal
monro
montaj
montana
montanay
monte
montenegro
monto
montreal
montsoreau
montuenga
monument
moon
mor
moranc
morange
moraviya
mordoviyadeki
mordoviyande
mordoviyanın
more
morfolojisi
morgan
morir
moritz
morj
morki
morning
morozivka
morozova
morozovka
morrison
morro
mors
morus
mos
mosaic
mosalsk
moscow
moscu
moskalenki
moskova
moskovadeki
moskovag
moskovande
moskoviya
moskovo
moskovskaya
moskovskiy
moskva
moskvada
moskvadaki
moskvadan
moskvag
moskvanı
mosmetro
mosqu
mosque
most
mostovoye
mostovskoy
mostıska
mot
motet
moth
mother
moto
motor
mototsikli
motsart
motıgino
mount
mountain
mountains
mov
movc
movie
movka
movnı
movo
movskiy
moy
moynaq
moynıma
moynına
moysiyivka
mozambik
mp
mparatorlug
mperator
mperiyası
mperiyasına
mperiyasının
mr
mra
mrakovo
mran
mranlar
mranı
mresine
mrs
mru
ms
msiredi
mskifa
mss
msu
mt
mtaz
mtian
mtsensk
mu
muabbetlik
muallim
muallimi
muallimler
muallimlernin
muallimlik
muammes
muammesler
muarebede
muarrir
muarriri
muarririyet
muarrirlik
muasarası
muasebeci
muavini
muayyen
muazzam
muazzez
mubarek
muc
mudafaa
muenster
mug
muhalefet
muhametovo
muhammad
muhammadan
muhammed
muharrem
muhor
muhtac
muhtacdır
muhtar
muhtariyetinin
muhtarlıq
muka
mukac
mukasovo
mula
muldakayevo
mullakayevo
mullino
multimedia
mum
mumbai
mun
munaqas
munasebet
munasebeti
munasebetine
munasebetinen
munasebetini
munasebetler
munasebetleri
munasebetlerinde
munasebetlerini
munasebetlerinin
munasebetlerni
munasebetlernin
munasebette
munasip
mundo
munich
municipal
muniy
muntazam
munus
munı
muqaddeme
muqaddes
muqavele
muqavelesi
muqavelesine
muqavelesini
muqayese
mur
murabba
murabbalar
muracaat
muracaatları
muracaatı
murad
muradnın
muradım
muradımovo
murahhası
mural
muran
muras
murat
muravey
muravka
muritaniya
murmansk
murom
muromtsevo
murovani
murta
murtaza
murugan
murzino
mus
musa
musaade
musaaden
musafir
musafirge
musafirhane
musafirhanesi
musafirlerge
musafirlerni
musaviy
musaviylik
muscaria
musee
museo
museum
music
musino
musiqiy
musiyivka
musk
muskomiya
mustafa
mustafayev
mustafino
mustang
mustaqil
mustaqillgini
mustaqilligi
mustaqilligini
mustaqillik
musulman
musulmanlar
musulmanlarnı
musulmanlarnın
musulmanları
musulmanlarının
musulmanlıqnın
musulmannın
muta
mutabas
mute
mutfaq
mutianyu
mutlaqiyet
muvafaq
muvafaqiyet
muvafaqiyeti
muvafaqiyetler
muvafaqiyetlerini
muvafaqiyetli
muvafaqiyetnen
muvaqqat
muyezerskiy
muynak
muyus
muz
muza
muzakere
muzakereler
muzıka
muzıkada
muzıkag
muzıkalı
muzıkanen
muzıkanı
muzıkanın
muzıkası
muzıkasını
muzıkasının
mw
my
myanmar
mycalesis
mycena
mydas
myer
mı
mıhaylivka
mıhaylo
mıhaylovıc
mıkola
mıkolayiv
mıkolayivka
mıkulıntsi
mına
mınan
mınav
mınavı
mında
mından
mıradıma
mırgorod
mırne
mırnograd
mırnopilla
mırolu
mıronivka
mırza
mırzadı
mırzalar
mırzalarnın
mırzaları
mırzam
mırzanı
mırzanın
mırzası
mıs
mıski
mısrası
mısır
mısırbog
mısırda
mısırnın
mısırog
mıtis
mıtlaq
mıtlaqa
mıtlaqiy
mıtnık
mıxalefet
mıyıg
mıza
məs
n
na
naar
naas
naberejnıy
nabran
nac
nacht
nachts
naci
nacional
naciye
nadar
nadejda
nadejdino
nadejdinskiy
nadir
nadu
nadvirna
nafe
nafile
nag
nagadak
nagayev
nagayevo
nagib
nagirne
nagolc
nagora
nagornıy
nagorsk
nahimov
nahiye
nail
nal
nalar
naları
nalarında
nalbandov
nalc
nalcık
nalı
nam
namangan
namaz
namazı
namazından
name
namib
namibia
namibiya
namlı
namus
namuslı
namussızlıq
namzeti
namzetleri
namı
nan
nana
nanase
nanc
nanen
nanmasan
nanna
nannın
nano
nanotechnology
nant
nanı
nanın
nap
napadivka
napoleon
naqliyat
naqliye
nar
nara
narat
narayivka
narazılıg
narazılıq
narazılıqlar
narcissus
nardan
narenko
narik
narikke
narimanov
narimanovo
nariye
naro
narod
narodnıy
narodıc
nartsızivka
naryan
narzisse
narıs
nas
nasa
nasebetleri
nasil
nasipko
nasir
nasirolmolk
nasreddin
nastasiyivka
nası
nasıl
nasıldır
nasınen
nasır
nat
natal
natilinen
nation
national
nationale
nationalmuseum
nations
nato
natrix
natural
nature
nauc
naughty
naukluft
naumovka
nauru
nauruzovo
nav
naval
navarra
navas
navla
navoiy
navolok
navrez
navrezim
nay
naya
nayikayam
naylan
nayleben
nayman
nayyem
nazar
nazaret
nazarg
nazariy
nazariye
nazariyecisi
nazariyecisidir
nazariyesi
nazariyesini
nazariyesinin
nazarovka
nazarovo
nazarına
nazarını
nazca
nazi
nazik
nazir
naziri
nazirinin
nazirler
nazirligi
nazirliginin
nazirnin
nazm
nazran
nazım
nazıvayevsk
nbas
nbatar
nbatı
nbg
nbrunn
nbu
nc
nce
nceler
ncelerge
nceleri
ncelerini
nceli
ncesi
nci
ncia
ncil
ncisi
ncu
ncı
nd
nda
ndan
nday
nde
ndedir
ndeki
ndelen
ndelik
nden
nderice
ndericesi
ndevor
ndi
ndiana
ndianapolis
ndik
ndiler
ndim
ndir
ndistan
ndistanda
ndistang
ndistannın
ndog
ndoma
ndoneziya
ndoneziyanın
ndu
nduizm
nduizmde
nduizmnin
ne
neapol
neapolis
near
neas
nebatat
nebatiyat
nebel
nebula
nec
neccimliginin
necek
necip
nedas
nedeni
nedeniyle
nedi
nedir
nedrıgayliv
needle
nef
nefes
nefesli
nefeste
nefis
neftc
neftebaza
neftegorsk
neftekama
nege
negen
negiz
negro
nekrasivka
nekrasovka
nekrasovo
nekropol
nekropolinin
neler
neleri
nelidovka
nelik
nelis
nelumbo
nem
nema
neman
nembrotha
nemerc
nemet
nemi
nemli
nemse
nemseler
nemtsov
nemtsova
nemıriv
nemırıntsi
nen
nenen
nenets
neni
neninka
nenkecan
neo
neon
neopithecops
neorthacris
nep
nepa
nepal
nepalda
nepali
nepalnın
nepiznanıc
neptun
neptune
ner
nerc
nerehta
neri
neronov
nes
nesil
nesilden
nesilge
nesilinden
nesilleri
nesilni
nesin
nesir
nesirci
nesirge
nesli
nest
nesterov
nesterovskaya
net
netice
neticede
neticelengen
neticeleri
neticelerine
neticelerini
neticelerni
neticesi
neticesinde
neticesine
neticisi
netile
netimi
nets
networks
neue
neuschwanstein
nevada
nevbet
nevbetc
nevbetles
nevbetnen
nevbetteki
nevbetten
neve
never
nevis
neviy
nevs
nevskaya
nevskiy
nevsky
new
news
newsweek
ney
neya
neydorf
neyron
neys
neyt
nez
nezaret
nezareti
nf
nfan
ng
ngas
ngc
nge
ngece
ngen
ngeni
ngenler
ngeri
nges
nghe
ngi
ngilizce
ngiltere
ngilterenin
nglitere
ngliz
nglizce
ngmar
ngo
ngorongoro
ngrid
ngu
ngus
nh
nhen
nhende
ni
niagara
niayet
nic
nice
nich
nicholas
nick
nico
nig
niger
nigeriya
night
nih
nija
nijna
nijnec
nijneilimsk
nijneudinsk
nijneye
nijniy
nijniye
nijın
nik
nika
nikaragua
nikel
nikiforovo
nikiforovskaya
nikita
nikitinka
nikitinskaya
niko
nikola
nikolas
nikolay
nikolayevic
nikolayevka
nikolayevsk
nikolayevskiy
nikolaynı
nikolo
nikolsk
nikolskaya
nikolske
nikolskiy
nikolskoye
nikon
nikopol
nikova
nikovo
nil
nile
nilnin
nilu
nim
nimet
nin
nina
nine
nini
nino
nio
nip
nir
nirvana
nis
nisan
nisbeten
nisbeti
nisbiy
nisogora
nista
nisvan
nitss
nittifaq
niue
niva
niversitesi
nivka
niy
niya
niyazgulovo
niyazi
niyazinin
niyet
niyeti
niyetin
niyetinde
niyetinen
niyetke
niyetleri
niyetlerini
niz
nizam
nizamg
nizamname
nizamnamesi
nizhyn
nizinnoye
nizm
nj
nka
nkerman
nkermanda
nki
nkino
nkis
nku
nkıla
nl
nlar
nlardan
nlarg
nları
nlendi
nlene
nlengen
nler
nlerde
nlerden
nlerdin
nleri
nlerin
nlerinde
nlerinden
nlerini
nlernin
nles
nley
nligi
nliginden
nligini
nliginin
nlik
nlikke
nliknen
nlikni
nliknin
nlikte
nlikteki
nlikten
nlu
nme
nmeden
nmege
nmegen
nmek
nmekte
nmesi
nmey
nmez
nmi
nn
nnaya
nnen
nnet
nni
nnik
nnikovskaya
nnin
nnokentyevka
nnu
nnı
nnıkı
nnıy
nnıye
no
nobel
nobilis
noble
noeditsection
noel
nog
nogay
noginsk
nogorsk
nolinsk
noman
nomeralı
nomerası
nominatsiyasında
none
noqta
noqtalar
noqtaları
noqtası
noqtasıdır
noqtasına
noqtasından
nord
norderney
norilsk
norkino
normal
normalarının
normandiya
norsk
north
northern
norveg
norvegce
norvegiya
norvegiyanın
norway
nos
nosivka
nosovskaya
not
nota
notc
notes
notgeld
nothing
notitleconvert
notlar
notoc
notr
notre
nov
nova
novakı
novaya
nove
november
novenkoye
novgorod
novgorodka
novgorodske
novi
novic
novinka
novinki
novka
novo
novoaleksandrovka
novoalekseyevka
novoaltaysk
novoandreevka
novoandreyevka
novoanninskiy
novoarhangelsk
novoaydar
novoazovsk
novobakayevo
novobaltac
novobiru
novobureyskiy
novoc
novodevic
novodmıtrivka
novodubrovskiy
novodvinsk
novofastiv
novofo
novogeorgiyevka
novograd
novogrigoryevka
novogrıgorivka
novoguyvınske
novohopo
novoilikovo
novoivanovka
novokazanka
novokiyevka
novokonstantinovka
novokopılovo
novokosteyevo
novokrasne
novokubansk
novokudas
novokuznetsk
novomatveyevka
novomihaylovka
novomihaylovskiy
novomonos
novomoskovsk
novomusino
novomustafino
novomıhaylivka
novomıkolayivka
novomırgorod
novonikolayevka
novonikolayevskiy
novonikolskiy
novonikolskoye
novooleksandrivka
novoozera
novoozo
novopavlivka
novopavlovka
novopetrivka
novopetrovka
novopetrovskoye
novopokrovka
novopskov
novorayc
novoromanovka
novorossiyka
novorossiysk
novos
novosafarovo
novoselivka
novoselskoye
novoselıtsa
novosemenkino
novosergeyevka
novosibirsk
novosil
novosilka
novoso
novostroyevka
novosyolovskoecr
novotavlarovo
novotos
novotroitsk
novotroitskoye
novotroyevka
novotroyitske
novoukrainka
novoukrayinka
novoulyanovka
novourazayevo
novousmanovo
novovars
novovasilyevka
novovoronej
novovorontsovka
novovoznesenka
novoyaus
novoyavorivsk
novoye
novoyelovka
novoznamenka
novozıbkov
novozıra
novskaya
novına
novıy
novıye
now
noy
noyabr
noyabrde
noyabrnin
noye
np
npp
nqila
nr
ns
nsan
nsanlar
nsannın
nsar
nse
nsen
nsfnet
nsk
nska
nskaya
nskayag
nske
nskiy
nskoye
nstagram
nster
nstitutnı
nstitutı
nstitutına
nstitutında
nstitutının
nsızlıg
nta
nternatsional
nternet
nternetke
nternetnin
nternette
nternetteki
nternetten
ntuvar
ntıniv
ntınivka
nu
nucifera
nudibranch
nuestra
nuestros
nueva
nufus
nufuzlı
nugus
nuh
numayıs
number
numbers
nun
nur
nuri
nuriman
nurları
nusha
nutini
nutininin
nutuq
nuzet
ny
nya
nyabaqıs
nyaca
nyada
nyadaki
nyadan
nyag
nyanı
nyanın
nyası
nyasına
nyasında
nyasını
nyasının
nyaviy
nyc
nycticorax
nyesinde
nymphaea
nynorsk
nyu
nz
nı
nıjc
nıjna
nıjni
nıjniy
nıkı
nın
nına
nında
nını
nının
nıs
nıtsa
nıtva
nıvkı
nıy
nıyazov
nıye
nızgirtsi
o
ob
oba
obama
oban
obanlarnın
obi
obl
oblast
obluc
obninsk
obodivka
oboyan
obozerskiy
obres
observatoriyasında
obtu
obuhiv
obuhivka
obv
obverse
obyekt
obyektiv
obyektlerde
obyektlerni
obyektlernin
obyektnin
obyekttir
obıhodı
oc
oca
ocadan
ocag
ocak
ocalar
ocaları
ocalig
ocalıg
ocalıq
ocampo
ocanin
ocanın
ocapc
ocaqay
ocası
ocasının
occidentalis
occupation
ocean
ocellaris
och
oct
october
od
oda
odabas
odada
odalar
odası
odasına
odasının
odaya
odayi
odesa
odessa
odintsovo
of
off
office
official
ofisi
ofitser
ofitserleri
ofo
og
oga
ogg
ogiyivka
ognevic
ogni
ogo
ographie
ogu
oh
ohansk
ohayo
ohotnic
ohrid
ohs
ohtırka
ok
oka
okan
okean
okeanda
okeandır
okeang
okeaniya
okeaniyada
okeanlar
okeanlarg
okeannın
okeanı
okeanının
oklahoma
oklend
oknı
okolad
okones
okrug
oks
oksana
oksford
okta
oktavag
oktyabr
okulovka
okulovskaya
okulu
ol
ola
olacag
olacaq
olacaqtır
olag
olalar
olamadı
olamag
olamay
olamaycag
olamaz
olamı
olan
olar
olarak
olaraq
olarda
olardan
olarg
olarga
olarnen
olarnı
olarnın
olasin
olasın
olca
old
oldi
oldig
oldin
oldu
oldug
olduqc
oldı
oldılar
oldım
oleg
oleksandr
oleksandrivka
oleksandriya
oleksandrovıc
oleksiyivka
oleksiyovıc
olenegorsk
olenivka
oles
olesko
olevsk
olg
olga
olhon
olhovatka
olhovka
olimpiada
olimpik
olimpiya
olip
olistan
olistannın
oliva
olkino
ollar
ollarnın
olmadan
olmadı
olmag
olmalı
olmalıdır
olmamaq
olman
olmaq
olmaqnen
olmaqnı
olmaqta
olmaqtan
olmasa
olması
olmasıdır
olmasına
olmasını
olmasının
olmay
olmayacaq
olmaycag
olmaycaq
olmaycaqmi
olmayıp
olmaz
olmus
olo
olom
olonets
olor
olova
olpan
ols
olsa
olsalar
olsam
olsan
olsaq
olsun
olu
olub
olun
oluna
olundı
olung
olunır
olup
olur
olurmı
olus
oluv
oluvı
oluvına
oluvınen
oluvını
oluvının
olympiastadion
olympic
olıp
om
oman
omar
omega
omela
ompayıp
ompolı
omsk
omski
omsukc
omu
omuc
omutnaya
omutninsk
omızına
on
ona
onbas
onca
onda
ondan
onday
ondo
one
onega
onegin
oneki
onen
ong
onguday
onin
onlar
onlarnen
online
only
onos
ontario
ontologiyalar
onufriivka
onufriyivka
onun
onuncı
onur
onyıllıq
onı
onın
onıs
oon
op
opapıs
oparino
open
opera
operalar
operaları
operanın
operası
operasında
operasının
operation
operativ
opole
oporto
opossum
opovıc
oppa
optik
optika
optimal
opuk
opıtnoye
opıtnıy
oq
oqc
oqlar
oqlas
oqlu
oqlug
oqluq
oqmı
oqrag
oqraq
oqraqları
oqraqlı
oqraqlının
oqtan
oqtır
oqu
oquc
oqudin
oqudı
oqug
oqula
oqulg
oqulması
oquma
oqumag
oqumaq
oqumis
oqumıs
oqun
oqup
oqur
oqusı
oqusına
oqusında
oqusını
oqusının
oqutuv
oquv
oquvda
oquvdan
oquvnı
oquvına
oquvını
oquy
oquylar
oquysin
oqı
or
ora
orac
orada
oradı
oradın
oral
oram
oraman
oran
orange
orap
oraq
oras
orativ
oray
oraza
orb
orba
orbası
orbiter
orcaq
orda
ordası
ordek
ordeni
ordeninen
order
ordu
orduda
ordudaki
ordudan
ordug
ordular
orduları
ordularının
ordunı
ordunın
ordusı
ordusına
ordusında
ordusınen
ordusını
ordusının
ordınskoye
oregon
orehovo
orenburg
org
organ
organdır
organik
organizmlernin
organlarnın
organları
organlarının
organı
organıdır
orgel
orhan
orhaniye
orhon
oric
oriental
orientalis
orientation
original
orihiv
orion
orjiv
orjıtsa
orkestr
orkestri
orkestrnen
orlan
orlando
orlean
orleans
orlinoye
orlivka
orlov
orlovka
orlı
orman
ormanlar
ormanlarda
ormanlarnın
ormanı
orna
ornobay
ornobıl
ornomorsk
ornomorske
ornorudka
ornuhı
ornın
ornıy
oro
orod
orqa
ors
orsk
ort
orta
ortada
ortadan
ortadog
ortag
ortalama
ortalan
ortalarında
ortalıg
ortalıqta
ortam
ortaq
ortası
ortasına
ortasınace
ortasında
ortasından
ortayolaq
orthetrum
ortkiv
ortodoks
ortodokslıq
ortorıya
orum
orus
oruslar
orxan
orya
oryebas
orı
os
osa
osadc
osaka
oscar
oset
osetc
osetiya
osif
osinniki
osinovskiy
osipenko
osipovka
oskar
oskol
oslo
osman
osmaniye
osmanlı
osmanlıca
osmanlıg
osmanlılar
osmanlılarg
osmanlılarnen
osmanlılarnın
osmannın
osmanov
osmanova
osorgino
osp
ospizio
osprey
ost
ostanları
ostanı
ostas
osteospermum
oster
ostka
ostriv
ostrog
ostrogojsk
ostrojok
ostrov
ostrovnoy
ostseite
oszyk
osıc
osıkove
ot
ota
otago
otar
otarc
otarko
otay
otdeleniya
otello
other
otis
otkerildi
otkrıtoye
otlag
otlaq
otlar
otları
otlatıp
otnoye
otnurok
otqa
otqara
otra
otrada
otradnoye
otradnıy
otravensk
otravneve
ottava
ottofile
ottoman
otu
otur
otura
oturalar
oturdi
oturdı
oturg
oturis
oturmaqta
oturup
oturıp
oturıs
otuz
otvajnoye
otı
otırg
otırgan
otırıp
ou
oudezijds
our
out
ouvrage
ov
ova
ovc
ove
ovec
over
overlord
overn
overview
ovgen
ovidiopol
ovidiy
ovka
ovnın
ovo
ovrag
ovruc
ovsa
ovsk
owl
ox
oxford
oxxxymiron
oxyopes
oy
oya
oyalı
oyas
oye
oylanadı
oymag
oyna
oynadı
oynadılar
oynag
oynalg
oynap
oynas
oynatayım
oynay
oys
oysul
oysız
oyulg
oyulıp
oyun
oyunc
oyuncaq
oyuncı
oyuncısı
oyunda
oyung
oyunlar
oyunları
oyunlarında
oyunlarının
oyunnın
oyunı
oz
ozan
ozar
ozera
ozerki
ozerne
ozero
ozg
ozo
p
pa
paalı
pablo
pac
pacher
pachliopta
pachygrapsus
pacific
pad
padding
padengskoye
padis
page
pages
pagino
pagoda
pagos
pahar
paharevka
pai
painted
paion
pair
paisaje
paketi
pakistan
pakistanda
pakistannın
pakulteti
pal
pala
palace
palacio
palais
palapan
palau
paleh
palermo
palestrina
palestrinanın
pallasovka
palm
palma
palmer
palmiye
palmiyesi
palustris
pama
pamukkale
pamyatniki
pan
panama
panasivka
panc
panda
pandora
panino
pank
pankrus
pano
panora
panorama
panoraması
panoramic
panoramio
panovo
pans
pansionat
panthera
panti
pantika
pantikapey
pantikapeyon
pantikapeyong
pantu
panzer
paolo
papa
papag
papalıq
papalıqnın
papanın
papası
papaver
papaz
papazı
paphia
papilio
papio
papis
papiy
papiyi
papua
par
para
parade
paragvay
parahybana
parallel
paran
paranal
paranga
paras
parası
parazit
parc
pardos
pardus
parfenyevo
parfino
parfo
parij
paris
pariste
paristeki
pariyivka
park
parkta
parkı
parkında
parkındaki
parlament
parlamenti
parlamentinde
parlamentler
parlamentnin
parlap
parlaq
parliament
parma
parmag
parmaq
parque
pars
part
parta
partenit
parti
partially
partisi
partizan
partizanlarnın
partizanskoye
party
partızanske
pas
pascal
pasha
pasic
pasport
pass
passage
pasıtselı
pat
patlap
patria
paul
paulo
paulu
paulus
pavel
pavilion
pavlivka
pavlo
pavlodar
pavlograd
pavlogradka
pavlov
pavlovic
pavlovka
pavlovo
pavlovsk
pavlovskaya
pavlovskiy
pavlovskoye
pavlovıc
pavlu
pay
payda
paylas
paytaht
paytahtlar
paytahtı
paytahtıdır
paz
pazarcıq
pałac
pbilgiler
pc
pdf
pe
peach
peacock
peahoone
peak
pearl
pec
pedagogik
pedagogika
peden
pedosı
pedro
pege
pejma
pek
pekin
pekitilgen
pekitmek
pekitu
pelecanus
peleri
peli
pelikan
pelophylax
pen
pencere
pencereden
penceresi
penceresinden
penceresinin
penciresinin
penguin
peninsula
penir
penirli
penkivka
pensilvaniya
pentu
penza
people
pepper
peppers
per
perc
perec
peredovoye
perehrestove
perekop
perelo
peremoga
peremıs
peres
perevalsk
perevoz
pereyaslav
pereyaslovka
perfect
performing
period
peris
perisi
perivka
perm
pers
perse
personal
personaldemocracy
perspective
perspektivasını
pert
perth
peru
perunın
pervaya
pervomaysk
pervomayske
pervomayskiy
pervomayskoye
pervomayskıy
pervoye
pervıy
pes
pesc
pesi
pesidir
pesinde
pesinden
pesoc
pesta
pestovo
peter
peterburg
peterburgda
peterburgg
petr
petra
petras
petri
petriden
petrinin
petrivka
petro
petrograd
petrogradda
petrol
petronas
petronın
petropavlivka
petropavlovka
petropavlovsk
petropavlovskoye
petrov
petrove
petrovic
petrovka
petrovo
petrovsk
petrovskaya
petrovskiy
petrovskoye
petrozavodsk
petrus
petrıkivka
petuhovo
petus
pewdiepie
peyda
peyg
pfalts
pfarrkirche
pfennig
pfg
pgs
ph
phacochoerus
phalacrocorax
phalaenopsis
phase
pheucticus
phi
phoenicoparrus
phoenicopterus
phoneix
photo
php
phra
pi
piaf
pianino
pianinocısı
pianist
pianisti
piano
pianoboy
pic
picchu
piccolo
pidgaytsi
pidgirne
pidgorodne
pidkamin
pidlisivka
pidlisne
pidvoloc
pidvısoke
piece
pied
pier
pieris
pierre
pietrzyk
pijanka
pikasso
piksel
pikseller
piksellernin
pil
pila
pilna
pin
pine
pinega
pingvin
pink
pino
pinsk
pinus
pinyin
pioner
pionerskaya
pionerskiy
piptoporus
piran
pirat
pireney
pirnic
pirogovka
pis
pisa
pisarevka
piskı
pisoc
pitag
piter
pitgen
pitirgen
pitka
pitken
pitt
pitts
pivdenne
piyade
piza
pk
pke
pkelenip
pkelenu
pkeley
pken
pl
pla
plac
place
plahtiyivka
plains
plakatı
plan
plancılar
planda
planet
plang
planlama
planlar
planlas
plant
plantilla
planı
plas
plastik
platanus
plate
platform
platforma
platforması
platformasının
platon
platosında
platova
platovo
platyrhynchos
platz
plavni
playa
player
playing
plaza
please
plegen
pler
pleri
plerinin
ples
plesetsk
pleso
plexippus
plo
ploceus
plodopitomnik
plos
ploske
ploskoye
plotarea
plotava
plotdata
plotnikovo
plotva
ploye
plıy
pnen
png
pni
pnın
po
pobeda
poc
pod
podgorenskiy
podgornaya
podgornoye
podgornıy
podilsk
podilska
podilskıy
podlesnoye
podlubovo
podolsk
podosinovets
podpolkovnik
podporojye
poe
poema
poemalar
poeması
poesi
poesia
pogar
pogost
pogrebıs
point
pokrov
pokrovka
pokrovsk
pokrovskaya
pokrovske
pokrovskoye
pokrıs
pol
pola
poland
polar
polatkan
polatlı
pole
polessk
polevodka
polevoye
poli
police
polis
polish
polisi
poliske
polistes
politotdel
politsiya
polkovnik
polkuna
polo
pologı
polojınskıy
polomos
polonia
poloniya
polonne
polovetsler
polska
polski
polskiy
poltava
poltavka
polu
polymnestor
polyommatus
polyporus
polytes
polısayevo
pomeraniya
pomes
pomidor
ponazırevo
pond
ponomaro
pont
ponte
pontos
ponıri
pool
pop
popasna
popelu
popelyuhy
poperec
popilna
popivka
popivtsi
poplavka
popov
popova
popovka
popula
population
por
porlarin
poros
porsche
port
porta
portal
portallar
portalı
portaqal
porte
porter
portland
porto
portrait
portret
portreti
portu
portugal
portugalca
portugaliya
portugaliyanın
portugue
pos
posad
position
poso
pospeliha
pospolita
pospolitanın
post
posta
postalar
postalarının
poster
potas
potera
potik
potiyivka
poto
potokı
potsdam
potsdamer
potu
pov
pova
povaliha
povc
povest
povesti
povestini
povestler
povestleri
povo
povorino
povorotnoye
power
powiaty
poynt
poznan
poznanka
pp
pr
pra
prades
prado
prag
praga
prague
praha
prang
prasina
pratasevic
pravda
pravdinsk
pravoslav
pravıy
prayer
predgornıy
prefektligiden
prelu
premiera
premyerası
preobrajenka
preobrajenovka
preobrajenskoye
preriya
president
presidential
presli
press
prey
prezident
prezidenti
prezidentinin
prezidentleri
prezidium
prezidiumı
prezidiumının
pri
priargunsk
pribelskiy
pribrejnoye
pribrejnıy
pric
pride
pridnestrovye
pridorojnoye
pridorojnıy
prigorodnoye
prigorodnıy
priluk
priluki
primorsk
primorsko
primorye
prince
principal
principaux
prins
prinsipi
prinsligi
print
printsipleri
priozersk
priozo
pripyat
prirec
pris
prismas
pristan
pristen
private
privetnoye
privodino
privoljsk
privoljye
privolnoye
priyutovo
prize
pro
problem
prodasineura
produ
production
prof
professional
professor
professorskiy
professorı
prog
program
programma
programmalamas
programmalar
programmalarda
programmalarnı
programmalarnın
programmaları
programmalarını
programmalav
programmanı
programması
programmasını
programmasının
progress
prohladnıy
prohorovka
project
prokopyevsk
prokuratura
prokuraturalarının
prokuraturanın
prokuraturası
prokuraturasını
prokuraturasının
prokuror
prokurorları
prokurornın
prokurorı
prokurorının
proletariy
proletarka
proletarskiy
promıs
propaganda
propagandacı
propagandacılar
prosa
protest
protestant
protestantlıq
protestleri
protoc
protocol
protokol
protokollar
protokolları
protokolı
protokolını
protsessi
protsessor
protvino
provans
province
provinces
proyekt
proyekti
pru
prudı
prussiya
prust
pryborivka
przez
prıazovske
prıberejne
prıc
prıluka
prılukı
prımorsk
prımorske
prıpyat
prıstan
prıvilla
prıvilne
prıvitne
ps
psihiatriya
psihologik
psihologiya
pskov
pt
ptan
pte
pteki
pten
pterois
ptir
pu
public
publicznej
publishing
publitsist
publitsistik
publiy
puc
puck
pudelek
pudoj
puente
puerto
puesta
puf
pugac
pul
pula
pulavı
pulo
pulu
pulını
punkt
puno
punta
pura
purana
purpurea
pus
pustomıtı
pustos
pustınka
put
puta
putin
putinnin
putı
putıla
putıvl
puyskoye
puławy
px
pyatıgirka
pyatıhatkı
pyazılar
pyer
pyerluici
pyesa
pyesalar
pyesaları
pyesalarını
pyesası
pyesasını
pygmaea
pyramid
pyramids
pyrus
pıc
pıkiv
pılıpivka
pılıpovıc
pılıpı
pınar
pıra
pıs
pısarivka
pısıp
pıtag
pıtaqları
q
qa
qaba
qabaatlang
qabaatlanıp
qabaatsız
qaban
qabaq
qabar
qabarda
qabileden
qabileler
qabileleri
qabilelerinin
qabilesi
qabilesinden
qabilesinin
qabiliyeti
qabiliyetinden
qabirg
qabug
qabul
qabuq
qaburc
qaburg
qac
qadar
qadim
qadimiy
qadin
qadinin
qadir
qadri
qadı
qadıko
qadın
qadınlar
qadınlarg
qadınlarnın
qadınnın
qadını
qadır
qadırov
qafa
qafası
qafiye
qafiyeli
qag
qagan
qaide
qaideler
qaidelerge
qaideleri
qaidelerine
qaidelerini
qaidelerni
qaidelernin
qaire
qairede
qal
qala
qalabalıq
qalac
qalacag
qalalar
qalanc
qalaqay
qalarnın
qaları
qalay
qalbin
qaldin
qaldı
qaldılar
qaldım
qaldıra
qaldırdı
qaldırg
qaldırma
qaldırılg
qaldırıp
qale
qalede
qaleden
qalege
qalem
qalemi
qaleminden
qalemnen
qaleni
qalenin
qalesi
qalesinde
qalesinden
qalesine
qalesini
qalesinin
qalg
qalgan
qalin
qalinlig
qalma
qalmadı
qalmag
qalmaq
qalmasına
qalmuq
qalp
qalpag
qalpaq
qalq
qalqa
qalqan
qalqları
qalqını
qalsa
qaltası
qalı
qalımtay
qalımtıları
qalın
qalıng
qalıntıları
qalıp
qalır
qama
qamac
qamacı
qambar
qamc
qams
qamıs
qan
qana
qanaat
qanat
qanatları
qanatlı
qanda
qandas
qandım
qandır
qang
qani
qanibek
qanim
qanini
qanlar
qanlarnın
qanlarını
qanlı
qanun
qanung
qanuniy
qanunlar
qanunlarg
qanunları
qanunlarına
qanunlarını
qanunnamesinin
qanunnı
qanunsız
qanunı
qanunına
qanı
qanın
qanını
qap
qapag
qapalg
qapalı
qapang
qapata
qapatmaq
qapatqan
qapattı
qapatıla
qapatıldı
qapatılg
qapatıp
qapik
qaplag
qaplan
qaplap
qaplı
qaplıdır
qapsay
qapsihor
qapu
qapug
qapı
qapıdan
qapıg
qapıları
qapını
qapının
qapısı
qapısına
qapısının
qaqina
qar
qara
qaraba
qarabag
qarabas
qarabataq
qarabay
qarac
qaraca
qarag
qarago
qaraidil
qaralez
qaramag
qaraman
qaramanlar
qaramanları
qaramanlarının
qaramanı
qaramin
qaran
qaranen
qarang
qaranlıq
qarap
qaraqalpaq
qaraqalpaqistan
qaraqteri
qaraqterler
qaraqterlerinin
qarar
qararg
qararlar
qararları
qararlas
qararnen
qararnı
qararı
qararına
qararınen
qararıp
qaras
qarasan
qarasuv
qarasuvbazar
qarasuvbazarda
qarasuvbazardaki
qaravul
qaray
qaraylar
qaraylarnın
qarc
qardas
qardelen
qarg
qarindas
qaris
qarluq
qarmag
qarmalap
qarpız
qars
qart
qartal
qartalı
qartanalarımız
qartayg
qartayıp
qartbaba
qartbabalarımıznın
qartbabası
qartbabasının
qartlar
qartlardan
qartlarnın
qartnı
qartnın
qartop
qartoplar
qartqa
qarı
qarılg
qarıs
qarısı
qas
qasaba
qasabalar
qasabalarda
qasabaları
qasabanın
qasabası
qasabasına
qasabasında
qasabasının
qasartqı
qasevet
qasevetli
qasnag
qasnaqnın
qası
qasım
qasını
qasının
qasırg
qat
qata
qatar
qatig
qatil
qatiy
qatlı
qatmer
qatnag
qatnamag
qatnap
qatnas
qatran
qatta
qatti
qattı
qatıldı
qatılg
qatına
qatında
qatıp
qav
qaval
qavalnın
qave
qaven
qaverenki
qavg
qavim
qavimler
qaviy
qavmiy
qavmiyat
qavmiyatı
qavrap
qavrayıs
qavs
qavunc
qavurılg
qavus
qay
qaya
qayada
qayadan
qayag
qayalar
qayalarda
qayaları
qayanın
qayası
qaybulla
qayd
qayda
qaydalarg
qaydan
qayday
qayg
qayis
qaynag
qaynap
qaynas
qaysı
qayt
qayta
qaytacag
qaytadan
qaytaman
qaytarip
qaytarma
qaytarmaq
qaytaruv
qaytarıla
qaytarıldı
qaytarıp
qaytavı
qaytayım
qaytip
qaytmag
qaytmaq
qaytmaqta
qaytmay
qaytqan
qaytqanda
qayttı
qayttılar
qayttıp
qaytuv
qaytıp
qayıg
qayıq
qayır
qayıs
qaz
qaza
qazah
qazahc
qazahistan
qazahistanda
qazahistandaki
qazahistannin
qazahistannın
qazahlar
qazan
qazana
qazanc
qazanda
qazandı
qazandılar
qazang
qazanmadı
qazanmaq
qazantatar
qazanılg
qazanıp
qazaq
qazaqlar
qazaqlarnen
qazaqlarnın
qazaqları
qazaqlarının
qazaqnın
qazaqov
qazaqqa
qazası
qazg
qazna
qaznalı
qazuv
qazı
qazılg
qazılmalar
qazıp
qc
qcf
qibirdag
qic
qidira
qidirdilar
qidirg
qig
qipc
qirg
qirim
qirimtatar
qirimtatarca
qirmizi
qirs
qis
qismen
qiy
qiya
qiyamet
qiyis
qiz
qizc
qizg
qizil
qizin
qizis
qlim
qlı
qmc
qoba
qobalar
qobaları
qobası
qoc
qoca
qocaman
qol
qolay
qolayca
qolaylas
qolayli
qolc
qolda
qoldan
qolg
qolları
qolların
qollarında
qolnen
qoltug
qoltutmaq
qoltuttı
qoltutulg
qoltutuvı
qolu
qolum
qolun
qoluna
qolunda
qolundaki
qolundan
qolunın
qolın
qoms
qon
qonalar
qong
qons
qonuc
qonus
qopip
qopıp
qoqlap
qoqqa
qoqusı
qora
qoran
qoranta
qorantada
qorantadan
qorantalar
qorantaları
qorantanın
qorantası
qorantasında
qorantasından
qorantasınen
qorantasını
qorantasının
qorc
qorlıq
qorqa
qorqaq
qorqma
qorqman
qorqqan
qorqtin
qorqu
qorqudan
qorqular
qorqularnı
qorqunc
qorqup
qorug
qorumaq
qorunması
qoruv
qoruyıcı
qoruyıcısı
qos
qostanay
qotur
qoy
qoyalar
qoyan
qoyar
qoyas
qoydı
qoydılar
qoyg
qoyma
qoymag
qoymaq
qoyu
qoyucı
qoyucısı
qoyula
qoyuldı
qoyulg
qoyun
qoyuv
qoyılg
qoyıp
qoz
qozg
qozu
qozı
qtisadiy
qtisadiyat
qtisat
qtl
qu
quanhua
quant
quantum
quarzwerke
quatre
quay
quban
qubbesi
quc
quda
qudag
qudayg
qudret
qudretli
qudus
que
queen
quintet
quito
qul
qulac
qulag
qulaq
qulaqlı
qulc
qullana
qullanacag
qullanalar
qullanaraq
qullandılar
qullang
qullanma
qullanmag
qullanmalar
qullanmalarından
qullanmaması
qullanmaq
qullanması
qullanmasıdır
qullanuv
qullanıcı
qullanıcıg
qullanıcılar
qullanıcıları
qullanıcının
qullanıcısı
qullanıla
qullanıldı
qullanılg
qullanılmag
qullanılmaqtadır
qullanılmasınen
qullanıluv
qullanılıp
qullanılır
qullanımda
qullanıp
qullanır
qulle
qulleler
qulleleri
qullenin
qullesi
qullesinden
qullesinin
qulluq
qullıq
qulu
qulıns
qum
qumac
quman
qumas
qumlu
qumıq
qun
qunan
qundag
quo
qura
quralar
quralay
quran
qurannı
qurannın
quras
qurban
qurbanları
qurbanlarının
qurbannın
qurbanı
qurdug
qurdurdı
qurdurg
qurdurılg
qurdı
qurdılar
qurg
qurma
qurmag
qurman
qurmaq
qurs
qursag
qurt
qurtarg
qurtarmaq
qurtarıp
qurtarır
qurtc
qurtnezir
qurtqa
qurtu
qurtuldı
qurtulg
qurtulmaq
qurtulıs
qurtı
quru
qurucilig
qurucusı
qurucıları
qurucılıg
qurucılıq
qurucısı
qurug
qurula
quruldı
qurulg
qurulmaq
qurulması
qurulmasına
qurultay
qurultayda
qurultayg
qurultaynın
qurultayı
qurultayına
qurultayında
qurultayını
qurultayının
qurulus
quruluvı
qurulıp
qurulıs
qurum
qurumaq
qurumı
qurumını
qurumının
qurusı
quruv
quruvlı
qurılg
qurıp
qus
qusi
qusurları
qusurlı
qut
qutlamaq
qutlaq
qutu
qutubı
qutuları
qutup
qutusı
quvana
quvanc
quvanıp
quvdı
quvdılar
quvet
quveti
quvetini
quvetleri
quvetlerinin
quvetles
quvetli
quvurc
quvus
quyrug
quyruq
quyruqlı
quyrıg
quyu
quyumcı
quyırg
quzg
qı
qıbla
qıbrız
qıc
qıdıra
qıdırg
qıdırlez
qıdırmag
qıdırmaq
qıdıruv
qıdırıp
qılg
qılmaq
qılıc
qılıs
qımız
qın
qınalı
qını
qıpc
qıpchaq
qır
qıral
qıralic
qırallıg
qırallıq
qıralnın
qıralı
qıralına
qırg
qırlar
qırması
qırmısqalı
qırmızı
qırq
qırs
qırt
qırtc
qırtistan
qırtistanda
qırtistande
qırtistandeki
qırtistannin
qırtistannın
qırtlar
qıruvı
qırı
qırıcı
qırım
qırımal
qırımc
qırımca
qırımda
qırımdaki
qırımdan
qırımer
qırımg
qırımlar
qırımlarnı
qırımlarnın
qırımlı
qırımlılar
qırımlının
qırımnı
qırımnın
qırımog
qırımtatar
qırımtatarca
qırımtatarlar
qırımtatarlardan
qırımtatarlarg
qırımtatarlarnen
qırımtatarlarnı
qırımtatarlarnın
qırımtatarları
qırırmtatar
qıs
qısmen
qısmet
qısmı
qısmıdır
qısmına
qısmında
qısmındaki
qısmından
qısmını
qısmının
qısqa
qısqaca
qısım
qısımda
qısımları
qısımı
qıt
qıta
qıtadır
qıtag
qıtaiy
qıtalar
qıtanen
qıtanın
qıtası
qıtasının
qıtay
qıtayda
qıtaynın
qıtlıg
qıyafeti
qıyanlı
qıyaslama
qıyat
qıyg
qıyma
qıymet
qıymeti
qıymetlendirme
qıymetli
qıyın
qıyınlıqlar
qıyıq
qıyıs
qız
qızartılg
qızc
qızg
qızlar
qızları
qıznı
qıznın
qızqardas
qızı
qızıl
qızılbas
qızılhac
qızıllar
qızılorda
qızıltas
qızılyurt
qızıman
qızına
qızının
qızıs
r
ra
raat
raatlanmaq
raatlanuv
raatlıq
raatsız
raba
rabas
rabbi
rac
rada
radası
radasında
radasının
radc
rade
radehiv
radi
radikal
radio
radiolokatsiya
radiopyesa
radiosı
radiosında
radisne
radius
radivka
radom
radomıs
radujnıy
radı
radılar
radıvıliv
rafael
rafaelnin
raffael
raffaello
rafik
rafikovo
rafiy
rafiya
rafiyacı
rafiyası
raftsundet
rag
raghunath
rah
rahat
rahiv
rahmeti
rahnı
railway
rain
rainbow
raion
rak
raki
rakit
rakitnoye
rakitı
ral
ralar
raları
ralfr
rally
ram
rama
ramag
raman
ramayana
ramazan
ramen
ramenskoye
rametli
ramil
rammalarının
ramon
ramone
ramones
ramosus
ran
rana
randa
rane
rang
range
ranges
rannın
ranta
rao
rap
rapa
rapae
raphael
raport
raptor
raq
raqam
raqamlı
raqiplik
ras
rassel
rassvet
rast
rastkele
rastkelgen
rastkelis
rastketirmek
rasul
rasulu
raszka
rası
rasında
rat
rathaus
ratio
ratne
rator
ratqan
ratsional
ratus
ratusz
ratıldı
ratılg
rauhivka
rault
rav
ray
rayc
rayevka
raygorod
raygorodok
raykı
raymanovo
rayon
rayondır
rayonlar
rayonlarnın
rayonları
rayonlarında
rayonlarındaki
rayonlarından
rayonı
rayonına
rayonında
rayonındaki
rayonının
rays
rayt
razdolnoye
razdolnıy
razdolye
razdor
razilig
raziye
razumkov
razumnoye
razyezd
razyezda
razı
razılıg
rb
rba
rbe
rbeku
rbesi
rbesinde
rc
rca
rcen
rci
rcice
rcistan
rcistannın
rcules
rd
rdan
rdce
rde
rdeli
rden
rdi
rdik
rdiler
rdim
rdin
rdu
rdır
re
reabilitatsiya
reaktsiyası
real
reber
reberi
reberinin
reberleri
reberligi
reberliginde
reberligindeki
reberlik
rebriha
rec
recek
recekmi
receksin
recep
reci
reconnaissance
recordings
records
red
redding
redi
reduced
reeves
ref
refat
refatov
referendum
reflection
reflections
reg
regen
regi
regim
regimde
regin
regina
reginde
regine
region
regional
regionda
regiondır
regionlar
regionlardan
regionları
regionlarında
regionı
regionında
regionındaki
regionının
regis
reichstag
reina
reine
reis
reisi
reisinin
reislerden
reisligini
rejimi
rejimine
rejiso
rejisso
rek
reka
rekke
rekkep
rekkeples
reklama
reklami
reklamlar
rekler
reklerni
rekli
reknen
rekten
rektir
rektorı
rekviyem
relationship
relay
reler
reli
religious
relyef
rem
rembrandt
rembrandtnın
reme
remez
remix
remiz
remzi
remziye
ren
renessans
rengi
reni
renin
renk
renki
renkler
renkleri
renkli
renklidir
renkte
rep
repetitsiya
report
repressiyag
repressiyalarg
repressiyaları
repu
republic
republika
repyevka
requiem
rer
rermiz
rersin
rersiz
res
research
reserva
reserve
residenz
resim
resimde
resimi
resimler
resimleri
resimlerinin
resimlerni
resimlernin
resimli
resimni
resimnin
resin
resinin
resmen
resmi
resmin
resmini
resminin
resmiy
resmiyles
resources
respublika
ressam
ressamlar
ressamları
ressamlarından
ressamlıg
ressamlıq
ressamnın
ressamı
ressamıdır
restavratsiya
restavratsiyag
restitch
restoran
restoration
restored
results
resurrection
resursları
ret
reti
reticulata
retile
retim
retimi
retni
retouched
retrieved
rette
reutov
rev
revda
reverse
review
revini
reviy
revleri
revolu
rey
reyatqan
reygan
reyi
reyik
reyim
reyn
reynland
reza
rezidentsiyası
rezina
rezolu
rezonator
rfc
rfez
rfezi
rfezinde
rfezine
rfezinin
rgb
rge
rgen
rgende
rgendir
rgeni
rgenim
rgenin
rgenler
rgenleri
rgenlerini
rgenmen
rgi
rgu
rhagio
rhamni
rhapsody
rhb
rhead
rhein
ri
ria
riayet
rib
ribota
ric
rica
richard
rici
rico
ridne
rig
riga
right
rights
rik
rika
rildi
rilgen
rilik
rilu
rim
rin
rina
rinde
rinden
rindi
rine
rinen
ring
ringen
ringiya
rings
rini
rinin
rino
rio
rip
ripkı
ripon
ris
risaleni
rist
riu
riv
rivayetke
rivayetler
rivayetlerge
river
rivne
riy
riya
riyat
riyatc
riyatı
riyatına
riyatında
riyaziy
riyaziyat
riyaziyatc
riyaziyatnı
riyet
riyya
riza
rize
rjıs
rk
rka
rkc
rkec
rken
rki
rkin
rkistan
rkistanda
rkiy
rkiye
rkiyede
rkiyedeki
rkiyeden
rkiyege
rkiyeli
rkiyeni
rkiyenin
rkiyler
rkizm
rkler
rklerge
rkleri
rklerinin
rklernin
rkmen
rkmenbas
rkmenc
rkmence
rkmenistan
rkmenistannın
rknin
rks
rku
rkutsk
rlandiya
rlar
rlardan
rlari
rlarnın
rları
rlarından
rler
rleri
rlerinden
rlerine
rlerini
rlerinin
rlernin
rli
rligi
rlik
rliko
rliq
rlu
rlıg
rlıq
rm
rme
rmedi
rmedim
rmedin
rmege
rmegen
rmek
rmekte
rmekteler
rmeli
rmen
rmenin
rmesi
rmesin
rmesinde
rmesine
rmesinin
rmet
rmeti
rmetli
rmey
rmeydiler
rmeysin
rmez
rmf
rmu
rn
rnberg
rnegi
rnek
rnekler
rnekleri
rnen
rneyev
rni
rnin
rno
rnoye
rnste
rnu
rnıks
rnın
rnıy
rnıye
ro
road
roadster
robert
robin
robot
robotnın
robototehnika
roc
roca
rock
roda
rodina
rodino
rodionovka
rodionovskaya
rodniki
rodos
rodriges
rodriguez
rodziny
rogac
rogan
rogatın
roger
rogizna
rognedino
rogovo
rojdestvenka
rojna
rojıs
rok
rokıtne
rol
roll
roller
rollerde
rolu
roma
romada
romadanovka
romalılar
romalılarnın
roman
romani
romaniv
romanivka
romaniya
romaniyada
romaniyadaki
romaniyag
romaniyanın
romanko
romanlar
romanları
romannın
romanov
romanovka
romanovo
romans
romantik
romantizm
romanya
romanı
romanın
romanında
romanını
romanının
romas
rome
romen
romence
romnı
ron
roof
room
roppe
roquebrun
ros
rosa
rosaceae
rose
rosea
rosos
rossos
rostivka
rostock
rostov
rosı
rote
rotterdam
routledge
rov
rovdinskoye
rovenki
rovenkı
rover
rovka
rovnoye
rovo
royal
royla
roza
rozalivka
rozdil
rozdilna
rozdolne
rozivka
rozkos
rpe
rples
rr
rrach
rrede
rreleri
rrelerinin
rresi
rriyet
rs
rsayevo
rse
rsen
rsene
rsete
rsetip
rsetmek
rsetti
rsetu
rsin
rsinip
rsk
rskiy
rskoye
rsu
rt
rte
rtemberg
rtip
rtis
rtken
rtko
rtku
rtler
rtlu
rtti
rtu
ru
rua
ruanda
rub
rubanka
rubecula
rubens
rubensnin
rubijne
ruble
rublevskayanın
rublo
rubtsovsk
ruc
rudan
rudenka
rudinskaya
rudis
rudka
rudna
rudnic
rudnya
rudnıtsa
rufa
ruficornis
ruh
ruhaniy
ruhaniyler
ruhi
ruhiy
ruhiyat
ruhiyatc
ruhset
ruhunda
ruhunı
ruhunın
rujın
rujıtske
rul
rultti
rultuv
rum
rumani
rumelige
rumlar
run
runa
runda
rundaki
rur
rus
rusava
rusc
ruse
rusi
rusia
rusin
rusiye
rusiyede
rusiyedeki
rusiyeden
rusiyege
rusiyeli
rusiyenen
rusiyeni
rusiyenin
rusiyenın
rusiyesinin
ruska
ruslana
ruslar
ruslas
russa
russell
russia
russian
russkaya
russkiy
russkoye
russo
rustem
rustichello
rusya
rusı
rut
rutbeli
rutbesini
rutlar
rutları
rutlarınen
rutva
rutılg
ruza
ruzayevka
ruzga
rv
rve
rynek
rı
rıbino
rıbnoye
rıc
rıg
rılsk
rılı
rım
rın
rına
rında
rını
rının
rıs
rısı
rıtsar
rıza
s
sa
saa
saab
saac
saada
saadet
saalar
saalarda
saaları
saalarına
saalarında
saalarının
saar
saası
saasına
saasında
saasındaki
saasını
saasının
saat
saatc
saati
saatke
saatlarda
saatlarnın
saatlı
saatta
saavedra
saba
sabadan
sabah
sabahattin
saban
sabanayevo
sabanc
sabası
sabayevo
sabirabad
sabirli
sabiy
sabri
sabriye
sabıq
sac
sacred
sacsayhuama
sad
sadag
sadagın
sade
sadece
sadeles
sadhu
sadkivtsi
sadkı
sadove
sadovnic
sadovoye
sadovıy
sadıq
sadır
saf
safa
safari
safarovo
safety
saflarında
saflarından
safonovka
safonovo
safran
safronovskaya
safter
safına
safında
sag
saga
sagitovo
sagunto
saha
sahalin
sahalinsk
saharov
sahib
sahibi
sahip
sahiye
sahnovs
sahra
sahralarnın
sahrası
sahrasında
sahte
sahtik
saibi
saibidir
saibinin
saife
saifeler
saifeleri
saifelerinde
saifelik
saifenin
saifesi
saifesinde
saifesine
sail
saim
saint
saints
saip
saipleri
saiplerini
saipligi
saiplik
saiptir
saire
sait
saitkulovo
saitovo
sak
sakarya
sakini
sakinler
sakinleri
sakinlerinden
sakmar
saksoniya
sal
sala
salac
salam
salar
salavat
salber
saldırıp
salehard
salg
salgirka
sali
salihovo
salimov
salinas
salineras
salisbury
saliyev
salkove
salkın
sallag
sallana
sallap
sallay
sallivannın
salmasa
salmasın
salnın
saloni
salt
saltanat
saltanatları
saltanatı
salto
salton
salvador
salvatore
salzburg
salzigutovo
salı
salın
salıng
salıp
sam
samand
samara
samarka
samarqand
samarqandda
samarqandg
samarqandqa
samarskoye
samba
sambir
sametovo
sami
samimiy
samiy
samkovo
samoa
samolo
sample
samsonovskaya
samsun
samuel
san
sana
sanada
sanag
sanalas
sanat
sanatc
sanatka
sanatlar
sanatoriy
sanatoriya
sanatqa
sanattır
sanatı
sanatında
sanatının
sanayi
sanayı
sanayında
sanayının
sanbayevo
sanc
sand
sandin
sandoval
sandugac
sandıq
sangalo
saniye
sanjarı
sankt
sanlarında
sanlı
sansar
sanskrit
sanskritc
sansız
sant
santa
santi
santiago
santo
santorin
santorini
santrali
santuario
santyago
santır
santırac
santırnın
sanzio
sanı
sanın
sanında
sao
saparmırat
saplı
sapo
sapı
saq
saqal
saqc
saqlag
saqlamaq
saqlana
saqlandı
saqlang
saqlanmadı
saqlanması
saqlanıla
saqlanılg
saqlanıp
saqlap
saqlav
saqlavın
saqlay
saqta
saqız
sar
sara
sarabil
sarabuz
saragosa
sarah
saransk
sararg
sarasvati
sarata
saratov
saratovka
saratovskiy
saray
sarayda
saraydaki
saraydın
sarayevo
sarayg
saraylar
saraylı
saraymen
saraynı
saraynın
sarayı
sarayına
sarayında
sarayını
sarayının
sarburma
sarda
sardiniya
sardık
sarf
sarfı
sarg
sargatskoye
sarisoy
sarkis
sarma
sarmag
sarmas
sarmat
sarmatlar
sarnı
sarov
sars
sarsaz
sart
sartana
sarus
sarı
sarıbas
sarıc
sarıhalil
sarılg
sarımsaq
sarıp
sarıs
sas
saskul
sasıq
sat
sata
satchmo
satellit
satellite
sativa
satmaq
satqan
sattı
saturday
saturn
satuv
satyacit
satıcı
satıldı
satılg
satın
satıp
satır
satıs
saudiy
sauvlıq
sav
sava
savaleyevo
savas
savat
savatka
savbol
savc
savelyevka
savino
savinskaya
savinskiy
savlukban
savluqman
savlık
savlıq
savlıqman
savran
savurc
savus
savut
savıntsi
sawlık
say
saya
sayalar
sayan
sayansk
sayar
saydıs
sayesinde
sayg
sayladı
saylama
saylamag
saylana
saylanalar
saylandı
saylang
saylanıp
saylap
saylav
saylavda
saylavlar
saylavlarda
saylavlarnın
saylavları
saylavlarında
saymaq
sayranovo
sayt
saytlar
saytı
saytın
saytında
saytındaki
saytını
sayı
sayıda
sayıla
sayılar
sayıldı
sayılg
sayılmag
sayılmay
sayılsa
sayılı
sayılır
sayımına
sayın
sayıp
sayısı
sayısına
sayısını
sayısının
saz
sazanka
sazovo
sazım
sbet
sc
scalemajor
scaleminor
scb
scbde
scbnin
scde
scene
schloss
schneiderman
school
schweiz
schwetzingen
science
sciences
sciurus
scnin
scolopaceus
scotland
scott
scottish
screen
scripta
scrub
sculpture
scutellarioides
se
sea
seadet
searle
seattle
sebastian
sebastyan
sebebi
sebebinden
sebebinen
sebebini
sebep
sebepc
sebepler
sebeplerden
sebepleri
sebeplerinden
sebeplerini
sebepli
sebepnen
sebepten
sebeptir
sebze
sec
secevu
second
section
security
seda
sedası
seddes
seddesler
sedokova
sedrik
see
seen
sefa
sefer
seferden
seferg
seferi
seferine
seferler
seferleri
segeja
segovia
seheri
seid
sein
seit
seitenschiff
seitenstetten
seitmuratova
seitmuratovanın
seitu
sek
sekirip
sekiz
sekizinci
seksen
sekseninci
sektsiyası
sel
sela
selam
selc
selecta
selemcinsk
selena
selenginsk
seler
selets
self
selhoztehnikuma
selim
selimov
selincer
selivanovo
sella
selo
selskab
selskaya
seltso
selıs
sem
sema
semantik
semaviy
semekis
semenivka
semenkı
semeno
semenovo
semereli
semerli
semetdes
semiletka
semiluki
semiz
semo
sen
senator
sende
senden
sene
senede
seneden
senegal
senegalensis
senege
seneler
senelerde
senelerden
senelerge
seneleri
senelerinde
senelerinden
senelerine
senelerinin
senelernin
senelik
senenin
senesi
seneside
senesinde
senesindeki
senesinden
senesine
senesinece
senesini
senesinin
seni
seniculus
senin
seniu
senkevic
senme
sennen
senran
sensin
sent
senta
sentyabr
sepa
sept
september
septembre
septentrionis
septimus
ser
sera
serafimovic
serasker
seraskerleri
serbest
serbestligi
serbestliginden
serbestlik
serbestlikke
serbestliklerini
serbian
serbı
serdar
serdarlar
serdobsk
serdu
serebra
serebriya
seredna
seredne
seredına
serengeti
serez
serg
sergac
serge
sergei
sergey
sergeyevic
sergeyevka
sergeyevskaya
sergi
sergisi
sergisinde
sergiy
sergiyev
sergiyevka
sergiyivka
sergu
seri
series
serin
seriya
seriyası
serjant
serlevalı
serlevasınen
sernur
serp
serpneve
serpuhov
serseriy
sersin
sert
servantes
servanteske
servantesni
servantesnin
server
serveri
serverleri
servet
service
servis
serıs
ses
sesi
sesim
sesin
sesine
sesinen
sesini
sesinin
seslendirici
sesler
sesleri
seslerni
sesli
sesni
sesnin
sessiyası
sessiyasında
sessiz
sesten
sesyazma
set
setkin
seul
sevastopolskaya
sevdalıq
sevdiyar
seve
sevem
seven
severnaya
severnoye
severnıy
severo
severobaykalsk
severodvinsk
severomorsk
severoonejsk
severskaya
severınivka
sevesin
sevgen
sevgi
sevgige
sevgin
sevgini
sevginin
sevgisi
sevgisini
sevila
sevilla
sevilya
sevimli
sevinc
sevip
seviye
seviyede
seviyedeki
seviyeleri
seviyeli
seviyesi
seviyesinde
seviyesinden
seviyesine
seviyesini
sevmek
sevmey
sevsen
sevsk
seyaat
seyaatc
seyaatları
seyaatı
seyaatını
seyare
seydamet
seyid
seyin
seyir
seyircilerge
seyit
seyitler
seyitnafe
seyitu
seyitveliyev
seynt
seyran
seys
seytablayev
seyyare
seyyareden
seyyaredir
seyyareler
seyyarenin
seyyaresi
seyyaresidir
sfahan
sg
shah
shakedown
sham
shamakhi
shanghai
shaq
shatur
shell
sheması
shematik
shi
shidnıtsa
shift
shinjuku
ship
shiraz
shirokoesim
shoes
shoot
short
show
shtetlinks
shtml
shuttle
si
sibay
sibet
sibir
sibirdeki
sibirge
sibirskiy
sibirskoye
sic
siciliya
sid
side
sidir
sidney
sidor
sidorovka
sidorovskaya
sidzo
sidzu
sie
siempre
sienkiewicz
sierra
sietl
sig
sign
signs
sigrid
siiriy
siirt
sikh
sikhoraphum
sikiyaz
sil
sila
silent
silez
sileziya
silistre
silkine
silku
silmege
siltep
silver
silvestris
sim
simaris
simeiz
simferopol
simfonik
simfoniya
simfoniyanın
simon
simonovka
simonovo
simovo
simple
simply
simulans
sin
sina
sinan
sinannın
sinanın
sinapslarının
sinde
sinden
sine
sinega
sinema
sinen
sines
sing
singapur
single
singller
sini
sinifdas
sinin
sinip
sinmen
sinop
sint
sintetik
sintez
sintezi
sip
siprage
sipti
siq
siqilip
sira
sirius
sirogozı
sistema
sistemalar
sistemalarnen
sistemalarnın
sistemaları
sistemalarında
sistemalarını
sistemalarının
sistemalı
sistemanın
sisteması
sistemasıdır
sistemasına
sistemasında
sistemasındaki
sistemasını
sistemasının
sistemi
sisteminde
sistemine
sistemini
sisteminin
sisters
site
sitesinde
siti
sitta
sivaki
sivas
siverskıy
siya
siyabendov
siyaset
siyasetc
siyaseti
siyasetine
siyasetini
siyasetinin
siyasetnin
siyasiy
siypap
siyrek
siz
sizden
size
sizg
sizge
sizin
sizing
sizlerge
sizni
siznin
sizsin
sjabloon
sk
ska
skadovsk
skagens
skala
skalat
skan
skandinav
skandinaviya
ske
skele
sken
sker
sket
ski
skibin
skinin
skino
skipper
skit
skitim
skitler
skitlerge
skitlernen
skitlernin
skiy
sklodovska
sknin
skoc
skole
skopie
skovorodino
skoye
skr
skra
skripka
sku
skubas
skujino
skulptur
skus
skvorc
skvıra
sky
skyline
skıbın
skıbıntsi
sl
sla
slak
slakbas
slam
slamgulovo
sland
slandiya
slantsı
slav
slava
slavgorod
slavgorodskoye
slavne
slavsk
slavuta
slavutıc
sler
sleri
slerine
slerinin
sli
slidı
slipknot
slobidka
sloboda
slobodka
slobodskoy
slobodıs
slobojanske
slovak
slovakiya
slovenia
sloveniya
slovyanoserbsk
slovyansk
slu
slupsk
sly
sm
smagilovo
smail
smailovo
small
smartfonlarımıznı
smidovic
smila
smit
smith
smitnın
smola
smolensk
smolenskoye
smu
sna
snake
sne
snejnogorsk
snen
snigurivka
snijne
snitsıno
snoubordcı
snovsk
snow
snowy
snu
so
sobada
sobinka
sobolivka
sobre
soc
social
society
sofi
sofia
sofiya
sofiyevka
sofiyivka
soft
sofu
sofya
sog
sogra
sogus
sohtalar
sokal
sokilets
sokol
sokoliv
sokolivka
sokolovka
sokolovo
sokolskoye
sokta
sokıra
sol
sola
solar
solay
solda
soldan
soledad
soledar
solg
solhat
soligalic
solikamsk
sollar
solmaz
solnec
solntsevo
solo
solomon
solone
solones
solonovka
solotvın
solovetskiy
solovyov
solovyovka
soltan
solton
soltsı
soluq
solvıc
solza
somaliland
somaliya
somaliyanın
some
son
sona
sonata
sondan
sonday
song
sonlang
sonnan
sonnenaufgang
sonnenuntergang
sonntagberg
sonra
sons
sonun
sony
sonı
sopakam
sopakay
sopaqam
sopaqay
sopka
sopot
soprano
sopın
soqag
soqaq
soqaqlarnen
soqaqları
soqaqlarının
soqaqta
soqqan
soqur
sor
sora
soradı
sorag
soramadı
soramag
sorap
soras
sorasan
sorav
soray
soraydı
sorayım
sorb
sorg
soria
soriya
soroc
soroka
sorokıne
sortavala
sorus
sos
sosnivka
sosnogorsk
sosnovka
sosnovoborsk
sosnovskoye
sosnovıy
sosnın
sosnıtsa
sosonka
sossusvlei
sosyal
sotsial
sotsialist
sotsialistik
sotsializm
soul
soundcloud
souq
source
south
southern
sovet
sovetler
sovetsk
sovetskaya
sovetskiy
sovetskoye
sovhoza
sovhoznıy
soviet
sovo
sovyet
soy
soyadı
soyadını
soyları
soylarından
soyqırım
soyqırımı
soysal
soyu
soyudır
soyuna
soyundan
soyunı
soyunın
soyuz
soyıp
sozuq
sozıp
sp
space
spain
spam
span
spanca
spanish
spaniya
spaniyada
spaniyanin
spaniyanın
spas
spaske
spassk
spasskoye
spb
spechtensee
special
speed
speedway
spektrini
spheniscus
sphinx
spider
spikerlernen
spiral
spit
spiti
splash
sponge
spor
sport
sportc
sporting
spotted
spring
springs
sprint
spumans
sqrt
square
squirrel
sr
srail
srailde
sredna
sredniy
sredniye
sretensk
sri
sribne
ss
ssa
sscb
sseldorf
sssr
ssu
st
stack
stadion
stadionı
stadium
stained
stali
stalin
stalingrad
stalinizm
stalinnin
stalnoye
stan
stanbul
stanbulda
stanbuldaki
stanbuldan
stanbulg
stanbulnın
standart
standartlas
standartına
stanislav
stanislavka
stanitsa
stanovoye
stantsii
stantsiya
stantsiyası
stantsiyasına
stantsiyasında
stantsıyasının
stanıtsa
star
stara
staraya
stari
staritsa
staro
staroakbulatovo
starobaltac
starobes
starobilsk
staroc
starodub
staroilikovo
starokosta
starokuc
starokuruc
staromusino
staros
starosilla
staroturayevo
staroye
stars
start
stary
starıy
starıye
stas
state
states
station
statistics
statistik
statistika
statu
statue
statuslı
statusnı
statusqa
statusı
statusını
stav
stavkove
stavkı
stavropol
stavıs
stay
ste
stebnık
stecib
stecip
stefan
stefania
stefaniya
steinway
stel
stemleke
stemlekeciler
stemlekecileri
stemlekelerini
stemlekelerinin
stemlekeles
stemlekesine
sten
stence
stencede
stendil
stenhabl
stenli
step
stepan
stepaniha
stepanivka
stepankı
stepanovka
stepanovskaya
stepnoy
stepnoye
stepok
stepove
ster
sterdi
sterdiler
stere
stereler
stereo
stergen
stergeni
stergic
sterildi
sterile
sterilgen
sterilir
sterilmesi
sterim
sterip
sterir
steris
sterlibas
sterlitamaq
stermege
stermek
stermekte
steru
steyt
sti
stidatlı
stift
stiftskirche
still
stimullarg
stinde
stinden
stine
stiqla
stiven
stiyler
stli
stoc
stockholm
stok
stokgolm
stokholm
stolbovoye
stone
storojınets
story
stoyanove
str
stra
strasburg
strategiyanı
stratford
stratiyivka
stravinskiy
street
streets
strelka
stres
strike
strit
strix
strligi
stroganov
stroitel
strombus
structure
struga
strukturası
strukturiy
strumok
strutınka
strıjavka
strıjivka
strıy
sts
stsenariy
stsenariycisi
stu
student
studenıtsa
studies
studio
studiya
studiyasında
study
stunde
stupino
su
suahili
sual
sualge
suali
sualine
sualler
sualleri
suallerine
suallernin
sualnin
subay
subetdes
subetles
subetnik
subhankulovo
sublimed
subotitsa
subway
subyan
subyekti
subyektidir
subyektiv
suc
suca
sucensk
sud
suda
sudac
sudan
sudaq
sudislavl
sudogda
suharevo
suhinic
suhokumsk
suhorec
suhoy
suhıy
suin
sukhoi
sukkulovo
suksun
suku
sul
sula
sulak
suleyman
suleymanov
suleymanovic
suleymanovo
sulh
sulkevic
sulkivka
sulli
sultan
sultanayevo
sultanbekovo
sultanlıg
sultannın
sultanovka
sultanı
sulu
summer
summit
sumı
sun
suna
sunaq
sunday
sunflower
suniy
sunja
sunkar
sunrise
sunset
sunulmaq
suny
suomi
suoyarvi
super
supercell
superior
superjet
sur
sura
suraj
suratı
sureler
suresi
surette
surface
surfer
suricata
suricatta
surinam
suriye
surovikino
surtayka
suru
surya
sus
susadıbas
susana
susanino
suslovo
susuman
sutka
sutunı
sutıskı
suv
suvda
suvdan
suvg
suvga
suvlar
suvları
suvlu
suvnı
suvnın
suvorove
suvsag
suvu
suvunı
suvuq
suvuqlang
suvı
suvırıp
suwg
suyan
suyetka
suyundu
suzdal
suzun
suðurland
sv
sva
svala
svatove
svec
svenska
sverdlovsk
sverdlovskoye
sverstu
svet
sveti
svetlana
svetlaya
svetlogorsk
svetlovka
svetloye
svetlıy
svg
svic
svirsk
svitlana
svitlovodsk
svitsın
svoboda
svobodnıy
swallow
swan
sydney
syerra
syezdinde
sygarus
sylvatica
symbol
sympetrum
synagogue
syncerus
syrphidae
system
systems
sythen
sz
szczecin
szn
sı
sıc
sıcaq
sıcaqlıg
sıcaqlıq
sıdırıp
sıfatında
sıfatınen
sıg
sıktıvkar
sıltav
sıluw
sıma
sımarıs
sın
sına
sınc
sında
sınelnıkove
sınfiy
sınfı
sınfında
sınfının
sıng
sıngayi
sıno
sıntas
sını
sınıf
sınıflandırma
sınıflar
sınıflas
sınıfnı
sının
sınır
sıpra
sıprag
sıq
sıqc
sıqlıg
sıqı
sıqıp
sıqıs
sır
sıra
sırada
sıradan
sırag
sıralar
sıraları
sıralav
sıralı
sıralıg
sırası
sırasıdır
sırasına
sırasında
sırasından
sırasının
sırb
sırbca
sırbistan
sırbistanda
sırbistandaki
sırbistannın
sırdarya
sırdas
sırf
sırları
sırlarını
sırlı
sırt
sırtlanovo
sırtı
sırın
sıtkivtsi
sıtma
sıvas
sıydı
sıylanıp
sıylı
sız
sızg
sızlanma
sızıg
sızıp
səlimov
t
ta
taa
taacipli
tab
taba
tabac
taban
tabar
tabi
tabiat
tabiatnın
tabiatı
tabiatına
tabiatının
tabiiy
table
tabor
tabuldı
tabunı
tabut
tabı
tabılır
tabının
tabıp
tac
tacik
tacikc
tacikistan
tacikistanda
tacikistang
tacikistannın
tacı
tadan
tadbiq
tadt
tafsila
tag
taganrog
tages
tagol
tagor
tahallu
tahmin
tahminen
tahmini
taht
tahta
tahtamukay
tahtaravalli
tahtası
tahtnı
tahtqa
tahtta
tahttan
tahtına
tahtını
tahya
tailandia
tailed
tain
taipei
tair
tais
taiti
taiwan
taj
takana
takane
take
taken
taki
takip
takles
takmak
taksiler
taktagulovo
tal
tala
talabınen
talag
talakan
talalayivka
talap
talaplar
talas
talay
talayı
talda
taldom
taldıqorg
talebe
talebeler
talebeleri
talebelernin
talebesi
tales
talg
taliban
talil
talili
taliliy
talim
talitsa
taliya
taliyada
taliyanın
talk
tallin
tallinn
tallıkul
talmenka
talne
talovaya
talovka
tals
talyan
talı
talıy
tam
tama
tamag
tamak
tamala
tamam
tamaman
tamamen
tamamile
tamamladı
tamamlag
tamamlandı
tamamlang
tamamlayıcı
tamamınen
taman
tamaq
tambov
tambovka
tambovskiy
tamc
tamg
tamgalı
tamil
tamila
tamir
tamm
tams
tamyan
tamır
tamırlar
tamırları
tamırlı
tamırı
tamırından
tan
tana
tanadın
tanen
tang
tanganyika
tango
tanin
tanis
tanivka
tank
tanka
tankovoye
tanovka
tanrıc
tanrıkulu
tantanalı
tanuv
tanzania
tanzaniya
tanı
tanıdı
tanıg
tanıla
tanıldı
tanılg
tanılmag
tanılması
tanıma
tanımadı
tanımamaq
tanımaq
tanıması
tanımlang
tanın
tanıng
tanınmıs
tanıp
tanıs
tanıtma
tanıtuv
tanıtılmasından
tanıy
tap
tapa
tapalmag
tapan
tapilg
tapip
tapis
tapma
tapmag
tapmaq
tapqan
taprobanis
taps
taptap
taptin
taptı
tapu
tapıla
tapıladı
tapıldı
tapılg
tapılmag
tapılır
tapıp
taq
taqatlı
taqdim
taqdir
taqdirde
taqdirin
taqdirlendi
taqip
taqiqat
taqiqatc
taqis
taqlidi
taqlit
taqma
taqmaq
taqsim
taqvimine
taqviminin
taqıl
taqım
taqımları
taqımlarını
taqımnın
taqımı
taqımıdır
taqımına
taqımında
taqımından
taqımının
taqır
tar
tara
taraba
taraf
tarafdarları
tarafdarı
tarafları
taraflarında
taraflarını
tarafta
taraftaki
taraftan
tarafı
tarafına
tarafında
tarafındaki
tarafından
tarafını
tarafının
taraq
taras
tarasivka
tarasovka
tarhan
tarhang
tarhanlar
tarhannı
tarif
tarifi
tarifini
tarih
tarihc
tarihi
tarihin
tarihinde
tarihinin
tarihiy
tarihları
tarihlı
tarihnı
tarihnın
tarihqa
tarihta
tarihtan
tarihte
tarihı
tarihına
tarihında
tarihındaki
tarihından
tarihını
tarihının
tarixində
tarla
tarlasında
tarn
tarna
tarnovo
tarpanc
tarpi
tarqala
tarqalg
tarqaluvı
tarqatuv
tars
tart
tartak
tartar
tarttı
tartu
tartıp
tartıs
tarusa
tarutıne
tarzda
tarzfenligi
tarzfenlikler
tarzı
tas
tasalar
tasavur
tasavvuf
tasdiq
tasdiqlandı
tasdiqlay
tasdıq
tasdıqla
tasdıqlag
tasdıqlandı
tasdıqlang
tasdıqlay
tasil
tasili
tasiline
tasilini
task
taska
taslap
tasma
tasmager
tasman
tasmaniya
tasnif
tasnifi
taste
tasvir
tasviri
tasviriy
tasvirlegen
tasvirler
tasvirley
tası
tat
tataları
tatar
tatarbunarı
tatarc
tatarca
tatarcası
tatardan
tataristan
tataristanda
tatarko
tatarlar
tatarlardan
tatarlarg
tatarlarnı
tatarlarnın
tatarları
tatarlarından
tatarlarının
tatarlıg
tatarlıq
tatarman
tatarnın
tatars
tatarsk
tatarskaya
tatarskiy
tatarım
tatası
tatbiq
tatil
tatilge
tatlar
tatlarnın
tatları
tatlarına
tatlarında
tatlarının
tatlı
tatt
tatyana
tatyanovka
tatı
tatında
tatındaki
tatının
tatıs
tau
tauerntal
taus
tav
tavan
tavanı
tavda
tavdan
tavg
tavga
tavr
tavric
tavrida
tavriya
tavrlar
tavs
tavuq
tawdan
taxonomy
tay
tayac
tayag
tayak
tayana
tayang
tayangan
tayanıp
tayg
tayga
tayin
tayinlendi
tayinlene
tayinlengen
tayirove
tayland
taylandnın
taylor
taymaz
tayn
tayna
taypınıs
tays
tayvan
tayyip
taze
tazlarovo
tbesi
tbilisi
tc
tcp
td
tdk
te
team
teart
teatr
teatri
teatrinde
teatrinin
teatrnın
teatro
teatrı
teau
teber
teberti
tebessu
teblig
tecavuz
technology
tecribe
tecribesi
tecribesini
tedaviy
tedbir
tedbiri
tedbirini
tedbirler
tedbirleri
tedkik
tedqiq
tedqiqat
tedqiqatc
tedqiqatlar
tedqiqiy
teessu
tefan
teftis
teges
teginler
tegiz
tegizlep
tehas
tehassıs
tehassıslar
tehassısları
tehassısı
tehdit
tehera
tehlike
tehnik
tehnika
tehnikanın
tehnikası
tehnikasının
tehnikiy
tehnikumnı
tehnikumı
tehnikumına
tehnikumında
tehnologik
tehnologiya
tehnologiyalar
tehran
tek
tekerrir
teki
tekke
tekles
teklif
teklifi
teklifler
teklifni
teklik
teklikte
teklivka
tekmil
teknik
tekrar
tekrarlamaq
tekrarlar
tekrarlay
tekstil
tektonik
tel
tela
telc
tele
telecommunications
telefon
telefonlarımıznı
telekanallar
telekanalları
telekanalı
telekanalında
telekanalının
teleko
telekom
telekonferentsiya
telekonferentsiyalar
telekonferentsiyalarda
telekoru
telescope
teleskop
teleskopınen
teleskopının
teleutskoye
televizion
televizionı
televizyon
teller
telleri
telli
telqin
telsiz
telu
tem
tema
temas
temel
temelci
temelcilerinden
temelcisi
temeldir
temeli
temelidir
temelinde
temeline
temelini
temelleri
temelles
temelli
temenna
temin
teminatı
teminatına
teminatınen
teminatını
teminatının
teminlegen
teminlemek
teminlev
temir
temirden
temirli
temiz
temizlengen
temizlev
temizligi
temnikov
template
temple
templo
temporaria
temps
temru
temsil
temsilcileri
temsilcilerinin
temsilcisi
temsiliy
ten
teneffu
tenefu
tenellum
tenerife
tenge
tennesi
tennessi
tenqidiy
tenqit
tenqitc
tentek
teodoro
teofipol
tepa
tepe
teplovka
teplık
teprec
ter
teraqqiyat
terbiye
terbiyeli
terbiyesi
terc
tercim
terciman
tercimanda
tercime
tercimeci
tercimeial
tercimeialı
tercimeiyal
tercimeler
tercimeleri
tercimenin
tercimesi
tercimesinde
tercu
terdi
terebovla
teregi
tereginin
terek
terekdin
terekke
terekler
terekleri
tereklernin
terekli
tereknin
teren
terenden
terenles
terenligi
terenligine
teres
tergen
teri
teriden
terildi
terile
teriler
terilgen
terilip
terilis
terinin
terip
terisi
terisinden
terk
terkib
terkibi
terkibinde
terkibindeki
terkibinden
terkibine
terkibiy
terkip
terlep
termege
termek
terminal
termı
ternivka
ternopil
tero
terra
territorial
territoriya
territoriyası
territoriyasında
terror
terroristlikke
ters
tertibi
tertibinde
tertibine
tertibinen
tertibini
tertip
tertipke
tertipli
teru
teruel
tes
tesadu
tesak
tesbit
teselli
tesi
tesir
tesiri
tesirinde
tesirinden
tesirini
tesirlenu
tesirli
tesis
tesisc
tesla
teslim
tesnivka
test
testinin
tet
tetis
tetiyiv
tetqiq
tetqiqat
tetqiqatc
tetqiqatlar
tetqiqiy
tettigonia
teuc
tevan
tevhit
tevqif
tevrat
tevratnın
tevriz
tevsiye
tevsiyeler
text
textcolor
texts
tey
teyfuq
teykovo
teylor
teyn
tez
tezden
tezi
tezis
tezisleri
tfi
tfiye
tgv
th
thai
thank
that
thatta
thattu
the
theatre
their
thekkady
them
these
they
thin
things
third
this
thom
thomas
thomisus
thomsen
those
three
thrill
through
thu
thudufushi
thumb
thumbcaption
thumbnail
ti
tibbiy
tibbiyet
tibet
tibi
tibiyet
tica
ticaret
ticariy
tie
tif
tiflis
tifliste
tig
tiger
tigris
tihatka
tihatlarına
tihonovka
tihoretsk
tihvin
tik
tikenli
tikici
tikip
tiklemek
tiklenip
tiklenmesi
tiklenu
tiklep
tiklev
til
tilar
tilc
tilde
tildir
tilegin
tilenc
tilende
tilens
tilep
tiler
tilermen
tiletka
tileymen
tilge
tili
tilidir
tilim
tilimiz
tilin
tilinde
tilindeki
tilinden
tiline
tilinen
tilini
tilinin
tilinın
tilki
till
tiller
tillerde
tillerdeki
tillerden
tillerge
tilleri
tillerinde
tillerinden
tillerine
tillerinede
tillerini
tillerinin
tillernin
tilli
tilnen
tilni
tilnin
tils
tim
tima
timaiy
timaiyat
timas
time
timeaxis
times
timi
timira
timirovo
timiz
timor
timos
timsah
timsali
timsallerinden
timur
timurg
timurnın
tin
tina
tinaki
tinc
tino
tinskaya
tintu
tiozo
tip
tipik
tiq
tiqis
tir
tira
tiragı
tirajı
tirak
tirakc
tirakı
tiraq
tirdi
tirdik
tirdiler
tirdim
tirdiq
tire
tirec
tirecek
tirerek
tirg
tirgen
tiri
tirici
tirildi
tirile
tirilecek
tirilg
tirilgen
tirilip
tirilmesi
tirilmesinen
tirilu
tirip
tirir
tiris
tirkemege
tirmag
tirmaq
tirmaqta
tirmas
tirme
tirmedi
tirmege
tirmek
tirmen
tirmesi
tirol
tiru
tirumala
tis
tisul
titan
titon
titovo
titredi
tiv
tivka
tiy
tiya
tiydi
tiygen
tiynag
tiyse
tizdi
tize
tizgen
tizilgen
tizilis
tizu
tk
tka
tkac
tke
tken
tkende
tkerildi
tkerile
tkerilgen
tkermek
tkeru
tki
tkino
tkisiz
tkivtsi
tkovo
tku
tkuc
tkulovo
tla
tlar
tlarda
tlarnen
tlarnı
tlarnın
tları
tlarında
tlarınen
tlarını
tlarının
tle
tler
tlerini
tlesinin
tleviy
tli
tlik
tlinks
tlu
tlumac
tlı
tm
tma
tmegin
tmek
tmutarakan
tnazariyesi
tnen
tnitskoye
tnı
tnın
to
tobago
tobay
toc
tockus
todor
tog
togo
toguc
togul
toguz
tok
tokarivka
tokat
tokio
tokioda
tokmak
toktamay
tokur
tokyo
tola
tolbazı
told
toldurg
toledo
tolg
tolgap
tolgaydı
tolmac
tolstoy
tolstoynın
tolu
toludır
tolusınen
tolı
tolıp
tom
tomakivka
tomas
tomb
tome
tomic
tomoe
tomsen
tomsk
ton
tone
tong
tonga
toni
tonkino
tonna
tons
tony
tonın
toompea
top
topac
topal
topar
topc
topi
topilnia
topki
topladı
toplag
toplam
toplama
toplamaq
toplamaqtır
toplamı
toplamının
toplandı
toplang
toplanması
toplanıla
toplap
toplar
toplas
toplay
toplu
toplulıg
toplulıqnın
toplum
topografik
topographic
topoli
topolnoye
toponim
toppdoma
toprag
topraq
topraqlar
topraqlarda
topraqlardan
topraqlarg
topraqlarnı
topraqlarnın
topraqları
topraqlarına
topraqlarında
topraqlarından
topraqlarını
topraqlarının
topraqnen
topraqnı
topraqqa
topraqsız
topraqta
topsa
toq
toqa
toqluq
toqta
toqtadı
toqtag
toqtala
toqtalg
toqtamadan
toqtamay
toqtamıs
toqtan
toqtap
toqtarg
toqtatmaq
toqtatqan
toqtattılar
toqtatılg
toqtav
toqulc
toquma
toqumacılar
toqung
toqus
tor
torba
torbeyevo
torc
torg
tornado
toronto
torralba
torre
tortonese
toru
torun
torunı
toryal
tos
toska
toskana
toslav
tosno
total
totalitar
totanay
totay
totayko
totaylar
totma
tour
tova
tovka
tovo
tovoye
tovra
tovskiy
tovste
towards
tower
towers
town
toy
toyda
toyg
toylar
toylarda
toyma
toyota
toyu
toyı
toz
tozg
tqa
tr
tra
trabzon
track
trail
train
training
trakay
tramp
tramvay
trans
transit
translation
translations
transport
travels
traviata
travna
travneve
tre
trebinje
tree
trees
tren
treni
trento
tres
tretyakovo
tri
trial
tricolori
trier
trifolium
trihkod
trihkodlarnı
trinidad
trinity
trip
trir
trithemis
triumf
tro
troitsk
troitskiy
troitsko
troitskoye
trollev
trolleybus
tron
tropik
tropikal
tros
trossahs
trosta
trow
troyanı
troyitske
trt
tru
trubac
trubc
truck
trud
truda
trudolu
trudove
trudovoye
trunk
trusovo
trı
ts
tsa
tsarskoe
tsarskoye
tsarıc
tsebrıkove
tselinnoye
tselinnıy
tsentralnıy
tsenzura
tserkva
tsezar
tsin
tsingle
tsink
tsiolkovskiy
tsiya
tsiyag
tsiyanın
tskiye
tskoye
tsu
tsvetoc
tsvila
tsıbulivka
tt
ttan
tte
ttifaqdas
ttihat
ttirdim
ttirgen
ttweig
ttır
tu
tuapse
tuc
tuccar
tuccarlar
tufan
tufla
tug
tugara
tugay
tugayevo
tuja
tuk
tukatovo
tukay
tukayevo
tukmak
tukmaklı
tul
tula
tulata
tulc
tulip
tulipa
tuluganovka
tulum
tulun
tulup
tuluza
tuman
tumanbay
tumanlıg
tumboc
tuna
tunc
tunceli
tundra
tunis
tuqay
tur
tura
turalar
turaman
turan
turandot
turbaslı
turbaza
turbiv
turc
turdi
turdu
turdı
turdılar
turek
turg
turgan
turgenevo
turgut
turin
turing
turistik
turiysk
turizm
turka
turkevic
turkewycz
turkey
turkish
turkmenevo
turla
turlar
turm
turma
turmadan
turmadı
turmaqta
turmen
turment
turmus
turna
turoc
turs
tursa
tursun
tursın
turtle
turup
turus
turıp
tus
tusk
tut
tuta
tutalar
tutar
tutaraq
tutas
tutbuv
tutgart
tutmag
tutmaq
tutqan
tutqanlar
tutqanını
tutsa
tuttı
tutu
tutula
tutuldı
tutulg
tutulip
tutuluvı
tutulıp
tutung
tutuq
tutuqlandı
tutus
tutıp
tuva
tuvalu
tuvaq
tuvar
tuvdın
tuvg
tuvgan
tuvul
tuvıl
tuwg
tuwıl
tuy
tuyag
tuyagı
tuyg
tuymazı
tuymino
tuyu
tuyıp
tuz
tuzaqqa
tuzlag
tuzlu
tuzlukus
tuzlulıq
tuzlı
tv
tver
twin
twitter
two
typica
tı
tıbbiy
tıc
tıdır
tıg
tıhtem
tılar
tım
tımar
tımos
tın
tınc
tında
tıne
tınlap
tıntsi
tını
tının
tınıp
tınıs
tıpqı
tıq
tır
tıra
tıraraq
tırdı
tırdılar
tırg
tırma
tırmacı
tırmacılar
tırmadan
tırmag
tırmalar
tırmalarnın
tırmaları
tırmaq
tırmas
tırnag
tırnaq
tırnovo
tırtır
tıruv
tıruvdan
tıruvlarnın
tıruvınen
tırıcı
tırıla
tırıldı
tırılg
tırılmag
tırılması
tırılmasını
tırıluvı
tırılıp
tırıp
tırıs
tıs
tısmenıtsa
tıva
tıvriv
təltif
u
ua
uah
uanimals
ub
uba
ubarov
ubat
ubayevo
ubert
ubertnin
ubesi
ubinka
ubug
ubukaran
ubukliyeva
ubuntu
ubuqlı
uc
ucoz
ucu
ucunda
ucı
ucılar
ucısı
uda
udac
udarnoye
ude
udmurt
udmurtiya
udniv
udorsk
udovo
udra
udttmr
udır
ufa
ufada
ufaq
ufimskiy
ufuk
ufut
ug
uga
ugac
ugan
uganda
ugino
uglovoye
uglovskoye
ugol
ugolok
ugor
uguyiv
uha
uhloma
uhta
ui
uilyam
uinton
ujg
ujgorod
ujina
ujur
uk
ukan
ukmet
ukonskoye
ukotka
ukovo
ukovskaya
ukr
ukrai
ukrain
ukraina
ukrainada
ukrainadaki
ukrainadan
ukrainag
ukrainalı
ukrainanen
ukrainanı
ukrainanın
ukraince
ukraine
ukrainian
ukrainka
ukrainler
ukrainlerge
ukrainskaya
ukrainskiy
ukrayina
ukrayinka
ukrayinske
ukrayna
ukraynalı
ukrcensus
uks
ukteyevo
ukur
ukurovo
ul
ula
ulagan
ulam
ulan
ulaqlı
ular
ulardan
ulardır
ulari
ularnı
ularnın
uları
ularım
ularını
ulas
ulasa
ulay
ulc
uldan
uldı
uldılar
ulg
ulginskaya
ulka
ulkanovo
ulları
ulm
ulmag
ulmaq
ulpan
ulsan
ultra
ulu
ulug
uluguru
uluk
ulus
ulusal
ulusc
uluslararası
ulusnın
ulusı
ulusınde
ulusındeki
ulusının
ulyanovka
ulyanovsk
ulı
ulım
ulın
ulının
ulıp
um
uma
uman
umanka
umbetovo
ume
umeda
umetbayevo
umhay
umiha
umland
umlar
umschreibung
umsk
umumbelarus
umumcian
umumdu
umumen
umumhalq
umumiy
umumiyles
umumrusiye
umumtasil
umun
umı
umıs
un
una
unace
und
unda
undaki
undan
unday
under
underside
unec
unen
unesco
ung
unhchr
uni
unidos
unikal
unin
union
unit
united
universal
universelle
universidad
universitet
universiteti
universitetinde
universitetinden
universitetine
universitetini
universitetinin
universitetke
universitetler
universitetlerden
universitetlerinde
universitetni
universitetnin
universitette
universitetı
university
unlar
unlas
unlıq
unnamed
unreviewed
unset
unskiy
unsurlar
unsurları
unter
untılivka
unuttin
unutılg
unvan
unvanlar
unvanları
unvanı
unvanında
unvanını
unı
unın
uoker
up
upanovo
upernavik
upi
uppa
upper
upright
uq
uqul
uquq
uquqiy
uquqlar
uquqlarını
ur
ura
urada
urag
urakayevo
ural
uralar
uraları
uralda
uralg
uralka
uralsk
uralskiy
uran
uranın
uras
urası
urasına
urasında
urasının
uraviy
urayevo
urazayevo
urazbahtı
urazbayevo
urazovo
urba
urban
urbası
urbasında
urbet
urbette
urc
urca
urdi
urdu
urdun
urdı
urdır
uren
urf
urg
urgan
urginka
uri
urinsk
urinskoye
urip
uriye
urjum
urkusta
url
urlarnın
urlu
urmag
urman
urmaq
urojay
urojaynoye
urojaynıy
urov
urs
ursayevo
ursk
ursus
urt
urticae
uru
urufat
urufatı
urufatında
urufatınen
urugvay
urum
urumlar
ururlı
urus
uruv
urım
urıp
urıvayevo
us
usa
usage
usak
usatove
usaydı
use
usein
usenet
usenetten
user
userlinks
usets
usi
usinsk
uslı
usman
usmanovo
usolye
usovoy
uspeh
uspeniye
uspenka
uspenovka
uss
ust
usta
ustahanesinde
ustalig
ustalıg
ustalıq
ustalıqnen
ustalıqnı
ustası
ustu
ustyanka
ustye
ustınivka
usu
usul
usullar
usullarnen
usullarnı
usullarnın
usulları
usullarına
usullarından
usullarını
usullarının
usulı
usulıdır
usulınen
usı
usını
ut
uta
utana
utang
utarit
utarovo
utawarerumono
utc
utkino
utkul
utove
uttar
uv
uva
uvaha
uval
uvaniy
uvarovka
uvas
uvda
uvdan
uvg
uvi
uvlang
uvlanıp
uvlar
uvlarnın
uvları
uvlarına
uvli
uvlı
uvni
uvnı
uvnın
uvı
uvında
uvından
uvını
uwn
uwılı
uy
uya
uyan
uyang
uyanuv
uyar
uydurdı
uydurg
uydurma
uyezd
uyezdi
uyezdinden
uyezdinin
uyg
uyka
uymon
uyrenemız
uyt
uyunc
uyuni
uyus
uyutnoye
uyıs
uz
uza
uzana
uzang
uzanıp
uzaq
uzaqlarg
uzaqlas
uzaqlıg
uzaqlıqta
uzaqlıqtadır
uzaqqa
uzaqta
uzaqtan
uzbekistan
uzlas
uzlav
uzun
uzunca
uzundan
uzunlig
uzunlug
uzunlıg
uzunlıq
uzın
v
va
vaade
vaap
vac
vade
vadim
vadis
vadiy
vadiysi
vadiysinde
vadiysinin
vaftiz
vaga
vagner
vagnernin
vahiy
vahrus
vahs
vajne
vakarc
vakfı
vaktı
vakulenc
vakıt
val
vala
valday
vale
valencia
valenciana
valencians
valensiya
valentin
valeriy
valisi
valitovo
valkı
valle
vallenato
valley
vals
value
valuyki
valyami
van
vanc
vancouver
vanellus
vang
vangorod
vani
vanillae
vaniv
vanivka
vanivtsi
vank
vankiv
vankivtsi
vankı
vano
vanopil
vanove
vanovic
vanovka
vanovo
vanovskaya
vanovskiy
vanovskoye
vanovıc
vans
vanuatu
vanıc
vanıs
vapna
vaqfı
vaqfının
vaqia
vaqiadan
vaqialar
vaqialardan
vaqialarnın
vaqiaları
vaqianı
vaqtı
vaqtınca
vaqtında
vaqtındaki
vaqtından
vaqtını
vaqıf
vaqıt
vaqıtlarda
vaqıtları
vaqıtlarında
vaqıtnın
vaqıtqa
vaqıtqace
vaqıtta
vaqıttaki
vaqıttan
vaqıtı
vaqıtınca
vaqıtında
var
vara
varanasi
varansu
vargas
variantı
variation
various
variyetini
varlıq
varna
varnautka
varnavino
varqula
vars
varva
varvarivka
varvarovka
vas
vasfiye
vasil
vasilc
vasiliy
vasilyevic
vasilyevka
vasilyevskaya
vasko
vaskovo
vasta
vastalarnın
vastaları
vastalarının
vastası
vastasıdır
vastasınen
vastasız
vasıl
vasılivka
vasılkiv
vasılkivka
vat
vatan
vatanda
vatandan
vatandas
vatang
vatanlarına
vatanperverlik
vatanı
vatanım
vatanımdan
vatanın
vatanına
vatanında
vatanından
vatanını
vaterloo
vatia
vatikan
vatutino
vay
vayenga
vayoming
vays
vazgec
vazife
vazifede
vazifeden
vazifege
vazifeler
vazifelerden
vazifeleri
vazifelerinde
vazifelerinden
vazifelerine
vazifelerini
vazifelerni
vazifelernin
vazifeni
vazifesi
vazifesinde
vazifesinden
vazifesine
vazifesinen
vazifesini
vaziyet
vaziyeti
vaziyetinde
vaziyetine
vaziyetini
vaziyetke
vaziyetler
vaziyetni
vc
vde
vden
vdir
ve
veb
veba
vecchio
veci
veciye
veda
vedalas
vefat
vefatı
vefatına
vefatından
veka
vekaletli
vekil
vekili
vekilidir
vekiller
vekilleri
vekillerinden
vekillerinin
vel
velaskes
veler
veli
velidnıkı
velikiy
veliko
velikoye
veliyev
vels
velsk
velıka
velıke
velıki
velıkodolınske
velıkıy
ven
venada
vendıc
venedik
venera
venesuela
venetsiya
venezuela
vengen
venice
ventila
ver
vera
verbivka
verbka
verbo
verde
verdi
verdinin
veres
vergi
vergiliy
verh
verhivka
verhna
verhnekama
verhnetroitskoye
verhneye
verhniy
verhniye
verhno
verhopadengskoye
verhos
verhovye
verhovına
veris
verna
vernadskiy
vernon
vernıy
vers
versailles
versal
version
versiya
versiyag
versiyası
versus
vertical
verticalis
vesela
vesele
veselivka
veselovka
veselınove
vesiqa
vesiqalar
vesiqalarda
vesiqalarnı
vesiqaları
vesiqalarında
vesiqalarını
vesiqalı
vesna
veso
vestfaliya
vestfirðir
vestman
vesturland
veteranı
vetluga
vetlujskiy
veto
veya
veyd
veydelevka
veyisko
veymar
veys
veyt
vezin
vezinde
vezini
vezir
veziri
vezirine
vge
vi
via
viaduc
viatour
viborg
vic
vicdan
vicina
victoria
victory
vida
video
videoklipler
videosı
vidir
vidnoye
vie
viejo
vienna
vienne
vietnam
view
views
vii
viii
viki
vikilerin
viking
vikipediya
vikipediyalar
viktor
viktoria
viktorivka
viktoriya
viktorovic
viktorovka
vila
vilegodsk
vilgelm
vilhelm
vilhering
villa
village
villas
ville
vilna
vilne
vilnu
viloyati
vils
vilu
vilyam
vilyams
vim
vimeo
vimiz
vin
vinc
vincent
vinci
vinde
vinden
vine
vinen
vini
vinil
vinin
vinkivtsi
vinn
vinnıtsa
vinogradnoye
vinogradovka
vinogradovo
vinsent
violonc
viqat
viqatc
vira
viran
virane
viraneleri
viranesi
virciniya
virgen
virgin
virginia
virginiana
virginiya
virgo
virgu
viridis
virivka
virtual
viru
viruslar
vis
visbeck
vision
viski
viskonsin
vista
vistas
vitaliy
vitrail
vitraj
vitsebsk
vivc
vivo
viyana
viyananın
viytivtsi
vka
vladikavkaz
vladimir
vladimirovka
vladislav
vladislavovka
vladivostok
vlasenko
vlasiha
vlasyevskaya
vlei
vler
vleri
vlerinden
vli
vlik
vn
vna
vnen
vni
vnin
vnın
vo
voc
voda
vode
vodnıy
vodolaga
vodı
voices
voinka
vojega
vokal
vokzal
vokzalı
vol
vola
volapu
volc
volcanes
volfgang
volfram
volga
volgo
volgograd
volgorec
volhov
voljsk
voljskiy
volkovo
volno
volnovaha
volnoye
voloc
volodarka
volodarsk
volodarskiy
volodiyivtsi
volodımır
volodımırets
volodımırivka
volodımırovıc
vologda
voloka
volokolamsk
volokonovka
volos
volosovo
volost
volovets
volt
volter
volume
volın
volınka
volınskıy
volıtsa
vom
von
vor
vorhol
vorholnın
vorkuta
vorlage
vorobiyivka
vorobyi
vorobyovo
voron
voronej
voronivtsi
voronovıtsa
vorontsov
voros
vorotınets
vorotınsk
vorzel
voshod
voskresenka
voskresenovka
voskresensk
voskresenskoye
vostoc
vostok
vote
votskaya
vovc
voyager
voye
voyevodalıg
voyevodalıq
voyevodalıqları
voyevodalıqnın
voykovo
voyvodinada
vozdvijenka
voznesenka
voznesenovka
voznesensk
voznesenskiy
voznesenskoye
voznesenye
vradiyivka
vrangel
vrotslav
vs
vsevolojsk
vsk
vskaya
vskiy
vtoraya
vtoroy
vtoroye
vtorıye
vu
vucutnın
vue
vuktıl
vulgare
vulgaris
vulnerata
vulpes
vulıga
vvedenka
vyac
vyazivka
vyetnam
vyetnamca
vyetnamda
vyetnamnın
vzvod
vı
vıborg
vıc
vıdumka
vıgnanka
vıgoda
vıgonic
vıjivka
vıjnıtsa
vıksa
vıla
vılkove
vınogradiv
vınogradivka
vınogradne
vıpasnoye
vıs
vıselok
vıska
vısoka
vısokaya
vısoke
vısokopilla
vısokoye
vısokıy
vıtegra
vızlı
vızıldavuq
və
w
wa
wall
walter
walvis
waqif
war
warheroes
warren
warriors
warsaw
warszawa
warszawie
was
washington
washingtonia
wasp
wat
watch
water
waterfront
wave
way
wb
wc
wconnect
we
weaver
web
website
webster
wedding
wei
weibchen
weight
weil
welcome
well
wells
welt
were
werksverzeichnis
werkzeughalle
west
westdeutsche
western
westruper
wgs
whale
what
wheel
when
which
whipsnade
white
who
wi
wide
width
wielkopolskie
wien
wiese
wifi
wiki
wikibooks
wikidata
wikimedia
wikinews
wikipedia
wikiquote
wikisource
wikispecies
wikiversity
wikivoyage
wiktionary
wild
wildpark
wildpferde
wilhelm
wilhelma
wilhering
will
william
wind
window
wing
winged
winter
witches
with
without
wittelsbacher
wka
wm
wojewo
wolf
wolfgang
woman
women
wood
wooden
wordnet
work
worker
works
world
wp
wright
wroclaw
wu
www
wydział
wz
x
xanadu
xanyan
xarici
xerais
xi
xic
xico
xii
xiii
xiv
xix
xmas
xo
xv
xvi
xvii
xviii
xx
xxi
xxii
xysticus
xəqani
y
ya
yabalaklı
yaban
yabancı
yabloc
yablonovskiy
yablunets
yabluneve
yablunivka
yabogan
yac
yada
yag
yagodnaya
yagodnoye
yagodnıy
yagotın
yahs
yahudi
yahut
yahya
yak
yaki
yaklas
yakob
yakov
yakovlevka
yakovlevo
yakovlevskaya
yaks
yaktı
yakupovo
yakurovskaya
yakus
yakutiya
yakutsk
yakımivka
yakın
yal
yalan
yalanets
yalar
yalc
yaldag
yaldav
yalin
yaln
yalnızca
yaloman
yalos
yalova
yalpaq
yalta
yaltada
yaltadaki
yaltadan
yaltag
yaltanı
yaltanın
yaltus
yalvarip
yalı
yalıboylu
yalıboylular
yalıboylı
yalıboyu
yalıda
yalıg
yalıları
yalılarında
yalılarındaki
yalılarından
yalın
yalısı
yalısına
yalısında
yalısındaki
yalısından
yalısını
yalısının
yamac
yamaha
yamal
yaman
yamandan
yamanlıq
yamnoye
yampil
yan
yana
yanag
yanaqlı
yanardag
yanas
yanayatqan
yanbas
yanc
yandan
yang
yangi
yani
yanin
yanip
yanko
yantarnıy
yantıq
yanukovic
yanvar
yanvarnin
yanvarnın
yanı
yanıbayevo
yanın
yanına
yanında
yanındadır
yanındaki
yanından
yanının
yanıp
yanıs
yap
yapa
yapacag
yapacaq
yapar
yapasin
yapdı
yapis
yapma
yapmag
yapmaq
yapması
yapmazdan
yapon
yaponiya
yaponiyada
yaponiyalı
yaponiyanın
yapqan
yapqanda
yapqandan
yapqanlar
yapqanı
yaprag
yapraq
yapraqlar
yapraqları
yapraqlarını
yapraqlı
yapraqnın
yapraqta
yapti
yaptin
yaptiq
yaptı
yaptılar
yaptırdı
yaptırım
yapuv
yapı
yapıcılıg
yapıla
yapılar
yapıları
yapıldı
yapılg
yapılma
yapılması
yapılır
yapınca
yapıp
yapıq
yapıs
yapısı
yaq
yaqalamaq
yaqalanıp
yaqin
yaqinlas
yaqlas
yaqqa
yaqta
yaqtan
yaqti
yaqtı
yaqub
yaqup
yaqut
yaqutiya
yaqıldı
yaqın
yaqınca
yaqında
yaqından
yaqındır
yaqınlarında
yaqınlarındaki
yaqınlas
yaqınlıg
yaqınlıq
yaqınında
yaqıp
yaqıt
yar
yara
yarag
yaralandin
yaralandı
yaralang
yaralanıp
yaralı
yaramay
yaramaz
yaran
yaransk
yararlıqları
yaras
yarası
yarasını
yarata
yaratmag
yaratmaq
yaratmaqnı
yaratmaqtır
yaratqan
yaratqanı
yarattı
yarattılar
yaratuv
yaratuvdan
yaratıcılıg
yaratıcılıq
yaratıcısı
yaratıcısıdır
yaratıla
yaratıldı
yaratılg
yaratılması
yaratılmasında
yaratılmasını
yaratıluvı
yaratıluvına
yaratılıp
yaratılıs
yaratıp
yarc
yardım
yardımcı
yardımcısı
yardımlas
yardımı
yardımıi
yardımına
yardımınen
yarg
yarig
yarim
yarkoye
yarlıg
yarlıqlar
yarmolıntsi
yaroslavka
yaroslavl
yarove
yarovoye
yaruga
yaryshiv
yarı
yarıc
yarıg
yarılg
yarım
yarımada
yarımadada
yarımadag
yarımadanı
yarımadanın
yarımadası
yarımadasında
yarımadasındaki
yarımadasını
yarımadasının
yarımalbomı
yarımku
yarımında
yarın
yarından
yarıp
yarıq
yarıs
yarısı
yarısın
yarısında
yas
yasadı
yasag
yasala
yasalg
yasama
yasamag
yasamaq
yasap
yasaq
yasaqlag
yasaqlang
yasaqtır
yasay
yasayalmaq
yasaylar
yasenky
yasenove
yasin
yasna
yasnaya
yasnogirka
yasnogorsk
yasnopola
yasnıy
yastig
yastrubna
yası
yasınuvata
yat
yata
yatag
yataq
yatis
yatmag
yatqan
yatqanda
yattı
yatıq
yava
yavas
yavlug
yavoriv
yavorivka
yavur
yavuz
yaw
yawn
yay
yaya
yayg
yayla
yaylası
yaylasında
yaylasının
yayılg
yayımlamıs
yayımlanmıs
yayın
yayıncılık
yayınladı
yayınlandı
yayınlang
yayınlarnı
yayınları
yaz
yaza
yazalar
yazar
yazarlar
yazda
yazdi
yazdı
yazdılar
yazep
yazg
yazilg
yazip
yazlıq
yazma
yazmag
yazmaq
yazmasında
yazuv
yazuvı
yazı
yazıcı
yazıcılar
yazıcılarnın
yazıcıları
yazıcılarından
yazıcılarının
yazıcılıg
yazıcının
yazıcısı
yazıcısıdır
yazıda
yazıdan
yazıkovo
yazıla
yazılar
yazıları
yazıldı
yazılg
yazılmag
yazılması
yazılı
yazılıp
yazılır
yazılıs
yazında
yazının
yazıp
yazıq
yazır
yazısı
yazısınen
yazısını
yc
yde
ydeki
yden
ydes
ydir
ydu
ye
year
years
yecisi
yedek
yeden
yedev
yedey
yedi
yedin
yedinci
yedinov
yedoma
yege
yegi
yegin
yegoryevka
yegoryevsk
yegoryevskoye
yejovka
yeka
yekaterina
yekaterinburg
yekaterinoslavka
yekaterinovka
yeku
yel
yelan
yelanda
yelanets
yelda
yelena
yelenovka
yeler
yeleri
yelerini
yelets
yelga
yeli
yelimbetovo
yelizavetino
yelizovo
yelken
yelkenli
yeller
yelleri
yelloustoun
yellow
yeltsovka
yelızavetivka
yem
yemedi
yemegi
yemegin
yemek
yemekler
yemekleri
yemeklerni
yemekten
yemelyanovo
yemen
yemilc
yemin
yemis
yemtsa
yen
yenakiyeve
yengec
yengil
yeni
yeniseysk
yeniseyskiy
yenotayevka
yep
yer
yerastı
yerc
yerde
yerdeki
yerden
yerel
yerevan
yerge
yeri
yerim
yerin
yerinde
yerindeki
yerinden
yerine
yerini
yerinin
yerler
yerlerde
yerlerden
yerlerge
yerleri
yerlerinde
yerlerine
yerlerini
yerlerinin
yerlerni
yerlernin
yerles
yerli
yerlilerden
yermac
yermekey
yermolkino
yerni
yernin
yero
yerofey
yers
yerus
yes
yesi
yesini
yet
yete
yetedi
yetekc
yetekleyici
yeter
yeterli
yeterlik
yeti
yetinde
yetindeki
yetine
yetinen
yetinin
yetinın
yetip
yetis
yetken
yetkende
yetkeni
yetkilerinen
yetkisi
yetkisine
yetlerge
yetleri
yetlerine
yetmedi
yetmegen
yetmegeni
yetmis
yetnin
yetpesim
yette
yetti
yeudi
yeudiler
yeudilernin
yeudilik
yeudiy
yevdokimov
yeve
yevgen
yevgenivka
yevgeniy
yevka
yevo
yevpator
yevromaydan
yevskaya
yey
yeysk
yge
ygen
yi
yiberdi
yibergen
yiberildi
yiberile
yiberip
yibermek
yig
yigirmi
yigirminci
yigit
yil
yilg
yimbike
yime
yims
yin
yinde
yinden
yine
yinin
yip
yipek
yiqila
yiqilg
yirlay
yivka
yizbirbas
yizkor
yken
ykenek
yle
ylece
yledir
ylelikle
yleliknen
yleme
ylemi
ylendi
ylene
yler
ylerde
ylerge
yleri
ylerinde
ylerinden
ylerine
ylerini
ylernin
yles
yley
yleycek
yli
ylu
ym
ymege
ymeles
yni
ynin
yo
yog
yogyakarta
yohann
yohannes
yohannesnin
yok
yol
yolag
yolaq
yolaqlı
yolaqta
yolbas
yolcu
yolda
yoldas
yolg
yolla
yolladı
yolladılar
yollag
yollamag
yollamaq
yollandı
yollang
yollanıla
yollanıldı
yollanılg
yollap
yollar
yollarnen
yollarnı
yolları
yollarında
yollarınen
yollarını
yollarının
yollas
yollav
yollay
yollaylar
yolnen
yolnı
yolnın
yolu
yolun
yoluna
yolunda
yolunen
yolunı
yolunın
yolı
yoq
yoqlug
yoqmi
yoqsullıq
yoqtır
yor
yorg
york
yorkta
yorulg
yos
yosemite
yosıpivka
you
young
your
youth
youtube
yozef
yozgat
ypole
ypthima
yren
yrep
yret
yru
ys
ysk
ystva
yten
yu
yuan
yudendorf
yue
yuhnov
yuhta
yuja
yujno
yujnıy
yukalikulevo
yuko
yukon
yul
yulayevo
yuldas
yulduz
yuldıbayevo
yuliy
yumaguzino
yumas
yumatovo
yumi
yumrug
yums
yun
yunan
yunanca
yunanistan
yunanistanda
yunanistannın
yunanlar
yunanlarnın
yunanları
yunas
yunnan
yunus
yunusovo
yuqarı
yuqarıda
yuqarıdaki
yuqarıdan
yuqarıg
yuqlag
yuqlamag
yuqlaysin
yuqunc
yura
yuraktau
yurdu
yurga
yurgamıs
yurino
yurivka
yuriy
yurkivka
yurkivtsi
yurmala
yurmas
yurt
yurtları
yurtlarında
yurtlarından
yurtqa
yurtu
yurtuna
yurtunda
yurtunı
yurtunın
yurtı
yurya
yuryev
yuryevets
yuryevskaya
yuryivka
yus
yusuf
yusupovo
yuta
yutquna
yutub
yuva
yuvalar
yuvası
yuvunuv
yuz
yuzden
yyyy
yıg
yıl
yılan
yılayır
yılbas
yılda
yıldan
yıldo
yıldır
yıldırım
yıldız
yıldızlar
yıldızlarnın
yıldızları
yıldızı
yılg
yıllar
yıllarda
yıllarnın
yılları
yıllarına
yıllarında
yıllarını
yıllarının
yıllıg
yıllıq
yıllıqnın
yıllıqta
yılnın
yılı
yılın
yılına
yılında
yılından
yılının
yıms
yımırta
yıq
yıqtı
yıqıla
yıqıldı
yıqılg
yıqıntılar
yıqıp
yır
yırcı
yırcılar
yırcıları
yırcısı
yırda
yırdan
yırdır
yırla
yırlag
yırlap
yırlar
yırlardan
yırlarnı
yırlarnın
yırları
yırlarından
yırlarını
yırlarının
yırlay
yırlaylar
yırnen
yırnı
yırnın
yırtıcı
yırı
yırın
yırını
yırının
z
za
zaat
zaatlar
zabara
zabaykalsk
zabaykalskiy
zabaykalye
zabella
zabiti
zabolot
zabolotiv
zaborye
zac
zade
zadege
zadeka
zadeni
zadenin
zadonsk
zafer
zagaynovo
zagora
zagorodnıy
zagreb
zaharivka
zaharovic
zaharovo
zaharovskaya
zaigrayevo
zaimka
zaitovo
zak
zakamensk
zakarpatta
zakir
zal
zalanko
zalari
zalegos
zalesovo
zalesye
zalis
zalishchuk
zalissa
zaliznıc
zalmora
zaltsburg
zaltı
zalı
zalında
zaman
zamanda
zamandaki
zamandan
zamandas
zamang
zamanki
zamanla
zamanlar
zamanlarda
zamanlardan
zamanlarnın
zamanları
zamanlarında
zamannı
zamannın
zamanı
zamanımızda
zamanında
zambaq
zambia
zambiya
zamek
zamenhof
zamet
zamojne
zan
zanovka
zaozerne
zaozerye
zaozo
zapadnaya
zapadnıy
zapan
zapola
zaporijja
zaporog
zapt
zar
zara
zaragoza
zarar
zararlı
zaraysk
zarec
zarema
zarfında
zaric
zarinsk
zaruc
zarudıntsi
zarur
zaruriy
zas
zastavna
zaten
zato
zatıs
zavala
zavallı
zavetnoye
zavetı
zavitinsk
zavod
zavoda
zavodlar
zavodske
zavodskoye
zavodı
zavodında
zavoljsk
zavoljye
zavyalovo
zaymis
zaytsev
zaytsevo
zayıf
zayıflas
zaza
zazaki
zazalar
zbaraj
zbas
zbek
zbekc
zbekistan
zbekistanda
zbekistandaki
zbekistang
zbekistannın
zboriv
zc
zce
zcu
zde
zdek
zden
zdevic
zdnıy
zdolbuniv
ze
zea
zealand
zee
zegen
zegenlerni
zein
zeir
zek
zeka
zekeriya
zekkiye
zel
zelandiya
zelandiyanen
zelandiyanın
zelbay
zelena
zelene
zelenivka
zelenogirske
zelenogorsk
zelenograd
zelenogradsk
zelenskıy
zelenıy
zeller
zelligi
zellik
zellikle
zellikleri
zelliknin
zelo
zelzele
zemaneviy
zemetc
zemin
zemla
zen
zenaat
zenbas
zende
zendir
zenek
zengin
zengindir
zenginles
zeni
zenidir
zeninde
zeninden
zenine
zenini
zeninin
zenler
zenleri
zenlerinin
zennin
zentrale
zep
zer
zera
zerdu
zere
zeri
zerin
zerinde
zerindeki
zerinden
zerine
zerk
zernovoye
zero
zerre
zes
zestiria
zetici
zetile
zetme
zetmek
zetti
zettim
zetu
zevka
zevo
zevq
zevqlı
zey
zeya
zeydeki
zeyi
zeyinde
zeyinin
zeyler
zeyleri
zeynep
zeynin
zeysin
zeytin
zeytu
zeytulla
zga
zge
zgu
zgurivka
zh
zhovkva
zhuang
zi
zidaresi
zigi
zigmund
zik
zikir
zil
zila
zilim
zim
zima
zimbabue
zimbabve
zime
zimino
zin
zine
zinin
zinkiv
zino
zinoviy
zira
ziraat
ziraatc
zirgan
ziriklı
zirikovo
zirimzibas
zirka
ziya
ziyaddin
ziyade
ziyadece
ziyadedir
ziyadin
ziyaeddin
ziyafet
ziyafetine
ziyalılar
ziyalılarnın
ziyalısı
ziyan
ziyanka
ziyaret
ziyaretc
ziz
zki
zl
zları
zlata
zlatoust
zler
zlerce
zlerde
zlerge
zleri
zlerimden
zlerime
zlerimiz
zlerin
zlerinde
zlerinden
zlerine
zlerinen
zlerini
zlerinin
zlernen
zlerni
zlernin
zles
zlev
zli
zlu
zlıg
zlınka
zlıva
zm
zmayil
zmaylov
zmaylovo
zmeinogorsk
zmir
zmiyiv
zn
znamenka
znamensk
znamyanka
znen
zni
zniki
znin
zo
zobilnoye
zoloc
zolotitsa
zolotonos
zolotov
zolotoye
zolotuha
zolotuhino
zona
zonalnoye
zonası
zonguldak
zoo
zoologiya
zor
zora
zorbalıq
zorbalıqnen
zori
zorino
zorlu
zorluq
zornen
zovaya
zovets
zovka
zovo
zovskiy
zozulıntsi
zrail
zre
zsu
zsuzsa
ztu
zu
zual
zubatov
zubivs
zubova
zubovka
zubovo
zuckerberg
zudilovo
zuleyha
zulu
zulum
zulumdan
zulumg
zulumı
zum
zumrudnoye
zur
zurna
zurnanın
zuya
zuyevka
zuyevo
zva
zvenigorod
zvenigovo
zvenıgorodka
zvestkovoye
zvestkovıy
zvo
zwettl
zwinger
zyas
zye
zı
zıddiyet
zına
zıncırlı
zıncırnı
zıt
{
|
}
~
¡
©
«
¬
­
°
±
²
³
´
¶
·
¹
º
»
½
×
ð
þingvellir
ı
ıbın
ıbını
ıc
ıcı
ıcılar
ıcısı
ıda
ıdaki
ıdakiler
ıdan
ıdır
ıfahanesi
ıflandırmaq
ıg
ıgadı
ıgarıp
ıgım
ıgıp
ıgırın
ıhnaz
ık
ıkba
ıkkan
ıko
ıkı
ıl
ıla
ılacaq
ılamag
ılan
ılanda
ılap
ılar
ılarg
ılarnı
ılarnın
ıları
ılarından
ılarınen
ılarını
ılarının
ılas
ılay
ıldı
ılg
ılmamazlıq
ılmaq
ılması
ılsın
ıluv
ıluvında
ılı
ılıg
ılık
ılıp
ılıq
ılıqlar
ılıqlı
ılıqta
ılır
ılıs
ım
ıma
ıman
ımda
ımdan
ımnı
ımnın
ımı
ımız
ımızg
ın
ına
ınace
ınarnın
ınas
ınaslar
ınaslıq
ınası
ınasıdır
ınc
ıncı
ında
ındadır
ındaki
ından
ınday
ındı
ıne
ınen
ınets
ıng
ınivka
ınka
ınlar
ınlıq
ınman
ınska
ınske
ıntav
ıntsi
ıntıldı
ıntılg
ıntıluvından
ını
ınılmazlıg
ının
ınıp
ınız
ıp
ıplaq
ıq
ıqa
ıqalar
ıqara
ıqaralar
ıqardı
ıqardılar
ıqarg
ıqarma
ıqarmag
ıqarmaq
ıqarmasında
ıqaruv
ıqaruvı
ıqarıcı
ıqarıla
ıqarıldı
ıqarılg
ıqarılması
ıqarılıp
ıqarıp
ıqc
ıqlar
ıqlarda
ıqlardan
ıqlarg
ıqlarnın
ıqlı
ıqlıg
ıqlıq
ıqlıqlar
ıqma
ıqmag
ıqmaq
ıqmay
ıqnı
ıqnın
ıqqa
ıqqan
ıqqanda
ıqqanlar
ıqqanı
ıqsa
ıqta
ıqtan
ıqtı
ıqtıgayvoronski
ıqtım
ıqılg
ıqın
ıqıp
ıqıs
ır
ıra
ırag
ıralar
ıraq
ıravuq
ıray
ırc
ırdas
ırdı
ırdılar
ırg
ırlang
ırlar
ırları
ırlarında
ırlarını
ırlarının
ırlavlar
ırlı
ırlıdır
ırlıg
ırlıqqa
ırmaq
ırmız
ırnak
ıroka
ıroke
ırq
ırqc
ırskıy
ırt
ırtlag
ırttı
ırtıp
ıruv
ırı
ırıla
ırıldatıp
ırıldı
ırılg
ırılıp
ırın
ırına
ırında
ırıp
ırıs
ıs
ısk
ısta
ıstan
ıstande
ıstandeki
ıstannın
ıstovodne
ıstıla
ıstılası
ıstılasını
ıstılasının
ısı
ısıdır
ısın
ısına
ısında
ısındaki
ısından
ısını
ısının
ıt
ıtanı
ıtanın
ıtlar
ıtqa
ıtsa
ıtsi
ıtı
ıtılg
ıtılivka
ıy
ıyabiy
ıyan
ıyor
ıyıcı
ıyıcılar
ız
ızca
ızda
ızdan
ızg
ızistan
ızistannın
ızlıq
ızmı
ıznı
ızın
ızına
ızınsız
ł
ła
łobez
łukijanowycz
ŋ
ƣ
ɉ
ɑ
ɖ
ə
əhərində
ɡ
ɨ
ɪ
ɲ
ʃ
ʒ
ʦ
ʧ
ʰ
ʱ
ʲ
ʹ
ʻ
ʿ
ˈ
ˌ
ː
ˤ
̀
́
̂
̃
̄
̆
̇
̈
̉
̊
̋
̌
̓
̔
̛
̝
̞
̠
̡
̣
̦
̧
̨
̩
͂
͡
α
β
γ
δ
ε
ζ
η
θ
ι
κ
λ
μ
ν
ξ
ο
π
ρ
ς
σ
τ
υ
φ
χ
ψ
ω
а
аббатства
аббатство
абдурешид
або
августа
аверон
авиаторов
авиашоу
австралии
австралия
австрия
автономнои
автор
агатангел
агатангела
агролісомеліораціі
адмирал
адмирала
адміністратури
азербаи
азии
аи
акад
академии
академічнии
академія
аккаунт
аккаунтов
актиния
акъмесджит
акіри
александр
александра
александрия
али
алиев
аллах
аллахнынъ
алтаи
алтарь
алтаря
аль
альберта
альтенбургского
аляска
ам
амбар
американская
американскии
америки
аметова
амма
амстердам
амур
амфитеатр
амфитеатра
ан
анатомии
ангела
ангкор
англ
англии
андалусия
андреи
андрея
анексія
анна
ансамбль
ант
антонио
антофагаста
антропологии
аппарата
апреля
арагон
арап
аргаи
аргентині
аризона
арк
арка
армения
армии
армстронг
армяно
арміі
архангельская
археологическии
археологічна
архив
архивы
архипелаг
архитектор
архів
архітектури
асамблея
астронавт
атакама
атлас
ау
аудіо
аудіофаи
афар
афганистан
африка
африканская
африканского
аэропорта
аэропорту
аю
аҧсны
аҧсуа
б
баа
бабочка
бабочки
бавария
багров
бад
баден
бажана
база
базе
базилика
базилики
баи
балета
балкон
бам
бангкок
бар
барельеф
барлыгъынынъ
бассеи
батурин
бах
баха
бахмач
бахчисараи
бахчисарая
башкъа
башни
башня
бе
без
беи
беларуская
беларусь
белая
белогорске
белыи
бельгия
бере
берег
берега
берегу
березня
берка
берлин
берлинская
берлинскии
бескиды
бетговен
бетговена
бетховен
бехешт
библиогр
библиотека
библиотеки
биг
билир
биографии
биографическии
биосферныи
бир
биринджи
бич
блаженного
бнр
бо
бобровица
бог
богатствами
богдан
богоматери
богородицы
бои
болгария
боливия
болоте
болото
большая
большого
большои
большом
бонн
борд
борис
борьба
босния
боспора
ботаническии
ботаническом
ботсвана
бразилия
браи
бранденбург
братська
браття
братья
бреи
бренными
британская
британскои
брокгауза
бруклин
брухо
брэ
брюль
бу
буга
буде
будет
будинок
буенос
бузэу
буи
було
бунъа
бурыи
бурятия
бутюн
буюк
буянову
бывшая
бывшего
бывшии
был
было
бьют
бэи
бібліогр
бібліотека
білецькии
білецького
білоцерківськии
біля
біографія
в
ва
вадим
вазовского
ваи
вакиф
вакъыт
валенсия
валютнии
ван
вань
варшава
василия
васильевич
вассалитет
ват
вашингтон
вашла
ваґнер
вв
ввс
ве
вежа
веи
век
века
веке
векчелеби
великии
великих
велико
великобритания
великого
великопольское
вена
венгрия
венесуэла
вересня
вертоле
верхняя
верховного
верховноі
вершина
вершині
веселовка
вест
вестник
вестра
веструпская
вестфалия
вестфирдир
ветеринарнои
вечером
вечную
вз
взлетает
виадуке
виборг
вид
видавництво
видавничии
видання
виды
википедия
виктора
виктория
винница
винницкая
виноградники
вип
виргиния
вирджиния
вирівнювання
висоцького
владении
властителях
власть
внутреннии
внутренних
во
воде
водных
водопад
водопада
водопады
водохранилище
воды
водяная
воеводство
военно
возвращение
воздуха
воздушных
вои
вокзал
вокзала
вокруг
вола
волеи
володимир
вольфганг
вольфганга
вона
вопросы
ворзель
воронскии
ворота
вортман
воспоминания
востока
восточная
восточныи
восход
воі
время
вроцлав
вс
всадник
все
всегда
всемирная
всех
вська
второго
второи
вулкан
вулкана
вулканы
вус
вход
вып
выпуска
вырумаа
высокии
вьетнам
вюртемберг
від
відділення
відп
візантіі
віи
віктор
віршів
вісник
г
гаага
гаваи
гавани
газета
газиев
гаи
галапагосские
галереи
галерея
галисия
гамбия
гаосюн
гг
ге
геи
гелдерланд
генасамблея
генерала
генеральна
гении
генуезька
геоглифов
географии
география
географічна
геоинформ
георгия
гераев
гераи
германии
германия
герцеговина
герцен
гессен
гин
гл
главного
главное
главнои
главныи
глаз
глеи
глушков
гнездо
гнпп
го
говерла
гоголю
год
года
годов
году
годы
гол
голестан
голландия
голова
голови
голодомор
голубая
голубые
голубянки
гольштеи
гонконг
гор
гора
горах
горе
горизонта
горная
горного
горныи
город
города
городе
горы
госп
господа
господня
гостиницы
государственная
государственного
государственнои
государственныи
готтлиба
гравюра
гражданская
гражданскои
гран
гранд
границ
граубюнден
гренландия
греция
гречило
гриб
гривень
григоренко
григорович
гро
гроба
гробницах
гробницы
грозы
гронинген
грудня
грузия
группа
группы
грязевые
губерськии
гузель
гуменюк
гусеница
гъ
гэи
гюго
гюґо
гілля
гірництво
гірнича
гірничоі
д
да
давид
даг
даи
дама
дана
дангъа
даниэля
дания
данным
два
две
дверь
движение
движения
двины
двор
двора
дворец
дворца
двух
де
девушка
девы
декабре
декабря
дел
дела
дель
дельта
демократия
демократія
демократіі
ден
день
департамент
депортация
дер
дерева
деревне
деревни
дерево
деревья
деревянная
деревянныи
держ
держави
державнии
державноі
десна
детали
деталь
дете
дж
джазовыи
джаи
джами
джамини
джамининъ
джамиси
джан
джи
джума
дзеркало
дзи
дзюба
ди
диаграмма
диего
дизельныи
динии
дипломатична
длину
для
днвп
дневник
дня
до
довідник
доктрина
документов
документы
долина
долине
долины
доля
дом
дома
дон
донецкая
донецьк
донецьке
донское
доп
дорога
дороге
дороги
дортмунд
досліджень
др
драматичнии
древнеи
древностеи
дрозд
дроков
другие
другоі
дружбе
дружбы
друкмаркет
дуи
дума
думка
думы
дюльмен
дюна
дюны
дюнья
дім
дітеи
е
евгении
евреев
евреи
европеи
египет
его
ее
екатеринбург
екз
екологіі
елегіи
елегія
елизаветы
енциклопедичнии
енциклопедичних
енциклопедія
енциклопедіі
ер
ерверки
ереван
если
ессентуки
есть
есу
ефрона
ж
жанеи
же
железная
железнодорожнои
железнодорожныи
железнои
женщина
жи
жизни
жизнь
життя
жовтня
жудец
журнала
з
за
забере
заброшенныи
завод
завода
загальна
загиблим
заголовка
заголовок
заде
заж
заи
закарпатская
закат
заката
закате
закатом
закон
зал
зала
залив
заливе
зальцбург
замка
замке
замок
заозе
запада
западная
западно
западное
западнои
западныи
записки
заповедник
заповеднике
запуск
зарубіжні
засади
заст
захист
збірка
зве
здание
здании
здания
зе
зеландия
зеле
земля
зимбабве
зимои
зимородок
зинджирли
зия
злери
злива
знак
знання
зображення
зображень
золотов
золотои
зона
зонтики
зоны
зоопарк
зоопарке
зуба
зы
и
ивана
ивано
иванов
ивановская
ида
идальго
иерусалим
из
извержения
изгородь
изд
издаваемые
издание
издательство
изображающая
изображение
изображением
изобретатель
израев
израиль
ии
иисуса
ил
или
иллинои
иллюстрация
им
имамов
имени
императора
императорскои
империи
индиана
индии
индия
индонезия
инстаграм
инсталляция
институт
интерьер
информационные
информационныи
информация
иоанна
иордания
иосифа
иран
ири
иркутск
иркутская
исаев
искажение
искусств
искусства
искусство
исландии
исландия
ислям
испания
ист
истесе
исток
истории
историческая
исторические
историческии
исторического
история
истребителя
исфахан
ит
италия
их
ич
ичинде
ичюн
июля
к
ка
кавказскии
кадис
кадиях
казань
казахстан
казино
каи
как
кал
калатаюд
калахари
кале
калин
калифорния
калос
калып
кальскии
камбоджа
каменец
каменныи
каменоломня
камни
камчатскии
канада
канады
канал
канарские
канберра
кантон
каньон
каньяпа
капелла
капеллы
капитолии
капская
караван
карибское
каринтия
кармель
карпат
карпатскии
карта
картина
картографія
карьера
кастилия
катар
катастрофа
категории
категория
катер
кафедрального
кафедральныи
кашан
каштана
квартира
квебек
квіти
ке
кебир
кеи
кения
кентербери
керман
керчь
кефермаркт
кечкен
ки
киев
киото
кипарисы
кипр
кипу
кириния
кириш
кирхшпиль
китаи
кито
киі
кладбище
клиентов
клуатр
кн
книга
книге
книги
ко
козе
кокош
кол
колибри
колонны
колорадо
колумбии
колумбия
колчак
колчака
колчаковщина
кольчугино
колір
ком
комзолова
комитет
комитетом
компании
комплекс
комплексе
композитор
композиторка
кон
концерт
копенгаген
корабле
корабли
корабль
корабля
коре
кореи
корея
королевскии
королевы
корунья
корюниши
корінних
корінні
космическим
космического
космическои
кот
котляр
которые
которыи
коулун
кочура
кош
кошка
кпсс
краб
краи
красная
красного
краснодарскии
красном
красносідка
красные
красныи
краткии
крачан
края
креи
кремль
кремля
крепости
крепость
кресла
креста
крик
крим
кримськии
кримських
кримського
кримськотатарська
кримськотатарськии
кримськотатарського
кримськотатарські
криму
кристал
кристаллы
кристобаль
крит
крыло
крым
крыма
крымские
крымских
крымско
крымского
крымское
крымскои
крымскотатарскии
крымскотатарско
крымскотатарского
крымскотатарское
крымскотатарскои
крымтеплица
крыму
крюгера
куба
кубіи
кувеи
кузнечик
куи
кук
культура
культури
культуры
кум
купол
купола
куросави
курултаи
куско
къ
къадар
къадимии
къаи
къарачаи
къургъан
къурулгъан
къырым
къырымтатар
къысмы
кырвемаа
кыргызча
кю
кюри
кінець
кінці
л
ла
лагуна
ландшафтном
ландшафтныи
ланка
лаон
лаос
лас
ласточка
латвия
лах
лахемаа
ле
лебеди
лев
левенець
ледника
леи
ленд
лендс
ленин
леон
лес
леснои
лесные
лестница
лет
летию
ли
лигенграбе
лики
лилия
лима
линии
линия
листе
листоп
листопада
литва
литография
личинка
лка
лоа
лодка
лодки
локомотив
лондон
лории
лос
лошади
лу
лугового
луговое
луговои
луи
луизиана
лука
лукіянович
луна
луцьк
лучших
ль
льва
львы
львів
льн
льштаи
людвіґ
людингхаузен
люксембург
ля
лягушка
лімен
ліс
ліси
лісова
лісотехнічнии
лісів
літаратура
літери
м
ма
мавзолеи
мавзолея
маврикии
магазин
мадагаскар
мадонна
мадрид
мадхья
маи
мак
макао
макгадикгади
македония
мала
малаи
малая
малкъар
малого
мальдивские
мама
ман
мангуп
мангупа
манхэттен
манча
маракаи
марас
маргарита
марии
мария
марко
марокко
маррен
марсель
мартин
марі
массачусетс
мастацтва
материалы
матеріали
маунт
махнева
мають
мая
маяк
ме
медведь
медении
медиев
медии
медныи
медресе
между
международнои
меи
мекленбург
мексика
мельке
мельница
мельницы
мемориал
менъли
мест
местах
месте
местечке
место
метро
метрополитен
мехико
мечети
мечеть
меэникунно
ми
миколаі
миколі
микроскопом
мимар
мин
министерства
министр
мир
мира
мирныи
мировои
мисканти
миттербах
михаи
михаила
михальськоі
михаэля
младенцем
мм
мн
мов
могаричев
могила
могилів
модель
можно
мои
молилися
моллюска
молоде
молодои
мольк
момент
мон
монастир
монастыре
монастырь
монастыря
монгол
монографія
монтань
монте
море
моржи
морская
морских
морского
морскои
моря
моск
москва
москве
московская
московского
мост
моста
мостом
мосту
моцарт
мощнои
моя
муджахедов
муджтехидов
музее
музеи
музея
музеі
музика
музично
музыка
музыки
мукачево
мумбаи
муфтии
мухтадж
мы
мыс
мыса
мысли
мысль
мьянма
мюнстер
мюнхен
міжнароднии
мікось
міністрів
міста
місто
н
на
набережная
набережнои
наблюдательнои
наварра
навч
навчальна
над
назва
название
названии
называемыи
наи
накладом
налбандов
нам
намиб
намибия
нан
нариси
народа
народи
народна
народні
народов
народовладдя
народу
народів
нарцизівка
наса
население
населенных
насир
наска
нау
наук
наука
науки
науклуфт
наукова
наукове
науковии
научныи
нац
национальная
национального
национальное
национальном
национальныи
національнии
національного
начале
наша
наше
нашу
ная
нгу
нді
не
неба
небо
небоскре
невада
невидимки
невского
невського
нежин
независимость
неи
неизвестныи
неккар
нематоды
немецкого
непал
нептуна
нестерович
неф
ни
нидерланды
нижнего
нижнесилезское
нижнии
нижник
нижняя
нии
ник
николаевка
николаевская
николая
никольскии
нил
нинг
них
нквд
нная
нныи
нных
но
нова
новая
новгород
новоозе
новосибирск
новыи
ногаи
ное
нознавства
нои
ном
номер
номиналом
норвегия
норд
норт
нортбрук
норфолк
норфолкскии
нот
нотгельд
ночная
ночнои
ночью
ноября
нська
нськии
нських
нського
нському
нськоі
нт
нтш
нц
нъ
ны
ныи
ных
нышем
нью
ні
нів
ніжин
нім
о
об
облака
области
область
обложка
обнаже
оборонна
образования
обсерватории
общ
общества
общество
объекты
обыкновенная
обыкновенного
обыкновеннои
обыкновенныи
обычного
ович
овідіи
оганн
оглы
огни
ого
од
одесского
один
одна
одного
однои
односельчанам
озе
озера
озере
озеро
озь
ои
окаванго
окампо
окаяма
окна
окно
около
окрестностях
округ
оксфордшир
октября
ол
олафура
олгъан
олекса
олександр
олександра
олень
олимпии
олып
оль
ольхон
оман
он
она
онацькии
оне
онкерваллеи
онтарио
онъа
онынъ
оон
опера
оперы
опис
описание
ор
орб
орг
орган
орегон
орк
оркшир
орлов
орхидея
орхус
оса
осака
освещение
освятит
осемити
осло
осман
османистика
османскии
остановка
остров
острова
острове
островов
от
отдых
отель
отец
открытия
отношения
отображается
отражение
офис
офіціи
охорона
очерки
очі
п
па
павильон
павла
павлишин
падишахах
паи
пакистан
паломничества
пальчатокоренник
пам
памятник
панама
панорама
панорамныи
пантанал
пантікапеи
папуа
пара
парал
параметр
париж
парижскои
парк
парка
парке
парламента
парламентське
паровоз
партии
парє
паук
паука
паулу
пауль
пауля
пе
педро
пеи
пер
первая
первого
первои
первые
первыи
перевод
перед
передняя
переиздание
переименовании
переклад
перешли
перламутровка
перу
перша
песни
песня
петербург
петергоф
петр
петра
петро
петрі
печерні
печь
пещера
пещере
пещерные
пещеры
пианист
пика
пикардия
пикчу
пилотажная
пинакотека
письменники
письмо
питання
плакат
плато
пле
плод
плоды
площади
площадь
плюс
пляж
пляже
по
победы
побережье
под
подгот
подольскии
подписчиков
подстраницы
подільськии
поезд
поезда
познакомился
пои
пол
поле
политики
политическая
полныи
полных
поло
половина
полуостров
получил
польша
польщі
поля
поляна
політична
померания
помощи
понте
попрощались
популярных
порт
порта
портал
портр
портрет
портреты
порту
португалия
после
постанова
построи
поступил
посіб
посібник
потолка
потолке
потолок
потоси
похилилося
поховано
походження
похороненных
початку
пп
пр
права
правда
правительства
правительство
право
правосудия
прага
прадеш
празднование
прапор
предназначен
предсказателеи
предтечи
президент
президента
президиума
премии
пресвятои
пресс
префектура
при
прик
прим
пример
принца
припев
природа
природном
природныи
природоохранная
приток
причорномор
про
проблеми
провинция
программы
проект
происхождении
прокуратура
пролив
проспект
проф
прохоров
процесс
прошлого
прощения
прощенных
пруд
пруст
прыткои
публіка
пур
пустошь
пустыне
пустыни
пустыня
путеводитель
путешествие
путешествии
путешествия
пути
пфеннигов
пчела
пылвамаа
пыхья
пьемонт
пюи
північного
північному
під
підземні
підручник
підтримала
після
пісня
пісні
р
ра
работы
равнокрылая
рагъы
рад
рада
раджастхан
ради
радуга
рады
радянська
радянських
радіо
раи
ракета
ракеты
раковины
раменскии
рамон
ран
раннее
ранок
рассвет
рассвете
рассказ
ратуша
рах
рая
ре
реалии
регион
региональныи
регионов
регионы
ред
редакція
редкол
резерват
реи
рек
река
реке
реки
рекои
реку
република
рес
республика
республики
ресурсів
ри
рига
рим
римского
рио
рис
рного
рное
рном
рнсте
рныи
ро
род
рода
родился
рождения
рождественская
рождество
розвитку
рои
рок
рокбрен
роки
року
роль
роман
романская
рос
россии
россия
росспэн
росіи
рр
рсфср
рт
ртвои
рубежа
руины
румыния
рус
русскии
русско
русскои
рух
рч
ры
рыбы
рынке
рынок
рысь
рыцарь
рюген
ряховская
рік
ріхард
с
сааремаа
сабах
сагунто
сад
садовыи
саду
саи
сакскии
сакского
саксония
самая
самец
самка
самое
самоле
самых
сан
санкт
санта
санторин
сантьяго
сарагоса
сберг
сборник
сбург
св
сведениям
свердловская
сверху
света
свете
светом
свобода
своеи
своих
свято
святого
святои
святых
сгт
сделанная
сделанныи
се
себе
севастополь
северная
северного
северное
севернои
северныи
северо
севильского
севилья
сегодня
сеи
села
селе
село
семеи
семи
семья
сен
сена
сенегал
сенеси
сентябрь
сентября
сер
сербия
сергеи
сере
серия
серпень
серро
серія
сет
сеул
си
сиб
сибири
сибирская
сибирь
сил
символів
симферополь
симферопольская
симферопольскии
синагоги
синд
система
сити
сияние
сказка
скала
скалы
ская
сквер
скелет
скелі
ские
скии
ских
ского
ское
скои
ском
скоморошки
скончался
скопье
скульптура
скульптуры
скільки
слева
словарь
словения
словник
словникова
слово
слон
слона
см
смерти
смерть
смоліи
снегу
снимок
снято
со
собор
собора
сов
советская
согласных
созвездие
созвездии
созыв
соле
соли
соллертинськии
солнечные
солнца
соловье
солончаке
сонъ
сооружения
сопредельные
соревнованиях
сосна
сосонко
соссусфлеи
сост
состав
составленные
софия
сочи
союз
союза
спаривающиеся
спасителя
спб
спиридонова
списки
список
споруди
справа
справочник
спуск
средневекового
српски
сср
ссср
ссылка
ст
стадион
стал
стамбул
становлення
станции
станция
стар
старая
старого
старое
старои
старшии
старыи
старых
статеи
статистическим
стаття
статуи
статуя
стахова
ства
ство
стефанія
стефаніі
стиль
стихотворения
стокгольм
стол
стороны
сторінка
сторінки
стр
страна
страницы
страны
страховои
стрекоза
стрекозы
стрелка
студ
стче
су
субэтник
суда
судак
судно
сук
сулаат
султанах
сурикаты
сучасноі
сф
сферическая
східнии
сша
сын
сыфатлар
сьерра
ська
ськии
сэргэ
сюдюрланд
сюр
ся
сімферополь
січня
т
та
табл
таврида
таврики
таврическии
таврия
таврія
таи
таиланд
так
также
таланд
таллин
таллинскии
там
тамир
танжер
тарафындан
тарма
тасмания
татар
татарские
татарскии
татары
татаріі
тауэрн
ташкент
тбилиси
тверитиновои
твори
творчості
твоя
твоі
те
театр
театра
тегеран
текст
текста
теле
телескопом
теорія
тепловоз
територіальну
територіі
тернопіль
территория
теруэль
техас
технике
ти
тигр
тижня
тили
тингветлир
типа
тира
тиранн
тироль
тихомиров
то
тобаго
тов
товариство
того
токио
только
том
топ
торонто
тоскана
тоҷики
[...]
