!
"
#
##0
##1
##10
##11
##12
##13
##14
##15
##16
##17
##18
##19
##2
##20
##21
##22
##23
##24
##25
##26
##27
##28
##29
##3
##30
##31
##32
##33
##34
##35
##36
##37
##38
##39
##4
##40
##41
##42
##43
##44
##45
##46
##47
##48
##49
##5
##50
##51
##52
##53
##54
##55
##56
##57
##58
##59
##6
##60
##61
##62
##63
##64
##65
##66
##67
##68
##69
##7
##70
##71
##72
##73
##74
##75
##76
##77
##78
##79
##8
##80
##81
##82
##83
##84
##85
##86
##87
##88
##89
##9
##90
##91
##92
##93
##94
##95
##96
##97
##98
##99
$
%
&
'
(
)
*
+
,
-
.
/
0
00
000
001
004
007
009
01
011
016
017
018
02
020
022
029
03
031
033
04
041
043
047
048
05
050
052
06
068
07
079
08
09
090
1
10
100
1000
10000
1001
1005
101
1010
10100
1011
1012
1013
1014
1015
1016
1017
1018
1019
102
1020
1021
1023
1024
1025
1026
1027
103
1030
1031
1033
1035
1036
1038
1039
104
1040
1041
1042
1045
1046
1047
1048
105
1050
1051
1053
1054
1055
1056
1057
1058
1059
106
1060
1061
1062
1063
1064
1066
1067
107
1070
1071
1072
1074
1076
1078
108
1080
1084
1085
1086
1087
1088
109
1090
1091
1092
1093
1094
1095
1098
1099
11
110
1100
1101
1104
1105
1108
1109
111
1110
1111
1114
1116
1117
1118
112
1120
1121
1123
1125
1127
113
1130
1131
1134
1135
1137
1138
1139
114
1140
1143
1145
1147
1148
1149
115
1150
1151
1152
1153
1154
1155
1156
1159
116
1160
1161
1162
1163
1164
1166
1167
1169
117
1170
1171
1172
1175
1177
118
1180
1181
1183
1185
1186
1187
1189
119
1190
1193
1194
1197
1198
1199
12
120
1200
1202
1205
1206
1209
121
1210
1216
122
1220
1221
1224
1225
1226
1227
1228
1229
123
1230
1231
1232
1236
1239
124
1240
1242
1249
125
1250
1252
1254
1258
126
1260
1262
1265
1266
1267
1268
127
1270
1272
1276
1277
128
1280
1282
1284
1285
1287
129
1290
1291
1294
1296
1299
13
130
1300
1302
1303
1305
1307
1309
131
1310
1319
132
1321
1327
1328
133
1330
1336
1337
134
1340
1341
1342
1346
1347
135
1350
1351
1352
1353
1355
136
1363
1365
137
1370
1371
1374
1376
1377
1378
138
1380
1381
1383
1389
139
1390
1391
1396
1397
14
140
1400
1404
1406
1408
1409
141
1410
1412
1415926
1416
142
1420
1423
1429
143
1430
1431
1434
1436
144
1440
1443
1444
1445
1447
1449
145
1450
1451
1452
1453
1454
1455
1457
1458
146
1460
1461
1464
1467
1468
1469
147
1470
1471
1473
1474
1475
1476
1478
1479
148
1480
1483
1484
1485
1487
1488
1489
149
1490
1491
1492
1493
1494
1495
1497
1498
1499
15
150
1500
1502
1503
1504
1506
1507
1508
1509
151
1510
1511
1512
1513
1514
1515
1516
1517
1519
152
1520
1521
1522
1524
1525
1526
1527
153
1530
1531
1532
1533
1534
1535
1536
1538
1539
154
1540
1541
1542
1543
1546
1547
1548
1549
155
1550
1551
1552
1553
1554
1555
1556
1557
1558
1559
156
1560
1561
1562
1563
1564
1565
1566
1567
1568
1569
157
1570
1571
1572
1574
1575
1576
1577
1578
1579
158
1580
1581
1582
1584
1585
1587
1588
1589
159
1590
1591
1592
1593
1594
1595
1596
1597
1598
1599
16
160
1600
1601
1602
1603
1604
1605
1606
1607
1608
1609
161
1610
1611
1612
1613
1614
1615
1616
1617
1618
1619
162
1620
1621
1622
1623
1624
1625
1626
1628
1629
163
1630
1631
1632
1633
1634
1635
1636
1637
1638
1639
164
1640
1641
1642
1643
1644
1645
1646
1647
1648
1649
165
1650
1651
1652
1653
1654
1655
1656
1657
1658
1659
166
1660
1661
1662
1663
1664
1665
1666
1667
1668
1669
167
1670
1671
1672
1674
1675
1676
1677
1678
1679
168
1680
1681
1682
1684
1685
1686
1687
1689
169
1690
1691
1692
1693
1694
1695
1696
1697
1698
1699
17
170
1700
17000
1701
1702
1703
1704
1705
1707
1708
1709
171
1710
1711
1712
1713
1714
1715
1716
1717
1718
1719
172
1720
1721
1722
1723
1724
1725
1726
1727
1728
1729
173
1730
1731
1732
1734
1735
1736
1737
1738
174
1740
1741
1742
1743
1744
1745
1746
1747
1748
1749
175
1750
1751
1752
1753
1754
1755
1756
1757
1758
1759
176
1760
1761
1762
1763
1764
1765
1766
1767
1768
1769
177
1770
1771
1772
1773
1774
1775
1776
1777
1778
1779
178
1780
1781
1782
1783
1784
1785
1786
1787
1788
1789
179
1790
1791
1792
1793
1794
1795
1796
1797
1798
1799
18
180
1800
1801
1802
1803
1804
1805
1806
1807
1808
1809
181
1810
1811
1812
1813
1814
1815
1816
1817
1818
1819
182
1820
1821
1822
1823
1824
1825
1826
1827
1828
1829
183
1830
1831
1832
1833
1834
1835
1836
1837
1838
1839
184
1840
1841
1842
1843
1844
1845
1846
1847
1848
1849
185
1850
1851
1852
1853
1854
1855
1856
1857
1858
1859
186
1860
1861
1862
1863
1864
1865
1866
1867
1868
1869
187
1870
1871
1872
1873
1874
1875
1876
1877
1878
1879
188
1880
1881
1882
1883
1884
1885
1886
1887
1888
1889
189
1890
1891
1892
1893
1894
1895
1896
1897
1898
1899
19
190
1900
1901
1902
1903
1904
1905
1906
1907
1908
1909
191
1910
1911
1912
1913
1914
1915
1916
1917
1918
1919
192
1920
1921
1922
1923
1924
1925
1926
1927
1928
1929
193
1930
1931
1932
1933
1934
1935
1936
1937
1938
1939
194
1940
1941
1942
1943
1944
1945
1946
1947
1948
1949
195
1950
1951
1952
1953
1954
1955
1956
1957
1958
1959
196
1960
1961
1962
1963
1964
1965
1966
1967
1968
1969
197
1970
1971
1972
1973
1974
1975
1976
1977
1978
1979
198
1980
1981
1982
1983
1984
1985
1986
1987
1988
1989
199
1990
1991
1992
1993
1994
1995
1996
1997
1998
1999
2
20
200
2000
20000
2001
2002
2003
2004
2005
2006
2007
2008
2009
201
2010
2011
2012
2013
2014
2015
2016
2017
2018
2019
202
2020
2021
2022
203
204
205
206
207
208
209
21
210
2100
211
212
213
214
215
216
217
218
219
22
220
2200
221
222
223
224
225
226
227
228
229
23
230
231
232
233
234
235
236
237
238
239
24
240
241
242
243
244
245
246
247
248
249
25
250
2500
25000
251
252
253
254
255
256
257
258
259
26
260
261
262
263
264
265
266
267
268
269
27
270
271
272
273
274
275
276
277
278
279
28
280
281
282
283
284
285
286
287
288
289
29
290
292
293
295
296
297
298
299
3
30
300
3000
30000
301
302
303
304
305
306
308
309
31
310
311
312
313
314
315
316
3166
317
318
319
32
320
322
323
324
325
326
327
329
33
330
331
332
333
334
335
33546
336
337
338
339
34
340
341
342
343
345
347
349
35
350
3500
351
352
353
354
355
356
357
358
359
36
360
361
362
363
364
365
366
367
369
37
370
371
372
373
375
376
377
378
379
38
380
381
382
383
384
385
386
387
388
389
39
390
391
392
393
394
395
396
397
398
399
4
40
400
4000
401
402
403
404
405
406
407
408
409
41
410
411
412
413
414
415
416
417
418
419
42
420
422
423
424
425
426
427
428
429
43
430
431
432
433
434
435
436
437
44
440
441
442
443
444
445
446
447
448
45
450
451
452
453
454
455
456
457
458
459
46
460
461
462
463
464
465
466
467
468
469
47
470
471
472
473
474
475
476
477
478
479
48
480
481
482
483
484
485
486
488
489
49
490
491
492
493
495
496
497
498
499
5
50
500
5000
50000
501
502
503
505
507
508
509
51
510
511
512
513
514
515
516
517
518
519
52
520
521
522
523
524
525
526
527
528
529
53
530
531
532
533
534
535
536
537
538
539
54
540
541
542
543
545
546
547
548
549
55
550
551
552
553
554
555
556
557
558
559
56
560
561
562
563
565
566
56619
567
568
569
57
570
571
572
574
575
576
577
57718
578
579
58
580
581
582
583
584
585
586
587
589
59
590
592
594
595
596
597
598
599
6
60
600
6000
601
602
603
604
605
606
607
608
609
61
610
614
615
616
617
618
62
620
621
622
623
625
626
628
629
63
630
631
632
633
635
636
637
638
639
64
640
642
643
644
645
646
647
649
65
650
652
653
654
655
657
658
66
660
662
663
667
668
669
67
670
671
672
673
674
675
676
678
679
68
680
681
682
683
684
685
686
687
689
69
690
691
692
693
695
699
7
70
700
7000
701
702
704
705
707
708
71
710
711
714
715
716
718
719
72
720
726
727
728
729
73
730
731
733
734
735
736
737
739
74
740
741
742
743
745
746
747
75
750
751
752
753
754
756
757
759
76
760
762
763
764
765
766
767
768
77
770
771
772
773
774
775
776
777
778
78
780
781
782
783
784
785
787
789
79
790
792
793
795
796
797
8
80
800
8000
801
80665
807
808
809
81
810
811
812
813
814
815
8154
816
817
818
819
82
820
823
824
825
826
827
828
829
83
830
831
832
833
835
836
837
838
839
84
840
842
843
844
845
846
847
848
85
850
851
852
853
855
856
857
859
86
860
861
862
864
865
866
867
869
87
870
871
872
873
874
875
877
878
879
88
880
88029
881
882
883
884
885
886
888
889
89
890
891
892
894
896
897
898
899
9
90
900
901
902
903
904
907
909
91
910
911
912
913
914
915
916
917
92
920
921
925
927
929
93
930
932
934
935
937
939
94
940
942
943
944
946
947
948
95
950
951
952
953
955
956
957
959
96
960
963
964
965
969
97
970
971
972
973
974
975
976
977
978
98
980
981
982
983
984
985
986
987
988
989
99
990
992
993
995
996
997
998
999
:
;
<
=
>
?
@
[
\
]
^
_
`
a
aa
aachen
aar
aardvark
aaron
ab
aba
abat
abate
abati
abba
abbabbala
abbabbaniri
abbabbiari
abbac
abbacari
abbachiari
abbaciu
abbaciurru
abbacu
abbad
abbadagghiari
abbadari
abbaddari
abbadduttuliari
abbagghianti
abbagghiari
abbagliamentu
abbagliari
abbagliatu
abbagna
abbagnari
abbagnata
abbagnatu
abbagnu
abbaiari
abbajari
abbaju
abbalatari
abballa
abballari
abballariari
abballata
abballati
abballu
abbampari
abbanedda
abbaneddu
abbanni
abbanniari
abbanniata
abbanniati
abbanniatu
abbannuna
abbannunannu
abbannunari
abbannunaru
abbannunata
abbannunati
abbannunatu
abbannunau
abbannunu
abbantari
abbas
abbasa
abbasatu
abbasciari
abbasciu
abbassamentu
abbassari
abbassidi
abbasta
abbastacchi
abbastanti
abbastanza
abbastari
abbastasatu
abbastu
abbate
abbati
abbaticchiu
abbatti
abbattimentu
abbattutu
abbauttiri
abbazzia
abbe
abbecce
abbecceddariu
abbeni
abbentu
abbergu
abberi
abbersu
abbeti
abbi
abbia
abbianchiari
abbianu
abbiari
abbicchiarinatu
abbicina
abbicinamentu
abbicinari
abbicinatu
abbicinu
abbidi
abbidienti
abbigghiamentu
abbiggiaru
abbili
abbilita
abbilitati
abbilitazzioni
abbillimentu
abbini
abbinimenti
abbinimentu
abbiniri
abbinni
abbinuta
abbinutu
abbirintu
abbirsari
abbisicchiari
abbiso
abbisogna
abbisognu
abbissi
abbissu
abbisugna
abbita
abbitanti
abbitanu
abbitari
abbitata
abbitati
abbitativa
abbitatu
abbitau
abbitava
abbitazioni
abbitazzioni
abbiti
abbitu
abbituali
abbituarmenti
abbituddini
abbiunniari
abbivirari
abbiviratura
abbizzeffa
abbizzeffi
abboc
abbolu
abbontiu
abbortu
abbozzu
abbra
abbraari
abbragamentu
abbramari
abbramoria
abbramu
abbrancicari
abbrasioni
abbrazza
abbrazzari
abbrazzu
abbrei
abbreu
abbreviazioni
abbri
abbrivi
abbriviatu
abbriviazzioni
abbrivirari
abbriviratura
abbru
abbrucia
abbruciareddu
abbruciari
abbruciata
abbruciati
abbruciatu
abbrunzatu
abbrusciari
abbruzzi
abbruzzisi
abbruzzu
abbu
abbucatu
abbuccari
abbuccatu
abbuccuni
abbuddari
abbuffari
abbuffuniari
abbulari
abbuliri
abbulizzioni
abbunamentu
abbunnanti
abbunnanza
abbunnanzia
abburi
abbuscari
abbusi
abbusu
abbutari
abbuttari
abbuzzeffa
abbɪ
abbɪt
abc
abd
abdallah
abdelmajid
abdicazzioni
abdul
abdullah
abe
abece
abel
abertzale
abi
abilita
abirintu
abissu
abitanti
abitatu
abitazioni
abiti
abitu
abkha
about
above
abra
abraham
abramo
abreu
abril
abrotanum
abruzzisi
abruzzo
abruzzu
absidi
absolute
abu
abul
abuso
abusus
ac
aca
acade
academia
academy
acampora
acc
acca
accabba
accabbanna
accabbari
accabbata
accabbatu
accabbau
accabbo
accactari
accade
accademia
accademici
accademicu
accadi
accalumari
accamadora
accamarora
accamo
accamora
accamuora
accantu
accanusciuta
accanusciutu
accanza
accanzari
accanzata
accanzau
accapa
accapari
accapau
accarizzari
accarpari
accasioni
accatta
accattari
accattatu
accattau
accattava
accatto
accavarcari
acce
acceddi
accentata
accenti
accentu
acceptare
accessu
accetta
acchettu
acchi
acchia
acchiaitari
acchiali
acchiana
acchianannu
acchianari
acchianata
acchianatu
acchianau
acchiancula
acchiappa
acchiappari
acchiettu
acci
accia
acciacca
acciaccu
acciaiu
acciari
accidenti
acciduti
acciliraturi
accilirazzioni
accintata
accintati
acciotta
accippari
accirrari
accisioni
accissi
accissoriu
accitta
accittamu
accittari
accittata
accittati
accittatu
accittau
accittazzioni
acciu
accizzioni
acco
accordi
accordiu
accordo
accordu
accostu
account
accresciuta
accriditati
accriditatu
accriscitivu
accu
accucchiari
accuccuni
accuddi
accufulari
accufuluni
accume
accumencia
accumenza
accumenzanu
accumi
accumincia
accuminciannu
accuminciari
accuminciaru
accuminciarunu
accuminciata
accuminciatu
accuminciau
accumincio
accuminza
accuminzagghia
accuminzai
accuminzannu
accuminzanu
accuminzari
accuminzarru
accuminzaru
accuminzata
accuminzatu
accuminzau
accuminzava
accuminzo
accumpagna
accumpagnamentu
accumpagnari
accumpagnata
accumpagnati
accumpagnatu
accumpagnava
accumpari
accumulari
accunu
accupa
accupari
accupata
accupati
accupatu
accupau
accupazzioni
accura
accurari
accurata
accurati
accurgi
accursiu
accurzari
accurzata
accurzati
accurzatu
accusa
accusari
accusata
accusati
accusativu
accusatu
accusi
accussi
accussidditta
accussidditti
accussiddittu
accussini
accusta
accustamentu
accustari
accustatu
ace
acedda
aceddi
aceddu
aceh
acetum
achi
achille
achilli
aci
acid
aciddiari
acidi
acidu
acieddi
acieddu
acioli
acireale
aciriali
acitalena
aciti
acitizza
acitu
acitusella
aciu
acqua
acquari
acquarica
acquaviva
acquazzina
acquazzuni
acque
acqui
acquidottu
acquiduttu
acquisizzioni
acquistari
acquisto
acquistu
acre
acri
acro
acronimu
acrunimu
act
action
actually
acu
acucula
acula
acussi
acustica
acuta
acuti
acutu
ad
ada
adaciu
adaggiu
adagiu
adam
adami
adamo
adams
adamu
adans
adatta
adattamentu
adatti
adattu
adazziu
add
adda
addabbanna
addams
addamu
addanti
addattari
addavi
adde
addesi
addestramentu
addettu
addevi
addevu
addi
addibbuliri
addibbuluta
addibuliri
addicatu
addiccari
addicchiara
addicchiarata
addicchiaratu
addicchiarau
addichiara
addichiarau
addici
addicidi
addicidiu
addicisi
addiddi
addidicatu
addife
addifenni
addifenniri
addifini
addifinisci
addifinni
addiggiriri
addijiri
addijittari
addimanna
addimannari
addimentri
addiminagghia
addiminari
addiminaturi
addimurari
addimustra
addimustrari
addimustrau
addina
addingari
addini
addio
addipe
addipenni
addiri
addiriggiutu
addirittura
addiriva
addiscri
addiscrivi
addisi
addisiari
addisiccari
addisignatu
addisirtari
addison
addistramentu
additta
addittu
addiu
addivamentu
addivari
addivata
addivatu
addive
addiveni
addiventa
addiventanu
addiventau
addiversi
addivertimentu
addivi
addividi
addivinari
addivinaturi
addivinennu
addivini
addivinni
addivinta
addivintannu
addivintari
addivintaru
addivintassi
addivintata
addivintatu
addivintau
addivintava
addivinto
addivinutu
addivirtimentu
addizzioni
addo
addomi
addoppu
addorfu
addritta
addrivigghiari
addrivigliari
addrizzari
addu
adduari
addubba
adduffu
addulurata
adduma
addumanna
addumannannu
addumannari
addumannaru
addumannata
addumannati
addumannatu
addumannau
addumannava
addumanno
addumannu
addumari
addumata
addumati
addumatu
adduminali
addumma
addummanna
addummi
addummu
adduna
addunari
addunau
addunca
adduorfu
addupiramentu
addupirari
addupirata
addupirati
addupiratu
addurmi
adduzzu
ade
adelaide
adelasia
adele
adelphi
adenza
adenzia
adesso
adi
adiacenti
adige
adiquata
adirari
adirenti
adiri
adiriri
adirisci
adisioni
adjectivus
administration
adnkronos
ado
adolf
adolfo
adolph
adoni
adornu
adotta
adoxa
adozzioni
adranu
adria
adrian
adriana
adriano
adrianu
adriaticu
adrien
adrogabatur
adu
aducari
aducativu
aducazzioni
aduci
adulatra
adulatrari
adulatri
adulta
adulti
adultu
adupira
adupirari
adurari
adurazzioni
aduri
adurta
adurtu
aduttata
aduttati
aduttatu
aduttau
aduzzioni
adventure
adventures
adventus
adverbium
ae
aequalem
aerea
aerei
aeria
aeriu
aeroportu
aerosmith
aerospace
af
afa
afar
affa
affaccia
affacciata
affacciati
affacciatu
affairs
affamatu
affannatu
affannu
affari
affascinatu
affattu
affe
afferma
afferrare
affettu
afficaci
affida
affidabbilita
affidamentu
affidata
affidatu
affigghiari
affinchi
affini
affirenti
affirma
affirmannu
affirmari
affirmatu
affirmau
affirmava
affirmazzioni
affirragghiu
affirrari
affisa
affissu
affiu
affizzioni
afflittu
affluenti
affluenza
affrattariatu
affrattiddatu
affreschi
affrescu
affrischi
affrittu
affrivugghiari
affrizzioni
affruenti
affrunta
affruntari
affruntatu
affruntu
affruntusu
affucari
affumirari
affunna
affunnari
afganistan
afghanistan
afl
afn
africa
african
africana
africani
africanu
afrihili
afrikaans
afru
after
afternoon
afurisma
ag
agace
again
against
agata
agatuni
agave
age
agency
agenti
agezzar
agg
aggatta
aggattari
agge
aggenti
aggentu
aggettivo
aggettivu
aggh
agghi
agghia
agghiacciari
agghiandra
agghiara
agghiastru
agghiazzari
agghica
agghicannu
agghicanu
agghicari
agghicaru
agghicata
agghicati
agghicatu
agghicau
agghicava
agghico
agghicunu
agghilari
agghiorna
agghiotta
agghiri
agghiru
agghisari
agghiu
agghiummarari
agghiuncennu
agghiunceru
agghiunci
agghiunciri
agghiunciu
agghiunciuta
agghiunciuti
agghiunciutu
agghiunta
agghiurnari
aggi
aggia
agginzi
agginzia
aggira
aggirbari
aggirbatu
aggiri
aggisci
aggitatu
aggitivu
aggittivi
aggittivu
aggiu
aggiunta
aggiurnamentu
agglassari
agglumiratu
agglumirazzioni
agglutinanti
aggramagghiari
aggrancari
aggranciari
aggrancicuni
aggranfari
aggranfugnari
aggregationem
aggricazzioni
aggricultura
aggrigatu
aggrigazzioni
aggrissioni
aggrissivi
aggruppari
aggualari
agguali
agguato
agguatta
agguattari
agguatti
aghjettivu
aghla
aghlab
agi
agiaria
aginzia
agira
agisci
agita
agiti
agiu
agla
aglabbita
aglabbiti
agli
aglia
agliu
agne
agneddu
agnello
agnellus
agni
agnosticismu
agnuni
agnunia
agnutticari
agora
agostini
agostino
agosto
agostu
agraria
agre
agreement
agrestu
agri
agricola
agricoltura
agricula
agriculi
agricultura
agriculu
agricurtura
agrigento
agrigentu
agrigentum
agrippina
agro
agru
agrumi
agu
agua
aguagghianza
aguali
aguannu
aguarmenti
agugghia
aguilye
agulha
agumidda
aguni
agurnu
agustinu
agustu
ah
ahi
ahimaaz
ahime
ahl
ahmad
ahmadinejad
ahmed
ai
aia
aid
aidoni
aids
aieri
aierisira
aiersira
aiesec
aigle
ain
aina
ainu
air
airari
airbus
aircraft
aires
airlines
airoportu
airuportu
airusari
airways
ais
aise
aisisti
aisne
aita
aiti
aiu
aiuta
aiutari
aiutati
aiutatu
aiutau
aiutava
aiuti
aiuto
aiutu
aiwe
aix
aj
aja
ajacciu
ajeri
ajta
aju
ajuta
ajutari
ajuti
ajutu
ak
akal
akan
akhenaton
akka
akrad
akragas
akrai
al
ala
alabama
alagna
alagona
alain
alan
alappiu
alar
alari
alaricu
alarm
alaska
alastra
alastru
alauda
alaudidae
alba
albam
albanese
albanesi
albani
albania
albanisi
albano
albanu
alberghi
albergu
alberi
albero
albert
alberto
albertu
alberu
albinu
albirgaturi
albrecht
albu
album
albums
alburata
alburi
albus
alca
alcamo
alcamu
alcara
alcaucil
alco
alcol
alcool
alcun
alcuna
alcune
alcuni
alcunu
alder
aldisio
aldo
aldrin
aldu
ale
aleksandr
alema
alencu
aleppu
alesi
alessandra
alessandria
alessandro
alessandru
alessanu
alessi
alessia
alessio
alessiu
aleutinu
alex
alexander
alexandre
alexis
aleziu
alfa
alfabbe
alfabbeti
alfabbetu
alfabeto
alfabetu
alfano
alfanu
alfio
alfiu
alfonso
alfonsu
alfonzu
alfred
alfredo
alfredu
alga
alge
algebbrica
algebbrichi
algebra
algeri
algeria
algibbra
algiri
algiria
ali
alia
alias
alicciola
alice
alicia
alicudi
alicunu
aliena
alighieri
aligned
alikovo
alimannu
alimena
alimenta
alimentari
alimentazzioni
alimenti
alimentu
alimini
alimintari
alimintatu
alimintazzioni
aliminusa
alinghi
aliquis
aliscafu
alissandria
alissandru
alitalia
alittro
alittrochi
aliva
alive
alivi
alivitu
alivu
alizzioni
alkartasuna
all
alla
allaccarari
allaccaratu
allah
allammicu
allampari
allampatu
allan
allannuna
allapari
allapiatu
allarga
allasca
allatu
allazzari
alle
alleanza
alleggiu
allegra
allegri
allegria
allegru
alleli
allen
allenaturi
allende
allevamentu
alli
allianza
allianzi
alliata
alliati
alliatu
allibbirtari
allier
allievu
alliffiari
alligramu
alligranza
alligrari
alligri
alligrizza
allijanza
allinamentu
allinaturi
allintari
allippari
allisciari
allison
allitticari
allium
allivamentu
allivi
allman
allmusic
allo
alloggi
alloggiu
allonga
allora
allos
allu
allucari
allucca
alluciari
alluciata
alluciatu
allucintari
alludda
alluminiu
allunari
allungari
allungata
allungatu
alluntana
alluntanamentu
alluntanari
alluntanatu
allura
alluttari
alluvioni
alluzzari
alma
almanac
almeno
almenu
almohadi
almoravidi
almost
alo
aloe
alone
alonso
alosiu
alpes
alpha
alphabet
alphonse
alpi
alpinismu
alpinu
alright
alsace
alsazzia
also
alta
altai
altanum
altare
altari
altaru
altavilla
alter
altera
alternativa
alternative
alternativu
alteru
alterum
altezza
alti
altirazzioni
altirnata
altirnativa
altirnativamenti
altirnativi
altirnativu
altitu
altitudini
altizza
alto
altofonte
altra
altre
altri
altro
altru
altu
altura
altus
alu
aluminiu
alva
alvaro
alvernia
alvin
alvioli
am
ama
amadeus
amai
amalfi
aman
amante
amanti
amar
amara
amare
amari
amarina
amarizza
amaro
amaru
amata
amati
amato
amatu
amaturiali
amava
amazzoni
ambasciata
ambasciaturi
ambienta
ambientali
ambientazzioni
ambienti
ambitu
ambra
ambroggiu
ambrogio
ambulanza
amburgu
ame
amedeo
amedeu
amelia
amella
amen
amenanu
amendola
amenta
amenti
amentu
america
american
americana
americano
americans
americanu
ami
amica
amiche
amichi
amici
amicizia
amicizzia
amico
amicu
amicus
amiddeu
amideu
amiens
amin
amiricana
amiricani
amiricanu
amitru
amma
ammaccari
ammaccarrunatu
amman
ammanca
ammancanti
ammancanza
ammancari
ammantaciari
ammantaciatu
ammantasciari
ammantasciatu
ammanticari
ammanu
ammarazzari
ammarazzi
ammarrari
ammasciata
ammasciaturi
ammascusu
ammassi
ammassu
ammat
ammatticata
ammatticu
ammattitura
ammazza
ammazzamareddu
ammazzannu
ammazzanu
ammazzari
ammazzaru
ammazzata
ammazzati
ammazzatina
ammazzatini
ammazzatu
ammazzau
amme
ammeci
ammenti
ammenzu
ammeri
ammeru
ammessu
ammetti
ammi
ammienti
ammigghiura
ammigghiurari
amministra
amministrari
amministrata
amministrativa
amministrativamenti
amministrativi
amministrativu
amministratu
amministratura
amministraturi
amministrazioni
amministrazzioni
amministrazziuni
ammintatu
ammintuari
ammintuvari
amminua
ammira
ammiragghiu
ammirari
ammirazzioni
ammisca
ammiscari
ammiscata
ammiscati
ammiscatu
ammissioni
ammistialiri
ammittutu
ammitu
ammizzari
ammizziari
ammizzigghi
ammizzigghia
ammizzigghiari
ammizzigghiu
ammore
ammu
ammuarra
ammuarru
ammuaru
ammucari
ammucatu
ammucca
ammuccari
ammuccia
ammucciari
ammucciata
ammucciati
ammucciatu
ammucciuni
ammudurrari
ammuffari
ammuffatu
ammuffulari
ammugghiari
ammuina
ammulari
ammuntuari
ammuntuata
ammuntuatu
ammuntuvari
ammunziddari
ammurracciari
ammursari
ammusceddi
ammuscia
ammusciddari
ammustra
ammustrannu
ammustrari
ammustrata
ammustrati
ammustratu
ammustrau
ammustrava
ammutta
ammuttari
ammuttata
ammuttau
ammuturrari
ammuzzu
amo
amolar
among
amor
amore
amorem
amori
amoroso
amos
amour
amp
ampara
ampe
ampeliu
ampere
ampia
ampiamenti
ampiezza
ampo
amr
amsterdam
amu
amundsen
amuri
amurusa
amurusi
amurusu
amy
an
ana
anacletu
anakin
anal
analfabbetismu
analfabbitismu
anali
analisi
analizzari
analysis
anarchia
anarchica
anarchici
anarchicu
anarchismu
anas
anastacia
anastasi
anastasia
anastasiu
anato
anatolia
anatomia
anatomy
anatumi
anatumia
anc
anca
ancari
ancariatu
ance
anche
anchi
anchia
anchiamenti
anchiu
anci
ancia
ancidda
anciddi
ancieddi
ancieddu
ancien
ancient
ancili
ancilu
ancinagghia
anciova
anco
ancona
ancontra
ancora
ancrisi
ancu
anculari
anculi
ancuni
ancunu
ancura
and
anda
andali
andalusi
andalusia
andar
andare
andata
andatura
andau
anderb
andersen
anderson
andi
andiamo
andicchia
andorra
andre
andrea
andreas
andreotti
andrew
andrews
andri
andria
andro
andromeda
andu
anduvi
andy
ane
aneddi
aneddu
anello
anfa
anfibbi
anfibbiu
anfitiatru
anfruenza
anga
angaliari
angari
angel
angela
angeles
angeli
angelica
angelis
angelo
angelu
angelus
angers
anghidda
anghiddi
angilu
angio
angioini
angiuina
angiuini
angiuinu
anglensis
anglicana
anglisi
anglo
anglu
anglusa
anglusassuni
ango
angola
angrisi
angu
anguilla
angulari
anguli
anguliari
angulu
angus
angusciatu
angustia
ani
anidridi
anima
animal
animale
animali
animalia
animals
animata
animati
animation
animatu
animazzioni
anime
animi
animu
animus
anita
anka
ankh
ankon
ann
anna
annaca
annacalora
annacari
annan
annanzi
annarbari
annari
annarmaliri
annata
annautari
anne
annecy
annessa
annessu
annetti
anneu
anni
annibale
annibali
annibbali
annie
annigricari
anniminagghia
anniminari
annincatu
anningari
annintra
anniri
anniricari
annirvari
anniscari
annissioni
annittari
anniuricari
anniversariu
anniversary
annivi
annivirsariu
anno
announces
annu
annuali
annujari
annunca
annuncia
annunciaru
annunciata
annunciatu
annunciau
annuncio
annunciu
annunza
annunzau
annunzia
annunziari
annunziata
annunziatu
annunziau
annunziu
annunzu
annus
annutazzioni
ano
anonima
another
ans
ansa
ansaluni
anselmi
ansia
ant
anta
antares
ante
antenna
anteprima
anthology
anthony
anthus
anti
antica
anticamente
anticamenti
anticchia
antiche
antichi
antichissima
antichita
antichitati
anticipatu
anticipu
antico
anticu
antifascista
antifascisti
antigua
antilli
antimafia
antimateria
antimilitarista
antinatu
antinna
antiochia
antipapa
antiquarium
antiressa
antiriuri
antise
antisimitismu
antispagnolu
anto
antoine
antologia
antoluggi
anton
antonella
antonello
antonellu
antoni
antonia
antonietta
antonimu
antonino
antoninu
antonio
antonioni
antoniu
antony
antoon
antra
antrasatta
antrea
antri
antropo
antropolo
antropologia
antropoluggi
antru
antu
antuninu
antura
anu
anuratu
anuri
anveci
anversa
any
anysio
anything
anyway
anza
anzar
anze
anzemi
anzermu
anzi
anzia
anziana
anziani
anzianu
anzignau
anɪ
ao
aoggi
aosta
aostu
aou
ap
apa
apache
apartheid
ape
apem
aperire
aperta
aperti
aperto
apertu
api
apiana
apiritivu
apirtura
apium
apm
apo
apollo
apolloniu
apollu
apoluggi
apostuli
apostulu
apothecam
appa
appalti
appantaciatu
appantasciatu
apparanzari
apparati
apparatu
apparecchi
apparecchiu
apparent
apparenti
apparenza
apparenzia
appari
appariri
apparizioni
apparizzioni
apparsi
appartamentu
apparte
appartene
appartenenti
apparteni
appartennu
appartenti
appartenunu
apparti
appartinenti
appartinenza
appartini
appartininti
appartinni
appassiunati
appassiunatu
appe
appeddu
appellu
appena
appendere
appenzellu
appi
appiccicari
appidamentu
appigghiari
appigghiu
appilari
appillativu
appinnici
appinnini
appinninu
appinnuliari
appinu
appirora
appiru
appittata
appiu
appizza
appizzari
appla
apple
applica
applicannu
applicari
applicata
applicati
applicatu
applicazioni
applicazzioni
applied
appo
appoggiu
appoi
appoiu
appoja
appoju
apportu
apposta
appre
appressu
apprettu
appricari
appricata
appricatu
appricazzioni
apprima
apprisenta
apprisentanu
apprisintari
apprisintau
appritta
apprittari
apprizzamentu
apprizzari
apprizzata
apprizzati
apprizzatu
approcciu
approcher
approssimativamenti
approva
approx
apprufitta
apprufittannu
apprufittari
apprufunnimentu
apprunta
apprussimativa
apprussimativamenti
apprussimativu
appruvata
appruvatu
appruvau
appruvazzioni
appruvinzari
appui
appuja
appujari
appujati
appujatu
appuntamento
appuntamentu
appunti
appuntu
appuoi
appurtari
appusintari
appussimativa
apre
apressu
apri
april
aprile
aprili
aprilis
apriri
apritura
aprutu
apucalissi
apud
apulari
apuleiu
apulia
apusto
aqua
aquila
aquileia
aquinu
aquisgrana
aquitaine
aquitania
aquivalenti
ar
ara
araba
arabba
arabbi
arabbia
arabbli
arabbu
arabi
arabia
arabo
arabu
arachnida
araciu
arafat
aragne
arago
aragona
aragonesi
aragorn
araguna
aragunisa
aragunisi
arama
aramaicu
aran
arana
aranci
arancia
aranciata
arancina
arancini
arancinu
aranciu
aranciuni
araneae
arari
aratu
arau
arauna
araunisi
arba
arbaci
arbaciu
arbanesi
arbani
arbania
arbanisa
arbanisi
arbanu
arbe
arberghi
arbergu
arbertu
arbi
arbirgaturi
arbitrariu
arbitration
arbitriari
arbitriu
arbitru
arbo
arbor
arbum
arburata
arburi
arc
arca
arcamu
arcancilu
arcangelo
arcata
arcati
arcella
arceri
arch
archeolo
archeologici
archeologico
archi
archimandrita
archimedi
archimi
archinue
archio
archiolo
archiologgicu
archioluggi
archioluggu
architetti
architettu
architettura
archititto
architittura
archiulo
archive
archived
archivi
archivio
archiviu
archosauria
archuleta
arci
arcidiocesi
arciduca
arcipe
arcipelacu
arcipelagu
arcirotta
arcivescovo
arcivescuvu
arcivi
arciviscuvu
arco
arcova
arcu
arcubalenu
arcuna
arcuni
arcunu
arde
ardenne
ardenti
ardesia
ardi
ardiculiari
ardu
arduri
are
area
aredi
aree
arei
arena
arenza
arenzia
aresta
aretha
areti
aretuska
arezzu
arfabbe
arfabbetu
arfiu
arfonzu
arfredu
argaz
argent
argentina
argento
argentu
argilla
argintatu
argintina
argintinu
argo
argu
argumenta
argumenti
argumentu
argumintazzioni
ari
aria
ariana
ariani
arianna
arianu
aricchi
aricchia
arico
ariddu
arie
ariel
arieri
arii
arina
ariostu
aristaru
aristippu
aristo
aristotili
aristucra
aristucrazzi
aristute
aritme
aritmetica
ariu
ariuna
ariuplanu
ariuporti
ariuportu
ariuprani
ariupranu
ariupurtuali
arizona
arles
arm
arma
armadiu
armali
armalu
armando
armani
armariu
armata
armati
armatu
armatura
armaturi
arme
armena
armeni
armenia
armenio
armentu
armenu
armerina
armi
armiggiu
arminiu
armirina
armistizziu
armo
armocrati
armoire
armonie
arms
armstrong
armu
armuarra
armuarru
armuaru
armuni
army
arn
arnaldo
arne
arnisi
arno
arnold
arnoldo
arnu
aroi
aroma
aromi
aropa
around
arpa
arpazza
arpitana
arpitania
arpitanu
arquantu
arr
arra
arraccamari
arraffari
arraggia
arraggiari
arraggiunari
arrammaggiu
arrammari
arrampicanti
arranciamenti
arrangiamentu
arrapprisenta
arrassari
arrassu
arre
arredi
arredu
arrenni
arreri
arreru
arresta
arrestanu
arresti
arrestu
arreti
arretu
arri
arrialari
arrialatu
arrica
arricampa
arricanu
arricanusci
arricanuscimentu
arricanusciri
arricanusciuta
arricanusciuti
arricanusciutu
arricava
arricavatu
arricchimentu
arricchiri
arriccicca
arrice
arricevi
arrici
arricivennu
arricivi
arriciviri
arricivitti
arriciviu
arricivutu
arrico
arricogghi
arricorda
arricria
arricriari
arricu
arricugghi
arricugghiu
arricugghiuti
arricuminazzioni
arricunta
arricurda
arricurdamu
arricurdari
arricurdata
arricurdati
arricurdatu
arridamentu
arridu
arriduci
arriduciuti
arrieri
arrifiri
arrifiriri
arrifirisci
arrigalari
arrigalatu
arriggistra
arriggistrati
arriggistratu
arrigo
arriguarda
arriguardanu
arriguardari
arrijalari
arrijalatu
arrilassaru
arrimbari
arrimina
arriminari
arrimuddari
arrine
arrinesci
arriniscennu
arrinisceru
arrinisci
arrinisciri
arrinisciu
arrinisciuti
arrinisciutu
arrinnatariu
arrinni
arripe
arripigghia
arripigghiata
arripigghiau
arripo
arriporta
arripruduci
arripurtati
arripurtatu
arripusari
arriquasari
arrisagghiari
arrisautari
arrisbigghiari
arrisbigghiata
arrisbigghiatu
arrisbigliari
arrisbigliatu
arrise
arrisettu
arrisicari
arrisinari
arriso
arrispu
arrispunni
arrispunniri
arrispunniu
arrispunnuta
arrista
arristagghiu
arristannu
arristari
arristaru
arristata
arristati
arristatu
arristau
arristava
arristo
arrisurta
arrisvigghiari
arrisvigghiata
arrisvigghiatu
arriteni
arritira
arritirau
arritiro
arritorna
arritruvati
arritunari
arriturna
arriturnau
arriva
arrivannu
arrivanu
arrivari
arrivaru
arrivarunu
arrivata
arrivati
arrivatu
arrivau
arrive
arrivi
arrivigghiari
arrivirsari
arrivo
arrivu
arrizzagghiari
arrizzari
arrobba
arrondissement
arrozzulabaddi
arru
arrubba
arrubbari
arrubbaru
arrubbati
arrubbatina
arrucchiari
arrunfari
arrupe
arruri
arrusbigghiari
arrusbigghiata
arrusbigghiatu
arrusciari
arrustuti
arrutulari
arrutunnati
arruva
arruvari
arruzzulari
arrɪ
ars
arse
arsi
arsinali
arsira
arsu
art
artanita
artari
artaru
arte
artemisia
arteria
arterii
arthur
arti
article
articles
articoli
articolo
articu
articulari
articulata
articulati
articulatu
articulazzioni
articuli
articulu
articulus
artificiali
artigghi
artigghiu
artiggianali
artiggianatu
artiggiani
artiggianu
artirioli
artist
artista
artisti
artistica
artistichi
artisticu
artists
artro
artropoda
arts
artu
arturo
arturu
aru
aruma
arumenu
arvanetta
arvani
arvensis
arvulu
aryaz
arzari
as
asa
asad
asami
asattizza
asattu
asbagh
asburgu
asca
ascap
ascari
ascempru
asci
ascia
ascianu
asciari
asciata
ascidda
ascinzioni
ascinzuri
asciucari
asciutta
asciuttu
ascoli
ascoltatori
asculi
ascuta
ascutari
asdrivigghiari
asdrivigliari
ase
asempi
asempiu
asercitu
ash
ashes
asi
asia
asiatica
asiaticu
asile
asilu
asimprari
asini
asinu
asinus
asircitata
asirciziu
asircizziu
asistenti
asistenza
asisti
asistunu
ask
asl
aslan
asociacio
aspe
aspects
aspetta
aspetti
aspetto
aspettu
aspirazzioni
aspirina
aspittannu
aspittari
aspittava
aspra
aspri
aspru
asprumunti
ass
assa
assaccari
assaccata
assaccatina
assad
assaggiu
assai
assartari
assartu
assassin
assassinatu
assassini
assassiniu
assassinu
asse
assed
assediu
asseggiu
assegnu
assemblea
assemi
assenti
assenza
assenzia
assenziu
assetta
assi
assicu
assicura
assicurari
assicurata
assicuratu
assicurazzioni
assicuta
assicutari
assicutatu
assidiata
assidiatu
assieme
assiemi
assigna
assignaliari
assignari
assignata
assignati
assignatu
assignau
assignazzioni
assimblea
assimblei
assimbrea
assimbria
assimi
assimigghia
assimigghiari
assimila
assimilazzioni
assimpicari
assincupari
assinta
assintari
assintumari
assioma
assipalari
assira
assiri
assirvari
assirvazzioni
assisi
assissuri
assist
assistant
assistenti
assistenza
assisti
assitta
assittari
assittarisi
assittata
assittatu
asso
associa
associates
association
associazione
associazioni
associazzioni
assolu
assolutu
assu
assuciata
assuciati
assuciatu
assuciazioni
assuciazzioni
assuciazziuni
assugghiari
assuggittata
assulacchiari
assulicchiari
assulu
assuluta
assulutamenti
assuluti
assulutu
assumennu
assumi
assumigghia
assumiri
assummi
assummigghia
assunta
assuntu
assunzioni
assuppilatu
assurbimentu
asta
astati
aster
asti
astiro
astiroidi
astivi
astratta
astratti
astrattu
astrazzioni
astro
astroluggi
astrono
astronomia
astronomical
astronomy
astronumi
astronumia
astronumu
astru
astruna
astrunauti
astruno
astrunomica
astrunomiche
astrunomici
astu
astura
asturi
asturiana
asturiano
asturianu
astuta
astutari
astutu
asu
asviluppau
asɪ
at
ata
atalanta
atanasiu
ate
atena
atene
ateni
aternu
ath
ati
atini
atiniesi
atinisi
atl
atla
atlanta
atlante
atlanti
atlantic
atlantichi
atlantico
atlanticu
atlas
atle
atleta
atleti
atletica
atletico
atm
atmosfe
atmosfera
atmusfera
ato
atollu
atomi
atomic
atomica
atomiche
atomicu
atomu
atornu
atp
atra
atri
atrignu
atriu
atru
atta
attacca
attaccannu
attaccanti
attaccare
attaccari
attaccaru
attaccata
attaccati
attaccatu
attaccau
attacchi
attaccu
attack
attagghiu
attaragnari
atte
attempurari
attendere
attenta
attention
attentu
attenzione
atterra
attesta
atti
attica
attiggiamentu
attila
attileta
attiliu
attille
attilleta
attilleti
attimpari
attimusfe
attimusfera
attimusferica
attintati
attintatu
attinzioni
attira
attirantari
attirraggiu
attirrau
attisa
attistata
attitu
attiva
attivamenti
attivi
attivista
attivisti
attivita
attivitati
attivu
atto
attocca
attonna
attore
attori
attorna
attorno
attornu
attrai
attratta
attrattivi
attratturi
attrave
attraversa
attraverso
attraversu
attravirsannu
attravirsari
attravirsata
attravirsatu
attravirsau
attrazzioni
attrezzi
attrezzu
attribbui
attribbuiri
attribbuisci
attribbuita
attribbuiti
attribbuitu
attribbuti
attribbuzzioni
attrici
attrisagghia
attrisagghiari
attritu
attrivitu
attrizzatu
attrizzatura
attrizzaturi
attrizzu
attro
attrova
attrovanu
attrovi
attrovunu
attruova
attruppicari
attruva
attruvamu
attruvanu
attruvari
attruvaru
attruvassi
attruvata
attruvati
attruvatu
attruvau
attruvava
attruvavanu
attruvo
attu
attuale
attuali
attualitati
attualmenti
attuari
attuarmenti
attuazzioni
attuornu
attuppari
attuppateddu
attura
atturi
atturrari
atturrati
attuvru
atu
atumi
atumu
au
aube
aucci
auccisagghia
auceddi
auceddu
aucibbiadi
auciddiari
auckland
audacity
aude
audenza
audenzia
audientia
audienza
audienzia
audio
audiu
auf
auge
augghia
augu
auguri
auguriu
august
augusta
auguste
augustin
augusto
augustu
augustulu
augustus
aula
auli
auliva
aumenta
aumentu
aumintannu
aumintari
aumintau
aundi
aung
aunni
aura
aurelio
aureliu
aurelius
aurenzia
auri
auricchia
auricula
aurienzia
auropa
auropea
aurora
auru
aurum
aurupei
aus
ausari
auschwitz
ausiliari
ausiliaria
ausoni
ausoniu
austa
austin
austinu
australi
australia
australian
australiana
australiani
australianu
australis
austrasia
austri
austria
austriaca
austriaci
austriacu
austru
austu
aut
auta
autaru
autavilla
aute
autem
autentica
auteru
authority
auti
autizza
auto
autobahnpolizei
autobus
autobussi
autobussu
automa
automatica
automo
automutrici
autonoma
autonomia
autonuma
autonumi
autonumu
autore
autori
autorita
autoritati
autostrada
autostrata
autra
autre
autres
autri
autrici
autrimenti
autro
autru
auttata
autu
autubbussu
autuchianu
autuditirminazzioni
autuma
autumaticamenti
autumnus
autumo
autunnu
autuno
autunumi
autunumia
autunumii
autura
auturi
auturita
auturitariu
auturitati
auturizzata
auturizzati
auturizzazzioni
autustrata
auvergne
aux
av
ava
avaia
avaja
avali
avampostu
avana
avanguardia
avannu
avant
avanteri
avanti
avantirazzu
avanza
avanzamentu
avanzari
avanzata
avanzati
avanzatu
avanzau
avari
avaru
ave
avellino
avellinu
avemu
avena
avengers
avennu
aventi
avenu
avenue
aver
average
avere
aversa
aves
aveva
avevanu
aveyron
avi
avia
avianu
aviation
aviazzioni
avicellus
avie
aviemu
avieunu
avieva
avignuni
avillinu
avilye
avio
aviri
avirnari
avirsariu
avirseriu
avis
avissa
avissi
avissiru
aviti
aviunu
aviv
aviva
avja
avo
avoir
avola
avoriu
avornu
avri
avu
avugghia
avula
avustu
avuta
avuti
avutra
avutri
avutru
avutu
avvantaggia
avvantari
avve
avveni
avventu
avventura
avventure
avvenuta
avverbi
avverbiu
avverbu
avveri
avversu
avvezzu
avvi
avviari
avvicina
avvicinamentu
avvicinari
avvicinatu
avvicinau
avviddanari
avvidi
avvidiri
avvili
avvilimentu
avvilinatu
avvini
avvinimenti
avvinimentu
avviniri
avvinni
avvintura
avvinturi
avvinuta
avvinutu
avvirsari
avvirsariu
avvirtimentu
avvisari
avvistamentu
avvisu
avvocato
avvrazzari
avvucatu
avvulari
award
awards
away
ax
axel
axilla
axl
axlel
ay
ayazid
az
azawad
azegliu
azienda
azione
azioni
aziz
azizaw
azov
azteca
aztechi
aztecu
azul
azur
azza
azzaccagnatu
azzagariari
azzarbari
azzardu
azzaru
azziccari
azziddicari
azzienda
azziendi
azzienna
azzienni
azzioni
azzirbaiggian
azziringari
azziuna
azziuni
azzizzari
azzola
azzolla
azzolu
azzotu
azzu
azzuddarari
azzurra
azzurrari
azzurru
aɖ
aɣ
aɣyul
aɲ
aɾ
aɾu
aɾɪ
aɾɪsɪ
aʁ
aʃ
aʐʐɪ
b
ba
baari
baarisa
baarisi
baarle
bab
baba
baballonia
babaluci
babalush
babba
babbaianni
babbajanni
babbala
babbalacchiu
babballonia
babbaluci
babbaluciu
babbanu
babbasuni
babbi
babbiari
babbillonia
babbilonia
babbilunisi
babbu
babe
babes
babillonia
babilonia
baby
babylonia
bac
baccala
baccalaru
bacchetta
baccialona
bach
bacilico
bacinu
back
background
backvocal
baco
bacon
bacu
bad
bada
badagghiu
badaloccu
badda
baddi
baddo
badduni
badduttaggiu
badduttuleri
baden
badetta
badi
badia
bae
baffa
baffi
baffu
bag
baga
bagagghiu
bagana
bagari
bagarisi
bagascia
bagdad
bagghiolu
bagghiu
baggio
baghda
baghdad
baghdadi
bagheria
bagnara
bagnari
bagnata
bagnatu
bagni
bagnoli
bagnu
baha
bahamas
bahia
bahr
bahrain
bahrein
bai
baia
baiana
baiascia
baikal
bailadores
bailey
baja
bajana
bajascia
baker
bakr
baku
bakunin
bal
bala
balanza
balata
balati
balb
balca
balcani
balcanica
baldini
balena
bali
balia
baliari
balinisi
balistreri
ball
balla
ballare
ballari
ballata
ballati
ballet
ballettu
balli
ballirina
ballo
ballu
balluni
balluttaggiu
balniari
balticu
baltimore
bam
bambi
bambina
bambini
bambino
bambu
bammacaru
bammacia
bammineddu
bamminu
ban
bana
banach
banali
banana
banat
banca
banchi
bancu
band
banda
bandi
bandini
banditi
bando
bang
bangaluri
bangkok
bangladesci
bangladesh
banjo
bank
banks
banna
bannera
banneri
banni
banniari
bannizzari
bannu
bantu
bao
baptiste
bar
bara
barack
barak
baraunna
barba
barbaciari
barbados
barbara
barbari
barbarossa
barbera
barbi
barbieri
barbuda
barbutti
barbuttiari
barca
barcellona
barcelona
barchi
barcillona
barcocu
barcuna
barcuni
bardascia
bari
baricentru
barisi
barker
barks
barlaam
barletta
barnes
barniari
barns
barocca
barocchi
baroccu
barone
barquq
barra
barrancu
barre
barrera
barrett
barri
barrio
barroso
barru
barry
barsa
barthe
bartolomeo
barton
bartulumeu
baruch
baruna
barunali
baruni
barunissa
bas
basa
basal
basamentu
basannusi
basata
basati
basatu
basca
baschi
baschiari
bascia
bascisi
basciu
basco
bascu
base
baseball
based
bashar
basi
basic
basilari
basilea
basili
basiliani
basilianu
basilica
basilicata
basilico
basiliscu
basiliu
basket
basketball
bass
bassa
basse
basshunter
bassi
bassisi
bassista
basso
bassu
bassus
bast
basta
bastanti
bastardu
bastari
bastasi
bastasu
bastia
bastianu
bastu
bastuni
bat
batasuna
bath
bati
batia
batissa
batista
batman
bats
batta
battagghi
battagghia
battagghiuni
battaghia
battaglia
battari
battarista
batte
battellu
battennu
battenti
batteri
batteria
batterista
batteriu
batteru
battesimu
batti
battiari
battiato
battiatu
battiri
battiria
battirista
battisimali
battista
battisti
battiu
battle
battuta
battuti
battutu
batu
baudelaire
baudrillard
baunu
bava
bavaluci
baveddu
baviera
baxter
bay
bayer
bayrou
baz
bazzariotu
baɾɪ
bb
bba
bbacu
bbala
bbanna
bbanu
bbasi
bbatu
bbc
bbe
bbedda
bbeni
bbi
bbia
bbica
bbichi
bbici
bbicu
bbili
bbini
bbira
bbiri
bbiru
bbisi
bbisu
bbita
bbitanu
bbiti
bbitu
bbiu
bbizzeffa
bbizzeffi
bblica
bblichi
bblicu
bbligu
bbona
bbonu
bbova
bbra
bbranu
bbri
bbria
bbrica
bbricanu
bbrichi
bbrici
bbricu
bbridu
bbrigu
bbriu
bbrudi
bbu
bbuca
bbula
bbuli
bbulu
bbura
bburu
bbutu
bbuzzeffa
bc
be
beach
beans
bear
beast
beastie
beat
beata
beati
beatles
beato
beatu
beau
beaucaire
beautiful
beaux
bec
because
beccaria
beccu
beck
beckett
become
becomes
becquerel
bed
bedda
beddi
beddu
bee
beeb
been
beethoven
before
began
begin
beginning
begins
beh
behind
being
beirut
bel
bela
belbo
belga
belgi
belgio
belgiu
belgradu
belice
belici
believe
belisariu
belisarius
belize
belizi
bell
bella
belle
bellezza
belli
bellini
bellissima
bello
bellu
bellunu
bellus
belluvidiri
belmunti
belo
belpassu
belt
belvedere
ben
benavert
benazir
benchi
bene
benedetti
benedetto
beneventu
bengala
bengasi
beni
benigni
benin
benito
benitu
beniventu
benjamin
bennett
benny
benson
benth
benvinutu
beppe
beppi
ber
berbera
berberi
berg
bergamu
berger
bergiu
bergman
bergomi
bergson
berilliu
bering
berio
berkeley
berlin
berlino
berlinu
berlusconi
berna
bernard
bernardino
bernardo
bernardu
bernhard
bernini
bernoulli
berry
bersani
bert
berta
bertarelli
berte
bertha
bertini
bertrand
bessel
bessie
best
bestia
bet
beta
betlemmi
betta
betty
between
beyond
bhutan
bhutanisi
bhutto
bi
bia
biade
biaggiu
biagi
biagio
bian
bianca
biancari
biancavilla
bianche
bianchi
bianco
biancu
biancuzzu
biat
biata
biati
biatiddu
biatificatu
biatrici
biatu
bib
bibbia
bibbliografia
bibblioteca
bibbliuteca
bibbrioteca
bibbriuteca
bibere
biblioteca
bibliotheca
bibliuteca
bibrioteca
bibriuteca
bic
bicca
biccari
biccheri
bicchieri
bicchirinu
bicichetta
bicicleta
bicicletta
bicicletti
bicicretta
bicycle
biddi
biddicchi
biddicchia
biddicchiu
biddicu
bidditta
biddizza
biddizzi
biddo
bie
bieber
bieddu
biella
bielorussia
bielurussa
bielurussia
bielurussu
bien
bienne
big
bigghiettu
biglietti
bigliettu
bijou
bike
bikini
bil
bilanciu
bilanza
bili
biliardu
biliari
bilici
bilingual
bilinguali
bilingui
bilinguismu
bilio
biliuni
bill
billa
billboard
billie
billy
bim
bin
binari
binaria
binariu
binchi
binci
bine
bingen
binh
bini
biniditta
binidittina
binidittini
binidittinu
binidittu
binidizzioni
binificenza
binistanti
binitu
biniventu
binomia
bint
binu
binumiali
binvinutu
binzina
bio
biografi
biografia
biography
biolo
biology
bioluggi
bioluggu
biondi
bios
biota
bip
bir
birbanti
birbau
bird
birkirkara
birlinu
birmania
birmanu
birmingham
birnardinu
birnardu
birra
birri
birritta
birsagghiu
birth
biru
bis
bisanziu
biscagghia
biscari
biscazzu
bisesi
bishop
bisicchia
bisicchiu
bismarck
bisogna
bisogni
bisognu
bissinissi
bistemia
bistiali
bistiami
bistimiari
bit
bites
bitu
biu
biugrafi
biulo
biuluggi
biundi
biunna
biunnu
bivanna
bivi
bivira
bivona
bixiu
biz
bizantina
bizantini
bizantinu
bizzantina
bizzantini
bizzantinu
bizze
bizzef
bizzeffa
bizzeffi
bizzuni
bjo
bl
bla
black
blackburn
blackwell
blair
blaise
blake
blan
blanc
blanco
blancum
blank
blas
blasi
blattaria
blau
ble
blica
blind
bliss
blo
blocchi
bloccu
bloch
block
blog
blois
blonde
blondie
blood
blow
blows
blu
bluccari
blue
bluegrass
blues
blundus
blunnu
bluth
bmi
bmw
bn
bo
boa
board
boat
bob
bobbiu
bobby
boca
bocca
boccaccio
boccacciu
boccoli
boccone
bocconi
bocelli
boche
body
boeing
boemi
boemunnu
bofetada
boffa
bohemian
bohr
boi
boing
bois
bokma
bol
bolanu
bolheim
boli
bolivia
bolla
bologna
bolognini
bolscevica
bolsena
bolt
boltzmann
bom
bomb
bomba
bombay
bompiani
bon
bona
bonaccossi
bonan
bonannu
bonaparti
bond
bone
bonellu
bonfiglio
bong
bongiornu
boni
bonifaciu
bonjornu
bonn
bonner
bonnie
bono
bonu
bonum
bonus
bonvinutu
bonzignuri
book
books
boom
bootleg
bop
bor
borbo
borboni
borde
bordeaux
bordi
bordu
borges
borgia
borgo
borgu
boris
bormida
born
borodinu
borromeu
borsa
borsellino
borsellinu
borsi
borsuk
boru
bos
bosch
boschi
bosco
boscu
bosnia
bosoni
boss
bossi
boston
bot
both
botta
botte
botti
botticelli
bottomed
bottu
boucher
boucherie
bouches
bouchier
boue
boulder
boulogne
bourgogne
bova
bovalinu
bovi
bowie
bowl
bowling
bowman
box
boxe
boxing
boy
boyd
boyer
boyle
boys
boz
bozza
br
bra
brabham
brac
braccio
bracciu
braccoccu
braccu
braci
brad
bradley
braga
bragg
brahe
brahma
brahms
bran
branca
brancati
branchi
branciforti
brancu
brando
brani
branu
bras
brasi
brasil
brasile
brasileira
brasili
brasiliana
brasiliani
brasilianu
brassica
bratislava
bratta
braun
bravi
bravu
bray
brazil
brazilian
brazza
brazzaville
brazzu
bre
bread
break
breaker
breakfast
breaking
breakthru
breath
breda
breguet
breizh
brenner
brennu
brenta
bresca
brescia
bresse
bretagna
bretagne
breton
brett
brettell
breve
brevi
bri
brian
brianza
bricanti
briciole
bride
bridge
brief
brien
brienne
briga
brigantaggiu
brigante
briganti
brigantony
brigata
brigati
brigghiu
bright
brighton
brill
brillamentu
brillanti
brin
brindisi
brindisinu
bring
bringing
brinnisi
brisbane
brisca
briscula
briscusu
brit
brita
britagna
britannia
britannica
britannichi
britannici
britannicu
british
britney
britta
briu
brivetti
brivettu
brivi
brixton
bro
broadcasting
broadway
brocca
broccia
brodu
brogna
broken
brolu
bronchi
broncu
bronda
bronti
bronzi
bronzu
brooklyn
brooks
bros
brother
brothers
brown
browser
bru
bruc
bruca
bruccetta
brucculinu
bruce
bruciari
bruddu
bruford
bruna
brunei
bruni
brunnu
bruno
brunu
brunzu
brusca
bruscia
brusiare
brutta
brutti
bruttu
brutu
bruxelles
bruzi
bruzzi
bryan
brydone
btu
bu
bua
buatta
buc
buca
bucali
bucarest
bucca
bucceri
buccheri
bucchi
bucciardu
bucciddatu
bucciri
buccolica
buccuni
buchanan
buche
buchi
buci
buck
buco
bucu
bud
buda
budapest
budda
buddaci
buddha
buddicu
buddismu
buddisti
buddy
budeddu
bue
buenos
buezziu
buf
bufala
bufalinu
bufalu
buffa
buffalo
buffazza
buffetta
buffi
buffittuni
buffon
buffulata
buffuluni
buffuni
buffuniari
bufo
bug
buggetta
bugghiolu
buggi
buggiardu
buggu
bugne
buimunnu
bul
bula
bulbu
bulgakov
bulgari
bulgaria
buli
bull
bulla
bullantinu
bullenti
bullire
bullu
bulluni
bulogna
bulsara
bulsce
bulu
bulugnisi
bum
bumbagia
bumma
bummardamenti
bummardamentu
bummi
bummiata
bun
bunaca
bunazzu
bunny
bunta
buntati
buon
buona
buonarroti
buono
buonu
bur
burbo
burbona
burboni
burbuna
burbuni
burdellu
burdunaru
burduni
bureau
burgata
burgettu
burghisi
burghisia
burgisi
burgisotta
burgiu
burgogna
burgos
burgu
burke
burley
burma
burning
burns
burr
burra
burrasca
burritta
burro
burru
bursa
bursillinu
burt
burton
buru
burza
bus
busa
busacca
buscari
buscema
buscemi
buscia
busciu
busciularu
buscusu
bush
busillis
business
busni
buster
busto
bustu
busu
busuni
busuttil
but
buta
butera
butler
butta
buttana
butti
buttigghi
buttigghia
buttitta
buttman
buttuna
buttunera
buttuni
butu
buvini
buvinu
buxus
buy
buz
buzz
buzzanu
buzzarari
buzzaruni
buzzeffa
by
byin
byron
byte
bz
bœu
bɔt
bɾajku
bɾaɪku
c
ca
cab
caballe
caballus
cabaret
cabasisi
cabassisi
cabbasisi
cabbassisi
cabbella
cabbillotu
cabbina
cabbinettu
cabbubbu
cabella
cabinet
cabrera
cabrini
cac
caca
cacaredda
cacari
cacaticchiu
cacatu
cacau
caccamu
cacchi
cacchiu
cacci
caccia
caccialebbri
cacciari
cacciata
cacciati
cacciaturi
cacciu
caccunu
cache
caciu
caciucavaddu
caciuni
caco
cacuminali
cacuo
cad
cada
cadars
caddemi
caddhi
caddhri
caddi
caddiste
caddu
cade
cadenza
cadera
cadere
caderu
cadi
cadiri
cadore
cadorna
caduta
caduti
cadutu
caelum
caesar
caetani
cafe
caffe
cafiso
cafisu
cafittera
cafuddari
cag
cage
cagghia
caggiuni
cagliari
cagliostru
cagliuni
cagna
cagnolu
caia
caid
caiella
cairo
cairu
caiu
cajordu
cal
cala
calabbri
calabbria
calabbrisa
calabbrisi
calabrese
calabria
calabrie
calabrisi
calabro
calaca
calafatu
calais
calamaru
calandra
calanna
calannariu
calari
calascibbetta
calata
calatafimi
calati
calatu
calau
calavrisi
calcagnu
calceus
calci
calciatore
calcio
calcistica
calciu
calcula
calculari
calculata
calculatu
calculi
calculu
calcutta
caldo
caldu
caldus
cale
caledonia
cali
calia
calibbru
calidus
califfatu
califffu
califfi
califfu
california
calimera
calindariu
calinnariu
calisseri
call
callara
callaruni
callas
called
calliari
calling
callistu
calls
callu
calma
calmu
calo
calogero
calojru
calore
caltaggiruni
caltanissetta
calu
calumari
calura
caluri
caluria
calvados
calvariu
calvi
calvin
calvinista
calvinu
calypsu
cam
camadora
camargue
camarina
camarora
camarruni
camaru
camastra
camba
cambodia
camboggia
cambridge
came
camelopardalis
camelus
camera
cameron
camerun
cami
camiddi
camiddu
camille
camilleri
camillo
camillu
camilo
camina
caminannu
caminari
caminata
caminava
camino
caminu
camira
camiu
cammara
cammarata
cammarera
cammareri
cammarinu
cammi
cammisa
cammisi
camo
camora
camorchiu
camorra
camp
campa
campagna
campagne
campagni
campagnola
campagnoli
campagnolu
campaigns
campailla
campana
campanaria
campanaru
campanedda
campanella
campani
campania
campanile
campanili
campanu
campari
camparu
campata
campatu
campau
campava
campbell
campi
campidanu
campie
campionati
campionatu
campione
campioni
campiuna
campiunati
campiunatu
campiuni
campo
campu
campubbassu
campubbeddu
campufilici
campuriali
campurutunnu
campus
campusantu
camumidda
camus
can
cana
canada
canadian
canadisa
canadisi
canal
canale
canali
canari
canaria
canarii
canasciuta
canaveral
canavese
canberra
cance
canceddu
cancelleri
canci
cancia
canciamenti
canciamentu
canciannu
cancianti
cancianu
canciari
canciaru
canciata
canciati
canciatu
canciau
canciava
cancilla
cancillari
cancillata
cancillatu
cancillazzioni
cancilleri
cancio
canciu
cancru
candida
candidata
candidati
candidatu
candidatura
candidau
candy
cane
canem
canepa
cangemi
cangia
cangiari
cangiu
cani
caniatti
canicatti
canigghia
canina
caninu
caniperru
canis
canistru
canna
cannaca
cannameli
cannarozza
cannarozzi
cannarozzu
cannaruzzutu
cannata
cannateddu
cannavuci
cannavusa
cannedda
cannes
canni
canniari
cannidati
cannidatu
cannidatura
cannila
cannileri
cannili
canninatu
cannistru
cannizzaru
cannizzu
cannola
cannolu
cannucchiali
cannuna
cannuni
cano
canonicu
canova
cansari
canta
cantabria
cantal
cantannu
cantante
cantanti
cantare
cantari
cantaru
cantastori
cantastorie
cantata
cantati
cantatu
cantau
cantautore
cantautori
cantautrici
cantauturi
cantava
canterbury
canteri
canti
canticchiu
cantidatu
cantina
canto
cantocchiu
canton
cantone
cantu
cantuna
cantunera
cantuni
canu
canumi
canuni
canusce
canuscemu
canuscennu
canuscenza
canuscenzi
canusci
canusciri
canusciu
canusciunu
canusciuta
canusciuti
canusciutu
canuttaggiu
canuzza
canyon
canzari
canzi
canziari
canzilleri
canzirru
canzone
canzoni
canzu
canzuna
canzuni
caos
cap
capa
capaci
capacita
capacitati
capacitusu
capanni
caparezza
cape
capeddu
capelli
capennu
capetu
capi
capiata
capiati
capiatu
capiddari
capiddera
capiddi
capiddu
capidduta
capiddutu
capillera
capillus
capillutu
capimentu
capiri
capisci
capita
capital
capitale
capitali
capitalismu
capitalista
capitalisti
capitanu
capitari
capitau
capitelli
capitina
capitombolo
capitulu
capizza
capizzi
capizzu
capizzutu
capo
capolocu
capoluogo
cappa
cappedda
cappeddu
cappella
cappelli
cappello
cappellu
cappottu
cappuccini
cappuccinu
cappucciu
capra
caprettu
capri
capriccio
capricciu
capriule
capsula
captain
captcha
captiare
capu
capua
capuana
capuano
capudannu
capufuscu
capulavoru
capulista
capulo
capulocu
capuluo
capuluocu
capumafia
capunata
capuni
capurannu
capurra
capusedda
capuseddu
caput
caputa
caputu
car
cara
carabbineri
carabbozzu
caracalla
caracas
caraci
caraco
caracol
caracozza
caracozzu
carafa
caraffa
caragolu
carai
caraibbi
caramela
caramonia
caramuciu
caramusciu
carara
caratariu
carattari
carattere
caratteri
caratteristica
caratteristiche
caratterizzata
caratterizzati
caratterizzatu
carattiri
carattiristica
carattiristichi
carattiristicu
carattirizza
carattirizzata
carattirizzati
carattirizzatu
caratu
caravaggiu
carbo
carbonia
carboniu
carbu
carbuidrati
carbuni
carburanti
carca
carcagnata
carcagnu
carcara
carcarazza
carcari
carcariari
carcerato
carceri
carchi
carcio
carciri
carciu
carco
carculari
carcunu
cardaci
cardaciusu
cardi
cardias
cardiddu
cardiff
cardinale
cardinali
carditu
cardu
carducci
carduelis
cardusu
care
carenza
careri
caretta
carey
carezza
cari
cariati
carica
caricaturi
cariche
carichi
cariddi
carina
carini
cario
carisma
caristi
caristia
carita
caritati
carizza
carizzi
carl
carla
carlo
carlos
carlotta
carlton
carlu
carlumagnu
carlumannu
carma
carmela
carmelo
carmelu
carmen
carmianu
carmina
carmine
carmini
carminu
carmuciu
carmusciu
carnacceru
carnaciumi
carnaciuni
carnaggiu
carnali
carnalivari
carnaluvari
carnaval
carnazzeri
carne
carnevale
carni
carnificina
carnival
carnivali
carnivora
carnivuru
carnizzeri
carnusa
carnusi
carnusu
caro
carol
carole
carolina
caroline
carolus
caronti
carota
carpazzi
carpe
carpenter
carpetta
carpignano
carpita
carpitella
carr
carrabba
carrabbinera
carrabbineri
carraffa
carrara
carrata
carre
carrera
carrere
carretti
carrettu
carri
carriari
carrica
carricari
carrie
carriera
carrittera
carritteri
carro
carroll
carrozza
carrozzi
carru
carrubba
carrubbi
carrumattu
cars
carta
cartaggini
cartagginisi
cartaggiruni
cartanisetta
cartanissetta
cartape
cartata
carte
cartedda
cartelli
cartellu
carter
cartesiu
carthage
carti
cartiari
cartier
cartisianu
cartoni
cartoon
cartoonlandia
cartularu
cartuna
cartuni
caru
caruana
carulina
carus
carusa
carusanza
caruseddu
carusi
caruso
carusu
caruta
carvana
carvunchiu
carvuni
carzaratu
cas
casa
casablanca
casal
casale
casali
casanova
casaranu
casata
casc
casca
cascari
cascata
cascati
cascatu
cascau
cascavaddu
cascia
casciolu
cascittuni
casciu
casciubbu
casciuni
casco
casdu
case
casedda
caseddi
caselli
caserma
caserta
cash
casi
casiari
casicavaddu
casina
casino
casinu
casira
caso
caspiu
cass
cassa
cassano
cassanu
cassata
cassateddi
cassetta
cassi
cassianu
cassibbili
cassini
cast
casta
castagna
castagnu
caste
casteddammari
casteddi
casteddu
castel
castellana
castellano
castelletto
castelli
castello
castellu
castellucciu
castellum
castelnovu
castelnuovo
castelte
castelvetranu
castelvitranu
casti
castiari
castiatu
castiddana
castiddu
castiddubbonu
castieddu
castigari
castigghia
castigghianu
castigghiuni
castiglia
castiglione
castijari
castle
castratu
castriota
castro
castru
castruggiuvanni
castrugiuvanni
castrunovu
casu
casuali
casucavaddu
casuliari
casus
casuzza
cat
cata
catacummi
catala
catalana
catalani
catalans
catalanu
cataldu
catali
catallu
catalog
catalogna
catalogue
catalugna
catalugu
catalunya
catamina
catammolia
catammonta
catammuntari
catananna
catanannu
catania
cataniari
catanisa
catanisi
catanzaro
catanzaru
catapurti
catarina
catarrattu
catarri
catarru
catatu
cataviddotta
catazzu
categoria
catena
caterina
caternu
cateti
catherine
cathy
cati
catiari
caticazzu
catidrali
catiguri
catiguria
catina
catinanova
catinazzu
catini
catirina
cato
catona
catoni
catrami
catridali
catru
catta
cattabbianu
cattedrale
cattiddrali
cattidra
cattidrali
cattigghiari
cattitrali
cattiva
cattivu
catto
cattolica
cattolici
cattolico
cattolicu
cattulica
cattulice
cattura
catturari
catturati
catturatu
catturau
cattus
catu
catullu
catuna
catuni
catusu
cau
cauca
caucasu
cauci
cauciari
cauciaturi
caucina
cauciu
cauda
caudana
caudanu
caudara
caudaruni
caudi
caudiari
caudumi
cauliciuri
cauluciuri
cauri
cauru
causa
causannu
causanza
causari
causaru
causata
causati
causatu
causau
cause
causetta
causetti
causi
causolu
cautela
cautilari
cav
cava
cavadda
cavaddi
cavaddu
cavagna
cavala
cavaleri
cavaliere
cavalieri
cavalli
cavalliri
cavalliria
cavallo
cavallu
cavari
cavaseddu
cavateddi
cavatu
cavatuni
cave
cavea
caverna
cavesa
cavi
cavigghia
caviriari
cavita
cavitati
cavizza
cavorchiu
cavour
cavu
cavuliciuri
cavulu
cavuluciuri
cayman
caz
cazzacatu
cazzalora
cazzata
cazziata
cazzicari
cazzicatu
cazzu
cb
cbc
cbs
cc
cca
ccabbanna
ccamora
ccamu
ccani
ccanu
ccara
ccaru
ccasutta
ccattau
ccd
cce
cch
cche
cchi
cchia
cchiara
cchie
cchina
cchio
cchiossa
cchiossai
cchiri
cchisi
cchiti
cchiu
cchiui
cchiula
cchiuni
cchiutostu
cchiuttostu
cchju
cchjui
cchjuni
cchu
cci
ccia
ccianu
ccillenti
ccillenza
ccioe
cciu
cciula
cciuli
cciulu
ccizzioni
ccizziunali
cco
ccrisia
ccu
ccui
ccula
cculi
cculu
ccuminzatina
ccumu
ccunu
ccupa
ccupanu
ccuru
ccussi
ccussini
cd
cdot
cdu
ce
ceca
cecchini
cece
cecenia
cechi
cecil
cecilia
cecoslovacchia
cecu
ced
cedda
cedi
cee
cefalu
cegghij
cela
celebri
celentano
celeste
celesti
celi
celia
celibbri
cella
celli
cellula
cellule
celluli
celsius
celti
celtis
celu
cem
cen
cena
ceni
cenni
censimentu
cent
centauri
centaurus
center
centi
centiliuni
centimetru
cento
centona
centorbi
central
centrale
centrali
centre
centri
centro
centru
centrucampista
centrudestra
centu
centum
centumila
century
centuspati
cenzimentu
cenzu
cer
cera
cerami
ceratopsia
cerca
cerchi
cerchiu
cere
cereri
ceri
cerimonia
cern
cernan
cerrito
cerro
cerru
cersa
certa
certamente
certamenti
certi
certiduni
certificatu
certu
certuni
ceru
cerva
cervantes
cervi
cervu
cerza
cesare
cesarea
cesari
ceschina
cesena
cesiu
cessa
cessu
cet
ceti
cetra
cetta
cetti
ceuta
cf
cfr
cgd
cgil
cgpm
cgs
ch
cha
chad
chagall
chain
chaleur
challenger
chalor
chamba
chambe
chamber
chamberlain
chambers
champagne
champion
champions
champlain
chan
chance
chang
change
channel
chanson
chants
chao
chaos
chapelle
chaplin
chapter
char
charamira
charente
charentes
charles
charlie
charlotte
charrie
chart
charts
charttemplate
chase
chat
chata
chaux
che
checca
checcu
chef
chell
chemin
chemins
chen
cher
cheraules
chernobyl
cherza
chesia
chet
cheti
chetru
chetu
cheval
chevre
chevreau
chevrel
cheyenne
chhiu
chi
chia
chiac
chiacchiariari
chiaccu
chiaga
chiaia
chiaiteri
chiaitu
chiaja
chiama
chiamamu
chiamannu
chiamanu
chiamari
chiamaru
chiamata
chiamati
chiamato
chiamatu
chiamau
chiamava
chiamavanu
chiamo
chiamu
chiamunu
chian
chiana
chianca
chiancheri
chianchieri
chianci
chianciulinu
chianciuta
chianciutu
chianeta
chiang
chiani
chianiggianti
chianta
chiantari
chiantatu
chiantedda
chianti
chiantu
chianu
chianuforti
chianura
chianuri
chiap
chiara
chiaramenti
chiaramunti
chiaravalli
chiarelli
chiari
chiaru
chiasa
chiassai
chiassu
chiatratu
chiatru
chiatti
chiattu
chiavetta
chiavi
chiavitteri
chiazza
chiazzetta
chiazzi
chiazzisi
chic
chica
chicago
chicagu
chicari
chicatura
chicchi
chicchiari
chichi
chicken
chico
chid
chida
chidda
chiddha
chiddhi
chiddhu
chiddi
chiddra
chiddri
chiddru
chiddu
chidi
chidu
chie
chief
chiei
chienne
chier
chiesa
chiese
chiesi
chiesia
chieti
chietru
chievo
chiffari
chig
chila
child
children
chile
chilebba
chili
chilo
chilometri
chilomitri
chilu
chilugrammi
chilugrammu
chimica
chimichi
chimici
chimicu
chin
china
chinamenti
chinasi
chinese
ching
chini
chinnice
chinu
chio
chioggi
chioggia
chiossa
chiossai
chiostru
chiova
chiovi
chiovu
chir
chira
chirac
chirca
chirchia
chirchiriddu
chiricahua
chirico
chiricopu
chiricupa
chiru
chirurgi
chirurgia
chirurgu
chis
chisa
chisciotti
chisi
chissa
chissi
chissu
chist
chista
chiste
chisti
chistioni
chistu
chit
chitarra
chitarri
chitarrista
chitarristi
chitarruni
chiti
chittena
chitu
chiu
chiuderlu
chiudi
chiuduta
chiudutu
chiui
chium
chiumazzu
chiummu
chiuni
chiuppu
chiuritu
chiuruta
chiusa
chiusi
chiussai
chiusu
chiusura
chiutostu
chiuttostu
chiuventi
chiuviddicari
chiuviti
chiuvusu
chiuvuta
chiuvuti
chja
chju
chjui
chjuni
chm
chmq
cho
chocolat
choice
chomsky
chopin
chordata
chords
chorus
chou
chris
christi
christiaan
christian
christie
christina
christine
christmas
christodulus
christoph
christophe
christopher
chrome
chu
chuck
chung
church
churchill
chyler
ci
cia
ciac
ciaca
ciacari
ciacca
ciaccari
ciaccazza
ciacculiari
ciacuddi
ciad
ciafagghiuni
ciaffa
ciagurusu
ciama
ciamanu
ciamata
ciamati
ciamatu
ciamau
ciamava
ciamma
ciammi
ciampa
ciampata
ciampi
cian
cianchi
cianciana
ciancu
cianfa
cianu
cianuru
ciao
ciappa
ciappi
ciar
ciara
ciaramedda
ciaramira
ciaramita
ciaramuci
ciaramunti
ciaramusci
ciaraveddu
ciarbeddu
ciarmu
ciarmuni
ciarmuniari
ciascu
ciascuna
ciascunu
ciatari
ciatu
ciau
ciaurari
ciauriari
ciaurusu
ciavareddu
ciavi
ciavireddu
ciavreddu
ciavula
ciavureddu
ciavurusu
ciazza
cibbi
cibbu
cibu
cic
cica
cicala
cicap
cicatrici
cicca
cicchitedda
ciccio
cicciu
ciccu
cicerca
cicero
cici
cicilia
ciciruni
cicladi
cicli
ciclismu
ciclista
ciclopi
ciclu
cicluni
cid
ciddebba
ciddiari
cidi
cidiu
cido
cidu
cidus
cidutu
cie
cielo
cielu
cien
cienfuegos
cientu
cifalu
cifra
cifri
cifunera
cig
cigna
cigni
cignu
cii
cil
cile
cilea
cileccu
cilentanu
cilento
cilentu
cilenu
cileppu
cilesti
cili
cilibbrari
cilibbrata
cilibbratu
cilibbrazzioni
cilibrari
cilibrata
cilibratu
cilibrazzioni
cilindru
cilintanu
cilinu
cilistinu
cilliri
cillulari
cilluli
cilona
cim
cima
cimarosa
cimentu
cimi
cimici
cimiddiari
cimini
ciminna
ciminu
cimiteru
cimmalaru
cimo
cimorra
cimorru
cimu
cin
cina
cinc
cinchina
cincili
cincu
cincucentu
cine
cinema
cinematogra
cinesi
cing
cinghiali
cini
cinima
cinimatugra
cinimatugrafica
cinisa
cinisi
cinniri
cinqu
cinquant
cinquanta
cinquante
cinquantina
cinque
cinquefrondi
cinqui
cinsimentu
cint
cinta
cintauru
cinte
cinti
cintimitri
cintinara
cintinaru
cintra
cintrali
cintralizzatu
cintu
cintura
cinu
cinzimentu
cinzura
cinzurari
cio
ciocca
cioccolatta
cioccolatu
cioe
cioschi
cioscu
ciot
ciovu
cip
cipa
cipanu
cipolla
cippi
cippu
cipressu
cipru
cipu
cipudda
cipuddi
cipulletta
cir
cira
ciramica
ciranna
cirasa
cirasi
ciravula
circ
circa
circannu
circari
circaru
circata
circati
circatu
circau
circava
circedda
circhiu
circo
circu
circuitu
circulari
circulazzioni
circuli
circulu
circumetnea
circundata
circundatu
circunfirenza
circuni
circunna
circunnata
circunnatu
circus
circuscrizzioni
circustanti
circustanza
circustanzi
cirella
ciri
ciriali
ciribbrali
cirico
cirilli
cirillicu
cirillu
cirimoni
cirimonia
cirimuniali
cirinaica
cirinu
ciriveddu
cirnecu
cirnigghiu
ciro
cirottu
cirrincio
cirruvi
cirtamenti
cirtiduni
cirtificatu
cirtizza
cirtuni
ciru
cirveddu
cirzitu
cis
cisa
cisalpina
cisare
cisariu
cisi
cisl
cism
cissariu
cisterna
cistus
cisu
cit
cita
citacei
citadina
citadini
citadinu
citalena
citamu
citari
citarra
citata
citati
citatina
citatini
citatinu
citatu
citazioni
citazzioni
cite
citi
citiriuri
citrolu
citru
citrullus
citrus
citta
cittadella
cittadi
cittadina
cittadinanza
cittadini
cittadinu
cittanova
cittati
citu
city
ciu
ciucciu
ciucculatti
ciuceddu
ciuciari
ciuciu
ciuciulari
ciuciulata
ciuciuli
ciuciuliari
ciudad
ciuffu
ciula
ciuli
ciumara
ciumi
ciumifriddu
ciumu
ciun
ciunna
ciunu
ciur
ciura
ciurbu
ciurenti
ciurera
ciuri
ciuriri
ciuritura
ciurru
ciusa
ciusciari
ciutu
ciuvascia
ciuvasciu
civetta
civi
civica
civicu
civil
civile
civili
civilitati
civilizzazzioni
civilta
civiltati
civirta
civirtati
civita
civitas
civitati
civitella
civu
ciz
ck
cl
cla
clan
clandistini
clannistina
clannistini
clapton
clara
clarence
clarenza
clarinetto
clarinettu
clarinu
clark
clarke
clash
class
classi
classic
classica
classical
classichi
classici
classico
classics
classicu
classifica
classificari
classificata
classificati
classificatu
classificazzioni
classifiche
classifichi
claude
claudia
claudianu
claudio
claudiu
claudius
clavice
clavus
cle
clearwater
clemente
clementi
cleopatra
clerc
clerici
clerk
clermont
cleru
clesia
cleveland
cli
clica
clienti
cliff
clifford
clima
climate
climenti
climi
cling
clinton
clio
clip
clipperton
cliu
cliupatra
clive
clo
clock
cloru
close
clotariu
club
clubs
cludere
cludiuni
cluduveu
cluj
cluny
clyde
cm
cn
cnica
cnichi
cnici
cnicu
cnr
co
coalizzioni
coast
cobain
cobra
coc
coca
cocca
cocchi
cocci
coccia
cocciu
coccu
coccunu
cocker
cocktail
coco
cocu
cod
coda
codata
codda
coddi
coddu
code
codici
codre
coerenti
cofanettu
coffa
cogghi
cogghia
cognomi
cognu
cognugari
cognugazioni
cognugazzioni
cohen
coimperator
coji
col
cola
cold
cole
coleman
coli
colin
colla
collaborazzioni
collana
colle
collection
college
colleggiu
collegium
collezione
colli
collider
colligere
collina
colline
collins
collo
collu
colo
colombia
colombo
colombu
colonia
colonie
colonna
colonne
color
colorado
colori
colour
colpa
colpi
colpo
colpu
coltre
columba
columbia
columbus
com
coma
comandare
comaneci
come
comegghie
comencini
comes
comi
comico
comics
comicu
comincio
coming
cominitiare
comintern
comisu
comitato
comma
comme
commedia
comments
commerciale
commerciali
commercio
commerciu
commi
commissario
commissariu
commission
commissione
committee
commodus
common
commons
commonwealth
commu
communication
communis
communist
community
comnenu
como
comori
compact
compagnia
company
competizioni
compi
compilation
compilato
compitu
compiuter
complesso
complessu
completamenti
complete
completu
composer
composta
compostela
compostu
comprende
compresu
comps
compton
computer
comte
comu
comuna
comunale
comunali
comune
comunementi
comuni
comunista
comunisti
comunita
comunitati
comunque
comunqui
con
cona
conan
conc
conca
concepcion
concert
concerti
concerto
concertu
concorde
concordia
concu
condizioni
conduci
conduciu
conduciutu
confe
conference
conferenza
confina
confine
confini
conga
congress
congruenti
congruenza
congu
coni
conifa
coniglio
coniu
coniugari
coniugazioni
coniugazzioni
conju
conjugari
conjugationem
conjugazioni
conjugazzioni
conjunctionem
conjungere
connecticut
connor
cononi
conoscere
conquista
conrad
consensus
conservation
conservatoriu
consideratu
consigghiu
consiglio
consiliarius
consilium
console
consoli
consolo
constance
constant
consulta
conta
contact
contadini
contador
conte
contea
contemporanea
conteni
content
contes
contessa
contest
conti
continentali
continenti
continua
continuari
continuo
contr
contra
contrabbassu
contrada
contrappusizzioni
contributions
contro
control
controllo
controllu
contru
contu
conu
convegno
convention
conza
cook
cooke
cool
cooper
cooperativa
coordinati
cop
copenaghen
coperta
copertina
copi
copia
copie
copies
copii
coppa
coppe
coppi
coppia
coppie
coppola
coppu
copri
copta
coptu
copyright
cor
corbu
corbucci
corbusier
corca
corchi
corcunu
corda
corde
cordi
cordigliera
cordova
core
corea
coreana
coreanu
coreo
corey
corfu
cori
corintu
corinzi
coriolis
coriu
corla
corleone
corna
cornell
corner
corno
cornu
coro
coromoto
corona
coronado
corpa
corpi
corpo
corporation
corpu
corpus
corra
corrado
corradu
corre
correnta
corrente
correnti
corretta
corriere
corsa
corse
corsi
corsica
corso
corsu
corte
corti
cortina
cortu
coru
corvu
corvus
cos
cosa
cosca
coscia
cose
cosenza
cosi
cosimo
cosimu
cosma
cosmo
cosmoluggi
costa
costanti
costantino
costantinopoli
costanza
costanzo
coste
costello
costi
costituisti
costituita
costituitu
costituzzioni
costrui
costruiri
costruita
costruiti
costruitu
costruzioni
costruzzioni
costu
costuli
costumi
cot
cota
cotti
cottu
cotu
cou
coue
could
coulomb
council
count
countries
country
county
coup
course
court
covalenti
cover
covino
cowboy
coz
cozzu
cp
cqua
cquiu
cr
cra
cracovia
craniu
crapa
craparu
crapettu
crapi
crash
crastu
crastuni
crateri
crati
crauni
cravatta
cravunchiu
cravuni
craxi
cray
crazy
cre
crea
created
credi
credo
creed
creedence
crema
cremeti
cremona
crescita
cresi
cresia
cresii
creta
cretaceous
creuse
crew
cri
cria
criamu
criannu
crianza
criari
criaru
criata
criati
criativu
criatrici
criatu
criatura
criaturi
criau
criazzioni
cricca
crichton
cricket
cricopa
cricropa
cridenti
cridenza
cridenzi
cridi
cridiri
cridu
cridutu
crienti
crima
crimagghiera
crime
crimea
crimi
criminali
criminalitati
crimini
crio
cripari
cripazza
cripintari
cripta
criri
cris
crisantemu
criscennu
criscenti
criscenza
crisci
criscimogna
criscimonia
crisciri
criscita
crisciu
crisciuta
crisciuti
crisciutu
crishtiani
crisi
crisiedda
crisis
crisiudda
criso
crisoprasu
crispa
crispi
crispus
crissi
crista
cristalli
cristallina
cristallu
cristian
cristiana
cristiane
cristianesimu
cristiani
cristianitati
cristianizzata
cristiano
cristianu
cristina
cristo
cristofuru
cristu
crisuleu
crita
critaciu
criteri
criteriu
critica
criticari
criticata
criticatu
critichi
critici
critico
criticu
critti
crittu
critu
crivatta
criveddu
crivu
cro
croata
croatu
croazzia
croccu
croce
crocetta
croci
crociferi
croix
cromu
cronaca
cronachi
cronistoria
croniu
crono
crosby
cross
crossing
crosta
crotone
crotoni
croue
crow
crozza
cru
cruati
cruatu
crucchettu
crucchiari
crucem
crucera
crucetta
cruci
cruciata
cruciati
cruciatu
crucifissioni
crucifissu
crudeli
crudi
crudili
crudu
cruduzzu
cruise
cruma
cruna
crunista
crunulo
crunuluggi
crusca
crusta
crutoni
cruvatta
cruveddu
cruz
cs
csi
css
ct
ctus
cu
cualizzioni
cualizziuni
cuannu
cuarenta
cuatrec
cuatru
cub
cuba
cubba
cubbana
cubbi
cubbu
cubu
cuc
cucca
cucchia
cucchiara
cucchiari
cucci
cucciara
cucciddatu
cuccu
cuci
cucina
cucinari
cucinatu
cucini
cucinu
cuciuta
cuciuti
cuciutu
cucu
cucucciu
cucummararu
cucummiraru
cucummuraru
cucutrigghiu
cucuzza
cucuzzedda
cucuzzeddi
cuda
cuddana
cuddari
cuddaru
cuddura
cudera
cudi
cudruzzu
cudweed
cue
cuegghie
cuffari
cuffaro
cuffaru
cufi
cufinu
cufuruna
cug
cugghi
cugghiandru
cugghiuni
cugghiuta
cugghiuti
cugghiutu
cugnata
cugnatu
cugnilari
cugnintura
cugnoma
cugnomi
cugnomu
cugnu
cugnugali
cugnugari
cugnugazioni
cugnugazzioni
cugnuntura
cugnunzioni
cui
cuinci
cuincidenza
cuincidi
cuirami
cuirenti
cuirenza
cuitu
cujjienti
cul
cula
culari
culata
culati
culazzioni
culera
culi
cull
culla
cullabburari
cullabburativu
cullabburatu
cullabburatura
cullabburaturi
cullabburau
cullabburazzioni
cullaborazzioni
cullana
cullari
cullassu
culle
culleca
cullega
culleggi
culleggiu
culleghi
cullegiu
cullezzioni
culli
culliari
cullicati
culliga
culligamenti
culligamentu
culliganza
culligari
culligata
culligati
culligatu
cullijari
cullijati
cullina
cullinari
cullini
cullisanu
cullisioni
cullittivita
cullittivu
cullizzioni
cullu
cullucata
cullucati
cullucatu
cullucazzioni
culo
culommu
culoni
culonia
culonii
culonna
culonni
culpa
cult
culta
cultellus
culti
cultiva
cultivari
cultivata
cultivatu
cultivazzioni
cultu
cultura
cultural
culturale
culturali
culturalmenti
culture
culturi
culu
culumma
culuni
culunia
culuniali
culunialismu
culunizzata
culunizzati
culunizzazzioni
culunna
culunnellu
culunni
culupazzu
culura
culuranti
culurata
culurati
culuratu
culurazzioni
culuri
culus
culusseu
cum
cuma
cumanna
cumannanti
cumannari
cumannata
cumannati
cumannatu
cumannau
cumannava
cumanni
cumannu
cumarca
cumbattenti
cumbattiri
cumbria
cume
cumeddia
cumedia
cumeta
cumeti
cumincia
cuminciari
cuminciaru
cuminciarunu
cuminciau
cumincio
cuminza
cuminzari
cumitati
cumitatu
cumma
cummannanti
cummannati
cummannu
cummari
cummattennu
cummattenti
cummatteru
cummatti
cummattimenti
cummattimentu
cummattiri
cummattiu
cummattiva
cummattuta
cummattutu
cumme
cummedi
cummedia
cummenti
cummentu
cummerci
cummerciali
cummerciu
cummi
cummidia
cummigghia
cummigghiannu
cummigghiari
cummigghiata
cummigghiati
cummigghiatu
cummigghio
cummimuratu
cummina
cumminari
cumminata
cumminati
cumminazzioni
cumminci
cummings
cummintu
cumminzioni
cummircenti
cummirciali
cummircianti
cummiriciali
cummirsazzioni
cummirsioni
cummissari
cummissariatu
cummissariu
cummissioni
cummissiuni
cummisti
cummistibbili
cummisu
cummo
cummogghiu
cummudita
cummusti
cummustioni
cumpa
cumpagna
cumpagni
cumpagnia
cumpagnu
cumpara
cumparata
cumpareru
cumpari
cumpariri
cumpariu
cumparsa
cumparunu
cumpassu
cumpati
cumpatta
cumpattu
cumpenniu
cumpenzu
cumpetizzioni
cumpi
cumpimentu
cumpitenza
cumpitenzi
cumpitizzioni
cumpiuta
cumpiutu
cumplementu
cumplessa
cumplessi
cumplessu
cumpleta
cumpletamenti
cumpleti
cumpletu
cumpliannu
cumplicata
cumplicatu
cumplimentu
cumplitamenti
cumplitari
cumplottu
cumpo
cumponi
cumporta
cumposizzioni
cumposta
cumposti
cumpostu
cumpra
cumprari
cumprata
cumpre
cumprendiri
cumprenni
cumpresa
cumpresi
cumpressi
cumpressu
cumpresu
cumpreta
cumpretamenti
cumpreti
cumpretu
cumpricata
cumpricati
cumpricatu
cumprimentu
cumprimintari
cumprinnennu
cumprinnenti
cumprinni
cumprinnuta
cumprinzioni
cumprisa
cumprisi
cumprisu
cumpritamenti
cumpritari
cumpritata
cumprumissu
cumpunenti
cumpuni
cumpunimenti
cumpunimentu
cumpunuta
cumpunutu
cumpurta
cumpurtamenti
cumpurtamentu
cumpurtava
cumpusitura
cumpusituri
cumpusizzioni
cumpusta
cumputer
cumu
cumulonimbus
cumuna
cumunali
cumune
cumuni
cumunicari
cumunicatu
cumunicazioni
cumunicazzioni
cumunimenti
cumunioni
cumunismu
cumunista
cumunisti
cumunita
cumunitati
cumunqui
cumunu
cun
cunce
cuncentra
cuncerti
cuncertu
cuncessa
cuncessu
cuncetta
cuncetti
cuncettu
cunchigghia
cunchiu
cunchiudi
cunchiusioni
cunci
cuncidi
cuncili
cunciliu
cuncintra
cuncintramentu
cuncintrata
cuncintrati
cuncintratu
cuncintrazzioni
cuncirnenti
cuncissioni
cuncittuali
cuncizzioni
cunclusioni
cunco
cuncordia
cuncorsu
cuncreta
cuncretu
cuncricazzioni
cuncumeddu
cuncurrenti
cuncurrenza
cuncursi
cuncursu
cundizioni
cundizzioni
cundotta
cundutturi
cuneu
cunfaffari
cunfaloni
cunferma
cunfi
cunfidenza
cunfidirazzioni
cunfigurazzioni
cunfina
cunfinanti
cunfini
cunfirenza
cunfirenzi
cunfiri
cunfirmari
cunfirmata
cunfirmati
cunfirmatu
cunfirmau
cunfisca
cunfissioni
cunfissu
cunfissuri
cunfizzioni
cunflitti
cunflittu
cunflui
cunfluiri
cunfluisci
cunformi
cunfortu
cunfrate
cunfritti
cunfrittu
cunfronti
cunfrontu
cunfruenza
cunfrunta
cunfruntari
cunfrunti
cunfruntu
cunfu
cunfuciu
cunfunni
cunfunniri
cunfurmazzioni
cunfusa
cunfusioni
cunfusu
cungilari
cungittura
cungiuntivu
cungiunzioni
cungiura
cungressu
cungrigazioni
cungrigazzioni
cungrissu
cuni
cuniata
cuniati
cuniatu
cunigghiu
cunigghiuni
cuniu
cuniugali
cuniugari
cuniugatu
cuniugazioni
cuniugazzioni
cuniuntura
cuniunzioni
cunjilari
cunjintura
cunju
cunjugali
cunjugari
cunjugazioni
cunjugazzioni
cunjuntura
cunjunzioni
cunna
cunnanna
cunnannata
cunnannati
cunnannatu
cunnannau
cunnessi
cunni
cunnimentu
cunnissioni
cunnividi
cunnizioni
cunnizzioni
cunnizziunali
cunnu
cunnuci
cunnuciuta
cunnuciuti
cunnuciutu
cunnutazzioni
cunnutta
cunnutteru
cunnutti
cunnuttu
cunnuttura
cunnutturi
cunnuzzioni
cunortu
cunquista
cunquistannu
cunquistanu
cunquistari
cunquistaru
cunquistata
cunquistati
cunquistatu
cunquistaturi
cunquistau
cunquisti
cunsacrata
cunsacratu
cunsacro
cunse
cunsensi
cunsensu
cunsenti
cunsi
cunsicuenza
cunsicuenzi
cunsideratu
cunsidira
cunsidirannu
cunsidirari
cunsidirata
cunsidirati
cunsidiratu
cunsiggheri
cunsigghi
cunsigghiari
cunsigghiatu
cunsigghieri
cunsigghiu
cunsiglieri
cunsigliu
cunsiquenti
cunsiquenza
cunsiquenzi
cunsirvaturi
cunsirvazzioni
cunsistenti
cunsistenza
cunsisti
cunsulatu
cunsultazzioni
cunsuma
cunsumatu
cunsumu
cunta
cuntadina
cuntadini
cuntadinu
cuntaminati
cuntaminazzioni
cuntannu
cuntanu
cuntari
cuntaru
cuntastori
cuntata
cuntati
cuntatini
cuntatinu
cuntatti
cuntattu
cuntatu
cuntau
cuntava
cunte
cuntea
cunteni
cunteniri
cuntennu
cuntenti
cuntentu
cuntessu
cuntesti
cuntestu
cunti
cuntimplazioni
cuntimplazzioni
cuntimprazzioni
cuntimpura
cuntimpurani
cuntimpurania
cuntimpuraniamenti
cuntimpuraniu
cuntinenti
cuntingenti
cuntini
cuntinia
cuntinintali
cuntinituri
cuntintizza
cuntinua
cuntinuamenti
cuntinuannu
cuntinuanu
cuntinuari
cuntinuaru
cuntinuarunu
cuntinuatu
cuntinuau
cuntinuava
cuntinuazzioni
cuntinui
cuntinuita
cuntinuitati
cuntinuo
cuntinuta
cuntinuti
cuntinutu
cuntinuu
cuntinziusu
cuntissa
cuntistata
cuntornu
cuntra
cuntrada
cuntraddizzioni
cuntrapponi
cuntrappusizzioni
cuntrari
cuntraria
cuntrariamenti
cuntrariu
cuntrastari
cuntrasti
cuntrastu
cuntrata
cuntrati
cuntratta
cuntratti
cuntrattu
cuntrazzioni
cuntribbuennu
cuntribbueru
cuntribbui
cuntribbuiri
cuntribbuisci
cuntribbuiti
cuntribbuiu
cuntribbuta
cuntribbuti
cuntribbutu
cuntro
cuntrolla
cuntrolli
cuntrollu
cuntru
cuntrulla
cuntrullari
cuntrullata
cuntrullati
cuntrullatu
cuntrullava
cuntruversa
cuntruversi
cuntruversu
cuntu
cunu
cunuscenza
cunuscenzi
cunusciutu
cunve
cunvegni
cunvegnu
cunveni
cunventu
cunverti
cunvi
cunvinci
cunvintu
cunvinzioni
cunvinziunali
cunvirsioni
cunvirti
cunvirtuti
cunvirtutu
cunvogghiu
cunza
cunzari
cunzaru
cunzata
cunzati
cunzatu
cunze
cunzenti
cunzenzi
cunzenzu
cunzerva
cunzi
cunzicutivi
cunziddira
cunziddiramu
cunziddirannu
cunziddirari
cunziddirata
cunziddirati
cunziddiratu
cunziddirava
cunziddirazzioni
cunzidira
cunzidiramu
cunzidirannu
cunzidirari
cunzidirata
cunzidirati
cunzidiratu
cunzidirazzioni
cunzidire
cunziggheri
cunzigghi
cunzigghiari
cunzigghiatu
cunzigghieri
cunzigghiu
cunziglieri
cunzigliu
cunzigna
cunzignari
cunzinti
cunzinzuali
cunziquenti
cunziquenza
cunziquenzi
cunzirvari
cunzirvati
cunzirvatoriu
cunzirvatu
cunzirvatura
cunzirvazzioni
cunzistenti
cunzistenza
cunzisti
cunzulatu
cunzulenti
cunzuma
cunzumatu
cunzumu
cunzuna
cunzunantali
cunzunanti
cuo
cuocu
cuomu
cuore
cuori
cuozzu
cup
cupa
cupe
cuperchiu
cuperta
cuperti
cupiari
cupiati
cupiativa
cupid
cupirtina
cupirtura
cuppa
cuppinu
cuprennu
cupu
cupula
cur
cura
curaggiu
curaggiusu
curali
curanedda
curanu
curari
curaru
curata
curatu
curba
curca
curcari
curcatu
curciu
curda
curdaru
curdi
curdu
curduni
cure
curea
curi
curia
curiana
curianu
curie
curina
curinzi
curiusa
curiusi
curiusita
curiusitati
curiusu
curlannia
curlannisi
curliuni
curma
curmu
curnacchia
curneliu
curnici
curnutu
curnuvagghia
curona
curpa
curpe
curpi
curpiri
curpisci
curpu
curpulenza
curpurazzioni
curputu
curradinu
curradu
currau
curre
currennu
current
currenti
curreru
curretta
curretti
currettu
curri
curriduri
curriggiuti
currilati
currilatu
curriri
currispu
currispunnenti
currispunnenza
currispunni
currispunnunu
currituri
currivu
currizzioni
curru
curruzzioni
cursa
cursi
cursivu
cursu
curta
curtei
curteu
curti
curticali
curtigghi
curtigghiu
curtigliu
curtili
curtis
curtisi
curtivari
curtivata
curtivati
curtivatu
curtivazzioni
curtu
curtumitraggiu
curtura
curturali
curturi
curu
curuna
curunedda
curuni
curva
curvacchiu
curvatu
curvatura
curvi
curvu
cus
cusacchi
cuscenti
cuscenza
cuscienti
cuscienza
cuscinu
cuscus
cuscusu
cusena
cusenza
cusi
cusiddetta
cusidditta
cusiu
cusme
cusmeticu
cussi
cussidditta
cussidditti
cussiddittu
cussini
custa
custanti
custantimenti
custantino
custantinopuli
custantinu
custanza
custanzu
custardedda
custari
custau
custera
custeri
custiddazzioni
custioni
custituenti
custitui
custituiri
custituisci
custituiscinu
custituisciunu
custituita
custituitu
custituiuta
custituiutu
custituuta
custituutu
custituzzionali
custituzzioni
custituzziunali
custodi
custodia
custretta
custretti
custrettu
custri
custrincennu
custrinci
custrinciuti
custrinciutu
custrittu
custruennu
custrueru
custrui
custruiri
custruisci
custruita
custruiti
custruitu
custruiu
custruiuta
custruiuti
custruiutu
custruttu
custruttura
custrutturi
custruuta
custruuti
custruutu
custruzzioni
custudiri
custudisci
custuditi
custuma
custumanzi
custumi
custura
custureri
custusi
cut
cuta
cute
cutedda
cuteddi
cuteddu
cuti
cuticchia
cutidiana
cutidianu
cuto
cutra
cutroni
cutru
cutrufianu
cuts
cuttu
cuttuni
cuttunina
cuttura
cutturi
cutu
cutugno
cutugnu
cutuliata
cuupirazzioni
cuurdinamentu
cuurdinati
cuurdinazzioni
cuve
cuverchiu
cuverna
cuverni
cuvernu
cuverta
cuviernu
cuvirna
cuvirnanti
cuvirnari
cuvirnaru
cuvirnata
cuvirnati
cuvirnativa
cuvirnatu
cuvirnatura
cuvirnaturi
cuvirnau
cuviu
cuz
cuzzata
cy
cygni
cyril
cz
d
da
dabbanna
dacci
daccussi
dacia
daddy
dadi
dadu
dag
dagli
dai
daia
daily
daisy
daja
dakota
dal
dalai
dale
dali
dall
dalla
dallas
dalle
dalli
dalton
daltrey
dam
dama
damaggiu
damascu
dame
damiani
damiano
damianu
dammaggi
dammaggiu
dammi
dammusu
dan
dana
danaru
dance
dancing
dangerous
daniel
daniela
daniele
danieli
danimarca
danisi
danni
danniggiata
danniggiati
dannu
dannusu
danny
dans
dante
danti
danu
danubbiu
danza
danzanti
danzi
dapprima
dapprincipiu
dar
dara
dardu
dare
darfinu
dari
dario
dariu
dark
darling
darmstadt
darre
darredi
darredu
darreri
darreru
darreti
darretu
darwin
das
dasti
dat
data
database
datata
datati
datatu
datazzioni
date
dati
dato
datu
dau
daudet
daughter
dava
davanti
davanu
davanzi
dave
daveru
david
davide
davies
davis
davveru
dawn
day
days
dazzi
dazziu
db
dc
dd
dda
ddabbanna
ddani
ddanu
ddara
ddaru
dde
ddh
ddhrai
ddi
ddia
ddicu
ddini
ddira
ddiri
ddiru
ddita
dditu
ddiu
ddo
ddoche
ddocu
ddonca
ddoppu
ddr
ddragunara
ddraunara
ddritta
ddrivigghiari
ddruvigghiari
ddu
ddula
de
dea
deacon
dead
deaf
deaflympics
dean
deanne
dear
death
debbie
debbuli
debet
debian
debilem
debilis
deborah
debuli
debuttu
decade
december
decenni
decenniu
deci
deciliuni
decimali
decimu
decin
decini
decise
decisi
deciu
declaration
declinu
decretu
dedalo
dedicata
dedicated
dedicatu
dee
deejay
deep
deepin
def
defence
defi
definiri
definisci
definita
definitiva
definitivamenti
definitu
definizioni
definizzioni
degas
degli
degree
dei
deia
deja
del
delegation
delfi
delhi
delia
dell
della
delle
delli
dello
delta
deluxe
dem
deman
demenna
demetra
demetrio
demetriu
demm
demo
democra
democracy
democratica
democratici
democratico
democrazia
demu
den
dena
denaro
denethor
denia
denis
dennis
densita
densitati
densu
dent
dente
dentem
denti
dentro
denza
denzia
denzu
deo
department
depeche
deputati
deputato
der
dere
derek
deriva
derivata
des
descartes
descriviri
desert
deserto
desertu
desi
desiderio
desideriu
design
desktop
desmond
despacito
destra
destru
det
determinari
detroit
detta
detti
dettiru
detto
dettu
deu
deus
deutsche
deux
deve
development
devi
devil
devo
dhr
dhra
dhru
di
dia
diabbe
diabbo
diabe
diabolus
diaframma
diale
dialettale
dialetti
dialetto
dialettu
dialittali
dialogo
dialugu
diamanti
diameters
diametru
diamitru
diamond
diana
diane
diano
dianu
diapsida
diari
diariu
diarri
diavolo
diavulu
dibattitu
dibba
dibbulizza
dibbulizzi
dibulizza
dic
dica
dicadenti
dicadenza
dicadi
dice
dicembra
dicembre
dicembri
dicembru
dicemmiru
dicemu
dicenni
dicenniu
dicennu
dicenu
dicere
diceva
dichi
dichiara
dichiarari
dichiarata
dichiarati
dichiaratu
dichiarau
dichiarazzioni
dichiaro
dici
dicia
diciadottu
diciannovi
diciannuve
diciassetti
diciassitte
dicideru
dicidi
dicidiri
dicidutu
dicie
dicimali
dicina
dicini
dicinu
diciott
diciottu
dicira
diciri
dicisi
dicisioni
dicisiru
dicisiva
dicisivi
dicisivu
dicisti
dicisu
diciu
diciuta
diciuti
diciutte
diciutu
dick
dickens
dickinson
diclinari
diclinu
dicollu
dicorativu
dicorazzioni
dicretu
dicritu
dictionary
dictiounaire
dictu
dictum
dicu
diculunizzazzioni
dicunu
dicurata
dicurati
dicurativi
dicurativu
dicuratu
dicurazzioni
did
dida
didattica
diderot
didi
didica
didicarisi
didicata
didicati
didicatu
didicau
didico
didier
didu
die
dieci
diego
diegu
diei
dieli
diem
dien
dies
diesel
dieta
dietrich
dieu
difatti
dife
difenniri
difesa
difetti
difettu
differenti
differenza
diffi
difficile
difficili
difficirmenti
difficolta
difficulta
difficultati
difficurta
difficurtati
diffire
diffirenta
diffirenti
diffirenza
diffirenzi
diffirenzia
diffirinziali
diffirinziata
diffirisci
diffu
diffunneru
diffunni
diffunniri
diffunnuta
diffunnutu
diffusa
diffusi
diffusione
diffusioni
diffusu
difici
dificiu
difini
difiniri
difinisci
difinistrazzioni
difinita
difiniti
difinitiva
difinitivamenti
difinitivu
difinitu
difinizioni
difinizzioni
difinizziuni
difinni
difinsuri
difinuta
difinuti
difinutu
difinzivu
difinzuri
difisa
difisi
difittivu
difuntu
difurmazzioni
dig
diga
diggirenti
diggiriri
diggistioni
diggitali
dighi
digital
digitali
digitus
digni
dignitati
dignu
digo
dii
dijittari
dijunu
dil
dilatazzioni
dilfinu
dili
dilicati
dilicatu
diligazzioni
dilimitata
dilimitatu
dilittanti
dilitti
dill
dilla
dilli
dillu
dima
dimaniali
dimanna
dimannari
dime
dimenche
dimensioni
dimetriu
dimi
diminsionalmenti
diminsioni
diminuiri
diminuisci
diminutiva
diminutivu
diminuzzioni
diminzioni
diminziuni
dimissioni
dimitri
dimitris
dimitriu
dimmi
dimo
dimocrazzia
dimoniu
dimora
dimostra
dimostrazzioni
dimucra
dimucratica
dimucraticamenti
dimucratici
dimucraticu
dimucrazzi
dimucrazzia
dimugra
dimura
dimustrari
dimustraru
dimustrata
dimustrativi
dimustratu
dimustrau
dimustrazzioni
din
dina
dinamica
dinamicu
dinamismu
dinari
dinaru
dinasti
dinastia
dine
dinger
dini
dino
dinocchiu
dinominazzioni
dinosaur
dinosauria
dinosaurs
dinosauru
dinota
dins
dinsita
dinsitati
dintali
dintati
dintorni
dintra
dinu
dinuminata
dinuminatu
dinuminazzioni
dinunzia
dinusa
dinusauru
dinzita
dinzitati
dio
diocesi
diodoru
dion
dioni
dionigi
dionisiu
dionisu
dios
dioscuri
dipartimenta
dipartimenti
dipartimento
dipartimentu
dipartimintali
dipenda
dipenni
dipinnenti
dipinnenza
dipinti
dipinto
dipintu
diploma
dipluma
dipo
dipostu
diprissioni
diprissiuni
diproma
dipruma
dipunutu
dipurtazzioni
dipusitari
diputata
diputati
diputatu
dir
dira
dirac
diramazzioni
diranu
dire
director
directory
directus
diretta
direttamenti
diretti
direttore
direttu
diretturi
direzione
direzioni
direziuna
direzzioni
dirfinu
diri
diricata
dirichlet
dirigenti
diriggenti
diriggi
diriggiu
diriggiuta
diriggiutu
diritta
dirittamenti
diritti
dirittrici
dirittu
diritturi
diriva
dirivanti
dirivari
dirivata
dirivati
dirivatu
dirivau
dirivazzioni
dirizzioni
dirizziuni
dirty
dis
disa
disabbilitati
disabbitata
disaciu
disaggiu
disambi
disambigua
disambiguitati
disastru
disastrusi
disc
disca
discausari
disce
discendenti
discenni
discepulu
dischi
disci
discindenti
discinnenti
discinnenza
discinni
disciplina
disciplinari
disciplini
discipplina
disciprina
disciprini
disco
discografica
discogs
discorso
discovery
discreta
discretu
discri
discriminazzioni
discrissi
discritta
discritti
discrittiva
discrittu
discrivi
discriviri
discrivuti
discrivutu
discrizzioni
discu
discugra
discugrafi
discugrafia
discugrafica
discugraficu
discurrennu
discurri
discursi
discursu
discussion
discussioni
discuteca
discutechi
discuti
dise
disegni
disegnu
disertu
disfari
disfi
disfiducia
disfizziari
disfizziu
disgrazzia
disi
disideriu
disigna
disignari
disignata
disignati
disignatu
disignaturi
disignau
disigni
disignu
disiu
disk
dislike
disney
diso
disoccupazzioni
disordini
dispersi
dispettu
dispiratu
dispirsioni
display
displaystyle
dispo
disponi
disponibile
disposizzioni
disposta
disposti
dispostu
disprezzu
dispriggiativu
dispu
dispuni
dispunibbili
dispunibbilitati
dispusitivi
dispusitivu
dispusizzioni
disputa
dispute
disputes
dissi
dissidenti
dissirtazioni
dissirtazzioni
dissiru
dissuluzzioni
dista
distanti
distanza
distanze
distanzi
disterru
disti
disticu
distillazzioni
distinata
distinati
distinatu
distinazzioni
distingueru
distingui
distinguiri
distingunu
distinta
distinti
distintivu
distintu
distinu
distinzioni
distretti
distretto
distrettu
distribbuitu
distribbuiuti
distribbuzzioni
distribuitu
distribuzioni
distribuzzioni
distritti
distrittu
distru
distrubbari
distrudi
distruduta
distruggennu
distruggi
distruggiri
distruggiuta
distruggiuti
distruggiutu
distruiu
distruiuta
distruji
distrussi
distrutta
distrutti
distruttiva
distruttu
distruzzioni
disturbari
disturbi
disturbu
disusu
dit
dita
dite
diteni
dites
diti
ditinutu
ditirammu
ditirmina
ditirminanti
ditirminari
ditirminata
ditirminati
ditirminativi
ditirminativu
ditirminatu
ditirminazzioni
ditta
dittagghi
dittagghiu
dittainu
dittatura
dittaturi
dittaturiali
ditteri
ditti
dittonghi
dittongu
dittrichia
dittu
dittungazzioni
ditu
diu
diunisiu
diure
diurnum
diva
divacari
divastanti
dive
diveni
divenne
diventa
diventare
diventau
diventera
diversa
diversamenti
diverse
diversi
diversu
divertimento
divertimentu
divertimentum
divi
diviazzioni
dividennu
dividi
dividiri
dividutu
divietu
divina
divinare
divinari
divingiari
divini
divinita
divinitati
divinni
divinniru
divinta
divintannu
divintari
divintaru
divintatu
divintau
divinto
divinu
divinutu
divirsi
divirsitati
divirtenti
divirtimentu
divisa
divisi
division
divisioni
divisu
divisura
divisuri
divorziu
divoti
divotu
divuzioni
divuzzioni
dixit
diz
dizionario
dizziunari
dizziunariu
dj
dja
dl
dm
dna
do
doc
doccia
docg
doctor
docu
document
documentariu
documenti
documentu
does
dog
dogg
dogghia
dogma
dogmi
doi
doing
dolce
dolcetto
dolci
doli
dollari
dollaru
dolmen
dolore
dolorem
dom
domain
domani
domenica
domenico
domenicu
domesticus
domi
domina
domingo
domini
dominica
dominique
dominiu
domino
dominus
dommage
domo
domu
domus
don
dona
donaci
donald
donato
donatu
donbass
donetsk
dong
doni
donie
donna
donnalucata
donne
donni
donu
doom
door
doors
dop
dopo
doppia
doppio
doppiu
doppo
doppu
doppucena
doppuguerra
doppupranzu
dopu
dopuguerra
dor
dora
dorci
dordogna
dorelli
dori
doria
doris
dorma
dormi
dorothy
dorsey
dorso
dorsu
dos
dosi
dota
doti
dots
dott
dotti
douard
double
doubs
doug
douglas
dove
dover
dovutu
down
download
downs
doyle
dq
dr
dra
dracu
dragon
dragu
dragunara
draguni
drake
dramma
drammatica
drammaturgu
drammi
drappu
draunara
dre
dream
dreams
drengot
dresda
drew
drh
dri
dricu
dritta
drittamenti
dritti
drittu
drive
driven
dro
droga
droghi
droz
dru
druguni
drum
ds
dt
du
dua
dub
dubbi
dubbitari
dubbiu
dubbulari
dublinu
duc
duca
ducali
ducati
ducatu
duce
ducea
ducenti
ducentu
duchi
duchissa
duci
duciu
duck
ducumenta
ducumentati
ducumenti
ducumentu
ducumintari
ducumintariu
ducumintata
ducumintazzioni
dudda
dudice
dudici
dudley
due
duellu
duet
duettu
duga
dugana
dugnu
dui
duke
dulci
dulcis
duli
dulu
duluri
dulurusa
dum
dumani
dumanna
dumannari
dumannatu
dumannau
dumanni
dumanno
dumas
dume
dumi
dumiciliari
dumila
duminanti
duminari
duminaru
duminata
duminatu
duminazzioni
dumincadi
dumini
duminica
duminicadi
duminicana
duminicani
duminicanu
duminicu
duminiu
dumizzianu
dumma
dummanna
dummi
dummu
dun
duna
dunant
dunanu
dunari
dunata
dunati
dunatrici
dunatu
dunau
dunazzioni
dunca
duncan
dunchi
duni
dunna
dunni
dunque
dunqui
dunu
duo
duocu
duomo
duomu
duoppu
duplu
duppi
duppia
duppiu
duppu
dupricari
dupru
dur
dura
duran
durante
duranti
durari
durata
duratu
duraturi
durau
duri
during
durizza
durlindana
durmi
durmiri
durmiti
durmitoriu
duro
dursali
duru
dusi
dusmet
dust
dusty
dut
dutata
dutati
dutatu
dutta
duttrina
duttrini
duttu
duttura
dutturatu
dutturi
dutu
duu
duva
duve
duvi
duviri
duvu
duvuta
duvuti
duvutu
duzzina
dvd
dwarf
dwight
dy
dyck
dylan
dz
dztwo
dɛ
dʒaɾɪ
dʒɪ
e
ea
eagles
ealing
earl
earls
early
earth
east
eastern
easy
eb
ebbe
ebbi
ebbica
ebbiru
ebbra
ebbraica
ebbraicu
ebbraismu
ebbrea
ebbrei
ebbreu
ebbug
ebra
ebraicu
ebrei
ebreu
ec
ecc
ecce
eccessu
eccetra
eccettu
eccezione
eccezioni
eccezzioni
eccezziunali
ecchiu
ecci
eccidiu
eccillenza
eccissiva
eccitazzioni
eccitra
eccizzioni
eccizziunali
ecclesia
ecclissi
ecco
eccu
eccum
ecetra
eco
ecole
ecoluggi
econo
economia
economic
economica
economicu
econumi
econumia
econumista
ecu
ecuador
ecuaturi
eculibbriu
eculo
ecuno
ecunomica
ecunomicamenti
ecunomichi
ecunomicu
ecunumi
ecunumia
ecunumicamenti
ecunumista
ed
edda
eddi
eddie
eddu
eddy
eden
edgar
edh
edi
edicions
edificata
edificatu
edificazzioni
edifici
edificio
edificiu
edilizzia
edimburgu
edinburgh
edison
edit
edith
edition
editions
editore
editori
editoriale
editors
editrice
editrici
edittu
edituri
edituriali
edizione
edizioni
edizzioni
edm
edmond
edmund
edoardo
edouard
eds
edu
eduard
eduardo
eduardu
educari
education
educational
educazzioni
edvard
edward
edwards
edwin
ee
eelam
efesu
effe
effect
effetti
effettivu
effettu
efficaci
efficienti
efficienza
effittivamenti
effittivu
effittuati
effittuatu
eg
eggeu
eggh
egghe
egghie
eggittu
eggizzi
eggizzia
eggizziana
eggizziani
eggizzianu
eggizziu
egin
egittu
egizziani
egizzianu
ego
egun
egypt
eh
ei
eia
eiffel
einaudi
einstein
eire
eisenhower
eisenstein
eiu
eius
eja
ejido
eju
ek
el
ela
elabburari
elabburazzioni
elba
ele
eleanor
electric
electron
electronic
electronics
elefanti
elegans
eleganti
eleggi
elegii
elektra
eleme
elementa
elementari
elementi
elements
elementu
elemintari
elena
elenco
elencu
eleonora
elephant
eletta
eletti
eletto
elettrica
elettriche
elettricu
elettro
elettroni
elettronica
elettru
elettrumagnetica
elettrumagnetiche
elettrumagneticu
elettrumagnetismu
elettruni
elettrustatica
elettu
eletturali
eleuteriu
elevata
elezioni
elezzioni
eli
elia
elias
elico
elie
eliganti
eliggi
eliggiuta
eliggiuti
eliggiutu
elimenti
elimentu
elimi
elimina
eliminari
eliminata
eliminatu
eliminazzioni
elimintari
elio
eliot
elisa
elisabbetta
elisabeth
elisabetta
elittricitati
elittro
elittroni
elittura
elitturali
elitturi
eliu
elivata
elivatu
elizabeth
elizzioni
elizziuni
ella
elle
ellen
elleno
elli
ellie
ellini
ellinistica
elliott
ellis
ellissi
ellissoidi
ellittica
ellu
elmu
eloggiu
eloquentia
eloru
elsa
else
elton
eltsin
elvira
elvis
em
emancipazzioni
emanuel
emanuele
emanueli
eme
emergenza
emergi
emerson
emetti
emi
emigranti
emigrati
emigrau
emigrazzioni
emil
emile
emilia
emiliano
emilianu
emilio
emiliu
emily
eminem
eminescu
emirati
emiratu
emirgenti
emirgenza
emiri
emiru
emisferu
emissioni
emittenti
emivita
emma
emmanuel
emo
empe
empedocle
empedocli
emperado
empi
empire
empires
empoli
emuglubbina
emuzzioni
en
enc
enceladu
enciclopedi
enciclopedia
encyclopedia
end
endangered
ende
enden
endivia
ends
ene
enea
eneidi
energeticu
energi
energia
enfant
engelm
engels
engine
england
english
eni
enigma
enimma
enirge
enirgi
enirgia
enna
enne
ennio
ennisi
enniu
enormi
enotri
enough
enrico
enricu
enrique
ens
ensemble
ensuen
ente
entella
entellina
enteron
entertain
entertainment
enti
entita
entitati
entra
entrambi
entrata
entroterra
entru
entruterra
entry
entu
entusiasmu
enu
enza
enzima
enzimi
enzo
enzu
eo
eoli
eolie
ep
epa
epi
epicentru
epide
epidemia
epidimi
epidimia
epigrammi
epiru
episcopale
episode
episodi
episodio
episodiu
epistulari
episudi
epitaph
epoca
eppi
eppuru
epsilon
epuca
equali
equaturi
equaturiali
equazioni
equazzioni
equestri
equilibbriu
equilibriu
equipaggi
equipaggiu
equivalent
equivalenti
er
era
eraclea
erane
erano
eranu
erato
erba
erbi
erbivuru
erc
erculanu
erculi
erdo
ere
eredi
eredita
eremu
eren
eresi
eretta
erettu
erg
ergo
ergu
eri
eric
erici
eriditari
eriditati
erik
erika
erinu
eris
eritera
erithacus
eritrea
eritria
ermu
ernest
ernesto
ernestu
ernia
ernst
ero
eroe
eroi
eros
erra
errori
erruri
erruzzioni
ersa
erse
ersi
ersu
eru
erunu
eruttivi
eruzzioni
erva
ervi
erwin
eryk
erzegovina
es
esa
esagunu
esami
esamina
esaminari
esatta
esattamenti
esattezza
esatti
esattizza
esattu
escape
esclamazzioni
esclusivamenti
esclusu
escursioni
ese
esecutivu
esecuzioni
esecuzzioni
eseguitu
esempi
esempio
esempiu
esemplari
esercita
esercitata
esercito
esercitu
eserciziu
esi
esibbi
esibbisci
esibbizzioni
esibizzioni
esicutivu
esicuzzioni
esiggenza
esiggenzi
esiliatu
esiliu
esima
esimu
esircitari
esirciziu
esircizzi
esircizziu
esistenti
esistenza
esisti
esistinu
esistiri
esistunu
esitari
eso
esordiu
espan
espansioni
espanyol
espanzioni
espe
esperantista
esperanto
esperantu
esperienza
esperti
espertu
espirienza
esplosioni
espluraturi
esplusioni
esponenti
esposito
esposizzioni
esposta
esposti
espostu
espressa
espressi
espressioni
espressiuni
espresso
espressu
espri
esprimi
esprimiri
esprissioni
espulsioni
espulsu
espunenti
espunuti
espusizzioni
essa
essara
essays
esse
essendu
essennu
essenza
essenzi
essenziarmenti
esser
essere
esseri
essi
essinziali
essinziarmenti
essiri
est
esta
estate
estati
este
estenzioni
esteri
esterna
esterni
esternu
esteru
estesa
estesu
esti
estinsioni
estinsiuni
estinta
estintu
estinzioni
estiriuri
estiru
estivi
estivo
estivu
esto
estonia
estrattu
estrazzioni
estrema
estremadura
estremamenti
estremi
estremita
estremitati
estremu
estrimitati
estru
et
eta
etati
etc
ete
eterna
eternu
ethnologue
eti
etiam
etica
etichetta
etienne
etimolo
etimologia
etimologico
etimoluggi
etimuluggi
etimulugi
etiopia
etiri
etna
etnea
etneu
etni
etnia
etnica
etno
etrusca
etruschi
etruscu
etta
ettari
ettore
ettu
etture
etturi
etymologia
eu
euclidi
eud
eufemia
eufemiu
eufrati
euge
eugene
eugenio
eugeniu
eukaryota
euler
euleru
eun
eunucu
euphorbia
euplu
eupresia
eurasia
eure
euri
euro
europa
europe
europea
european
europei
europeo
europeu
eurovision
euru
eurupea
eurupei
eurupeu
eurupii
eusebi
eusebio
euskadi
euskal
euskera
eusko
eustochia
ev
eva
evangelista
evangilizzaturi
evans
even
eventi
eventu
eventuali
eventuarmenti
ever
everest
everett
everly
every
everyone
everything
evi
evian
evidence
evidenti
evidenza
evidenzia
evil
evintuali
evis
evita
evitannu
evitari
evolution
evoluzzioni
evu
evuluta
evuluzzioni
ex
exa
excesses
exemplum
exercises
exercitium
exeter
exire
experience
explicare
explorer
express
extended
extinct
extra
extracumunitari
extrasulari
extreme
extremis
ey
eye
eyes
ez
ezra
f
fa
fab
fabbiu
fabbri
fabbrica
fabbricanti
fabbricari
fabbricata
fabbricati
fabbricatu
fabbricazzioni
fabbrichi
fabio
fables
fabri
fabrizio
fabrizziu
fabula
fac
facci
faccia
facciali
facciata
faccio
facciolu
face
facebook
facemu
facendu
facenna
facennu
facenti
facere
faceva
faci
facia
facianu
facie
faciennu
facies
facile
facili
facilita
facilitari
facilitati
facilmenti
facira
faciri
facirmenti
facissi
facisti
facit
faciti
faciunt
faciuta
faciuti
faciutu
faciva
facivanu
facolta
fact
factbook
facto
factor
factu
factum
faculta
facultati
facurta
facurtati
fad
fadalata
fadali
fadl
faenza
fafaluci
fag
fagnanu
fagu
fahd
fai
faidda
failed
faire
fairy
faith
fal
falanca
falanga
falanghi
falangi
falari
falcinedda
falco
falcon
falcone
falconi
falcuniri
falignami
falkland
fall
falla
fallanti
fallaru
fallen
falli
fallignami
fallimentu
falliri
fallisci
falliu
fallu
fallutu
falo
false
falsetto
falsi
falsu
falsus
falta
falu
fam
fama
fame
fames
fami
famigghi
famigghia
famigha
famigli
famiglia
famija
famile
familia
familiari
family
fammi
famosa
famosi
famosu
famusa
famusi
famusu
fan
fana
fanaticari
fanatismu
fandali
fandonia
fangu
fani
fanno
fannu
fano
fans
fanta
fantali
fantascienza
fantasi
fantasia
fantasma
fantastici
fantastiliardu
fantastiliuni
fantasy
fanti
fantozzi
fanu
fapi
far
fara
faraday
faragghiuni
farali
farauna
farauni
farc
farcu
farcuneri
farcuni
farda
fardella
fare
faretta
farfalla
farfaricchiu
fari
farici
farina
farini
farisi
farla
farlo
farlu
farm
farmace
farmaci
farmacia
farnese
faro
farra
farsa
farsi
farsu
faru
faruisi
fas
fasa
fasanu
fascedda
fasceddu
fasci
fascia
fasciddari
fasciddaru
fascinu
fascismu
fascista
fascisti
fasciu
fashioned
fasi
faso
fasola
fassa
fast
fasti
fastiddiu
fastidiari
fastidiu
fastidiusu
fastuca
fastuchera
fasu
fat
fata
fataciumi
fatali
father
fati
fatica
fatimita
fatimiti
fats
fatta
fatte
fatti
fatto
fattori
fattu
fattura
fatturi
fau
faucigghiuni
faudal
faudali
faudetta
fauna
fauri
fausi
fausto
faustu
fausu
faux
fava
favaiana
favajana
favara
favarotta
favi
favignana
favole
favu
favuli
favure
favurennu
favurevuli
favuri
favuriggiamentu
favuriri
favurisci
favurita
favuriti
favuritu
faye
fazara
fazellu
fazio
fazza
fazzioni
fazziu
fazziuni
fazzolu
fazzu
fazzulettu
faɾɪ
fc
fe
fear
feat
feature
features
featuring
febbraio
februarius
february
fece
feci
fedda
feddi
fede
fedele
fedeli
federacio
federal
federation
federazione
federer
federico
federicu
fedez
fedi
fedru
feel
fei
fel
feli
felice
felici
felicita
felipe
felix
fellini
felton
feltrinelli
femm
femme
femmes
femmina
femminile
femminili
femmu
fen
fence
fender
fene
fenice
fenici
fenomeni
fenomeno
fenomenu
fenu
fer
fera
ferdinand
ferdinando
ferdinandu
ferdinannu
ferenc
ferguson
feri
feriscia
ferita
feriu
ferla
ferma
fermat
fermi
fermu
ferna
fernand
fernando
ferra
ferrara
ferrari
ferrer
ferreri
ferrero
ferri
ferro
ferru
ferruccio
ferruvi
ferruvia
ferruviaria
ferruviariu
ferruvii
fert
fertili
ferula
fes
festa
feste
festi
festival
festivalbar
fet
fetu
feu
feudalesimu
feudali
feudi
feudu
fever
feya
feynman
ffa
ffari
ffi
ffia
ffici
fficu
ffii
ffriri
ffu
ffula
ffuli
ffulu
fg
fi
fia
fiabe
fiacca
fiaccu
fiamma
fiammingu
fianco
fiandri
fiat
fiata
fibbra
fibbri
fibonacci
fibra
fica
ficadinnia
ficanu
ficara
ficarazzi
ficarra
ficatu
ficcari
fice
ficeru
fichi
fici
ficia
ficimu
ficiro
ficiru
fico
fiction
ficu
ficudinnia
ficus
fida
fidari
fidau
fide
fidel
fideli
fidelis
fides
fidi
fidia
fidili
fidirali
fidirazzioni
fidiricu
fidizzia
fidu
fiducia
fie
field
fields
fiera
fieri
fierra
fierru
fiesole
fifa
fifth
fig
figaro
figc
figghi
figghia
figghiari
figghiau
figghiolu
figghiu
figgi
figgianu
figha
fighi
fighja
fighjula
fight
fighters
fighting
fighu
figli
figlia
figlie
figlio
figliu
fignu
figo
figura
figurativamenti
figuratu
figuri
fihr
fii
fijura
fijuri
fil
fila
filabussi
filadelfu
filagna
filamentu
filangeri
filanu
filara
filarata
filarera
filastro
filastrocca
filastrocchi
filatu
filazzi
file
fileccia
filera
files
fili
filia
filiccia
filici
filicitati
filicudi
filinia
filinu
filippi
filippina
filippini
filippinu
filippo
filippu
filittuni
filius
fill
fillazza
fillu
film
filmati
filmatu
films
filo
filolo
filologici
filoluggi
filosofia
filosofo
filosufi
filosufia
filosufu
filtru
filu
filulo
filuluggi
filusa
filusi
filuso
filusofia
filusofica
filusufi
filusufia
fim
fimi
fimmarsi
fimmina
fimmini
fimminili
fimminina
fimminini
fimmininu
fimminiscu
fimminismu
fimminista
fin
fina
finadora
final
finale
finali
finalista
finalitati
finalmenti
financial
finanza
finanzi
finanziamenti
finanziamentu
finanziari
finanziaria
finanziariu
finanziata
finanziatu
finarmenti
finche
finchi
find
fine
finennu
fineru
finestra
finestri
fini
finici
finicia
finiciu
finiri
finisci
finisciunu
finish
finistruni
finita
finiti
finitu
finiu
finizioni
finlandia
finlandisi
finlannia
finlannisa
finlannisi
finn
fino
finocchiu
finomina
finominu
finora
finta
fintu
finu
finucchiaru
finucchiazzu
finuta
finuti
finutu
fiore
fiorella
fiorellu
fiorentina
fiorentino
fiori
fir
fira
firanti
firanu
firarru
firaru
firau
firdinandu
firdinannu
fire
firefox
firenze
firenzi
firettu
firi
firiri
firita
firiti
firitu
firm
firma
firmari
firmaru
firmata
firmati
firmatu
firmau
firmi
firmintazzioni
firmo
firmu
firnici
firoci
firragghiu
firranti
firrara
firraru
firrata
firri
firriamunnu
firriari
firriata
firriolu
firrizzu
firruvi
firruvia
firruviari
firruviaria
firruviariu
firruvii
first
firtilita
firtilitati
firu
firuti
firutu
firvuri
fis
fisarmo
fisarmonica
fiscali
fischer
fish
fisher
fisica
fisicamenti
fisiche
fisichi
fisici
fisicu
fisioluggi
fissa
fissari
fissata
fissati
fissatu
fissi
fissioni
fissu
fissura
fistanti
fiste
fisteggia
fistiggiamenti
fistiggiari
fistiggiata
fistiggiatu
fistinu
fistivitati
fistivulita
fit
fitalia
fitinzi
fitta
fitti
fittu
fitusu
fitzgerald
fiu
fiudale
fiudali
fiume
fiumi
fiumicinu
fiura
fiuri
fiurini
fiurintinu
fiurinu
five
fivelandia
fivraru
fl
fla
flaccovio
flaccu
flag
flagrum
flamencu
flap
flash
flat
flatus
flaubert
flauto
flautu
flavia
flavio
flaviu
flavius
fle
fleccia
fleetwood
fleming
fleurs
flick
flissi
flissioni
flix
flnc
flo
flor
flora
florem
floresta
floriana
florida
florio
floriu
flotta
flotti
flower
floyd
flu
fluenza
fluidu
fluoru
flusciari
flusciu
flushing
flussu
fluviali
fly
flyer
flying
flynn
fm
fo
foca
focaccia
focara
fochi
foci
focu
focus
foddi
foemina
fog
fogassa
fogghi
fogghia
fogghiu
foggia
fogh
foglia
foglio
fogliu
fogna
folclori
folia
folk
folklore
folklori
fomma
fondata
fondato
fondatore
fondazione
fondo
fonds
fondu
fonografu
fonseca
fonsi
font
fontaine
fontana
fonte
fonti
fonu
fonziu
foo
food
fool
foolin
foot
football
for
fora
forall
forastera
forasteri
forasteru
forbes
forca
force
forces
ford
fore
foreign
foresta
forever
forficia
forgia
fori
forli
form
forma
formaggiu
formanu
formation
formatu
formazioni
formazzioni
formi
formisano
formula
formuli
forni
forno
forra
forru
forse
forsi
fort
forte
forti
fortimenti
fortuna
fortunato
foru
forum
forza
forzi
fose
fossa
fossati
fosse
fossi
fotinu
foto
fotografi
fotoni
fotu
fotugra
fotugrafatu
fotugrafi
fotusfera
foucault
foue
found
foundation
four
fourvie
fox
fr
fra
frac
fraca
fracassari
fracassini
fracca
fracchi
fracchizza
fraccocu
fraccu
fracquagghi
fraga
fragala
fragere
fraiari
fraienti
frajari
frajenti
frama
frammenti
frammentu
fran
frana
franc
franca
francavigghia
francavilla
france
frances
francesc
francesca
francesco
francescu
francese
francesi
franche
franchi
franchincenzu
franci
francia
francis
francisa
francisca
franciscani
franciscanu
francisco
franciscu
francisi
franco
francoforte
francombat
francu
francubbulla
francubbullu
francubulla
francuforti
francupruvinzali
frangere
frank
frankenstein
frankie
franklin
franz
franza
franzisi
frappari
frasa
frasca
frase
fraser
frasi
frastuca
frastuchera
frat
fratastru
frate
frateddu
fratelli
fratello
fratellu
frater
frati
fratta
frattali
frattari
frattariddusu
frattariusu
frattempu
frattura
fratturi
fratu
fraxinus
frazione
frazioni
frazzano
frazzata
frazzione
frazzioni
frazziuni
fre
frecci
freccia
fred
freddie
freddo
frederic
frederick
fredrik
free
freedom
freeman
freggi
freggiu
fregi
frena
french
frenu
frequenti
frequenza
frequenzi
fretta
fretu
freud
frevi
fri
friburgu
frica
fricari
friciu
frida
fridda
friddi
friddu
friedman
friedrich
friend
friends
friggi
friggiu
frigidus
frigori
friguri
frinza
friquenta
friquenti
friquenza
friquenzi
friquintari
friquintata
friquintatu
friquintau
friquintimenti
frisca
friscaletti
friscalettu
friscanzana
friscari
frischi
frischiari
frischizza
friscu
frisculiari
friscumi
frisuni
fritta
frittata
fritti
fritu
fritz
friulanu
friuli
frivaru
frivugghiu
frizzioni
fro
frocia
frodi
from
fromia
front
fronte
fronti
frontier
frontiera
frontman
frou
fru
frualoru
fruareddu
fruciari
frugareddu
frugaru
frumaggi
frumaggiu
frumentu
frummaggi
frummaggiu
frummentu
frun
frunna
fruntali
fruntera
frunteri
frunti
frusciu
frusciuni
fruseddu
frusinuni
frutta
frutti
fruttu
fruviata
fruvuliata
fs
fsb
ft
fu
fuazza
fuca
fucazza
fuci
fucili
fucu
fucularu
fucuni
fudda
fuddi
fudduni
fudi
fue
fuecu
fuga
fuganu
fugazza
fugghiami
fugghiettu
fui
fuianu
fuiri
fuit
fuiuta
fujanu
fuji
fujiri
fujuta
fujuti
fula
fulcluri
fulcru
fuli
fulinia
fulippu
full
fulu
fumari
fumaria
fumata
fumeri
fumetti
fumettu
fumi
fumiriari
fumma
fumo
fumu
fun
funa
funci
funcia
funciari
fund
fundamental
fundata
fundaturi
fundazzioni
fune
funemi
funerari
fungi
funi
funiculari
funirali
funk
funky
funna
funnali
funnamenta
funnamenti
funnamentu
funnamintali
funnamintalismu
funnannu
funnanu
funnari
funnaru
funnata
funnati
funnatrici
funnatu
funnatura
funnaturi
funnau
funnazioni
funnazzioni
funni
funno
funnu
funnurutu
funnuta
funnuti
funnutu
funster
funtana
funtani
funti
funu
funziona
funzionamentu
funzioni
funziuna
funziunali
funziunalitati
funziunamentu
funziunanti
funziunari
funziunariu
funziuni
fuo
fuoco
fuocu
fuora
fuori
fuorri
fuorru
fuoru
fur
fura
furaggiu
furami
furasteri
furat
furbu
furby
furca
furcedda
furchetta
furci
furdi
furesta
furesti
furettu
furficiari
furgaloru
furgareddu
furgaru
furi
furia
furiari
furisteri
furiu
furiusu
furma
furmaggi
furmaggiu
furmali
furmalmenti
furmannu
furmanu
furmari
furmarmenti
furmaru
furmata
furmati
furmatu
furmau
furmava
furmazzioni
furmentu
furmi
furmintuni
furmo
furmulazzioni
furnaci
furni
furniri
furnisci
furnita
furnitu
furnitura
furnituri
furnu
furnutu
furono
furra
furri
furria
furriari
furrizzu
furti
furtificata
furtificatu
furtificazzioni
furtilizza
furtimenti
furtinu
furtizza
furtizzi
furtu
furtuna
furtunatu
furu
furunu
furzari
furzatu
furzusu
fus
fusfati
fusfatu
fusi
fusioni
fuso
fussatu
fussi
fussiru
fusti
fustu
fusu
fut
futo
futti
futtibboll
futu
futugra
futugrafi
futuna
futuni
futura
future
futuri
futuro
futuru
fɪ
g
ga
gab
gabbella
gabbianu
gabbillotu
gabbinettu
gabbu
gabella
gabor
gabriel
gabriele
gabrieli
gabriella
gad
gaddari
gaddemi
gaddina
gaddinaru
gaddinedda
gaddini
gaddittu
gaddorfu
gaddu
gadduffu
gadduorfu
gaddurisi
gadduzzu
gadi
gadu
gae
gaelic
gaertn
gaeta
gaetana
gaetani
gaetano
gaetanu
gag
gagarin
gagghia
gaggia
gaggini
gagini
gagliardi
gagru
gaia
gaita
gaitanu
gaiu
gaius
gal
gala
galactic
galanti
galantomu
galassi
galassia
galatea
galati
galatina
galatticu
galaxy
gale
galera
galermu
galganu
gali
galicia
galilei
galileo
galileu
galizzia
galizziana
galizzianu
galla
gallagher
gallari
gallaudet
gallega
gallegu
galleria
gallery
galles
galli
gallia
gallimard
gallina
gallinago
galliri
galliria
gallisi
gallitta
gallo
gallorumanzu
gallu
gallura
gallurisi
gallus
galo
galois
galoppu
galuppari
galvinus
gam
gama
gamba
game
games
gamma
gammariari
gammazzita
gammi
gammiari
gammozzi
gammozzu
gan
gana
ganari
ganci
gandhi
gandusciu
gang
ganga
gangali
gangi
gangnam
gangularu
ganu
ganzari
ganzirri
gao
gar
gara
garage
garanti
garantiri
garantisci
garanzi
garanzia
garbu
garc
garci
garcia
gard
garda
garden
gardner
gardon
gardu
garganu
gargia
gargiola
gargiu
gari
garibaldi
garibardi
garibbaldi
garibbardi
garibbu
gariglianu
garland
garonna
garonne
garros
garruni
garrusu
garry
garu
gary
garzanti
gas
gaspa
gaspard
gaspare
gaspari
gasperi
gassa
gassi
gassina
gassira
gassman
gassusa
gassusi
gassusu
gasteiz
gastima
gastimari
gastone
gastra
gastrectumi
gastronumi
gastropodi
gastruno
gastrunumi
gat
gata
gate
gates
gati
gatta
gattareddi
gattareddu
gatti
gatto
gattopardo
gattorfu
gattu
gatu
gauguin
gaulle
gauss
gavitari
gaviuni
gaviusu
gavrilo
gay
gayo
gaz
gaza
gazza
gazzara
gazzella
gazzetta
gaɾɪ
gb
gdan
ge
gea
gebbia
gecko
gedda
gees
geisha
gela
gelatu
geldof
gelu
gemma
gemmu
gen
gene
genera
general
generale
generali
generalitat
generation
generazioni
genere
generi
generum
genesis
genghis
geni
geniri
geniu
genius
gennaio
gennaiu
gennaro
genoa
genocidiu
genova
genovese
gens
gente
genti
gentile
gentileschi
gentleman
genuculum
genus
genuva
geo
geoff
geoffrey
geofisica
geogra
geografia
geografichi
geolo
geological
geometria
georg
george
georges
georgia
ger
gera
gerace
geraci
gerais
gerard
gerardina
gerbi
gerbu
gere
gerfu
gerhard
germain
german
germania
germano
germanofunu
germany
germi
gernika
gerolamo
geronimi
gerry
gers
gershwin
gerunniu
gerusalemmi
ges
gesti
gestioni
gestu
gesu
gesualdo
gesualdu
gesuiti
get
getica
getty
geumitri
gev
gewa
gfp
gg
ggenti
ggh
gghi
gghia
gghiala
gghianu
gghiari
gghie
gghienti
gghima
gghinu
gghiornu
gghiri
gghiu
gghiunu
gghja
gghju
ggi
ggia
ggianu
ggica
ggichi
ggici
ggicu
ggida
ggidi
ggidu
ggili
ggimi
ggina
ggini
gginu
ggira
ggiri
ggiru
ggiu
ggiunu
gh
ghali
ghana
ghe
gheddafi
ghegu
gheorghe
gherciu
ghezzi
ghi
ghia
ghiacciai
ghiacciata
ghiacciu
ghian
ghianna
ghiara
ghiatru
ghiazzu
ghie
ghiera
ghil
ghio
ghiorna
ghiornu
ghira
ghiri
ghiru
ghittena
ghiu
ghiucatu
ghiurnu
ghiuttena
ghj
ghja
ghjacaru
ghjaddina
ghjamba
ghjattu
ghjesgia
ghjocu
ghjornu
ghju
ghjustu
ghost
ghz
gi
gia
giacaluni
giacarta
giacca
giacinto
giacomo
giacumetti
giacumu
giaddu
giafar
giai
giaiu
giaj
giajanti
giaju
gialla
gialli
giallu
giamaica
giamaicana
giamaicanu
giambattista
giameddi
giameddu
giamelli
giamillata
giammai
gian
giancarlo
giancarlu
gianfranco
gianfrancu
gianguerciu
gianluca
gianluigi
giannettu
gianni
giannini
giannuminicu
giant
gianti
giants
giappuni
giappunisa
giappunisi
giar
giaraffa
giardina
giardini
giardino
giardinu
giarna
giarni
giarnu
giarra
giarre
giarri
giarrizzo
giasuni
giau
giava
giavanisi
giavillottu
gib
gibbilterra
gibbuti
gibran
gibson
gicanti
gie
gier
giesu
giga
giganti
gigghi
gigghia
gigghiu
giggiulena
gigi
gijanti
gil
gilari
gilatu
gilbert
gilberto
gilebba
gileccu
gileppu
gilgamesh
gilisi
gilmour
giluni
gilusi
gilusu
gimelli
gimme
gimmillaru
gin
gina
gine
ginestra
ginetica
ginevra
ginger
gini
ginira
ginirali
giniralmenti
ginirari
ginirarmenti
giniratu
ginirazzioni
giniri
giniricamenti
ginirusa
ginirusita
ginirusu
ginitali
ginitori
ginitura
ginituri
ginna
ginnaru
ginnasiu
ginnastica
gino
ginocchiu
ginoma
gintili
ginu
ginucchiuni
ginuisi
ginuvisi
gio
gioacchino
giobair
giochi
gioco
giocu
gioeni
giofi
gioggi
giogra
giografi
giografia
giografica
giograficamenti
giografu
gioi
gioia
gioiosa
gioja
giolo
gioluggi
giome
giometri
giomitri
giomitria
gion
giopuli
giordania
giordano
giordanu
giorgi
giorgia
giorgiana
giorgianu
giorgio
giorgiu
giorna
giornale
giornali
giornalista
giorni
giorno
giornu
giosue
giottu
giova
giovan
giovane
giovani
giovanili
giovanna
giovanni
giovi
gir
gira
giraffa
girana
girani
girannu
girarchi
girardina
girardu
girare
girari
girata
girati
giratu
girau
girgenti
girgintanu
giri
giriari
giriavaneddi
girl
girlfriend
girls
girma
girmania
girmanica
giro
girolamo
girolamu
gironda
girsuminu
giru
giruna
giruni
girusalemmi
gis
giseppi
giseri
gisira
gissu
gisti
gistioni
gistiri
gistisci
gistra
gisturi
gistuta
gistutu
gisu
gisuardu
gisuita
gisuiti
git
giu
giua
giuacchinu
giuanni
giubba
giuca
giucari
giuccu
giucunnu
giudaichi
giudei
giudeu
giudicari
giudicatu
giudice
giudici
giuditta
giudizziu
giue
giufa
giuffrida
giugnettu
giugno
giugnu
giugra
giugrafi
giugraficamenti
giuielli
giuiellu
giuiusa
giujusa
giuleppu
giuli
giulia
giuliana
giuliano
giulianu
giulio
giuliu
giume
giumitri
giummara
giummu
giuni
giunta
giura
giuramentu
giurana
giurani
giuranna
giuranni
giuranniari
giurari
giurati
giurdania
giurdanu
giurgenti
giurgiulena
giuri
giuria
giuridica
giurisdizzioni
giurisprudenza
giurista
giurlannu
giurnali
giurnalista
giurnalisti
giurnu
giuseppe
giuseppi
giusta
giustamenti
giusti
giustificari
giustificazzioni
giustinianu
giustizia
giustizzia
giustu
giusy
giuva
giuvani
giuvanili
giuvanna
giuvanni
giuvidi
giuvina
giuvini
giuvintu
giuvintuti
give
given
gjara
gjat
gjaɾɪ
gjunɪ
gl
gla
glaciali
gladiatura
gladiaturi
glados
glam
glandem
glasgow
glass
gle
gleick
glen
glenn
gli
glia
gliari
glicuggenu
glio
gliri
gliu
glo
global
globbu
globulari
gloria
gloriam
gloriosus
glotto
glubbali
glubbalizzazzioni
glucosiu
glume
gluriusa
gluriusu
gm
gn
gna
gnanu
gnardinari
gnaru
gnaziu
gnazziu
gne
gnegnu
gnestra
gnestu
gneu
gni
gnilari
gnina
gniscari
gnistusu
gnizzioni
gno
gnu
gnugnu
gnuli
gnulu
gnuni
gnunu
gnuranti
gnuranza
gnustriali
gnustusu
go
goal
god
goda
godfrey
godi
gods
godwin
goes
goethe
goffredo
gogh
goin
going
gol
gola
golan
gold
goldbach
goldberg
golden
goldenrod
golf
golfo
golfu
gomma
gon
gone
gonfiare
gong
gonna
gonza
good
goodbye
goodman
google
googol
googolplex
gora
gorbachev
gorbaciov
gordon
gore
gorgia
gori
gorizzia
gos
gospel
gosławski
got
gothic
goti
gotta
gottfried
gottinga
gotto
gottu
gov
government
governo
governu
gozo
gp
gpl
gr
gra
grabowski
grace
grada
grade
gradi
gradinata
grado
gradu
graduni
graeca
grafi
grafica
graficu
grafu
graham
gram
grama
gramma
grammar
grammatica
grammaticali
grammi
grammicheli
grammirzi
grammizzi
grammu
grammuciu
grammusciu
grammy
gramsci
gran
grana
granada
granaru
granatu
grancifudduni
granciu
grand
grande
grandi
granducatu
granfiari
grani
graniari
granita
granne
granni
grannissima
grannizza
grannizzi
grannni
grano
grant
granturcu
granu
granuni
granuturcu
granza
granzudda
grapennu
graperu
grapi
grapiri
grappa
graputa
graputi
graputu
gras
grascia
grasciu
grasciura
grass
grassa
grasshoppers
grassi
grasso
grassotta
grassu
grassura
grasta
grasti
grat
grata
gratis
gratta
grattalora
grattari
gratu
gratuitu
gravi
gravimenti
gravina
gravita
gravitati
gravitazzionali
gravitazzioni
gravitazziunali
gray
graz
grazi
grazia
grazie
grazzi
grazzia
grazzianu
grazzie
grazziusu
grb
gre
great
greatest
greca
grechi
greci
grecia
greco
grecu
greece
greek
green
greene
greenm
greenwich
greg
gregna
gregori
gregorio
gregoriu
gregory
greja
grenada
grenadine
grenoble
greta
grey
gri
grica
griciu
grida
gridannu
gridari
griddu
grido
gridu
griffin
grigghia
griggiu
griggiuni
grigiu
grignari
grigori
grigorianu
grigoriu
grigurianu
griko
grillo
grillu
grima
grimaldi
griseb
grisgiu
grisham
grissi
gro
groenlandia
groenlannia
groenlannisi
grohl
groi
groove
groppa
gros
grossa
grossi
grosso
grossu
ground
group
gru
grugnu
grunge
gruppa
gruppi
gruppo
gruppu
grus
grussetu
grutta
grutti
gruye
gs
gu
gua
guadagna
guadagnari
guadagno
guadagnu
guadalajara
guadalupa
guadalupe
guadeloupe
guai
guaiana
guaiu
guajana
gualtieri
guam
guan
guanti
guantu
guapparusu
guar
guarani
guarda
guardari
guardi
guardia
guardian
guardianu
guariggioni
guarigioni
guarinu
guariri
guarituri
guastedda
guatemala
guay
guccini
guddefi
gudi
gue
guelfi
guer
guerciu
guernica
guerra
guerre
guerri
guerrieri
guerrigghia
guerrisi
guest
guevara
guez
gug
gugghermu
gugghiermu
guglielmo
guglielmu
gugliermu
gui
guida
guidari
guidata
guidati
guidatu
guidau
guide
guidi
guido
guidu
guillaume
guinea
guini
guinia
guinness
guirreri
guiscardu
guitar
guitu
gujana
gula
gulag
gulfu
guli
gulisanu
gulu
gumma
gun
gunnar
guns
gunu
gunzaga
gur
gura
guri
guria
gurilla
guru
gustaf
gustav
gustave
gustavo
gustu
gutenberg
gutta
gutti
gutturali
guvennu
guverni
guvernu
guviernu
guvinnari
guvirnari
guvirnaturi
guy
guyana
guyane
gy
gyi
gymnase
gymnasium
gyo
gypsum
għarb
għarbi
h
ha
habemus
haber
habere
habet
habitat
hac
hacker
had
hadron
hafiz
hagghiu
hahn
hai
haile
haiti
haiu
haj
haju
hal
hale
halen
hall
halley
halych
ham
hamas
hamdis
hamet
hamilton
hammer
hammersmith
hampshire
hamu
han
hana
hand
handicap
hands
hang
hann
hanna
hannah
hannibal
hanno
hannover
hannu
hanoi
hans
hansen
hanu
hapkido
happi
happiru
happy
hara
harald
hard
hardcore
hardware
hardy
harold
harris
harrison
harry
hart
hartree
harvard
harvey
has
hasan
hasekura
hassan
hastings
hat
hattu
hausa
haut
haute
hava
havanu
have
havel
havemu
havi
havia
having
haviri
havnu
hawaii
hawk
hawkins
hawqal
hayek
hazzm
hbar
hd
he
head
headlong
heads
hear
heart
hearts
heat
heathrow
heaven
heavy
hebben
hebdo
hebraicus
hebrew
hedera
heidelberg
heights
heinrich
heisenberg
helen
helena
hell
hellas
hello
helmut
help
helsinki
hemingway
henderson
hendrik
hendrix
henri
henrik
henry
henryk
her
herba
herbam
herbert
herbita
here
heredem
heri
herman
hermann
herna
hero
heroes
herria
herschel
hertz
herzegovina
heure
hey
hezbollah
hi
hia
hibakusha
hic
hicce
hideki
hie
higgs
high
highlander
highway
hilbert
hill
hillard
hillary
hills
him
himalaya
himera
himself
hindi
hindu
hip
hipparcos
hiroshima
his
hispaniola
histo
histoire
historia
historical
history
hit
hitler
hitman
hits
hiuri
hiv
hive
hja
hjelmsley
hjuri
hler
hm
ho
hoare
hobbes
hoc
hockey
hodie
hoffm
hoffman
hoffmann
hohenstaufen
hoi
hold
holding
hole
holiday
holland
hollande
holloway
holly
hollywood
holm
holmes
home
homel
homer
hominem
homines
homini
homo
hompesch
homs
homu
honduras
honey
hong
honolulu
honor
honoris
hood
hook
hoople
hop
hope
hopkins
hora
horace
horam
hordeum
horizons
horizonte
horma
horn
horologium
horror
horse
horza
hosni
hospital
hot
hotel
hotnewhiphop
hou
houe
hours
house
houston
how
howard
howe
hoy
hr
hrodna
htm
html
http
https
hu
hua
huang
hubble
hubert
hucknall
hudson
huene
hugh
hughes
hugo
hugues
hull
human
humbert
hume
humphrey
humpy
hunt
hunter
hurt
husayn
husky
hussein
huston
hutton
huxley
huygens
hyblaea
hyde
hypericum
hz
i
ia
iac
iacqua
iaddina
iaddu
iadduffu
iadduorfu
iam
iamma
ian
iana
ianca
iancu
ianu
iara
iardinu
iari
iastima
iata
iatta
iattu
iatu
iau
ib
ibba
ibbe
ibbi
ibblei
ibex
ibi
ibico
ibis
ibiza
ibm
ibn
ibrahim
ic
ica
icao
icarus
iccetira
icchena
ice
iceland
ich
ichi
ichiro
ici
icon
icona
iconi
iconumia
icu
icunomica
id
ida
idaho
idda
iddhi
iddhu
iddi
iddra
iddru
iddu
ide
idea
ideali
ideas
idee
idei
idem
identificari
identita
identitati
ideolo
ideoluggi
idi
idia
idiali
idinti
idintifica
idintificari
idintificata
idintificati
idintificatu
idintificazzioni
idintita
idintitati
idioluggi
idioma
idiomi
idiuluggi
ido
idol
idra
idrisi
idro
idrogginu
idu
iducazzioni
idulatra
idulatrari
idulatri
ie
iec
ieni
ier
iera
ieranu
ieri
ieruni
ierva
iesi
ietru
ieu
if
iffetti
iffettu
ifriqiya
ifriqya
iger
iglesias
ignazio
ignaziu
ignazziu
ignorantis
ignoti
ignoto
ignuranti
igor
igual
iguali
ii
iii
ija
ije
il
ila
ilari
ilariu
ilariuni
ile
ilettu
ili
iliadi
iliggiutu
ilimenti
ilittricitati
ilizzioni
iljin
ill
illa
illac
illarionovic
ille
illigali
illinois
illiricu
illu
illum
illuminata
illuminatu
illuminazione
illuminazioni
illuminismu
illusioni
illustrata
illustri
ilu
ilya
im
ima
image
images
imagine
imam
imdb
imera
imeresi
imircuni
imitari
imma
immacolata
immaggini
immagini
immanuel
immediatamenti
immigrati
immigrazzioni
immortali
immu
immurtali
impalcatura
impara
impastato
impattu
impeducli
impegnu
imperia
imperial
impero
imperu
impiantu
impiriali
implere
importante
importanti
importanza
imprenditore
impromptu
improvvisazioni
impulsu
impurtanti
impurtanza
imu
in
ina
inari
inauguratu
inaugurazzioni
inc
inca
incanto
incaricu
incendiu
inchi
inchiesta
incidenti
incidi
incirca
incisa
incisi
incisioni
incisu
includi
including
inclusa
inclusi
inclusu
incontri
incontro
incontru
incrudunu
incrusi
incudine
ind
indettaglio
index
indi
india
indian
indiana
indiani
indianu
indica
indicari
indicativu
indicatu
indici
indie
indios
indipendenza
indirectiare
individuali
individuu
indo
indoeuropea
indoeuropei
indonesia
indovinare
indre
indu
induismu
indunesia
industria
industrial
industriale
industriali
induzzioni
indye
inediti
inerziali
inesattezza
infantile
infanzia
infatti
inferiore
inferno
infernu
infini
infinita
infiniti
infinitu
influence
influenza
info
information
informazione
informazioni
informazzioni
infrared
infraregnu
infraurdini
infruenza
infty
infurmazzioni
inga
ingegneri
inghilterra
inghirterra
ingle
inglese
inglesi
inglisi
ingliz
ingnuranti
ingrassia
ingredienti
ingres
ingressu
ingrid
ingrisi
ini
inirgi
inirgia
initiations
iniuria
inizia
iniziali
inizialmente
inizialmenti
iniziau
inizio
iniziu
inizzi
inizziali
inizziari
inizziativa
inizziu
inn
innaru
inni
innia
inniana
inniani
innianu
innica
innicari
innicata
innicati
innicatu
innici
innipinnenza
innografu
innu
innuendo
innueuropea
innunesia
ino
inoltre
inoltri
input
insetti
insettu
inside
insieme
insiemi
institut
institute
instituto
instrumental
int
inta
inte
integrali
intel
intelligence
intenni
intensitati
inter
intera
interessante
interessi
interim
interlingua
interna
international
internationale
internazionale
internazionali
internet
interni
interno
internu
interu
interview
intervista
interviste
inthra
intiressi
intirnazziunali
intita
intitulata
into
intorno
intornu
intra
intro
introduction
introduzione
introduzioni
intru
intrumental
intus
inu
inuit
inula
inutili
invades
invasion
invasioni
invece
inveci
inverni
inverno
invernu
inversu
inversus
invinturi
invisible
inzemi
io
ioca
iochi
iocu
iommi
ion
ioni
ioniu
ionna
ionnu
iordanes
iorna
iornu
ios
iovi
iovis
ip
ipa
iparralde
ipe
iperbuloidi
ipi
ipircubbu
ipo
ipotesi
ipotisi
ipparcu
ippia
ippirico
ippo
ippocrati
ippolito
ipsa
ipse
ipsum
iquazzioni
iquilibbriu
iquivalenti
ir
ira
irachena
irachenu
irak
iran
iranianu
iraq
irasinni
irbicedda
ircu
ire
ireland
irene
iri
iris
irish
irlanda
irlandisi
irlanna
irlannisa
irlannisi
iro
iroi
iron
ironicamenti
irpina
irpinu
irradia
irrazziunali
irregulari
irrigulari
iru
iruni
irvicedda
irving
irvusu
is
isa
isaac
isabel
isabella
isaccu
isami
isan
isari
isata
isauricu
isbn
isca
ischia
iscia
iscrissi
iscritti
iscrittu
iscrivi
iscrizzioni
ise
isempia
isempiu
isercitu
isernia
isi
isicuzzioni
iside
isis
isistenza
isisti
isla
islam
islamabad
islamic
islamica
islamichi
islamici
islamicu
islamisti
island
islanda
islandia
islandisi
islands
islanna
islannia
islannisa
islannisi
isle
isma
iso
isola
isole
isomari
isonzo
ispica
ispira
ispirata
ispirati
ispiratu
ispirau
ispirazioni
ispirazzioni
ispirienza
ispiro
ispitturi
ispizzioni
isprissioni
israel
israeli
israeliana
israeliani
israelianu
issara
issn
issu
issue
issues
istanbul
istanti
istat
iste
isti
istitui
istituita
istituitu
istituti
istituto
istitutu
istituzioni
istituzzioni
istituzziunali
istoria
istria
istruzione
istruzioni
istruzzioni
isula
isulamentu
isulani
isulata
isulati
isulatu
isuledda
isuleddi
isuli
it
ita
itali
italia
italian
italiana
italiane
italiani
italiano
italianu
italica
italici
italie
italiensis
italo
italu
italy
itati
ite
ithil
iti
itinerari
itria
its
itself
itta
ittar
ittari
ittatu
ittena
itu
itunes
iu
iuc
iuca
iucari
iucaturi
iudex
iugnettu
iugnu
iula
iulia
iulius
iulu
iun
iunnu
iuovi
iur
iure
iuri
iuris
iurnata
iuropa
iuropea
ius
iusc
iusu
iuttena
iuvidi
iuviri
iv
iva
ivan
ivano
ivar
iventa
iventi
iventu
ivi
ivo
ivu
ix
iz
iɾɪ
j
ja
jabbu
jabhat
jabr
jaci
jacintu
jaciriali
jack
jackie
jackson
jacob
jacobbu
jacobsen
jacobus
jacopo
jacqua
jacques
jacunu
jacupu
jad
jaddina
jaddini
jaddorfu
jaddu
jadduffu
jadduorfu
jag
jagger
jailhouse
jaime
jaji
jake
jakob
jalencia
jalliri
jam
jambe
james
jamma
jammi
jammozzi
jammozzu
jamu
jan
janca
janchi
jancu
jancularu
jane
janeiro
janeiru
janga
janis
janniscuru
janu
januarius
january
japan
japanese
japonaise
jappunisi
japrutu
jaque
jar
jara
jarda
jardi
jardin
jardina
jardineddu
jardini
jardinu
jaro
jaroslav
jarrusu
jart
jaru
jason
jassa
jastima
jastimari
jastimiari
jat
jatta
jattareddu
jatti
jattu
jatu
jaume
jauta
jauti
jautri
jautu
java
javascript
javi
javier
jawhar
jawi
jay
jazeera
jazz
jazzista
jazzu
jaɖ
jaɾɪ
je
jealousy
jean
jectare
jedi
jeff
jefferson
jeffrey
jelu
jen
jena
jencu
jeni
jennaru
jennifer
jennu
jenny
jens
jensen
jer
jera
jeranu
jeremy
jerry
jersey
jertu
jeru
jerunu
jerva
jesi
jesse
jestra
jesu
jesus
jet
jethro
jetru
jetta
jettu
jeu
jeunesse
jeva
jewish
jfk
ji
jia
jiarda
jicarilla
jidde
jiditali
jihadista
jilari
jilatu
jill
jim
jimenta
jimi
jimmirutu
jimmu
jimmurutu
jimmy
jin
jinchi
jinchiri
jincutu
jinestra
jing
jini
jiniari
jinizza
jinnaru
jinocchiu
jippuni
jira
jiri
jirisinni
jiru
jirvicedda
jisa
jisari
jissara
jissi
jissotta
jissottu
jissu
jit
jita
jitaleddu
jitali
jitalinu
jiti
jitta
jittannu
jittari
jittaru
jittata
jittati
jittatu
jittau
jittena
jitu
jiu
jiva
jive
jivu
jnnaru
jo
joachim
joan
job
jobs
joca
jocanu
jocaturi
jochi
jocu
jocura
joe
joel
joey
johan
johann
johannes
johannesburg
john
johnny
johns
johnson
joia
join
joja
joliot
jolu
jon
jonas
jonathan
jones
jong
joni
jonica
jonicu
joniu
jonna
jonnu
joplin
jor
jorca
jord
jordan
jorge
jorna
jorni
jornu
jornum
jose
josef
josep
joseph
josh
joshua
jou
jouen
joule
jour
journal
jouyer
jovanotti
jovi
jovidi
joviri
joy
joyce
jpg
jr
jta
jttari
ju
jua
juan
juanni
juca
jucannu
jucari
jucata
jucati
jucatu
jucatura
jucaturi
jucau
jucava
juco
jucunnu
judaismu
judas
jude
judet
judicari
judici
judizziu
judo
judy
jugnettu
jugnu
jugoslavia
jugu
jugum
juguslavia
jul
jula
jules
julia
julian
julianu
julie
julio
julius
julu
july
jume
jumenta
jump
jun
juncari
junce
juncennu
junceru
junci
juncinu
junciri
junciu
junciuta
junciuti
junciutu
juncu
june
jung
jungle
juni
junior
junius
junnu
junta
junti
juntu
juo
juornu
juovi
juppuni
jura
juranti
jurassic
juri
jurisprudenza
jurnali
jurnalismu
jurnalista
jurnalisti
jurnaloru
jurnata
jurnataru
jurnateri
jurnati
jus
jussu
just
justa
justice
justificazzioni
justin
justina
justizzia
justu
jusu
juta
juttena
jutu
juvani
juvanili
juvanni
juvarra
juve
juveni
juventus
juvidi
juvini
juviri
juvu
juɾɪ
jɔnɪ
jɛ
jɛɾɪ
k
ka
kabul
kac
kafka
kahn
kai
kairouan
kajukenbo
kaka
kal
kala
kalaallisut
kalbi
kalbita
kaliningrad
kallipolis
kalsa
kam
kamarina
kamen
kami
kamikazi
kan
kane
kansas
kant
kanɪ
kaplan
kapu
kar
kara
karabakh
karate
kardec
karen
karl
karol
kart
kartli
kas
kasparov
kat
kata
kate
katene
katie
katowice
katu
katy
kay
kaye
kazakistan
kazan
kazimierz
kaɾ
kaɾɪ
kaɾɪsɪ
kaʃ
kb
kcal
ke
kea
keaton
keep
keith
kelb
kelly
kelvin
ken
kendall
kenia
kennedy
kenneth
kenny
kent
kenya
kepler
kepleru
kerayles
kerc
kern
kernel
kerry
kevin
keynes
kg
kgb
kgf
kh
khafa
khamai
khan
khayyam
khrushchev
khz
ki
kick
kid
kidal
kidman
kids
kiel
kierkegaard
kiev
kila
kill
killer
killers
kills
kilo
kilomitri
kim
kimi
kin
kind
king
kingdom
kings
kingston
kipling
kirghizistan
kiribati
kirk
kiss
kit
kita
kiton
kitts
kitty
kj
kjaɾɪ
kk
klaipeda
klaus
klee
klein
kls
km
kmq
knebworth
knight
knock
know
known
knudsen
ko
koch
kofi
koine
kolchak
kon
konarski
kong
konrad
kore
korea
korean
kos
kotsoyev
kotsur
kowalski
kr
krako
krebs
kreis
kremont
kristen
kropotkin
ku
kubrick
kud
kulick
kulthum
kun
kunnu
kunsertu
kunt
kunth
kuntsɪg
kunu
kunɪ
kur
kuratowski
kurdistan
kurt
kushan
kut
kutuzov
kuwait
kuɲ
kvemo
kw
ky
kylie
kyo
kyoto
kyotu
kɔ
kɔku
kɔt
kɛ
kɛt
l
la
lab
labberintu
labbirintu
labboratoriu
labbra
labbru
labburatori
labburatoriu
labburista
laberintu
labirintu
labor
laboratory
labour
labru
labrus
labyrinthos
lac
laccara
laccari
laccaru
laccarusu
laccarutu
lacciu
laccu
lace
lachi
lacrima
lacrimi
lacu
lacuna
laden
ladinu
lady
lag
lagenorhynchus
lager
laghi
lagna
lagnusi
lagnusu
lago
lagos
lagrange
lagu
laguna
lai
laica
laicu
laid
laidizza
lajos
lake
lakhal
lam
lama
lamantini
lamantinu
lamb
lambda
lambert
lambro
lame
lamentu
lamezia
lamezzia
lami
laminta
lammicu
lampa
lampada
lampari
lampedusa
lamperi
lampi
lampidusa
lampu
lamu
lan
lana
lancaster
lance
lancedda
lancel
lancia
lanciannu
lanciata
lanciatu
lanciu
land
landes
landi
landis
landru
landu
lane
lang
lange
language
languages
langue
languedoc
laniu
lanka
lanna
lannuni
lanu
lanza
lanzari
lanzatura
lanzu
lao
laos
laoti
laozi
lap
lapa
laparda
lapari
laparu
lapi
lapia
lapponia
lappu
lapuni
lar
lara
lardu
larenzu
larga
largamenti
largasi
large
larghi
larghizza
largo
largu
lari
larica
larichizza
lario
lariu
larma
larrunari
larruni
larry
lars
larunchiu
larus
las
lasagnaturi
lascia
lascu
laser
lassa
lassannu
lassanu
lassari
lassaru
lassata
lassati
lassatu
lassau
lassava
lasse
lasso
lassu
last
lastra
lastri
lat
lata
latata
late
later
laterza
lati
latifunnu
latin
latina
latini
latinizzatu
latinizzazzioni
latino
latinu
latirali
latitanti
latitu
latitudini
lato
latri
latrina
latru
latrunari
latruni
latta
latte
lattera
latteri
latti
lattuca
latu
lauda
laudari
laura
laurea
laurel
lauren
laurence
laurent
laurenzu
lauretani
lauri
lauria
lauriatu
lauriau
lauricella
lauriel
lauru
laurunchia
laurunchiu
laurus
lautari
lava
lavabbu
lavagna
laval
lavanca
lavanna
lavari
lavica
lavorare
lavoratori
lavori
lavornia
lavoro
lavoru
lavuraturi
lavurazzioni
lavureri
lavuri
lavuru
law
lawrence
lay
laz
lazio
lazzata
lazzi
lazziali
lazziu
lazzu
laɾɪ
lb
lcamu
lculu
ldica
le
lea
leader
leaders
leadership
league
leanza
leaving
leb
lebbru
lec
lecca
lecce
lecci
leccu
lech
lectus
led
lee
left
leg
lega
legal
legare
legas
lege
legem
legend
legenda
legge
leggenda
leggende
legghi
leggi
leggia
leggiri
leggiu
legis
legno
legs
lei
leiber
leibniz
leida
leiden
leigh
leipzig
lejzer
lelle
lello
lem
lemanu
lemmu
lemy
len
lena
lencu
lenga
lengua
lenin
lennon
lennox
lenta
lentamenti
lenti
lentini
lento
lentu
lenza
leo
leon
leonard
leonardi
leonardo
leonardu
leone
leoni
leonid
leonziu
leopold
leopoldo
lepantu
leppard
lepru
leq
ler
lercara
leroy
les
lesene
leslie
lesotho
lesothu
less
lesta
lester
lesti
lestu
let
leti
letta
lettera
letteratura
lettere
letti
lettiri
letto
lettonia
lettres
lettu
lettunia
leuca
lev
leva
levante
level
levi
levitu
lewis
lex
lexington
lez
lezziuni
lfu
lgaru
lgibbra
lhc
li
lia
liafanti
liam
liama
liami
lianu
liar
liari
liata
liati
liatu
lib
libbanisi
libbanu
libberia
libbi
libbia
libbici
libbira
libbiral
libbirali
libbiralismu
libbiralizzazzioni
libbiramenti
libbirari
libbirata
libbirati
libbiratu
libbirau
libbirazzioni
libbirazziuni
libbiri
libbirismu
libbirista
libbirta
libbirtati
libbirtinu
libbiru
libbra
libbrari
libbraru
libbre
libbrettu
libbri
libbriceddu
libbrinu
libbru
libe
liber
libera
liberi
libero
liberta
libertini
liberty
liberum
libirta
libirtati
libra
library
libreria
librettu
libri
libro
libru
librum
liburtini
lic
lica
licamenti
licata
liccari
liccasapuni
liccu
liceiu
license
licentia
licenza
licenzia
liceo
licet
liceu
lichi
lici
licia
liciniu
licori
licu
licuddi
licuddia
licurizia
licurizzia
lid
lida
lidi
lidia
lidu
lie
liechtenstein
lieggi
lier
life
lig
liga
ligabue
ligali
ligalitati
ligama
ligamentu
ligami
ligari
ligata
ligati
ligatu
ligge
liggenda
liggenna
liggenni
liggennu
liggenta
liggera
liggeri
liggeru
ligghi
liggi
ligginnaria
liggioni
liggiri
liggirizza
liggirmenti
liggislativa
liggislativi
liggislativu
liggislatura
liggislaturi
liggislazzioni
liggittimitati
liggiuni
liggiuta
liggiuti
liggiutu
light
lights
ligi
ligna
lignu
lignusa
lignusu
ligumi
liguori
ligure
liguri
liguria
lii
lija
lijama
lijami
lijari
lijata
lijati
lijatu
lijumi
lik
like
lila
lilibbeu
lille
lily
lim
lima
limarra
limarrusu
limba
limi
limita
limitari
limitata
limitati
limitatu
limitazzioni
limited
limiti
limits
limiuni
limo
limone
limonu
limousin
limuni
limusinu
lin
lina
linali
lincoln
lincua
lincui
linda
line
linea
linee
linei
linfa
lingu
lingua
linguadoca
linguaggi
linguaggio
linguaggiu
linguarossa
linguasiciliana
lingue
lingui
linguista
linguisti
linguistica
linguistichi
linguistici
linguistico
linguisticu
lingwa
lini
linia
liniari
linii
link
linnaeus
lino
lintini
lintizza
linu
linus
linusa
linux
linzola
linzolu
lio
lion
lionel
lioni
lions
liotru
lip
lipan
lipari
lipidi
lippi
lippu
lipsia
liptini
liqueen
liquid
liquida
liquidu
liquor
liquori
lira
liranu
lire
liri
lirica
lirichi
liricu
lis
lisa
lisabbetta
lisbona
lisci
liscia
lisciu
lisi
lisioni
lissa
lissandru
lissicali
list
lista
listi
listincu
listinu
lisu
lit
lita
litali
litami
litani
litari
lite
literature
liti
litica
liticu
litiu
litra
litri
litru
littera
litteratura
litteri
littira
littirali
littiralmenti
littirari
littiraria
littirariu
littirarmenti
littirati
littiratu
littiratura
littiraturi
littiri
little
littori
littra
littrariu
littrati
littri
littriggiu
littroni
littronica
littu
littura
litturali
litturi
litturini
litu
lituana
lituania
lituanu
liturali
liturgicu
liu
liuna
liunardu
liunforti
liuni
liunisi
liv
liva
livannu
livanti
livari
livaru
livata
livati
livatu
live
liveddi
liveddu
livelli
livello
livellu
liverpool
lives
living
liviu
livorno
livornu
lix
liz
liza
lizioni
lizzanu
lizzioni
ll
lla
llabba
llabbi
llach
llacu
llalleru
llanu
llari
llaru
llave
lle
ller
lli
llica
llichi
llici
llicu
llidu
llini
llira
lliti
lliu
lloyd
llu
llui
llula
lluli
llum
llustrari
llustri
ln
lo
lobbi
lobbu
loc
loca
local
locali
localita
location
loccu
lochi
locke
loco
locomutiva
locri
locu
locus
locutinenti
lodge
lodi
lodigiano
lodomeria
lofiu
log
logaritmi
logaritmu
loggi
loggia
loggica
loggicu
logos
logu
logudorisi
loi
loir
loira
loire
loiret
lol
lolli
lollu
lombardi
lombardo
lombardu
lombardus
lomellina
lon
lonca
lonchi
lonci
loncitu
loncu
londi
london
londra
lonely
long
longa
longanu
longhi
longo
longobardus
longobbardi
longobbardu
longrightarrow
longu
longus
look
lop
lopez
loppiu
lor
lord
lorda
lordi
lordu
loredana
loren
lorentz
lorenz
lorenzo
lorenzu
loretta
loro
lorraine
loru
los
losanna
lose
loser
lost
lot
lotariu
lothar
loto
lotta
lotti
lotus
lou
louer
louis
louise
louvre
love
loved
lover
loves
lovin
loving
low
loy
loyola
loze
lp
lsa
lsd
lt
ltd
ltica
ltichi
lticu
ltimu
ltipli
ltiplu
lu
lubblinu
lubbu
lubiana
luc
luca
lucali
lucalita
lucalitati
lucalizzatu
lucani
lucania
lucanna
lucanu
lucarmenti
lucas
lucca
lucchesi
lucchettu
lucci
luce
lucenti
lucera
lucerna
lucerta
lucerti
luchinu
luci
lucia
luciano
lucianu
lucien
lucille
lucio
lucirtula
luciu
lucius
luck
lucky
lucrezia
lucrezziu
lucru
lucu
lucutura
lucuzzioni
lucy
luda
ludari
ludatu
ludovico
luduvicu
ludwig
ludwik
lue
lueri
lufthansa
lug
luga
lugghiu
luggi
luggu
lughi
lugi
luglio
lugliu
lugo
lugoj
lugu
lui
luiggi
luigi
luis
luke
lula
lum
lumaca
lumbardu
lumen
lumera
lumi
lumia
lumie
luminosa
luminusa
luminusi
luminusitati
luminusu
lumiuni
lummarda
lummardi
lummardia
lummardu
lun
luna
lunae
lunari
lunaria
lunca
lunchizza
lunchizzi
lund
lunga
lungarutu
lunghi
lunghizza
lungo
lungomare
lungu
luni
luniddi
lunidi
luntana
luntani
luntanu
lunu
lunɪ
luo
luocu
luoghi
luogo
luogu
luoncu
luongu
luordu
lupa
lupara
lupi
lupinu
lupo
luppina
lupu
lupucuviu
lupus
luqa
lur
lurdi
lurdu
lurdura
lurdus
lurena
lurenzu
lurex
luridus
luru
lus
lusazzianu
luscinia
lusinghi
luske
lussemburgu
lussimburghisi
lussimburgu
lussu
lustru
lut
lutariu
luteru
luther
lutra
lutta
luttari
lutti
luttu
lutu
luva
luvari
lux
luxemburg
lv
lvaro
lwo
lx
ly
lye
lyer
lynn
lyo
lyon
lyonnais
lɔ
lɛ
lɛna
lɪ
lɪt
m
ma
maalouf
maara
maari
maaru
mac
maca
macari
macariu
macau
maccari
maccarruna
maccarruni
maccaturi
macchi
macchia
macchina
macciu
maccu
macdonald
mace
macedonia
maceduni
machiavelli
machina
machine
machines
machini
machu
maci
macidonia
macina
macintosh
macirata
mack
macrum
macu
macula
mad
madagascar
madame
maddalena
maddoccu
madduni
made
madera
madi
madison
madonie
madonna
madonnina
madre
madrid
maduna
maduni
mae
maestro
maestru
mafaredda
maffei
mafia
mafiusa
mafiusi
mafiusu
mag
maga
magara
magari
magarotto
magaru
magasenu
magazine
magellanu
magghetta
magghia
magghietta
magghiuni
maggi
maggicu
maggio
maggior
maggioranza
maggiore
maggiori
maggistrati
maggistratu
maggistratura
maggiu
maggiur
maggiuranza
maggiuri
maggiuritati
maghreb
magi
magia
magic
magillanu
magis
magister
maglia
maglianu
magma
magna
magne
magnesiu
magneti
magnetica
magnetici
magneticu
magni
magnificu
magnitu
magnitudini
magno
magnu
magnum
magnus
magnusu
magonza
magra
magreb
magritte
magru
magu
maguey
maguire
maguni
mahal
mahatma
mahdi
mahdia
mahile
mai
maia
maiali
maida
maidda
maiden
mail
main
maine
maio
maior
maiorca
mais
maisa
maisari
maista
maistra
maistrali
maistranza
maistri
maistru
maistusa
maistusu
maiu
maiuni
maiuranza
maiuri
maiurmenti
maj
majali
maje
majo
major
majorana
majorca
maju
majur
majurana
majuranza
majuri
majurmenti
majus
make
making
mal
mala
malacarni
malacriatu
maladdi
maladi
maladii
maladucatu
malamenti
malan
malancuni
malandrinu
malantrinu
malaria
malaspina
malata
malati
malatia
malatizzu
malatti
malattia
malattii
malatu
malavita
malavoglia
malawi
malcolm
malcriatu
maldiri
maldittu
male
malerva
malesia
malfa
malfurmazzioni
mali
malidiri
malidittu
malidizzioni
malignu
malikita
malinco
malincuni
malizzia
mallet
malma
malo
malouf
malta
malti
maltisa
maltisi
maltu
malu
malucavatu
malucriatu
malupirtusu
malus
malutempu
maluttempu
malva
malvaggiu
malvaghju
mam
mama
mamangkakis
mamilianu
mamma
mammana
mammi
mammifiru
mammula
mammulisi
man
mana
management
manager
manama
manata
manca
mancala
mancanti
mancanu
mancanza
mancari
mancatu
manchester
manchi
manci
mancia
manciacina
manciaciumi
manciannu
mancianu
manciari
manciata
manciati
manciatu
manciatura
manciava
mancini
mancinu
manciu
manciugghia
manciunari
manciuni
mancu
mancus
mancusu
mand
manda
mandarinu
mandatu
mandela
mandra
mandriotu
mandruni
manduria
mane
manera
maneri
manet
manfred
manfredi
manghja
mangia
mangiara
mangiare
mangiari
mangna
mango
mangu
manhattan
mani
mania
maniaci
maniari
maniata
manica
manicu
manicuri
maniera
manifesta
manifestazioni
manifestazzioni
manifesti
manifesto
manifestu
manifistanti
manifistaru
manifistazzioni
maniggiu
manila
manipulazzioni
maniscu
manlio
manliu
mann
manna
mannamentu
mannanti
mannari
mannaru
mannata
mannati
mannatu
mannau
mannisi
manno
mannoia
mannu
mannulinu
mano
manoel
manovri
mansu
mansuetudini
mansur
mant
manta
mantaciari
mantaciata
mantaciatu
mantali
mantasciari
mantasciata
mantasciatu
mante
manteddu
mantegna
mantello
mantellu
manteni
manti
mantia
mantinennu
mantini
mantinimentu
mantinni
mantinuta
mantinutu
mantova
mantu
mantuanu
mantuva
mantuvanu
manu
manuale
manuali
manubbriu
manuel
manuela
manueli
manufatti
manus
manuscritti
manuscrittu
manutinzioni
manx
many
manzarda
manzi
manzoni
manzu
mao
maomettu
maori
map
mappa
mappi
maps
mar
mara
maracaibo
maradona
marafioti
maragghiuni
maraguni
maraini
maranci
maranu
marasciallu
maratona
maravigghia
maravigghiusu
marc
marca
marcannu
marcata
marcatu
marcau
marceau
marcedda
marcel
marcella
marcello
marcellu
march
marchese
marchi
marchisi
marchiu
marcia
marcianu
marciapedi
marciari
marciau
marcillinu
marciu
marco
marconi
marcos
marcu
marcus
mardiri
mardittu
mare
marea
margaret
margarita
margherita
marghirita
margi
marginali
margiu
margot
marguerite
marguni
mari
maria
mariana
marianne
mariannina
mariano
marianu
marie
mariggiata
marijuana
marilyn
marimotu
marin
marina
marinai
marinara
marinari
marinaru
marinella
marineu
marini
marino
marinu
mario
mariolu
marion
maris
marita
maritari
maritarisi
maritaru
maritata
maritati
maritatu
maritau
mariti
maritime
marito
marittima
marittimi
marittimu
maritu
mariu
marius
marjorie
mark
marker
market
marketing
marlee
marley
marlon
marma
marmara
marmillata
marmu
marmuru
marna
marne
maroccu
maroni
maronna
marpiuni
marra
marranchinu
marranzanu
marrastra
marre
marredda
marro
marruggiu
marruni
mars
marsa
marsala
marsh
marshall
marsigghia
marsupiali
mart
marta
martanu
marteddu
martello
martha
marti
martidi
martignanu
martin
martina
martinez
martini
martinica
martinique
martinis
martino
martinu
martinus
martire
martiri
martiriu
martirizzata
martirizzatu
martirulogiu
martius
martogghiu
martoglio
martogliu
marturana
marturanu
marty
maru
marucchinu
marva
marvaggiu
marvin
marvizzu
marx
marxismu
marxist
marxista
marxisti
mary
maryland
marzamareddu
marzanu
marzapani
marziali
marzo
marzu
mas
masaniellu
masc
mascagni
mascali
mascalucia
mascara
maschili
mascidda
mascidderi
mascu
masculi
masculina
masculine
masculini
masculinu
masculu
masi
masinno
mason
mass
massa
massachusetts
massacrati
massacri
massacru
massari
massaru
massi
massicciu
massima
massimi
massimianu
massimiliano
massiminu
massimo
massimu
massiria
massive
massu
master
masticari
mastra
mastri
mastroianni
mastru
masturbazzioni
masu
mat
mata
mataffu
matamoros
matarazzu
matassa
matassaru
match
mate
matematica
matematicu
mater
matera
materi
materia
material
materiali
materii
mathbb
mathbf
mathematica
mathematics
mathrm
mati
matilde
matima
matimatica
matimaticamenti
matimatichi
matimatici
matimaticu
matina
matinata
matinati
matinu
matiriali
matisi
matita
matlin
mato
matri
matrici
matrimoni
matrimonio
matrimoniu
matrimuniali
matt
matta
mattanza
mattarella
matteo
matter
matteu
mattf
matthew
mattia
matticana
mattina
mattoli
mattu
matura
maturazzioni
maturi
maturita
maturitati
maturu
mau
maucere
maumettu
maureddu
maurice
mauritania
mauritius
maurizio
mauro
maurolicu
mauru
mavari
max
maxim
maximum
maximus
maxwell
may
maya
mayenne
mayer
maynard
mayo
mayor
mayotte
maz
mazara
mazinger
mazza
mazzacani
mazzamareddu
mazzamarieddu
mazzamaureddu
mazzamaurieddu
mazzara
mazzareddu
mazzarinu
mazzaruta
mazzata
mazzini
mazzola
mazzu
mazzumaurieddu
mazzuni
maɾɪ
mb
mba
mbalu
mbar
mbarazzu
mbarus
mbasciata
mbe
mbeci
mber
mbersa
mbi
mbitu
mbox
mbra
mbri
mbria
mbriaca
mbriachi
mbriacu
mbrici
mbriulata
mbro
mbrogghiu
mbru
mbrua
mbrugghiari
mbrugghiuni
mbu
mbua
mbula
mbuli
mbulu
mbumba
mc
mccain
mccartney
mcdonald
mckenzie
mckenzies
mclaren
md
mdina
me
mea
meadows
meaning
means
meat
mec
mecca
meccanica
mecciu
mece
mechanics
med
meddows
mede
medea
medesme
medi
media
mediamenti
medianti
medianu
mediaset
mediation
mediawiki
medica
medical
medici
medicina
medico
medicu
medicus
medie
medievale
medievali
medina
medio
mediterranea
mediterraneo
mediterraneu
meditirra
meditirraniu
mediu
mediuevali
mediuevu
medium
medius
medley
medma
medusa
medvedev
meet
mega
megaliti
megara
megghi
megghia
megghiu
megghju
megistone
meglio
megliu
mei
mel
mela
melancholy
melanocorypha
melbourne
melfi
meli
melilli
melior
melissa
melius
mellieħa
melo
melody
melon
melongena
meloni
melpignanu
melvin
mem
member
members
membra
membri
membru
memel
memoria
memorial
memorie
memories
memory
memphis
men
mendelssohn
mendes
menfi
mengier
menhir
meni
mennuli
meno
mensile
ment
menta
mente
mentem
mentevoir
menti
mentre
mentri
mentu
menu
menz
menza
menzannotti
menzanotti
menzi
menzijornu
menziornu
menzu
menzujornu
mer
mera
merca
mercato
mercatu
mercedes
mercer
merci
merckx
mercuridi
mercurii
mercuriu
mercury
mercy
merda
merica
mericanu
merida
meridionale
meridionali
meridiunali
merisi
merita
meriti
meritu
merkel
merli
merlin
merlino
merlinu
meroi
merola
merru
mersenne
meru
merula
meruveu
mes
mescalero
mese
mesi
mesogea
mesopotamia
messa
messaggiu
messapi
messi
messicu
messier
messina
mesures
met
meta
metafi
metafune
metafuni
metal
metallica
metallo
metallu
metapontu
metastasio
metati
meteorolo
method
meti
metodiu
metodu
metra
metri
metrica
metricu
metro
metropolis
metropolitan
metropolitana
metropulitana
metru
metrupulitana
metta
mettere
metti
mettiri
mettre
mettunu
metudi
metudu
metz
meu
meucci
meurthe
meus
meusa
mev
mexico
mey
meyer
mez
mezzanotte
mezzanotti
mezzi
mezzo
mezzogiorno
mezzu
mezzujornu
mg
mhz
mi
mia
miami
mic
mica
micari
micca
miccanica
miccanici
miccanicu
miccanismi
miccanismu
micciche
miccinu
micciusu
michael
michail
michel
michela
michelangelo
michelatti
michele
micheli
michelle
michi
michigan
michila
mici
micia
miciddu
miciu
mick
mickey
mickiewicz
mico
micrometru
micronjizzioni
microsecunni
microsecunnu
microsoft
micu
mid
mida
midagghi
midagghia
middeu
middle
mide
midemma
midemmi
midi
midia
midiali
midiana
midianti
midianu
midicina
midicinali
midievali
miditazzioni
miditirra
miditirrania
miditirraniu
midiuevu
midnight
midu
midudda
miduddari
mie
miegghiu
miei
mien
miennulu
mienzu
mieru
mig
migghi
migghia
migghiaia
migghiara
migghiaru
migghiu
migghiura
migghiuramentu
migghiurari
migghiuraru
migghiuratu
migghiuri
might
migliaia
migliore
migliori
migliurari
mignanu
migranti
migrati
migraturi
migrazzioni
migrazziuni
miguel
miha
mihai
mihi
mii
mijor
mike
mikel
mikhail
miklo
mil
mila
milan
milanese
milanesi
milanisi
milano
milanu
milazzo
milazzu
mile
milena
milennio
miles
miletu
mili
miliardi
miliardu
milici
milicia
miliddi
milinciana
milinzana
milioni
milita
militanti
militare
militari
militarmenti
military
militeddu
militu
miliuna
miliunesimu
miliuni
milizzi
milk
mill
milla
mille
millenni
millenniu
miller
millesimu
milli
millimitri
million
millionaire
millioni
millisecunni
millisecunnu
mills
milo
milocca
miloni
milton
milu
miludi
miluna
milunaru
miluni
mimbrana
mime
mimmo
mimmu
mimo
mimori
mimoria
mimu
min
mina
minaretu
minas
minatura
minaturi
minazza
minazzata
minchia
minchiata
minchiati
minchiunari
minchiuni
mincia
mincio
mind
mine
minera
minerali
mineri
minerva
minestra
mineu
minh
mini
miniatura
minima
minimi
miniminagghia
minimu
minirali
minirariu
ministe
minister
ministeru
ministri
ministro
ministru
ministruni
miniu
minix
minna
minnali
minnelli
minnesota
minni
minniti
minnitta
minnuni
mino
minoa
minogue
minor
minorca
minore
minori
minsk
mint
minta
mintali
minti
mintiri
mintuari
mintuvari
mintuvata
mintuvatu
minu
minuranza
minuranzi
minurenni
minuri
minuritari
minusa
minuta
minuti
minutu
minuzziusu
minzagnu
minzalora
minzanu
minzioni
minzogna
minzogni
minzugnaru
mio
miquel
miquelon
mir
mira
mirabella
miracle
miraculi
miraculu
miraculusu
miranda
miravigghia
miravigghiusu
mirbeau
mircanti
mircantili
mircati
mircatu
mircinari
mircuriu
mire
miremma
miri
miriam
mirica
miricana
miricani
miricanu
miridianu
miridiunali
miridiuni
miritari
mirluzzu
miro
mirrinu
mirror
mirtu
miru
miruvinci
mis
misa
misata
miscari
miscela
mischinu
misciagni
misciddu
misciu
mise
miseria
misericordia
misi
misilmeri
misirinu
misiru
misizzu
miskito
miss
missa
missaggeru
missaggi
missaggiu
misseri
missi
missicana
missicanu
missili
missina
missing
missinisa
missinisi
mission
missioni
mississippi
missiunariu
missiuni
missouri
mista
mister
misteri
mistero
misteru
misti
misticismu
mistiriusa
mistiriusu
mistral
mistretta
mistu
misu
misura
misurannu
misuranu
misurari
misurata
misurati
misuratu
misurazzioni
misuri
mit
mita
mitabbulismu
mitafi
mitalli
mitallu
mitanu
mitateri
mitati
mitchell
miti
miticu
mitiuriti
mito
mitodi
mitoluggi
mitra
mitraggiu
mitri
mitropa
mitru
mitrupulitana
mitte
mittemu
mittennu
mitterrand
mitti
mittiri
mittiti
mitu
mitulo
mituluggi
mituluggia
mituni
miu
mix
miz
mizuki
mizzalora
mizzanu
mk
mks
ml
mm
mma
mmacu
mmaculata
mmaggina
mmagginari
mmagginaria
mmagginariu
mmagginazzioni
mmaggini
mmalu
mmanu
mmara
mmarazzu
mmarcazzioni
mmarcucari
mmari
mmarrari
mmaru
mmasciata
mmasciaturi
mmasioni
mmat
mme
mmeci
mmenzu
mmerdavusa
mmeri
mmerni
mmernu
mmersa
mmersu
mmeru
mmhg
mmi
mmiancari
mmiari
mmicchiari
mmicu
mmidiata
mmidiatamenti
mmidiatu
mmidu
mmienzu
mmiernu
mmigranti
mmigrati
mmigrazzioni
mmillitteri
mmina
mmini
mministrativa
mmintari
mmintata
mmintati
mmintatu
mmintau
mminteri
mmintura
mminturi
mminu
mminzioni
mmira
mmiri
mmirnali
mmirnata
mmiro
mmirsioni
mmiru
mmirusi
mmiscari
mmiscatu
mmisi
mmistuti
mmisu
mmita
mmitatu
mmiti
mmitu
mmizzari
mmizzigghi
mmo
mmoffa
mmogghiu
mmu
mmuc
mmucca
mmuccatura
mmuccia
mmucciari
mmuccuni
mmuda
mmudu
mmula
mmuli
mmulu
mmur
mmura
mmuru
mmusceddi
mmusciddari
mmustrari
mmuttari
mmutu
mn
mnajdra
mo
moai
mob
mobile
mocador
moda
modda
moddi
moddu
mode
model
modelli
modello
modellu
modena
modern
moderna
moderni
modernu
modesto
modi
modica
modigliani
modo
modu
modugno
modugnu
modulu
modus
mogghiari
moglie
mogol
mohamed
mohammed
moi
moju
mol
mola
moldava
moldavia
moldavu
moldova
mole
moli
molie
molina
molini
molisi
molla
molly
molotov
molte
molti
molto
moltu
molu
momentu
momo
mon
mona
monaca
monachi
monaci
monaco
monacu
monasteraci
monasteriu
monastero
monasteru
moncada
mondadori
monde
mondiale
mondiali
mondo
mondovi
monet
monete
money
monferrato
mongoli
mongolia
moni
monica
monicelli
monitor
mono
monografia
monopoliu
monopostu
monroe
mons
monsieur
mont
monta
montagna
montagne
montalbano
montalbanu
montalcini
montalto
montana
monte
montenegru
montero
montgomery
monti
montipauni
montpellier
montre
montreal
montreux
montserrat
monumenta
monumenti
monumentu
monumintali
monza
monzignuri
moo
moody
moon
moore
mooseca
mor
mora
moraes
moral
morali
moran
morandi
morat
moravia
morbu
more
morello
mores
moresnet
morgan
morgantina
morgeti
morgeto
morgetu
mori
morire
moriri
moriu
morning
moro
moroder
moroni
morra
morriconi
morris
morrison
mors
morse
morsi
morsu
mort
morta
morte
morti
mortillaro
morto
mortu
moru
morvu
morzeddhu
mos
mosa
mosca
moscato
moscerino
moschatellina
moschea
moscow
mose
mosella
moselle
moser
moses
mossa
mossi
mossul
most
mostra
mostri
mostru
mota
mother
moti
motion
motivi
motivu
moto
motociclismu
motor
mott
motta
motti
mottu
motu
motucicletta
mouche
mountain
mountains
mouse
move
movement
movi
movie
movies
movimento
movimentu
moving
moviri
moz
mozambicu
mozart
mozilla
mozzarella
mozzia
mp
mpa
mpacciu
mpampillonia
mpana
mpanata
mpanniddatu
mpanu
mpapocchia
mpara
mparari
mparatu
mparau
mpari
mpastu
mpattu
mpatucchiari
mpavigghiunari
mpe
mpegni
mpegnu
mpegu
mpeiu
mpeju
mperaturi
mperi
mperiu
mperu
mph
mpi
mpia
mpianti
mpiantu
mpica
mpici
mpicu
mpidi
mpidicuddu
mpidimentu
mpidiri
mpidisci
mpidugghiu
mpie
mpiegata
mpiegati
mpiegatu
mpiegu
mpigati
mpigatu
mpigna
mpignata
mpignati
mpignatu
mpignau
mpijurari
mpina
mpira
mpirativu
mpiratrici
mpiratura
mpiraturi
mpirfettu
mpiri
mpiriali
mpirialismu
mpirmia
mpiru
mpisu
mpiti
mpitu
mpiu
mpizzari
mpizzu
mplici
mportante
mportanti
mposta
mprastu
mpre
mpressari
mpressu
mpri
mprici
mprindituri
mprinnituri
mprisa
mprisi
mprissioni
mprissiunanti
mprissiunismu
mprisusu
mpronta
mprua
mprucchia
mprucchiari
mpruvisu
mpruvvisa
mpruvvisamenti
mpu
mpua
mpudda
mpugnatura
mpulsu
mpunenti
mpuni
mpur
mpura
mpurtanti
mpurtanza
mpurtatu
mpurtazzioni
mpusizzioni
mpussi
mpussibbili
mpussibbilitati
mpustazzioni
mputtanti
mq
mr
mrs
ms
msi
msv
mt
mtv
mu
mua
mubarak
mubbilitati
muc
muca
muccaturi
muccu
muccuni
much
muci
muciddu
muciu
muculufa
mucusa
mud
muda
mudalitati
muddeu
muddi
muddica
mude
mudella
mudelli
mudellu
muderna
muderni
mudernu
mudesta
mudesti
mudestu
mudi
mudifica
mudificari
mudificata
mudificati
mudificatu
mudificazzioni
mudifichi
mudinisi
mudirati
mudiratu
mudu
mudurrari
mudurru
mudurrusu
muell
muf
muffa
mug
mugghe
muggheri
mugghieri
muglieri
mugnuni
muhammad
muhammed
muixeranga
muizz
mujahidin
mula
mulaccia
mulcahy
muldavu
mule
muleculari
muleculi
muli
mulici
muliculari
mulinciana
mulinciani
mulini
mulino
mulinu
mulinzana
mulisi
mulliken
mulluschi
mulluscu
multi
multinazziunali
multipli
multiplicazzioni
multiplicity
multu
mulu
mulunaru
muluni
mumenti
mumentu
mumma
mun
muna
munachedda
munarca
munarchi
munarchia
munarchica
munarchici
munarchicu
munasteri
munasteriu
munasteru
munci
muncibbeddu
muncilebbri
munciuniari
muncu
muncuni
mundhir
mundi
mundiali
mundo
mundu
mundus
muneta
munfuciu
mungibbeddu
mungibeddu
mungu
munguni
muni
municipale
municipali
municipalitati
municipio
municipiu
munita
munitaria
munitariu
muniti
munitola
munitu
munizzioni
munnari
munneddu
munni
munniali
munnizza
munno
munnu
munriali
munsignuri
munta
muntaggiu
muntagna
muntagnedda
muntagni
muntagnusa
muntagnusi
muntagnusu
muntana
muntanu
muntarbanu
muntari
muntata
muntati
muntatu
munti
munticassinu
muntichiaru
munticristu
muntidoru
muntiliuni
muntiriali
muntirussu
muntivide
muntruni
muntuari
muntuata
muntubeddu
muntuni
muntuosa
muntuvari
muntuvata
muntuvatu
muntuvi
munu
munumenta
munumenti
munumentu
munumintali
munusaccaridi
munzeddu
munzidduni
munzieddu
munzignuri
muo
muorica
muorti
muortu
muovere
mur
mura
muragghia
murali
murandi
muraria
murata
muratori
muratura
muraturi
murcia
murder
murennu
mureru
murfuluggi
murgeti
murgi
muri
murialdu
murina
murini
murinu
muriri
muriu
muro
murphy
murray
murriali
murriti
mursia
murtacini
murtacinu
murtali
murtalita
murtaru
murti
murtidda
murtipricazzioni
muru
murutu
mus
musa
musca
musceddi
muschea
muschei
muschi
muschitta
musci
muscia
musciama
musciamau
musciara
musciddu
musciu
musciuma
muscu
musculari
musculu
muscuni
muse
musei
musella
museo
museofiorentina
museu
museum
musi
music
musica
musical
musicale
musicali
musicanti
musicata
musiche
musici
musicista
musicisti
musicland
musioni
musker
mussolini
mussu
mussulini
mussulmani
mussumeli
mussurmana
mussurmani
mussurmanu
must
musta
mustafa
mustapha
mustazzi
mustazzu
mustra
mustrari
mustrau
mustu
musu
musulmani
musulumeli
musumeci
musurmana
musurmani
musurmanu
mut
muta
mutamentu
mutanna
mutanni
mute
muterna
muti
mutiva
mutivazzioni
mutivi
mutivu
muttu
mutu
mutua
mutura
muturi
muvi
muvimenta
muvimenti
muvimentu
muvirisi
muvra
muvumenta
muvumenti
muvumentu
muvuti
muxaru
muz
muzzicari
muzzicuni
muzzina
muzzu
muzzuni
mv
mvp
mw
my
myair
myanmar
myer
mylaensis
myspace
mystery
mɔ
mɛ
mɛnd
mɛnt
mɪ
n
na
nabla
nac
naca
nachi
naci
nacional
naco
nacu
nadal
nadia
nadur
nafarroa
naftali
nag
nagasaki
naggja
nagorno
nahuatl
nai
nakaira
naked
nakhal
nall
nam
name
names
namibbia
nan
nana
nancy
nandi
nani
nanna
nannata
nannava
nannavu
nanni
nannu
nano
nanometri
nanometru
nanosecunni
nanosecunnu
nantes
nanticchia
nantri
nantru
nantu
nanu
nanzi
nap
napa
napoletana
napoli
nappa
napu
napuli
napulio
napulitana
napulitani
napulitanu
napuliuni
nar
nara
narang
nardo
nargiari
narisi
narnia
narrativa
narratore
narraturi
narrazzioni
narreri
naru
nas
nasa
nasali
nasca
nasce
nascenti
nasceru
naschi
nasci
nascimento
nascinu
nasciri
nascita
nascitu
nasciu
nasciuta
nasciuti
nasciutu
naselli
nash
nashville
nasir
naso
naspa
nasr
nassau
nasser
nastri
nastru
nasu
nat
nata
natale
natali
natalie
natari
natatura
nataturi
nate
nathan
nati
nation
national
nationale
nations
nativa
nativi
nativu
nato
natra
natri
natta
natu
natura
natural
naturale
naturali
naturalis
naturalista
naturalmenti
naturarmenti
nature
naufraggiu
naugurata
nauguratu
naugurazzioni
nauru
nauticu
nautra
nautri
nautru
nava
navajo
naval
navali
navarra
navata
navati
nave
navetta
navi
navicari
navicazzioni
navicedda
naviceddi
navieri
naviga
navigari
navigaturi
navigazioni
navigazzioni
naviglio
navy
naxos
naz
nazionale
nazionali
nazioni
nazista
naziunali
nazzionale
nazzionali
nazzioni
nazzismu
nazzista
nazzisti
nazziuna
nazziunala
nazziunali
nazziunalismu
nazziunalista
nazziunalisti
nazziunalita
nazziunalitati
nazziuni
nazzjon
naɾa
naɾɪ
nba
nc
nca
ncabbubba
ncamiari
ncan
ncantatu
ncantaturi
ncante
ncantu
ncanu
ncapaci
ncapu
ncar
ncaricatu
ncarricatu
ncaru
ncarzarari
ncarzaratu
ncastrari
ncavasedda
ncavu
ncavusedda
ncazzicaleddu
nce
ncegnu
ncendiu
ncere
ncerta
ncerti
ncertu
ncete
nchen
nchi
nchia
nchiaccari
nchianari
nchianata
nchianati
nchianti
nchiantu
nchiappa
nchiappari
nchiapperi
nchiappusu
nchiaru
nchiatrari
nchiesta
nchima
nchimari
nchimatura
nchinu
nchiostru
nchiri
nchiru
nchisi
nchiu
nchiudi
nchiumari
nchiumatura
nchiusu
nchiuvari
nci
ncia
nciacari
nciacata
nciacatu
nciammazzioni
ncianu
nciarra
nciarrari
nciclupidi
nciclupidista
ncidenti
ncidi
ncignari
ncigneri
ncigniri
ncili
ncilu
ncima
ncimari
ncimatura
ncintrata
ncinu
ncipi
ncirca
nciri
ncirtizza
ncis
ncisa
ncisi
ncisioni
ncisu
ncisuri
nciu
nciulu
nciumari
nciunnatu
nciunu
nciuri
nciuria
nciuriscenza
nclavi
nclinazzioni
nclu
ncludi
nclusa
nclusi
nclusu
nco
ncoddu
ncontra
ncontri
ncontru
ncora
ncostu
ncri
ncricca
ncridi
ncridienti
ncrimentu
ncripativu
ncrispa
ncroci
ncrociu
ncruccari
ncrucchittari
ncruciari
ncruciati
ncrunatu
ncu
ncucchiari
ncucchiata
ncuddurari
ncudduriari
ncufinari
ncugna
ncula
nculi
nculu
ncuma
ncumenza
ncumincia
ncuminciari
ncuminciau
ncuminza
ncuminzari
ncuminzaru
ncuminzau
ncuminzo
ncumu
ncuntra
ncuntrari
ncuntraru
ncuntrau
ncuntro
ncunu
ncura
ncurpurata
ncurpuratu
ncursioni
ncuru
ncurunata
ncurunatu
ncurunazzioni
nd
nda
ndaggini
ndaru
nde
ndebele
ndere
ndez
ndi
ndica
ndicari
ndicativu
ndicatu
ndicazzioni
ndicchia
ndici
ndina
ndinnita
ndipinnenti
ndipinnenza
ndipinnintista
ndiri
ndirizzu
ndisi
ndispinza
ndivi
ndividuali
ndividuari
ndividui
ndividuu
ndivinari
ndl
ndo
ndor
ndra
ndrangheta
ndranghita
ndrica
ndricu
ndrizzu
ndu
nduja
ndula
ndustria
ndustriali
ne
neapolis
near
nearest
nebula
nebulosa
nec
neca
necessita
necessitas
neck
necro
necropuli
ned
need
needs
nega
negativa
negativu
negghia
negli
neglia
negotium
negoziu
negozziu
negri
negro
nehni
nei
neil
nel
nell
nella
nelle
nello
nellu
nelly
nelson
nem
nemici
nemo
nen
nenti
neo
neocla
neolatina
neolatini
neoli
neoluggismu
nepal
neper
nephthys
nera
nerbu
nerd
nere
neri
nero
neru
neruda
nerva
nervi
nervu
nes
nesci
nesciri
nessi
nessu
nessun
nessuno
net
neta
neto
netscape
netta
nettu
nettunu
network
neu
neucha
neuilly
neuli
neumann
neutral
neutrini
neutrinu
neutroni
nevada
neve
never
nevi
nevis
new
newcastle
newman
news
newton
newtopia
next
nez
nf
nfa
nfacci
nfami
nfamita
nfantili
nfanzia
nfara
nfarragginari
nfarrainari
nfartu
nfatti
nfazza
nfazzaca
nfernu
nfesta
nfezzioni
nfi
nfila
nfilari
nfina
nfini
nfinita
nfiniti
nfinitu
nfinu
nfinucchiari
nfiri
nfiriuri
nfirmeri
nfittari
nfittiva
nfizzioni
nflazzioni
nfluenti
nfluenza
nfluenzi
nfluinzata
nfluinzati
nfluinzatu
nflussu
nfrastrutturi
nfrici
nfruenti
nfruenza
nfruenzi
nfruinzata
nfruinzati
nfruinzatu
nfruinzau
nfu
nfucata
nfuli
nfur
nfurma
nfurmali
nfurmari
nfurmatica
nfurmaticu
nfurmazzioni
nfurmazziuni
nfurra
nfurru
ng
nga
ngag
nganna
ngannalarruni
ngannari
ngannatu
ngannu
nganu
ngar
ngara
ngari
ngaru
ngarziddari
ngattari
ngaviari
ngaviatu
ngc
nge
ngegnu
ngere
nghi
nghibbisiri
nghiddi
nghilari
nghilterra
nghirri
nghirterra
nghisi
nghissi
nghita
nghiu
ngi
ngia
ngigneri
ngilu
nginucchia
ngiri
ngiu
ngiulu
nglaterra
ngli
nglisa
nglisi
nglobba
ngnuranti
ngra
ngranari
ngranciari
ngranni
ngrasciurari
ngraterra
ngratu
ngressu
ngri
ngridienti
ngrinfari
ngrisa
ngrisi
ngriterra
ngstro
ngu
ngua
nguaggiu
nguantu
nguinu
nguiri
nguirri
ngula
nguli
ngulu
ngusciari
ngusciu
ngustia
ngustiusu
nh
ni
nia
nianu
niardinari
niatri
niautri
nibba
nibbri
nic
nica
nicandru
nicaragua
nicaredda
nicareddi
nicareddu
nicasiu
nicchia
nicci
niccolo
nicculo
nice
nicea
nicefuru
nichea
nicheia
nicheja
nichi
nichiari
nichisi
nichiusu
nicholas
nici
nicissa
nicissari
nicissaria
nicissariamenti
nicissariu
nicissita
nicissitati
nick
nico
nicodemu
nicola
nicolae
nicolai
nicolas
nicole
nicolo
nicolosi
nicotera
nicotra
nicozziu
nicro
nicu
niculizia
niculizzia
niculo
niculosi
nicusi
nicusia
nicuzzu
nid
nidau
nidi
nidu
nie
niels
nielsen
niente
nienti
nietzsche
nifruni
nifrupatii
nig
nigari
nigativa
nigativamenti
nigativi
nigativu
niger
nigeria
niggeria
nigghiu
nigghiusu
night
nigoziu
nigozzi
nigozziu
nigru
nigrum
nigsberg
niguzziari
niguzziati
niguzziatu
nihil
nii
nikita
nikola
nikolai
nikos
nil
nill
nilu
nim
nima
nimi
nimica
nimichi
nimici
nimicu
niminagghia
nimma
nimo
nimu
nin
nina
nine
ninfa
ninfi
ning
ninna
nino
nintendo
nintra
ninu
nio
nipalisi
nipoti
niputi
nir
nira
niri
nironi
niru
niruni
nirvana
nirvia
nirvusi
nirvusu
nis
nisba
niscemi
niscennu
niscenti
nisceru
nisci
nisciu
nisciuta
nisciuti
nisciutu
nisi
nissa
nissena
nisseni
nissenu
nissunu
nit
nita
niti
nitni
nitu
niu
niura
niuri
niuru
niutrali
niutralitati
niutri
niutrinu
nive
nivera
nivi
nivicari
nivulu
nivuri
nivuru
nixon
niz
niziari
nizza
nizzi
nizzia
nizziali
nizziari
nizziarmenti
nizziaru
nizziativa
nizziativi
nizziatu
nizziau
nizziu
niɾɪ
nj
njardinari
njegnu
njilari
njizzioni
nju
njugnu
nl
nm
nmr
nn
nna
nnachi
nnacu
nnali
nnalu
nnamu
nnamura
nnamurata
nnamuratu
nnanu
nnanzi
nnappa
nnara
nnari
nnarreri
nnaru
nnavu
nne
nni
nnia
nnica
nnicanu
nnicari
nnicata
nnicati
nnicativu
nnicatu
nnicava
nnicazzioni
nnicchi
nnichi
nnici
nnicu
nnimicu
nniminagghia
nniminaglia
nniminari
nnina
nnini
nninu
nnipinnenti
nnipinnentista
nnipinnenza
nnipinnintista
nnipinnintisti
nnira
nniri
nnirisi
nnirizzari
nnirizzi
nnirizzu
nniru
nnisi
nnita
nniti
nniu
nnivi
nnivia
nnividuali
nno
nnomi
nnomu
nnu
nnua
nnuccenti
nnuccenzu
nnucci
nnucenzu
nnuci
nnucu
nnula
nnuli
nnulicenza
nnulicenzia
nnulu
nnumani
nnumenti
nnumentu
nnuminagghia
nnuminari
nnuminatu
nnuni
nnunni
nnunu
nnuru
nnusi
nnustri
nnustria
nnustriali
nnuvazzioni
no
noam
nobbili
nobel
nobili
nobis
noble
nobody
noc
nocera
noche
nodd
nodu
noe
noel
noemi
nofriu
nofx
nogueira
noha
noi
noia
noiret
noise
noja
nola
noli
noltri
nom
noma
nomadi
nome
nomen
nomenclatura
nomi
nomina
nominatu
nommu
nomu
non
nona
noni
nonna
nonnu
nonostante
nonostanti
nonu
nonustanti
nora
norcia
nord
nordest
nordi
norduccidintali
norfolk
norm
norma
normali
normalmenti
norman
normandie
normanna
normanni
normannu
normi
norris
norte
north
northern
nortri
norveggia
norviggisi
norwich
nos
nostra
nostri
nostro
nostru
nostrum
not
nota
notarbartolo
note
notes
nothing
noti
noticeboard
notizie
noto
notre
notte
notti
notturnu
notu
nou
noule
nouvelle
nov
nova
novamenti
novanta
novara
novarese
nove
novelle
novelli
novem
november
novembra
novembre
novembri
novemmiri
novgorod
novi
novicentu
novo
novosibirsk
novu
now
nozzi
np
npov
nqua
nquacinari
nquaru
nquinamentu
nquisizzioni
nquitu
ns
nsa
nscritu
nse
nsemi
nsemmula
nsetti
nsettu
nsi
nsidiamenti
nsidiamentu
nsiemi
nsignanti
nsignari
nsinu
nsioni
nsiru
nstallati
nstallazzioni
nstaurazzioni
nsu
nsuli
nsuppurta
nsurrizzioni
nt
nta
ntab
ntaciu
ntaiari
ntal
ntali
ntall
ntam
ntamari
ntana
ntani
ntantu
ntanu
ntappa
ntappari
ntartagghiari
ntaru
nte
ntei
ntenni
ntensa
ntentu
ntenza
ntenzu
nter
ntera
nteramenti
nteressi
nterfaccia
nterfissu
nteri
nteriezzioni
nterna
nternaziunali
nternazzionali
nternazziunali
nterni
nternu
nterra
nteru
nterventu
ntervuca
ntgen
nti
ntica
nticchia
ntichi
ntici
nticiu
nticu
ntigrali
ntigrata
ntigrati
ntigratu
ntigrazzioni
ntilligenti
ntilliggenti
ntilliggenza
ntillittuali
ntimi
ntini
ntinni
ntinsita
ntinsitati
ntinu
ntinzioni
ntinzita
ntinzitati
ntir
ntira
ntiramenti
ntirazzioni
ntircuntinentali
ntire
ntiressa
ntiressi
ntiressu
ntirfacci
ntiri
ntirissa
ntirissanti
ntirissari
ntirissaru
ntirissata
ntirissati
ntirissatu
ntirissau
ntiriuri
ntirlazzu
ntirmidiariu
ntirnaziunali
ntirnazzionali
ntirnazziunali
ntirpritari
ntirpritatu
ntirpritazzioni
ntirrugari
ntirruzzioni
ntirstiddari
ntirvallu
ntirveni
ntirventi
ntirventu
ntirviniri
ntirvista
ntisa
ntisi
ntistinali
ntistinu
ntisu
ntita
ntitati
ntitu
ntitulata
ntitulatu
nto
ntollu
ntoni
ntonsi
ntontoronto
ntonzi
ntornu
ntr
ntra
ntrabbuliata
ntrabbuniri
ntragnisi
ntrallazzu
ntrammi
ntranu
ntranzitivu
ntrappulari
ntrasatta
ntrasattu
ntrasi
ntrasiri
ntrasuta
ntrata
ntre
ntri
ntrica
ntrichi
ntricu
ntrignu
ntrillazzu
ntrinzari
ntrita
ntrizzari
ntrizzati
ntrizzu
ntro
ntrodu
ntroduci
ntroducimentu
ntroduciutu
ntroduzzioni
ntru
ntrubbulari
ntrubbuliari
ntrubburata
ntruduci
ntruduciuta
ntruduciuti
ntruduciutu
ntruduttu
ntruduzzioni
ntruscia
ntu
ntua
ntuciu
ntula
ntuli
ntulu
ntumu
ntunnu
ntunu
ntuppari
ntura
nturnu
ntuva
nu
nua
nuantri
nuanu
nuara
nuatri
nuautri
nuavutri
nubbi
nubbiliari
nubbirta
nuc
nuca
nucera
nuci
nucidda
nuciddara
nuciddi
nucija
nuclear
nuclei
nucleo
nucleu
nucli
nucliari
nucliu
nucu
nuda
nudda
nuddhu
nuddu
nudi
nudu
nue
nueddi
nuet
nuhara
nui
nuia
nuiatri
nuit
nuiusu
nuje
nujusu
nulla
nullu
nullus
num
numa
numaru
number
nume
numericu
numero
numerosi
numeru
numerus
numi
numia
numina
numinagghia
numinali
numinari
numinata
numinati
numinatu
numinau
numinclatura
numira
numiru
numirusi
numma
nummarazzioni
nummaru
nummarusi
numme
nummeru
numminatu
nummira
nummirati
nummiru
nummirusi
nummura
nummurazzioni
nummuru
nummurusi
numquam
numu
nun
nunc
nunca
nunchi
nuni
nunn
nunnata
nunnu
nuno
nunu
nunustanti
nunziata
nunzio
nuo
nuotu
nuova
nuove
nuovi
nuovo
nuovu
nur
nura
nurd
nuri
nurmali
nurmalizzazzioni
nurmalmenti
nurmanna
nurmanni
nurmannia
nurmannu
nurmarmenti
nurmativa
nurrimi
nurrizza
nuru
nurveggia
nurviggisi
nus
nusra
nustalgi
nustanti
nut
nuta
nutanna
nutari
nutarili
nutaru
nutata
nutati
nutatu
nutazzioni
nute
nutevuli
nuti
nutivuli
nutizia
nutizzi
nutizzia
nutizzii
nutri
nutrica
nutricari
nutricu
nutrienti
nutrimentu
nutt
nuttata
nutturna
nutturni
nutturnu
nuu
nuva
nuvamenti
nuvanta
nuvante
nuvara
nuve
nuvelli
nuvembri
nuvembru
nuvemmiri
nuvemmiru
nuvena
nuveni
nuvi
nuvie
nuviembri
nuviembru
nuvitati
nuvole
nuvula
nuz
nuzza
nuzzioni
nuzzola
nv
nva
nvasa
nvasioni
nve
nveci
nverni
nvernu
nversu
nvi
nviari
nviati
nvicchiari
nviluppu
nvintari
nvintatu
nvinturi
nvinzioni
nvircignari
nvirnali
nvirnata
nvisitari
nvita
nvitatu
nvo
nvucata
nvucculari
ny
nynorsk
nz
nza
nzaiari
nzajari
nzalata
nzalati
nzamai
nzancuniari
nzanguniari
nzanu
nzavanari
nzavaniri
nze
nzegna
nzemi
nzemmula
nzetti
nzettu
nzi
nzia
nzianu
nzica
nzidiamenti
nzidiamentu
nzie
nziemi
nzigna
nzignamenti
nzignamentu
nzignanti
nzignari
nzignatu
nzignau
nzigno
nzili
nzima
nzin
nzina
nzinatura
nzinga
nzino
nzinu
nzinutu
nzira
nziri
nziringanti
nzirita
nzirtari
nziru
nziruta
nzirzioni
nzitari
nzitata
nzitu
nzo
nzocchi
nzoccu
nzu
nzufficienti
nzugna
nzula
nzuli
nzultari
nzumma
nzun
nzunza
nzunzari
nzuppurta
nzuvariri
nzuvarutu
nɑ
nɔ
nɛ
nɛɖɖa
nɪ
o
oak
oara
oasi
oasis
oaxaca
ob
obama
obberu
obbidiri
obbiettivi
obbiettivu
obessu
oblast
observations
oc
oca
occa
occasioni
occhi
occhialoru
occhieppu
occhio
occhipinti
occhiu
occi
occidentale
occidentali
occidente
occidenti
occidintali
occitana
occitanu
occu
occupa
occupari
occuparu
occupata
occupati
occupation
occupatu
occupau
occupava
occupazzioni
oce
ocean
oceania
oceano
oceanu
oceanugrafi
oceddi
oceddu
ochju
ociania
octave
october
oculari
oculus
ode
odeon
odi
odia
odiari
odierna
odigitria
odio
odissea
odissia
odiu
oenanthe
of
off
offe
offenbach
offerti
office
official
officiali
officiari
officina
officinale
officinalis
officini
officiu
offisa
offri
offriri
og
ogden
ogg
oggetti
oggettu
ogghi
ogghiu
oggi
oghu
ogliastra
oglio
ogliu
ogn
ognadunu
ogni
ogniduna
ognidunu
ognin
ognu
ognuna
ognunu
ogre
oh
ohio
ohm
oi
oil
oint
ois
oise
oj
ojetra
oji
ok
okinawa
oklahoma
ol
ola
olanda
olandisi
olbia
old
ole
oleracea
oleum
olga
oli
olimpi
olimpia
olimpiadi
olimpichi
olimpici
olio
oliva
olive
oliveira
oliver
olivi
olivia
olivier
oliviu
ollannu
olof
olona
oltraggiari
oltre
oltrepassari
oltri
olucaustu
om
omaggio
omaggiu
oman
omar
ombra
ome
omega
omeru
omi
omicidi
omicidiu
omini
ominiscu
ommini
omminu
ommu
omnes
omnia
omnibus
omnium
omo
omonima
omonimo
omonimu
oms
omsk
omu
omusissuali
on
ona
once
onda
onde
ondi
one
oneself
oni
onista
online
only
onni
onniputenti
ono
onofriu
onoma
onore
onori
onoriu
ontario
ontariu
onu
onuma
onuratu
onuri
oort
op
opa
open
opening
opera
operation
operatorname
operazzioni
opere
operi
opi
opinioni
opinions
opira
opiraiu
opirazzioni
opiri
opportunity
opposizzioni
opposta
opposti
oppostu
oppu
oppuri
oppurtunitati
oppuru
opra
opus
opzioni
or
ora
oracle
oradea
orali
oramai
orange
orari
orariu
oratori
oratorio
oratoriu
orazio
orazzioni
orazziu
orba
orbi
orbison
orbita
orbitali
orbu
orca
orchestra
order
ordinaria
ordinary
ordinatu
ordine
ordini
ore
oregon
oreste
orfani
org
orga
organi
organisation
organismi
organismu
organization
organizza
organizzari
organizzata
organizzati
organizzatu
organizzau
organizzazioni
organizzaziuni
organizzazzioni
organu
orgia
orgiu
orgogghiu
orgugghiusu
ori
oria
oricchia
oriental
orientale
orientali
orienti
origami
origanum
origginali
origginari
origginaria
origginariamenti
origginariu
origgini
original
originali
originariamenti
origine
origini
orio
oristanu
oriu
orizzuntali
orlando
orlandu
orlannu
orle
orleans
orlu
ormai
orne
orneon
ornithischia
ornitolo
ornu
oro
orra
orrennu
orri
orru
orruri
orsay
orsi
orsini
orso
ortaggi
orthanc
orti
orto
ortodossa
ortodossi
ortodossu
ortografi
ortri
ortu
ortudossa
ortudossi
ortudossu
ortugra
ortugrafi
oru
orvi
orville
orvu
orwell
orzu
os
osa
osaka
osama
osbourne
oscar
osce
osci
oscu
osiride
oslo
oslu
ospidali
ospita
ospitali
ospiti
ossa
osse
osservaturi
osservazioni
osservazzioni
ossezzia
ossi
ossia
ossigginu
ossirvatoriu
ossirvazzioni
osso
ossu
ossula
osta
ostari
ostia
ostili
ostrea
ostrica
ostrogota
ostrogoti
ostrogotu
ostuni
osvaldo
oswald
ot
ota
other
otis
otra
otrantu
otri
otru
ott
ottanta
ottava
ottavianu
ottavio
ottaviu
ottavu
ottawa
otte
ottena
ottenere
otteni
ottica
ottici
otticu
ottieni
ottiniri
ottinni
ottinutu
otto
ottobbra
ottobre
ottobri
ottocento
ottomanu
ottoni
ottu
ottubbri
ottubbru
ottucentu
ottumanu
ottuni
ottuvri
ottuvru
otu
otus
ou
our
ourense
out
outside
outstanding
ouvert
ov
ova
ovali
ovation
over
overdrive
overline
overu
ovest
ovi
ovidiu
ovist
ovo
ovu
ovvero
ovveru
ovviamenti
owen
owens
own
oxford
oz
oziu
ozziu
ozzy
p
pa
paa
paari
pablo
pablu
pac
paca
pacchianu
pacchiu
pacchiuni
pace
paceca
pacem
pacenti
pacenza
pacenzia
pachinu
paci
pacific
pacificu
pacifista
padana
padania
padda
padduni
padedda
padova
padre
padri
padrino
paduva
paese
paesi
pag
paga
pagamentu
pagana
pagani
paganini
pagano
paganu
pagare
pagari
page
pages
pagg
pagghia
pagghiaru
pagghiazzu
paggi
paggina
paggini
pagina
paglia
pagnotta
pago
pagru
pagu
pai
paia
paiamentu
paiari
pain
painted
pais
paisa
paisaggi
paisaggiu
paisani
paisanu
paise
paiseddi
paiseddu
paisi
paja
pajamentu
pajari
pajatu
pajisi
pakistan
pal
pala
palabras
paladini
paladinu
palanga
palangana
palanti
palata
palatali
palataru
palatina
palatini
palatinu
palau
palazzi
palazzo
palazzolo
palazzolu
palazzotto
palazzu
palco
palcu
pale
palemmu
paleoliticu
palermitana
palermitanu
palermo
palermu
pali
palichi
palicu
palieimmu
paliemmu
paliontolocu
palirmitana
palirmitani
palirmitanu
palistina
palistinesi
palistinisa
palistinisi
paliu
palizzata
palla
pallavvolu
palli
pallidu
palluni
palma
palmas
palmer
palmi
palo
palora
palorgiu
palori
palpitazzioni
paltiel
palu
paludi
palumma
palummi
palummu
pam
pammata
pammiggianu
pammigianu
pampillonia
pampilonia
pampini
pamplona
pan
pana
panama
panaru
panca
pancraziu
pancrazziu
pancreas
pand
panda
pane
panelli
panem
pani
panica
paninu
panna
pannedda
panni
pannocchia
pannonia
pannu
panorama
panormus
pant
pantaci
pantaciari
pantaciata
pantaciatu
pantaciu
pantaleci
pantalica
pantaluna
pantana
pantanu
pantasci
pantasciari
pantasciata
pantasciatu
pantasciu
pantheon
panthera
pantiddiri
pantilliria
panto
panturru
panu
panura
panurama
panza
paola
paoli
paolo
paolu
pap
papa
papajanni
papaleu
papali
papanzi
papanzicu
paparedda
paparina
papatu
paper
paperino
paperone
papi
papiru
pappagaddi
pappagaddu
pappaiaddu
pappajaddi
pappajaddu
papua
papuzza
papuzzana
par
para
paracaduti
paracqua
parade
paradise
paradiso
paradisu
paradossu
paraggiu
paraguai
paraguay
paraguna
paragunari
paraguni
parai
parallassi
parallela
paralleli
parallelu
parallilamenti
parameters
paramilitari
paramitru
paranurmali
paranza
parari
parascevi
parassita
parassiti
parata
paraturi
parauni
parcheggiu
parchi
parciminu
parco
parcu
pare
parecchi
pareggiu
parenti
pareti
pari
parigghia
pariggi
pariggiu
parigi
parimiuluggi
parintela
parinti
parinu
pariri
paris
parisi
parissi
paritati
pariti
park
parker
parks
parla
parlamento
parlamentu
parlamintari
parlare
parlari
parlata
parlati
parlatu
parlava
parler
parlophone
parma
parme
parmi
parmiggianu
parmigianu
parmu
paro
parola
parole
paroli
parolla
parpagghiuni
parra
parraci
parraciari
parramentari
parramentu
parramintari
parramu
parrannu
parranti
parranu
parrara
parrari
parrastru
parrata
parrati
parratu
parrau
parrava
parri
parrina
parrini
parrinu
parro
parrocchi
parrocchia
parrucchianu
parruccianu
parrunu
pars
parsec
parsi
parsona
part
parta
partaggiu
partanna
parte
partecipa
partecipanu
partecipari
parteciparu
partecipo
partennu
partenza
parteru
parti
partial
particedda
particeddi
participa
participannu
participanti
participari
participaru
participatu
participau
participazzioni
participiu
participo
particolare
particolari
particolarmenti
particulari
particularita
particularitati
particularmenti
partido
parties
partiggiani
partiggianu
partinicu
partiri
partita
partiti
partito
partitu
partiu
partner
partu
partualla
partuallu
partugallu
partuta
partuti
partutu
party
paru
parudi
parzami
parziali
parzialmenti
parziarmenti
pas
pasadena
pascal
pascasinu
paschera
pascoli
pasinetti
pasolini
pasqua
pasquale
pasquali
pasqualino
pasqualinu
passa
passaggeri
passaggeru
passaggi
passaggio
passaggiu
passannaieri
passannu
passanti
passanu
passaportu
passari
passaru
passata
passatempu
passati
passatiempu
passato
passatu
passau
passava
passe
passer
passi
passiari
passiata
passiggeri
passione
passioni
passiuni
passivi
passo
passu
past
pasta
pastasciutta
pasteur
pasti
pastina
pastorale
pastori
pastu
pastura
pasturali
pastureddu
pasturi
pat
pata
patagonia
patata
patati
pate
patenalye
pater
paterno
pathways
pati
patientia
patiri
patirno
pato
patolo
patoluggi
patre
patri
patria
patriarca
patriarcatu
patrick
patrimoniu
patriota
patrizia
patrizio
patriziu
patrizziu
patro
patrona
patroni
patronu
patrozzu
patrun
patruna
patruni
patrunu
pattern
patti
pattinaggiu
pattu
patu
patuluggi
paturno
pau
paul
paula
pauli
pauling
paulinho
paulinu
paulo
paulu
pauni
pauperus
paura
pausa
pausania
pausi
pav
pavarotti
pavese
pavi
pavia
pavigghiuni
pavimenti
pavimentu
pavo
pavone
pavu
pavuni
pax
pay
payis
pays
paz
pazza
pazzi
pazzo
pazzu
paɾɪ
pc
pci
pcus
pd
pdf
pdl
pds
pe
peace
pearl
pearson
pecchi
pechinu
pecura
pedagogu
peddi
pede
pedersen
pedi
pedone
pedro
peggio
peggiu
peggy
pego
pei
peiu
peju
pel
pele
pelle
pellegrini
pelli
pelo
peloponnesu
peltru
pelu
pelupunnesu
pen
pena
pengo
peni
peninsula
penisula
penna
pennsylvania
penny
pensa
pensante
pensare
pensieri
pensiero
penso
penta
pentagramma
pentavuca
pentecostali
penu
penza
penzi
penzu
people
pepe
peppe
peppers
peppi
peppino
per
peralta
perce
perche
perchia
percia
percio
percorri
percorsu
percussioni
percy
perdere
perdi
perdita
perditi
perduto
pere
pereira
perelman
peres
perez
perfettu
performance
performed
perfumu
pergusa
peri
pericardiu
periodi
periodo
periodu
periudu
perla
permeabilitati
permittivitati
perna
perni
pernu
pero
perry
pers
persa
perse
persefone
persi
persia
persiani
persianu
persica
persicu
person
persona
personaggi
personaggio
personal
personali
personalita
perspective
persu
persunaggi
pertini
peru
peruggia
perugia
perzuni
pesaro
pesaru
pesca
pescara
pescatori
pesti
pet
pete
peter
petersen
petit
petite
petra
petralia
petrarca
petrella
petri
petroliu
petroselinum
petru
petruburgu
petrusinu
pettirrussu
pettu
petturrussu
petturussu
pez
pezza
pezzi
pezzo
pezzu
pg
ph
phd
phi
phil
philadelphia
philip
philipp
philippe
philippines
phillip
phillips
philosophy
pho
phobos
phoenician
phoenix
phone
phonotris
phosphorus
photo
photometry
photos
phu
phylum
physical
physics
pi
pia
piace
piacenza
piacere
piaci
piaciri
piacissi
piaciutu
pian
piana
pianeta
pianeti
piani
pianista
pianita
piano
pianoforte
pianoforti
pianta
piante
pianti
pianu
pianuforti
pianura
piata
piatati
piatta
piattaforma
piatti
piattu
piave
piazza
piazzi
pic
pica
picardia
picardie
picari
picassu
picata
picca
piccamadora
piccamora
piccanti
piccati
piccatu
piccatura
picce
picchi
picchini
picchissu
picchistu
picchiu
picchiusa
picchiusu
picci
piccidda
picciddi
picciddu
piccilidda
picciliddi
picciliddu
piccio
picciotta
picciotti
picciottu
picciridda
picciriddi
picciriddu
piccitto
piccittu
picciulami
picciuli
picciulu
picciuttanza
picciuttedda
picciutteddi
picciutteddu
piccola
piccoli
piccolo
piccu
picenu
pichi
pici
pick
pico
picondria
picone
picture
pictures
picu
piculiari
picuni
picuntri
picurara
picurari
picuraru
picurinu
pid
pida
pidaggiu
pidali
pidalina
pidamentu
pidata
pidati
pidda
piddirinaggiu
piddirini
piddirinu
piddizza
piddizzaru
piddizzuni
pidi
pidicuddu
pidicuri
pidini
pidocchiu
pidu
pidunali
piduni
pie
piece
pied
piedi
pieds
piega
piei
piemonte
piemonti
piemunti
piemuntisa
piemuntisi
pieno
pienza
pier
pierce
pieri
piero
pierre
piersanti
pieru
pieta
pietati
pieter
pietra
pietrangeli
pietre
pietro
pietru
pietruburgu
pieve
piezzi
piezzu
pig
pigghi
pigghia
pigghiamu
pigghiannu
pigghianu
pigghiari
pigghiarisi
pigghiaru
pigghiata
pigghiati
pigghiatu
pigghiau
pigghiava
pigghiavanu
pigghio
piglia
pigliari
pigmenti
pigna
pignara
pignata
pignati
pignatta
pignola
pignu
pignulata
pignuna
pii
pijuncu
pijurativu
pil
pila
pilaggi
pilaia
pilaja
pilaris
pilastri
pilatu
pili
pilli
pilliccia
pillicula
pilliculi
pilligrinaggi
pilligrinaggiu
pilligrini
pilligrinu
pillizza
piloccu
piloru
pilota
piloti
pilu
pilucca
pilupunnesu
pilupunni
piluritani
pilus
pin
pina
pinali
pinatizzu
pine
pingla
pini
piniari
pinioni
pinisula
pinitenza
pink
pinna
pinnenti
pinnenza
pinni
pinnici
pinnicuni
pinninu
pinnularu
pinnuliari
pinnuluni
pino
pinocchio
pinochet
pinoli
pinsa
pinsari
pinsatu
pinsava
pinsera
pinseri
pinseru
pinsioni
pinta
pinticustali
pintitu
pinto
pintu
pintutu
pinu
pinus
pinyin
pinza
pinzannu
pinzari
pinzata
pinzati
pinzatu
pinzatura
pinzaturi
pinzau
pinzava
pinze
pinzeddu
pinzera
pinzeri
pinzeru
pinzioni
pinziunariu
pinzo
pio
pioggia
piotr
piova
piove
pip
pipa
pipi
pipinera
pipinu
pipita
pipitari
pipitiari
pippinedda
pippinu
pippo
pippu
pir
pira
piramidi
pirandello
pirandellu
piranu
pirara
pirata
pirati
pirchi
pirchini
pirchissu
pirchistu
pirchiu
pirciari
pircintuali
pircio
pircizzioni
pircocu
pircopu
pircorsu
pircu
pircurri
pircursi
pircursu
pircussioni
pirdennu
pirderu
pirdi
pirdiri
pirduna
pirdunari
pirdunu
pirduta
pirduti
pirdutu
pirenei
pirenni
pirfetta
pirfettamenti
pirfetti
pirfettu
pirfittamenti
pirfumu
pirgamena
piri
pirico
piricocu
piriculu
piriculusa
piriculusi
piriculusu
piridda
pirife
piriferi
pirifiri
pirinei
pirio
piriodi
piriodica
piriodu
piriudi
piriudu
pirmanenti
pirmanenza
pirme
pirmessu
pirmetti
pirmettinu
pirmettiri
pirmettunu
pirmi
pirminti
pirmisi
pirmissu
pirmittennu
pirmitteru
pirmitti
pirmuni
pirmutazzioni
pirnicana
pirnicheia
pirnicheja
pirnici
piro
pirpindiculari
pirpinniculari
pirrera
pirreri
pirri
pirriaturi
pirrichicchiu
pirru
pirsiana
pirsiani
pirsianu
pirsicutati
pirsicuzioni
pirsicuzzioni
pirsoni
pirsua
pirsuasu
pirsuna
pirsunaggi
pirsunaggiu
pirsunali
pirsunalita
pirsunalitati
pirsunalmenti
pirsunarmenti
pirsuni
pirsunu
pirtantu
pirtinenti
pirtinenza
pirtu
pirtusa
pirtusari
pirtusu
piru
pis
pisa
pisana
pisani
pisano
pisanti
pisantimenti
pisanu
pisari
pisava
pisca
piscara
piscari
piscatu
piscatura
piscaturi
pischirecciu
pisci
piscia
pisciari
pisciaru
pisciazza
piscicani
piscina
pisciottu
piscistoccu
pisciteddi
pisciteddu
pisedda
piseddi
pisi
pisolu
pissichiatra
pissichiatri
pissuna
pissuni
pista
pistacchiu
pistacia
pistari
pisti
pistiari
pistilenza
pistoia
pistola
pistoli
pistols
pistuni
pisu
pit
pita
pitaggiu
pitago
pitagora
pitaka
pitanza
pitanzi
pitazzu
pitcairn
piti
pitittu
pitrarca
pitre
pitrera
pitriaturi
pitro
pitroliu
pitroniu
pitruli
pitrusinu
pitruzza
pitta
pittali
pittaloru
pittari
pittata
pittati
pittatu
pittedda
pitterra
pitti
pittiatu
pittigghia
pittimusu
pittore
pittrici
pittura
pitturi
pitturina
pitu
piu
piuggiu
piumaggiu
piumi
piuncu
piz
pizza
pizzaottu
pizzeri
pizzi
pizzicamerda
pizzicari
pizziddu
pizzinu
pizzipinturru
pizzo
pizzu
pizzudda
pizzuddi
pizzuddicchi
pizzuddu
pizzuliari
pizzuni
pizzutu
pj
pja
pl
pla
placca
placchi
place
placed
placido
placidu
placiri
plaga
plagiam
plaia
plaja
plaji
plan
plana
plancia
planck
planet
planetariu
planets
planitariu
plant
planta
plasma
plastica
plat
plata
platani
platino
platinu
plato
platoni
platonos
platters
platuni
play
playa
player
playoff
playstation
plaza
please
pleasure
pli
plica
plici
pling
pliniu
ploge
plouve
plove
plu
plui
plur
plurali
plus
plutarcu
pluto
plutoni
pluvia
plymouth
plɛ
pm
png
pnv
po
poca
pochi
poco
pocu
poe
poema
poems
poesia
poesie
poeta
poeti
poetry
poggiu
pohjola
poi
poiche
poichi
poids
poincare
point
poison
poitier
poitiers
poitou
poju
poker
pol
pola
polaccu
poland
polanski
polanyi
pole
poli
police
policy
polifemu
polimeri
polinesia
polis
polistena
polistina
politeama
politica
politici
politico
politics
politicu
polizzi
polizzia
poljakov
pollina
pollu
polo
polonia
polska
polu
polvere
polydor
polygram
poma
pomeriggiu
pomidoro
pomiriggiu
pomodoro
pompa
pompei
pompeu
pon
ponenti
poni
ponnu
pont
ponte
ponti
ponu
poor
pop
popeye
popolare
popolari
popolazione
popolazioni
popolazzione
popolo
popper
poppir
pops
populandi
popular
populari
population
populazioni
populazzioni
populi
populu
populus
por
porcelli
porci
porcu
porcus
pordenoni
porro
port
porta
portafogghiu
portal
portale
portanu
portare
portavuci
porter
porti
porto
portrait
portu
portugal
portugallu
portughisa
portughisi
portunu
portupalu
porturicanu
portus
poru
porzioni
posa
posada
positivu
posizione
posizioni
posizzioni
possa
posse
possibbili
possibile
possibili
possibilita
possible
possono
post
posta
postarviulari
poster
posti
posto
postu
postumu
pot
pota
pote
potenti
potenu
potenza
potere
potest
poti
potta
potter
potti
pottiru
potu
pou
pound
pour
pouvro
poveri
povero
poverta
povira
poviri
poviru
powell
power
powers
pozza
pozzi
pozzo
pozzu
pp
ppa
ppanu
ppara
ppe
ppi
ppia
ppira
ppiri
ppiru
ppita
ppiti
ppiu
ppo
ppoi
ppri
pprica
ppu
ppula
ppuli
ppulu
ppuni
ppuru
pr
pra
praciri
praga
praia
praja
praji
pranzu
prassi
pratari
prati
pratica
praticamenti
praticari
praticata
praticati
praticatu
pratichi
pratici
praticu
prato
pratt
pratticata
pratu
prayer
pre
precisamenti
precisu
preda
prefazione
prega
preggiu
preghiera
pregu
preisto
preistoria
preistorica
preiu
preju
preliminary
premi
premia
premier
premio
premiu
prena
prendere
pres
prescia
presenta
presente
presenti
presenza
presicce
president
presidente
presidenti
presidi
presley
press
pressi
pressioni
presso
pressu
pressure
presta
prestitu
presto
prestu
prete
pretender
preti
pretium
pretty
preu
prevalentementi
previous
previsti
prezzi
prezzo
prezzu
pri
pria
prianneddu
priari
priatu
price
pricedi
prici
pricidenti
pricidentimenti
pricidenza
pricidintimenti
priciduti
pricidutu
pricipitazzioni
pricirenti
pricisa
pricisamenti
pricisari
pricisi
pricisioni
pricisu
priciuneri
priciuni
pricoci
pricocu
priculusu
pricursuri
pridaturi
pridicari
pridicava
pridicazioni
pridicazzioni
priduminanti
prie
priera
priest
prifazzioni
prifettu
prifirennu
prifirenza
prifirenzi
prifiri
prifiriri
prifirisci
prifiruta
prifirutu
prifissi
prifissu
prifittura
priga
priganneddu
prigari
priggiari
priggiata
priggiati
priggiuneri
priggiuneru
priggiuni
prigiuni
prignolu
prija
prijanneddu
prijannolu
prijari
prijatu
prijera
prijeri
priliminari
prilivari
prima
primari
primaria
primariu
primati
primatu
primatura
primavera
prime
primi
primiati
primiatu
priminti
primitiva
primitivi
primitivu
primma
primminti
primo
primu
primuni
primura
primus
prince
princes
princess
princeton
princi
princip
principale
principali
principalmenti
principarmenti
principati
principatu
principe
principessa
principi
principia
principissa
principiu
prinia
prinni
prinutari
prinutazzioni
priolu
priori
pripara
priparannu
priparari
priparata
priparati
priparatu
priparau
priparazioni
priparazzioni
pripusizzioni
priputenza
priri
prisa
priscilla
prise
prisenta
prisenti
prisenza
prisenzi
prisenzia
prisi
prisidenti
prisidenza
prisidinziali
prisidutu
prisinta
prisintari
prisintaru
prisintata
prisintati
prisintatu
prisintaturi
prisintau
prisintava
prisintazzioni
prisinti
prisinza
prisirenti
prisirenza
prisma
prissioni
prissiuni
pristari
pristatu
pristazzioni
pristiggiu
pristiggiusa
pristiggiusi
pristiggiusu
pristo
pristoria
prisu
prisunta
prisunti
prisuntu
prisuttu
prituri
priu
priuri
priva
privacy
privalenti
privalentimenti
privalenza
privali
privalintimenti
privata
private
privati
privatu
prive
privedi
privi
prividi
privileggi
privileggiu
privinutu
privisioni
privista
privisti
privistu
privu
prix
prize
prizzi
prizziusa
prizziusi
prizziusu
pro
probabbirmenti
probabili
probabilmenti
probblema
probblemi
problema
problemi
proceedings
processing
procession
procida
procopio
procopiu
prodi
prodotti
prodotto
prodottu
produ
produce
produced
producer
produci
production
productions
produttori
produzione
produzioni
produzzioni
prof
professor
professore
profile
profit
profughi
profumu
progetto
progettu
proggettu
program
programma
programmi
programming
progress
progressive
project
promessi
promo
promossi
promozionale
promuoviri
pron
pronta
pronti
prontu
pronuncia
propagandhi
properties
prophet
propi
propia
propiu
proporzionali
proposta
propri
propria
proprie
proprieta
proprietariu
proprietati
proprio
propriu
prosa
prosciuttu
prossimi
prossimu
protagonista
protagonisti
protagunista
proto
protocollu
protoni
protu
prov
prova
provenc
provence
provenienti
proverbi
proverbj
provi
provincia
provuca
prowl
proxima
pru
prua
pruba
prubabbili
prubabbirmenti
prubabirmenti
prubba
prubbabbilita
prubbabbilitati
prubbabbirmenti
prubbabirmenti
prubblema
prubblemi
prubbrema
prubbremi
prublemi
pruce
prucessi
prucessu
prucettu
prucidimentu
prucidura
prucissioni
prucissuri
pruclama
pruclamata
pruclamatu
pruclamau
prucopiu
prucramau
prucramma
prucu
prucura
prucuraturi
prudenti
prudenza
prudotta
prudotti
prudottu
prudu
pruduci
pruduciri
pruduciu
pruduciuta
pruduciuti
pruduciutu
prudurri
prudussi
prudutta
prudutti
pruduttiva
pruduttivi
pruduttivitati
pruduttivu
pruduttori
pruduttrici
pruduttu
pruduttura
prudutturi
pruduzioni
pruduzzioni
pruf
prufessuri
prufeta
prufeti
prufilu
prufissioni
prufissiunali
prufissiuni
prufissiunista
prufissiunisti
prufissura
prufissuri
prufitti
prufittu
prufumu
prufunna
prufunnamenti
prufunni
prufunnita
prufunnitati
prufunnu
prugetti
prugettu
pruggetti
pruggettu
pruggittata
pruggittati
pruggittatu
pruggittazzioni
pruggramma
prugramma
prugrammatura
prugrammaturi
prugrammazzioni
prugrammi
prugressi
prugressu
prugrissioni
prugrissista
prugrissiva
prugrissivamenti
prugrissivu
pruibbiti
pruibbitu
pruibbizzioni
pruie
pruiezzioni
pruiggiari
prulitaria
prulitariatu
prulungatu
prum
prume
pruminti
prumissa
prumissi
prumitti
prumminti
prumo
prumovi
prumuni
prumuntoriu
prumuturi
prumuvi
prumuzzioni
prun
pruna
prunami
prunoma
prunomi
prunomu
prunu
prununcia
prununciatu
prununza
prununzari
prununzata
prununzatu
prununzia
prununziatu
prunus
prupa
prupaganna
prupagazzioni
prupita
prupitari
prupitariu
prupitati
prupo
pruponi
pruposizzioni
pruposta
pruposti
prupostu
pruprieta
pruprietati
pruprita
prupritariu
prupritati
prupulsuri
prupuni
prupunutu
prupurzioni
prupurziunali
prupusizzioni
prurali
prusciuttu
pruse
pruserpina
pruspettu
pruspiritati
pruspittiva
prussia
prussiana
prussimitati
prustituzzioni
prusuttu
prutagunista
prutagunisti
prute
pruteggi
pruteggiri
prutesta
prutesti
prutetta
prutetti
prutettu
prutezzioni
prutiggi
prutiggiuta
prutiggiuti
prutiggiutu
prutii
prutiini
prutistanti
prutistari
prutisti
prutittrici
prutitturi
prutizzioni
prutoni
prutuni
pruva
pruvari
pruvata
pruvatu
pruvau
pruve
pruveni
pruvennu
pruvenza
pruvenzali
pruverbi
pruverbiu
pruvi
pruvidenza
pruvigghia
pruvinci
pruvincia
pruvinciali
pruvinenti
pruvinenza
pruvini
pruvinu
pruvinza
pruvinzali
pruvinzani
pruvinzanu
pruvinzi
pruvoca
pruvucannu
pruvucari
pruvucata
pruvucati
pruvucatu
pruvucau
pruvulazzi
pruvulazzu
pruvuluni
pruvvisoriamenti
pruvvisoriu
pruvvisti
pruvvistu
ps
psdi
pseudo
pseudonimu
psi
psichi
psico
psicolo
psicoluggi
psiculuggi
psiup
psula
psy
pt
pti
pu
pua
pub
pubblica
pubblicari
pubblicaru
pubblicata
pubblicati
pubblicato
pubblicatu
pubblicau
pubblicazioni
pubblicazzioni
pubblichi
pubblici
pubblicita
pubblico
pubblicu
pubbliu
pubbri
pubbrica
pubbricamenti
pubbricari
pubbricaru
pubbricata
pubbricati
pubbricatu
pubbricau
pubbricazioni
pubbricazzioni
pubbrico
pubbricu
public
publica
publique
publishers
publishing
publiu
puca
puccini
puci
pud
puddastra
puddicinu
pudditru
puddu
pudi
pue
puema
puemi
puerto
pueta
pueti
puetica
pueticu
puffi
pugghia
pugghisi
puggilatu
puglia
pugliese
puglisi
pugna
pugnu
pui
puisi
puisia
puisii
puitissa
puja
pul
pula
pulacca
pulacchi
pulaccu
pulari
pulazzioni
pulcino
pule
pulemichi
puli
pulici
puligunu
pulita
pulite
puliti
pulitica
puliticamenti
puliticanti
pulitichi
pulitici
puliticu
pulitu
pulizia
pulizzi
pulizzia
pulizziari
pulla
pullus
pulmo
pulmonem
pulo
pulonia
pulpa
pulpetta
pulu
pulvirenti
pum
puma
pumadamuri
pumadora
pumadoru
pumaduoru
pumaramuri
pumaroru
pumaruoru
pumidoru
pumiriggiu
pummadoru
pummaroru
pummaruoru
pummidoru
pummu
pummudoru
pumpeu
pumpi
pumu
pumudamuri
pumuramuri
pun
puncenti
punci
puncigghiuni
pune
punennu
punenti
puni
punica
punichi
puniri
punitu
punizzioni
punk
punnu
punta
puntali
puntapedi
puntari
puntata
puntati
punte
punteggiu
punti
puntificati
puntificatu
puntificia
puntificiu
puntiggiatura
punto
puntu
puntuta
punɪ
puo
puoca
puocu
puoi
puonu
puostu
pupa
pupi
pupidda
pupli
pupu
pupulari
pupularita
pupularitati
pupularmenti
pupulata
pupulati
pupulatu
pupulazioni
pupulazzio
pupulazzioni
pupulazziuni
pupulusa
pur
pura
puramenti
purcara
purceddu
purci
purciagghia
purciddiari
purcidduzzu
purcigna
purcili
pure
purgatoriu
puri
purizza
purminti
purmuna
purmunari
purmuni
puro
purpa
purpetta
purpetti
purple
purpu
purra
purrazzu
purritu
purta
purtali
purtannu
purtanti
purtanza
purtari
purtaru
purtarunu
purtata
purtati
purtatili
purtatu
purtaturi
purtau
purtava
purtedda
purteri
purto
purtroppu
purtu
purtuali
purtuchisi
purtugallu
purtughisa
purtughisi
purtuni
purtusa
purtusari
purtusu
puru
purzioni
pus
pusa
pusata
pusateri
pusentu
puseri
pushkin
pusitiva
pusitivi
pusitivu
pusizioni
pusizziona
pusizzioni
pusizziunamentu
pusizziunata
pusizziunati
pusizziuni
pusse
pussedi
pussessu
pussi
pussibbili
pussibbilita
pussibbilitati
pussibili
pussibilita
pussibilitati
pussidi
pussidimentu
pussiduti
pustali
pustinu
pustiriuri
pustu
pusu
put
puta
putaggi
putaggiu
putassiu
pute
putemu
putennu
putenti
putenza
putenzi
puteri
puteva
puti
putia
putiaru
putie
putiemu
putiga
putigaru
putija
putijaru
putin
putinu
putinziali
putiri
putissi
putissiru
putiti
putrigghiuni
putruni
putrusinu
puttari
pututu
puvireddi
puvireddu
puvirta
puvirtati
puvuredda
puvureddi
puvureddu
puy
puz
puzza
puzzaddu
puzzu
puzzuni
px
pyongyang
pyrus
pz
pɔ
pɛ
pɛt
pɪ
pɪd
pɪn
pɪt
pɪttʃɪ
pɪɾɪ
pɾu
pɾɪ
q
qa
qaeda
qaem
qaida
qantarah
qasim
qatar
qin
qquai
qu
qua
quacchi
quacchiri
quaccunu
quacina
quad
quadana
quadara
quadararu
quadaruni
quaderni
quadiari
quadrati
quadratu
quadriliardu
quadriliuni
quadru
quadumi
quae
quag
quagghia
quagghiari
quagghiata
quagghiu
quai
qual
qualche
qualchi
qualcosa
qualcuno
qualcunu
quale
qualegghie
quali
qualicunu
qualificatu
qualificazzioni
qualis
qualisiasi
qualita
qualitati
qualsiasi
qualunchi
qualunque
qualunqui
quam
quan
quancunu
quando
quandu
quang
quann
quanni
quannnu
quannu
quant
quanta
quanti
quantistica
quantistici
quantisticu
quantita
quantitati
quanto
quantu
quantum
quaqua
quaque
quar
quarant
quaranta
quarante
quarantina
quarc
quarche
quarchi
quarchiccosa
quarchicosa
quarchidunu
quarcosa
quarcunu
quare
quark
quarsiasi
quarta
quartara
quartari
quartera
quarteri
quartetto
quartettu
quarti
quartiari
quartieri
quarto
quartu
quarzu
quasa
quasar
quasari
quasetta
quasetti
quasi
quasimodo
quasimodu
quasolu
quat
quaternu
quatra
quatrata
quatrati
quatratu
quatre
quatri
quatru
quatteri
quatto
quattordice
quattordici
quattr
quattro
quattru
quattrucentu
que
quebec
quechua
queen
queens
queensland
quel
quella
quelli
quello
quellu
quem
quentin
quercia
quercus
query
quest
questa
questi
questione
questioni
questo
queti
quetu
qui
quia
quid
quida
quiddhra
quiddhri
quiddhru
quidi
quidquid
quidu
quiet
quieti
quila
quin
quindi
quindici
quinni
quinnice
quinnici
quinnicina
quinquirimi
quinta
quintanilla
quinto
quintu
quintus
quinu
quinzianu
quiri
quis
quisquilia
quisquina
quisti
quistioni
quistu
quitari
quiti
quitu
quo
quod
quorum
quota
quoti
quotidiana
quotidiano
quotidianu
r
ra
rab
rabah
rabat
rabba
rabbi
rabbia
rabbit
rabbu
rabi
rabin
rabu
rac
racale
racalmutu
raccamu
racchiu
raccolta
raccolte
raccolti
racconta
racconti
raccorta
raccumannamu
raccumannazzioni
raccunta
raccunti
race
races
rachi
raci
racina
racing
racini
raciu
raciuni
racu
racumannamu
rad
rada
radar
raddoppia
radduppiamentu
raddusa
radi
radiali
radianti
radiaziuni
radiazzioni
radiazziuni
radica
radicali
radice
radici
radii
radio
radiu
radiuattivitati
radiufo
radix
rae
raeny
raf
rafael
raffadali
raffaele
raffaeli
raffaello
raffaellu
raffi
raffieli
raffiguratu
raffinari
raffinati
raffinatu
raffinazzioni
raffiuranti
raffurzamentu
raffurzari
rag
ragazza
ragazzi
ragazzo
rage
ragghiu
ragghiuni
raggi
raggia
raggiu
raggiunamentu
raggiunari
raggiungi
raggiungiri
raggiungiu
raggiuni
raggiuntu
raggruppa
raggruppati
ragione
ragiuni
ragnar
ragno
ragnu
ragu
ragumari
ragusa
rah
rai
raid
raikkonen
raimunnu
rain
rainbow
rainulfu
raisi
raiu
raji
rale
rali
rally
raloggiu
ralogiu
ralph
ram
rama
ramanujan
rami
ramificazzioni
ramo
ramon
ramos
rampanti
ramu
ran
rana
ranciu
rancore
rancuri
randa
randi
randy
rangoon
rangu
ranieri
rannazzu
ranne
ranni
rannu
ranto
rantu
ranu
ranza
rap
rapaci
rapi
rapid
rapida
rapidamenti
rapidi
rapidu
rapimentu
rapina
rapisarda
rapisardi
rappa
rapper
rapporta
rapporti
rapportu
rappresenta
rappri
rapprise
rapprisenta
rapprisentanu
rapprisinta
rapprisintannu
rapprisintanti
rapprisintanza
rapprisintari
rapprisintaru
rapprisintata
rapprisintati
rapprisintativa
rapprisintativi
rapprisintativu
rapprisintatu
rapprisintau
rapprisintava
rapprisintazzioni
rapprocher
rapriri
rapu
rapuni
raputa
rara
raramenti
rare
rari
raritati
raru
ras
rashid
rasolu
rassegna
rassegni
rassignazzioni
rassu
rassumigghianza
rasta
rasti
rastu
rasu
rat
rata
rati
ratificatu
ratio
ration
rats
rattera
ratteri
rattu
ratu
rau
rault
rausa
rausana
rausani
rausanu
ravanzi
ravenna
ray
raymond
raz
razi
razia
razza
razzi
razzia
razziali
razzismu
razzista
razzisti
razziunali
razzu
raɾɪ
rb
rba
rbanu
rbara
rbari
rbaru
rberu
rbili
rbilu
rbira
rbiri
rbiru
rbita
rbitru
rbol
rbu
rbula
rbuli
rbulu
rburi
rburu
rc
rca
rcamu
rcanu
rcatu
rcerem
rchi
rchici
rchicu
rchiu
rcia
rcianu
rciaru
rcinu
rciri
rciru
rcita
rciti
rcitu
rcu
rcula
rculi
rculo
rculu
rcuri
rd
rda
rdanu
rdi
rdica
rdici
rdicu
rdini
rdinu
rdiri
rdita
rditi
rdiu
rdoba
rdre
rdt
rdu
rdula
rdunu
re
rea
reagan
real
reale
reali
reality
realizzatu
realizzazioni
realizzazzioni
really
realta
reason
reazioni
rebus
recente
recenti
reci
recipienti
recita
record
records
red
reda
redi
redita
reed
ref
reference
referendum
reg
regarbutu
regau
reggae
reggi
reggia
reggimi
reggina
reggio
reggione
reggioni
reggista
reggiu
reghi
regia
regime
regimi
regina
reginae
regio
regional
regionale
regione
regioni
regis
regista
registrari
registrata
registrati
registration
registratu
registrazioni
registro
registry
regna
regni
regno
regnu
regnum
regula
regular
regulari
reguli
rei
reilly
reims
reinhold
reining
reitano
reitherman
rejewski
related
relativa
relativamenti
relativi
relativitati
relativity
relazioni
relazzioni
release
released
religion
religioni
reliquia
reloj
rem
remained
rembrandt
remi
remix
remixes
remu
ren
rena
renato
renatu
renault
rence
rende
rendere
rendi
rene
renni
renniri
reno
renoir
renti
renu
renza
renzi
renzo
renzu
reperti
report
reporter
reprise
reptilia
repu
repubblica
republic
request
requisiti
rera
rerum
res
resa
research
reshe
resi
resident
resin
resistenza
resolution
resource
respiro
response
rest
resta
reste
resti
resto
restu
restunu
resu
result
ret
retake
rete
reti
retrieved
retro
retrum
retta
retti
rettili
rettore
rettu
return
reuli
revealed
revenge
review
revisited
revista
revival
revolution
rex
reykjavi
reynolds
rez
rezanov
rfani
rfanu
rfaru
rfc
rficia
rfidu
rfiru
rfitu
rfuru
rg
rgamu
rgani
rganizzazzioni
rganu
rgazi
rge
rgen
rgia
rgica
rgicu
rgini
rginu
rgiri
rgula
rgy
rhapsody
rhead
rho
rhodes
rhye
rhythm
ri
ria
riaci
rialari
rialatu
riali
rialismu
rialita
rialitati
rializza
rializzari
rializzata
rializzati
rializzatu
rializzau
rializzazzioni
rialmenti
rialta
rialtati
rialu
riami
rianu
riarmenti
riarta
riassuntu
riati
riatu
riazzioni
riazziuni
rib
ribba
ribbelli
ribbera
ribbillamentu
ribbillioni
ribbustu
ribelli
ric
rica
ricadi
ricana
ricani
ricanu
ricanuscenza
ricanusci
ricanuscimentu
ricanusciri
ricanusciuta
ricanusciuti
ricanusciutu
ricardo
ricatteri
ricavari
ricavatu
ricca
riccamenti
riccardo
riccardu
ricchezza
ricchi
ricchia
ricchizza
ricchizzi
ricci
riccia
ricciu
ricciula
ricco
riccu
rice
ricecca
ricenti
ricentimenti
ricerca
ricerche
ricerchi
ricetta
ricetti
ricevi
rich
richard
richards
richardson
richi
richiama
richiamu
richie
richiesta
richiesti
richiestu
richmond
richter
rici
ricie
ricintimenti
ricintu
ricinzioni
ricipienti
ricirca
ricircati
ricircatu
ricircatura
ricircaturi
ricis
ricita
ricitari
ricitazzioni
riciventi
ricivi
riciviri
ricivituri
riciviu
ricivuta
ricivutu
rick
ricky
riclamari
rico
ricorda
ricordare
ricordi
ricordiu
ricordu
ricostruita
ricota
ricotta
ricriari
ricriazzioni
ricu
ricumpensa
ricumpenza
ricumpinzari
ricunfirmatu
ricunquista
ricunuscimentu
ricuperta
ricupertu
ricupirari
ricupiratu
ricurda
ricurdamu
ricurdannu
ricurdari
ricurdata
ricurdatu
ricurrenti
ricurrenza
ricurri
ricustruiri
ricustruita
ricustruzzioni
rid
rida
ridatturi
ridazzioni
riddi
riddu
ridduttu
ride
rider
ridi
ridottu
ridu
riduci
ridutti
riduzzioni
rie
rieca
rieci
ried
riedizioni
riego
riei
riemann
riesce
riesi
rieti
rieur
riez
rif
rifa
rifabbricatu
rife
riferimenti
riferimentu
riferimientu
riff
rifi
rifire
rifirenna
rifirenti
rifirenza
rifiri
rifirimenti
rifirimentu
rifiriri
rifirisci
rifirutu
rifiuta
rifiutannu
rifiutari
rifiutau
rifiuti
rifiuto
rifiutu
rifle
riflessi
rifletta
rifletti
riflissioni
riforma
riformi
rifrazzioni
rifriddatu
rifuggiati
rifuggiu
rifunnazzioni
rifurma
rifurmi
rifurmista
rifurmisti
rig
riga
rigalari
rigalu
rigatteri
riggenti
riggenza
riggi
riggia
riggimi
riggina
rigginedda
riggini
rigginotta
riggio
riggioni
riggista
riggisti
riggistra
riggistrannu
riggistrari
riggistraru
riggistrata
riggistrati
riggistratu
riggistrau
riggistrazzioni
riggistro
riggistru
riggitanu
riggiu
riggiuna
riggiunali
riggiuni
riggiuta
riggiutu
righi
right
rightarrow
rights
rigina
rigioni
rigistrari
rigistrata
rigistrati
rigistratu
rigistrazioni
rigistrazzioni
rigistro
rignanti
rignari
rignau
rignava
rignu
rigu
rigua
riguarda
riguardanti
riguardari
riguardu
rigulamentu
rigulari
rigularmenti
rigulizia
rigulizzia
riguri
rigurusa
rii
riiddu
riina
rijalari
rijalu
rijsini
rila
rilasciu
rilassu
rilativa
rilativamenti
rilativi
rilativita
rilativitati
rilativu
rilazzioni
rilevi
rilevu
riley
rili
rilievi
rilievu
riliggi
riliggioni
riliggiuni
riliggiusa
riliggiusi
riliggiusu
riligiuni
riligiusa
riligiusi
riliqui
riliquia
riliquiariu
riliquii
rilivanti
rilivanza
riloggiu
rilogiu
rilu
rim
rima
rimanenti
rimani
rimarra
rimasi
rimasta
rimasterizzata
rimasterizzatu
rimastu
rimati
rimaturi
rime
rimediu
rimi
rimiggiu
rimini
rimintali
rimiti
rimitu
rimotu
rimpro
rimpruvirari
rin
rina
rinaldo
rinaldu
rinali
rinardu
rinascimentu
rinascimintali
rinascita
rinasciuta
rinatu
rinchiazzata
rine
rinesci
rinforzi
rinforzu
ring
ringo
rings
rini
rinisceru
rinisci
rinisciri
rinisciu
rinisciutu
rinne
rinnennu
rinneru
rinni
rinnigari
rinnovu
rinnuta
rinnuti
rinnutu
rinnuvamentu
rinnuvari
rinnuvatu
rintra
rinu
rinumatu
rinuncia
rinunciari
rinunzia
rinusi
rio
rioja
ripara
riparari
riparazzioni
riparti
ripartizzioni
ripartu
riparu
ripe
riperti
ripi
ripigghia
ripigghiari
ripigghiaru
ripigghiata
ripigghiatu
ripigghiau
ripirto
ripirtoriu
ripitizzioni
ripituta
ripituti
riplicari
riporta
riposo
ripostu
riposu
ripresa
ripresi
riprisa
riprissioni
riprissiuni
riproduzzioni
riprudu
ripruduci
ripruduzzioni
ripu
ripubblica
ripubblicanu
ripubbrica
ripubbricana
ripubbricani
ripubbricanu
ripubbricatu
ripurtari
ripurtata
ripurtati
ripurtatu
ripusari
riputazzioni
riquisiti
riri
ririsi
ris
risa
risacca
risalenti
risali
risata
riscattu
rischi
rischiu
risci
riscontra
riscuperta
riscussioni
rise
riserva
riservi
risi
risidenti
risidenza
risidinziali
risidui
rising
risinni
risirvata
risirvati
risirvatu
risistenti
risistenza
risisti
risistiri
riso
risoluzzioni
risorgimento
risorgimentu
risorsi
rispe
rispettivamenti
rispetto
rispettu
rispi
rispirari
rispiratoriu
rispirazzioni
rispiru
rispittari
rispittati
rispittatu
rispittivamenti
rispittivi
risposta
risposti
rispu
rispunni
rispunnuta
rispunsabbili
rispunsabbilitati
rispunza
rispunzabbilitati
rispusi
rispusta
rissi
rista
ristampa
ristampatu
ristannu
ristanti
ristari
ristaru
ristata
ristati
ristatu
ristau
ristauratu
ristaurazzioni
ristava
risti
risto
ristoranti
ristoru
ristrizzioni
ristrutturazzioni
risturanti
risu
risulta
risultannu
risultati
risultato
risultatu
risuluzzioni
risunanza
risurgimentu
risursa
risursi
risurta
risurtati
risurtatu
rit
rita
ritanu
ritardu
ritchie
rite
riteni
ritennu
riti
ritini
ritino
ritinuta
ritinuti
ritinutu
ritira
ritirari
ritirata
ritirau
ritiro
ritiru
ritmi
ritmica
ritmo
ritmu
rito
ritorna
ritornello
ritorno
ritornu
ritratti
ritratto
ritrattu
ritru
ritruvamenti
ritruvamentu
ritta
rittanculari
rittangulari
ritti
rittu
ritturi
ritu
rituali
rituni
riturnari
riturnau
riturnellu
riturno
riu
riudu
riulari
riuni
riunificazzioni
riuniona
riunioni
riuniti
riuri
riuzzu
riva
rivali
rivalitati
rivardari
rivardu
rivata
rivati
rive
rivela
river
rivera
rivers
riversa
rivi
riviera
rivilau
rivilazzioni
rivinnicazzioni
rivinusa
rivisioni
rivista
rivisti
rivistimentu
rivolta
rivolti
rivoluzione
rivoluzioni
rivoluzzioni
rivorta
rivorti
rivota
rivoti
rivotu
rivu
rivulta
rivuluzzioni
rivuluzziunari
rivuluzziunaria
rivuluzziunariu
rivurtura
rivurtusi
rivuta
riz
rizza
rizzagghiu
rizzetta
rizzettu
[...]
