!
"
#
##0
##1
##10
##11
##12
##13
##14
##15
##16
##17
##18
##19
##2
##20
##21
##22
##23
##24
##25
##26
##27
##28
##29
##3
##30
##31
##32
##33
##34
##35
##36
##37
##38
##39
##4
##40
##41
##42
##43
##44
##45
##46
##47
##48
##49
##5
##50
##51
##52
##53
##54
##55
##56
##57
##58
##59
##6
##60
##61
##62
##63
##64
##65
##66
##67
##68
##69
##7
##70
##71
##72
##73
##74
##75
##76
##77
##78
##79
##8
##80
##81
##82
##83
##84
##85
##86
##87
##88
##89
##9
##90
##91
##92
##93
##94
##95
##96
##97
##98
##99
$
%
&
'
(
)
*
+
,
-
.
/
0
00
000
0000
000000
000080
001
002
003
004
0047
005
0054
006
007
008000
0087
009
01
011
013
014
016
017
018
02
020
022
023
026
029
03
031
033
04
043
047
05
050
052
06
068
07
079
08
081
088
09
090
1
10
100
1000
10000
1001
101
1010
10100
1011
1012
1013
1014
1015
1016
1017
1018
1019
102
1020
1021
1024
1025
1027
103
1030
1031
1033
1035
1036
1038
1039
104
1040
1041
1042
1044
1045
1046
1047
1048
105
1050
1051
1053
1054
1055
1056
1057
1058
1059
106
1060
1061
1062
1063
1064
1066
1067
107
1070
1071
1072
1074
1076
1078
108
1080
1084
1085
1086
1087
1088
109
1090
1091
1092
1093
1094
1095
1098
1099
11
110
1100
1101
1104
1105
1108
1109
111
1110
1111
1112
1114
1116
1117
1118
112
1120
1121
1122
1123
1124
1125
1126
1127
1129
113
1130
1131
1134
1135
1137
1138
1139
114
1140
1143
1145
1147
1148
1149
115
1150
1151
1152
1153
1154
1155
1156
1159
116
1160
1161
1162
1163
1164
1165
1166
1167
1169
117
1170
1171
1172
1175
1177
118
1180
1181
1183
1185
1186
1187
1189
119
1190
1191
1193
1194
1197
1198
1199
12
120
1200
1202
1205
1206
1209
121
1210
1215
1216
122
1220
1221
1224
1225
1226
1227
1228
1229
123
1230
1231
1232
1236
1239
124
1240
1242
1249
125
1250
1252
1254
1258
126
1260
1261
1262
1265
1266
1267
1268
127
1270
1272
1276
1277
128
1280
1282
1284
1285
1287
129
1290
1291
1294
1296
1299
13
130
1300
1302
1305
1307
1309
131
1310
1319
132
1320
1321
1322
1327
1328
133
1330
1333
1336
1337
1339
134
1340
1341
1342
1346
1347
135
1350
1351
1352
1353
1355
1358
1359
136
1360
1363
1365
137
1370
1371
1372
1374
1376
1377
1378
138
1380
1381
1383
1384
1389
139
1390
1391
1392
1396
1397
14
140
1400
1404
1406
1408
1409
141
1410
1412
1414
1416
1419
142
1420
1423
1429
143
1430
1431
1434
1436
1437
144
1440
1442
1443
1444
1445
1446
1447
1448
1449
145
1450
1451
1452
1453
1454
1455
1457
1458
146
1460
1461
1463
1464
1467
1468
1469
147
1470
1471
1472
1473
1474
1475
1476
1478
1479
148
1480
1483
1484
1485
1487
1488
1489
149
1490
1491
1492
1493
1494
1495
1497
1498
1499
15
150
1500
1502
1503
1504
1506
1507
1508
1509
151
1510
1511
1512
1513
1514
1515
1516
1517
1518
1519
152
1520
1521
1522
1523
1524
1525
1526
1527
153
1530
1531
1532
1533
1534
1535
1536
1538
1539
154
1540
1541
1542
1543
1545
1546
1547
1548
1549
155
1550
1551
1552
1553
1554
1555
1556
1557
1558
1559
156
1560
1561
1562
1563
1564
1565
1566
1567
1568
1569
157
1570
1571
1572
1574
1575
1576
1577
1578
1579
158
1580
1581
1582
1584
1585
1587
1588
1589
159
1590
1591
1592
1593
1594
1595
1596
1597
1598
1599
16
160
1600
16000
1601
1602
1603
1604
1605
1606
1607
1608
1609
161
1610
1611
1612
1613
1614
1615
1616
1617
1618
1619
162
1620
1621
1622
1623
1624
1625
1626
1628
1629
163
1630
1631
1632
1633
1634
1635
1636
1637
1638
1639
164
1640
1641
1642
1643
1644
1645
1646
1647
1648
1649
165
1650
1651
1652
1653
1654
1655
1656
1657
1658
1659
166
1660
1661
1662
1663
1664
1665
1666
1667
1668
1669
167
1670
1671
1672
1674
1675
1676
1677
1678
1679
168
1680
1681
1682
1683
1684
1685
1686
1687
1688
1689
169
1690
1691
1692
1693
1694
1695
1696
1697
1698
1699
17
170
1700
17000
1701
1702
1703
1704
1705
1706
1707
1708
1709
171
1710
1711
1712
1713
1714
1715
1716
1717
1718
1719
172
1720
1721
1722
1723
1724
1725
1726
1727
1728
1729
173
1730
1731
1732
1733
1734
1735
1736
1737
1738
174
1740
1741
1742
1743
1744
1745
1746
1747
1748
1749
175
1750
1751
1752
1753
1754
1755
1756
1757
1758
1759
176
1760
1761
1762
1763
1764
1765
1766
1767
1768
1769
177
1770
1771
1772
1773
1774
1775
1776
1777
1778
1779
178
1780
1781
1782
1783
1784
1785
1786
1787
1788
1789
179
1790
1791
1792
1793
1794
1795
1796
1797
1798
1799
18
180
1800
1801
1802
1803
1804
1805
1806
1807
1808
1809
181
1810
1811
1812
1813
1814
1815
1816
1817
1818
1819
182
1820
1821
1822
1823
1824
1825
1826
1827
1828
1829
183
1830
1831
1832
1833
1834
1835
1836
1837
1838
1839
184
1840
1841
1842
1843
1844
1845
1846
1847
1848
1849
185
1850
1851
1852
1853
1854
1855
1856
1857
1858
1859
186
1860
1861
1862
1863
1864
1865
1866
1867
1868
1869
187
1870
1871
1872
1873
1874
1875
1876
1877
1878
1879
188
1880
1881
1882
1883
1884
1885
1886
1887
1888
1889
189
1890
1891
1892
1893
1894
1895
1896
1897
1898
1899
19
190
1900
1901
1902
1903
1904
1905
1906
1907
1908
1909
191
1910
1911
1912
1913
1914
1915
1916
1917
1918
1919
192
1920
1921
1922
1923
1924
1925
1926
1927
1928
1929
193
1930
1931
1932
1933
1934
1935
1936
1937
1938
1939
194
1940
1941
1942
1943
1944
1945
1946
1947
1948
1949
195
1950
1951
1952
1953
1954
1955
1956
1957
1958
1959
196
1960
1961
1962
1963
1964
1965
1966
1967
1968
1969
197
1970
1971
1972
1973
1974
1975
1976
1977
1978
1979
198
1980
1981
1982
1983
1984
1985
1986
1987
1988
1989
199
1990
1991
1992
1993
1994
1995
1996
1997
1998
1999
2
20
200
2000
20000
2001
2002
2003
2004
2005
2006
2007
2008
2009
201
2010
2011
2012
2013
2014
2015
2016
2017
2018
2019
202
2020
2021
2022
2029
203
204
205
206
207
208
209
21
210
2100
211
212
213
214
215
216
217
218
219
22
220
2200
221
222
223
224
225
226
227
228
229
23
230
231
232
233
234
235
236
237
238
239
24
240
2400
241
242
243
244
245
246
247
248
249
25
250
2500
25000
251
252
253
254
255
256
257
258
259
26
260
261
262
263
264
265
266
267
268
269
27
270
271
272
273
274
275
276
277
278
279
28
280
281
282
283
284
285
286
287
288
289
29
290
291
292
293
295
296
297
298
299
3
30
300
3000
30000
301
302
303
304
305
306
308
309
31
310
311
312
313
314
315
316
3166
317
318
319
32
320
3200
322
323
324
325
326
327
329
33
330
331
333
334
335
336
337
338
339
34
340
341
342
343
344
345
347
348
349
35
350
3500
351
352
353
354
355
356
357
358
359
36
360
361
363
364
365
366
367
368
369
37
370
371
372
373
374
375
376
377
378
379
38
380
381
382
383
384
385
386
387
389
39
390
391
392
393
394
395
396
397
398
399
4
40
400
4000
40000
401
402
403
404
405
406
407
408
409
41
410
411
412
413
414
415
416
417
418
419
42
420
422
423
424
425
426
427
428
429
43
430
431
432
433
434
435
436
437
439
44
440
441
442
443
444
445
446
447
448
45
450
4500
451
452
453
454
455
456
457
458
459
46
460
461
462
463
464
465
466
467
468
469
47
470
471
472
473
474
475
476
477
478
479
48
480
481
482
483
484
485
486
488
489
49
490
491
492
493
495
496
497
498
499
5
50
500
5000
50000
501
502
503
505
507
508
509
51
510
511
512
513
514
515
516
517
518
519
52
520
521
522
523
524
525
526
527
528
529
53
530
531
532
533
534
535
536
537
538
539
54
540
541
542
543
545
546
547
548
549
55
550
551
552
553
554
555
556
557
558
559
56
560
561
562
563
564
565
566
567
568
569
57
570
571
572
574
575
576
577
578
579
58
580
581
583
584
585
586
587
589
59
590
592
594
595
596
597
598
599
6
60
600
6000
601
602
603
604
605
606
607
608
609
61
610
61022
614
615
616
617
618
62
620
622
623
625
626
628
629
63
630
631
632
633
635
636
637
638
639
64
640
642
643
644
645
646
647
649
65
650
652
653
654
655
657
658
66
660
662
663
668
669
67
670
671
672
673
674
675
676
678
679
68
680
681
682
683
684
685
686
687
688
689
69
690
691
692
693
695
699
7
70
700
7000
701
702
704
705
706
707
708
71
710
711
714
715
716
718
719
72
720
727
728
729
73
730
731
733
734
735
736
737
739
74
740
741
742
743
745
746
747
75
750
751
752
753
754
756
757
759
76
760
762
763
764
765
766
767
768
77
770
771
772
773
774
775
776
777
778
78
780
781
782
783
784
785
787
789
79
790
792
793
795
796
797
8
80
800
8000
800080
804
807
808
808080
809
81
810
811
812
813
814
815
816
817
818
819
82
820
821
823
824
825
826
827
828
829
83
830
831
832
833
835
836
838
839
84
840
842
843
844
845
846
847
848
85
850
851
852
853
855
856
858
859
86
860
861
862
864
865
866
867
869
87
870
871
872
873
874
875
877
878
879
88
880
881
882
883
884
885
886
888
889
89
890
891
892
894
896
897
898
899
9
90
900
901
902
903
904
907
909
91
910
911
912
913
914
915
916
917
92
920
921
925
927
929
93
930
932
934
935
937
939
94
940
942
943
944
946
947
948
95
950
951
952
953
955
956
957
959
96
960
963
964
965
966
969
97
970
972
973
975
976
977
978
98
980
981
982
983
984
985
987
988
989
99
990
992
993
995
996
997
998
999
:
;
<
=
>
?
@
\
^
_
`
a
aa
aachen
aar
aardvark
aaron
aas
ab
abate
abatellis
abati
abba
abbad
abbado
abbagna
abbainu
abballari
abballata
abballati
abballu
abbanniari
abbanniata
abbanniati
abbannuna
abbannunannu
abbannunari
abbannunaru
abbannunata
abbannunati
abbannunatu
abbannunau
abbannunu
abbas
abbasa
abbasciu
abbassidi
abbasta
abbastanti
abbastanza
abbastari
abbate
abbati
abbatti
abbazia
abbazzia
abbe
abbeni
abbentu
abbersu
abbessa
abbi
abbia
abbiamo
abbiati
abbicina
abbicinu
abbigghiamentu
abbilardu
abbili
abbilita
abbilitati
abbilitazzioni
abbillimentu
abbini
abbinimenti
abbinimentu
abbinni
abbinturi
abbinuta
abbinutu
abbirsari
abbiso
abbisogna
abbisognu
abbissa
abbisugna
abbita
abbitanti
abbitanu
abbitata
abbitati
abbitativa
abbitatu
abbitau
abbitava
abbitazzioni
abbiti
abbitu
abbituali
abbituarmenti
abbituddini
abbitudini
abbiviratura
abbolu
abbontiu
abbortu
abbra
abbramu
abbrasioni
abbrazza
abbrazzari
abbrei
abbreu
abbrev
abbreviazioni
abbriviatu
abbriviazzioni
abbru
abbrucia
abbruciari
abbruciata
abbruciati
abbruciatu
abbrunzatu
abbruzzi
abbruzzu
abbucatu
abbuccatu
abbulari
abbulizzioni
abbunnanti
abbunnanza
abburi
abbusi
abbusu
abc
abd
abdallah
abdelmajid
abdicazzioni
abdul
abdullah
abe
abel
abertzale
abi
abitanti
abitato
abitatu
abiti
abittanti
abitu
aboriginal
about
above
abraham
abramo
abreu
abruzzo
abruzzu
absidi
absolute
abu
abul
ac
aca
acade
academia
academy
acampora
acca
accabba
accabbari
accabbata
accabbatu
accabbau
accabbo
accade
accademia
accademica
accademici
accademicu
accadi
accaduti
accamadora
accamora
accanto
accantu
accanusciuta
accanusciutu
accanzari
accanzata
accanzau
accapa
accapari
accapau
accapitari
accasioni
accatta
accattari
accattati
accattatu
accattau
accattava
accatto
acce
acceddi
accentata
accenti
accentu
access
accessu
accetta
acchi
acchia
acchiana
acchianannu
acchianari
acchianata
acchianatu
acchianau
acchiappa
acci
accia
acciaiu
acciari
acciati
acciduti
acciliraturi
accilirazzioni
accintata
accintati
accipiter
accisioni
accissi
accissoriu
accitta
accittamu
accittari
accittata
accittati
accittatu
accittau
accittazzioni
acciu
accizzioni
acco
accogghi
accolti
accordi
accordiu
accordo
accordu
account
accreditata
accreditati
accriditati
accriditatu
accu
accuddi
accume
accumencia
accumenza
accumenzanu
accumi
accumincia
accuminciannu
accumincianu
accuminciari
accuminciaru
accuminciarunu
accuminciata
accuminciatu
accuminciau
accumincio
accuminza
accuminzagghia
accuminzai
accuminzannu
accuminzanu
accuminzari
accuminzarru
accuminzaru
accuminzata
accuminzatu
accuminzau
accuminzava
accuminzo
accumpagna
accumpagnamentu
accumpagnari
accumpagnata
accumpagnati
accumpagnatu
accumpagnava
accumpagno
accumpari
accumudamentu
accumudazzioni
accumulari
accumulu
accupa
accupata
accupati
accupatu
accupau
accupazzioni
accuppiamenti
accura
accurata
accurati
accurdari
accursiu
accurzata
accurzati
accurzatu
accusa
accusata
accusati
accusativu
accusatu
accusi
accussi
accussidditta
accussidditti
accussiddittu
accussini
ace
acedda
aceddi
aceddu
aceh
achi
achille
achilli
achraf
aci
acid
acidi
acidu
acireale
aciriali
aciti
acititati
acitu
acitusita
acqua
acquarica
acquaviva
acque
acqui
acquidottu
acquiduttu
acquisizzioni
acquistari
acquisto
acquistu
acre
acri
acro
acronimu
acrunimu
act
action
actually
acu
acussi
acustica
acustico
acuta
acuti
acutu
ad
ada
adaciu
adam
adami
adamo
adams
adamu
adans
adatta
adattamenti
adattamentu
adatti
adattu
add
adda
addams
addamu
addclass
adde
addestramentu
addettu
addevi
addevu
addhre
addhri
addi
addibbuluta
addicchiara
addicchiarata
addicchiaratu
addicchiarau
addichiara
addichiarau
addici
addicideru
addicidi
addicidiu
addicisi
addidicatu
addife
addifenni
addifenniri
addifini
addifinisci
addifinni
addimanna
addimentri
addimustra
addimustrari
addimustrau
addio
addipe
addipenni
addipinnenti
addiri
addiriggiutu
addirittura
addiriva
addiscri
addiscrivi
addisi
addisignatu
addison
addistramentu
additta
addivamentu
addivari
addivata
addivatu
addive
addiveni
addiventa
addiventanu
addiventau
addiversi
addivi
addividi
addivinennu
addivini
addivinni
addivinta
addivintannu
addivintari
addivintaru
addivintassi
addivintata
addivintati
addivintatu
addivintau
addivintava
addivinto
addivinutu
addizzioni
addo
addomi
addoppu
addu
addulurata
adduma
addumanna
addumannannu
addumannari
addumannaru
addumannata
addumannati
addumannatu
addumannau
addumannava
addumanno
addumannu
addumari
addumata
addumati
addumatu
adduminali
addummanna
addummannanu
adduna
addunaru
addunau
addupiramentu
addupirannu
addupirari
addupirata
addupirati
addupiratu
ade
adelaide
adelasia
adelphi
aden
adenauer
adenza
adesso
adi
adiacenti
adipusi
adiquata
adirenti
adiri
adirisci
adisioni
administration
ado
adolf
adolfo
adolph
adoni
adotta
adozzioni
adranu
adria
adrian
adriana
adriano
adrianu
adriaticu
adrien
adrogabatur
adsense
aducativu
aducazzioni
aduci
adulta
adulti
adultu
adupira
adupirari
adurazzioni
aduri
adurta
adurtu
adutta
aduttata
aduttati
aduttatu
aduttau
aduzzioni
advanced
adventure
adventures
adwords
ae
aerei
aeria
aeriu
aeroporto
aeroportu
aerosmith
aerospace
af
afa
afe
affa
affaccia
affacciata
affacciati
affacciatu
affaire
affairs
affari
affascinatu
affattu
affe
afferma
afferra
affettu
afficaci
afficacimenti
affida
affidabbilita
affidata
affidatu
affinchi
affini
affirenti
affirma
affirmannu
affirmari
affirmaru
affirmatu
affirmau
affirmava
affirmazzioni
affisa
affizzioni
afflittu
affluenti
affluenza
afflussu
affreschi
affrescu
affrischi
affrittu
affruenti
affrunta
affruntari
affruntaru
affu
affunna
afganistan
afghanistan
afl
afraid
africa
african
africana
africani
africano
africanu
afrikaans
afrikaner
afro
afru
after
afternoon
ag
again
against
agapitu
agata
agatocli
agatuni
agave
age
agency
agenti
agg
agge
aggenti
aggettivi
aggettivu
aggh
agghi
agghia
agghica
agghicannu
agghicanu
agghicari
agghicaru
agghicata
agghicati
agghicatu
agghicau
agghicava
agghico
agghicunu
agghiorna
agghiri
agghiu
agghiuncennu
agghiunceru
agghiunci
agghiunciri
agghiunciu
agghiunciuta
agghiunciuti
agghiunciutu
agghiunta
agghiunti
agghiurnari
agghiusta
aggi
agginzi
agginzia
aggiografi
aggiografia
aggira
aggiri
aggisci
aggitivu
aggittivi
aggittivu
aggiu
aggiunge
aggiungi
aggiunta
aggiurnamenti
aggiurnamentu
aggiurnati
aggiusta
agglumiratu
agglumirazzioni
agglutinanti
agglutinazzioni
aggravau
aggricultura
aggrissioni
aggrissivi
aghla
aghlab
agi
agiaria
aginzia
agira
agisci
aglabbita
aglabbiti
agli
agneddu
agnello
agnes
agnesi
agni
agnosticismu
agnuni
agonizzanti
agora
agostini
agostino
agostinu
agosto
agostu
agrari
agraria
agreement
agri
agricola
agricoltura
agricula
agriculi
agricultura
agriculu
agricurtura
agrigento
agrigentu
agrigentum
agrippina
agro
agroduci
agru
agrumi
aguagghianza
aguali
aguarmenti
aguila
aguilar
aguilera
aguni
agustinu
agustu
ah
ahi
ahimaaz
ahl
ahmad
ahmadinejad
ahmed
ai
aia
aid
aidoni
aids
aieri
aiesec
ain
aina
ainu
air
airbus
aircraft
aires
airlines
airoportu
airspeed
airuportu
airways
ais
aise
aisisti
aisne
aita
aiti
aiu
aiuta
aiutanti
aiutari
aiutati
aiutatu
aiutau
aiutava
aiuti
aiuto
aiutu
aix
aja
ajacciu
aje
ajeri
ajta
aju
ajuta
ajutari
ajutu
ak
akad
akasaki
akbar
akhenaton
akrad
akragas
akrai
al
ala
alabama
alagna
alagona
alain
alan
alari
alaricu
alarm
alaska
alauda
alaudidae
alba
albacete
albanese
albanesi
albani
albania
albanisi
albano
albanu
albero
albert
alberto
albertu
albinu
albrecht
albu
album
albumina
albums
alca
alcamo
alcamu
alcantara
alcara
alceu
alco
alcol
alcool
alcun
alcuna
alcune
alcuni
alderdi
aldisio
aldo
aldrin
aldu
ale
alec
aleksandr
alencu
aleppu
aleramo
alert
alerts
alesi
alessandra
alessandria
alessandro
alessandru
alessanu
alessi
alessia
alessio
alessiu
alex
alexander
alexandre
alexis
aleziu
alfa
alfabbe
alfabbeti
alfabbetu
alfabetu
alfano
alfanu
alfieri
alfio
alfiu
alfons
alfonso
alfonsu
alfonzu
alfred
alfredo
alfredu
alga
alge
algebbrica
algebbrichi
algeri
algeria
alghi
algibbra
algiri
algiria
algori
algoritmu
alguritmi
alhambra
alhazen
ali
alia
alias
aliases
alicante
alicarnassu
alice
alicia
alicudi
alien
aliena
aligheri
alighieri
align
alikovo
alimena
alimenta
alimentari
alimentazzioni
alimenti
alimentu
alimini
alimintari
alimintatu
alimintazzioni
aliminusa
alinghi
aliscafu
alissandria
alissandru
alitalia
alittro
alittrochi
alittronica
aliva
alive
alivi
alivu
alizzioni
alkartasuna
all
alla
allah
allan
allarga
allargata
allargau
allarmi
allasca
allatu
alle
alleanza
alleati
alleggiu
allegoria
allegorichi
allegra
allegri
alleli
allen
allenaturi
allende
allevamentu
alli
alliance
allianza
allianzi
alliata
alliati
alliatu
allied
allier
allies
allievu
alligramu
alligranza
allijanza
allinamentu
allinaturi
alliniati
allivamentu
allman
allo
alloggiu
allonga
allora
allu
alluminati
alluminiu
allungamentu
allungata
allungatu
alluntana
alluntanamentu
alluntanatu
allura
alluvioni
ally
alma
almanac
almeno
almenu
almohadi
almoravidi
almost
alone
along
alonso
alpes
alpha
alphonse
alpi
alpinismu
alpinu
already
alright
als
alsazzia
also
alt
alta
altai
altamura
altanum
altare
altari
altaru
altavilla
alter
altera
alternativa
alternative
alternativu
altezza
although
alti
altirazzioni
altirnanza
altirnata
altirnativa
altirnativamenti
altirnativi
altirnativu
altitu
altitudini
altizza
alto
altra
altre
altri
altrimenti
altro
altstyle
altu
altura
alu
alugginuri
aluminiu
alunni
alva
alvaro
alvernia
alvin
alvioli
always
am
ama
amadeus
amai
amalfi
amano
amante
amanti
amara
amare
amari
amaro
amaru
amat
amata
amati
amato
amatu
amatura
amaturiali
amava
amazing
amazzoni
ambasciata
ambasciaturi
ambienta
ambientali
ambientazzioni
ambiente
ambienti
ambitu
ambra
ambroggiu
ambrogio
amburgu
ame
amedeo
amedeu
amelia
amella
amen
amenanu
amendola
amenta
amenti
amentu
america
american
americana
americano
americans
americanu
amerigu
ami
amiamo
amica
amiche
amichi
amici
amicizia
amicizzia
amico
amicu
amideu
amiens
amin
amiricana
amiricani
amiricanu
amistati
amitru
amma
ammaccari
amman
ammanca
ammasciaturi
ammassi
ammassu
ammazza
ammazzannu
ammazzanu
ammazzari
ammazzaru
ammazzata
ammazzati
ammazzatina
ammazzatini
ammazzatu
ammazzau
amme
ammeci
ammenti
ammenzu
ammeri
ammeru
ammessu
ammetti
ammi
ammienti
ammigghiura
ammigghiuramenti
ammigghiuramentu
ammigghiurari
amministra
amministrari
amministrata
amministrati
amministrativa
amministrativamenti
amministrativi
amministrativu
amministratu
amministratura
amministraturi
amministrazione
amministrazioni
amministrazzioni
amministrazziuni
ammintatu
amminua
ammiragghiu
ammirari
ammirazzioni
ammisca
ammiscata
ammiscati
ammiscatu
ammissioni
ammitau
ammittutu
ammitu
ammore
ammu
ammucca
ammuccia
ammucciari
ammucciaru
ammucciata
ammucciati
ammucciatu
ammucciuni
ammuntuata
ammurtizzati
ammuscia
ammustra
ammustrannu
ammustrari
ammustrati
ammustratu
ammustrau
ammustrava
ammutta
ammuttata
ammuttau
ammuzzu
amo
amon
among
amor
amore
amori
amoroso
amos
amour
amp
ampe
ampeliu
ampere
ampi
ampia
ampiamenti
ampiezza
amplificaturi
ampo
amr
amsterdam
amu
amundsen
amuri
amurusa
amurusi
amurusu
amy
an
ana
anacletu
anakin
anal
analfabbetismu
analfabbitismu
anali
analisi
analizzari
analuggi
analysis
anarchi
anarchia
anarchica
anarchici
anarchicu
anarchismu
anas
anassimandru
anastacia
anastasi
anastasia
anastasiu
anato
anatolia
anatomy
anatumi
anatumia
anc
anca
ance
anch
anche
anchi
anchia
anchiamenti
anchiu
anci
ancien
ancient
ancili
ancilu
anciova
anco
ancona
anconi
ancontra
ancora
ancrisi
ancu
anculari
anculi
ancura
and
andali
andalusi
andalusia
andata
andau
andava
anderb
andersen
anderson
andi
andiamo
andorra
andre
andrea
andreas
andreotti
andreu
andrew
andrews
andri
andria
andro
andromeda
andronicu
andropov
andrzej
anduvi
andy
ane
aneddi
aneddu
anfibbi
anfibbiu
anfiteatro
anfitiatru
anfruenza
angel
angela
angeles
angeli
angelica
angelis
angelo
angelu
angers
angilu
angio
angioini
angiuina
angiuini
angiuinu
anglicana
anglisi
anglo
anglu
anglusassuni
angola
angrisa
angrisi
anguilla
angulari
anguli
angulu
angus
ani
anidridi
anima
animal
animale
animali
animalia
animals
animata
animati
animation
animatu
animazzioni
anime
animi
animu
animus
anita
anka
ankh
ann
anna
annan
annanzi
annari
annata
anne
annecy
annessa
annessu
annetti
anneu
anni
annibale
annibali
annibbali
annie
annincatu
anniri
annissioni
anniversariu
anniversary
annivirsariu
anno
announces
annu
annuali
annullatu
annunca
annuncia
annunciaru
annunciata
annunciatu
annunciau
annuncio
annunciu
annunza
annunzau
annunzi
annunzia
annunziata
annunziatu
annunziau
annunzio
annunziu
annutazzioni
ano
anonima
anor
another
ans
ansa
ansaluni
anselmi
ant
anta
antares
ante
antenna
anteprima
anthology
anthony
anthus
anti
antica
anticamenti
anticchia
antiche
antichi
antichissima
antichita
antichitati
anticipari
anticipatu
anticipu
anticitera
antico
anticu
antifascista
antifascisti
antigua
antilli
antimafia
antimateria
antimilitarista
antimiridiunali
antinati
antinatu
antinna
antinni
antiochia
antipapa
antiquarium
antiressa
antiriuri
antiriurmenti
antisimitismu
antispagnolu
anto
antoine
antologia
antoluggi
anton
antonella
antonello
antonellu
antoni
antonia
antonietta
antonino
antoninu
antonio
antonioni
antoniu
antony
antoon
antrea
antri
antropo
antropolo
antropologia
antropoluggi
antru
antu
antuninu
antura
anu
anubbis
anuratu
anuri
anveci
anversa
any
anysio
anything
anyway
anzalone
anze
anzemi
anzermu
anzi
anzia
anziana
anziani
anzianu
anzichi
anzignau
ao
aoggi
aorta
aosta
ap
apa
apartheid
aperta
aperti
apertu
apertura
aperture
api
apici
apirtura
apis
apo
apollo
apolloniu
apollu
apoluggi
apostuli
apostulu
appa
appalti
apparati
apparatu
apparecchi
apparecchiu
apparent
apparenti
apparenza
appari
appariri
apparizioni
apparizzioni
apparsi
appartamentu
apparte
appartene
appartenenti
apparteni
appartennu
appartenti
appartenunu
apparti
appartinenti
appartinenza
appartini
appartininti
appartinni
appassiunati
appassiunatu
appe
appearance
appeddu
appellu
appena
appendere
appenzellu
appi
appillativu
appinnici
appinnini
appinninu
appinu
appirora
appiru
appizza
apple
applica
applicannu
applicari
applicata
applicati
application
applications
applicatu
applicazioni
applicazzioni
applied
appo
appoggiu
appoi
appoiu
appoja
appoju
apportu
apposta
appre
appressu
appricari
appricata
appricatu
appricazzioni
apprima
apprinnimentu
apprisenta
apprisentanu
apprisintau
apprizzamentu
apprizzari
apprizzata
apprizzati
apprizzatu
approcciu
approssimativamenti
approva
approx
apprufitta
apprufittannu
apprufunnimenti
apprufunnimentu
apprussimativa
apprussimativamenti
apprussimativu
appruvata
appruvati
appruvatu
appruvau
appruvazzioni
appui
appujari
appujati
appujatu
appujava
appula
appuntamenti
appuntamento
appuntamentu
appunti
appuntu
appuoi
appurtati
appuru
appussimativa
apressu
apri
april
aprile
aprili
apucalissi
apud
apulari
apuleiu
apulia
apuluggi
apus
apusto
aqua
aquila
aquileia
aquino
aquinu
aquisgrana
aquitania
aquivalenti
ar
ara
arab
araba
arabba
arabbi
arabbia
arabbu
arabi
arabia
arabo
arabu
arachnida
araciu
arafat
arago
aragona
aragonese
aragonesi
aragorn
araguna
aragunisa
aragunisi
aralar
araldica
arama
aramaicu
aran
arana
aranci
arancia
arancini
arancinu
arancio
aranciu
aranciuni
araneae
arashi
araszt
aratu
arau
arauna
araunisi
arba
arbanesi
arbani
arbania
arbanisa
arbanisi
arbanu
arbe
arberghi
arbergu
arbertu
arbitraria
arbitrariu
arbitration
arbitriu
arborea
arbum
arc
arca
arcamu
arcancilu
arcanciulu
arcangelo
arcangelu
arcati
arcella
arceri
archeolo
archeologici
archeologico
archi
archimandrita
archimedi
archio
archiolo
archiologgicu
archioluggi
archioluggu
architetti
architettu
architettura
architetturi
archititto
architittura
archiulo
archive
archivi
archivio
archiviu
archosauria
archuleta
arci
arcidiocesi
arciduca
arcipe
arcipelacu
arcipelagu
arcipreti
arcivescovo
arcivescuvu
arcivi
arciviscuvu
arco
arcova
arcu
arcuati
arcubalenu
arcumenti
arcun
arcuna
arcuni
arcunu
arde
ardenne
ardenti
ardesia
ardi
ardu
arduri
are
area
aredi
aree
arei
arena
aresta
aretha
aretusa
aretuska
arezzu
arfabbeti
arfabbetu
arfiu
arfonzu
arfredu
arg
arge
argentina
argento
argentu
argilla
argintina
argintinu
argomenti
argovia
args
argsk
argsv
argtables
argu
argument
argumenta
argumenti
arguments
argumentu
argumintazzioni
ari
aria
ariana
ariani
arianna
arianu
arias
aricchi
aricchia
aricchiu
arico
arie
ariel
arii
arina
ariostu
arista
aristaru
aristippu
aristo
aristotili
aristucra
aristucrazzi
aristucrazzia
aristute
aritme
aritmetica
ariu
ariudina
ariuna
ariuplanu
ariuporti
ariuportu
ariuprani
ariupranu
ariupurtuali
arizona
arkansas
arles
arma
armali
armalu
armamenti
armamentu
armando
armani
armata
armati
armatrading
armatu
armatura
armaturi
armena
armeni
armenia
armenio
armeno
armentu
armenu
armerina
armi
arminiu
armistizziu
armo
armocrati
armonia
armonie
arms
armstrong
armu
armuni
army
arn
arnaldo
arne
arnisi
arnold
arnoldo
arnu
aromi
around
arp
arpa
arpeggi
arpitan
arpitana
arpitania
arpitanu
arquantu
arr
arranciamenti
arranciamentu
arrangiamentu
arrapprisenta
arrassari
arrassu
array
arre
arredi
arrenni
arreri
arresta
arrestanu
arresti
arrestu
arreti
arretu
arri
arricanu
arricanusci
arricanuscimentu
arricanusciri
arricanusciu
arricanusciuta
arricanusciuti
arricanusciutu
arricava
arricavata
arricavatu
arricchimentu
arriccogghi
arriccutu
arrice
arricevi
arrici
arricivennu
arriciveru
arricivi
arriciviri
arricivitti
arriciviu
arricivutu
arrico
arricogghi
arricorda
arricri
arricria
arricriari
arricu
arricugghi
arricugghiu
arricugghiuta
arricugghiuti
arricuminazzioni
arricurda
arricurdamu
arricurdari
arricurdata
arricurdati
arricurdatu
arridamentu
arridduci
arridu
arriducennu
arriduci
arriduciuti
arrieri
arrifiri
arrifiriri
arrifirisci
arrifridda
arrifriddari
arriggistra
arriggistrati
arriggistratu
arrignau
arrigo
arrigu
arrigua
arriguarda
arriguardanu
arrilassaru
arrilassati
arrimina
arrine
arrinesci
arriniscennu
arrinisceru
arrinisceva
arrinisci
arrinisciu
arrinisciuti
arrinisciutu
arrinni
arripe
arripigghia
arripigghiata
arripigghiau
arriporta
arripruduci
arripurtati
arripurtatu
arripusari
arrisbigghiari
arriso
arrispu
arrispunni
arrispunniri
arrispunniu
arrista
arristannu
arristari
arristaru
arristata
arristati
arristatu
arristau
arristava
arristo
arrisurta
arrisurtau
arriteni
arritira
arritirau
arritiro
arritorna
arritrova
arritruvati
arritruvau
arriturna
arriturnannu
arriturnau
arriuni
arriva
arrivannu
arrivanu
arrivari
arrivaru
arrivarunu
arrivata
arrivati
arrivatu
arrivau
arrivo
arrivu
arrivunu
arrobba
arrondissement
arrow
arru
arrubba
arrubbari
arrubbaru
arrubbati
arrustuti
arruva
ars
arsen
arsinali
arsira
art
artali
artari
artaru
arte
artemisia
arteri
arteria
arterii
arthropoda
arthur
arti
article
articles
articoli
articolo
articu
articula
articulari
articulata
articulati
articulatu
articulazzioni
articuli
articulu
artificiale
artificiali
artigghi
artiggianali
artiggianatu
artiggiani
artiggianu
artiriola
artirioli
artiriusi
artist
artista
artisti
artistica
artistichi
artistici
artisticu
artists
artro
artropoda
arts
artu
arturo
arturu
aru
arubba
aruma
arumatizzati
arumatizzatu
arvensis
arvulu
arzari
as
asa
asad
asafa
asbagh
asburgu
ascap
asci
ascia
ascianu
asciari
asciata
ascidda
ascinzioni
asciutta
ascoli
ascoltatori
asculi
ascuta
ascutari
ascutu
ase
asempi
asempiu
asercitu
ash
ashes
asi
asia
asian
asiatica
asiatici
asiaticu
asile
asilu
asimprari
asircitata
asircizziu
asistenti
asistenza
asisti
asistunu
ask
asl
aslan
asociacio
aspa
aspe
aspects
aspetta
aspetti
aspettu
aspirazzioni
aspittannu
aspittari
aspittava
aspra
aspromonte
asprumunti
ass
assa
assad
assai
assartu
assassin
assassinatu
assassini
assassiniu
assassinu
asse
assediu
asseggiu
assemblea
assemi
assenti
assenza
assetta
assi
assicu
assicura
assicurari
assicurata
assicuratu
assicurazzioni
assicuta
assicutari
assicutatu
assidiata
assidiatu
assieme
assiemi
assigna
assignata
assignati
assignatu
assignau
assignazzioni
assimblea
assimblei
assimbrea
assimbria
assimi
assimigghia
assimila
assimilata
assimilazzioni
assioma
assiomi
assiri
assirvari
assirvazzioni
assisi
assissuri
assist
assistance
assistant
assistenti
assistenza
assisti
assitta
assittari
assittarisi
assittata
assittatu
asso
associa
associated
associates
association
associazione
associazioni
associazzioni
assolo
assolu
assolutu
assu
assuan
assuciata
assuciati
assuciatu
assuciazioni
assuciazzioni
assuciazziuni
assulu
assuluta
assulutamenti
assuluti
assulutismu
assulutu
assuma
assumennu
assumi
assumigghia
assumigghianti
assumiri
assummi
assummigghia
assunta
assuntu
assunzioni
assurbimentu
assurbiti
assurbuti
assurbutu
assurda
assurdu
asta
astati
aster
asti
astigmatismu
astiro
astiroidi
astivi
astra
astratta
astratti
astrattu
astrazzioni
astro
astroluggi
astronautica
astrono
astronomia
astronomical
astronomy
astronumi
astronumia
astronumu
astru
astruna
astrunauti
astruno
astrunomica
astrunomiche
astrunomici
astu
astura
asturi
asturiana
asturianu
astuta
asviluppau
at
ata
atalanta
atanasiu
ate
atena
atene
ateni
aternu
ath
ati
atini
atiniesi
atinisi
atkins
atla
atlanta
atlante
atlanti
atlantic
atlantichi
atlantico
atlanticu
atlas
atle
atleta
atleti
atletica
atletico
atm
atmosfe
atmosfera
atmosphere
atmusfera
ato
atollu
atomi
atomic
atomica
atomiche
atomicu
atomu
atp
atr
atra
atri
atriu
atru
atta
attacca
attaccannu
attaccanti
attaccanu
attaccari
attaccaru
attaccata
attaccati
attaccatu
attaccau
attacchi
attaccu
attack
attagghiu
atte
attempt
atteni
attenta
attention
attenzione
atterra
attesta
atti
attica
attiggiamentu
attila
attileta
attiliu
attille
attilleta
attilleti
attimusfe
attimusfera
attimusferica
attintati
attintatu
attinzioni
attira
attirraggiu
attirrau
attisa
attistata
attitu
attiva
attivamenti
attivati
attivi
attivista
attivisti
attivita
attivitati
attivu
atto
attocca
attonna
attore
attori
attorna
attornu
attr
attrai
attratta
attrattiva
attrattivi
attrattu
attratturi
attrave
attraversa
attraverso
attraversu
attravirsamentu
attravirsannu
attravirsari
attravirsata
attravirsati
attravirsatu
attravirsau
attrazzioni
attrezzi
attrezzu
attribbui
attribbuiri
attribbuisci
attribbuita
attribbuiti
attribbuitu
attribbuti
attribbuzzioni
attribuzzioni
attrice
attrici
attritu
attrizzatu
attrizzatura
attrizzaturi
attro
attrova
attrovanu
attrovi
attrovu
attrovunu
attruova
attruva
attruvamu
attruvanu
attruvari
attruvaru
attruvassi
attruvata
attruvati
attruvatu
attruvau
attruvava
attruvavanu
attruvo
attu
attuale
attuali
attualitati
attualmente
attualmenti
attuari
attuarmenti
attuata
attuazzioni
attuornu
attura
atturi
atturrati
atu
atumi
atumu
au
aube
aucibbiadi
auckland
audaci
audacity
aude
audio
audiu
auf
auge
augghia
auguri
august
augusta
auguste
augustin
augusto
augustu
augustulu
augustus
aula
auli
aume
aumenta
aumentu
aumintannu
aumintari
aumintau
aundi
aung
aunni
aurelio
aureliu
aurelius
auri
auropa
auropea
aurora
aurum
aurupei
aus
auschwitz
ausiliare
ausiliari
ausoni
ausoniu
austa
austin
austinu
australi
australia
australian
australiana
australiani
australianu
australis
austrasia
austri
austria
austriaca
austriaci
austriacu
austru
austu
aut
auta
autamenti
autavilla
aute
autem
autentica
authority
auti
autizza
auto
autobus
autobussi
autobussu
automatica
automaticamenti
automo
automutrici
autonoma
autonomia
autonomie
autonuma
autonumi
autonumu
autore
autori
autorita
autoritati
autostrada
autostrata
autostrati
autra
autre
autres
autri
autrici
autrimenti
autro
autru
autu
autubussi
autuchianu
autuditirminazzioni
autuma
autumaticamenti
autumo
autunnu
autuno
autunumi
autunumia
autunumii
autura
auturi
auturita
auturitariu
auturitati
auturitrattu
auturizzata
auturizzati
auturizzazzioni
autustrata
autustrati
aux
av
ava
avampostu
avana
avanguardia
avanti
avanzamentu
avanzari
avanzata
avanzati
avanzatu
avanzau
avari
avaru
ave
avellino
avellinu
avemu
avena
avendu
avengers
avennu
aventi
avenu
avenue
aver
average
avere
aversa
aves
aveva
avevanu
aveyron
avi
avia
avianu
aviation
aviazzioni
avie
aviemu
aviennu
avieunu
avieva
avignuni
avila
avillinu
aviri
avissa
avissi
avissiru
aviti
aviunu
aviv
aviva
avja
avogadro
avoirdupois
avola
avoliu
avon
avoriu
avra
avrebbe
avri
avrili
avu
avula
avuta
avuti
avutra
avutri
avutru
avutu
avveni
avventu
avventura
avventure
avvenuta
avverbi
avverbiu
avverbu
avveri
avvi
avvicina
avvicinari
avvicinau
avvicino
avvidiri
avvilinatu
avvini
avvinimenti
avvinimentu
avvinni
avvintura
avvinturi
avvinuta
avvinutu
avvirsari
avvirsariu
avvistamentu
avvisu
avvocato
avvucatu
award
awards
away
ax
axel
axl
ay
az
azawad
azegliu
azienda
azione
azioni
aziz
azov
azteca
aztechi
aztecu
azul
azur
azza
azzardu
azzaru
azzienda
azziendi
azzienna
azzienni
azzioni
azzira
azzirbaiggian
azziuna
azziuni
azzizzati
azzoe
azzola
azzolu
azzorri
azzotu
azzu
azzurra
azzurri
azzurro
azzurru
b
ba
baari
baarle
baba
babbaluci
babbi
babbiari
babbilunisi
babbu
babelfish
babes
baby
bacall
baccala
bacchetta
bacchilu
baccialona
bach
bacilico
bacinu
bacio
back
backed
background
backtranslate
backvocal
bacon
bad
badalamenti
badda
baddo
badduttaggiu
badduttuleri
baden
badi
badia
baez
bafe
bafeddu
baffi
bafigghia
bagari
bagdad
bagghiu
baggio
baghda
baghdad
baghdadi
bagheria
baglioni
bagnara
bagni
bagnoli
bagnu
baha
bahamas
bahia
bahr
bahrain
bahrein
bai
baia
baikal
bailadores
bailey
baja
baker
bakr
baku
bakunin
balance
balati
balb
balca
balcani
balcanica
baldini
balena
baleni
bali
baliari
balinisi
balistreri
ball
balla
ballari
ballaro
ballata
ballati
ballet
ballettu
balli
ballirina
ballo
ballu
balluttaggiu
balniari
balsamo
baltazar
balticu
baltimore
baluardu
balzu
bam
bambina
bambini
bambino
bambu
bammineddu
bamminu
ban
banach
banali
banat
banca
banchi
bancu
band
banda
bandera
bandi
bandiera
bandini
banditi
bando
bang
bangaluri
bangkok
bangladesci
bangladesh
bangles
banjo
bank
banks
banna
banne
bannera
banneri
banni
bannu
bantu
bantustan
bao
baptiste
bar
bara
barack
barak
barba
barbados
barbara
barbari
barbarossa
barbaru
barbarussa
barbera
barbieri
barbuda
barca
barcellona
barcelona
barchi
barcillona
barcuna
barcuni
baresi
bari
baricentru
bariju
barili
barisi
barker
barks
barlaam
barletta
barngarla
barniari
baro
barocca
barocchi
baroccu
baronale
barone
barra
barrafranca
barrancu
barrera
barrett
barriera
barrio
barriu
barroso
barrow
barry
barsa
barthe
bartholdy
bartolomeo
bartolomeu
barton
bartulumeu
baruch
baruna
barunali
baruni
barunissa
bas
basa
basal
basamentu
basannusi
basata
basati
basatu
basca
baschi
bascia
basciu
basco
bascu
base
baseball
based
basel
bash
bashar
bashkimi
basho
basi
basic
basie
basilari
basile
basilea
basili
basiliani
basilianu
basilica
basilicata
basilico
basiliu
basinger
basket
basketball
bass
bassa
basse
bassey
bassi
bassista
basso
bassu
basta
bastanti
bastardo
bastia
bastianu
bastigghia
bastille
bat
bataille
batasuna
bates
bati
batia
batissa
batista
batman
bats
batta
battagghi
battagghia
battagghiuni
battaghia
battaglia
battari
battarista
batte
battennu
battenti
batteri
batteria
batterista
batteriu
batteru
battesimu
batti
battiato
battiatu
battiri
battiria
battirista
battisimali
battista
battisti
battiu
battle
battuta
battuti
battutu
baudelaire
baudrillard
baudu
baumgartner
bavarisi
baviera
baxter
bay
bayer
bayern
bayrou
bb
bba
bbacu
bballari
bbanna
bbanu
bbasi
bbatu
bbc
bbe
bbedda
bbeni
bbi
bbia
bbica
bbichi
bbici
bbicu
bbili
bbini
bbira
bbiri
bbiru
bbita
bbitanu
bbiti
bbitu
bbiu
bblica
bblichi
bblici
bblicu
bbona
bboni
bbonu
bbova
bbranu
bbri
bbria
bbrica
bbricanu
bbrichi
bbrici
bbricu
bbridu
bbrudi
bbuca
bbula
bbuli
bbulu
bbura
bburracu
bburu
bbutu
bc
bd
be
beach
beans
bear
bears
beast
beastie
beat
beata
beati
beatles
beato
beatrice
beatu
beau
beaucaire
beaujolais
beautiful
beaux
bec
because
beccaria
beccu
beck
beckett
become
becomes
becquerel
bed
bedda
beddi
beddu
bee
beeb
been
beethoven
before
began
begin
beginning
begins
behind
bei
beic
beijing
being
beirut
bel
bela
belbo
belga
belgi
belgio
belgiu
belgradu
belice
belici
believe
belisariu
belisarius
belize
belizi
bell
bella
belle
bellecour
bellezza
belli
bellini
bellissima
bello
bellow
bells
bellu
bellunu
belluvidiri
belmunti
belo
below
belpassu
belvedere
ben
benanti
benavert
benazir
benchi
bene
benedetti
benedetto
benedicta
benet
beneventu
bengala
bengasi
beni
benigni
benin
benito
benitu
beniventu
benjamin
benna
bennett
benny
benoi
benson
bensu
benth
benzi
beppe
beppi
ber
berbera
berberi
berberian
berg
bergamu
bergiu
bergman
bergomi
bergson
berillu
bering
berio
berkeley
berlin
berlino
berlinu
berlusconi
bermuda
berna
bernard
bernardino
bernardo
bernardu
bernat
berners
bernhard
bernini
bernoulli
berre
berry
bersani
bert
berta
bertarelli
berte
bertha
bertini
bertrand
bertu
besame
bessel
bessie
best
besti
beta
betlemmi
bettina
betty
between
beverly
beyonce
beyond
bf
bg
bh
bhp
bhutan
bhutto
bi
biaggiu
biagi
biagio
bianca
biancastru
biancavilla
bianche
bianchi
bianco
biancu
biata
biati
biatificatu
biatrici
biatu
bibbia
bibbliografi
bibbliografia
bibblioteca
bibbliugrafi
bibbliuteca
bibbriugrafi
biblichi
bibliografi
bibliografia
biblioteca
bibliuteca
bibriugrafi
biccaria
biccheri
bicchieri
bicchirata
bicchirinu
bici
bicicletta
bicicletti
bicycle
biddi
biddizza
biddizzi
bieber
biella
biellese
bielorussia
bielurussa
bielurussia
bielurussu
bienne
big
biglietteria
biglietti
bigliettu
bijou
bike
bikini
bilanciu
bilbao
bilbilis
bili
biliardu
biliari
bilingual
bilinguali
bilingui
bilinguismu
bilio
biliuni
bill
billboard
billie
billy
bim
bin
binari
binaria
binariu
binary
binchi
binci
bine
bingen
binh
bini
binidici
biniditta
binidittina
binidittini
binidittinu
binidittu
binidizzioni
binificenza
binifici
binificiu
binistanti
binitu
biniventu
binomia
binomiu
bint
binumiali
binzina
bio
biografi
biografia
biography
biolo
bioluggi
bioluggu
biondi
biota
bip
birbanti
birbau
bird
birdo
birkirkara
birlinu
birmania
birmanu
birmingham
birnardinu
birnardu
birra
birri
birsagghiu
birth
birthday
biru
bis
bisanziu
biscagghia
biscari
bishop
bismarck
bisogna
bisogni
bisognu
bissau
bit
bites
bitti
biuggrafia
biugra
biugrafi
biugrafia
biulo
biunnu
bivanna
bivi
bivona
bivonaantica
bivunisa
bivunisi
bixiu
bizantina
bizantini
bizantinu
bizzantina
bizzantini
bizzantinu
bjarne
bjorn
bjs
bl
black
blackburn
blah
blair
blaise
blake
blanc
blanca
blas
blasi
blatter
ble
blica
blind
bliss
bloc
blocca
blocchi
blocco
bloccu
bloch
block
blockade
blog
blois
blonde
blondie
blood
blows
blu
bluccari
bluccatu
blue
bluegrass
blues
blunt
bluth
bmi
bmw
bn
bo
board
boat
bob
bobbiu
bobby
boca
bocca
boccacciu
boccoli
boccone
bocconi
bocelli
body
boeing
boemi
boemunnu
bohemian
bohr
boing
bois
bokma
bolheim
boli
bolivar
bolivia
bolla
bologna
bolognesi
bolognini
bolscevica
bolsena
bolt
boltzmann
bomb
bomba
bombay
bombing
bompiani
bon
bona
bonaccossi
bonan
bonannu
bonaparte
bonaparti
bond
bone
bonellu
bones
bonfiglio
bong
bonham
boni
bonifaciu
bonn
bonner
bonnie
bono
bonu
bonum
bonus
book
books
boolean
boom
bootleg
bop
borbo
borboni
bordeaux
border
bordi
bordu
borg
borges
borgia
borgo
borgu
boris
bormida
born
borodinu
borovko
borrello
borromeu
borromini
borsa
borsellino
borsellinu
borsi
borsuk
bos
bosch
boschi
bosco
boscu
bosnia
bosoni
boss
bossi
boston
bot
bota
botanica
boteller
both
botswana
botta
botti
botticelli
bottom
bottomed
bottu
bouches
boudry
boulogne
bound
bova
bovalinu
bovi
bowie
bowl
bowling
bowman
box
boxe
boxing
boy
boyd
boyer
boyle
boys
br
bra
brabham
braccu
braci
brad
bradley
braga
bragg
brahe
brahma
brahms
branca
brancacciu
brancati
branchi
branciforti
brand
brando
brani
branu
braque
bras
brasi
brasile
brasileira
brasili
brasiliana
brasiliani
brasilianu
brassica
bratislava
bravi
bravu
bray
brazil
brazilian
brazza
brazzaville
brazzu
bre
break
breaker
breakfast
breaking
breakthru
breath
breccia
brega
breguet
breizh
brenner
brennu
brescia
breslavia
bresse
bretagna
breton
brett
brettell
breve
brevi
brez
bri
brian
brianza
briaticu
bricanti
briciole
bridge
brief
brien
brienne
briga
brigantaggiu
brigante
briganti
brigantony
brigata
brigati
bright
brighton
brigitte
brill
brillamentu
brillanti
brindisi
bring
brinnisi
brinster
brisbane
briscula
brit
brita
britagna
britannia
britannica
britannichi
britannici
britannicu
british
britney
britta
brivetti
brivettu
briviariu
brixton
bro
broadcasting
broadway
broken
brolu
bronchi
broncu
bronti
bronzi
bronzu
brooklyn
brooks
bros
brosnan
brother
brothers
brown
browser
bru
brucculinu
bruce
bruford
brumby
bruna
brunchiali
brunei
bruni
bruno
brunu
brunzu
bruschi
brutalitati
brutti
bruttu
brutu
bruxelles
bruzi
bruzzi
bryan
brydone
bs
bt
btu
bu
bua
buatta
buattedda
buca
bucarest
bucca
buccheri
buccolica
buchanan
buchi
buchner
buck
bucures
bud
buda
budapest
budda
buddha
buddhista
buddismu
buddista
buddisti
buddy
budokan
buenos
buezziu
bufala
bufalinu
bufalu
buffa
buffalo
buffer
buffon
bufo
bug
buggi
buggu
bugia
build
building
buimunnu
buio
bulbu
bulgakov
bulgari
bulgaria
bull
bulla
bulldogs
bullenti
bullu
bulogna
bulsara
bulsce
bum
bumma
bummardamenti
bummardamentu
bummardata
bummi
bummiata
bun
bunaca
bunny
buon
buona
buonarroti
buonu
burbo
burbona
burboni
burbuna
burbuni
burckhardt
burdellu
bureau
burgata
burgettu
burghisi
burghisia
burgisi
burgiu
burgogna
burgos
burgu
buriali
burke
burkina
burley
burma
burning
burns
burr
burrasca
bursa
bursillinu
burt
burton
burzum
bus
busa
busacca
busalacchi
buscema
buscemi
buscetta
busciu
bush
busillis
business
buster
bustu
busuttil
but
buta
butera
butler
buttigghi
buttigghia
buttitta
buttman
buttuna
buttuni
buvini
buzz
buzzanca
buzzanu
buzzettu
bw
by
byron
byte
c
ca
caballe
cabaret
cabarettista
cabbina
cabrera
cabrini
cacau
caccamu
cacchi
caccia
cacciari
cacciata
cacciati
cacciaturi
cache
caciu
caciucavaddu
caco
cacuminali
cad
cada
cadars
caddhi
caddhiste
caddhri
caddiste
cade
cadenza
caderu
cadi
cadinu
cadorna
caduta
caduti
cadutu
caesar
caetani
cafe
caffe
cafisi
cafiso
cafisu
cage
cagliari
cagliostru
caid
cairo
cairu
caiu
cakobau
cal
cala
calabbri
calabbria
calabbrisa
calabbrisi
calabrese
calabresi
calabria
calabrie
calabrisi
calabro
calafatu
calais
calamandrei
calamita
calandra
calanna
calannariu
calari
calascibbetta
calata
calatafimi
calati
calatu
calau
calavrisi
calciatore
calcidisi
calcidonia
calcina
calcio
calcistica
calciu
calcula
calculari
calculata
calculatu
calculi
calculu
calcutta
caldo
cale
cali
calia
calibbru
calici
califfatu
califffu
califfi
califfu
california
calimera
calindariu
calinnariu
call
callas
called
calligrafi
calling
callistu
calls
calma
calo
calogero
calojru
caltaggiruni
caltanissetta
caltavuturu
calu
calura
caluri
caluria
calvados
calvariu
calvin
calvinista
calvino
calvinu
calypsu
cam
camargue
camarina
camastra
cambodia
camboggia
cambridge
came
camedriu
camelus
camera
camere
cameron
camerun
cami
camiddi
camiddu
camille
camilleri
camillo
camillu
camilo
camina
caminannu
caminari
caminata
caminava
camino
caminu
camira
cammara
cammarata
cammarera
cammareri
cammi
cammino
cammisa
cammisi
camo
camorra
camp
campa
campagna
campagne
campagni
campagnoli
campagnolu
campailla
campana
campanaria
campanaru
campanedda
campanella
campani
campania
campanile
campanili
campanu
campari
camparu
campata
campatu
campau
campava
campbell
campi
campidanu
campie
campionati
campionatu
campione
campioni
campiuna
campiunati
campiunatu
campiuni
campo
campu
campubbassu
campubbeddu
campufilici
campuriali
campurutunnu
campus
camus
can
canada
canadian
canadisa
canadisi
canal
canale
canali
canari
canaria
canarii
canasciuta
canaveral
canavese
canberra
canceddi
cancella
cancelleri
canci
cancia
canciamenti
canciamentu
canciannu
cancianti
cancianu
canciari
canciaru
canciata
canciati
canciatu
canciau
canciava
cancillari
cancillata
cancillatu
cancilleri
cancio
canciu
cancru
candida
candidata
candidate
candidati
candidatu
candidatura
candidau
candy
cane
canepa
cangemi
cangia
cangiari
cani
caniatti
canicatti
canigghia
canis
canistru
canna
cannalori
cannarozza
cannarozzu
cannateddu
cannavo
cannedda
cannes
canni
cannidati
cannidatu
cannidatura
cannidaturi
cannila
cannileri
cannili
canninatu
cannistru
cannizzaro
cannizzaru
cannizzu
cannola
cannolu
cannot
cannucchiali
cannuna
cannuni
cano
canonicu
canorus
canova
canta
cantabria
cantal
cantannu
cantano
cantante
cantanti
cantari
cantaru
cantastori
cantastorie
cantata
cantati
cantatu
cantau
cantautore
cantautori
cantautrici
cantauturi
cantava
cantavanu
canterbury
canteri
canti
cantiamo
cantidatu
cantina
cantini
canto
canton
cantone
cantu
cantuna
cantuni
canu
canuni
canusce
canuscemu
canuscennu
canuscenza
canuscenzi
canusceru
canusceva
canusci
canuscia
canuscinu
canusciri
canusciu
canusciunu
canusciuta
canusciuti
canusciutu
canuttaggiu
canyon
canzilleri
canzona
canzone
canzoni
canzu
canzuna
canzuni
cao
caos
cap
capa
capaci
capacita
capacitati
capanna
capanni
caparezza
cape
capecchi
capella
capennu
capetu
capi
capiata
capiati
capiatu
capiddari
capiddi
capire
capiri
capisci
capita
capital
capitale
capitali
capitalismu
capitalista
capitalisti
capitanu
capitau
capitelli
capitol
capitolo
capitulu
capizzi
capo
capolocu
capoluogo
cappa
cappedda
cappeddu
cappella
cappelli
cappelloni
cappellu
cappelluni
cappottu
cappuccini
cappuccinu
capra
capri
capsula
captain
captcha
capture
capu
capua
capuana
capuano
capudannu
capulavoru
capuli
capulista
capulo
capulochi
capulocu
capuluo
capuluocu
capumafia
capunata
caput
caputu
car
cara
carabbinera
carabbineri
carabinieri
caracalla
caracas
caracozza
carafa
caraffa
carai
caraibbi
carattari
carattere
caratteri
caratteristica
caratteristiche
caratteristichi
caratteristici
caratterizzata
caratterizzati
caratterizzatu
carattiri
carattiristica
carattiristichi
carattiristicu
carattirizza
carattirizzanu
carattirizzata
carattirizzati
carattirizzatu
caravaggiu
carbo
carbonia
carboniu
carbuidrati
carbuni
carburanti
carca
carcagnu
carcari
carcerato
carciri
carciu
carculari
cardella
cardi
cardias
cardiff
cardinale
cardinali
carditu
cardona
cardu
carducci
carduelis
care
carenza
caretta
carey
carfizzi
cari
cariati
caribbean
carica
caricaturi
cariche
carichi
carico
cariddi
carina
carini
cario
carisma
caristi
caristia
carita
caritati
cariussidi
carizzi
carl
carla
carlo
carlos
carlotta
carlton
carlu
carlumagnu
carlumannu
carma
carmela
carmelo
carmelu
carmen
carmianu
carmidi
carmina
carmine
carmini
carminu
carnalivari
carnaluvari
carnaval
carne
carnevale
carni
carnival
carnivali
carnivora
carnivuru
carnusa
caro
carol
carole
carolina
caroline
carolus
caronda
caronti
carota
carpazzi
carpenter
carr
carrabbinera
carrabbineri
carrara
carre
carrera
carrere
carretti
carrettu
carri
carrica
carrie
carriera
carroll
carrozza
carrozzi
carru
carrubbi
carruntini
cars
carta
cartaggini
cartagginisi
cartaggiruni
cartanisetta
cartanissetta
cartapesta
carte
cartella
cartelli
cartellu
carter
cartesiu
carti
cartier
cartina
cartisianu
cartoni
cartoon
cartoonlandia
cartuna
cartuni
cartuno
caru
carulina
carusa
carusi
carusiddu
caruso
carusu
caruta
carvoniu
carvunati
carvuni
caryophyllales
carzaratu
carziri
cas
casa
casablanca
casal
casale
casali
casanova
casaranu
casata
casca
cascari
cascata
cascati
cascau
cascia
casciu
casciubbu
casco
case
casedda
caseddi
caselli
caserma
caserta
cash
casi
casino
caso
caspiu
cass
cassa
cassanu
cassata
cassateddi
cassetta
cassi
cassianu
cassibbili
cassini
cast
casta
castagna
castagnu
caste
castedda
casteddammari
casteddi
casteddu
castel
castellana
castellano
castelletto
castelli
castello
castellu
castellucciu
castelnovu
castelnuovo
castelte
castelvetranu
castelvitranu
casti
castiddana
castiddi
castiddu
castiddubbonu
castieddu
castielli
castigghia
castigghianu
castigghiuni
castiglia
castiglione
castillo
castita
castle
castrensi
castri
castriota
castro
castru
castruggiuvanni
castrugiuvanni
castrunovu
castruriali
casu
casuali
casuzza
cat
cata
catacummi
catala
catalana
catalani
catalans
catalanu
cataldu
catallu
catalog
catalogna
catalogo
catalogue
catalugazzioni
catalugna
catalugu
catalunya
catanannu
catanese
catania
catanisa
catanisi
catanzaro
catanzaru
catapurti
cataratta
catarina
cataviddotta
cate
categoria
categorie
category
catena
catene
caterina
cateti
cathedral
catherine
catholic
cathy
cati
catichismu
catidrali
catigoria
catiguri
catiguria
catigurii
catigurizzati
catigurizzazioni
catina
catinanova
catinazzu
catini
catirina
cato
catona
catoni
catprefix
catridali
cats
catta
cattabbianu
cattedrale
cattiddrali
cattidra
cattidrali
cattitrali
cattiva
catto
cattolica
cattolici
cattolico
cattolicu
cattulica
cattulice
cattura
catturari
catturati
catturatu
catturau
catu
catullu
catuna
cau
caucasu
caucettu
cauchy
cauci
cauciaturi
caucina
cauciu
cauda
caudi
cauri
cauru
causa
causannu
causanza
causari
causaru
causata
causati
causatu
causau
causi
cav
cava
cavadda
cavaddi
cavaddu
cavaleri
cavaliere
cavalieri
cavalleria
cavalli
cavalliri
cavalliria
cavallo
cave
cavea
caverna
cavi
cavita
cavitati
cavour
cavu
cavulu
caxia
cayman
cayo
cazzalora
cb
cbc
cbs
cc
cca
ccamu
ccani
ccanu
ccaru
ccasutta
ccattau
ccd
cce
cch
cche
cchi
cchia
cchie
cchii
cchina
cchio
cchiossa
cchiossai
cchiri
cchiu
cchiui
cchiunu
cchiutostu
cchiuttostu
cchju
cchu
cci
ccia
ccianu
ccillenti
ccillenza
ccioe
cciu
cciula
cciuli
cciulu
ccizzioni
ccizziunali
cco
ccrisia
cctld
ccu
ccui
ccula
cculi
cculu
ccumencia
ccuminzatina
ccunu
ccupa
ccupanu
ccuru
ccussi
cd
cdot
cdu
ce
ceca
cecchini
cece
cecenia
cechi
cecil
cecilia
cecoslovacchia
cecu
cedda
cedi
cee
cefalu
cegghij
cela
celebri
celentano
celeste
celesti
celi
celia
celibbri
celine
cell
cella
celli
cellula
cellule
celluli
celsius
celso
celti
celu
cen
cena
ceni
cenni
censimentu
census
cent
centauri
centaurus
center
centi
centiliuni
centimetru
centinagghiu
cento
centona
centorbi
central
centrale
centrali
centre
centri
centro
centru
centrucampista
centrudestra
centu
centum
centumila
century
centuspati
cenzimentu
cenzu
cera
cerami
ceratopsia
cerca
cercare
cerchi
cerchiu
cercu
cerda
cereri
ceres
ceri
cerimonia
cern
cernan
cerrito
certa
certamenti
certe
certi
certiduni
certu
certuni
cerva
cervantes
cervi
cerza
cesare
cesarea
cesari
ceschina
cesena
cesiu
cessu
ceti
cetra
cetti
ceuta
cf
cfg
cfr
cg
cgd
cgil
cgpm
cgs
ch
cha
chabrol
chad
chagall
chain
chalcides
challenge
challenger
chambe
chamber
chamberlain
chambers
chambre
chamonix
champagne
champion
champions
championship
champlain
champs
chan
chance
chang
change
channel
chanson
chants
chao
chaos
chapelle
chaplin
chapman
charamira
charente
charentes
charles
charlie
charlot
charlotte
chart
charts
chase
chat
chaux
che
check
checktype
chef
chell
chemins
chen
cher
chernobyl
cherza
chesa
chesia
chesney
chess
chester
chhiu
chi
chia
chiama
chiamamu
chiamane
chiamannu
chiamanu
chiamari
chiamaru
chiamata
chiamati
chiamatu
chiamau
chiamava
chiamavanu
chiami
chiamo
chiamu
chiamunu
chiana
chianca
chianci
chianeta
chiang
chiani
chianiggianti
chianta
chiantari
chianti
chiantu
chianu
chianuforti
chianura
chianuri
chiara
chiaramenti
chiaramonte
chiaramuntanu
chiaramunti
chiaravalli
chiarelli
chiari
chiaru
chiasa
chiassai
chiassu
chiatti
chiattu
chiavi
chiazza
chiazzali
chiazzetta
chiazzi
chiazzisi
chicago
chicagu
chicchi
chichi
chicken
chico
chid
chida
chidda
chidde
chiddha
chiddhi
chiddhu
chiddi
chiddri
chiddu
chidi
chidu
chie
chiedi
chief
chiei
chiesa
chiese
chiesetta
chiesi
chiesia
chieti
chievo
chiffari
chila
child
children
chile
chili
chilla
chillemi
chilo
chilometri
chilometro
chilomitri
chilu
chilugrammi
chilugrammu
chimatu
chimica
chimichi
chimici
chimicu
china
chinamenti
chinasi
chinatown
chinese
ching
chini
chinnici
chinu
chio
chioggi
chioggia
chiossa
chiossai
chiostru
chiova
chiove
chiovi
chiovu
chip
chira
chirac
chiru
chirurgi
chirurgia
chirurgu
chisa
chisciotti
chissa
chissi
chissu
chist
chista
chiste
chisti
chistioni
chistu
chitarra
chitarre
chitarri
chitarrista
chitarristi
chiti
chitu
chiu
chiuderlu
chiuderu
chiudi
chiuduta
chiuduti
chiudutu
chiui
chiummu
chiuppu
chiuruta
chiusa
chiusi
chiussai
chiusu
chiusura
chiutostu
chiuttostu
chiuviti
chiuvuta
chiuvuti
chja
chju
chm
chmq
cho
chocabeck
chocolat
choice
chomsky
chopin
chordata
chords
chorus
chris
christi
christiaan
christian
christie
christina
christine
christmas
christodulus
christoph
christophe
christopher
chrome
chu
chuck
chung
church
churchill
chyler
ci
cia
ciacca
ciad
ciama
ciamanu
ciamata
ciamati
ciamatu
ciamau
ciamava
ciamma
ciammi
ciampi
cianchi
cianciana
ciancu
ciane
cianu
ciao
ciappi
ciaramedda
ciaramunti
ciarmu
ciascu
ciascuna
ciascunu
ciatu
ciau
ciaula
ciavi
ciavula
ciazza
cibbi
cibbu
cibu
cica
cicala
cicap
cicca
ciccio
cicciu
ciccu
cicero
cicilia
ciciruni
cicladi
cicli
ciclismu
ciclista
ciclisti
ciclopi
ciclu
cicluni
ciddi
cidi
cidiu
cido
cidu
cidutu
cie
cieli
cielo
cielu
cienfuegos
cientu
cifalu
cifra
cifri
cigna
cigni
cignu
cii
cile
cilea
cilentanu
cilento
cilentu
cilenu
cilesti
cili
ciliari
cilibbrari
cilibbrata
cilibbratu
cilibbrau
cilibbrazzioni
cilibrari
cilibrata
cilibratu
cilibrazzioni
cilindri
cilindru
cilintanu
cilinu
cilistinu
cilliri
cillulari
cilluli
cima
cimarosa
cimentu
cimi
cimici
ciminna
cimiteru
cimu
cin
cina
cinc
cinchina
cincinnati
cincu
cincucentu
cine
cinema
cinematogra
cinese
cinesi
cing
cini
cinima
cinimatugra
cinimatugrafica
cinimatugraficu
cinisa
cinisi
cinniri
cinq
cinqu
cinquant
cinquanta
cinquantina
cinque
cinquefrondi
cinqui
cint
cinta
cintauru
cinte
cinti
cintimitri
cintinara
cintinaru
cintra
cintrali
cintralizzatu
cintura
cinu
cinzimentu
cinzura
cio
cioccolattu
cioccolatu
cioe
cioran
ciotti
cipa
cipanu
cipolla
cippi
cippu
cipressu
ciprioti
cipru
cipudda
cira
cirami
ciramica
cirasa
cirasi
ciravula
circ
circa
circamu
circannu
circari
circaru
circata
circati
circatu
circau
circava
circavanu
circhiu
circo
circu
circuitu
circulari
circulatoriu
circulazzioni
circuli
circulu
circumetnea
circuncisioni
circundata
circundatu
circunfirenza
circuni
circunna
circunnariu
circunnata
circunnatu
circus
circuscrizzioni
circustanti
circustanza
circustanzi
cirella
ciri
ciriali
ciribbrali
cirilli
cirillicu
cirillu
cirimoni
cirimonia
cirimuniali
cirinaica
cirinna
cirinu
ciriveddu
ciro
cirtamenti
cirtiduni
cirtificatu
cirtizza
cirtuni
ciru
cirveddu
cis
cisa
cisalpina
cisare
cisariu
cisi
cisioni
cisl
cissariu
cissau
cisterna
cisu
cit
cita
citacei
citadina
citadini
citadinu
citamu
citari
citata
citati
citatina
citatini
citatinu
citatu
citazioni
citazzioni
citi
citiriuri
cito
citrus
citta
cittadella
cittadi
cittadina
cittadinanza
cittadini
cittadinu
cittanova
cittati
citu
city
ciu
ciudad
ciumara
ciumi
ciumifriddu
ciumira
ciunu
ciura
ciurenti
ciuri
ciuriddu
ciuriri
ciuritura
ciuru
ciusa
ciutat
ciuvascia
ciuvasciu
civetta
civica
civico
civicu
civil
civile
civili
civilita
civilizzazzioni
civilta
civiltati
civirta
civirtati
civita
civitas
civitati
civitella
civu
ck
cl
cla
claim
claims
clan
clandistini
clannistina
clannistini
clapton
clara
clarence
clarenza
clarinetti
clarinetto
clarinettu
clarinu
clarissa
clark
clarke
clash
class
classe
classi
classic
classica
classical
classichi
classici
classico
classics
classicu
classifica
classificari
classificata
classificati
classificatu
classificazzioni
classifiche
classifichi
claude
claudia
claudianu
claudio
claudiu
claudius
clausewitz
clav
clavicembalo
cle
clearwater
clemente
clementi
cleopatra
clerc
clerici
clerk
clermont
cleru
cleveland
cli
clica
click
client
clienti
cliff
clifford
clima
climate
climenti
climenza
climi
cling
clinton
clio
clip
clips
clitufonti
cliu
cliupatra
clive
clock
cloru
close
closer
clotariu
club
clubs
cludiuni
cluduveu
cluj
cluny
clyde
cm
cmyk
cn
cnica
cnichi
cnici
cnicu
cnidaria
cnr
cnt
co
coalizione
coalizzioni
coast
cobain
cobra
coca
cocaina
cocchi
cocci
coccia
cocciu
coccodrillo
coccu
cocker
cocktail
coco
cocu
coda
codata
codda
coddi
coddu
code
codice
codici
coerenti
coffa
cogghi
cognomi
cohen
coi
coimperator
coji
col
cola
colapisci
cold
coldplay
cole
coleman
coli
colin
collaborazzioni
collana
colle
collection
collegamenti
collegamento
collegati
college
colleggiu
collegium
collezione
collezioni
colli
collider
collina
colline
collins
collodi
colombia
colombo
colombu
colonia
colonie
colonna
colonne
color
colorado
coloradu
colore
colori
colour
colpa
colpi
colpo
colpu
colspan
colt
columba
columbia
columbus
com
coma
comandare
comaneci
combat
combats
come
comegghie
comencini
comes
comi
comic
comico
comics
comicu
comincio
coming
comintern
comisu
comitato
comitatu
comm
comma
command
comme
commedia
comment
comments
commerciale
commerciali
commercio
commerciu
commi
commissario
commissariu
commission
commissione
commissioni
committed
committee
common
commons
commonwealth
commu
communication
communis
communist
communists
community
comnenu
como
comori
compact
compagnia
companion
company
companys
compatibile
competizioni
compi
compilation
compitu
compiuter
complementu
complessu
completa
completamente
completamenti
complete
completes
completu
composer
composition
compositore
composta
compostela
composti
compostu
comprende
compresu
comps
compton
computer
comte
comu
comuna
comunale
comunali
comune
comunementi
comuni
comunicazioni
comunismo
comunismu
comunista
comunisti
comunita
comunitati
comunque
comunqui
con
cona
conan
conca
concat
concepcio
concepcion
concept
concert
concerti
concerto
concertu
concorde
concordia
concu
condizioni
condizzioni
conduci
conduciu
conduciutu
conduct
conduttori
confe
conference
conferenza
config
configurazione
confina
confine
confini
conflict
conga
congiunzione
congress
congresso
congressu
congruenti
congruenza
congu
coni
coniglio
connecticut
connery
connor
cono
cononi
conoscere
conosciutu
conosco
conquista
conrad
consensus
conservare
conservation
conservatore
conservatoriu
consider
consideratu
consigghiu
consigliere
consiglio
consolazione
console
consoli
consolo
consonanti
constance
constant
consulenza
consuli
consulta
conta
contact
contadina
contadini
contador
conte
contea
contemporanea
contemporanei
content
contes
contessa
contest
conti
contiene
continental
continentali
continenti
continua
continuari
continuo
contr
contra
contrabbassu
contrada
contralto
contrappusizzioni
contributions
contro
control
controllo
controllu
contru
contu
conu
convegno
convention
convento
conventu
conversione
conway
conza
cook
cooke
cool
cooper
cooperativa
coordinati
copenaghen
copertina
copi
copia
copie
copies
copii
coppa
coppe
coppi
coppia
coppie
coppola
copri
coptu
copy
copyright
cor
coral
corbucci
corbusier
corda
corde
cordeliers
cordi
cordigliera
cordova
core
corea
coreana
coreano
coreca
corey
corfu
cori
corintu
corinzi
coriolis
coriu
corleone
corna
corneliu
cornell
corner
cornflowerblue
cornice
corno
cornu
coro
coromoto
corona
coronado
coronation
corone
corpa
corpi
corpo
corporation
corpu
corpus
corrado
corradu
corre
correggiu
correlate
correnta
corrente
correnti
corriere
corrisponde
corsa
corse
corsi
corsica
corso
corsu
corte
corti
cortina
corto
cortu
coru
corvu
corvus
cos
cosa
cosca
coscia
coscienza
cose
cosenza
cosi
cosimo
cosimu
cosma
cosmo
cosmoluggi
cosmos
cospicua
cossiga
costa
costanti
costantini
costantino
costantinopoli
costanza
costanzo
coste
costello
costi
costituente
costituita
costituitu
costituzionale
costituzionali
costituzzioni
costrui
costruiri
costruita
costruiti
costruitu
costruzioni
costruzzioni
costu
costuli
costumi
cotti
cottu
coturnix
could
coulomb
council
count
countries
country
county
coup
course
court
covalenti
cover
covino
cowboy
cozzu
cp
cpu
cqua
cquiu
cr
cra
cracovia
craig
craniu
crapa
crapi
crash
crassi
crastu
crateri
crati
cravuni
craxi
cray
crazy
cre
crea
create
created
credere
credo
creed
creedence
creek
crema
cremeti
cremona
cresci
crescita
cresi
cresia
cresii
creta
cretaceous
cretesi
creuse
crew
cri
cria
criamu
criannu
crianza
criari
criaru
criata
criati
criativi
criativitati
criativu
criatrici
criatu
criatura
criaturi
criau
criazzioni
crichton
cricket
cridenti
cridenza
cridenzi
cridi
cridiri
cridu
crienti
criju
crima
crimagghiera
crime
crimea
crimi
criminal
criminali
criminalitati
crimini
crimson
crio
cripta
criptu
criri
cris
crisantemu
criscennu
criscenti
criscenza
criscenzia
crisci
criscimonia
crisciri
criscita
crisciu
crisciuta
crisciuti
crisciutu
crishtiani
crisi
crisiedda
crisis
crisiudda
crisoprasu
crispi
crispinu
crista
cristaddinu
cristalli
cristallina
cristallu
cristian
cristiana
cristiane
cristianesimu
cristiani
cristianitati
cristianizzata
cristianizzazzioni
cristiano
cristianu
cristina
cristo
cristofuru
cristu
crita
critaciu
criteri
criteriu
critica
criticari
criticata
criticatu
critichi
critici
critico
criticu
critoni
critti
critu
criveddu
crizzia
cro
croata
croato
croatu
croazia
croazzia
croccu
croce
crocetta
croci
crociferi
crocifisso
croix
crollu
cromu
cronaca
cronachi
cronistoria
croniu
crono
cronolo
cronoluggi
cropani
crosby
cross
crossing
crossover
crotone
crotoni
crow
crown
crozza
cru
cruati
cruatu
cruazzia
cruccanti
cruci
cruciata
cruciati
cruciatu
crucifissa
crucifissioni
crucifissu
crucis
crudeli
crudi
crudu
cruise
cruma
cruna
crunista
crunulo
crunuluggi
crusca
crusta
crutoni
cruz
cs
csi
css
csstext
ct
ctus
cu
cualizzioni
cualizziuni
cuannu
cuarenta
cuatrec
cuatru
cuauhtlatoatzin
cuba
cubana
cubba
cubbana
cubbi
cubbu
cubu
cucca
cucchia
cucchiara
cuccu
cucina
cucinari
cucini
cucinotta
cucinu
cucire
cuciuti
cucuzza
cuda
cuddana
cuddu
cuddura
cudweed
cuegghie
cuffaro
cuffaru
cugghi
cugghiuni
cugghiuta
cugghiuti
cugghiutu
cugnata
cugnatu
cugnoma
cugnomi
cugnomu
cui
cuinci
cuincidenza
cuincidi
cuirenti
cuirenza
cuitu
cujjienti
cula
culari
culata
culati
culazzioni
culera
culi
cull
culla
cullabburari
cullabburatu
cullabburatura
cullabburaturi
cullabburau
cullabburazioni
cullabburazzioni
cullaborazioni
cullaborazzioni
cullana
cullani
cullassa
cullassu
cullatirali
culle
culleca
cullega
culleggi
culleggiu
culleghi
cullegiu
cullezzioni
culli
cullicari
cullicati
culliga
culligamenti
culligamentu
culliganza
culligari
culligata
culligati
culligatu
cullijati
cullina
cullinari
cullini
cullisanu
cullisioni
cullittivu
cullittura
cullizzioni
cullizziunati
cullu
cullucari
cullucata
cullucati
cullucatu
cullucazzioni
culmini
culo
culommu
culoni
culonia
culonii
culonna
culonni
culpa
culpitu
cult
culta
culti
cultiva
cultivata
cultivati
cultivatu
cultivazzioni
cultu
cultura
cultural
culturale
culturali
culturalmenti
culture
culturi
culu
culuni
culunia
culuniali
culunialismu
culunizzata
culunizzati
culunizzazzioni
culunna
culunnellu
culunni
culupazzu
culura
culuranti
culurata
culurati
culurazzioni
culuri
culusseu
culussisi
cum
cuma
cumanna
cumannanti
cumannari
cumannata
cumannati
cumannatu
cumannau
cumannava
cumanni
cumannu
cumbattenti
cumbatti
cumbattiri
cumbientu
cumbria
cume
cumeta
cumeti
cumincia
cuminciannu
cuminciari
cuminciaru
cuminciarunu
cuminciau
cumincio
cuminza
cuminzari
cuminzata
cuminzau
cumitati
cumitatu
cumma
cummannanti
cummannari
cummannati
cummannu
cummari
cummattennu
cummattenti
cummatteru
cummatti
cummattimenti
cummattimentu
cummattiri
cummattiu
cummattiva
cummattuta
cummattuti
cummattutu
cumme
cummedi
cummedia
cummenti
cummentu
cummerci
cummerciali
cummerciu
cummi
cummidia
cummigghia
cummigghiannu
cummigghiari
cummigghiata
cummigghiati
cummigghiatu
cummigghio
cummimuratu
cummina
cumminata
cumminati
cumminazzioni
cumminci
cummings
cummintari
cummintu
cumminzioni
cummircenti
cummirciali
cummircianti
cummiriciali
cummirsazzioni
cummirsioni
cummissari
cummissariatu
cummissariu
cummissioni
cummissiuni
cummisti
cummistibbili
cummisu
cummo
cummusti
cummustioni
cummutativa
cumpa
cumpagna
cumpagni
cumpagnia
cumpagnu
cumpara
cumparata
cumparativu
cumparatu
cumpareru
cumpari
cumpariri
cumpariu
cumparsa
cumparunu
cumpassu
cumpati
cumpatibbili
cumpatta
cumpattu
cumpenniu
cumpenzu
cumpetizzioni
cumpi
cumpimentu
cumpitenza
cumpitenzi
cumpititivi
cumpitizzioni
cumpitu
cumpiuta
cumpiutu
cumplessa
cumplessi
cumplessu
cumpleta
cumpletamenti
cumpleti
cumpletu
cumpliannu
cumplicata
cumplicatu
cumplitamenti
cumplitari
cumplitata
cumplitatu
cumplottu
cumpo
cumponi
cumporta
cumpositori
cumposizioni
cumposizzioni
cumposta
cumposti
cumpostu
cumprata
cumpre
cumprendiri
cumprenni
cumprenniri
cumpresa
cumpresi
cumpressi
cumpressu
cumpresu
cumpreta
cumpretamenti
cumpreti
cumpretu
cumpricati
cumpricatu
cumprimentu
cumprimintari
cumprinnennu
cumprinnenti
cumprinni
cumprinnuta
cumprinnuti
cumprinnutu
cumprinzioni
cumprisa
cumprisi
cumprisu
cumpritamenti
cumpritari
cumpritata
cumpritau
cumprumissu
cumprumisu
cumpunenti
cumpuni
cumpunimenti
cumpunimentu
cumpunuta
cumpunutu
cumpurta
cumpurtamenti
cumpurtamentu
cumpurtari
cumpurtau
cumpurtava
cumpusitura
cumpusituri
cumpusizzioni
cumpusta
cumputer
cumu
cumulonimbus
cumuna
cumunali
cumune
cumuni
cumunicari
cumunicatu
cumunicazioni
cumunicazzioni
cumunimenti
cumunioni
cumunismu
cumunista
cumunisti
cumunita
cumunitati
cumunqui
cumunu
cun
cuncavitati
cunce
cuncentra
cuncerti
cuncertu
cuncessa
cuncessu
cuncetta
cuncetti
cuncettu
cunchigghia
cunchista
cunchiu
cunchiudi
cunchiusioni
cunci
cuncidi
cuncili
cunciliu
cuncintra
cuncintramentu
cuncintrata
cuncintrati
cuncintratu
cuncintrazzioni
cuncipitu
cuncirnenti
cuncissioni
cuncittuali
cuncizzioni
cunclusioni
cunclusu
cunco
cuncordia
cuncorsu
cuncreta
cuncreti
cuncricazzioni
cuncurdatu
cuncurrenti
cuncurrenza
cuncursi
cuncursu
cuncutrigghiu
cundizzioni
cundutturi
cuneu
cunfaloni
cunferma
cunfi
cunfidenza
cunfidirazzioni
cunfigurazzioni
cunfina
cunfinanti
cunfini
cunfinu
cunfirenza
cunfirenzi
cunfiri
cunfirisci
cunfirmari
cunfirmata
cunfirmati
cunfirmatu
cunfirmau
cunfirmo
cunfisca
cunfissioni
cunfissuri
cunfizzioni
cunflitti
cunflittu
cunflui
cunfluiri
cunfluisci
cunformi
cunfortu
cunfrate
cunfritti
cunfrittu
cunfronti
cunfrontu
cunfruenza
cunfrunta
cunfruntari
cunfrunti
cunfruntu
cunfu
cunfuciu
cunfunni
cunfunniri
cunfurmazzioni
cunfurmitati
cunfusa
cunfusioni
cunfusu
cungittura
cungiuntivu
cungiunzioni
cungiura
cungressi
cungressu
cungrigazioni
cungrigazzioni
cungrissu
cungruenzi
cuni
cuniata
cuniati
cuniatu
cunigghi
cunigghiu
cunigghiuni
cuniugazioni
cuniugazzioni
cunna
cunnanna
cunnannata
cunnannati
cunnannatu
cunnannau
cunnanni
cunnessi
cunni
cunnimentu
cunnissioni
cunnittivu
cunnivi
cunnividi
cunnizzioni
cunnizziunali
cunnu
cunnucennu
cunnuci
cunnuciuta
cunnuciuti
cunnuciutu
cunnutazzioni
cunnutta
cunnutteru
cunnutti
cunnuttu
cunnuttura
cunnutturi
cunnuzzioni
cunquista
cunquistannu
cunquistanu
cunquistari
cunquistaru
cunquistata
cunquistati
cunquistatu
cunquistaturi
cunquistau
cunquisti
cunquisto
cunsacrata
cunsacratu
cunsacro
cunse
cunsensi
cunsensu
cunsenti
cunsi
cunsicuenza
cunsicuenzi
cunsiddirari
cunsideratu
cunsidira
cunsidirannu
cunsidirari
cunsidirata
cunsidirati
cunsidiratu
cunsiggheri
cunsigghi
cunsigghieri
cunsigghiu
cunsinti
cunsiquenti
cunsiquenza
cunsiquenzi
cunsirvaturi
cunsirvazzioni
cunsistenti
cunsistenza
cunsisti
cunsultazzioni
cunsuma
cunsumatu
cunsumu
cunta
cuntadina
cuntadini
cuntadinu
cuntaminati
cuntaminazzioni
cuntannu
cuntanu
cuntari
cuntaru
cuntastori
cuntata
cuntati
cuntatini
cuntatti
cuntattu
cuntatu
cuntau
cuntava
cunte
cuntea
cunteni
cunteniri
cuntennu
cuntenti
cuntentu
cuntenunu
cuntessu
cuntesti
cuntestu
cunti
cuntia
cuntimpura
cuntimpurani
cuntimpurania
cuntimpuraniamenti
cuntimpuraniu
cuntinenti
cuntingenti
cuntini
cuntinia
cuntinintali
cuntiniri
cuntinitura
cuntinituri
cuntintizza
cuntinua
cuntinuamenti
cuntinuannu
cuntinuanu
cuntinuari
cuntinuaru
cuntinuarunu
cuntinuatu
cuntinuau
cuntinuava
cuntinuazzioni
cuntinui
cuntinuita
cuntinuitati
cuntinuo
cuntinuta
cuntinuti
cuntinutu
cuntinuu
cuntinziusu
cuntisi
cuntissa
cuntistata
cuntornu
cuntortu
cuntra
cuntrada
cuntraddizzioni
cuntradi
cuntrapponi
cuntrappusizzioni
cuntrari
cuntraria
cuntrariamenti
cuntrariu
cuntrastari
cuntrasti
cuntrastu
cuntrata
cuntrati
cuntratti
cuntrattu
cuntrattualismu
cuntrazzioni
cuntribbuennu
cuntribbueru
cuntribbui
cuntribbuiri
cuntribbuisci
cuntribbuiu
cuntribbuta
cuntribbuti
cuntribbutu
cuntro
cuntrolla
cuntrolli
cuntrollu
cuntru
cuntrulla
cuntrullannu
cuntrullari
cuntrullata
cuntrullati
cuntrullatu
cuntrullava
cuntrullu
cuntruversa
cuntruversi
cuntruversu
cuntu
cunu
cunuscenza
cunuscenzi
cunusciutu
cunve
cunvegni
cunveni
cunventu
cunverti
cunvinci
cunvintu
cunvinzioni
cunvinziunali
cunvirsioni
cunvirti
cunvirtuti
cunvirtutu
cunvogghiu
cunvucazzioni
cunza
cunzari
cunzati
cunzatu
cunze
cunzegna
cunzenti
cunzenzi
cunzenzu
cunzerva
cunzi
cunzicutivi
cunziddira
cunziddiramu
cunziddirannu
cunziddirari
cunziddirata
cunziddirati
cunziddiratu
cunziddirava
cunziddirazzioni
cunzidira
cunzidiramu
cunzidirannu
cunzidirari
cunzidirata
cunzidirati
cunzidiratu
cunzidirazzioni
cunzidire
cunziggheri
cunzigghi
cunzigghia
cunzigghiati
cunzigghieri
cunzigghiu
cunzigna
cunzinti
cunzinzuali
cunziquenti
cunziquenza
cunziquenzi
cunziria
cunzirvari
cunzirvati
cunzirvativa
cunzirvatoriu
cunzirvatu
cunzirvatura
cunzirvazzioni
cunzistenti
cunzistenza
cunzisti
cunzulenti
cunzuma
cunzumatu
cunzumu
cunzuna
cunzunantali
cunzunanti
cuo
cuomu
cuore
cuori
cuozzu
cup
cupe
cuperta
cuperti
cupiati
cupiativa
cupid
cupirtina
cupirtuna
cupirtura
cupola
cuppa
cuprennu
cupu
cupula
cur
cura
curac
curaggiu
curali
curanu
curari
curata
curatu
curazi
curca
curcari
curcatu
curciu
curda
curdi
curdu
curduni
cure
curea
curi
curia
curiana
curidda
curie
curinga
curintu
curinzi
curiosita
curiusa
curiusi
curiusita
curiusitati
curiusu
curlannia
curlannisi
curliuni
curnea
curneliu
curnici
curnutu
curnuvagghia
curona
curpa
curpe
curpi
curpiri
curpisci
curpita
curpu
curpurazzioni
curpusu
curputu
curradinu
curradu
currau
curre
currelati
currennu
current
currenti
curreru
curretta
curretti
currettu
curreva
curri
curridoiu
curriduri
currilati
currilatu
curriri
currispu
currispunnenti
currispunnenza
currispunnenzi
currispunni
currispunniri
currispunnunu
currituri
currizzioni
curruzzioni
cursa
cursi
cursu
curta
curtei
curteu
curti
curticali
curtigghi
curtigghiu
curtili
curtis
curtisi
curtisuni
curtivata
curtivati
curtivatu
curtivazzioni
curtu
curtura
curturali
curturi
curu
curuna
curuni
curva
curvatura
curvi
cus
cusacchi
cuscenti
cuscenza
cuscienti
cuscienza
cuscinettu
cuscinu
cuscus
cusenza
cusi
cusiddetta
cusidditta
cusidditti
cusiu
cussi
cussidditta
cussidditti
cussiddittu
custa
custanti
custantimenti
custantino
custantinopuli
custantinu
custanza
custanzu
custau
custera
custeri
custiddazzioni
custioni
custituenti
custitui
custituiri
custituisci
custituiscinu
custituisciunu
custituita
custituitu
custituiuta
custituiutu
custituuta
custituuti
custituutu
custituzzionali
custituzzioni
custituzziunali
custodi
custodia
custretta
custretti
custrettu
custri
custrincennu
custrinci
custrinciuta
custrinciuti
custrinciutu
custrittu
custruennu
custrueru
custrui
custruiri
custruisci
custruita
custruiti
custruitu
custruiu
custruiuta
custruiuti
custruiutu
custruttu
custruttura
custrutturi
custruuta
custruuti
custruutu
custruzzioni
custudiri
custudisci
custudita
custuditi
custuditu
custuma
custumanzi
custumi
custunaci
custura
custureri
custusi
cut
cuta
cutedda
cuteddu
cuti
cutiddianu
cutidiana
cutidianu
cuto
cutroni
cutru
cutrufianu
cuts
cuttu
cuttuni
cuttura
cutu
cutugno
cutugnu
cutuliata
cutuni
cuupirazzioni
cuurdinamentu
cuurdinati
cuve
cuverna
cuvernativi
cuverni
cuvernu
cuviernu
cuvirna
cuvirnanti
cuvirnari
cuvirnaru
cuvirnata
cuvirnati
cuvirnativa
cuvirnatu
cuvirnatura
cuvirnaturi
cuvirnau
cuzzata
cv
cy
cygni
cyril
cz
d
da
dacci
daccussi
dacia
daddy
dadi
dafniu
dag
dagli
dago
dai
daigo
daily
daisy
dakota
dal
dalai
dale
dali
dall
dalla
dallas
dalle
dalli
dalton
daltrey
dam
dama
damaggiu
damascu
dame
damiani
damiano
damianu
dammaggi
dammaggiu
dammi
dammusu
dan
dana
danaru
dance
dancer
dancing
danese
dangerous
daniel
daniela
daniele
danieli
daniels
danimarca
danisa
danisi
danni
danniggiata
danniggiati
dannu
danny
dans
dante
danti
danu
danubbiu
dany
danza
danzanti
danzi
dapprima
dapprincipiu
dar
dardanelli
dare
dari
dario
dariu
dark
darkblue
darkred
darling
darmstadt
darre
darreri
darwin
das
dasti
dat
data
database
dataset
datata
datati
datatu
datatype
datavalue
datazzioni
date
dates
dati
dato
datu
daudet
daughter
dava
davanti
davanzi
dave
daveru
davi
david
davide
davies
davis
davos
davy
dawlah
dawn
day
days
dazzi
dazziu
db
dc
dd
dda
ddanu
dde
ddere
ddh
ddi
ddia
ddicu
ddimostrazioni
ddini
ddira
ddiri
dditu
ddiu
ddivinta
ddo
ddoche
ddocu
ddonca
ddoppu
ddr
ddu
de
dea
deacon
dead
deaf
deaflympics
dean
deanne
dear
death
debate
debbie
debbuli
debet
debian
deborah
debug
debussy
debuttu
dec
deca
decade
december
decenni
decenniu
deci
decide
deciliuni
decimali
decimu
decise
decisi
decisioni
deciu
declaration
declares
decline
declinu
decorativu
decorazzioni
decretu
dedalo
dedica
dedicata
dedicated
dedicato
dedicatu
dee
deejay
deep
deepin
def
default
defence
defense
defensive
defi
definiri
definisci
definita
definitiva
definitivamenti
definitu
definizioni
definizzioni
degas
degli
degree
dei
deia
deimos
del
delaware
delegation
delfi
delhi
delia
delilah
dell
della
delle
delli
dello
delta
deluxe
dem
demenna
demetra
demetrio
demetriu
demo
democra
democracy
democratic
democratica
democratici
democratico
democrazia
democrazzia
demu
den
dena
denaro
denethor
denia
denis
dennis
denominazioni
denon
densa
densita
densitati
densu
denti
dentro
denver
denza
deo
department
depeche
depend
deployed
depressione
deputati
deputato
der
derek
deriva
derivata
derrick
des
descartes
deschamps
descri
description
descrivi
descriviri
descrizioni
desert
desertu
desi
desiderio
desideriu
design
desiru
desktop
desmond
despacito
destino
destra
destru
det
detective
determinari
determinata
detroit
detta
detti
dettiru
detto
dettu
deu
deus
deutsche
deux
deve
development
devi
devil
devo
devon
df
dhr
di
dia
diacritici
diaframma
diagramma
diale
dialettale
dialetti
dialetto
dialettu
dialittali
dialogo
dialugari
dialughi
dialugu
diamante
diamanti
diameters
diametru
diamitru
diamond
diana
diane
dianu
diapsida
diari
diariu
diavolo
diavuli
diavulu
dibattitu
dibba
dibbattitu
dibbulizza
dica
dicadenza
dicadi
dicci
dice
dicembre
dicembri
dicemmiru
dicemu
dicendo
dicenni
dicenniu
dicennu
dicenu
dicere
diceva
dichi
dichiara
dichiarari
dichiarata
dichiarati
dichiaratu
dichiarau
dichiarazzioni
dichiaro
dici
dicia
diciannuve
dicideru
dicidi
dicidiri
dicidutu
dicimali
dicina
dicini
dicinu
diciott
diciottu
diciri
dicisamenti
dicisi
dicisioni
dicisiru
dicisiva
dicisivi
dicisivu
dicisti
dicisu
dicitura
diciu
diciuta
diciuti
diciutte
diciutu
dick
dickens
dickinson
diclinazzioni
diclinu
dicollu
dicorativu
dicorazzioni
dicretu
dicritata
dicritu
dictionary
dicu
diculunizzazzioni
dicunu
dicurata
dicurati
dicurativi
dicurativu
dicuratu
dicurazzioni
dicurri
did
dida
didascalia
didattica
diderot
didi
didica
didicarisi
didicata
didicati
didicatu
didicau
didico
didier
die
dieci
diego
diegu
diei
dielettrica
dieli
diem
dies
diesel
dieta
dietrich
dieu
difatti
dife
difesa
difetti
difettu
different
differenti
differenza
diffi
difficile
difficili
difficirmenti
difficolta
difficulta
difficultati
difficurtati
diffire
diffirenta
diffirenti
diffirenza
diffirenzi
diffirenzia
diffiri
diffirinziali
diffirinziata
diffirisci
diffrazzioni
diffu
diffunneru
diffunni
diffunniri
diffunnuta
diffunnutu
diffusa
diffusi
diffusione
diffusioni
diffusu
difici
dificiu
difini
difiniri
difinisci
difinistrazzioni
difinita
difiniti
difinitiva
difinitivamenti
difinitivu
difinitu
difinizzioni
difinizziuni
difinni
difinsura
difinsuri
difinuta
difinuti
difinutu
difisa
difisi
difittivu
difuntu
difurmazzioni
diga
diggirenti
diggistioni
diggitali
dighi
digital
digitali
digni
dignitati
dignu
dii
dijunu
dil
dilatazzioni
dilfinu
dili
dilicati
dilicatu
diligati
diligazzioni
dilimita
dilimitata
dilimitatu
dilittanti
dilitti
dilittu
dill
dilla
dilli
dillingham
dillu
dilusioni
dim
dima
dimaniali
dimaniu
dimensioni
dimetriu
dimi
diminsionalmenti
diminsioni
diminsiuni
diminuiri
diminuisci
diminutivu
diminuzzioni
diminzioni
diminziunali
diminziuni
dimissioni
dimitri
dimitriu
dimmi
dimo
dimocrazzia
dimoniu
dimora
dimostra
dimostrazzioni
dimucra
dimucratica
dimucraticamenti
dimucratichi
dimucratici
dimucraticu
dimucrazzi
dimucrazzia
dimudocu
dimugra
dimugrafi
dimura
dimustrari
dimustraru
dimustrata
dimustrativi
dimustratu
dimustrau
dimustrazzioni
din
dina
dinamica
dinamicu
dinamismu
dinari
dinaru
dinasti
dinastia
dine
dinger
dini
dino
dinocchiu
dinominazzioni
dinosaur
dinosauria
dinosaurs
dinosauru
dinota
dins
dinsita
dinsitati
dintati
dintorni
dintra
dinu
dinuminata
dinuminatu
dinuminazzioni
dinuncia
dinunzia
dinusa
dinusauri
dinusauru
dinzita
dinzitati
dio
diocesano
diocesanu
diocesi
diodoru
dion
dioni
dionigi
dionisio
dionisiu
dionisu
dios
dioscuri
dipartimenta
dipartimenti
dipartimento
dipartimentu
dipenda
dipenni
dipinnenti
dipinnenza
dipinti
dipinto
dipintu
diploma
dipluma
dipo
dipostu
diprissioni
diprissiuni
diproma
diprumazzi
dipunutu
dipurtati
dipurtazzioni
dipusizzioni
diputata
diputati
diputatu
dir
dira
dirac
diragghiatura
diragghiaturi
diramazzioni
diranu
dire
director
directory
diretta
direttamenti
diretti
direttore
direttori
direttu
diretturi
direzione
direzioni
direziuna
direzzioni
direzziuni
diri
diricata
diricati
dirichlet
dirigenti
diriggenti
diriggi
diriggiu
diriggiuta
diriggiutu
diritta
dirittamenti
diritti
diritto
dirittrici
dirittu
dirittura
diritturi
diriva
dirivanti
dirivanu
dirivari
dirivata
dirivati
dirivatu
dirivau
dirivazzioni
dirizzioni
dirizziuni
dirty
disa
disabbilitati
disabbitata
disaggiu
disambigua
disambiguitati
disastru
disastrusa
disastrusi
disc
disca
disce
discendenti
discenni
discepulu
dischi
disci
discindenti
discinnenti
discinnenza
discinni
disciplina
disciplinari
disciplini
discipplina
disciprina
disciprini
disco
discografi
discografia
discografica
discogs
discorso
discoteca
discovery
discreta
discretu
discri
discriminazzioni
discriminazziuni
discrissi
discritta
discritti
discrittiva
discrittu
discrivennu
discrivi
discriviri
discrivuti
discrivutu
discrizzioni
discu
discugra
discugrafi
discugrafia
discugrafica
discugraficu
discurrennu
discurri
discursi
discursu
discussion
discussioni
discuteca
discutechi
discuti
dise
disegni
disegnu
disertu
disfi
disgrazzia
disi
disideriu
disigna
disignari
disignata
disignati
disignatu
disignau
disigni
disignu
disinenza
disinenzi
disintussicazzioni
disiu
disk
dislike
disney
diso
disoccupazzioni
disordini
dispersi
dispettu
dispi
dispiratu
dispirsioni
dispo
disponi
disponibile
disponibili
disposizioni
disposizzioni
disposta
disposti
dispostu
disprezzu
dispriggiativu
dispu
dispuni
dispunibbili
dispunibbilitati
dispusitivi
dispusitivu
dispusizzioni
disputa
disputata
disputati
disputau
dispute
disputes
dissi
dissidenti
dissiru
dissuluzzioni
dista
distali
distance
distanti
distanza
distanze
distanzi
disti
disticu
distillatu
distillazzioni
distinata
distinati
distinatu
distinazzioni
distingue
distingueru
distingui
distinguiri
distingunu
distinta
distinti
distintivu
distintu
distinu
distinzioni
distretti
distretto
distrettu
distribbuisci
distribbuiti
distribbuitu
distribbuiuti
distribbuzzioni
distribuitu
distribuzione
distribuzzioni
distritti
distrittu
distru
distrudi
distruduta
distrudutu
distruggennu
distruggi
distruggiri
distruggiuta
distruggiuti
distruggiutu
distruiu
distruiuta
distruji
distrussi
distrutta
distrutti
distruttiva
distruttu
distruzzioni
disturbi
disturbu
disusu
dit
dita
dite
diteni
diti
diticata
ditinutu
ditinziuni
ditirammu
ditirmina
ditirminanti
ditirminari
ditirminata
ditirminati
ditirminativi
ditirminativu
ditirminatu
ditirminau
ditirminazzioni
ditta
dittagghi
dittagghiata
dittagghiu
dittainu
dittami
dittatura
dittaturi
dittaturiali
ditti
dittonghi
dittongu
dittu
dittungazzioni
ditu
diu
diucisanu
diunisiu
diure
diva
divastanti
dive
diveni
divenne
diventa
diventau
divente
diventera
diversa
diversamenti
diverse
diversi
diversu
divertimento
divertimentu
divi
diviazzioni
dividennu
dividi
dividiri
divietu
divina
divinennu
divini
divinita
divinitati
divinni
divinniru
divinta
divintannu
divintari
divintaru
divintatu
divintau
divinto
divinu
divinutu
divirsamenti
divirsi
divirsitati
divirtenti
divirtimentu
divisa
divisi
division
divisioni
divisiuni
divisu
divisura
divisuri
divorziu
divoti
divotu
divuzioni
divuzzioni
dizionario
dizziunari
dizziunariu
dj
djokovic
dl
dm
dna
do
doc
doccu
docg
doctor
doctrine
docu
document
documentario
documentariu
documentary
documentati
documenti
documentu
does
dog
dogg
dogghia
dogma
dogmi
dogs
doi
doing
dolce
dolcetto
dolci
dollari
dollaru
dolmen
dolomiti
dolore
dolphins
dom
domain
domani
dome
domenica
domenico
domenicu
domi
domina
domingo
domini
dominica
dominique
dominiu
domino
dominus
domo
domu
domus
don
dona
donaci
donald
donato
donatu
donbass
done
donetsk
dong
doni
donna
donnafugata
donnalucata
donne
donni
donu
doom
door
doors
dopo
doppia
doppio
doppiu
doppo
doppu
doppuguerra
doppuverra
dopu
dopuguerra
dor
dora
doraemon
dorci
dordogna
dorelli
dori
doria
doris
dormi
dorothy
dorsey
dorso
dorsu
dos
dosi
doti
dots
dott
dotti
dotzler
douard
double
doubs
doug
douglas
dove
dover
dovutu
down
downhill
downing
download
downs
doyle
dr
dra
dracu
dragon
dragons
dragu
drake
dramma
drammatica
drammaturgu
drammi
drappu
dream
dreamer
dreamers
dreams
drengot
dresda
drew
drh
dricu
drink
dritta
drittamenti
dritti
drittu
drive
driven
dro
droga
droghi
drowse
droz
druguni
drum
ds
dt
du
dua
dub
dubbi
dubbio
dubbiu
dublinu
duca
ducali
ducati
ducatu
duce
ducea
ducenti
ducentu
duchi
duchissa
duci
duck
ducumenta
ducumentata
ducumentati
ducumentazzioni
ducumenti
ducumentu
ducumintari
ducumintariu
ducumintata
ducumintazzioni
dudice
dudici
dudley
due
duellu
duet
duetti
duettu
dugna
dugnu
dui
duke
dulci
dulcis
dulu
duluri
dulurusa
dulurusu
dum
dumani
dumanna
dumannari
dumannatu
dumannau
dumanni
dumanno
dumas
dume
dumi
dumiciliari
dumila
duminanti
duminari
duminaru
duminata
duminatu
duminazzioni
dumincadi
dumini
duminica
duminicadi
duminicana
duminicani
duminicanu
duminicu
duminiu
dumizzianu
dummanna
duna
dunant
dunanu
dunari
dunata
dunati
dunatrici
dunatu
dunau
dunazzioni
dunca
duncan
dungeon
duni
dunni
dunqui
duns
dunu
dunzelli
duo
duocu
duomo
duomu
duoppu
duppi
duppia
duppiu
duppricati
duppu
dura
duran
durante
duranti
durari
durata
duratu
duraturi
durau
duri
during
durizza
durmi
durmiri
durmiti
duro
dursali
duru
duse
dusi
dusmet
dust
dusty
dutata
dutati
dutatu
dutta
duttrina
duttrini
duttura
dutturatu
dutturi
dutu
duu
duudenu
duva
duve
duvi
duvia
duviri
duvuta
duvuti
duvutu
duzzina
dv
dvd
dwarf
dwight
dyck
dylan
dz
dztwo
e
ea
each
eagles
eaj
ealing
earl
earlier
earls
early
earth
east
eastern
easy
eb
ebbe
ebbi
ebbica
ebbiru
ebbra
ebbraica
ebbraicu
ebbraismu
ebbrea
ebbrei
ebbreu
ebbri
ebbug
ebola
ebraica
ebraicu
ebrei
ec
ecc
ecce
eccessu
eccetra
eccettu
eccezione
eccezioni
eccezzioni
eccezziunali
ecchiu
ecci
eccidiu
eccillenza
eccissiva
eccitazzioni
eccitra
eccizzioni
eccizziunali
ecclesia
ecclissi
eccu
ecetra
echoes
eco
ecole
ecologia
ecologista
ecoluggi
econo
economia
economic
economica
economicu
econumi
econumia
econumista
ecu
ecuador
ecuaturi
eculo
ecuno
ecunomica
ecunomicamenti
ecunomichi
ecunomicu
ecunumi
ecunumia
ecunumicamenti
ecunumici
ecunumista
ed
edda
eddi
eddie
eddu
eddy
ede
eden
edgar
edi
edicions
edificata
edificatu
edificazzioni
edifici
edificio
edificiu
edilizzia
edimburgu
edinburgh
edison
edit
edith
edition
editions
editor
editore
editori
editoriale
editors
editrice
editrici
edittu
edituri
edituriali
edizione
edizioni
edizzioni
edizziuni
edm
edmond
edmund
edney
edoardo
edouard
eds
eduard
eduardo
eduardu
education
educational
educaturi
educazzioni
edvard
edward
edwards
edwin
ee
eelam
ef
efesini
efesu
effe
effect
effetti
effettivu
effettu
efficaci
efficienti
efficienza
effirenti
effittivamenti
effittivu
effittuati
effittuatu
egg
eggeu
eggh
egghe
egghie
eggittu
eggizzi
eggizzia
eggizziana
eggizziani
eggizzianu
eggizziu
egin
egittu
egiziano
egizziani
egizzianu
ego
egun
egypt
eh
ei
eiffel
einaudi
einstein
eire
eisenhower
eisenstein
eiu
eius
ejido
ek
el
ela
elabburari
elabburati
elabburazzioni
elasticitati
elba
ele
elea
eleanor
elected
elections
electric
electron
electronic
electronics
elefanti
elegante
eleggi
elektra
eleme
elementa
elementari
elementi
elemento
elements
elementu
elemintari
elena
elenca
elencu
eleonora
elephant
eletta
eletti
eletto
elettra
elettrica
elettriche
elettrici
elettricu
elettro
elettroni
elettronica
elettru
elettrumagnetica
elettrumagnetiche
elettrumagneticu
elettrumagnetismu
elettruni
elettrustatica
elettu
eletturali
eleuteriu
elevata
elezioni
elezzioni
eli
elia
elias
elico
elie
eliganti
eliggi
eliggiu
eliggiuta
eliggiuti
eliggiutu
elimenti
elimentu
elimi
elimina
eliminari
eliminata
eliminatu
eliminazzioni
elimintari
elio
eliot
elisa
elisabbetta
elisabeth
elisabetta
eliti
elittricitati
elittro
elittroni
elittura
elitturali
elitturi
eliu
elivata
elivatu
elizabeth
elizzioni
elizziuni
ell
ella
elle
ellen
elleno
elli
ellie
ellington
ellini
ellinistica
elliott
ellis
ellissi
ellissoidi
ellittica
ellu
elmu
elo
eloquentia
eloru
elsa
else
elseif
elton
eltsin
elvira
elvis
em
emanata
emanati
emancipazzioni
emanuel
emanuele
emanueli
emberiza
eme
emergenza
emergi
emerson
emetti
emi
emigranti
emigrari
emigrati
emigrau
emigrazzioni
emil
emile
emilia
emiliano
emilianu
emilio
emiliu
emily
eminem
eminescu
emirati
emiratu
emirgenti
emirgenza
emiri
emiru
emisferu
emission
emissioni
emittenti
emivita
emma
emmanuel
empe
empedocle
empedocli
emperado
empi
empire
empirismu
empoli
emporio
empu
emuglubbina
emuzzioni
en
encelado
enceladu
enciclopedi
enciclopedia
encyclopedia
end
endangered
ends
enduro
ene
enea
eneidi
energeticu
energi
energia
eng
engelm
engels
engine
engineering
england
englert
english
eni
enicyn
enigma
enirge
enirgi
enirgia
enna
enne
ennio
ennisi
enniu
enormi
enotri
enough
enrico
enricu
enrique
ens
ensemble
ensuen
ente
entella
enter
entertain
entertainment
enti
entita
entitati
entity
entityid
entrambi
entrata
entroterra
entru
entruterra
entry
entusiasmu
enu
enza
enzima
enzimi
enzo
enzu
eo
eoli
eolie
ep
epa
epatica
epatiti
epi
epicentru
epide
epidemia
epidimi
epidimia
epigrammi
epiru
episcopale
episode
episodi
episodio
episodiu
epistulari
episuda
episudi
epitaph
epoca
eppi
epsilon
epuca
equaturi
equaturiali
equazioni
equazzioni
equestri
equilibbriu
equilibriu
equini
equipaggi
equipaggiu
equivalent
equivalenti
er
era
eraclea
erane
erano
eranu
erasmo
erato
erba
erbi
erbivuru
erc
erculanu
erculi
erdo
ere
eredi
eredita
erei
eremu
eren
eresi
eretta
erettu
erg
ergu
eri
eric
erici
eriditati
erik
erika
erimiti
erinu
eris
eritrea
eritria
ermu
erne
ernest
ernesto
ernestu
ernst
ero
eroe
eroi
eros
erra
errati
errhandler
error
errore
errori
errors
erruri
erruzzioni
ersa
erse
ersi
ersu
ertl
eru
erunu
eruttivi
eruzzioni
erva
ervi
erwin
erzegovina
es
esa
esagunu
esami
esamina
esaminari
esatta
esattamenti
esattu
esca
escape
eschilu
escludi
esclusioni
esclusivamenti
esclusu
escrizzioni
escursioni
escursiunismu
ese
esecutivu
esecuzioni
esecuzzioni
eseguiri
eseguitu
esempi
esempia
esempio
esempiu
esemplari
esequi
esercita
esercitata
esercito
esercitu
esi
esibbi
esibbisci
esibbizzioni
esibirisi
esibizioni
esibizzioni
esicutivu
esicuzzioni
esiggenza
esiggenzi
esiliatu
esiliu
esima
esimu
esircitari
esircizziu
esiste
esistenti
esistenza
esisti
esistinu
esistiri
esistunu
esitari
eso
esordio
esordiu
espan
espansioni
espanyol
espanzioni
espe
esperantista
esperantisti
esperanto
esperantu
esperienza
esperimentu
esperti
espertu
espirenza
espirienza
espirimenti
esplosioni
espluraturi
esplusioni
esponenti
esponi
esposito
esposizioni
esposizzioni
esposta
esposti
espostu
espressa
espressi
espressioni
espressiuni
espresso
espressu
espri
esprimi
esprimiri
esprissioni
espulsioni
espulsu
espunenti
espunuta
espunuti
espusizzioni
essa
essara
essays
esse
essen
essendu
essennu
essenza
essenzi
essenziali
essenziarmenti
essere
esseri
essi
essinziali
essinziarmenti
essiri
est
esta
establishment
estate
estati
este
estensioni
estenzioni
esteri
esterna
esterni
esternu
estero
estesa
estesu
estetica
esteve
esteves
esti
estinni
estinsioni
estinsiuni
estinta
estintu
estinzioni
estiru
estivi
estivo
estivu
esto
estone
estonia
estratti
estrattu
estrazzioni
estrema
estremadura
estremi
estremita
estremitati
estremu
estrimamenti
estrimitati
et
eta
etati
etc
ete
eterna
eterno
eternu
ethnologue
eti
etiam
etica
etichetta
etienne
etimolo
etimologico
etimoluggi
etimuluggi
etiopia
etiri
etna
etnea
etneu
etni
etnia
etnica
etnichi
etnie
etnii
etno
etnoluggi
etrusca
etruschi
etruscu
etta
ettari
ettore
ettu
etture
etturi
eu
eubbea
euclidi
eud
eufemia
eufemiu
eufrati
euge
eugene
eugenio
eugeniu
eukaryota
euler
euleru
eunu
eunucu
euphorbia
euplu
eupresia
eurasia
eure
euri
euro
eurobet
europa
europaeus
europe
europea
european
europee
europei
europeo
europeu
eurovision
euru
eurupea
eurupei
eurupeu
eurupii
eusebi
eusebio
euskadi
euskal
euskera
eusko
eustochia
eutalia
eutidemu
eutifroni
ev
eva
evanescence
evangelista
evangelisti
evangilizzaturi
evans
evaristu
even
eventi
eventu
eventuale
eventuali
ever
everest
everett
everiu
everly
every
everybody
everyone
everything
evi
evian
evic
evidence
evidenti
evidenza
evidenzia
evil
evintuali
evintuarmenti
evis
evita
evitannu
evitari
evolution
evoluzzioni
evu
evuluta
evuluzzioni
ex
examen
example
excesses
exercises
exeter
exire
expansion
experience
explorer
express
extended
extinct
extra
extract
extracumunitari
extrasulari
extreme
extremis
exupe
eye
eyes
ez
ezra
f
fa
fabbiu
fabbrica
fabbricanti
fabbricari
fabbricata
fabbricati
fabbricatu
fabbricau
fabbricazzioni
fabbrichi
fabio
fabiu
fables
fabri
fabrizio
fabrizziu
facci
faccia
facciali
facciata
faccio
face
facebook
facemu
facendu
facennu
facenti
facere
faceva
facevunu
faci
facia
facianu
facie
faciemu
faciennu
facile
facili
facilita
facilitari
facilitati
facilmenti
faciri
facirmenti
facissi
facisti
facit
faciti
faciunt
faciuta
faciuti
faciutu
faciva
facivanu
facolta
fact
factbook
facto
factor
factum
faculta
facultati
facurta
facurtati
fadl
fagu
fahd
fahrenheit
fai
faidda
failed
fair
faire
fairy
faith
falange
falangi
falcem
falco
falcon
falcone
falconi
falcuniri
falignami
falkland
fall
falla
fallen
falli
fallignami
fallimentu
fallimintari
falling
falliri
fallisci
falliu
fallu
fallutu
falo
false
falsetto
falsettu
falu
fama
fame
fami
famigghi
famigghia
famigghiari
famigha
famiglia
famiglie
famija
familia
familiari
family
fammi
famosa
famosi
famosu
famusa
famusi
famusu
fan
fangio
fangu
fani
fanno
fannu
fans
fanta
fantascienza
fantasi
fantasia
fantasma
fantastici
fantastiliardu
fantastiliuni
fantasy
fanti
fantiria
fantozzi
fanu
fapi
far
fara
faraday
faragghiuni
farauna
farauni
farc
farcu
farcuni
fardella
fare
farfalla
fargs
fari
farici
farina
farini
farisi
farlu
farm
farmace
farmaci
farmacista
farnese
faro
farsettu
farsi
farsu
faru
fasanu
fasci
fascia
fascinu
fascismu
fascista
fascisti
fasciu
fashion
fashioned
fasi
faso
fast
fasti
fastidiu
fasu
fat
fata
fatali
father
fati
fatica
fatimita
fatimiti
fats
fatta
fatte
fatti
fatto
fattori
fattu
fattura
fatturi
fau
faula
fauna
faure
fauri
fausto
faustu
fausu
fava
favara
favarotta
favi
favignana
favole
favuli
favure
favurennu
favurevuli
favuri
favuriggiamentu
favuriri
favurisci
favurita
favuriti
favuritu
favuruta
favurutu
fazara
fazellu
fazio
fazzioni
fazziu
fazziuni
fazzu
fazzulettu
fb
fc
fdi
fe
fear
feat
feature
features
featuring
febbraio
februarius
february
fece
feci
fedda
feddi
fede
fedele
fedeli
federacio
federal
federali
federation
federazione
federer
federico
federicu
fedez
fedi
fedru
feel
fei
feira
feldman
feli
felice
felici
felicita
felipe
felix
fell
feller
fellini
feltham
felton
feltrinelli
femme
femmes
femminile
femminili
femmu
fender
fenech
fenice
fenici
fenomeni
fenomeno
fenomenu
fer
fera
ferdinand
ferdinandea
ferdinando
ferdinandu
ferdinannu
ferenc
ferguson
feri
ferita
ferla
ferma
fermat
fermi
fermu
ferna
fernand
fernanda
fernandez
fernando
ferra
ferrand
ferrara
ferrari
ferrarista
ferrer
ferreri
ferrero
ferri
ferro
ferru
ferruccio
ferruvi
ferruvia
ferruviari
ferruviaria
ferruviariu
ferruvii
fert
fertili
ferula
fes
fest
festa
feste
festeggiata
festi
festival
festivalbar
fesu
fetu
feu
feudalesimu
feudali
feudatari
feudatariu
feudi
feudu
fever
feynman
ff
ffa
ffari
ffd
fff
ffff
ffici
fficu
ffrinu
ffriri
ffrunu
fg
fi
fiabe
fiamma
fiamminga
fiammingu
fianco
fiandri
fiat
fiata
fiati
fibbra
fibbri
fibonacci
fibra
fica
ficaci
ficanu
ficarazzi
ficarra
ficatu
fice
ficeru
fichi
fici
ficia
ficiro
ficiru
fiction
ficu
ficudinnia
ficus
fida
fidau
fidduzzi
fide
fidel
fideli
fidelis
fides
fidi
fidia
fidili
fidirali
fidirati
fidirazzioni
fidirazziuni
fidirica
fidiricu
fidoni
fidu
fiducia
fie
field
fields
fiera
fieri
fierra
fiesole
fifa
fifth
figaro
figc
figghi
figghia
figghiozzu
figghiu
figgi
figha
fighi
fight
fighters
fighting
fighu
figli
figlia
figlie
figlio
figliu
figo
figura
figuranti
figurativamenti
figuri
fihr
fiju
fijura
fijuri
fil
fila
filabussi
filadelfu
filamentu
filangeri
filastro
filastrocca
filastrocchi
file
files
fili
filici
filicitati
filicudi
filinu
filippina
filippini
filippisi
filippo
filippu
filistei
film
filmati
filmatu
filmografia
films
filmuggrafi
filmugrafi
filo
filologici
filoluggi
filosofia
filosofo
filostro
filosufi
filosufia
filosufu
filteredclaims
filtru
filu
filuso
filusofia
filusofica
filusufi
filusufia
fimmarsi
fimmina
fimmini
fimminili
fimminina
fimminini
fimmininu
fimminismu
fimminista
fimurali
fin
fina
finadora
final
finale
finali
finalista
finalitati
finalmenti
finals
finanza
finanzi
finanziamenti
finanziamentu
finanziari
finanziaria
finanziariu
finanziata
finanziatu
finarmenti
finche
finchi
find
fine
finennu
fineru
finestra
finestri
fini
finici
finicia
finiciu
finiri
finisci
finiscinu
finisciunu
finistruni
finita
finiti
finitu
finiu
finizio
finizioni
finlandese
finlandia
finlandisi
finlannia
finlannisa
finlannisi
finn
fino
finocchiu
finomina
finominu
finora
finta
finu
finucchiaru
finuta
finuti
finutu
fiore
fiorella
fiorellu
fiorentina
fiorentino
fiorentinu
fiori
fira
firanu
firarru
firau
firdinandu
firdinannu
fire
firefox
firenze
firenzi
firi
firita
firiti
firitu
firm
firma
firmari
firmaru
firmata
firmati
firmatu
firmau
firmi
firmintazzioni
firmo
firoci
firranti
firrara
firraru
firrata
firri
firriari
firroviario
firruvi
firruvia
firruviari
firruviaria
firruviariu
firruvii
first
firtilita
firtilitati
firu
firuti
firutu
fisarmo
fisarmonica
fiscali
fischer
fish
fisher
fisica
fisicamenti
fisiche
fisichi
fisici
fisicu
fisioluggi
fissa
fissari
fissata
fissati
fissatu
fissi
fissioni
fissu
fissura
fiste
fisteggia
fistiggiamenti
fistiggiari
fistiggiata
fistiggiatu
fistinu
fistivitati
fit
fitalia
fitta
fitti
fittivi
fitusu
fitzgerald
fiu
fiudale
fiudali
fiudatari
fiume
fiumi
fiumicinu
fiura
fiure
fiuri
fiurini
fiurintinu
fiurinu
five
fivelandia
fivra
fivraru
fix
fl
flaccovio
flaccu
flag
flamencu
flaming
flap
flash
flaubert
flauti
flauto
flautu
flava
flavia
flavio
flaviu
flavius
fleet
fleetwood
fleming
fleurs
flick
flight
flissi
flissioni
flix
flnc
flo
floor
flora
florem
floresta
floriana
florida
floridia
florio
floriu
flotta
flotti
flower
flowers
floyd
flu
fluenza
fluidu
fluoriscenti
flushing
flussi
flussu
fluviali
fly
flyer
flying
flynn
fm
fo
foca
focara
fochi
foci
focu
foddi
foe
fogar
fogghi
fogghia
fogghiu
foggia
fogh
fogna
folclori
folk
folklore
folklori
follow
following
fomma
fommi
fondamentali
fondata
fondato
fondatore
fondatu
fondazione
fondo
fonds
fondu
fonetica
fonografu
fonseca
fonsi
font
fontaine
fontana
fonte
fonti
fonu
fonziu
foo
food
fool
foolin
foot
football
for
fora
forall
forastera
forasteri
forasteru
forbes
force
forces
ford
fore
foreign
foresta
forever
forficia
forget
fori
forli
form
forma
formally
formanu
format
formata
formation
formatmessage
formatnum
formattedqualifiers
formatu
formazioni
formazzioni
former
formi
formisano
formula
formuli
forni
forra
forru
forse
forsi
fort
forte
fortezza
forti
fortimenti
fortuna
fortunato
fortunatu
foru
forum
forza
forze
forzi
fosculu
fose
fossa
fossati
fossato
fosse
fossi
foti
fotinu
foto
fotografi
fotografico
fotoni
fotu
fotugra
fotugrafatu
fotugrafi
fotugrafica
fotusfera
foucault
found
foundation
founded
four
fourth
fourvie
fox
fr
fra
frac
fracassini
frack
fragala
fraggili
frama
frame
frameless
frammenti
frammentu
frana
franc
franca
francavigghia
francavilla
france
frances
francesc
francesca
francesco
francescu
francese
francesi
franchi
franchincenzu
franchisti
franci
francia
francis
francisa
francisca
franciscani
franciscanu
francisco
franciscu
francisi
franco
francoforte
francombat
francu
francubbulla
francubbullu
francubulla
francuforti
francupruvinzali
frank
frankenstein
frankfurt
frankie
franklin
franz
franza
franzisi
frasa
frasca
fraser
frasi
fratastru
frateddu
fratelli
fratello
frati
fratillanza
frattali
frattempu
frattura
fratturi
fravicata
frazione
frazioni
frazzano
frazzione
frazzioni
frazziuni
fre
frecci
freccia
fred
freddie
frederic
frederick
fredrik
free
freedom
freeman
freeride
freggi
fregi
frena
french
freni
frenu
frequenti
frequenza
frequenzi
fretless
freud
frevi
fri
fribourg
friburgu
frica
frida
fridda
friddi
friddu
friedman
friedrich
friend
friends
frijiri
frimmata
frimmo
frinata
frinza
friquenta
friquenti
friquenza
friquenzi
friquintari
friquintata
friquintatu
friquintau
friquintazzioni
friquintimenti
frisca
friscalettu
frischi
frischizza
friscu
fritta
fritti
fritz
friulanu
friuli
friva
frivaru
fro
frodi
from
front
fronte
fronti
frontier
frontiera
frontman
frotta
frozen
fru
frumaggi
frumaggiu
frumentu
frummentu
fruntali
fruntera
frunteri
frunti
fruntiera
fruntispizziu
frusinuni
frutta
frutti
fruttu
fs
fsb
ft
fu
fuca
fucaddu
fucali
fucazza
fuci
fucili
fucu
fudda
fuddi
fudduni
fudi
fue
fuecu
fueros
fuga
fugghiettu
fui
fuiri
fuit
fuiuta
fujeru
fuji
fujiri
fujuta
fujuti
fukuryu
fulcluri
fulcru
fuli
fulippu
full
fully
fulu
fumari
fumata
fumetti
fumettu
fumi
fumma
fumo
fumu
fun
funa
funci
funcia
function
functions
fund
fundamental
fundata
fundaturi
fundazzioni
fune
funemi
fungi
funi
funiculari
funirali
funivia
funk
funky
funna
funnali
funnamenta
funnamentali
funnamenti
funnamentu
funnamintali
funnamintalismu
funnannu
funnanu
funnari
funnaru
funnata
funnati
funnatrici
funnatu
funnatura
funnaturi
funnau
funnazioni
funnazzioni
funnazziuni
funne
funnel
funni
funno
funnu
funnuta
funnuti
funnutu
funny
funster
funtana
funtani
funti
funu
funziona
funzionamentu
funzionanti
funzione
funzioni
funziunali
funziunalismu
funziunalitati
funziunamentu
funziunanti
funziunari
funziunariu
funziuni
fuo
fuoco
fuori
fuorri
fuorru
fuoru
fur
fura
furaggiu
furasteri
furat
furby
furca
furcedda
furci
furenzi
furesta
furesti
furi
furia
furistali
furisteri
furiu
furma
furmaggi
furmaggiu
furmali
furmalmenti
furmannu
furmanu
furmari
furmarmenti
furmaru
furmata
furmati
furmatu
furmau
furmava
furmazioni
furmazzioni
furmentu
furmi
furmintuni
furmo
furmulazzioni
furnaci
furnennu
furni
furniri
furnisci
furnita
furniti
furnitu
furnituri
furnu
furnutu
furono
furri
furria
furriari
furtado
furtezza
further
furti
furtificannu
furtificata
furtificati
furtificatu
furtificazzioni
furtimenti
furtinu
furtizza
furtizzi
furtu
furtuna
furtunatu
furu
furunu
furzari
furzata
furzatu
fusa
fusfati
fusfatu
fusfurilazzioni
fusi
fusioni
fussati
fussatu
fussetta
fussi
fussiru
fusti
fustu
fusu
futo
futtibboll
futu
futuni
futura
future
futuri
futuro
futuru
fær
g
ga
gabbana
gabbrieli
gabon
gabor
gabriel
gabriele
gabrieli
gabriella
gabry
gabus
gaddia
gaddina
gaddu
gadi
gae
gaelic
gaertn
gaeta
gaetana
gaetani
gaetano
gaetanu
gagarin
gaggia
gaggini
gagini
gagliardi
gahan
gaia
gaitanu
gaiu
gaius
gal
gala
galactic
galanti
galapagos
galassi
galassia
galassii
galatea
galati
galatina
galatticu
galaxy
galenu
galera
galermu
galganu
galicia
galilei
galileo
galileu
galizzia
galizziana
gallagher
gallari
gallaudet
galle
gallega
gallegu
galleria
gallery
galles
galli
gallia
gallicanu
gallienu
gallimard
galliri
galliria
gallisi
galliu
gallo
gallorumanzu
gallu
gallura
gallurisi
galo
galois
galoppu
galuppandu
galuppari
gama
gamba
gambia
game
games
gamma
gammi
gan
gana
ganci
gandalf
gandhi
gandusciu
gang
gangi
gangnam
gangularu
ganu
ganzirri
gao
gara
garage
garantennu
garanti
garantiri
garantisci
garanzi
garanzia
garci
garcia
gard
garda
garden
gardner
gardon
garfield
garfunkel
garganu
gari
garibaldi
garibardi
garibbaldi
garibbaldini
garibbardi
gariglianu
garland
garnier
garonna
garonne
garrett
garros
garrulus
garry
gary
garzanti
gas
gaspard
gaspare
gaspari
gasperi
gassi
gassman
gassusi
gassusu
gasteiz
gastone
gastra
gastrectumi
gastrica
gastro
gastronumi
gastruno
gastrunumi
gata
gate
gates
gati
gatta
gatti
gatto
gattopardo
gattu
gatu
gauguin
gaulle
gauss
gavrilo
gay
gaza
gazprom
gazzetta
gb
gc
gd
gdan
ge
gea
gecko
gedda
gees
geisha
gel
gela
gelatu
geldof
gelli
geloi
gelosia
gelusia
gemma
gen
gene
genera
general
generale
generali
generalitat
generation
generazioni
genere
generi
genesis
genghis
gengis
geni
geniri
genista
geniu
genius
gennaio
gennaiu
gennaro
genoa
genocidiu
genova
genovese
gente
genti
gentile
gentileschi
gentiluomo
gentleman
genus
genuva
geo
geoff
geoffrey
geofisica
geogra
geografia
geografichi
geolo
geological
georg
george
georges
georgia
ger
gera
gerace
geraci
gerais
gerald
gerard
gerardina
gerardu
gerbi
gerhard
gerhart
gerland
germain
german
germania
germano
germanofunu
germany
germi
gernika
gerolamo
gerone
geronimi
gerry
gers
gershwin
gersuminu
gertrude
gerunniu
gerusalemmi
gesti
gestioni
gestisci
gestu
gesu
gesualdo
gesualdu
gesuiti
get
getargs
getcurrentframe
getica
getparameters
getparent
getproperty
getting
getty
geumitri
gev
gewa
gfp
gg
ggenti
ggh
gghe
ggherbi
gghi
gghia
gghianu
gghiari
gghiata
gghiati
gghie
gghienti
gghinu
gghiornu
gghiri
gghiu
gghiunu
gghjiesa
ggi
ggia
ggianu
ggica
ggichi
ggici
ggicu
ggida
ggidi
ggidu
ggili
ggimi
ggina
ggini
gginu
ggira
ggiri
ggiru
ggiu
ggiunu
gguantari
gh
ghali
ghana
gheddafi
gheorghe
ghetti
ghezzi
ghi
ghia
ghiacciai
ghiacciata
ghiacciu
ghie
ghiera
ghil
ghiri
ghiucatu
ghost
ghz
gi
gia
giacarta
giacca
giacchi
giachery
giacinto
giacomelli
giacomo
giacumetti
giacumu
giafar
gialla
gialli
giallu
giamaica
giamaicana
giamaicanu
giambattista
giameddi
giameddu
giamelli
giamillaggi
giamillata
giampiero
gian
giancarlo
giancarlu
gianfranco
gianfrancu
gianguerciu
gianluca
gianluigi
gianni
giannini
giannuminicu
giant
giants
giappone
giapponese
giappuni
giappunisa
giappunisi
giardina
giardini
giardino
giardinu
giarna
giarni
giarnu
giarre
giarri
giarrizzo
giasuni
giava
giavillottu
gibbilterra
gibbuti
gibran
gibson
gica
gicanti
giesu
gift
giga
giganti
gigghi
gigghia
gigghiu
gigi
gigli
gil
gilatu
gilbert
gilberto
gilgamesh
gilisi
gillian
gilmour
giluni
gilusi
gimanu
gimelli
gimme
gimmillaru
gina
gine
ginestra
ginetica
ginevra
ginger
gini
ginira
ginirali
giniralizzazzioni
giniralmenti
ginirari
ginirarmenti
giniratu
ginirazzioni
giniri
giniricamenti
ginirusa
ginitali
ginitori
ginitura
ginituri
ginna
ginnaru
ginnasiu
gino
ginocchiu
ginoma
gintili
ginu
ginuvisi
gio
gioacchino
giobair
giochi
gioco
gioeni
giofi
giogra
giografi
giografia
giografica
giograficamenti
gioi
gioia
gioiosa
gioja
giolo
gioluggi
giome
giometri
giomitri
giomitria
gion
giopuli
giordania
giordano
giordanu
giorgi
giorgia
giorgiana
giorgiani
giorgianu
giorgio
giorgiu
giornale
giornali
giornalista
giornalisti
giorni
giorno
giosue
giottu
giova
giovan
giovane
giovani
giovanile
giovanili
giovanna
giovanni
gioventu
giovi
gipari
gira
giraffa
girannu
girarchi
girardina
girardu
girari
girata
girati
giratu
girau
girava
girgenti
girgintanu
giri
girl
girlfriend
girls
girma
girmania
girmanica
giro
girolama
girolamo
girolamu
gironda
giru
giruna
giruni
girunniu
girusalemmi
giseppi
gissu
gisti
gistioni
gistiri
gistisci
gisturi
gistuta
gistutu
gisu
gisuardu
gisuita
gisuiti
giu
giua
giuacchinu
giuanni
giuda
giudaichi
giudei
giudeo
giudeu
giudicatu
giudice
giudici
giuditta
giudizziu
giue
giufa
giuffrida
giugnettu
giugno
giugnu
giugra
giugrafi
giugrafica
giugraficamenti
giuielli
giuiusa
giujusa
giulia
giuliana
giuliano
giulianu
giulietta
giulio
giuliu
giume
giumitri
giuni
giunta
giura
giuramentu
giurana
giurati
giurdania
giurdanu
giurgenti
giuri
giuria
giuridica
giurisdizzioni
giurisprudenza
giurista
giurlannu
giurnali
giurnalista
giurnalisti
giurtelecu
giuseppe
giuseppi
giusta
giustamenti
giusti
giustificari
giustificazzioni
giustinianu
giustizia
giustizzia
giustu
giusy
giuva
giuvan
giuvani
giuvanili
giuvanna
giuvanni
giuvina
giuvini
giuvintu
give
given
gives
gje
gl
glaciali
glados
glam
glasgow
glasnost
glass
glassa
gleick
glen
glenda
glenn
gli
glia
gliari
glicuggenu
gliu
glo
global
globals
globbu
globe
globulari
gloria
glubbali
glubbalizzazzioni
glubina
glucosiu
glume
glumirulari
gluriusa
gluttons
gm
gn
gna
gnanu
gnaziu
gnazziu
gneu
gnina
gno
gnome
gnu
gnuli
gnunu
gnuranti
gnuranza
gnustriali
gnuttica
go
goal
gobi
god
godfather
godfrey
godi
godiri
gods
godwin
goes
goethe
goettingen
goffredo
gogh
goin
going
gol
gola
golan
gold
goldbach
goldberg
golden
goldenrod
goldsmith
gole
golf
golfo
golfu
gomes
gomez
gon
gondor
gone
gong
gonna
gonza
gonzaga
good
goodbye
goodman
google
googol
googolplex
gora
gorbachev
gorbaciov
gordon
gore
gorgia
gori
gorizzia
gospel
gosławski
got
gothic
goti
goticu
gotta
gottfried
gottinga
gotto
gov
government
governo
governu
gozo
gp
gpl
gps
gr
gra
grabowski
grace
grade
gradi
gradinata
grado
gradu
graduali
graduarmenti
graeca
graffiti
grafi
grafica
grafichi
graficu
grafiti
grafu
graham
grain
gram
grama
gramma
grammar
grammatica
grammaticali
grammi
grammicheli
grammu
grammy
gramps
gramsci
gran
grana
granada
granara
granaru
granati
granatu
granci
granciu
grand
grande
grandi
grandpa
granducatu
grani
granita
granne
granni
grannissima
granniusu
grannizza
grannizzi
grannni
grant
granu
granuturcu
granville
grape
grapennu
graperu
grapi
grapiri
graputa
graputi
graputu
grascia
grasciu
grass
grassa
grasshoppers
grassi
grasso
grassu
grasta
grasti
grata
gratis
gratta
grattarola
grattata
gratu
gratuita
gratuitamenti
gratuitu
grau
gravi
gravidanza
gravimenti
gravina
gravita
gravitati
gravitazzionali
gravitazzioni
gravitazziunali
gravity
gray
graz
grazi
grazia
grazie
grazzi
grazzia
grazzianu
grazzie
grb
gre
great
greatest
greca
grechi
greci
grecia
greco
grecu
greece
greek
green
greene
greenm
greenwich
greg
gregori
gregorio
gregoriu
gregory
grenada
grenadine
grenoble
greta
grey
gri
grica
griciu
grida
gridannu
gridari
griddu
grido
gridu
grieci
griffin
grigghia
griggiu
griggiuni
grigiu
grigori
grigorianu
grigoriu
grigurianu
griko
grillo
grillu
grima
grimaldi
griseb
grisham
groenlandia
groenlannia
grohl
groove
grossa
grossi
grosso
grossu
grothendieck
ground
group
gru
gruenberg
grunge
gruppa
gruppi
gruppo
gruppu
grussetu
grutta
grutti
gs
gsub
gu
gua
guadagna
guadagnari
guadagni
guadagnu
guadalajara
guadalupa
guadalupe
guai
gualtieri
guam
guanti
guapparia
guaragna
guarani
guarda
guardari
guardi
guardia
guardian
guardianu
guarigioni
guarinu
guariri
guaritu
guarnitura
guascogna
guatemala
guccini
guddefi
gudi
gue
guelfi
guernica
guerra
guerre
guerri
guerrieri
guerrigghia
guerrisi
guest
guevara
guez
guggenheim
gugghermu
gugghiermu
guglielmo
guglielmu
gugliermu
gui
guida
guidari
guidata
guidati
guidatu
guidau
guide
guidi
guido
guidu
guillaume
guimar
guinea
guini
guinia
guinness
guirreri
guiscardu
guitar
guitu
gujana
gujarat
gula
gulag
gulf
gulfu
guli
gulisanu
gumball
gumma
gummi
gun
gunnar
guns
gunu
gunzaga
gura
gurfu
guri
guria
guru
gustaf
gustav
gustave
gustavo
gusti
gustu
gustusi
gutenberg
guthrie
gutta
gutti
gutturali
guvennu
guverni
guvernu
guvinnari
guvirnari
guvirnaturi
guy
guyana
gv
gy
gyi
gymnase
gyo
għarb
h
ha
habemus
haber
habere
habet
habitat
hacker
had
hadron
hafiz
hagen
hagghie
hagghiu
hahn
hai
haia
haile
haiti
haiu
haj
haju
hal
hale
halen
hall
halley
halych
ham
hamas
hamdis
hamill
hamilton
hammer
hammersmith
hampshire
hamu
han
hana
hand
handicap
hands
hang
hann
hanna
hannah
hanno
hannover
hannu
hanoi
hans
hansen
hanu
hapkido
happi
happiness
happiru
happy
hara
harald
harbour
hard
hardcore
harding
hardware
hardy
harold
harris
harrison
harry
hart
hartree
harvard
harvey
has
hasan
hasekura
hassan
hastings
hat
hate
hattu
hauptmann
hausa
haut
haute
hava
havanu
have
havel
havemu
havi
havia
havianu
having
haviri
havnu
havutu
hawaii
hawkins
hawqal
hayek
hayes
hazzm
hbar
hd
he
head
headlong
heads
hear
heart
hearts
heat
heather
heathrow
heaven
heavy
hebben
hebe
hebrew
hegoalde
heidelberg
heights
heinrich
heisenberg
helen
helena
helga
hell
hellas
hello
helmut
help
helps
helsinki
hemingway
henderson
hendrik
hendrix
henle
henri
henrik
henry
henryk
her
herb
herba
herbert
herbita
here
herge
heri
herman
hermann
hermano
herna
hero
heroes
herria
herschel
hertog
hertz
herzegovina
hessen
het
hetfield
hey
hezbollah
hi
hibakusha
hic
hidden
hideki
higgs
high
highlander
highway
hilbert
hill
hillard
hillary
hills
him
himalaya
himalayan
himera
himself
hindi
hindu
hip
hipparcos
hiroshi
hiroshima
hirundo
his
hispaniola
histo
histoire
historia
historical
history
hit
hitler
hitman
hits
hiv
hive
hjelmsley
hjuri
hler
hm
ho
hoare
hobbes
hoc
hockey
hodges
hodie
hoff
hoffm
hoffman
hoffmann
hohenstaufen
hoi
hold
holding
hole
holiday
holland
hollande
holloway
holly
hollywood
holm
holmes
home
homel
homer
hominem
homines
homini
homo
hompesch
homs
homu
honduras
honey
hong
honolulu
honor
honoris
hood
hook
hooker
hoople
hop
hope
hopkins
hora
horace
horatio
hordeum
horizons
horizonte
horma
horn
horror
horse
horst
horza
hosni
hospital
hot
hotel
hou
houel
hour
hours
house
houston
how
howard
howe
howell
hq
hr
hrodna
ht
htm
html
http
https
hu
hua
huang
hubble
hubert
hucknall
hudson
huene
hugh
hughes
hugo
hugues
hull
human
humans
humbert
hume
humphrey
humpy
hunt
hunter
hurt
husayn
husky
hussein
huston
hutton
huxley
huygens
hwarang
hyblaea
hyde
hz
i
ia
iacqua
ian
iana
ianca
ianu
iata
iattu
ib
ibbe
ibberica
ibbi
ibblei
ibe
iberica
ibex
ibi
ibico
ibis
ibiza
ibla
ibm
ibn
ibrahim
ic
ica
icao
icarus
iccetira
ice
iceland
ich
ichi
ichiro
ici
icon
icona
iconi
iconografi
iconumia
icu
icunomica
id
ida
idaho
idda
iddhi
iddhu
iddi
iddra
iddru
iddu
ide
idea
ideali
ideas
idee
idei
idem
identificari
identita
identitati
identity
ideolo
ideoluggi
ideoluggia
idi
idia
idiali
idinti
idintifica
idintificari
idintificata
idintificati
idintificatu
idintificazzioni
idintita
idintitati
idioluggi
idioma
idiomi
idiuluggi
ido
idol
idra
idrisi
idro
idroele
idrogginu
idrogra
idrusulu
idu
iducazzioni
ie
iec
ieni
iera
ieri
ieruni
iessiri
if
iffetti
iffettu
ifriqiya
ifriqya
iglesias
ignazio
ignazziu
ignoti
ignoto
igor
igt
ii
iii
ije
ik
ikurrin
il
ila
ilariu
ilariuni
ile
ilettu
iliadi
iliggiutu
ilimenti
ilittricitati
ilizzioni
iljin
ill
illa
illarionovic
ille
illigali
illinois
illiricu
illu
illuminata
illuminatu
illuminazione
illuminazioni
illuminazzioni
illuminismu
illuminista
illusioni
illustrata
illustraturi
illustrazzioni
illustri
ilo
ilu
ilya
im
ima
image
images
imagine
imaging
imam
imboscata
imdb
imera
imeresi
imircuni
imitari
imitazzioni
imleului
imma
immacolata
immaggini
immagine
immagini
immanuel
immediatamenti
immigrati
immigrazzioni
immortali
immortalita
immurtali
impastato
impattu
impeducli
impegnu
imperatori
imperia
imperial
imperiali
impero
impertinente
imperu
impiantu
impiegatu
impiraturi
impiriali
implications
importa
importante
importanti
importanza
imprenditore
impromptu
improvvisamente
improvvisazioni
improvvisazzioni
impulsu
impurtanti
impurtanza
imu
in
ina
inauguratu
inaugurazzioni
inazuman
inc
incanto
incaricu
incendiu
incerti
inch
inchi
inchiesta
inchiostru
incident
incidenti
incidi
incirca
incisa
incisi
incisioni
incisu
inciu
includi
including
includunu
inclusa
inclusi
inclusu
incompleta
incontri
incontro
incontru
incrudunu
incrusi
incudine
ind
indentazione
independence
independent
indettaglio
index
indi
india
indian
indiana
indiani
indiano
indianu
indica
indicanu
indicari
indicativu
indicatu
indice
indici
indie
indios
indipendente
indipendenti
indipendenza
individuali
individuu
indo
indochina
indoeuropea
indoeuropei
indonesia
indre
indu
induismu
indunesia
industria
industrial
industriale
industriali
industrie
induzzioni
indye
ine
inedita
inediti
inerziali
infantinu
infanzia
infatti
inferiore
inferno
infi
infini
infinita
infiniti
infinitu
influence
influenza
influenzi
info
infobox
information
informazione
informazioni
informazzioni
infra
infrared
infraregnu
infraurdini
infruenza
infty
infurmatica
infurmazzioni
ingegneri
inghilterra
inghirterra
ingigneri
inglese
inglesi
inglisi
ingrassia
ingres
ingressu
ingrid
ingrisi
ini
inirgi
inirgia
initiations
iniuria
inizia
iniziale
iniziali
inizialmente
inizialmenti
iniziativa
iniziatu
iniziau
inizio
iniziu
inizzi
inizziali
inizziari
inizziativa
inizziu
inn
innamorato
innaru
inneres
inni
innia
inniana
inniani
innianu
innica
innicari
innicata
innicati
innicatu
innici
innipinnenza
innografu
innsbruck
innu
innuendo
ino
inoltre
inoltri
input
insecta
inserire
inserita
insert
inside
insieme
insiemi
inspector
institut
institute
instituto
instrumental
insurgency
int
inta
inte
integrali
intel
intelletto
intelligence
intendere
intendi
intenni
intensitati
inter
intera
interessante
interessatu
interesse
interessi
interfaccia
interlingua
interna
international
internationale
internazionale
internazionali
internet
interni
interno
internu
interu
interview
intervista
interviste
inti
intiressi
intirnazziunali
intita
intitulata
into
intorno
intornu
intra
intro
introduction
introduzione
introduzioni
intru
intrumental
intrupi
inturcetta
inu
inuit
inula
inutili
invades
invasion
invasioni
invece
inveci
inverno
invinturi
invisible
invitati
invito
invoke
inxs
inzemi
io
iommi
ion
ioni
ioniu
ionizzazzioni
iordanes
iorna
iornu
ios
iowa
ip
ipa
ipairs
iparralde
ipe
iperbuloidi
ipermitropia
ipi
ipircubbu
ipo
ipotesi
ipotisi
ipparcu
ippia
ippo
ippocrati
ippolito
ipsum
ipv
iquazzioni
iquilibbriu
iquivalenti
ir
ira
irachena
irachenu
irak
iraklion
iran
iranian
iraniani
iranianu
iraq
irasinni
ire
ireland
irene
iri
iris
irish
irkutsk
irlanda
irlandese
irlandisi
irlanna
irlannisa
irlannisi
iro
iroi
iron
ironia
ironicamenti
irpina
irpinu
irradia
irrazziunali
irregulari
irrigulari
iru
iruni
irving
is
isa
isaac
isabel
isabella
isaccu
isami
isamu
isan
isata
isauricu
isbn
isca
ischia
iscrissi
iscritti
iscrittu
iscrivi
iscrizzioni
ise
isempia
isempiu
isercitu
isernia
isi
isicuzzioni
iside
isil
isis
isistenza
isisti
isla
islam
islamabad
islamic
islamica
islamichi
islamici
islamicu
islamisti
island
islanda
islandia
islandisi
islands
islanna
islannia
islannisa
islannisi
isle
isma
iso
isola
isole
isomari
isonzo
isouard
ispica
ispira
ispirata
ispirati
ispiratu
ispiraturi
ispirau
ispirazioni
ispirazzioni
ispirienza
ispiro
isprissioni
israel
israeli
israeliana
israeliani
israelianu
israilianu
issi
issn
issu
issue
issues
istanbul
istantanea
istanti
istat
isti
istitui
istituita
istituiti
istituitu
istituti
istituto
istitutu
istituzioni
istituzzioni
istituzziunali
istoria
istria
istruzione
istruzioni
istruzzioni
isula
isulamentu
isulani
isulata
isulati
isulatu
isuledda
isuleddi
isuli
it
ita
itali
italia
italiae
italian
italiana
italiane
italiani
italiano
italianu
italic
italica
italici
italie
italo
italu
italy
itati
item
itf
ithil
iti
itinerari
itria
its
itself
ittar
itu
iu
iucaturi
iudex
iulia
iulius
iuratu
iure
iuri
iuris
iuropa
iuropea
ius
iv
iva
ivan
ivano
ivar
ive
iventa
iventi
iventu
ivi
ivo
ivu
ix
j
ja
jabbu
jabhat
jaci
jacintu
jaciriali
jack
jackie
jackson
jacob
jacobsen
jacobus
jacopo
jacqueline
jacques
jacunu
jacupu
jaddina
jaddini
jaddu
jag
jagger
jai
jailhouse
jaime
jaji
jakarta
jake
jakob
jalliri
jam
james
jamma
jammi
jamu
jan
janca
janchi
jancu
jancularu
jane
janeiro
janeiru
janis
janniscuru
janu
january
japan
japanese
japicu
japonaise
jaquet
jar
jara
jardina
jardini
jardinu
jaro
jaroslav
jart
jaru
jason
jatti
jattu
jatu
jaume
jauta
jauti
jautri
jautu
java
javascript
javi
javier
jawaharlal
jawhar
jawi
jay
jazeera
jazz
jazzista
jazzu
je
jealousy
jean
jedi
jeff
jefferson
jeffrey
jelu
jena
jeni
jennaru
jennifer
jennu
jenny
jens
jensen
jera
jerace
jeranu
jeremy
jerry
jersey
jertu
jeru
jerunu
jesi
jesse
jesu
jesus
jet
jethro
jetta
jeu
jeunesse
jeva
jewish
jfk
ji
jia
jiarda
jidde
jiditu
jihad
jihadista
jilatu
jill
jim
jimenta
jimi
jimmy
jinchi
jinchiri
jincutu
jinestra
jing
jinnaru
jinocchiu
jiri
jiru
jisa
jisau
jissi
jissu
jita
jiti
jitta
jittannu
jittari
jittaru
jittata
jittati
jittatu
jittau
jitu
jiu
jiva
jive
jivu
jnnaru
jo
joachim
joan
joanne
job
jobs
joca
jocanu
jocaturi
jochi
jocu
jocura
joe
joel
joey
johan
johann
johannes
johannesburg
john
johnny
johns
johnson
johnston
johr
joliot
jolu
jon
jonas
jonathan
jones
jong
joni
jonica
jonicu
joniu
joplin
jorca
jord
jordan
jorge
jorna
jorni
jorno
jornu
jose
joseba
josef
josep
joseph
josephson
josh
joshua
jospin
joss
joule
journal
jovanotti
jovi
jovidi
joy
joyce
jpeg
jpg
jr
jta
jttari
ju
jua
juan
juanni
juarez
juca
jucannu
jucari
jucata
jucati
jucatu
jucatura
jucaturi
jucau
jucava
juco
juda
judaismu
judas
jude
judet
judeu
judicari
judici
judizziu
judo
judy
jugnettu
jugnu
jugoslava
jugoslavia
juguslavia
jul
jula
jules
julia
julian
julianu
julie
julien
julio
julius
july
jump
junce
juncennu
junceru
junceum
junci
juncinu
junciri
junciu
junciuta
junciuti
junciutu
june
jung
jungle
junior
junta
junti
juntu
juranti
jurassic
jure
juri
jurisprudenza
jurnali
jurnalismu
jurnalista
jurnalisti
jurnata
jurnati
jus
just
justa
justice
justificazzioni
justin
justina
justinianu
justizzia
justu
jusu
juta
jutu
juvani
juvanili
juvanni
juvarra
juve
juveni
juventus
juvinali
juvini
k
ka
kabul
kac
kaczyn
kafka
kahlo
kahn
kai
kairouan
kaixo
kajukenbo
kalbi
kalbita
kalbiti
kalimantan
kaliningrad
kallipolis
kalsa
kamarina
kamen
kami
kamikazi
kampuchea
kan
kane
kansas
kant
kapital
kaplan
kar
kara
karabakh
karate
kardec
karen
karl
karman
karol
kart
kartli
kas
kasimov
kasparov
kat
katane
kate
kategori
katene
kathmandu
katic
katie
katowice
katy
kaufmann
kawabata
kay
kaye
kazakistan
kazan
kazimierz
kb
kcal
ke
kea
keane
keaton
kebab
keep
keflavi
keith
kelly
kelvin
ken
kendall
kenia
kennedy
kenneth
kenny
kent
kentucky
kenya
kepler
kepleru
kerala
kerc
kernel
kerry
ketuvim
kevin
key
keynes
keys
kg
kgb
kgf
kh
khafa
khalil
khan
khashoggi
khayyam
khmer
khrushchev
khz
ki
kick
kid
kidal
kidman
kids
kiel
kierkegaard
kiev
kiju
kila
kill
killed
killer
killers
kills
kilo
kilometre
kilomitri
kim
kimi
kin
kind
king
kingdom
kings
kingston
kipling
kirghizistan
kiribati
kirk
kiss
kit
kita
kitts
kitty
kj
kk
klaipeda
klan
klaus
klee
klein
kls
km
kmq
kn
knebworth
knight
knock
know
knowles
known
knudsen
ko
koch
kofi
koine
kolchak
konarski
kong
konrad
kore
korea
korean
korolev
kos
kosovo
kossovu
kotsojev
kotsoyev
kotsur
kowalski
kpa
kr
krako
krasnodar
krebs
kreis
kremlin
kremont
kristen
kro
kropotkin
kru
ku
kubrick
kuhn
kulick
kulthum
kunsertu
kunth
kuratowski
kurdi
kurdistan
kursk
kurt
kushan
kutuzov
kuwait
kvemo
kw
ky
kylie
kyo
kyoto
kyotu
l
la
lab
labbiali
labbirintu
labboratoriu
labbra
labbru
labburatori
labburatoriu
labburista
label
laboratori
laboratorio
laboratory
labru
labum
laburista
lac
lacheti
lachi
lacrima
lacrime
lacrimi
lacu
lacuna
laden
ladina
ladinu
lady
lag
lagenorhynchus
lager
laghi
lagnusi
lago
lagos
lagrange
lagu
laguna
lai
laica
laicu
lajos
lake
lakhal
lam
lama
lamantini
lamantinu
lambda
lambert
lame
lamentu
lamers
lamezia
lamezzia
lami
lampa
lampada
lampadi
lampedusa
lamperi
lampi
lampidusa
lampiuni
lampu
lamu
lana
lancaster
lance
lancedda
lancia
lanciannu
lanciata
lanciatu
lanciu
land
landes
landi
landis
landsgemeinde
landu
lane
lang
lange
language
languages
langue
lanka
lanterna
lanterni
lanu
lanuviu
lanza
lao
laos
laoti
laotu
laozi
lap
lapa
lapi
lapidi
lapponia
lara
larenzu
larga
largamenti
large
larghi
larghizza
largo
largu
larica
larichizza
lariu
larry
lars
larus
las
laschi
lascia
laser
lassa
lassamentu
lassannu
lassanu
lassari
lassaru
lassata
lassati
lassatu
lassau
lassava
lasse
lasso
lassu
last
lastra
lastri
lat
lata
latata
late
later
laterza
latest
lati
latifunnu
latin
latina
latini
latinista
latinizzatu
latinizzazzioni
latino
latinu
latirali
latitanti
latitu
latitudini
lato
latri
latru
latteri
latti
latu
lauda
laudrup
laura
laurea
laurel
lauren
laurence
laurent
laurenzu
lauretani
lauri
lauria
lauriatu
lauriau
lauricella
laurie
lauru
laurus
lautari
lava
lavagna
laval
lavanca
lavanna
lavari
lavica
lavoratori
lavori
lavoro
lavoru
lavuraturi
lavurazzioni
law
lawrence
lay
lazing
lazio
lazziali
lazziu
lazzu
lb
lc
lculu
ldica
le
lea
leader
leaders
leadership
leads
leaf
league
leandro
leanza
leave
leaves
leaving
lebbra
lebbri
lecce
lecci
leccu
lech
led
lee
left
lega
legal
legame
legas
lege
legem
legend
legge
leggenda
leggende
legghi
leggi
leggia
leggiri
leggiu
legis
legnu
legs
lei
leiber
leibniz
leida
leiden
leigh
leipzig
lejzer
lellis
lello
lemanu
lemmy
lemurs
lemy
len
lena
lencu
length
lengua
lenin
leninista
lennon
lennox
lenta
lentamenti
lenti
lentini
lentu
leo
leon
leonard
leonardi
leonardo
leonardu
leoncavallo
leone
leoni
leonid
leonziu
leopold
leopoldo
lepantu
leppard
leptini
lercara
leroy
les
lesbu
lesene
lesina
leslie
lesotho
lesothu
less
lessing
lesta
lester
lesti
lestrigoni
lestu
let
lethwei
leti
letta
lettera
letteraria
letterariu
letteratura
lettere
letters
letti
lettiri
lettone
lettonia
lettres
lettu
lettunia
leu
leuca
lev
leva
levante
level
levi
levitu
levy
lewis
lex
lexington
lez
lezziuni
lfu
lg
lgaru
lgibbra
lhc
li
lia
liafanti
liam
liami
liar
liata
liati
liatu
lib
libbanisi
libbanu
libberia
libbertinu
libbi
libbia
libbira
libbiral
libbirali
libbiralismu
libbiralizzazzioni
libbiramenti
libbirari
libbirata
libbirati
libbiratu
libbirau
libbirazzioni
libbirazziuni
libbiri
libbirismu
libbirista
libbirta
libbirtati
libbirtinu
libbiru
libbra
libbrari
libbre
libbrettu
libbri
libbru
libe
liber
libera
liberal
liberale
liberali
liberata
liberazione
liberi
libero
liberta
libertas
liberty
libirta
libirtati
library
libraryutil
libreria
libri
libro
libron
libru
libyan
lica
licamenti
licamentu
licata
licatisi
license
licentia
licenza
liceo
licet
liceu
lichi
lici
licia
liciniu
licori
licu
licuddi
licuddia
lida
lidanu
lider
lidi
lidia
lidu
lie
liechtenstein
lieggi
life
liga
ligabue
ligabui
ligali
ligalitati
ligamenti
ligamentu
ligami
ligari
ligarmenti
ligata
ligati
ligatu
ligge
liggenna
liggenni
liggennu
liggera
liggeri
liggeru
ligghi
liggi
ligginnaria
liggioni
liggiri
liggirizza
liggirmenti
liggislativa
liggislativi
liggislativu
liggislatura
liggislaturi
liggislazzioni
liggistaura
liggittimitati
liggiuni
liggiuta
liggiuti
liggiutu
lighi
light
lightblue
lightgreen
lights
ligier
ligna
lignu
ligumi
liguori
ligure
liguri
liguria
lija
lijamenti
lijami
lijata
lijati
lijatu
lik
like
lila
lilibbeu
lilibeu
lille
lilo
lily
lim
lima
limba
limi
limita
limitannu
limitari
limitata
limitati
limitatu
limitava
limitazzioni
limited
limiti
limits
limu
limuni
limusinu
lin
lina
linali
lincoln
lincua
lincui
linda
line
linea
linee
linei
lines
linfa
linga
lingu
lingua
linguadoca
linguaggi
linguaggio
linguaggiu
linguali
linguarossa
linguasiciliana
lingue
lingui
linguista
linguisti
linguistica
linguistiche
linguistichi
linguistici
linguistico
linguistics
linguisticu
lingvo
lini
linia
liniari
linii
link
links
linnaeus
lino
lintgen
linticulari
lintini
lintizza
linu
linus
linusa
linux
linzola
linzolu
lio
liola
lion
lionel
lioni
lions
liotru
lipari
lipidi
lippi
lipsia
liptini
liqueen
liquid
liquida
liquidu
liquiti
liquitu
liquor
liquori
lira
liranu
liri
lirica
lirichi
liricu
lis
lisa
lisabbetta
lisboa
lisbona
lisci
liscia
lise
lisi
lisidi
lisioni
lissandru
lissicali
list
lista
liste
listi
listinu
listtotext
listuni
lita
litali
litani
literatura
literature
liti
litica
liticu
litra
litri
litru
littera
littira
littirali
littiralmenti
littirari
littiraria
littirarii
littirariu
littirarmenti
littirati
littiratu
littiratura
littiraturi
littiri
little
littra
littrariu
littrati
littri
littro
littroni
littronica
littu
littura
litturali
litturi
litturina
litturini
litu
lituana
lituania
lituanu
liturali
liturgicu
liu
liuna
liunardu
liunforti
liuni
liunisa
liunisi
liupoldu
liv
liva
livannu
livanti
livari
livaru
livata
livati
livatinu
livatu
live
livedda
liveddi
liveddu
livelli
livello
livellu
liverpool
lives
livia
liviceddi
living
liviu
livorno
livornu
lix
liza
lizzanu
lizzioni
lj
ljami
ljiami
ll
lla
llabba
llabbi
llach
llalleru
llanu
llari
llaru
llave
lle
ller
lli
llica
llichi
llici
llicu
llini
lliti
lliu
lloyd
llu
llui
llula
lluli
llustri
ln
lo
loaddata
loaf
lobachevsky
lobbi
lobbu
loca
local
locale
locali
localita
location
lochi
locke
loco
locomutiva
locri
locu
locus
locutinenti
lodge
lodi
lodomeria
log
logaritmi
logaritmu
loggi
loggia
loggica
loggicu
loghi
logo
logos
logu
loiacono
loir
loira
loire
loiret
lolli
lombardi
lombardo
lombardu
lon
lonca
lonchi
lonci
loncitu
loncu
londinesi
london
londra
lonely
long
longa
longanu
longhi
longi
longo
longobbardi
longobbardu
longrightarrow
longu
lontra
look
looking
loose
lopez
loppiu
lord
lorda
lordi
lordu
loredana
lorefice
loren
lorentz
lorenz
lorenzo
lorenzu
loreto
loretta
loretu
loro
loru
los
losanna
lose
loser
lost
lot
lotariu
lothar
lotta
lotti
lotus
lou
louis
louise
louisiana
lourdes
louvre
love
loved
lover
loves
lovin
loving
low
lower
loy
loyola
loze
lp
lsd
lt
ltd
ltica
ltichi
lticu
ltimi
ltimu
ltipli
ltiplu
lu
lua
lubbari
lubblinu
lubbulu
lubiana
luc
luca
lucali
lucalita
lucalitati
lucalizzatu
lucalizzazzioni
lucani
lucania
lucanu
lucarmenti
lucas
lucca
lucchesi
lucci
luce
lucenti
lucera
lucerna
luchino
luchinu
luci
lucia
luciano
lucianu
lucien
lucille
lucio
lucirtula
luciu
lucius
luck
lucky
lucrezia
lucrezziu
lucru
lucu
lucutura
lucuzzioni
lucy
ludmilla
ludovico
ludovicu
luduvicu
ludwig
ludwik
lufthansa
luga
lugdunum
lugghiu
luggi
luggu
lughi
lugi
luglio
lugliu
lugo
lugoj
lugu
lui
luiggi
luigi
luis
luke
lula
lumbardu
lumen
lumi
lumia
lumie
luminosa
luminusa
luminusi
luminusitati
luminusu
lummarda
lummardi
lummardia
lummardu
lun
luna
lunari
lunca
lunchizza
lunchizzi
lund
lunga
lunghezza
lunghi
lunghizza
lungo
lungomare
lungu
luni
lunidi
luntana
luntananza
luntani
luntanu
lunu
luo
luocu
luoghi
luogo
luogu
luongu
lupa
lupara
lupi
lupo
luppina
lupu
lupus
luqa
lurdi
lurena
lurenzu
lurex
luru
lusaziano
luscinia
lusinghi
luske
lussemburgu
lussimburgu
lussu
lustru
lutariu
luteru
luther
lutta
luttari
luttatu
lutti
luttu
luva
luvari
lux
luxemburg
lv
lvaro
lwo
ly
lyndon
lynn
lynx
lyon
lyonnais
m
ma
maalouf
maara
maastricht
mac
maca
macalusu
macari
macariu
macarthur
macau
maccalubbi
maccarruna
maccarruni
macchi
macchia
macchina
maccu
macdonald
mace
macedonia
maceduni
machiavelli
machina
machine
machines
machini
machu
maci
macidonia
macignu
macina
macinatu
macintosh
macirata
mack
macleod
macu
mad
madagascar
madama
madame
maddalena
madduni
made
madera
maderna
madi
madia
madison
madonia
madonie
madonna
madonnina
madre
madri
madrid
maduni
mae
maestranza
maestro
maestru
maffei
mafia
mafiusa
mafiusi
mafiusu
magara
magari
magarotto
magasenu
magazine
magellanu
magghia
maggi
maggicu
maggio
maggior
maggioranza
maggiore
maggiori
maggistrati
maggistratu
maggistratura
maggiu
maggiur
maggiuranza
maggiuri
maggiuritati
maghreb
magi
magia
magic
magillanu
magister
maglianu
magma
magna
magne
magnesiu
magnetica
magnetici
magnetico
magneticu
magni
magnificu
magnitu
magnitudini
magno
magnu
magnum
magnus
magonza
magreb
magri
magritte
magu
maguey
maguire
maguni
mahal
mahatma
mahdi
mahdia
maher
mahfuz
mahile
mahmud
mai
maia
maiali
maiari
maida
maiden
mail
main
maine
maio
maior
maiorana
maiorca
mais
maison
maista
maistra
maistranza
maistri
maistru
maistusa
maistusu
maiu
maiuni
maiuranza
maiuri
maiurmenti
maiuscolo
majali
maje
major
majorana
majorca
maju
majur
majurana
majuranza
majuri
majurmenti
majus
make
maker
makes
making
mal
mala
maladdi
maladi
maladii
malamenti
malaria
malaspina
malata
malati
malatia
malatii
malatti
malattia
malattii
malatu
malavita
malavoglia
malawi
malcolm
maldivi
male
malesia
malfa
malfurmazzioni
malgradu
mali
malidittu
malikita
malincuni
mallet
mallorca
malo
malommo
malouf
malpassu
malpichi
malta
maltese
maltisa
maltisi
maltu
malu
maluttempu
malvestiti
mama
mamilianu
mamma
mammana
mammi
mammifiru
mammula
mammulisi
man
mana
management
manager
manama
manata
manca
mancala
mancannu
mancanti
mancanu
mancanza
mancari
mancatu
manchester
manchi
manci
mancia
manciannu
mancianu
manciari
manciata
manciati
manciatu
manciava
mancimi
mancini
mancinu
manco
mancu
manda
mandati
mandatu
mandela
mandelbrot
mandra
mandu
manduria
mane
manera
maneri
manet
manfred
manfredi
mangia
mangiari
mango
mangu
manhattan
mani
mania
maniaci
manica
manicu
maniera
manifesta
manifestazioni
manifestazzioni
manifesti
manifesto
manifestu
manifistanti
manifistaru
manifistazzioni
manila
manipulazzioni
manlio
manliu
mann
manna
mannamentu
mannannu
mannanti
mannari
mannaru
mannata
mannati
mannatu
mannau
mannisi
manno
mannoia
mannu
mannulinu
mano
manoel
manovri
mansu
mansuetudini
mansur
mante
manteddu
mantegna
mantello
mantellu
manteni
manti
mantia
mantinennu
mantini
mantinimentu
mantiniri
mantinni
mantinuta
mantinutu
mantova
mantu
mantuva
manu
manual
manuale
manuali
manubbriu
manuel
manuela
manueli
manufatti
manuscritti
manuscrittu
manutinzioni
manuvrabbilita
manx
many
manzarda
manzi
manzioni
manzoni
mao
maoista
maomettu
maori
map
mappa
mappi
maps
maqueda
mar
mara
maracaibo
maradona
marafioti
maraini
maranu
marasciallu
maratona
maravigghia
marc
marca
marcannu
marcata
marcatu
marcaturi
marcau
marceau
marcedda
marcel
marcella
marcello
marcellu
march
marchese
marchi
marchisi
marchiu
marcia
marciano
marcianu
marciari
marciau
marcillinu
marco
marconi
marcos
marcu
marcus
mare
marea
margaret
margareth
margarita
margherita
marghirita
margi
marginali
margiu
margot
marguerite
mari
maria
mariana
marianna
marianne
mariannina
mariano
marianu
marie
marijuana
marilyn
marimotu
marin
marina
marinai
marinara
marinari
marinaru
marinella
marineu
marini
marino
marinu
mario
marion
maris
marita
maritari
maritarisi
maritaru
maritata
maritati
maritatu
maritau
mariti
maritime
marito
marittima
marittimi
marittimu
maritu
mariu
marius
marjorie
mark
marker
market
marketing
marlee
marley
marlon
marmara
marmu
marmuru
marna
marne
maroccu
maroni
maronna
marranzanu
marro
marruni
mars
marsa
marsala
marsaskala
marsh
marshall
marsigghia
marsupiali
mart
marta
martanu
marteddu
martes
martha
marti
martidi
martignanu
martin
martina
martinez
martini
martinica
martinis
martino
martinu
martinus
martire
martiri
martiriu
martirizzata
martirizzatu
martirulogiu
martoglio
martogliu
marturana
marturanu
marty
maru
marucchinu
maruggi
marvin
marvizzu
marx
marxismu
marxist
marxista
marxisti
mary
maryland
marzanu
marziali
marzianu
marzo
marzu
mas
masaniellu
mascagni
mascali
mascalucia
mascara
maschili
mascidda
masculi
masculina
masculini
masculinu
masculu
masi
maskhadov
mason
mass
massa
massachusetts
massacrati
massacre
massacri
massacru
massari
massaru
masseria
massi
massicciu
massima
massimi
massimianu
massimiliano
massiminu
massimo
massimu
massiri
massiria
mastella
master
mastra
mastri
mastroianni
mastru
masu
matador
matassa
match
mate
matematica
matematicu
mater
matera
materi
materia
material
materiali
materii
maternu
math
mathbb
mathbf
mathematica
mathematical
mathematics
mathrm
mati
matilde
matima
matimatica
matimaticamenti
matimatichi
matimatici
matimaticu
matina
matinata
matinati
matinu
matiriali
matirialismu
matisi
matisse
matita
matlin
mato
matonna
matri
matrici
matrimoni
matrimonio
matrimoniu
matt
matta
mattanza
mattarella
matteo
matters
matteu
mattf
matthew
mattia
mattina
mattiotti
mattoli
matura
maturazzioni
maturi
maturita
maturitati
maturu
mau
maucere
maumettu
maupassant
maurice
mauritania
mauritius
maurizio
mauro
maurolicu
mauru
max
maxim
maximum
maxwell
may
maya
maybe
mayenne
mayer
maynard
mayor
mazara
mazinger
mazza
mazzacani
mazzara
mazzarinu
mazzini
mazzola
mazzotta
mazzu
mazzuni
mb
mba
mbersa
mbitu
mbox
mbr
mbri
mbria
mbriacu
mbrogghiu
mbuli
mc
mccain
mccartney
mcdonald
mcgrath
mckenzie
mckenzies
mclaren
md
mdina
me
mea
meadows
means
meat
mecca
meccanica
mece
mecezziu
mechanics
med
medaglia
meddows
medea
medi
media
mediamenti
medianti
mediaset
mediation
mediawiki
medica
medical
medici
medicina
medico
medicu
medie
medievale
medievali
medina
medio
mediterranea
mediterraneo
mediterraneu
meditirra
meditirraniu
mediu
mediuevali
mediuevu
medium
medley
medma
medusa
medvedev
meet
meets
mega
megadeth
megaliti
megara
megghi
megghia
megghiu
megghju
megistone
meglio
mei
mein
mel
mela
melancholy
melanocorypha
melbourne
melfi
meli
melilli
melimeli
melior
melissa
melius
mellieħa
melo
melodia
melody
meloni
melpignanu
melvin
member
members
membra
membrana
membri
membro
membru
memel
memoria
memorial
memorie
memories
memory
memphis
men
mendel
mendelev
mendelssohn
mendes
mendula
menfi
menhir
menlo
mennuli
meno
mensile
ment
menta
mente
menti
mentre
mentri
mentu
menu
menz
menza
menzanotti
menzi
menzioni
menzu
menzujornu
meo
mer
mera
mercato
mercatu
mercedes
mercer
merci
merckx
mercuridi
mercurio
mercuriu
mercury
mercy
merica
mericanu
merida
meridionale
meridionali
meridiunali
merisi
meriti
meritu
merk
merkel
merli
merlin
merlino
merlinu
meroi
merola
merru
mersenne
meru
merula
meruveu
mes
mese
mesi
mesogea
mesopotamia
messa
message
messaggero
messaggi
messaggio
messapi
messi
messia
messicana
messicanu
messicu
messier
messina
mesures
met
meta
metaargs
metafi
metafune
metafuni
metal
metallica
metapontu
metastasio
metatable
metati
metauros
meteorolo
method
meti
metodiu
metodu
metra
metre
metri
metrica
metricu
metro
metropolis
metropolitan
metropolitana
metropulitana
metru
metrupulitana
metti
mettinu
mettiri
mettunu
metudi
metudu
metz
meu
meucci
meurthe
meusa
mev
mexico
mey
meyer
mez
mezzanotte
mezzi
mezzo
mezzogiorno
mezzosoprano
mezzu
mg
mhz
mi
mia
miami
mica
micari
micca
miccanica
miccanici
miccanicu
miccanismi
miccanismu
micciche
michael
michail
michel
michela
michelangelo
michelangilu
michelatti
michele
micheli
michelle
michi
michieli
michigan
michila
mici
mick
mickey
mickiewicz
mico
micro
micrometru
micron
micronesia
micronjizzioni
microscope
microsecunni
microsecunnu
microsoft
microunni
micruprucissuri
micruscopiu
micu
mid
mida
midagghi
midagghia
middle
middleton
mide
midemma
midemmi
midi
midia
midiali
midianti
midiazzioni
midicina
midicinali
midievali
miditazzioni
miditirra
miditirrania
miditirraniu
midiuevu
midivali
midnight
midu
midudda
miduddari
midusa
mie
miegghiu
miei
miennulu
mienzu
mieru
migghi
migghia
migghiaia
migghiara
migghiaru
migghiu
migghiura
migghiuramenti
migghiuramentu
migghiurari
migghiuraru
migghiurati
migghiuri
might
miglia
migliaia
miglio
migliore
migliori
mignanu
migranti
migrari
migrati
migraturi
migrazzioni
migrazziuni
miguel
miha
mihai
mii
mika
mike
mikel
mikhail
mikhalkov
miklo
mil
mila
milan
milanesi
milani
milanisi
milano
milanu
milazzo
milazzu
mile
milena
milennio
miles
miletu
mili
miliarda
miliardi
miliardu
milici
milicia
miliddi
miliona
milioni
milita
militanti
militare
militari
militarmenti
military
militeddu
militu
miliuna
miliunesimu
miliuni
milizzi
milizzia
milk
mill
mille
millenni
millenniu
miller
millesimu
milli
milligrammi
millimitri
million
millionaire
millioni
millisecunni
millisecunnu
mills
milo
milocca
miloni
milosevic
milton
milu
miludi
miluni
milva
milvus
milza
mimbrana
mimbrani
mimi
mimmo
mimmu
mimo
mimori
mimoria
mimura
mimuri
min
mina
minaretu
minas
minatura
minaturi
minazza
minazzata
minchia
minchiuni
mincio
mind
minds
mine
mineddu
minera
minerali
mineri
minerva
minestra
mineu
minh
mini
miniatura
miniaturi
miniera
minigghia
minima
minimi
minimu
minirali
minirariu
minissenu
ministe
minister
ministeru
ministri
ministro
ministru
miniu
minix
minna
minnelli
minnesota
minni
minniti
minnitta
mino
minoa
minogue
minoni
minor
minoranza
minoranze
minoranzi
minorca
minore
minori
minossi
minsk
mint
minta
mintali
mintalitati
minti
mintiri
mintuvata
mintuvatu
minu
minuranza
minuranzi
minurenni
minuri
minuritari
minuta
minuti
minuto
minutu
minzagnu
minzioni
minzogna
mio
miopia
miquel
mir
mira
mirabella
miracle
miracolo
miraculi
miraculu
miranda
mirandola
miravigghi
miravigghia
mirbeau
mircanti
mircantili
mircati
mircatu
mircinari
mircuriu
miri
miriam
mirica
miricana
miricani
miricanu
miridianu
miridiunali
miridiuni
mirluzzu
miro
mirror
mirtu
miru
miruvinci
mis
misa
misata
miscela
misceli
mise
miseria
misericordia
misfire
misi
misilmeri
misiru
miskito
mismo
miss
missa
missaggeru
missaggi
missaggiu
misser
missi
missicana
missicanu
missiles
missili
missina
missing
missinisa
missinisi
mission
missioni
mississippi
missiunariu
missiuni
missouri
mista
mister
misteri
mistero
misteru
misti
misticismu
mistiriusa
mistiriusu
mistral
mistretta
mistu
misu
misura
misurannu
misuranu
misurari
misurata
misurati
misuratu
misurazioni
misurazzioni
misuri
mit
mita
mitabbulismu
mitafi
mitalli
mitallu
mitanu
mitati
mitchell
miti
miticu
mitileni
mitiuriti
mitiuruluggi
mitodi
mitodu
mitologia
mitoluggi
mitra
mitraggiu
mitragliatrici
mitri
mitropa
mitru
mitrupulitana
mitte
mittemu
mittennu
mitterrand
mitteru
mitti
mittiri
mittirisi
mittiti
mittuti
mitu
mitulo
mituluggi
mituluggia
mituni
miu
mix
mixaggi
mixati
mixed
mizuki
mj
mk
mks
mksa
ml
mm
mma
mmacu
mmaculata
mmaggina
mmagginari
mmagginaria
mmagginariu
mmagginazzioni
mmaggini
mmalu
mmanu
mmara
mmarazzu
mmarcazzioni
mmari
mmaru
mmasioni
mme
mmeci
mmenzu
mmeri
mmernu
mmeru
mmhg
mmi
mmia
mmicchiari
mmicu
mmidiata
mmidiatamenti
mmidiatu
mmienzu
mmigrati
mmigrazzioni
mmina
mmini
mministrativa
mmintari
mmintata
mmintati
mmintatu
mmintau
mmintura
mminturi
mminu
mminzioni
mmira
mmiri
mmiritati
mmirnali
mmirsioni
mmiru
mmirusi
mmiscatu
mmisi
mmistuti
mmisu
mmita
mmiti
mmitu
mmo
mmucca
mmula
mmuli
mmulu
mmura
mmuru
mn
mnajdra
mo
moai
mobile
mobili
moda
modalita
modda
moddi
moddu
mode
model
modelli
modello
modellu
modena
modern
moderna
moderni
moderno
modernu
modesto
modestu
modi
modica
modigliani
modo
modu
modugno
modugnu
module
modulo
modulu
modus
mogghi
moglie
mogol
mohamed
mohammad
mohammed
moi
moju
mol
moldava
moldavia
moldavu
moldova
mole
moles
molfetta
moli
molie
molina
molini
molisi
moll
molla
molly
molotov
molte
molti
molto
moltu
molu
momenti
momentu
momo
mon
mona
monaca
monachi
monaci
monaco
monacu
monarch
monasteraci
monasteriu
monastero
monasteru
moncada
mondadori
monde
mondello
mondiale
mondiali
mondo
mondovi
monet
moneta
monete
money
monferrato
mongo
mongoli
mongolia
moni
monica
monicelli
monitor
monkey
monkeys
mono
monografia
monopoliu
monopostu
monreale
monroe
mons
monsieur
monsterman
monsters
mont
montagna
montagne
montalbano
montalbanu
montalcini
montalto
montana
monte
montenegro
montenegru
montero
montgomery
month
months
monti
monticola
montpellier
montre
montreal
montreux
montserrat
monucuruna
monumenta
monumenti
monumento
monumentu
monumintali
monza
moo
moody
moon
moore
mooseca
mora
moraes
moral
morali
moran
morandi
morat
moravia
morbu
more
moreau
moreira
morello
moreno
mores
moresnet
morfina
morfoluggi
morgan
morgana
morgantina
morgeti
morgeto
morgetu
mori
morire
moriri
moritz
moriu
mormon
morning
moro
moroder
moroni
morra
morriconi
morris
morrison
mors
morse
morsi
morta
mortali
morte
mortensen
morti
morto
mortu
moru
morzeddhu
mos
mosa
mosca
moscato
moscerino
moschea
moscow
mose
mosella
moselle
moser
moses
mossa
mossi
mossul
most
mosta
mostra
mostranu
mostri
mostru
mota
motacilla
mother
moti
motion
motivi
motivu
moto
motociclismu
motor
mott
motta
motti
motto
mottu
motu
motucicletta
moulins
mountain
mountains
mouse
move
movement
movi
movie
movies
movimenti
movimento
movimentu
moving
moviri
mozambicu
mozart
mozilla
mozzambicu
mozzarella
mozzia
mp
mpa
mpanu
mpara
mparari
mparatu
mparau
mpari
mpastu
mpattu
mpe
mpegni
mpegnu
mperaturi
mperi
mperiu
mperu
mph
mpi
mpia
mpianti
mpiantu
mpica
mpichi
mpici
mpicu
mpidi
mpidimentu
mpidiri
mpidisci
mpie
mpiegata
mpiegati
mpiegatu
mpiegu
mpigati
mpigatu
mpigna
mpignata
mpignati
mpignatu
mpignau
mpini
mpinu
mpira
mpirativu
mpiratrici
mpiratura
mpiraturi
mpirfettu
mpiri
mpiriali
mpirialismu
mpirmia
mpiru
mpisu
mpiti
mpitu
mpiu
mpizzu
mplici
mportante
mportanti
mposta
mposti
mpre
mpressu
mpri
mprici
mprimintazzioni
mprindituri
mprinnitura
mprinnituri
mprisa
mprisi
mprissioni
mprissiunanti
mprissiunatu
mprissiunismu
mpristari
mpronta
mpruvvisa
mpruvvisamenti
mpruvvisu
mpu
mpugnatura
mpulsu
mpunenti
mpuni
mpura
mpurtanti
mpurtanza
mpurtatu
mpurtazzioni
mpusizzioni
mpussi
mpussibbili
mpussibbilitati
mpustazzioni
mputtanti
mq
mr
mrna
mrs
ms
msg
msi
msv
mt
mts
mtv
mu
muammar
mubarak
mubbilitati
muccaturi
much
mucusa
mudali
mudalitati
muddica
mude
mudella
mudelli
mudellu
muderna
muderni
mudernu
mudesta
mudesti
mudestu
mudi
mudifica
mudificata
mudificati
mudificatu
mudificazzioni
mudifichi
mudirata
mudirati
mudiratu
muell
muggheri
mugghiera
mugghieri
muhammad
muhammed
muixeranga
muizz
mujahidin
mul
mula
mulanu
mulcahy
mule
muleculari
muleculi
muli
mulicula
muliculari
muliculi
mulinciana
mulinciani
mulini
mulino
mulinu
mulisi
muller
mulliken
mulluschi
mulluscu
mult
multi
multinazziunali
multipla
multipli
multiplicazzioni
multitraccia
multu
mulu
muluni
mumenti
mumentu
mun
muna
munachedda
munarca
munarchi
munarchia
munarchica
munarchici
munarchicu
munasteri
munasteriu
munasteru
munci
muncilebbri
mundhir
mundi
mundiali
mundo
mundu
mundus
muneta
mungibbeddu
mungibeddu
muni
municipale
municipali
municipalitati
municipio
municipiu
munita
munitaria
munitariu
muniti
munitu
munizzioni
munneddu
munni
munniali
munnizza
munno
munnu
munriali
munta
muntaggiu
muntagna
muntagnedda
muntagni
muntagnusa
muntagnusi
muntagnusu
muntalbanu
muntana
muntanu
muntarbanu
muntari
muntata
muntati
muntatu
munti
munticassinu
muntichiaru
munticristu
muntidoru
muntiliuni
muntiriali
muntirussu
muntivide
muntruni
muntuata
muntuati
muntuni
muntuosa
muntuvata
muntuvatu
muntuvi
munu
munumenta
munumenti
munumentu
munumintali
munusaccaridi
munz
munzeddu
munzieddu
muo
muorica
muorti
muortu
mura
murali
murandi
muraria
murasaki
murata
murati
muratori
muratura
muraturi
murcia
murder
murennu
mureru
murfuluggi
murgeti
murgi
muri
murialdu
murina
murini
murinu
muriri
murissi
muriu
muro
murphy
murray
murriali
mursia
murtali
murtalita
murtaru
murti
murtidda
murtipricazzioni
muru
murucanu
murutu
mus
musa
musaici
musaicu
musca
muschea
muschei
muschi
muscu
musculari
musculatura
musculi
musculu
muscuni
muse
musei
musella
museo
museu
museum
musi
music
musica
musical
musicale
musicali
musicanti
musicata
musiche
musici
musicista
musicisti
musicland
musik
musker
mussolini
mussu
mussulini
mussulmana
mussulmani
mussumeli
mussurmana
mussurmani
mussurmanu
must
mustafa
mustapha
mustra
mustrari
mustratu
mustrau
mustu
musu
musulmani
musulumeli
musumeci
musurmana
musurmani
musurmanu
muta
mutamentu
mutanna
mute
muterna
muterni
muternu
muti
mutiva
mutivazzioni
mutivi
mutivu
mutti
muttu
mutu
mutua
mutura
muturi
muve
muvennu
muvi
muvimenta
muvimenti
muvimentu
muvirisi
muvumenta
muvumenti
muvumentu
muvuti
muxaru
muziko
muzza
muzzicuna
muzzina
muzzu
mv
mvp
mw
my
myair
myanmar
myers
myke
mylaensis
myspace
mystery
n
na
nabla
naca
nachi
naci
nacional
naco
nacu
naculanzi
nadal
nadia
nadur
nafarroa
nagasaki
nagib
nagorno
nahi
nahuatl
nai
nakaira
nakamura
naked
nakhal
nall
nam
name
names
namibbia
nana
nancy
nani
nanna
nanni
nannu
nano
nanometri
nanometru
nanosecunni
nanosecunnu
nantes
nanticchia
nantru
nanu
nanzi
nap
napa
napoca
napoletana
napoletane
napoli
napu
napule
napuli
napulio
napulitana
napulitane
napulitani
napulitanu
napuliuni
narcos
nardo
narisi
narnia
narrati
narrativa
narratore
narratu
narraturi
narrazzioni
narreri
naru
nas
nasa
nasali
nasca
nasce
nascenti
nasceru
naschi
nasci
nascimento
nascinu
nasciri
nascita
nasciu
nasciuta
nasciuti
nasciutu
naselli
nash
nashville
nasir
naso
nasr
nassau
nasser
nastri
nastro
nastru
nasu
nasuni
nat
nata
natale
natali
natalie
natari
natasha
natatura
nataturi
nate
nathan
nati
nation
national
nationale
nations
nativa
native
nativi
nativita
nativu
nato
natta
natu
natura
natural
naturale
naturali
naturalis
naturalista
naturalmenti
naturarmenti
nature
naufraggiu
naugurata
nauguratu
naugurazzioni
nauru
nauticu
nautra
nautri
nautru
nava
naval
navali
navarra
navata
navati
navbox
navboxsubgroup
nave
navetta
navi
navicedda
naviceddi
naviga
navigaturi
navigau
navigazzioni
navy
naxos
nazi
nazional
nazionale
nazionali
nazionalista
nazionalsocialista
nazione
nazioni
nazista
naziunali
nazzionale
nazzionali
nazzioni
nazzismu
nazzista
nazzisti
nazziunala
nazziunali
nazziunalismu
nazziunalista
nazziunalisti
nazziunalita
nazziunalitati
nazziuni
nba
nc
nca
ncantati
ncantatu
ncante
ncanu
ncapaci
ncapu
ncarricatu
nce
ncegnu
ncendiu
ncerta
ncerti
ncertu
ncete
nchen
nchi
nchianata
nchianati
nchianti
nchiantu
nchiesta
nchinu
nchiostru
nchiri
nchiudi
nchiusu
nci
ncia
ncianu
nciclupidi
nciclupidista
ncidenti
ncidi
ncigneri
ncigniri
ncilinu
ncilu
ncintrata
ncinu
ncipi
ncirca
nciri
ncirtizza
ncis
ncisa
ncisi
ncisioni
ncisu
ncisura
ncisuri
nciu
nciulu
nciunu
nciuri
nciuria
nciuriscenza
nclavi
nclinazzioni
nclu
ncludi
nclusa
nclusi
nclusu
nco
ncoddu
ncontra
ncontri
ncontru
ncora
ncridi
ncridienti
ncrimentu
ncroci
ncrociu
ncruciati
ncrunatu
ncu
ncugna
nculi
nculu
ncumenza
ncumincia
ncuminciau
ncumincio
ncuminza
ncuminzaru
ncuminzau
ncuminzo
ncuntra
ncuntrari
ncuntraru
ncuntrau
ncuntri
ncuntro
ncunu
ncuraggiamentu
ncurpurata
ncursioni
ncurunatu
ncurunazzioni
nd
nda
ndaggini
ndataset
nde
ndebele
nder
ndez
ndi
ndica
ndicari
ndicativu
ndicatu
ndicazzioni
ndici
ndinnita
ndipinnenti
ndipinnenza
ndipinnintista
ndisi
ndispinza
nditirminativi
ndividua
ndividuali
ndividuari
ndividui
ndividuu
ndl
ndo
ndor
ndra
ndrangheta
ndranghita
ndrica
ndrizzu
nds
ndu
nduja
ndustria
ndustriali
ne
neapolis
near
nearest
nebraska
nebulosa
nec
neca
necessita
necessitas
neck
necro
necropoli
necropuli
need
needs
neeson
nefertari
nega
negativa
negghia
negli
negri
negro
nehru
nei
neil
nel
nell
nella
nelle
nello
nellu
nelly
nelson
nem
nemici
nemo
nen
nene
nenti
neo
neocla
neolatini
neoli
neoluggismu
nepal
nepalese
neper
nephthys
nera
nereidi
neri
nero
neruda
nerva
nervi
nervu
nes
nesci
nesciri
nesciu
nessi
nessu
nessun
nessuna
nessuno
net
neta
netherlands
neto
netscape
netta
nettu
nettunu
netu
network
neu
neucha
neuilly
neuli
neumann
neutral
neutrinu
neutroni
neva
nevada
neve
never
nevermore
nevis
neviu
new
newark
newcastle
newman
news
newsgroup
newton
newtopia
next
nez
nf
nfacci
nfami
nfamita
nfantili
nfanzia
nfartu
nfatti
nfernu
nfesta
nfila
nfina
nfini
nfinita
nfiniti
nfinitu
nfinu
nfiri
nfiriuri
nfittiva
nfittivi
nfizziona
nfizzioni
nflazzioni
nfluenti
nfluenza
nfluenzi
nfluinzata
nfluinzati
nfluinzatu
nflussi
nflussu
nfraclassi
nfrastrutturi
nfruenti
nfruenza
nfruenzi
nfruinzaru
nfruinzata
nfruinzati
nfruinzatu
nfruinzau
nfucata
nfurma
nfurmali
nfurmari
nfurmatica
nfurmaticu
nfurmazzioni
nfurmazziuni
ng
nga
nganna
ngannari
ngannatu
ngannu
ngari
ngc
nge
ngere
nghi
nghilterra
nghirterra
nghita
ngi
ngia
ngiallita
ngigneri
ngilu
ngiri
nglaterra
nglisa
nglisi
nglobba
ngn
ngranaggi
ngranaggiu
ngraterra
ngressu
ngridienti
ngrisa
ngrisi
ngriterra
ngstro
ngu
ngua
nguanti
nguinu
nguiri
ngula
nguli
ngulu
nh
ni
nia
nianu
nibali
nibbri
nic
nica
nicandru
nicaragua
nicaredda
nicareddi
nicareddu
nicasiu
nicchia
niccolo
nicculo
nice
nicea
nicefuru
nichel
nichi
nicholas
nici
nicissa
nicissari
nicissaria
nicissariamenti
nicissariu
nicissita
nicissitati
nick
nico
nicodemu
nicola
nicolae
nicolai
nicolas
nicole
nicolo
nicolosi
nicotera
nicotra
nicro
nicu
niculo
niculosi
nicusi
nicusia
nidau
nidi
nidu
nie
niels
nielsen
niente
nienti
nietzsche
nifruna
nifruni
nifrupatii
nigativa
nigativamenti
nigativi
nigativu
niger
nigeria
niggeria
nigghiu
night
nigozziu
nigra
nigsberg
niguzziari
niguzziati
nihil
nii
nikita
nikola
nikolaevich
nikolai
nikolaus
nikolay
nil
nile
nill
nilo
nils
nilu
nima
nimi
nimica
nimichi
nimici
nimicu
nimu
nin
nina
nine
ninfa
ninfi
ning
ninja
ninna
nino
nintendo
nintra
ninu
nio
nipote
nipoti
niputi
nira
niri
niro
nironi
niru
niruni
nirvana
nirvusi
nirvusu
niscemi
niscennu
niscenti
nisceru
nisci
nisciu
nisciuta
nisciuti
nisciutu
nisi
nissa
nissena
nisseni
nisseno
nissenu
nit
nita
niti
nitu
niu
niura
niuri
niuru
niutrali
niutralitati
niutrinu
nivi
nivura
nivuri
nivuru
nixon
niziari
nizo
nizza
nizzi
nizzia
nizziali
nizziari
nizziarmenti
nizziaru
nizziativa
nizziativi
nizziatu
nizziau
nizziu
nj
nl
nm
nmax
nmin
nmr
nn
nna
nnacu
nnali
nnalu
nnamuratu
nnanu
nnanzi
nnara
nnari
nnaru
nne
nni
nnia
nnica
nnicanu
nnicari
nnicata
nnicati
nnicativu
nnicatu
nnicava
nnicazzioni
nnichi
nnici
nnicu
nnini
nninu
nnipinnenti
nnipinnentista
nnipinnenza
nnipinnintismu
nnipinnintista
nnipinnintisti
nnira
nniri
nnirisi
nnirizzi
nnirizzu
nniru
nnisi
nnispinza
nnita
nniti
nniu
nnivi
nnividuali
nnividuari
nno
nnomi
nnomu
nnu
nnua
nnuccenti
nnuccenzu
nnucci
nnucenzu
nnuci
nnucu
nnula
nnuli
nnulu
nnumani
nnumenti
nnumentu
nnuminatu
nnuni
nnunni
nnunu
nnuru
nnusi
nnustri
nnustria
nnustriali
nnuvazzioni
no
noam
nobbili
nobbligatori
nobel
nobile
nobili
nobilis
nobis
nobody
nocera
nodd
node
nodu
noe
noel
noemi
nofriu
nofx
nogueira
noha
noi
noia
noiret
noise
nola
noli
noltri
noma
nomadi
nome
nomen
nomenclatura
nomi
nomina
nominati
nominatu
nommu
nomu
non
nona
none
noni
nonna
nonnu
nonostante
nonostanti
nonu
nonustanti
nora
norbert
norcia
nord
nordest
nordi
nordica
norfolk
norm
norma
normale
normali
normalizzato
normally
normalmenti
norman
normandi
normanna
normanni
normanno
normannu
normi
norris
norte
north
northern
norton
nortri
norvegese
norveggia
norvegia
norviggisi
norwich
nos
nostra
nostri
nostro
nostru
nostrum
not
nota
notarba
notarbartolo
note
notes
nothing
noti
noticeboard
notizie
noto
notoc
notre
notte
notti
notturna
notu
noule
nouvelle
nov
nova
novak
novamenti
novant
novanta
novara
novarese
nove
novel
novelle
novelli
novello
november
novembre
novembri
novemmiri
novgorod
novi
novicentu
novita
novo
novosibirsk
novu
now
nozzi
np
npov
nquinamentu
nquisizzioni
nr
ns
nsa
nscritti
nse
nsemi
nsemmula
nserita
nsetti
nsi
nsidiamenti
nsidiamentu
nsiemi
nsinu
nsioni
nstabbilitati
nstallari
nstallati
nstallatu
nstallazzioni
nstaurazzioni
nsuli
nsurrizzioni
nt
nta
ntagghiati
ntali
ntall
ntantu
ntanu
ntappa
ntara
ntatta
nte
ntei
ntenni
ntensa
ntensi
ntentu
ntenza
ntenzu
nter
ntera
nteramenti
nteressi
nterfaccia
nteri
nterna
nternazzionali
nternazziunali
nterni
nternu
nterra
nteru
nterventu
ntervuca
ntesta
ntgen
nti
ntica
ntichi
ntici
nticu
ntigra
ntigrali
ntigrata
ntigrati
ntigratu
ntigrazzioni
ntillettu
ntilliggenti
ntilliggenza
ntillittuali
ntimi
ntinna
ntinni
ntinsita
ntinsitati
ntinu
ntinzioni
ntinzita
ntinzitati
ntinzzioni
ntira
ntiramenti
ntirazzioni
ntircuntinentali
ntire
ntiressa
ntiressi
ntiressu
ntirfacci
ntirfaccia
ntirferomitria
ntiri
ntirissa
ntirissanti
ntirissaru
ntirissata
ntirissati
ntirissatu
ntirissau
ntirlubbari
ntirlubbulari
ntirlucuturi
ntirmediu
ntirmidiariu
ntirnati
ntirnaziunali
ntirnazzionali
ntirnazziunali
ntirpritari
ntirpritata
ntirpritatu
ntirpritazzioni
ntirruzzioni
ntirstiddari
ntirstizziali
ntirvallu
ntirve
ntirveni
ntirventi
ntirventu
ntirviniri
ntirvista
ntisa
ntisi
ntistinali
ntistinu
ntisu
ntita
ntitati
ntitulata
ntitulatu
nto
ntoni
ntontoronto
ntonzi
ntorna
ntornu
ntr
ntra
ntrammi
ntranu
ntrappulati
ntrasatta
ntrasi
ntrasinu
ntrasiri
ntrasuta
ntrata
ntrattinimentu
ntre
ntressu
ntri
ntrichi
ntricu
ntrizzati
ntrizzu
ntro
ntrodu
ntroduceru
ntroduci
ntroducimentu
ntroduciuta
ntroduciutu
ntroduzzioni
ntru
ntruduceru
ntruduci
ntruducimentu
ntruduciuta
ntruduciuti
ntruduciutu
ntruduttu
ntruduzzioni
ntu
ntula
ntuli
ntumi
ntunnu
ntunu
ntuppateddi
ntura
nturnu
ntussicazzioni
ntuva
nu
nua
nuanu
nuatri
nuautri
nuavutri
nubbi
nubbiliari
nubbirta
nuca
nucera
nuci
nuciddara
nucija
nucivi
nuclear
nuclei
nucleo
nucleu
nucli
nucliari
nuclii
nucliu
nucu
nuda
nudda
nuddhu
nuddu
nudi
nudu
nue
nueddi
nueva
nuhara
nui
nuia
nuit
nuke
nulla
nullo
nullu
nullus
num
numa
numaru
number
nume
numeri
numerici
numericu
numero
numerose
numerosi
numeru
numerusi
numi
numia
numina
numinari
numinata
numinati
numinatu
numinau
numinclatura
numira
numirosi
numiru
numirusi
numma
nummarazzioni
nummaru
nummarusi
nummarusu
numme
nummeru
numminatu
nummira
nummiru
nummirusi
nummura
nummurazzioni
nummuru
nummurusi
numquam
numu
nun
nunc
nunchi
nunes
nuni
nunn
nuno
nunu
nunustanti
nunziata
nunzio
nuo
nuotu
nuova
nuove
nuovi
nuovo
nuovu
nur
nura
nurcia
nurd
nurmali
nurmalizzazzioni
nurmalmenti
nurmanna
nurmanni
nurmannia
nurmannu
nurmarmenti
nurmativa
nuru
nurveggia
nurviggisi
nus
nusra
nustalgi
nustanti
nuta
nutamu
nutanna
nutanni
nutari
nutarili
nutaru
nutata
nutati
nutatu
nutazzioni
nute
nutevuli
nuti
nutivuli
nutivurmenti
nutizzi
nutizzia
nutizzii
nutri
nutrica
nutrienti
nutrimentu
nutt
nuttata
nutturna
nutturni
nutturnu
nuu
nuuk
nuva
nuvamenti
nuvanta
nuvara
nuve
nuvelli
nuvemmiri
nuvemmiru
nuveni
nuvi
nuvitati
nuvole
nuzzioni
nv
nva
nvaria
nvasa
nvasi
nvasioni
nveci
nvernu
nversu
nviati
nvintatu
nvinturi
nvinzioni
nvirnali
nvita
nvitatu
nvo
nvucata
ny
nynorsk
nz
nza
nzalata
nzanu
nze
nzegna
nzemi
nzemmula
nzetti
nzettu
nzi
nzia
nzianu
nzica
nzidiamenti
nzidiamentu
nziemi
nzigna
nzignamenti
nzignamentu
nzignanti
nzignari
nzignatu
nzignau
nzigno
nzili
nzima
nzin
nzina
nzinatura
nzinga
nzino
nzinu
nziri
nziritu
nzirtari
nziruta
nzirzioni
nzitari
nzitata
nzitu
nzo
nzoccu
nzu
nzuli
nzumma
nzunu
nzurrizzioni
o
oak
oara
oasi
oasis
oaxaca
ob
obama
obberu
obbiettivi
obbiettivu
obbliquu
obessu
object
oblast
oboe
obres
observations
obsolete
oc
oca
occasioni
occhi
occhieppu
occhio
occhipinti
occhiu
occidentale
occidentali
occidente
occidenti
occidintali
occitana
occitanu
occupa
occupari
occuparu
occupata
occupati
occupation
occupatu
occupau
occupava
occupazzioni
oce
ocean
oceania
oceano
oceanu
oceanugrafi
ociania
ockham
octave
october
oculari
oddinamentu
ode
odeon
odi
odia
odierna
odiernu
odifreddi
odigitria
odio
odissea
odissia
odiu
odo
oenanthe
of
off
offenbach
offerti
office
official
officiali
officiari
officina
officinalis
officini
offri
offrunu
offset
often
og
ogden
ogg
oggetti
oggettu
ogghi
ogghiu
oggi
oghu
ogliastra
ogliu
ogn
ognadunu
ogni
ogniduna
ognidunu
ognin
ognu
ognuna
ognunu
ogre
oh
ohio
ohm
oi
oil
oint
ois
oise
oj
oji
ok
oka
okinawa
oklahoma
ol
ola
olanda
olandese
olandisi
olbia
old
ole
oleracea
olga
oli
olimpi
olimpia
olimpiadi
olimpichi
olimpici
olimpico
oliva
oliveira
oliver
oliveri
olivia
olivier
oliviu
olocaustu
olof
oltre
oltrepassari
oltri
olucaustu
om
omaggio
omaggiu
oman
omar
ombra
ombrello
omega
omen
omeru
omi
omicidi
omicidiu
omini
ommini
omminu
omnes
omnia
omnibus
omnium
omo
omonima
omonimo
omonimu
oms
omsk
omu
omusissuali
on
ona
once
onda
ondi
one
onga
ongi
ongu
oni
online
only
onna
onni
ono
onofrio
onofriu
onoma
onore
onori
onoriu
ontario
ontariu
ontoluggi
onu
onuma
onuri
oort
op
open
opening
opera
operaio
operation
operatorname
operaturi
operazzioni
opere
operi
opi
opinion
opinioni
opinions
opira
opirativu
opirazzioni
opiri
opportunita
opportunity
opposizzioni
opposta
opposti
oppostu
oppu
oppuri
oppuru
opra
options
opus
opzioni
or
ora
oracle
oradea
orali
oramai
orange
orari
oraria
orariu
oratori
oratorio
oratoriu
orazio
orazziu
orb
orba
orbi
orbison
orbita
orbitali
orbu
orca
orchestra
order
orders
ordinaria
ordinary
ordinata
ordinatu
ordine
ordini
ore
oregon
oreste
oresti
oreto
orfani
org
orga
organi
organisation
organismi
organismu
organization
organizza
organizzari
organizzata
organizzati
organizzatu
organizzau
organizzazione
organizzazioni
organizzaziuni
organizzazzioni
organo
organu
ori
oria
oriental
orientale
orientali
orientati
orientatu
oriente
orienti
orig
origami
origanum
origginali
origginari
origginaria
origginariamenti
origginariu
origgine
origgini
original
originali
originari
originariamenti
origine
origini
oristanu
oriu
orizzuntali
orlando
orlandu
orlannu
orle
orleans
ormai
orne
ornella
ornithischia
ornitischi
ornitolo
ornu
oro
orsi
orsini
orso
orsola
orta
ortaggi
orthanc
orti
ortiggia
ortisi
orto
ortodossa
ortodossi
ortodossu
ortografi
ortri
ortu
ortudossa
ortudossi
ortudossu
ortugra
ortugrafi
oru
orville
orvu
orwell
ory
orzu
os
osa
osaka
osama
osbourne
oscar
osce
osci
oscu
oscura
osella
osgiliath
osiride
oslo
oslu
ospedale
ospidali
ospita
ospitali
ospiti
ossa
osse
osservaturi
osservazioni
osservazzioni
ossezzia
ossi
ossia
ossigginu
ossirvatoriu
ossirvazzioni
ossu
ossula
osta
ostia
ostili
ostrogota
ostrogoti
ostrogotu
ostuni
osvaldo
oswald
ota
otakebi
other
others
otis
otra
otranto
otrantu
otri
ott
ottanta
ottava
ottavianu
ottavio
ottaviu
ottavu
ottawa
otte
otteni
otti
ottica
ottici
otticu
ottieni
ottimali
ottinni
ottinuta
ottinutu
otto
ottobre
ottobri
ottocento
ottomanu
ottoni
ottu
ottucentu
ottumanu
ottuni
otus
ou
ouattara
our
ourense
out
output
outside
ouvert
ouverture
ov
ova
ovali
ovation
over
overdrive
overline
overthrow
overture
overu
ovest
ovesti
ovi
ovidiu
ovist
ovu
ovvero
ovveru
ovviamenti
owen
owens
own
oxford
oy
oz
ozziu
ozzy
p
pa
pablo
pablu
pacchi
pacchiu
pace
paceca
pacem
pacenza
pachinu
paci
pacific
pacifica
pacificamenti
pacificazzioni
pacificu
pacifista
pack
pact
padana
padania
padedda
padova
padre
padri
padrino
paduva
paese
paesi
pag
paga
pagamentu
pagana
pagane
pagani
paganini
pagano
paganti
paganu
pagare
pagari
page
pages
pagg
pagghia
pagghiaru
paggi
paggina
paggini
pagina
paglia
pago
pai
paiari
pain
painted
pairs
paisa
paisaggi
paisaggiu
paisani
paisanu
paise
paiseddi
paiseddu
paisi
paja
pajamentu
pajari
pajisi
pakistan
pakistani
pala
palabras
palace
paladini
paladinu
palanti
palata
palatali
palatina
palatini
palatinu
palau
palazzi
palazzo
palazzolo
palazzolu
palazzotto
palazzu
palcu
palcusce
palemmu
paleoliticu
paleontoluggi
palermitana
palermitani
palermitanu
palermo
palermu
palestina
palestra
pali
palichi
palicu
palieimmu
paliemmu
paliontolocu
palirmitana
palirmitani
palirmitanu
palistina
palistinesi
palistinisa
palistinisi
paliu
palizzata
palla
pallavvolu
palli
palluni
palma
palmas
palmer
palmeri
palmi
palmiter
palo
palora
palori
paltiel
palu
paludi
palumma
palummi
pammata
pampini
pamplona
pan
panama
panaru
pancraziu
pancrazziu
pancreas
panda
pane
panelli
pani
panini
panni
pannocchia
pannonia
panorama
panormus
pantalica
pantaluna
pantana
pantanu
pantheon
panthera
pantiddiri
pantiddiria
pantilliria
panu
panura
panurama
panuramica
panza
paola
paoli
paolo
paolu
papa
papali
paparedda
papatu
paper
paperback
paperino
paperone
papi
papin
papiru
pappagaddu
pappalardo
papua
par
para
paracaduti
paracelsu
paracqua
parade
paradise
paradiso
paradisu
paradossu
paraguai
paraguay
paraguna
paragunari
paraguni
parai
parallassi
parallela
paralleli
parallelu
parallilamenti
param
parameter
parameters
parametri
parametro
paramilitari
paramitru
params
paranurmali
parascevi
parassita
parassiti
parata
paraturi
parauni
parchi
parco
parcu
pare
parecchi
pareggiu
parent
parentela
parentesi
parenti
parentisi
parentonly
pareti
parghelia
pargs
pari
parienti
pariggi
parigi
parimiuluggi
parintela
parinti
parinu
pariri
paris
parisi
parissi
paritati
pariti
park
parker
parks
parla
parlamentare
parlamentari
parlamento
parlamentu
parlamintari
parlare
parlari
parlata
parlati
parlatu
parlava
parlophone
parma
parme
parmi
parmiggianu
parmitanu
parmu
paro
parodia
parola
parole
paroli
parr
parra
parramentari
parramenti
parramentu
parramintari
parramu
parrannu
parranti
parranu
parrari
parrata
parrati
parratu
parrau
parrava
parri
parrina
parrini
parrinu
parro
parrocchi
parrocchia
parrocchie
parru
parrunu
pars
parsec
parsi
part
parta
partanna
parte
partecipa
partecipannu
partecipanti
partecipanu
partecipari
parteciparu
partecipazioni
partecipazzioni
partecipo
partennu
partenza
parteru
parti
partial
particedda
particeddi
participa
participannu
participanti
participari
participaru
participatu
participau
participazzioni
participiu
participo
particolare
particolari
particolarmenti
particulari
particularita
particularitati
particularmenti
partido
parties
partiggiani
partiggianu
partinicu
partire
partiri
partita
partiti
partito
partitu
partiu
partner
partu
partuta
partuti
partutu
party
paru
parudi
parziali
parzialmenti
parziarmenti
pas
pasadena
pascal
pascali
pascasinu
pascoli
pasinetti
pasolini
pasqua
pasquale
pasquali
pasqualinu
passa
passaggeri
passaggi
passaggio
passaggiu
passannu
passanti
passanu
passaportu
passari
passaru
passata
passatempu
passati
passatiempu
passato
passatu
passau
passava
passed
passer
passi
passiata
passiggeri
passim
passing
passione
passioni
passiru
passiuni
passivi
passo
passu
past
pasta
pasteur
pasti
pastorale
pastori
pastu
pastura
pasturali
pastureddu
pasturi
pat
patagonia
patata
patati
patch
pate
patedda
pater
paterno
pathways
pati
patientia
patiri
patirno
patolo
patoluggi
patoluggia
patre
patri
patria
patriarca
patriarcatu
patrick
patrimoniu
patriota
patriottica
patriottico
patrizia
patrizio
patriziu
patrizziu
patro
patrona
patroni
patronu
patrun
patruna
patruni
patrunu
pattern
patti
pattinaggiu
patto
patton
pattu
patuluggi
pau
paul
paula
pauli
pauling
paulinho
paulinu
paulo
paulu
paura
pausa
pausania
pausi
pav
pava
pavarotti
pavi
pavia
pavimenti
pavimentu
pavlov
pax
pay
pays
paz
pazza
pazzi
pazzo
pazzu
pc
pci
pcus
pd
pdf
pdl
pds
pe
peace
pearl
pearson
pecchi
pechinu
pectore
pecura
pedagogu
peddi
pedersen
pedi
pedone
pedro
peggiu
peggy
pego
pei
peiu
peji
peju
pele
pelle
pellegrini
pellizzari
peloponnesu
pelosi
pelupunnesu
pembroke
pen
pena
penali
pengo
peni
peninsula
penisula
penitenza
penna
pennsylvania
penny
pensa
pensare
pensieri
pensiero
penso
pentavuca
pentecostali
penticuntera
penu
penza
penzi
penzu
penzunu
people
pepe
peppe
peppers
peppi
peppino
per
peralta
perce
perche
percio
percorri
percorsu
percussioni
percy
perdere
perdi
perdiri
perdita
perditi
perduto
pere
pereira
perellos
perelman
peres
perestroika
perez
perfect
perfettamenti
perfettu
performance
performed
pergusa
peri
pericardiu
periodi
periodo
periodu
periudu
perla
perli
permeabilitati
permette
permittivitati
perna
perni
pernu
pero
perrusi
perry
pers
persa
perse
persefone
persepolis
persi
persia
persiana
persiani
persiano
persianu
persica
persicu
persiu
person
persona
personaggi
personaggio
personal
personali
personalita
personnel
perspective
persu
persuna
persunaggi
perth
pertini
peru
peruggia
perugia
perzuna
perzunali
perzuni
pesa
pesaro
pesaru
pesca
pescara
pescatori
pestalozzi
pesti
pet
petali
pete
peter
petersen
petit
petra
petralia
petrarca
petrella
petri
petro
petroliu
petru
petruburgu
pettu
pez
pezza
pezzi
pezzu
pg
ph
phd
phi
phil
philadelphia
philip
philipp
philippe
philippines
phillip
phillips
philosophy
phobos
phoenicurus
phoenix
phonotris
photo
photometry
photos
php
phu
phylum
physical
physics
pi
pia
piace
piacenza
piacere
piaci
piacia
piaciri
piacissi
piaciutu
piana
pianeta
pianeti
piani
pianista
pianita
piano
pianoforte
pianoforti
pianta
pianti
pianu
pianuforti
pianura
piattaforma
piattaformi
piatti
piattu
piazza
piazzi
pic
pica
picassu
picca
piccante
piccanti
piccati
piccatu
piccatura
picce
picchi
picchini
picchissu
picci
piccidda
picciddi
picciddu
piccio
picciotta
picciotte
picciotti
picciottu
picciridda
picciriddi
picciriddu
piccitto
piccittu
picciuli
picciulu
picciuttanza
picciuttedda
picciutteddi
picciutteddu
piccola
piccoli
piccolo
piccu
picenu
pichi
pichinu
pici
pick
pico
picone
picture
pictures
picu
piculiari
picurara
picurari
picuraru
picurinu
pida
pidali
pidaliabbilita
pidaliata
pidata
piddirina
piddirini
piddirinu
piddizza
pidi
pidicuddu
pidini
pidocchiu
pidu
pie
piece
pieces
piedi
pieds
piega
piei
piemonte
piemontese
piemonti
piemunti
piemuntisa
piemuntisi
pienza
pienzanu
pier
pierce
piergiorgio
pieri
pierluigi
piero
pierre
piersanti
pieru
pieta
pietati
pieter
pietra
pietrangeli
pietre
pietro
pietru
pietruburgu
pieve
pievi
piezzi
piezzu
piffiraiu
pigghi
pigghia
pigghiamu
pigghiannu
pigghianu
pigghiari
pigghiarisi
pigghiarru
pigghiaru
pigghiata
pigghiati
pigghiatu
pigghiau
pigghiava
pigghiavanu
pigghio
piglia
pigliaru
pigmenti
pigna
pignata
pignati
pignuna
pignuni
pigs
pii
pil
pila
pilaggi
pilaris
pilastri
pilatu
pili
pilli
pillicula
pilliculi
pilligrinaggi
pilligrinaggiu
pilligrini
pilligrinu
piloru
pilot
pilota
piloti
pilu
pilupunnesu
pilupunni
piluritani
pin
pina
pinali
pindaru
pine
pineta
ping
pinguinu
pini
pinioni
pinisula
pinitenza
pink
pinna
pinnenti
pinnenza
pinni
pinnici
pinninu
pinnulara
pinnularu
pinnuluni
pino
pinocchio
pinochet
pinosa
pinsari
pinsatu
pinsava
pinseri
pinseru
pinsioni
pinta
pinticustali
pintitu
pinto
pintutu
pinu
pinus
pinyin
pinza
pinzamu
pinzannu
pinzari
pinzata
pinzati
pinzatu
pinzatura
pinzaturi
pinzau
pinzava
pinze
pinzera
pinzeri
pinzeru
pinzioni
pinzo
pio
piogge
pioggia
pioneer
piotr
piove
pip
pipatu
pipes
pipi
pipinu
pippinedda
pippinu
pippo
pippu
pir
pira
piramidali
piramidi
pirandello
pirandellu
piranu
pirata
pirati
pirchi
pirchissu
pirchistu
pircintuali
pircio
pircizzioni
pircorsi
pircorsu
pircurrennu
pircurri
pircursi
pircursu
pircussioni
pirdennu
pirderu
pirdi
pirdunu
pirduta
pirduti
pirdutu
pirenei
pirenni
pirfetta
pirfettamenti
pirfetti
pirfettu
pirfittamenti
pirgamena
piri
piriculu
piriculusa
piriculusi
piriculusu
pirife
piriferi
pirifiri
pirinei
pirio
piriodi
piriodica
piriodicamenti
piriodu
piriudi
piriudu
pirmanenti
pirmanenza
pirme
pirmessu
pirmetti
pirmettinu
pirmettiri
pirmettunu
pirmi
pirmisi
pirmisiru
pirmissu
pirmittennu
pirmitteru
pirmitti
pirmutazzioni
piro
pirpindiculari
pirpinniculari
pirrera
pirru
pirse
pirsiana
pirsiani
pirsianu
pirsicutati
pirsicuzioni
pirsicuzzioni
pirsinu
pirsona
pirsoni
pirsuna
pirsunaggi
pirsunaggiu
pirsunali
pirsunalita
pirsunalitati
pirsunalmenti
pirsunarmenti
pirsuni
pirsunu
pirtantu
pirtinenti
pirtinenza
pirtu
pirtusa
pirtusu
piru
pisa
pisana
pisani
pisano
pisanti
pisantimenti
pisanu
pisari
pisava
pisca
piscara
piscari
piscatu
piscatura
piscaturi
pischirecciu
pisci
pisciaru
piscina
pisciottu
pisciteddi
pisciteddu
pisi
pisodiu
pissichiatra
pissichiatri
pissuna
pissuni
pista
pistacchiu
pistacia
pisti
pistiari
pistilenza
pistoia
pistola
pistoli
pistols
pisu
pit
pita
pitago
pitagora
pitaka
pitanza
pitanzi
pitcairn
piti
pitittu
pititu
pitrarca
pitre
pitro
pitroliu
pitroniu
pitruli
pitrusi
pitrusinu
pitruzza
pittari
pittata
pittati
pittatu
pitterra
pitti
pittiatu
pittore
pittrici
pittura
pitturi
pitu
piu
piumaggiu
piumi
piz
pizza
pizzaottu
pizzauttisi
pizzeri
pizzi
pizzu
pizzudda
pizzuddi
pizzuddicchi
pizzuddu
pizzuni
pj
pl
pla
placca
placchi
place
placed
placido
placidu
plaga
plain
plaja
plaji
plan
planck
plane
planes
planet
planetary
planets
planitariu
plant
plasma
plastica
plata
platani
platini
platino
platinu
plato
platoni
platters
platuni
play
playboy
player
playoff
playstation
plaza
please
pleasure
plessu
pli
plici
pling
pliniu
plug
plugin
plur
plurali
plus
plutarcu
pluto
plutoni
plymouth
pm
png
pnv
po
poca
pochi
poco
pocu
podi
poe
poema
poems
poesi
poesia
poesie
poeta
poeti
poetica
poetry
poggiu
pohjola
poi
poiche
poichi
poids
poincare
point
poison
poitier
poitiers
poitou
poju
poke
poker
pola
polacco
polaccu
poland
polanski
polanyi
pole
poli
police
policies
policy
polifemu
polimeri
polis
polistena
polistina
politeama
politica
politici
politico
politics
politicu
polizzi
polizzia
poljakov
pollice
pollina
pollu
polmoni
polo
polonia
polu
polvere
polydor
polygram
pompa
pompei
pompeu
pompidou
ponenti
poni
ponnu
pont
ponte
pontevedra
ponti
ponu
poor
pop
pope
popeye
popolare
popolari
popolazione
popolazioni
popolazzione
popolazzioni
popoli
popolo
popper
poppir
pops
populandi
popular
populari
population
populazioni
populazzioni
populi
populu
populus
por
porcelli
porchi
porchia
porci
porcu
pordenoni
porochenko
porras
port
porta
portal
portale
portali
portanu
portare
portavuci
porte
porter
porti
porto
portogallo
portoghese
portoghesi
portrait
portu
portugal
portugallu
portughisa
portughisi
portunu
portupalu
porturicanu
portus
poru
porzio
porzioni
pos
posa
posizionali
posizione
posizioni
posizzioni
possa
posse
possibbili
possibile
possibili
possibilita
possible
possono
post
posta
postarviulari
poster
posti
posto
postu
postumu
pote
potenti
potenu
potenza
potere
poteri
potest
poti
potro
potsdam
potta
potter
potti
pottiru
poum
pound
pour
poveri
povero
poverta
povira
poviri
poviru
powell
power
powers
poznan
pozza
pozzi
pozzo
pozzu
pp
ppa
ppanu
ppe
ppi
ppia
ppimu
ppiri
ppiru
ppita
ppiti
ppiu
ppo
ppoi
pprica
ppu
ppula
ppulu
ppumu
ppuru
pr
pra
prag
praga
prague
praia
praja
praji
pranzu
prassi
prati
pratica
praticamenti
praticari
praticata
praticati
praticatu
pratichi
pratici
praticu
prato
pratt
pratu
prayer
pre
precedenti
precisamenti
precision
preda
prefazione
prefazioni
prefissi
prefisso
prefissu
prefix
prega
preggiu
preghiera
preisto
preistoria
preistorica
preliminary
premi
premia
premier
premio
premiu
prenni
preprocessargs
preprocesssinglearg
pres
presbiteriu
prescia
presenta
presentazzioni
presente
presenti
presenza
presi
presicce
president
presidente
presidenti
presidi
presley
press
pressi
presso
pressu
pressure
presta
prestitu
prestu
pretender
preti
pretty
prevalentementi
previous
previsti
prezza
prezzi
prezzo
prezzu
pri
pria
priari
price
pricedi
prici
pricidenti
pricidentimenti
pricidenza
pricidintimenti
priciduta
priciduti
pricidutu
pricipitazzioni
pricirenti
pricirentimenti
pricisa
pricisamenti
pricisari
pricisi
pricisioni
pricisu
priciuneri
priciuni
pricoci
pricursuri
pridaturi
pride
pridicari
pridicava
pridicazioni
pridicazzioni
pridicissuri
priduminanti
priera
priest
prifazzioni
prifettu
prifirennu
prifirenza
prifirenzi
prifiri
prifirisci
prifiriu
prifiruta
prifirutu
prifissi
prifissu
prifittura
priggiati
priggiudizzi
priggiuneri
priggiuneru
priggiuni
prigiuni
prijari
prijera
prijeri
priliminari
prim
prima
primari
primaria
primarii
primariu
primati
primatu
primatura
primavera
prime
primi
primiati
primiatu
primiazzioni
primitiva
primitivi
primitivu
primma
primo
primu
primus
prince
princes
princess
princesse
princeton
princi
princip
principa
principale
principali
principalmenti
principarmenti
principati
principatu
principe
principessa
principi
principia
principissa
principiu
prinia
prinnennu
prinni
prioccupazzioni
priolu
priori
pripara
priparannu
priparari
priparata
priparati
priparativi
priparatu
priparau
priparazioni
priparazzioni
pripusizzioni
priputenza
prisa
prisbiopia
prisbiteriu
priscilla
priscrizzioni
priscu
prise
prisenta
prisenti
prisenza
prisenzi
prisi
prisidenti
prisidenza
prisidinziali
prisidutu
prisinta
prisintari
prisintaru
prisintata
prisintati
prisintatu
prisintaturi
prisintau
prisintava
prisintazzioni
prisinti
prisinto
prisinza
prisirenti
prisirenza
prisirvativu
prisma
prissioni
prissiuni
pristari
pristatu
pristazzioni
pristiggiu
pristiggiusa
pristiggiusi
pristiggiusu
pristo
pristoria
prisu
prisunta
prisunti
prisuntu
prituri
priu
priuri
priva
privacy
privalenti
privalentimenti
privalenza
privali
privalintimenti
privata
private
privati
privatu
prive
privedi
privi
prividi
privileggi
privileggiu
privisioni
privista
privisti
privistu
privu
prix
prize
prizzi
prizziusa
prizziusi
prizziusu
pro
probabbirmenti
probabilmenti
probblema
probblemi
problema
problemi
problems
proceedings
processing
procession
processioni
processo
procida
procopio
procopiu
prodi
prodotti
prodotto
prodottu
produce
produced
producer
produci
product
production
productions
produttori
produzione
produzioni
produziuna
produzzioni
prof
professa
professor
professore
profile
profilo
profit
profughi
progetto
progettu
proggetti
proggettu
program
programma
programmazioni
programmi
programming
progress
progressista
progressive
progresso
proiettili
project
proletaria
promessi
promo
promossi
promozionale
promozionali
promozioni
promozzioni
promuoviri
pron
pronomi
pronta
pronti
pronto
prontu
pronuncia
pronunciation
propagandhi
properties
property
prophet
propi
propia
propii
propiu
proporzionali
proposi
propositu
proposta
propri
propria
proprie
proprieta
proprietariu
proprietati
proprio
propriu
prosa
proserpina
prosi
prospettu
prospiru
prossimi
prossimu
protagonista
protagonisti
protagora
protagunista
protagunisti
protocollu
protoni
protonotaro
protucollu
proudhon
prov
prova
provenc
provence
provenienti
provenzale
proverbi
proverbj
provi
provided
provinci
provincia
provuca
prowl
proxima
pru
prua
pruba
prubabbili
prubabbilitati
prubabbirmenti
prubabirmenti
prubba
prubbabbilita
prubbabbilitati
prubbabbirmenti
prubbabirmenti
prubblema
prubblemi
prubbrema
prubbremi
prublema
prublemi
pruce
prucessi
prucessu
prucetti
prucettu
prucidimenti
prucidimentu
prucidura
prucissioni
prucissuali
prucissura
prucissuri
pruclama
pruclamata
pruclamatu
pruclamau
pruclamazzioni
prucopiu
prucramau
prucramma
prucu
prucura
prucuraturi
prudenza
prudotta
prudotti
prudottu
prudu
pruduci
pruduciri
pruduciu
pruduciuta
pruduciuti
pruduciutu
prudurri
prudussi
prudutta
prudutti
pruduttiva
pruduttivi
pruduttivitati
pruduttivu
pruduttori
pruduttrici
pruduttu
pruduttura
prudutturi
pruduzioni
pruduzzioni
pruf
prufessuri
prufeta
prufeti
prufilu
prufissioni
prufissiunali
prufissiuni
prufissiunista
prufissiunisti
prufissura
prufissuri
prufitti
prufittu
prufumati
prufunna
prufunnamenti
prufunni
prufunnita
prufunnitati
prufunnu
prugetti
prugettu
pruggetta
pruggetti
pruggettu
pruggittata
pruggittati
pruggittatu
pruggittazzioni
pruggramma
prugramma
prugrammatura
prugrammaturi
prugrammazzioni
prugrammi
prugressi
prugressu
prugrissioni
prugrissista
prugrissisti
prugrissiva
prugrissivamenti
prugrissivu
pruibbiti
pruibbitu
pruibbizzioni
pruie
pruiezzioni
pruli
prulitaria
prulitariatu
prulungatu
prumissa
prumissi
prumittenti
prumitti
prumo
prumossu
prumovi
prumuntoriu
prumuturi
prumuvi
prumuzzioni
prun
prunoma
prunomi
prunomu
prunu
prununcia
prununciatu
prununza
prununzata
prununzatu
prununzia
prununziatu
prunus
prupa
prupaganna
prupiamenti
prupita
prupitari
prupitariu
prupitati
prupo
pruponi
pruposizzioni
pruposta
pruposti
prupostu
pruprieta
pruprietati
pruprita
prupritari
prupritariu
prupritati
prupulsuri
prupuni
prupunutu
prupurzioni
prupurziunali
prupusi
prupusizzioni
prupusta
prurali
pruse
prusequi
pruserpina
pruspettu
pruspiritati
pruspittiva
prussia
prussiana
prussimitati
prustituzzioni
prutagonisti
prutagunista
prutagunisti
prute
pruteggi
pruteggiri
prutesta
prutesti
prutetta
prutetti
prutettu
prutezzioni
prutiggi
prutiggiuta
prutiggiuti
prutiggiutu
prutii
prutiina
prutiini
prutistanti
prutistari
prutisti
prutittrici
prutittura
prutitturi
prutizzioni
prutoni
prutuni
pruva
pruvari
pruvata
pruvati
pruvatu
pruvau
pruve
pruveni
pruvennu
pruvenza
pruvenzali
pruverbi
pruverbiu
pruvi
pruvidenza
pruvinci
pruvincia
pruvinciali
pruvinenti
pruvinenza
pruvini
pruvinu
pruvinza
pruvinzali
pruvinzani
pruvinzanu
pruvinzi
pruvoca
pruvucannu
pruvucari
pruvucata
pruvucati
pruvucatu
pruvucau
pruvulazzi
pruvulazzu
pruvvisoriamenti
pruvvisoriu
pruvvisti
pruvvistu
ps
psdi
pseudo
pseudonimu
psi
psicanalisi
psico
psicolo
psicoluggi
psiculuggi
psiup
psoe
psula
psy
psychology
pt
pti
pu
pua
pub
pubblica
pubblicamenti
pubblicari
pubblicaru
pubblicata
pubblicati
pubblicato
pubblicatu
pubblicau
pubblicazioni
pubblicazzioni
pubblichi
pubblici
pubblicita
pubblico
pubblicu
pubbliu
pubbri
pubbrica
pubbricamenti
pubbricari
pubbricaru
pubbricata
pubbricati
pubbricatu
pubbricau
pubbricazioni
pubbricazzioni
pubbrico
pubbricu
public
publica
publique
publishing
publiu
puca
puccini
puddicinu
pudi
pue
puema
puemi
puerto
puertu
pueta
pueti
puetica
pueticu
puffi
pugacheva
pugghia
pugghisi
puggilatu
puglia
pugliese
puglisi
pugna
pugnu
pui
puisi
puisia
puisii
puitissa
puja
pula
pulacca
pulacchi
pulaccu
pulari
pulazzioni
pulcino
pule
pulemichi
puli
pulici
puligunu
pulinesia
pulita
pulite
puliti
pulitica
puliticamenti
puliticanti
pulitichi
pulitici
puliticu
pulitu
pulizzi
pulizzia
pulizzianu
pullami
pulo
pulonia
pulu
pulvirenti
puma
pumadoru
pumiriggiu
pummadoru
pummaroru
pumpeu
pumpi
pumu
puncigghiuni
pune
punennu
punenti
puni
punica
punichi
punishment
punizzioni
punk
punnu
punta
puntari
puntata
puntati
punteggiu
punti
puntificati
puntificatu
puntificia
puntificiu
punto
puntu
puntuarmenti
puo
puoca
puocu
puoi
puonu
puostu
pupa
pupi
pupidda
pupli
pupu
pupulani
pupulari
pupularita
pupularitati
pupularmenti
pupulata
pupulati
pupulatu
pupulazioni
pupulazzioni
pupulazziuni
pupulusa
pur
pura
puramenti
purcell
purci
pure
purganti
purgatoriu
puri
purizza
purmuna
purmunari
purmuni
puro
purpa
purpetta
purple
purpu
purta
purtali
purtannu
purtanti
purtanza
purtari
purtaru
purtarunu
purtassi
purtata
purtati
purtatili
purtatu
purtatura
purtau
purtava
purtedda
purteri
purticeddu
purto
purtroppu
purtu
purtuali
purtuchisi
purtugallu
purtughisa
purtughisi
purtuni
purtusa
purtusu
puru
purzioni
pus
pusati
puseri
pushkin
pusilleco
pusitiva
pusitivi
pusitivu
pusizziona
pusizzioni
pusizziunamentu
pusizziunata
pusizziunati
pusizziuni
pusse
pussedi
pussessu
pussi
pussibbili
pussibbilita
pussibbilitati
pussibili
pussibilita
pussibilitati
pussidenti
pussidi
pussidimentu
pussidiri
pussiduti
pussissivi
pussissivu
pustali
pustazzioni
pusti
pustiriuri
pustiriurmenti
pustu
pusu
put
puta
putassiu
pute
putemu
putennu
putenti
putenza
putenzi
puteri
puteva
puti
putia
putie
putiemu
putignanu
putin
putinu
putinziali
putinziamentu
putiri
putissi
putissiru
putiti
puttari
puttatu
putti
pututu
puviredda
puvireddi
puvirta
puvirtati
puvuredda
puvureddi
puy
puzza
puzzaddu
puzzi
puzziddu
puzzu
puzzuddi
px
pxbrasili
pxgirmania
pxitalia
pyongyang
pyre
pyrus
pz
q
qa
qaeda
qaida
qantarah
qasim
qatar
qbeta
qin
qquai
qu
qua
quacchi
quacchiri
quad
quaderni
quadiari
quadra
quadrati
quadrato
quadratu
quadriliardu
quadriliuni
quadro
quadru
quae
quagghia
quagghiata
quai
qual
qualche
qualchi
qualcosa
qualcuno
quale
qualegghie
quali
qualificatu
qualificazzioni
qualifier
qualifiers
qualisiasi
qualita
qualitati
qualsiasi
qualu
qualunchi
qualunque
qualunqui
quam
quando
quandu
quang
quann
quanni
quannnu
quannu
quant
quanta
quanti
quantistica
quantistici
quantisticu
quantita
quantitati
quantitativa
quantitativamenti
quantitativu
quantity
quanto
quantu
quantum
quarant
quaranta
quarantina
quarche
quarchi
quarchiccosa
quarchicosa
quarchidunu
quarcosa
quarcunu
quark
quarsiasi
quarta
quartara
quartari
quartera
quarteri
quartetto
quartettu
quarti
quartiari
quartiere
quartieri
quarto
quartu
quarzu
quasar
quasetti
quasi
quasimodo
quasimodu
quaternu
quatra
quatrata
quatrati
quatratu
quatratura
quatre
quatri
quatrila
quatro
quatru
quatteri
quatto
quattordici
quattr
quattro
quattru
quattrucentu
que
quebec
quechua
queen
queens
queensland
quel
quella
quelli
quello
quem
quentin
quercia
quercus
query
quest
questa
questi
question
questioni
questo
qui
quia
quid
quida
quiddhra
quiddhri
quiddhru
quidi
quidquid
quidu
quiet
quieti
quila
quincy
quindi
quinni
quinnice
quinnici
quinnicina
quinquirimi
quinta
quintanilla
quintilianu
quinto
quintu
quintus
quinu
quinzianu
quiri
quis
quisiti
quisquina
quisti
quistioni
quistu
quiti
quito
quitu
quo
quod
quorum
quota
quoti
quotidiana
quotidiano
quotidianu
r
ra
rabah
rabat
rabba
rabbi
rabbia
rabbit
rabbu
rabi
rabin
rabito
rabu
racale
racalmutu
raccamu
raccolta
raccolte
raccolti
racconta
racconti
raccorta
raccorti
raccumannamu
raccumannazzioni
raccunta
raccunti
race
races
rachel
rachmaninov
racina
racing
racini
raciuni
racumannamu
rad
radar
radchenko
raddoppia
radduppiamentu
radduppiata
raddusa
radi
radiali
radianti
radiation
radiaziuni
radiazzioni
radiazziuni
radicale
radicali
radici
radii
radio
radiohead
radiomixitalia
radiu
radiuattivitati
radiufo
radius
rae
raeny
raf
rafael
raffadali
raffaele
raffaeli
raffaello
raffaellu
raffi
raffieli
raffigura
raffiguranti
raffiguratu
raffigurazzioni
raffinari
raffinati
raffinatu
raffinazzioni
raffiuranti
raffiurazzioni
rafforza
raffurzamentu
raffurzari
raffurzativa
ragazza
ragazzi
rage
ragghiu
ragghiuni
raggi
raggia
raggiu
raggiunamentu
raggiungi
raggiungiri
raggiungiu
raggiuni
raggiuntu
raggruppa
raggruppamento
raggruppati
raggruppu
ragione
ragiuni
ragnar
ragni
ragno
ragnu
ragu
ragusa
rah
rai
raid
raikkonen
raimunnu
rain
rainbow
rains
rainulfu
raise
raisi
raiu
raji
rale
rally
ralph
ram
rama
ramalho
ramanujan
ramazzotti
rami
ramificazzioni
ramo
ramon
ramos
rampanti
ramsay
ramu
rana
rancuri
randa
randi
randy
range
rangoon
rangu
ranieri
rank
rannazzu
ranne
ranni
rannizza
rannu
ranto
rantu
ranu
rap
rapaci
rapi
rapid
rapida
rapidamenti
rapidi
rapimentu
rapisarda
rapisardi
rappa
rapper
rapporta
rapporti
rapportu
rappresenta
rappresentanu
rappri
rapprise
rapprisenta
rapprisentanu
rapprisinta
rapprisintannu
rapprisintanti
rapprisintanza
rapprisintari
rapprisintaru
rapprisintata
rapprisintati
rapprisintativa
rapprisintativi
rapprisintativu
rapprisintatu
rapprisintau
rapprisintava
rapprisintazzioni
rapu
raputa
rara
raramenti
rare
rari
rarities
raru
ras
rashid
rasolu
rassegna
rassegni
rassignazzioni
rassumigghianza
rasti
rastu
rasu
rat
rata
rati
ratificatu
ratio
ration
rats
ratteri
rattu
ratu
rau
raul
rault
rausa
rausana
rausani
rausanu
ravanzi
ravel
ravenna
raw
ray
raymond
razza
razzi
razziali
razzismu
razzista
razzisti
razziunali
razziunalitati
razzu
rb
rbara
rbari
rbaru
rbiri
rbita
rbitru
rbuli
rbulu
rburu
rc
rca
rcamu
rcanu
rchica
rchici
rchicu
rciali
rcinu
rciri
rcita
rciti
rcitu
rcu
rcula
rculi
rculo
rculu
rcuri
rd
rda
rdanu
rdi
rdia
rdica
rdici
rdicu
rdini
rdinu
rdiri
rdita
rditi
rdiu
rdoba
rdt
rdu
rdunu
re
rea
ready
reagan
real
reale
reali
reality
realizzata
realizzati
realizzatu
realizzazioni
realizzazzioni
really
realta
reazioni
rebus
reca
recenti
reci
recita
record
recorded
records
rect
red
reda
redditu
redi
redita
redmond
reed
reference
referendum
referenzi
refirenzi
regarbutu
regau
reggae
reggi
reggia
reggimi
reggina
reggio
reggione
reggioni
reggista
reggiu
reghi
regia
regime
regimi
regina
reginae
regio
regionale
regionali
regione
regioni
regis
regista
registi
registrari
registrata
registrati
registration
registratu
registrazioni
registro
registry
regni
regno
regnu
regnum
regula
regular
regulari
reguli
regulus
rei
reich
reid
reilly
reims
reina
reine
reinhard
reinhold
reining
reitano
reitanu
reitherman
rejewski
related
relativa
relativamenti
relativi
relativitati
relativity
relazioni
relazzioni
release
released
religion
religioni
reliquia
reliquie
rem
remain
remained
rembrandt
remi
remix
remixes
remu
ren
renato
renatu
renault
rence
rende
rendering
rendezvous
rendi
rendiri
rene
reni
renni
renniri
reno
renoir
renti
renu
renza
renzi
renzo
renzu
reperti
repertorio
replace
reply
report
reporter
reprise
reptilia
repu
repubblica
repubblicana
repubblicano
republic
request
require
requisiti
rerum
res
resa
research
reshe
resi
resident
resistenza
resolution
resolve
resource
respiro
response
resta
resti
restituisce
restivo
resto
restu
restunu
result
resulting
ret
retake
rete
reti
retrieved
retro
retru
retta
retti
rettili
rettu
return
returns
reu
reuel
reuli
revealed
revenge
review
reviews
revisited
revista
revival
revolt
revolution
rex
reykjavi
reynolds
rez
rezanov
rfanu
rfaru
rfc
rficia
rfiru
rfuru
rg
rgamu
rgani
rganizzazzioni
rganu
rgb
rge
rgen
rgia
rgica
rgichi
rgicu
rgini
rginu
rgiri
rgy
rh
rhapsody
rhead
rhee
rhegion
rhizenia
rho
rhodes
rhye
rhythm
ri
ria
riabbilitazzioni
riaci
rial
riali
rialismu
rialita
rialitati
rializza
rializzari
rializzata
rializzati
rializzatu
rializzau
rializzazzioni
rialmenti
rialta
rialtati
rialu
rianu
riarmenti
riarta
riassuntu
riassurbimentu
riassurbuta
riassurbuti
riati
riatturi
riatu
riazzioni
riazziuni
ribba
ribbeddi
ribbelli
ribbentrop
ribbera
ribbillamentu
ribbillioni
ribbustu
ribelli
ribera
ric
rica
ricadi
ricana
ricani
ricanu
ricanuscenza
ricanusci
ricanuscimenti
ricanuscimentu
ricanusciri
ricanusciuta
ricanusciuti
ricanusciutu
ricardo
ricavari
ricavati
ricavatu
ricca
riccamenti
riccardo
riccardu
ricchezza
ricchi
ricchizza
ricchizzi
ricci
ricco
riccobbonu
riccolta
riccu
rice
ricecca
ricenti
ricentimenti
ricerca
ricerche
ricerchi
ricetta
ricetti
riceve
ricevi
rich
richard
richards
richardson
richi
richiama
richiamata
richiamu
richie
richiesta
richiesti
richiesto
richiestu
richmond
richter
rici
ricintimenti
ricinzioni
ricipienti
ricirca
ricircari
ricircati
ricircatu
ricircatura
ricircaturi
ricita
ricitari
ricitazzioni
riciventi
ricivi
riciviri
ricivituri
riciviu
ricivuta
ricivutu
rick
ricky
rico
ricorda
ricordare
ricordi
ricordiu
ricordu
ricostruita
ricota
ricotta
ricu
ricumpenza
ricunfirmatu
ricunnuci
ricunquista
ricunuscimentu
ricuperta
ricupertu
ricupirari
ricupiratu
ricurdamu
ricurdannu
ricurdari
ricurdata
ricurdatu
ricurrenti
ricurrenza
ricurrenzi
ricurri
ricursu
ricustruiri
ricustruita
ricustruzzioni
rida
ridatturi
ridazzioni
riddu
ridduttu
ride
rider
riders
ridi
ridottu
ridu
riduci
ridutti
riduttu
riduzzioni
rie
rieca
rieci
ried
riedizioni
riego
riei
riemann
riesce
riesi
rieti
rif
rifa
rifabbricatu
rife
riferimenti
riferimento
riferimentu
riferimientu
riff
rifi
rifire
rifirenna
rifirenni
rifirenti
rifirenza
rifirenzi
rifiri
rifirimenti
rifirimentu
rifiriri
rifirisci
rifiritu
rifirutu
rifiuta
rifiutannu
rifiutau
rifiuti
rifiuto
rifiutu
rifle
riflessi
rifletti
riflissioni
riforma
riforme
riformi
riformista
rifrazzioni
rifuggiati
rifuggiu
rifunnazzioni
rifurma
rifurmi
rifurmista
rifurmisti
rifurnimentu
riga
rigali
riggenti
riggenza
riggi
riggia
riggimentu
riggimi
riggina
rigginedda
riggini
rigginotta
riggio
riggioni
riggista
riggisti
riggistra
riggistrannu
riggistrari
riggistraru
riggistrata
riggistrati
riggistratu
riggistrau
riggistrazzioni
riggistro
riggitanu
riggiu
riggiuna
riggiunali
riggiuni
riggiuta
riggiutu
righi
right
rightarrow
rights
rigina
rigistrannu
rigistrari
rigistrata
rigistrati
rigistratu
rigistrazioni
rigistrazzioni
rigistro
rignanti
rignaru
rignau
rignava
rignu
rigu
rigua
riguarda
riguardanti
riguardu
rigulamenti
rigulamentu
rigulari
rigularitati
rigularmenti
rigulatu
rigulazzioni
riguri
rigurusa
rii
riiddu
riina
rila
rilasciatu
rilasciu
rilassu
rilativa
rilativamenti
rilativi
rilativita
rilativitati
rilativu
rilazzioni
rile
rilevi
rilevu
riley
rili
rilievi
rilievu
riliggi
riliggioni
riliggiosa
riliggiosi
riliggiuni
riliggiusa
riliggiusi
riliggiusu
riligiuni
riligiusa
riligiusi
riliqui
riliquia
riliquiariu
riliquii
rilivanti
rilivanza
rilivari
riloggiu
rilu
rima
rimane
rimanenti
rimani
rimasi
rimasta
rimasterizzata
rimasterizzatu
rimastu
rimaturi
rimbarzi
rime
rimediu
rimetti
rimi
rimiggiu
rimini
rimintali
rimiti
rimitu
rimotu
rimu
rin
rina
rinaldo
rinaldu
rinali
rinardu
rinascimentu
rinascimintali
rinascita
rinasciuta
rinatu
rinchiazzata
rine
rinesci
rinforzi
rinforzu
ring
ringhiera
ringo
rings
rini
riniscennu
rinisceru
rinisci
rinisciu
rinisciutu
riniuni
rinne
rinnennu
rinneru
rinni
rinnigari
rinninuni
rinnovamento
rinnovu
rinnuta
rinnuti
rinnutu
rinnuvamentu
rinnuvari
rinnuvatu
rintra
rinu
rinumatu
rinuminata
rinuncia
rinunciari
rinunzia
rinusi
rio
rioja
ripara
riparari
riparazzioni
riparti
ripartizzioni
ripartu
riparu
ripe
riperti
ripi
ripigghi
ripigghia
ripigghiannu
ripigghiari
ripigghiaru
ripigghiata
ripigghiatu
ripigghiau
ripirto
ripirtoriu
ripitizzioni
ripituta
ripituti
riporta
ripostu
riposu
ripre
ripresa
riprese
ripresi
ripri
riprisa
riprissioni
riprissiuni
riproduzzioni
riprudu
ripruduci
ripruduzzioni
ripu
ripubblica
ripubblicani
ripubblicanu
ripubbrica
ripubbricana
ripubbricani
ripubbricanu
ripubbricatu
ripurtari
ripurtata
ripurtati
ripurtatu
ripusari
riputazzioni
riquisiti
riri
ririsi
risa
risalenti
risali
risata
riscattu
rischi
rischiu
risci
riscontra
riscuperta
riscussioni
rise
risenti
riserva
riservi
risi
risidenti
risidenza
risidinziali
risidui
rising
risinni
risintimentu
risirvata
risirvati
risirvatu
risistenti
risistenza
risisti
risistiri
riso
risoluzzioni
risolvere
risorgimento
risorgimentu
risorsi
risortu
rispe
rispettivamenti
rispetto
rispettu
rispi
rispinta
rispiratoria
rispiratoriu
rispirazzioni
rispiru
rispittari
rispittati
rispittatu
rispittivamenti
rispittivi
rispoli
risposta
risposti
rispu
rispunni
rispunniu
rispunnuta
rispunsabbili
rispunsabbilitati
rispunza
rispunzabbilitati
rispusi
rispusta
rissi
rista
ristabbilisci
ristampa
ristampatu
ristannu
ristanti
ristari
ristaru
ristati
ristatu
ristau
ristaurata
ristauratu
ristaurazzioni
ristauri
ristava
risti
risto
ristoranti
ristritta
ristrizzioni
ristrutturazzioni
ristuccia
risturanti
risu
risulta
risultannu
risultati
risultato
risultatu
risuluzzioni
risunanza
risurgimentu
risurrezzioni
risurrizzioni
risursa
risursi
risurta
risurtanti
risurtati
risurtatu
rit
rita
ritaggiu
ritanu
ritardi
ritardu
ritchie
rite
riteni
ritennu
ritenuta
riti
ritina
ritini
ritino
ritinolu
ritinuta
ritinuti
ritinutu
ritira
ritirari
ritirata
ritirau
ritiro
ritiru
ritmi
ritmica
ritmo
ritmu
rito
ritorna
ritornare
ritornello
ritorno
ritornu
ritrai
ritratti
ritratto
ritrattu
ritruvamenti
ritruvamentu
ritta
rittanculari
rittangulari
ritti
rittu
ritturi
ritu
rituali
riturna
riturnannu
riturnari
riturnau
riturnellu
riturno
riu
riudu
riulari
riulazzioni
riuni
riunificazzioni
riuniona
riunioni
riuniti
riuri
rius
riuzzu
riva
rivali
rivalitati
rivardu
rivata
rivati
rive
rivela
river
rivera
rivers
riversa
rivesti
rivi
riviera
rivilari
rivilau
rivilazzioni
rivinnicazzioni
rivinusa
rivisioni
rivisiunismu
rivisiunisti
rivista
rivisti
rivistimentu
rivistuta
rivo
rivolta
rivolti
rivoluzionario
rivoluzione
rivoluzioni
rivoluzzioni
rivorta
rivorti
rivota
rivoti
rivotu
rivulta
rivuluziuni
rivuluzzioni
rivuluzziunari
rivuluzziunaria
rivuluzziunariu
rivuluzziuni
rivurtura
rivurtusi
rivuta
rizettu
rizza
rizzetta
rizzi
rizzo
rizzoli
rizzu
rm
rma
rmaci
rmanu
rmi
rmica
rmicu
rmidi
rmina
rminanu
rmini
rminu
rmiri
rmu
rmula
rmuli
rmuri
rmuru
rn
rna
rnanu
rnia
rnicu
rniri
rnita
rnu
ro
road
roald
rob
roba
robba
robbertu
robbi
robbie
robert
roberta
roberto
roberts
robertson
robertu
robin
robinson
roblox
robo
robocon
robot
rocca
roccaforti
roccaful
roccella
rocchetta
rocci
roccia
rocco
roccu
rochelle
rock
rockefeller
rockestra
rockfield
rockford
rocks
rocky
rod
rodanu
roddick
rodgers
rodi
rodri
rodrigo
roger
rogers
roggiu
roh
rohlfs
rohmer
roi
roland
rolando
rolf
roli
roll
rollback
rollin
rolling
rologghia
rolu
rom
roma
romagna
romain
roman
romana
romance
romani
romania
romano
romanorum
romanov
romanu
romanze
romanzi
romanzo
romanzu
rome
romeo
romolo
rompuy
ron
ronald
ronaldinho
ronaldo
ronda
rookie
rooney
roosevelt
root
roppu
rory
ros
rosa
rosali
rosalia
rosario
rosariu
rosarno
rosarnu
rose
roses
rosetta
rosi
ross
rossa
rossano
rossellini
rossi
rossini
rosso
rossu
rostropovich
rota
rotation
rotational
rotazzioni
roth
roti
rotta
rotterdam
rouen
rouge
round
rounding
rourke
rousse
rousseau
roux
rovazzi
roveretu
rovigu
row
rowargs
roy
royal
royalblue
royalty
rpina
rprita
rpriti
rpu
rpura
rr
rra
rramu
rranu
rre
rrera
rri
rria
rrica
rrichi
rricu
rriggiu
rrinu
rriri
rritu
rru
rrunu
rs
rsa
rsanu
rsi
rsica
rsichi
rsicu
rsiru
rstel
rsu
rt
rta
rtanu
rti
rtica
rtici
rticu
rtidi
rtili
rtima
rtimi
rtimu
rtinu
rtiri
rtl
rttemberg
rtu
rtuli
rtulu
rtumu
rtunu
ru
rua
rubbertu
rubbettino
rubbia
rubbusta
rubbustizza
rubens
rubertu
rubik
rucazzioni
rucca
ruccaforti
ruccedda
ruccella
rucciusi
rucciusu
rucu
rudanu
ruderi
rudi
rudolf
rudolfu
rudolph
rudy
rue
ruffianu
ruffino
ruffo
ruga
rugby
ruggeri
ruggero
ruggeru
ruggiero
ruggieru
rugova
ruhr
rui
ruina
ruini
ruiz
rule
ruli
rullu
rulo
ruloggi
ruloggiu
rulu
ruluggiaru
ruluggiri
rum
ruma
rumagna
rumana
rumani
rumania
rumanizzata
rumanu
rumanza
rumanzi
rumanzu
rumbiolu
rumena
rumeni
rumenu
ruminanti
rumpi
rumpiri
rumputu
rumu
rumuri
run
runa
runi
runni
running
runu
rununu
ruolo
ruolu
ruoppu
rupestri
ruppa
ruppi
ruppu
rurali
rus
rusali
rusalini
rusariu
rusatu
rush
rusi
rusidda
rusina
russa
russanu
russell
russi
russia
russian
russigghiuni
russo
russu
rustica
rusticana
rusuli
rusulia
ruta
rutacismu
rutazzioni
rutelli
ruth
rutherford
rutta
rutti
ruttu
ruttura
rutu
rutunna
rutunnu
ruud
ruvina
ruvini
ruvu
rv
rvanu
rvinu
rviri
rvule
rvuli
rvulu
rvunu
rvuru
ry
ryan
rydb
rythm
ryu
rz
rza
rziri
rø
rømer
s
sa
saba
sabatella
sabatier
sabatini
sabbath
sabbatu
sabbatudi
sabbia
sabbutaggiu
sabbutudi
sabina
sabino
sabinu
sabrina
sac
sacca
saccheggi
sacchetta
sacchi
sacchiannu
sacchiata
sacciu
sacco
saccu
sacerdoti
sachs
sacirdoti
sacra
sacramenti
sacramento
sacramentu
sacri
sacrifici
sacrificiu
sacro
sacru
sacundu
sacunnu
sad
saddam
saepe
safari
saffu
saga
sage
saggi
saggista
saggiu
saggizza
sagittarius
sagra
sahara
sai
said
sail
saint
sainte
saitta
saitti
sala
salaam
saladinu
salafismu
salamanca
salameh
salami
salamina
salamuni
salaparuta
salas
salata
salati
salatu
salce
sale
salemi
salentina
salentine
salentini
salentino
salentinu
salento
salentu
salera
salernitana
salerno
salernu
sales
sali
salice
salieri
salim
salina
salini
salintina
salintintu
salintinu
salirnitana
salisburgu
sallustiu
sally
salmi
salo
salomone
salsa
salsu
salt
saltare
salumi
salumuni
saluni
saluniccu
saluta
salutari
saluti
salutu
salvador
salvare
salvati
salvatore
salvaturi
salve
salvia
salvini
salvo
salvu
sam
samba
sambuca
same
sami
samizdat
sammarinese
sammarinisi
sammuca
sammy
samoa
samolesky
sampdoria
sampieri
sample
sampras
sampson
samsung
samu
samuel
samuele
samueli
san
sana
sanaredda
sanareddi
sanchez
sanciu
sancu
sand
sandinista
sandman
sandra
sandrelli
sandro
sandru
sandy
sanfaso
sanger
sangiulianu
sangu
sangue
sanguigna
sanguigni
sanguignu
sanguineti
sani
sanita
sanitaria
sanitati
sannita
sanniu
sanno
sannu
sanremo
sanremu
sans
sanscritu
sant
santa
santana
santander
santapaola
santi
santiago
santiagu
santissima
santissimo
santissimu
santita
santitati
santo
santos
santu
santuario
santuariu
santuvitisi
santuzza
sanu
sao
saona
sape
sapemu
sapennu
sapere
sapi
sapie
sapiens
sapienti
sapienza
sapiri
sapiti
sappi
sapunara
sapuni
sapurcu
sapuri
saputa
saputi
saputu
sar
sara
saraceni
saracina
saracini
saracinu
saragozza
saragusa
sarah
sarajevu
saramago
sarannu
sarau
sarausa
sarausana
sarausani
sarausanu
sarba
sarbari
sarbata
sarbati
sarbatu
sarbaturi
sarcofagu
sarda
sardegna
sardi
sardigna
sardignolu
sardo
sardu
sarebbe
sari
saridda
sarkozy
sarma
sarmi
saro
sarracini
sarrionandia
sarsa
sarthe
sartre
saru
sarudda
saruman
sarva
sarvaggi
sarvaggia
sarvaggiu
sarvamentu
sarvari
sarvaru
sarvata
sarvati
sarvatu
sarvaturi
sarvau
sarvi
sarvia
sarvizza
sarvu
sas
sasizza
saskia
sassarisi
sasso
sassofono
sassonia
sassu
sassuni
satana
satanic
sate
satellite
satelliti
sati
satillitari
sativa
satoshi
satrianu
saturnu
saud
saudita
saul
saurischi
saurischia
sauritu
sauron
sauropoda
sauropodomorpha
sauropsida
sausizza
saussure
sautari
sautu
sava
savarese
save
saved
savelli
saverio
saveriu
savianu
savinu
saviu
savoia
savoie
savona
savuna
saw
sax
saxicola
saxofona
say
saying
sb
sba
sbagghi
sbagghia
sbagghiata
sbagghiatu
sbagghiu
sbannuti
sbannutu
sbarca
sbarcari
sbarcaru
sbarcati
sbarcau
sbarchi
sbarco
sbarcu
sbarra
sbarramentu
sbatti
sbirru
sbn
sbocca
sboccu
sc
sca
scacchi
scaccia
scacciari
scacciata
scacciati
scaciuni
scala
scalara
scalari
scale
scalea
scaletta
scali
scalinata
scalu
scaluna
scalunata
scaluni
scanci
scancia
scanciari
scanciati
scanciu
scandal
scandalu
scanderbeg
scandinava
scandinavia
scandurra
scaniu
scannalu
scanta
scantari
scantati
scantatu
scantu
scanu
scanusciuta
scanusciuti
scanusciutu
scanzari
scanzioni
scanzunati
scapagnini
scappa
scappari
scapparu
scappatu
scappo
scara
scarati
scare
scari
scarlatti
scarpa
scarpara
scarparu
scarpi
scarrica
scarricari
scarsa
scarsamenti
scarsi
scarsu
scartamentu
scattari
scattata
scattau
scatti
scava
scavannu
scavari
scavata
scavati
scavatu
scavi
scavu
sce
sceaux
scecchi
sceccu
scegghi
scegghiri
scelba
scelta
scelti
sceltu
scena
scene
sceneggiata
sceneggiatore
scenes
sceni
scenti
scentifica
scentificu
scenza
scenzi
scenzia
scere
sch
sche
scheda
schedi
schema
schemi
schengen
scherma
schermo
schermu
scherzu
schetta
schetti
schi
schiava
schiavi
schiavitu
schiavituti
schiavone
schiavoni
schiavu
schili
schillaci
schiller
schilu
schina
schindler
schira
schiri
schirzusu
schizzufre
schmidt
scho
scholar
scholarpedia
school
schopenhauer
schro
schubert
schumacher
schumann
schuster
schwarzschild
sci
scia
sciacca
sciaffusa
sciami
scianna
sciano
scianu
sciara
sciarra
sciarri
sciascia
sciaturi
sciavarrello
sciccareddu
scicli
sciddicau
science
sciences
scienti
scientific
scientifica
scientifichi
scientifici
scientifico
scientificu
scienza
scienzi
scienziata
scienziati
scienziatu
scigghi
scigghiennu
scigghiu
scigghiuta
scigghiuti
scigghiutu
sciismu
sciistica
sciita
sciiti
scilla
scimitarra
scimonelli
scina
scinariu
sciniggiatu
sciniggiatura
sciniggiaturi
scinnennu
scinni
scinniri
scinniu
scinnuta
scinnuti
scinti
scintifi
scintifica
scintifici
scintificu
scinu
scinzati
scinzatu
scinziati
scinziatu
scio
sciogghi
scippari
sciri
sciroccu
scisma
scissi
scissioni
scissors
scita
sciti
sciu
sciugghi
sciugghimentu
sciugghiuta
sciugghiutu
sciumara
sciunu
sciurtinu
sciuscia
sciuta
sclera
sclusivamenti
scn
sco
scogghi
scogghiu
scola
scole
scoli
scommesse
scontra
scontri
scontru
scoperta
scopi
scoppia
scoppiu
scopri
scopu
scorcia
scorciu
scorda
scorpions
scorta
scorza
scossa
scossi
scots
scott
scotu
scozzese
scozzia
scream
scri
scrissi
scrissiru
scritta
scritti
scritto
scrittore
scrittori
scrittrici
scrittu
scrittura
scritturi
scriva
scrive
scrivennu
scriveru
scrivi
scrivia
scriviri
scriviti
scriviu
scrivuta
scrivuti
scrivutu
scrizzioni
scroccu
scrooge
scru
scrusci
scrusciu
scu
scudetti
scudettu
scudi
scudu
scula
sculari
sculastici
sculasticu
sculi
scultore
scultori
scultura
sculturi
sculu
scuma
scummigghiari
scummigghiata
scummissa
scumpa
scumparennu
scumpareru
scumpari
scumpariri
scumparisci
scumpariu
scumparsa
scumparsi
scumparsu
scumparuta
scumparuti
scumparutu
scumu
scumunicatu
scunfiggi
scunfiggiri
scunfiggiutu
scunfissi
scunfitta
scunfitti
scunfittu
scuntenti
scuntra
scuntraru
scuntrau
scuntu
scuola
scuole
scupa
scuperta
scuperti
scupertu
scupetta
scuppiari
scuppiati
scuppiau
scupreru
scupri
scupriri
scuprituri
scupriu
scupruti
scuprutu
scura
scurari
scurda
scurdari
scurdati
scurdatu
scurdia
scuri
scurpiuni
scurri
scurrimentu
scurriri
scursioni
scursu
scursuni
scurtura
scurturi
scuru
scusa
scutari
scuti
scutu
scuvi
scuvu
scuzzisi
sd
sdegnu
sdirrubbata
sdirrubbatu
sdirrupu
sdisertu
se
sea
seagull
seal
seamusica
sean
search
seas
seaside
season
seattle
sebastia
sebastian
sebastiano
sebastianu
sebbene
sebbeni
sec
seccagrande
secco
secoli
secolo
secolu
second
seconda
secondo
seconds
secondu
secret
secretary
secrets
section
secu
secuitu
seculi
seculu
secunda
secundu
secunna
secunni
secunnu
security
sed
sedda
sede
sedgwick
sedi
sedna
see
seen
sees
segantini
seggesta
seggi
seggia
seggiu
segmenti
segmentu
segna
segni
segnu
segretario
segretariu
segreto
seguaci
segue
seguenti
segui
seguiri
seguita
seguito
seguitu
sei
seicentu
sein
seine
sel
selberg
select
selecta
selena
self
selinunte
selinunti
sella
seller
sellerio
selleriu
sellers
selling
selva
selvaggi
selvaggio
sembra
semi
semicirculari
semifinali
seminara
seminariu
semio
semiti
sempa
semper
sempervirens
sempi
sempiu
semplice
semplicementi
semplici
sempre
sempri
semprici
semu
sen
senatore
senatu
senaturi
senegal
senior
senna
sennu
senpai
senshi
sensi
senso
sensu
senta
sentai
senti
sentiri
sentu
senu
senz
senza
senzi
senziu
senzu
seoul
sep
separatore
sepp
seppi
september
sequence
sequenza
sequi
sequitu
ser
sera
serba
serbi
serbia
serbo
serbu
sercitu
sere
serena
serge
sergej
serghei
sergi
sergio
sergiu
seri
seria
serial
seriamenti
serie
series
serii
seriu
serpenti
serpi
serpotta
serra
serradifalco
serradifarcu
serralta
serre
serri
seru
serva
serve
server
servetu
servi
service
servinu
servizi
servizio
serviziu
servu
sesac
sesia
sessanta
sessi
session
sessioni
sessions
sesso
sessu
sesta
sestu
set
seth
setmetatable
sett
setta
settanta
sette
settembre
settembri
settemmiri
settentrionale
settentrionali
settentriunali
setti
setticentu
settima
settimiu
settimu
settore
settori
setturi
seul
seven
seventh
several
severo
severu
sex
sexy
sezione
sezzi
sezzioni
sfax
sfe
sfera
sferi
sferracavaddu
sfi
sfida
sfidari
sfila
sfilata
sfilati
sfinciuni
sfinteri
sfocia
sforza
sforzi
sforzu
sfrazzu
sfrutta
sfruttamentu
sfruttannu
sfruttari
sfruttata
sfu
sfumatura
sfumaturi
sfunnacata
sfunnu
sfurtuna
sfuru
sg
sga
sgalambro
sgt
sh
sha
shaanxi
shahr
shaka
shake
shakespeare
shakira
sham
shanghai
shannon
shapley
sharon
shaw
she
sheer
sheet
sheffield
shek
sheldon
shelley
shenzhou
shepherd
sherlock
sherwood
shi
shift
shikibu
shimon
shinzo
ship
shirley
sho
shock
shof
shop
short
shot
should
shounen
shove
show
shows
showunit
shtu
shu
shuadit
shutdown
shuttle
si
sia
siam
siamo
sianova
sianu
sibari
sibbeni
sibberia
sibbizza
sibi
sibilla
sic
sica
sicana
sicani
sicanu
sicca
siccari
siccati
sicchi
sicci
siccia
sicciara
siccomi
siccomu
siccu
sichelgaita
sichi
sichilia
sici
sicifrancisi
sicile
sicili
sicilia
siciliae
sicilian
siciliana
siciliane
siciliani
sicilianita
siciliano
sicilianu
sicilie
sicilien
siciliota
sicilioti
sicily
sicilypage
sicilyweb
sicissioni
sicreta
sicreti
sicretu
sicrita
sicritariu
sicriteria
sicrizzioni
sicu
sicuennu
sicuenti
sicula
siculari
siculi
siculiana
siculish
siculo
siculu
sicunna
sicunnari
sicunnarii
sicunnariu
sicunnu
sicura
sicuramenti
sicurezza
sicuri
sicurizza
sicuru
sicut
sid
siddharta
siddiari
siddiatu
siddu
side
sides
sidewalk
sidi
sidici
sidney
sidoti
sidru
siduta
siduti
sie
sieculu
siei
siempri
siena
sienza
sienzu
sierra
sietti
sievert
sifarditi
sig
siggi
siggillu
siggritariu
sigla
sigle
sigma
sigmentu
sigmund
sign
signa
signala
signalari
signalati
signalatu
signalazzioni
signali
signannu
signari
signata
signatu
signau
signed
signi
significa
significannu
significanti
significanza
significari
significati
significativa
significativamenti
significativi
significativu
significatu
significava
signo
signor
signora
signore
signori
signs
signu
signura
signuri
signuruzzu
sigretu
sigritariu
siguaci
siguennu
siguenti
sigui
siguiri
siguitu
sii
siis
sil
sila
silence
silent
silenzio
silenziu
silicati
siliciu
silinunti
silizzioni
[...]
