!
"
#
##0
##1
##10
##11
##12
##13
##14
##15
##16
##17
##18
##19
##2
##20
##21
##22
##23
##24
##25
##26
##27
##28
##29
##3
##30
##31
##32
##33
##34
##35
##36
##37
##38
##39
##4
##40
##41
##42
##43
##44
##45
##46
##47
##48
##49
##5
##50
##51
##52
##53
##54
##55
##56
##57
##58
##59
##6
##60
##61
##62
##63
##64
##65
##66
##67
##68
##69
##7
##70
##71
##72
##73
##74
##75
##76
##77
##78
##79
##8
##80
##81
##82
##83
##84
##85
##86
##87
##88
##89
##9
##90
##91
##92
##93
##94
##95
##96
##97
##98
##99
$
%
&
'
(
)
*
+
,
-
.
/
0
00
000
0001
0004
001
002
003
004
005
006
007
008
009
01
010
011
012
013
015
017
018
01865
019
02
020
025
03
04
05
06
07
08
09
1
10
100
1000
10000
1001
1002
1007
101
1010
1016
1017
102
1021
1023
1024
103
1030
1037
1038
1039
104
1040
105
1050
1051
1055
1056
106
107
1070
1071
1073
108
1080
1086
1088
109
1093
1097
1098
1099
11
110
1100
1103
1109
111
1111
112
1126
113
1136
114
1146
115
1150
116
1163
117
1177
118
1186
119
12
120
1200
1204
121
122
1220
1221
123
124
1240
125
1250
1258
126
1260
127
128
129
13
130
1300
131
132
133
134
1340
135
1350
1353
136
1360
1365
1368
137
1370
1371
138
1380
1385
1389
139
1399
14
140
1400
1402
1405
141
142
143
144
1440
145
1450
1453
146
1467
1468
1469
147
1470
1475
148
1480
1487
149
1490
1492
1494
1497
1498
1499
15
150
1500
1501
1502
1503
1504
1505
1506
1508
1509
151
1510
1511
1512
1513
1515
1516
1517
1519
152
1520
1521
1522
1524
1525
1526
1527
153
1530
1533
1534
1536
1538
154
1540
1541
1542
1545
1547
155
1550
1551
1552
1553
1555
1556
1557
1558
1559
156
1560
1569
157
1570
1571
1572
1573
1578
158
1580
1581
1582
1583
1585
159
1590
1595
1596
1598
16
160
1600
1601
1602
1603
1604
1605
1606
161
1610
1611
1612
1613
1617
1618
1619
162
1620
1621
1623
1627
1629
163
1630
1631
1632
1636
1637
164
1640
1642
1643
1644
1645
1648
165
1650
1654
1657
166
1660
1661
1664
1665
1666
1667
167
1670
1672
168
1680
1683
1687
1688
1689
169
1690
1694
1699
17
170
1700
1701
1702
1703
1704
1707
1708
1709
171
1710
1711
1712
1713
1714
1715
1716
1717
1718
1719
172
1720
1721
1722
1723
1724
1725
1728
173
1730
1732
1735
1736
1739
174
1740
1741
1742
1744
1745
1747
1748
1749
175
1750
1751
1752
1753
1754
1755
1756
1757
1758
1759
176
1760
1761
1762
1763
1764
1765
1766
1768
1769
177
1770
1771
1772
1773
1774
1775
1776
1777
1778
1779
178
1780
1781
1782
1783
1784
1785
1786
1787
1788
1789
179
1790
1791
1792
1793
1794
1795
1796
1797
1798
1799
18
180
1800
1801
1802
1803
1804
1805
1806
1807
1808
1809
181
1810
1811
1812
1813
1814
1815
1816
1817
1818
1819
182
1820
1821
1822
1823
1824
1825
1826
1827
1828
1829
183
1830
1831
1832
1833
1834
1835
1836
1837
1838
1839
184
1840
1841
1842
1843
1844
1845
1846
1847
1848
1849
185
1850
1851
1852
1853
1854
1855
1856
1857
1858
1859
186
1860
1861
1862
1863
1864
1865
1866
1867
1868
1869
187
1870
1871
1872
1873
1874
1875
1876
1877
1878
1879
188
1880
1881
1882
1883
1884
1885
1886
1887
1888
1889
189
1890
1891
1892
1893
1894
1895
1896
1897
1898
1899
19
190
1900
1901
1902
1903
1904
1905
1906
1907
1908
1909
191
1910
1911
1912
1913
1914
1915
1916
1917
1918
1919
192
1920
1921
1922
1923
1924
1925
1926
1927
1928
1929
193
1930
1931
1932
1933
1934
1935
1936
1937
1938
1939
194
1940
1941
1942
1943
1944
1945
1946
1947
1948
1949
195
1950
1951
1952
1953
1954
1955
1956
1957
1958
1959
196
1960
1961
1962
1963
1964
1965
1966
1967
1968
1969
197
1970
1971
1972
1973
1974
1975
1976
1977
1978
1979
198
1980
1981
1982
1983
1984
1985
1986
1987
1988
1989
199
1990
1991
1992
1993
1994
1995
1996
1997
1998
1999
2
20
200
2000
2001
2002
2003
2004
2005
2006
2007
2008
2009
201
2010
2011
20110810173103
20110810173253
20110810173811
20110810174007
2012
2013
2014
2015
2016
2017
2018
2019
20191216100553
202
2020
2021
2022
2023
2024
2025
2026
203
2030
204
205
2050
206
207
208
209
21
210
2100
211
212
213
214
215
216
217
218
219
22
220
2200
221
222
223
224
225
226
227
228
229
23
230
2300
2307
231
232
233
234
235
236
237
238
239
24
240
2400
241
242
243
244
245
246
247
248
249
25
250
2500
251
252
253
254
255
256
257
258
259
26
260
2600
261
262
263
264
265
266
267
268
269
27
270
2700
271
272
273
274
275
276
277
278
279
28
280
2800
281
282
283
284
285
286
287
288
289
29
290
291
292
293
294
295
296
297
298
299
3
30
300
3000
301
302
303
304
305
306
307
308
309
31
310
311
312
313
314
315
316
317
318
319
32
320
3200
321
322
323
324
325
326
327
328
329
33
330
331
332
333
334
335
336
337
338
339
34
340
341
342
343
344
345
346
347
348
349
35
350
3500
351
352
353
354
355
356
357
358
359
36
360
361
362
363
364
365
366
367
368
369
37
370
371
372
373
374
375
376
377
378
379
38
380
381
382
383
3831
384
385
386
387
388
389
39
390
391
392
393
394
395
396
397
398
399
4
40
400
4000
401
402
403
404
405
406
407
408
409
41
410
411
412
413
414
415
416
417
418
419
42
420
421
422
423
424
425
426
427
428
429
43
430
431
432
433
434
435
436
437
438
439
44
440
441
442
443
444
445
446
447
448
449
45
450
4500
451
452
453
454
455
456
457
458
459
46
460
461
462
463
464
465
466
467
468
469
47
470
471
472
473
474
475
476
477
478
479
48
480
481
482
483
484
485
486
487
488
489
49
490
491
492
493
494
495
496
497
498
499
5
50
500
5000
501
502
503
504
505
506
507
508
509
51
510
511
512
513
514
515
516
517
518
519
52
520
521
522
523
524
525
526
527
528
529
53
530
531
532
533
534
535
536
537
538
539
54
540
541
542
543
544
545
546
547
548
549
55
550
551
552
553
554
555
556
557
558
559
56
560
561
562
563
564
565
566
567
568
569
57
570
571
572
573
574
575
576
577
578
579
58
580
581
582
583
584
585
586
587
588
589
59
590
591
592
593
594
595
596
597
598
599
6
60
600
6000
601
602
603
604
605
606
607
608
609
61
610
611
612
613
614
615
616
617
618
619
62
620
621
622
623
624
625
626
627
628
629
63
630
631
632
633
634
635
636
637
6375
638
639
64
640
641
642
643
644
645
646
647
648
649
65
650
651
652
653
654
655
656
657
658
659
66
660
661
662
663
664
665
666
667
668
669
67
670
671
672
673
674
675
676
677
678
679
68
680
681
682
683
684
685
686
687
688
689
69
690
691
692
693
694
695
696
697
698
699
7
70
700
7000
701
702
703
704
705
706
707
708
709
71
710
711
712
713
714
715
716
717
718
719
72
720
721
722
723
724
725
726
727
728
729
73
730
731
732
733
734
735
736
737
738
739
74
740
741
742
743
744
745
7455
746
747
749
75
750
751
752
753
754
755
756
757
758
759
76
760
761
762
763
765
766
767
768
77
770
771
772
773
774
775
776
777
778
78
780
781
782
783
784
785
786
7864
787
788
789
79
790
792
794
795
798
8
80
800
8000
801
802
804
805
806
807
808
8088
809
81
810
812
813
814
815
816
8160
817
818
82
820
821
822
824
825
826
828
83
830
832
833
837
838
839
84
840
841
842
843
845
846
847
848
85
850
851
852
85270
854
855
856
857
859
86
860
861
862
864
865
866
867
87
870
871
872
873
874
875
879
88
880
882
883
885
886
888
889
89
890
892
893
895
897
899
9
90
900
9000
901
903
905
906
907
908
91
910
911
912
914
915
917
919
92
920
922
924
925
928
929
93
930
933
935
936
939
94
940
944
945
95
950
951
952
954
955
956
96
960
961
962
963
965
966
967
968
969
97
970
971
972
973
974
975
976
977
978
98
980
981
983
985
988
99
990
992
9943
996
9965
997
998
999
99947
:
;
<
=
>
?
@
[
\
]
^
_
`
a
aa
aaa
aamir
aan
aargau
aaron
ab
aba
abadiy
abadiyat
abay
abbas
abbeville
abbey
abbos
abbosiy
abbosiylar
abbott
abby
abc
abd
abdu
abdug
abdul
abdulaziz
abdulhamid
abdulla
abdullah
abdullaxon
abdullaxonov
abdullayev
abdullayeva
abdulloh
abdulqodir
abdulrahmon
abdurahim
abdurahmon
abdurahmonov
abdusattor
abe
abel
aberdeen
abi
abigail
abonent
abort
about
above
abraham
abramov
abrams
abroad
abror
abruzzo
abs
absolyut
abstract
abstrakt
abu
abul
abulg
abuse
abxaziya
ac
academia
academic
academy
acc
access
accessed
accident
according
account
accounts
accused
ace
aces
ach
achchig
achchiq
achievement
achillea
acid
acl
acosta
acquire
acquires
acquisition
acre
across
act
acta
acting
action
active
activist
activities
activity
actor
actors
actress
actresses
acura
ad
ada
adab
adabiy
adabiyot
adabiyotda
adabiyotga
adabiyoti
adabiyotida
adabiyotiga
adabiyotini
adabiyotining
adabiyotlar
adabiyotlarda
adabiyotning
adabiyotshunos
adabiyotshunoslik
adadi
adagi
adam
adams
adan
adana
adaptation
adaptiv
adashgan
adashib
adashtirmaslik
add
addams
added
addison
additional
address
adds
adelaida
adelaide
adele
adi
adib
adiblar
adidas
adigan
adige
adil
adir
adirlar
aditya
adiyaman
adj
adler
adliya
administration
administrative
administrator
admiral
admirali
admits
adnan
ado
adobe
adolat
adolatli
adolatsiz
adolf
adovat
adresa
adria
adrian
adriana
adriano
adult
adults
advance
advanced
advances
adventure
adventures
advertiser
advertising
advice
advocate
advokat
advokati
advokatlar
advokatlik
adıyaman
ae
aek
aero
aerodinamik
aerodrom
aerokosmik
aeronavtika
aeroport
aeroporti
aeroportida
aeroportidan
aeroportiga
aeroportlar
aerospace
aes
af
afandi
afc
aff
affair
affairs
afg
afghan
afghanistan
afi
afina
afinada
afinadagi
afl
afp
africa
african
afrika
afrikada
afrikadagi
afrikadan
afrikaga
afrikalik
afrikaning
afro
afrosiyob
afs
afsona
afsonaga
afsonalar
afsonalari
afsonaning
afsonasi
afsonaviy
afsus
afsuski
after
aftidan
aftonbladet
afur
afurov
afv
afyonkarahisar
afyun
afzal
afzalligi
afzalliklari
ag
aga
again
against
agar
agarda
agassi
agassiz
agata
age
aged
agence
agency
agenda
agent
agentga
agenti
agentlar
agentlari
agentligi
agentligiga
agentligining
agentlik
agentliklari
agents
ages
agmk
agnes
ago
agra
agrar
agree
agreement
agrees
agregat
agregatlar
agressiv
agricultural
agriculture
agronom
agsu
ah
ahamiyat
ahamiyatga
ahamiyati
ahamiyatiga
ahamiyatini
ahamiyatli
ahamiyatsiz
ahamoniylar
ahd
ahead
ahl
ahli
ahmad
ahmadiy
ahmadiya
ahmadiyya
ahmadjon
ahmadning
ahmadshoh
ahmed
ahmedov
ahmet
ahmoq
ahmoqona
aholi
aholidan
aholiga
aholini
aholining
aholisi
aholisidan
aholisiga
aholisini
aholisining
ahror
ahvol
ahvolda
ahvolga
ahvoli
ahvolini
ai
aichi
aid
aiff
aig
aik
aim
aims
ain
air
airbnb
airbus
aircraft
aires
airlines
airplay
airpods
airport
airways
ais
aise
aisne
aj
ajab
ajal
ajax
ajay
ajdaho
ajdar
ajdodi
ajdodlar
ajdodlari
ajib
ajoyib
ajraladi
ajraladigan
ajralgan
ajralib
ajralish
ajralishdi
ajralishi
ajralmas
ajrashgan
ajrashish
ajrashishdi
ajrata
ajratadi
ajratdi
ajratgan
ajratib
ajratiladi
ajratildi
ajratilgan
ajratish
ajratishga
ajratmoq
ajratuvchi
ak
aka
akad
akademigi
akademik
akademiya
akademiyada
akademiyaning
akademiyasi
akademiyasida
akademiyasiga
akademiyasini
akademiyasining
akademnashr
akalari
akasi
akasining
akbar
akbarning
akbarov
akc
akira
akita
akkad
akkreditatsiya
akkreditatsiyadan
akmal
akr
aks
aksar
aksari
aksariyat
aksariyati
aksessuarlar
akshay
aksi
aksilinqilobiy
aksincha
aksini
aksiya
aksiyadorlik
aksiyalar
aksiyalari
akt
akti
aktiv
aktivlar
aktivlari
aktivlarini
aktivlarni
aktobe
aktrisa
aktrisalar
aktrisalik
aktrisaning
aktrisasi
aktsiyadorlik
aktsiyalari
aktsiyalarini
aktyor
aktyori
aktyorlar
aktyorlari
aktyorlik
aktyorlikka
aktyorning
akusherlik
akustik
akvarel
akvitaniya
al
ala
alaba
alabada
alabadan
alabaga
alabalar
alabalari
alabali
alabama
alabani
alabaning
alabasi
alabasida
alabasidan
alabasiga
alabasini
alam
alan
alanga
alar
alararo
alari
alarni
alash
alaska
alati
alayhi
alayhissalom
alb
alba
alban
albancha
albania
albanian
albaniya
albaniyaning
albany
albatros
albatta
albert
alberta
alberto
albertsons
albion
albom
albomdagi
albomga
albomi
albomida
albomidagi
albomidan
albomiga
albomini
albomining
albomlar
albomlari
albomni
albomning
album
albums
aldab
aldash
aldoq
alec
alejandro
aleks
aleksandr
aleksandra
aleksandriya
aleksandrov
aleksandrovich
aleksandrovna
aleksey
alen
alenc
alessandria
alessandro
alex
alexa
alexander
alexandra
alexandre
alexis
alfa
alfonso
alfred
alfredo
alg
algarve
algebra
algebraik
algeria
algoritm
ali
alia
alibaba
alicante
alice
alicia
alien
alif
alifbo
alifbosi
alifbosida
alifbosiga
alifbosining
align
alimov
alimova
alina
alining
alisa
alish
alisher
alison
alive
alixon
aliyev
aliyeva
aliyevning
aljazeera
alkogol
alkogolli
all
alla
allachilik
allan
allaorol
allaqachon
allaqanday
allar
allegheny
allen
allergik
alley
alliance
allier
allik
allison
allmovie
allmovieda
allmusic
alloh
allohga
allohning
alloma
allstate
allsvenskan
ally
allyuvial
alma
almanac
almas
almashgan
almashinib
almashinuv
almashinuvi
almashinuvini
almashinuvining
almashish
almashlab
almashtiradi
almashtirdi
almashtirgan
almashtirib
almashtiriladi
almashtirildi
almashtirilgan
almashtirilishi
almashtirish
almashtirishni
almati
almeri
almost
alo
aloe
alohida
alomat
alomati
alomatlar
alomatlari
alone
along
alonso
aloqa
aloqada
aloqador
aloqaga
aloqalar
aloqalarga
aloqalari
aloqalarini
aloqalarni
aloqalarning
aloqani
aloqasi
aloqasini
alouddin
alp
alpes
alpha
alpomish
already
als
also
alt
altak
alternativ
alternative
alto
altsgeymer
alumni
alvaro
alves
alvin
always
alyans
alyansi
alyaska
alyssa
alyuminiy
am
ama
amaki
amakisi
amakivachchasi
amal
amalda
amaldagi
amaldor
amaldori
amaldorlar
amaldorlari
amalga
amaliy
amaliyot
amaliyotda
amaliyotga
amaliyoti
amaliyotida
amaliyotiga
amaliyotini
amaliyotlar
amaliyotlari
amaliyotni
amallar
amanda
amangeldi
amar
amasiya
amasya
amateur
amazing
amazon
ambar
ambari
ambarlar
ambarning
ambassador
amber
ambulatoriya
amc
amd
ame
america
american
americana
americans
americas
amerika
amerikada
amerikadagi
amerikadan
amerikaga
amerikalik
amerikaliklar
amerikaliklarning
amerikaning
amerikasi
amerikasidagi
amg
amgin
ami
amid
amiens
amin
aminokislotalar
aminov
amir
amiri
amirligi
amirligida
amirligining
amirlik
amirliklari
amirning
amirov
amitabh
ammiak
ammo
ammoniy
amnesty
amnistiya
among
amoq
amor
amorf
amp
ampas
amplitudasi
amr
amri
amsterdam
amsterdamda
amu
amudaryo
amudaryoning
amur
amxo
amy
an
ana
anadolu
anaerob
anaesthesiologists
anaga
anaheim
anakkale
anal
analar
analarga
analari
analarida
analariga
analarini
analarining
analarni
analitik
analiz
analog
analogi
analysis
ananas
anand
anas
anasi
anastasiya
anatolicus
anatoliy
anatomik
anatomiya
anatomiyasi
anatomy
anaviy
anbar
ancestry
ancha
anchagina
anchor
ancient
and
anda
andak
andalusiya
anderlecht
anders
andersen
anderson
andersson
andhra
andi
andijon
andisha
andorra
andoza
andozasida
andozasidan
andrade
andre
andrea
andreas
andreeva
andrei
andres
andrew
andrews
andrey
android
andromeda
andy
anemiya
ang
angel
angela
angeles
angelo
angels
angidrid
angl
anglab
anglash
anglatadi
anglatadigan
anglatadiki
anglatardi
anglatgan
anglatishi
anglatuvchi
angle
angliya
angliyada
angliyadagi
angliyaga
angliyalik
angliyani
angliyaning
anglo
angola
angor
angren
angry
angus
anhalt
anhor
ani
aniklash
anil
animal
animals
animated
animation
animatsion
animatsiya
anime
aning
aniq
aniqlab
aniqladi
aniqladilar
aniqlagan
aniqlamoq
aniqlanadi
aniqlandi
aniqlangan
aniqlanishi
aniqlanmagan
aniqlash
aniqlashda
aniqlashga
aniqlashning
aniqlay
aniqlaydi
aniqlaydigan
aniqligi
aniqlik
aniqlikdagi
aniqlovchi
aniqrog
aniqroq
anita
aniyev
anjeles
anjelesda
anjelesdagi
anjelesga
anjir
anjomlari
anjuman
anjumani
anjumanida
anjumanlar
ankara
ann
anna
annals
anne
anneksiya
anni
annie
anniversary
announce
announced
announcement
announces
annual
anonim
anonymous
anoq
anor
anorboyev
anorganik
another
anqara
anqarada
anri
ans
ansambl
ansambli
ansiklopedisi
ansoriy
answers
ant
antaliya
antalya
antanta
antarktida
antarktika
ante
antenna
anthem
anthology
anthony
anti
antibiotik
antibiotiklar
antigua
antik
antiqa
antoine
antologiyasi
anton
antoni
antonio
antony
antropologik
antropologiya
antuan
anu
anushka
anvar
anxel
any
anya
anyan
anything
ao
aol
aorta
ap
apa
apellyatsiya
apelsin
apertura
api
apollo
apollodor
apollon
apostol
app
apparat
apparati
apparatlar
apparatlari
appeal
appear
appearance
appearances
appendix
apple
appleton
application
applications
applied
appointed
appoints
approach
approved
approves
apps
apr
aprel
aprelda
apreldagi
apreldan
aprelgacha
aprelida
aprelidan
aprelya
april
apuliya
aq
aql
aqldan
aqlga
aqli
aqliy
aqlli
aqsh
aqshda
aqshdagi
aqshdan
aqshga
aqshni
aqshning
aqto
aquarius
aquila
ar
ara
arab
arabcha
arabia
arabian
arabic
arabiston
arabistoni
arabistonida
arabistoniga
arabistonining
arablar
arablarning
arabshunos
arafasida
arago
aragon
aralash
aralashgan
aralashib
aralashma
aralashmalar
aralashmasi
aralashmasidan
aralashtirib
aralashtiriladi
aralashtirilgan
aralashtirish
aralashuv
aralashuvi
aralık
arang
aras
arava
aravaga
araz
arb
arbda
arbdagi
arbdan
arbga
arbi
arbida
arbidagi
arbitraj
arbiy
arbning
arbob
arbobi
arboblari
arbor
arc
arch
archa
archaeological
archaeology
archer
archi
archibald
architects
architectural
architecture
archive
archived
archives
arde
ardi
are
area
areas
arena
arenada
ares
arfa
arg
argan
argentan
argentina
argentinada
argentinaga
argentinalik
argentinaning
argos
argus
argyle
ari
aria
ariana
arib
ariel
arifmetik
arina
ariq
aris
aristokratik
aristotel
ariy
ariza
arizasi
arizona
arjun
ark
arkansas
arkanzas
arktika
arlington
arm
arma
arman
armancha
armani
armaniston
armanistonda
armanistonga
armanistonning
armanlar
armanlarning
armasi
armasiga
armasining
armed
armenia
armenian
armiya
armiyada
armiyaga
armiyani
armiyaning
armiyasi
armiyasida
armiyasiga
armiyasini
armiyasining
armoni
armor
arms
armstrong
army
arnold
aro
aromatik
aroq
arora
around
aroyib
arpa
arq
arqon
arra
arrest
arrested
arrives
arrow
ars
arsenal
arshin
arslon
art
arte
arterial
arteriya
arthur
article
articlerender
articles
artid
artificial
artilleriya
artist
artisti
artistic
artists
artrit
arts
artur
arun
aruz
arvoh
arxaik
arxeolog
arxeologik
arxeologiya
arxeologiyasi
arxeologlar
arxitektor
arxitektori
arxitektorlar
arxitektura
arxitekturasi
arxitekturasining
arxiv
arxivi
arxivida
arxivirovano
arxivlandi
arxivlangan
arxivlar
arxivlari
arxivnaya
arxiyepiskopi
arz
arzimagan
arzimas
arzon
arzonroq
as
asa
asab
asabiy
asad
asahi
asaka
asal
asalari
asalarichilik
asalarilar
asar
asarda
asarga
asari
asarida
asaridan
asariga
asarini
asarining
asarlar
asarlarda
asarlardan
asarlarga
asarlari
asarlarida
asarlaridan
asarlariga
asarlarini
asarlarining
asarlarni
asarlarning
asarni
asarning
asbest
asbob
asbobi
asboblar
asboblari
asboblarini
asboblarni
asbobning
asbobsozlik
asd
asean
asfalt
ash
asha
ashaddiy
ashe
ashley
ashok
ashraf
ashtarxoniylar
ashton
ashula
ashulalar
ashurov
ashxobod
ashyo
ashyolar
ashyosi
ashyoviy
asi
asia
asian
asiatic
asida
asidagi
asidan
asiga
asin
asini
asining
asir
asirga
asirlar
asirlikda
ask
askar
askari
askarlar
askarlarga
askarlari
askarlarini
askarlarining
askarlarni
askarlarning
asked
asl
aslaha
aslan
asli
aslida
aslo
aso
asociacio
asoratlar
asoratlari
asos
asosan
asoschi
asoschilari
asoschilaridan
asoschisi
asosda
asosga
asosi
asosida
asosidagi
asosiga
asosini
asosiy
asosiysi
asoslab
asoslanadi
asoslangan
asoslanib
asoslar
asoslari
asoslarini
asosli
asossiz
asp
aspects
aspen
aspirant
aspiranti
aspirantura
aspx
asqar
asr
asrab
asrash
asrda
asrdagi
asrdan
asrga
asrgacha
asri
asrida
asrlar
asrlarda
asrlardagi
asrlardan
asrlarga
asrlarning
asrlik
asrning
asror
assam
assambleya
assambleyasi
assambleyasiga
assambleyasining
assassin
assault
assembly
assessment
assets
assimetrik
assimilyatsiya
assist
assistant
assistent
assistenti
assistentlik
associated
associates
association
associationda
associations
assotsiatsiya
assotsiatsiyasi
assotsiatsiyasida
assotsiatsiyasiga
assotsiatsiyasining
assr
ast
asta
astana
astara
astasekin
asteraceae
asteroid
asti
astma
aston
astoydil
astra
astraxan
astrazeneca
astro
astrofizika
astronaut
astronauts
astronavt
astronavti
astronavtlar
astronom
astronomi
astronomical
astronomik
astronomiya
astronomlar
astronomy
astrophysical
astrophysics
asturiya
at
ata
atab
atadi
atadigan
atagan
atala
ataladi
ataladigan
atalanta
ataldi
atalgan
atalib
atalmish
ataluvchi
atama
atamalar
atamalari
atamani
atamasi
atamasini
atamasining
atash
atashadi
atashgan
atatu
atay
ataydi
ataydilar
ataylab
atda
atdagi
atga
athens
athlete
athletes
athletic
athletics
ati
atida
atiga
atigi
atilgan
atini
atining
atipik
atir
atirau
atirgul
atirgullar
atish
atk
atkins
atkinson
atkor
atkorlar
atkorlari
atlanta
atlantic
atlantika
atlantiques
atlantis
atlar
atlari
atlas
atlasi
atle
atletico
atletik
atletika
atletikachi
atletiko
atm
atmoq
atmosfera
atmosferada
atmosferaga
atmosferaning
atni
atning
ato
atom
atomi
atomlar
atomlari
atoqli
atoy
atp
atrof
atrofda
atrofdagi
atrofga
atrofi
atrofida
atrofidagi
atrofiga
atrofini
atroflarida
atshunos
atshunoslik
attack
attacks
attention
attribute
atuvchi
atuvchisi
atvor
atvori
au
auckland
audi
audience
audio
audiofayl
audiomaqolalar
audit
auditoriya
auf
aug
augsburg
august
augusta
aur
aurora
aus
aussie
austen
austin
australia
australian
austria
austrian
author
authorities
authority
authors
autism
autizm
auto
autobiography
automobile
automotive
autumn
auvergne
aux
auxerre
av
ava
available
avalanche
avallon
avangard
avant
avar
avariya
avatar
avaz
avec
avellino
avengers
avenue
avenyu
average
avesto
avg
avgust
avgusta
avgustda
avgustdagi
avgustdan
avgustgacha
avgustida
avgustidan
avgustigacha
aviakompaniya
aviakompaniyalar
aviakompaniyaning
aviakompaniyasi
aviakompaniyasining
aviation
aviatsiya
aviatsiyasi
aviv
aviy
avj
avjiga
avliyo
avliyolar
avlod
avloddan
avlodga
avlodi
avlodidan
avlodining
avlodlar
avlodlari
avlodni
avn
avon
avraam
avranches
avstraliya
avstraliyada
avstraliyadagi
avstraliyaga
avstraliyalik
avstraliyani
avstraliyaning
avstriya
avstriyada
avstriyaga
avstriyalik
avstriyaning
avto
avtobiografik
avtobus
avtobusi
avtobuslar
avtohalokatda
avtomagistrali
avtomat
avtomatik
avtomatlashtirilgan
avtomatlashtirish
avtomobil
avtomobilga
avtomobili
avtomobilini
avtomobillar
avtomobillari
avtomobillarini
avtomobillarni
avtomobillarning
avtomobilni
avtomobilning
avtomobilsozlik
avtonom
avtonomiya
avtoritar
avtosalonida
avtotransport
avv
avval
avvaldan
avvalgi
avvalgidek
avvaliga
avvallari
avvalo
avvalroq
aw
award
awarded
awards
away
ax
axborot
axboroti
axborotlar
axborotlarni
axborotni
axel
axilles
axir
axlat
axloq
axloqi
axloqiy
axloqsiz
axmad
axsi
ay
aya
ayaks
ayanchli
ayb
aybdor
aybi
aybini
ayblab
aybladi
ayblagan
ayblangan
ayblanib
ayblov
ayblovlar
ayblovlari
ayblovlarni
aydin
ayg
aygan
ayi
ayib
ayig
ayiq
ayiqlar
ayiqlari
ayirboshlash
ayirish
aylana
aylanadi
aylanadigan
aylanasi
aylandi
aylangan
aylanib
aylanish
aylanishdi
aylanishi
aylanishiga
aylanishini
aylanishining
aylanma
aylanmasi
aylanmoq
aylantiradi
aylantirdi
aylantirgan
aylantirib
aylantiriladi
aylantirildi
aylantirilgan
aylantirish
aylantirishga
aylantirmoq
aylantiruvchi
aylanuvchi
aylar
aylend
ayn
aynan
ayni
ayniqsa
aynishi
ayniy
ayol
ayoldan
ayolga
ayoli
ayollar
ayollarda
ayollardan
ayollarga
ayollari
ayollarining
ayollarni
ayollarniki
ayollarning
ayollik
ayolni
ayolning
ayon
ayova
ayovsiz
ayoz
ayrat
ayratiy
ayratli
ayres
ayri
ayrim
ayrimlari
ayrioddiy
ayritabiiy
ayt
ayta
aytadi
aytadigan
aytdi
aytgan
aytganda
aytganidek
aytib
aytiladi
aytiladigan
aytilgan
aytilishicha
aytilmagan
ayting
aytish
aytishadi
aytishdi
aytishga
aytishgan
aytishicha
aytishlaricha
aytishni
aytmoq
ayuntamiento
ayvon
ayyor
ayyub
az
aza
azab
azabi
azabini
azablangan
azad
azal
azaldan
azaliy
azam
azamat
azarenka
azerbaijan
azerbaijani
azii
azim
azimov
aziyat
aziz
aziza
azna
aznachilik
aznaviylar
azni
azo
azob
azosi
azot
azotli
azov
azul
azure
azərbaycan
azərbaycanın
b
ba
baa
bab
baba
babu
baby
bach
bachadon
bachchan
back
backend
background
backs
bad
badajoz
badan
badaviy
badavlat
badaxshon
baden
badi
badiiy
badminton
badmintonchi
badning
badr
bae
bafta
bag
bagama
bagan
bags
baham
bahaybat
baho
bahodir
baholadi
baholagan
baholanadi
baholandi
baholangan
baholar
baholarga
baholash
baholashda
baholashga
baholaydi
bahona
bahor
bahorda
bahorgi
bahori
bahorida
bahosi
bahouddin
bahr
bahrain
bahramand
bahrayn
bahrom
bahs
bahsda
bahsida
bahslar
bahslarda
bahslari
bahslarida
bahsli
bai
bailey
bain
bains
baja
bajara
bajaradi
bajaradigan
bajardi
bajargan
bajarib
bajariladi
bajariladigan
bajarilgan
bajarilishi
bajarilishini
bajarish
bajarishda
bajarishga
bajarishi
bajarmoq
bajaruvchi
bajo
bak
bakalavr
bakalavri
bakalavriat
baker
bakr
bakterial
bakteriya
bakteriyalar
baku
bakı
bal
bala
balance
baland
balandligi
balandligini
balandlik
balandlikda
balandlikdagi
balandlikdan
balandlikka
balandroq
balansi
balchiq
baldwin
bale
balear
balet
baleti
balg
bali
balig
baliq
baliqchi
baliqchilar
baliqchilik
baliqlar
baliqlari
baliqlarning
baliqni
balise
baljuvon
balki
ball
ballar
ballari
balldan
ballga
balli
ballistik
ballni
ballon
balo
balog
baltic
baltimor
baltimore
balx
balxiy
balıkesir
bambuk
ban
banan
bancorp
band
banda
bandera
bandi
bandli
bandlik
bang
bangkok
bangladesh
bangladeshda
bangladeshning
bani
bank
banki
bankiga
banking
bankining
banklar
banklari
bankning
banknotalar
bankrot
bankrotlik
banks
banned
banner
bantu
banu
bao
baptist
baptiste
baqlajon
baqtriya
baquvvat
bar
bara
baraban
barabanchi
barabanlar
barack
barak
baraka
barang
baravar
barbados
barbara
barber
barbera
barbod
barc
barcelona
barcha
barchasi
barchasida
barchasini
barda
bardosh
bardoshli
barg
bargi
barglar
barglari
barglarning
bargli
barham
bari
baribir
barkamol
barker
barlar
barlarda
barmog
barmoq
barmoqlar
barmoqlari
barmoqli
barnes
barnett
barnsley
barobar
barokko
baron
barpo
barqaror
barqarorlashtirish
barqarorligi
barqarorligini
barqarorlik
barqarorlikni
barr
barra
barrel
barrett
barri
barrier
barron
barry
bars
barselona
barselonada
barselonadagi
bart
bartaraf
bartlett
bartold
barton
barty
barvaqt
bas
base
baseball
based
basel
bash
bashir
bashorat
basi
basic
basket
basketball
basketbol
basketbolchi
basketbolchisi
basketboli
basklar
basra
bass
bassett
bastakor
bastakori
bastakorlar
bastalagan
basu
bat
batafsil
batalon
bataloni
batalyon
batamom
batareya
batareyasi
bate
bates
bath
batlantiradi
batlantirish
batman
battery
battle
battles
batumi
bauer
bauhaus
bavariya
bax
baxmal
baxsh
baxshi
baxt
baxter
baxti
baxtiyor
baxtli
baxtsiz
bay
bayan
baybars
bayburt
bayer
bayern
bayeux
baykal
baylor
bayon
bayoni
bayonne
bayonot
bayonoti
bayonotida
bayonotlar
bayraktar
bayram
bayrami
bayramida
bayramlar
bayramlarda
bayramlari
bayrog
bayroq
bayroqlar
bayroqlari
bayroqni
bayroqning
bayrut
bayt
baza
bazaar
bazal
bazalari
bazalt
bazasi
bazasida
bazasiga
bazasini
bazel
bazi
bazm
bazı
bb
bbc
bbcning
bc
bd
bdfutbol
be
beach
bear
beard
bears
beasley
beast
beat
beatles
beatrice
beats
beaumont
beaune
beautiful
beauty
beauvais
bebaho
bec
became
because
bechora
beck
becker
become
becomes
becoming
beda
bedana
bedarak
bedford
bedi
bee
been
beer
befarq
before
beg
begim
begin
beginning
begins
begona
begum
begunoh
behavior
behavioral
behbudiy
behi
behind
behuda
behzod
bei
beijing
being
beixtiyor
bek
bekasi
bekat
bekati
bekitmoq
beklar
bekligi
beklik
bekning
bekobod
bekon
bekor
bekorga
bel
bela
belarus
belaruscha
belarusiya
belaruslik
belbog
belediyesi
belediyespor
belediyye
belfast
belfort
belgaum
belgi
belgian
belgilab
belgiladi
belgilagan
belgilamoq
belgilanadi
belgilandi
belgilangan
belgilanishi
belgilanmagan
belgilar
belgilarga
belgilari
belgilaridan
belgilariga
belgilarini
belgilarining
belgilarni
belgilarning
belgilash
belgilashda
belgilashingiz
belgilaydi
belgilaydigan
belgili
belgilovchi
belgini
belgining
belgisi
belgisidir
belgisiga
belgisini
belgium
belgiya
belgiyada
belgiyaga
belgiyalik
belgiyaning
belgrad
beli
believe
beliga
bell
bella
belle
belles
belorus
belorussiya
belt
bema
bemalol
bemor
bemorda
bemorga
bemorlar
bemorlarda
bemorlarga
bemorlarni
bemorlarning
bemorni
bemorning
ben
bend
benedict
benedikt
benefits
benfica
benfika
bengal
bengalcha
bengaliya
bengaluru
beni
benin
benjamin
bennet
bennett
benson
bentley
benton
benz
benzin
benzinli
benzol
beparvo
beparvolik
bepoyon
bepul
beqaror
beqarorlik
beqiyos
ber
bera
beradi
beradigan
beradilar
beraman
berar
berardi
berat
berayotgan
berber
berdaq
berdi
berdilar
berdix
berg
bergama
bergamo
bergan
bergani
berganida
berganidan
berganini
berganlar
bergen
berger
bergerac
beri
berib
beriladi
beriladigan
berildi
berilgan
berilib
berilishi
berilishini
berilmadi
berilmagan
berilmaydi
berilmoq
bering
berish
berishadi
berishda
berishdan
berishdi
berishga
berishgan
berishi
berishicha
berishini
berishlari
berishni
berishning
berk
berkeley
berkli
berkshire
berlin
berlinda
berlindagi
berliner
berlinga
bermadi
bermagan
bermaslik
bermay
bermaydi
bermaydigan
bermoq
bermoqda
bern
bernard
bernardo
berry
bersa
bert
beruniy
beruvchi
beruvchilar
bes
besanc
besh
beshburchak
beshdan
beshik
beshiktosh
beshinchi
beshlik
beshta
best
bet
beta
betakror
betaraf
beth
beti
betis
betlar
beton
better
betti
betty
between
beva
bevaqt
bevasi
beverli
beverly
bevosita
bexabar
bey
beyker
beyning
beyonce
beyond
beysbol
beysbolchi
bez
bezagi
bezak
bezaklar
bezaklari
bezakli
bezash
bezashda
bezatilgan
bezgak
bezi
bezlar
bezlari
bezovta
bf
bg
bharat
bhatt
bi
biathlon
biatlon
bibcode
bibi
bible
bibliografik
bibliografiya
bibliografiyasi
biblioteka
bibliya
bich
bid
biden
bieber
big
biga
bigg
biggest
bih
bihar
bij
bijg
bil
bila
biladi
biladigan
bilak
bilaman
bilan
bilanoq
bilar
bilardi
bilasizmi
bilateral
bilbao
bildi
bildiradi
bildirdi
bildirgan
bildirib
bildirilgan
bildirish
bildirishdi
bildirmoq
bildiruvchi
bilgan
bilgi
bilib
bilim
bilimdon
bilimga
bilimi
bilimini
bilimlar
bilimlari
bilimlarini
bilimlarni
bilish
bilishadi
bilishga
bilishgan
bilishi
bill
billboard
billi
billie
billion
billionaire
billy
bilmagan
bilmas
bilmay
bilmaydi
bilmaydigan
bilmayman
bilmoq
bilvosita
bin
binafsha
bing
bingen
bino
binoan
binobarin
binoda
binodan
binoga
binolar
binolarda
binolardan
binolarga
binolari
binolarida
binolarini
binolarni
binolarning
binoni
binoning
binosi
binosida
binosiga
binosini
binosining
bint
binti
bio
biografik
biografiya
biografiyasi
biographical
biographies
biography
biokimyo
biokimyoviy
biol
biological
biologik
biologiya
biologiyasi
biology
biometrik
biosfera
biotexnologiya
bir
birbiriga
bird
birdamlik
birdan
birdaniga
birds
birg
birga
birgalikda
birgalikdagi
birgina
biri
birida
biridan
biridir
biriga
birikib
birikkan
birikma
birikmalar
birikmalari
birikmalarni
birikmalarning
birikmasi
biriktirib
biriktirilgan
biriktirish
biriktiruvchi
birimleri
birin
birinchi
birinchidan
birinchilardan
birinchisi
birinchisida
birini
birining
birja
birjasi
birjasida
birlamchi
birlari
birlariga
birlarini
birlashadi
birlashdi
birlashdilar
birlashgan
birlashgandan
birlashib
birlashish
birlashishga
birlashishi
birlashma
birlashmalari
birlashmasi
birlashtiradi
birlashtirdi
birlashtirgan
birlashtirib
birlashtiriladi
birlashtirildi
birlashtirilgan
birlashtirilib
birlashtirish
birlashtirishga
birlashtiruvchi
birlashuvi
birligi
birligiga
birligini
birlik
birlikka
birliklar
birliklari
birma
birmingem
birmingham
birmuncha
birodar
birodarlar
birodarlik
biron
biroq
biror
birorta
birov
birovga
birovni
birovning
biroz
birth
birthday
bis
bisau
bishkek
bishop
bismark
bit
bitburg
bitcoin
bitgan
bitilgan
bitim
bitimi
bitimlar
bitimni
bitirgan
bitiruv
bitiruvchi
bitiruvchilar
bitiruvchilari
bitiruvchisi
bitkazildi
bitkazilgan
bitli
bitlis
bitta
bittadan
bittasi
biy
biz
bizda
bizdan
bizga
bizgacha
biznes
biznesga
biznesi
biznesiga
biznesini
biznesmen
biznesni
bizni
bizning
bjo
bjp
bk
bl
black
blackberry
blackburn
blackhawks
blackpink
blackpool
blackwell
blade
blades
blair
blake
blanc
blanco
blast
blazers
bleacher
blekbern
blica
blind
blits
block
blog
blogger
blogi
blogs
blogspot
blois
blok
bloki
blokirovka
bloklar
bloklari
blokni
blood
bloody
bloom
bloomberg
bloomington
bloomsbury
blow
blu
blue
blues
bluetooth
blyuz
bm
bmj
bmt
bmtga
bmtning
bmw
bn
bo
board
boateng
bob
bobbi
bobby
bobdan
bobi
bobida
bobil
boblar
bobo
bobolari
bobosi
boboyev
bobur
boburiy
boburiylar
boburning
boburnoma
boca
bod
bodom
bodring
body
boeing
bog
bogdan
bois
boisdan
boj
bojxona
bokira
boks
bokschi
bokschisi
boksit
boku
bokuda
bokudagi
bokuga
bol
bola
bolaga
bolalar
bolalarda
bolalardan
bolalarga
bolalari
bolalariga
bolalarini
bolalarni
bolalarning
bolali
bolaligi
bolaligida
bolaligidan
bolaligini
bolalik
bolalikdagi
bolam
bolani
bolaning
bolasi
bolasini
bold
boldir
bolduin
bolg
bolgan
bolgar
bolgarcha
bolgariya
bolgariyada
bolgariyaning
bolivia
boliviya
bollivud
bollywood
bolo
bologna
boloniya
bolonya
bolqon
bolshaya
bolshevik
bolsheviklar
bolshoy
bolt
bolta
boltiq
boltiqbo
bolton
bolu
bomb
bomba
bombardimon
bombardimonchi
bombasi
bombay
bon
bond
bone
bonn
bonnie
bonus
book
booker
books
boom
boost
boot
booth
boqib
boqiladi
boqiladigan
boqish
boqiy
boqmoq
bor
bora
borada
boradi
boradigan
boradilar
borar
borardi
borasida
borasidagi
borayotgan
borayotgani
borayotganini
bordeaux
border
borders
bordi
bordilar
bordo
borgan
borganida
borganlar
borganlikda
borib
boricha
boriladi
boriladigan
borilayotgan
borildi
borilgan
borilmoqda
boring
boris
borish
borishadi
borishda
borishdan
borishdi
borishga
borishgan
borishi
borishiga
borishini
borishni
borki
borlaug
borligi
borligiga
borligini
borliq
bormi
bormoq
bormoqda
born
borneo
borough
borsa
bort
bortida
borussia
borussiya
boruvchi
borys
bos
bosadi
bosadigan
bosch
bosdi
bosfor
bosgan
bosh
boshchiligida
boshchiligidagi
boshchilik
boshdan
boshga
boshi
boshida
boshidagi
boshidan
boshidanoq
boshiga
boshigacha
boshini
boshining
boshlab
boshladi
boshladilar
boshlagan
boshlaganida
boshlaganidan
boshlaganini
boshlaganlar
boshlamoq
boshlanadi
boshlanadigan
boshlandi
boshlang
boshlangan
boshlanganda
boshlanganidan
boshlanib
boshlanish
boshlanishi
boshlanishida
boshlanishidagi
boshlanishidan
boshlanishiga
boshlanishini
boshlanuvchi
boshlari
boshlarida
boshlaridagi
boshlaridan
boshlariga
boshlarigacha
boshlash
boshlashdan
boshlashdi
boshlashga
boshlashi
boshlaydi
boshlaydilar
boshli
boshlig
boshliq
boshliqlari
boshlovchi
boshlovchisi
boshni
boshning
boshoq
boshoqli
boshpana
boshq
boshqa
boshqacha
boshqalar
boshqalarda
boshqalardan
boshqalarga
boshqalari
boshqalarni
boshqalarning
boshqara
boshqaradi
boshqaradigan
boshqardi
boshqargan
boshqarib
boshqariladi
boshqariladigan
boshqarilgan
boshqarish
boshqarishda
boshqarishga
boshqarishi
boshqarishni
boshqarishning
boshqarma
boshqarmasi
boshqarmasida
boshqarmasining
boshqaruv
boshqaruvchi
boshqaruvchisi
boshqaruvi
boshqaruvida
boshqaruvidagi
boshqaruviga
boshqaruvini
boshqaruvni
boshqasi
boshqasiga
boshqird
boshqirdiston
bosib
bosildi
bosilgan
bosilib
bosim
bosimi
bosimini
bosimining
bosimli
bosimni
bosimning
bosish
bosma
bosmaxona
bosmoq
bosnia
bosnian
bosniya
bosniyalik
bosqich
bosqichda
bosqichdan
bosqichga
bosqichi
bosqichida
bosqichidagi
bosqichidan
bosqichiga
bosqichini
bosqichining
bosqichlarda
bosqichlari
bosqichlarida
bosqichlarini
bosqichli
bosqichma
bosqichni
bosqin
bosqinchi
bosqinchilar
bosqinchilari
bosqinchilik
bosqini
bosqinidan
boss
bostirib
bostirildi
bostirish
boston
bostonda
bostondagi
bosuvchi
bosworth
bot
botanical
botanik
botanika
botgan
both
botib
botig
botiq
botir
botishi
botken
botmoq
botqoq
botqoqlik
botsvana
boulder
boumerde
bound
bourg
bourges
bournemouth
bovar
bow
bowen
bowl
box
boxer
boxing
boxingscene
boxrec
boy
boyazid
boyd
boyer
boyfriend
boyib
boyitilgan
boyitish
boykot
boylar
boyle
boyligi
boyligini
boylik
boyliklar
boyliklari
boyliklarini
boyliklarni
boyning
boyo
boyqaro
boys
boysun
boz
bozor
bozorda
bozordagi
bozorga
bozori
bozorida
bozoridagi
bozoriga
bozorini
bozorining
bozorlar
bozorlarda
bozorlari
bozorlarida
bozorni
bozorning
bp
br
bra
brace
brad
bradford
bradley
brady
braga
brahim
brain
branch
brand
brandenburg
brandon
brands
brandt
brasil
brasileira
brasileiro
bratislava
braun
brauzer
brave
bravo
brayan
brazil
brazilian
braziliya
braziliyada
braziliyadagi
braziliyaga
braziliyalik
braziliyaning
break
breakers
breaking
breaks
breakthrough
bred
bredford
bremen
brend
brenda
brendan
brendi
brendini
brendining
brendlar
brendlari
brendning
brennan
brent
brentford
brescia
bresse
brest
bretan
breton
brett
brewer
brewster
brian
bride
bridge
bridges
brief
brien
brigada
brigadasi
briggs
bright
brighton
brill
brilliant
bring
brings
brisbane
brisben
bristol
brit
britain
britan
britaniya
britaniyada
britaniyadagi
britaniyadan
britaniyaga
britaniyalik
britaniyaning
britannica
british
brittany
britton
broadband
broadcast
broadcasting
broadway
brodi
brodvey
brodveyda
brodveydagi
broken
brokgauza
brom
bromvich
bromwich
bron
bronza
bronzadan
bronze
brook
brooke
brooklyn
brooks
bros
brother
brothers
brought
brown
browne
browning
bru
bruce
brugge
bruins
bruk
bruklin
bruks
bruney
bruno
brunsvik
brunswick
bryan
bryant
bryus
bryussel
bryusselda
brøndby
bs
bsc
bshshn
bt
bts
bu
bubble
buchanan
buck
bucks
bud
buda
budapesht
budapeshtda
budapest
budasi
budda
buddist
buddistlar
buddizm
budget
buenos
buffalo
bug
bugatti
bugun
bugungi
build
building
buildings
built
bul
buladi
bular
bulardan
bularga
bularni
bularning
bulbul
bulg
bulgan
bulgaria
bulib
bull
bulldogs
bulletin
bulls
bulog
buloq
buloqlar
bulung
bulut
bulutlar
bulutli
bulvari
bun
bunchalik
bunda
bundan
bunday
bundesliga
bundesligada
bundesligadagi
bundesliganing
bunga
bungacha
buni
buning
bunyod
bunyodkor
buqa
bur
burab
burak
burch
burchagi
burchagida
burchak
burchakda
burchakka
burchaklari
burchaklarida
burchaklaridan
burchakli
burchi
burda
burdur
bureau
burg
burgenland
burger
burgess
burgos
burgundiya
burgut
burguti
burhoniddin
burhonov
burilib
burilish
burj
burjua
burke
burkina
burlington
burma
burmali
burn
burni
burning
burnley
burns
bursa
burton
burun
burundi
bury
bus
busch
bush
business
businessweek
but
buta
butalar
butan
butkul
butler
butsa
button
butun
butunittifoq
butunjahon
butunlay
butunrossiya
buva
buvi
buvisi
buxarest
buxgalteriya
buxoriy
buxoro
buxoroda
buxorodagi
buxoroga
buxorolik
buxoroliklar
buxoroning
buy
buyon
buyrak
buyraklar
buyrakning
buyrug
buyruq
buyruqlar
buys
buyuk
buyum
buyumi
buyumlar
buyumlari
buyumlarini
buyumlarni
buyumlarning
buyuradi
buyuradigan
buyurdi
buyurgan
buyurganida
buyurib
buyuriladi
buyurilgan
buyurish
buyurishadi
buyurishdi
buyurtma
buyurtmalar
buyuruvchilar
buzadi
buzdi
buzg
buzgan
buzib
buziladi
buzildi
buzilgan
buzilib
buzilish
buzilishi
buzilishiga
buzilishini
buzilishlar
buzilishlari
buzilmagan
buzish
buzishga
buzmoq
buzoq
buzuq
buzuqlik
buzuvchi
buzz
bv
bwf
by
byd
bye
byrne
byudjet
byudjeti
byulleteni
byuro
byurosi
byurosiga
byurosining
byust
byusti
c
ca
cabinet
cable
cadillac
caen
caf
cafe
cage
cagliari
cai
cairo
cake
cal
calabria
calcio
caldwell
calendar
calgary
california
call
called
calling
calls
callum
caltech
calvados
calvin
cam
cambodia
cambridge
came
cameo
camera
cameron
cameroon
camila
camille
camp
campagne
campaign
campania
campbell
campeo
campeonato
campo
camponotus
campus
can
canada
canadian
canadiens
canal
canberra
cancer
candidate
candidates
candy
cane
canes
cannes
cannon
cannot
canon
cantabria
cantal
cantonese
canucks
cao
cap
cape
capital
capitals
caps
captain
capture
car
cara
carbon
card
cardiff
cardinal
cards
care
career
carey
caribbean
carl
carla
carlisle
carlo
carlos
carlson
carlton
carlyle
carmen
carnegie
carol
carolina
caroline
carpenter
carr
carrie
carroll
carry
cars
carson
carter
cartoon
cartoons
cas
casa
case
cases
casey
cash
cass
cassidy
cast
castello
castilla
castillo
castle
castro
casts
cat
catalog
catalogue
catalun
catalunya
catania
catch
category
caterpillar
catherine
catholic
cats
caucasus
cause
causes
cavaliers
cave
cb
cbc
cbs
cbssports
cc
cctv
cd
cdc
cdot
ce
celebrate
celebrates
celebrating
celebration
celebrities
celebrity
cell
cells
celta
celtic
celtics
census
centennial
center
centers
centimetr
central
centrasia
centre
centro
centuries
century
centurycomm
ceo
ceremony
ceres
cern
certain
certification
certifications
cev
cf
cfa
cgi
ch
cha
chad
chada
chadan
chag
chaga
chain
chairman
chak
chakana
chakka
chal
chala
chalar
chalarda
chalari
chalarida
chalg
chalib
chalinadi
chalinadigan
chalingan
chalish
chalishni
chalkash
challenge
challenger
challenges
chalmoq
chalon
cham
chamasi
chamasida
chambarchas
chambe
chamber
chambers
champ
champion
championat
champions
championship
championships
champs
chan
chana
chance
chandler
chandra
chanel
chang
changchun
change
changed
changes
changing
chaning
channel
chanoq
chanoqqal
chanqiri
chao
chaos
chap
chapda
chapdan
chapel
chapelle
chapga
chaplin
chapman
chapter
chaq
chaqa
chaqaloq
chaqaloqlar
chaqaloqning
chaqiradi
chaqirdi
chaqirgan
chaqirib
chaqiriladi
chaqirildi
chaqirilgan
chaqiriq
chaqirish
chaqirmoq
chaqiruv
chaqiruvini
chaqiruvni
chaqmoq
chaqmoqlar
chaqqon
char
character
characteristics
characters
charchagan
charchoq
charge
charges
charity
charles
charleston
charli
charlie
charlotte
charlton
charlz
charm
charolles
chart
charter
chartida
chartlarida
chartres
charts
charx
chase
chasi
chasida
chasidagi
chasiga
chast
chastota
chastotali
chastotasi
chat
chati
chatishtirish
chatlar
chatqol
chavandoz
chaykovskiy
chayon
chdi
che
chechak
chechen
checheniston
chechenlar
check
cheese
chegara
chegarada
chegaradan
chegaradosh
chegaraga
chegaralangan
chegaralar
chegaralari
chegaralarida
chegaralariga
chegaralarini
chegaralarni
chegarani
chegarasi
chegarasida
chegarasidagi
chegarasidan
chegarasiga
chegarasini
chek
chekdi
chekib
chekindi
chekinish
chekinishga
chekish
chekka
chekkan
chekkasi
chekkasida
chekkasidagi
cheklab
cheklangan
cheklanib
cheklanmagan
cheklash
cheklaydi
chekli
cheklovchi
cheklovlar
cheklovlari
chekmoq
cheksiz
chelak
chelsea
chelsi
cheltenham
chelyabinsk
chem
chemical
chemistry
chempion
chempionat
chempionatda
chempionatga
chempionati
chempionatida
chempionatidagi
chempionatidan
chempionatiga
chempionatini
chempionatining
chempionatlarda
chempionatlari
chempionatlarida
chempionatning
chempioni
chempioniga
chempionlar
chempionlari
chempionligi
chempionligiga
chempionligini
chempionlik
chempionlikni
chempionship
chen
cheng
chengdu
chennai
cher
cherbourg
cherchill
cherkes
cherkov
cherkovda
cherkovga
cherkovi
cherkovida
cherkoviga
cherkovining
cherkovlar
cherkovlari
cherkovning
chernigov
chernobil
chernogoriya
chernovtsi
cherokee
cherry
chery
cheryl
chess
chessbase
chessdom
chester
chet
chetda
chetdan
chetga
cheti
chetida
chetidagi
chetidan
chetiga
chetlab
chetlari
chetlashtirildi
chetlatildi
chetlatilgan
chevrolet
chevron
chex
chexcha
chexiya
chexiyada
chexiyaga
chexiyalik
chexiyaning
chexoslovakiya
chexov
chgan
chhetri
chi
chib
chiba
chicago
chicken
chidab
chidamli
chidamliligi
chidamlilik
chief
chig
chigal
chigit
chikago
chikagoda
chikagodagi
chikdi
chil
child
childhood
children
chile
chili
chilida
chiliga
chilik
chililik
chilining
chilonzor
chim
chimkent
chin
china
chinakam
chindan
chinese
ching
chingiz
chingizxon
chinni
chinnigullar
chinon
chinor
chinoz
chip
chipta
chiptalar
chiq
chiqa
chiqadi
chiqadigan
chiqar
chiqara
chiqaradi
chiqaradigan
chiqardi
chiqardilar
chiqargan
chiqarib
chiqarila
chiqariladi
chiqariladigan
chiqarildi
chiqarilgan
chiqarilgandan
chiqarilganidan
chiqarilib
chiqarilishi
chiqarilishini
chiqarilmagan
chiqarilmoqda
chiqarish
chiqarishda
chiqarishdan
chiqarishga
chiqarishi
chiqarishini
chiqarishni
chiqarishning
chiqarmoq
chiqaruvchi
chiqaruvchilar
chiqaruvchilari
chiqaruvchilarning
chiqaruvchisi
chiqayotgan
chiqdi
chiqdilar
chiqgan
chiqib
chiqiladi
chiqilayotgan
chiqildi
chiqilgan
chiqilishi
chiqilmoqda
chiqindi
chiqindilar
chiqindilari
chiqindilarni
chiqish
chiqishadi
chiqishda
chiqishdan
chiqishdi
chiqishga
chiqishgan
chiqishi
chiqishida
chiqishidan
chiqishiga
chiqishini
chiqishlar
chiqishlari
chiqishlarini
chiqishni
chiqmadi
chiqmagan
chiqmaydi
chiqmoq
chiqqach
chiqqan
chiqqanda
chiqqandan
chiqqani
chiqqanida
chiqqanidan
chiqqanini
chiqqanligi
chiqqunga
chiqsa
chiquvchi
chiquvchilar
chir
chiranjeevi
chirchiq
chirdi
chirgan
chirib
chirigan
chiriladi
chirildi
chirilgan
chirilishi
chirish
chirishga
chirishni
chirmoq
chirog
chirokdari
chiroq
chiroqchi
chiroqlar
chiroqlari
chiroyli
chiruvchi
chish
chishi
chit
chita
chivin
chiyabo
chizgan
chizib
chizig
chizilgan
chiziq
chiziqcha
chiziqda
chiziqdan
chiziqlar
chiziqlari
chiziqli
chiziqni
chiziqning
chiziqqa
chizish
chizma
chizmalar
chizmoq
chjan
chjao
chjen
chjou
chju
chloe
chma
chmanchi
chmanchilar
chmas
chmoq
cho
chocolate
chodir
chog
choi
choice
chok
chol
cholg
chong
chongqing
chop
chopib
chopon
chopra
choq
chor
chora
choragida
chorak
chorakda
choralar
choralari
choralarini
choralarni
chorasi
chorbog
chorrahasi
chorrahasida
chorshanba
chorsu
chortoq
chorva
chorvachiligi
chorvachilik
chorvachilikda
chorvador
choson
chosun
chow
choy
choyi
choynak
choyni
choyshab
choyxona
chp
chqa
chqalar
chqor
chris
christ
christensen
christian
christie
christina
christine
christmas
christoph
christopher
chrome
chronicle
chronicles
chronology
chrysler
chto
chu
chuchuk
chuck
chug
chulg
chumchuq
chumoli
chumolilar
chun
chung
chunki
chunonchi
chuq
chuqur
chuqurlashtirish
chuqurligi
chuqurlik
chuqurlikda
chuqurroq
church
churchill
chust
chuv
chuvalchanglar
chuvash
chuy
chuyda
ci
cia
cias
cid
cilt
cincinnati
cine
cinema
cio
circle
circuit
cis
cisco
citation
cite
citeref
citerefo
citi
cities
citigroup
citizen
citizens
citizenship
citroe
citroen
city
cityga
ciudad
civic
civil
civilization
cj
ck
cl
claim
claims
clair
claire
clara
clare
clarendon
clark
clarke
clarkson
clash
class
classic
classical
classics
classification
claude
claudia
claudio
clausura
clay
clayton
cle
clean
clear
clermont
cleveland
clicking
cliff
clifford
climate
clinch
clinical
clinton
clio
clippers
close
closer
closes
closing
cloud
club
clube
clubs
clyde
cm
cms
cn
cnbc
cnet
cnn
co
coach
coaches
coaching
coast
coca
cochrane
coco
code
coffea
coffee
cognitive
cognizant
cohen
coin
col
cola
colbert
colchester
cold
cole
coleman
coli
colin
collaboration
collection
collections
college
colleges
collider
collier
collins
colo
colombia
colonial
color
colorado
colors
columbia
columbus
com
combat
comcast
comda
come
comeback
comedy
comes
comic
comics
coming
command
commander
comment
commentary
commentator
comments
commerce
commercial
commission
commissioner
commits
committee
common
commons
commonwealth
communication
communications
communities
community
como
companies
companion
company
comparative
comparison
compete
competition
competitions
compie
complete
completed
completes
complex
composition
comprehensive
computer
computing
comte
con
concacaf
concept
concepts
concert
concise
conde
conditions
confederation
conference
confirm
confirmed
confirms
conflict
congo
congress
congressional
conmebol
connect
connecticut
connection
connell
connor
conor
conquest
conrad
consequence
conservation
considered
constitution
construction
consulting
consumer
contact
contemporary
content
contest
context
continental
continue
continues
contract
contracts
contribution
contributions
control
controversial
controversy
convention
conversation
cook
cooke
cooking
cool
cooper
cooperation
coordinates
copa
copenhagen
coppa
copy
copyright
core
corinthians
cork
cornell
corner
corning
corona
coronavirus
corp
corporate
corporation
corps
corre
corresponding
corriere
corruption
corun
cos
cosmopolitan
cost
costa
costs
could
council
count
counter
counties
countries
country
counts
county
coupe
couple
courage
courant
courier
course
court
courtney
cov
coventry
cover
coverage
covid
cox
coyotes
cp
cr
craig
crash
crawford
crawley
crazy
crc
cre
cream
create
created
creating
creation
creative
creator
credit
credits
creed
creek
creuse
crew
crewe
cricinfo
cricket
crime
crimea
crimes
criminal
crisis
cristian
cristiano
critic
critical
criticism
critics
croatia
croatian
crore
cross
crowd
crown
crowned
crowther
cruise
crunching
crush
cruz
crystal
cs
csi
cska
css
ct
ctor
cts
ctv
cu
cuba
cuisine
cult
cultura
cultural
culture
cultures
cumhuriyet
cuneo
cunningham
cup
curious
currency
current
curry
curtis
customs
cut
cuts
cv
cvs
cw
cwhl
cx
cyber
cynthia
cyprus
cyrus
cz
czech
d
da
dabdabali
dabi
dad
dada
dadam
dadil
daewoo
daf
dafn
dafna
daftar
daftari
dag
dagi
daha
dahadan
dahshat
dahshatli
dai
daily
daimler
dair
daisy
dak
dakar
dakota
dal
dala
dalada
dalaga
dalalar
dalar
dalari
dale
dali
dalian
dalil
dalillar
dalillarga
dalillari
dalillarni
dallas
dalolat
dalton
daly
dam
damallsvenskan
damashq
damda
dame
damien
dan
dana
dance
dancer
dancing
dang
dangerous
dani
daniel
daniela
daniele
danielle
daniels
daniil
danilo
danish
daniya
daniyada
daniyaga
daniyalik
daniyaning
danny
dans
dante
daqiqa
daqiqada
daqiqadan
daqiqalarda
daqiqalik
daqiqasida
dar
dara
daraja
darajada
darajadagi
darajadan
darajaga
darajalar
darajalarda
darajalari
darajalariga
darajalarini
darajali
darajani
darajasi
darajasida
darajasidagi
darajasidan
darajasiga
darajasini
darajasining
darak
darasi
daraxt
daraxtga
daraxti
daraxtining
daraxtlar
daraxtlarga
daraxtlari
daraxtlarni
daraxtlarning
daraxtning
dard
dardi
dare
darg
darhaqiqat
darhol
dari
daria
darib
darildi
darilgan
dario
darish
dariy
dark
darling
darmon
darmonlar
darmonlarni
daromad
daromadi
daromadining
daromadlar
daromadlari
daromadli
daromadning
darreh
darren
darrov
dars
darsi
darslar
darslari
darslarini
darsligi
darslik
darsliklar
darvesh
darvin
darvoza
darvozabon
darvozaboni
darvozabonlar
darvozadan
darvozaga
darvozalar
darvozalari
darvozani
darvozasi
darvozasiga
darvozasini
daryo
daryoda
daryodan
daryoga
daryolar
daryolari
daryolarining
daryolarning
daryoning
daryosi
daryosida
daryosidagi
daryosidan
daryosiga
daryosini
daryosining
das
dash
dasht
dashti
dashtlarda
dashtlari
dasi
dast
dasta
dastasi
dastavval
dastgoh
dastlab
dastlabki
dastur
dasturda
dasturga
dasturi
dasturida
dasturidan
dasturiga
dasturini
dasturining
dasturiy
dasturlar
dasturlarda
dasturlari
dasturlarida
dasturlariga
dasturlarini
dasturlarni
dasturlash
dasturni
dasturning
dasturxon
dasturxonga
dat
data
database
databaseda
datcha
date
dates
dating
datos
daughter
dav
dave
davenport
david
davidson
davies
davis
davlat
davlatda
davlatdan
davlatga
davlati
davlatida
davlatiga
davlatini
davlatining
davlatlar
davlatlararo
davlatlarda
davlatlardan
davlatlarga
davlatlari
davlatlarida
davlatlaridan
davlatlariga
davlatlarining
davlatlarni
davlatlarning
davlatni
davlatning
davo
davolanadi
davolanish
davolash
davolashda
davolashga
davolashni
davolashning
davom
davomchisi
davomi
davomida
davomidagi
davomiyligi
davomli
davosi
davr
davra
davrada
davrasida
davrda
davrdagi
davrdan
davrga
davri
davrida
davridagi
davridan
davriga
davrigacha
davrini
davrining
davriy
davrlar
davrlarda
davrlardagi
davrlardan
davrlarga
davrlari
davrlarida
davrlariga
davrlarning
davrni
davrning
davron
dawn
dawson
dax
daxlsizligini
day
daydi
days
db
dc
dd
ddr
de
dead
deadline
deadlink
deadly
deal
deals
dean
dear
death
deaths
deb
debate
deborah
debut
debuts
debyut
debyuti
debyutida
debyutidan
debyutini
dec
decade
decades
deccan
december
decision
decisions
decline
decree
dedi
dedilar
dedim
dee
deep
deepika
deere
def
default
defeat
defeats
defence
defender
defense
defensive
defined
definition
deformatsiya
deg
degan
deganda
degani
degas
degree
deh
dehli
dehlida
dehlidagi
dehqon
dehqonchilik
dehqonchilikda
dehqonlar
dehqonlarga
dehqonlari
dehqonlarning
dehqonobod
dei
dek
dekabr
dekabrda
dekabrdagi
dekabrdan
dekabrgacha
dekabrida
dekabridan
dekabrigacha
dekabrya
dekan
dekani
dekart
deklaratsiya
deklaratsiyasi
deklaratsiyasini
dekorativ
del
delaver
delaware
delegati
delegatsiya
delegatsiyasi
delfi
delfin
delgado
delhi
delivers
dell
della
delle
dello
delta
deltasi
dem
demak
demakdir
demand
demo
democracy
democrat
democratic
demografik
demographic
demokrat
demokratik
demokratiya
demokratlar
demontaj
demoq
den
deng
dengiz
dengizchi
dengizchilar
dengizda
dengizdagi
dengizdan
dengizga
dengizi
dengizida
dengizidagi
dengiziga
dengizining
dengizlar
dengizlarda
dengizlari
dengizning
denies
denis
denise
deniz
denmark
denni
dennis
denov
dent
denver
deol
departament
departamenti
departamentining
department
deportatsiya
deportes
deportivo
depot
depozit
depp
depression
depressiya
deputat
deputati
deputatlar
deputatlari
deputatlik
deputy
der
deraza
derazadan
derazalar
derbi
derbisida
derby
derek
dergisi
des
desa
desant
description
desert
design
designer
desk
desktop
desmond
despite
destiny
det
detail
details
detal
detallar
detallari
detektiv
detroit
detroyt
deutsch
deutsche
deutschen
deutscher
deutschland
dev
deva
developer
developing
development
developmental
devi
devid
devil
devils
devin
devis
devon
devoni
devonu
devor
devorga
devori
devorida
devoriga
devorini
devorining
devoriy
devorlar
devorlari
devorlariga
devorli
devorning
deya
deyarli
deydi
deyiladi
deyilgan
deyish
deyishadi
deyv
dfb
dfl
dfrac
di
dia
diabet
diabetes
diafragma
diagnosis
diagnostik
diagnostika
diagnostikasi
diagonal
dialektik
dialog
diametri
diametrli
diamond
diana
diane
diapazoni
diareya
diaries
diario
diary
dias
diaspora
diasporasi
diaz
dic
dick
dickinson
dictionary
did
didaktik
didi
didier
didn
die
died
diego
dies
diesel
diet
difference
differences
differensial
different
dig
digan
digest
digital
dijk
dijon
dik
dil
dilar
dilbar
dili
dilip
dillon
dilorom
dilshod
dim
dimog
din
dina
dinamik
dinamikasi
dinamo
dindor
dindorlar
dindorlari
ding
dinga
dini
dinida
diniga
dinini
dinining
diniy
dinlar
dinlari
dinner
dinni
dinning
dino
dinor
dio
diodor
dion
dior
diplom
diplomacy
diplomat
diplomati
diplomatic
diplomatik
diplomatiya
diplomi
diplomini
diputacio
diqqat
diqqatga
diqqatini
diqqatni
dir
dira
diradi
dirdi
direct
direction
director
directorate
directors
directory
direktor
direktori
direktorining
direktorlar
dirib
dirijyor
dirijyori
diriy
dirmoq
dirty
dis
disaster
discography
discogs
discover
discovered
discovery
discussion
disease
diseases
disk
disklar
diskret
diskvalifikatsiya
disney
disneyning
disorder
disorders
dispatch
display
displaystyle
displey
dispute
diss
dissertatsiya
dissertatsiyasi
dissertatsiyasini
distribution
district
districts
ditrix
div
divan
divergent
diversifikatsiya
diversity
divisio
division
divizion
divizionda
divizionga
divizioni
divizionida
divizioniga
divizionining
divizionning
diviziya
diviziyasi
diviziyasining
divorce
divya
dixon
diy
diyarbakir
diydor
diyona
diyor
diz
dizayn
dizayndagi
dizayner
dizayneri
dizaynerlar
dizaynga
dizayni
dizayniga
dizaynini
dizaynni
dizel
dj
djazairess
djurga
dk
dl
dlya
dm
dmitriy
dna
dnepr
dnepropetrovsk
dnk
dns
do
doc
docs
doctor
doctors
document
documentary
documents
dod
dodda
dodga
dodge
dodi
dodini
dodlar
dodli
does
doesn
dog
dogs
doha
doherty
doi
doim
doimiy
doimiysi
doimo
doing
doir
doira
doiralar
doirasi
doirasida
doirasidagi
doirasidan
doirasiga
doirasini
doiraviy
dok
doka
doktor
doktorantura
doktori
doktorlik
dolce
dole
dollar
dollardan
dollarga
dollargacha
dollari
dollaridan
dollariga
dollarini
dollarlik
dollarni
dolzarb
dom
domain
dome
domen
domeni
domenining
domestic
dominant
dominate
dominic
dominik
dominika
dominikan
dominion
domla
don
dona
donador
donalari
donald
donau
doncaster
done
donetsk
dong
donga
doni
donishmand
donli
donna
donni
dono
donolik
donor
donovan
dons
door
dop
doping
dor
dora
dorchilik
dordogne
dori
dorilar
dorilarni
doris
dorivor
dorixona
doro
dorothy
doroti
dorsal
dortmund
dortmundning
dos
dosh
doston
dostoni
dostonida
dostonlar
dostonlari
dot
dota
dotsent
dotsenti
double
doubleday
doubles
doubs
doug
douglas
dov
dove
dover
dovon
dovoni
dovud
dovul
dow
down
downey
download
downs
doy
doyle
doyr
doyra
doza
dozani
dozasi
dp
dr
dra
dracula
draft
draftida
draftining
dragon
dragons
drake
drakula
drama
dramasi
dramasida
dramasidagi
dramatic
dramatik
dramaturg
dramaturgi
dramaturgiya
draper
draw
draws
dream
dreams
dreamworks
drenaj
dress
drevnostey
drew
drezden
drive
driver
driving
dro
drone
drop
drops
drug
drugs
ds
dsc
dsm
dt
dtirol
du
dua
dual
dub
dubai
dubay
dubayda
dubl
dublin
dublyaj
dubulg
duc
duch
duchor
duck
ducks
dudlangan
due
duel
duelda
duet
dueti
duff
dug
duglas
duisburg
duk
duke
dukkakli
dulla
dum
dumaloq
dumasi
dumba
dumbarton
dumi
dumli
dun
dunay
duncan
dundee
dunlop
dunn
dunyo
dunyoda
dunyodagi
dunyodan
dunyoga
dunyoni
dunyoning
dunyoqarash
dunyoqarashi
dunyosi
dunyosida
dunyosiga
dunyosini
dunyosining
dunyoviy
duo
dur
duradgorlik
durang
durangdan
durant
durdona
durham
during
dursunbey
durust
dush
dushanba
dushanbe
dushman
dushmanga
dushmani
dushmanlar
dushmanlari
dushmanlik
dushmanni
dushmanning
dust
dutch
dutor
dutt
dutta
duty
duv
dv
dvd
dvigatel
dvigatelga
dvigateli
dvigatelini
dvigatelining
dvigatellar
dvigatellari
dvigatelli
dvigatelni
dvigatelning
dw
dx
dylan
dynamics
dynamo
dynasty
dyui
dyuk
dyuym
dyuymli
dz
dzyudo
dzyudochi
e
ea
each
eaff
eagle
eagles
earl
earliest
early
earn
earns
earth
earthquake
earthquakes
east
eastern
easy
eat
eating
eaton
eb
ebert
ec
ecac
echki
echo
eckernfo
ecology
economic
economics
economist
economy
ecuador
ed
eddi
eddie
eden
ederson
edgar
edge
edi
edik
ediki
edilar
edim
edinburg
edinburgh
edirne
edison
edit
edited
edith
edition
editions
editor
editorial
editors
edmond
edmonton
edmund
edo
edouard
eds
edu
eduard
eduardo
education
educational
edvard
edvards
edvin
edward
edwards
edwin
ee
eerste
eesti
effect
effective
effects
effekt
effekti
effektlar
efiopiya
efir
efirda
efirga
efl
eg
ega
egadir
egalari
egalariga
egalarining
egaligi
egalik
egallab
egalladi
egalladilar
egallagan
egallaganidan
egallamoq
egallash
egallashdi
egallashga
egallashi
egallashiga
egallaydi
egar
egasi
egasiga
egasining
egey
egg
eggs
egib
egilgan
egilib
egiluvchan
egizak
egizaklar
ego
egri
egypt
egyptian
eh
ehir
ehson
ehtimol
ehtimoli
ehtimolini
ehtimoliy
ehtirom
ehtiros
ehtirosli
ehtiyoj
ehtiyoji
ehtiyojini
ehtiyojlar
ehtiyojlari
ehtiyojlariga
ehtiyojlarini
ehtiyojni
ehtiyot
ehtiyotkor
ehtiyotkorlik
ei
eight
eilish
ein
eindhoven
eine
einstein
eintracht
ek
ekan
ekani
ekanini
ekanligi
ekanligidan
ekanligiga
ekanligini
ekanlik
ekanliklarini
ekib
ekiladi
ekiladigan
ekilgan
ekim
ekin
ekini
ekinlar
ekinlari
ekinlarni
ekipaj
ekipaji
ekish
eko
ekologik
ekologiya
ekran
ekranda
ekrandagi
ekranga
ekranlarga
ekranli
ekranning
eks
eksklyuziv
ekskursiya
ekspeditsiya
ekspeditsiyasi
eksperimental
ekspert
ekspertiza
ekspertlar
ekspluatatsiya
eksponatlar
eksport
eksporti
eksportining
ekspress
ekstraklasa
ekstremal
ekt
ekti
ektiv
ektlar
ektlari
ektlarni
ektlarning
ektning
ekvador
ekvator
ekvatorial
ekvivalent
ekvivalenti
ekz
ekzogen
ekzotik
el
ela
elaine
elam
elastik
elat
elazig
elazıg
elche
elchi
elchilar
elchilari
elchilik
elchisi
elchixona
elchixonasi
elchixonasini
elda
eldagi
eldan
elder
eleanor
elected
election
elections
electric
electronic
electronics
elektr
elektro
elektromagnit
elektron
elektronika
elektronlar
elektrotexnika
element
elementar
elementary
elementi
elementlar
elementlardan
elementlari
elementlarini
elementlarining
elementlarni
elementlarning
elements
elena
eleven
elf
elga
eli
elias
elie
elik
eliot
elis
elisabeth
elise
elit
elita
elite
eliteprospects
eliza
elizabet
elizabeth
ella
elladi
elle
ellen
ellie
ellik
elliklar
ellinistik
elliot
elliott
elliptik
ellis
ellison
elmurod
elo
elon
elsevier
elvis
elzas
em
emaar
emal
eman
emanuel
emas
emasligi
emasligini
emasman
emasmi
embassy
embiid
emblemasi
embrion
emergency
emerging
emerson
emery
emi
emil
emili
emilia
emilio
emily
emin
emirates
emish
emission
emissiya
emizuvchilar
emlash
emma
emmanuel
emmi
emmy
emotional
emotsional
emperor
empire
empires
empirik
empoli
empty
emre
en
encyclopaedia
encyclopedia
encyclopædia
end
ended
endemik
endi
endigina
endilikda
ending
endogen
endokrin
endryu
ends
enemy
eneolit
energetik
energetika
energetikasi
energiya
energiyaga
energiyani
energiyaning
energiyasi
energiyasidan
energiyasiga
energiyasini
energiyasining
energy
eng
engadget
engaged
engagement
engil
engine
engineering
england
english
eni
eniya
enn
enni
enough
enrique
ensiklopedicheskiy
ensiklopedik
ensiklopediya
ensiklopediyasi
enter
entering
enterprise
enterprises
enters
entertainment
entoni
entre
entries
entry
entsiklopedik
entsiklopediyasi
envanteri
environment
environmental
enzo
ep
epa
epam
epchil
epic
epidemiya
epidemiyasi
epik
episkop
episode
epizod
epizodda
epizodi
epizodida
eposi
eprix
equality
equalizer
equipe
equity
er
era
erali
eramizdan
eramizning
erda
erdan
erdo
erdog
eredivisie
erga
ergash
ergashev
ergashib
eri
erib
eric
erica
erich
ericsson
eridan
eriga
erigan
erik
erika
erimaydi
erin
erini
erining
eris
erish
erisha
erishadi
erishdi
erishdilar
erishgach
erishgan
erishgandan
erishganidan
erishi
erishib
erishiladi
erishildi
erishilgan
erishish
erishishga
erishmoq
eritib
eritilgan
eritish
eritma
eritmalar
eritmasi
eritreya
eritrotsitlar
erituvchi
erituvchilarda
eriydi
eriydigan
erk
erkak
erkaklar
erkaklarda
erkaklarga
erkaklari
erkaklarning
erkakning
erkin
erkinligi
erkinligini
erkinlik
erkinliklari
erkinliklarini
erlar
erlari
ernandes
ernest
ernesto
erni
erning
ernst
eron
eronda
erondagi
erondan
eronga
eroniy
eronlik
eronliklar
eronning
eroziya
error
ers
erta
ertaga
ertagi
ertak
ertaklar
ertaklari
ertalab
ertalabki
ertasi
ertasiga
eruvchan
erzincan
erzinjon
erzurum
es
esa
esc
escape
esda
esdalik
esdaliklar
esdan
esga
eshak
eshigi
eshik
eshikdan
eshikka
eshiklar
eshiklari
eshikli
eshikni
eshish
eshitgan
eshitib
eshitiladi
eshitildi
eshitish
eshittirish
eshittirishlar
eshkak
eshli
eshon
esi
esk
eskadron
eski
eskirgan
eskizlari
eslab
esladi
eslatadi
eslatib
eslatma
eslatmalar
eslatuvchi
eslaydi
eson
espan
espanyol
espn
espncricinfo
esporte
esquire
essays
essen
essential
essex
est
esta
estadi
estadio
estafeta
estate
estati
este
ester
estetik
estetika
esther
estimated
estimates
eston
estoncha
estonia
estonian
estoniya
estoniyada
estoniyaning
estrada
estremadura
et
eta
etadi
etadigan
etadilar
etagi
etagida
etak
etakchi
etakchilik
etaklari
etaklarida
etar
etardi
etarli
etarlicha
etayotgan
etc
etdi
etdilar
etgach
etgan
etganda
etgandan
etgandi
etgani
etganida
etganidan
etganini
etganlar
etganligi
etganlikda
etgunga
ethan
ethics
ethnic
eti
etib
etik
etika
etil
etila
etiladi
etiladigan
etilayotgan
etildi
etilgach
etilgan
etilganda
etilgandan
etilgani
etilganidan
etilib
etilishi
etilishicha
etilishidan
etilishiga
etilishini
etilmagan
etilmaydi
etilmoqda
etimologik
etish
etishadi
etishda
etishdan
etishdi
etishga
etishgan
etishi
etishiga
etishini
etishlari
etishmasligi
etishmovchiligi
etishni
etishning
etishtirish
etkazib
etkazish
etmadi
etmagan
etmaydi
etmek
etmoq
etmoqda
etn
etnik
etnografik
etnografiya
eto
etsa
etti
ettinchi
ettira
ettiradi
ettirdi
ettirdilar
ettirgan
ettirib
ettiriladi
ettirildi
ettirilgan
ettirish
ettirishga
ettirishi
ettirishni
ettirmaydi
ettirmoqda
ettiruvchi
ettita
etuvchi
eu
eugene
eun
eurasia
eure
euro
eurobasket
euroleague
euronews
europa
europe
european
eurosport
eurovision
ev
eva
evakuatsiya
evaluation
evan
evans
evaziga
eve
evelyn
even
evening
event
events
ever
everest
everett
everton
every
everyone
everything
evgeniy
evic
evidence
evil
evolution
evolutionary
evolyutsion
evolyutsiya
evolyutsiyasi
evra
evro
evropa
evropada
evropaning
ew
ex
examiner
example
excel
excellence
exchange
excited
exclusive
executive
exeter
exhibition
exist
exit
exo
expand
expands
expansion
expected
expedition
experience
experimental
expert
explained
explains
exploration
explore
explorer
exploring
expo
express
expressen
expression
extend
extended
extends
extension
extlink
extra
extragalactic
extraordinary
ey
eye
eyed
eyes
eylu
eynshteyn
ez
ezgu
ezgulik
ezib
ezilgan
ezmoq
f
fa
faber
faberge
fabio
fabrika
fabrikalari
fabrikasi
face
facebook
faces
fact
factbook
factfinder
factor
factors
factory
facts
faculty
fai
failed
failure
fair
fairfax
faith
fake
fakt
faktlar
faktlarni
fakto
faktor
fakultet
fakulteti
fakultetida
fakultetiga
fakultetini
fakultetining
fakultetlari
falaj
falastin
falastinlik
falcon
falcons
falkirk
fall
falling
fallon
falls
falokat
falsafa
falsafasi
falsafasida
falsafasining
falsafiy
false
fame
families
familiya
familiyasi
familiyasini
family
familyasi
familysearch
famous
fan
fanda
fanga
fani
fanida
fanidan
faniga
fanini
fanining
fanlar
fanlararo
fanlardan
fanlarga
fanlari
fanlarni
fanlarning
fanni
fanning
fans
fantastic
fantastik
fantastika
fantasy
fantaziya
fao
faol
faoli
faoliyat
faoliyatda
faoliyatga
faoliyati
faoliyatida
faoliyatidagi
faoliyatidan
faoliyatiga
faoliyatini
faoliyatining
faoliyatni
faoliyatning
faollar
faollari
faollashtirish
faolligi
faolligini
faollik
faq
faqat
faqatgina
faqih
far
farah
faralar
faraz
farer
farg
fargo
farhod
farid
farida
farishta
farishtalar
farm
farmatsevtika
farming
farmon
farmoni
farmoniga
farmonni
faron
farovon
farovonligi
farovonlik
farq
farqi
farqlanadi
farqlar
farqlari
farqlarni
farqlash
farqli
farqni
farrell
faruk
farz
farzand
farzandi
farzandini
farzandining
farzandlari
farzandlarini
farzandli
farzandning
fashion
fashist
fashistik
fashistlar
fashizm
fasl
fasli
faslida
faso
fast
fastest
fat
fate
fath
father
fatima
fatma
fauna
favorite
favqulodda
favvora
favvorasi
faw
faxriddin
faxriy
faxriylar
faxriylari
faxriysi
fayl
faylasuf
faylasufi
faylasuflar
faylasuflari
fayllar
fayllarni
faysal
fayz
fayziy
fayzobod
fayzulla
faza
fazali
fazasi
fazilat
fazilatlar
fazilatlari
fazl
fazo
fazoda
fazoviy
fb
fbi
fc
fcga
fcgi
fda
fe
fear
feat
feature
features
featuring
feb
february
fed
federacio
federal
federasiyasi
federasyonu
federation
federativ
federatsii
federatsiya
federatsiyasi
federatsiyasida
federatsiyasidagi
federatsiyasiga
federatsiyasining
federer
federico
fedor
fee
feel
feeling
feet
fei
feliks
felipe
felix
fellows
female
femenino
femina
feminism
feminist
feministik
feminizm
fenerbahc
fenerbahche
feng
feniks
feodal
fer
ferdinand
ferguson
fergyuson
ferma
fermasi
ferment
fermentlar
fermer
fermerlar
ferna
fernandes
fernandez
fernando
ferrari
ferreira
ferrero
feruz
feruza
fes
fest
festival
festivali
festivalida
festivalining
festivallar
festivallari
fever
fevral
fevralda
fevraldagi
fevraldan
fevralgacha
fevralida
fevralidan
fevraligacha
fevralya
few
feyenoord
ff
ffc
fi
fia
fiat
fiba
ficha
fiction
fide
fido
fidokorona
fidoyilik
field
fields
fifa
fifaga
fifaning
fifpro
fifth
fig
figaro
figc
fight
fighter
fighters
fighting
figura
figurali
figurasi
figure
figures
fiji
fikr
fikrda
fikret
fikrga
fikri
fikricha
fikriga
fikrini
fikrlar
fikrlari
fikrlarini
fikrlarni
fikrlash
fikrni
fikrning
fil
filadelfiya
filarmoniya
filarmoniyasi
file
files
filial
filiali
filiallari
filing
filip
filipp
filippin
filippinda
filippinlik
filippinning
fillar
film
filmda
filmdagi
filmdan
filmdir
filmfare
filmga
filmi
filmida
filmidagi
filmidan
filmidir
filmiga
filming
filmini
filmining
filmlar
filmlarda
filmlardagi
filmlardan
filmlarga
filmlari
filmlarida
filmlaridagi
filmlaridan
filmlarini
filmlarining
filmlarni
filmlarning
filmni
filmning
filmography
films
filol
filolog
filologiya
filologiyasi
filtr
filtrlash
fin
fina
final
finalchi
finalchisi
finalda
finaldan
finale
finalga
finalgacha
finali
finalida
finaliga
finalining
finalists
finally
finalning
finals
finance
financial
fincha
find
finding
finds
fine
finikiya
finish
finiste
finland
finlandiya
finlandiyaning
finlyandiya
finlyandiyada
finlyandiyaga
finlyandiyaning
finn
finnish
fiona
fiorentina
fiqh
fir
fire
fires
firibgar
firibgarlik
firm
firma
firmalar
firmalari
firmaning
firmasi
first
firstpost
firuzobod
fis
fischer
fish
fisher
fit
fitna
fitnes
fitness
fitrat
fitzgerald
fivb
five
fix
fixtures
fiy
fiylik
fiz
fizigi
fizik
fizika
fizikada
fizikaning
fizikasi
fiziologik
fiziologiya
fiziologiyasi
fizioterapiya
fk
fl
flag
flagman
flags
flamand
flamengo
flames
flash
fleet
fleetwood
fleming
flensburg
flesh
fletcher
flight
flights
flint
floor
flora
florence
florensiya
flores
florian
florida
flot
floti
flotida
flotiga
flotini
flotining
flotsam
flow
flower
flowers
floyd
fly
flyers
flying
fm
fo
focus
fodagi
foga
fognini
fohishalik
foiz
foizdan
foizga
foizgacha
foizi
foizida
foiziga
foizini
foizni
fojia
fojiali
fojiasi
fokus
fol
folk
folklor
folklori
follow
following
fon
fond
fonda
fondagi
fondi
fondida
fondiga
fondini
fondining
fondlari
fonetik
fonetika
foni
fonida
food
foods
foot
football
footballer
footballers
footballfacts
for
forbes
force
forced
forces
ford
foreign
forest
forever
forget
forgotten
form
forma
formal
formasi
formasini
format
formatda
formati
formatida
formation
former
forms
formula
formulasi
foro
forobiy
fors
forscha
forsiy
forslar
fort
fortepiano
fortuna
fortune
forum
forumi
forward
fosfat
fosfor
fosforit
fosh
foster
fotboll
fotih
fotiha
fotima
fotimiylar
foto
fotograf
fotografi
fotografik
fotografiya
foton
fotos
fotosurat
fotosurati
fotosuratlar
fotosuratlari
found
foundation
founder
four
fourfourtwo
fourth
fowler
fox
foy
foyda
foydalana
foydalanadi
foydalanadigan
foydalanadilar
foydalandi
foydalangan
foydalanganlar
foydalanib
foydalaniladi
foydalaniladigan
foydalanildi
foydalanilgan
foydalanilmagan
foydalanilmoqda
foydalanish
foydalanishda
foydalanishdan
foydalanishga
foydalanishgan
foydalanishi
foydalanishlari
foydalanishni
foydalanishning
foydalanmoq
foydalanuvchi
foydalanuvchiga
foydalanuvchilar
foydalanuvchilarga
foydalanuvchilari
foydalanuvchilarning
foydalanuvchining
foydali
foydalidir
foydasi
foydasiga
foydasiz
fozil
fozilov
fr
fra
frac
fraksiyasi
framework
fran
franc
france
frances
francesco
franchayzing
franche
franchesko
franchise
francis
francisco
franco
frank
frankfurt
franklar
franklin
franko
frans
fransisko
fransiya
fransiyada
fransiyadagi
fransiyadan
fransiyaga
fransiyalik
fransiyani
fransiyaning
fransua
fransuz
fransuzcha
fransuzlar
frants
frantsiya
frantsiyada
frantsiyaning
frantsuz
franz
fraser
fraud
frauen
fre
fred
freddie
frederick
frederik
free
freedom
freeman
freiburg
french
frenk
frensis
fresh
freshman
freyd
freyzer
frida
friday
fridman
fridrix
friedman
friedrich
friend
friendly
friends
friendship
fritz
friuli
friz
from
front
frontal
frontda
frontga
fronti
frontier
frontiers
frontline
frosinone
frost
frozen
fruit
frunze
ft
ftor
ftorid
fu
fuad
fuel
fuji
fukushima
fulham
full
fuller
fulton
fun
function
fund
fundamental
funding
funeral
funksional
funksiya
funksiyalar
funksiyalari
funksiyalarini
funksiyalarni
funksiyani
funksiyasi
funksiyasini
funksiyasining
funktsional
funny
funt
fuqaro
fuqarolar
fuqarolarga
fuqarolari
fuqarolariga
fuqarolarini
fuqarolarining
fuqarolarni
fuqarolarning
fuqaroligi
fuqaroligiga
fuqaroligini
fuqarolik
fuqarolikka
fuqarosi
furqat
fursat
further
fury
fus
fusion
fut
futbol
futbolchi
futbolchidan
futbolchiga
futbolchilar
futbolchilardan
futbolchilari
futbolchilaridan
futbolchilarni
futbolchilarning
futbolchilik
futbolchini
futbolchining
futbolchisi
futbolchisiga
futbolda
futboldagi
futboldan
futbolga
futboli
futbolida
futbolidagi
futboliga
futbolini
futbolining
futbolka
futbolni
futebol
future
futzal
fuzuliy
fx
fyodor
fyodorov
fyuri
g
ga
gaaga
gaal
gaana
gabbana
gabon
gabriel
gabriele
gabrovo
gabsburg
gabsburglar
gacha
gagarin
gaiti
gal
gala
galaktik
galaktika
galaktikadir
galaktikalar
galante
galatasaray
galatasaroy
galaxy
gale
galereya
galereyasi
galereyasida
galicia
galiley
galina
galisiya
gallagher
gallardo
gallen
gallery
gama
gambiya
gamble
gamburg
game
gamer
games
gaming
gamma
gan
gana
ganch
ganchdan
ganda
gandbol
gandhi
gandi
gang
ganga
gangster
ganja
gannover
gao
gaon
gap
gapga
gapi
gapini
gapira
gapiradi
gapiradigan
gapirdi
gapirgan
gapirib
gapirish
gapirmoq
gaplar
gaplarni
gaplashadi
gaplashib
gapni
gapning
gar
garak
garchi
garci
garcia
gard
garden
gardens
gardner
gareth
gari
garin
garland
garmonik
garner
garnizon
garnizoni
garold
garonne
garov
garovga
garrett
garri
garros
garry
garsiya
garvard
gary
gas
gaston
gastrol
gastrolda
gastrollarda
gate
gates
gatorade
gators
gaudi
gavayi
gavda
gavdasi
gave
gavhar
gavin
gavjum
gay
gaya
gayana
gaz
gazak
gaze
gazeta
gazetada
gazetadan
gazetalar
gazetalarda
gazetalari
gazetalarida
gazetaning
gazetasi
gazetasida
gazetasiga
gazetasini
gazetasining
gazete
gazetesi
gazette
gazetteer
gazi
gaziantep
gazlama
gazlamalar
gazlar
gazlari
gazli
gazni
gazning
gazprom
gazsimon
gazzetta
gb
gbif
gc
gdr
ge
gear
gec
gee
gegen
gektar
gektariga
gel
geliy
gem
gemini
gemma
gemoglobin
gemorragik
gen
genc
gender
gene
genealogy
genel
general
generali
generalidad
generalitat
generation
generator
generatori
genes
genesis
genetic
genetics
genetik
genetika
geneva
genius
genk
genlar
gennadiy
genoa
genocide
genome
genomics
genotsid
genri
genrix
gent
genuya
geo
geodezik
geodeziya
geoff
geoffrey
geofizika
geogr
geograf
geografia
geografik
geografiya
geografiyasi
geographic
geographical
geography
geol
geolog
geological
geologik
geologiya
geometrik
geometriya
geonames
geonet
georg
george
georges
georgetown
georgia
georgian
georgiy
geosiyosiy
geospatial
gepatit
ger
gera
gerakl
gerald
geralt
gerard
gerb
gerber
gerbert
gerbi
gerkules
gerlista
germain
german
germaniya
germaniyada
germaniyadagi
germaniyadan
germaniyaga
germaniyalik
germaniyani
germaniyaning
germaniyasi
germany
gerodot
gerrard
gersegovina
gersog
gersogi
gersogligi
gertsog
gertsogi
ges
geschichte
gesellschaft
gesiod
get
getafe
gets
getting
gey
geynrix
gfk
gfr
gg
ghana
ghar
ghosn
ghost
gi
gia
giang
giant
giants
gibbs
gibraltar
gibrid
gibson
gideon
gidra
gidravlik
gidro
gidroelektr
gidroenergetika
gidrologik
gidrotermal
gidrotexnika
gif
gift
gifu
gigant
giganti
gigi
gigin
gigiyena
gik
gil
gilam
gilamlar
gilbert
gildiyasi
gilermo
giles
gill
gilles
gilli
gillingham
gilmour
gilos
gimnastika
gimnastikachi
gimnaziya
gina
ginnesning
giorgio
giovanni
gipertenziya
gipofiz
gipoteza
gippokrat
gips
gir
girl
girlfriend
girls
girona
gironde
gis
git
gitara
gitarachi
gitler
gitlerning
giulia
giuseppe
give
given
gives
giving
giyohvand
giyohvandlik
gks
gl
glamour
glasgow
glass
glazgo
glen
glenn
gli
global
globallashuv
globe
globo
globus
gloria
glory
glossary
glover
glyukoza
gm
gmbh
gne
gnu
go
goa
goal
goalkeeper
goals
god
goda
gods
goes
gog
gogh
gogol
goh
goho
going
gol
gold
goldberg
golden
goldman
goldstein
goldwyn
golf
golga
goli
golidan
goliga
golini
goll
golland
gollandiya
gollandiyada
gollandiyaga
gollandiyalik
gollandiyaning
gollandlar
gollar
gollari
gollarini
golli
gollivud
golni
golsiz
gomer
gomes
gomez
gonduras
gone
gong
gonkong
gonkongda
gonkongdagi
gonsales
gonza
gonzalez
good
goodbye
goods
goodwin
google
gor
goran
goranboy
gordon
gore
gori
gorilla
gorizontal
gorkiy
gormon
gormonlar
goroda
gosspravka
got
gotham
gotika
gov
govard
governance
government
governor
govt
gp
gps
gpu
gq
gr
gra
grace
grad
graduate
graf
grafi
grafik
grafika
grafikasi
grafit
graham
gram
gramm
grammar
grammatik
grammatika
grammatikasi
grammy
gran
granada
granata
grand
grande
grandmaster
granit
granitdan
grant
granti
grantlar
graphic
graubu
grave
graves
gravitatsion
gray
graz
gre
great
greater
greatest
greece
greek
green
greene
greenwood
greg
gregg
gregori
gregory
grek
grekcha
grem
grenada
grenlandiya
grenoble
gretsiya
gretsiyada
gretsiyadagi
gretsiyaga
gretsiyaning
grey
greys
gri
griffin
griffith
grigoriy
grigoryevich
grimsby
grin
grinvich
gripp
grizzlies
gro
groningen
gross
grossmeyster
ground
group
groups
grove
grow
growing
growth
grozniy
groß
grp
gru
grumman
grunt
grupo
gruppa
gruzin
gruzincha
gruzinlar
gruziya
gruziyada
gruziyadagi
gruziyaga
gruziyalik
gruziyaning
gs
gsm
gt
gu
guam
guanchjou
guangdong
guangzhou
guard
guardian
guardians
gubernator
gubernatori
gubernatorligi
gucci
gue
guerra
guest
guez
gugurt
gui
guidance
guide
guidelines
guides
guild
guilford
guillaume
guillermo
guilty
guinea
guingamp
guinness
gujarat
gul
gulandom
gulchambar
guldasta
guldor
gulf
guli
guliston
gullab
gullagan
gullar
gullari
gullash
gullaydi
gulli
gulning
gulnor
gulxan
gum
gumanitar
gumbaz
gumbazi
gumbazli
gumon
gun
gunma
gunn
gunoh
gunohkor
guns
guo
gupta
gur
guru
guruch
guruh
guruhda
guruhdagi
guruhdan
guruhga
guruhi
guruhida
guruhidagi
guruhidan
guruhidir
guruhiga
guruhini
guruhining
guruhlar
guruhlarda
guruhlardan
guruhlarga
guruhlari
guruhlarida
guruhlaridan
guruhlariga
guruhlarini
guruhlarining
guruhlarni
guruhlarning
guruhni
guruhning
gus
gustav
gutenberg
guvoh
guvohi
guvohlik
guvohnoma
guvohnomasi
guy
gvardiya
gvardiyasi
gvatemala
gvineya
gwoyeu
gymnast
gymnastics
gymternet
gyo
gyote
h
ha
haaland
haber
habib
habibiy
hacker
had
haddan
hadeb
hadid
hadis
hadislar
hadya
hafsalasi
hafta
haftada
haftadan
haftaga
haftaligi
haftaligida
haftalik
haftaning
haftasi
haftasida
haftasiga
hahn
hai
hair
haj
hajduk
hajm
hajmda
hajmdagi
hajmi
hajmiga
hajmini
hajmining
hajmiy
hajmli
hajviy
hakam
hakami
hakamlar
hakamlik
hakim
hakimov
hakka
hal
halab
hale
haley
half
hali
halifax
haligacha
haligi
halil
halim
halima
hall
halle
hallmark
halok
halokat
halokatga
halokati
halokatli
halol
halollik
halqa
halqali
halqasi
ham
hamad
hamal
hamburg
hamburger
hamda
hamdam
hamdardlik
hamdir
hamdo
hamid
hamilton
hamisha
hamjamiyat
hamjamiyati
hamjamiyatiga
hamjamiyatining
hamkasbi
hamkasblari
hamkor
hamkori
hamkorlar
hamkorlari
hamkorligi
hamkorligida
hamkorligini
hamkorlik
hamkorlikda
hamkorlikdagi
hamkorlikka
hamkorlikni
hamkorlikning
hamlet
hamma
hammadan
hammaga
hammani
hammaning
hammarby
hammasi
hammasini
hammer
hammom
hammond
hammuallif
hammuallifi
hammualliflikda
hammuassisi
hamon
hampshire
hampton
hamraisi
hamroh
hamrohi
hamrohligida
hamrohlik
hamroyev
hamshira
hamshiralar
hamshiralik
hamyurti
hamza
han
hanafiy
hand
handbook
hands
hang
hanifa
hanna
hannah
hannover
hans
hansen
hanuz
hanuzgacha
hapoel
happened
happy
haq
haqda
haqi
haqida
haqidadir
haqidagi
haqini
haqining
haqiqat
haqiqatan
haqiqatda
haqiqatdan
haqiqatga
haqiqati
haqiqatni
haqiqiy
haqli
haqorat
haqoratli
haqqoniy
haqqında
har
hara
harakat
harakatchan
harakatda
harakatdagi
harakatdan
harakatga
harakati
harakatida
harakatidan
harakatiga
harakatini
harakatining
harakatlanadi
harakatlanadigan
harakatlanayotgan
harakatlanish
harakatlanishi
harakatlantiruvchi
harakatlanuvchi
harakatlar
harakatlarda
harakatlardan
harakatlarga
harakatlari
harakatlarida
harakatlaridan
harakatlariga
harakatlarini
harakatlarining
harakatlarni
harakatlarning
harakatli
harakatni
harakatning
harakatsiz
haram
harb
harbiy
harbiylar
harbiylari
harbor
hard
harding
hardy
harf
harfi
harflar
harflari
hari
harman
harobasi
harold
harom
harorat
haroratda
haroratga
harorati
haroratini
haroratni
haroratning
harper
harpercollins
harriet
harris
harrison
harry
hart
hartford
hartlepool
hartley
harvard
harvey
harvnb
has
hasad
hasan
hasanov
hashamatli
hasharot
hasharotlar
hashmi
hasrat
hassan
hasta
hat
hate
hatlab
hatto
hattoki
haut
haute
havas
havaskor
havaskorlar
havaskorlik
have
haven
having
havo
havoda
havodagi
havodan
havoga
havola
havolalar
havoni
havoning
havosi
havzalari
havzalarida
havzasi
havzasida
havzasidagi
havzasiga
havzasining
hawaii
hawk
hawks
hay
hayajon
hayajonga
hayajonli
haydab
haydalgan
haydamoq
haydar
haydarobod
haydarov
haydash
hayden
haydovchi
haydovchilar
haydovchisi
hayes
hayit
haykal
haykalchalar
haykali
haykalini
haykallar
haykallari
haykalni
haykalning
haykaltarosh
haykaltaroshi
haykaltaroshlar
haykaltaroshlik
hayley
haynes
hayot
hayotda
hayotdagi
hayotdan
hayotga
hayoti
hayotida
hayotidagi
hayotidan
hayotiga
hayotim
hayotini
hayotining
hayotiy
hayotni
hayotning
hayrat
hayratda
hayratga
hayratlanarli
hayron
hayvon
hayvoni
hayvonlar
hayvonlarda
hayvonlardan
hayvonlarga
hayvonlari
hayvonlarini
hayvonlarni
hayvonlarning
hayvonni
hayvonning
hayvonot
hayz
hazil
haziran
hazm
hazrat
hazrati
hb
hbo
hc
hcid
hd
he
head
headline
headlines
headquarters
heads
health
healthcare
healthy
healy
heaney
heard
hearst
heart
hearts
heat
heath
heather
heaton
heaven
heavy
heavyweight
hech
hector
hee
heels
heerenveen
heights
heim
heinrich
heinz
held
helen
helena
hell
hellas
hello
helmand
helmut
help
helped
helps
helsinki
henderson
henley
henri
henrik
henry
her
herald
herbert
hercules
here
heritage
herman
hermann
herna
hernandez
hero
heroes
herschel
hershey
hertha
hessen
het
hewitt
hewlett
hey
hg
hi
hibernian
hibsga
hid
hidden
hidi
hidli
hidoyat
high
higher
highest
highlights
highway
hijob
hijoz
hijrat
hijriy
hikmat
hikmatli
hikoya
hikoyada
hikoyaga
hikoyalar
hikoyalari
hikoyalarida
hikoyalarini
hikoyalarni
hikoyani
hikoyaning
hikoyasi
hikoyasida
hikoyasiga
hikoyasini
hil
hilary
hill
hills
hilmand
hilol
hilton
him
himmat
himolay
himoloy
himoya
himoyachi
himoyachiga
himoyachilar
himoyachilari
himoyachisi
himoyada
himoyaga
himoyalangan
himoyalanish
himoyasi
himoyasida
himoyasiga
himoyasini
himoyasiz
himoyaviy
himself
hind
hindcha
hindi
hindiston
hindistonda
hindistondagi
hindistondan
hindistonga
hindistonlik
hindistonni
hindistonning
hindlar
hindlarning
hindu
hinduizm
hindular
hindustan
hip
hirot
his
hisob
hisobchi
hisobda
hisobga
hisobi
hisobida
hisobidagi
hisobidan
hisobiga
hisobini
hisoblab
hisobladi
hisoblagan
hisoblamoq
hisoblanadi
hisoblanadigan
hisoblanar
hisoblanardi
hisoblandi
hisoblangan
hisoblanib
hisoblanishi
hisoblanmaydi
hisoblansa
hisoblar
hisoblardi
hisoblash
hisoblashadi
hisoblashgan
hisoblaydi
hisoblaydilar
hisobni
hisobot
hisobotda
hisoboti
hisobotida
hisobotiga
hisobotlar
hisobotlari
hisor
hissa
hissasi
hissasiga
hissasini
hissi
hissini
hissiy
hissiyot
histo
histoire
historia
historian
historic
historical
histories
history
hit
hitachi
hitler
hitpara
hits
hiv
hiyla
hizb
hk
hl
hm
hms
hn
hna
ho
hockey
hodisa
hodisaga
hodisalar
hodisalarga
hodisalari
hodisalarni
hodisalarning
hodisani
hodisaning
hodisasi
hodisasini
hoffenheim
hoffman
hofiz
hoji
hokazo
hokim
hokimi
hokimining
hokimiyat
hokimiyatdan
hokimiyatga
hokimiyati
hokimiyatiga
hokimiyatini
hokimiyatining
hokimiyatni
hokimiyatning
hokimlari
hokimligi
hokimlik
hokkien
hol
holat
holatda
holatdagi
holatdan
holatga
holati
holatida
holatidagi
holatidan
holatiga
holatini
holatlar
holatlarda
holatlarga
holatlari
holatlarida
holatlarini
holatlarni
holatlarning
holatni
holatning
holbuki
hold
holda
holdagi
holdan
holden
holding
holdings
holdir
holds
hole
holga
holi
holida
holiday
holiga
holland
hollarda
hollari
holly
hollywood
holmes
holocaust
holstein
holt
holy
home
homepage
homila
homilador
homiladorlik
homiladorlikning
homiy
homiyligida
homiylik
homiysi
homo
hon
honda
honduras
honey
honeywell
hong
honolulu
honor
honorary
honored
honors
honour
honoured
honours
hood
hook
hoops
hoover
hop
hope
hopes
hopkins
hopper
hor
horace
hordiq
horizon
horn
hornets
horror
horse
horton
horun
hos
hoshim
hoshimov
hoshiya
hosil
hosilalari
hosildorligi
hosildorlik
hosilga
hosili
hosilni
hospital
host
hosts
hot
hotel
hotels
hotspur
houghton
hour
hours
house
housing
houston
hove
hovli
hovlida
hovliga
hovlining
hovlisi
hovlisida
hovuz
how
howard
howe
hoy
hoz
hozir
hozircha
hozirda
hozirga
hozirgacha
hozirgi
hp
hpv
hr
href
hromada
hromadalaridan
hrvatski
hs
hsbc
ht
hta
htm
html
http
https
hu
hua
huang
huawei
hub
hubble
hubert
huddersfield
huddi
hudson
hudud
hududda
hududdagi
hududdan
hududga
hududi
hududida
hududidagi
hududidan
hududiga
hududini
hududining
hududiy
hududlar
hududlarda
hududlardagi
hududlardan
hududlarga
hududlari
hududlarida
hududlaridagi
hududlaridan
hududlariga
hududlarini
hududlarni
hududlarning
hududni
hududning
huelva
huesca
huffington
huffpost
huge
hugh
hughes
hugo
hui
hujayra
hujayradan
hujayralar
hujayralari
hujayralarida
hujayralarini
hujayralarining
hujayralarni
hujayralarning
hujayrali
hujayraning
hujayrasi
hujjat
hujjatda
hujjati
hujjatlar
hujjatlarda
hujjatlarga
hujjatlari
hujjatlarida
hujjatlariga
hujjatlarini
hujjatlarni
hujjatlarning
hujjatlashtirilgan
hujjatli
hujjatni
hujra
hujralar
hujum
hujumchi
hujumchilar
hujumchisi
hujumda
hujumdan
hujumga
hujumi
hujumidan
hujumiga
hujumini
hujumkor
hujumlar
hujumlari
hujumlarini
hujumlarni
hujumni
hukm
hukmdor
hukmdori
hukmdorlar
hukmdorlari
hukmdorning
hukmi
hukmron
hukmronligi
hukmronligidan
hukmronligiga
hukmronligini
hukmronligining
hukmronlik
hukumat
hukumatda
hukumatga
hukumati
hukumatida
hukumatidan
hukumatiga
hukumatini
hukumatining
hukumatlar
hukumatlararo
hukumatlari
hukumatni
hukumatning
hulk
hull
hulu
hum
human
humo
humoyun
hun
hunar
hunarmand
hunarmandchiligi
hunarmandchilik
hunarmandlar
hundred
hung
hungama
hungarian
hungary
hunger
hunt
hunter
huntington
huquq
huquqi
huquqidan
huquqiga
huquqini
huquqining
huquqiy
huquqlar
huquqlarga
huquqlari
huquqlariga
huquqlarini
huquqlarining
huquqlarni
huquqli
huquqni
huquqning
huquqqa
huquqshunos
huquqshunoslik
hur
hurmat
hurmatga
hurmati
hurmatli
hurricane
hurricanes
hurriyat
hurriyet
hurst
husayn
husayniy
husband
huseynov
hushidan
hushini
hushtak
hushyor
huskies
husn
husni
hut
hutchinson
huzur
huzurida
huzuridagi
huzuriga
hv
hybrid
hyde
hyderabad
hydro
hye
hypertension
hyun
hyundai
i
ia
iaaf
ian
iana
iau
ib
iba
ibaraki
ibf
ibge
iblis
ibm
ibn
ibo
ibodat
ibodatxona
ibodatxonalar
ibodatxonalari
ibodatxonasi
ibodatxonasida
ibodatxonasining
ibora
iboralar
iborasi
iborat
iboratdir
iboratki
ibot
iboti
ibrahim
ibrat
ibratli
ibrohim
ibrohimov
ibroniy
ibroniycha
ibtido
ibtidoiy
ibu
ic
icao
icc
ice
iceland
icelandic
ich
ichak
ichakning
ichga
ichi
ichib
ichida
ichidagi
ichidan
ichiga
ichimlik
ichimliklar
ichimliklarni
ichini
ichish
ichishga
ichkari
ichkarida
ichkaridan
ichkariga
ichki
ichkilik
ichlar
ichmoq
icon
iconic
id
ida
idagi
idaho
idan
idea
ideal
ideas
identification
identifikator
identifikatsiya
identity
idi
idir
idish
idishda
idishga
idishlar
idishlarda
idishlari
idol
idora
idoralar
idoralari
idorasi
idorasida
idoraviy
idris
idrok
ie
ieee
if
iffhs
ifk
iflos
ifloslangan
ifloslanish
ifloslanishi
ifloslantiruvchi
ifoda
ifodalagan
ifodalanadi
ifodalangan
ifodalanishi
ifodalash
ifodalaydi
ifodalaydigan
ifodali
ifodalovchi
ifodasi
ifodasini
ifpi
ig
iga
igacha
iglesias
ign
igna
ignabargli
ignatenko
ignored
igor
igrac
ih
ii
iihf
iii
ij
ijara
ijarada
ijaraga
ijarasi
ijduvon
ijobiy
ijod
ijodi
ijodida
ijodiga
ijodini
ijodining
ijodiy
ijodiyoti
ijodkor
ijodkorlar
ijodkorlari
ijodkorlik
ijro
ijrochi
ijrochilar
ijrochilari
ijrochilik
ijrochisi
ijroiya
ijrosi
ijrosida
ijrosidagi
ijrosini
ijtimoiy
ik
ikiston
ikkala
ikkalasi
ikkalasida
ikkalasini
ikki
ikkiga
ikkilamchi
ikkilik
ikkinchi
ikkinchidan
ikkinchisi
ikkinchisida
ikkinchisiga
ikkinchisini
ikkinchisining
ikkisi
ikkita
ikkitadan
ikkitasi
ikkitasida
iklik
iklim
iklimi
ikona
ikonasi
ikrom
ikromov
iktas
iktisodiy
il
ila
iladi
iladigan
ilash
ilbo
ilc
ildi
ildiragi
ildirak
ildiraklar
ildirakli
ildiz
ildizdan
ildizi
ildizlar
ildizlari
ile
ilg
ilgan
ilganda
ilgandan
ilganida
ilganlar
ilgari
ilgarigi
ilhom
ilhomlangan
ilhomlanib
ilhomlantirgan
ili
iliada
ilib
ilik
iliq
ilish
ilishda
ilishi
ilishida
ilishidan
ilishini
ilishlar
ilk
ill
illab
illamoq
illari
illaridan
ille
illegal
illinois
illinoys
illustrated
ilm
ilmi
ilmiy
ilmoq
ilohiy
ilohiyot
iloji
ilon
iloni
ilonlar
ilova
ilovalar
ilovalari
ilovalarni
ilovasi
iltifot
iltimos
iltimosiga
iltimosini
ilya
ilyos
im
ima
image
images
imagine
imaging
imam
imax
imdb
imdbda
imeni
imf
img
imga
imi
imkon
imkoni
imkoniga
imkonini
imkoniyat
imkoniyati
imkoniyatidan
imkoniyatiga
imkoniyatini
imkoniyatlar
imkoniyatlarga
imkoniyatlari
imkoniyatlaridan
imkoniyatlariga
imkoniyatlarini
imkoniyatlarni
imkoniyatni
imkonsiz
imlar
imli
imlo
immigrant
immigrantlar
immigration
immigratsiya
immun
immunitet
immunology
imo
imom
imomi
imon
imoq
imorat
imoratlar
impact
imperator
imperatorga
imperatori
imperatorlari
imperatorlik
imperatorning
imperial
imperiya
imperiyaning
imperiyasi
imperiyasida
imperiyasidan
imperiyasiga
imperiyasini
imperiyasining
implications
import
important
importi
impossible
improvizatsiya
impuls
imtihon
imtihondan
imtiyoz
imtiyozlar
imtiyozlari
imtiyozli
imzo
imzolab
imzoladi
imzoladilar
imzolagan
imzolagani
imzolaganidan
imzolaganini
imzolandi
imzolangan
imzolanishi
imzolash
imzolashdan
imzolashga
imzolaydi
imzosi
in
ina
inaugural
inc
inch
incheon
inches
include
included
includes
including
income
incorporated
increase
incredible
inda
indagi
indan
indeks
indeksi
indeksiga
indekslari
independence
independent
independiente
index
indeys
indi
india
indiaglitz
indian
indiana
indianapolis
indiatimes
indicators
indie
indiewire
indisi
individual
indiya
indo
indonesia
indonesian
indonez
indoneziya
indoneziyada
indoneziyadagi
indoneziyaga
indoneziyalik
indoneziyaning
indre
induksiya
industrial
industries
industry
indy
ine
inert
infection
infectious
infeksion
infeksiya
infeksiyalar
infeksiyaning
infeksiyasi
infektsiya
infinity
influence
influential
inflyatsiya
info
infobox
informacio
informasiya
informatika
information
informatsion
informatsiya
infraqizil
infratuzilma
infratuzilmasi
infratuzilmasini
infty
ing
inga
ingarchilik
ingarchilikning
ingichka
ingl
ingliz
inglizcha
inglizlar
inglizlarga
inglizlarning
ingredientlar
ini
inida
iniga
ining
inish
initiative
injener
injil
injured
injury
ink
inkor
inlar
inlari
inli
inn
inner
inni
inning
innovation
innovatsion
innovatsiya
innovatsiyalar
inobatga
inoq
inqilob
inqilobchi
inqilobdan
inqilobi
inqilobidan
inqilobining
inqilobiy
inqiroz
inqirozga
inqirozi
inquirer
inquiry
ins
insee
insert
insho
insholar
inshoot
inshooti
inshootlar
inshootlardagi
inshootlari
inshootlarini
inshootlarni
inshootlarning
inside
insider
insight
insights
inson
insonga
insoniy
insoniyat
insoniyatga
insoniyatning
insonlar
insonlarning
insonni
insonning
insonparvarlik
inspektor
inspektori
inspiration
inspired
instagram
instead
institut
instituta
institutda
institute
institutga
instituti
institutida
institutiga
institutini
institutining
institution
institutional
institutions
institutlar
institutlari
institutni
institutning
instituto
institutsional
instruktor
instrumental
insulin
insult
insurance
int
integral
integrated
integration
integratsiya
integratsiyalashgan
integratsiyasi
intel
intellectual
intellekt
intellektual
intelligence
intensiv
intensivligi
inter
interactive
interaktiv
interest
interesting
interfeys
interfeysi
interior
internacional
internal
internat
international
internationale
internazionale
internet
internetda
internetdagi
internetga
intertoto
interview
interviews
intervyu
intervyuda
intervyusida
interyer
intiladi
intilayotgan
intildi
intilgan
intilish
intilishi
intizom
intizomiy
into
intoksikatsiya
introduces
introducing
introduction
intruziv
inv
invalid
invasion
invaziv
invest
investigation
investitsiya
investitsiyalar
investitsiyalarni
investment
investments
investor
investorlar
investors
io
ioann
ioc
iogann
ion
ionlar
ionlari
iordaniya
ios
iosif
iowa
ip
ipa
ipad
ipados
ipak
ipakchilik
ipc
iphone
ipi
iplar
ipni
ipo
ipod
ipoteka
ipswich
iq
iqbol
iqlim
iqlimga
iqlimi
iqlimiga
iqlimli
iqror
iqtibos
iqtidorli
iqtisod
iqtisodchi
iqtisodchisi
iqtisodiy
iqtisodiyot
iqtisodiyotda
iqtisodiyotga
iqtisodiyoti
iqtisodiyotida
iqtisodiyotiga
iqtisodiyotini
iqtisodiyotining
iqtisodiyotni
iqtisodiyotning
ir
ira
iran
iranian
iranica
iraq
iravan
irchoq
irdan
ireland
irene
irg
iri
irina
iris
irish
irkutsk
irlab
irland
irlandiya
irlandiyada
irlandiyadagi
irlandiyaga
irlandiyalik
irlandiyaning
irlangan
irlar
irlari
irlarida
irlash
irli
irligi
irligini
irlik
irlikdagi
irma
irmog
irmoqlari
iroda
irodasi
irog
iron
iroq
iroqda
iroqdagi
iroqlar
iroqlik
iroqni
iroqning
iroqqa
irot
irq
irqchilik
irqdan
irqga
irqi
irqiy
irqlar
irqlardan
irrigatsiya
irroq
irsiy
irt
irtish
irving
is
isa
isaac
isaak
isabel
isabella
isabelle
isaf
isbn
isbot
isboti
isbotlab
isbotladi
isbotlangan
isbotlash
isbotlaydi
ise
isfahon
ish
ishbilarmon
ishbilarmonlar
ishchi
ishchilar
ishchilari
ishchilarni
ishchilarning
ishchisi
ishda
ishdan
ishg
ishga
ishi
ishid
ishida
ishidan
ishiga
ishim
ishini
ishining
ishla
ishlab
ishladi
ishladilar
ishlagan
ishlagandan
ishlamay
ishlamaydi
ishlamoq
ishlamoqda
ishlanadi
ishlandi
ishlangan
ishlanib
ishlanmalar
ishlar
ishlarda
ishlardan
ishlarga
ishlari
ishlarida
ishlaridan
ishlariga
ishlarini
ishlarining
ishlarni
ishlarning
ishlash
ishlashda
ishlashdan
ishlashga
ishlashi
ishlashiga
ishlashini
ishlashni
ishlashning
ishlatadi
ishlatadigan
ishlatgan
ishlatib
ishlatila
ishlatiladi
ishlatiladigan
ishlatildi
ishlatilgan
ishlatilishi
ishlatilmaydi
ishlatish
ishlatishga
ishlay
ishlaydi
ishlaydigan
ishlayotgan
ishlov
ishlovchi
ishni
ishning
ishonadi
ishonarli
ishonch
ishonchi
ishonchini
ishonchli
ishonchliligi
ishonchni
ishonchsiz
ishonchsizlik
ishondi
ishongan
ishonib
ishoniladi
ishonish
ishonishadi
ishonishgan
ishontirdi
ishontirish
ishoq
ishora
ishoralar
ishq
ishqalanish
ishqiy
ishqor
ishqoriy
ishqorli
ishsiz
ishsizlik
isht
ishtaha
ishtdan
ishtirib
ishtirok
ishtirokchi
ishtirokchilar
ishtirokchilari
ishtirokchilarning
ishtirokchisi
ishtiroki
ishtirokida
ishtirokidagi
ishtirokini
ishtirokisiz
ishtixon
ishtiyoq
ishtiyoqi
ishtli
isi
isis
isitish
isitma
isitmasi
iskandar
iskandariya
iskusstvo
isl
islam
islamic
island
islanders
islandiya
islandiyaga
islands
islimiy
isloh
islohot
islohotchi
islohoti
islohotida
islohotlar
islohotlari
islohotlarni
islom
islomda
islomdagi
islomdan
islomga
islomgacha
islomiy
islomni
islomning
islomobod
islomshunoslik
ism
ismail
ismi
ismini
ismining
ismlar
ismlari
ismlarini
ismli
ismoil
ismoiliy
ismoilov
isn
iso
isoning
isp
ispan
ispancha
ispaniya
ispaniyada
ispaniyadagi
ispaniyadan
ispaniyaga
ispaniyalik
ispaniyaning
ispanlar
israel
israeli
isroil
isroilda
isroilga
isroillik
isroilning
iss
issiklik
issiq
issiqko
issiqlik
issiqlikni
issiqxona
issledovaniya
issn
issue
issues
ist
istagan
istagi
istagini
istak
istalgan
istamadi
istamagan
istanbul
istanbulda
istanbuldagi
istanbulga
istanbulning
iste
istehkom
istehkomlar
istiklol
istilo
istilosi
istilosidan
istiqbol
istiqbollari
istiqbolli
istiqlol
istiqomat
istirohat
istisno
iston
istonda
istondagi
istonga
istonlik
istonning
istoricheskaya
istorii
istoriya
isu
isuzu
isyon
isyonchi
isyonchilar
isyonkor
it
ita
ital
italia
italian
italiana
italiano
italiya
italiyada
italiyadagi
italiyadan
italiyaga
italiyalik
italiyaliklar
italiyani
italiyaning
italy
italyan
italyancha
itarib
item
itf
itftennis
iti
itis
itish
itlar
itlari
itlarni
itning
ito
itoat
its
ittifoq
ittifoqchi
ittifoqchilar
ittifoqchilari
ittifoqchisi
ittifoqdosh
ittifoqi
ittifoqida
ittifoqidagi
ittifoqidan
ittifoqiga
ittifoqini
ittifoqining
ittifoqning
ittifoqqa
ittihod
itunes
itv
iu
iucn
iv
ivan
ivanka
ivano
ivanov
ivanovich
ivanovna
ivlendi
ivlenmis
ivritcha
ivuar
ivy
ix
ixcham
ixlos
ixtiro
ixtirochi
ixtirochisi
ixtirosi
ixtisoslashgan
ixtisoslashtirilgan
ixtisosligi
ixtiyor
ixtiyori
ixtiyorida
ixtiyoriga
ixtiyoriy
iy
iyan
iybat
iymon
iyul
iyulda
iyuldagi
iyuldan
iyulgacha
iyulida
iyulidan
iyulniki
iyulning
iyulya
iyun
iyunda
iyundagi
iyundan
iyungacha
iyunida
iyunidan
iyuniga
iyunigacha
iyunya
iz
izabella
izcha
izchil
izd
izdan
izdatelstvo
izdoshlari
izg
izga
izhor
izi
izidan
izini
iziston
izistonda
izistondagi
izistonning
izlab
izlanish
izlanishlar
izlanishlari
izlar
izlari
izlarini
izlash
izlashga
izlik
izmir
izoh
izohladi
izohlanadi
izohlar
izohlash
izohli
izolyatsiya
iztirob
izvestiya
izzat
j
ja
jabbor
jabborov
jabr
jabrayil
jabrlanuvchi
jack
jackets
jackie
jackson
jacob
jacobs
jacqueline
jacques
jadal
jade
jadid
jadidchilik
jadval
jadvalda
jadvali
jadvalida
jadvallar
jadvalning
jae
jafar
jag
jaguar
jahl
jahli
jahon
jahonda
jahondagi
jahonga
jahongir
jahonning
jahr
jai
jaime
jain
jak
jakarta
jakartada
jake
jaklin
jal
jalar
jalb
jaligi
jaligida
jaligiga
jaligini
jaligining
jalik
jaliklar
jaliklari
jaliklarida
jaliklarining
jalil
jalilabad
jalilov
jalol
jaloliddin
jalolobod
jam
jama
jamaica
jamal
jambil
james
jamg
jami
jamie
jamiyat
jamiyatda
jamiyatdagi
jamiyatga
jamiyati
jamiyatida
jamiyatiga
jamiyatini
jamiyatining
jamiyatlar
jamiyatlari
jamiyatni
jamiyatning
jamlagan
jamlangan
jammu
jamoa
jamoada
jamoadagi
jamoadan
jamoadoshi
jamoadoshlari
jamoaga
jamoalar
jamoalarda
jamoalarga
jamoalari
jamoalarida
jamoalaridan
jamoalariga
jamoalarini
jamoalarining
jamoalarni
jamoalarning
jamoani
jamoaning
jamoasi
jamoasida
jamoasidagi
jamoasidan
jamoasiga
jamoasini
jamoasining
jamoat
jamoatchiligi
jamoatchilik
jamoatchilikka
jamoatchilikni
jamoatchilikning
jamoatiga
jamoaviy
jamol
jamotiga
jamshid
jan
jana
jand
jane
janet
janeyro
janeyroda
jang
jangari
jangarilar
jangarilari
jangchi
jangchilar
jangchilari
jangchisi
jangda
jangdan
jangga
jangi
jangida
jangidan
jangini
janglar
janglarda
janglardan
janglari
janglarida
jangni
jangning
jangovar
janjal
janjallashib
jannat
janob
janr
janrdagi
janri
janrida
janridagi
janriga
janrining
janrlar
janrlari
janrlarida
january
janub
janubda
janubdagi
janubdan
janubga
janubi
janubida
janubidagi
janubidan
janubiy
jaobod
japan
japanese
japon
jar
jarayon
jarayonda
jarayonga
jarayoni
jarayonida
jarayonidan
jarayoniga
jarayonini
jarayonining
jarayonlar
jarayonlarda
jarayonlarga
jarayonlari
jarayonlarida
jarayonlarini
jarayonlarni
jarayonlarning
jarayonni
jarayonning
jared
jarima
jarimaga
jarlik
jarohat
jarohatdan
jarohati
jarohatidan
jarohatlangan
jarohatlar
jarohatlari
jarqo
jarroh
jarrohlik
jasad
jasadi
jasadini
jason
jasorat
jasorati
jasoratli
jasper
jastin
jasur
java
javascript
javdar
javier
javob
javoban
javobgar
javobgardir
javobgarlik
javobgarlikka
javobgarlikni
javobi
javobini
javoblar
javod
javohirlar
jay
jayev
jayin
jayini
jaz
jazeera
jazira
jazirama
jazo
jazoga
jazoir
jazoirlik
jazoirning
jazolanadi
jazolash
jazoni
jazosi
jazosiga
jazosini
jazz
jb
jc
jch
jd
je
jean
jeanne
jeep
jeff
jefferson
jeffrey
jeffri
jek
jeki
jekson
jem
jen
jeneva
jenevada
jenkins
jenna
jenner
jenni
jennifer
jennings
jenny
jens
jensen
jeong
jeremi
jeremy
jermen
jerome
jerri
jerry
jersey
jersi
jerusalem
jess
jesse
jessi
jessica
jessika
jesus
jet
jets
jewish
jews
jey
jeykob
jeymi
jeyms
jeyn
jeyson
jez
jfa
jgp
jha
ji
jia
jiang
jiangsu
jibuti
jidda
jiddiy
jig
jigar
jigarrang
jihatdan
jihati
jihatidan
jihatlar
jihatlari
jihatlarini
jihozlangan
jihozlar
jihozlari
jihozlarni
jihozlash
jil
jild
jildda
jildi
jildli
jildlik
jilg
jill
jim
jimjitlik
jimmi
jimmy
jin
jing
jingalak
jinlar
jinni
jinoiy
jinoyat
jinoyatchi
jinoyatchilar
jinoyatchilik
jinoyatchilikka
jinoyati
jinoyatlar
jinoyatlari
jinoyatlarni
jins
jinsga
jinsi
jinsiga
jinsiy
jinslar
jinslarda
jinslardan
jinslari
jinslaridan
jinslarining
jinslarning
jinsli
jirkanch
jism
jismlar
jismlarning
jismning
jismonan
jismoniy
jitomir
jiyani
jiyda
jiza
jizalar
jizasi
jizaviy
jizn
jizzax
jj
jk
jl
jma
jo
joa
joachim
joan
joanna
job
jobs
jodi
jodugar
joe
joel
joey
jogo
johan
johann
johannes
johansson
john
johnny
johns
johnson
johnston
join
joining
joins
joint
joizki
jojo
joker
jom
jome
jomiy
jon
jonas
jonatan
jonathan
jondor
jones
jong
jonga
joni
joniga
jonim
jonini
jonivor
jonivorlar
jonlantirgan
jonli
jonni
jonning
jons
jonsiz
jonson
joongang
jordan
jordi
jorge
joriy
jorj
jorjiya
jose
josef
joseph
josh
joshi
joshua
josuslik
journal
journalism
journalist
journalists
journals
journey
jovanni
joy
joyce
joyda
joydagi
joydan
joyga
joyi
joyida
joyidagi
joyidan
joyiga
joyini
joyining
joylar
joylarda
joylardagi
joylardan
joylarga
joylari
joylarida
joylaridan
joylariga
joylarini
joylarining
joylarni
joylarning
joylashadi
joylashdi
joylashdilar
joylashgan
joylashgani
joylashganligi
joylashib
joylashish
joylashishi
joylashtiradi
joylashtirdi
joylashtirgan
joylashtiriladi
joylashtirildi
joylashtirilgan
joylashtirilishi
joylashtirish
joylashtirishni
joylashuv
joylashuvi
joyni
joyning
jozef
jozibador
jozibali
jp
jpg
jpmorgan
jr
js
jsst
jstor
ju
juan
juda
judge
judit
judith
judo
judoinside
judy
juft
juftligi
juftlik
juftlikda
juftliklar
juftliklari
jug
jugador
jukov
jukovskiy
jul
jules
juli
julia
julian
julie
julien
juliet
julio
julius
july
juma
jumanazar
jumla
jumladan
jumlasidan
jumlasidandir
jumlasiga
jump
jun
june
jung
jungle
juni
junior
juniors
junli
jur
jura
jurnal
jurnalda
jurnali
jurnalida
jurnaliga
jurnalini
jurnalining
jurnalist
jurnalisti
jurnalistik
jurnalistika
jurnalistikaning
jurnalistikasi
jurnalistlar
jurnalistlarga
jurnalistlari
jurnalistlarni
jurnalistlarning
jurnallar
jurnallarda
jurnallari
jurnallarida
jurnalning
just
justice
justin
juve
juventus
juvon
juz
juzeppe
jyp
jyul
jyutping
k
ka
kabel
kabi
kabilar
kabilarni
kabir
kabisa
kabo
kabob
kabul
kad
kadar
kader
kadi
kadr
kadrlar
kadrlarni
kadın
kafe
kafedra
kafedrasi
kafedrasida
kafolat
kafolati
kafolatlangan
kafolatlari
kaft
kai
kaiser
kajol
kak
kaka
kakao
kaklik
kal
kala
kalamush
kaldosh
kale
kalendar
kalgari
kali
kalibrli
kaliforniya
kaliforniyada
kaliforniyadagi
kaliforniyaga
kaliforniyaning
kalinin
kaliningrad
kalit
kaliti
kaliy
kalkutta
kalla
kalmar
kalom
kalon
kalsiy
kalta
kaltak
kaltakesak
kaltakesaklar
kaltsiy
kaluga
kam
kama
kamalak
kamar
kamari
kamayadi
kamaydi
kamaygan
kamayib
kamayishi
kamayishiga
kamaytiradi
kamaytirdi
kamaytirish
kamaytirishga
kamaytirishi
kambag
kambodja
kamchatka
kamchiligi
kamchilik
kamchiliklar
kamchiliklari
kamchiliklarni
kamdan
kamer
kamera
kameralar
kameralari
kamerali
kamerasi
kamerun
kamida
kamil
kamligi
kamo
kamol
kamoliddin
kamolot
kamon
kamondan
kamp
kampaniya
kampaniyasi
kampaniyasida
kampaniyasini
kampaniyasining
kampir
kampus
kampusi
kampusida
kamrog
kamroq
kamsitish
kamsituvchi
kamtar
kamtarona
kamyob
kan
kana
kanada
kanadada
kanadadagi
kanadaga
kanadalik
kanadaliklar
kanadani
kanadaning
kanal
kanalda
kanali
kanalida
kanaliga
kanalini
kanalining
kanalizatsiya
kanallar
kanallari
kanalli
kanalning
kanar
kane
kang
kangal
kann
kannada
kanop
kansas
kansler
kansleri
kant
kante
kanto
kanton
kantonchada
kantonida
kanun
kanzas
kap
kapalak
kapalaklar
kapital
kapitali
kapitalistik
kapitalizm
kapitan
kapitani
kaplan
kapoor
kappa
kapsula
kaptar
kapur
kar
kara
karabakh
karachi
karam
karan
karantin
kararnamelerde
karate
karbon
karbonat
kardashian
kardiff
kardinal
kardjali
karel
kareliya
karen
karerasidagi
karerasini
kari
karib
karim
karimov
karimova
karimovning
karin
karintiya
karl
karla
karlo
karlos
karlsson
karmana
karmen
karnataka
karnaval
karnay
karnegi
karolin
karolina
karomatov
karpat
karra
karrali
kars
karshi
karst
karta
kartalar
kartalari
kartalarini
kartani
kartasi
karter
kartina
kartli
kartochka
karton
kartoshka
karvon
karvonsaroy
karyera
karyerasi
karyerasidagi
karyerasini
kas
kasaba
kasal
kasali
kasallangan
kasallanish
kasalligi
kasalligida
kasalligidan
kasalligiga
kasalligini
kasalligining
kasallik
kasallikdan
kasallikka
kasalliklar
kasalliklarda
kasalliklardan
kasalliklarga
kasalliklari
kasalliklarida
kasalliklariga
kasalliklarini
kasalliklarining
kasalliklarni
kasalliklarning
kasallikni
kasallikning
kasalxona
kasalxonada
kasalxonaga
kasalxonalar
kasalxonasi
kasalxonasida
kasalxonasiga
kasb
kasbhunar
kasbi
kasbini
kasbiy
kash
kashf
kashfiyot
kashfiyoti
kashfiyotlar
kashmir
kashshof
kashta
kashtan
kaspiy
kasr
kassa
kassada
kasta
kastamonu
kastiliya
kastro
kasım
kat
katak
katalitik
katalizator
katalog
katalogi
kataloniya
kate
kategoriya
katerina
katherine
kathleen
kathryn
kathy
katie
katlar
kato
katolik
katoliklar
katrina
katta
kattadir
kattagina
kattalar
kattalarga
kattalashtirish
kattaligi
kattalik
kattalikda
kattalikdagi
kattaqo
kattaroq
kattaroqdir
kattasi
katy
katz
kauchuk
kaufman
kaur
kaver
kavkaz
kavkazda
kavkazdagi
kavkazning
kay
kaya
kayf
kayfi
kayfiyat
kayfiyati
kayla
kaymakamlıg
kaynag
kayta
kazak
kazakh
kazakhstan
kazaklar
kazan
kazaxstan
kb
kbs
kc
kcha
kdi
ke
kech
kecha
kechada
kechadi
kechadigan
kechagi
kechak
kechalar
kechalari
kechasi
kechayu
kechdi
kechgacha
kechgan
kechib
kechiktirildi
kechiktirilgan
kechiradi
kechirdi
kechirgan
kechirib
kechirim
kechirish
kechirmoq
kechish
kechishga
kechishi
kechki
kechmoq
kechqurun
kechroq
keep
keeper
keeps
keita
keith
kek
keksa
keksalar
kel
kela
keladi
keladigan
kelajagi
kelajak
kelajakda
kelajakdagi
kelajakka
kelajakni
kelar
kelardi
kelasi
kelayotgan
keldi
keldilar
keldim
keles
kelgach
kelgan
kelganda
kelgandan
kelgani
kelganida
kelganidan
kelganini
kelganlar
kelganlarida
kelganligi
kelgusi
kelgusida
kelib
kelibsiz
kelin
kelinadi
kelindi
keling
kelingan
kelini
kelinlar
kelinmoqda
kelinning
kelish
kelisha
kelishadi
kelishdi
kelishga
kelishgan
kelishi
kelishib
kelishidan
kelishiga
kelishigi
kelishik
kelishilgan
kelishini
kelishmovchilik
kelishmovchiliklar
kelishuv
kelishuvga
kelishuvi
kelishuviga
kelishuvlar
kelishuvni
keller
kelli
kelly
kelmadi
kelmagan
kelmasa
kelmasligi
kelmay
kelmaydi
kelmaydigan
kelmoq
kelmoqda
kelsa
kelsak
keltiradi
keltiradigan
keltirdi
keltirgan
keltirib
keltiriladi
keltirildi
keltirilgan
keltirilib
keltirish
keltirishi
keltirmoq
keltiruvchi
keluvchi
kelyapti
kema
kemada
kemaga
kemal
kemalar
kemalari
kemalariga
kemalarini
kemalarni
kemalarning
kemani
kemaning
kemasi
kemasida
kemasiga
kemasini
kemasining
kemasozlik
kembrij
kemeron
kemiruvchilar
kempbell
ken
kendall
keng
kengash
kengashda
kengashi
kengashida
kengashiga
kengashini
kengashining
kengashlari
kengashning
kengayadi
kengaydi
kengaygan
kengayib
kengayish
kengayishi
kengayishiga
kengaytiradi
kengaytirdi
kengaytirib
kengaytirildi
kengaytirilgan
kengaytirish
kengaytirishga
kengaytirishni
kengligi
kenglik
kenglikdagi
kengliklarda
kengroq
keniya
kenja
kennedi
kennedy
kennet
kenneth
kenny
kent
kentavr
kentucky
kentukki
kenya
kepler
kerak
kerakki
kerakli
kerakligi
kerakligini
kerakmi
keraksiz
kerala
keramika
kerch
kerol
kerosin
kerr
kerri
kerry
kes
kesh
kesib
kesil
kesiladi
kesilgan
kesim
kesimi
kesish
kesishgan
keskin
keskinlik
kesma
kesmoq
kessel
kessler
kesuvchi
ket
keta
ketadi
ketadigan
ketar
ketayotgan
ketayotganda
ketayotib
ketdi
ketgach
ketgan
ketganda
ketgandan
ketgani
ketganidan
ketganini
ketganligi
keti
ketib
ketibdi
ketidan
ketildi
ketilgan
ketin
ketish
ketishadi
ketishdan
ketishdi
ketishga
ketishgan
ketishi
ketishidan
ketishiga
ketishini
ketishni
ketligi
ketlik
ketma
ketmon
ketmoq
ketrin
ketsa
ketyapti
kevin
kew
key
keyin
keyinchalik
keyinga
keyingi
keyingina
keyinroq
keynes
keys
keyt
kezib
kf
kg
kgb
kh
khan
khanna
khiladi
khl
ki
kia
kib
kibernetika
kichigi
kichik
kichikroq
kichkina
kichraytirish
kick
kicker
kicks
kid
kidlab
kidladi
kidladilar
kidlagan
kidlaganidek
kidlanadi
kidlangan
kidlanishicha
kidlash
kidlashicha
kidlaydi
kidlaydilar
kids
kieran
kiev
kifoya
kigiz
kil
kiladi
kilgan
kilib
kilingan
kilish
kill
killed
killer
killing
kills
kilmarnock
kilogramm
kilogrammgacha
kilometr
kilometrga
kilometrni
kim
kimberly
kimchi
kimdir
kimga
kimligini
kimni
kimning
kimsa
kimsaga
kimsani
kimsaning
kimsasiz
kimtir
kimyo
kimyoda
kimyogar
kimyogari
kimyosi
kimyoviy
kin
kind
kindi
kindik
kindle
kinematik
kinematografiya
kinetik
king
kingdom
kings
kingston
kino
kinoda
kinodagi
kinofestivali
kinofestivalida
kinofestivalining
kinofilm
kinoga
kinopoisk
kinorejissyor
kinosi
kinosida
kinosining
kinostudiyasi
kinoteatr
kinoteatrlarda
kinoya
kioto
kipr
kir
kira
kiradi
kiradigan
kiraverishda
kirby
kirdi
kirgan
kirganda
kirgandan
kirganida
kirganidan
kirgizmoq
kirib
kirilenko
kirill
kirish
kirishadi
kirishda
kirishdan
kirishdi
kirishdilar
kirishga
kirishgan
kirishi
kirishib
kirishidan
kirishiga
kirishini
kirishlari
kirishni
kirita
kiritadi
kiritdi
kiritdilar
kiritgach
kiritgan
kiritgandan
kiritgani
kiritganidan
kiritib
kiritiladi
kiritildi
kiritilgan
kiritilib
kiritilishi
kiritilmagan
kiritish
kiritishda
kiritishdi
kiritishga
kiritishi
kiritishiga
kiritishni
kiritmoq
kirk
kirmagan
kirmaydi
kirmonshoh
kirmoq
kirov
kirsten
kiruvchi
kis
kish
kishi
kishidan
kishiga
kishigacha
kishilar
kishilardan
kishilarga
kishilari
kishilarni
kishilarning
kishilik
kishini
kishining
kishisi
kislorod
kislota
kislotalar
kislotalari
kislotali
kislotaning
kislotasi
kismi
kiss
kiston
kit
kita
kitab
kitchen
kitob
kitobda
kitobdan
kitobga
kitobi
kitobida
kitobidan
kitobiga
kitobini
kitobining
kitoblar
kitoblarda
kitoblarga
kitoblari
kitoblarida
kitoblariga
kitoblarini
kitoblarni
kitoblarning
kitobni
kitobning
kitobxon
kitobxonlar
kiy
kiyadi
kiyev
kiyevda
kiygan
kiyib
kiyik
kiyiladi
kiyiladigan
kiyim
kiyimda
kiyimi
kiyimini
kiyimlar
kiyimlari
kiyimlarini
kiyimlarni
kiyingan
kiyinish
kiyish
kiyishadi
kiyishgan
kiyishni
kiz
kizil
kk
kka
kkan
kl
klar
klara
klark
klass
klassi
klassicheskix
klassifikatsiya
klassik
klassikasi
klassitsizm
klaster
klasterdir
klaus
klaviatura
klaviaturaga
klein
klement
kleopatra
kler
klinik
klinikasi
klinton
klip
klipi
klipida
klivlend
klix
klod
klub
klubda
klubdagi
klubdan
klubga
klubi
klubida
klubidagi
klubidan
klubiga
klubini
klubining
klublar
klublarda
klublari
klublarida
klublariga
klublarini
klublarining
klubni
klubning
km
kmoq
kmu
kn
knee
knew
knicks
kniga
knight
knights
knopf
knori
know
knowledge
known
knox
knvb
knyaz
knyazi
knyazlari
knyazligi
knyazlik
ko
koalitsiya
koalitsiyasi
kobalt
kobe
kobul
kobulda
kobuldagi
kobulga
koc
koch
kod
kodeksi
kodeksining
kodi
kodlari
kodlash
kodli
koeffitsienti
koeffitsiyenti
koen
kofe
kognitiv
kogon
koi
koinot
koinotda
koinotga
koinotning
koka
kokain
kokos
koks
kokteyl
kol
kola
kolbasa
kolin
kolkata
kollej
kollejda
kollejdagi
kollejga
kolleji
kollejida
kollejiga
kollejini
kollejining
kollejlar
kollejlari
kollejni
kollejning
kolleksiya
kolleksiyasi
kolleksiyasini
kollektiv
kollektor
kollinz
kolloid
koloniya
koloniyasi
kolorado
kolumb
kolumbiya
kolumbiyalik
kolumbiyaning
kolumbiyasi
kolxoz
kolxozchilar
kolxozga
kom
komanda
komandir
komandiri
kombat
kombinati
kombinatlari
kombinatsiyasi
komedik
komediya
komediyachi
komediyasi
komediyasida
komi
komik
komiks
komikslar
komil
komilov
komissar
komissari
komissarlari
komissarligi
komissiya
komissiyasi
komissiyasiga
komissiyasining
komiteti
komitetining
kommersant
kommuna
kommunadir
kommunal
kommunikatsiya
kommunikatsiyalar
kommunist
kommunistik
kommunistlar
kommunizm
kompakt
kompaniya
kompaniyada
kompaniyaga
kompaniyalar
kompaniyalardan
kompaniyalarga
kompaniyalari
kompaniyalaridan
kompaniyalariga
kompaniyalarining
kompaniyalarni
kompaniyalarning
kompaniyani
kompaniyaning
kompaniyasi
kompaniyasida
kompaniyasidan
kompaniyasiga
kompaniyasini
kompaniyasining
kompartiyasi
kompas
kompensatsiya
kompleks
kompleksi
komplekslari
komponent
komponenti
komponentlar
komponentlari
kompozitor
kompozitorlar
kompozitorlari
kompozitorlik
kompozitsion
kompozitsiya
kompozitsiyalar
kompozitsiyasi
kompressor
kompyuter
kompyuterda
kompyuterga
kompyuterlar
kompyuterlari
komsomol
komuna
komunave
kon
konchilar
konchilik
konda
konditsioner
konfederatsiya
konfederatsiyalar
konfederatsiyasi
konferensii
konferensiya
konferensiyada
konferensiyalar
konferensiyasi
konferensiyasida
konferensiyasining
konferentsiya
konferentsiyasi
konferentsiyasida
konfet
konfutsiy
konfutsiylik
kong
konga
kongo
kongress
kongressda
kongressi
kongressida
kongressining
koni
konida
konidan
koniga
konini
konining
konkakaf
konkida
konkret
konlar
konlarda
konlari
konlarida
konlaridan
konlarini
konlarining
konlarni
konnektikut
konni
konning
konrad
konsalting
konsensus
konsentratsiyasi
konsentrlangan
konsepsiya
konsepsiyasi
konserni
konsert
konserti
konsertlar
konserva
konservativ
konservatoriya
konservatoriyasi
konservatoriyasida
konservatoriyasini
konservatorlar
konstantin
konstantinopol
konstitutsiya
konstitutsiyada
konstitutsiyaga
konstitutsiyani
konstitutsiyaning
konstitutsiyasi
konstitutsiyasida
konstitutsiyasiga
konstitutsiyasini
konstitutsiyasining
konstitutsiyaviy
konstruksiyalar
konstruktiv
konstruktorlik
konsul
konsuli
konsulligi
konsullik
konsulliklari
kontakt
kontekstida
kontent
kontentni
kontinental
kontrakt
kontrast
kontsentratsiyasi
kontseptsiya
kontseptsiyasi
kontseptsiyasini
kontseptual
kontsert
kontsertlar
konus
konussimon
konvensiya
konvensiyasi
konventsiya
konventsiyasi
konvertatsiya
konya
kooperativ
koordinata
koordinatalar
koordinatalarda
koordinatalari
koordinatori
kopengagen
kopiya
kopya
kor
kora
korea
korean
koreya
koreyada
koreyadagi
koreyaga
koreyalik
koreyaning
koreys
koreyscha
koreyslar
kori
koronavirus
koronavirusi
korporativ
korporatsiya
korporatsiyalar
korporatsiyasi
korporatsiyasiga
korporatsiyasining
korpus
korpusi
korpusiga
korpusining
korrupsiya
korrupsiyaga
korrupsiyani
korruptsiya
kort
korti
korver
korxona
korxonada
korxonalar
korxonalarda
korxonalari
korxonalarida
korxonalariga
korxonalarini
korxonalarining
korxonalarni
korxonalarning
korxonaning
korxonasi
korxonasiga
korxonasini
kos
kosa
kosasi
koshg
koshin
koshinlar
kosmetika
kosmik
kosmonavt
kosmonavti
kosmonavtlar
kosmos
kosmosda
kosmosga
koson
kosonsoy
kosovo
kosta
kostyum
kot
kota
kotib
kotibi
kotibining
kova
kovak
kovlab
koy
koyumuz
kp
kpss
kr
kraft
kragi
kragiga
krak
krakning
krako
krakov
kramer
kran
krasnodar
krasnoyarsk
krater
krateri
kraxmal
kredit
kreditlar
kreditlari
kreis
krem
kreml
kremlin
kremniy
kreyg
kriket
kriketchi
krilov
kriminal
kris
krishna
kristal
kristall
kristallanadi
kristallar
kristallari
kristalli
kristen
kristi
kristian
kristin
kristina
kristof
kristofer
krit
kritik
kroger
kroll
kron
kross
krossover
kruiz
kruz
ks
kseniya
kt
ktam
kto
ku
kuala
kub
kuba
kubalik
kuban
kubaning
kubogi
kubogida
kubogidagi
kubogiga
kubogini
kubogining
kubok
kubokda
kubokni
kuch
kuchayadi
kuchaydi
kuchaygan
kuchayib
kuchayishi
kuchayishiga
kuchaytiradi
kuchaytirdi
kuchaytirish
kuchaytirishga
kuchga
kuchi
kuchidan
kuchiga
kuchini
kuchining
kuchlanish
kuchlanishli
kuchlar
kuchlarga
kuchlari
kuchlarida
kuchlaridan
kuchlariga
kuchlarini
kuchlarining
kuchlarni
kuchlarning
kuchli
kuchliroq
kuchni
kuchning
kuchsiz
kuk
kukun
kukuni
kul
kuldi
kulgi
kulgili
kuli
kulib
kulmoq
kulol
kulolchilik
kulollik
kulrang
kultur
kultura
kulturi
kum
kumar
kumari
kumir
kumush
kumushdan
kun
kunda
kundagi
kundaligi
kundalik
kundan
kunduz
kunduzgi
kunduzi
kung
kunga
kungaboqar
kungacha
kungi
kuni
kunida
kunidan
kunieda
kuniga
kunini
kunjut
kunlar
kunlarda
kunlari
kunlarida
kunlarini
kunligida
kunlik
kunni
kunning
kup
kupe
kuper
kupi
kur
kura
kurak
kurash
kurashadi
kurashayotgan
kurashchi
kurashchisi
kurashda
kurashdan
kurashdi
kurashdilar
kurashga
kurashgan
kurashi
kurashini
kurashish
kurashishga
kurashlar
kurashni
kurashning
kurashuvchi
kurd
kurdiston
kurdlar
kurort
kurorti
kurortlari
kurs
kursda
kursi
kursida
kursini
kursk
kurslar
kurslari
kurslarida
kurslarini
kurslarni
kurt
kurtak
kurtaklari
kurulması
kushon
kushonlar
kutayotgan
kutgan
kutib
kutilayotgan
kutilgan
kutilmagan
kutilmaganda
kutilmoqda
kutish
kutubxona
kutubxonada
kutubxonaga
kutubxonalar
kutubxonalari
kutubxonaning
kutubxonasi
kutubxonasida
kutubxonasining
kutuphane
kutusu
kuvayt
kuwait
kuy
kuydirib
kuygan
kuyi
kuyib
kuyish
kuyladi
kuylagan
kuylangan
kuylar
kuylari
kuylash
kuylaydi
kuyov
kuyovi
kuyovning
kuz
kuzatdi
kuzatgan
kuzatib
kuzatiladi
kuzatiladigan
kuzatildi
kuzatilgan
kuzatilishi
kuzatish
kuzatishlar
kuzatuv
kuzatuvchi
kuzatuvchilar
kuzda
kuzgi
kuzida
kuznetsov
kuzov
kv
kvadrat
kvant
kvars
kvartira
kvartirasi
kvartirasida
kvartirasini
kvarts
kvebek
kvinslend
kvt
kw
kxdr
ky
kya
kyiv
kyle
kylie
kyo
kyoln
kyrgyz
kyrgyzstan
kyung
kz
l
la
lab
label
labi
labor
laboratories
laboratoriya
laboratoriyasi
laboratoriyasida
laboratory
labour
labs
lac
lada
ladi
ladies
ladigan
ladilar
ladimi
lady
ladybug
lafayette
lag
laga
lagan
lager
lagerda
lagerga
lageri
lagerida
lageriga
lagi
lagiga
lagini
laguna
lahjasi
lahjasida
lahn
lahor
lahore
lahza
lai
lajak
lak
lakay
lake
lakers
lakes
lakka
laklar
laklarga
laklari
laklarini
lakli
lakshmi
lal
lam
lama
laman
lamar
lambert
lamborghini
lamda
lami
lamini
lamiz
lamli
lamoq
lampa
lampalar
lan
lana
lanadi
lanadigan
lancashire
lancaster
lance
lancet
lancia
land
landes
landi
landing
landmark
lands
landscape
landshaft
lane
lang
langan
langar
langon
language
languages
lanham
lanib
lanish
lanishga
lanishi
lanishini
lanishni
lanka
lanmagan
lanmoq
lanning
lao
laon
laos
laqabi
laqabini
laqabli
laqonli
lar
lara
larda
lardagi
lardan
lardi
larga
large
largentie
largest
lari
larida
laridagi
laridan
lariga
larini
larining
larisa
larni
larning
laroq
larri
larry
lars
larsen
larsson
larzaga
las
lash
lashdan
lashga
lashgan
lashi
lashkar
lashni
lasiz
last
lat
latdan
late
later
lateral
latest
latif
latifalar
latin
latina
latino
latov
latsio
latta
latvia
latviya
latviyaning
lauenburg
launch
launched
launches
laura
laureati
lauren
laurence
laurent
laurie
lava
lavha
lavhalar
lavlagi
lavozim
lavozimda
lavozimga
lavozimi
lavozimida
lavozimidan
lavozimiga
lavozimini
lavozimlarda
lavozimlarida
lavozimlarini
lavozimlarni
lavozimli
lavozimni
law
lawn
lawrence
laws
lawson
lawsuit
lay
laydi
laydigan
laydilar
laylak
layli
laylo
layoqatli
layotgan
lazer
lazio
lazzat
lb
lbars
lc
lcd
lchab
lchagich
lcham
lchamda
lchamdagi
lchami
lchamiga
lchamlari
lchamli
lchanadi
lchanadigan
lchangan
lchash
lchashda
lchaydigan
lchi
lchov
lchovi
lchovlar
lchovlari
lchovli
ld
lda
ldagi
ldan
lde
ldi
ldiki
ldilar
ldim
ldiradi
ldiradigan
ldirdi
ldirgan
ldirib
ldiriladi
ldirildi
ldirilgan
ldirilishi
ldirish
ldirishda
ldirishga
ldirishi
ldirishni
ldirmoq
ldiruvchi
ldosh
ldoshev
ldoshi
ldoshlar
ldoshlari
le
lea
lead
leader
leaders
leadership
leading
leads
leafs
league
learn
learned
learning
least
leave
leavenworth
leaves
leaving
lebanon
lebedev
lecce
lech
lecture
led
ledger
ledi
lee
leeds
left
leg
lega
legacy
legal
legend
legendary
legends
legion
legislation
lego
lei
leicester
leiden
leigh
leighton
leipzig
lekin
leksik
len
lena
lenburg
lenin
leningrad
leningradda
lennon
lens
lenta
lentalar
lentaning
lentasi
leo
leon
leonard
leonardo
leone
leonid
leopard
leopold
ler
leroy
leryu
les
lesli
leslie
lesoto
less
lessons
lester
let
letter
letters
lev
levante
level
leverkusen
levert
levi
levin
levy
lewandowski
lewis
lex
lexikon
lexington
lexus
ley
leyboristlar
leyden
leyk
leykers
leykotsitlar
leyla
leyn
leyptsig
leytenant
leytenanti
leyton
lez
lg
lga
lgach
lgan
lganda
lgandan
lgandi
lgani
lganida
lganidan
lganidek
lganiga
lganini
lganlar
lganlarga
lganlarning
lganligi
lganligidan
lganligini
lgbt
lgu
lguncha
lgunga
li
lia
liam
liao
liaoning
liard
lib
libdi
liberal
liberia
liberiya
libertadores
liberty
libos
libosi
liboslar
liboslari
libraries
library
license
lichinka
lichinkalari
lichinkasi
lida
lidagi
lidan
lider
lidir
lidiya
lids
lie
lies
life
lifestyle
lifetime
lift
lifts
lig
liga
ligada
ligadagi
ligadan
ligaga
ligani
liganing
ligasi
ligasida
ligasidagi
ligasidan
ligasiga
ligasini
ligasining
light
lightning
lights
ligi
ligini
ligining
ligue
liguria
lik
likda
likdan
like
likely
likka
liklar
likni
likning
lil
lilar
lili
lill
lille
lillian
lilly
lily
lim
lima
limda
limdan
limfa
limfotsitlar
limga
limi
limida
limidan
limiga
limini
limining
limit
limited
limits
limlar
limlardan
limlari
limlarida
limlarini
limni
limning
limon
limot
limoti
limotiga
limotini
limuzen
lin
lina
linadi
lincoln
linda
lindi
lindsay
lindsey
line
lines
lineup
ling
lingan
lingvistik
lini
linib
lining
linish
linishi
liniya
liniyalari
liniyasi
liniyasini
liniyasining
link
linked
linkedin
linkid
linko
linkoln
links
linma
linmalar
linmalari
linmalarini
linmasi
linmasini
linn
linux
linzalar
linzalari
lio
lion
lionel
lionesses
lions
lip
lipa
lipton
liq
liqdir
liqligi
liqligini
liqlik
liqlikni
liqni
lira
lirik
lis
lisa
lish
lishadi
lishda
lishdan
lishdi
lishga
lishgan
lishi
lishib
lishicha
lishida
lishidan
lishiga
lishini
lishining
lishlari
lishni
lisieux
lissabon
list
lista
listed
listen
listing
lists
lit
lite
literary
literatura
literature
literaturi
lithuania
litiy
litr
litrli
litsenziya
litsenziyalangan
litsenziyalash
litsenziyasi
litsenziyasini
litsey
litseyi
little
littlefield
litva
litvada
litvaning
liu
liv
livan
livanlik
live
liverpool
liverpul
lives
living
livingston
liviya
lixtenshteyn
liy
liz
liza
lja
ljal
ljallab
ljallangan
lk
lka
lkashunoslik
lkasi
lkasida
lkasining
ll
lla
llab
lladi
llagan
llanadi
llanadigan
llangan
llanib
llanila
llaniladi
llaniladigan
llanildi
llanilgan
llanilishi
llanilmaydi
llanilmoqda
llanish
llanishi
llanma
llanmalar
llanmalari
llanmani
llanmasi
llanmasini
llar
llarda
llardan
llarga
llari
llarida
llaridan
llariga
llarini
llarining
llarni
llarning
llash
llashga
llashni
llaydi
llc
lleida
ller
lli
llik
lloyd
lm
lma
lmadi
lmagan
lmaganda
lmagani
lmaganlar
lmaganligi
lmas
lmasa
lmasdan
lmasin
lmasligi
lmasligini
lmaslik
lmay
lmaydi
lmaydigan
lmish
lmoq
lmoqda
ln
lni
lning
lo
loan
lob
local
location
locations
lochin
lochisi
lock
lockheed
loeb
log
logan
logistika
logo
logos
logotip
logotipi
loir
loire
loiret
lois
lok
lokal
loki
lokomotiv
lol
lola
lolazor
lom
lombardia
lomlashtirish
lomonosov
lon
london
londonda
londondagi
londonga
londonning
lonely
long
longer
longman
lons
look
looking
looks
lopes
lopez
loq
lord
loren
lorens
lorenzo
lori
lorient
los
lose
loses
losing
loss
lost
lot
lotaringiya
lotin
lotincha
lotinlar
lotus
lou
louell
louis
louise
louisiana
louisville
lourens
lov
lovchi
lovchiga
lovchilar
lovchilarga
lovchini
love
loved
loves
lovi
loving
loviya
lovlar
lovlari
lovlarini
lovlarni
lovni
low
lowe
lower
loy
loydan
loyiha
loyihada
loyihaga
loyihalar
loyihalarda
loyihalari
loyihalarida
loyihalarini
loyihalarni
loyihalash
loyihalashtirilgan
loyihani
loyihaning
loyihasi
loyihasida
loyihasiga
loyihasini
loyihasining
loyiq
loyqa
lozanna
lozim
lp
lpon
lqin
lqini
lqinlar
lqinlari
lqinlarning
lqinli
lqinsimon
lqop
ls
lsa
lsada
lsak
lsalar
lsam
lsang
lsangiz
lsin
lt
ltd
lte
ltig
ltiq
ltu
lu
luara
lub
lubiyat
lubiyatchilik
lubiyatdan
lubiyatga
lubiyati
lubiyatsiz
luc
luca
lucas
lucia
luck
lucky
lucy
ludwig
lug
lugansk
lui
luis
luiz
luiza
luiziana
luka
lukas
luke
lum
lumki
lumot
lumotga
lumoti
lumotiga
lumotlar
lumotlardan
lumotlarga
lumotlari
lumotlaridan
lumotlariga
lumotlarini
lumotlarni
lumotlarning
lumotli
lumotni
lumotnoma
lumpur
luna
lund
lune
lupus
lur
lure
luton
lutz
luvchi
luvchilar
luvr
luxembourg
luxury
lv
lvaro
lvmh
lvov
ly
lynch
lynn
lynx
lyon
lyonnais
lyozma
lyozmalar
lyozmalari
lyozmasi
lyrics
lyu
lyubker
lyubov
lyudmila
lyudovik
lyudvig
lyuis
lyuk
lyuksemburg
lyusi
lı
m
ma
mablag
mac
maccabi
macdonald
macedonia
machi
machine
mack
mackenzie
macmillan
macos
macron
mad
madad
madagaskar
madam
madaniy
madaniyat
madaniyatda
madaniyatga
madaniyati
madaniyatida
madaniyatiga
madaniyatini
madaniyatining
madaniyatlar
madaniyatlari
madaniyatli
madaniyatni
madaniyatning
madaniymeros
made
madh
madhiya
madhiyasi
madhya
madi
madina
madinada
madinaga
madison
madonna
madras
madrasa
madrasada
madrasaga
madrasalar
madrasalari
madrasaning
madrasasi
madrasasida
madrid
madridda
madridga
mae
mafia
mafiya
mafkura
mafkurasi
mafkuraviy
maftun
maftunkor
mag
magan
magazin
magazine
magdalena
maggie
magi
magic
magida
magistr
magistral
magistratura
magistri
magistrlik
magma
magmatik
magnit
magniy
magnus
magyar
mah
mahal
mahalla
mahallada
mahallaga
mahallasi
mahallasida
mahalliy
maharashtra
mahasz
mahbus
mahbuslar
mahbuslarni
mahesh
mahkam
mahkamasi
mahkamasining
mahkamlangan
mahkamlash
mahkamov
mahkum
mahmud
mahmudov
mahobatli
mahorat
mahorati
mahoratini
mahrum
mahsuldor
mahsuli
mahsulot
mahsulotda
mahsulotga
mahsuloti
mahsulotini
mahsulotining
mahsulotlar
mahsulotlarga
mahsulotlari
mahsulotlaridan
mahsulotlariga
mahsulotlarini
mahsulotlarining
mahsulotlarni
mahsulotlarning
mahsulotni
mahsulotning
mai
maiden
mail
main
maine
mainstream
maint
mainz
mais
maishiy
maj
majbur
majburan
majburiy
majburiyat
majburiyati
majburiyatini
majburiyatlar
majburiyatlari
majburiyatlarini
majburiyatlarni
majburlash
majh
maji
majid
majlis
majlisda
majlisi
majlisida
majlisiga
majlisining
majlislar
majmua
majmualari
majmuaning
majmuasi
majmuasida
majmuasini
majmuasining
majmui
majnun
major
majoziy
mak
makao
makaron
make
makedoniya
makedoniyalik
maker
makes
making
makka
makkada
makkaga
makkajo
maklashish
makon
makoni
maks
maksim
maksimal
maksimilian
maksvell
maktab
maktabda
maktabdagi
maktabdan
maktabga
maktabgacha
maktabi
maktabida
maktabiga
maktabini
maktabining
maktablar
maktablarda
maktablarga
maktablari
maktablarida
maktablarining
maktablarni
maktablarning
maktabni
maktabning
maktub
maktubi
maktubida
maktublar
maktublari
mal
mala
malaga
malaka
malakali
malakasini
malavi
malay
malaya
malayalam
malaysia
malaysian
malayziya
malayziyada
malayziyaning
malcolm
maldiv
male
malformed
mali
malik
malika
malikai
malikasi
malina
mall
malla
mallorca
malmo
malo
malone
malta
malum
malumot
mam
mama
mamlakat
mamlakatda
mamlakatdagi
mamlakatdan
mamlakatga
mamlakati
mamlakatida
mamlakatiga
mamlakatimiz
mamlakatimizda
mamlakatini
mamlakatining
mamlakatlar
mamlakatlarda
mamlakatlardagi
mamlakatlardan
mamlakatlarga
mamlakatlari
mamlakatlarida
mamlakatlaridagi
mamlakatlariga
mamlakatlarining
mamlakatlarni
mamlakatlarning
mamlakatni
mamlakatning
mamluk
mamluklar
mammadov
mamnun
mamnuniyat
man
mana
management
manager
manas
manavgat
manba
manbadan
manbaga
manbai
manbalar
manbalarda
manbalardan
manbalarga
manbalari
manbalarida
manbalaridan
manbalariga
manbalarini
manbalarni
manbashunoslik
manbasi
manche
manchester
manchu
mandarin
mandat
mane
manfaat
manfaatdor
manfaati
manfaatini
manfaatlar
manfaatlari
manfaatlariga
manfaatlarini
manfiy
mang
manga
mango
mangu
manguberdi
manhattan
mani
manila
manipulyatsiya
manitoba
manju
manjur
manjurlar
mann
mannheim
manning
mano
manor
mans
mansab
mansabdor
mansfield
manson
mansub
mansubligi
mansur
mansurov
mantiq
mantiqiy
manual
manuel
manufacturing
manutd
manxetten
many
manzara
manzaralari
manzarali
manzarasi
manzil
manzilga
manzilgohi
manzili
mao
maori
maorif
maosh
maoshi
map
mapa
maplandia
maple
maps
maq
maqbara
maqbaralar
maqbarasi
maqbul
maqol
maqola
maqolada
maqolalar
maqolalari
maqolalarni
maqolani
maqolaning
maqolasi
maqolasida
maqom
maqomga
maqomi
maqomiga
maqomini
maqsad
maqsadda
maqsadga
maqsadi
maqsadida
maqsadiga
maqsadini
maqsadlar
maqsadlarda
maqsadlarga
maqsadlari
maqsadlarida
maqsadlariga
maqsadlarini
maqsadlarni
maqsadli
maqsadni
maqtab
maqtadi
maqtov
maqtovga
mar
mara
marafon
marat
marathi
marathon
marc
marca
marcel
marcelo
march
marche
marco
marcos
marcus
mard
mardlik
mare
marg
marganets
margaret
margarita
marhamat
marhum
marhumning
mari
maria
marian
mariana
marie
marilyn
marin
marina
marine
mariners
marino
mario
marion
mariya
marjon
mark
marka
markali
markasi
markaz
markazda
markazdan
markazga
markazi
markazida
markazidagi
markazidan
markazidir
markaziga
markazigacha
markazini
markazining
markaziy
markazlar
markazlari
markazlarida
markazlaridan
markazlariga
markazlarini
markazlashgan
markazlashtirilgan
markazning
market
marketing
markets
markle
marko
markos
markov
marks
marksistik
marksizm
markus
marmar
marmara
marmardan
marokash
marokashning
marosim
marosimda
marosimi
marosimida
marosimidan
marosimiga
marosimini
marosimlar
marosimlarda
marosimlari
marosimlarida
marosimlarni
marotaba
marraga
marriage
married
marries
mars
marsan
marseille
marsel
marsh
marshal
marshali
marshall
marshrut
mart
marta
martaba
martabali
martadan
martalik
martda
martdagi
martdan
marten
martens
martgacha
marth
martha
marti
martial
martida
martidan
martigacha
martin
martina
martines
martinez
martinning
martins
marv
marvarid
marvel
marvin
mary
maryam
maryamning
maryland
mas
masa
masala
masalaga
masalalar
masalalarda
masalalarga
masalalari
masalalariga
masalalarini
masalalarni
masalan
masalani
masalasi
masalasida
masalasiga
masalasini
mash
mashaqqatli
mashg
mashgan
mashhad
mashhur
mashhurdir
mashhuri
mashhurlar
mashhurlari
mashhurligi
mashhurligini
mashhurlik
mashhurlikka
mashina
mashinada
mashinaga
mashinalar
mashinalari
mashinalarini
mashinalarni
mashinalarning
mashinani
mashinaning
mashinasi
mashinasida
mashinasini
mashinasozligi
mashinasozlik
mashq
mashqlar
mashqlari
mashqlarida
mashrab
mashxur
masi
masih
masihning
masjid
masjidda
masjidga
masjidi
masjidida
masjidining
masjidlar
masjidlari
masjidni
masjidning
mask
maskan
maskani
maskanlari
maslahat
maslahatchi
maslahatchilar
maslahatchilari
maslahatchisi
maslahati
maslahatlar
masnaviy
masofa
masofada
masofadan
masofaga
masofalarga
masofali
masofani
masofasi
masofaviy
mason
mass
massa
massachusets
massachusetts
massaj
massalari
massasi
massasiga
massasini
massasining
massimo
massiv
massive
mast
master
mastercard
masters
masxara
mat
mata
matbaa
matbuot
matbuotda
matbuoti
matbuotida
match
matches
matchfakta
mate
matematigi
matematik
matematika
matematikada
mateo
material
materialdan
materiali
materiallar
materiallardan
materiallarga
materiallari
materiallarini
materiallarni
materiallarning
materialni
materialning
materials
materik
materiya
math
mathbf
mathematical
mathematics
mathrm
mathsf
matic
matilda
matildas
matn
matnda
matni
matnini
matnlar
matnlari
matnlarni
matnli
matnni
matnning
mato
matodan
matolar
matritsa
matrix
mats
matt
matteo
matter
matters
matthew
matthews
matthias
maurice
mauro
mav
mavericks
mavhum
mavjud
mavjuddir
mavjudligi
mavjudligiga
mavjudligini
mavjudlik
mavjudot
mavjudotlar
mavlono
mavqe
mavqega
mavqei
mavqeiga
mavqeini
mavrikiy
mavritaniya
mavsum
mavsumda
mavsumdagi
mavsumdan
mavsumga
mavsumi
mavsumida
mavsumidan
mavsumiga
mavsumini
mavsumining
mavsumiy
mavsumlarda
mavsumlarida
mavsumlik
mavsumni
mavsumning
mavsumoldi
mavzu
mavzuda
mavzudagi
mavzuga
mavzui
mavzuidagi
mavzular
mavzularda
mavzularga
mavzulari
mavzularni
mavzuni
mavzusi
mavzusida
mavzusidagi
mavzusiga
mavzusini
max
maxdum
maxfiy
maxfiylik
maxim
maximilian
maxsus
may
maya
mayami
mayd
mayda
maydagi
maydalab
maydalangan
maydalash
maydan
maydi
maydigan
maydon
maydonchalari
maydonchasi
maydonchasida
maydonda
maydondagi
maydondan
maydonga
maydoni
maydonida
maydonidagi
maydonidan
maydonidir
maydoniga
maydonini
maydonining
maydonlar
maydonlarda
maydonlari
maydonlarida
maydonlarini
maydonlarni
maydonni
maydonning
maye
mayer
maygacha
mayida
mayigacha
mayin
mayiz
mayk
maykl
mayl
mayli
maymun
maymunlar
mayna
mayo
mayoq
mayor
mayori
maysa
maysalarni
maysaraning
maysazor
mayweather
mayya
mayıs
maz
maza
mazali
mazasi
mazax
mazda
mazhabi
mazkur
mazmun
mazmunan
mazmundagi
mazmuni
mazmuniga
mazmunini
mazmunli
mb
mba
mbc
mbe
mbit
mbox
mc
mccarthy
mccartney
mcclain
mcdonald
mcfarland
mcgrath
mcgraw
mcgregor
mchj
mckenna
mckinsey
mclaren
mcnary
mcnulty
mcqueen
mcu
md
mdh
me
mean
meaning
means
meat
mebel
mecklenburg
med
medal
medalga
medali
medaliga
medalini
medallar
medallari
medallarini
medallarni
medallni
medalni
medalning
medals
medalyon
media
medial
medical
medicine
medien
medieval
medina
mediterranean
meditsina
medium
meduza
medvedev
meet
meeting
meets
meg
mega
megan
megapiksel
megapikselli
meghan
meh
mehdi
mehmed
mehmet
mehmon
mehmonda
mehmondo
mehmoni
mehmonlar
mehmonlarga
mehmonlarni
mehmonxona
mehmonxonada
mehmonxonalar
mehmonxonasi
mehmonxonasida
mehnat
mehnatga
mehnati
mehnatkash
mehnatni
mehr
mehri
mehribon
mehribonlik
mehrob
mehrobdan
mehta
mei
meiji
mein
mejdunarodnoy
mek
meksika
meksikada
meksikadagi
meksikaga
meksikalik
meksikaning
meksiko
mel
melania
melanie
melbourne
melburn
melinda
meliorativ
melioratsiya
melissa
member
members
membrana
memfis
memoir
memoirs
memorandum
memorial
memories
memory
memphis
men
mena
menda
mendan
mendeleyev
mendes
mendoza
menejer
menejeri
menejerlar
menejment
menejmenti
menga
meni
menimcha
mening
menon
ment
mental
mer
mera
mercato
mercedes
mercer
merchant
merck
mercury
mere
merfi
merger
meri
meridian
merilend
merkel
merkez
merkuriy
merlin
meros
merosi
merosiga
merosini
merosining
merosni
merosning
merosxo
merriam
mersin
mes
mesa
mesopotamiya
message
messenger
messi
messier
messina
met
meta
metabolik
metacritic
metal
metall
metallar
metallarni
metallarning
metalldan
metallga
metallni
metallsozlik
metallurg
metallurgiya
metamorfik
metamorfozi
metan
meteorologik
meteorologiya
method
methods
metil
metin
metlife
metod
metodi
metodik
metodikasi
metodist
metodlari
metr
metrajli
metrdan
metrga
metrgacha
metrik
metrli
metrlik
metrni
metro
metropolitan
metropoliten
metropoliteni
metrosi
mett
metyu
metz
meurthe
meuse
meva
mevalar
mevalari
mevalarni
mevali
mevasi
mexanik
mexanika
mexanikasi
mexanizatsiyalash
mexanizatsiyalashgan
mexanizm
mexanizmi
mexanizmini
mexanizmlar
mexanizmlari
mexanizmlarini
mexican
mexico
mexiko
mey
meydzi
meyer
meyers
meyn
mez
mezbon
mezbonlar
mezbonlik
mezolit
mezon
mezoni
mezonlar
mezonlari
mezozoy
mfa
mfy
mg
mga
mgm
mgts
mi
mia
miami
mib
michael
michel
michele
michelle
michigan
mickey
micro
microbiology
microsoft
mid
middle
middlesbrough
midfielder
midiya
midlsbro
midnight
mie
mifflin
mifi
mifologicheskaya
mifologik
mifologiya
mifologiyasi
mifologiyasida
mifologiyasidagi
mifologiyasining
mig
miga
migel
might
mighty
migration
migratsiya
migratsiyasi
miguel
mijoz
mijozlar
mijozlarga
mijozlari
mijozlariga
mijozlarni
mik
mikael
mike
mikel
mikelanjelo
mikhail
mikki
mikro
mikrobiologiya
mikroblar
mikrofon
mikroorganizmlar
mikroskop
mikroskopik
mikroto
mil
milan
milanda
milano
mile
miles
milestone
milgan
mili
milish
military
militsiya
milk
mill
millat
millatchi
millatchilik
millati
millatiga
millatlar
millatlararo
millatli
millatning
millennium
miller
milli
milliard
milliarddan
milliarder
millimetr
millimetrli
million
milliondan
millionga
millionlab
millionni
millions
milliy
milliyet
mills
millwall
milner
miloddan
milodiy
miltig
miltiq
milton
miluoki
milwaukee
milya
min
mina
minas
mind
mindat
minds
mine
mineral
minerali
minerallar
minerallari
minerallarning
mineralogiya
ming
mingboshi
mingdan
mingga
minglab
mingta
mingyillik
minh
mini
miniatyura
minib
minimal
minimum
mining
minish
minister
ministrlar
ministry
minlab
minladi
minlagan
minlanadi
minlandi
minlangan
minlanishi
minlash
minlashda
minlashga
minlashi
minlashni
minlay
minlaydi
minlaydigan
minlovchi
minnatdorchilik
minneapolis
minnesota
minor
minora
minoralar
minoralari
minoraning
minorasi
minority
minot
minoti
minotini
minotni
minov
minsk
mint
mintaqa
mintaqada
mintaqadagi
mintaqaga
mintaqalar
mintaqalarda
mintaqalari
mintaqalarida
mintaqani
mintaqaning
mintaqasi
mintaqasida
mintaqasidagi
mintaqasiga
mintaqasining
mintaqaviy
minus
minut
minute
minutes
mio
miokard
miq
miqdor
miqdorda
miqdordagi
miqdori
miqdorida
miqdoridagi
miqdoriga
miqdorini
miqdorining
miqdoriy
miqyosda
miqyosdagi
miqyosida
miqyosidagi
mir
mira
miracle
miraculous
mirage
miranda
mirdan
mirlandi
mirlangan
mirlash
mirmuhsin
mirren
mirror
mirtemir
mirza
mirzacho
mirzayev
mirziyoyev
mirzo
mirzoning
mis
misdan
mish
mishel
mishlar
mishlarga
mishra
misli
miso
misol
misoli
misolida
misollar
misr
misra
misrda
misrdagi
misrga
misrlik
misrliklar
misrni
misrning
miss
missile
missing
mission
missioner
missionerlik
missisipi
mississippi
missiya
missiyasi
missiyasini
missouri
missuri
mister
mistik
mit
mita
mitalari
mitasi
mitasida
mitasiga
mitasini
mitasining
mitch
mitchell
mitsubishi
mitti
miura
mix
mixail
mixaylovich
mixed
miy
miya
miyacha
miyada
miyaga
miyaning
miyasi
miz
mj
mjx
mk
mkm
ml
mlb
mli
mlik
mln
mlrd
mls
mlssoccer
mm
mma
mn
mni
mo
mobaynida
mobil
mobile
mod
moda
modasi
modda
moddada
moddadan
moddalar
moddalardan
moddalarga
moddalari
moddalarni
moddalarning
moddaning
moddasi
moddasida
moddasiga
moddiy
mode
model
modelga
modeli
modeliga
modelini
modelining
modellar
modellarda
modellari
modellarida
modellarini
modellarni
modellashtirish
modellik
modelni
modelning
models
modena
modern
modernizatsiya
modi
modifikatsiyasi
modul
moduli
modulli
mog
mohamed
mohammad
mohammed
mohanlal
mohir
mohirlik
mohirona
mohiyat
mohiyati
mohiyatini
mohun
mojaro
mojarolar
mojarosi
mojo
mojoda
mol
molchi
molchilar
molchilarga
moldaviya
molde
moldova
molecular
molekula
molekulalar
molekulalari
molekulalarning
molekulasi
molekulyar
molga
moli
molibden
molik
molina
molini
molise
moliya
moliyalashtiriladi
moliyalashtiriladigan
moliyalashtirilgan
moliyalashtirish
moliyaviy
mollar
mollari
mollarini
mollarni
molly
mollyuskalar
molni
molotov
mom
momaqaldiroq
moment
momenti
moments
momo
mon
mona
monaco
monako
monand
monarx
monarxiya
monastir
monastiri
monday
monde
mondon
mondoni
mondonligi
mondonlik
money
mongol
mongolia
mongoliya
monica
monika
monitor
monitoring
monitoringi
monkey
mono
monografiya
monopoliyaga
monreal
monrealda
monroe
monster
monsters
mont
montaj
montana
montbard
montbe
montbrison
monte
montenegro
monterrey
montevideo
montgomeri
montgomery
month
monthly
months
montpellier
montreal
monument
monumental
monuments
monza
moon
moore
moq
mor
morales
morbihan
morchiligi
morchiligida
morchiligining
morchilik
more
moreno
morfologik
morfologiya
morfologiyasi
morgan
mori
moris
moriy
morlar
morlari
morligi
morligida
morlik
morning
morocco
morris
morrison
mortagne
mortal
mortality
morton
mos
moscow
moselle
mosh
moskva
moskvada
moskvadagi
moskvadan
moskvaga
moskvaning
moslab
moslama
moslamalari
moslamasi
moslashgan
moslashish
moslashtirilgan
moslashtirish
moslashuvchan
moslashuvi
mosque
moss
most
mosul
mot
motam
mother
motherwell
motion
motivatsiya
motor
motorli
motorola
motors
motorsport
mototsikl
mount
mountain
mouse
mov
movarounnahr
movarounnahrda
move
movement
moves
movie
movies
moving
moviy
movut
moy
moya
moye
moyi
moyil
moyilligi
moyillik
moylari
moyli
mozaika
mozambik
mozandaron
mozilla
mozor
mozori
mp
mpa
mph
mr
mrow
mrs
mrt
ms
msn
msnbc
msubsup
mt
mtext
mtoq
mtv
mu
muallif
muallifi
muallifidir
muallifiga
mualliflar
mualliflari
mualliflaridan
mualliflarning
mualliflik
muallifning
muallim
muammo
muammoga
muammolar
muammolardan
muammolarga
muammolari
muammolariga
muammolarini
muammolarni
muammoli
muammoni
muammosi
muammosini
muassasa
muassasalar
muassasalarda
muassasalari
muassasalarida
muassasalariga
muassasalarini
muassasalarining
muassasasi
muayyan
mubolag
muborak
much
mudarris
muddat
muddatda
muddatdan
muddatga
muddati
muddatidan
muddatini
muddatli
mudiri
mudofaa
mudofaasi
mudofaasini
mufassal
muftiy
mug
mughal
muh
muhabbat
muhabbati
muhaddis
muhamedov
muhammad
muhammadga
muhammadiy
muhammadjonov
muhammadning
muhammadxon
muhandis
muhandisi
muhandislar
muhandislari
muhandisligi
muhandislik
muharrir
muharriri
muharrirlar
muharrirlari
muharrirlik
muhiddin
muhim
muhimdir
muhimi
muhimligini
muhit
muhitda
muhitdan
muhitga
muhiti
muhitida
muhitiga
muhitini
muhitni
muhitning
muhofaza
muhofazasi
muhofazasiga
muhojir
muhojirlar
muhojirlari
muhojirlarning
muhokama
muhr
muhri
muhrlangan
muhsin
muhtaram
muhtasham
muhtoj
mujassam
mukammal
mukammallik
mukofot
mukofotga
mukofoti
mukofotida
mukofotiga
mukofotini
mukofotining
mukofotlangan
mukofotlar
mukofotlarga
mukofotlari
mukofotlarida
mukofotlariga
mukofotlarini
mukofotlarni
mukofotlash
mukofotni
mukofotning
mulk
mulkchilik
mulki
mulkiga
mulkini
mulkiy
mulkka
mulklari
mulklarini
mulkni
mulkning
mulla
muller
mulohaza
mulohazalar
muloqot
muloqotda
muloyim
multfilm
multfilmi
multfilmlar
multfilmlari
multi
multimedia
multiple
mum
mumbai
mumbay
mumbayda
mumbaydagi
mumkin
mumkinki
mumkinligi
mumkinligiga
mumkinligini
mumkun
mumtoz
mun
muncha
mundial
mundo
munich
municipal
municipalities
municipality
municipio
municipios
munis
munisipalitet
munisipalitetdir
munisipalitetidagi
munitsipal
munitsipalitet
munitsipaliteti
munitsipalitetida
munitsipalitetidagi
munitsipalitetiga
munitsipalitetining
munitsipalitetlar
munitsipalitetlari
munosabat
munosabatda
munosabati
munosabatini
munosabatlar
munosabatlarda
munosabatlardir
munosabatlarga
munosabatlari
munosabatlarida
munosabatlariga
munosabatlarini
munosabatlarining
munosabatlarni
munosabatlarning
munosabatni
munosib
munozara
munozaralar
munozaralarga
munozarali
muntazam
muomala
muomalada
muomalaga
muomalasi
muovini
muoviya
muqaddam
muqaddas
muqaddima
muqarrar
muqim
muqimiy
muqobil
muqova
muqovasi
muqovasida
mur
mura
murabba
murabbiy
murabbiyi
murabbiylar
murabbiylari
murabbiylik
murabbo
murakkab
murakkabligi
murakkabroq
murat
murch
murda
murder
murg
muri
murii
muriy
muriyat
muriyati
muriyatiga
muriyatining
murlari
murod
murodov
murodxon
murojaat
murosa
murosaga
murosasiz
murphy
murray
murtak
mus
musa
musahhih
musajonov
musayev
musbat
muse
museo
museum
museums
mush
mushak
mushaklar
mushaklari
mushaklarning
mushkul
musht
mushtum
mushugi
mushuk
mushuklar
music
musical
musika
musiqa
musiqachi
musiqachidir
musiqachilar
musiqachisi
musiqada
musiqaga
musiqali
musiqani
musiqaning
musiqasi
musiqasida
musiqasiga
musiqasini
musiqasining
musiqiy
musk
muskat
muskul
muskullar
muskullari
muslim
muslims
muso
musobaqa
musobaqada
musobaqadagi
musobaqadan
musobaqaga
musobaqalar
musobaqalarda
musobaqalari
musobaqalarida
musobaqani
musobaqaning
musobaqasi
musobaqasida
musobaqasiga
musobaqasining
musodara
musson
must
mustabid
mustafa
mustafo
mustahkam
mustahkamladi
mustahkamlandi
mustahkamlangan
mustahkamlash
mustahkamlashga
mustahkamligi
mustamlaka
mustamlakachi
mustamlakachilar
mustamlakachilik
mustamlakasi
mustaqil
mustaqilligi
mustaqilligiga
mustaqilligini
mustaqilligining
mustaqillik
mustaqillikdan
mustaqillikka
mustaqillikni
mustasno
musulmon
musulmonlar
musulmonlarga
musulmonlari
musulmonlarni
musulmonlarning
mut
mutafakkir
mutanosib
mutant
mutaxassis
mutaxassisi
mutaxassislar
mutaxassislari
mutaxassislarni
mutaxassislarning
mutaxassisligi
mutaxassislik
mutlaq
mutlaqo
muttasil
mutual
muvaffaq
muvaffaqiyat
muvaffaqiyatga
muvaffaqiyati
muvaffaqiyatidan
muvaffaqiyatiga
muvaffaqiyatini
muvaffaqiyatlar
muvaffaqiyatlarga
muvaffaqiyatlari
muvaffaqiyatli
muvaffaqiyatsiz
muvaffaqiyatsizlik
muvaffaqiyatsizlikka
muvaqqat
muvofiq
muvofiqlashtirish
muvofiqlashtiruvchi
muvofiqligi
muvofiqlik
muvozanat
muvozanati
muvozanatini
muvozanatli
muvozanatni
muxbir
muxbiri
muxbirlar
muxlis
muxlisi
muxlislar
muxlislari
muxlislarning
muxolifat
muxtor
muxtoriyat
muxtoriyati
muyassar
muz
muzaffar
muzdan
muzey
muzeyda
muzeyga
muzeyi
muzeyida
muzeyidagi
muzeyiga
muzeyining
muzeylar
muzeylari
muzeyning
muzika
muzlab
muzlatilgan
muzli
muzlik
muzliklar
muzokara
muzokaralar
muzokaralarda
muzokaralardan
muzokaralarni
muzqaymoq
mv
mvp
mvt
mw
mx
my
myanma
myanmar
myers
myself
mystery
mystics
myth
mythology
myuller
myunxen
myunxenda
myunxendagi
myurrey
n
na
naar
nab
nabi
nabirasi
nac
nach
nacional
nacstat
nad
nadal
nadejda
nadi
nadigan
nadiya
nadu
naf
nafaqa
nafaqadagi
nafaqaga
nafaqat
nafar
nafardan
nafarga
nafari
nafarni
nafas
nafasi
nafis
nafrat
nag
naga
nagano
nagasaki
nagorno
nagoya
nair
najmiddin
najot
naked
nal
nalgan
nalish
nalishda
nalishdagi
nalishga
nalishi
nalishida
nalishidagi
nalishiga
nalishini
nalishlar
nalishlarda
nalishlarga
nalishlari
nalishlarida
nalishlaridan
nalishlarini
nalishni
naltirilgan
naltirish
nam
namangan
name
named
names
namibiya
namligi
namlik
namoyandalari
namoyandasi
namoyish
namoyishchilar
namoyishi
namoyishlar
namoyishlari
namoyon
namoz
namozi
namuna
namunalar
namunalari
namunalaridan
namunalarini
namunali
namunasi
namunasidir
namunaviy
nan
nana
nancy
nandi
nankin
nano
naomi
napoleon
napoli
naq
naqadar
naqd
naqqosh
naqsh
naqshband
naqshbandiya
naqshlar
naqshlari
naqshli
nar
nara
narayan
nari
narida
narigi
narimon
narimonov
narkotik
narod
narodov
narsa
narsadan
narsaga
narsalar
narsalardan
narsalarga
narsalarni
narsalarning
narsani
narsaning
narvon
narvoy
narx
narxda
narxi
narxini
narxining
narxlar
narxlarda
narxlari
narxlarni
nas
nasa
nasabi
nasaf
nasafiy
nasaning
nasdaq
naseleniya
nash
nasha
nashr
nashrda
nashrdan
nashrga
nashri
nashrida
nashriga
nashrini
nashrining
nashriyot
nashriyoti
nashriyotida
nashrlar
nashrlarda
nashrlari
nashrlarida
nashrni
nashrning
nashville
nasi
nasib
nasihat
nasl
naslchilik
nasos
nasr
nasri
nasriddin
nasriy
nasroniy
nasroniylar
nasroniylik
nasrulloh
nast
nat
natadi
natali
natalia
natalie
natalya
natasha
natdi
nate
natgan
nathan
nati
natib
natija
natijada
natijaga
natijalar
natijalarga
natijalari
natijalariga
natijalarini
natijalarni
natijani
natijasi
natijasida
natijasidir
natijasiga
natijasini
natildi
natilgan
nation
national
nationale
nationalism
nations
nationwide
natish
native
nato
natoga
natoning
natriy
natsistlar
natur
natural
nature
nauchno
nauk
nauka
nauki
nav
naval
navarra
navarro
navbahor
navbat
navbatda
navbatdagi
navbatdan
navbati
navbatida
navbatma
naver
navi
navigator
navigatsiya
naviy
naviyat
navlar
navlari
navlarini
navli
navo
navoiy
navoiyning
navro
navy
naxchivon
naxichevan
nay
naycha
nayman
nayrang
naysimon
nayza
nazar
nazarboyev
nazarda
nazardan
nazarga
nazari
nazarida
nazaridan
nazariy
nazariya
nazariyaga
nazariyalar
nazariyalari
nazariyani
nazariyasi
nazariyasida
nazariyasiga
nazariyasini
nazariyasining
nazariyotchisi
nazarov
nazi
nazionale
nazir
nazm
nazorat
nazoratchi
nazoratga
nazorati
nazoratida
nazoratiga
nazoratini
nazoratni
nb
nba
nbadagi
nbaning
nbc
nbsp
nc
ncaa
ncbi
nchen
nchez
nchilik
nd
nda
ndalang
ndan
nde
nden
ndez
ndi
ndice
ndtv
ne
neal
neapol
near
nearly
nebraska
nec
necha
nechta
nechtasi
ned
need
needs
neft
neftchi
neftni
neftning
nega
negizida
neha
neil
neill
nektar
nel
nelli
nellie
nelson
nem
nemis
nemischa
nemislar
nemislarning
nen
nensi
neo
neogen
neoklassik
neolit
neon
nepal
nepalda
neptun
ner
neru
nerv
nervi
nervlar
nes
nestle
net
netflix
netherlands
nets
network
networks
neue
neufcha
neural
neuroscience
neustadt
neva
nevada
nevarasi
never
nevrologik
nevrologiya
nevskiy
new
newcastle
newest
newman
newport
news
newsen
newsletter
newspaper
newspapers
newsroom
newsweek
newswire
newton
next
ney
neyron
neyronlar
neytral
neytron
neytronlar
nez
nf
nfl
ng
nga
ngach
ngan
ngc
ngda
ngdan
ngel
ngga
nggi
ngi
ngida
ngil
ngilizce
ngilli
ngillilar
ngilochar
ngli
ngliga
nglim
nglini
ngo
ngra
ngu
nguye
nguyen
nh
nha
nhk
nhl
nhlda
nhldagi
nhlga
nhs
ni
nia
niagara
nib
nic
nica
nice
nicholas
nichols
nicholson
nick
nickelodeon
nickname
nico
nicola
nicolas
nicole
niderlandcha
niderlandiya
niderlandiyada
niderlandiyaning
nie
nielsen
nig
niga
nigel
niger
nigeria
nigeriya
nigeriyalik
nigeriyaning
night
nih
nihol
nihon
nihoyasiga
nihoyat
nihoyatda
niigata
nijniy
nik
nika
nikaragua
nike
nikel
niki
nikita
nikki
nikmalar
nikmalarini
nikmalarni
nikoh
nikohda
nikohdan
nikohga
nikohi
nikohidan
nikohni
nikol
nikola
nikolaev
nikolaevich
nikolas
nikolay
nikolayevich
nikson
nil
nilsson
nilufar
nim
nima
nimadir
nimaga
nimani
nimchorak
nimjon
nin
nina
ninchi
nine
nineteenth
ning
nini
nino
nintendo
nio
nippon
niqob
niqobi
nirvana
nis
nisan
nisanyanmap
nisbat
nisbatan
nisbatda
nisbati
nisbiy
nisbiylik
nish
nishi
nishon
nishonga
nishoni
nishonining
nishonladi
nishonlanadi
nishonlanadigan
nishonlandi
nishonlangan
nishonlari
nishonlash
nishonlaydi
nishonning
niso
nissan
nitrat
niversitesi
nixon
niy
niya
niyasi
niyat
niyati
niyatida
niyatini
nizo
nizolar
nizolarni
nizom
nizomga
nizomi
nizomiy
nj
nk
nka
nkvd
nl
nlab
nli
nlik
nlm
nm
nmas
nme
nmoq
nn
no
noah
noan
noaniq
noaniqlik
nobel
nobelprize
noble
nobud
nochor
nod
noda
nodagi
nodavlat
nodir
nodira
nodirshoh
nodon
noel
nog
noga
nogiron
nogironlar
nogironlik
nohaq
noibi
noir
nojo
nok
nokaut
nokautga
nokia
nol
nola
nolan
nolar
nolari
nolarini
nolarni
nolga
noli
nom
noma
nomaqbul
nomda
nomdagi
nomga
nomi
nomida
nomidagi
nomidan
nomiga
nominal
nominated
nomination
nominations
nominatsiya
nominatsiyasi
nominatsiyasida
nominatsiyasiga
nominatsiyasini
nominees
nomini
nomining
nomladi
nomlagan
nomlanadi
nomlandi
nomlangan
nomlanishi
nomlanuvchi
nomlar
nomlari
nomlarini
nomlash
nomli
nomni
nomoddiy
nomsiztepa
nomus
nomz
nomzod
nomzodi
nomzodini
nomzodlar
nomzodlari
nomzodlarni
nomzodlik
non
noni
nonni
nonushta
noodatiy
noor
noorganik
nopok
noq
noqonuniy
noqulay
nor
nora
norasmiy
nord
nordfriesland
nordic
nordon
norfolk
norin
norma
normal
normalar
normalari
norman
normandiya
normativ
norozi
noroziligi
noroziligiga
norozilik
norris
norte
north
northampton
northeast
northern
northrop
northwest
northwestern
norton
norveg
norvegcha
norvegiya
norvegiyada
norvegiyaga
norvegiyalik
norvegiyaning
norvich
norway
norwegian
norwich
nos
noshir
nosi
nosida
nosidan
nosiga
nosini
nosir
not
nota
notanish
note
notekis
notes
nothing
noti
notice
noticias
notification
notijorat
notinch
notiq
notiqlik
noto
notr
notre
nottingem
nottingham
notts
nou
nouveau
nov
nova
novak
novara
novartis
novaya
novda
novdalar
novdalari
novdasi
novel
november
novgorod
novi
noviy
novo
novosibirsk
novosti
novqat
now
noxush
noyabr
noyabrda
noyabrdagi
noyabrdan
noyabrgacha
noyabrida
noyabrigacha
noyabrya
noyob
noz
nozik
nozil
np
npr
nr
ns
nsa
nscaa
nsf
nsw
nsx
nt
nta
ntak
ntalikka
ntarish
ntarishi
ntarishidan
ntv
nu
nuclear
nueva
nuevo
nufusu
nufusune
nufuzli
nuggets
nuh
nukus
num
number
numberempire
numbers
nun
nunes
nuovo
nuqson
nuqsoni
nuqsonlar
nuqsonlari
nuqsonli
nuqta
nuqtada
nuqtadan
nuqtaga
nuqtai
nuqtalar
nuqtalari
nuqtali
nuqtaning
nuqtasi
nuqtasida
nuqtasidan
nuqtasiga
nuqtasini
nur
nurali
nurash
nuri
nurida
nuriddin
nurini
nuriy
nurlanish
nurlanishi
nurlar
nurlari
nurli
nurota
nurov
nursulton
nus
nusxa
nusxada
nusxadan
nusxalar
nusxalari
nusxalarini
nusxasi
nusxasini
nutq
nutqi
nutqida
nutqni
nutqning
nutrition
nwhl
nwsl
ny
nya
nyc
nyons
nytimes
nyu
nyukasl
nyurnberg
nyuton
nz
nın
o
oaj
oak
oakland
oaks
oav
ob
obama
obi
obid
obidalar
obidov
obituary
object
oblast
oblasti
obod
obodonlashtirish
obra
obraz
obrazi
obrazini
obrazlar
obrazlari
obro
observatory
observer
obuna
obyekt
obyektdir
obyekti
obyektiv
obyektlar
obyektlari
obyektni
oc
ocak
ocean
oceania
och
ochadi
ocharchilik
ochdan
ochdi
ocherk
ocherki
ocherklar
ochga
ochgan
ochi
ochib
ochil
ochiladi
ochiladigan
ochilar
ochildi
ochilgan
ochilganda
ochilib
ochilish
ochilishi
ochilishida
ochilmoq
ochiq
ochiqchasiga
ochiqdan
ochish
ochishga
ochishni
ochisi
ochko
ochkoga
ochkolar
ochkolari
ochkolik
ochkoni
ochkosini
ochlar
ochlik
ochlikdan
ochmoq
ochni
ochsozlik
ocl
oclc
oct
octeville
october
od
oda
odam
odamda
odamdan
odamga
odami
odamlar
odamlarda
odamlardan
odamlarga
odamlari
odamlarni
odamlarning
odamni
odamning
odat
odatda
odatdagi
odatdagidan
odatdagidek
odati
odatiy
odatlar
odatlari
odd
oddiy
oddiygina
oder
odessa
odi
odil
odin
odisseya
odob
oecd
of
ofat
ofatlar
ofc
off
offda
offensive
offer
offers
offga
office
officer
official
officially
officials
officiel
offning
offs
oficia
oficial
ofis
ofisi
ofislari
ofitser
ofitseri
ofitserlar
ofitserlari
ofk
often
oftob
oftobda
ofur
ofurov
ofy
og
ogahiy
ogayo
ogohlantirdi
ogohlantirish
oh
ohak
ohaktosh
ohang
ohangaron
ohangi
ohanglari
ohio
ohista
ohl
oid
oil
oila
oilada
oiladagi
oiladan
oilaga
oilalar
oilalarga
oilalari
oilalariga
oilalarning
oilali
oilani
oilaning
oilasi
oilasida
oilasidan
oilasiga
oilasini
oilasining
oilasizlar
oilaviy
oilers
ois
oise
oits
oiv
ojiz
ojizlar
ok
oka
okean
okeani
okeanida
okeanidagi
okeaniga
okeanining
okeaniya
okeanning
oklahoma
oklaxoma
oklend
okrug
okrugda
okrugi
okrugida
okrugidagi
okrugidan
okrugiga
okrugining
okruglari
okrugning
oksana
oksford
oksid
oksidi
oksidlanish
oksidlovchi
oktabr
oktabrda
oktabrdagi
oktabrdan
oktabrgacha
oktabrida
oktabrya
oktava
oktyabr
oktyabrda
oktyabrdan
oktyabrgacha
oktyabrida
ol
ola
oladi
oladigan
oladilar
olam
olaman
olamdan
olami
olamida
olamidagi
olamiga
olamining
olamiz
olamlar
olamni
olamning
olar
olardi
olay
olayotgan
olcha
old
oldenburg
oldest
oldham
oldi
oldida
oldidagi
oldidan
oldiga
oldilar
oldim
oldin
oldinda
oldindan
oldinga
oldingi
oldini
oldinroq
oldirmoq
oldu
ole
oleg
oleksandr
olg
olga
olgach
olgan
olganda
olgandan
olgani
olganida
olganidan
olganini
olganlar
olganligi
oli
olib
olibi
olibiga
oliblar
oliblari
oliblikni
olijanob
olim
olima
olimi
olimjon
olimlar
olimlardan
olimlari
olimlarining
olimlarni
olimlarning
olimning
olimpbase
olimpia
olimpiada
olimpiadada
olimpiadalarida
olimpiadasi
olimpiadasida
olimpiadasining
olimpik
olimpiya
olimxon
olinadi
olinadigan
olindi
oling
olingan
olingandan
olingani
olinganidan
olingunga
olinib
olinishi
olinishiga
olinishini
olinmagan
olinmaydi
olinsa
olis
olish
olishadi
olishda
olishdan
olishdi
olishga
olishgan
olishi
olishiga
olishingiz
olishini
olishlari
olishmadi
olishni
olishning
oliveira
oliver
olivia
olivier
oliy
olm
olma
olmadi
olmadilar
olmagan
olmaganda
olmagani
olmaganidan
olmaliq
olmaota
olmasa
olmasligi
olmasligini
olmaslik
olmay
olmaydi
olmaydigan
olmaydilar
olmayman
olmon
olmoncha
olmoniya
olmoq
olmoqchi
olmoqda
olmos
olomon
olon
olonchilar
olonga
oloni
olonini
olonlar
olonlari
olonni
oloron
olov
olovda
olovga
olovi
olovli
olovni
oloy
olqishiga
olqishlarga
olsa
olsak
olsen
olti
oltiariq
oltilik
oltin
oltinchi
oltindan
oltingugurt
oltita
oltmish
oltmishlik
oltoy
oltu
oluvchi
oluvchilar
olxo
olya
olympedia
olympia
olympiad
olympic
olympics
olympique
om
omad
omadli
omadsiz
oman
omar
ombor
ombori
omborida
omborlari
omega
omi
omil
omili
omillar
omillardan
omillarga
omillari
omillarni
omillarning
omma
ommabop
ommaga
ommalashgan
ommalashib
ommalashtirish
ommaviy
omon
omonat
omsk
on
ona
onada
onadan
onado
onaga
onalar
onalarga
onalari
onalarning
onali
onalik
onam
onamning
onani
onaning
onasi
onasida
onasidan
onasiga
onasini
onasining
onat
once
onchi
onda
ondan
one
oneplus
ong
onga
ongi
ongida
ongini
ongli
ongni
ongning
ongsiz
oni
onish
oniston
onistonda
onistondagi
onistondan
onistonga
onistonning
oniy
onkologiya
onlar
onlari
onlayn
online
only
onni
onning
ono
ons
onsen
onsoranje
ont
ontario
ontepa
op
opa
opasi
opel
open
openda
opener
opening
opens
opera
operasi
operating
operation
operations
operativ
operator
operatori
operatorlar
operatorlari
operatorname
operatsion
operatsiya
operatsiyadan
operatsiyalar
operatsiyalari
operatsiyalarini
operatsiyalarni
operatsiyani
operatsiyasi
operatsiyasini
opinion
opisanie
oppoq
opportunity
opposition
opsiyasi
optik
optika
optimal
optimallashtirish
option
options
oq
oqadi
oqadigan
oqar
oqarib
oqayotgan
oqbo
oqchil
oqchilik
oqchilikka
oqda
oqdan
oqdaryo
oqi
oqib
oqibat
oqibatda
oqibati
oqibatida
oqibatlarga
oqibatlari
oqibatlarini
oqilona
oqim
oqimga
oqimi
oqimida
oqimiga
oqimini
oqimining
oqimlar
oqimlari
oqish
oqishi
oqizib
oqko
oqlangan
oqlar
oqlari
oqlarida
oqlariga
oqlash
oqmo
oqqa
oqqo
oqqush
oqshom
oqsil
oqsili
oqsillar
oqsillari
oqsoqol
oqsoqoli
oqsoqollar
oqsoy
oqsuv
oqtepa
or
ora
oracle
orada
oradan
oral
oralig
oraliq
orange
oranje
orasi
orasida
orasidagi
orasidan
orasiga
orbita
orbitada
orbitaga
orbital
orbitasi
ord
orda
orden
ordeni
ordenining
ordenlari
ordenning
order
orders
ore
oregon
orenburg
org
orga
organ
organi
organic
organik
organisation
organization
organizm
organizmda
organizmdagi
organizmga
organizmi
organizmida
organizmiga
organizmlar
organizmlarda
organizmlarning
organizmni
organizmning
organlar
organlari
organlarida
organlariga
organlarining
organlarning
orginal
ori
orient
oriental
orif
origin
original
origins
oriladi
oriladigan
orilgan
orion
oripov
oriq
orish
orishda
oriyat
orkali
orkestr
orkestri
orlando
orlar
orle
orlean
orleans
orlov
orma
orne
orning
oro
orol
orolda
oroldagi
orolga
oroli
orolida
orolidagi
orolidan
oroliga
orolini
orolining
orollar
orollarda
orollari
orollarida
orollaridagi
orollaridan
orollariga
orollarini
orollarining
orolni
orolning
orom
oromiy
orqa
orqada
orqaga
orqali
orqasi
orqasida
orqasidagi
orqasidan
orqasiga
ort
orta
ortadi
ortda
ortdi
ortega
ortga
ortgan
orti
ortib
ortida
ortidagi
ortidan
ortig
ortiq
ortiqcha
ortiqroq
ortishi
ortiz
orttirilgan
orttirish
orttirmoq
oru
orzu
orzular
orzusi
os
osaka
oscar
oscars
osen
osetiya
osh
osha
oshadi
oshdi
oshgan
oshganlarning
oshi
oshib
oshig
oshin
oshiq
oshira
oshiradi
oshiradigan
oshirdi
oshirgan
oshirib
oshiriladi
oshiriladigan
oshirilayotgan
oshirildi
oshirilgan
oshirilishi
oshirilmoqda
oshirish
oshirishda
oshirishga
oshirishi
oshirishni
oshirishning
oshirmoq
oshiruvchi
oshishi
oshishiga
oshkor
oshkora
oshmadi
oshmasligi
oshmaydi
oshmoq
oshna
oshpaz
oshpazlik
oshqozon
oshxona
oshxonasi
oshxonasida
oshxonasining
osib
osilgan
osilib
osim
osiyo
osiyoda
osiyodagi
osiyodan
osiyoga
osiyolik
osiyoliklar
osiyoni
osiyoning
oskar
oslo
osma
osman
osmanlı
osmon
osmonda
osmondagi
osmondan
osmonga
osmonni
osmonning
osmono
osobennosti
oson
osongina
osonlashtiradi
osonlashtirish
osonlik
osonlikcha
osonroq
osoyishta
osprey
ossuriya
ost
osti
ostida
ostidagi
ostidan
ostiga
ostin
ostki
ostona
ostrovskiy
ot
ota
otabek
otadi
otadigan
otalar
otalari
otaliq
otam
otaning
otar
otash
otasi
otasidan
otasiga
otasini
otasining
otaturk
otda
otdan
otdi
otello
otga
otgan
other
others
oti
otib
otidan
otiga
otilgan
otilib
otilishi
otini
otining
otish
otishma
otit
otlar
otlari
otlarni
otlarning
otliq
otliqlar
otmoq
otni
otning
otryad
otryadi
otryadlari
ott
ottava
ottawa
otto
ottoman
otuvga
ou
ouen
ouest
our
out
outlook
output
outside
outstanding
ov
ova
ovak
oval
ovchi
ovchilar
ovchilik
over
overall
overseas
overview
ovidiy
ovlanadi
ovlash
ovora
ovoz
ovozda
ovozdan
ovozga
ovozi
ovoziga
ovozini
ovozlar
ovozli
ovozni
ovozsiz
ovqat
ovqatdan
ovqatga
ovqatlanish
ovqatlar
ovqatlarni
ovqatni
ovqatning
ovul
owen
own
owner
oxford
oxir
oxirgi
oxirgisi
oxiri
oxirida
oxiridagi
oxiridan
oxiriga
oxirigacha
oxirlarida
oy
oya
oyalar
oyalari
oyalariga
oyalarini
oyalarni
oyani
oyasi
oyasiga
oyasini
oyat
oyatulloh
oyaviy
oybek
oyda
oydan
oydin
oyga
oygacha
oyi
oyib
oyida
oyidagi
oyidan
oyiga
oyigacha
oyim
oyining
oylar
oylari
oylarida
oyligida
oylik
oyna
oynalar
oynasi
oynasida
oyni
oyning
oyog
oyoq
oyoqlar
oyoqlari
oyoqlarini
oyoqli
oyoqni
oyoqning
oyoqqa
oysha
oz
ozar
ozarbayjon
ozarbayjoncha
ozarbayjonda
ozarbayjondagi
ozarbayjonga
ozarbayjonlar
ozarbayjonlik
ozarbayjonning
ozchilik
ozchiliklar
ozdan
ozg
ozga
ozgan
ozgina
ozi
ozib
oziklanadi
oziq
oziqlanadi
oziqlanish
oziqlantirish
oziqovqat
oziy
ozlar
ozlari
ozlarni
ozni
ozod
ozoda
ozodligi
ozodlik
ozodlikdan
ozodlikka
ozon
ozor
ozroq
ozuqa
p
pa
pablo
pac
pace
pacers
pacific
pack
packard
padma
padova
pag
page
pagekoordinatalari
pages
pahlaviy
pahlavon
pai
paid
pain
painting
paintings
pair
pak
pakana
paket
pakistan
pakistani
pal
pala
palace
palata
palatali
palatasi
palatasida
palatasiga
palatasining
palencia
paleobiodb
paleogen
paleolit
paleozoy
palermo
palestine
palgrave
pallali
palm
palma
palmas
palmeiras
palmer
palo
palov
palto
pam
pamela
pamyatnik
pamyatniki
pan
pana
panama
panamerika
pand
panda
pandemic
pandemiya
pandemiyasi
pandey
pandit
panel
paneli
panellar
panellari
panj
panja
panjara
panjaralar
panjarali
panjarasi
panjasi
panjob
panoh
panorama
pantera
panther
panthers
paolo
papa
papasi
paper
paperback
papers
papua
par
para
parad
parade
paradi
paradida
paradise
paradoksi
paraguay
paragvay
paralimpiya
parallel
paralympic
parameter
parametrga
parametri
parametrini
parametrlari
paramount
parana
paranji
parashyut
parasida
parazit
parazitlik
parcha
parchalab
parchalanadi
parchalangan
parchalanganidan
parchalanib
parchalanish
parchalanishi
parchalar
parchalari
parchasi
parda
pardalar
pardali
pardaning
pardasi
pardoz
parent
parents
parfiya
parfyumeriya
parhez
pari
parij
parijda
parijdagi
parijga
parijning
paris
parish
park
parkda
parkdagi
parkent
parker
parki
parkida
parkinson
parkning
parks
parlament
parlamentda
parlamentdagi
parlamentga
parlamenti
parlamentiga
parlamentining
parlamentning
parliament
parma
parodiya
parom
parranda
parrandachilik
parser
parsons
part
parti
partial
participation
partido
parties
partiya
partiyadan
partiyaga
partiyalar
partiyalari
partiyani
partiyaning
partiyasi
partiyasidan
partiyasiga
partiyasini
partiyasining
partiyaviy
partizan
partizanlar
partner
partners
partnership
parts
party
parvarish
parvoz
parvozi
parvozini
parvozlar
parvozlarni
parvozni
pas
pasadena
pasayadi
pasaydi
pasaygan
pasayib
pasayish
pasayishi
pasayishiga
pasaytiradi
pasaytirish
pascal
pasha
pashsha
pashtu
paskal
paso
pasport
pasporti
pasportini
pasportlar
pasportlari
pass
passat
passes
passion
passiv
passport
passports
past
pasta
pastasi
pastda
pastdan
pastdarg
pastels
pastga
pasti
pastki
pastligi
pastroq
pasttekisligi
pasttekislik
pasxa
pat
patel
patent
paterson
path
pati
patients
patlari
patnos
patogen
patologik
patologiya
patriarxal
patrice
patricia
patrick
patrik
patrisiya
patron
patrul
pattaya
patterson
patti
patty
pau
paul
paula
pauli
pauline
paulista
paulo
paulu
pavel
pavia
pavlodar
pavlov
pavlovich
pavo
pavsaniy
pax
paxsa
paxta
paxtachilik
paxtakor
paxtani
pay
payadi
payariq
paydi
paydo
payg
paygan
payib
payish
payishi
payishiga
payne
paypoq
payqab
pays
payshanba
payt
paytda
paytdagi
paytdan
paytga
paytgacha
payti
paytida
paytidagi
paytiriladi
paytirish
paytirishga
paytlar
paytlarda
paytlarida
payvand
payvandlash
paz
pazandachilik
pb
pbs
pc
pchiligi
pchilik
pchilikka
pchilikni
pchilikning
pd
pdan
pdf
pdir
pe
peace
peak
pearce
pearl
pearson
peas
pech
pechda
pechi
pechka
ped
pedagog
pedagogik
pedagogika
pedersen
pediatriya
pedro
pee
peer
pegas
peggy
pekin
pekinda
pekindagi
pekinga
pele
pen
penalti
penaltidan
penalties
penaltilar
penaltini
penalty
peng
penguin
penguins
penn
pennsylvania
penny
pens
pensilvaniya
pensiya
pentagon
penza
people
peoples
pep
pepper
pepsi
pepsico
per
percent
perceptions
perche
percy
pereira
peres
perevod
perez
perfect
perform
performance
peri
periferik
period
perkins
perm
permanent
permskiy
permstat
pero
perpendikulyar
perri
perry
perseus
persey
persian
person
personaj
personajlar
personal
personality
persons
perspective
perspectives
pert
perth
peru
perugia
pes
pescara
peshona
peshqadam
peshtoq
pet
pete
peter
peterborough
peterburg
peterburgda
peterburgdagi
peterburgga
peterburgning
peters
petersburg
peterson
petit
petr
petra
petroleum
petropavlovsk
petrov
petrovich
petski
peugeot
pew
pez
pf
pfa
pfalz
pfc
pfl
pg
pga
pgina
pguli
ph
pha
pharma
pharmaceutical
pharmaceuticals
phase
phd
phi
phil
philadelphia
philip
philipp
philippe
philippine
philippines
phillip
phillips
philosophical
philosophy
phoenix
phone
photo
photographer
photographs
photography
photos
php
phu
physical
physics
physiology
pi
pia
pianino
pianinochi
piano
pic
picasso
pichan
pichog
pichoq
pichoqlar
pick
picked
picks
pics
picture
pictures
pie
piemont
pierce
pierre
pietro
pig
pigment
pik
pikardiya
pike
pikli
piksel
pilla
pillachilik
pilot
pin
pinal
pincha
pine
ping
pini
pink
pinto
pinyin
pioneer
piper
pir
piramida
pirates
pireney
piri
pirlo
pirog
pirovardida
pirs
pisa
pisand
pish
pishadi
pishgan
pishib
pishiq
pishirib
pishiriladi
pishirilgan
pishirish
pishirmoq
pishlog
pishloq
pista
pistons
pit
pitch
piter
pitsburg
pitt
pittsburgh
pivo
pixar
piyoda
piyodalar
piyodalari
piyola
piyoz
pizza
pk
pka
pkaning
pkurash
pkurashda
pl
pla
plab
place
places
pladi
plagan
plain
plam
plamda
plamga
plami
plamida
plamidan
plamidir
plamiga
plamini
plamining
plamlar
plamlari
plamlarida
plamni
plamning
plamoq
plan
planadi
plandagi
plane
planet
planetary
planets
plangan
planib
planishi
planned
planning
plans
planshet
plant
plants
plar
plari
plash
plashga
plastik
plastinka
plastmassa
plata
plate
platform
platforma
platformada
platformalar
platformasi
platformasida
platina
platinum
plato
platon
platosi
platt
play
playbill
playboy
playdi
played
player
players
playhouse
playing
plays
playstation
plaza
plazma
plc
please
pley
pligi
plik
plitalar
plitalari
plo
plus
pluton
plyaj
plymouth
plyonka
plyus
pm
pmc
pmcentrez
pmid
pn
pnas
pnevmatik
pnevmoniya
png
pni
po
pochta
pochtasi
pocket
pod
poda
podcast
podpolkovnik
podsho
podshoh
podshohi
podshohning
podsholigi
podsholik
podshosi
poems
poet
poetik
poetry
poezd
pog
pogba
point
points
poj
pok
pokal
poke
pokiston
pokistonda
pokistondagi
pokistonga
pokistonlik
pokistonning
pokiza
poklik
pol
poland
polda
pole
polga
polgar
poli
police
policies
policy
poligrafiya
poliklinika
polimer
polimerlar
polimetall
polina
polish
politexnika
political
politico
politics
politika
politsiya
politsiyachi
politsiyaga
politsiyasi
poliz
polk
polki
polkining
polkovnigi
polkovnik
poll
pollik
pollution
polo
polon
polosali
polsha
polshada
polshadagi
polshaga
polshalik
polshaning
poltava
polvon
polyak
polyakcha
polyaklar
pomidor
pomir
pompey
pon
pons
pont
pontarlier
ponte
pooja
pool
poole
poor
pop
pope
popov
popular
population
populations
populyatsiyasi
por
pora
poraxo
porloq
porox
porsche
port
portal
portali
portativ
porter
porti
portiga
portland
portlar
portlari
portlash
portlashi
portlashlar
portlatib
portlend
portlovchi
portman
porto
portrait
portret
portreti
portretlar
portretlari
portsmouth
portu
portugal
portugalcha
portugaliya
portugaliyada
portugaliyaga
portugaliyalik
portugaliyaning
portugallar
portuguese
posbon
posho
poshoning
position
positions
positive
posle
possible
post
poster
posti
posts
postsovet
posyolka
posyolkasi
potensial
potential
potentsial
potsdam
potter
pound
pour
poverty
powell
power
powerful
powers
poxol
poy
poya
poyabzal
poyasi
poydevor
poydevorga
poydevori
poyezd
poyezdi
poyezdlar
poyga
poygachi
poygada
poygadan
poygalari
poygalarida
poygasi
poygasida
poytaxt
poytaxtga
poytaxti
poytaxtida
poytaxtiga
poytaxtni
poytaxtning
pozitsiya
pozitsiyalarini
pozitsiyani
pozitsiyasi
pozitsiyasida
pozitsiyasiga
pozitsiyasini
poznan
pp
ppa
ppen
ppg
ppi
pponcha
pq
pr
practical
practice
practices
pradesh
praga
pragada
prague
prakash
prasad
pratt
pravda
pravoslav
pre
predators
predmet
predmeti
prefektura
prefekturasi
prefekturasida
prefekturasining
preliminary
prem
premer
premier
premiere
premium
premyer
premyera
premyerasi
preparat
preparatlar
preparatlari
preparatning
presence
present
presentation
presented
presents
presidency
president
presidential
presidents
press
presse
pressure
preston
pretty
prevention
preview
previous
prezident
prezidenta
prezidenti
prezidentining
prezidentlar
prezidentlari
prezidentligi
prezidentligiga
prezidentlik
prezidentlikka
prezidentning
prezidiumi
prezidiumining
pri
price
pride
prigi
prik
priklar
prima
primary
primavera
prime
primeira
primer
primera
primetime
prince
princess
princeton
principles
prinsip
prinsipi
prinsiplari
prinston
print
printing
printsipi
prior
prisi
prisida
prison
prithviraj
private
prix
priya
priyanka
prize
prizes
pro
probe
problem
problemi
problems
proceedings
process
processing
procter
produce
produced
producer
product
production
productions
products
produser
produseri
produserlik
prodyuser
prodyuseri
prodyuserlik
prof
professional
professionalga
professionals
professor
professori
professorlar
profil
profilaktik
profilaktika
profile
profiles
profili
profit
prog
prognoz
program
programme
programming
programs
progress
progressiv
progressive
project
projects
prokat
prokuratura
prokuraturasi
prokuror
prokurori
promise
promotion
pronounced
pronunciation
propaganda
properties
property
prophet
proporsional
proq
prorektor
prorektori
prospect
prospects
prospekti
prostata
protect
protection
protein
protest
protestant
protestantlar
protests
protiv
proto
protocol
protokol
protokoli
proton
prototip
prototipi
protsessor
protsessorlari
protsessual
proud
provayderi
provided
providence
province
provinces
provincia
provincial
provincias
provinsiya
provinsiyasi
provinsiyasida
provinsiyasidagi
provinsiyasining
provisional
pru
prussiya
ps
psa
psevdo
psg
psi
psixiatr
psixiatrik
psixiatriya
psixik
psixoanalitik
psixolog
psixologik
psixologiya
psixologiyada
psixologiyaning
psixologiyasi
psixologlar
psixopatiya
psixoterapiya
psj
pskov
psv
psychiatric
psychiatry
psychological
psychology
pt
pti
ptolemey
pu
pub
public
publication
publications
publique
published
publisher
publishers
publishing
publitsist
publitsistik
publix
pubmed
pubmedcentral
puch
pudratchi
puebla
pueblo
puerto
pufagi
pufak
pufakchalar
puflab
puflama
pugh
pul
pulemyot
pulga
puli
pulini
pulitser
pulitzer
pullar
pullari
pullarini
pullik
pulni
pulning
puma
punch
pune
punjab
punjabi
punk
punkt
punkti
punktida
punktidir
punktiga
punktlari
punktlarida
punktlaridan
punktlarini
purar
purari
purariga
purarlar
purchase
purdue
pure
puri
purple
pusan
push
pushaymon
pushkin
pushti
pushtu
pushtucha
pushtun
pushtunlar
put
putin
putinning
putnam
puts
putur
puxta
puy
px
pyaar
pyer
pyesa
pyesalar
pyesalari
pyesasi
pyotr
pyre
q
qa
qabila
qabilalar
qabilalari
qabilalaridan
qabilalarining
qabilalarning
qabilasi
qabilasidan
qabilasining
qabr
qabrga
qabri
qabriston
qabristoni
qabristonida
qabristoniga
qabrlar
qabrlari
qabul
qachon
qad
qadag
qadah
qadam
qadamjoy
qadamlar
qadar
qaddi
qadim
qadimda
qadimdan
qadimgi
qadimiy
qadoqlash
qadr
qadrdon
qadriyatlar
qadriyatlari
qadriyatlarini
qadriyatlarni
qafasi
qah
qahhor
qahqaha
qahramon
qahramonga
qahramoni
qahramoniga
qahramonining
qahramonlar
qahramonlardan
qahramonlarga
qahramonlari
qahramonlaridan
qahramonlarining
qahramonlarni
qahramonlarning
qahramonlik
qahramonni
qahramonning
qahva
qal
qala
qalam
qalamiga
qalampir
qalampiri
qalay
qalb
qalbaki
qalbi
qalbingga
qaldirg
qaleh
qalin
qalinligi
qalinlikdagi
qalpoq
qalqon
qalqoni
qalqonsimon
qaltis
qam
qamab
qamal
qamaldan
qamalgan
qamchi
qamish
qamog
qamoq
qamoqda
qamoqdan
qamoqqa
qamoqxona
qamoqxonada
qamoqxonasida
qamrab
qamrovli
qan
qanaqa
qancha
qanchalik
qand
qandahor
qanday
qandaydir
qandli
qandolat
qang
qani
qanot
qanotda
qanoti
qanotlar
qanotlari
qanotlarini
qanotli
qar
qara
qarab
qarabag
qaradi
qarag
qaragan
qaraganda
qaraladi
qaraldi
qaralgan
qaram
qarama
qaramaqarshi
qaramasdan
qaramay
qaramlik
qaramog
qaramoq
qarang
qarash
qarashlar
qarashlari
qarashlarini
qarashlarni
qarashli
qarasli
qarata
qaratadi
qaratdi
qaratgan
qaratib
qaratiladi
qaratildi
qaratilgan
qaratish
qaratqich
qaraydi
qaraydigan
qardosh
qarg
qari
qarindosh
qarindoshi
qarindoshlar
qarindoshlari
qarindoshlik
qariyalar
qariyb
qarku
qaroqchi
qaroqchilar
qaror
qarorga
qarorgoh
qarorgohi
qarorgohida
qarorgohiga
qarorgohini
qarori
qaroriga
qarorini
qarorlar
qarorlari
qarorlarini
qarorlarni
qarorni
qarovsiz
qarsak
qarshi
qarshiligi
qarshiligini
qarshilik
qarshilikka
qarshiliklar
qarshilikni
qarshisida
qarz
qarzdor
qarzga
qarzi
qarzni
qasam
qasamyod
qasd
qasddan
qashqadaryo
qashqar
qashshoq
qashshoqlik
qasida
qasos
qasoskorlar
qasr
qasri
qat
qatag
qatar
qatarda
qatarning
qatiq
qatiy
qatl
qatlam
qatlami
qatlamida
qatlamini
qatlamining
qatlamlar
qatlamlari
qatlamlarida
qatlamlaridan
qatlamlarini
qatlamli
qatnasha
qatnashadi
qatnashadigan
qatnashchilari
qatnashchisi
qatnashdi
qatnashdilar
qatnashgan
qatnashib
qatnashish
qatnashishga
qatnashishi
qatnashmadi
qatnashmagan
qatnashuvchi
qatnaydi
qatnovi
qator
qatorda
qatorga
qatori
qatorida
qatoridan
qatoriga
qatorini
qatorlar
qatorli
qattiq
qattiqligi
qattiqlik
qattiqqo
qattiqroq
qavariq
qavat
qavatda
qavatdagi
qavatdan
qavati
qavatida
qavatli
qavs
qay
qaychi
qayd
qayerda
qayerdan
qayerga
qayg
qayig
qayin
qayiq
qayiqda
qaymoq
qaynab
qaynash
qaynatib
qaynatiladi
qaynatilgan
qaynatish
qaynoq
qayoqqa
qayrag
qayrat
qaysar
qaysi
qaysidir
qayt
qayta
qaytadan
qaytadi
qaytaradi
qaytardi
qaytargan
qaytarib
qaytariladi
qaytarildi
qaytarilgan
qaytarish
qaytarishga
qaytarishni
qaytarmoq
qaytaruvchi
qaytdi
qaytgach
qaytgan
qaytganida
qaytganidan
qaytib
qaytish
qaytishdan
qaytishdi
qaytishga
qaytishi
qaytishiga
qaytishini
qaytishni
qaytmoq
qazaq
qazaqstan
qazib
qazilgan
qazilma
qazilmalar
qazilmalardan
qazilmalarni
qazish
qazishmalar
qazvin
qchi
qfy
qfyga
qi
qib
qibray
qichqiriq
qidi
qidirib
qidirish
qidiruv
qigan
qil
qila
qiladi
qiladigan
qiladilar
qilaman
qilamiz
qilar
qilardi
qilayotgan
qilayotganda
qilayotganini
qildi
qildik
qildilar
qildim
qilgan
qilganda
qilgandan
qilgani
qilganida
qilganidan
qilganiga
qilganini
qilganlar
qilganligi
qilganlikda
qilib
qilich
qilichbozlik
qilichi
qilin
qilina
qilinadi
qilinadigan
qilinayotgan
qilindi
qiling
qilingan
qilinganda
qilingandan
qilingandi
qilingani
qilinganida
qilinganidan
qilinganini
qilinganlar
qilinganligi
qilinib
qilinishi
qilinishicha
qilinishidan
qilinishiga
qilinishini
qilinmadi
qilinmagan
qilinmay
qilinmaydi
qilinmoq
qilinmoqda
qilinsa
qiliq
qilish
qilishadi
qilishda
qilishdagi
qilishdan
qilishdi
qilishdir
qilishga
qilishgan
qilishi
qilishicha
qilishiga
qilishingiz
qilishini
qilishlari
qilishlarini
qilishni
qilishning
qilma
qilmadi
qilmagan
qilmasa
qilmasdan
qilmasligi
qilmaslik
qilmay
qilmaydi
qilmaydigan
qilmoq
qilmoqchi
qilmoqda
qilmoqdalar
qilsa
qiluvchi
qiluvchilar
qim
qima
qimachilik
qimalar
qimalarda
qimalarga
qimalari
qimalarida
qimalarining
qimalarni
qimalarning
qimasi
qimishli
qimmat
qimmatbaho
qimmatga
qimmati
qimmatini
qimmatli
qimmatroq
qimoq
qimor
qin
qing
qingdao
qintirgan
qip
qipchoq
qipchoqlar
qir
qirg
qirib
qirilib
qirol
qiroli
qirolicha
qirolichaning
qirolichasi
qirollar
qirollari
qirolligi
qirolligiga
qirolligining
qirollik
qirollikda
qirollikning
qirolning
qirq
qirqib
qirqish
qirralari
qirrali
qirrasi
qiruvchi
qis
qish
qishda
qishdan
qishga
qishi
qishida
qishini
qishki
qishlash
qishlaydi
qishlog
qishloq
qishloqda
qishloqdagi
qishloqdan
qishloqdir
qishloqlar
qishloqlarda
qishloqlardan
qishloqlarga
qishloqlari
qishloqlarida
qishloqlaridan
qishloqlarini
qishloqlarni
qishloqni
qishloqning
qishloqqa
qishni
qishning
qisib
qism
qisman
qismda
qismdan
qismga
qismi
qismida
qismidagi
qismidan
qismidir
qismiga
qismini
qismining
qismlar
qismlardan
qismlarga
qismlari
qismlarida
qismlaridan
qismlariga
qismlarini
qismlarining
qismlarni
qismlarning
qismli
qismning
qismoq
qisqa
qisqacha
qisqardi
qisqargan
qisqarib
qisqarishi
qisqaroq
qisqartirdi
qisqartirildi
qisqartirilgan
qisqartirish
qisqartma
qisqartmasi
qisqichbaqa
qisqichbaqalar
qisqichbaqasimonlar
qissa
qissalar
qissalari
qissasi
qit
qitiladi
qitiladigan
qitilgan
qitish
qituvchi
qituvchilar
qituvchilari
qituvchilarni
qituvchilarning
qituvchilik
qituvchisi
qiy
qiya
qiyalik
qiydi
qiydigan
qiyin
qiyinchilik
qiyinchiliklar
qiyinchiliklarga
qiyinchiliklarni
qiyinlashtiradi
qiyma
qiymat
qiymatga
qiymati
qiymatiga
qiymatini
qiymatining
qiymatlar
qiymatlari
qiymatli
qiymatni
qiynoqqa
qiyofa
qiyofasi
qiyofasida
qiyofasiga
qiyofasini
qiyomat
qiyos
qiyosiy
qiyoslash
qiyotgan
qiyotganda
qiyshiq
qiz
qizarib
qizdirib
qizdirilgan
qizdirilganda
qizdirish
qizg
qizga
qizi
qizib
qizig
qiziga
qizil
qizilcahamam
qizilo
qizilqum
qiziltepa
qizim
qizini
qizining
qiziq
qiziqarli
qiziqchi
qiziqib
qiziqish
qiziqishi
qiziqishini
qiziqishlari
qiziqqan
qizlar
qizlarga
qizlari
qizlarni
qizlarning
qizlik
qizni
qizning
qlar
qlari
qli
qligi
qligida
qligiga
qligini
qlik
qmi
qmoq
qnash
qnashuv
qnashuvda
qnashuvi
qnashuvlar
qo
qobig
qobil
qobiliyat
qobiliyati
qobiliyatiga
qobiliyatini
qobiliyatining
qobiliyatlari
qobiliyatlarini
qobiliyatli
qobiq
qochadi
qochdi
qochgan
qochib
qochish
qochishga
qochmoq
qochqin
qochqinlar
qodi
qodir
qodiriy
qodirov
qofiya
qog
qohira
qohirada
qohiradagi
qoida
qoidaga
qoidalar
qoidalarga
qoidalari
qoidalariga
qoidalarini
qoidalarni
qoidasi
qol
qola
qoladi
qoladigan
qoladilar
qolar
qolarli
qolaversa
qoldi
qoldig
qoldim
qoldiq
qoldiqlar
qoldiqlari
qoldiqlarini
qoldiradi
qoldirdi
qoldirgan
qoldirib
qoldiriladi
qoldirildi
qoldirilgan
qoldirish
qoldirmoq
qoldiruvchi
qolgan
qolganda
qolgani
qolganida
qolganidan
qolganini
qolganlar
qolganlari
qolganligi
qolib
qolibdi
qolingan
qolip
qolish
qolishadi
qolishdan
qolishdi
qolishga
qolishgan
qolishi
qolishiga
qolishini
qolishni
qolmadi
qolmagan
qolmay
qolmaydi
qolmoq
qolmoqda
qoloq
qolsa
qomusiy
qon
qonda
qondagi
qondirish
qonga
qoni
qonini
qoniqarli
qonli
qonni
qonning
qonun
qonunchiligi
qonunchiligiga
qonunchilik
qonunda
qonunga
qonuni
qonuniga
qonunini
qonunining
qonuniy
qonuniyatlari
qonuniyatlarini
qonunlar
qonunlarga
qonunlari
qonunlariga
qonunlarini
qonunlarni
qonunni
qonunning
qop
qoplab
qoplagan
qoplama
qoplamali
qoplamasi
qoplami
qoplamoq
qoplanadi
qoplangan
qoplash
qoplaydi
qoplon
qopqog
qopqoq
qoq
qoqib
qoqmoq
qor
qora
qorabog
qorabuloq
qorako
qoraladi
qoramol
qoramtir
qoraqalpog
qoraqalpoq
qorasuv
qoratepa
qoraxoniylar
qoraymas
qori
qorin
qorincha
qorli
qorni
qorong
qorovul
qosh
qoshida
qoshidagi
qoshiq
qosil
qosim
qosimov
qotadi
qotar
qotdi
qotgan
qotib
qotil
qotilgan
qotillik
qotish
qotishi
qotishlar
qotishlarga
qotishma
qotishmalar
qotishmalari
qotmoq
qovog
qovoq
qovun
qovunlar
qovurg
qovuriladi
qovurilgan
qovurish
qoya
qoyalar
qoyali
qoyatosh
qoyil
qozi
qoziq
qozog
qozon
qozona
qozonadi
qozonda
qozondi
qozonga
qozongan
qozonganida
qozonganidan
qozonib
qozonilgan
qozonish
qozonishda
qozonishdi
qozonishga
qozonishi
qozonishiga
qozoq
qozoqcha
qozoqlar
qozoqlarning
qpr
qqa
qqi
qqiga
qqilar
qqilari
qqisi
qqisida
qqisiga
qqiz
qqizinchi
qqizta
qrim
qrimda
qrimning
qs
qson
qu
qua
quad
qualcomm
qualification
qualifier
qualifiers
qualifying
quality
quantum
quarter
quarterly
quddus
qudrat
qudrati
qudratini
qudratli
qudug
quduq
que
quebec
queen
queens
queensland
quentin
quest
question
questions
qui
quick
quiet
quimby
quinn
quipe
quits
qul
qulab
qulagan
qulagandan
qulaganidan
qulashi
qulay
qulayligi
qulaylik
qulayroq
quldorlik
qulf
quli
qulladi
qullagan
qullangan
qullar
qullash
qullik
quloch
qulog
quloq
quloqlari
quloqqa
qulupnay
qum
qumli
qumloq
qumoq
qumtosh
qunduz
quot
qur
qura
quradi
qurama
quran
quraysh
qurbaqa
qurbon
qurboni
qurbonlar
qurbonlari
qurbonlik
qurbonov
qurdi
qurdilar
qurdirgan
qurg
qurgan
qurib
qurigan
qurila
quriladi
quriladigan
qurilayotgan
qurildi
qurilgan
qurilib
qurilish
qurilishda
qurilishi
qurilishida
qurilishiga
qurilishini
qurilishni
qurilishning
qurilma
qurilmalar
qurilmalarda
qurilmalari
qurilmalarni
qurilmani
qurilmaning
qurilmasi
qurilmoqda
qurish
qurishda
qurishdan
qurishdi
qurishga
qurishgan
qurishi
qurishni
quritiladi
quritilgan
quritish
quritmoq
quriydi
qurmoq
qurol
quroli
qurolini
qurollangan
qurollar
qurollardan
qurollari
qurollarini
qurollarni
qurollarning
qurolli
qurolni
qurshab
qurt
qurti
qurtlar
qurtlari
qurultoy
qurultoyi
qurultoyida
quruq
quruqlik
quruqlikda
quruqlikdagi
quruvchi
qush
qushbegi
qushi
qushlar
qushlardan
qushlari
qushlarni
qushlarning
qusish
qutb
qutbli
quti
qutilari
qutisi
qutlug
qutqaradi
qutqarib
qutqarish
qutqaruv
qutulib
qutulish
qutulmoq
quv
quva
quvayt
quvchi
quvchiga
quvchilar
quvchilarga
quvchilari
quvchilarining
quvchilarni
quvchilarning
quvchilik
quvchining
quvchisi
quvg
quvib
quvnoq
quvonch
quvur
quvuri
quvurlar
quvurlari
quvvat
quvvatga
quvvati
quvvatiga
quvvatini
quvvatlab
quvvatladi
quvvatladilar
quvvatlagan
quvvatlanadi
quvvatlanadigan
quvvatlandi
quvvatlangan
quvvatlash
quvvatlashga
quvvatlashi
quvvatlashini
quvvatlashni
quvvatlaydi
quvvatlaydigan
quvvatli
quvvatlovchi
quvvatni
quyi
quyib
quyida
quyidagi
quyidagicha
quyidagilar
quyidagilardan
quyidagilardir
quyidagilarga
quyidagilarni
quyiladi
quyiladigan
quyilgan
quyilish
quyish
quyma
quymoq
quyon
quyosh
quyoshda
quyoshdan
quyoshga
quyoshli
quyoshni
quyoshning
quyruq
quyuq
r
ra
rab
rabot
race
rachael
rachel
racing
rad
rada
radar
radi
radial
radiatsion
radiatsiya
radical
radigan
radikal
radilar
radio
radioaktiv
radioda
radioelektronika
radioeshittirish
radiosi
radiosida
radiotexnika
radioto
radius
radiusi
rae
raf
rafael
rafiqasi
rag
ragan
rah
rahbar
rahbari
rahbarining
rahbariyat
rahbariyati
rahbariyatining
rahbarlar
rahbarlari
rahbarlaridan
rahbarlariga
rahbarlarini
rahbarlarining
rahbarligi
rahbarligida
rahbarligidagi
rahbarlik
rahim
rahimov
rahimxon
rahm
rahman
rahmat
rahmon
rahmonov
rahul
rai
rail
railway
raimov
rain
rainbow
raion
rais
raises
raisi
raisining
raislik
raj
raja
rajab
rajabiy
rajabov
rajesh
rajiv
rak
raketa
raketalar
raketalari
raketalarni
raketaning
raketasi
raki
rakuten
ral
raladi
ralar
ralf
ralgan
ralib
ralli
rally
ralph
ram
rama
raman
ramazon
ramen
rami
ramiz
ramka
ramon
ramoq
ramos
ramsey
ramz
ramzi
ramzidir
ramziy
ramzlari
ran
rana
rand
randolph
random
randy
rang
rangda
rangdagi
rangdan
rangdor
range
ranger
rangers
rangga
ranggacha
rangi
rangiga
rangini
ranglar
ranglarda
ranglari
ranglarni
rangli
rangni
rangsiz
rangtasvir
rani
raning
rank
ranked
ranking
rankings
rant
rao
rap
rape
raphael
rapid
rapids
rapper
raptors
raqam
raqamda
raqami
raqamiga
raqamini
raqamlar
raqamlari
raqamlarni
raqamli
raqamni
raqib
raqibga
raqibi
raqibini
raqiblar
raqiblari
raqiblarini
raqibning
raqobat
raqobatbardosh
raqobatchi
raqobatga
raqobatlasha
raqobatlashdi
raqobatni
raqqos
raqqosa
raqqosalar
raqqosi
raqs
raqsga
raqsi
raqslar
raqslari
rar
rardi
rare
ras
rasadxona
rasadxonasi
rash
rashdi
rashga
rashid
rashidov
rashk
rasht
rasm
rasman
rasmda
rasmga
rasmi
rasmini
rasmiy
rasmiylar
rasmiylari
rasmlar
rasmlari
rasmlarini
rasmlarni
rasmni
rasmussen
raso
rassell
rassom
rassomi
rassomlar
rassomlari
rassomlarning
rassomlik
rassomning
rasul
rasulov
rasululloh
rasvo
rat
rate
ratifikatsiya
rating
ratings
ration
ratsional
rauf
raul
raund
raundda
raundga
raundida
raundlik
raven
ravi
ravish
ravishda
ravnaq
ravon
ravonlik
ravonlikka
ravonlikning
ravoq
ravoqli
ravshan
ravvin
raw
raxon
ray
rayan
raydi
rayem
rayev
rayhon
raymond
rayo
rayon
rayoni
rayonining
rayonlarda
rayonlari
rayonlashtirish
rayotgan
rays
rayt
razvedka
razvedkasi
razvitiya
rb
rbc
rboshi
rc
rcd
rch
rchi
rco
rd
rda
rdak
rde
rdi
rdilar
rdim
rdoba
re
reabilitatsiya
reach
reached
reaches
reaction
read
reader
reading
ready
reagan
reaksiya
reaksiyaga
reaksiyalar
reaksiyalari
reaksiyasi
reaktiv
reaktor
real
realistik
realiti
reality
realizm
really
realniy
reason
reasons
rebecca
rebekka
rebel
rebound
rec
recall
recap
receive
receives
recent
rech
recipe
recipes
recipients
recognition
record
recorded
recording
records
recovery
red
redaktor
reddy
rediff
redir
reds
reed
reestri
reestriga
reeves
ref
reference
references
referendum
referendumda
reflections
reform
refs
refugees
reg
regarding
regbi
regent
reggio
regina
region
regional
regions
register
registered
registon
registration
regular
regulations
reich
reid
reign
reilly
rej
reja
rejaga
rejalar
rejalari
rejalarini
rejalashtirgan
rejalashtirilgan
rejalashtirish
rejalashtirmoqda
rejali
rejani
rejasi
rejasiga
rejasini
rejasining
rejim
rejimda
rejimi
rejimida
rejimiga
rejimini
rejimining
rejissor
rejissori
rejissorlari
rejissorlik
rejissyor
rejissyori
rejissyorlar
rejissyorligidagi
rejissyorlik
rek
reklama
reklamasi
rekonstruksiya
rekord
rekordchi
rekordchisi
rekordi
rekordiga
rekordini
rekordlar
rekordlari
rekordni
rektor
rektori
rel
related
relations
relationship
relationships
release
released
releases
reliable
religion
religions
religious
reliz
relizi
relyef
relyefi
remain
remains
remake
rembrandt
remember
remembering
remix
remont
ren
renaissance
renato
renault
rendsburg
rene
rennes
reno
rentgen
rep
reper
repertuaridan
replace
replaces
report
reportaj
reported
reporter
reporters
reporting
reports
repper
representatives
reprint
reproduktiv
repu
repubblica
republic
republican
required
requires
res
rescue
research
researchgate
reserve
resident
resigns
resistance
resmi
resmigazete
resolution
resort
resource
resources
response
respublika
respublikachi
respublikachilar
respublikada
respublikadagi
respublikaga
respublikalar
respublikalari
respublikaning
respublikasi
respublikasida
respublikasidagi
respublikasiga
respublikasini
respublikasining
respublikası
respublikasının
respubliki
rest
restaurant
restavratsiya
restoran
restorani
restoranlar
restoranlari
result
results
resurs
resurslar
resurslardan
resurslarga
resurslari
resurslaridan
resurslarini
resurslarni
ret
retail
retain
retained
retire
retirement
retires
retrieved
retsept
retsepti
retseptlar
retseptorlar
retseptorlari
return
returning
returns
reunion
reus
reuters
rev
revansh
reveal
revealed
reveals
revenge
review
reviews
revised
revista
revival
revmatoid
revolution
revolutionary
revue
rex
rey
reychel
reyes
reyn
reynjers
reynolds
reysi
reyslar
reyslarni
reyting
reytingda
reytingga
reytingi
reytingida
reytingiga
reytingini
reyx
rez
reza
rezavor
rezident
rezina
rezonans
rf
rfaz
rfazi
rfazida
rfazidagi
rfaziga
rfazining
rg
rga
rgan
rgana
rganadi
rganadigan
rgandi
rgangan
rgani
rganib
rganiladi
rganilayotgan
rganildi
rganilgan
rganilishi
rganilmagan
rganish
rganishda
rganishga
rganishi
rganishni
rganishning
rganmoq
rganuvchi
rgatadi
rgatdi
rgatgan
rgatilgan
rgatish
rgatmoq
rgazma
rgazmada
rgazmaga
rgazmalar
rgazmalarda
rgazmali
rgazmasi
rgazmasida
rgazmasini
rgimchak
rh
rhein
rheinland
rhin
rho
rhode
rhs
rhys
ri
ria
riaa
rib
ribaund
ribaundni
ric
rica
ricardo
rice
rich
richard
richards
richardson
richmond
rick
ricky
rico
rid
rida
ridagi
ridan
ride
rider
ridge
ridley
rie
rif
rifat
rifatparvar
rifatparvarlik
rifi
rifiga
rifiy
riflab
rifladi
riflagan
riflanadi
riflangan
riflar
riflari
riflaydi
rig
riga
rigan
right
rights
rigueux
rijeka
rik
rika
rikardo
rikdan
rikenglik
riko
ril
rilab
riladi
riladigan
rilamoq
rilar
rilash
rildi
riley
rilgan
riligi
riligini
rilik
rilishi
rilmagan
rim
rimda
rimdagi
rimga
rimlashtirilgan
rimliklar
rimning
rin
rinadi
rinadigan
rinbosar
rinbosari
rinbosarlar
rinbosarlari
rinchisi
rinda
rindagi
rindan
rindi
rindig
rindiq
rindiqlar
rindiqlari
rindiqli
ring
ringa
ringan
ringga
rings
rini
rinib
rining
rinish
rinishda
rinishdagi
rinishga
rinishi
rinishida
rinishidagi
rinishidan
rinishiga
rinishini
rinishlari
rinlar
rinlarda
rinlari
rinlarini
rinlarni
rinli
rinmas
rinmaydi
rinmoq
rinni
rinsiz
rio
rioja
riom
rios
rioya
riq
riqchi
riqchilar
riqchilari
riqchisi
riqlanadigan
riqlar
riqlari
riqlash
riqli
riqni
riqxona
riqxonasi
ris
rise
rises
rish
rishadi
rishda
rishdi
rishga
rishgan
rishi
rishingiz
rishini
rishlari
rishni
rishning
rishton
risi
risida
risidagi
rising
risk
risola
risolalar
risolasi
rit
rita
ritchie
ritm
ritmik
ritsar
ritsarlar
ritsarlari
ritter
rival
rivaldo
rivals
river
rivera
rivers
riverside
rivoj
rivoji
rivojida
rivojiga
rivojlana
rivojlanadi
rivojlanayotgan
rivojlandi
rivojlangan
rivojlanib
rivojlanish
rivojlanishda
rivojlanishga
rivojlanishi
rivojlanishida
rivojlanishiga
rivojlanishini
rivojlanishining
rivojlanishni
rivojlanishning
rivojlanmagan
rivojlanmoqda
rivojlantirdi
rivojlantirgan
rivojlantirish
rivojlantirishda
rivojlantirishdagi
rivojlantirishga
rivojlantirishni
rivojlantirishning
rivoyat
rivoyatlar
rivoyatlarga
riy
riyat
riyati
riyatida
riyatining
riydi
riyod
rize
rizo
rj
rjev
rk
rkam
rkc
rkiye
rl
rlab
rlangan
rlar
rlari
rlarida
rlaridan
rlariga
rlarini
rlash
rligi
rligida
rlik
rlu
rm
rma
rmadi
rmagan
rmay
rmon
rmonda
rmonga
rmoni
rmonlar
rmonlarda
rmonlari
rmonlarida
rmonlarni
rmonlarning
rmonli
rmoq
rn
rnak
rnashgan
rnashib
rnatadi
rnatdi
rnatdilar
rnatgan
rnatib
rnatiladi
rnatiladigan
rnatildi
rnatilgan
rnatilishi
rnatish
rnatishga
rnatishni
rnatmoq
rni
rnida
rnidan
rniga
rning
rnini
rnk
ro
road
roar
rob
robbie
robbins
robert
roberta
roberto
roberts
robertson
robin
robinhood
robinson
robot
robotlar
robson
rochdale
roche
rochester
rock
rocket
rockets
rocks
rocky
rod
roda
rodos
rodri
rodriges
rodrigo
rodriguez
rog
roger
rogers
rogue
roh
rohat
rohib
rohiblar
rohit
rojdestvo
rojer
rojers
rok
rokki
rol
rolan
roland
rolar
rolda
roldagi
role
roles
rolga
roli
rolida
rolidagi
rolidan
roliga
roliklarida
rolini
roll
rollar
rollarda
rollardan
rollari
rollarini
rollarni
rolling
rolls
rolni
rom
roma
romagna
roman
romance
romanda
romani
romania
romanian
romanida
romaniga
romanini
romanining
romanizatsiya
romanlar
romanlari
romanlarida
romanlashtirilgan
romanni
romanning
romano
romantic
romantik
romantizm
romatzyh
rome
romeo
romero
ron
rona
ronald
ronaldino
ronaldo
ronan
rondan
roni
ronne
rookie
room
rooney
roosevelt
root
roots
roq
ros
rosa
rosario
rose
rosen
roses
roshan
rosi
ross
rossi
rossii
rossiya
rossiyada
rossiyadagi
rossiyadan
rossiyaga
rossiyalik
rossiyani
rossiyaning
rossiyasi
rossiyskaya
rossiyskoy
rost
roster
rostov
rot
rota
roth
rotherham
rotten
rotterdam
rough
round
rout
route
routledge
rouz
rov
rovda
rover
rovers
roversga
rovi
rovlar
row
rowan
rowe
rowman
roy
royal
royals
royce
roz
roza
rozi
roziligi
roziligini
rozilik
roziy
rp
rpa
rpm
rqib
rqinchli
rqish
rqitish
rqmas
rqoq
rquv
rr
rriyet
rs
rsa
rsata
rsatadi
rsatadigan
rsatadiki
rsatayotgan
rsatdi
rsatdiki
rsatdilar
rsatgan
rsatib
rsatiladi
rsatiladigan
rsatildi
rsatilgan
rsatilishi
rsatilmagan
rsatish
rsatishda
rsatishga
rsatishi
rsatishni
rsatkich
rsatkichga
rsatkichi
rsatkichidan
rsatkichini
rsatkichlar
rsatkichlarga
rsatkichlari
rsatkichlarini
rsatma
rsatmalar
rsatmasi
rsatmaydi
rsatmoq
rsatmoqda
rsatuv
rsatuvchi
rsatuvi
rsatuvida
rsatuvining
rsatuvlar
rsatuvlarda
rsc
rsfsr
rsiq
rsssf
rt
rta
rtacha
rtada
rtadagi
rtaga
rtalari
rtalarida
rtalaridan
rtalariga
rtalarigacha
rtan
rtasi
rtasida
rtasidagi
rtasidan
rtasiga
rtburchak
rtburchaklar
rtdan
rte
rth
rtib
rtinchi
rtko
rtlamchi
rtlik
rtma
rtog
rtoq
rtoqlik
rtta
rttaga
rttasi
rttemberg
rttirib
ru
ruanda
ruben
rubin
rubio
rubl
rublni
ruboiy
ruby
ruda
rudalar
rudalari
rudali
rudasi
rudi
rudolf
rudolph
rue
ruf
rugby
ruh
ruhan
ruhi
ruhida
ruhidagi
ruhiga
ruhini
ruhiy
ruhlar
ruhoniy
ruhoniylar
ruhoniylari
ruhoniysi
rui
ruiz
rul
rule
rules
rum
rumin
rumincha
ruminiya
ruminiyada
ruminiyaga
ruminiyalik
ruminiyaning
rumiy
run
runner
running
runs
runway
rupert
ruq
rur
rural
rus
ruscha
rush
ruslan
ruslar
ruslarning
russ
russell
russia
russian
russkiy
russo
rustam
rustamov
rusumli
rut
rutgers
ruth
ruv
ruvchi
ruwiki
rux
ruxsat
ruxsati
ruxsatisiz
ruxsatnoma
ruxsatsiz
ruza
ruzachi
ruzalar
ruzalari
ruzvelt
rva
rvasi
rvsh
rxok
ry
ryan
ryazan
rı
rəvan
s
sa
saab
saad
saale
sab
saba
sabab
sababchi
sababdan
sababga
sababi
sababini
sabablar
sabablarga
sabablari
sabablaridan
sabablarini
sababli
sabah
sabha
sabo
saboq
saboqlari
saboqlarini
sabr
sabres
sabrina
sabzavot
sabzavotchilik
sabzavotlar
sabzavotli
sabzi
sachs
sacramento
sacred
sad
sadaqa
saddam
sadi
sadigan
sado
sadoqat
sadosi
sadr
sadri
sadriddin
saf
safar
safarbar
safarbarlik
safarda
safarga
safari
safarida
safariga
safarov
safaviylar
safdan
safe
safety
saff
safga
safi
safida
safidagi
safidan
safiga
safo
safro
sag
saga
sage
sagittarius
sahar
sahifa
sahifada
sahifalar
sahifalari
sahifalarida
sahifali
sahifasi
sahifasida
sahifasidir
sahifasini
sahih
sahna
sahnada
sahnadagi
sahnaga
sahnalar
sahnalari
sahnalashtirgan
sahnalashtirilgan
sahnasi
sahnasida
sahro
sahroi
sai
saic
said
saida
saidov
saint
sainte
saints
saison
sajda
sak
sakarya
sakho
sakkiz
sakkizinchi
sakkizlik
sakkizta
saklangan
saklar
saklash
sakrab
sakramento
sakrash
sakrashda
saks
sakson
saksoniya
saksovul
sal
sala
salamanca
salat
salavat
salbiy
sale
salem
salerno
sales
salib
salibchilar
salim
saljuqiylar
salkam
salla
sallivan
sally
salman
salmog
salmon
salmoqli
salohiyati
salohiyatini
salom
salomat
salomatligi
salomatligini
salomatlik
salon
saloniki
salqin
salt
saltanat
saltanati
salvador
salvatore
salzburg
sam
samantha
samara
samaradorligi
samaradorligini
samaradorlik
samarali
samaraliroq
samarasiz
samarkand
samarqand
samarqandda
samarqanddagi
samarqandga
samarqandiy
samarqandni
samarqandning
sambo
same
sami
samimiy
sammit
sammiti
sammitida
samo
samoa
samolyot
samolyotda
samolyoti
samolyotida
samolyotini
samolyotlar
samolyotlari
samolyotlarini
samolyotlarni
samolyotlarning
samolyotni
samolyotning
samovar
samoviy
sampdoria
sampras
sampson
samsun
samsung
samuel
samurai
san
sana
sanab
sanada
sanadan
sanaladi
sanalar
sanalgan
sanam
sanasi
sanasida
sanasidagi
sanasini
sanat
sanatoriy
sanches
sanchez
sanchib
sanctions
sand
sandal
sanderlend
sanders
sandig
sandiq
sandra
sandro
sandy
sang
sanitariya
sanjar
sanjay
sanksiyalar
sankt
sano
sanoat
sanoatda
sanoati
sanoatida
sanoatidagi
sanoatiga
sanoatini
sanoatining
sanoatlari
sanoatni
sanoatning
sanoq
sanoqsiz
sans
sanskrit
sant
santa
santander
santiago
santimetr
santo
santos
santyago
sao
saodat
sap
saqlab
saqlagan
saqlamoq
saqlanadi
saqlanadigan
saqlanayotgan
saqlangan
saqlanib
saqlanish
saqlanishi
saqlanmagan
saqlanmoqda
saqlash
saqlashda
saqlashga
saqlashni
saqlaydi
saqlaydigan
saqlovchi
sar
sara
saragosa
sarah
saralangan
saralash
saralashda
saralashdan
saralashi
saralashida
saralashning
sarasvati
saraton
saratoni
saratonidan
saratov
sarayevo
sardiniya
sardoba
sardor
sardori
sardorlik
sarf
sarfi
sarfladi
sarflagan
sarflanadi
sarflangan
sarg
sarguzasht
sarguzashtlari
sari
sarig
sarimsoq
sariosiyo
sariq
sariyog
sarkar
sarkarda
sarkardasi
sarlavha
sarlavhali
sarlavhasi
sarlavhasining
sarmoya
sarmoyasi
sarob
sarosimaga
saroy
saroyda
saroyga
saroyi
saroyida
saroyidagi
saroyiga
saroyini
saroyining
saroylar
saroylari
saroyni
saroyning
sars
sartarosh
sas
sasha
sasseks
sassuolo
sat
satdan
satellite
sathi
sathidan
sathining
satira
satirik
sato
satr
saturday
saturn
saud
saudi
saudiya
saul
saunders
saundtrek
saunier
sautgempton
sav
savage
savanna
savas
savat
savdo
savdoda
savdoga
savdogar
savdogarlar
savdogarlari
savdoni
savdoning
savdosi
savdosida
savdosiga
savdosini
savdosining
save
saved
saving
savodli
savodsiz
savodxonligi
savodxonlik
savoie
savol
savolga
savollar
savollarga
saw
saxa
saxalin
saxiy
say
sayd
sayid
sayin
saylanadi
saylanadigan
saylandi
saylangan
saylanish
saylanishi
saylanma
saylash
saylov
saylovchilar
saylovchilarning
saylovda
saylovi
saylovida
saylovlar
saylovlarda
saylovlari
saylovlarida
saylovoldi
saymon
sayohat
sayohatchi
sayohatchilar
sayohatga
sayohati
sayohatini
sayohatlar
sayohatlari
sayohatni
sayoz
sayr
sayram
says
sayt
saytda
sayte
saytga
sayti
saytida
saytidagi
saytidan
saytiga
saytini
saytining
saytlar
saytlari
saytning
sayyid
sayyoh
sayyohi
sayyohlar
sayyohlarni
sayyohlarning
sayyohlik
sayyor
sayyora
sayyoralar
sayyoralarning
sayyorasi
sayyoraviy
sayımı
sazovor
sazovordir
sb
sba
sbab
sbb
sbbc
sbc
sbornik
sbs
sc
scale
scandal
scarecrow
scarlett
scene
scenes
schalke
schedule
schleswig
schmidt
schneider
scho
scholar
scholars
school
schools
schulman
schuster
schwartz
sci
science
sciences
scientific
scientist
scientists
scoop
score
scored
scorer
scores
scoring
scotland
scotsman
scott
scottish
scottishfa
scout
scream
screen
script
scroll
scunthorpe
sd
sdi
se
sea
seal
seals
sean
search
season
seasons
seat
seattle
sebastian
sebastyan
sec
second
secret
secretary
secrets
section
sector
secure
secures
securities
security
sedan
see
seed
seeks
seen
sees
segment
segmenti
segunda
sehirhafizasi
sehr
sehrgar
sehrli
seine
sek
sekin
sekinroq
sekretsiya
sektor
sektori
sektorida
sektoriga
sekundiga
sel
seld
selec
seleccio
select
selected
selection
selects
seleksiya
seleksiyasi
selena
self
selim
sell
sellers
selling
sells
sellyuloza
selo
seltik
sem
semantik
sement
semey
semi
seminar
seminarlar
semirib
semiz
semyon
sen
sena
senat
senate
senati
senatining
senatning
senator
senatori
senators
send
sendan
sends
senegal
senga
seni
sening
senior
senlis
sens
sense
sensor
sensori
sensorli
sent
sentabr
sentabrda
sentabrdagi
sentabrdan
sentabrgacha
sentabrida
sentinel
sentyabr
sentyabrda
sentyabrdan
sentyabrgacha
sentyabrida
sentyabrya
senzura
seo
seoul
sep
separated
sepib
sepiladi
sepmoq
sept
september
sequel
ser
sera
serb
serbcha
serbia
serbian
serbiya
serbiyaga
serbiyalik
serbiyaning
serblar
serena
sergeevich
sergei
sergey
sergio
serhatli
serhosil
serial
serialda
seriali
serialida
serialidagi
serialining
seriallar
serialni
serialning
serie
series
serious
seriya
seriyada
seriyadagi
seriyaga
seriyali
seriyani
seriyaning
seriyasi
seriyasida
seriyasidagi
seriyasidan
seriyasidir
seriyasiga
seriyasini
seriyasining
serjant
sermahsul
sernam
serra
sersuv
sertifikat
sertifikati
sertifikatiga
sertifikatlangan
serve
server
serveri
serverida
service
services
servis
serxio
seryog
ses
seshanba
sesil
session
sessiya
sessiyasi
sessiyasida
set
setda
seth
seton
sets
setting
settlement
settlers
seul
seulda
seung
sevaman
sevan
sevastopol
seven
seventh
several
sevgan
sevgi
sevgilisi
sevgisi
sevib
sevilla
sevilya
sevimli
sevinch
sevishganlar
sex
sexi
sexton
sexual
seysmik
sezar
sezdi
sezgi
sezgir
sezgirlik
sezib
seziladi
sezilarli
sezilib
sezish
sezmoq
sezuvchanlik
sezuvchi
sf
sferik
sfn
sfnm
sfnp
sft
sg
sgan
sh
sha
shab
shabada
shabadalar
shadi
shadigan
shadow
shaffof
shafqat
shafqatsiz
shafqatsizlarcha
shafqatsizlik
shaftoli
shag
shah
shahar
shaharcha
shaharchada
shaharchadir
shaharchasi
shaharchasida
shaharda
shahardagi
shahardan
shahardir
shaharga
shahariga
shaharlar
shaharlararo
shaharlarda
shaharlardagi
shaharlardan
shaharlarga
shaharlari
shaharlarida
shaharlaridagi
shaharlaridan
shaharlariga
shaharlarini
shaharlarining
shaharlarni
shaharlarning
shaharliklar
shaharni
shaharning
shaharsozlik
shahid
shahidlar
shahr
shahri
shahrida
shahridagi
shahridan
shahriga
shahrigacha
shahrik
shahrini
shahrining
shahrisabz
shahriston
shahrixon
shahvoniy
shahzoda
shahzodasi
shak
shakar
shakarqamish
shake
shakespeare
shakhtar
shaki
shakl
shaklda
shakldagi
shaklga
shakli
shaklida
shaklidagi
shaklidan
shaklidir
shakliga
shaklini
shaklining
shakllana
shakllanadi
shakllandi
shakllangan
shakllanib
shakllanish
shakllanishi
shakllanishida
shakllanishiga
shakllantiradi
shakllantirish
shakllantirishda
shakllantirishga
shakllar
shakllarda
shakllarga
shakllari
shakllarida
shakllaridan
shakllariga
shakllarini
shakllarining
shakllarni
shaklli
shaklni
shaloq
sham
shama
shame
shamol
shamoli
shamollar
shamollatish
shampan
shams
shamsutdinov
shan
shanba
shanda
shandan
shandong
shane
shang
shanghai
shankar
shannon
shanxay
shanxayda
shape
shar
sharaf
sharafi
sharafiga
sharafini
sharafli
sharbat
sharbati
sharda
share
shares
sharh
sharhi
sharhida
sharhlar
sharhlari
sharhlarni
sharhlovchi
sharhlovchilar
sharhlovchisi
shari
shariat
sharif
sharifi
sharining
sharipov
shark
sharkda
sharks
sharl
sharlotta
sharm
sharma
sharmanda
sharning
sharob
sharof
sharoit
sharoitda
sharoitga
sharoiti
sharoitida
sharoitiga
sharoitlar
sharoitlarda
sharoitlarga
sharoitlari
sharoitlarida
sharoitlariga
sharoitlarini
sharoitlarni
sharon
sharp
sharq
sharqda
sharqdagi
sharqdan
sharqi
sharqida
sharqidagi
sharqiy
sharqning
sharqona
sharqqa
sharqshunos
sharqshunoslari
sharqshunoslik
sharshara
sharsharasi
sharsimon
shart
sharti
shartlar
shartlari
shartlariga
shartlarini
shartli
shartnoma
shartnomada
shartnomaga
shartnomalar
shartnomalari
shartnomalarini
shartnomalarni
shartnomani
shartnomaning
shartnomasi
shartnomasida
shartnomasidan
shartnomasiga
shartnomasini
shartnomasining
shashka
shashmaqom
shassi
shatib
shatildi
shatilgan
shatish
shatmoq
shaun
shavkat
shaw
shaxe
shaxmat
shaxmatchi
shaxmatchisi
shaxs
shaxsan
shaxsga
shaxsi
shaxsini
shaxsiy
shaxsiyat
shaxsiyati
shaxslar
shaxslararo
shaxslardan
shaxslarga
shaxslari
shaxslarni
shaxslarning
shaxsni
shaxsning
shaxta
shaxtyor
shay
shayboniy
shayboniylar
shayboniyxon
shayton
shayx
shayxi
shayxzoda
shchinor
shdi
shdilar
she
shea
shebelieves
sheeran
sheet
sheffield
sheffild
sheikh
sheila
shekilli
shekspir
shekspirning
shelby
shell
shen
shengen
shenhua
shenzhen
shepherd
sher
sherali
sherdog
sheridan
sherigi
sherik
sheriklar
sheriklari
sheriklik
sherlar
sherlock
sherlok
sherman
sherobod
sheroz
sheroziy
sherzod
shetty
sheva
shevchenko
shgan
shi
shia
shialar
shib
shida
shiddat
shiddatli
shield
shifo
shifobaxsh
shifokor
shifokori
shifokorlar
shifokorlari
shifoxona
shifoxonalar
shifoxonasi
shifrlash
shift
shig
shiga
shikast
shikastlangan
shikastlanish
shikastlanishi
shikoyat
shiladi
shiladigan
shildi
shilgan
shilgandan
shilganidan
shilib
shilimshiq
shilish
shilishdan
shilishdi
shilishga
shilishi
shilishidan
shilishni
shiller
shilliq
shilmoq
shim
shimcha
shimchalar
shimchalari
shimchasi
shimchasini
shimol
shimolda
shimoldagi
shimoldan
shimolga
shimoli
shimolida
shimolidagi
shimolidan
shimoliy
shin
shina
shinalar
shine
shinelli
shines
shing
shini
shiniga
shining
shinini
shinining
shinjon
shinlar
shinlari
shinlariga
shinlarini
shinlarining
shinlarni
shinlarning
shinni
shinning
shior
shiori
ship
shiq
shiqchi
shiqchilar
shiqchilik
shiqchisi
shiqda
shiqlar
shiqlari
shiqlarini
shiqlarining
shiqlarni
shiqlarning
shiqni
shiqning
shir
shira
shirali
shirasi
shirin
shirinlik
shirinliklar
shirkat
shirkati
shirley
shirt
shirvon
shish
shisha
shishasimon
shishga
shishgan
shishi
shishib
shishni
shiva
shizofreniya
shk
shkala
shkalasi
shleyxer
shlezvig
shlig
shliq
shliqlar
shliqni
shlyapa
shma
shmidt
shmoq
shni
shnilar
shnilari
shnisi
sho
shock
shod
shodlik
shogird
shogirdi
shogirdlar
shogirdlari
shoh
shohi
shohin
shohlar
shohmurod
shohning
shohnoma
shohrux
shoir
shoira
shoiri
shoirlar
shoirlari
shoirlarning
shoirning
shok
shokir
shokolad
shokoladli
shol
sholg
sholi
shom
shomil
shon
shonli
shoot
shooting
shootout
shop
shoqata
shore
short
shosh
shoshib
shoshilinch
shot
shotland
shotlandiya
shotlandiyada
shotlandiyadagi
shotlandiyaga
shotlandiyalik
shotlandiyaning
shou
shouda
shoularda
shoularida
should
shouni
shouning
shousi
shousida
shousini
shousining
shov
shovqin
shovqinli
show
shows
showtime
shox
shoxi
shoxlar
shoxlari
shoxli
shoxobchalari
shoyi
shporlar
shqin
shqipe
shrek
shrewsbury
shri
shroff
shsh
sht
shtab
shtabi
shtabiga
shtat
shtatda
shtatdagi
shtati
shtatida
shtatidagi
shtatidan
shtatiga
shtatining
shtatlar
shtatlarda
shtatlardagi
shtatlardan
shtatlarga
shtatlari
shtatlarida
shtatlaridagi
shtatlariga
shtatlarining
shtatlarni
shtatlarning
shtatning
shti
shtidan
shtini
shtiriya
shtli
shtml
shtni
shtutgart
shu
shubha
shubhali
shubhasiz
shudgor
shug
shuhrat
shuhrati
shuki
shukrullo
shukur
shukurov
shular
shulardan
shum
shumer
shun
shunaqa
shuncha
shunchaki
shunchalik
shunda
shundaki
shundan
shunday
shunga
shuni
shuning
shuningdek
shunisi
shusha
shut
shuttle
shuv
shuvli
shuvoq
shuxrat
shv
shved
shvedcha
shvetsiya
shvetsiyada
shvetsiyadagi
shvetsiyaga
shvetsiyalik
shvetsiyaning
shveysariya
shveysariyada
shveysariyaga
shveysariyalik
shveysariyaning
shveytsariya
shveytsariyada
shveytsariyalik
shveytsariyaning
si
sia
sian
sib
sibir
sibirda
sibirning
sic
sich
sichqon
sichqoncha
sichuan
sid
sida
sidan
siddiq
side
sidney
sidneyda
sie
siemt
siena
sierra
sietl
sifat
sifati
sifatida
sifatidagi
sifatidan
sifatiga
sifatini
sifatli
sify
sig
siga
sigaret
sigir
sigma
sign
signal
signali
signallar
signallari
signallarni
signed
signing
signings
signs
siima
sikl
sikli
siklik
sil
silence
silent
sileziya
sili
silicon
silikat
silindr
silindrli
silindrsimon
siljish
siljishi
siljiydi
silk
silliq
silovsin
siltab
silva
silver
silvia
sim
sima
simbad
simferopol
simfonik
simfoniya
simlar
simli
simligi
simlik
simliklar
simliklarda
simliklardan
simliklarga
simliklari
simliklarni
simliklarning
simlikni
simlikning
simmetrik
simmetriya
simmons
simob
simon
simone
simple
simpson
simptomlar
sims
simsiz
simta
simulator
simulyatsiya
sin
sina
sinab
sinan
sinash
sinatra
sinay
since
sinchiklab
sinchkovlik
sinclair
sind
sinda
sindirib
sindirish
sindirmoq
sindrom
sindromi
sinf
sinfda
sinfdan
sinfga
sinfgacha
sinfi
sinfida
sinfidagi
sinfiga
sinfini
sinfining
sinfiy
sinflar
sinflari
sing
singan
singapore
singapur
singapurda
singapurdagi
singapurning
singari
singer
singh
singib
singil
singillar
singillari
singl
single
singles
singleton
singli
singlini
singlisi
singx
sinha
sini
sinib
sining
siniq
sinish
sinishi
sink
sinlar
sino
sinonimi
sinov
sinovdan
sinovi
sinovlar
sinovlari
sintaktik
sintetik
sintez
sintezi
sintezini
sinxron
sio
sion
siq
siqib
siqilgan
siqilish
siqish
siqlar
siqlarni
sir
sira
sirasiga
sirchan
sirdaryo
sirdaryoning
sirg
sirga
siri
sirida
siridan
siriga
sirini
sirining
sirk
sirka
sirlangan
sirlar
sirlari
sirlarini
sirlarni
sirli
sirni
sirt
sirtdan
sirtga
sirti
sirtida
sirtiga
sirtqi
sis
sish
sishda
sishga
sishi
sishiga
sishini
sishni
sistema
sistemalar
sistemasi
sistemasida
sistemasiga
sistemasini
sistemasining
sistemi
sister
sisters
sit
site
sites
siti
sitkomida
sitrus
sitsiliya
situation
siu
sivas
sivilizatsiya
sivilizatsiyasi
six
sixth
siy
siydik
siyoh
siyosat
siyosatchi
siyosatchilar
siyosatchisi
siyosatda
siyosatdan
siyosatga
siyosati
siyosatida
siyosatiga
siyosatini
siyosatining
siyosatni
siyosatning
siyosatshunos
siyosatshunoslik
siyosiy
siyoyev
siyrak
siz
sizda
sizdan
size
sizga
sizib
sizlar
sizni
sizning
sk
ska
skandinaviya
skanerlash
skate
skating
skaut
skelet
skeleti
ski
skif
skiflar
skills
skin
skinner
skoda
skott
skripka
skripkachi
sku
sky
sl
sla
slam
slanets
slate
slater
slavia
slavyan
slavyanlar
sleep
sleeping
sloan
slovak
slovakia
slovakiya
slovakiyaning
slovar
slovencha
slovenia
sloveniya
slow
sm
sma
smalar
small
smart
smartfon
smartfonlar
smash
smetana
smir
smirlar
smirlik
smirnov
smit
smith
smithsonian
smola
[...]
