!
"
#
##0
##1
##10
##11
##12
##13
##14
##15
##16
##17
##18
##19
##2
##20
##21
##22
##23
##24
##25
##26
##27
##28
##29
##3
##30
##31
##32
##33
##34
##35
##36
##37
##38
##39
##4
##40
##41
##42
##43
##44
##45
##46
##47
##48
##49
##5
##50
##51
##52
##53
##54
##55
##56
##57
##58
##59
##6
##60
##61
##62
##63
##64
##65
##66
##67
##68
##69
##7
##70
##71
##72
##73
##74
##75
##76
##77
##78
##79
##8
##80
##81
##82
##83
##84
##85
##86
##87
##88
##89
##9
##90
##91
##92
##93
##94
##95
##96
##97
##98
##99
$
%
&
'
(
)
*
+
,
-
.
/
0
00
000
001
002
003
004
005
006
007
009
01
02
03
04
05
06
07
08
09
1
10
100
1000
10000
1001
1002
1007
101
1010
1011
1016
1017
102
1020
1024
103
1030
1038
104
1040
105
1050
106
1066
107
1070
1071
108
1080
1086
109
1093
1097
1099
11
110
1100
111
1111
112
1120
1125
1127
113
114
1146
115
1150
1156
116
117
118
119
12
120
1200
1204
1206
1209
121
122
1220
1221
123
1231
124
1240
1241
125
1250
1258
126
1260
1261
127
1271
1277
128
1280
1286
129
13
130
1300
131
132
133
1333
1336
134
1340
135
1350
136
1360
1364
1365
1366
1368
137
1370
138
1380
1386
1389
139
1390
1392
1394
1399
14
140
1400
1402
1403
1404
1405
141
1410
142
143
1430
144
1440
145
1450
1453
146
1460
1461
1469
147
1470
1475
148
1480
1485
1487
149
1490
1492
1493
1494
1495
1497
1498
1499
15
150
1500
1501
1502
1503
1504
1505
1506
1507
1508
1509
151
1510
1511
1512
1513
1514
1515
1516
1517
1519
152
1520
1521
1522
1524
1525
1526
1527
1528
1529
153
1530
1532
1533
1534
1535
1536
1538
1539
154
1540
1541
1542
1543
1545
1547
1549
155
1550
1551
1552
1553
1554
1555
1556
1557
1558
1559
156
1560
1561
1562
1564
1565
1566
1568
1569
157
1570
1571
1572
1573
1574
1575
1576
1578
158
1580
1581
1582
1583
1584
1585
1586
1588
1589
159
1590
1592
1593
1595
1596
1597
1598
16
160
1600
1601
1602
1603
1604
1605
1606
1607
1608
1609
161
1610
1611
1612
1613
1614
1615
1616
1617
1618
1619
162
1620
1621
1622
1623
1624
1625
1626
1627
1628
1629
163
1630
1631
1632
1633
1635
1636
1637
1638
164
1640
1642
1643
1644
1645
1646
1647
1648
1649
165
1650
1651
1653
1654
1655
1656
1657
1658
1659
166
1660
1661
1663
1664
1665
1666
1667
1668
1669
167
1670
1672
1673
1675
168
1680
1681
1682
1683
1685
1686
1687
1688
1689
169
1690
1694
1695
1696
1697
1698
1699
17
170
1700
1701
1702
1703
1704
1705
1707
1708
1709
171
1710
1711
1712
1713
1714
1715
1716
1717
1718
1719
172
1720
1721
1722
1723
1724
1725
1727
1728
1729
173
1730
1731
1732
1733
1734
1735
1736
1737
1738
1739
174
1740
1741
1742
1743
1744
1745
1747
1748
1749
175
1750
1751
1752
1753
1754
1755
1756
1757
1758
1759
176
1760
1761
1762
1763
1764
1765
1766
1767
1768
1769
177
1770
1771
1772
1773
1774
1775
1776
1777
1778
1779
178
1780
1781
1782
1783
1784
1785
1786
1787
1788
1789
179
1790
1791
1792
1793
1794
1795
1796
1797
1798
1799
18
180
1800
1801
1802
1803
1804
1805
1806
1807
1808
1809
181
1810
1811
1812
1813
1814
1815
1816
1817
1818
1819
182
1820
1821
1822
1823
1824
1825
1826
1827
1828
1829
183
1830
1831
1832
1833
1834
1835
1836
1837
1838
1839
184
1840
1841
1842
1843
1844
1845
1846
1847
1848
1849
185
1850
1851
1852
1853
1854
1855
1856
1857
1858
1859
186
1860
1861
1862
1863
1864
1865
1866
1867
1868
1869
187
1870
1871
1872
1873
1874
1875
1876
1877
1878
1879
188
1880
1881
1882
1883
1884
1885
1886
1887
1888
1889
189
1890
1891
1892
1893
1894
1895
1896
1897
1898
1899
19
190
1900
1901
1902
1903
1904
1905
1906
1907
1908
1909
191
1910
1911
1912
1913
1914
1915
1916
1917
1918
1919
192
1920
1921
1922
1923
1924
1925
1926
1927
1928
1929
193
1930
1931
1932
1933
1934
1935
1936
1937
1938
1939
194
1940
1941
1942
1943
1944
1945
1946
1947
1948
1949
195
1950
1951
1952
1953
1954
1955
1956
1957
1958
1959
196
1960
1961
1962
1963
1964
1965
1966
1967
1968
1969
197
1970
1971
1972
1973
1974
1975
1976
1977
1978
1979
198
1980
1981
1982
1983
1984
1985
1986
1987
1988
1989
199
1990
1991
1992
1993
1994
1995
1996
1997
1998
1999
2
20
200
2000
2001
2002
2003
2004
2005
2006
2007
2008
2009
201
2010
2011
2012
2013
2014
2015
2016
2017
2018
2019
202
2020
2021
2022
2023
2024
2025
2026
203
2030
204
205
2050
206
207
208
209
21
210
2100
211
212
213
214
215
216
217
218
219
22
220
2200
221
222
223
224
225
226
227
228
229
23
230
2300
231
232
233
234
235
236
237
238
239
24
240
2400
241
242
243
244
245
246
247
248
249
25
250
2500
251
252
253
254
255
256
257
258
259
26
260
2600
261
262
263
264
265
266
267
268
269
27
270
2700
271
272
273
274
275
276
277
278
279
28
280
2800
281
282
283
284
285
286
287
288
289
29
290
291
292
293
294
295
296
297
298
299
3
30
300
3000
301
302
303
304
305
306
307
308
309
31
310
3100
311
312
313
314
315
316
317
318
319
32
320
3200
321
322
323
324
325
326
327
328
329
33
330
3300
331
332
333
334
335
336
337
338
339
34
340
341
342
343
344
345
346
347
348
349
35
350
3500
351
352
353
354
355
356
357
358
359
36
360
3600
361
362
363
364
365
366
367
368
369
37
370
371
372
373
374
375
376
377
378
379
38
380
381
382
383
384
385
386
387
388
389
39
390
391
392
393
394
395
396
397
398
399
4
40
400
4000
401
402
403
404
405
406
407
408
409
41
410
411
412
413
414
415
416
417
418
419
42
420
421
422
423
424
425
426
427
428
429
43
430
431
432
433
434
435
436
437
438
439
44
440
441
442
443
444
445
446
447
448
449
45
450
4500
451
452
453
454
455
456
457
458
459
46
460
461
462
463
464
465
466
467
468
469
47
470
471
472
473
474
475
476
477
478
479
48
480
481
482
483
484
485
486
487
488
489
49
490
491
492
493
494
495
496
497
498
499
5
50
500
5000
501
502
503
504
505
506
507
508
509
51
510
511
512
513
514
515
516
517
518
519
52
520
521
522
523
524
525
526
527
528
529
53
530
531
532
533
534
535
536
537
538
539
54
540
541
542
543
544
545
546
547
548
549
55
550
5500
551
552
553
554
555
556
557
558
559
56
560
561
562
563
564
565
566
567
568
569
57
570
571
572
573
574
575
576
577
578
579
58
580
581
582
583
584
585
586
587
588
589
59
590
591
592
593
594
595
596
597
598
599
6
60
600
6000
601
602
603
604
605
606
607
608
609
61
610
611
612
613
614
615
616
617
618
619
62
620
621
622
623
624
625
626
627
628
629
63
630
631
632
633
634
635
636
637
638
639
64
640
641
642
643
644
645
646
647
648
649
65
650
6500
651
652
653
654
655
656
657
658
659
66
660
661
662
663
664
665
666
667
668
669
67
670
671
672
673
674
675
676
677
678
679
68
680
681
682
683
684
685
686
687
688
689
69
690
691
692
693
694
695
696
697
698
699
7
70
700
7000
701
702
703
704
705
706
707
708
709
71
710
711
712
713
714
715
716
717
718
719
72
720
721
722
723
724
725
726
727
728
729
73
730
731
732
733
734
735
736
737
738
739
74
740
741
742
743
744
745
746
747
748
749
75
750
7500
751
752
753
754
755
756
757
758
759
76
760
761
762
763
764
765
766
767
768
769
77
770
771
772
773
774
775
776
777
778
779
78
780
781
782
783
784
785
786
787
788
789
79
790
791
792
793
794
795
796
797
798
799
8
80
800
8000
801
802
803
804
805
806
807
808
809
81
810
811
812
813
814
815
816
817
818
819
82
820
821
822
823
824
825
826
827
828
829
83
830
831
832
833
834
835
836
837
838
839
84
840
841
842
843
844
845
846
847
848
849
85
850
851
852
853
854
855
856
857
858
859
86
860
861
862
863
864
865
866
867
868
87
870
871
872
873
874
875
876
877
878
879
88
880
881
882
883
885
886
888
889
89
890
891
892
893
895
896
897
899
9
90
900
9000
901
902
903
904
905
906
907
908
909
91
910
911
912
913
914
915
916
917
918
919
92
920
921
922
923
924
925
926
928
929
93
930
932
933
935
936
938
939
94
940
941
943
944
945
947
95
950
951
954
955
956
958
96
960
961
962
963
964
965
966
967
968
969
97
970
971
973
975
976
977
978
98
980
981
983
985
987
988
989
99
990
991
992
994
996
9965
997
998
999
99947
:
;
<
=
>
?
@
\
^
_
`
a
aa
aaa
aachen
aargau
aaron
ab
aba
ababil
abadiy
abadiyat
abay
abbas
abbeville
abbey
abbos
abbosiy
abbosiylar
abbott
abby
abc
abd
abdel
abdu
abdug
abdul
abdulaziz
abdulhamid
abdulla
abdullaev
abdullah
abdullaxon
abdullayev
abdulloh
abdulqodir
abdulrahmon
abdurahim
abdurahmon
abdurahmonov
abdurauf
abdurrahmon
abdusattor
abe
abel
aberdeen
aberdin
abgerufen
abi
abigail
abonent
abort
about
abraham
abramov
abror
abruzzo
abs
absheron
abstrakt
abu
abul
abulg
abulqosim
abxaziya
ac
academic
academy
acb
acc
accenture
access
accessed
according
ace
aces
achchiq
achievement
achillea
acl
acq
across
act
action
active
actor
actors
actress
acura
ad
ada
adab
adabiy
adabiyot
adabiyotda
adabiyotga
adabiyoti
adabiyotida
adabiyotidagi
adabiyotiga
adabiyotini
adabiyotining
adabiyotlar
adabiyotlarda
adabiyotlari
adabiyotni
adabiyotning
adabiyotshunos
adabiyotshunoslar
adabiyotshunoslik
adadi
adagi
adam
adams
adan
adana
adaptiv
adashgan
adashtirmaslik
addison
adel
adelaida
adelaide
adi
adib
adiblar
adibning
adidas
adigan
adige
adir
adiyaman
adler
adliya
administration
administrative
administrator
admiral
admirali
ado
adobe
adolat
adolatli
adolatsiz
adolf
adolphe
adresa
adrian
adriano
adrien
advanced
adventures
advokat
advokati
advokatlar
advokatlik
adıyaman
ae
aek
aerodinamik
aerodrom
aeroflot
aerokosmik
aeronavtika
aeroport
aeroportda
aeroportga
aeroporti
aeroportida
aeroportidan
aeroportiga
aeroportlar
aes
af
afandi
afc
aff
affairs
afg
afghan
afghanistan
afina
afinada
afinadagi
afl
aflotun
africa
african
afrika
afrikada
afrikadagi
afrikadan
afrikaga
afrikalik
afrikaliklar
afrikani
afrikaning
afro
afroamerikalik
afrosiyob
afsona
afsonaga
afsonalar
afsonalarga
afsonalari
afsonaning
afsonasi
afsonaviy
afsuski
after
aftidan
afur
afurov
afv
afyonkarahisar
afyun
afzal
afzalligi
afzallik
afzalliklarga
afzalliklari
afzalliklarini
ag
aga
again
against
agar
agarda
agassi
agassiz
agata
age
agency
agent
agentga
agenti
agentlar
agentlari
agentligi
agentligiga
agentligining
agentlik
agentliklari
agmk
agnes
agra
agrar
agregat
agregatlar
agressiv
agriculture
agronom
agrosanoat
ah
ahamiyat
ahamiyatga
ahamiyati
ahamiyatiga
ahamiyatini
ahamiyatli
ahamiyatsiz
ahamoniylar
ahd
ahl
ahldagi
ahli
ahlning
ahmad
ahmadiy
ahmadiya
ahmadjon
ahmadning
ahmadshoh
ahmed
ahmedov
ahmet
ahmoq
aholi
aholidan
aholiga
aholini
aholining
aholisi
aholisidan
aholisiga
aholisini
aholisining
ahror
ahvol
ahvolda
ahvolga
ahvoli
ahvolini
ai
aichi
aid
aiff
aig
aik
aims
ain
air
airbnb
airbus
aircraft
aires
airlines
airport
airways
ais
aise
aisne
aizu
aj
ajal
ajam
ajax
ajay
ajdaho
ajdar
ajdodi
ajdodlar
ajdodlari
ajoyib
ajraladi
ajraladigan
ajralgan
ajralib
ajralish
ajralishdi
ajralishi
ajralmas
ajrashdi
ajrashgan
ajrashgandan
ajrashish
ajrashishdi
ajrata
ajratadi
ajratdi
ajratgan
ajratib
ajratiladi
ajratildi
ajratilgan
ajratilishi
ajratish
ajratishga
ajratishni
ajratuvchi
ak
aka
akad
akademigi
akademik
akademiklar
akademiklari
akademiya
akademiyada
akademiyani
akademiyaning
akademiyasi
akademiyasida
akademiyasiga
akademiyasini
akademiyasining
akalari
akasi
akasining
akbar
akbarning
akbarov
akc
ake
akira
akita
akkad
akkreditatsiya
akkreditatsiyadan
akkumulyator
akmal
akr
aks
aksar
aksari
aksariyat
aksariyati
aksessuarlar
aksi
aksilinqilobiy
aksincha
aksini
aksiya
aksiyadorlar
aksiyadorlik
aksiyalar
aksiyalari
aksiyalarini
aksiyalarining
aksiyalarni
akt
akti
aktiv
aktivlar
aktivlari
aktivlarini
aktivlarni
aktobe
aktrisa
aktrisalar
aktrisalari
aktrisalik
aktrisaning
aktrisasi
aktsiyadorlik
aktsiyalari
aktsiyalarini
aktsiyalarni
aktyor
aktyori
aktyorlar
aktyorlari
aktyorlik
aktyorlikka
aktyorning
akula
akulalar
akusherlik
akustik
akvarel
akvarium
akvitaniya
al
ala
alaba
alabada
alabadan
alabaga
alabalar
alabalari
alabali
alabama
alabani
alabaning
alabasi
alabasida
alabasidan
alabasiga
alabasini
alam
alan
alanga
alar
alararo
alari
alarini
alarni
alash
alaska
alati
alaves
alayhi
alayhissalom
alayhissalomning
alba
alban
albaniya
albaniyaga
albaniyalik
albaniyaning
albanlar
albany
albatros
albatta
albert
alberta
alberto
albertsons
albion
albionga
albom
albomda
albomdagi
albomga
albomi
albomida
albomidagi
albomidan
albomiga
albomini
albomining
albomlar
albomlari
albomni
albomning
album
aldab
aldash
alec
alejandro
aleks
aleksandr
aleksandra
aleksandriya
aleksandrov
aleksandrovich
aleksandrovka
aleksandrovna
aleksey
alen
alenc
alessandria
alessandro
alex
alexa
alexander
alexandra
alexandre
alexis
alfa
alfavit
alfonso
alfred
alfredo
alg
algarve
algebra
algebraik
algoritm
algoritmi
ali
alia
alibaba
alicante
alice
alifbo
alifbosi
alifbosida
alifbosiga
alifbosining
align
alimov
alimova
alina
alining
alisa
alish
alisher
alison
alixon
aliyev
aliyeva
aliyevning
alkogol
alkogolizm
alkogolli
alkogolsiz
all
alla
allachilik
allan
allaorol
allaqachon
allar
allarga
allegheny
allen
allenning
allergik
allergiya
alley
alliance
allier
allison
alloh
allohdan
allohga
allohning
alloma
allstate
allsvenskan
allyuvial
alma
almas
almashdi
almashinib
almashinuv
almashinuvi
almashinuvini
almashinuvining
almashish
almashlab
almashtiradi
almashtirdi
almashtirgan
almashtirib
almashtiriladi
almashtirildi
almashtirilgan
almashtirilishi
almashtirish
almashtirishga
almashtirishni
almati
almeri
aloe
alohida
alomati
alomatlar
alomatlari
alomatlarini
along
alonso
aloqa
aloqada
aloqador
aloqadorligi
aloqaga
aloqalar
aloqalarga
aloqalari
aloqalarini
aloqalarni
aloqalarning
aloqani
aloqaning
aloqasi
aloqasini
alouddin
alp
alpes
alpha
alphabet
alpinist
alpinistlar
alpomish
als
also
alt
alternativ
alternative
alto
altsgeymer
alvares
alvaro
alves
always
alyans
alyansi
alyaska
alyuminiy
am
ama
amaki
amakisi
amakivachchasi
amal
amalda
amaldagi
amaldor
amaldori
amaldorlar
amaldorlari
amalga
amaliy
amaliyot
amaliyotchi
amaliyotda
amaliyotga
amaliyoti
amaliyotida
amaliyotidan
amaliyotiga
amaliyotini
amaliyotlar
amaliyotlari
amaliyotni
amallar
amand
amanda
amangeldi
amar
amasiya
amasya
amazing
amazon
ambar
ambari
ambarimiz
ambarlar
ambarning
amber
ambulatoriya
amd
ame
america
american
americana
americans
amerika
amerikada
amerikadagi
amerikadan
amerikaga
amerikalik
amerikaliklar
amerikaliklarga
amerikaliklarning
amerikani
amerikaning
amerikasi
amerikasida
amerikasidagi
amfibiya
amg
amgin
ami
amiens
amigdala
amin
amina
aminokislotalar
amir
amiri
amirlar
amirlari
amirligi
amirligida
amirligining
amirlik
amirliklari
amirliklarining
amirning
amirov
amman
ammiak
ammo
ammoniy
amnistiya
among
amor
amorf
amplitudasi
amputantlar
amr
amsterdam
amsterdamda
amu
amudaryo
amudaryoning
amur
amxo
amy
an
ana
anadolu
anaerob
anaga
anaheim
anakkale
anal
analar
analarga
analari
analarida
analaridan
analariga
analarini
analarining
analarni
analitik
analiz
analog
analogi
analysis
anand
anas
anasi
anastasiya
anatolicus
anatoliy
anatomik
anatomiya
anatomiyasi
anatomy
anaviy
anbar
ancha
anchagina
ancient
and
anda
andalusiya
anderlecht
anderlext
anders
andersen
anderson
andersson
andhra
andi
andijon
andijonda
andorra
andozalar
andrade
andre
andrea
andreas
andreev
andreevich
andres
andrew
andrews
andrey
andrich
android
andromeda
andxra
andy
anemiya
anesteziya
ang
angel
angela
angeles
angelo
angels
angidrid
angkor
angl
anglab
anglash
anglatadi
anglatadiki
anglatardi
anglatgan
anglatishi
anglatuvchi
angle
anglikan
angliya
angliyada
angliyadagi
angliyadan
angliyaga
angliyalik
angliyani
angliyaning
anglo
angola
angor
angren
anh
anhalt
ani
aniklash
animal
animals
animation
animatorlar
animatsion
animatsiya
anime
aning
aniq
aniqlab
aniqladi
aniqladilar
aniqlagan
aniqlanadi
aniqlandi
aniqlangan
aniqlanishi
aniqlanmagan
aniqlash
aniqlashda
aniqlashga
aniqlashni
aniqlashning
aniqlay
aniqlaydi
aniqlaydigan
aniqligi
aniqlik
aniqlikdagi
aniqrog
aniqroq
anita
aniyev
anjela
anjeles
anjelesda
anjelesdagi
anjelesga
anji
anjir
anjomlari
anjuman
anjumani
anjumanida
anjumanlar
ankara
ann
anna
annals
anne
anneksiya
anni
annie
anning
anniversary
annual
anonim
anonymous
anoq
anor
anoreksiya
anorganik
anormal
another
anqara
anqarada
anri
ans
ansambl
ansambli
ansambllari
ansoriy
ant
antagonist
antaliya
antalya
antanta
antarktida
antarktika
antenna
anthem
anthony
anti
antibakterial
antibiotik
antibiotiklar
antigen
antigua
antik
antil
antioxiya
antiqa
antoine
antologiya
antologiyasi
anton
antoni
antonio
antonov
antropogen
antropolog
antropologik
antropologiya
antuan
antverpen
anvar
anxel
any
anyan
ao
aorta
ap
aparteid
apellyatsiya
apelsin
apertura
api
apis
apl
apollo
apollodor
apollon
apostol
app
apparat
apparati
apparatlar
apparatlari
appenditsit
apple
application
apps
apr
aprel
aprelda
apreldagi
apreldan
aprelgacha
aprelida
aprelidan
apreliga
apreligacha
aprelya
april
apuliya
aq
aql
aqldan
aqli
aqliy
aqlli
aqsh
aqshda
aqshdagi
aqshdan
aqshga
aqshni
aqshning
aqto
aquarius
aquila
ar
ara
arab
arabcha
arabi
arabia
arabic
arabiston
arabistoni
arabistonida
arabistonidagi
arabistoniga
arabistonining
arabiy
arablar
arablarning
arabshunos
arafasida
arago
aragon
aralash
aralashgan
aralashib
aralashish
aralashma
aralashmalar
aralashmasi
aralashmasidan
aralashmasini
aralashtirib
aralashtiriladi
aralashtirilgan
aralashtirish
aralashuv
aralashuvi
ararat
arava
aravachasi
araz
arb
arbda
arbdagi
arbdan
arbga
arbi
arbida
arbidagi
arbitraj
arbiy
arbning
arbob
arbobi
arboblar
arboblari
arbor
arc
arch
archa
archaeology
archer
archibald
architecture
archive
archived
archives
ardabil
arde
ardi
are
area
arena
arenada
arenas
arenasi
ares
arfa
arg
argan
argentan
argentina
argentinada
argentinaga
argentinalik
argentinaning
argos
argyle
ari
aria
arib
ariel
arifmetik
arifmetika
arina
ariq
aris
aristokratik
aristotel
ariy
ariza
arizalar
arizasi
arizona
arjun
ark
arkada
arkadiy
arkansas
arkanzas
arktika
arlington
arm
arma
arman
armand
armani
armanilar
armaniston
armanistonda
armanistonga
armanistonning
armanlar
armanlarning
armasi
armasiga
armasini
armasining
armatura
armed
armenia
armenian
armiya
armiyada
armiyaga
armiyani
armiyaning
armiyasi
armiyasida
armiyasiga
armiyasini
armiyasining
armor
arms
armstrong
army
arnault
arnold
aro
aromatik
aroq
around
aroyib
arpa
arqon
arra
arrest
arrow
ars
arsenal
arsenalga
arshin
arslan
arslon
art
arte
artefaktlar
artemida
arterial
arteriya
arteriyasi
arthur
article
articles
artilleriya
artilleriyasi
artist
artisti
artistic
artistlar
artistlari
artists
artrit
arts
artsax
artur
artyom
aruz
arvoh
arx
arxaik
arxeolog
arxeologik
arxeologiya
arxeologiyasi
arxeologlar
arxipelagi
arxitektor
arxitektori
arxitektorlar
arxitektura
arxitekturasi
arxitekturasining
arxiv
arxivi
arxivida
arxivirovano
arxivlangan
arxivlar
arxivlari
arxivnaya
arxiyepiskop
arxiyepiskopi
arzimas
arzon
arzonroq
as
asa
asab
asabiy
asad
asahi
asaka
asal
asalari
asalarichilik
asalarilar
asar
asarda
asardagi
asarga
asari
asarida
asaridagi
asaridan
asariga
asarini
asarining
asarlar
asarlarda
asarlardan
asarlarga
asarlari
asarlarida
asarlaridan
asarlariga
asarlarini
asarlarining
asarlarni
asarlarning
asarni
asarning
asbest
asbob
asbobi
asboblar
asboblari
asboblarini
asboblarni
asbobning
asbobsozlik
asd
asean
asetat
asfalt
ash
ashaddiy
ashe
ashley
ashok
ashraf
ashtarxoniylar
ashug
ashula
ashulalar
ashxobod
ashyo
ashyolar
ashyosi
ashyoviy
asi
asia
asian
asida
asidagi
asidan
asiga
asini
asining
asir
asirga
asirlar
asirlari
asirlarni
asirlikda
askar
askari
askarlar
askarlarga
askarlari
askarlariga
askarlarini
askarlarining
askarlarni
askarlarning
askarni
asl
aslan
asli
aslida
aso
asociacio
asoratlar
asoratlari
asos
asosan
asoschi
asoschilari
asoschilaridan
asoschisi
asosda
asosga
asosi
asosida
asosidagi
asosiga
asosini
asosiy
asosiysi
asoslab
asoslanadi
asoslangan
asoslanib
asoslar
asoslari
asoslarini
asoslash
asosli
asossiz
asp
aspen
aspirant
aspiranti
aspirantura
aspiranturada
aspx
asr
asrab
asrash
asrda
asrdagi
asrdan
asrga
asrgacha
asri
asrida
asrlar
asrlarda
asrlardagi
asrlardan
asrlarga
asrlarning
asrlik
asrning
asror
assam
assambleya
assambleyaning
assambleyasi
assambleyasida
assambleyasiga
assambleyasining
assassin
assembly
assimetrik
assimilyatsiya
assist
assistant
assistent
assistenti
assistentlik
associated
associates
association
assortimenti
assotsiatsiya
assotsiatsiyalar
assotsiatsiyalari
assotsiatsiyasi
assotsiatsiyasida
assotsiatsiyasiga
assotsiatsiyasining
assr
ast
asta
astana
astara
astasekin
asteraceae
asteroid
asti
astma
aston
astoydil
astra
astraxan
astrazeneca
astro
astrofizika
astronaut
astronavt
astronavti
astronavtlar
astronom
astronomi
astronomik
astronomiya
astronomlar
asturiya
at
ata
atab
atadi
atadigan
atagan
atala
ataladi
ataladigan
atalanta
ataldi
atalgan
atalib
atalmish
ataluvchi
atama
atamalar
atamalari
atamani
atamaning
atamasi
atamasini
atamasining
atash
atashadi
atashdi
atashgan
atay
ataydi
ataydigan
ataydilar
ataylab
atda
atdagi
atdi
atf
atga
athens
athletes
athletic
athletics
ati
atida
atiga
atigi
atilgan
atini
atining
atipik
atirau
atirgul
atirgullar
atish
atk
atkinson
atkor
atkorlar
atkorlari
atlanta
atlantada
atlantadagi
atlantic
atlantika
atlantiques
atlantis
atlar
atlari
atlas
atlasi
atle
atletico
atletik
atletika
atletikachi
atletiko
atm
atmosfera
atmosferada
atmosferaga
atmosferaning
atmosferasi
atni
atning
ato
atom
atomi
atomlar
atomlari
atomlarning
atoqli
atoy
atp
atr
atrof
atrofda
atrofdagi
atrofi
atrofida
atrofidagi
atrofiga
atrofini
atroflarida
atshunos
atshunoslik
attack
attock
atuvchi
atuvchisi
atvor
atvori
atvorini
au
audi
audio
audit
auditoriya
auditoriyaga
auditoriyasi
auf
aug
augsburg
august
augusta
auguste
aur
aurora
aus
austen
austin
australia
australian
austria
author
authority
authors
autistik
autizm
auto
autoimmun
automobile
automotive
autumn
auvergne
aux
auxerre
av
ava
available
avalanche
avallon
avangard
avant
avariya
avaz
ave
avellino
avengers
avenue
avenyu
avesto
avf
avgust
avgusta
avgustda
avgustdagi
avgustdan
avgustga
avgustgacha
avgustida
avgustidan
avgustigacha
avgustin
aviakompaniya
aviakompaniyalar
aviakompaniyaning
aviakompaniyasi
aviakompaniyasining
aviation
aviatsiya
aviatsiyasi
aviv
aviy
avj
avliyo
avliyolar
avlod
avloddan
avlodga
avlodi
avlodidan
avlodiga
avlodining
avlodlar
avlodlarga
avlodlari
avlodni
avlodning
avloniy
avn
avraam
avranches
avstraliya
avstraliyada
avstraliyadagi
avstraliyadan
avstraliyaga
avstraliyalik
avstraliyaliklar
avstraliyani
avstraliyaning
avstriya
avstriyada
avstriyadagi
avstriyaga
avstriyalik
avstriyaning
avstroneziya
avto
avtobiografik
avtobus
avtobusi
avtobuslar
avtobuslari
avtogol
avtohalokatda
avtokorxona
avtomagistral
avtomagistrali
avtomat
avtomatik
avtomatlashtirilgan
avtomatlashtirish
avtomobil
avtomobilga
avtomobili
avtomobilini
avtomobillar
avtomobillarga
avtomobillari
avtomobillarini
avtomobillarining
avtomobillarni
avtomobillarning
avtomobilni
avtomobilning
avtomobilsiz
avtomobilsozlik
avtonom
avtonomiya
avtopoyga
avtoritar
avtosalonida
avtotransport
avv
avval
avvaldan
avvalgi
avvalgidek
avvaliga
avvallari
avvalo
avvalroq
aw
award
awards
away
ax
axborot
axboroti
axborotlar
axborotlarni
axborotni
axel
axilles
axlat
axloq
axloqi
axloqiy
axloqsiz
ay
aya
ayaks
ayanchli
ayb
aybdor
aybi
aybini
ayblab
aybladi
ayblagan
ayblandi
ayblangan
ayblanib
ayblanuvchi
ayblov
ayblovlar
ayblovlari
ayblovlarni
aybsiz
aydin
ayg
aygan
ayi
ayib
ayig
ayiq
ayiqlar
ayiqlari
ayirboshlash
ayirish
aylana
aylanadi
aylanadigan
aylanasi
aylandi
aylangan
aylangani
aylanganidan
aylanib
aylanish
aylanishdi
aylanishi
aylanishiga
aylanishini
aylanishining
aylanma
aylanmasi
aylantira
aylantiradi
aylantirdi
aylantirgan
aylantirib
aylantiriladi
aylantirildi
aylantirilgan
aylantirish
aylantirishga
aylantiruvchi
aylanuvchi
aylend
ayn
aynan
ayni
ayniqsa
aynishi
ayniy
ayntraxt
ayol
ayoldan
ayolga
ayoli
ayollar
ayollarda
ayollardan
ayollarga
ayollari
ayollarining
ayollarni
ayollarniki
ayollarning
ayollik
ayolni
ayolning
ayon
ayova
ayrat
ayratli
ayres
ayresda
ayrim
ayrimlari
ayrioddiy
ayritabiiy
ayta
aytadi
aytadigan
aytdi
aytgan
aytganda
aytganidek
aytib
aytiladi
aytiladigan
aytildi
aytilgan
aytilishicha
aytilmagan
aytish
aytishadi
aytishdi
aytishga
aytishgan
aytishicha
aytishlaricha
aytishni
ayuntamiento
ayvon
ayyor
ayyub
az
aza
azab
azabini
azablangan
azad
azal
azaldan
azaliy
azallar
azamat
azarenka
azerbaijan
azii
azim
azimov
azitromitsin
aziyat
aziz
aziza
azna
aznachilik
aznaviy
aznaviylar
azni
azo
azob
azot
azotli
azov
azul
azure
azərbaycan
azərbaycanın
b
ba
baa
baba
babos
babu
baby
bach
bachadon
bachchan
back
backeb
background
bad
badajoz
badan
badaviy
badavlat
badaxshon
baden
badi
badiiy
badminton
badmintonchi
badning
badr
bae
bafta
bag
bagama
bagan
baham
bahaybat
baho
bahodir
bahoiy
baholab
baholadi
baholadilar
baholagan
baholanadi
baholandi
baholangan
baholanishi
baholar
baholarga
baholash
baholashda
baholashga
baholashni
baholaydi
bahona
bahor
bahorda
bahorgi
bahori
bahorida
bahosi
bahouddin
bahoulloh
bahramand
bahrayn
bahrom
bahs
bahsda
bahsi
bahsida
bahslar
bahslarda
bahslari
bahslarida
bahslashdi
bahsli
bailey
bain
bains
bajara
bajaradi
bajaradigan
bajardi
bajargan
bajarib
bajariladi
bajariladigan
bajarilgan
bajarilishi
bajarilishini
bajarish
bajarishda
bajarishga
bajarishi
bajarishni
bajaruvchi
bajo
bak
bakalavr
bakalavri
bakalavriat
baker
baki
bakr
bakterial
bakteriya
bakteriyalar
bakteriyalarning
baku
bakı
bal
bala
balance
baland
balandligi
balandligini
balandlik
balandlikda
balandlikdagi
balandlikdan
balandlikka
balandroq
balansi
baldwin
balear
balet
baleti
balg
bali
balig
baliq
baliqchi
baliqchilar
baliqchilik
baliqlar
baliqlari
baliqlarning
baljuvon
balki
ball
ballar
ballari
balldan
ballga
balli
ballistik
ballni
balog
baltimor
baltimore
balujiston
balx
balxiy
balıkesir
bambuk
bamper
bamperlar
ban
banan
bancorp
band
banda
bandar
bandera
bandi
bandini
bandlik
bandung
bang
bangkok
bangladesh
bangladeshda
bangladeshning
bani
bank
banki
bankiga
banking
bankini
bankining
bankir
banklar
banklari
bankni
bankning
banknotalar
bankrot
bankrotlik
banks
banner
bantu
banu
bao
baptist
baptiste
baqlajon
baqtriya
baquvvat
bar
baraban
barabanchi
barabanlar
barack
barak
baraka
barang
baravar
baravarga
barbados
barbara
barber
barbera
barberio
barbod
barcelona
barcha
barchasi
barchasida
barchasini
barda
bardosh
bardoshli
barg
bargi
barglar
barglari
barglarning
bargli
barham
bari
baribir
bariy
barkamol
barker
barlar
barlarda
barmog
barmoq
barmoqlar
barmoqlari
barmoqli
barnes
barns
barnsley
barobar
barobarga
barokko
baron
barpo
barqaror
barqarorlashtirish
barqarorligi
barqarorligini
barqarorlik
barqarorlikni
barr
barra
barrel
barrett
barri
barron
barry
bars
barselona
barselonada
barselonadagi
bart
bartaraf
bartold
barton
barty
barys
bas
base
based
basel
bash
bashir
bashorat
basi
basic
basilicata
bask
basket
basketball
basketbol
basketbolchi
basketbolchilar
basketbolchisi
basketboli
basklar
basra
bass
bassett
bastakor
bastakori
bastakorlar
bastalagan
bat
batafsil
bataloni
batalyon
batamom
batareya
batareyalar
batareyasi
bate
bates
bath
batlantiradi
batlantirdi
batlantirish
batman
battle
batumi
bauer
bauhaus
bavariya
bax
baxmal
baxsh
baxshi
baxt
baxter
baxtiyor
baxtli
baxtsiz
bay
bayan
baybars
bayburt
bayden
bayer
bayern
bayeux
baykal
baylor
bayon
bayoni
bayonne
bayonot
bayonoti
bayonotida
bayonotlar
bayraktar
bayram
bayrami
bayramida
bayramini
bayramlar
bayramlarda
bayramlari
bayramni
bayrog
bayron
bayroq
bayroqdan
bayroqlar
bayroqlari
bayroqni
bayroqning
bayrut
bayt
baza
bazaar
bazaga
bazal
bazalari
bazalt
bazasi
bazasida
bazasidan
bazasiga
bazasini
bazel
bazilika
bb
bbc
bbcning
bc
bd
be
beach
bear
beard
bears
beasley
beast
beat
beatles
beaune
beautiful
beauty
beauvais
beaux
bebaho
bec
became
because
beck
becker
beda
bedana
bedarak
bedford
bee
been
befarq
before
beg
begim
begin
beginning
begona
begum
begunoh
behbudiy
behind
behuda
behzod
bei
beijing
bein
being
beixtiyor
bek
bekasi
bekat
bekati
bekker
bekligi
beklik
bekning
bekobod
bekon
bekor
bel
bela
belagavi
belarus
belarusda
belarusiya
belaruslik
belarusning
belbog
belediyespor
belfast
belfort
belgaum
belgi
belgidan
belgilab
belgiladi
belgilagan
belgilanadi
belgilanadigan
belgilandi
belgilangan
belgilanishi
belgilanmagan
belgilar
belgilarga
belgilari
belgilaridan
belgilariga
belgilarini
belgilarining
belgilarni
belgilarning
belgilash
belgilashda
belgilashga
belgilaydi
belgilaydigan
belgilovchi
belgini
belgining
belgisi
belgisidan
belgisidir
belgisiga
belgisini
belgiya
belgiyada
belgiyadagi
belgiyaga
belgiyalik
belgiyaning
belgorod
belgrad
beliz
bell
bella
belle
belorus
belorussiya
bema
bemalol
bemor
bemorda
bemorga
bemorlar
bemorlarda
bemorlarga
bemorlarni
bemorlarning
bemorni
bemorning
ben
bend
benedikt
benevento
benfica
benfika
bengal
bengaliya
bengaluru
beni
benin
benito
benjamin
bennet
bennett
benson
bentley
benton
benz
benzin
benzinli
benzol
beparvo
beparvolik
bepul
beqaror
beqarorlik
beqiyos
ber
bera
beradi
beradigan
beradilar
berar
berardi
berat
berayotgan
berber
berdaq
berdi
berdilar
berdix
berg
bergama
bergamo
bergan
berganda
bergani
berganida
berganidan
berganini
berganlar
berganligi
bergen
berger
bergerac
bergeron
beri
berib
beriladi
beriladigan
berildi
berilgan
berilganda
berilgani
berilib
berilishi
berilishini
berilmadi
berilmagan
berilmaydi
berilsa
bering
berish
berishadi
berishda
berishdan
berishdi
berishdir
berishga
berishgan
berishi
berishicha
berishiga
berishini
berishlari
berishni
berishning
berk
berkeley
berkli
berlin
berlinda
berlindagi
berlinga
berlinning
bermadi
bermagan
bermaslik
bermay
bermaydi
bermaydigan
bermoqda
bern
bernard
bernardo
berns
berry
bersa
bert
beruniy
beruvchi
beruvchilar
beruvchisi
bes
besanc
besh
beshburchak
beshdan
beshiktosh
beshinchi
beshlik
beshta
beshtasi
besni
best
bet
beta
betakror
betaraf
betaraflik
beth
betis
betlar
beton
better
betti
betty
between
beva
bevasi
beverli
beverly
bevosita
bexabar
bey
beyker
beyli
beyning
beyond
beysbol
beysbolchi
bez
bezak
bezaklar
bezaklari
bezakli
bezash
bezashda
bezatiladi
bezatilgan
bezgak
bezi
bezining
bezlar
bezlari
bezovta
bf
bg
bharat
bhatt
bi
bianchi
biatlon
bibcode
bibi
bibliografik
bibliografiya
bibliografiyasi
biblioteka
bibliya
bich
bid
biden
bidwell
big
biga
bigg
bihar
bil
bila
biladi
biladigan
bilak
bilaman
bilan
bilanoq
bilar
bilardi
bilbao
bild
bildi
bildiradi
bildirdi
bildirgan
bildirib
bildirildi
bildirilgan
bildirish
bildirishdi
bildirishgan
bildiruvchi
bilgach
bilgan
bilib
bilim
bilimdon
bilimga
bilimi
bilimini
bilimlar
bilimlari
bilimlarini
bilimlarni
bilimlarning
bilish
bilishadi
bilishga
bilishgan
bilishi
bilishini
bilishni
bilishning
bill
billboard
billi
billie
billion
billy
bilmagan
bilmas
bilmaydi
bilvosita
bin
binafsha
bing
bingen
bino
binoan
binobarin
binoda
binodan
binoga
binolar
binolarda
binolardan
binolarga
binolari
binolarida
binolaridan
binolarini
binolarining
binolarni
binolarning
binoni
binoning
binosi
binosida
binosiga
binosini
binosining
bint
binti
bio
biografik
biografiya
biografiyasi
biographical
biography
biokimyo
biokimyoviy
biol
biolog
biologik
biologiya
biologiyasi
biology
biometrik
biosfera
biotexnologiya
biotibbiyot
bir
birbiriga
bird
birdamlik
birdan
birdaniga
birds
birga
birgalikda
birgalikdagi
birgina
biri
birida
biridan
biridir
biriga
birikadi
birikib
birikkan
birikma
birikmalar
birikmalari
birikmalarni
birikmalarning
birikmasi
biriktirib
biriktiriladi
biriktirilgan
biriktirish
biriktiruvchi
birimleri
birin
birinchi
birinchidan
birinchilardan
birinchisi
birinchisida
birini
birining
birja
birjasi
birjasida
birlamchi
birlari
birlariga
birlarini
birlashadi
birlashdi
birlashdilar
birlashgan
birlashgandan
birlashib
birlashish
birlashishga
birlashishi
birlashma
birlashmalari
birlashmasi
birlashtiradi
birlashtirdi
birlashtirgan
birlashtirib
birlashtiriladi
birlashtirildi
birlashtirilgan
birlashtirilib
birlashtirish
birlashtirishga
birlashtiruvchi
birligi
birligiga
birligini
birlik
birlikka
birliklar
birliklari
birma
birmingem
birmingham
birmuncha
birodar
birodarlar
birodarlik
biron
biroq
biror
birorta
birovning
biroz
birth
bis
bisau
bishkek
bishop
bismark
bit
bitburg
bitilgan
bitim
bitimi
bitimlar
bitimni
bitirgan
bitiruv
bitiruvchi
bitiruvchilar
bitiruvchilari
bitiruvchisi
bitkazildi
bitkazilgan
bitli
bitlis
bitta
bittadan
bittasi
biy
biz
bizda
bizdan
bizga
bizgacha
biznes
biznesda
biznesga
biznesi
biznesiga
biznesini
biznesining
biznesmen
biznesni
biznesning
bizni
bizning
bj
bjo
bk
bl
black
blackberry
blackburn
blackhawks
blackpink
blackpool
blackwell
blade
blades
blair
blake
blanc
blanco
blazers
blek
blekbern
bler
bleyk
blind
blink
blits
block
blog
blogger
blogi
blois
blok
blokdan
blokga
bloki
blokining
blokirovka
bloklangan
bloklar
bloklari
blokni
blokning
blood
bloom
bloomberg
bloomer
blu
blue
blues
bluetooth
blyuz
bm
bmc
bmt
bmtga
bmtning
bmw
bn
bnp
bo
board
boat
boateng
bob
bobbi
bobby
bobda
bobdan
bobi
bobida
bobil
boblar
bobni
bobo
bobolari
bobosi
boboyev
bobur
boburiy
boburiylar
boburning
boburnoma
boca
bochum
bodom
bodring
body
boeing
bog
bogdan
bogdanovich
bogemiya
bois
boj
bojxona
boka
bokira
bokki
boks
bokschi
bokschilar
bokschisi
boksdagi
boksit
boku
bokuda
bokudagi
bokuga
bokuning
bola
bolaga
bolalar
bolalarda
bolalardan
bolalarga
bolalari
bolalariga
bolalarini
bolalarni
bolalarning
bolaligi
bolaligida
bolaligidan
bolaligini
bolalik
bolalikdagi
bolalikdan
bolani
bolaning
bolasi
bold
bolduin
bolg
bolgan
bolgar
bolgariya
bolgariyada
bolgariyaga
bolgariyalik
bolgariyaning
bolivar
boliviya
bollivud
bollywood
bolo
bologna
boloniya
bolonya
bolqon
bolshaya
bolshevik
bolsheviklar
bolshoy
bolta
boltiq
boltiqbo
bolton
bolu
bomba
bombalar
bombardimon
bombardimonchi
bombardimonchilar
bombasi
bombay
bombey
bon
bonapart
bond
bondarchuk
bongo
bonn
bonus
bonuslar
book
booker
books
boom
boqiladi
boqish
bor
bora
borada
boradagi
boradi
boradigan
boradilar
borar
borardi
borasida
borasidagi
borayotgan
borayotgani
borayotganini
bordeaux
borden
border
bordi
bordilar
bordo
borgan
borganida
borganlar
borganlikda
borib
boricha
boriladi
boriladigan
borilayotgan
borildi
borilgan
borilmoqda
boris
borish
borishadi
borishda
borishdan
borishdi
borishga
borishgan
borishi
borishiga
borishini
borishlari
borishni
borisov
borisovich
borki
borlaug
borligi
borligiga
borligini
borliq
bormagan
bormi
bormoqda
born
borneo
bornmut
bort
bortda
bortdagi
bortida
borussia
borussiya
boruvchi
bos
bosadi
bosch
bosfor
bosgan
bosh
boshchiligida
boshchiligidagi
boshchilik
boshdan
boshga
boshi
boshida
boshidagi
boshidan
boshidanoq
boshiga
boshigacha
boshini
boshining
boshlab
boshladi
boshladilar
boshlagan
boshlagani
boshlaganida
boshlaganidan
boshlaganini
boshlaganlar
boshlanadi
boshlanadigan
boshlandi
boshlang
boshlangan
boshlanganda
boshlangandan
boshlanganidan
boshlanganini
boshlanib
boshlanish
boshlanishi
boshlanishida
boshlanishidan
boshlanishiga
boshlanishini
boshlanuvchi
boshlari
boshlarida
boshlaridagi
boshlaridan
boshlariga
boshlarigacha
boshlarini
boshlash
boshlashdan
boshlashdi
boshlashga
boshlashi
boshlashni
boshlaydi
boshlaydilar
boshli
boshlig
boshliq
boshliqlari
boshlovchi
boshlovchilik
boshlovchisi
boshni
boshning
boshpana
boshq
boshqa
boshqacha
boshqalar
boshqalarda
boshqalardan
boshqalarga
boshqalari
boshqalarni
boshqalarning
boshqara
boshqaradi
boshqaradigan
boshqardi
boshqargan
boshqarib
boshqariladi
boshqariladigan
boshqarilgan
boshqarilishi
boshqarish
boshqarishda
boshqarishga
boshqarishi
boshqarishni
boshqarishning
boshqarma
boshqarmasi
boshqarmasida
boshqarmasiga
boshqarmasining
boshqaruv
boshqaruvchi
boshqaruvchilar
boshqaruvchisi
boshqaruvga
boshqaruvi
boshqaruvida
boshqaruvidagi
boshqaruviga
boshqaruvini
boshqaruvining
boshqaruvni
boshqaruvning
boshqasi
boshqasiga
boshqird
boshqirdiston
bosib
bosiladi
bosilgan
bosilib
bosim
bosimga
bosimi
bosimiga
bosimini
bosimining
bosimli
bosimni
bosimning
bosish
bosma
bosmaxona
bosniya
bosniyalik
bosqich
bosqichda
bosqichdagi
bosqichdan
bosqichga
bosqichi
bosqichida
bosqichidagi
bosqichidan
bosqichiga
bosqichini
bosqichining
bosqichlar
bosqichlarda
bosqichlari
bosqichlarida
bosqichlarini
bosqichli
bosqichma
bosqichni
bosqichning
bosqin
bosqinchi
bosqinchilar
bosqinchilari
bosqinchilariga
bosqinchilik
bosqini
bosqinidan
bosqiniga
bosqinlari
boss
bostirib
bostirildi
bostirish
boston
bostonda
bostondagi
bosuvchi
bot
botanik
botanika
botgan
both
botig
botiq
botir
botishi
botken
botqoq
botqoqli
botsvana
bottega
bottom
bouguereau
boulder
bourg
bourges
bournemouth
bovar
bowen
bowl
box
boxing
boxrec
boy
boyazid
boyd
boyer
boyib
boyitilgan
boyitish
boykot
boylar
boyligi
boyligini
boylik
boyliklar
boyliklari
boyliklarini
boyliklarni
boyo
boyqaro
boys
boysun
boyz
bozor
bozorda
bozordagi
bozorga
bozori
bozorida
bozoridagi
bozoriga
bozorini
bozorining
bozorlar
bozorlarda
bozorlarga
bozorlari
bozorlarida
bozorlariga
bozorni
bozorning
br
bra
brabus
brad
bradford
bradley
brady
braga
brahim
brain
branch
brand
brandenburg
brandon
brands
brandt
brasil
brasileiro
bratislava
braun
braunning
brauzer
brave
bravo
brayan
brayton
brazil
braziliya
braziliyada
braziliyadagi
braziliyaga
braziliyalik
braziliyani
braziliyaning
break
breakers
breaking
bred
breda
bredford
bredli
brekda
bremen
brend
brendan
brendi
brendiga
brendini
brendining
brendlar
brendlari
brendning
brent
brentford
brescia
bresse
brest
bretan
breton
brett
brewer
brian
briand
bridge
bridges
brief
brien
brieuc
briey
brigada
brigadasi
briggs
bright
brighton
brill
brisbane
brisben
bristol
brit
britain
britan
britaniya
britaniyada
britaniyadagi
britaniyadan
britaniyaga
britaniyalik
britaniyaliklar
britaniyani
britaniyaning
britannica
british
britton
broadcasting
broadway
brodi
brodvey
brodveyda
brodveydagi
broken
brokerlik
brokgauza
brom
bromvich
bromwich
bron
bronza
bronzadan
bronze
brook
brooklyn
brooks
bros
brother
brothers
brown
browning
bru
bruce
brugge
bruins
bruk
bruklin
bruks
bruney
bruno
brunson
brunsvik
brunswick
bryan
bryant
bryus
bryussel
bryusselda
brøndby
bs
bsc
bt
btr
bts
bu
buchanan
buck
bucks
bud
buda
budapesht
budapeshtda
budasi
budda
buddaning
buddha
buddist
buddistlar
buddizm
buddizmning
buenos
buffalo
bug
bugatti
bugun
bugungi
building
buildings
buladi
bular
bulardan
bularga
bularning
bulbul
bulg
bulgan
bulgaria
bulib
bull
bulldogs
bulletin
bulls
bullz
bulog
buloq
buloqlar
bulung
bulut
bulutlar
bulutli
bulvari
bun
bunda
bundan
bunday
bundesarchiv
bundesliga
bundesligada
bundesligadagi
bundesligaga
bundesliganing
bundesligasi
bundesligasining
bunga
bungacha
buni
buning
bunny
bunyod
bunyodkor
buqa
buqalar
bur
burch
burchagi
burchagida
burchagiga
burchak
burchakda
burchakdan
burchakka
burchaklar
burchaklari
burchaklarida
burchaklaridan
burchakli
burdur
bureau
burg
burgenland
burger
burgess
burgos
burgundiya
burgut
burguti
burhoniddin
burhonov
burilib
burilish
burish
burj
burjua
burke
burkina
burlington
burma
burmali
burn
burni
burnley
burns
bursa
bursaspor
burton
burun
burundi
bury
buryat
bus
bush
bushning
business
but
buta
butalar
butan
butkul
butler
butparast
butsa
button
butun
butunittifoq
butunjahon
butunlay
butunrossiya
buvisi
buxarest
buxgalteriya
buxoriy
buxoro
buxoroda
buxorodagi
buxoroga
buxorolik
buxoroliklar
buxoroni
buxoroning
buy
buyon
buyrak
buyraklar
buyrakning
buyrug
buyruq
buyruqlar
buyruqlari
buyruqni
buyuk
buyum
buyumlar
buyumlari
buyumlarini
buyumlarni
buyumlarning
buyuradi
buyuradigan
buyurdi
buyurgan
buyurganida
buyurib
buyuriladi
buyurilgan
buyurish
buyurishadi
buyurishdi
buyurtma
buyurtmalar
buyurtmasi
buyuruvchi
buyuruvchilar
buyuruvchilarga
buyuruvchilarni
buzadi
buzdi
buzg
buzgan
buzgani
buzganlik
buzganlikda
buzib
buziladi
buzildi
buzilgan
buzilib
buzilish
buzilishi
buzilishiga
buzilishini
buzilishining
buzilishlar
buzilishlari
buzilmagan
buzish
buzishga
buzishi
buzoq
buzuq
buzuqlik
buzz
bv
bwf
by
byd
byornli
byudjet
byudjeti
byudjetli
byudjetni
byulleteni
byuro
byurokratik
byurosi
byurosiga
byurosining
byust
byusti
c
ca
cable
cadillac
caen
caf
cafe
cage
cagliari
cai
cairo
cal
calabria
calcio
caldwell
calendar
calgary
california
call
called
caltech
calvados
calvin
camaro
cambridge
came
camera
cameron
camp
campagne
campaign
campania
campbell
campeonato
campo
camponotus
campus
can
canada
canadian
canadiens
canal
canberra
cancer
candy
cane
canes
cannes
canon
cantabria
cantal
canucks
cao
cap
cape
capital
capitals
capitol
capriati
captain
car
carbon
card
cardiff
cardinal
care
career
carey
cargo
carl
carlisle
carlo
carlos
carlyle
carol
carolina
caroline
carpenter
carr
carroll
cars
carson
carter
cartoons
cas
casa
case
cases
casey
cash
cast
castello
castilla
castillo
castle
castro
cat
catalogue
catalun
catalunya
category
caterpillar
cathedral
catherine
catholic
cavaliers
cb
cbc
cbs
cc
cctv
cd
cdc
cdma
cdot
ce
celebrity
celeron
cell
celta
celtic
celtics
census
centennial
center
central
centre
centro
centuries
century
cerana
ceremony
ceres
cessna
cev
cf
cfa
cgi
ch
cha
chad
chada
chadagi
chadi
chag
chaga
chak
chakana
chakanda
chala
chalar
chalarda
chalardan
chalari
chalarida
chalaridan
chalg
chalinadi
chalingan
chalish
chalishni
chalkashlik
challenge
challenger
chalon
cham
chamasida
chambarchas
chambe
chamber
chambers
champion
champions
championship
championships
chan
chana
chance
chandler
chandra
chanel
chang
changan
changchun
change
changlanadi
chaning
channel
chanoq
chanoqqal
chanqiri
chao
chap
chapda
chapdan
chapel
chapelle
chapga
chapman
chapter
chaqaloq
chaqaloqlar
chaqaloqlarda
chaqaloqning
chaqiradi
chaqirdi
chaqirgan
chaqirib
chaqirig
chaqiriladi
chaqirildi
chaqirilgan
chaqiriq
chaqirish
chaqiruv
chaqiruvchi
chaqiruvini
chaqiruvni
chaqishi
chaqmoq
chaqqon
character
charchagan
charchoq
charles
charleston
charli
charlie
charlotte
charlton
charlz
charm
charolles
chart
chartda
charter
chartida
chartlar
chartlarida
chartres
charts
chase
chasi
chasida
chasidagi
chasidan
chasiga
chasining
chast
chastota
chastotali
chastotasi
chat
chateau
chatishtirish
chatqol
chavandoz
chayka
chaykovskiy
chayon
chdi
che
cheburashka
chechak
chechen
checheniston
chechenlar
chegara
chegarada
chegaradagi
chegaradan
chegaradosh
chegaraga
chegaralanadi
chegaralangan
chegaralar
chegaralari
chegaralarida
chegaralariga
chegaralarini
chegaralarni
chegarani
chegarasi
chegarasida
chegarasidagi
chegarasidan
chegarasiga
chegarasini
chegarasining
chek
chekadi
chekdi
chekindi
chekinish
chekinishga
chekinishi
chekish
chekishni
chekka
chekkalari
chekkan
chekkasi
chekkasida
chekkasidagi
cheklab
cheklanadi
cheklandi
cheklangan
cheklanganligi
cheklanib
cheklanmagan
cheklash
cheklashga
cheklaydi
chekli
cheklov
cheklovchi
cheklovlar
cheklovlari
cheklovlarni
cheksiz
chelsea
chelsi
cheltenham
chelyabinsk
chem
chemical
chemistry
chempion
chempionat
chempionatda
chempionatdagi
chempionatga
chempionati
chempionatida
chempionatidagi
chempionatidan
chempionatiga
chempionatini
chempionatining
chempionatlarda
chempionatlari
chempionatlarida
chempionatlarining
chempionatning
chempioni
chempioniga
chempionlar
chempionlari
chempionligi
chempionligiga
chempionligini
chempionlik
chempionlikka
chempionlikni
chempionship
chen
cheng
chengdu
chennai
chennay
cher
cherbourg
cherchill
cherkas
cherkes
cherkov
cherkovda
cherkovga
cherkovi
cherkovida
cherkoviga
cherkovini
cherkovining
cherkovlar
cherkovlari
cherkovning
chernigov
chernobil
chernogoriya
chernovtsi
cherokee
cherry
chery
chess
chester
chet
chetda
chetdan
chetga
cheti
chetida
chetidagi
chetidan
chetiga
chetlab
chetlari
chetlashtirildi
chetlashtirilgan
chetlatildi
chetlatilgan
chevrolet
chevron
chex
chexiya
chexiyada
chexiyaga
chexiyalik
chexiyaning
chexoslovakiya
chexov
chgan
chhetri
chi
chiang
chib
chiba
chicago
chidab
chidamli
chidamliligi
chidamliligini
chidamlilik
chief
chig
chigit
chikago
chikagoda
chikagodagi
chikdi
child
children
chile
chili
chilida
chilidagi
chiliga
chilik
chililik
chilining
chilonzor
chim
chimboy
chimkent
chimli
chin
china
chinakam
chinese
ching
chingiz
chingizxon
chingizxonning
chinni
chinnigullar
chinon
chinor
chinoz
chip
chipta
chiptalar
chiqa
chiqadi
chiqadigan
chiqadilar
chiqara
chiqaradi
chiqaradigan
chiqaradilar
chiqardi
chiqardilar
chiqargan
chiqarib
chiqarila
chiqariladi
chiqariladigan
chiqarildi
chiqarilgan
chiqarilgandan
chiqarilganidan
chiqarilib
chiqarilishi
chiqarilishidan
chiqarilishini
chiqarilmagan
chiqarilmoqda
chiqarish
chiqarishda
chiqarishdan
chiqarishdi
chiqarishga
chiqarishi
chiqarishini
chiqarishining
chiqarishni
chiqarishning
chiqaruvchi
chiqaruvchilar
chiqaruvchilardan
chiqaruvchilari
chiqaruvchilarning
chiqaruvchisi
chiqayotgan
chiqdi
chiqdilar
chiqgan
chiqib
chiqiladi
chiqilayotgan
chiqildi
chiqilgan
chiqilishi
chiqilmoqda
chiqindi
chiqindilar
chiqindilari
chiqindilarini
chiqindilarni
chiqish
chiqishadi
chiqishda
chiqishdan
chiqishdi
chiqishga
chiqishgan
chiqishi
chiqishida
chiqishidan
chiqishiga
chiqishini
chiqishining
chiqishlar
chiqishlari
chiqishlarini
chiqishni
chiqmadi
chiqmagan
chiqmaydi
chiqmoqda
chiqqach
chiqqan
chiqqanda
chiqqandan
chiqqani
chiqqanida
chiqqanidan
chiqqanini
chiqqanligi
chiqqanligini
chiqqunga
chiqsa
chiquvchi
chiquvchilar
chirchiq
chirdi
chirgan
chirib
chirigan
chiriladi
chirildi
chirilgan
chirilishi
chirish
chirishga
chirishni
chirog
chiroq
chiroqchi
chiroqlar
chiroqlari
chiroyli
chiruvchi
chish
chishi
chita
chiyabo
chizdi
chizgan
chizig
chizilgan
chiziq
chiziqda
chiziqdan
chiziqlar
chiziqlari
chiziqli
chiziqni
chiziqning
chiziqqa
chizish
chizma
chizmachilik
chizmalar
chjan
chjao
chjen
chjou
chju
chloe
chma
chmanchi
chmanchilar
chmanchilari
chmas
cho
chodir
chog
choi
choice
chok
chol
cholg
chong
chongqing
chop
chopra
choq
chor
chora
choragi
choragida
chorak
chorakda
choralar
choralari
choralarini
choralarni
chorasi
chorbog
chorrahasi
chorrahasida
chorshanba
chorsu
chortoq
chorva
chorvachiligi
chorvachilik
chorvachilikda
chorvador
choson
choy
choyi
chp
chqa
chqalar
chqor
chris
christensen
christian
christie
christina
christine
christmas
christopher
chrome
chronicle
chrysler
chto
chu
chubuk
chuchuk
chuck
chumchuq
chumoli
chumolilar
chun
chung
chunki
chunonchi
chuq
chuqur
chuqurlashtirish
chuqurligi
chuqurlik
chuqurlikda
chuqurlikdagi
chuqurroq
church
chust
chuvalchanglar
chuvash
chuy
ci
cia
cid
cincinnati
cine
cinema
cio
circle
circuit
cisco
citation
cite
cited
citi
cities
citigroup
citizen
citizens
citroe
citroen
city
cityda
cityga
civic
civil
civilization
ck
cl
clair
claire
clara
clare
clarendon
clark
clarke
clarkson
class
classic
classical
classics
classification
claude
claudia
clausura
clay
clayton
cle
clear
clermont
cleveland
cliff
climate
clinical
clinton
clippers
close
cloud
club
clube
cm
cn
cnn
co
coach
coast
coat
coca
coco
code
coffea
coffee
cohen
cola
colchester
cold
cole
coleman
coli
colin
collection
college
collier
collins
colo
colonial
color
colorado
colors
columbia
columbus
com
combat
comcast
come
comedy
comic
comics
coming
command
commentator
commerce
commercial
commercy
commission
committee
commodore
common
commons
communication
communications
community
como
companies
companion
company
comparative
competition
compie
complete
complex
computer
comte
con
concacaf
concept
concert
conference
conflict
congress
conmebol
connecticut
connor
conservation
constitution
construction
consumer
containing
contemporary
content
continental
contract
control
cook
cooking
cool
cooper
coordinates
copa
copenhagen
copy
core
corinthians
cornell
corona
corp
corporate
corporation
corre
corun
cos
cosmopolitan
costa
could
council
count
counter
countries
country
county
coupe
courage
courier
course
court
courtney
coutances
cov
coventry
cover
covid
cox
coyotes
cp
cr
craig
crash
crawford
crawley
crazy
creative
credit
creed
creek
cremona
creuse
crew
crewe
cricket
crime
criminal
crisis
critical
critics
crop
cropped
cross
crown
crs
cruz
crystal
cs
csi
cska
css
ct
cts
cu
cuba
cultural
culture
cuneo
cunningham
cup
current
curry
curtis
cut
cv
cvs
cw
cwhl
cx
cyber
cyrus
cz
czech
d
da
dabdabali
dabi
dabl
dablini
dada
dadil
dae
daewoo
daf
dafn
dafna
daftar
dag
dagi
daha
dahadan
daho
dahshat
dahshatga
dahshatli
dai
daily
daimler
daisy
dak
dakar
dakka
dakligida
dakota
dal
dala
dalada
dalalar
dalar
dalari
dalay
dale
dali
dalian
dalil
dalili
dalillar
dalillarga
dalillari
dalillarni
dallas
dalolat
dalton
dam
damallsvenskan
damashq
damashqda
damda
dame
dan
dana
dance
dancing
dang
dani
daniel
daniela
daniele
danielle
daniels
daniil
danilo
danish
daniya
daniyada
daniyaga
daniyalik
daniyaning
dann
danny
dans
dante
daqiqa
daqiqada
daqiqadan
daqiqaga
daqiqalar
daqiqalarda
daqiqalarida
daqiqalik
daqiqani
daqiqasida
daqiqasini
dar
dara
daraja
darajada
darajadagi
darajadan
darajaga
darajagacha
darajalar
darajalarda
darajalari
darajalarida
darajalariga
darajalarini
darajali
darajani
darajasi
darajasida
darajasidagi
darajasidan
darajasiga
darajasini
darajasining
darak
darasi
daraxt
daraxtga
daraxti
daraxtining
daraxtlar
daraxtlarga
daraxtlari
daraxtlarni
daraxtlarning
daraxtning
darband
dare
darg
darhaqiqat
darhol
dari
daria
darib
darildi
darilgan
dario
darish
dariy
dark
darling
darmon
darmonlar
darmonlarni
daromad
daromadga
daromadi
daromadini
daromadining
daromadlar
daromadlari
daromadlarini
daromadlarining
daromadlarni
daromadli
daromadni
daromadning
darreh
darren
dars
darsi
darslar
darslari
darslarini
darsligi
darslik
darsliklar
darvesh
darvin
darvoza
darvozabon
darvozabonga
darvozaboni
darvozabonlar
darvozadan
darvozaga
darvozalar
darvozalari
darvozani
darvozasi
darvozasidan
darvozasiga
darvozasini
daryo
daryoda
daryodan
daryoga
daryolar
daryolari
daryolarida
daryolarining
daryolarning
daryoning
daryosi
daryosida
daryosidagi
daryosidan
daryosiga
daryosigacha
daryosini
daryosining
das
dash
dasht
dashti
dashtlarda
dashtlari
dasi
dasini
dasta
dastasi
dastavval
dastgoh
dastlab
dastlabki
dastur
dasturchi
dasturda
dasturdan
dasturga
dasturi
dasturida
dasturidan
dasturiga
dasturini
dasturining
dasturiy
dasturlar
dasturlarda
dasturlardan
dasturlarga
dasturlari
dasturlarida
dasturlariga
dasturlarini
dasturlarni
dasturlarning
dasturlash
dasturni
dasturning
dasturxonga
dat
data
database
date
datos
daughter
dave
david
davidson
davies
davis
davlat
davlatchiligi
davlatda
davlatdan
davlatga
davlati
davlatida
davlatidan
davlatiga
davlatini
davlatining
davlatlar
davlatlararo
davlatlarda
davlatlardan
davlatlarga
davlatlari
davlatlarida
davlatlaridan
davlatlariga
davlatlarini
davlatlarining
davlatlarni
davlatlarning
davlatni
davlatning
davo
davolanadi
davolangan
davolanish
davolanishga
davolanishni
davolash
davolashda
davolashga
davolashni
davolashning
davom
davomchisi
davomi
davomida
davomidagi
davomiy
davomiyligi
davomli
davosi
davr
davra
davrada
davrasida
davrda
davrdagi
davrdan
davrga
davri
davrida
davridagi
davridan
davridayoq
davriga
davrigacha
davrini
davrining
davriy
davrlar
davrlarda
davrlardagi
davrlardan
davrlarga
davrlari
davrlarida
davrlariga
davrlarning
davrni
davrning
davron
davydenko
dawn
dax
daxlsizligini
daxma
day
days
db
dc
dd
ddr
de
dead
deal
dean
death
deb
debut
debyut
debyuti
debyutida
debyutidan
debyutini
dec
december
decision
dedi
dedilar
dee
deep
deere
def
defence
defense
deformatsiya
deg
degan
deganda
degani
deh
dehb
dehli
dehlida
dehlidagi
dehliga
dehqon
dehqonchilik
dehqonchilikda
dehqonlar
dehqonlarga
dehqonlari
dehqonlarning
dehqonobod
dei
dek
dekabr
dekabrda
dekabrdagi
dekabrdan
dekabrgacha
dekabrida
dekabridan
dekabriga
dekabrigacha
dekabrya
dekan
dekani
dekart
deklaratsiya
deklaratsiyasi
deklaratsiyasini
dekorativ
del
delaver
delaware
delegat
delegati
delegatsiya
delegatsiyasi
delfin
delfinlar
delhi
dell
della
delle
dello
delta
deltasi
dem
demak
demakdir
demo
democracy
demografik
demografiya
demografiyasi
demokrat
demokratik
demokratiya
demokratlar
demontaj
den
deng
dengiz
dengizchi
dengizchilar
dengizda
dengizdagi
dengizdan
dengizga
dengizi
dengizida
dengizidagi
dengizidan
dengiziga
dengizining
dengizlar
dengizlarda
dengizlari
dengizning
denis
denisov
deniz
denizli
denmark
denni
dennis
denov
dent
denver
deol
departament
departamenti
departamentida
departamentining
department
deportatsiya
deportivo
depot
depozit
depressiya
deputat
deputati
deputatlar
deputatlari
deputatlik
der
deraza
derazalar
derbi
derbisida
derby
derek
des
desant
description
desert
design
desktop
desmond
desna
detail
details
detallar
detallari
detektiv
detroit
detroyt
deutsch
deutsche
deutschen
deutscher
deutschland
dev
deva
development
devi
devid
devil
devils
devis
devon
devoni
devonu
devor
devorda
devorga
devori
devorida
devoridagi
devoriga
devorini
devorining
devoriy
devorlar
devorlarga
devorlari
devorlarida
devorlariga
devorlarini
devorlarining
devorning
deya
deyarli
deydi
deyiladi
deyilgan
deyish
deyishadi
deyl
deyv
df
dfb
dfl
dfrac
di
dia
diabet
diafragma
diagnostik
diagnostika
diagnostikasi
diagonal
diagramma
diagrammasi
dialog
diametri
diametrli
diamond
diana
diane
diapazon
diapazoni
diapazonida
diareya
dias
diaspora
diasporasi
diaz
dic
dick
dickinson
dictionary
did
didaktik
didi
didier
die
diego
dies
diet
differensial
different
differentsial
diffuz
digital
dijk
dijon
dik
diktaturasi
dil
dillon
dilorom
dilshod
din
dina
dinamik
dinamikasi
dinamo
dinar
dindor
dindorlar
dindorlari
ding
dinga
dini
dinida
diniga
dinini
dinining
diniy
dinlar
dinlarga
dinlari
dinni
dinning
dino
dinor
dinozavrlar
dio
diodor
dion
dionis
dior
diplom
diplomacy
diplomat
diplomati
diplomatic
diplomatik
diplomatiya
diplomatlar
diplomi
diplomini
diputacio
diqqat
diqqatga
diqqatini
diqqatni
dir
dira
diradi
dirdi
direct
director
directory
direktor
direktori
direktorining
direktorlar
direktorlari
dirijyor
dirijyori
discovery
disease
disk
diski
disklar
disklari
diskli
diskografiya
diskografiyasi
diskret
diskvalifikatsiya
disney
disneylend
disneyning
display
displey
displeyga
displeylar
diss
dissertatsiya
dissertatsiyasi
dissertatsiyasini
distribution
district
dithmarschen
ditrix
divergent
diversifikatsiya
divisio
division
divizion
divizionda
diviziondagi
divizionga
divizioni
divizionida
divizionidagi
divizioniga
divizionining
divizionning
diviziya
diviziyasi
diviziyasining
diy
diyarbakir
diyona
diz
dizayn
dizayndagi
dizayner
dizayneri
dizaynerlar
dizaynerlari
dizaynga
dizayni
dizayniga
dizaynini
dizaynlar
dizaynlari
dizaynni
dizel
dj
djurga
dk
dl
dlya
dm
dmitriy
dnepr
dnepropetrovsk
dnestr
dnk
dns
do
doc
docs
doctor
document
documents
dod
dodda
doddagi
dodga
dodge
dodi
dodini
dodlar
dodli
does
dog
doha
dohada
doi
doim
doimiy
doimiysi
doimo
doir
doira
doirada
doiradagi
doiralar
doiralari
doirasi
doirasida
doirasidagi
doirasidan
doirasiga
doirasini
doiraviy
dok
doktor
doktorantura
doktori
doktorlik
doktrinasi
dolce
dole
dolgopolov
dollar
dollardan
dollarga
dollargacha
dollari
dollaridan
dollariga
dollarini
dollarlik
dollarni
dolzarb
dom
domain
dome
domen
domeni
domeniga
domenining
domenlar
domestic
dominant
dominic
dominik
dominika
dominikan
domla
don
dona
donadan
donador
donalar
donalari
donald
donau
doncaster
donetsk
donetskning
dong
doni
donishmand
doniyor
donli
donna
donni
dono
donolik
donor
donovan
dons
donu
doom
door
dop
doping
dor
dora
dorchilik
dordogne
dorgon
dori
dorilar
dorilarni
dorilarning
doris
dorivor
dorixona
dorixonalar
doro
dorothy
doroti
dorsal
dortmund
dortmundning
dos
dosh
doston
dostoni
dostonida
dostonlar
dostonlari
dosya
dot
dotsent
dotsenti
double
doubleday
doubs
doug
douglas
dover
dovon
dovoni
dovud
dovul
dow
down
download
downtown
doy
doyle
doyr
doyra
doza
dozada
dozalarda
dozani
dozasi
dozasini
dp
dr
dra
dracula
draft
draftida
draftining
dragon
dragons
drake
drakula
drama
dramalar
dramalari
dramasi
dramasida
dramasidagi
dramatik
dramaturg
dramaturgi
dramaturgiya
draper
dream
dreams
dreamworks
drenaj
drevnostey
drew
drezden
dribling
drive
driver
dro
drug
drugs
ds
dsc
dsm
dt
dtirol
du
dual
duarte
duayt
dub
dubai
dubay
dubayda
dubl
dublin
dublini
dublyaj
dubulg
duc
ducati
duch
duchor
duck
ducks
dudlangan
due
duelda
duet
dueti
duff
dug
duglas
duisburg
duk
duke
dukkakli
dum
dumaloq
dumasi
dumasiga
dumasining
dumi
dumli
dun
dunay
dundee
dunlop
dunyo
dunyoda
dunyodagi
dunyodan
dunyoga
dunyoni
dunyoning
dunyoqarash
dunyoqarashi
dunyosi
dunyosida
dunyosidagi
dunyosiga
dunyosini
dunyosining
dunyoviy
duo
durang
durangdan
durangga
durango
durdona
durham
during
dursunbey
dushanba
dushanbe
dushman
dushmanga
dushmani
dushmanlar
dushmanlari
dushmanlik
dushmanni
dushmanning
dutch
dutor
dutt
duty
duymli
dv
dvd
dvigatel
dvigatelga
dvigateli
dvigateliga
dvigatelini
dvigatelining
dvigatellar
dvigatellari
dvigatellarini
dvigatelli
dvigatelni
dvigatelning
dw
dx
dylan
dynamics
dynamo
dynasty
dyui
dyuk
dyusseldorf
dyuym
dyuymli
dz
dzerjinskiy
dzyudo
dzyudochi
dzyudochilar
e
ea
each
eaff
eagle
eagles
earl
early
earth
east
eastern
easy
eat
eaton
eb
ebay
ebert
ec
ecac
echki
echo
eckernfo
economic
economics
economist
economy
ed
eddi
eddie
eden
edgar
edge
edi
edihttps
edik
ediki
edilar
edim
edinburg
edinburgh
edip
edirne
edison
edit
edited
edith
edition
editions
editor
edmond
edmonton
edmund
edo
edouard
eds
edu
eduard
eduardo
education
educational
edvard
edvards
edvin
edward
edwards
edwin
ee
eerste
ef
effect
effects
effekt
effekti
effektlar
effektlari
efiopiya
efir
efirda
efirga
efl
eftaliylar
eg
ega
egadir
egalari
egalariga
egalarining
egaligi
egalik
egallab
egalladi
egalladilar
egallagan
egallaganidan
egallash
egallashdi
egallashga
egallashi
egallashiga
egallay
egallaydi
egasi
egasiga
egasining
egey
egilgan
egiluvchan
egizak
egizaklar
egizaklari
ego
egri
egypt
egzoz
eh
ehir
ehson
ehtimol
ehtimoli
ehtimolini
ehtimoliy
ehtimollik
ehtirom
ehtiros
ehtirosli
ehtiyoj
ehtiyoji
ehtiyojini
ehtiyojlar
ehtiyojlari
ehtiyojlariga
ehtiyojlarini
ehtiyojni
ehtiyot
ehtiyotkor
ehtiyotkorlik
ei
eight
ein
eindhoven
eintracht
ek
ekan
ekani
ekanini
ekanligi
ekanligidan
ekanligiga
ekanligini
ekanliklarini
ekiladi
ekiladigan
ekilgan
ekin
ekini
ekinlar
ekinlari
ekinlarni
ekipaj
ekipaji
ekipajiga
ekish
eko
ekologik
ekologiya
ekologiyasi
ekran
ekranda
ekrandagi
ekranga
ekrani
ekranlarga
ekranli
ekranning
eksantrik
eksklyuziv
ekskursiya
ekspeditsiya
ekspeditsiyalar
ekspeditsiyaning
ekspeditsiyasi
eksperimental
ekspert
ekspertiza
ekspertizasi
ekspertlar
ekspluatatsiya
eksponatlar
eksport
eksporti
eksportining
ekspozitsiya
ekspress
ekstraditsiya
ekstraklasa
ekstremal
ekt
ektga
ekti
ektiv
ektlar
ektlari
ektlarini
ektlarni
ektlarning
ektni
ektning
ektsiya
ekvador
ekvator
ekvatorial
ekvivalent
ekvivalenti
ekz
ekzogen
ekzotik
el
elam
elastik
elazig
elba
elc
elche
elchi
elchilar
elchilari
elchilik
elchisi
elchixona
elchixonasi
elchixonasida
elchixonasini
elda
eldagi
eldan
elder
eleanor
election
electric
electronic
electronics
elektr
elektro
elektromagnit
elektron
elektronika
elektronlar
elektrostatik
elektrotexnika
element
elementar
elementi
elementlar
elementlardan
elementlari
elementlaridan
elementlariga
elementlarini
elementlarining
elementlarni
elementlarning
elena
eleven
elf
elga
eli
elias
elis
elisabeth
elit
elita
elite
eliza
elizabet
elizabeth
ella
elladi
elle
ellen
ellik
elliklar
ellinistik
elliot
elliott
elliptik
ellis
ellison
elon
elsevier
elvis
elza
elzas
em
emaar
emal
eman
emanuel
emas
emaslar
emasligi
emasligiga
emasligini
emasman
embassy
embiid
emblemasi
embrion
emerson
emery
emi
emil
emili
emilia
emilio
emily
emin
emirates
emission
emissiya
emissiyasi
emizuvchilar
emlash
emma
emmanuel
emmi
emmy
emotsional
emperor
empire
empires
empirik
empoli
empress
emre
en
encyclopaedia
encyclopedia
encyclopædia
end
endemik
endi
endigina
endilikda
endogen
endokrin
endryu
eneolit
energetik
energetika
energetikasi
energiya
energiyaga
energiyali
energiyani
energiyaning
energiyasi
energiyasidan
energiyasiga
energiyasini
energiyasining
energy
eng
engib
engil
engilroq
engine
engineering
england
english
eni
eniya
enn
enni
enrike
enrique
ensiklopedicheskiy
ensiklopedik
ensiklopediya
ensiklopediyasi
enterprise
enterprises
entertainment
entoni
entry
entsiklopedik
entsiklopediyasi
envanteri
environment
enzo
eo
ep
epa
epic
epidemiologiya
epidemiya
epidemiyadan
epidemiyasi
epidural
epik
episkop
episkopi
epiteliy
epizod
epizodda
epizodi
epizodida
epizodik
epizodlar
epizodlari
epizodlarida
epizodni
eposi
er
era
eramizdan
eramizning
erbil
erda
erdan
erdo
erdog
eredivizion
erediviziyada
erga
ergani
ergash
ergashdi
ergashev
ergashib
eri
erib
eric
erich
ericsson
eridan
eriga
erigan
erik
erika
erimaydi
erin
erini
erining
eris
erish
erisha
erishadi
erishdi
erishdilar
erishgach
erishgan
erishgandan
erishganidan
erishganini
erishi
erishib
erishiladi
erishildi
erishilgan
erishish
erishishga
erishishi
eritib
eritilgan
eritish
eritma
eritmalar
eritmalari
eritmasi
eritreya
eritrotsitlar
erituvchi
erituvchilarda
eriydi
eriydigan
erk
erkak
erkaklar
erkaklarda
erkaklardan
erkaklarga
erkaklari
erkaklarni
erkaklarnikiga
erkaklarning
erkakning
erkin
erkinligi
erkinligini
erkinlik
erkinliklari
erkinliklarini
erlar
erlari
ermitaj
ernandes
ernest
ernesto
erni
erning
ernst
eron
eronda
erondagi
erondan
eronga
eroniy
eronlik
eronliklar
eronni
eronning
eros
erotik
eroziya
eroziyasi
ers
erta
ertaga
ertagi
ertak
ertaklar
ertaklari
ertalab
ertalabki
ertasi
eruvchan
erzincan
erzinjon
erzurum
es
esa
esc
esda
esdalik
esga
eshak
eshigi
eshik
eshiklar
eshiklari
eshiklarini
eshikli
eshikni
eshish
eshitgan
eshitib
eshitiladi
eshitish
eshittirish
eshittirishlar
eshkak
eshli
eshon
eskadron
eskadroni
eski
eskirgan
eskiz
eskizlari
eslab
esladi
eslamabod
eslatadi
eslatib
eslatma
eslatmalar
eslatuvchi
eslaydi
eson
espan
espanyol
esperanto
espn
espresso
essays
essen
essex
est
esta
estadi
estadio
estafeta
estate
este
ester
estetik
estetika
eston
estoniya
estoniyada
estoniyaga
estoniyaning
estrada
estremadura
estudiantes
et
eta
etadi
etadigan
etadilar
etagida
etakchi
etakchilik
etaklari
etaklarida
etanol
etar
etardi
etarli
etarlicha
etayotgan
etdi
etdilar
etgach
etgan
etganda
etgandan
etgandi
etgani
etganida
etganidan
etganini
etganlar
etganligi
etganlikda
etgunga
etguniga
eti
etib
etik
etika
etil
etila
etiladi
etiladigan
etilayotgan
etildi
etilgach
etilgan
etilganda
etilgandan
etilgani
etilganida
etilganidan
etilganini
etilganligi
etilib
etilishi
etilishicha
etilishidan
etilishiga
etilishini
etilmagan
etilmaydi
etilmoqda
etimologiya
etimologiyasi
etiologiyasi
etish
etishadi
etishda
etishdan
etishdi
etishga
etishgan
etishi
etishidan
etishiga
etishini
etishlari
etishmasligi
etishmovchiligi
etishni
etishning
etishtirish
etkazdi
etkazib
etkazish
etmadi
etmagan
etmaydi
etmoqda
etnik
etnografik
etnografiya
eto
etsa
etti
ettinchi
ettira
ettiradi
ettirdi
ettirdilar
ettirgan
ettirib
ettiriladi
ettirildi
ettirilgan
ettirish
ettirishga
ettirishi
ettirishni
ettirmoqda
ettiruvchi
ettita
etuk
etuvchi
etyen
eu
eugene
eun
eure
euro
eurobasket
euronews
europa
europe
european
eurovision
ev
eva
evakuatsiya
evan
evans
evaziga
eve
even
evening
event
events
ever
everest
everett
evergrand
everton
evertonga
every
everything
evgeniy
evic
evidence
evil
evolution
evolyutsion
evolyutsiya
evolyutsiyasi
evra
evro
evropa
evropada
evropadagi
evropaning
ex
example
excel
excellence
exchange
executive
exeter
exhibition
exo
experience
expert
explorer
expo
express
extra
extragalactic
ey
eye
eyed
eyes
eylu
eynshteyn
ez
ezgu
ezgulik
ezilgan
f
fa
faber
faberge
fabio
fabrika
fabrikalari
fabrikasi
face
facebook
facelift
fact
factor
factory
facts
fai
fair
faith
fakt
faktlar
faktlarni
fakto
faktor
fakultet
fakulteti
fakultetida
fakultetiga
fakultetini
fakultetining
fakultetlar
fakultetlari
falaj
falastin
falastinga
falastinlik
falcon
falkirk
fall
falling
fallon
falls
falokat
falsafa
falsafada
falsafani
falsafaning
falsafasi
falsafasida
falsafasiga
falsafasini
falsafasining
falsafiy
false
falun
fame
familiya
familiyasi
familiyasini
family
famous
fan
fanda
fanga
fani
fanida
fanidan
faniga
fanini
fanining
fanlar
fanlararo
fanlardan
fanlarga
fanlari
fanlarini
fanlarni
fanlarning
fanni
fanning
fantastic
fantastik
fantastika
fantasy
fantaziya
fao
faol
faoli
faoliyat
faoliyatda
faoliyatdan
faoliyatga
faoliyati
faoliyatida
faoliyatidagi
faoliyatidan
faoliyatiga
faoliyatini
faoliyatining
faoliyatni
faoliyatning
faollar
faollari
faollashtiradi
faollashtirilgan
faollashtirish
faolligi
faolligini
faollik
faqat
faqatgina
faqih
far
farah
faralar
faraz
farer
farg
fargo
farhod
farid
farishta
farishtalar
farm
farmakologik
farmakologiya
farmatsevtika
farmon
farmoni
farmoniga
farmonlari
farmonni
faron
farovon
farovonligi
farovonligini
farovonlik
farq
farqi
farqlanadi
farqlar
farqlarga
farqlari
farqlarni
farqlash
farqli
farqni
farrell
farrux
faruk
farz
farzand
farzandi
farzandini
farzandining
farzandlari
farzandlariga
farzandlarini
farzandlarining
farzandli
farzandning
fasad
fashion
fashist
fashistik
fashistlar
fashizm
fasl
fasli
faslida
fasllar
faso
fast
fath
father
fatih
fatma
fatvo
fauna
faunasi
favorit
favqulodda
favvora
favvoralar
favvorasi
faw
faxr
faxriddin
faxriy
faxriylar
faxriylari
faxriysi
faxrlar
fayl
faylasuf
faylasufi
faylasuflar
faylasuflari
fayllar
fayllari
fayllarni
faysal
fayziyev
fayzobod
fayzulla
faza
fazali
fazasi
fazilat
fazilatlar
fazilatlari
fazilatlarini
fazl
fazo
fazoda
fazoviy
fb
fbi
fc
fcga
fd
fda
fe
fear
feat
feature
features
feb
february
fed
federacio
federal
federasiyasi
federation
federativ
federatsii
federatsiya
federatsiyasi
federatsiyasida
federatsiyasidagi
federatsiyasiga
federatsiyasining
federer
federerga
federico
federiko
fedex
fedor
fedorovich
fedorovna
feliks
felipe
felix
female
femina
feminist
feministik
feminizm
fendi
fenerbahche
feng
feniks
fenomeni
feodal
fer
ferdinand
ferguson
fergyuson
ferma
fermada
fermasi
fermasida
ferment
fermenti
fermentlar
fermer
fermerlar
ferna
fernandes
fernandinyo
fernando
ferrand
ferrari
ferrero
feruz
feruza
fes
festival
festivalda
festivali
festivalida
festivalining
festivallar
festivallari
fever
fevral
fevralda
fevraldagi
fevraldan
fevralgacha
fevralida
fevralidan
fevraliga
fevraligacha
fevralya
fey
feyenoord
ff
ffc
fi
fia
fiat
fiba
fiction
fide
fidokorona
fidoyilik
field
fields
fifa
fifaga
fifaning
fifpro
fifth
fig
fight
fighter
fighting
figura
figuralari
figurali
figurasi
figure
fiji
fikr
fikrda
fikret
fikrga
fikri
fikricha
fikriga
fikrini
fikrlar
fikrlari
fikrlarini
fikrlarni
fikrlash
fikrni
fil
filadelfiya
filadelfiyada
filarmoniya
filarmoniyasi
file
files
filial
filiali
filialida
filialiga
filialini
filiallar
filiallari
filip
filipp
filippin
filippinda
filippindagi
filippinlik
filippinning
fillar
fillips
film
filmda
filmdagi
filmdan
filmdir
filmfare
filmga
filmi
filmida
filmidagi
filmidan
filmidir
filmiga
filmini
filmining
filmlar
filmlarda
filmlardagi
filmlardan
filmlarga
filmlari
filmlarida
filmlaridagi
filmlaridan
filmlarini
filmlarining
filmlarni
filmlarning
filmni
filmning
filmografiya
filmografiyasi
films
filogenetik
filol
filolog
filologiya
filologiyasi
filtr
filtrlash
fin
fina
final
finalchi
finalchilar
finalchisi
finalda
finaldagi
finaldan
finalga
finalgacha
finali
finalida
finalidagi
finalidan
finaliga
finalini
finalining
finallar
finallari
finalni
finalning
finals
finance
financial
find
fine
finikiya
finiste
finland
finlandiya
finlandiyaning
finlar
finlyandiya
finlyandiyada
finlyandiyaga
finlyandiyaning
finn
fiona
fiorentina
fiqh
fir
firdavsiy
fire
firibgar
firibgarlik
firma
firmalar
firmalari
firmaning
firmasi
first
firuzobod
fischer
fish
fisher
fit
fitna
fitnes
fitrat
fivb
five
fiy
fiylik
fizigi
fizik
fizika
fizikada
fizikaning
fizikasi
fiziklar
fiziologik
fiziologiya
fiziologiyasi
fizioterapiya
fk
fkga
fl
flag
flagman
flamand
flamengo
flames
flandriya
flash
fleetwood
fleming
flensburg
flesh
fletcher
fleury
flickr
flight
flint
floor
flora
florasi
florence
florens
florensiya
flores
florian
florida
floridadagi
flot
floti
flotida
flotiga
flotini
flotining
flotsam
flower
flowers
floyd
fly
flyers
flying
fm
fo
fobiya
focus
fodagi
foga
fognini
fohishalik
foiz
foizdan
foizga
foizgacha
foizi
foizida
foiziga
foizini
foizlik
foizni
fojia
fojiali
fojiasi
fokus
fol
folger
folk
folklor
folklori
following
fon
fond
fonda
fondagi
fondi
fondida
fondiga
fondini
fondining
fondlar
fondlari
fonetik
fonetika
foni
fonida
fontsize
food
foods
foot
football
footballer
footballfacts
for
forbes
force
forces
ford
fordning
foreign
forest
forever
form
forma
formada
formalari
formasi
formasini
format
formatda
formatdagi
formati
formatida
formatini
formation
former
formula
formulalar
formulasi
foro
forobiy
fors
forscha
forsiy
forslar
fort
fortepiano
fortuna
fortune
forum
forumi
forumida
forward
fosfat
fosfor
fosforit
fosforli
fosh
foster
fotih
fotima
fotimiylar
foto
fotograf
fotografi
fotografik
fotografiya
foton
fotosintez
fotosurat
fotosurati
fotosuratlar
fotosuratlari
fotosuratlarini
found
foundation
fountain
four
fourth
fox
foyda
foydalana
foydalanadi
foydalanadigan
foydalanadilar
foydalandi
foydalangan
foydalanganda
foydalangani
foydalanganlar
foydalanib
foydalaniladi
foydalaniladigan
foydalanildi
foydalanilgan
foydalanilmagan
foydalanilmoqda
foydalanish
foydalanishadi
foydalanishda
foydalanishdan
foydalanishga
foydalanishgan
foydalanishi
foydalanishini
foydalanishlari
foydalanishni
foydalanishning
foydalanuvchi
foydalanuvchiga
foydalanuvchilar
foydalanuvchilarga
foydalanuvchilari
foydalanuvchilarni
foydalanuvchilarning
foydalanuvchining
foydali
foydalidir
foydasi
foydasiga
foydasiz
fozil
fqb
fr
fra
frac
frakiya
fraksiyasi
frameless
fran
franc
france
frances
francesco
franchayzing
franche
franchesko
francis
francisco
franco
frank
frankfurt
frankfurtning
frankivsk
franklar
franklin
franko
frans
franshizasining
fransisko
fransiskoda
fransiskodagi
fransiya
fransiyada
fransiyadagi
fransiyadan
fransiyaga
fransiyalik
fransiyani
fransiyaning
fransua
fransuz
fransuzcha
fransuzlar
fransuzlarning
frants
frantsiya
frantsiyada
frantsiyaga
frantsiyaning
frantsuz
franz
fraser
frauen
fre
fred
freddi
frederick
frederik
free
freedom
freeman
freiburg
french
frenk
frensis
fresh
freshman
freskalar
freyd
freydning
freyzer
frida
friday
fridman
fridrix
friedrich
friend
friends
frits
fritz
friuli
friz
from
front
frontal
frontda
frontga
fronti
frontier
frosinone
frost
fruit
frunze
fsv
ft
fte
ftor
ftorid
fu
fuad
fuji
fujian
fukuoka
fukushima
fukusima
fulham
full
fuller
fulton
fulxem
fun
fund
fundamental
funksional
funksiya
funksiyalar
funksiyalari
funksiyalarini
funksiyalarni
funksiyali
funksiyani
funksiyasi
funksiyasini
funksiyasining
funktsional
funktsiyalari
funktsiyasi
funt
fuqaro
fuqarolar
fuqarolarga
fuqarolari
fuqarolariga
fuqarolarini
fuqarolarining
fuqarolarni
fuqarolarning
fuqaroligi
fuqaroligiga
fuqaroligini
fuqarolik
fuqarolikka
fuqaroning
fuqarosi
furot
furqat
fury
fusion
fut
futbol
futbolchi
futbolchidan
futbolchiga
futbolchilar
futbolchilardan
futbolchilarga
futbolchilari
futbolchilaridan
futbolchilarni
futbolchilarning
futbolchilik
futbolchini
futbolchining
futbolchisi
futbolchisiga
futbolda
futboldagi
futboldan
futbolga
futboli
futbolida
futbolidagi
futboliga
futbolini
futbolining
futbolka
futbolni
futbolning
futebol
future
futures
futzal
fuzuliy
fx
fyodor
fyodorov
fyuchers
fyuri
g
ga
gaaga
gabbana
gabon
gabriel
gabriela
gabrovo
gabsburg
gabsburglar
gac
gacha
gadabay
gadirova
gagarin
gagauz
gaiti
gal
gala
galaktik
galaktika
galaktikadir
galaktikalar
galante
galatasaray
galatasaroy
galaxy
gale
galen
galereya
galereyalar
galereyasi
galereyasida
gales
galicia
galiley
galina
galisiya
gallagher
gallardo
gallen
gallery
galton
gama
gambiya
gamble
gamburg
gamburger
game
games
gamma
gan
gana
ganalik
ganch
ganchdan
gandbol
gandi
gang
ganga
gangster
ganja
ganjaviy
gannover
gao
gap
gapira
gapiradi
gapiradigan
gapirdi
gapirgan
gapirib
gapirish
gaplar
gaplashadi
garak
garchi
garci
garcia
garden
gardens
gardner
gari
garin
garland
garmonik
garner
garnizon
garnizoni
garold
garonne
garov
garovga
garri
garrincha
garros
garsiya
garvard
gary
gas
gaston
gastrol
gastrolda
gastrollarda
gatchina
gate
gates
gatorade
gaudi
gavayi
gavda
gavdasi
gavhar
gavjum
gay
gaya
gayana
gaz
gazak
gazeta
gazetada
gazetalar
gazetalarda
gazetalari
gazetalarida
gazetaning
gazetasi
gazetasida
gazetasidan
gazetasiga
gazetasini
gazetasining
gazette
gazetteer
gazi
gaziantep
gazlama
gazlamalar
gazlar
gazlari
gazli
gazni
gazning
gazprom
gazsimon
gb
gd
gdansk
gdr
ge
gear
gektar
gektardan
gektarga
gektariga
gektarni
gel
geliy
gem
gemini
gemoglobin
gemorragik
gen
genc
gender
gene
general
generali
generalidad
generalitat
generallar
generallari
generation
generator
generatori
genesis
genetik
genetika
geneva
geni
genk
genlar
genlarning
gennadiy
genoa
genocide
genomics
genotsid
genotsidi
genri
genrix
gent
genuya
geo
geodezik
geodeziya
geoffrey
geofizika
geogr
geograf
geografik
geografiya
geografiyasi
geografiyasiga
geograph
geographic
geol
geolog
geologik
geologiya
geologiyasi
geometrik
geometriya
georg
george
georges
georgia
georgian
georgiy
geosinklinal
geosiyosiy
geotermal
geparin
gepatit
ger
gera
gerakl
gerald
geralt
gerard
gerb
gerber
gerbert
gerbi
gerd
gerkules
germain
german
germaniya
germaniyada
germaniyadagi
germaniyadan
germaniyaga
germaniyalik
germaniyani
germaniyaning
germaniyasi
germany
gerodot
gerrard
gersegovina
gersog
gersogi
gersoginyasi
gersogligi
gerta
gertsegovina
gertsog
gertsogi
gervinho
gerxard
ges
geschichte
gesiod
gessen
get
getafe
gets
getto
gey
geynrix
geyts
gfr
gg
ghana
ghar
ghosn
ghost
ghz
gi
gia
giampaolo
giang
giant
gibbs
gibraltar
gibrid
gibson
gideon
gidra
gidravlik
gidro
gidroelektr
gidroenergetika
gidrologik
gidrotermal
gidrotexnika
gif
gifu
gigant
giganti
gigantlar
gigiena
gigin
gigiyena
gil
gilad
gilam
gilamlar
gilbert
gildiyasi
gilermo
giles
gill
gilles
gilli
gillingham
gilmour
gilos
gimnastika
gimnastikachi
gimnastikachilar
gimnastikasi
gimnaziya
gina
ginnesning
giorgio
giovanni
gipertenziya
gipertoniya
gipofiz
gipoteza
gipotezasi
gippokrat
gips
gipsli
girl
girls
girona
gironde
gis
gish
gitara
gitarachi
gitler
gitlerning
giulia
give
givenchy
giyohvand
giyohvandlik
gje
gl
glasgow
glass
glazgo
glen
glenn
global
globallashuv
globe
globus
gloria
glory
glyukoza
gm
gmbh
gmt
gne
gnu
go
goa
goal
god
goda
godu
goes
goffin
gog
gogh
gogol
goh
going
gol
gold
goldan
goldberg
golden
goldman
goldstein
goldwyn
golf
golga
goli
golidan
goliga
golini
goll
golland
gollandiya
gollandiyada
gollandiyadagi
gollandiyaga
gollandiyalik
gollandiyaliklar
gollandiyaning
gollandlar
gollar
gollari
gollarini
golli
gollivud
gollivudda
golni
golshteyn
golsiz
gomer
gomes
gomez
gomoseksual
gonduras
gone
gong
gonkong
gonkongda
gonkongdagi
gonkongga
gonsales
gonza
gonzalez
good
google
gor
goran
gordon
gori
gorizontal
gorkiy
gormon
gormonal
gormoni
gormonlar
goroda
gorxali
gosspravka
got
gothic
gotik
gotika
gov
govard
government
governor
gp
gpa
gps
gpu
gq
gr
grace
graf
grafi
grafik
grafika
grafikasi
grafinya
grafit
graham
gram
gramm
grammar
grammatik
grammatika
grammatikasi
grammy
gran
granada
granata
grand
grande
granit
granitdan
grant
granti
grantlar
graubu
grave
gravitatsion
gravitatsiya
gray
graz
gre
great
greater
greatest
greece
greek
green
greene
greenwood
greg
gregg
gregori
gregory
grek
grem
gremio
grenada
grenlandiya
grenoble
gretsiya
gretsiyada
gretsiyadagi
gretsiyaga
gretsiyaning
greuther
grey
greys
griffin
griffioen
griffit
griffith
grigor
grigoriy
grigoryevich
grimsby
grin
grinvich
gripp
grizzlies
gro
groningen
gross
grossmeyster
grossmeysteri
grosso
ground
group
groups
grove
growth
grozniy
groß
grp
gru
grumman
grunt
gruzin
gruzinlar
gruziya
gruziyada
gruziyadagi
gruziyaga
gruziyalik
gruziyaning
gs
gsm
gt
gtv
gu
guam
guanchjou
guangdong
guangzhou
guard
guardian
gubernator
gubernatori
gubernatorligi
gubernatorlik
gucci
gudzon
gue
guez
gugurt
gui
guide
guild
guillaume
guingamp
gujarat
gul
gulbiddin
gulchambar
gulf
guli
guliston
gullab
gullagan
gullar
gullari
gullash
gullaydi
gulli
gulning
gumanitar
gumbaz
gumbazi
gumbazlar
gumbazli
gumon
gun
gunma
gunn
gunoh
guo
gupta
gurjiston
guro
guru
guruch
guruchli
guruh
guruhda
guruhdagi
guruhdan
guruhga
guruhi
guruhida
guruhidagi
guruhidan
guruhidir
guruhiga
guruhini
guruhining
guruhlar
guruhlarda
guruhlardan
guruhlarga
guruhlari
guruhlarida
guruhlaridan
guruhlariga
guruhlarini
guruhlarining
guruhlarni
guruhlarning
guruhni
guruhning
gus
gustav
gustavo
gutenberg
guvoh
guvohi
guvohlar
guvohlik
guvohnoma
guvohnomasi
guy
guzarida
gvardiya
gvardiyasi
gvatemala
gvineya
gvt
gymnastics
gyo
gyote
gyotse
h
ha
habib
had
haddan
hadid
hadis
hadislar
hadya
hafsalasi
hafta
haftada
haftadan
haftaga
haftagacha
haftaligi
haftaligida
haftalik
haftaning
haftasi
haftasida
haftasiga
hahn
hai
haj
hajduk
hajibeyov
hajm
hajmda
hajmdagi
hajmga
hajmi
hajmiga
hajmini
hajmining
hajmiy
hajmli
hajviy
hakam
hakami
hakamlar
hakamlik
hakim
hakimov
hal
halab
hale
half
hali
halifax
haligacha
halil
halima
hall
halle
halo
halok
halokat
halokatga
halokati
halokatli
halol
halollik
halqa
halqalar
halqali
halqasi
ham
hamad
hamal
hamburg
hamburger
hamda
hamdardlik
hamdi
hamdir
hamdo
hamid
hamilton
hamisha
hamjamiyat
hamjamiyati
hamjamiyatiga
hamjamiyatining
hamkasbi
hamkasblari
hamkor
hamkori
hamkorlar
hamkorlari
hamkorligi
hamkorligida
hamkorligini
hamkorlik
hamkorlikda
hamkorlikdagi
hamkorlikka
hamkorlikni
hamkorlikning
hamlet
hamma
hammaga
hammani
hammarby
hammasi
hammasini
hammer
hammom
hammomi
hammuallif
hammuallifi
hammualliflikda
hammuassisi
hamon
hampton
hamraisi
hamroh
hamrohi
hamrohligida
hamrohlik
hamroyev
hamshira
hamshiralar
hamshiralik
hamyurti
hamza
han
hanafiy
hand
handbook
hanifa
hank
hanna
hannah
hannover
hans
hansen
hanuzgacha
hapoel
happy
haq
haqda
haqi
haqida
haqidagi
haqini
haqining
haqiqat
haqiqatan
haqiqatda
haqiqatdan
haqiqatga
haqiqati
haqiqatni
haqiqiy
haqli
haqorat
haqoratli
haqqoniy
har
hara
harakat
harakatchan
harakatda
harakatdagi
harakatga
harakati
harakatida
harakatidan
harakatiga
harakatini
harakatining
harakatlana
harakatlanadi
harakatlanadigan
harakatlanayotgan
harakatlanib
harakatlanish
harakatlanishi
harakatlantiruvchi
harakatlanuvchi
harakatlar
harakatlarda
harakatlardan
harakatlarga
harakatlari
harakatlarida
harakatlaridan
harakatlariga
harakatlarini
harakatlarining
harakatlarni
harakatlarning
harakatli
harakatni
harakatning
harakatsiz
haram
harbiy
harbiylar
harbiylari
harbiylashtirilgan
harbor
hard
hardaway
hardy
harf
harfi
harflar
harflari
harflarning
hari
harobalari
harobasi
harold
harom
harorat
haroratda
haroratga
harorati
haroratida
haroratini
haroratining
haroratni
haroratning
harper
harris
harrison
harry
hart
hartford
hartlepool
hartley
harvard
harvey
has
hasad
hasan
hasanov
hashamatli
hasharot
hasharotlar
hasharotlarni
hashmi
hassan
hat
hatlab
hatto
hattoki
haut
haute
havaskor
havaskorlar
havaskorlik
have
haven
havo
havoda
havodagi
havodan
havoga
havola
havolalar
havoni
havoning
havoriy
havosi
havzalari
havzalarida
havzasi
havzasida
havzasidagi
havzasiga
havzasining
hawaii
hawk
hawks
hay
hayajon
hayajonli
haydab
haydalgan
haydar
haydarobod
haydarov
haydash
haydovchi
haydovchiga
haydovchilar
haydovchilik
haydovchisi
hayes
hayit
hayitov
haykal
haykalchalar
haykali
haykalini
haykallar
haykallari
haykalni
haykalning
haykaltarosh
haykaltaroshi
haykaltaroshlar
haykaltaroshlik
haynes
hayot
hayotda
hayotdagi
hayotdan
hayotga
hayoti
hayotida
hayotidagi
hayotidan
hayotiga
hayotim
hayotini
hayotining
hayotiy
hayotni
hayotning
hayrat
hayratda
hayratga
hayratlanarli
hayron
hayvard
hayvon
hayvoni
hayvonlar
hayvonlarda
hayvonlardan
hayvonlarga
hayvonlari
hayvonlarini
hayvonlarni
hayvonlarning
hayvonni
hayvonning
hayvonot
hayz
hazil
hazm
hazorasp
hazrat
hazrati
hb
hbo
hc
hcards
hd
hdr
he
head
health
healthcare
heaney
heart
hearts
heat
heath
heather
heaton
heaven
heavy
hech
hector
hee
heels
heerenveen
height
heights
heinrich
heinz
helen
helena
hell
hellas
hello
helmand
helmut
help
helsinki
helvella
henan
henderson
henley
henri
henrik
henry
her
herald
herbert
hercules
here
heritage
herman
hermann
hermione
hero
heroes
herschel
hershey
hertha
herzogtum
hessen
het
hewitt
hewlett
hey
hf
hg
hi
hibernian
hibsda
hibsga
hid
hidi
hidli
hidoyat
higashi
high
higher
highway
hijob
hijoz
hijrat
hijriy
hikmat
hikmatyor
hikoya
hikoyachi
hikoyada
hikoyaga
hikoyalar
hikoyalari
hikoyalarida
hikoyalarini
hikoyalarni
hikoyani
hikoyaning
hikoyasi
hikoyasida
hikoyasiga
hikoyasini
hil
hill
hills
hilmand
hilol
hilton
him
himolay
himoloy
himoya
himoyachi
himoyachiga
himoyachilar
himoyachilari
himoyachilaridan
himoyachisi
himoyachisiga
himoyada
himoyadagi
himoyaga
himoyalangan
himoyalanish
himoyalash
himoyani
himoyasi
himoyasida
himoyasiga
himoyasini
himoyasiz
himoyaviy
hind
hindi
hindiston
hindistonda
hindistondagi
hindistondan
hindistonga
hindistoni
hindistonlik
hindistonni
hindistonning
hindlar
hindlarning
hindu
hinduizm
hindular
hindulari
hindustan
hip
hirot
hirotda
his
hisob
hisobda
hisobga
hisobi
hisobida
hisobidagi
hisobidan
hisobiga
hisobini
hisoblab
hisobladi
hisoblagan
hisoblanadi
hisoblanadigan
hisoblanar
hisoblanardi
hisoblandi
hisoblangan
hisoblanib
hisoblanishi
hisoblanmaydi
hisoblansa
hisoblar
hisoblardi
hisoblari
hisoblash
hisoblashadi
hisoblashda
hisoblashdi
hisoblashgan
hisoblaydi
hisoblaydigan
hisoblaydilar
hisobni
hisobot
hisobotda
hisoboti
hisobotida
hisobotiga
hisobotini
hisobotlar
hisobotlari
hisobotlarni
hisobotni
hisor
hissa
hissalari
hissalarini
hissasi
hissasiga
hissasini
hissi
hissini
hissiy
histoire
historia
historic
historical
histories
history
hit
hitachi
hitler
hits
hiyla
hizb
hizmat
hk
hl
hm
hms
hna
ho
hoa
hockey
hodisa
hodisadan
hodisaga
hodisalar
hodisalarga
hodisalari
hodisalarni
hodisalarning
hodisani
hodisaning
hodisasi
hodisasini
hoffenheim
hoffman
hofiz
hoji
hokazo
hokazolar
hokim
hokimi
hokimining
hokimiyat
hokimiyatdan
hokimiyatga
hokimiyati
hokimiyatiga
hokimiyatini
hokimiyatining
hokimiyatni
hokimiyatning
hokimlar
hokimlari
hokimligi
hokimlik
hoku
hol
holat
holatda
holatdagi
holatdan
holatga
holati
holatida
holatidagi
holatidan
holatiga
holatini
holatining
holatlar
holatlarda
holatlarga
holatlari
holatlarida
holatlarini
holatlarining
holatlarni
holatlarning
holatni
holatning
holbuki
holda
holdagi
holden
holding
holdings
holdir
holga
holi
holida
holiday
holiga
holland
hollarda
hollari
holly
hollywood
holmes
holocaust
holstein
holt
holy
home
homila
homilador
homiladorlik
homiladorlikning
homilaning
homiy
homiylar
homiylari
homiyligi
homiyligida
homiyligidagi
homiylik
homiysi
homo
hon
honda
honduras
honey
honeywell
hong
honor
hop
hope
hopkins
horace
horizon
horn
hornets
horse
horun
hos
hoshim
hoshimov
hoshiya
hoshiyalangan
hosil
hosilalari
hosilasi
hosildorligi
hosildorlik
hosilga
hosili
hospital
host
hot
hotel
hotspur
houghton
hour
hours
house
houston
hove
hovli
hovlida
hovliga
hovlining
hovlisi
hovlisida
hovuz
hovuzi
hovuzlar
how
howard
hoz
hozir
hozircha
hozirda
hozirga
hozirgacha
hozirgi
hp
hpv
hr
hromada
hromadalaridan
hrsg
hs
hsbc
ht
hta
htm
html
http
https
hu
huang
huawei
hub
hubble
hubert
huddersfield
huddi
hudson
hudud
hududda
hududdagi
hududdan
hududga
hududi
hududida
hududidagi
hududidan
hududiga
hududini
hududining
hududiy
hududlar
hududlarda
hududlardagi
hududlardan
hududlarga
hududlari
hududlarida
hududlaridagi
hududlaridan
hududlariga
hududlarini
hududlarining
hududlarni
hududlarning
hududni
hududning
huelva
huesca
huffington
hugh
hughes
hugo
hujayra
hujayradan
hujayralar
hujayralarda
hujayralardan
hujayralarga
hujayralari
hujayralarida
hujayralaridan
hujayralariga
hujayralarini
hujayralarining
hujayralarni
hujayralarning
hujayrali
hujayraning
hujayrasi
hujjat
hujjatda
hujjati
hujjatida
hujjatlar
hujjatlarda
hujjatlarga
hujjatlari
hujjatlarida
hujjatlariga
hujjatlarini
hujjatlarni
hujjatlarning
hujjatlashtirilgan
hujjatli
hujjatni
hujralar
hujum
hujumchi
hujumchilar
hujumchilari
hujumchisi
hujumda
hujumdan
hujumga
hujumi
hujumidan
hujumiga
hujumini
hujumkor
hujumlar
hujumlardan
hujumlari
hujumlaridan
hujumlariga
hujumlarini
hujumlarni
hujumni
hukm
hukmdor
hukmdori
hukmdorlar
hukmdorlari
hukmdorlarining
hukmdorning
hukmi
hukmron
hukmronligi
hukmronligidan
hukmronligiga
hukmronligini
hukmronligining
hukmronlik
hukumat
hukumatda
hukumatdan
hukumatga
hukumati
hukumatida
hukumatidan
hukumatiga
hukumatini
hukumatining
hukumatlar
hukumatlararo
hukumatlari
hukumatni
hukumatning
hull
hum
human
humo
humoyun
hun
hunar
hunarmand
hunarmandchiligi
hunarmandchilik
hunarmandchilikning
hunarmandlar
hunsru
hunt
hunter
huntington
huquq
huquqbuzarlik
huquqi
huquqidan
huquqiga
huquqini
huquqining
huquqiy
huquqlar
huquqlarga
huquqlari
huquqlaridan
huquqlariga
huquqlarini
huquqlarining
huquqlarni
huquqli
huquqni
huquqning
huquqqa
huquqshunos
huquqshunoslik
hurmat
hurmatga
hurmati
hurmatli
hurricanes
hurriyat
husayn
husayniy
husaynning
hushidan
hushyor
huskies
hut
huzurida
huzuridagi
huzuriga
hybrid
hyde
hydro
hyun
hyundai
hz
i
ia
iaaf
ian
iana
ib
iba
ibaraki
iberiya
ibf
iblis
ibm
ibn
ibo
ibodat
ibodatxona
ibodatxonalar
ibodatxonalari
ibodatxonaning
ibodatxonasi
ibodatxonasida
ibodatxonasiga
ibodatxonasining
ibora
iboralar
iborasi
iborat
iboratdir
iboratki
ibot
iboti
ibragimov
ibrahim
ibrat
ibrohim
ibrohimov
ibroniy
ibroniycha
ibtido
ibtidoiy
ic
icao
icc
icd
ice
ich
ichak
ichakda
ichakka
ichakning
ichi
ichida
ichidagi
ichidan
ichiga
ichimlik
ichimliklar
ichimliklarni
ichini
ichish
ichkarida
ichkaridan
ichkariga
ichkarisida
ichki
ichlar
icon
id
ida
idagi
idaho
idan
idea
ideal
identifikatori
identifikatsiya
identity
idir
idish
idishda
idishga
idishi
idishlar
idishlarda
idishlari
idol
idora
idoralar
idoralari
idorasi
idorasida
idorasiga
idorasining
idoraviy
idris
idrok
ie
ieee
if
iffhs
ifk
iflos
ifloslangan
ifloslanish
ifloslanishi
ifloslantiruvchi
ifoda
ifodalagan
ifodalanadi
ifodalangan
ifodalanishi
ifodalash
ifodalaydi
ifodalaydigan
ifodali
ifodalovchi
ifodasi
ifodasini
ig
iga
igacha
igna
ignabargli
ignatenko
igor
ii
iida
iihf
iii
ijara
ijarada
ijaradan
ijaraga
ijarasi
ijduvon
ijobiy
ijod
ijodi
ijodida
ijodidan
ijodiga
ijodini
ijodining
ijodiy
ijodiyoti
ijodkor
ijodkorlar
ijodkorlari
ijodkorligi
ijodkorlik
ijro
ijrochi
ijrochilar
ijrochilari
ijrochilik
ijrochisi
ijroiya
ijrosi
ijrosida
ijrosidagi
ijrosini
ijtimoiy
ik
ikea
ikiston
ikkala
ikkalasi
ikkalasida
ikkalasini
ikkalasining
ikki
ikkiga
ikkilamchi
ikkilik
ikkinchi
ikkinchidan
ikkinchisi
ikkinchisida
ikkinchisiga
ikkinchisini
ikkinchisining
ikkisi
ikkita
ikkitadan
ikkitasi
ikkitasida
ikkitasini
iklim
iklimi
ikona
ikonasi
ikra
ikromov
iktisodiy
il
ila
iladi
iladigan
ilash
ildi
ildiragi
ildirak
ildiraklar
ildiraklari
ildirakli
ildiz
ildizdan
ildizi
ildizlar
ildizlari
ildizlarini
ile
ilg
ilgan
ilganda
ilgandan
ilganida
ilganlar
ilgari
ilgarigi
ilhom
ilhomlangan
ilhomlanib
ilhomlantirdi
ilhomlantirgan
ilhomlantiruvchi
ili
iliada
ilib
ilich
iliq
ilish
ilishda
ilishi
ilishida
ilishidan
ilishiga
ilishini
ilishlar
ilishlarda
ilishlari
ilishlarida
ilishni
ilishning
ilk
ill
illari
illaridan
illarini
ille
illinois
illinoys
illustrated
ilm
ilmi
ilmining
ilmiy
ilohiy
ilohiyot
iloji
ilon
iloni
ilonlar
ilova
ilovalar
ilovalari
ilovalarni
ilovasi
iltimos
iltimosi
iltimosiga
iltimosini
ilya
ilyos
im
image
images
imagine
imax
imdb
imeni
img
imga
imi
imkon
imkoni
imkoniga
imkonini
imkoniyat
imkoniyatga
imkoniyati
imkoniyatidan
imkoniyatiga
imkoniyatini
imkoniyatlar
imkoniyatlarga
imkoniyatlari
imkoniyatlaridan
imkoniyatlariga
imkoniyatlarini
imkoniyatlarni
imkoniyatni
imkonsiz
imlar
imlarning
imli
imlo
immigrant
immigrantlar
immigration
immigratsiya
immun
immunitet
immunitetni
immunologik
immunologiya
imo
imom
imomi
imon
imoratlar
impact
imperator
imperatorga
imperatori
imperatorlar
imperatorlari
imperatorlik
imperatorning
imperial
imperiya
imperiyani
imperiyaning
imperiyasi
imperiyasida
imperiyasidagi
imperiyasidan
imperiyasiga
imperiyasini
imperiyasining
import
importi
improvizatsiya
impuls
impulslar
imtihon
imtihondan
imtihonlar
imtihonlari
imtihonlarini
imtiyoz
imtiyozlar
imtiyozlarga
imtiyozlari
imtiyozlarini
imtiyozlarni
imtiyozli
imzo
imzolab
imzoladi
imzoladilar
imzolagan
imzolagani
imzolaganidan
imzolaganini
imzolandi
imzolangan
imzolangandan
imzolanishi
imzolash
imzolashdan
imzolashga
imzolashi
imzolashni
imzolaydi
imzosi
in
ina
inc
incheon
including
inda
indan
indeks
indeksi
indeksiga
independence
independent
independiente
index
indeys
india
indian
indiana
indianapolis
indigo
indisi
individual
indiya
indonesia
indonez
indoneziya
indoneziyada
indoneziyadagi
indoneziyaga
indoneziyalik
indoneziyaning
indre
induksiya
industrial
industries
industry
indy
inert
infarkti
infeksion
infeksiya
infeksiyalar
infeksiyalari
infeksiyaning
infeksiyasi
infektsiya
infektsiyalari
infektsiyasi
infinity
inflyatsiya
info
infobox
informacio
informatika
information
informatsion
informatsiya
infraqizil
infratuzilma
infratuzilmani
infratuzilmasi
infratuzilmasini
infty
ing
inga
ingarchilik
ingarchilikning
ingichka
ingl
ingliz
inglizcha
inglizlar
inglizlarga
inglizlarning
ingredientlar
ini
inida
iniga
ining
inini
inish
injil
inkor
inkubatsiya
inlar
inlari
inli
inn
inni
inning
innovation
innovatsion
innovatsiya
innovatsiyalar
inobatga
inqilob
inqilobchi
inqilobchilar
inqilobdan
inqilobi
inqilobidan
inqilobiga
inqilobining
inqilobiy
inqiroz
inqirozdan
inqirozga
inqirozi
inqirozni
ins
insee
insho
insholar
inshoot
inshooti
inshootlar
inshootlardagi
inshootlari
inshootlarini
inshootlarni
inshootlarning
inside
insight
insignia
inson
insonga
insoniy
insoniyat
insoniyatga
insoniyatning
insonlar
insonlarni
insonlarning
insonni
insonning
insonparvarlik
inspektor
inspektori
inspiron
instagram
instagramda
institut
instituta
institutda
institute
institutga
instituti
institutida
institutiga
institutini
institutining
institutlar
institutlari
institutlarida
institutni
institutning
instituto
institutsional
instruktor
instruktori
instrumental
insulin
insult
insurance
int
intanon
integral
integratsiya
integratsiyalashgan
integratsiyasi
intel
intellekt
intellektual
intelligence
intensiv
intensivligi
inter
interactive
interaktiv
interfeys
interfeysi
interior
internacional
internat
international
internationalda
internationale
internazionale
internet
internetda
internetdagi
internetdan
internetga
intertoto
interview
intervyu
intervyuda
intervyular
intervyusi
intervyusida
interyer
intiladi
intilayotgan
intildi
intilgan
intilish
intilishi
intizom
intizomiy
into
intoksikatsiya
intrakranial
introduction
intruziv
inv
invaziv
investigation
investitsion
investitsiya
investitsiyalar
investitsiyalari
investitsiyalarni
investment
investments
investor
investorlar
io
ioann
iogann
ion
ionlar
ionlari
ionli
iordaniya
iordaniyada
ios
iosif
iowa
ip
ipad
ipados
ipak
ipakchilik
iphone
ipi
iplar
iplari
ipo
ipod
ipoteka
ipsvich
ipswich
iq
iqbol
iqlim
iqlimga
iqlimi
iqlimiga
iqlimli
iqtibos
iqtiboslar
iqtidorli
iqtisod
iqtisodchi
iqtisodchilar
iqtisodchisi
iqtisodi
iqtisodiy
iqtisodiyot
iqtisodiyotda
iqtisodiyotga
iqtisodiyoti
iqtisodiyotida
iqtisodiyotiga
iqtisodiyotini
iqtisodiyotining
iqtisodiyotni
iqtisodiyotning
ir
ira
iran
iranian
iraq
iravan
irchoq
irchoqlar
irdan
ireland
irena
irene
irg
irina
iris
irish
irkutsk
irlab
irland
irlandiya
irlandiyada
irlandiyadagi
irlandiyaga
irlandiyalik
irlandiyaning
irlangan
irlar
irlari
irlarida
irlash
irli
irligi
irligiga
irligini
irlik
irlikdagi
irlikni
irmog
irmoqlari
iroda
irodasi
irog
iron
iroq
iroqda
iroqdagi
iroqlar
iroqlari
iroqlik
iroqni
iroqning
iroqqa
irot
irq
irqchilik
irqdan
irqga
irqi
irqiy
irqlar
irqlardan
irrigatsiya
irroq
irsiy
irsyad
irtish
irving
is
isa
isaac
isaak
isabel
isabella
isaf
isbn
isbot
isboti
isbotlab
isbotladi
isbotlagan
isbotlangan
isbotlash
isbotlaydi
ise
isfahon
isfana
isfaxon
ish
ishbilarmon
ishbilarmonlar
ishbilarmonlik
ishchi
ishchilar
ishchilarga
ishchilari
ishchilarining
ishchilarni
ishchilarning
ishchisi
ishda
ishdan
ishemik
ishg
ishga
ishi
ishid
ishida
ishidan
ishiga
ishii
ishini
ishining
ishlab
ishladi
ishladilar
ishlagan
ishlaganda
ishlagandan
ishlamay
ishlamaydi
ishlamoqda
ishlanadi
ishlandi
ishlangan
ishlanib
ishlanishi
ishlanmalar
ishlar
ishlarda
ishlardan
ishlarga
ishlari
ishlarida
ishlaridan
ishlariga
ishlarini
ishlarining
ishlarni
ishlarning
ishlash
ishlashda
ishlashdan
ishlashga
ishlashi
ishlashiga
ishlashini
ishlashni
ishlashning
ishlatadi
ishlatadigan
ishlatdi
ishlatgan
ishlatib
ishlatila
ishlatiladi
ishlatiladigan
ishlatildi
ishlatilgan
ishlatilishi
ishlatilmaydi
ishlatilsa
ishlatish
ishlatishga
ishlatishni
ishlay
ishlaydi
ishlaydigan
ishlayotgan
ishlov
ishlovchi
ishni
ishning
ishonadi
ishonch
ishonchi
ishonchini
ishonchli
ishonchliligi
ishonchni
ishonchsiz
ishonchsizlik
ishondi
ishongan
ishonib
ishoniladi
ishonish
ishonishadi
ishonishgan
ishontirdi
ishontirish
ishontirishga
ishoq
ishora
ishoralar
ishq
ishqalanish
ishqiy
ishqor
ishqoriy
ishqorli
ishsiz
ishsizlik
isht
ishtdan
ishtirok
ishtirokchi
ishtirokchilar
ishtirokchilarga
ishtirokchilari
ishtirokchilarning
ishtirokchisi
ishtiroki
ishtirokida
ishtirokidagi
ishtirokini
ishtirokisiz
ishtixon
ishtiyoq
ishtiyoqi
ishtlar
ishtli
isi
isis
isitiladigan
isitish
isitma
isitmasi
iskandar
iskandariya
iskusstvo
isl
islam
islamic
island
islanders
islandiya
islandiyada
islandiyaga
islandiyaning
islands
islimiy
isloh
islohot
islohotchi
islohoti
islohotida
islohotlar
islohotlari
islohotlarni
islom
islomda
islomdagi
islomdan
islomga
islomgacha
islomi
islomiy
islomni
islomning
islomobod
islomshunoslik
ism
ismi
ismini
ismining
ismlar
ismlari
ismlarini
ismli
ismning
ismoil
ismoilov
iso
isoning
isp
ispan
ispancha
ispaniya
ispaniyada
ispaniyadagi
ispaniyadan
ispaniyaga
ispaniyalik
ispaniyani
ispaniyaning
ispanlar
israel
isroil
isroilda
isroildagi
isroilga
isroillik
isroilning
iss
issiklik
issiq
issiqko
issiqlik
issiqlikni
issiqxona
issledovaniya
issn
issue
issues
ist
istagan
istagi
istagini
istak
istalgan
istalmagan
istamadi
istamagan
istanbul
istanbulda
istanbuldagi
istanbulga
istanbulning
iste
istehkom
istehkomlar
istilo
istilosi
istilosidan
istiqbol
istiqboli
istiqbollari
istiqbolli
istiqlol
istiqomat
istirohat
istisno
istisnolar
iston
istonda
istondagi
istonga
istonlik
istonning
istoricheskaya
istorii
istoriya
isu
isuzu
isyon
isyonchi
isyonchilar
isyonkor
it
ita
ital
italia
italian
italiana
italiya
italiyada
italiyadagi
italiyadan
italiyaga
italiyalik
italiyaliklar
italiyani
italiyaning
italy
italyan
italyancha
itarib
itf
iti
itish
itlar
itlardan
itlari
itlarni
itlarning
ito
itoat
its
ittifoq
ittifoqchi
ittifoqchilar
ittifoqchilari
ittifoqchilarning
ittifoqchisi
ittifoqdosh
ittifoqi
ittifoqida
ittifoqidagi
ittifoqidan
ittifoqiga
ittifoqini
ittifoqining
ittifoqni
ittifoqning
ittifoqqa
ittihod
itunes
itv
iu
iucn
iv
ivan
ivano
ivanov
ivanovich
ivanovna
iveco
ivlendi
ivuar
ivy
iwabuchi
ix
ixcham
ixtiro
ixtirochi
ixtirochisi
ixtirosi
ixtisoslashgan
ixtisoslashtirilgan
ixtisosligi
ixtiyori
ixtiyorida
ixtiyoriga
ixtiyoriy
iy
iyan
iyat
iymon
iyosiddin
iyul
iyulda
iyuldagi
iyuldan
iyulgacha
iyulida
iyulidan
iyuligacha
iyulniki
iyulning
iyulya
iyun
iyunda
iyundagi
iyundan
iyungacha
iyunida
iyunidan
iyuniga
iyunigacha
iyunya
iz
izabella
izchil
izd
izdan
izdanie
izdatelstvo
izdoshlari
izi
izidan
izini
iziston
izistonda
izistondagi
izistonning
izlab
izlanish
izlanishlar
izlanishlari
izlar
izlari
izlarini
izlash
izlashga
izlayotgan
izlik
izmir
izoh
izohladi
izohlanadi
izohlar
izohlash
izohlaydi
izohli
izolyatsiya
izotopi
izvestiya
izzat
j
ja
jabbor
jabborov
jabhasi
jabr
jabrayil
jabrlanuvchi
jabrlanuvchining
jac
jack
jackets
jackie
jackson
jacob
jacobs
jacques
jadal
jade
jadid
jadidchilik
jadidlar
jadval
jadvalda
jadvalga
jadvali
jadvalida
jadvaliga
jadvalini
jadvalining
jadvallar
jadvallari
jadvalning
jae
jafar
jag
jaguar
jahon
jahonda
jahondagi
jahonga
jahongir
jahonning
jai
jak
jakarta
jakartada
jake
jaklin
jal
jalar
jalb
jaligi
jaligida
jaligiga
jaligini
jaligining
jalik
jaliklar
jaliklari
jaliklarida
jaliklarini
jaliklarining
jalil
jalilabad
jalilov
jalol
jaloliddin
jalolobod
jam
jambil
jambul
james
jamg
jami
jamie
jamiyat
jamiyatda
jamiyatdagi
jamiyatga
jamiyati
jamiyatida
jamiyatidagi
jamiyatiga
jamiyatini
jamiyatining
jamiyatlar
jamiyatlarda
jamiyatlari
jamiyatni
jamiyatning
jamlagan
jamlangan
jamlash
jammu
jamoa
jamoada
jamoadagi
jamoadan
jamoadoshi
jamoadoshlari
jamoaga
jamoalar
jamoalarda
jamoalardagi
jamoalardan
jamoalarga
jamoalari
jamoalarida
jamoalaridagi
jamoalaridan
jamoalariga
jamoalarini
jamoalarining
jamoalarni
jamoalarning
jamoani
jamoaning
jamoasi
jamoasida
jamoasidagi
jamoasidan
jamoasiga
jamoasini
jamoasining
jamoat
jamoatchiligi
jamoatchilik
jamoatchilikka
jamoatchilikni
jamoatchilikning
jamoati
jamoatiga
jamoaviy
jamol
jamotiga
jamshid
jan
jana
jand
jane
janet
janeyro
janeyroda
janeyrodagi
jang
jangari
jangarilar
jangarilari
jangchi
jangchilar
jangchilari
jangchisi
jangda
jangdan
jangga
jangi
jangida
jangidagi
jangidan
jangini
janglar
janglarda
janglardan
janglari
janglarida
jangni
jangning
jangovar
janjal
janjallashib
janna
jannat
janob
janr
janrdagi
janri
janrida
janridagi
janriga
janrining
janrlar
janrlarda
janrlari
janrlarida
janrning
january
janub
janubda
janubdagi
janubdan
janubga
janubi
janubida
janubidagi
janubidan
janubiy
jaobod
japan
japanese
japonica
jar
jarayon
jarayonda
jarayonga
jarayoni
jarayonida
jarayonidan
jarayoniga
jarayonini
jarayonining
jarayonlar
jarayonlarda
jarayonlarga
jarayonlari
jarayonlarida
jarayonlarini
jarayonlarining
jarayonlarni
jarayonlarning
jarayonni
jarayonning
jared
jarima
jarimaga
jarlik
jarohat
jarohatdan
jarohati
jarohatidan
jarohatini
jarohatlangan
jarohatlar
jarohatlardan
jarohatlari
jarqo
jarroh
jarrohi
jarrohligi
jarrohlik
jasad
jasadi
jasadini
jasadlari
jason
jasorat
jasorati
jasoratli
jasper
jastin
jasur
java
javascript
javdar
javier
javob
javoban
javobgar
javobgardir
javobgarlik
javobgarlikka
javobgarlikni
javobi
javobini
javoblar
javobni
javod
javodning
jay
jayev
jayhun
jayin
jayini
jaz
jazira
jazo
jazoga
jazoir
jazoirda
jazoirlik
jazoirning
jazolanadi
jazolash
jazoni
jazosi
jazosiga
jazosini
jazz
jc
jch
jd
je
jean
jeep
jeff
jefferson
jeffrey
jeffri
jek
jeki
jekson
jeksonning
jele
jem
jen
jeneva
jenevada
jenkins
jenner
jenni
jennifer
jennings
jenoa
jensen
jenshen
jerald
jerar
jeremi
jeremy
jermen
jerom
jerome
jerri
jerry
jersey
jersi
jerusalem
jesse
jessi
jessica
jessika
jesus
jet
jets
jewish
jews
jey
jeyk
jeykob
jeymi
jeyms
jeyn
jeyson
jez
jgp
ji
jia
jiang
jiangsu
jibuti
jidda
jiddiy
jie
jigar
jigarda
jigarrang
jihatdan
jihati
jihatidan
jihatlar
jihatlari
jihatlarini
jihod
jihozlandi
jihozlangan
jihozlar
jihozlari
jihozlarini
jihozlarni
jihozlash
jil
jild
jildda
jilddan
jildi
jildlar
jildli
jildlik
jilin
jill
jim
jimmi
jimmy
jin
jing
jingalak
jinlar
jinoiy
jinoyat
jinoyatchi
jinoyatchilar
jinoyatchilarni
jinoyatchilik
jinoyatchilikka
jinoyati
jinoyatlar
jinoyatlari
jinoyatlarni
jins
jinsdagi
jinsga
jinsi
jinsiga
jinsining
jinsiy
jinslar
jinslarda
jinslardan
jinslari
jinslaridan
jinslarining
jinslarning
jinsli
jinssiz
jirkanch
jism
jismlar
jismlarning
jismning
jismonan
jismoniy
jitomir
jiyani
jiyda
jiza
jizalar
jizasi
jizaviy
jizn
jizni
jizzax
jk
jo
joa
joan
joanna
jobs
jodi
jodugar
joe
joel
johan
johann
johannes
johansson
john
johnny
johns
johnson
johnston
johor
joins
joint
joizki
joker
jokovich
jokovichga
jom
jome
jomiy
jon
jonas
jonatan
jonathan
jondor
jones
jong
joni
joniga
jonivorlar
jonivorlarga
jonlantirgan
jonlantirish
jonli
jonni
jonning
jons
jonsiz
jonson
jonston
jonzot
jordan
jorge
joriy
jorj
jorjiya
jorjtaun
jose
joseph
josh
joshua
josuslik
journal
journalism
journalist
journalists
journey
jovanni
jovid
joy
joyce
joyda
joydagi
joydan
joyga
joyi
joyida
joyidagi
joyidan
joyidir
joyiga
joyini
joyining
joylar
joylarda
joylardagi
joylardan
joylarga
joylari
joylarida
joylaridan
joylariga
joylarini
joylarining
joylarni
joylarning
joylashadi
joylashdi
joylashdilar
joylashgan
joylashgani
joylashganligi
joylashib
joylashish
joylashishi
joylashishiga
joylashishini
joylashtiradi
joylashtirdi
joylashtirgan
joylashtiriladi
joylashtirildi
joylashtirilgan
joylashtirilishi
joylashtirish
joylashtirishga
joylashtirishni
joylashuv
joylashuvi
joylashuvini
joyni
joyning
jozef
jozefina
jozeph
jozibador
jozibali
jozibasi
jp
jpeg
jpg
jpmorgan
jr
js
jsst
jstor
ju
juan
juda
judit
judith
judo
judy
juft
juftligi
juftligini
juftlik
juftlikda
juftliklar
juftliklari
juftlikning
jug
jukov
jukovskiy
jules
juli
julia
julian
julie
julien
juliet
julio
julius
july
juma
jumladan
jumlasidan
jumlasidandir
jumlasiga
jump
jun
junction
june
jung
jungle
juni
junior
juniors
junli
jur
jura
jurnal
jurnalda
jurnali
jurnalida
jurnaliga
jurnalini
jurnalining
jurnalist
jurnalisti
jurnalistik
jurnalistika
jurnalistikaning
jurnalistikasi
jurnalistlar
jurnalistlarga
jurnalistlari
jurnalistlarni
jurnalistlarning
jurnallar
jurnallarda
jurnallari
jurnallarida
jurnallarining
jurnalning
just
justice
justin
juventus
juz
juzeppe
jyp
jyul
k
ka
kabel
kabeli
kabellar
kabi
kabilar
kabilarni
kabina
kabinasi
kabir
kabisa
kabo
kabob
kabobi
kabriolet
kabul
kad
kadi
kadr
kadrlar
kadrlarni
kafe
kafedra
kafedralari
kafedrasi
kafedrasida
kafolat
kafolati
kafolatlangan
kafolatlari
kafolatlaydi
kaft
kai
kaiser
kaiserslautern
kajol
kak
kakao
kaklik
kal
kala
kalamush
kalamushlar
kalanchoe
kaldosh
kale
kalendar
kalgari
kali
kalibrli
kaliforniya
kaliforniyada
kaliforniyadagi
kaliforniyaga
kaliforniyaning
kalimantan
kalinin
kaliningrad
kalit
kaliti
kalitlar
kaliy
kalkutta
kalla
kalmar
kalom
kalon
kalsiy
kalta
kaltakesak
kaltakesaklar
kaltaklangan
kaltsiy
kaluga
kalyari
kam
kama
kamakura
kamalak
kaman
kamar
kamari
kamarini
kamayadi
kamaydi
kamaygan
kamayib
kamayishi
kamayishiga
kamaytiradi
kamaytiradigan
kamaytirdi
kamaytirish
kamaytirishga
kamaytirishi
kambag
kambodja
kamchatka
kamchilik
kamchiliklar
kamchiliklari
kamchiliklarni
kamdan
kameo
kamer
kamera
kamerada
kameraga
kameralar
kameralari
kamerali
kamerasi
kamerun
kami
kamida
kamil
kamligi
kamo
kamol
kamoliddin
kamolot
kamon
kamondan
kamp
kampaniya
kampaniyalari
kampaniyalarida
kampaniyani
kampaniyaning
kampaniyasi
kampaniyasida
kampaniyasiga
kampaniyasini
kampaniyasining
kampeonato
kampir
kampus
kampusda
kampusi
kampusida
kampusidagi
kamqonlik
kamrog
kamroq
kamsitish
kamsituvchi
kamtarona
kamyob
kan
kana
kanada
kanadada
kanadadagi
kanadaga
kanadalik
kanadaliklar
kanadani
kanadaning
kanal
kanalda
kanalga
kanali
kanalida
kanalidagi
kanalidan
kanaliga
kanalini
kanalining
kanalizatsiya
kanallar
kanallari
kanalli
kanalni
kanalning
kanar
kanberra
kane
kang
kangal
kann
kannada
kanonik
kanop
kansas
kansi
kansler
kansleri
kant
kante
kanto
kanton
kantonida
kantri
kanzas
kapalak
kapalaklar
kapillyar
kapital
kapitali
kapitalistik
kapitalizm
kapitallashuvi
kapitalni
kapitan
kapitani
kapoor
kappa
kapsula
kaptar
kapur
kar
kara
karachi
karam
karamanog
karan
karantin
karate
karben
karbon
karbonat
karbonatli
karbonil
kardashian
kardiff
kardinal
kardiologiya
kardjali
karel
kareliya
karen
karerasi
karerasida
karerasidagi
karerasini
karerasining
kari
karib
karim
karimov
karimova
karimovning
karintiya
karkidon
karl
karla
karlo
karlos
karlsson
karmana
karmen
karnataka
karnaval
karnay
karnegi
karolin
karolina
karotin
karpat
karra
karrali
kars
karshi
karson
karst
kart
karta
kartalar
kartalari
kartalarini
kartani
kartasi
kartasini
karter
kartina
kartinasi
kartli
kartochka
kartochkalar
karton
kartoshka
karvon
karvonsaroy
karyera
karyerasi
karyerasidagi
karyerasini
karyerasining
karzay
kas
kasaba
kasal
kasallangan
kasallanish
kasalligi
kasalligida
kasalligidan
kasalligiga
kasalligini
kasalligining
kasallik
kasallikdan
kasallikka
kasalliklar
kasalliklarda
kasalliklardan
kasalliklarga
kasalliklari
kasalliklarida
kasalliklariga
kasalliklarini
kasalliklarining
kasalliklarni
kasalliklarning
kasallikni
kasallikning
kasalxona
kasalxonada
kasalxonaga
kasalxonalar
kasalxonasi
kasalxonasida
kasalxonasiga
kasb
kasbga
kasbhunar
kasbi
kasbini
kasbiy
kasblar
kash
kashf
kashfiyot
kashfiyoti
kashfiyotlar
kashmir
kashshof
kashshofi
kashta
kashtachilik
kashtan
kaspiy
kasr
kassa
kassabop
kassada
kasta
kastamonu
kastiliya
kasting
kastro
kat
katalitik
katalizator
katalog
katalogi
kataloniya
katarina
kate
kategoriya
katerina
katherine
kathleen
katie
katlar
katmandu
kato
katolik
katoliklar
katrina
katta
kattadir
kattalar
kattalarda
kattalarga
kattalashadi
kattalashtirish
kattaligi
kattalik
kattalikda
kattalikdagi
kattaqo
kattaroq
kattaroqdir
kattasi
kauchuk
kaufman
kaunas
kaunti
kaver
kavkaz
kavkazda
kavkazdagi
kavkazning
kavkazorti
kay
kaya
kayfiyat
kayfiyati
kayl
kaynag
kayta
kayzer
kazak
kazakhstan
kazaklar
kazaklari
kazan
kb
kbs
kc
kcha
ke
kech
kecha
kechada
kechadi
kechadigan
kechak
kechalari
kechasi
kechasida
kechayu
kechdi
kechgan
kechib
kechikish
kechikishi
kechiktirdi
kechiktirildi
kechiktirilgan
kechildi
kechiradi
kechirdi
kechirgan
kechirim
kechirish
kechish
kechishga
kechishi
kechishni
kechki
kechqurun
kechroq
keith
kek
keksa
kel
kela
keladi
keladigan
kelag
kelajagi
kelajagini
kelajak
kelajakda
kelajakdagi
kelajakka
kelajakni
kelardi
kelasi
kelayotgan
keldi
keldilar
keldim
keles
kelgach
kelgan
kelganda
kelgandan
kelgani
kelganida
kelganidan
kelganini
kelganlar
kelganlarida
kelganligi
kelguniga
kelgusi
kelgusida
kelib
kelibsiz
kelin
kelinadi
kelindi
keling
kelingan
kelini
kelinlar
kelinmoqda
kelinning
kelish
kelisha
kelishadi
kelishdi
kelishga
kelishgan
kelishi
kelishib
kelishidan
kelishiga
kelishilgan
kelishini
kelishmovchilik
kelishmovchiliklar
kelishni
kelishuv
kelishuvdan
kelishuvga
kelishuvi
kelishuviga
kelishuvini
kelishuvlar
kelishuvni
keller
kelli
kelly
kelmadi
kelmagan
kelmasligi
kelmaydi
kelmaydigan
kelmoqda
kelsa
kelsak
kelt
keltiradi
keltiradigan
keltirdi
keltirgan
keltirib
keltiriladi
keltirildi
keltirilgan
keltirish
keltirishi
keltiruvchi
keluvchi
kema
kemada
kemadan
kemaga
kemal
kemalar
kemalari
kemalarida
kemalariga
kemalarini
kemalarining
kemalarni
kemalarning
kemaliye
kemani
kemaning
kemasi
kemasida
kemasiga
kemasini
kemasining
kemasozlik
kembrij
kemeron
kemiruvchilar
kempbell
ken
kendall
keng
kengash
kengashda
kengashga
kengashi
kengashida
kengashiga
kengashini
kengashining
kengashlar
kengashlari
kengashning
kengayadi
kengaydi
kengaygan
kengayib
kengayish
kengayishi
kengayishiga
kengaytiradi
kengaytirdi
kengaytirgan
kengaytirib
kengaytirildi
kengaytirilgan
kengaytirish
kengaytirishga
kengaytirishni
kengaytma
kengaytmasi
kengligi
kenglik
kenglikda
kenglikdagi
kengliklarda
kengroq
keniya
kenja
kennedi
kennedy
kennet
kenneth
kenny
kent
kentavr
kentucky
kentukki
kepler
kerak
kerakki
kerakli
kerakligi
kerakligini
kerakmi
keraksiz
kerala
keramik
keramika
kerch
keri
kerol
kerosin
kerr
kerri
kertis
kesh
kesib
kesil
kesiladi
kesilgan
kesimi
kesimida
kesish
kesishgan
keskin
keskinlik
kesma
kessel
kessler
kesuvchi
ket
keta
ketadi
ketadigan
ketayotgan
ketayotganda
ketayotib
ketdi
ketgach
ketgan
ketganda
ketgandan
ketgani
ketganida
ketganidan
ketganini
ketganligi
keti
ketib
ketiladi
ketildi
ketilgan
ketin
ketish
ketishadi
ketishdan
ketishdi
ketishga
ketishgan
ketishi
ketishidan
ketishiga
ketishini
ketishining
ketishni
ketligi
ketligini
ketlik
ketma
ketmoqda
ketrin
ketsa
kevin
key
keyin
keyinchalik
keyinga
keyingi
keyingina
keyinroq
keyn
keynes
keyns
keyp
keys
keyt
kezib
kf
kfc
kg
kgb
kh
khan
khl
khmer
ki
kia
kib
kiber
kibernetika
kiberxavfsizlik
kichigi
kichik
kichikroq
kichkina
kicker
kid
kidlab
kidladi
kidladilar
kidlagan
kidlaganidek
kidlanadi
kidlangan
kidlanishicha
kidlash
kidlashicha
kidlaydi
kidlaydilar
kids
kien
kiev
kievda
kifoya
kil
kiladi
kilgan
kilib
kilikiya
kilish
kilishi
kill
killed
kilmarnock
kilogramm
kilogrammgacha
kilometr
kilometrga
kilometrlik
kilometrni
kim
kimchi
kimdir
kimga
kimligini
kimni
kimning
kimyo
kimyoda
kimyogar
kimyogari
kimyogarlar
kimyosi
kimyoviy
kin
kindi
kindik
kindle
kinematik
kinematografiya
kinetik
king
kingdom
kings
kingston
kino
kinoda
kinodagi
kinofestivali
kinofestivalida
kinofestivalining
kinofilm
kinofilmlar
kinoga
kinopoisk
kinorejissor
kinorejissyor
kinosi
kinosida
kinosining
kinostudiyasi
kinostudiyasida
kinoteatr
kinoteatrlarda
kinoya
kioto
kipr
kiprda
kiprga
kiprning
kir
kira
kiradi
kiradigan
kiraverishda
kirby
kirdi
kirgan
kirganda
kirgandan
kirganida
kirganidan
kirib
kirilenko
kirill
kirin
kirish
kirishadi
kirishda
kirishdan
kirishdi
kirishdilar
kirishga
kirishgan
kirishi
kirishib
kirishidan
kirishiga
kirishini
kirishish
kirishlari
kirishni
kirita
kiritadi
kiritdi
kiritdihttps
kiritdilar
kiritgach
kiritgan
kiritgandan
kiritgani
kiritganida
kiritganidan
kiritib
kiritiladi
kiritildi
kiritilgan
kiritilib
kiritilishi
kiritilmadi
kiritilmagan
kiritish
kiritishda
kiritishdi
kiritishga
kiritishi
kiritishiga
kiritishni
kirk
kirmagan
kirmaydi
kirmonshoh
kirov
kiruvchi
kis
kish
kishi
kishidan
kishiga
kishigacha
kishilar
kishilarda
kishilarga
kishilari
kishilarni
kishilarning
kishilik
kishini
kishining
kishisi
kishitaqsimoti
kislorod
kislota
kislotalar
kislotalari
kislotalarning
kislotali
kislotaning
kislotasi
kismi
kiss
kit
kita
kitab
kitchen
kitob
kitobda
kitobdan
kitobga
kitobi
kitobida
kitobidagi
kitobidan
kitobiga
kitobini
kitobining
kitoblar
kitoblarda
kitoblardan
kitoblarga
kitoblari
kitoblarida
kitoblaridan
kitoblariga
kitoblarini
kitoblarining
kitoblarni
kitoblarning
kitobni
kitobning
kitobxon
kitobxonlar
kiyadi
kiyev
kiyevda
kiyevdagi
kiyevning
kiygan
kiyib
kiyik
kiyiladi
kiyiladigan
kiyim
kiyimda
kiyimi
kiyimida
kiyimini
kiyimlar
kiyimlari
kiyimlarini
kiyimlarni
kiyingan
kiyinish
kiyish
kiyishadi
kiyishgan
kiyishni
kiz
kizil
kk
kl
klar
klara
klark
klass
klassi
klassicheskix
klassik
klassika
klassikasi
klassitsizm
klaster
klasterdir
klasteri
klaudio
klaus
klausura
klavdiy
klaviatura
klaviaturaga
klein
klement
kleopatra
kler
klinik
klinika
klinikasi
klint
klinton
klip
klipda
klipi
klipida
kliplar
klippers
klivlend
klod
klub
klubda
klubdagi
klubdan
klubga
klubi
klubida
klubidagi
klubidan
klubiga
klubini
klubining
klublar
klublarda
klublardagi
klublari
klublarida
klublaridan
klublariga
klublarini
klublarining
klublarning
klubni
klubning
km
kmdir
kmni
kn
kniga
knight
knights
knori
know
knowledge
known
knox
knvb
knyaz
knyazi
knyazlari
knyazligi
knyazlik
ko
koalitsiya
koalitsiyasi
kobalt
kobe
kobul
kobulda
kobuldagi
kobulga
kobulni
koch
kod
koda
kodeks
kodeksi
kodeksining
kodi
kodini
kodlangan
kodlari
kodlash
kodli
kodni
koeffitsienti
koeffitsiyenti
koen
kofe
kofte
kofun
kognitiv
kogon
koi
koinot
koinotda
koinotdagi
koinotga
koinotni
koinotning
koka
kokain
kokos
koks
kokteyl
kol
kola
kolbasa
kolin
kolkata
kollegial
kollej
kollejda
kollejdagi
kollejga
kolleji
kollejida
kollejiga
kollejini
kollejining
kollejlar
kollejlari
kollejni
kollejning
kolleksiya
kolleksiyasi
kolleksiyasini
kollektiv
kollektor
kollinz
kolloid
kolombo
koloniya
koloniyalar
koloniyalari
koloniyasi
kolorado
koloradodagi
kolumb
kolumbiya
kolumbiyada
kolumbiyaga
kolumbiyalik
kolumbiyaning
kolumbiyasi
kolumbus
kolxoz
kolxozchilar
kom
koma
komandir
komandiri
kombat
kombinati
kombinatlari
kombinatsiyalangan
kombinatsiyasi
kombinatsiyasini
komedik
komediya
komediyachi
komediyasi
komediyasida
komendanti
komi
komik
komiks
komikslar
komikslari
komil
komilov
komissar
komissari
komissarlari
komissarligi
komissiya
komissiyalari
komissiyaning
komissiyasi
komissiyasiga
komissiyasini
komissiyasining
komiteti
komitetining
kommersant
kommuna
kommunadir
kommunal
kommunalari
kommunasi
kommunikatsiya
kommunikatsiyalar
kommunist
kommunistik
kommunistlar
kommunizm
kommutatsiya
kompakt
kompaniya
kompaniyada
kompaniyaga
kompaniyalar
kompaniyalardan
kompaniyalarga
kompaniyalari
kompaniyalaridan
kompaniyalariga
kompaniyalarini
kompaniyalarining
kompaniyalarni
kompaniyalarning
kompaniyani
kompaniyaning
kompaniyasi
kompaniyasida
kompaniyasidan
kompaniyasiga
kompaniyasini
kompaniyasining
kompartiyasi
kompas
kompensatsiya
kompilyatsiya
kompleks
kompleksi
komplekslari
komponent
komponenti
komponentlar
komponentlari
komponentlarini
kompozit
kompozitor
kompozitori
kompozitorlar
kompozitorlari
kompozitorlik
kompozitsion
kompozitsiya
kompozitsiyalar
kompozitsiyalari
kompozitsiyasi
kompressor
kompyuter
kompyuterda
kompyuterga
kompyuterlar
kompyuterlari
kompyuterni
kompyuterning
komsomol
kon
konak
konchilar
konchilik
konda
kondan
konditsioner
konfederatsiya
konfederatsiyalar
konfederatsiyasi
konfederatsiyasining
konferensii
konferensiya
konferensiyada
konferensiyalar
konferensiyaning
konferensiyasi
konferensiyasida
konferensiyasining
konferentsiya
konferentsiyasi
konferentsiyasida
konfet
konfiguratsiya
konfutsiy
konfutsiylik
kong
konga
kongo
kongress
kongressda
kongressga
kongressi
kongressida
kongressining
kongressning
koni
konida
konidan
koniga
konini
konining
konkakaf
konkida
konlar
konlarda
konlardan
konlari
konlarida
konlaridan
konlariga
konlarini
konlarining
konlarni
konlarning
konnektikut
konni
konning
konnor
konrad
konsalting
konsensus
konsentratsiyasi
konsentrlangan
konsepsiya
konsepsiyasi
konserni
konsert
konserti
konsertlar
konserva
konservalangan
konservativ
konservatoriya
konservatoriyasi
konservatoriyasida
konservatoriyasini
konservatorlar
konsol
konstantin
konstantinopol
konstantinopolga
konstantinovich
konstitutsiya
konstitutsiyada
konstitutsiyaga
konstitutsiyani
konstitutsiyaning
konstitutsiyasi
konstitutsiyasida
konstitutsiyasiga
konstitutsiyasini
konstitutsiyasining
konstitutsiyaviy
konstruksiyalar
konstruktiv
konstruktorlik
konsul
konsuli
konsulligi
konsullik
konsulliklari
kontakt
konte
kontekstda
kontekstida
kontent
kontentni
konteyner
kontinental
kontingenti
kontr
kontrabanda
kontrast
kontsentratsiyasi
kontseptsiya
kontseptsiyasi
kontseptsiyasini
kontseptual
kontsert
kontserti
kontsertlar
konus
konussimon
konvensiya
konvensiyasi
konventsiya
konventsiyasi
konvertatsiya
konya
kooperativ
koordinatalar
koordinatalarda
koordinatalari
koordinatori
koordinatsion
kopengagen
kopiya
kor
kora
kordova
korea
korean
koreya
koreyada
koreyadagi
koreyaga
koreyalik
koreyani
koreyaning
koreys
koreyscha
koreyslar
kori
korinf
kornel
koronar
koronavirus
koronavirusi
korporativ
korporatsiya
korporatsiyalar
korporatsiyalari
korporatsiyasi
korporatsiyasiga
korporatsiyasining
korpus
korpusga
korpusi
korpusida
korpusiga
korpusini
korpusining
korpusli
korpusning
korrupsiya
korrupsiyaga
korrupsiyani
korruptsiya
kort
korti
korver
korxona
korxonada
korxonalar
korxonalarda
korxonalarga
korxonalari
korxonalarida
korxonalariga
korxonalarini
korxonalarining
korxonalarni
korxonalarning
korxonaning
korxonasi
korxonasida
korxonasiga
korxonasini
kos
kosa
kosasi
koscielny
koshg
koshin
koshinlar
kosmetik
kosmetika
kosmik
kosmonavt
kosmonavti
kosmonavtlar
kosmonavtlarni
kosmos
kosmosda
kosmosga
koson
kosonsoy
kosovo
kosta
kostyum
kostyumi
kostyumlar
kot
kota
kotib
kotibi
kotibining
kotibiyat
kotibiyati
kotov
koul
kova
kovak
koy
koyper
kozan
kozluk
kp
kpss
kr
kraft
kragiga
krak
krakning
krako
krakov
kramer
kran
krasnaya
krasnodar
krasnoyarsk
krater
krateri
kraterlar
kraxmal
kreativ
kredit
krediti
kreditlar
kreditlari
kreditlash
kreis
krem
kreml
kremniy
kreyg
kreyser
kriket
kriketchi
krilov
kriminal
kris
krishna
kristal
kristall
kristallanadi
kristallar
kristallari
kristalli
kristaps
kristen
kristi
kristian
kristin
kristina
kristof
kristofer
krit
kritik
krivoy
kroger
kromvel
kron
kross
krossover
kru
kruiz
kruz
ks
kseniya
kt
kto
ku
kuala
kub
kuba
kubada
kubalik
kuban
kubaning
kubogi
kubogida
kubogidagi
kubogiga
kubogini
kubogining
kubok
kubokda
kubokni
kubokning
kuch
kuchayadi
kuchaydi
kuchaygan
kuchayib
kuchayishi
kuchayishiga
kuchaytiradi
kuchaytirdi
kuchaytirgich
kuchaytirish
kuchaytirishga
kuchaytirishi
kuchga
kuchi
kuchida
kuchidan
kuchiga
kuchini
kuchining
kuchlanish
kuchlanishli
kuchlar
kuchlarga
kuchlari
kuchlarida
kuchlaridan
kuchlariga
kuchlarini
kuchlarining
kuchlarni
kuchlarning
kuchli
kuchliroq
kuchni
kuchning
kuchsiz
kufiy
kuk
kukun
kukuni
kul
kulgi
kulgili
kuli
kulol
kulolchilik
kulollik
kulon
kulrang
kultivatsiya
kultur
kultura
kulturi
kumar
kumir
kumush
kumushdan
kun
kunar
kunda
kundagi
kundaligi
kundalik
kundan
kunduz
kunduzgi
kunduzi
kung
kunga
kungaboqar
kungacha
kungi
kuni
kunida
kunidan
kuniga
kunini
kunining
kunjut
kunlar
kunlarda
kunlari
kunlarida
kunlarini
kunligida
kunlik
kunni
kunning
kup
kupe
kupen
kuper
kur
kura
kurash
kurashadi
kurashayotgan
kurashchi
kurashchilari
kurashchisi
kurashda
kurashdan
kurashdi
kurashdilar
kurashga
kurashgan
kurashi
kurashib
kurashida
kurashini
kurashish
kurashishga
kurashlar
kurashlari
kurashni
kurashning
kurashuvchi
kuratori
kurd
kurdiston
kurdlar
kurdlarning
kurort
kurorti
kurortlar
kurortlari
kurs
kursda
kursi
kursida
kursiga
kursini
kursk
kurslar
kurslari
kurslarida
kurslarini
kurslarni
kursni
kurt
kurtaklar
kurtaklari
kushon
kushonlar
kutayotgan
kutgan
kutib
kutilayotgan
kutilgan
kutilgandi
kutilganidan
kutilmagan
kutilmaganda
kutilmoqda
kutish
kutmoqda
kutubxona
kutubxonachi
kutubxonada
kutubxonaga
kutubxonalar
kutubxonalari
kutubxonaning
kutubxonasi
kutubxonasida
kutubxonasiga
kutubxonasini
kutubxonasining
kuy
kuygan
kuyi
kuyish
kuyladi
kuylagan
kuylanadi
kuylangan
kuylar
kuylari
kuylash
kuylaydi
kuyov
kuyovi
kuyovning
kuz
kuzatdi
kuzatgan
kuzatib
kuzatiladi
kuzatiladigan
kuzatildi
kuzatilgan
kuzatilishi
kuzatilmaydi
kuzatilmoqda
kuzatish
kuzatishga
kuzatishlar
kuzatuv
kuzatuvchi
kuzatuvchilar
kuzatuvlar
kuzda
kuzgi
kuzida
kuznetsov
kuzov
kv
kvadrat
kvant
kvars
kvartet
kvartira
kvartirasi
kvartirasida
kvartirasiga
kvartirasini
kvarts
kvebek
kvinslend
kvota
kvt
kxdr
kxmer
ky
kya
kyiv
kyle
kylie
kyoln
kyung
kz
l
la
lab
laboratories
laboratoriya
laboratoriyada
laboratoriyalar
laboratoriyalari
laboratoriyasi
laboratoriyasida
laboratory
labs
lac
lachin
lada
ladi
ladies
ladigan
ladilar
ladimi
lady
lafayette
lag
laga
lagan
lager
lagerda
lagerga
lageri
lagerida
lageriga
lagerlari
lagerlarida
lagi
lagidan
lagiga
lagini
lagos
laguna
lahjalari
lahjasi
lahjasida
lahn
lahor
lahza
lai
lajak
lak
lake
lakers
lakes
laklar
laklarga
laklari
laklarini
lakli
lakshmi
lal
lam
lama
laman
lamar
lambda
lambert
lamborghini
lamda
lami
lamini
lamli
lampalar
lan
lana
lanadi
lanadigan
lance
lancia
land
landau
landes
landi
landshaft
landshafti
lane
lang
langan
langar
langon
language
languages
lanib
lanish
lanishga
lanishi
lanishiga
lanishini
lanishlar
lanishni
lanishning
lanka
lanmagan
lanning
lao
laon
laos
laqabi
laqabini
laqabli
laqonli
lar
lara
larda
lardagi
lardan
lardi
larga
large
largentie
lari
larida
laridagi
laridan
lariga
larini
larining
larisa
larni
larning
laroq
larri
larry
lars
larsen
larsson
las
lash
lashdan
lashga
lashi
lashkar
lashlari
lashni
last
lat
latdan
late
later
lateral
latif
latin
latina
latov
latsio
latviya
latviyada
latviyaning
lauenburg
launch
laura
laureati
laureatlari
lauren
laurence
laurent
laurin
lava
lavha
lavhalar
lavhasi
lavlagi
lavozim
lavozimda
lavozimga
lavozimi
lavozimida
lavozimidan
lavozimiga
lavozimini
lavozimlar
lavozimlarda
lavozimlarga
lavozimlarida
lavozimlariga
lavozimlarini
lavozimlarni
lavozimli
lavozimni
law
lawn
lawrence
lay
laydi
laydigan
laydilar
laylak
layli
laylo
layoqatli
layotgan
lazer
lazerli
lazio
lazzat
lb
lbars
lbarslar
lc
lcd
lchagich
lcham
lchamda
lchamdagi
lchami
lchamiga
lchamini
lchamlari
lchamlarini
lchamli
lchanadi
lchanadigan
lchangan
lchash
lchashda
lchaydigan
lchov
lchovi
lchovlar
lchovlari
lchovli
ld
lda
ldagi
ldan
ldi
ldihttps
ldiki
ldilar
ldim
ldiradi
ldiradigan
ldirdi
ldirgan
ldirib
ldiriladi
ldirildi
ldirilgan
ldirilganidan
ldirilishi
ldirish
ldirishda
ldirishdi
ldirishga
ldirishi
ldirishni
ldiruvchi
ldosh
ldoshev
ldoshi
ldoshlar
ldoshlari
le
lea
lead
leader
leaders
leadership
leafs
league
learning
leavenworth
lebedev
lecce
lech
led
ledi
lee
leeds
left
lega
legacy
legal
legend
legends
legia
legion
leicester
leiden
leigh
leipzig
lekin
leksik
len
lena
lenin
leningrad
leningradda
leninning
lennon
lens
lenta
lentada
lentalar
lentaning
lentasi
leo
leon
leonard
leonardo
leone
leonid
leonov
leopard
leopold
ler
leroy
les
lesli
leslie
lester
let
letter
letters
leuven
lev
levandovski
levante
level
leverkusen
levert
levi
levin
lewis
lex
lexikon
lexus
ley
leyboristlar
leyden
leyk
leykers
leykotsitlar
leyla
leyn
leypsig
leyptsig
leytenant
leytenanti
leyton
lez
lg
lga
lgach
lgan
lganda
lgandan
lgandi
lgani
lganida
lganidan
lganidek
lganiga
lganini
lganlar
lganlarga
lganlarida
lganlarni
lganlarning
lganligi
lganligidan
lganligini
lganlikda
lgbt
lguncha
lgunga
li
lia
liam
liang
liao
liaoning
liard
lib
liberal
liberalizm
liberallar
liberiya
libertadores
liberty
libos
libosi
libosida
libosini
liboslar
liboslari
libourne
library
lichinka
lichinkalari
lichinkasi
lida
lidagi
lidan
lider
lidir
lidiya
lids
lie
life
lifetime
lift
lig
liga
ligada
ligadagi
ligadan
ligaga
ligalar
ligalari
ligalarida
ligand
ligani
liganing
ligasi
ligasida
ligasidagi
ligasidan
ligasiga
ligasini
ligasining
light
lightning
lights
ligi
ligini
ligining
ligue
liguria
lik
likdan
like
likka
liklar
liklarning
likni
likning
lil
lilar
lili
lill
lille
lillian
lilly
lily
lim
lima
limda
limdan
limfa
limfotsitlar
limga
limi
limida
limidagi
limidan
limiga
limigacha
limini
limining
limited
limlar
limlarda
limlardan
limlarga
limlari
limlarida
limlarini
limni
limning
limoges
limon
limot
limoti
limotiga
limotini
limotining
limuzen
lin
lina
linadi
linch
lincoln
linda
lindi
lindsay
lindsey
lindsi
line
lines
ling
lingan
lingvistik
lini
linib
lining
linish
linishi
linishiga
linishini
liniya
liniyalar
liniyalari
liniyasi
liniyasida
liniyasini
liniyasining
link
linkedin
linko
linkoln
links
linma
linmalar
linmalari
linmalariga
linmalarini
linmasi
linmasiga
linmasini
linn
linney
linux
linza
linzalar
linzalari
lio
lion
lionel
lions
lipton
liq
liqdir
liqligi
liqligini
liqlik
liqlikni
liqni
lira
lirik
lirika
lis
lisa
lish
lishadi
lishda
lishdan
lishdi
lishga
lishgan
lishi
lishib
lishicha
lishida
lishidan
lishiga
lishini
lishining
lishlari
lishlarini
lishni
lishning
lishsa
lisieux
lissabon
lissabonda
list
lit
lite
literary
literatura
literature
literaturi
litiy
litr
litrli
litsenziya
litsenziyaga
litsenziyalangan
litsenziyalash
litsenziyasi
litsenziyasini
litsey
litseyi
little
litva
litvada
litvaning
liu
livan
livanda
livandagi
livanlik
livanning
live
liverpool
liverpoolga
liverpul
lives
living
livingston
liviya
liviyada
lixtenshteyn
liz
liza
lizing
lizzi
lja
ljallangan
ljallanmagan
ljani
lk
lka
lkashunoslik
lkasi
lkasida
lkasining
ll
llab
lladi
llagan
llanadi
llanadigan
llangan
llanila
llaniladi
llaniladigan
llanildi
llanilgan
llanilib
llanilishi
llanilishini
llanilmaydi
llanilmoqda
llanish
llanishi
llanma
llanmalar
llanmalari
llanmani
llanmasi
llanmasini
llar
llarda
llardan
llarga
llari
llarida
llaridan
llariga
llarini
llarining
llarni
llarning
llash
llashga
llashni
llaydi
llc
lleida
ller
lli
lloyd
lm
lma
lmadi
lmagan
lmaganda
lmagani
lmaganida
lmaganlar
lmaganligi
lmas
lmasa
lmasdan
lmasin
lmasligi
lmasligini
lmaslik
lmay
lmaydi
lmaydigan
lmish
lmoqda
ln
lni
lning
lo
loan
lob
local
lochin
lochisi
lock
lockheed
loeb
log
logan
logistika
logo
logotip
logotipi
logotipini
loir
loire
loiret
lok
lokal
loki
lokomotiv
lol
lola
lom
lombardia
lomlashtirish
lomonosov
lon
london
londonda
londondagi
londonga
londonning
long
lons
look
looking
lopes
lopez
loran
lord
loren
lorens
lorenzo
lori
lorient
loriston
los
lost
lot
lotaringiya
lotin
lotincha
lotinlar
lotus
lou
louell
louis
louise
louisiana
louisville
lourens
lov
lovchi
lovchiga
lovchilar
lovchilarga
lovchilarni
lovchini
love
lovi
lovini
loviya
lovlar
lovlari
lovlarini
lovlarni
lovni
low
lowe
lower
loy
loydan
loyiha
loyihada
loyihadan
loyihaga
loyihalar
loyihalarda
loyihalarga
loyihalari
loyihalarida
loyihalariga
loyihalarini
loyihalarni
loyihalash
loyihalashda
loyihalashtirgan
loyihalashtirilgan
loyihani
loyihaning
loyihasi
loyihasida
loyihasiga
loyihasini
loyihasining
loyiq
loyiqki
loyqa
lozanna
lozim
lp
lpon
lqin
lqini
lqinlar
lqinlari
lqinlarning
lqinli
lqinsimon
lqop
lr
ls
lsa
lsada
lsak
lsalar
lsangiz
lsin
lt
ltd
lte
ltig
ltiq
lu
luara
lub
lubiyat
lubiyatchilik
lubiyatda
lubiyatdan
lubiyatga
lubiyati
lubiyatidan
lubiyatini
lubiyatsiz
luc
luca
lucas
lucerne
lucky
lucy
ludogorets
ludwig
lug
lugansk
lui
luis
luiz
luiza
luiziana
luka
lukas
luke
lukoyl
lum
lumki
lumot
lumotga
lumoti
lumotiga
lumotlar
lumotlarda
lumotlardan
lumotlarga
lumotlari
lumotlaridan
lumotlariga
lumotlarini
lumotlarni
lumotlarning
lumotli
lumotni
lumotnoma
lumotnomalar
lumpur
luna
lund
lune
lure
luthuli
luton
lutz
luvchi
luvchilar
luvr
lv
lvmh
lvov
ly
lynch
lynn
lynx
lyon
lyonnais
lyozma
lyozmalar
lyozmalari
lyozmasi
lyu
lyubker
lyubov
lyudmila
lyudovik
lyudvig
lyuis
lyuk
lyuksemburg
lyusi
lyuter
lyuteran
m
ma
maathai
mablag
mac
macbook
maccabi
macdonald
machine
macintosh
macmillan
macos
mad
madagaskar
madam
madaniy
madaniyat
madaniyatda
madaniyatga
madaniyati
madaniyatida
madaniyatiga
madaniyatini
madaniyatining
madaniyatlar
madaniyatlararo
madaniyatlarda
madaniyatlari
madaniyatli
madaniyatni
madaniyatning
madden
made
madeyra
madh
madhiya
madhiyalar
madhiyani
madhiyaning
madhiyasi
madhiyasini
madhya
madina
madinada
madinaga
madison
madonna
madras
madrasa
madrasada
madrasaga
madrasalar
madrasalari
madrasalarida
madrasaning
madrasasi
madrasasida
madrasasining
madrid
madridda
madriddagi
madridga
madridning
mae
mafiya
mafkura
mafkurasi
mafkuraviy
maftunkor
mag
magazine
magdalena
magi
magic
magida
magistr
magistral
magistratura
magistri
magistrlik
magma
magmatik
magnit
magnitogorsk
magniy
magnus
mah
mahal
mahalla
mahallada
mahallaga
mahallalar
mahallalari
mahallasi
mahallasida
mahallasidagi
mahalliy
mahbus
mahbuslar
mahbuslarga
mahbuslarni
mahbuslarning
mahdiy
mahesh
mahkam
mahkamasi
mahkamasining
mahkamlangan
mahkamlash
mahkum
mahmud
mahmudov
mahobatli
mahorat
mahorati
mahoratini
mahoratli
mahr
mahrum
mahsuldorligi
mahsuli
mahsulot
mahsulotda
mahsulotga
mahsuloti
mahsulotini
mahsulotining
mahsulotlar
mahsulotlardan
mahsulotlarga
mahsulotlari
mahsulotlaridan
mahsulotlariga
mahsulotlarini
mahsulotlarining
mahsulotlarni
mahsulotlarning
mahsulotni
mahsulotning
mai
mail
main
maine
maint
mainz
maishiy
majbur
majburan
majburiy
majburiyat
majburiyati
majburiyatini
majburiyatlar
majburiyatlari
majburiyatlarini
majburiyatlarni
majburlash
majid
majlis
majlisi
majlisida
majlisiga
majlisining
majlislar
majmua
majmualari
majmuaning
majmuasi
majmuasida
majmuasiga
majmuasini
majmuasining
majmui
majnun
major
majoziy
mak
makao
makara
makaron
makarova
makdonald
make
makedoniya
makedoniyalik
makes
making
makka
makkada
makkaga
makkajo
makkarti
makkenzi
maklashish
makon
makoni
maks
maksim
maksimal
maksimilian
maksvell
maktab
maktabda
maktabdagi
maktabdan
maktabga
maktabgacha
maktabi
maktabida
maktabidagi
maktabidan
maktabiga
maktabini
maktabining
maktablar
maktablarda
maktablarga
maktablari
maktablarida
maktablaridan
maktablariga
maktablarini
maktablarining
maktablarni
maktablarning
maktabni
maktabning
maktub
maktubi
maktubida
maktublar
maktublari
mal
malaga
malaka
malakali
malakasi
malakasini
malakka
malatya
malavi
malay
malaya
malayalam
malaysia
malayziya
malayziyada
malayziyadagi
malayziyaga
malayziyalik
malayziyaning
malcolm
maldiv
male
mali
malik
malika
malikaning
malikasi
malina
malkolm
mall
malla
mallorca
malmo
malmyo
malta
malum
malumotlar
mama
mamlakat
mamlakatda
mamlakatdagi
mamlakatdan
mamlakatga
mamlakati
mamlakatida
mamlakatiga
mamlakatimiz
mamlakatimizda
mamlakatini
mamlakatining
mamlakatlar
mamlakatlarda
mamlakatlardagi
mamlakatlardan
mamlakatlarga
mamlakatlari
mamlakatlarida
mamlakatlaridagi
mamlakatlaridan
mamlakatlariga
mamlakatlarining
mamlakatlarni
mamlakatlarning
mamlakatni
mamlakatning
mamluk
mamluklar
mammadov
mamnun
mamnuniyat
man
mana
management
manager
manas
manavgat
manba
manbadan
manbaga
manbai
manbalar
manbalarda
manbalardan
manbalarga
manbalari
manbalarida
manbalaridan
manbalariga
manbalarini
manbalarni
manbalarning
manbashunoslik
manbasi
manbasini
manche
manchester
mandarin
mandat
mandati
mane
manevr
manfaatdor
manfaati
manfaatlar
manfaatlari
manfaatlariga
manfaatlarini
manfiy
mang
manga
mango
mangu
manguberdi
manhattan
mani
manila
manipulyatsiya
manitoba
manjur
manjurlar
mann
mannheim
manning
manor
mans
mansab
mansabdor
mansfield
manson
mansub
mansubligi
mansur
mansurov
mantiq
mantiqiy
mantiya
manual
manuel
manufacturing
manxetten
manxettendagi
many
manzara
manzaralari
manzarali
manzarasi
manzil
manzilga
manzilgohi
manzili
manzilini
manzillar
manzillari
mao
maori
maorif
maorifi
maosh
maoshi
map
mapa
maple
maps
maqbara
maqbaralar
maqbaraning
maqbarasi
maqbul
maqol
maqola
maqolada
maqolaga
maqolalar
maqolalari
maqolalarida
maqolalarini
maqolalarni
maqolani
maqolasi
maqolasida
maqolasiga
maqolasini
maqom
maqomga
maqomi
maqomida
maqomiga
maqomini
maqsad
maqsadda
maqsadga
maqsadi
maqsadida
maqsadiga
maqsadini
maqsadlar
maqsadlarda
maqsadlarga
maqsadlari
maqsadlarida
maqsadlariga
maqsadlarini
maqsadlarni
maqsadli
maqsadni
maqtab
maqtadi
maqtov
maqtovga
maqtovlarga
mar
mara
marafon
marafoni
marat
marathi
marathon
marc
marca
marcel
marcelo
march
marche
marco
marcos
marcus
mard
mare
marg
marganets
margaret
margarita
marguerite
marhamat
marhum
marhumning
mari
maria
marian
mariana
marie
marilyn
marin
marina
marine
mariners
marino
mario
marion
mariya
marjon
mark
marka
markalari
markali
markasi
markaz
markazda
markazdan
markazga
markazi
markazida
markazidagi
markazidan
markazidir
markaziga
markazigacha
markazini
markazining
markaziy
markazlar
markazlari
markazlarida
markazlaridan
markazlariga
markazlarini
markazlashgan
markazlashtirilgan
markazning
markes
market
marketing
markets
markiz
marko
markos
markov
marks
marksistik
marksizm
markus
marmar
marmara
marmardan
marokash
marokashda
marokashlik
marokashning
marosim
marosimda
marosimi
marosimida
marosimidan
marosimiga
marosimini
marosimining
marosimlar
marosimlarda
marosimlari
marosimlarida
marosimlarini
marosimlarni
marotaba
marraga
marriage
married
marriott
mars
marsan
marseille
marsel
marselo
marsga
marsh
marshal
marshali
marshall
marshi
marshrut
marshruti
mart
marta
martaba
martabali
martabasi
martadan
martalik
martda
martdagi
martdan
martens
martga
martgacha
marth
martha
marti
martida
martidan
martigacha
martin
martina
martines
martinez
martinning
martins
marv
marvarid
marvel
marvin
mary
maryam
maryamning
maryland
mas
masala
masalada
masalaga
masalalar
masalalarda
masalalarga
masalalari
masalalarida
masalalariga
masalalarini
masalalarni
masalan
masalani
masalasi
masalasida
masalasiga
masalasini
masalliqlar
maserati
mash
mashaqqatli
mashg
mashhad
mashhur
mashhurdir
mashhuri
mashhurlar
mashhurlari
mashhurligi
mashhurligini
mashhurlik
mashhurlikka
mashina
mashinada
mashinadan
mashinaga
mashinalar
mashinalarda
mashinalari
mashinalarida
mashinalarini
mashinalarining
mashinalarni
mashinalarning
mashinani
mashinaning
mashinasi
mashinasida
mashinasiga
mashinasini
mashinasining
mashinasozligi
mashinasozlik
mashq
mashqlar
mashqlari
mashqlarida
mashrab
mashxur
masih
masihning
masjid
masjidda
masjidga
masjidi
masjidida
masjidiga
masjidining
masjidlar
masjidlari
masjidni
masjidning
mask
maskan
maskani
maskanlari
maskat
maslahat
maslahatchi
maslahatchilar
maslahatchilari
maslahatchisi
maslahati
maslahatlar
masnaviy
masofa
masofada
masofadagi
masofadan
masofaga
masofalarga
masofali
masofani
masofasi
masofaviy
mason
mass
massa
massachusets
massachusetts
massaga
massaj
massalari
massasi
massasiga
massasini
massasining
massimo
massiv
massivi
masson
mast
master
mastercard
masters
masud
masxara
mat
mata
matbaa
matbuot
matbuotda
matbuoti
matbuotida
match
matches
mate
matematigi
matematik
matematika
matematikada
matematiklar
material
materialdan
materiali
materiallar
materiallardan
materiallarga
materiallari
materiallarini
materiallarni
materiallarning
materialni
materialning
materials
materialshunoslik
materik
materiya
mathbf
mathrm
mathsf
matic
matilda
matn
matnda
matnga
matni
matnida
matnini
matnlar
matnlari
matnlarida
matnlarni
matnli
matnni
matnning
mato
matodan
matolar
matritsa
matt
matteo
matthew
maurice
mauro
mavericks
mavhum
mavjud
mavjuddir
mavjudligi
mavjudligiga
mavjudligini
mavjudligining
mavjudlik
mavjudot
mavjudotlar
mavlono
mavqega
mavqei
mavqeiga
mavqeini
mavrikiy
mavritaniya
mavsum
mavsumda
mavsumdagi
mavsumdan
mavsumga
mavsumgacha
mavsumi
mavsumida
mavsumidagi
mavsumidan
mavsumiga
mavsumini
mavsumining
mavsumiy
mavsumlar
mavsumlarda
mavsumlarida
mavsumlik
mavsumni
mavsumning
mavsumoldi
mavzu
mavzuda
mavzudagi
mavzuga
mavzui
mavzuidagi
mavzular
mavzularda
mavzularga
mavzulari
mavzularni
mavzuli
mavzuni
mavzusi
mavzusida
mavzusidagi
mavzusiga
mavzusini
max
maxachqal
maxarashtra
maxfiy
maxfiylik
maxim
maximilian
maxsus
maxwell
may
maya
mayami
mayamida
mayd
mayda
maydagi
maydalangan
maydalash
maydan
maydon
maydonchalari
maydonchasi
maydonchasida
maydonchasiga
maydonda
maydondagi
maydondan
maydonga
maydoni
maydonida
maydonidagi
maydonidan
maydonidir
maydoniga
maydonini
maydonining
maydonlar
maydonlarda
maydonlari
maydonlarida
maydonlarini
maydonlarining
maydonlarni
maydonni
maydonning
maye
mayer
maygacha
mayida
mayigacha
mayin
mayiz
mayk
maykl
maymun
maymunlar
mayn
mayo
mayoq
mayor
mayori
maysazor
mayweather
mayya
mazali
mazda
mazhabi
mazhabiga
mazkur
mazmun
mazmundagi
mazmuni
mazmuniga
mazmunini
mazmunli
mb
mba
mbc
mbe
mbit
mbox
mc
mccarthy
mccartney
mcclain
mcdonald
mcgraw
mcgregor
mchj
mckinsey
mclaren
mcmahon
mcu
md
mdh
me
mebel
mecklenburg
mecn
med
medal
medalga
medali
medaliga
medalini
medalining
medallar
medallari
medallarini
medallarni
medallni
medalni
medalning
medalyon
media
medial
medical
medicine
medieval
medina
medison
meditatsiya
medium
meduza
medvedev
medvedeva
meet
meeting
meg
mega
megan
megapiksel
megapikselli
meghan
mehdi
mehmed
mehmet
mehmon
mehmonda
mehmondagi
mehmondo
mehmoni
mehmonlar
mehmonlarga
mehmonlari
mehmonlarni
mehmonxona
mehmonxonada
mehmonxonalar
mehmonxonasi
mehmonxonasida
mehnat
mehnatga
mehnati
mehnatkash
mehnatni
mehr
mehribon
mehribonlik
mehrob
mei
meidzi
meiji
mein
mejdunarodnoy
mekong
meksika
meksikada
meksikadagi
meksikaga
meksikalik
meksikaning
meksiko
mel
melanie
melbourne
melburn
melburnda
melinda
meliorativ
melioratsiya
melissa
mellon
member
members
membrana
membranasi
memfis
memoirs
memorandum
memorial
memory
memphis
men
mena
menda
mendan
mendeleyev
mendes
mendoza
menejer
menejeri
menejerlar
menejerlari
menejment
menejmenti
menga
meni
menimcha
mening
meningit
mental
mer
mera
mercedes
mercer
merchant
merck
mercury
merfi
meri
meridian
merilend
merkel
merkez
merkuriy
merlin
meros
merosi
merosiga
merosini
merosining
merosni
merosning
merosxo
merriam
mersin
mes
mesa
mesopotamiya
messi
messier
messina
met
meta
metabolik
metacritic
metal
metall
metallar
metallarni
metallarning
metalldan
metallga
metallni
metallsozlik
metallurg
metallurgiya
metamorfik
metamorfozi
metan
meteorologik
meteorologiya
metil
metlife
metod
metodi
metodik
metodikasi
metodist
metodlari
metodologiya
metodologiyasi
metr
metrajli
metrdan
metrga
metrgacha
metrik
metrli
metrlik
metrni
metro
metropolitan
metropoliten
metropoliteni
metropolitenlar
metropolitenlari
metrosi
metrosining
mett
metyu
metz
meurthe
meuse
meva
mevalar
mevalari
mevalarni
mevali
mevasi
mexanik
mexanika
mexanikasi
mexanizatsiyalash
mexanizatsiyalashgan
mexanizm
mexanizmi
mexanizmini
mexanizmlar
mexanizmlari
mexanizmlarini
mexico
mexiko
mey
meydzi
meyer
meyn
meyson
meyvezer
mezbon
mezbonlar
mezbonlik
mezolit
mezon
mezoni
mezonlar
mezonlarga
mezonlari
mezonlariga
mezozoy
mfy
mg
mga
mgm
mgts
mh
mi
mia
miami
michael
michel
michelle
michigan
mickey
micro
microsoft
mid
middle
middlesbrough
midi
midiya
midlsbro
midnight
mie
mifi
mifologicheskaya
mifologik
mifologiya
mifologiyasi
mifologiyasida
mifologiyasidagi
mifologiyasining
mig
miga
migel
migratsiya
migratsiyasi
miguel
mijoz
mijozga
mijozi
mijozlar
mijozlarga
mijozlari
mijozlariga
mijozlarni
mijozlarning
mijozning
mik
mikael
mike
mikel
mikelanjelo
mikhail
mikki
mikro
mikrobiologiya
mikroblar
mikrofon
mikroneziya
mikroorganizmlar
mikroskop
mikroskopik
mikroto
mil
mila
milan
milanda
milanga
milanning
milano
mile
miles
milgan
mili
milish
military
militsiya
milk
mill
millat
millatchi
millatchilari
millatchilik
millati
millatiga
millatlar
millatlararo
millatli
millatning
miller
millerning
milli
milliard
milliarddan
milliarder
milliarderlar
milliarderlari
milliardlab
millimetr
millimetrli
million
milliondan
millionga
milliongacha
millioni
millionlab
millionni
milliy
mills
millwall
milner
miloddan
milodiy
milosh
miltig
miltiq
milton
miluoki
milwaukee
milya
min
mina
minami
minas
mind
mine
mineiro
mineral
minerali
minerallar
minerallari
minerallarning
mineralogiya
ming
mingdan
mingga
minggacha
minglab
mingta
mingyillik
mini
miniatyura
minib
minimal
minimallashtirish
minish
minister
ministrlar
ministry
minlab
minladi
minlagan
minlanadi
minlandi
minlangan
minlanishi
minlash
minlashda
minlashga
minlashi
minlashni
minlay
minlaydi
minlaydigan
minlovchi
minnatdorchilik
minneapolis
minnesota
minor
minora
minoralar
minoralari
minorali
minoraning
minorasi
minorasini
minorasining
minot
minoti
minotini
minotni
minov
minsk
minskda
mint
mintaqa
mintaqada
mintaqadagi
mintaqaga
mintaqalar
mintaqalarda
mintaqalari
mintaqalarida
mintaqani
mintaqaning
mintaqasi
mintaqasida
mintaqasidagi
mintaqasidan
mintaqasiga
mintaqasini
mintaqasining
mintaqaviy
minus
minut
mio
miokard
miqdor
miqdorda
miqdordagi
miqdori
miqdorida
miqdoridagi
miqdoriga
miqdorini
miqdorining
miqdoriy
miqyosda
miqyosdagi
miqyosida
miqyosidagi
mir
mira
miranda
mirdan
mirlandi
mirlangan
mirlash
mirning
mirren
mirror
mirza
mirzacho
mirzayev
mirziyoyev
mirzo
mirzoning
mis
misdan
mish
mishel
mishlar
mishlarga
mishyak
misli
miso
misol
misoldir
misoli
misolida
misollar
misollari
misr
misra
misrda
misrdagi
misrdan
misrga
misrlik
misrliklar
misrni
misrning
miss
missing
mission
missioner
missionerlar
missionerlari
missionerlik
missis
missisipi
mississippi
missiya
missiyalar
missiyalari
missiyani
missiyaning
missiyasi
missiyasida
missiyasini
missiyasining
missouri
missuri
mister
mistik
mit
mita
mitalar
mitalari
mitaning
mitasi
mitasida
mitasiga
mitasini
mitasining
mitchell
mito
mitsubishi
mitti
miura
mix
mixail
mixaylov
mixaylovich
mixxat
miya
miyacha
miyada
miyadagi
miyaga
miyagi
miyaning
miyasi
mizuki
mj
mk
mkg
mkm
ml
mlik
mln
mlrd
mls
mlsdagi
mm
mma
mn
mni
mo
mobaynida
mobil
mobile
mochi
mod
moda
modasi
modda
moddada
moddadan
moddaga
moddalar
moddalardan
moddalarga
moddalari
moddalarini
moddalarni
moddalarning
moddani
moddaning
moddasi
moddasida
moddasiga
moddiy
mode
model
modelda
modelga
modeli
modelida
modelidan
modeliga
modelini
modelining
modellar
modellarda
modellarga
modellari
modellarida
modellaridan
modellariga
modellarini
modellarni
modellashtirilgan
modellashtirish
modellik
modelni
modelning
models
modena
modern
modernistik
modernizatsiya
modernizm
modi
modifikatsiya
modifikatsiyalari
modifikatsiyasi
modul
moduli
moduliga
modulli
mog
mohamed
mohammad
mohammed
mohir
mohirona
mohiyat
mohiyatan
mohiyati
mohiyatini
mohun
mojaro
mojaroga
mojarolar
mojarosi
mol
molchi
molchilar
molchilarga
molchilarning
moldaviya
molde
moldova
molecular
molekula
molekulalar
molekulalari
molekulalarning
molekulasi
molekulyar
molga
moli
molibden
molik
molina
molini
molise
moliya
moliyalashtirdi
moliyalashtiriladi
moliyalashtiriladigan
moliyalashtirildi
moliyalashtirilgan
moliyalashtirish
moliyalashtirishga
moliyalashtirishni
moliyaviy
mollar
mollari
mollarini
mollyuskalar
molotov
momaqaldiroq
moment
momenti
momo
mon
mona
monaco
monako
monarx
monarxiya
monarxlari
monastir
monastiri
monastirlar
monde
mondon
mondoni
mondonlari
mondonligi
mondonligidagi
mondonlik
money
mongol
mongoliya
monica
monika
monitor
monitoring
monitoringi
monkey
mono
monografiya
monografiyalar
monopoliyaga
monreal
monrealda
monrealdagi
monro
monroe
monster
monsters
mont
montaj
montana
montargis
montbard
montbe
montbrison
montdidier
monte
monterrey
montevideo
montgomeri
montgomery
monthly
montpellier
montreal
monument
monumental
monza
moon
moore
mor
morales
morbihan
morchiligi
morchiligida
morchiligining
morchilik
more
moreno
morfologik
morfologiya
morfologiyasi
morgan
mori
moris
moriy
morlar
morlari
morligi
morligida
morlik
morlikda
morning
morozov
morris
morrison
mortagne
mortal
morton
mos
moscow
moselle
mosfilm
moskva
moskvada
moskvadagi
moskvadan
moskvaga
moskvaning
moslama
moslamalari
moslamasi
moslashgan
moslashish
moslashtirilgan
moslashtirish
moslashuvchan
moslashuvi
moslashuvida
mosque
moss
most
mosul
motadil
motam
mother
motherwell
motion
motivatsiya
motivlari
motor
motorli
motorola
motors
motorsport
mototsikl
motsart
moturidiy
moulins
mount
mountain
mouse
movarounnahr
movarounnahrda
movarounnahrga
move
movement
movie
movies
moviy
moy
moya
moyak
moye
moyi
moyil
moyilligi
moyillik
moylari
moylash
moyli
mozaika
mozambik
mozandaron
mozilla
mozor
mozori
mp
mpa
mr
mrs
mrt
ms
mt
mtv
mu
muallif
muallifi
muallifidir
muallifiga
mualliflar
mualliflari
mualliflaridan
mualliflarning
mualliflik
muallifning
muallim
muammo
muammoga
muammolar
muammolardan
muammolarga
muammolari
muammolariga
muammolarini
muammolarni
muammolarning
muammoli
muammoni
muammoning
muammosi
muammosiga
muammosini
muammosiz
muassasa
muassasalar
muassasalarda
muassasalari
muassasalarida
muassasalariga
muassasalarini
muassasalarining
muassasasi
muayyan
mubolag
muborak
much
mudarris
mudarrislik
muddat
muddatda
muddatdan
muddatga
muddati
muddatidan
muddatiga
muddatini
muddatli
mudiri
mudofaa
mudofaasi
mudofaasini
muftiy
mug
muhabbat
muhabbati
muhaddis
muhammad
muhammadga
muhammadjonov
muhammadning
muhammadxon
muhandis
muhandisi
muhandislar
muhandislari
muhandisligi
muhandislik
muharrir
muharriri
muharrirlar
muharrirlari
muharrirlik
muhim
muhimdir
muhimi
muhimligini
muhimroq
muhit
muhitda
muhitdagi
muhitdan
muhitga
muhiti
muhitida
muhitiga
muhitini
muhitining
muhitni
muhitning
muhofaza
muhofazasi
muhofazasiga
muhojir
muhojirlar
muhojirlari
muhojirlarning
muhokama
muhokamalar
muhokamasi
muhr
muhri
muhrlangan
muhtaram
muhtasham
muhtoj
mujassam
mujohidlar
mukammal
mukammallik
mukofot
mukofotga
mukofoti
mukofotida
mukofotiga
mukofotini
mukofotining
mukofotlangan
mukofotlar
mukofotlarga
mukofotlari
mukofotlarida
mukofotlariga
mukofotlarini
mukofotlarni
mukofotlash
mukofotni
mukofotning
mulk
mulkchilik
mulki
mulkida
mulkiga
mulkini
mulkining
mulkiy
mulkka
mulklar
mulklari
mulklarini
mulkni
mulkning
mulla
muller
mulohaza
mulohazalar
muloqot
muloqotda
multfilm
multfilmi
multfilmlar
multi
multimedia
multiple
mum
mumbay
mumbayda
mumbaydagi
mumkin
mumkinki
mumkinligi
mumkinligidan
mumkinligiga
mumkinligini
mumkinmi
mumkun
mumtoz
mun
muncha
mundo
munich
municipal
municipio
municipios
munis
munisipalitet
munisipalitetdir
munisipalitetidagi
munitsipal
munitsipalitet
munitsipalitetdir
munitsipaliteti
munitsipalitetida
munitsipalitetidagi
munitsipalitetiga
munitsipalitetining
munitsipalitetlar
munitsipalitetlari
munitsipalitetning
munosabat
munosabatda
munosabati
munosabatini
munosabatlar
munosabatlarda
munosabatlardir
munosabatlarga
munosabatlari
munosabatlarida
munosabatlariga
munosabatlarini
munosabatlarining
munosabatlarni
munosabatlarning
munosabatni
munosib
munozara
munozaralar
munozaralarga
munozarali
muntazam
muolajalar
muomala
muomalada
muomaladan
muomalaga
muomalasi
muovini
muoviya
muqaddas
muqaddima
muqarrar
muqim
muqimiy
muqobil
muqova
muqovasi
muqovasida
mur
murabba
murabbiy
murabbiyga
murabbiyi
murabbiylar
murabbiylari
murabbiylik
murabbo
murakkab
murakkabligi
murakkablik
murakkabroq
murat
murch
murder
murg
muri
murii
muriy
muriyat
muriyati
muriyatida
muriyatiga
muriyatining
murlari
murmansk
murod
murodov
murojaat
murosa
murosaga
murosasiz
murphy
murray
murtak
mus
musa
musahhih
musayev
musbat
muse
museo
museum
mushak
mushaklar
mushaklari
mushaklarining
mushaklarning
musht
mushugi
mushuk
mushuklar
mushuklari
music
musical
musika
musiqa
musiqachi
musiqachidir
musiqachilar
musiqachilari
musiqachisi
musiqada
musiqaga
musiqalar
musiqali
musiqani
musiqaning
musiqasi
musiqasida
musiqasiga
musiqasini
musiqasining
musiqiy
muskat
muskul
muskullar
muskullari
muslim
muso
musobaqa
musobaqada
musobaqadagi
musobaqadan
musobaqaga
musobaqalar
musobaqalarda
musobaqalardagi
musobaqalari
musobaqalarida
musobaqalarini
musobaqalarining
musobaqalarni
musobaqani
musobaqaning
musobaqasi
musobaqasida
musobaqasiga
musobaqasini
musobaqasining
musodara
musson
mussonli
must
mustafa
mustafo
mustahkam
mustahkamladi
mustahkamlandi
mustahkamlangan
mustahkamlash
mustahkamlashga
mustahkamlaydi
mustahkamligi
mustamlaka
mustamlakachi
mustamlakachilar
mustamlakachilari
mustamlakachiligi
mustamlakachilik
mustamlakasi
mustang
mustaqil
mustaqilligi
mustaqilligiga
mustaqilligini
mustaqilligining
mustaqillik
mustaqillikdan
mustaqillikka
mustaqillikni
mustasno
musulmon
musulmonlar
musulmonlarga
musulmonlari
musulmonlarining
musulmonlarni
musulmonlarning
mutafakkir
mutanosib
mutant
mutatsiya
mutatsiyalar
mutaxassis
mutaxassisi
mutaxassislar
mutaxassislari
mutaxassislarni
mutaxassislarning
mutaxassisligi
mutaxassislik
mutaxassisliklar
mutaxassisliklari
mutlaq
mutlaqo
muttasil
mutual
muvaffaq
muvaffaqiyat
muvaffaqiyatga
muvaffaqiyati
muvaffaqiyatidan
muvaffaqiyatiga
muvaffaqiyatini
muvaffaqiyatlar
muvaffaqiyatlarga
muvaffaqiyatlari
muvaffaqiyatli
muvaffaqiyatni
muvaffaqiyatsiz
muvaffaqiyatsizligi
muvaffaqiyatsizlik
muvaffaqiyatsizlikka
muvaqqat
muvofiq
muvofiqlashtirilgan
muvofiqlashtirish
muvofiqlashtiruvchi
muvofiqligi
muvofiqligini
muvofiqlik
muvozanat
muvozanati
muvozanatini
muvozanatli
muvozanatni
muxbir
muxbiri
muxbirlar
muxbirlari
muxlis
muxlisi
muxlislar
muxlislarga
muxlislari
muxlislarning
muxolifat
muxtor
muxtoriyat
muxtoriyati
muyassar
muz
muzaffar
muzdan
muzey
muzeyda
muzeyga
muzeyi
muzeyida
muzeyidagi
muzeyiga
muzeyining
muzeylar
muzeylari
muzeyning
muzlab
muzlatilgan
muzlaydi
muzli
muzligi
muzlik
muzliklar
muzokara
muzokaralar
muzokaralarda
muzokaralardan
muzokaralari
muzokaralarni
muzqaymoq
mvp
mvt
mw
mx
my
myanma
myers
mystery
mystics
myth
mythology
myuller
myunxen
myunxenda
myunxendagi
myurrey
n
na
nab
nabi
nabirasi
nac
nach
nacional
nad
nadal
nadalga
nadejda
nadeshiko
nadi
nadiya
nadu
nafaqa
nafaqadagi
nafaqaga
nafaqat
nafar
nafardan
nafarga
nafari
nafarni
nafas
nafis
nafrat
nag
nagano
nagar
nagasaki
naggets
nagoya
nagrajdenii
nai
nair
najas
najmiddin
najot
nal
nalgan
nalish
nalishda
nalishdagi
nalishga
nalishi
nalishida
nalishidagi
nalishiga
nalishini
nalishlar
nalishlarda
nalishlarga
nalishlari
nalishlarida
nalishlaridan
nalishlariga
nalishlarini
nalishlarni
nalishni
naltiriladi
naltirilgan
naltirish
naltiruvchi
nam
namangan
name
named
names
namibiya
namligi
namlik
namoyandalari
namoyandasi
namoyish
namoyishchilar
namoyishi
namoyishlar
namoyishlari
namoyon
namoz
namozi
namuna
namunalar
namunalari
namunalaridan
namunalarini
namunali
namunasi
namunasidir
namunasini
namunaviy
nan
nana
nancy
nandi
nangarhor
nankin
nano
nant
naomi
napoleon
napoleonning
napoli
naqd
naqsh
naqshband
naqshbandiya
naqshlar
naqshlari
naqshli
nara
narayan
narendra
nari
narida
narigi
narimon
narimonov
narkotik
narodov
narsa
narsada
narsadan
narsaga
narsalar
narsalardan
narsalarga
narsalarni
narsalarning
narsani
narsaning
narx
narxda
narxi
narxini
narxining
narxlar
narxlarda
narxlari
narxlarni
narxlarning
nas
nasa
nasabi
nasaf
nasafiy
nasaning
nasdaq
naseleniya
nash
nasha
nashr
nashrda
nashrdan
nashrga
nashri
nashrida
nashriga
nashrini
nashrining
nashriyot
nashriyoti
nashriyotida
nashriyotlar
nashrlar
nashrlarda
nashrlari
nashrlarida
nashrlarni
nashrni
nashrning
nashville
nasi
nasib
nasimiy
nasional
nasl
naslchilik
nasos
nasoyim
nasr
nasri
nasriddin
nasriy
nasroniy
nasroniylar
nasroniylik
nasrulloh
nassau
nat
natadi
natali
natalie
natalya
natan
natasha
natdi
natgan
nathan
nati
natib
natija
natijada
natijaga
natijalar
natijalarga
natijalari
natijalaridan
natijalariga
natijalarini
natijalarni
natijani
natijasi
natijasida
natijasidir
natijasiga
natijasini
natildi
natilgan
nation
national
nationale
nations
nationwide
natish
native
nato
natoga
natoning
natriy
natsistlar
natsistlarning
natural
nature
natyurmort
nauchno
nauk
nauka
nauki
nav
naval
navarra
navarro
navbahor
navbat
navbatda
navbatdagi
navbatdan
navbati
navbatida
navbatma
navi
navigator
navigatsiya
naviy
naviyat
navlar
navlari
navlarini
navli
navo
navoiy
navoiyning
navoiyshunoslik
navro
navy
naxchivon
naxichevan
nay
naycha
nayi
nayman
nayza
nazar
nazarboyev
nazarda
nazardan
nazarga
nazari
nazarida
nazaridan
nazarini
nazariy
nazariya
nazariyaga
nazariyalar
nazariyalari
nazariyani
nazariyaning
nazariyasi
nazariyasida
nazariyasiga
nazariyasini
nazariyasining
nazariyotchisi
nazarov
nazir
nazorat
nazoratchi
nazoratchisi
nazoratga
nazorati
nazoratida
nazoratidagi
nazoratiga
nazoratini
nazoratni
nazoratsiz
nb
nba
nbada
nbadagi
nbaning
nbc
nc
ncaa
nchen
nchengladbach
nchez
nchilik
nd
nda
ndalang
ndan
nden
ndez
ndi
ndice
ndiradi
ne
neal
neapol
near
nebraska
nec
necha
nechta
nechtasi
ned
need
nefrit
neft
neftchi
neftni
neftning
nega
negizida
neil
neill
nekroz
nektar
nelli
nelson
nem
nemis
nemischa
nemislar
nemislarga
nemislarning
nen
nensi
neo
neogen
neoklassik
neolit
neon
nepal
nepalda
nepalga
nepalning
neptun
ner
neru
nerv
nervi
nervlar
nes
ness
nestle
net
netapp
netflix
netherlands
nets
network
networks
neu
neue
neufcha
neustadt
neva
nevada
nevarasi
never
nevrologik
nevrologiya
nevskiy
new
newcastle
newman
newport
news
newspaper
newsweek
newton
next
ney
neyron
neyronlar
neytral
neytrofillar
neytron
neytronlar
nez
nf
nfl
ng
nga
ngach
ngan
ngc
ngda
ngdan
ngga
nggi
ngi
ngida
ngil
ngilli
ngillilar
ngilochar
ngli
ngo
ngra
nguye
nguyen
nh
nha
nhk
nhl
nhlda
nhldagi
nhlga
nhlning
nhsi
ni
nia
niagara
nib
nic
nica
nice
nicholas
nick
nickelodeon
nicola
nicolas
nicole
niderland
niderlandiya
niderlandiyada
niderlandiyadagi
niderlandiyaga
niderlandiyaning
niderlandlar
nie
nielsen
nig
niger
nigeriya
nigeriyada
nigeriyalik
nigeriyaning
night
nihol
nihon
nihoyasiga
nihoyat
nihoyatda
niigata
nijniy
nik
nika
nikaragua
nike
nikel
niki
nikita
nikki
nikko
nikmalar
nikmalari
nikmalarini
nikmalarni
nikoh
nikohda
nikohdan
nikohga
nikohi
nikohidan
nikohlar
nikohni
nikol
nikola
nikolaev
nikolaevich
nikolaevna
nikolas
nikolay
nikolayevich
niks
nikson
nil
nilufar
nim
nima
nimadir
nimani
nimchorak
nin
nina
ninchi
nine
ning
nini
nino
nintendo
nippon
niqob
niqobi
nirvana
nis
nisanyanmap
nisbat
nisbatan
nisbatda
nisbati
nisbatini
nisbiy
nisbiylik
nish
nishi
nishon
nishonga
nishoni
nishoniga
nishonini
nishonining
nishonladi
nishonlanadi
nishonlanadigan
nishonlandi
nishonlangan
nishonlar
nishonlarga
nishonlari
nishonlarni
nishonlash
nishonlaydi
nishonni
nishonning
niso
nissan
nitrat
nitril
niya
niyasi
niyat
niyati
niyatida
niyatini
niyoziy
niyozov
nizo
nizolar
nizolarni
nizom
nizomga
nizomi
nizomiga
nizomiy
nizomni
nj
nk
nkvd
nl
nlab
nli
nlik
nm
nn
no
noah
noan
noaniq
noaniqlik
nobel
noble
nobud
noda
nodavlat
nodir
nodira
nodirshoh
noel
nog
noga
nogiron
nogironlar
nogironlik
nohaq
noibi
noir
nojo
nok
nokaut
nokautga
nokia
nol
nolan
nolari
nolarini
nolarni
noldan
nolga
noli
nom
noma
nomaqbul
nomda
nomdagi
nomenklatura
nomenklaturasi
nomeri
nomga
nomi
nomida
nomidagi
nomidan
nomiga
nominal
nominatsiya
nominatsiyalar
nominatsiyalari
nominatsiyasi
nominatsiyasida
nominatsiyasiga
nominatsiyasini
nomini
nomining
nomladi
nomlagan
nomlanadi
nomlandi
nomlangan
nomlanishi
nomlanuvchi
nomlar
nomlari
nomlaridan
nomlarini
nomlarni
nomlash
nomli
nomni
nomoddiy
nomsiz
nomsiztepa
nomus
nomz
nomzod
nomzodi
nomzodini
nomzodlar
nomzodlari
nomzodlarni
nomzodlik
non
noni
nonushta
noodatiy
noodle
noor
noorganik
noqonuniy
noqulay
nor
nora
norasmiy
nord
nordfriesland
nordic
nordon
norfolk
norin
norma
normal
normalar
normalari
norman
normandiya
normasi
normativ
norozi
noroziligi
noroziligiga
noroziligini
norozilik
norris
norrko
norte
north
northampton
northeast
northern
northrop
norton
norveg
norvegiya
norvegiyada
norvegiyadagi
norvegiyaga
norvegiyalik
norvegiyaning
norvich
norway
norwegian
norwich
nos
noshir
noshiri
nosi
nosida
nosiga
nosimmetrik
nosini
nosir
not
nota
notanish
note
notekis
notes
nothing
notijorat
notinch
notiq
notiqlik
noto
notr
notre
nottingem
nottingham
notts
nou
noutbuk
noutbuklar
nouveau
nov
nova
novak
novara
novartis
novaya
novda
novdalar
novdalari
novdasi
novel
november
novgorod
novi
noviy
novo
novosibirsk
novosti
now
noxush
noyabr
noyabrda
noyabrdagi
noyabrdan
noyabrgacha
noyabrida
noyabridan
noyabriga
noyabrigacha
noyabrya
noyob
nozik
nozil
np
npr
nr
ns
nscaa
nsf
nsw
nsx
nt
nta
ntak
ntalik
ntalikka
ntarish
ntarishi
ntarishidan
ntarishiga
ntv
nu
nuclear
nuevo
nufusune
nufuzi
nufuzini
nufuzli
nuh
nuklein
nukus
number
numberempire
nuqson
nuqsoni
nuqsonlar
nuqsonlari
nuqsonli
nuqta
nuqtada
nuqtadan
nuqtaga
nuqtai
nuqtalar
nuqtalari
nuqtalarini
nuqtali
nuqtaning
nuqtasi
nuqtasida
nuqtasidan
nuqtasiga
nuqtasini
nuqtayi
nur
nurafshon
nurash
nuri
nurida
nuriddin
nurini
nurkich
nurlanish
nurlanishi
nurlar
nurlari
nurlarining
nurlarning
nurli
nurota
nursulton
nusxa
nusxada
nusxadan
nusxalar
nusxalari
nusxalarini
nusxani
nusxasi
nusxasini
nutq
nutqi
nutqida
nutqini
nutqni
nutqning
nwhl
nwsl
ny
nyons
nytimes
nyu
nyufaundlend
nyukasl
nyuman
nyuport
nyurnberg
nyuton
nz
o
oaj
oak
oav
ob
obama
obamaning
obi
obid
obidalar
obidalari
obituary
oblast
oblasti
obod
obodonlashtirish
obra
obraz
obrazi
obrazida
obrazini
obrazlar
obrazlari
obro
observer
obuna
obunachiga
obyekt
obyektdir
obyektga
obyekti
obyektiv
obyektlar
obyektlari
obyektlarni
obyektni
oc
ocean
och
ochadi
ocharchilik
ochdan
ochdi
ochdilar
ocherk
ocherki
ocherklar
ochga
ochgan
ochi
ochib
ochiladi
ochiladigan
ochilar
ochildi
ochilgan
ochilganda
ochilgandan
ochilganidan
ochilib
ochilish
ochilishi
ochilishida
ochilishiga
ochiq
ochiqchasiga
ochiqdan
ochish
ochishga
ochishni
ochisi
ochko
ochkodan
ochkoga
ochkolar
ochkolari
ochkolarini
ochkolik
ochkoni
ochkosi
ochkosini
ochlar
ochlik
ochlikdan
ochni
ochsozlik
ocl
oclc
oct
octeville
october
oda
odam
odamda
odamdan
odamga
odami
odamlar
odamlarda
odamlardan
odamlarga
odamlari
odamlarni
odamlarning
odamni
odamning
odat
odatda
odatdagi
odatdagidan
odatdagidek
odati
odatiy
odatlar
odatlari
odatlariga
odatlarini
oddiy
oddiygina
oder
odessa
odi
odil
odin
odissey
odisseya
odob
oecd
of
ofat
ofatlar
ofc
off
offda
offga
office
officer
official
offida
offning
oficial
ofis
ofisi
ofisida
ofislar
ofislari
ofitser
ofitseri
ofitserlar
ofitserlari
ofitsiant
ofk
ofy
og
ogahiy
ogayo
ogohlantiradi
ogohlantirdi
ogohlantirgan
ogohlantirish
ogohlantiruvchi
oh
ohak
ohaktosh
ohang
ohangaron
ohangi
ohanglar
ohanglari
ohio
ohl
oid
oil
oila
oilada
oiladagi
oiladan
oilaga
oilalar
oilalarga
oilalari
oilalaridan
oilalariga
oilalarini
oilalarning
oilali
oilani
oilaning
oilasi
oilasida
oilasidagi
oilasidan
oilasiga
oilasini
oilasining
oilasizlar
oilaviy
oilers
ois
oise
oisha
oits
oiv
ojiz
ojizlar
ok
oka
okazaki
okean
okeanga
okeani
okeanida
okeanidagi
okeaniga
okeanining
okeaniya
okeanlar
okeanning
oklahoma
oklaxoma
oklend
okrug
okrugda
okrugi
okrugida
okrugidagi
okrugidan
okrugiga
okrugining
okruglar
okruglari
okrugning
oksana
oksford
oksforddagi
oksid
oksidi
oksidlanish
oksidlovchi
oktabr
oktabrda
oktabrdagi
oktabrdan
oktabrgacha
oktabrida
oktabrya
oktava
oktavian
oktyabr
oktyabrda
oktyabrdan
oktyabrgacha
oktyabrida
ol
ola
oladi
oladigan
oladilar
olam
olaman
olamdan
olami
olamida
olamidagi
olamiga
olamini
olamining
olamiz
olamlar
olamni
olamning
olar
olardi
olatni
olay
olayotgan
olcha
old
oldenburg
oldham
oldi
oldida
oldidagi
oldidan
oldiga
oldilar
oldim
oldin
oldinda
oldindan
oldinga
oldingi
oldini
oldinroq
ole
oleg
oleksandr
olg
olga
olgach
olgan
olganda
olgandan
olgani
olganida
olganidan
olganiga
olganini
olganlar
olganligi
oli
olib
olibi
olibiga
oliblar
oliblari
olibligini
oliblik
oliblikni
olijanob
olim
olima
olimi
olimjon
olimlar
olimlardan
olimlari
olimlaridan
olimlarining
olimlarni
olimlarning
olimning
olimpia
olimpiada
olimpiadada
olimpiadadan
olimpiadaga
olimpiadalarida
olimpiadaning
olimpiadasi
olimpiadasida
olimpiadasining
olimpiakos
olimpik
olimpiya
olimpiyada
olimxon
olinadi
olinadigan
olindi
oling
olingan
olinganda
olingandan
olingani
olinganidan
olinganini
olinganlar
olingunga
olinib
olinishi
olinishidan
olinishiga
olinishini
olinmadi
olinmagan
olinmaydi
olinsa
olis
olish
olishadi
olishda
olishdan
olishdi
olishga
olishgan
olishi
olishiga
olishingiz
olishini
olishlar
olishlari
olishlarini
olishmadi
olishni
olishning
oliver
oliveyra
olivia
olivier
oliviya
oliy
olma
olmadi
olmadilar
olmagan
olmaganda
olmagani
olmaganidan
olmaganini
olmaliq
olmaota
olmaotada
olmasa
olmasligi
olmasligini
olmaslik
olmay
olmaydi
olmaydigan
olmaydilar
olmayman
olmon
olmoniya
olmoqchi
olmoqda
olmos
ololmadi
olomon
olon
olonchilar
olonga
oloni
olonini
olonlar
olonlari
olonni
oloron
olov
olovda
olovga
olovi
olovli
olovni
oloy
olqishiga
olqishlandi
olqishlarga
olsa
olsak
olsen
olti
oltiariq
oltilik
oltin
oltinchi
oltindan
oltingugurt
oltinko
oltita
oltmish
oltmishlik
oltoy
oltu
oluvchi
oluvchilar
olxo
olya
olympic
olympics
olympique
om
omad
omadli
omadsiz
omar
ombor
ombori
omborida
omborining
omborlar
omborlari
omega
omil
omili
omillar
omillardan
omillarga
omillari
omillarni
omillarning
omma
ommabop
ommaga
ommalashgan
ommalashib
ommalashtirish
ommaviy
omon
omonat
omsk
on
ona
onada
onadan
onado
onaga
onalar
onalarga
onalari
onalarning
onali
onalik
onam
onani
onaning
onasi
onasida
onasidan
onasiga
onasini
onasining
onassis
once
onchi
onda
ondan
one
ong
onga
ongan
ongi
ongida
ongini
ongli
ongni
ongning
ongsiz
oni
onish
onishi
oniston
onistonda
onistondagi
onistondan
onistonga
onistonlik
onistonni
onistonning
oniy
onkologiya
onlar
onlari
onlayn
online
only
onni
onning
ono
onsen
ontario
ontepa
op
opa
opasi
opel
open
openda
opening
opera
operasi
operasida
operation
operativ
operator
operatori
operatorlar
operatorlari
operatorname
operatsion
operatsiya
operatsiyadan
operatsiyalar
operatsiyalarda
operatsiyalari
operatsiyalarini
operatsiyalarni
operatsiyani
operatsiyasi
operatsiyasida
operatsiyasini
opisanie
oppoq
opsiyasi
optik
optika
optimal
optimallashtirish
opus
oq
oqadi
oqadigan
oqar
oqbo
oqchil
oqchilik
oqchilikka
oqda
oqdagi
oqdan
oqdaryo
oqib
oqibat
oqibatda
oqibati
oqibatida
oqibatlarga
oqibatlari
oqibatlarini
oqilona
oqim
oqimga
oqimi
oqimida
oqimiga
oqimini
oqimining
oqimlar
oqimlari
oqimli
oqish
oqishi
oqko
oqlangan
oqlar
oqlari
oqlarida
oqlariga
oqlarini
oqlash
oqma
oqmo
oqqa
oqqo
oqqush
oqshom
oqsil
oqsili
oqsillar
oqsillari
oqsoqol
oqsoqoli
oqsoqollar
oqsuv
oqtepa
or
ora
orada
oradan
oral
oralig
oraliq
oraliqda
orange
orasi
orasida
orasidagi
orasidan
orasiga
orbita
orbitada
orbitaga
orbital
orbitasi
orda
orden
ordeni
ordenining
ordenlar
ordenlari
ordenning
order
ore
oregon
orenburg
oreo
org
orga
organ
organi
organiga
organik
organization
organizm
organizmda
organizmdagi
organizmga
organizmida
organizmiga
organizmlar
organizmlarda
organizmlarning
organizmni
organizmning
organlar
organlarga
organlari
organlarida
organlariga
organlarini
organlarining
organlarning
ori
orient
oriental
orientatsiya
orif
origin
original
origins
oriladi
oriladigan
orilgan
orion
oripov
orish
orishda
orishga
orkali
orkestr
orkestri
orlando
orlar
orlari
orle
orlean
orleans
orlov
orma
orne
orning
oro
orol
orolda
oroldagi
oroldan
orolga
oroli
orolida
orolidagi
orolidan
oroliga
orolini
orolining
orollar
orollarda
orollari
orollarida
orollaridagi
orollaridan
orollariga
orollarini
orollarining
orollarni
orollarning
orolni
orolning
oromiy
orqa
orqada
orqaga
orqali
orqasida
orqasidagi
orqasidan
orqasiga
ort
orta
ortadi
ortda
ortdi
ortega
ortga
ortgan
orti
ortib
ortida
ortidagi
ortidan
ortig
ortiq
ortiqcha
ortiqroq
ortishi
orttirilgan
orttirish
oru
orzu
orzular
orzulari
orzusi
os
osaka
oscar
osetiya
osh
osha
oshadi
oshdi
oshgan
oshgani
oshganlarning
oshib
oshin
oshiq
oshira
oshiradi
oshiradigan
oshiradilar
oshirdi
oshirdilar
oshirgan
oshirib
oshiriladi
oshiriladigan
oshirilayotgan
oshirildi
oshirilgan
oshirilishi
oshirilishini
oshirilmagan
oshirilmoqda
oshirish
oshirishda
oshirishdan
oshirishga
oshirishi
oshirishni
oshirishning
oshirmoqda
oshiruvchi
oshishi
oshishiga
oshkor
oshkora
oshmadi
oshmagan
oshmasligi
oshmaydi
oshpaz
oshpazlik
oshqozon
oshxona
oshxonasi
oshxonasida
oshxonasiga
oshxonasining
osib
osilgan
osilib
osiyo
osiyoda
osiyodagi
osiyodan
osiyoga
osiyolik
osiyoliklar
osiyoni
osiyoning
oskar
oslo
osma
osmon
osmonda
osmondagi
osmondan
osmonga
osmonni
osmonning
osmono
osobennosti
oson
osongina
osonlashtiradi
osonlashtirish
osonlik
osonlikcha
osonroq
ossuriya
ost
osti
ostida
ostidagi
ostidan
ostiga
ostin
ostki
ostona
ostrovskiy
osvensim
ot
ota
otabek
otadi
otalar
otalari
otaliq
otam
otaning
otasi
otasidan
otasiga
otasini
otasining
otaturk
otda
otdi
otello
otgan
other
oti
otib
otilgan
otilib
otilishi
otish
otishma
otit
otlar
otlari
otlarni
otlarning
otliq
otliqlar
otning
otryad
otryadi
otryadining
otryadlari
ottava
ottawa
otto
ottoman
otuvga
ou
ouen
oun
our
out
outlook
output
ov
ova
ovak
oval
ovchi
ovchilar
ovchilari
ovchilik
over
overall
overseas
overview
ovlanadi
ovlash
ovoz
ovozda
ovozdan
ovozga
ovozi
ovoziga
ovozini
ovozlar
ovozli
ovozni
ovozsiz
ovqat
ovqatdan
ovqatga
ovqatlanish
ovqatlar
ovqatlarni
ovqatni
ovul
owen
own
oxford
oxir
oxirgi
oxirgisi
oxiri
oxirida
oxiridagi
oxiridan
oxiriga
oxirigacha
oxirlarida
oxunboboyev
oy
oya
oyalar
oyalarga
oyalari
oyalariga
oyalarini
oyalarni
oyani
oyasi
oyasiga
oyasini
oyat
oyatdan
oyatlar
oyatulloh
oyaviy
oybek
oyda
oydagi
oydan
oydin
oyga
oygacha
oyi
oyib
oyida
oyidagi
oyidan
oyiga
oyigacha
oyini
oyining
oylar
oylarda
oylari
oylarida
oyligida
oylik
oyna
oynalar
oynalari
oynasi
oynasida
oynasining
oyni
oyning
oyog
oyoq
oyoqlar
oyoqlari
oyoqlarini
oyoqli
oyoqning
oyoqqa
oysha
oz
ozarbayjon
ozarbayjonda
ozarbayjondagi
ozarbayjondan
ozarbayjonga
ozarbayjonlar
ozarbayjonlik
ozarbayjonni
ozarbayjonning
ozchilik
ozchiliklar
ozdan
ozg
ozga
ozgan
ozgina
ozi
oziklanadi
oziq
oziqlanadi
oziqlanish
oziqlanishi
oziqlantirish
oziqovqat
oziy
ozlar
ozlari
ozlarni
ozni
ozod
ozodligi
ozodlik
ozodlikdan
ozodlikka
ozon
ozroq
ozuqa
ozuqaviy
p
pa
pablo
pac
pacific
pack
packard
padma
padova
page
pages
pahlaviy
pai
pain
painting
pak
paket
paketi
paketini
pakistan
pal
palace
palata
palatali
palatasi
palatasida
palatasiga
palatasining
palazzo
palencia
paleogen
paleolit
paleozoy
palermo
palgrave
palladiy
pallali
pallas
palm
palma
palmas
palmeiras
palmer
palo
palov
palto
pam
pamela
pamyatnik
pamyatniki
pan
panama
panamerika
panchayat
panda
pande
pandemiya
pandemiyasi
pandit
panel
paneli
panellar
panellari
panj
panjakent
panjalari
panjara
panjaralar
panjaralarda
panjarali
panjarasi
panjasi
panjob
panoh
panorama
panoramio
pantera
panthers
paok
paolo
papa
papasi
paper
papers
papua
par
para
parad
parade
paradi
paradida
paradise
paradoksi
paragvay
paralimpiya
parallel
parametrlari
paramount
parana
paranaense
parashyut
parasida
paratsetamol
parazit
parazitlik
parcha
parchalab
parchalanadi
parchalangan
parchalanganidan
parchalanib
parchalanish
parchalanishi
parchalar
parchalari
parchalash
parchasi
parda
pardalar
pardali
pardaning
pardasi
parfiya
parfyumeriya
parhez
pari
parij
parijda
parijdagi
parijga
parijning
paris
park
parkda
parkdagi
parkent
parker
parkerning
parkga
parki
parkida
parkinson
parklar
parkni
parkning
parks
parlament
parlamentda
parlamentdagi
parlamentga
parlamenti
parlamentida
parlamentiga
parlamentining
parlamentlararo
parlamentni
parlamentning
parliament
parma
parodiya
parom
parranda
parrandachilik
parser
parsons
part
partial
partiya
partiyadan
partiyaga
partiyalar
partiyalari
partiyalarning
partiyani
partiyaning
partiyasi
partiyasidan
partiyasiga
partiyasini
partiyasining
partiyaviy
partizan
partizanlar
partners
partnership
party
parvarish
parvarishlash
parvona
parvoz
parvozdan
parvozi
parvozini
parvozlar
parvozlarni
parvozni
pas
pasadena
pasayadi
pasaydi
pasaygan
pasayib
pasayish
pasayishi
pasayishiga
pasayishni
pasaytiradi
pasaytirdi
pasaytirish
pasha
pashtu
paskal
pasport
pasportga
pasporti
pasportiga
pasportini
pasportining
pasportlar
pasportlari
pasportni
pasportning
pass
passat
passiv
passport
past
pastasi
pastda
pastdan
pastdarg
pastga
pasti
pastki
pastligi
pastroq
pasttekisligi
pasttekislik
pasxa
pat
patel
patent
patentlangan
patlari
patnos
patogen
patogenezi
patologik
patologiya
patologiyasi
patriarx
patriarxal
patriarxi
patricia
patrick
patrik
patriot
patrisiya
patron
patrul
pattaya
patterson
patti
patty
pau
pauell
paul
paula
pauli
pauline
paulista
paulo
paulu
pavel
pavia
pavlodar
pavlov
pavlova
pavlovich
pavlyuchenkova
pavo
pavsaniy
pax
paxsa
paxta
paxtachilik
paxtakor
pay
payadi
payariq
paydi
paydo
payg
paygan
payib
payish
payishi
payishiga
payishini
payne
paypoq
payqab
payshanba
payt
paytda
paytdagi
paytdan
paytga
paytgacha
payti
paytida
paytidagi
paytiriladi
paytirish
paytirishga
paytlar
paytlarda
paytlarida
payvand
payvandlash
pazandachilik
pazzini
pb
pbs
pc
pchiligi
pchiligida
pchiligini
pchilik
pchilikka
pchilikni
pchilikning
pd
pdan
pdf
pdir
pe
peace
peak
pearl
pearson
peas
pec
pech
pechda
pechene
pechlar
ped
pedagog
pedagogik
pedagogika
pedersen
pediatriya
pedro
pee
peer
pegas
pekin
pekinda
pekindagi
pekinga
pelas
pele
pen
penalti
penaltidan
penaltilar
penaltini
peng
penguin
penguins
penitsillin
penn
pennsylvania
penny
pensilvaniya
pensiya
pentagon
pentium
penza
people
peoples
pepsi
pepsico
per
perche
pereira
peres
perevod
perfect
performance
peri
periferik
perimetri
period
perkins
perm
permskiy
peroksid
perpendikulyar
perri
perry
persepolis
perseus
persey
persian
person
personaj
personajlar
personajni
personal
persons
perspective
pert
perth
peru
peruda
peruga
perugia
peruning
pesaro
peshona
peshovar
peshqadam
peshqadami
peshqadamlik
peshtoq
pet
pete
peter
peterborough
peterburg
peterburgda
peterburgdagi
peterburgga
peterburgning
peters
petersburg
peterson
petit
petr
petra
petrograd
petroleum
petropavlovsk
petrov
petrovich
petrovna
peugeot
peysers
pez
pf
pfa
pfalz
pfl
pg
pga
pgina
pguli
ph
phantom
pharmaceuticals
phd
pheonix
phi
phil
philadelphia
philip
philippe
philippines
philips
phillips
philosophy
phoenix
phone
photo
photograph
photographs
photography
photos
php
phu
physical
physiology
pi
pianino
pianinochi
piano
pichan
pichog
pichoq
pichoqlar
picture
pictures
pie
piemont
pier
pierce
pierre
pietro
pig
pigment
pik
pikardiya
pike
pikli
piksel
pilla
pillachilik
pilot
pim
pin
pinal
pincha
pine
ping
pings
pingvinlar
pini
pink
pinto
pinyin
piper
pir
piramida
piramidal
pireney
piri
pirit
pirlo
pirog
pirs
pisa
pishadi
pishgan
pishib
pishiq
pishiriladi
pishirilgan
pishiriqlar
pishirish
pishlog
pishloq
pishloqlari
pista
pistons
pit
piter
pitsburg
pitt
pittsburgh
pivo
piyoda
piyodalar
piyodalari
piyodalarining
piyola
piyoz
pizza
pk
pka
pkaning
pkurash
pkurashda
pl
pla
plab
place
places
pladi
plagan
plaganidan
plakatlar
plam
plamda
plamga
plami
plamida
plamidan
plamidir
plamiga
plamini
plamining
plamlar
plamlari
plamlarida
plamlarini
plamni
plamning
plan
planadi
plandagi
planet
plangan
planib
planishi
plank
planning
planshet
plant
plantatsiyalari
plants
plar
plari
plasa
plash
plashga
plastik
plastinka
plastmassa
plastmassadan
plata
plate
platforma
platformada
platformaga
platformalar
platformalari
platformalarida
platformasi
platformasida
platformasiga
platformasini
platina
platinum
plato
platon
platosi
platt
play
playdi
player
players
playhouse
playing
playstation
plaza
plazma
plc
pley
pleyt
pligi
plik
plimut
pliniy
plitalar
plitalari
plo
plus
pluton
plyaj
plyaji
plyajlar
plymouth
plyonka
plyonkaga
plyus
pm
pmc
pmid
pn
pneumoniae
pnevmatik
pnevmoniya
png
pni
po
pochta
pochtasi
pod
podium
podpolkovnik
podsho
podshoh
podshohi
podshohning
podsholigi
podsholik
podshosi
poema
poems
poet
poetik
poetry
poezd
pog
point
points
pok
pokal
poke
pokiston
pokistonda
pokistondagi
pokistonga
pokistonlik
pokistonning
poklik
pol
poland
polda
pole
polga
polgar
poli
police
policy
polietilen
poligrafiya
poliklinika
polimer
polimerlar
polimetall
polina
polish
politexnika
political
politics
politika
politsiya
politsiyachi
politsiyaga
politsiyasi
politsiyasining
poliz
polk
polki
polkida
polkiga
polkining
polkovnigi
polkovnik
pollik
polo
polosali
polsha
polshada
polshadagi
polshadan
polshaga
polshalik
polshani
polshaning
poltava
polvon
polyak
polyaklar
pomidor
pomir
pompey
pon
pont
pontarlier
ponte
pop
popov
popular
population
populyatsiya
populyatsiyasi
por
pora
poraxo
porloq
porox
porsche
port
portal
portali
portativ
porter
porti
portiga
portland
portlar
portlari
portlash
portlashdan
portlashi
portlashlar
portlatib
portlend
portlovchi
portman
porto
portrait
portret
portreti
portretlar
portretlari
portsmouth
portsmut
portu
portugal
portugalcha
portugaliya
portugaliyada
portugaliyaga
portugaliyalik
portugaliyaning
portugallar
portuguese
porzin
posbon
posboni
poseydon
posho
poshoga
poshoning
posle
post
posti
postmodern
postsovet
posyolka
posyolkasi
potensial
potentsial
potsdam
potter
pour
powell
power
powers
poya
poyabzal
poyalari
poyasi
poydevor
poydevorda
poydevorga
poydevori
poyezd
poyezdi
poyezdlar
poyga
poygachi
poygachilar
poygachisi
poygada
poygadan
poygalar
poygalarda
poygalari
poygalarida
poygasi
poygasida
poytaxt
poytaxtda
poytaxtga
poytaxti
poytaxtida
poytaxtiga
poytaxtni
poytaxtning
pozitsion
pozitsiya
pozitsiyada
pozitsiyalari
pozitsiyalariga
pozitsiyalarini
pozitsiyani
pozitsiyasi
pozitsiyasida
pozitsiyasidan
pozitsiyasiga
pozitsiyasini
poznan
pp
ppen
ppg
ppi
pponcha
pq
pr
practice
prada
pradesh
praga
pragada
prague
prasad
pratt
pravda
pravoslav
pravoslavlar
pre
predators
predmet
predmeti
prefektura
prefekturasi
prefekturasida
prefekturasidagi
prefekturasining
prem
premer
premerasi
premier
premium
premyer
premyera
premyerasi
premyerasida
prenatal
preparat
preparatlar
preparatlari
preparatni
preparatning
present
president
presidential
presli
press
preston
presviterian
prezident
prezidenta
prezidentga
prezidenti
prezidentiga
prezidentining
prezidentlar
prezidentlari
prezidentligi
prezidentligiga
prezidentlik
prezidentlikka
prezidentning
prezidiumi
prezidiumining
pri
price
prida
pride
prigi
prik
prikdan
priklar
prikning
prima
primavera
prime
primeira
primer
primera
primetime
prince
princess
princeton
prining
prinsip
prinsipi
prinsiplari
prinston
print
printsipi
prisi
prisida
prithvi
private
prix
prize
pro
problem
problemi
problems
proceedings
process
procter
product
production
productions
products
produser
produseri
produserlar
produserlik
prodyuser
prodyuseri
prodyuserlar
prodyuserlari
prodyuserlik
prof
professional
professionalga
professionals
professor
professori
professorlar
profil
profilaktik
profilaktika
profile
profili
prog
prognoz
program
programme
progress
progressiv
project
prokat
prokuratura
prokuraturasi
prokuror
prokurori
pronounced
propaganda
properties
proporsional
proq
proqqa
prorektor
prorektori
prospekti
prostata
protection
protein
protektorati
protestant
protestantlar
proteus
proto
protokol
protokoli
proton
prototip
prototipi
protsedura
protsessor
protsessori
protsessorlari
protsessual
provayder
provayderi
provayderlar
provayderlari
providence
province
provincia
provincias
provinsiya
provinsiyalari
provinsiyasi
provinsiyasida
provinsiyasidagi
provinsiyasiga
provinsiyasining
proxorov
pru
prussiya
prussiyaning
prva
ps
psa
psevdo
psi
psixiatr
psixiatrik
psixiatriya
psixik
psixoanalitik
psixoanaliz
psixolog
psixologik
psixologiya
psixologiyada
psixologiyaning
psixologiyasi
psixologlar
psixopatik
psixopatiya
psixoterapiya
psj
pskov
psv
psychiatry
psychology
pt
ptolemey
ptolomey
pu
pub
public
publication
publications
published
publisher
publishers
publishing
publitsist
publitsistik
publix
pudratchi
puebla
pueblo
puerto
pufagi
pufak
pufakchalar
puflama
pugh
pul
pulemyot
pulga
puli
pulini
pulitser
pulitzer
pullar
pullari
pullarini
pullik
pulni
pulning
pulsar
puma
pune
punk
punkt
punkti
punktida
punktidir
punktiga
punktining
punktlari
punktlarida
punktlaridan
punktlariga
punktlarini
punktlarining
purar
purarga
purari
purariga
purarlar
purarlari
purdue
purkinye
purple
pusan
pushkin
pushti
pushtu
pushtun
pushtunlar
put
putellas
putin
putinning
putnam
putur
puxta
puy
px
pyaar
pyer
pyesa
pyesalar
pyesalari
pyesasi
pyotr
pyre
python
pyuresi
q
qa
qabala
qabila
qabilalar
qabilalari
qabilalaridan
qabilalarini
qabilalarining
qabilalarning
qabilasi
qabilasidan
qabilasiga
qabilasining
qabilaviy
qabr
qabrga
qabri
qabriga
qabriston
qabristonga
qabristoni
qabristonida
qabristonidagi
qabristoniga
qabrlar
qabrlari
qabul
qachon
qachonki
qad
qadag
qadam
qadamjoy
qadamlar
qadar
qadim
qadimda
qadimdan
qadimgi
qadimiy
qadoqlash
qadr
qadriyatlar
qadriyatlarga
qadriyatlari
qadriyatlarini
qadriyatlarni
qadrlanadi
qafasi
qahhor
qahramon
qahramonga
qahramoni
qahramoniga
qahramonining
qahramonlar
qahramonlardan
qahramonlarga
qahramonlari
qahramonlaridan
qahramonlariga
qahramonlarining
qahramonlarni
qahramonlarning
qahramonligi
qahramonlik
qahramonni
qahramonning
qahva
qal
qala
qalam
qalamiga
qalampir
qalampiri
qalay
qalb
qalbaki
qalbi
qaldirg
qalin
qalinligi
qalinlikda
qalinlikdagi
qalinroq
qalpoq
qalqon
qalqoni
qalqonsimon
qamab
qamal
qamaldan
qamalgan
qamali
qamashi
qamish
qamog
qamoq
qamoqda
qamoqdan
qamoqqa
qamoqxona
qamoqxonada
qamoqxonalar
qamoqxonasi
qamoqxonasida
qamrab
qamrovi
qamrovli
qancha
qanchalik
qand
qandahor
qanday
qandaydir
qandli
qandolat
qandolatchilik
qang
qanot
qanotda
qanotdan
qanoti
qanotida
qanotiga
qanotining
qanotlar
qanotlari
qanotlarini
qanotli
qanotning
qara
qarab
qaradi
qarag
qaragan
qaraganda
qaraladi
qaraldi
qaralgan
qaram
qarama
qaramaqarshi
qaramasdan
qaramay
qaramlik
qaramog
qarang
qarash
qarashda
qarashlar
qarashlarga
qarashlari
qarashlarini
qarashlarni
qarashli
qarasli
qarata
qaratadi
qaratdi
qaratgan
qaratib
qaratiladi
qaratildi
qaratilgan
qaratish
qaratishga
qaraydi
qardosh
qarg
qari
qarindosh
qarindoshi
qarindoshlar
qarindoshlari
qarindoshlik
qariyalar
qariyb
qarluq
qaroqchi
qaroqchilar
qaroqchilari
qaror
qarorga
qarorgoh
qarorgohi
qarorgohida
qarorgohiga
qarorgohini
qarori
qarorida
qaroridan
qaroriga
qarorini
qarorlar
qarorlari
qarorlarini
qarorlarni
qarorni
qarovsiz
qarshi
qarshiligi
qarshiligiga
qarshiligini
qarshilik
qarshilikka
qarshiliklar
qarshiliklariga
qarshilikni
qarshisida
qarshisidagi
qarz
qarzdor
qarzga
qarzi
qarzlarini
qasam
qasamyod
qasd
qasddan
qashqadaryo
qashqar
qashshoq
qashshoqlik
qashshoqlikni
qasida
qasos
qasoskor
qasoskorlar
qasr
qasri
qat
qatag
qatar
qatarda
qatarga
qatarning
qatiq
qatl
qatlam
qatlami
qatlamida
qatlamiga
qatlamini
qatlamining
qatlamlar
qatlamlari
qatlamlarida
qatlamlaridan
qatlamlarini
qatlamli
qatlamning
qatnasha
qatnashadi
qatnashadigan
qatnashadilar
qatnashayotgan
qatnashchilari
qatnashchisi
qatnashdi
qatnashdilar
qatnashgan
qatnashib
qatnashish
qatnashishdan
qatnashishga
qatnashishi
qatnashishni
qatnashmadi
qatnashmagan
qatnashuvchi
qatnaydi
qatnovi
qator
qatorda
qatorga
qatori
qatorida
qatoridan
qatoriga
qatorini
qatorlar
qatorli
qattiq
qattiqligi
qattiqlik
qattiqqo
qattiqroq
qavariq
qavat
qavatda
qavatdagi
qavatdan
qavatga
qavati
qavatida
qavatining
qavatli
qavs
qay
qayd
qayerda
qayerdan
qayerga
qayg
qayig
qayin
qayiq
qayiqda
qayiqlar
qaymoq
qaynash
qaynatib
qaynatiladi
qaynatilgan
qaynatish
qaynoq
qaynotasi
qayrat
qaysi
qaysidir
qayt
qayta
qaytadan
qaytadi
qaytaradi
qaytardi
qaytargan
qaytarib
qaytariladi
qaytarildi
qaytarilgan
qaytarilishi
qaytarish
qaytarishga
qaytarishni
qaytaruvchi
qaytdi
qaytgach
qaytgan
qaytganida
qaytganidan
qaytib
qaytish
qaytishdan
qaytishdi
qaytishga
qaytishi
qaytishiga
qaytishini
qaytishni
qayumov
qazaq
qazaqstan
qazib
qazilgan
qazilma
qazilmalar
qazilmalardan
qazilmalarni
qazish
qazishmalar
qazvin
qchi
qchilar
qdan
qf
qfy
qfyga
qi
qib
qibga
qibray
qichqiriq
qidi
qidirib
qidirish
qidirishda
qidiruv
qiga
qigan
qiganidan
qil
qila
qiladi
qiladigan
qiladilar
qilaman
qilamiz
qilar
qilardi
qilayotgan
qilayotganda
qilayotganini
qildi
qildik
qildilar
qildim
qilgach
qilgan
qilganda
qilgandan
qilgandi
qilgani
qilganida
qilganidan
qilganidek
qilganiga
qilganini
qilganlar
qilganligi
qilganligini
qilganlikda
qilib
qilich
qilichbozlik
qilichi
qilichlar
qilina
qilinadi
qilinadigan
qilinayotgan
qilindi
qiling
qilingach
qilingan
qilinganda
qilingandan
qilingandi
qilingani
qilinganida
qilinganidan
qilinganidek
qilinganini
qilinganlar
qilinganligi
qilinganligini
qilinib
qilinishi
qilinishicha
qilinishidan
qilinishiga
qilinishini
qilinmadi
qilinmagan
qilinmaguncha
qilinmaydi
qilinmoqda
qilinsa
qilish
qilishadi
qilishda
qilishdagi
qilishdan
qilishdi
qilishdir
qilishga
qilishgan
qilishi
qilishicha
qilishidan
qilishiga
qilishimiz
qilishingiz
qilishini
qilishlari
qilishlariga
qilishlarini
qilishni
qilishning
qilmadi
qilmagan
qilmasa
qilmasdan
qilmasligi
qilmasligini
qilmaslik
qilmaslikka
qilmay
qilmaydi
qilmaydigan
qilmoqchi
qilmoqda
qilmoqdalar
qilsa
qilsalar
qiluvchi
qiluvchilar
qima
qimachilik
qimalar
qimalarda
qimalarga
qimalari
qimalarida
qimalarining
qimalarni
qimalarning
qimasi
qimishli
qimmat
qimmatbaho
qimmatga
qimmati
qimmatini
qimmatli
qimmatroq
qimor
qin
qing
qingdao
qintirgan
qipchoq
qipchoqlar
qir
qirg
qirib
qirilib
qirol
qirolga
qiroli
qirolicha
qirolichaning
qirolichasi
qirolining
qirollar
qirollari
qirolligi
qirolligida
qirolligiga
qirolligini
qirolligining
qirollik
qirollikda
qirollikdagi
qirollikning
qirolning
qirq
qirralari
qirrali
qirrasi
qiruvchi
qish
qishda
qishdan
qishga
qishi
qishida
qishini
qishki
qishlari
qishlash
qishlaydi
qishlog
qishloq
qishloqda
qishloqdagi
qishloqdan
qishloqdir
qishloqguide
qishloqlar
qishloqlarda
qishloqlardan
qishloqlarga
qishloqlari
qishloqlarida
qishloqlaridan
qishloqlarini
qishloqlarni
qishloqni
qishloqning
qishloqqa
qishloqvillage
qishni
qishning
qism
qisman
qismda
qismdan
qismga
qismi
qismida
qismidagi
qismidan
qismidir
qismiga
qismini
qismining
qismlar
qismlarda
qismlardan
qismlarga
qismlari
qismlarida
qismlaridan
qismlariga
qismlarini
qismlarining
qismlarni
qismlarning
qismli
qismni
qismning
qisqa
qisqacha
qisqaradi
qisqardi
qisqargan
qisqarib
qisqarish
qisqarishi
qisqarishiga
qisqaroq
qisqartirdi
qisqartiriladi
qisqartirildi
qisqartirilgan
qisqartirish
qisqartma
qisqartmasi
qisqichbaqa
qisqichbaqalar
qisqichbaqasimonlar
qissa
qissalar
qissalari
qissasi
qit
qitiladi
qitiladigan
qitilgan
qitish
qitishga
qitishning
qituvchi
qituvchilar
qituvchilari
qituvchilarni
qituvchilarning
qituvchilik
qituvchisi
qiy
qiya
qiydi
qiydigan
qiyin
qiyinchilik
qiyinchiliklar
qiyinchiliklarga
qiyinchiliklarni
qiyinlashtiradi
qiyinligi
qiyinroq
qiyma
qiymat
qiymatga
qiymati
qiymatiga
qiymatini
qiymatining
qiymatlar
qiymatlari
qiymatli
qiynoqlar
qiynoqqa
qiyofasi
qiyofasida
qiyofasiga
qiyofasini
qiyomat
qiyosiy
qiyotgan
qiyotganda
qiyshiq
qiz
qizamiq
qizdirib
qizdirilgan
qizdirilganda
qizdirish
qizg
qizga
qizi
qizib
qizig
qiziga
qizil
qizilcahamam
qizilo
qizilqum
qiziltepa
qizini
qizining
qiziq
qiziqarli
qiziqchi
qiziqdi
qiziqib
qiziqish
qiziqishi
qiziqishini
qiziqishlari
qiziqishni
qiziqqan
qizlar
qizlarga
qizlari
qizlarni
qizlarning
qizlik
qizni
qizning
qlar
qlari
qli
qligi
qligida
qligidan
qligiga
qligini
qmi
qmoq
qnash
qnashib
qnashuv
qnashuvda
qnashuvdan
qnashuvi
qnashuvlar
qnashuvlarda
qo
qobig
qobiliyat
qobiliyatga
qobiliyati
qobiliyatidan
qobiliyatiga
qobiliyatini
qobiliyatining
qobiliyatlar
qobiliyatlari
qobiliyatlarini
qobiliyatli
qobiq
qochadi
qochdi
qochgan
qochib
qochish
qochishga
qochoqlar
qochqin
qochqinlar
qochqinlarga
qochqinlarni
qodir
qodiriy
qodirov
qofiya
qog
qohira
qohirada
qohiradagi
qoida
qoidabuzarlik
qoidaga
qoidalar
qoidalarga
qoidalari
qoidalariga
qoidalarini
qoidalarni
qoidasi
qoidasiga
qola
qoladi
qoladigan
qoladilar
qolarli
qolaversa
qoldi
qoldig
qoldiq
qoldiqlar
qoldiqlari
qoldiqlarini
qoldiradi
qoldirdi
qoldirgan
qoldirib
qoldiriladi
qoldirildi
qoldirilgan
qoldirish
qoldirishga
qoldiruvchi
qolgan
qolganda
qolgandi
qolgani
qolganida
qolganidan
qolganini
qolganlar
qolganlari
qolganligi
qolib
qolingan
qolip
qolish
qolishadi
qolishda
qolishdan
qolishdi
qolishga
qolishgan
qolishi
qolishiga
qolishini
qolishlari
qolishni
qolmadi
qolmagan
qolmasligi
qolmay
qolmaydi
qolmoqda
qoloq
qolsa
qomusiy
qon
qonda
qondagi
qondirish
qondirishga
qonga
qoni
qonini
qoniqarli
qoniqish
qonli
qonni
qonning
qonun
qonunchiligi
qonunchiligida
qonunchiligiga
qonunchilik
qonunda
qonundan
qonunga
qonuni
qonunida
qonuniga
qonunini
qonunining
qonuniy
qonuniyatlari
qonuniyatlarini
qonunlar
qonunlarga
qonunlari
qonunlariga
qonunlarini
qonunlarni
qonunlarning
qonunni
qonunning
qop
qoplab
qoplagan
qoplama
qoplamalar
qoplamali
qoplamasi
qoplami
qoplanadi
qoplangan
qoplash
qoplaydi
qoplaydigan
qopqog
qopqoq
qor
qora
qorabog
qorabuloq
qorako
qoraladi
qoralama
qoralangan
qoramol
qoramollar
qoramtir
qoraqalpog
qoraqalpoq
qoraqo
qorasuv
qoratepa
qoraxoniylar
qori
qorin
qorincha
qorinning
qorli
qorni
qorong
qorovul
qoshida
qoshidagi
qoshiq
qosim
qosimov
qotadi
qotar
qotdi
qotgan
qotib
qotil
qotilgan
qotili
qotillar
qotillik
qotilliklar
qotish
qotishga
qotishi
qotishlar
qotishlarga
qotishlari
qotishma
qotishmalar
qotishmalari
qovog
qovoq
qovun
qovuq
qovurg
qovuriladi
qovurilgan
qovurish
qoya
qoyalar
qoyali
qoyatosh
qoyil
qozi
qoziq
qozog
qozon
qozona
qozonadi
qozonda
qozondi
qozonga
qozongan
qozonganida
qozonganidan
qozonib
qozonilgan
qozonish
qozonishda
qozonishdi
qozonishga
qozonishgan
qozonishi
qozonishiga
qozonning
qozoq
qozoqcha
qozoqlar
qozoqlarning
qpr
qqa
qqi
qqiga
qqilar
qqilari
qqisi
qqisida
qqisiga
qqiz
qqizinchi
qqizta
qr
qrim
qrimda
qrimdagi
qrimga
qrimning
qs
qson
qu
qua
quad
qualcomm
quality
quang
quarter
quarterly
quattro
quddus
quddusdagi
quddusga
qudrat
qudrati
qudratini
qudratli
qudug
quduq
que
quebec
queen
queens
quentin
quest
questions
quimby
quinn
qul
qulab
quladi
qulagan
qulagandan
qulaganidan
qulashi
qulashiga
qulay
qulayligi
qulaylik
qulayliklar
qulayroq
quldorlik
qulflar
quli
qulladi
qullagan
qullandi
qullangan
qullar
qullash
qullik
qullikka
qulog
quloq
quloqlari
quloqqa
qulupnay
qum
qumli
qumtosh
qunduz
qur
qura
quradi
qurama
quran
quraysh
qurbaqa
qurbaqalar
qurbon
qurbongoh
qurboni
qurbonlar
qurbonlari
qurbonlariga
qurbonlarini
qurbonlarning
qurbonlik
qurbonov
qurdi
qurdilar
qurdirdi
qurdirgan
qurg
qurgan
qurib
qurila
quriladi
quriladigan
qurilayotgan
qurildi
qurilgan
qurilib
qurilish
qurilishda
qurilishi
qurilishida
qurilishiga
qurilishini
qurilishining
qurilishni
qurilishning
qurilma
qurilmaga
qurilmalar
qurilmalarda
qurilmalardan
qurilmalarga
qurilmalari
qurilmalarida
qurilmalarini
qurilmalarni
qurilmalarning
qurilmani
qurilmaning
qurilmasi
qurilmoqda
qurish
qurishda
qurishdan
qurishdi
qurishga
qurishgan
qurishi
qurishni
qurishning
quritiladi
quritilgan
quritish
quriydi
qurol
quroli
quroliga
qurolini
qurollangan
qurollanish
qurollar
qurollardan
qurollari
qurollarini
qurollarni
qurollarning
qurolli
qurolni
qurolsizlanish
qurshab
qurt
qurti
qurtlar
qurtlari
qurultoy
qurultoyda
qurultoyi
qurultoyida
quruq
quruqlik
quruqlikda
quruqlikdagi
quruqlikka
quruvchi
quruvchilar
qush
qushi
qushlar
qushlardan
qushlari
qushlarni
qushlarning
qusish
qutb
qutbli
quti
qutilar
qutilari
qutisi
qutisiga
qutlug
qutqaradi
qutqarib
qutqarish
qutqarishga
qutqaruv
qutqaruvchi
qutulib
qutulish
quv
quva
quvayt
quvchi
quvchiga
quvchilar
quvchilarga
quvchilari
quvchilariga
quvchilarining
quvchilarni
quvchilarning
quvchilik
quvchining
quvchisi
quvg
quvib
quvnoq
quvonch
quvur
quvuri
quvurlar
quvurlari
quvvat
quvvatga
quvvati
quvvatiga
quvvatini
quvvatlab
quvvatladi
quvvatladilar
quvvatlagan
quvvatlagani
quvvatlanadi
quvvatlanadigan
quvvatlandi
quvvatlangan
quvvatlash
quvvatlashda
quvvatlashga
quvvatlashi
quvvatlashini
quvvatlashni
quvvatlaydi
quvvatlaydigan
quvvatli
quvvatlovchi
quvvatni
quyi
quyib
quyida
quyidagi
quyidagicha
quyidagilar
quyidagilardan
quyidagilardir
quyidagilarga
quyidagilarni
quyiladi
quyiladigan
quyilgan
quyilish
quyilishi
quyish
quyma
quyon
quyonlar
quyosh
quyoshda
quyoshdan
quyoshga
quyoshli
quyoshni
quyoshning
quyruq
quyuq
qwest
r
ra
rab
rabot
raboti
race
rachel
racing
rad
rada
radar
radi
radial
radiatsion
radiatsiya
radigan
radikal
radilar
radio
radioaktiv
radioda
radioelektronika
radioeshittirish
radioeshittirishi
radiosi
radiosida
radiosining
radiotexnika
radioto
radius
radiusi
raf
rafael
rafiqasi
rag
ragan
raganida
rahbar
rahbari
rahbariga
rahbarining
rahbariyat
rahbariyati
rahbariyatiga
rahbariyatini
rahbariyatining
rahbarlar
rahbarlari
rahbarlaridan
rahbarlariga
rahbarlarini
rahbarlarining
rahbarligi
rahbarligida
rahbarligidagi
rahbarlik
rahim
rahimov
rahimxon
rahm
rahman
rahmat
rahmon
rahmonov
rai
rail
railway
rain
rainbow
rais
raisi
raisining
raislari
raislik
raj
raja
rajab
rajabiy
rajabov
rak
raketa
raketaga
raketalar
raketalari
raketalarni
raketaning
raketasi
raketka
raketkasi
raki
rakuten
raladi
ralf
ralgan
ralganda
ralib
ralli
ralph
ram
rama
raman
ramazon
ramen
rami
ramiz
ramka
ramkasi
ramon
ramos
ramsey
ramz
ramzi
ramzidir
ramziga
ramziy
ramzlar
ramzlari
ran
rana
rand
randolph
random
rang
rangda
rangdagi
rangdan
rangdor
range
ranger
rangers
rangga
ranggacha
rangi
rangiga
rangini
ranglar
ranglarda
ranglardan
ranglari
ranglarini
ranglarni
ranglarning
rangli
rangni
rangning
rangsiz
rangtasvir
rani
raning
raniya
rankings
rao
rap
rapid
rapids
raptors
raqam
raqamda
raqamga
raqami
raqamiga
raqamini
raqamlar
raqamlari
raqamlarni
raqamli
raqamni
raqib
raqibga
raqibi
raqibini
raqiblar
raqiblari
raqiblariga
raqiblarini
raqibni
raqibning
raqo
raqobat
raqobatbardosh
raqobatchi
raqobatchilar
raqobatdosh
raqobatga
raqobati
raqobatlasha
raqobatlashadi
raqobatlashdi
raqobatni
raqqos
raqqosa
raqqosalar
raqqosasi
raqqosi
raqs
raqsga
raqsi
raqslar
raqslari
rar
rardi
ras
rasadxona
rasadxonasi
rash
rashdi
rashga
rashid
rashidov
rasht
rasm
rasman
rasmda
rasmga
rasmi
rasmini
rasmiy
rasmiylar
rasmiylari
rasmlar
rasmlari
rasmlarida
rasmlarini
rasmlarni
rasmni
rasmning
rassell
rassom
rassomi
rassomlar
rassomlari
rassomlarning
rassomlik
rassomning
rasul
rasulov
rasululloh
rat
ratifikatsiya
ration
ratsek
ratsional
rauf
raul
raund
raundda
raunddagi
raunddan
raunddayoq
raundga
raundida
raundiga
raundlik
raven
ravi
ravishda
ravnaq
ravon
ravonligi
ravonlik
ravonlikdan
ravonlikka
ravonlikni
ravonlikning
ravoq
ravoqli
ravshan
ravvin
raw
ray
rayan
raydi
rayev
rayhon
raymond
rayo
rayon
rayoni
rayonining
rayonlarda
rayonlari
rayonlashtirish
rayotgan
rays
rayt
raytheon
razvedka
razvedkasi
razvitiya
rb
rbc
rboshi
rc
rca
rcd
rchi
rd
rda
rdak
rde
rdens
rdi
rdilar
rdim
rdoba
re
reabilitatsiya
read
reader
reading
ready
reagan
reaksiya
reaksiyaga
reaksiyalar
reaksiyalari
reaksiyani
reaksiyasi
reaksiyasini
reaktiv
reaktor
real
realistik
realiti
reality
realizm
reallik
realniy
reanimatsiya
rear
rebecca
rebekka
rebound
rebrending
rech
record
records
red
redaktor
reding
redir
reebok
reed
reestri
reestriga
ref
reference
referendum
referendumda
reform
reg
regbi
regent
regenti
reggio
regina
region
regional
regions
register
registon
registration
reid
reign
reina
rej
reja
rejaga
rejalar
rejalari
rejalariga
rejalarini
rejalashtirayotganini
rejalashtirgan
rejalashtirilgan
rejalashtirish
rejalashtirmoqda
rejali
rejani
rejasi
rejasida
rejasiga
rejasini
rejasining
rejim
rejimda
rejimga
rejimi
rejimida
rejimiga
rejimini
rejimining
rejissor
rejissori
rejissorlar
rejissorlari
rejissorlik
rejissyor
rejissyori
rejissyorlar
rejissyorligidagi
rejissyorlik
reklama
reklamalar
reklamalarda
reklamalarida
reklamasi
reklamasida
rekonstruksiya
rekord
rekordchi
rekordchisi
rekordga
rekordi
rekordiga
rekordini
rekordlar
rekordlari
rekordlarini
rekordni
rektor
rektori
related
relations
release
religion
religious
reliz
relizi
relyef
relyefi
rembrandt
remeyki
remiks
remix
ren
renaissance
renato
renault
rendsburg
rene
renn
rennes
reno
rentgen
rep
reper
reperlar
repertuar
repertuaridan
repin
report
reportaj
reporter
reports
repper
reproduktiv
republic
required
res
research
resolution
resort
resources
respirator
respublika
respublikachi
respublikachilar
respublikada
respublikadagi
respublikaga
respublikalar
respublikalari
respublikaning
respublikasi
respublikasida
respublikasidagi
respublikasidan
respublikasiga
respublikasini
respublikasining
respubliki
restavratsiya
restavratsiyasidan
restoran
restorani
restoranlar
restoranlari
results
resurs
resurslar
resurslardan
resurslarga
resurslari
resurslaridan
resurslarini
resurslarni
ret
retina
retrieved
retsept
retsepti
retseptlar
retseptor
retseptorlar
retseptorlari
rett
return
returns
reus
reuters
rev
revansh
review
reviews
revised
revival
revmatoid
revolution
revue
rex
rey
reychel
reyd
reyes
reygan
reyn
reynjers
reynolds
reys
reysi
reyslar
reyslarni
reyting
reytingda
reytingga
reytingi
reytingida
reytingidagi
reytingiga
reytingini
reytingining
reytinglar
reytinglari
reyx
rez
rezavor
rezavorlar
rezident
rezidenti
rezina
rezolyutsiya
rezolyutsiyasi
rezonans
rf
rfaz
rfazi
rfazida
rfazidagi
rfaziga
rfazining
rg
rga
rgan
rgana
rganadi
rganadigan
rganadilar
rgandi
rgangan
rgani
rganib
rganidan
rganiladi
rganilayotgan
rganildi
rganilgan
rganilishi
rganilmagan
rganini
rganish
rganishda
rganishdan
rganishga
rganishi
rganishni
rganishning
rganuvchi
rgatadi
rgatdi
rgatgan
rgatilgan
rgatish
rgazma
rgazmada
rgazmaga
rgazmalar
rgazmalarda
rgazmalari
rgazmali
rgazmasi
rgazmasida
rgazmasini
rgb
rgimchak
rh
rhein
rheinland
rhin
rho
ri
ria
rib
ribaund
ribaundga
ribaundni
riberi
ric
rica
ricardo
rice
rich
richard
richards
richardson
richmond
rick
ricky
rico
rid
rida
ridagi
ridan
ride
rider
ridge
ridley
rie
rif
rifat
rifatparvar
rifatparvarlik
rifi
rifiga
rifiy
riflab
rifladi
riflagan
riflanadi
riflangan
riflar
riflari
riflash
riflaydi
rig
riga
rigan
right
rights
rigondo
rigueux
rijeka
rik
rika
rikaga
rikalik
rikardo
rikdan
rikenglik
riki
riko
rikolik
rikoning
riladi
rilar
rilash
rildi
riley
rilgan
rilganda
riligi
riligini
rilik
rilishi
rilmagan
rim
rimda
rimdagi
rimga
rimlashtirilgan
rimliklar
rimning
rin
rinadi
rinadigan
rinbosar
rinbosari
rinbosarlar
rinbosarlari
rinchisi
rinda
rindagi
rindan
rindi
rindig
rindiq
rindiqlar
rindiqlari
rindiqli
ring
ringa
ringan
ringga
rini
rinib
rining
rinish
rinishda
rinishdagi
rinishga
rinishi
rinishida
rinishidagi
rinishidan
rinishiga
rinishini
rinishlar
rinishlari
rinishni
rinlar
rinlarda
rinlari
rinlarini
rinlarni
rinli
rinmas
rinmaydi
rinni
rio
rioja
riom
rios
rioya
riq
riqchi
riqchilar
riqchilari
riqchisi
riqlanadigan
riqlar
riqlash
riqli
riqni
riqxona
riqxonasi
ris
rise
rish
rishadi
rishda
rishdi
rishga
rishgan
rishi
rishimiz
rishingiz
rishini
rishlari
rishni
rishning
rishton
risi
risida
risidagi
rising
risk
risola
risolalar
risolasi
rit
rita
ritm
ritmik
ritsar
ritsarlar
ritsarlari
ritsarlik
ritter
rivaldo
river
rivera
rivers
riverside
rivoj
rivoji
rivojida
rivojiga
rivojlana
rivojlanadi
rivojlanayotgan
rivojlandi
rivojlangan
rivojlanib
rivojlanish
rivojlanishda
rivojlanishga
rivojlanishi
rivojlanishida
rivojlanishidagi
rivojlanishiga
rivojlanishini
rivojlanishining
rivojlanishni
rivojlanishning
rivojlanmagan
rivojlanmoqda
rivojlantiradi
rivojlantirdi
rivojlantirgan
rivojlantirish
rivojlantirishda
rivojlantirishdagi
rivojlantirishga
rivojlantirishni
rivojlantirishning
rivoyat
rivoyatlar
rivoyatlarga
riy
riyat
riyati
riyatida
riyatining
riydi
riyod
rize
rizo
rj
rjev
rk
rkc
rkiye
rl
rlangan
rlar
rlari
rlarida
rlaridan
rlariga
rlarini
rlash
rligi
rligida
rlik
rm
rmadi
rmagan
rmon
rmonda
rmoni
rmonlar
rmonlarda
rmonlari
rmonlarida
rmonlarni
rmonlarning
rmonli
rn
rnak
rnashgan
rnashib
rnatadi
rnatdi
rnatdilar
rnatgan
rnatib
rnatiladi
rnatiladigan
rnatildi
rnatilgan
rnatilgandan
rnatilishi
rnatish
rnatishda
rnatishga
rnatishni
rnberg
rni
rnida
rnidan
rniga
rning
rnini
rnk
ro
road
roadda
roar
rob
robbi
robert
roberta
roberto
roberts
robertson
robin
robinhood
robinson
robot
robotlar
robototexnika
robson
rochdale
roche
rochester
rock
rocket
rockets
rocky
rod
roda
rodney
rodos
rodri
rodriges
rodrigo
rodriguez
rog
roger
rogers
rohib
rohiblar
roi
rojdestvo
rojer
rojers
rok
rokfeller
rokki
rol
rolan
roland
rolar
rolda
roldagi
role
rolga
roli
rolida
rolidagi
rolidan
roliga
roliklarida
rolini
roll
rollar
rollarda
rollardan
rollari
rollarida
rollarini
rollarni
rolling
rolls
rolni
rom
roma
romagna
roman
romance
romanda
romanesk
romani
romanida
romaniga
romanini
romanining
romanizatsiya
romanlar
romanlari
romanlarida
romanlashtirilgan
romanni
romanning
romano
romanoff
romantik
romantika
romantizm
rome
romeo
romero
romitan
rommel
ron
rona
ronald
ronaldino
ronaldo
roni
ronlar
ronne
ronni
rookie
room
root
roots
roppa
roq
ros
rosa
rosario
rose
rosenga
roshan
rosi
roskosmos
ross
rossi
rossii
rossiya
rossiyada
rossiyadagi
rossiyadan
rossiyaga
rossiyalik
rossiyani
rossiyaning
rossiyasi
rossiyskaya
rossiyskoy
rost
rostov
rot
rotherham
rotor
rotten
rotterdam
round
routledge
rouz
rov
rovda
rover
rovers
roversga
rovi
roviga
rovlar
rovnoma
row
rowe
roy
royal
royals
royce
roz
roza
rozi
roziligi
roziligini
roziligisiz
rozilik
roziy
rp
rpa
rpg
rpm
rqib
rqinchli
rqish
rqitish
rquv
rquvi
rr
rs
rsa
rsata
rsatadi
rsatadigan
rsatadiki
rsatayotgan
rsatdi
rsatdiki
rsatdilar
rsatgan
rsatgani
rsatib
rsatiladi
rsatiladigan
rsatildi
rsatilgan
rsatilganidek
rsatilishi
rsatilmagan
rsatish
rsatishda
rsatishdi
rsatishga
rsatishi
rsatishini
rsatishni
rsatishning
rsatkich
rsatkichdan
rsatkichdir
rsatkichga
rsatkichi
rsatkichidan
rsatkichiga
rsatkichini
rsatkichlar
rsatkichlardan
rsatkichlarga
rsatkichlari
rsatkichlariga
rsatkichlarini
rsatkichlarni
rsatkichni
rsatma
rsatmadi
rsatmalar
rsatmalari
rsatmalariga
rsatmasi
rsatmaydi
rsatmoqda
rsatuv
rsatuvchi
rsatuvi
rsatuvida
rsatuvining
rsatuvlar
rsatuvlarda
rsatuvlari
rsfsr
rsiq
rsssf
rt
rta
rtacha
rtada
rtaga
rtalari
rtalarida
rtalaridan
rtalariga
rtalarigacha
rtan
rtasi
rtasida
rtasidagi
rtasidan
rtasiga
rtayer
rtburchak
rtburchaklar
rtdan
rth
rtib
rtinchi
rtinchisi
rtko
rtlamchi
rtlik
rtma
rtog
rtoq
rtoqlari
rtoqlik
rtta
rttasi
rttemberg
ru
ruanda
ruben
rubin
rubio
rubl
rublni
ruboiy
ruby
ruda
rudalar
rudalari
rudali
rudasi
rudi
rudolf
rue
ruf
ruh
ruhi
ruhida
ruhidagi
ruhiga
ruhini
ruhiy
ruhlar
ruhning
ruhoniy
ruhoniylar
ruhoniylari
ruhoniysi
rui
rul
rulda
rule
rules
rulsch
rum
rumin
ruminiya
ruminiyada
ruminiyaga
ruminiyalik
ruminiyaning
ruminlar
rumiy
run
runner
running
rupert
ruq
ruqdan
rur
rural
rus
ruscha
rush
ruslan
ruslar
ruslarning
russell
russia
russian
russkiy
russo
rustam
rustamov
rusumli
rut
rutgers
ruth
ruto
ruvchi
ruwiki
rux
ruxsat
ruxsati
ruxsatisiz
ruxsatnoma
ruxsatsiz
ruza
ruzachi
ruzalar
ruzalari
ruzvelt
rva
rvasi
rx
rxok
ry
ryan
ryazan
rı
rəvan
s
sa
saab
saad
saale
sab
saba
sabab
sababchi
sababdan
sababga
sababi
sababini
sabablar
sabablarga
sabablari
sabablaridan
sabablarini
sababli
sabah
sabers
sabha
sabina
sabonis
saboq
saboqlari
saboqlarini
sabr
sabres
sabri
sabzavot
sabzavotchilik
sabzavotlar
sabzavotli
sabzi
sachs
sacramento
sacred
sad
sadd
saddam
sadi
sadigan
sado
sadoqat
sadosi
sadr
sadri
sadriddin
safar
safarbar
safarbarlik
safarda
safardagi
safarga
safari
safarida
safariga
safarini
safarov
safaviy
safaviylar
safdan
safety
saff
safga
safi
safida
safidagi
safidan
safiga
safina
safro
sag
saga
sage
sagittarius
sagu
sahifa
sahifada
sahifadan
sahifalar
sahifalari
sahifalarida
sahifali
sahifasi
sahifasida
sahifasiga
sahih
sahna
sahnada
sahnadagi
sahnaga
sahnalar
sahnalari
sahnalarida
sahnalarni
sahnalashtirgan
sahnalashtirildi
sahnalashtirilgan
sahnani
sahnasi
sahnasida
sahobalar
sahro
sahroi
sai
saic
said
saida
saidov
saint
sainte
saints
saitama
sajda
sak
sakata
sake
sakho
sakkiz
sakkizinchi
sakkizlik
sakkizta
saklangan
saklar
saklash
sakrab
sakramento
sakrash
sakrashda
sakrashni
saks
sakson
saksoniya
saksovul
sakura
sal
sala
salama
salamanca
salat
salavat
salavkiylar
salbiy
sale
salem
salerno
sales
salib
salibchilar
salim
salins
saljuqiy
saljuqiylar
salkam
sallivan
sally
salmog
salmon
salmoqli
salohiddin
salohiyati
salohiyatini
salom
salomatligi
salomatligiga
salomatligini
salomatlik
salon
saloniki
salqin
salt
saltanat
saltanati
salvador
salvatore
salzburg
sam
samad
samanta
samantha
samara
samaradorligi
samaradorligini
samaradorlik
samaradorlikni
samarali
samaraliroq
samarasini
samarasiz
samarkand
samarqand
samarqandda
samarqanddagi
samarqandga
samarqandiy
samarqandni
samarqandning
sambo
same
sami
samimiy
sammit
sammitda
sammiti
sammitida
samoa
samolyot
samolyotda
samolyotdan
samolyotga
samolyoti
samolyotida
samolyotini
samolyotining
samolyotlar
samolyotlarda
samolyotlari
samolyotlarida
samolyotlarini
samolyotlarni
samolyotlarning
samolyotni
samolyotning
samoviy
sampdoria
sampdoriya
sampras
samsun
samsung
samuel
samuray
san
sana
sanab
sanada
sanaladi
sanalar
sanalari
sanalgan
sanasi
sanasida
sanasini
sanatoriy
sanches
sand
sanderlend
sanders
sandra
sandro
sandy
sang
sanitariya
sanjar
sanjay
sanksiyalar
sankt
sano
sanoat
sanoatda
sanoati
sanoatida
sanoatidagi
sanoatiga
sanoatini
sanoatining
sanoatlari
sanoatni
sanoatning
sanoq
sanoqli
sanoqsiz
sanskrit
sant
santa
santander
santiago
santimetr
santo
santos
santyago
sanyo
sao
saodat
saprissa
saqlab
saqlagan
saqlanadi
saqlanadigan
saqlanayotgan
saqlangan
saqlanib
saqlanish
saqlanishi
saqlanmagan
saqlanmoqda
saqlash
saqlashda
saqlashga
saqlashi
saqlashni
saqlaydi
saqlaydigan
saqlovchi
sar
sara
saragosa
sarah
saralangan
saralash
saralashda
saralashdan
saralashi
saralashida
saralashining
saralashning
sarasvati
saraton
saratoni
saratonidan
saratov
sarayevo
sardiniya
sardoba
sardor
sardori
sardorlik
sarf
sarfi
sarfini
sarfladi
sarflagan
sarflanadi
sarflandi
sarflangan
sarflaydi
sarg
sarguzasht
sarguzashtlari
sari
sarig
sarimsoq
sariosiyo
sariq
sariqlik
sariyog
sarkarda
sarkardasi
sarlavha
sarlavhalar
sarlavhali
sarlavhasi
sarmoya
sarmoyasi
saroy
saroyda
saroydagi
saroyga
saroyi
saroyida
saroyidagi
saroyiga
saroyini
saroyining
saroylar
saroylari
saroyni
saroyning
sars
sartarosh
sas
sasha
saskachevan
sasseks
sassuolo
sat
satdan
satellite
sathi
sathidan
sathining
satira
satirik
sato
satr
saturday
saturn
saud
saudi
saudiya
saunders
saundtrek
saundtreki
saunier
sautgempton
sav
savage
savanna
savat
savdo
savdoda
savdoga
savdogar
savdogarlar
savdogarlari
savdoni
savdoning
savdosi
savdosida
savdosiga
savdosini
savdosining
save
saverne
saviyada
savodli
savodsiz
savodxonligi
savodxonlik
savoie
savol
savolga
savollar
savollarga
savollarni
saxa
saxalin
say
sayd
sayid
sayin
saylanadi
saylanadigan
saylandi
saylangan
saylanganidan
saylanish
saylanishi
saylanma
saylash
saylov
saylovchilar
saylovchilarning
saylovda
saylovdan
saylovi
saylovida
saylovlar
saylovlarda
saylovlardan
saylovlari
saylovlarida
saylovlarni
saylovoldi
saymon
sayohat
sayohatchi
sayohatchilar
sayohatga
sayohati
sayohatini
sayohatlar
sayohatlari
sayohatni
sayotgan
sayoz
sayqallangan
sayr
sayram
says
sayt
saytda
sayte
saytga
sayti
saytida
saytidagi
saytidan
saytiga
saytini
saytining
saytlar
saytlari
saytlarni
saytni
saytning
sayyid
sayyoh
sayyohi
sayyohlar
sayyohlarni
sayyohlarning
sayyohlik
sayyor
sayyora
sayyoralar
sayyoralararo
sayyoralarning
sayyoraning
sayyorasi
sayyoraviy
sazovor
sazovordir
sb
sba
sbab
sbb
sbbc
sbc
sbornik
sbs
sc
scale
scarlet
scene
schalke
schleswig
schmidt
scho
scholar
school
schools
sci
science
sciences
scientific
score
scotland
scott
scottish
screen
scunthorpe
sd
sdi
se
sea
seal
sean
search
sears
season
seat
seattle
sebastian
sebastyan
sec
second
secret
secretary
section
security
sedan
sedani
see
sega
segment
segmenti
segmentida
segmentli
segunda
sehr
sehrgar
sehrgarlar
sehrli
seine
sek
sekin
sekinlik
sekinroq
sekretsiya
sektor
sektori
sektorida
sektoriga
sektorini
sekundiga
sel
seld
select
selected
seleksiya
seleksiyasi
selektiv
selena
self
selim
sellyuloza
selo
selta
seltik
seltiks
sem
semantik
sement
semestr
semey
seminar
seminarlar
semipalatinsk
semirib
semiz
semyon
sen
sena
senat
senatga
senati
senatiga
senatining
senatning
senator
senatori
senatorlar
senatorlari
senators
sendai
sendvich
senegal
senga
seni
sening
senior
senlis
sens
sensor
sensori
sensorlar
sensorli
sent
sentabr
sentabrda
sentabrdagi
sentabrdan
sentabrgacha
sentabrida
sentabridan
sentyabr
sentyabrda
sentyabrdan
sentyabrgacha
sentyabrida
senzura
seo
seoul
sep
sepiladi
sepsis
september
ser
serb
serbia
serbiya
serbiyada
serbiyaga
serbiyalik
serbiyaning
serblar
serena
sergeevich
sergei
sergey
sergeyevich
sergio
serhatli
serial
serialda
serialdagi
seriali
serialida
serialidagi
serialining
seriallar
seriallarda
seriallari
seriallarida
serialni
serialning
serie
series
seriya
seriyada
seriyadagi
seriyaga
seriyalar
seriyalari
seriyali
seriyani
seriyaning
seriyasi
seriyasida
seriyasidagi
seriyasidan
seriyasidir
seriyasiga
seriyasini
seriyasining
serjant
sermahsul
sernam
serra
sersuv
sertifikat
sertifikati
sertifikatiga
sertifikatini
sertifikatlangan
sertifikatlash
server
serverlari
service
services
servis
serxio
seryog
seshanba
sesil
sessiya
sessiyasi
sessiyasida
set
setda
seth
setlarda
setlik
setni
seton
settlement
settlers
seul
seulda
seung
sevaman
sevan
sevastopol
seven
sevgan
sevgi
sevgilisi
sevgisi
sevib
sevilla
sevilya
sevimli
sevimlisi
sevishganlar
sex
sexi
sexton
seylon
seyshel
seysmik
seyv
sezadi
sezar
sezgi
sezgir
sezgirligi
sezgirlik
seziladi
sezilarli
sezish
sezuvchanlik
sezuvchi
sf
sferik
sg
sgan
sgh
sh
sha
shaarawy
shadi
shadigan
shadow
shaffof
shafqat
shafqatsiz
shafqatsizlarcha
shafqatsizlik
shaftoli
shag
shah
shahar
shaharcha
shaharchada
shaharchadir
shaharchaga
shaharchalar
shaharchasi
shaharchasida
shaharda
shahardagi
shahardan
shahardir
shaharga
shahariga
shaharlar
shaharlararo
shaharlarda
shaharlardagi
shaharlardan
shaharlarga
shaharlari
shaharlarida
shaharlaridagi
shaharlaridan
shaharlariga
shaharlarini
shaharlarining
shaharlarni
shaharlarning
shaharliklar
shaharni
shaharning
shaharsozlik
shahid
shahidlar
shahr
shahri
shahrida
shahridagi
shahridan
shahriga
shahrigacha
shahrik
shahrini
shahrining
shahrisabz
shahriston
shahrixon
shahsiy
shahzoda
shahzodalar
shahzodaning
shahzodasi
shajarasi
shak
shakar
shakarqamish
shakespeare
shakhtar
shaki
shakl
shaklda
shakldagi
shaklga
shakli
shaklida
shaklidagi
shaklidan
shaklidir
shakliga
shaklini
shaklining
shakllana
shakllanadi
shakllandi
shakllangan
shakllanib
shakllanish
shakllanishi
shakllanishida
shakllanishiga
shakllanishini
shakllantiradi
shakllantirdi
shakllantirgan
shakllantirilgan
shakllantirish
shakllantirishda
shakllantirishga
shakllar
shakllarda
shakllarga
shakllari
shakllarida
shakllaridan
shakllariga
shakllarini
shakllarining
shakllarni
shakllarning
shaklli
shaklni
shalke
shaloq
sham
shamol
shamoli
shamollar
shamollatish
shampan
shams
shamsiddin
shan
shanba
shanda
shandan
shandong
shang
shanghai
shankar
shannon
shanxay
shanxayda
shao
shar
sharaf
sharafi
sharafiga
sharafini
sharafli
sharbat
sharbati
sharda
share
sharh
sharhi
sharhida
sharhlar
sharhlarga
sharhlari
sharhlarni
sharhlovchi
sharhlovchilar
sharhlovchisi
shari
shariat
sharif
sharifi
sharipov
shark
sharkda
sharks
sharl
sharlotta
sharma
sharmanda
sharning
sharob
sharof
sharoit
sharoitda
sharoitga
sharoiti
sharoitida
sharoitiga
sharoitlar
sharoitlarda
sharoitlarga
sharoitlari
sharoitlarida
sharoitlariga
sharoitlarini
sharoitlarni
sharon
sharp
sharq
sharqda
sharqdagi
sharqdan
sharqi
sharqida
sharqidagi
sharqiy
sharqning
sharqona
sharqqa
sharqshunos
sharqshunoslar
sharqshunoslik
sharshara
[...]
