!
"
#
##0
##1
##10
##11
##12
##13
##14
##15
##16
##17
##18
##19
##2
##20
##21
##22
##23
##24
##25
##26
##27
##28
##29
##3
##30
##31
##32
##33
##34
##35
##36
##37
##38
##39
##4
##40
##41
##42
##43
##44
##45
##46
##47
##48
##49
##5
##50
##51
##52
##53
##54
##55
##56
##57
##58
##59
##6
##60
##61
##62
##63
##64
##65
##66
##67
##68
##69
##7
##70
##71
##72
##73
##74
##75
##76
##77
##78
##79
##8
##80
##81
##82
##83
##84
##85
##86
##87
##88
##89
##9
##90
##91
##92
##93
##94
##95
##96
##97
##98
##99
$
%
&
'
(
)
*
+
,
-
.
/
0
00
000
001
002
003
01
02
03
032332
038710
04
05
06
07
08
09
0956
1
10
100
1000
10000
100000
1001
1006
1007
1009
101
1015
1016
1018
102
1020
1024
1025
103
1030
1034
104
1048
1049
105
1054
1055
106
1068
107
1070
1071
1072
1074
1077
1078
108
1080
1081
109
1090
1092
1095
1097
1099
11
110
1100
1102
1106
111
1113
1116
112
1120
1123
1127
113
1130
1132
114
1141
1142
1147
115
1150
1154
1155
1156
116
1167
117
1170
1178
118
1180
1185
119
1190
1192
12
120
1200
1201
1204
1206
1207
1209
121
1210
1212
122
1220
1224
1227
1229
123
1230
1234
1235
1236
1238
124
1240
1241
1242
1248
125
1250
1254
1257
126
1260
1265
1266
127
1270
1271
1272
128
1280
1282
1284
129
1290
1291
1293
13
130
1300
1308
131
1310
1313
132
1320
1325
1328
133
1330
1331
1332
1336
1337
134
1340
1341
1342
1343
1346
1347
1348
135
1350
1357
1358
1359
136
1360
1361
1363
1365
1367
1368
1369
137
1370
1372
1373
1374
1375
1377
138
1380
1382
1385
1386
1389
139
1390
1395
1399
14
140
1400
1402
1403
1404
1405
1406
1407
1408
141
1410
1411
1414
1415
1419
142
1420
1428
1429
143
1430
1431
144
1440
145
1450
1453
146
1460
1462
1466
1468
1469
147
1470
1471
148
1480
149
1490
1491
1492
1493
1494
1495
1497
1499
15
150
1500
1501
1502
1504
1506
1509
151
1510
1512
1514
1516
1517
1519
152
1520
1521
1523
1525
1527
153
1530
1533
1534
154
1540
1545
1547
155
1550
1552
1556
1558
156
1560
1562
1563
1564
1566
1568
1569
157
1570
1571
1572
158
1580
1581
1582
1583
1584
1585
1586
1587
1589
159
1590
1592
1594
1596
1597
1598
1599
16
160
1600
1601
1603
1604
1605
1606
1607
161
1610
1612
1613
1616
1618
1619
162
1620
1622
1626
1627
163
1630
1631
1632
1633
1634
1635
1636
1638
164
1640
1641
1642
1643
1644
1645
1646
1648
1649
165
1650
1651
1652
1653
1654
1655
1657
166
1660
1661
1665
1667
167
1670
1672
1673
1675
1676
1678
168
1680
1681
1682
1683
1687
1689
169
1690
1692
1693
1694
1695
1696
1697
1698
1699
17
170
1700
1701
1703
1704
1705
1706
1707
1708
1709
171
1710
1711
1712
1714
1716
1718
1719
172
1720
1721
1722
1723
1724
1725
1726
1727
1728
173
1730
1731
1732
1733
1736
1737
1739
174
1740
1741
1742
1743
1744
1745
1746
1748
1749
175
1750
1752
1753
1754
1755
1756
1757
1758
1759
176
1760
1762
1763
1764
1765
1766
1768
1769
177
1770
1771
1772
1773
1774
1775
1776
1777
1778
1779
178
1780
1781
1782
1783
1784
1785
1786
1787
1788
1789
179
1790
1791
1792
1793
1794
1795
1796
1797
1798
1799
18
180
1800
1801
1802
1803
1804
1805
1806
1807
1808
1809
181
1810
1811
1812
1813
1814
1815
1816
1817
1818
1819
182
1820
1821
1822
1823
1824
1825
1826
1827
1828
1829
183
1830
1831
1832
1833
1834
1835
1836
1837
1838
1839
184
1840
1841
1842
1843
1844
1845
1846
1847
1848
1849
185
1850
1851
1852
1853
1854
1855
1856
1857
1858
1859
186
1860
1861
1862
1863
1864
1865
1866
1867
1868
1869
187
1870
1871
1872
1873
1874
1875
1876
1877
1878
1879
188
1880
1881
1882
1883
1884
1885
1886
1887
1888
1889
189
1890
1891
1892
1893
1894
1895
1896
1897
1898
1899
19
190
1900
1901
1902
1903
1904
1905
1906
1907
1908
1909
191
1910
1911
1912
1913
1914
1915
1916
1917
1918
1919
192
1920
1921
1922
1923
1924
1925
1926
1927
1928
1929
193
1930
1931
1932
1933
1934
1935
1936
1937
1938
1939
194
1940
1941
1942
1943
1944
1945
1946
1947
1948
1949
195
1950
1951
1952
1953
1954
1955
1956
1957
1958
1959
196
1960
1961
1962
1963
1964
1965
1966
1967
1968
1969
197
1970
1971
1972
1973
1974
1975
1976
1977
1978
1979
198
1980
1981
1982
1983
1984
1985
1986
1987
1988
1989
199
1990
1991
1992
1993
1994
1995
1996
1997
1998
1999
2
20
200
2000
20000
2001
2002
2003
2004
2005
2006
2007
2008
2009
201
2010
2011
2012
2013
2014
2015
2016
2017
2018
2019
202
2020
2021
2022
2023
203
2030
204
205
2050
206
207
208
2088
209
21
210
2100
211
212
213
214
215
216
217
218
219
22
220
2200
221
222
223
224
225
226
227
228
229
23
230
231
232
233
234
235
236
237
238
239
24
240
2400
241
242
243
244
245
246
247
248
249
25
250
2500
251
252
253
254
255
256
257
258
259
26
260
261
262
263
264
265
266
267
268
269
2696
27
270
271
272
273
274
275
276
277
278
279
28
280
2800
281
282
283
284
285
286
287
288
289
29
290
291
292
293
294
2947
295
296
297
298
299
3
30
300
3000
301
302
303
304
305
306
307
308
309
31
310
311
312
313
314
315
316
317
318
319
32
320
321
322
323
324
325
326
327
328
329
33
330
331
332
333
334
335
336
337
338
339
34
340
341
342
343
344
345
346
347
348
349
35
350
3500
351
3514
352
353
354
355
356
357
358
359
36
360
361
362
363
364
365
366
367
368
369
37
370
371
372
373
374
375
376
377
378
379
38
380
381
382
383
384
385
386
387
388
389
39
390
391
392
393
394
395
396
397
398
399
4
40
400
4000
401
402
403
404
405
406
407
408
409
41
410
411
412
413
414
415
416
417
418
419
42
420
421
422
423
424
425
426
427
428
429
43
430
431
432
433
434
435
436
437
438
439
44
440
441
442
443
444
445
446
447
448
449
45
450
4500
451
452
453
454
455
456
457
458
459
46
460
461
462
463
464
465
466
467
468
469
47
470
471
472
473
474
475
476
477
478
479
48
480
481
482
483
484
485
486
487
488
489
49
490
491
492
493
494
495
496
497
498
499
5
50
500
5000
501
502
503
504
505
506
507
508
509
51
510
511
512
513
514
515
516
517
518
519
52
520
521
522
523
524
525
526
527
528
529
53
530
531
532
533
534
535
536
537
538
539
54
540
541
542
543
544
545
546
547
548
549
55
550
551
552
553
554
555
556
557
558
559
56
560
561
562
563
564
565
566
567
569
57
570
571
574
575
576
577
578
579
58
580
581
582
583
584
585
586
587
588
589
59
590
591
592
593
594
595
596
597
598
599
6
60
600
6000
601
602
603
604
605
606
607
61
610
611
612
613
614
616
617
618
619
62
620
621
622
623
624
625
626
627
628
629
63
630
631
632
633
634
635
636
638
639
64
640
641
642
643
645
648
649
65
650
651
652
653
657
66
660
661
6618833
664
665
666
67
670
671
673
674
675
676
677
678
679
68
680
682
683
685
687
688
69
690
691
692
693
699
7
70
700
7000
701
703
704
705
706
708
71
710
711
712
713
715
716
717
718
72
720
722
723
724
725
728
729
73
730
732
733
734
735
736
737
739
74
741
742
744
747
748
749
75
750
751
752
753
754
755
756
758
759
76
760
761
762
764
765
767
768
7696
77
770
771
772
773
774
775
776
779
78
780
781
784
785
786
7863
787
788
789
79
790
792
793
795
796
798
8
80
800
8000
801
803
804
805
81
810
812
813
814
818
819
82
821
822
83
830
833
835
839
84
840
841
843
844
847
85
850
85383
854
86
860
8601
862
864
866
87
870
872
87444
878
88
880
884
885
89
891
892
893
894
897
9
90
900
903
905
906
907
908
909
91
910
911
917
92
922
924
925
927
929
93
930
935
937
938
94
940
942
945
946
947
949
95
950
954
955
956
958
96
960
965
97
970
974
975
977
978
98
980
982
985
986
987
99
990
991
993
997
998
999
:
;
<
=
>
?
@
\
^
_
`
a
aa
aaha
aahan
aahar
aakhmedova
aan
aas
aat
aata
aattaan
aattaaq
aattanan
aattanar
aattarynan
aaty
aatyn
aatynan
ab
abaahy
abbr
abc
able
ablon
ablona
ablono
about
above
abrams
abs
abstract
ac
academia
academic
academy
access
accessdate
accessed
according
account
accounts
across
act
action
active
activity
actm
actor
actual
ad
adam
add
addclass
added
adding
addition
additional
address
administrators
admins
advance
advanced
ae
aerial
af
affect
affected
africa
african
after
ag
again
against
age
agha
aghaj
aghalan
aghalara
aghata
aghatyn
aghyjaq
agra
ah
aha
ahaan
ahatar
ahyy
ai
air
airbus
airlines
airport
aj
ajaq
ajmaq
ajyy
ak
ako
al
alaas
alaaska
alaska
alba
albert
album
aldan
alemania
alexander
alghaan
aliases
align
all
allan
allara
allmusic
allow
allows
alpha
already
als
also
alt
alta
altan
always
alys
am
amazon
ambox
america
american
amk
amma
among
ampaar
amsterdam
an
analogue
anas
ancient
and
android
ang
angaar
annjan
announced
announcement
annygar
another
anser
answer
any
anyone
ap
api
apologies
apologize
app
appearance
appendtocategory
apple
applications
apply
appropriate
april
ar
araas
arabic
araj
archive
archives
arctic
ardea
ardygar
are
area
aren
arg
arghaa
args
argsi
argument
arguments
armenia
armenian
arms
army
around
array
art
article
articles
artikel
artist
arts
aryy
as
asia
asian
ask
asp
aspx
association
ast
asv
at
ata
atagha
ataghyn
ataghynan
ataq
athens
attaaq
attr
aty
atyn
atyrdjaq
atyyr
au
audi
audio
auf
august
australia
australian
author
auto
automatic
automatically
av
available
ave
award
awards
ax
az
b
ba
baaj
baaja
baajdaaq
baajga
baallar
baallara
baar
baara
baarygar
baaryn
baattar
baatyr
babel
baby
bacca
back
background
bad
baden
badjaajy
baghajy
bahyn
bajaghantaj
bajyttyman
balaghan
ball
band
bang
bank
banner
bar
bara
barallar
baran
barannar
barar
barbyt
barda
barefoot
bary
baryta
barytyn
bas
base
based
basic
bastaan
bastyng
batahynan
batas
battle
batyhan
bay
bb
bbc
bc
bd
be
beach
beatles
because
become
been
before
begin
beginning
behalf
being
bejelere
bejete
bejetin
bekke
belarus
bell
below
ben
benz
ber
berde
bergen
berke
berlin
bert
bes
best
bet
beta
better
between
bf
bg
bi
bierbit
biereller
bieren
bierer
big
bihi
bii
biir
biirde
biirge
biiter
bilbet
bilen
biler
bili
biligi
biligin
biliginen
bilii
bill
biller
billibet
biography
bir
birth
bit
bkash
black
blackrock
blank
blanter
blocker
blog
blood
blue
bmw
bn
bo
board
body
boeing
bokuoja
bolivia
bologur
boltongo
book
books
boolean
bootur
border
boroghon
boroghonngo
boston
bot
both
bots
bottom
box
boxes
boy
br
break
bridge
brill
bring
britannica
british
broadcasting
brown
browser
brts
bruegel
bs
bu
budapest
bug
bugs
builder
building
buka
bulan
bullu
bultaan
bultuu
buol
buola
buolallar
buolallara
buolan
buolannar
buolar
buolara
buolbat
buolbut
buolbuttar
buolla
buollagha
buollaghyna
buollar
buollun
buolta
buoltar
buolun
buoluo
buqatyyr
business
but
butterfly
button
buttons
bw
bwodjoko
bwogho
bwoghos
bworo
bwotung
bwotungner
bwuluu
bwuluuge
bx
by
bydjang
byha
byhyj
byhyylaaq
byhyytynan
byjang
bylyr
bylyrgy
byraghan
byte
byyhygar
c
ca
cadillac
calendar
calendarmodel
california
call
called
cambridge
campaign
camry
can
canada
canadian
candidates
canyon
capital
caption
card
cards
case
cases
castle
cat
cate
catedral
categori
categoria
categorie
categories
category
categoryhandler
cathedral
catmore
cc
cccp
cctv
cd
cdot
cdots
ce
cell
cellpadding
census
center
centerdot
central
centralnotice
centre
century
ceo
cf
cfg
cgi
ch
cha
chain
chan
chance
change
changed
changes
changing
channel
character
characters
charles
che
check
checktype
chevrolet
chicago
child
children
chile
china
chinese
choice
choose
christchurch
church
cia
citation
citations
cite
cities
citoid
city
cke
claim
claims
class
classes
classical
clear
click
close
cm
cn
co
coat
coca
code
coin
col
cola
collapsed
collection
college
colon
color
colors
colspan
columbia
column
columns
com
come
coming
comment
comments
committee
common
commons
communities
community
compact
company
competition
complete
computer
concat
conduct
conference
configuration
conflict
cons
consider
consideration
consistent
consultation
contact
contains
content
contents
contest
context
continue
contribute
contributions
contributors
control
convert
converted
coolest
coord
coordinate
coordinates
coordinatespec
copy
copyright
corboghor
core
corona
coroonnooq
corp
corporation
corvus
cos
costa
could
count
counter
countries
country
covid
cq
create
created
creative
cristatus
crop
cropped
cross
crow
cs
css
csstext
ct
cu
cube
cultural
culture
cup
curapcy
current
currently
cursor
custom
cv
cy
cygnus
d
da
daewoo
daghany
daily
dajdy
dajdyga
dame
danaus
dance
daqqan
dark
das
data
database
dataset
datavalue
date
datein
dateofbirth
dateofdeath
datepart
david
day
dc
dd
ddots
de
dead
dear
death
dec
december
decimal
deepcopy
default
defaults
deg
degrees
del
delbi
delete
delivery
delta
den
denis
department
deployment
depression
depth
der
des
desc
description
desde
design
desihen
desktop
detail
details
deutsche
developer
developers
development
devices
di
dia
diagram
dialog
dictionary
did
die
dieki
diekitten
dien
dieni
dienner
diennge
dienten
dieri
diff
different
digital
dii
diir
dir
direction
directly
discovery
discuss
discussion
discussions
disney
display
displayed
displays
displaystyle
dissemination
distributed
district
div
dj
djadangy
djaqtar
djaqtary
dje
djie
djieghe
djieleriger
djielerin
djietiger
djietin
djon
djonngo
djonnooq
djonnor
djono
djonton
djonu
djonun
djulajan
djwuhunneeq
dm
dmitry
dms
do
doc
document
documentation
does
dog
doi
dojdu
dojduga
dojdutugar
dom
domain
dome
don
done
dos
dots
double
down
dr
draft
drafting
dram
dream
ds
du
due
duet
duisburg
duo
during
dusk
dutch
duu
dvd
dwokso
dygyn
dygynnaaq
dygynnga
dygyny
dyly
e
ea
each
eagle
early
earth
easier
east
eastern
easy
ebe
ebii
ebit
ebite
ebitter
ec
economic
economics
economy
ecuador
ed
edit
edited
editing
edition
editor
editors
edits
eds
edu
education
ee
eek
een
egerman
ehi
ein
either
ejigin
ekkireten
el
elbeq
election
elections
electric
electronics
elegans
elements
eligible
elitre
ellej
ellejge
else
elseif
em
embrace
eme
emeeqsin
emeeqsine
emie
emiske
emperor
empire
empty
en
enable
enabled
encourage
encyclopedia
encyclopædia
end
energy
engagement
enger
england
english
entertainment
entity
entityid
entry
environment
enwikisource
eo
eppit
equals
er
era
erdeghine
ere
erer
ergije
ergijen
ernst
error
errors
es
espan
estados
et
etc
ete
eten
eter
etin
eu
euro
europa
europe
european
even
event
events
every
everyone
everything
evolution
example
examples
except
exh
exist
existing
exists
expandtemplate
experience
explorer
extension
external
f
fa
face
facebook
fair
falcon
false
family
far
favorite
fdc
fe
feature
featured
features
feb
february
feed
feedback
feel
female
festival
few
ff
fi
field
fifa
file
files
fill
filled
film
films
filter
filters
final
financial
find
fire
firefox
first
five
fix
fixed
flag
flight
float
floor
flower
flu
fm
fo
focus
folk
folklore
follow
following
font
fontsize
footer
for
forbes
force
ford
form
format
formatdate
formatted
formatting
formula
fort
fortran
fortress
fortuna
fortune
forum
forward
found
foundation
four
fox
fr
frac
frame
frameless
franc
france
francisco
free
french
frhdkazan
friday
friend
from
front
ft
fu
full
function
functionality
functions
fund
funds
future
fy
g
ga
gadgets
gala
galaxy
gallery
galuzzi
game
games
garden
gd
ge
gelaltar
general
generiska
genitivusmonthesnm
geo
george
georgia
georgian
german
germany
get
getargs
getcurrentframe
getentity
getparent
gfdl
gi
gif
girl
give
given
gje
gl
glass
global
globe
glory
gm
gmbh
gnu
go
goal
gogh
gold
golden
gone
good
google
gorie
gosspravka
gov
government
gr
grammar
grand
grant
grants
gray
great
greece
green
greetings
group
groups
gsm
gsub
gt
gu
guide
gyna
gynan
h
ha
had
halan
halantul
half
hall
han
hand
handler
happen
happy
hard
harry
harvard
has
hash
have
haven
hdr
he
head
header
headers
health
hear
heart
height
heiligengrabe
hello
help
helper
helping
henri
henry
her
here
hero
hi
hiddencat
high
highlighting
hill
his
history
ho
hokusai
holidays
home
honda
hong
hope
horizontal
host
hotel
hour
house
houses
how
however
hp
hr
hsb
htm
html
http
https
hu
huawei
human
hy
i
ia
ibm
iccite
ice
icon
id
idea
ideas
ie
if
iglesia
ihe
ihen
iher
ihiger
ihin
ihineeghitiger
ihitten
ii
iii
iin
ij
ijete
ikki
ikkien
ikkis
ilbis
ildje
ildjen
ile
iliitin
ilin
illustrated
im
image
imageleft
imageright
images
imbox
imdb
img
impact
important
improve
improved
improvements
improving
in
inbord
inc
include
included
including
index
india
individual
indonesia
indriver
industries
info
infobox
infocards
infocell
inform
information
ingdate
ini
initial
initiative
injdate
inline
innenraum
inniger
innvs
input
insert
inserter
inside
instagram
instead
institute
instructions
int
intel
intended
interactive
interested
interface
interior
international
internet
interwiki
into
introduction
invite
invoke
involved
io
ios
ip
ipa
ipad
ipairs
iphone
ipo
ipod
ippone
ipv
ira
irc
iris
is
isa
isbn
isdate
isfaha
isla
island
islandia
islands
islas
isn
iso
issn
issue
issues
istanbul
isteghine
isten
isterim
it
item
itemid
items
iti
itinen
its
itunes
iv
iw
ix
j
ja
james
jan
january
japan
japanese
javascript
je
jeada
jean
ji
jickty
jo
john
johr
join
journal
jp
jpeg
jpg
jr
js
ju
juan
july
june
junonia
just
jv
k
ka
kadavoor
kaganer
kallaste
katego
kategori
kategoria
kategorie
kategorija
ke
kebiheller
kebiher
kebis
kelbit
kele
keleller
kelen
kelenner
keler
keme
kemnge
keneghes
kenne
kenniki
kennileritten
kennitten
kennjeler
kepseen
kepseten
kergen
keriete
ketehen
key
keyboard
ki
kieng
kiev
kihi
kihileeq
kihilere
kihilerin
kihiliin
kihini
kihite
kihitin
kihitten
kiirbit
kiireller
kiiren
kiirer
kiis
killeren
kilometers
kim
kind
king
kingdom
kini
kinieqe
kiniler
kinini
kinitten
kirche
kirchspiel
kk
kloster
km
know
knowledge
known
ko
kong
korea
korean
krooni
ku
kuchaai
kugas
kuhaghan
kujaq
kulun
kumamoto
kuorat
kuotan
kuraaqtaaq
kurduk
kus
kutan
kuttanan
kuturuk
kwoccoq
kwohon
kwojgo
kwoluje
kwootto
kwoottoro
kworbute
kwordoghune
kworo
kworollor
kworon
kworoot
kworor
kwostor
kwoton
kwotor
kwuhengej
kwun
kwune
kwuolj
kwuolu
kwuon
kwuoq
kwureen
kwutur
kwuusteeq
ky
kyajan
kyhyl
kymyhy
kymyhyn
kymys
kyra
kyraha
kyrdjaghas
kyrdjyk
kyrgan
kyrgyhyy
kyrgys
kytaanaq
kytta
kyushu
kyyha
kyyhy
kyyhyn
kyyl
kyyran
kyys
kyystaaq
kz
l
la
lab
label
lago
laguna
lake
land
landscape
lang
language
languages
large
lari
las
last
lat
late
later
latin
law
lb
lc
ldots
le
learn
learning
least
leave
left
legend
lei
leiden
len
length
lenta
les
less
let
letter
letters
level
lg
li
library
license
life
light
like
likely
limited
lincoln
line
lines
link
linked
links
linux
lion
list
lists
liststyle
listtype
little
live
ll
lmen
lo
loa
loaddata
local
location
log
logged
logo
lon
london
long
longer
look
looking
lord
los
lost
louis
louvre
love
loves
low
lower
lt
ltd
ltu
lu
lua
luc
luca
lum
lv
ly
m
ma
maany
mac
macos
made
madonna
maghan
magic
mahal
mahy
mahyn
mail
mailing
main
mainsnak
maintain
majgynynan
major
make
makes
making
mal
male
mall
mallnitz
man
management
manan
manna
mannyk
mantan
manual
many
manyaqa
map
maps
march
margin
mari
maria
mark
marked
market
mars
martin
mas
maska
master
match
math
mathcal
mathematics
matisse
matter
max
may
mazda
mc
md
me
means
medal
media
mediawiki
medium
meele
meeting
meetings
members
memorial
men
menge
menu
mercedes
message
messagebox
messages
meta
metatable
metro
mexico
mezquita
mg
mhnt
mi
michael
michelangelo
microfinance
micromanos
microsoft
middle
mieqe
might
miigin
miles
military
million
min
minge
mini
minutes
mit
mitsubishi
mitsui
mix
miyazaki
mk
ml
mm
mn
mo
mobile
mod
mode
model
modern
modjugu
modjukaan
module
modules
monasterio
money
mongodb
monobook
month
months
moon
more
morning
mos
moscow
mosque
most
motion
motor
motors
mount
mountain
move
moved
movement
movie
moving
mp
mr
ms
msd
msg
msk
mt
mtv
mu
much
mugur
multi
multilingual
multiple
munich
munnjan
muos
museo
museum
music
must
mustan
muus
mw
mwocoko
mwondukeen
mwuru
my
mytona
n
na
naaqara
naaqaralar
naaqaralartan
naaqaralary
naar
nacional
nadar
nam
name
named
names
namespace
namibia
nan
narod
nasa
nasdaq
nasleg
naslegy
national
nations
native
nato
natural
nature
navbox
navboxdata
nb
nd
nds
ne
near
necessary
need
needed
needs
nehiliege
nehiliek
neq
ner
net
network
never
new
newchild
news
newsletter
next
ng
ngc
nh
ni
nich
nickelodeon
night
nil
nine
nintendo
njykaa
nl
nm
nn
no
nobel
nocat
node
noeditsection
nokia
nominate
nominated
nominations
nominativeyear
non
none
normal
north
northern
norway
not
notation
note
notes
nothing
notice
notifications
notify
notoc
november
now
np
nr
ns
nster
nu
num
number
numbers
numeric
nums
nuucca
nuuccalar
nvidia
ny
nya
o
obj
obverse
oc
occogho
occotooghu
ocr
october
od
of
off
offered
office
official
ogho
oghom
oghonnjor
oghonu
oghorduk
oghoto
oghotun
oghu
oghunan
oghus
oh
oil
oj
ojogho
ojon
ojoq
ojuun
ojuunu
ol
old
oloccu
ologho
ologhor
olootto
oloottor
oloq
oloqsujan
oloqtooq
olor
olorbut
olordoghuna
olordoqtoruna
oloro
olorollor
oloron
oloror
oloru
olus
olympic
om
ombudsperson
omoghoj
omoghojgo
omolloon
omuk
on
once
one
ones
ongoron
ongoston
ongostor
online
only
onno
onnugar
onnuk
onoghoj
onon
onton
onu
onuoqa
oo
oojnuu
oojnuuga
oojnuur
op
open
opening
opera
operation
oppose
opt
option
optional
options
oq
oqson
oqton
oqtoro
or
order
ordered
ordon
orduk
org
organizing
orig
original
orojuona
ortotugar
os
ot
otchut
other
others
otrs
otton
otvetstv
our
out
outdated
output
outside
over
overline
overrightarrow
own
ox
oxford
oy
p
pa
pacific
padding
page
pagename
pages
pagos
pairs
palace
palacio
pan
panama
pano
panorama
panthera
papers
papilio
param
parameter
parameters
params
parent
paris
park
parlophone
parque
parseiso
part
participants
participate
participated
pass
password
pattern
paul
pc
pcall
pdf
pdt
pe
pedro
people
peoples
per
performance
period
perl
person
peru
peter
phabricator
phase
photo
php
physical
pi
picture
pictures
pieter
pizza
pl
place
places
plain
plan
planned
planning
plantilla
play
player
playstation
plaza
please
plus
pm
pmatrix
pmid
pmr
png
po
point
polar
policy
political
polonia
poly
ponsash
pont
pop
population
port
portal
portrait
portugal
pos
position
possible
possibledatestring
post
posted
potter
power
pp
pr
pre
precedence
precision
predefinic
predloga
preferences
preferred
prefix
preprocess
present
press
preview
previously
prince
principal
print
prison
prize
pro
problem
problems
process
produces
product
production
program
programming
project
projectcode
projects
property
propertyid
proposal
proposals
proposed
protection
provide
provides
province
ps
pt
public
publications
published
publisher
publishers
publishing
purif
purpose
put
px
python
pywikibot
q
qaalallar
qaalan
qaalar
qaalbyt
qaalla
qaallaran
qaaltar
qaama
qaan
qaannaaq
qacygyr
qahan
qaja
qajagha
qajtaq
qallaan
qalyng
qamnaccyt
qamnyyr
qanga
qangalas
qangas
qanna
qara
qaragha
qaraghyn
qarany
qas
qat
qata
qatanan
qatyly
qatyng
qohoon
qojuut
qolkuostaaq
qonuutugar
qor
qoro
qoton
qotu
qotun
qtl
qu
quad
qualifier
quality
que
question
questions
quick
quito
r
ra
raex
railway
ralfr
range
rank
ranking
rather
raven
rayon
razde
rb
rd
re
read
readers
reading
ready
real
receive
recent
recently
records
rect
red
redirect
reduced
ref
reference
references
region
registered
related
release
released
relevant
remove
removed
renault
replace
reply
report
republic
request
requested
requests
require
required
requirements
res
research
resolution
resources
result
results
ret
retrieved
return
returns
rev
reverse
review
ri
ria
rib
rica
richard
right
rights
rio
riva
river
rk
ro
road
robert
rock
role
roman
romania
rome
ronald
root
round
route
routledge
row
rowindex
rowspan
royal
rozhkov
rq
rs
ru
ruble
rubles
run
rus
russia
russian
ruwikisource
s
sa
saadaq
saahygar
saahyn
saamaj
saanan
saas
saaska
saastaaq
saatyn
saba
sablon
sacharnych
safety
saga
sagha
saghana
sah
sahan
sahwikisource
saint
sajyn
sakha
sakhalife
sakhanews
sakhatyla
sakhawikimeeting
sakura
salar
samasource
same
samsung
san
sanaan
sanda
sandbox
sanga
sangata
sans
santa
sanyy
sanyyr
saqa
saqagha
saqalar
saqany
saqsary
sassyarda
sataan
satammat
save
say
scale
schedule
schloss
school
science
scope
scotland
screen
screenshot
script
scripts
se
sea
search
season
seasonentries
seasonrow
sec
second
secondary
seconds
section
security
see
seen
sega
sehen
seheni
seite
select
selected
self
sen
sent
sep
separate
september
series
seriesoverview
serif
serii
seriihit
seriileeq
seriite
seriitin
service
session
set
sette
seven
several
sg
sgrabarczuk
sh
share
she
shift
shizuoka
shop
short
should
show
showing
shown
shows
si
side
sie
sielleeq
siemens
sien
sign
silver
similar
simple
sims
sin
since
single
sir
sirderin
sire
sirejge
sirge
siri
siriger
sirin
sirinen
sister
site
siten
sites
size
sjabloon
sk
skabelon
sky
skyline
sl
small
smallimage
smallimageright
smalltext
smth
sn
so
social
society
software
soghoruu
soghotoghun
soghotoq
soghotoqto
soghus
sol
solid
some
someone
something
son
sonno
sony
soon
soppuruon
soroq
sorry
sort
sotoru
sound
source
sourcedescription
south
soviet
sp
space
spacing
span
spb
speak
special
species
specific
specified
speed
speedy
split
splits
sports
spring
sq
square
sr
st
staff
stamp
standard
star
start
started
starting
state
statement
states
station
statistics
status
stay
step
stewards
stift
still
stone
stop
store
stories
story
str
strategy
street
strike
string
structure
sts
stub
students
studies
studio
studios
study
style
styles
su
sub
submit
subpage
subscribe
subscription
subtemplates
subway
such
suffix
suggested
sum
sumitomo
summary
summer
summit
sun
sunrise
sunset
suogha
suol
suollaan
suolun
suon
suoq
super
support
supported
supporting
sur
sure
survey
suðurland
sv
svg
sw
swift
switch
swop
swugen
swuohu
swuohuleeq
swuohulerin
swuohuluun
swuohunu
swuohute
swuohutun
swurun
swuten
swuuren
swuuruk
syal
sygynnjaq
syhyy
syl
syldjan
syldjar
syldjybyt
sylgy
syntax
syppaj
system
sytan
sytar
syyha
szablon
t
ta
taas
taatta
tab
table
tables
tabs
tag
tags
tahaaran
tahaarar
tahygar
tahyttan
taj
tajma
take
takes
talk
tangnary
taqsa
taqsan
taqsar
taqsybyt
tarbyaq
tardan
target
task
tataar
taxobox
tbilisi
tbl
tcopy
td
te
teach
team
teams
tech
technical
technology
television
tell
templat
template
templatedata
templates
temple
terijen
terijer
teskileen
tesla
test
tested
testing
tests
text
textcolor
tf
th
than
thank
thanks
that
the
theft
their
them
then
theory
there
these
they
things
think
third
this
thiscell
thomas
those
though
thoughts
thread
three
through
thumb
thumbnail
ti
tianjin
tie
tietejbit
tiger
tihikeen
tiije
tiijen
tiikke
tiis
tiit
tiiti
till
time
times
timir
tiriitin
title
titledo
titlevt
tl
to
toc
today
together
togho
toghus
tojon
tojono
tokyo
toloru
tom
tongus
tongustar
tonumber
tool
toolbar
tools
tooltip
top
topic
toppdoma
toqoru
toqtoon
tostring
total
tour
tower
town
toyota
tr
trade
translate
translated
translatewiki
translathon
translating
translation
translations
translators
travel
tre
tree
triage
trim
true
trustees
try
ts
tt
tu
tugu
tuhunan
tula
tulaajaq
tumarca
tumatuola
tuoj
tuoq
tuora
tuoraan
tuos
tupputunan
turallar
turan
turar
turbut
turkey
turkic
turkish
turuoran
turuorar
tuspa
tutan
tuttan
tuttaran
tv
twitter
two
twobotun
twoho
twonnollor
twonnon
twonnor
twonun
twordo
tworduger
tworuobut
twottoru
twubehen
twuhe
twuheller
twuhen
twuher
twuheren
twuhulge
twuort
twusput
twuuleeq
twuun
tya
tyagha
tygyn
tygynnaaq
tyl
type
types
typing
u
ua
ubaja
ucoc
udaghan
ug
uhun
ui
uk
ukraine
ukrainian
ul
ulaqan
ullungaq
ulus
uluu
uluuha
uluus
un
und
undate
under
underside
unguogha
unguoghun
unguoq
unguor
unicode
unidos
union
unit
united
units
universal
universities
university
unix
unknown
until
uol
uola
uolattar
uolattara
uolattardaaq
uollaaq
uolu
uolun
uonna
uot
up
upcoming
update
updated
updates
upload
upper
upright
uraanaj
uraha
urahalaryn
url
uruu
us
usa
usage
use
usecollapsibletextfields
used
useful
user
userbox
username
users
uses
using
uss
ussr
ustan
ustar
ustring
ustun
usually
utary
utc
utuja
uu
uuha
uunan
uuran
uus
uutun
uz
uzbekistan
v
va
val
valley
value
values
van
var
various
varnothing
vdots
ve
vec
vector
verlag
versa
version
very
vhs
vi
via
viatour
vice
victoria
video
vie
vienna
view
viewer
vii
viii
vikipedi
vikipedio
vikipediya
viktor
village
vincent
viquipe
virgin
vision
visit
vista
visual
visualeditor
vivo
vk
vladimir
vo
vol
volkswagen
volume
volumes
volunteer
volunteers
von
vorlage
vote
voting
vpn
vs
vuz
vuzopedia
vuzoteka
w
wa
wall
walt
want
wants
war
was
washington
watashi
watch
watchlist
water
way
ways
wd
we
web
website
wednesday
week
weekly
weeks
welcome
well
were
west
western
what
whatamidoing
when
where
whether
which
while
white
who
why
wide
width
wien
wiki
wikibase
wikidata
wikilink
wikimania
wikimedia
wikimedians
wikipe
wikipedia
wikipedias
wikipedie
wikipedija
wikis
wikisky
wikisource
wikitext
wild
will
william
wind
windows
winners
winter
wishes
wishlist
with
within
without
wizard
wm
wmde
wmf
wolbut
wolbute
wolon
wolor
wolorbut
wolorollor
woloron
woloror
wolottoon
woluone
woman
women
wor
word
words
work
working
works
world
woro
woruhu
worus
woruske
woruu
wottuger
wottun
wottunen
wottutten
would
wp
write
writing
written
wrong
ws
wu
wucugej
wugesteeq
wugus
wuhu
wulehit
wunguu
wunguunen
wuohe
wuohee
wuoreghe
wuoskeebit
wuoskeen
wuoskuur
wurduger
wurduk
wurdunen
wureq
wureqqe
wurung
wus
wutuo
wuuren
www
wy
x
xa
xbox
xi
xiaomi
xico
xii
xiii
xiv
xix
xn
xv
xvi
xvii
xviii
xx
xxi
xxii
xxiii
xxix
xxvi
y
ya
yahoo
yakst
yakt
yakut
yakutia
yakutsk
yal
yale
yandex
yaroslav
yc
year
yearmark
years
yellow
yes
yesno
yet
yhar
yhyaghar
yhyaq
yhyaqqa
yi
yjaan
yjaanan
yjyn
yjytar
yksaan
ykt
yla
ylaary
ylan
ylar
ylbyt
yllyy
ym
ynaghy
ynaq
yngyran
yo
york
you
young
your
youtube
yppyta
yraaq
yraaqtaaghy
yrya
ysia
ystanan
yt
ytaaccy
ytan
ytar
ytyalaan
ytyk
yu
yue
yy
yytar
yyyy
z
za
zealand
zh
zoo
zu
zum
zur
{
|
}
~

¡
¢
£
¤
¥
§
¨
©
«
¬
­
®
°
±
²
³
´
µ
µµ
¶
·
¹
º
»
½
×
æ
ð
÷
ø
đ
ı
ł
ŋ
ƶ
ƽ
ɉ
ɐa
ə
ɵ
ɵɵ
ʏ
ʏɵ
ʏʏ
ʒ
ʻ
ʼ
ʿ
ˈ
ː
˚
˝
̀
́
̂
̃
̄
̆
̇
̈
̉
̊
̋
̌
̏
̓
̔
̛
̣
̦
̧
̨
̱
̲
͂
͡
α
β
βικιπαι
γ
γγ
δ
δεια
ε
ζ
η
θ
ι
κ
λ
μ
ν
ο
π
προ
ρ
ς
σ
τ
υ
φ
ω
а
аа
аабат
аабыт
аабыта
аабыттара
аада
аадаҥ
аадырыс
аадырыһа
аадыча
ааи
аак
аакка
ааккын
аал
аала
аалаи
аалан
аалга
ааллаах
ааллар
ааллара
ааллартан
ааллары
аалларыгар
аалларын
аалларынан
аалтан
аалы
аалын
аалынан
аалыытын
аам
аан
аана
аангылыи
аандьы
ааннаах
ааннаи
ааннар
ааннара
ааннарын
аанньа
аанньал
аанньала
аантан
ааны
ааныгар
аанын
аанынан
ааныстыырап
ааныттан
ааньньал
аао
аапка
ааппын
ааптар
ааптара
ааптардар
ааптардара
ааптардарыттан
аар
аара
ааран
аарар
аарбыт
аарга
аардар
аардарга
аарка
аармыи
аартан
аартыга
аартыгар
аартыгы
аартыгын
аартык
аартыкка
аары
аарыгар
аарыллар
аарыма
аарымыи
аарын
аарыскаи
аарыы
аарыылаах
аарыылар
аарыыта
аас
ааска
ааспат
ааспыт
ааспыта
ааспыттар
ааспыттара
ааспыттарын
ааспыты
ааспытын
ааста
аастаҕына
аастылар
аасыи
аат
аата
аатамнаи
аатаҕына
ааттаабыт
ааттаабыта
ааттаабыттар
ааттаабыттара
ааттаан
ааттаатахха
ааттаах
ааттаахтар
ааттаахтара
ааттааҕа
ааттааһын
ааттааһынтан
ааттааһыны
ааттаммат
ааттаммыт
ааттаммыта
ааттаммыттар
ааттаммыттара
ааттан
ааттана
ааттаналлар
ааттаналлара
ааттаналларын
ааттанан
ааттанар
ааттанара
ааттанарын
ааттаныан
ааттаныы
ааттар
ааттара
ааттарга
ааттардаах
ааттары
ааттарыгар
ааттарын
ааттарынан
ааттарыттан
ааттатар
ааттаһа
ааттаһан
ааттыахха
ааттыи
ааттыллар
ааттыы
ааттыыбыт
ааттыылар
ааттыыллар
ааттыыллара
ааттыылларын
ааттыылларыттан
ааттыыр
ааттыыра
ааттыырга
ааты
аатыгар
аатылар
аатым
аатын
аатынан
аатыр
аатыра
аатыран
аатырар
аатырбыт
аатырбыта
аатырга
аатырдар
аатырыгар
аатырын
аатыттан
аатыыллар
аатыҥ
аах
аахаи
аахпат
аахпыт
аахпыта
аахпыттара
аахсан
аахсар
аахсыбакка
аахсыбат
аахсыбаттар
аахсыи
аахтахха
аахха
ааччы
ааччыга
ааччылаах
ааччылар
ааччылара
ааччыларбыт
ааччыларга
ааччылартан
ааччылары
ааччыларыгар
ааччыларын
ааччыларынан
ааччыларыттан
ааччынан
ааччыны
ааччыта
ааччытыгар
ааччытын
ааччытынан
ааҕа
ааҕааччы
ааҕааччыга
ааҕааччылар
ааҕааччыларга
ааҕабыт
ааҕаллар
ааҕаллара
ааҕан
ааҕар
ааҕара
ааҕарга
ааҕарынан
ааҕы
ааҕыахха
ааҕыллаллар
ааҕыллан
ааҕыллар
ааҕыллара
ааҕыллыахтарын
ааҕыллыбат
ааҕыллыбыт
ааҕын
ааҕыналлар
ааҕынан
ааҕынар
ааҕыы
ааҕыыга
ааҕыынан
ааҕыыннан
ааҕыытынан
ааҥл
ааҥллыы
ааҥнаан
ааҥыл
ааҥыллыы
ааҥҥа
ааһа
ааһаллар
ааһаллара
ааһалларын
ааһан
ааһар
ааһара
ааһарын
ааһыан
ааһыаҕа
ааһын
ааһына
ааһыннаах
ааһыннара
ааһыны
ааһыныгар
ааһынын
ааһынынан
ааһыныттан
ааһыыта
ааһыҥҥа
аб
аба
абаа
абаарыи
абааһы
абааһыга
абааһылар
абааһылары
абааһыларынан
абааһыны
абааһыта
абааһыттан
абаи
абакан
абалаах
абалык
абаран
абарбыт
абатын
абаҕа
абаҕата
абаҕатыгар
абаҕатын
абаҕаҕа
абаҕыыныскаи
аббатство
абдрахманович
абдул
абдулла
абдьы
абзелиловскии
аборт
абраам
абрамов
абрамова
абрамович
абсолютнаи
абсолютно
абстрактнаи
абу
абулхаир
абхазия
абыи
абылаи
абылыанньа
абын
абыраа
абырааҥ
абыраллаах
абырах
абырыыр
абыт
абытаи
абыычаи
авардар
авария
аввакумов
аввакумова
август
августа
августина
авиакомпания
авиахампаанньа
авиационнаи
авиация
авиациятын
авксентии
авраам
австралия
австралияттан
австралияҕа
австрия
австрияҕа
австро
авт
автобус
автобуска
автомат
автоматическаи
автоматически
автоматическои
автомобиль
автомобильнаи
автономия
автономиялаах
автономияны
автономията
автономиятын
автономнаи
автономная
автономнои
автор
автора
автордар
автордара
автореферат
авторитетных
авторов
автором
авторскаи
авторские
авторских
авторского
авторы
ага
агафья
агенство
агент
агентство
агитационнаи
агитацияҕа
аграрнаи
аграфена
агрикултуура
агроном
агронома
ад
ада
адаар
адаарыс
адам
адамов
адамова
адамс
адан
адвокат
аджи
административнаи
административно
администратор
администратора
администраторам
администраторами
администраторов
администратором
администратору
администраторы
администрации
администрация
администрацияларынан
администрацията
администрациятын
адмирал
адмирала
адо
адольф
адреналин
адрес
адреса
адресов
адыаччы
адыгея
адыи
адьараи
адьас
адьырҕа
азаров
азбука
азерб
азербаи
азиатскаи
азиз
азии
азия
азияны
азиятааҕы
азияттан
азияҕа
азов
азот
азс
аи
аиза
аирпорт
ак
ака
акаары
акад
академига
академии
академик
академика
академическаи
академическии
академическэи
академия
академияларын
академияны
академията
академиятыгар
академиятын
академияҕа
акадьыамыга
акадьыамыи
акана
акаси
акбар
акимов
акка
аккаастаммыт
аккаастаммыта
аккаастанан
аккаастанар
аккаастаныы
аккад
аксаков
аксу
акт
акте
актер
актера
активист
активнаи
активно
активных
актриса
актрисата
актуальные
актыыбынаи
акула
акулина
акутагава
акушер
акционернаи
акция
акциялара
акцияларын
акцията
акциятын
акыи
ал
ала
алаа
алаадьы
алаан
алааппыи
алаас
алааска
алаастар
алаастарга
алаастарынан
алаах
алаахтар
алааһа
алааһы
алааһыгар
алааһын
алабама
алаи
аламаас
аламаи
аламаҕаи
алампа
алан
аланан
аланар
алар
алара
аларга
алардаах
алартан
алары
аларыгар
аларын
аларынан
аларыттан
аласов
алатау
алахчын
алаш
алаҕар
алаһа
алаһыаи
албан
албания
албанияҕа
албаннар
албын
албына
албыннаабыт
албыннаама
албыннаан
албыннааһын
албыннааһыҥҥа
албыннарыгар
албынныы
албынныыллар
албынныыр
албынныырга
албыны
албыныгар
албыҥҥа
алгебра
алгебраическаи
алгыс
алгыска
алгыстаах
алгысчыт
алгыы
алгыыр
алгыһа
алгыһы
алгыһын
алгыһынан
алдан
алданзолото
алданнааҕы
алданскии
алдантан
алдаҥҥа
алдьаммыт
алдьанан
алдьанар
алдьаннаҕына
алдьаныы
алдьаныыта
алдьаппакка
алдьаппат
алдьаппыт
алдьархаи
алдьата
алдьатан
алдьатар
алдьатара
алдьаттахха
алдьатыма
алдьатыы
алдьатыылаах
алдьатыыны
алекперов
алексаандыр
александр
александра
александров
александрова
александрович
александровка
александровна
александровскаи
алексеев
алексеева
алексеевич
алексеевка
алексеевна
алексеевскаи
алексеи
алексии
алеут
алжир
али
алиев
алиса
алишер
алкалоид
алкалоидтар
алкоголизм
алла
аллаах
аллаи
аллан
аллар
аллара
аллараа
алларааттан
алларыгар
алларын
алларынан
алларыттан
аллах
аллыҥа
алма
алмаа
алмаас
алмаастаах
алмаастара
алмааһы
алмааһын
алмазы
алмас
алматы
алп
алпаабыт
алпаабыта
алпаабытыгар
алпаабытын
алпаабытынан
алпабыыт
алпабыыта
алпабыытыгар
алпабыытын
алпабыытынан
алроса
алт
алта
алтааи
алтаан
алтаара
алтае
алтаи
алталаах
алтан
алтаннаах
алтантан
алтаны
алтата
алтая
алтаҥҥа
алтун
алтын
алтынньы
алтынньыга
алтынньыттан
алтынньытыгар
алтынньытыттан
алтынсарин
алтыс
алтыспыт
алтыһан
алтыһар
алтыһыы
алфавит
алшыннар
алы
алын
алып
алыптаах
алыс
алыы
алыын
алыыр
алыһар
аль
альберт
альберта
альбина
альбом
альбома
альбомнар
альбомнара
альбому
альбомун
альмагест
альманах
альпа
альт
альтернативнаи
альфа
альфред
альцгеи
альшеевскии
альянс
алюминии
аляска
алясканы
аляскаҕа
алҕаан
алҕааһын
алҕас
алҕаска
алҕастара
алҕаһы
ам
ама
амазонка
амакинскаи
аман
аманаат
амарах
амгинскии
америка
американец
американскаи
американы
америкатааҕы
америкаттан
америкаҕа
америки
ами
амир
амма
амманы
аммата
амматааҕы
амматтан
аммаҕа
аммед
аммосов
аммосова
аммосовка
аммосовы
аммын
аммыт
амнистия
ампаар
амсаи
амстердам
амтана
амтаннаах
амтаны
амтанын
амундсен
амур
амурскаи
амуур
амыр
амырыын
ан
ана
анаабыр
анаабыт
анаабыта
анаабыттар
анаабыттара
анаалыс
анаалыстыыр
анаан
анааран
анааһын
анабара
анабыл
анадырь
анаи
анал
анала
анализ
аналитическаи
аналлаах
аналлаахтар
аналлааҕа
аналлааҕын
аналланан
аналланар
аналлара
аналог
аналогии
аналогично
аналын
анаммыт
анаммыта
анан
ананаллар
ананан
ананар
анании
анар
анара
анараа
анарааҥы
анардам
анастасия
анатолии
анатолия
анатольевич
анатольевна
анатомия
анатомията
анах
ангара
ангел
ангелина
англ
англии
англичаннар
англия
англияттан
англияҕа
ангола
анголаҕа
андаатар
андалусия
андаҕаи
андаҕар
анджелес
андорра
андре
андреас
андреев
андреева
андреевич
андреевна
андреи
андриан
андромеда
андропов
андросов
андросова
анды
андьелес
анегина
анемподист
анжу
анимация
аниме
анисим
анисимов
анисимовна
анисия
анкара
анкараҕа
анн
анна
аннаабыт
аннаабыта
аннаабыттар
аннаан
аннаары
аннаах
аннааһын
аннан
аннар
аннараа
аннотация
анныгар
анныларыгар
аннын
аннынааҕы
аннынан
анныттан
анныы
анныыллар
анныыр
анныыра
анныырга
анньа
анньан
анньар
анньыллан
анньыллыбыт
анньыт
анньыта
анньыттар
анньыы
анри
ансаамбыл
ансаамбыла
ансаамбылын
ансамбль
антанта
антарктида
антарктидаҕа
антарктика
антах
антибиотик
антипина
античнаи
антология
антологията
антон
антонии
антоним
антонин
антонина
антонио
антонов
антонова
антонович
антоновка
антофагаста
антропология
антуан
аны
аныгар
аныгы
аныгылыы
аныгыскы
анын
аныыбыт
аныыллар
аныыр
аныырга
аньыы
аньыылаах
аньыыны
ао
аофициальныи
ап
апартеид
апельсин
апокалипсис
аполлон
апостол
аппа
аппараат
аппарат
аппарата
апполинарии
апр
апреля
апросимов
аптаах
аптамаатынан
аптаныамыи
аптека
ар
ара
араа
арааб
араабтар
араабтыы
араадьыи
араак
араап
араара
араараары
араараллар
араараллара
арааран
араарар
араарарга
араарбакка
араарбат
араарбыт
араарбыта
араарбыттар
араартаан
араартааһын
араартыахха
араарыахха
араарыллан
араарыллар
араарыллыбат
араарыллыбыт
араарынар
араарыы
араарыыга
араарыылара
араарыыны
араарыыта
араас
араастаан
араастаах
араастар
араастара
араастардаах
араастарын
араастык
араат
арааһа
арааһы
арааһын
арааһынаи
араб
арабтар
арабтыы
аравия
арагон
араи
аралдьыи
аралдьытан
аралдьытар
аралдьытыы
арамаан
арамаана
арамаанын
аранин
арар
араспаанньа
араспаанньаны
араспаанньата
араспаанньатын
арассыи
арассыыи
арах
арахпат
арахпыт
арахса
арахсаллар
арахсаллара
арахсалларын
арахсалларыттан
арахсан
арахсаннар
арахсар
арахсара
арахсарын
арахсыан
арахсыбакка
арахсыбат
арахсыбыт
арахсыбыта
арахсыбыттар
арахсыбыттара
арахсыбыттарын
арахсыбытын
арахсыспат
арахсыы
арахсыыга
арахсыылар
арахсыылара
арахсыыларыгар
арахсыыларын
арахсыыны
арахсыыта
арахсыытыгар
арахсыытын
араҕан
араҕас
араҕастыҥы
араҕыстаҕына
араҥ
араҥа
араҥалара
араҥаларын
араҥас
араҥата
араҥатыгар
араҥатын
араҥаччылааһын
араҥаччылыы
араҥаччылыыр
араҥаҕа
арбаан
арбааһын
арбаҕас
арбита
арбитраж
арбитражного
арбын
арбыт
арбытынан
арга
аргентина
аргентинаҕа
аргумент
аргументы
аргунов
аргунова
аргыс
аргыстаах
аргыстара
аргыстаһан
аргыыи
аргыһа
арда
ардаи
ардах
ардахтаах
ардахтан
ардахтар
ардаҕы
ардыгар
ардыларыгар
ардыларынааҕы
ардыларынан
ардынааҕы
ардынан
ареала
арена
аренда
арендаҕа
аржаков
аржакова
ариан
аризона
арии
аристотель
аритметика
арифметика
арк
аркадии
арктика
арктиканы
арктики
армеец
армения
арменияҕа
армии
армия
армияны
армията
армиятыгар
армиятын
армияҕа
армстронг
армянскаи
арпагыраапыи
арсан
арсеньев
арслан
арт
артамонов
артан
артемьев
артериальнаи
артиллерии
артиллерист
артиллерия
артист
артиста
артур
артурга
артыал
артыыс
артыыската
артыыстар
артыыстара
артыыстарын
артыыһа
артыыһын
артыыһынан
архангельскаи
архангельскии
археи
археолог
археологии
археологическаи
археологические
археология
археологияҕа
археологтар
архив
архива
архивировано
архивы
архивыгар
архипелаг
архипов
архипова
архитектор
архитектора
архитектордар
архитектура
архитектурнаи
архыыба
архыыбыгар
архыыбын
архыып
архыыпка
архыыптан
арчы
арчылыыр
ары
арыгар
арыгы
арыгыга
арыгылаан
арыгылаах
арыгылааһын
арыгылааһыны
арыгылар
арыгылары
арыгыларын
арыгылыы
арыгылыыр
арыгылыырын
арыгынан
арыгыны
арыгыта
арыгыттан
арыгыһыт
арыгыһыттар
арыгыһыттары
арыи
арыллан
арыллар
арыллыаҕыттан
арыллыбыт
арыллыбыта
арыллыбыттар
арыллыбыттара
арыллыыта
арыллыытын
арылхаи
арылынна
арын
арынан
арыт
арыттан
арыы
арыыга
арыыи
арыылаах
арыылаахха
арыылар
арыылара
арыыларга
арыылардаах
арыылартан
арыылары
арыыларыгар
арыыларын
арыыларыттан
арыынан
арыыны
арыыта
арыыттан
арыытыгар
арыытын
арыытыттан
арыычча
арҕаа
арҕааттан
арҕааҥы
арҕааҥҥы
арҕас
арҕаҕын
арҕаһыгар
арҕаһыттан
ас
асад
асессор
аска
аскиз
аскинскии
аскорбиноваи
аспект
аспекты
аспирана
аспирант
аспирантура
аспирантуратыгар
аспирантуратын
аспирантураҕа
аспыт
ассамблеи
ассамблея
ассамблеята
ассамблеятын
ассистена
ассистент
ассоциации
ассоциация
ассоциацияларын
ассоциацията
ассоциациятын
асср
аст
аста
астаан
астаапкаҕа
астаах
астааһын
астан
астана
астар
астара
астаран
астартан
астары
астарыгар
астарын
астарынан
астарыттан
астеризм
астероид
астрахань
астрель
астрология
астромиф
астронавт
астроном
астронома
астрономическаи
астрономия
астрономияҕа
астрономнар
астык
астына
астынар
астыыр
астыырга
ат
ата
атааннаах
атааннаһыы
атаараллар
атаарар
атаарыы
атаарыыга
атаах
атаахтаан
атаахтаппакка
атаахтата
атаахтатан
атаахтатар
атаахтатыы
атаахтатыыга
атаахтык
атаахтыы
атааҕы
атамаан
атамаи
атаман
атан
атар
атара
атарга
атас
атастарбар
атастаһан
атастаһар
атастаһыы
ататюрк
ататүрк
атах
атахтаах
атахтаахтар
атахтанар
атахтара
атахтарыгар
атахтарын
атахтарынан
атахтыыр
атахха
атаххын
атаҕа
атаҕар
атаҕастааһын
атаҕастабыл
атаҕастабылы
атаҕастаммыт
атаҕастыыр
атаҕы
атаҕым
атаҕын
атаҕынан
атаһа
атеизм
атеистар
атеросклероз
атина
атланта
атлантик
атлантика
атлантическаи
атлас
атласов
атлетика
атлетикаҕа
атмосфера
атмосфераҕа
атом
атомнаи
атомнар
атсыз
атта
аттаах
аттаммыт
аттаммыттар
аттан
аттанар
аттар
аттара
аттаран
аттары
аттарын
аттарыы
аттаһык
аттила
аттыбар
аттыгар
аттыларыгар
аттынааҕы
аттынан
аты
атыгар
атыи
атылыы
атын
атына
атынан
атыннаах
атыннык
атынтан
атыны
атынын
атынынан
атырдьах
атыттан
атыттар
атыттара
атыттарга
атыттардааҕар
атыттартан
атыттары
атыттарын
атыы
атыыга
атыыла
атыылаабыт
атыылаабыта
атыылаан
атыылааччы
атыылааһын
атыылааһыны
атыыламмыт
атыыламмыта
атыыланаллар
атыыланар
атыыласпыт
атыыласпыта
атыылаһааччы
атыылаһан
атыылаһар
атыылаһарга
атыылыы
атыылыыллар
атыылыыр
атыылыыра
атыылыырга
атыыны
атыыр
атыыра
атыырдар
атыырын
атыыта
атыытын
атыыһыт
атыыһыта
атыыһыттар
атыыһыттара
атыыһытынан
атыҥҥа
ау
аудио
аудитория
аургазинскии
аустралиа
аустралия
аустралияҕа
аустрия
аутомобил
аутоном
ауэзов
афанасии
афанасьев
афанасьева
афанасьевич
афанасьевна
афгани
афганистаан
афганистааҥҥа
афганистан
афганистаҥҥа
афина
афины
афоня
африка
африканы
африкатааҕы
африкаттан
африкаҕа
африки
афшар
афшардар
ах
аха
ахаан
ахан
аханан
ахата
ахеменидтар
ахмад
ахматова
ахмед
ахмет
ахс
ахса
ахсаан
ахсаана
ахсааннаах
ахсааннаахтар
ахсааннар
ахсааннара
ахсааннарыгар
ахсааннарын
ахсааннарынан
ахсааннарыттан
ахсааны
ахсааныгар
ахсаанын
ахсаанынан
ахсааныттан
ахсааҥҥа
ахсым
ахсын
ахсынньы
ахсынньыга
ахсынньытыгар
ахсынньытыттан
ахсыс
ахсыт
ахта
ахтаах
ахтаахтар
ахтабын
ахталлар
ахталыи
ахтан
ахтар
ахтара
ахтарга
ахтары
ахтарыгар
ахтарын
ахтарынан
ахтыбакка
ахтыбат
ахтыбатах
ахтыбаттар
ахтыбаттара
ахтыбыт
ахтык
ахтыллаллар
ахтыллар
ахтыллыбат
ахтыллыбыт
ахтылҕан
ахтылҕана
ахтыы
ахтыылар
ахтыылара
ахтыылары
ахтыыларыгар
ахтыыны
ахтыыта
ахтыытыгар
ахтыытынан
ахтыытыттан
ахтыҥылар
ахха
аххын
ахш
ахшга
ахшка
ахы
ацтектар
ацумаса
ача
аччаабыт
аччаан
аччатар
аччы
аччыгыи
аччык
аччыктаан
аччыктааһын
аччыктааһыны
аччыта
ачыкы
ашина
ашока
аэрономия
аэропорда
аэропордугар
аэропорт
аэропортар
аэропортара
аэропуорда
аэрофлот
аэс
аэции
ая
аятолла
аҕа
аҕаа
аҕабар
аҕабын
аҕабыт
аҕабыыт
аҕабыыта
аҕабыыттар
аҕаи
аҕал
аҕала
аҕалаах
аҕалаллар
аҕалаллара
аҕалан
аҕаланнар
аҕалар
аҕалара
аҕаларга
аҕаларыгар
аҕаларын
аҕалбат
аҕалбатын
аҕалбыт
аҕалбыта
аҕалбыттар
аҕалбыттара
аҕалла
аҕаллым
аҕалыан
аҕалыллыбыт
аҕалыы
аҕам
аҕан
аҕантаи
аҕаны
аҕар
аҕас
аҕата
аҕаттан
аҕатыгар
аҕатын
аҕатынан
аҕатыттан
аҕаҥ
аҕаһа
аҕы
аҕыи
аҕын
аҕынан
аҕыс
аҕыт
аҕыттан
аҕытын
аҥ
аҥаар
аҥаара
аҥаардаах
аҥаардас
аҥаарыгар
аҥаарыи
аҥаарын
аҥаарынан
аҥаарыттан
аҥала
аҥар
аҥара
аҥардаах
аҥардас
аҥардастыы
аҥарыгар
аҥарын
аҥарыттан
аҥнаах
аҥы
аҥыы
аҥҥа
аҥҥын
аһа
аһаа
аһаабакка
аһаабат
аһаабыт
аһаан
аһаатахха
аһаатаҕына
аһааһын
аһан
аһаппыт
аһар
аһара
аһаран
аһарар
аһарбакка
аһары
аһата
аһаталлар
аһатан
аһатар
аһатыы
аһаҕас
аһаҕастар
аһаҕастык
аһмад
аһы
аһыан
аһыах
аһыахха
аһыи
аһыкаи
аһыллан
аһыллар
аһыллыаҕыттан
аһыллыбыт
аһыллыбыта
аһыллыбыттар
аһыллыбыттара
аһыллыыта
аһыллыытыгар
аһыллыытын
аһылыга
аһылыгар
аһылыгы
аһылыгын
аһылыгынан
аһылык
аһылыкка
аһылыктаах
аһылыктан
аһылыктанар
аһылыктар
аһылыктара
аһылыктары
аһылыктарыгар
аһылыктарын
аһылынна
аһымал
аһын
аһына
аһынан
аһынар
аһыныгас
аһыт
аһытан
аһыттан
аһыы
аһыыллар
аһыыллара
аһыылларын
аһыыр
аһыыра
аһыырга
аһыыры
аһыырын
аһыырыттан
аһыыта
аһыҥа
б
ба
баа
баабыи
баабыр
баабырыка
баазата
бааи
баал
бааллар
бааллара
баалларын
баалларынан
баалларыттан
баалы
баан
баана
бааннар
бааннара
баанньык
бааны
баанын
баар
баара
баараи
баараҕаи
баарбын
баарбыт
бааргын
баартыи
баары
баарыгар
баарыи
баарын
баарына
баарынан
баарыстаах
баарыттан
баас
бааска
бааскалар
баасыната
баатара
баатаҕаи
баатыр
бааччы
бааҥка
бааҥҥа
бааһа
бааһы
бааһын
бааһына
бааһынаи
бааһынаҕа
бааһыран
бааһырар
бааһырбыт
бааһырбыта
бааһырыы
баба
бабаҕа
бабочки
бабушкин
бавария
багдад
багдарыын
багынанова
бадараан
бадарааннаах
бадарааҥҥа
бадаҕа
баден
база
базаларын
базата
базатыгар
базатын
базе
базель
базоваи
баи
баишев
баишева
бакалавр
бакалинскии
бакка
бактерия
бактериялар
бактериялары
баку
бакуга
бал
бала
балаакка
балаи
балакшин
баламат
баланов
балар
балартан
балары
балатон
балачча
балаҕан
балаҕана
балаҕаннаах
балаҕаны
балаҕанын
балаҕаҥҥа
балаһа
балаһалаах
балаһыанньа
балаһыанньаны
балаһыанньата
балаһыанньаттан
балаһыанньатыгар
балаһыанньатын
балаһыанньаҕа
балбаара
балерина
балерината
балет
балета
балетмеи
балетын
балкаан
балкария
балта
балтараа
балтачевскии
балтик
балтика
балтия
балтыларын
балтым
балтын
балхаш
балыга
балыгы
балыгын
балыгынан
балыи
балык
балыкка
балыксыт
балыксыттар
балыктаан
балыктаах
балыктааһын
балыктар
балыктара
балыктары
балыктарын
балыктыыр
балыс
балыстарын
балыстыылар
балысхан
балысханнык
балыттаран
балыы
балыыһа
балыыһата
балыыһатыгар
балыыһаҕа
бальбоа
бам
бамбук
бангладеш
бандьыыт
бандьыыттар
банк
банкноталар
баппат
баппаҕааи
баппаҕаи
баппын
баппыт
бар
бара
бараа
бараан
бараана
бараары
бараах
бараахап
бараахтар
барааччы
барааччылар
барабаан
барабыаи
барабын
барабыт
барак
бараллар
бараллара
баралларыгар
баралларын
барамаи
бараммат
бараммын
бараммыт
баран
баранан
баранар
бараннар
баранов
барар
барара
барарга
барарыгар
барарын
барарынан
барарыттан
барахов
бараховы
барахсаанап
барахсан
барахсаны
барахсаттар
барашков
бараҕын
бараҥҥын
барбадос
барбакка
барбаппын
барбат
барбата
барбатах
барбатахтарына
барбатаҕына
барбаттара
барбаттарын
барбатыгар
барбатын
барбах
барбыт
барбыта
барбыттар
барбыттара
барбыттарын
барбытыгар
барбытым
барбытын
барбытынан
барбытыттан
барда
бардам
бардар
бардахтарына
бардахха
бардаҕа
бардаҕына
бардо
бардыбыт
бардылар
бардым
барнаул
барокко
барон
барсан
барсар
барселона
барто
бартыһаан
бары
барыа
барыаи
барыам
барыан
барыар
барыах
барыахтаах
барыахтааҕын
барыахтара
барыахтарын
барыахха
барыаҕа
барыаҥ
барыбыт
барыбытын
барыга
барыгытыгар
барыи
барык
барыл
барыла
барылара
барыларыгар
барыларын
барыларыттан
барыллаан
барыллааһын
барылы
барылын
барылынан
барыма
барыны
барыс
барыстаах
барыстара
барыта
барыттан
барытыгар
барытын
барытынан
барытыттан
барышня
барыы
барыыга
барыылаах
барыылара
барыылары
барыыларыгар
барыыларын
барыыны
барыыс
барыыта
барыыттан
барыытыгар
барыытын
барыытыттан
барыҥ
барыһа
барыһы
барҕа
барҕарыы
бас
баска
баскетбол
баскетбольная
баскыһыанньатыгар
баспыт
бассабыык
бассабыыктар
бассабыыктары
бассеи
бастаабыт
бастаабыта
бастаан
бастаанньа
бастаанньаларын
бастаанньатын
бастаанньаһыттар
бастаах
бастааҥҥы
бастаи
бастакы
бастакылара
бастакынан
бастакыннан
бастакыта
бастакыттан
бастакытын
бастакытынан
бастара
бастарыгар
бастарын
бастатан
бастын
бастыц
бастыыр
бастың
бастыҥ
бастыҥа
бастыҥнар
бастыҥнара
бастыҥнарын
басхана
басыгысова
бат
бата
батаакап
батальон
батальона
батальонун
батан
батарар
батарея
батары
батас
батах
батаҕа
батаҕын
батаҕына
батор
баттаа
баттаабата
баттаабыт
баттаабыта
баттаабыттар
баттаабыттара
баттаан
баттаата
баттааһын
баттааһына
баттааһыннаах
баттааһыны
баттааһынын
баттал
батталлаах
батталтан
батталы
баттаммыт
баттаммыта
баттаммытын
баттанан
баттанар
баттар
баттарын
баттарыттан
баттатан
баттах
баттахтаах
баттахтарын
баттаҕа
баттаҕы
баттаҕын
баттык
баттыы
баттыыгын
баттыыллар
баттыыр
баттыыра
баттыырга
бату
батуев
баты
батыгар
батыи
батым
батыммыт
батыммыта
батын
батыр
батыттан
батыһа
батыһан
батыһар
батыһыннара
батыһыннаран
батыһыы
бах
бахреи
бахсы
бахсылааны
бахтаата
бахчисараи
бачча
баччааҥҥа
баччаҕа
баш
башар
башарин
башарина
башк
башкиир
башкир
башкирдар
башкирия
башкирская
башкортостаан
башкортостан
башня
башнята
башнятын
баян
баҕа
баҕадьы
баҕаи
баҕалаах
баҕалаахтар
баҕалара
баҕаларын
баҕаларынан
баҕана
баҕаны
баҕар
баҕара
баҕарабын
баҕарабыт
баҕараллар
баҕараллара
баҕаран
баҕарар
баҕарара
баҕарарын
баҕарбаппын
баҕарбат
баҕарбаттар
баҕарбыт
баҕарбыта
баҕарбытын
баҕардар
баҕардахтарына
баҕардаххына
баҕардаҕына
баҕардым
баҕарыы
баҕас
баҕата
баҕатааи
баҕаттан
баҕатын
баҕатынан
баҕах
баҥладеш
баһа
баһаам
баһаар
баһаара
баһаарга
баһаардар
баһаарынаи
баһаатаи
баһан
баһар
баһарҕас
баһреи
баһы
баһыгар
баһыи
баһылаабыт
баһылаабыта
баһылаабыттар
баһылаабыттара
баһылаабыттарын
баһылаан
баһылааннар
баһылаатаҕына
баһылааһын
баһылааһына
баһылааһыннара
баһылааһыннарыгар
баһылааһынтан
баһылааһыныгар
баһылааһыҥҥа
баһылаи
баһылыар
баһылыга
баһылыгар
баһылыгын
баһылыгынан
баһылык
баһылыктаах
баһылыктар
баһылыктара
баһылыктарын
баһылыы
баһылыыллар
баһылыыр
баһылыыра
баһылыырга
баһылыырыгар
баһылыырын
баһымньы
баһын
баһынан
баһырҕастаах
баһыттан
баһыттаран
баһыттарыы
баһыыба
ббк
бе
без
безопасности
беи
бек
беларусь
беларуська
белая
белгород
белгородтааҕы
белград
белебеевскии
белок
белокатаи
белоктар
белолюбскаи
белорецкии
белорус
белорусия
белоруссии
белоруссия
белоруссияҕа
белорусскаи
белорустар
белоручев
белыи
белых
бельгия
бельгияҕа
бен
бенгаал
бензин
бензини
бергман
бере
березкин
березовка
березовскаи
берестов
беринг
беркакит
берлин
берлины
берлиҥҥэ
бернар
бернулли
бессонов
бестужев
бета
бетлингк
бетон
би
бибилитиэкэ
бибилэтиэкэ
бибилэтиэкэтэ
библиогр
библиографическии
библиография
библиотека
библиотеката
библиотекатыгар
библиотекатын
библиотекаҕа
библиотеки
библия
бигэ
бигэргэммит
бигэргэммитэ
бигэргэнэр
бигэргэппит
бигэргэппиттэр
бигэргэппитэ
бигэргэтии
бигэргэтиллибит
бигэргэтиллибитэ
бигэргэтиллэр
бигэргэтэллэр
бигэргэтэллэринэн
бигэргэтэн
бигэргэтэр
бигэргэтэринэн
бигэтик
бижбулякскии
бизнес
бизнесмен
бии
биибилии
биизинэс
биики
бииллээх
биилэр
биилээх
биилээҕинэн
биир
бииргэ
биирдигэ
биирдии
биирдиилэригэр
биирдиилэрэ
биирдиилээн
биирдиитэ
биирдик
биирдэ
биирдэм
биирдэр
биирдэрин
биирдэрэ
биирдэстэригэр
биирдэстэрин
биирдэстэринэн
биирдэстэрэ
биирдээх
биирдэһиллибит
биири
бииригэр
биирин
бииринэн
биирис
бииртэн
биирэ
биис
биисинэс
биистэр
биистэри
биистэрин
биистэрэ
биитин
биитэ
биитэр
бииһин
бииһэ
бикимиэдьии
бикипиидии
бикипиэдии
бикипиэдьии
бикитиэкэ
бикитиэкэҕэ
бил
билаи
билбиппит
билбит
билбитим
билбитин
билбиттэр
билбиттэрин
билбиттэрэ
билбитэ
билбэккин
билбэккэ
билбэппин
билбэппит
билбэппититтэн
билбэт
билбэти
билбэтигэр
билбэтим
билбэтин
билбэтинэн
билбэтиттэн
билбэттэн
билбэттэр
билбэттэригэр
билбэттэрин
билбэттэринэн
билбэттэриттэн
билбэттэрэ
билбэтэ
билбэтэх
билбэтэҕэ
билгэ
билгэлиир
билгэлээн
билгэлээһин
билгэтэ
били
билиги
билигин
билии
билиибит
билиигэ
билиилэр
билиилэргэ
билиилэри
билиилэригэр
билиилэрин
билиилэринэн
билиилэриттэн
билиилэртэн
билиилэрэ
билиилээх
билиини
билиитигэр
билиитин
билиитинэн
билиититтэн
билииттэн
билиитэ
билиллэр
билим
билими
билимигэр
билимин
билиммит
билиммиттэр
билиммитэ
билиммэккэ
билиммэт
билиммэттэр
билиммэтэх
билиммэтэҕэ
билимнэр
билимнэрин
билимэ
билимҥэ
билинии
билиниилэрэ
билиниини
билиниитин
билинииттэн
билиниитэ
билиниллибит
билиниллибитэ
билиниллэр
билиниэ
билиниэхпит
билинни
билиннэ
билиннэҕинэ
билинэ
билинэллэр
билинэллэринэн
билинэллэрэ
билинэн
билинэннэр
билинэр
билинэргэ
билинэрин
билинэринэн
билинэрэ
билирдэрэ
билиэ
билиэн
билиэннэи
билиэт
билиэхпит
билиэхпитин
билиэхтэрин
билиэхтэрэ
билиэхтээх
билиэххин
билиэххэ
билиэҥ
билиэҥҥэ
билиңңи
билиҥҥи
билиҥҥигэ
билиҥҥинэн
билиҥҥитэ
билиҥҥэ
билиҥҥээҥҥэ
билиһиннэрбит
билиһиннэрэр
билл
биллибит
биллибитин
биллибитинэн
биллибиттэрэ
биллибитэ
биллибэккэ
биллибэт
биллибэти
биллибэтин
биллибэтинэн
биллибэтиттэн
биллибэттэр
биллибэтэ
биллиилээх
биллиитэ
биллилэр
биллим
биллингс
биллиэн
биллэ
биллэллэр
биллэллэрэ
биллэн
биллэр
биллэрбит
биллэрбиттэр
биллэрбиттэрэ
биллэрбитэ
биллэрбэккэ
биллэрбэт
биллэрдик
биллэрдэ
биллэрдэҕинэ
биллэрии
биллэриигэ
биллэриитэ
биллэриллибит
биллэриллибитэ
биллэрин
биллэринэн
биллэриттэн
биллэрэ
биллэрэбит
биллэрэллэр
биллэрэн
биллэрэр
биллэрэргэ
биллэрэрин
биллэрэринэн
биллэрэрэ
биллэрээри
биллэхтэринэ
биллэххэ
биллэҕинэ
билсибит
билсибитэ
билсии
билсиһии
билсиһэн
билсэ
билсэн
билсэр
бильярд
билэ
билэбин
билэбит
билэллэр
билэллэрин
билэллэринэн
билэллэриттэн
билэллэрэ
билэлэр
билэлэри
билэлээх
билэн
билэннэр
билэр
билэрбит
билэргэ
билэригэр
билэрин
билэринэн
билэриттэн
билэрэ
билээри
билээччи
билээччилэр
билээччитэ
билэҕин
билэҕит
билюкина
бин
бинсээк
бинтиэпкэ
био
биобиблиогр
биобиблиографическии
биографии
биографическии
биография
биографията
биолог
биологическаи
биологических
биология
биологията
биологияҕа
биосфера
биохимия
биоэтика
биппит
биржа
биржата
биржаҕа
биригэдьиир
биригэдьииринэн
биригэдьиирэ
биригээдэ
биригээдэтигэр
биригээдэтин
биригээдэтэ
бириинсибэ
бириис
бириискэлэригэр
бириистэри
бириистээх
бирииһи
бирииһигэр
бирииһин
бирииһэ
бирикээс
бирикээсчиктэр
бирикээһи
бирикээһинэн
бирикээһэ
бирисээгэ
биричиинэ
биричиинэлэр
биричиинэлэрин
биричиинэлэрэ
биричиинэнэн
биричиинэтинэн
биричиинэтэ
бириэмии
бириэмиэи
бириэмэ
бириэмэлэрэ
бириэмэлээх
бириэмэни
бириэмэтигэр
бириэмэтин
бириэмэтэ
бириэмэҕэ
бириэт
бирскии
бирюза
бит
битва
бити
битигэ
битигэр
битии
битим
битин
битинэн
бититтэн
битлз
биттэр
биттэрин
биттэрэ
битэ
битэмиин
битэмииннэр
битэмииннээх
бич
бичиги
бичигин
бичигинэн
бичигэ
бичик
бичиккэ
бичурин
бишкек
биьиги
биэ
биэбэи
биэдэрэ
биэксэл
биэлсэр
биэни
биэнсии
биэр
биэрбит
биэрбитин
биэрбитинэн
биэрбиттэр
биэрбиттэрэ
биэрбитэ
биэрбэккэ
биэрбэт
биэрбэттэр
биэрбэттэрэ
биэрбэтэ
биэрбэтэх
биэрбэтэххэ
биэрбэтэҕинэ
биэрбэтэҕэ
биэрдилэр
биэрдэ
биэрдэхтэринэ
биэрдэххэ
биэрдэҕинэ
биэрии
биэриигэ
биэриилэригэр
биэриилэрин
биэриилэринэн
биэриилэриттэн
биэриилэрэ
биэриини
биэриинэн
биэриитигэр
биэриитин
биэриитинэн
биэрииттэн
биэриитэ
биэриллэр
биэримэ
биэриэ
биэриэм
биэриэн
биэриэхпит
биэриэхтэрин
биэриэхтээх
биэриэххин
биэриэххэ
биэриҥ
биэрсии
биэртэлээн
биэрэ
биэрэбин
биэрэбит
биэрэгин
биэрэгэ
биэрэгэр
биэрэк
биэрэккэ
биэрэллэр
биэрэллэригэр
биэрэллэрин
биэрэллэрэ
биэрэн
биэрэннэр
биэрэпис
биэрэпискэ
биэрэпиһинэн
биэрэр
биэрэргэ
биэрэри
биэрэригэр
биэрэрин
биэрэринэн
биэрэриттэн
биэрэрэ
биэрэстэ
биэрэстэлээх
биэрээри
биэрээччи
биэрээччилэр
биэс
биэскэ
биэстии
биэстэ
биэстээх
биэтэ
биһи
биһиги
биһигини
биһигиттэн
биһигэ
биһикки
биһилэх
биһирэбили
биһирэбилин
биһирэбиллэрин
биһирэм
биһирэммит
биһирээн
биһиэнэ
биһиэхэ
благоварскии
благовещенскаи
благовещенскии
благодаря
ближаи
ближнэи
блок
блока
блокированию
блокировать
блокировка
блокировке
блокировки
блокировку
бниц
бо
бобо
боболлор
бобон
бобор
бобуллан
бобуллар
бобуллубат
бобуллубут
бобуллубута
бобуу
бобууга
бобуулаах
бобуулар
бобуулары
бобууну
бобуута
бог
бога
богдан
богемия
богиня
бодои
боевои
боескоров
божество
бои
бокс
бокса
боксаҕа
боксе
боксер
боксера
бокуои
бокуонньук
бол
болбукта
болгар
болгардар
болгария
болгарияҕа
болгарскаи
болгуо
болдьох
болдьохтоон
болдьохтоох
болдьоххо
болдьоҕо
болдьоҕун
более
болезни
болеслав
боливар
боливиано
боливия
боливияҕа
болкулуор
боллох
боллур
боло
бологур
боломуочуи
боломуочунаи
болоорхои
болот
болт
болтоҥо
болугур
болуо
болуоссакка
болуоссат
болуоссата
болуоссатыгар
большая
больше
большевик
большевиктар
большевиктары
большие
большим
большинстве
большинство
большого
большое
большои
болҕар
болҕои
болҕомто
болҕомтолоох
болҕомтолоохтук
болҕомтолорун
болҕомтону
болҕомтотун
болҕомтоҕо
бомба
бон
бонапарт
бондарь
бонн
боотулу
боотулуу
боотулууга
боотулуулар
боотур
боотурдар
боотурускаи
боотурусскаи
боотуруус
боотуруускаи
боппуруос
боппуруоска
боппуруостар
боппуруостара
боппуруостарга
боппуруостары
боппуруостарыгар
боппуруостарын
боппуруоһа
боппуруоһу
боппуруоһугар
боппуруоһун
боппут
боппута
бор
бордоҥ
борис
борисов
борисова
борисович
борисовна
борогонскаи
бородин
бородино
бородууксуи
бородуукта
борокуоппаи
борокуот
боронсуус
боростуои
боротокуол
боротокуола
боротокуолга
борохуот
борохуотунан
бороҕон
бороҕоннор
бороҕоҥҥо
бороҥ
бороһуок
борук
борукуоппаи
боруллуо
боруобалаан
боруобаланан
боруобалыы
боруобалыыр
боруода
боруодата
боруодатын
боруонса
боруу
боруулаах
борщ
борьба
борьбе
борьбы
босиков
босния
боссоои
бостон
бостуои
босуобуи
босфор
босхо
босхоломмут
босхоломмута
босхолоно
босхолонон
босхолонор
босхолонуу
босхолонуутун
босхолообут
босхолообута
босхолообуттар
босхолоон
босхолооһун
босхолооһуҥҥа
босхолуур
босхолуурга
босхону
босхоҥ
ботанига
ботаник
ботаника
ботаническаи
ботсвана
ботуобуи
ботуруон
бохои
бохуот
бочкарев
бочуот
бочуоттаах
бочуотун
бочуотунаи
боччумнаах
боякова
бояров
боҕо
боҕра
бп
бравина
бразилия
бразилияҕа
браи
бранденбург
брат
братскаи
браузер
браузердар
брежнев
бреи
бренд
бриллиант
британия
британияны
британияттан
британияҕа
британскаи
бродников
брокгауз
брокгауза
брокер
броненосец
бронхит
брошюра
бруклин
брунеи
брэгг
брюссель
брянскаи
бск
бсэ
бу
бубка
бубякин
буг
бугера
будапешт
будда
буддизм
буддистар
будем
будет
будете
буду
будут
будущее
будущем
будьте
буздякскии
буи
бука
букатын
букатыннаахтык
букатыҥылар
букв
буква
букву
буквы
буккаастаах
буккуи
буккулла
буккуллан
буккуллар
буккуллубут
буккуллуута
буккууру
бул
була
булаары
булак
булаллар
булан
буланнар
булар
буларга
булас
булатов
булбакка
булбат
булбатах
булбатым
булбут
булбута
булбуттар
булбуттара
булбуттарын
булгу
булгунньах
булгунньахтаах
булгуччу
булгуччулаах
булгуччута
булду
булдун
булдунан
булка
булкаас
булкаастаах
булкуи
булкуһан
булларан
буллинскии
буллум
булт
бултаабыт
бултаан
бултаах
бултааһын
бултааһыны
бултанар
бултуи
бултуу
бултууллар
бултууллара
бултуур
бултуурга
булугас
булуллар
булуллубут
булуллубута
булуллубуттар
булуллубуттара
булуммут
булуна
булунан
булунар
булунарыгар
булунуу
булуо
булуон
булуохха
булуу
булууга
булуус
булуҥ
булуҥҥа
булчут
булчута
булчуттар
булчуттары
булҕар
булҕардар
бун
бунге
бункер
буну
буо
буобура
буои
буоксаҕа
буол
буола
буолааи
буолаараи
буолаары
буолаат
буолааччы
буолааччылар
буолабын
буолабыт
буолаллар
буолаллара
буолалларыгар
буолалларын
буолалларынан
буолалларыттан
буоламмын
буоламмыт
буолан
буоланнар
буолар
буолара
буоларбыт
буоларбытын
буоларга
буоларсаха
буолары
буоларыгар
буоларын
буоларынан
буоларыттан
буолас
буолаҕын
буолаҥҥын
буолаһа
буолаһыгар
буолаһын
буолбаат
буолбакка
буолбат
буолбата
буолбатах
буолбатахпын
буолбатахтар
буолбатахтарын
буолбатахтарына
буолбатаҕа
буолбатаҕын
буолбатаҕына
буолбаттар
буолбаты
буолбатын
буолбуппут
буолбут
буолбута
буолбуттар
буолбуттара
буолбуттарга
буолбуттарын
буолбуттарыттан
буолбуту
буолбутугар
буолбутум
буолбутун
буолбутунан
буолбутуттан
буолла
буоллаллар
буоллар
буолларбын
буолларгын
буоллахкына
буоллахпына
буоллахпытына
буоллахтара
буоллахтарына
буоллахха
буоллаххына
буоллаххытына
буоллаҕа
буоллаҕаи
буоллаҕым
буоллаҕына
буоллаҕыҥ
буоллубут
буоллулар
буоллум
буоллун
буоллуҥ
буолсу
буолта
буолтун
буолума
буолуо
буолуои
буолуом
буолуон
буолуор
буолуох
буолуохпун
буолуохпут
буолуохпутун
буолуохтаах
буолуохтаахтар
буолуохтааҕа
буолуохтааҕын
буолуохтара
буолуохтарын
буолуохтарыттан
буолуохтун
буолуохха
буолуоххун
буолуоҕа
буолуоҕаи
буолуоҕун
буолуоҕуттан
буолуоҕуҥ
буолуоҥ
буолуу
буолуубут
буолууга
буолуулара
буолууларыгар
буолууларын
буолууларыттан
буолууну
буолуута
буолууттан
буолуутугар
буолуутун
буолуутуттан
буолуҥ
буомба
буомбалаабыттар
буомбалары
буомбаны
буор
буора
буораи
буорах
буорахтар
буораҕы
буорга
буордаах
буорту
буортулаан
буортулаах
буортулааҕы
буортулааҕын
буортулуон
буортулуур
буортуну
буортута
буору
буоругар
буорум
буорун
буорунан
буоруттан
буотама
буотах
буох
буппут
бур
бураевскии
бург
бургунас
бурдуга
бурдугу
бурдугун
бурдугунан
бурдук
бурдукка
бурдуктан
буржуазнаи
бурзянскии
буркина
бурнашев
бурнашева
буруи
буруо
буруону
буруота
буруотун
бурут
бурхан
бурханизм
бурцев
бурцева
бурят
бурятия
бурятияҕа
буряттар
бус
буспут
бут
бута
бутан
буттар
буттара
буттарын
бутугар
бутуи
бутум
бутун
бутунан
бутуттан
бутэи
бутэрбитэ
бутэрэн
бууктаах
буукуба
буукубалаах
буукубалар
буукубалара
буукубалары
буукубаларын
буукубаларынан
буукубанан
буукубаны
буукубата
буукубаттан
буулдьа
буулдьалар
буур
буураи
буурҕа
буут
бууттаах
буучугурас
бухара
бухатыыр
бухатыыра
бухатыырдар
бухатыырдара
бухатыырдарын
бухатыыры
бухатыырын
бухгалтер
бухгалтерынан
буш
буэнос
буҕа
буһан
буһара
буһаран
буһарар
буһарарга
буһарыллар
буһарыллыбыт
буһарыы
бы
быа
быалаах
быанан
быаны
быар
быара
быарга
быары
быарым
быарын
быата
быатын
бывает
быган
быдан
быданнаабыт
быданнаата
быдьар
быи
быкка
был
была
былаа
былаадьык
былааи
былаан
былаана
былааннаах
былааннаахтык
былааннанар
былааннарын
былаанныыр
былааны
былаанын
былаас
былааска
былаастаах
былаастан
былаастар
былаастара
былаастарын
былаах
былаахтар
былаахтара
былаачыи
былааҕа
былааҕы
былааҕын
былааҥҥа
былааһа
былааһы
былааһыгар
былааһын
былааһынан
былас
былатыан
былаҕаи
былдьаабыт
былдьаабыта
былдьаабыттар
былдьаан
былдьааһын
былдьаммыт
былдьатан
былдьаһан
былдьаһар
былдьаһыктаах
былдьаһыы
былдьаһыыта
былдьаһыытын
былдьыыр
были
было
былчархаи
былчыҥ
былыкка
былыр
былыргаттан
былыргы
былыргылар
былыргылыы
былыргыны
былыргыта
былыргыттан
былыргытын
былырыын
былырыыҥҥы
былыт
былыта
былыттаах
былыттар
былыты
бын
быппыт
быр
быра
быраа
бырааба
быраабата
быраабатын
быраабы
быраабыгар
быраабыла
быраабылалар
быраабылалара
быраабылалары
быраабылаларын
быраабыланы
быраабылата
быраабылатын
быраабын
быраабынан
быраап
быраапка
бырааптаах
бырааптаахтар
бырааптаммыта
бырааптара
бырааптарын
быраас
бырааска
быраастар
быраастара
быраастары
быраат
быраата
бырааттаах
бырааттара
бырааттарын
бырааттыы
бырааттыылар
быраатым
быраатын
бырааһа
бырааһынан
бырааһынньыга
бырааһынньыгар
бырааһынньыгын
бырааһынньык
бырааһынньыкка
бырааһынньыктар
бырааһынньыктара
бырааһынньыктарга
бырабылыанньа
бырабылыанньата
бырабылыанньатын
бырабыы
бырабыыталыстыба
бырабыыталыстыбалара
бырабыыталыстыбата
бырабыыталыстыбатыгар
бырабыыталыстыбатын
бырагыраама
бырагырааманы
бырагырааматын
бырагыраамма
бырагыраамматын
быраи
быракаан
быралыи
бырамыысыланнас
бырамыысыланнаһын
бырастыы
бырах
бырахпакка
бырахпат
бырахпаттар
бырахпыт
бырахпыта
бырахпыттар
бырахпыттара
бырахтахха
бырачыас
бырачыастааччылар
бырачыастар
быраҕа
быраҕаллар
быраҕан
быраҕар
быраҕаттаан
быраҕыллан
быраҕыллар
быраҕыллыбыт
быраҕыллыбыта
быраҕыы
быраһааи
бырдах
бырдахтар
бырдахха
бырдьааҕаи
быры
бырыы
бырыһыан
бырыһыана
бырыһыаннара
бырыһыанын
бырыһыаҥҥа
быс
быспакка
быспыт
быспыта
быста
быстан
быстар
быстара
быстах
быстахтык
быстахха
быстро
быстрого
быстыбат
быстыбыт
быстыбыта
быстыспат
быстыы
быстыыны
быстыыта
быт
быта
бытаан
бытааннык
бытааран
бытаарар
бытаардар
бытанан
бытантаи
бытархаи
бытарыи
бытарык
бытарытан
бытаһыттар
бытаһыттыҥылар
бытовои
быттар
быттара
быттарын
быты
бытыа
бытык
бытыктаах
бытым
бытын
бытынан
бытырыыс
бытыттан
бытыылка
бытыылканы
быть
быччархаи
быччыҥ
быччыҥнар
быччыҥнара
быччыҥнары
быччыҥнарын
быччыҥҥа
бышев
быы
быыбар
быыбара
быыбарга
быыбардааччы
быыбардаммыта
быыбарданан
быыбардыыр
быыбары
быыбарыгар
быыбарын
быыбарынаи
быыгынас
быыл
быыс
быысаһар
быыстала
быыстапка
быыстапкалара
быыстапкаларга
быыстапката
быыстапкатыгар
быыстапкатын
быыстапкаҕа
быыстарыгар
быыстарынан
быытта
быыһа
быыһаабыт
быыһаабыта
быыһаан
быыһаммыт
быыһанар
быыһыгар
быыһык
быыһынан
быыһыттан
быыһыыр
быьа
быьаарар
быьыытынан
быһа
быһаа
быһаар
быһаара
быһаараары
быһаарабыт
быһаараллар
быһаараллара
быһааралларынан
быһааран
быһаараннар
быһаарар
быһаарара
быһаарарга
быһаарарын
быһаарарынан
быһаарбакка
быһаарбат
быһаарбыппыт
быһаарбыт
быһаарбыта
быһаарбыттар
быһаарбыттара
быһаардахпытына
быһаардахха
быһаарсар
быһаарсыы
быһаарсыыга
быһаарыахпыт
быһаарыахтаах
быһаарыахха
быһаарылла
быһаарыллаллар
быһаарыллан
быһаарыллар
быһаарыллара
быһаарыллыан
быһаарыллыбат
быһаарыллыбатах
быһаарыллыбыт
быһаарыллыбыта
быһаарыллыбытын
быһаарылынна
быһаарыммыт
быһаарыммыта
быһаарынан
быһаарынар
быһаарыныы
быһаарыныылары
быһаарыныыны
быһаарыы
быһаарыыбыт
быһаарыыбытынан
быһаарыыга
быһаарыылаах
быһаарыылар
быһаарыылара
быһаарыыларга
быһаарыылартан
быһаарыылары
быһаарыыларыгар
быһаарыыларын
быһаарыыларынан
быһаарыынан
быһаарыыны
быһаарыыта
быһаарыыттан
быһаарыытыгар
быһаарыытын
быһаарыытынан
быһалыы
быһан
быһар
быһата
быһах
быһаччы
быһаҕа
быһаҕас
быһаҕы
быһаҕынан
быһыи
быһылаан
быһылааннар
быһылааннарга
быһылаах
быһылааҥҥа
быһыллар
быһыллыбыт
быһыллыбыта
быһыллыбыттара
быһыт
быһыта
быһыты
быһыы
быһыыбыт
быһыыга
быһыылаах
быһыылаахтар
быһыылаахтык
быһыылааҕа
быһыылан
быһыыланан
быһыыланар
быһыыланара
быһыыланарга
быһыыланарын
быһыыланыы
быһыыланыыга
быһыыланыыны
быһыылар
быһыылара
быһыыларга
быһыылартан
быһыылары
быһыыларыгар
быһыыларын
быһыыларынан
быһыыларыттан
быһыынан
быһыыны
быһыыта
быһыыттан
быһыытыгар
быһыытыи
быһыытын
быһыытынан
быһыытыттан
быһыыҥ
бье
бэ
бэббидж
бэдьимэ
бэдьээлэ
бэдэр
бэдэрээлинэи
бэдэрээссии
бэи
бэк
бэккэ
бэклэрбэк
бэкээринэ
бэл
бэлиитигэ
бэлиитик
бэлиитиктэр
бэлиитикэ
бэлиитикэни
бэлиитикэтин
бэлиитикэтэ
бэлиитикэҕэ
бэлисипиэт
бэлитиичэскэи
бэлиэ
бэлиэлэр
бэлиэлэрдээх
бэлиэлэри
бэлиэлэрин
бэлиэлэринэн
бэлиэлэрэ
бэлиэлээх
бэлиэни
бэлиэнэн
бэлиэтигэр
бэлиэтии
бэлиэтииллэр
бэлиэтииллэринэн
бэлиэтииллэрэ
бэлиэтиир
бэлиэтииргэ
бэлиэтиирин
бэлиэтииринэн
бэлиэтиирэ
бэлиэтин
бэлиэтинэн
бэлиэтиэххэ
бэлиэтэ
бэлиэтэммит
бэлиэтэммитэ
бэлиэтэнии
бэлиэтэнэн
бэлиэтэнэр
бэлиэтэнэрэ
бэлиэтээбит
бэлиэтээбиттэр
бэлиэтээбиттэрэ
бэлиэтээбитэ
бэлиэтээн
бэлиэтээһин
бэлиэтээһиннэр
бэлиэтээһиннэрэ
бэлтир
бэлэм
бэлэми
бэлэмигэр
бэлэмин
бэлэмнии
бэлэмнииллэр
бэлэмниир
бэлэмнииргэ
бэлэмнэммит
бэлэмнэнии
бэлэмнэнэн
бэлэмнэнэр
бэлэмнэригэр
бэлэмнээ
бэлэмнээбит
бэлэмнээбиттэр
бэлэмнээбитэ
бэлэмнээн
бэлэмнээтилэр
бэлэмнээх
бэлэмнээһин
бэлэмнээһиҥҥэ
бэлэмэ
бэлэмҥэ
бэлэс
бэлэх
бэлэхтиир
бэлэхтэри
бэлэхтэрэ
бэлэхтээ
бэлэхтээбит
бэлэхтээбитэ
бэлэхтээн
бэлэҕэ
бэппин
бэр
бэрбээкэи
бэргэн
бэргэнник
бэргэһэ
бэргэһэлэммит
бэргэһэлэр
бэргэһэлэрин
бэргэһэлээх
бэргэһэни
бэргэһэтин
бэргэһэтэ
бэрдибэк
бэрдимсии
бэрдин
бэрдиттэн
бэрдьигэстээх
бэрдьигэстээххэ
бэрдэ
бэрии
бэрик
бэриллибит
бэриллибиттэрэ
бэриллибитэ
бэриллибэт
бэриллиитэ
бэриллиэн
бэриллиэхтээх
бэриллэллэр
бэриллэн
бэриллэр
бэриллэрин
бэриллэрэ
бэриммит
бэриммиттэр
бэриммиттэрэ
бэриммитэ
бэриммэт
бэринии
бэриниилээх
бэриниилээхтик
бэриннэрэр
бэринэн
бэринэр
бэринэргэ
бэрияк
бэркэ
бэрпин
бэрсии
бэрсэн
бэрсэр
бэрт
бэртэрэ
бэртээхэи
бэрэ
бэрэбинэ
бэрэбинэни
бэрэмэдэи
бэрэпиэссэр
бэрэпиэссэрэ
бэрэсидьиэн
бэрэсидьиэнин
бэрэсидьиэнинэн
бэрэсидьиэнэ
бэрэссэдээтэл
бэрэссэдээтэлин
бэрэссэдээтэлинэн
бэрэссэдээтэллэрэ
бэрэссэдээтэлэ
бэрэстэбиитэл
бэрэстэбиитэлинэн
бэрэстэбиитэллэр
бэрэстэбиитэллэрин
бэрэстэбиитэллэрэ
бэрэстэбиитэлэ
бэрэстээтэл
бэрэстээтэлин
бэрэстээтэлинэн
бэрэстээтэлэ
бэрэсэдээтэлин
бэрэсэдээтэлэ
бэрээдэги
бэрээдэгин
бэрээдэгинэн
бэрээдэгэ
бэрээдэгэр
бэрээдэк
бэрээдэккэ
бэрээдэктэрэ
бэрээдэктээх
бэрээдэктээхтик
бэс
бэскэ
бэстибээл
бэстибээлигэр
бэстибээлин
бэстибээлэ
бэстилиэнэи
бэстилиэти
бэстээх
бэстээххэ
бэт
бэтигэр
бэтин
бэтинчэ
бэтинэн
бэтиттэн
бэттиэмэ
бэттэр
бэттэрэ
бэттэх
бэтэ
бэтэринээр
бэтэрээ
бэтэрээннэр
бэтэрээннэрин
бэтэрээнэ
бэтэх
бэтэҕинэ
бэчээккэ
бэчээт
бэчээтин
бэчээттиир
бэчээттэммит
бэчээттэммиттэр
бэчээттэммиттэрэ
бэчээттэммитэ
бэчээттэнэллэр
бэчээттэнэллэрэ
бэчээттэнэн
бэчээттэнэр
бэчээттэппит
бэчээттэппитэ
бэчээттэтэн
бэчээттээбит
бэчээттээбиттэрэ
бэчээттээбитэ
бэчээттээн
бээрии
бээтинэ
бэҕэһээ
бэһис
бэһиэлэи
бюджет
бюллетень
бюро
бюрократ
бюрократа
бюрота
бюротун
бүгүн
бүгүнүгэр
бүгүҥҥэ
бүгүҥҥү
бүгүҥҥүттэн
бүддьүөт
бүддьүөттэн
бүдүрүи
бүк
бүлүкэтин
бүлүү
бүлүүгэ
бүлүүттэн
бүлүүтээҕи
бүлүүчээн
бүппэт
бүппүт
бүппүттэр
бүппүтэ
бүппүтүн
бүппүтүнэн
бүрэ
бүрээт
бүрээтии
бүрээттэр
бүрүи
бүрүллэн
бүрүллэр
бүрүллүбүт
бүрүстүөлгэ
бүрүстүөлүттэн
бүрүөтүн
бүрүөһүн
бүрүөһүнэ
бүрүөһүнүн
бүт
бүттэ
бүттэр
бүттэрэ
бүттэҕинэ
бүттүүн
бүттүүнэ
бүттүүнүн
бүтэ
бүтэи
бүтэллэр
бүтэн
бүтэр
бүтэрбит
бүтэрбитин
бүтэрбиттэр
бүтэрбиттэрэ
бүтэрбитэ
бүтэрбитэнациональныи
бүтэрин
бүтэриэҕиттэн
бүтэрэ
бүтэрэллэрин
бүтэрэн
бүтэрэр
бүтэрээри
бүтэрээт
бүтэһигин
бүтэһигэр
бүтэһик
бүтэһиктээх
бүтэһиктээхтик
бүтүгэр
бүтүн
бүтүннүү
бүтүннүүтэ
бүтүннүүтүгэр
бүтүннүүтүн
бүтүү
бүтүүлэригэр
бүтүүлээх
бүтүүтэ
бүтүүтүгэр
бүтүүтүн
бүтүүтүттэн
бүтүө
бүтүөр
бүүрүктээх
бүүс
бүүчээн
бүүһэ
бүөбэи
бүөккэ
бүөлүү
бүөлүүр
бүөр
бүөргэ
бүөтүр
бө
бөдөҥ
бөдөҥнөрө
бөдөҥсүи
бөкчөҥөө
бөлкөи
бөлүһүөгэ
бөлүһүөк
бөлүһүөпүи
бөлөх
бөлөхтөн
бөлөхтөр
бөлөхтөргө
бөлөхтөрү
бөлөхтөрүгэр
бөлөхтөрүн
бөлөхтөрүттэн
бөлөхтөрө
бөлөххө
бөлөҕү
бөлөҕүн
бөлөҕүнэн
бөлөҕө
бөлөҕөр
бөлөһүөгэ
бөлөһүөк
бөлөһүөктэр
бөлөһүөпүи
бөр
бөрдө
бөртөлүөт
бөртөлөөх
бөрүстүөлгэ
бөрүстүөлтэн
бөрүө
бөрө
бөрөлөр
бөрөсүүдьүмүн
бөрөттөн
бөтүрүөп
бөтүҥ
бөтүҥнэр
бөх
бөхө
бөҕү
бөҕө
бөҕөнү
бөҕөргүүр
бөҕөргүүрүгэр
бөҕөргүүрүн
бөҕөргөтүллүбүт
бөҕөргөтүү
бөҕөргөтүүгэ
бөҕөргөтөн
бөҕөргөтөр
бөҕөргөтөргө
бөҕөргөөн
бөҕөс
бөҕөтүн
бөҕөтө
бөҕөх
бөҕөҕө
бөҕөһө
бөһүөлэги
бөһүөлэгин
бөһүөлэгэ
бөһүөлэгэр
бөһүөлэк
бөһүөлэккэ
бөһүөлэктэр
бөһүөлэктэрэ
в
ва
ваби
вавилон
вагнер
вадим
важно
важным
ваи
ваксман
вакцина
валенсия
валентин
валентина
валентинович
валериан
валерии
валерия
валл
валюта
валюталар
валютаны
валютата
валютатын
вам
вами
ван
вандааллааһын
вандализм
вандализма
ванкувер
вань
варвара
варгасов
вариана
вариант
вариантов
варианты
варламов
варламова
варшава
варшаваны
варшаватааҕы
варшаваҕа
вас
василии
васильев
васильева
васильевич
васильевка
васильевна
васильевы
васко
вася
ватикан
вацлав
ваш
ваше
вашего
вашеи
вашем
вашему
ваши
вашингтон
вашингтоҥҥа
ваших
вашу
вв
введение
вверху
ввиду
ввп
ввс
вднх
ве
веб
вебер
вега
вегас
ведомости
ведущаи
ведь
веи
век
века
веке
веков
вектор
вектора
вектордар
векторнаи
векторы
великая
великии
великобритания
великобританияҕа
великого
великои
великолепныи
вена
венаны
венатааҕы
венаҕа
венгр
венгрия
венгрияҕа
венера
венесуэла
венеция
вера
верде
верди
вероятно
вероятность
версии
версию
версия
версията
версиятын
версиятынан
верхневилюи
верхнего
верхнеи
верхнии
верховнаи
верховного
верхоянскаи
верхоянского
веры
весе
весна
вестготтар
вести
вестник
вестфалия
весь
весьма
ветер
ветеран
ветерана
ветераннара
ветеринария
ветеринарнаи
вече
вечер
вечернии
вещество
веществолар
веществолары
взаимодеи
взвод
взводун
взгляд
взятие
ви
виа
вид
вида
виде
видео
видеоклип
видик
видимо
видов
виду
виды
виет
вижу
византии
византия
византияны
византияҕа
визирова
вики
викиданных
викимедиа
викимедии
википедии
википедию
википедия
википедија
викисклад
викискладе
викитека
викитеке
викификатор
виктор
виктория
викторович
викторовна
вильгельм
вильнюс
вильям
вилюи
вилюя
вина
винница
виноград
винокуров
винокурова
винсент
винчи
випома
виргин
виргиния
вирджиния
виртуальнаи
вирус
вирустар
вируһа
вируһу
вируһун
виталии
витамин
виташевскаи
витим
витсен
витус
вице
вич
вишня
вка
вклад
включает
включая
включение
вконтакте
вкп
владеет
владивосток
владивостокка
владивостоктан
владимир
владимира
владимиров
владимирович
владимировна
владислав
власов
власти
власть
влияние
влксм
вместе
вместо
вне
внести
внешние
внизу
внимание
вновь
внутри
во
вов
вода
водка
водород
водороднаи
воды
воевода
военкоматынан
военнаи
военная
военно
военное
военных
воз
возвращает
возвращение
воздеи
возможно
возможности
возможность
возможные
возраст
возраста
вои
воинскаи
воинских
воины
вок
вокал
вокальнаи
вокзал
вокруг
волга
волгатааҕы
волгоград
волгоградтааҕы
волеи
волков
волкова
вологда
володя
волость
вольдемар
вольнои
вольтер
вольфганг
воля
вообще
вооруже
вооруженных
вопрос
вопроса
вопросам
вопросов
вопросу
вопросы
воронеж
воронежскаи
воронежтааҕы
ворошилов
воспитание
воспитания
воспользоваться
воспоминании
воспоминания
восток
востока
востоке
востокка
востоковед
востоковедение
востоковедения
восточная
восточно
восточного
восточнои
восточныи
вот
вота
вп
впервые
вполне
вправе
вправо
врангель
врач
вред
времен
времена
времени
время
вроде
вроцлав
вс
все
всеволод
всегда
всего
всеи
всем
всеми
всемирнои
всемирныи
всероссии
всех
вставить
вставки
вставляется
встречи
всю
вся
вторая
второго
второе
второи
ву
вузов
вулкаан
вулкан
вулканнар
входит
вцик
вы
выборам
выборах
выборов
выборы
выбрать
вывод
вывода
выводится
выглядит
вызов
вызова
вызывает
выи
вылка
вып
выпуск
выпускнига
выражения
высказывания
высота
высоты
выставка
выставлена
выступления
высшая
выше
вьетнам
вьетнамҥа
вэи
вюртемберг
вяземск
вяону
вячеслав
вікіпедія
вүртемберг
г
га
гаа
гааз
гаас
гааһа
гааһы
гааһынан
габдулла
габдуллаа
габышев
габышева
гаваи
гавриил
гаврил
гаврилов
гаврилова
гаврилович
гаврильев
гаврильева
гаврильевич
гаврильевна
гага
гагарин
гагауз
гагаузтар
газ
газета
газеты
гази
газпром
гаи
гаити
галактика
галактикалар
галерея
галереята
галилеи
галилео
галина
галисия
галкин
гама
гамбия
гамбург
гамлет
ган
ганди
ганьсу
гаогюи
гаоцзюи
гар
гараж
гарвард
гарнизона
гарри
гаршнептар
гаспринскаи
гастев
гастрикка
гастрин
гастрит
гафури
гафурии
гаһа
гаһы
гбу
гвардеи
гвардия
гвинея
гг
гггг
где
гдр
ге
геван
гевара
геденштром
геи
гектар
гелии
геллер
геллерт
геморрои
ген
генеалогия
генезис
генерал
генерала
генералы
генеральнаи
генетика
генетическаи
генетическэи
гении
геннадии
геноцид
генри
генрих
географ
географическаи
географические
географических
географического
география
географията
географияҕа
геодезия
геолог
геолога
геологическаи
геология
геологията
геологияҕа
геолого
геологтар
геометрическаи
геометрия
георг
георгиевич
георгиевна
георгии
геохимия
гепатит
гераи
герасим
герасимов
герасимова
герасимович
герасимовна
герб
гербэлэрэ
гербэтэ
герман
германиеи
германия
германиялыын
германияны
германияттан
германияҕа
германскаи
гермогенов
геродот
героев
герои
героическаи
героическии
героя
герцеговина
герцен
герцог
ги
гигиена
гидра
гидролог
гидрология
гильберт
гильдиялаах
гималаи
гимназия
гимназията
гимназиятыгар
гимназиятын
гимназияҕа
гимнастика
гин
гинея
гипноз
гипноһу
гипоталамус
гипотеза
гипофиз
гириэк
гириэктии
гириэктэр
гитара
гитис
гитлер
гиэнэ
гиэрбэ
гкчп
гл
глава
главнаи
главное
главныи
главным
главных
главсевморпуть
главы
гладунов
гласнаи
гленн
глинка
глобал
глобализация
глобальнаи
глобус
глотов
глюкоза
го
гоби
говерла
говорит
говорить
говоров
гог
гоген
гоголев
гоголева
гоголь
год
года
годах
годов
годом
году
годунов
годы
гои
гол
голиков
голландия
голландияҕа
голливуд
голова
головин
голодомор
голос
голоса
голосов
голосование
голосовании
голосования
гольдеров
гомер
гонконг
гор
гора
горбаче
горбачев
гордеев
гордон
горкомун
гормон
гормоннар
гормоннара
гормоннары
гормону
горнаи
горно
горного
горныи
город
города
городе
городов
городок
городского
городское
городскои
горохов
горохова
горы
горькаи
гос
госдума
госкомстат
госпиталыгар
госпитальга
гост
гостиница
государств
государства
государственнаи
государственная
государственного
государственное
государственнои
государственности
государственныи
государство
государстволар
государстволара
государстволарга
государстволары
государстволарын
государствоны
государствота
государствотыгар
государствоҕа
госуниверситета
готовцев
гоша
гр
градусах
градусов
граждане
гражданин
гражданина
гражданнар
гражданнара
гражданнарыгар
гражданнарын
гражданскаи
гражданская
гражданскои
гражданствота
грамм
грамматика
грамматиката
грамматикатын
грамматическаи
грамота
грамоталарынан
грамотанан
грамотата
грамотатынан
гран
гранаада
гранаата
гранд
гранит
границы
грант
гранын
граубюнден
граф
графе
графига
график
графика
графикка
графическаи
греи
грек
греко
гректэр
гректэртэн
гренландия
грех
греция
грецияны
грецияҕа
греч
гречиха
гречка
гречневаи
грибы
григориан
григории
григорьев
григорьева
григорьевич
григорьевна
григорян
грин
гринвич
грипп
грознаи
гроут
грузин
грузиннар
грузинскаи
грузия
грузияттан
грузияҕа
грузовои
групп
группа
группалаах
группата
группатын
группаҕа
группе
группы
груша
грэмми
грэс
гу
губаи
губбюро
губернатор
губернатора
губернаторыгар
губернии
губерния
губерниятыгар
губерниятын
губерниятыттан
губревком
губчека
гуи
гуинея
гулаана
гулаах
гулаг
гуляев
гуманист
гуманитарнаи
гуманитарная
гуманитарные
гуманитарныи
гуманитарных
гумиле
гумилев
гун
гуна
гуннар
гуннара
гуннук
гуп
гур
гурдар
гурии
гуркин
гурьев
густав
гутун
гуур
гуурдар
гуурдары
гчи
гы
гыга
гылаах
гылаахтар
гылааҕын
гыланан
гылар
гылара
гыларын
гыммакка
гыммат
гыммыккын
гыммыт
гыммыта
гыммыттан
гыммыттар
гыммыттара
гыммыттарын
гыммытын
гын
гына
гынаары
гынабын
гынабыт
гыналлар
гынан
гынар
гынарга
гынарын
гынаҕын
гынна
гыннар
гыннахтарына
гыннахха
гыннаххына
гыннаҕына
гыннаһаллар
гыннаһар
гынным
гынныыр
гынныҥ
гыны
гыныахха
гыныгар
гыныма
гынын
гыныы
гыр
гыстан
гыта
гытта
гыттан
гытыгар
гытын
гытынан
гыы
гыыллар
гыыр
гэ
гэи
гэлэргэ
гэлэригэр
гэлэрин
гэлэрэ
гэни
гэннэ
гэр
гэс
гэтигэр
гэтин
гэтинэн
гэтиттэн
гэттэн
гэтэ
гэҕэ
гюи
гүн
гүс
гө
д
да
даа
даабакка
даабат
даабыт
даабыта
даабыттар
даабыттара
даадар
дааи
даан
даана
дааннаах
дааннаи
дааннар
дааны
дааран
даарыи
даах
даахтар
даахтары
дааҕар
дааҕы
дааҕын
дааҥ
дааһын
дабаан
дабаи
дабыл
дабыыдап
даваи
давать
давид
давлекановскии
давно
давыдов
давыдова
дагдаи
дагестаан
дагестааҥҥа
дагестан
дагестанец
дадаскинов
дае
даже
даи
дакаастаабыт
дакаастаабыта
дакаастаабыттара
дакаастаан
дакаастабыл
дакаастабыла
дакаастабылынан
дакаастаммыт
дакаастаммыта
дакаастана
дакаастанан
дакаастанар
дакаастанна
дакаастыы
дакаастыыбыт
дакаастыыллар
дакаастыыр
дакылаат
дакылааты
дакылаатын
дал
дала
далааһына
далааһыннаах
далааһыннаахтык
далаи
далан
далбар
далбараи
далбардаах
далее
далеко
дали
далланыҥылар
даллар
далларыгар
далларын
далыгар
далыр
даль
дальнаи
дальнего
дальнеи
дальстрои
дальше
далянь
дам
дама
дамматах
даммыт
даммыта
дан
дана
данан
данар
данелия
дани
даниил
данил
данилов
данилова
данилович
даниловна
даниэль
дания
данияттан
данияҕа
данна
даннаи
данного
данное
даннои
данном
данные
данныи
данным
данных
данте
дапсы
дар
дара
даран
дарбыт
дарвин
дарга
дардаах
дарии
дария
дартан
дархан
дархана
дарханын
дары
дарыгар
дарын
дарынан
дарыттан
дарыылаах
дарыҥ
дарья
дассыан
дат
дата
дату
даты
дать
дах
дахпытына
дахтаах
дахтарына
дахха
даххына
дашт
даҕа
даҕааһын
даҕаны
даҕатан
даҕыи
даҕын
даҕына
даҕыттан
даҥ
даҥа
даһан
два
две
движение
движения
двои
дворянин
дворяннар
двумя
двух
дд
де
дебул
дева
девочка
дежнев
деи
дек
декабристар
декабрь
декабря
декана
декарт
декларация
декларацияны
декларацията
декларациятын
декоративнаи
дела
делает
делам
делать
деле
делегат
делегата
делегатынан
делегация
деление
дели
дело
дель
дельта
демография
демократ
демократическаи
демократия
демон
демонстрация
ден
денис
денисович
денисовна
деноминация
день
деньги
департамент
департаменын
депрессия
депутат
депутата
депутатов
депутатскаи
депутаттар
депутаттарын
депутатынан
дер
деревня
дерпт
десант
десна
десятилетия
десяткин
дет
детеи
детектив
дети
детсад
детсадка
детсадтарга
дефис
деятель
деятельности
деятельность
деятелэ
деятеля
дж
джаз
джаи
джалиль
джамбул
джами
джан
джаспер
джеи
джек
джексон
джобс
джованни
джозеф
джои
джон
джонс
джонсон
джордж
джузеппе
джульетта
джучи
дза
дзи
ди
диабет
диагностика
диалега
диалегар
диалект
диалектар
диалектара
диалектологическии
диалог
диаметра
диаметрдаах
диана
дианетика
диапазон
диапазона
диаспора
дибит
диван
дивизия
дивизиятын
диего
диетаҕа
дизаи
дизель
дии
диибин
диибит
диигин
дииллэр
дииллэрин
дииллэрэ
диин
диир
диирбит
дииргэ
диирим
диирин
диирэ
диискэ
дик
диктатор
диктатура
диктатураны
дилэр
дим
дима
дин
дина
динаар
динамика
динамиты
динамо
динар
династия
династиялара
династияларын
династията
династиятын
дингер
дингольфинг
динлиннэр
динозаврдар
диодорова
диоклетиан
дионисии
диплом
дипломат
дипломатия
дипломнаи
дипломунан
директор
директора
директоры
директорын
директорынан
дириже
дирижер
дирин
дириэктэр
дириэктэрдээбитэ
дириэктэри
дириэктэрин
дириэктэринэн
дириэктэрэ
дириҥ
дириҥиир
дириҥин
дириҥник
дириҥнээх
дириҥэ
дириҥэтэн
дириҥээн
дириҥҥэ
дис
диск
дискографията
дискуссии
диснеи
диспансер
дисплеи
диссертация
диссертацияны
диссертациятын
диссэртээссии
дистанцияҕа
дистиллированнаи
дисциплиналар
диэ
диэбиккэ
диэбит
диэбитигэр
диэбитин
диэбиттии
диэбиттэр
диэбиттэрин
диэбиттэрэ
диэбиттээх
диэбитэ
диэбэккэ
диэбэт
диэбэттэр
диэи
диэки
диэкинэн
диэкиттэн
диэкки
диэммин
диэммит
диэмэ
диэмэн
диэн
диэни
диэнинэн
диэннэр
диэннэргэ
диэннэри
диэнтэн
диэнэ
диэри
диэт
диэтилэр
диэтим
диэтэ
диэтэр
диэтэргин
диэтэргит
диэтэх
диэтэхпинэ
диэтэхпитинэ
диэтэхтэринэ
диэтэххэ
диэтэҕинэ
диэх
диэхтэрэ
диэххэ
диэччилэр
диэҕэ
диэҥҥэ
диэһин
диҥилэр
длина
длины
для
дмитриев
дмитриева
дмитриевич
дмитриевка
дмитриевна
дмитрии
дмитрьевич
дне
днеи
днепр
днестр
дни
днк
дня
до
добавить
добавление
добавления
добавляет
добавляется
добавляются
добавьте
доблестныи
доблесть
доброго
добросовестного
добрыи
добрых
добун
довольно
догдоон
догдоҥо
догу
дои
докл
доклад
докладов
доктор
доктора
доктордара
докторов
докторскаи
докторыгар
докторын
документ
документа
документальнаи
документации
документация
документов
документы
докумуон
докумуона
докумуоннар
докумуоннара
докумуоннарга
докумуоннары
докумуоннарыгар
докумуоннарын
докумуону
докумуоҥҥа
долган
долго
долгота
долгуи
долгун
долгуна
долгуннаах
долгуннар
долгуннара
долгунугар
долгунун
долгутар
должен
должна
должно
должности
должны
доллар
доллара
долларга
долларов
доллары
долларыгар
доллу
долохуна
дом
дома
домен
домена
доменнар
доминго
домох
домохтор
дон
дональд
донецк
донецкаи
донскои
дону
доо
доосо
доох
доп
дополнительно
дополнительного
дополнительные
дополнительныи
дополнительных
доппуруос
дор
дора
доработку
доргуи
доров
дорович
доровскии
дорога
дороги
дорообо
дорофеев
дорофеевич
дорун
доруобаи
доруобуи
дорҕоон
дорҕоонноох
дорҕооннор
дорҕооннорго
дорҕооннордоох
дорҕоонноро
дорҕооннортон
дорҕооннору
дорҕоонноругар
дорҕооннорун
дорҕооннорунан
дорҕоонноруттан
дорҕооно
дорҕоонтон
дорҕоону
дорҕоонун
дорҕоонунан
дорҕооҥҥо
достаточно
достижения
достоевскаи
достои
доступ
доступен
дохсун
дохсуннук
дохуот
дохуота
дохуоттаах
дохуотун
доцена
доцент
дочь
доҕолоҥ
доҕоор
доҕор
доҕорбор
доҕоргун
доҕордоһуу
доҕордоһуулара
доҕордоһууларын
доҕордуу
доҕордуулар
доҕоро
доҕорум
доҕорун
доҕоруом
доҕоруҥ
доҕорчуок
доҕотто
доҕоттоор
доҕоттор
доҕотторгун
доҕотторо
доҕотторун
доҕотторуҥ
доҕуһуоллаах
др
драверт
драгоценных
драи
дракон
драм
драма
драматическаи
драматург
драматуур
драматыгар
драматын
драхма
древнеи
древние
древних
древности
дреи
дроби
друг
друга
другие
другим
другими
других
другого
другое
другои
другом
дружба
дружина
дружинатыгар
дружинатын
дсо
ду
дубаи
дубар
дубильнаи
дубун
дубут
дубутугар
дубутун
дуванскии
дуга
дугар
дуглас
дугуи
дуи
дук
дукат
дула
дулаах
дулаахпыт
дулаахтара
дулаахтарын
дулааҕа
дулар
дулара
дуларга
дулартан
дулары
дуларыгар
дуларын
дуларынан
дуларыттан
дулгаан
дулгааннар
дулҕа
дулҕалаах
дум
дума
думаю
думы
дун
дунааи
дунаи
дунан
дуну
дуньмаҕа
дуо
дуобакка
дуобат
дуогабар
дуогабара
дуогабарга
дуогабары
дуогабарын
дуогабарынан
дуоктар
дуоктара
дуол
дуола
дуолаи
дуолан
дуолга
дуоллар
дуоллара
дуолларга
дуолларын
дуолу
дуолун
дуона
дуораана
дуораи
дуораһыи
дуохха
дуоһуи
дуоһунас
дуоһунаска
дуоһунастаах
дуоһунастарга
дуоһунаһыгар
дуоһунаһын
дуоһунаһыттан
дурда
дута
дутааҕы
дуткин
дуттан
дутугар
дутун
дутунан
дутуттан
дуу
дуубун
дуулаҕа
дууллар
дуума
дуумата
дууматын
дууп
дуур
дуура
дуурга
дууһа
дууһалаах
дууһам
дууһаны
дууһата
дууһатын
дух
духов
духовнаи
духовои
духуобунаи
духуобунас
духуобунаһын
душа
души
дуэт
ды
дыа
дыан
дыбакка
дыбарыас
дыбарыаһа
дыбарыаһыгар
дыбарыаһын
дыбат
дыбатах
дыбыт
дыбыта
дыбыттар
дыбыттара
дыбытын
дыбытынан
дыгын
дык
дылар
дылы
дым
дын
дыраама
дыргыл
дыс
дыттан
дыы
дыыга
дыылаах
дыылаахпыт
дыылара
дыыларыгар
дыыларын
дыын
дыыны
дыыр
дыырга
дыыта
дыыттан
дыытыгар
дыытын
дыытынан
дыытыттан
дыҥ
дыҥы
дыҥылар
дь
дьа
дьаабылака
дьаакып
дьаалатынан
дьаалы
дьаам
дьаан
дьаарбаи
дьаархан
дьаарыстаан
дьаат
дьааттаах
дьааты
дьааҥы
дьааҥыга
дьааһыи
дьааһыла
дьабака
дьабара
дьабыл
дьабыыл
дьабыыла
дьагдьаи
дьадаи
дьадаҥы
дьадаҥылар
дьадаҥыларга
дьадаҥылары
дьадаҥыны
дьадаҥыттан
дьадаҥытык
дьадид
дьаи
дьалаҕаи
дьалбаа
дьалкыи
дьалкытан
дьалхаан
дьалхааннаах
дьан
дьанибэк
дьаннар
дьаныардаах
дьаныардаахтык
дьаныһан
дьапталҕа
дьар
дьарааһын
дьаралыга
дьаралыгын
дьаралык
дьаралыктара
дьаргыстаи
дьардьама
дьардьамата
дьарыга
дьарыгы
дьарыгын
дьарыгынан
дьарыгырар
дьарыи
дьарык
дьарыктаан
дьарыктаах
дьарыктааһын
дьарыктаммыт
дьарыктаммыта
дьарыктаммыттар
дьарыктаммыттара
дьарыктана
дьарыктанааччылар
дьарыктаналлар
дьарыктаналлара
дьарыктаналларыгар
дьарыктаналларын
дьарыктанан
дьарыктанар
дьарыктанара
дьарыктаннаҕына
дьарыктаныы
дьарыктара
дьарыктарын
дьарыктарынан
дьарыктыыр
дьарҕа
дьарҕаа
дьарҕаалаах
дьахталлар
дьахталлара
дьахталларга
дьахталлартан
дьахталлары
дьахталларын
дьахталларыттан
дьахтар
дьахтара
дьахтарга
дьахтартан
дьахтары
дьахтарын
дьахтарыттан
дьаҕыл
дьаҥ
дьаҥхаады
дьаҥылы
дьаҥҥа
дьаһаах
дьаһааҕы
дьаһабыл
дьаһабылга
дьаһабыллар
дьаһабылларга
дьаһаи
дьаһал
дьаһала
дьаһаллар
дьаһаллары
дьаһалта
дьаһалтата
дьаһалтатын
дьаһалы
дьаһалынан
дьаһанар
дьаһаныы
дьаһах
дьаһахтарын
дьаһахха
дьаһаҕа
дьаһаҕар
дьаһаҕы
дьаһаҕын
дьигиһии
дьиибэ
дьиикимдэ
дьиикэи
дьиксинэн
дьикти
дьиктилэрин
дьиктилээх
дьиктини
дьиктитик
дьиктитэ
дьилиндэ
дьим
дьин
дьиннээх
дьиппинии
дьиппиэн
дьирибинэ
дьириҥэ
дьиэ
дьиэбит
дьиэбэр
дьиэлэр
дьиэлэргэ
дьиэлэри
дьиэлэригэр
дьиэлэрин
дьиэлэриттэн
дьиэлэртэн
дьиэлэрэ
дьиэлээх
дьиэлээхтэр
дьиэм
дьиэни
дьиэнэн
дьиэрэи
дьиэрэҥкэи
дьиэрэҥнэр
дьиэтигэр
дьиэтин
дьиэтиттэн
дьиэттэн
дьиэтэ
дьиэтээҕи
дьиэҕэ
дьиэҕэр
дьиэҥ
дьиҥ
дьиҥинэн
дьиҥнээх
дьиҥнээхтик
дьиҥэ
дьиҥэр
дьо
дьобуруопа
дьогдьуурдаах
дьои
дьокутаат
дьокутаата
дьокутааттар
дьокутааттара
дьокутааттарын
дьокутаатынан
дьокуускаи
дьол
дьолго
дьоллоох
дьоллоохпун
дьоллоохтук
дьоло
дьолу
дьолум
дьолун
дьолунан
дьоммор
дьоммун
дьоммут
дьоммутугар
дьоммутун
дьон
дьонно
дьонноох
дьоннооҕор
дьоннор
дьоннорбут
дьоннорго
дьонноро
дьоннортон
дьоннору
дьонноругар
дьоннорун
дьонноруттан
дьонноруҥ
дьоннуу
дьоннуун
дьоно
дьонтон
дьону
дьонугар
дьонум
дьонун
дьонунан
дьонуттан
дьонуҥ
дьоп
дьоппуон
дьоппуоннар
дьоппуоннарга
дьоппуоннартан
дьоппуоннары
дьоппуоннуу
дьоппуону
дьоппуоҥҥа
дьорбуоҥка
дьордь
дьоро
дьоруо
дьоруои
дьохсоҕон
дьоҕур
дьоҕура
дьоҕурдаах
дьоҕурдааҕа
дьоҕурдааҕын
дьоҕурдарын
дьоҕуру
дьоҕурун
дьоҕус
дьоҥҥо
дьоҥҥор
дьоҥҥун
дьоһун
дьоһуннаах
дьоһуннаахтык
дьоһунун
дьукаах
дьукку
дьулаан
дьулаи
дьулуруи
дьулуур
дьулуура
дьулуурдаах
дьулуурдара
дьулуурун
дьулуурунан
дьулуһаллар
дьулуһан
дьулуһар
дьулуһара
дьулуһуу
дьулуһуута
дьуо
дьуон
дьуот
дьуоту
дьуптуон
дьураа
дьураалаах
дьут
дьута
дьуттар
дьуҥҕаар
дьуһаал
дьыала
дьыалабыаи
дьыалалаахтар
дьыалалара
дьыалаларга
дьыалаларгын
дьыалалары
дьыалаларыгар
дьыалаларын
дьыалаларынан
дьыалаларыҥ
дьыаланан
дьыаланы
дьыалата
дьыалатыгар
дьыалатын
дьыалаҕа
дьыалаҕар
дьыалаҕын
дьыалаҥ
дьыбааҥҥа
дьыбар
дьыл
дьыла
дьылга
дьыллааҕы
дьыллар
дьылларга
дьылы
дьылыгар
дьылын
дьылынан
дьылҕа
дьылҕалаах
дьылҕаланаллар
дьылҕаланар
дьылҕаларын
дьылҕам
дьылҕата
дьылҕатыгар
дьылҕатын
дьыт
дьыттар
дьэ
дьэбин
дьэбириэи
дьэбэриэи
дьэгдьии
дьэдьэн
дьэи
дьэкиим
дьэллик
дьэр
дьэргэлгэн
дьэрэкээн
дьэс
дьээ
дьэҥкир
дьэҥкэ
дьэһиэи
дьяконов
дьяконова
дьячковскаи
дьячковская
дьячковскии
дьү
дьүдьэи
дьүккүи
дьүккүөрдээх
дьүкээбил
дьүкээгир
дьүлэи
дьүчи
дьүүктэ
дьүүл
дьүүлгэ
дьүүллээн
дьүүллүүр
дьүүлэ
дьүһүи
дьүһүн
дьүһүннэнэр
дьүһүннэр
дьүһүннэрэ
дьүһүннээн
дьүһүннээх
дьүһүннээһин
дьүһүннээһинигэр
дьүһүннээһиннэр
дьүһүннээһиннэригэр
дьүһүннээһиннэрин
дьүһүннээһиннэрэ
дьүһүннээһиҥҥэ
дьүһүннүүр
дьүһүннүүргэ
дьүһүнэ
дьүһүнү
дьүһүнүн
дьүһүнүнэн
дьүөгэ
дьүөрэ
дьүөрэлии
дьүөрэлээн
дьүөрэлэһиилэрин
дьүөрэлэһиитэ
дьүөрэлэһэн
дьүөрэлэһэр
дьөгүөр
дьөккөн
дьөлүтэ
дьөлүһүөн
дьөлө
дьөппөн
дьөһүөл
дьөһөгөи
дэ
дэбдэи
дэбигис
дэбилии
дэвид
дэгиттэр
дэгэрэҥ
дэи
дэкириэт
дэкириэтинэн
дэлби
дэлэгэи
дэлэгээссии
дэлэгээт
дэлэгээтинэн
дэлэгээтэ
дэлэи
дэлэччи
дэлэҕэ
дэм
дэммит
дэммэккэ
дэмнээхтик
дэн
дэнии
дэниис
дэнэллэр
дэнэллэрэ
дэнэн
дэнэр
дэнэрэ
дэпсэи
дэр
дэргэ
дэри
дэригэр
дэрин
дэринэн
дэриттэн
дэриэбинэ
дэриэбинэлэргэ
дэриэбинэлэри
дэриэбинэлэрин
дэриэбинэни
дэриэбинэтигэр
дэриэбинэтин
дэриэбинэтэ
дэриэбинэҕэ
дэриэспэ
дэртэн
дэрэ
дэс
дэхси
дэхтэринэ
дэххэ
дээ
дээбитэ
дээл
дээн
дээх
дээхтик
дээхтэр
дээххэ
дээҕи
дээҕин
дээһин
дэҕинэ
дэҥ
дэҥнэнии
дэҥнээн
дэҥнээтэҕинэ
дэҥҥэ
дэһэ
дэһэллэр
дю
дюльмен
дюртюлинскии
дягилев
дүллүкү
дүлүҥ
дүпсүн
дүҥүр
дүҥүрүн
дүү
дүүбүн
дүүгүн
дүүллэр
дүүллэрэ
дүүр
дүүргэ
дүүрэ
дүүрүн
дүө
дүөн
дүөхпүт
дүөхтэрэ
дүөххэ
дөбүл
дөбүлгэ
дөбүллэнэр
дөбүллэр
дөбүллэргэ
дөбүллэри
дөбүллэригэр
дөбүллэрин
дөбүллэринэн
дөбүллэриттэн
дөбүллэртэн
дөбүллэрэ
дөбүллээн
дөбүллээх
дөбүллээхтэр
дөбүллээҕин
дөбүллээҕэ
дөбүлтэн
дөбүлэ
дөбүлү
дөбүлүгэр
дөбүлүн
дөбүлүнэн
дөбүнньүк
дөбүнньүктэрэ
дөбөҥ
дөбөҥнүк
дөи
дөкүмүөн
дөкүмүөннэрэ
дөлбү
дөлүһүөн
дөммүт
дөммөт
дөнүмтүө
дөнөллөр
дөнөн
дөнөр
дөнөрө
дөр
дөртөн
дөрүгэр
дөрүн
дөрүнэн
дөрүттэн
дөрө
дөспөт
дөтө
дөтөллөр
дөтөн
дөтөр
дөһүү
дөһөн
дөө
дөөбөккө
дөөбөппүн
дөөбөт
дөөбөттөр
дөөн
дөөтүм
дөөх
дөөхтөр
дөөхтөрө
дөөҕү
дөөҕүн
дөөһүн
е
ева
евгении
евгения
евгеньевич
евграф
евдокимов
евдокимова
евдокимович
евдокия
евклид
евразии
евразия
евразияҕа
евреи
евро
евровидение
европа
европаны
европатааҕы
европаттан
европаҕа
европе
европеи
европы
евсеев
евсеева
евсеевич
егиипэт
египеккэ
египет
его
егор
егоров
егорова
егорович
егоровна
ед
единица
единицы
единои
единственныи
ее
ежегодник
еи
екатерина
екатеринбург
елбут
елга
елена
елизавета
елисеевич
елисеи
ель
ельцин
ельцинныын
ем
емельян
емельянов
ему
ен
енисеи
епискоба
епископ
ер
ереван
еремеев
еремеевич
еремеевна
еремеи
ермак
ермака
ермекеевскии
ермолаев
ерошенко
ершов
ес
есенин
если
ессе
естественнаи
естественно
естественнэи
есть
ефим
ефимов
ефимова
ефимович
ефимовна
ефреи
ефрем
ефремов
ефремова
ефремович
ефрона
еще
ж
жак
жан
жана
жанеи
жанна
жанр
жанра
жанрга
жанрдаах
жанрдар
жанрдара
жанрыгар
жанрын
жаргон
жатаи
жданов
же
жегусов
желание
желательно
железо
жена
женева
женеваҕа
женитьба
женщин
женщина
женщины
жи
живая
живои
живописец
живописецтара
живописеһа
живописнаи
живопись
животные
животных
жиганскии
жизель
жизни
жизнь
жирафа
жирков
жиркова
жителеи
житомир
жить
жорж
жорницкая
жрец
жуков
журнал
журнала
журналист
журналистарын
журналистика
журналистов
жюль
з
за
зааи
заамак
заамок
забаи
заблуждение
заболоцкаи
забота
забудьте
забываи
зависимости
завод
завтра
завуч
завуһунан
заглавие
заглавнои
заголовка
заголовков
заголовком
заголовок
заготовка
задан
задана
задания
задано
задать
задач
задача
задачи
заж
заи
закон
закона
замбия
заменить
заменяет
заметки
замечания
замок
занимаются
заочнаи
западная
западного
западнои
записеи
записи
записки
записывается
запись
заповеднига
заповедник
заполнения
запорожье
запрещено
запрос
запросы
запятои
зарекаи
зарница
заря
заседание
заслуги
заслуженного
заслуженныи
застои
затем
зафар
захар
захаров
захарова
захарович
захаровна
зачем
зашиверскаи
защиты
заявка
заявки
заявления
заявок
звание
званиелаах
звания
зве
звезда
звезды
зверев
зверева
здесь
здоровье
здоровья
здравоохранения
здравствуи
зе
зевс
зеи
зеландия
зеландияҕа
зельман
земле
земли
земля
земноводные
земскэи
земство
земфира
зер
зианчуринскии
зигмунд
зилаирскии
зимбабве
зимин
зинаида
зия
знаага
знага
знагынан
знает
знаете
знак
знака
знаков
знаком
знаменательных
знамя
знамята
знамятын
знание
знании
знания
знать
значение
значением
значении
значения
значениями
значениях
значимости
значимость
значит
значок
знаю
зодиак
золотая
золото
золотои
золотые
зона
зоната
зонатыгар
зонатын
зонд
зоология
зоопарка
зоопарката
зоопаркатыгар
зоотехник
зороастризм
зоя
зрения
зыков
зырянка
и
иакинф
ибир
ибн
ибо
ибрагим
ибраи
ибраһим
иван
ивана
ивано
иванов
иванова
иванович
ивановка
ивановна
ивановскаи
иврит
иги
игидэи
игил
игин
игинэ
игирэ
игирэлэр
игиттэн
иглинскии
игнатии
игнатьев
игнатьева
игнатьевич
игнатьевна
игорь
игр
игра
игры
игэ
игэр
иде
идеи
идентификатор
идеология
идеологиялара
идеологиятын
идея
идеяларын
идеята
идеятын
идигэн
идиш
идиэи
идьм
идэ
идэлги
идэлэр
идэлэрин
идэлэринэн
идэлээх
идэлээхтэр
идэлээҕэ
идэни
идэтигэр
идэтии
идэтин
идэтинэн
идэтэ
идэҕэ
иероглиф
иероглифтар
иерусалим
иерусалимы
из
изабелла
избежать
избеков
избирателя
избранные
избранных
известен
известия
известно
известные
известныи
извинения
изд
издание
издании
издания
издат
издательскии
издательство
издательствота
издательствотыгар
измаи
изменение
изменении
изменения
изменить
измир
изобилия
изображение
изображением
изображении
изображения
израиль
израильга
изучение
изучению
изучения
изяслав
ии
иибитигэр
иигин
иигэ
иик
ииктэтэр
иилэ
иилэр
иилэргэ
иилэри
иилэригэр
иилэрин
иилэринэн
иилэрэ
иилээн
иилээх
иим
иин
ииндии
иини
иинин
иинэн
ииппит
ииппитэ
ииппэккэ
иирбит
иирсээн
иирсээни
иирэ
иирэн
иирэр
иис
иистэнньэҥ
иистэнэр
иисус
иит
иитигэр
иитии
иитиигэ
иитиилэригэр
иитиилэрэ
иитиилээх
иитиини
иитиинэн
иитиитигэр
иитиитин
иитиитинэн
иитииттэн
иитиитэ
иитилиннэҕинэ
иитиллибит
иитиллибитин
иитиллибититтэн
иитиллибитэ
иитиллибэтэх
иитиллии
иитиллэллэриттэн
иитиллэллэрэ
иитиллэн
иитиллэр
иитиллэрин
иитиллэриттэн
иитиллэрэ
иитиллээччи
иитиллээччилэр
иитиллээччилэрэ
иитиллээччитэ
иитин
иитинэн
иититтэн
иитиэ
иитиэх
иитиэхтэрэ
иитиэхтээн
иитиэххэ
ииттэн
ииттэр
ииттэрэ
ииттэхтэринэ
ииттэххэ
ииттэҕинэ
иитэ
иитэллэр
иитэллэригэр
иитэллэрин
иитэллэриттэн
иитэллэрэ
иитэн
иитэннэр
иитэр
иитэргэ
иитэринэн
иитэрэ
иитээччи
иитээччилэр
иитээччинэн
иитээччитэ
ииҥҥэ
ииһи
ииһэ
ик
икки
иккилии
иккини
иккис
иккистээн
иккитин
иккиттэн
иккитэ
иккиэ
иккиэи
иккиэн
иккиэннэригэр
иккиэннэрин
иккиһин
иккиһинэн
иккиһэ
ил
илбис
илбистээх
илгии
илгэ
илдьи
илдьибит
илдьиркэи
илдьит
илдьити
илдьитэ
илдьэ
илдьэн
илдьэр
или
илигин
илигинэ
илигинэн
илигиттэн
илигэ
илии
илиибин
илиибэр
илиигин
илиигэ
илиигэр
илиилэригэр
илиилэрин
илиилэринэн
илиилэрэ
илиилээх
илиим
илиини
илиинэн
илиитигэр
илиитин
илиитинэн
илиититтэн
илиитэ
илииҥ
илик
иликпин
иликпит
иликпититтэн
иликтэр
иликтэринэ
иликтэриттэн
иликтэрэ
илим
илимниир
илин
илини
илинигэр
илиннээҕи
илинтэн
илишевскии
илиэгин
илиэгэр
илиэк
илиэһэи
илиҥ
илиҥҥи
илиҥҥэ
илларионов
илларионович
иллиитэ
иллинои
иллэ
иллэр
иллэрин
иллэрэ
иллэрээ
иллээх
иллээхтик
иллэҥ
иллэҥсии
иллюстрированныи
ильин
ильина
ильинична
ильич
ильмень
илья
ильяхов
илэ
илэр
илэргэ
илэри
илэрин
илэртэн
илэрэ
илэтигэр
илээх
им
имам
име
имеет
имеется
имен
имена
именами
именем
имени
именно
именование
именования
иметь
имеют
имеющие
имеющих
ими
имигэс
имигэстик
иминэн
имири
иммиграннар
иммиграция
иммит
иммунитет
иммуннаи
иммэт
император
императора
императорга
императордар
императорскаи
императорского
императорын
империатыгар
империи
империя
империяны
империята
империятыгар
империятын
империяҕа
импиэрии
импэрээтэр
импэрээтэрин
импэрээтэринэн
импэрээтэрэ
имтиэ
имтиэтин
имтиэтэ
имэ
имэрии
имэҥ
имэҥнээх
имя
ин
иначе
инбэлиит
инбэлииттэр
инбэлииттэргэ
инв
инвалид
инвалиды
инвестиционнаи
инвестиция
ингуш
ингушетия
инд
индеец
индеецтэр
индекс
индекса
индиана
индигиир
индигир
индии
индия
индияттан
индияҕа
индоевропеи
индокитаи
индонезия
индонезияҕа
индуизм
индустриальнаи
индустрия
индустрията
индустриятын
индэксэ
инженер
инженера
инженеринэн
инженернаи
инженернэи
инженерэ
ини
инибин
инии
иниилэрэ
инилэр
инин
инитэ
инквизиция
инкубатор
инн
инна
иннибэр
иннигэр
инник
инники
инникигэ
инникини
инникитин
иннилэригэр
иннилэрин
иннилэринэ
иннин
иннинэ
иннинэн
иннинээҕи
инниттэн
инновационнаи
инновация
иннокентии
иннокентьев
иннокентьева
иннокентьевич
иннокентьевна
инньэ
инньэлээх
иннэ
иногда
иного
инои
инородец
инородецтар
инородцев
иностранного
иностранных
инспектор
инспектора
инспекторынан
институкка
институт
института
институтка
институттара
институттарыгар
институттарын
институту
институтугар
институтун
институтыгар
институтын
институута
институутугар
институутун
инструктор
инструктора
инструкторынан
инструкция
инструменнары
инструмент
инструментальнаи
инсулин
инсулины
инсульт
интеллектуальнаи
интеллигенции
интеллигенция
интеллигенциятын
интервики
интервью
интересов
интернакка
интернат
интернационал
интернациональнаи
интернекка
интернет
интернете
интерфеи
интириэһинэи
интириэһиргэтэр
интэлигиэнсии
интэн
интэриниэккэ
интэриниэт
интэринээккэ
интэринээт
интэриэс
интэриэстэрин
интэриэстээх
интэриэһи
интэриэһин
интэриэһинэи
интэриэһэ
инфаркт
инфекционнаи
инфекция
инфляция
информ
информатика
информации
информационнаи
информационныи
информацию
информация
информацияны
информациятын
инфраструктура
инчэҕэи
иных
иньньэ
инэ
инэи
инэллэрэ
инэн
инэр
иоаким
иоанн
иоганн
иокогама
ион
иона
ионов
ионова
ионович
иордания
иосиф
иосифович
иохельсон
ип
ипподром
ир
ираак
ираан
ирааҥҥа
ирак
иракка
иран
ираҥҥа
ирбэт
ирдииллэр
ирдииллэрэ
ирдиир
ирдиирин
ирдэбил
ирдэбилгэ
ирдэбили
ирдэбилигэр
ирдэбилин
ирдэбилинэн
ирдэбиллэр
ирдэбиллэргэ
ирдэбиллэригэр
ирдэбиллэрин
ирдэбиллэрэ
ирдэбиллээх
ирдэбилэ
ирдэммэт
ирдэниллэр
ирдэнэр
ирдэнэрин
иригэр
ирина
ириэрэн
ириҥэ
ириҥэлээх
иркутск
иркутскаи
ирландия
ирландияҕа
иртыш
ирчитэ
ирэ
ирэн
ирэр
ирээтэ
ис
исаак
исаи
исидор
искажение
искать
иске
исключение
исключением
искра
искусств
искусства
искусственнаи
искусство
искусствовед
искусствоведение
искусствота
искусствотын
искусствоҕа
искэ
искэн
искэни
искэр
искэҥ
ислаам
ислам
исламы
исландия
исландияҕа
исмаил
исп
испаан
испан
испанецтар
испания
испанияттан
испанияҕа
испанскаи
испии
испиир
испиирдэр
испиири
испиискэ
испиискэни
испииһэгэ
испииһэгэр
испииһэк
испииһэккэ
испииһэктэригэр
испииһэктэрэ
испирдиэн
испит
испитин
испиттэр
испиттэрэ
испитэ
испиэскэ
исповедь
исполком
исполкома
исполкомун
использован
использование
использованием
использовании
использования
использовать
использоваться
использует
используется
используи
используют
используются
использующая
исправить
исправник
испэккэ
испэр
испэссээлинэскэ
испэт
исраил
исслед
исследование
исследовании
исследования
исследователи
исследователь
иссык
ист
истанбул
истибит
истибитим
истибитин
истибиттэр
истибитэ
истибэккэ
истибэт
истибэтэх
истигэн
истии
истиигэ
истиил
истиилигэр
истиилин
истиилинэн
истииллээх
истиилэ
истиини
истиитэ
истилиистикэ
истилэр
истим
истимтиэ
истин
истина
истиэ
истиэнэ
истиэнэтин
истиэнэҕэ
истиэп
истиэпэнин
истиэпэннээх
истиэпэнэ
истиэххин
истиэххэ
истиэҕиҥ
истиэҥ
истиҥ
истиҥник
истоки
историга
историеи
истории
историк
историко
историктар
историографии
историография
историческаи
историческая
исторические
историческии
исторических
историческои
историю
история
историялаах
историялара
историяларын
историяны
историята
историяттан
историятыгар
историятын
историятыттан
историяҕа
источнига
источник
источника
источники
источников
источниктар
источниктара
источниктарга
истэ
истэбин
истэбит
истэллэр
истэллэрэ
истэн
истэр
истэргэ
истэригэр
истэрин
истэриттэн
истэрэ
истэх
истэхпитинэ
истэхтэрин
истэхтэринэ
истэххэ
истээт
истээх
истээччилэр
истээһин
истэҕин
истэҕинэ
исус
исфахан
исходном
ит
италия
италияттан
италияҕа
итальянскаи
ити
итигэр
итии
итиигэ
итиини
итиинэн
итиитик
итиитэ
итилэр
итилэргэ
итилэри
итилэртэн
итин
итини
итиниэхэ
итинник
итинниккэ
итиннэ
итинтэн
итинэн
итирбит
итирдии
итирдэн
итирдэр
итирдэхтэринэ
итирдэҕинэ
итирии
итирик
итирэ
итирэн
итирэр
ититэр
итиччэ
итиэннэ
итог
итогам
итоги
итогов
иттэн
итэ
итэн
итэр
итээҕи
итэҕэи
итэҕэл
итэҕэлбит
итэҕэлбитин
итэҕэлгэ
итэҕэли
итэҕэлигэр
итэҕэлин
итэҕэлинэн
итэҕэллэр
итэҕэллэригэр
итэҕэллэрин
итэҕэллэринэн
итэҕэллэриттэн
итэҕэллэрэ
итэҕэллээх
итэҕэллээхтэр
итэҕэлтэн
итэҕэлэ
итэҕэс
итэҕэстии
итэҕэтиилээх
итэҕэтиилээхтик
итэҕэтэр
итэҕэһи
итэҕэһэ
иудаизм
иудеи
их
ичигэс
иччи
иччилэр
иччилэргэ
иччилэри
иччилэрэ
иччилээх
иччитигэр
иччитин
иччитэ
иччитэх
ишимбаи
иьигэр
иьин
иэ
иэгэ
иэгэи
иэдьэгэи
иэдэи
иэдээн
иэи
иэлээн
иэм
иэн
иэнигии
иэнигэр
иэнин
иэнинэн
иэниттэн
иэннэрэ
иэннээх
иэннээҕи
иэнэ
иэр
иэримэ
иэс
иэскэ
иэстэбил
иэстэбилэ
иэстэригэр
иэстэрин
иэстэрэ
иэстээх
иэстэһии
иэстэһэн
иэстэһэр
иэт
иэттэр
иэттэрэ
иэтэ
иэх
иэхпит
иэхсит
иэхтэрин
иэхтэрэ
иэхтээх
иэххэ
иэхэ
иэҕэ
иэҥҥэ
иэһи
иэһигэр
иэһин
иэһэ
июль
июля
июнь
июня
иҥ
иҥиир
иҥиирэ
иҥин
иҥмит
иҥмитин
иҥмитэ
иҥмэт
иҥнибит
иҥнибэт
иҥнэн
иҥнэри
иҥнэхтэринэ
иҥнэҕинэ
иҥсэлээх
иҥэ
иҥэллэр
иҥэмтэлээх
иҥэмтэлээхтик
иҥэн
иҥэр
иҥэрбит
иҥэрбиттэр
иҥэрбиттэрэ
иҥэрбитэ
иҥэригэр
иҥэрии
иҥэриллибит
иҥэриллибитэ
иҥэриллэн
иҥэриллэр
иҥэриммит
иҥэрин
иҥэринии
иҥэриниитэ
иҥэриннэҕинэ
иҥэринэ
иҥэринэн
иҥэринэр
иҥэринэригэр
иҥэринэрин
иҥэринэрэ
иҥэрчэ
иҥэрэ
иҥэрэллэр
иҥэрэн
иҥэрэр
иҥэтэ
иһи
иһигэр
иһии
иһиигэ
иһиилэригэр
иһиилэрин
иһиилэриттэн
иһиилэрэ
иһиини
иһиирэмнэр
иһиирэр
иһиитигэр
иһиитин
иһиитинэн
иһиититтэн
иһииттэн
иһиитэ
иһиккэ
иһилиннэ
иһиллибит
иһиллибитин
иһиллибэт
иһиллиир
иһиллиэ
иһиллэр
иһиллээн
иһин
иһинэн
иһинээҕи
иһинээҕитэ
иһирдьэ
иһирэх
иһит
иһити
иһитин
иһитиннэрии
иһитиннэриини
иһитиннэрэр
иһитсаха
иһиттэн
иһиттэри
иһиттэрин
иһиттэххинэ
иһиттэххэ
иһиттэҕинэ
иһитэ
иһиэ
иһиэн
иһиэх
иһиэхтэрин
иһиэхтэрэ
иһиэхтээх
иһиэхтээхтэр
иһиэхтээҕин
иһиэххэ
иһиэҕин
иһиэҕиҥ
иһиэҕэ
иһиҥ
иһэ
иһэбин
иһэбит
иһэллэр
иһэллэригэр
иһэллэрин
иһэллэринэн
иһэллэриттэн
иһэллэрэ
иһэн
иһэннэр
иһэр
иһэрбит
иһэргэ
иһэрдэн
иһэри
иһэригэр
иһэрин
иһэринэн
иһэриттэн
иһэрэ
иһээри
иһээччи
иһээччилэр
иһээччилэри
иһэҕин
к
ка
каадырдары
каал
каан
каарта
каартата
каартатыгар
каартаҕа
кабардино
кабинет
кабинетын
кабо
кавабата
кавалер
кавалера
кавалердара
кавалерии
кавалерия
кавалеры
кавказ
кавказа
кавказка
кавказтааҕы
кавычки
каганата
кадавоор
кадр
кадрдары
кадроваи
кадыр
кадыров
каждого
каждое
каждои
каждом
каждыи
каженкин
каженкина
кажется
казаактар
казаах
казаахтар
казак
казаков
казактар
казан
казанка
казаннааҕы
казанскаи
казань
казах
казахскаи
казахстаан
казахстааҥҥа
казахстан
казахстана
казахстаҥҥа
казахтар
казначеи
каи
каида
каин
как
какие
каким
каких
какого
какои
каком
кал
кала
калаах
каландарашвили
каландаришвили
калар
калашников
кале
календарь
календула
калибрдаах
калии
калимантан
калинин
калининград
калининскаи
калифорния
калифорнияҕа
калмык
калмыкия
калмыктар
кало
калов
калории
калтасинскии
калуга
калье
кальскаи
кальции
калян
камбоджа
каменныи
камео
камера
камернаи
камнях
кампании
камчаатка
камчаатканы
камчатка
камчаткаҕа
камчатскаи
кан
канаада
канаадалар
канаадаҕа
канаал
канаала
канаалга
канаар
канада
канадаҕа
канаев
канал
кангаласс
кангаласскии
кангаласского
канд
кандидаата
кандидат
кандидата
кандидатов
кандидатскаи
кандидаттара
кандидаты
кандидатыгар
кандидатын
канева
канин
кант
кантон
кантри
канцлера
каны
каньон
кап
капелла
капитал
капитала
капитализм
капитализмы
капитан
капитана
капитолии
капитонов
капрынов
кар
кара
караат
карабах
караван
караганда
караидельскии
карамзин
каран
карапапахтар
карат
каратаев
караттаах
караханидского
караханидтар
карачаи
кардашевскаи
карел
карелия
кариб
кариес
карим
каринтия
карл
карлович
карловы
карлос
карлук
карлуктар
кармаскалинскии
каролина
каротин
карпов
карс
карт
карта
картата
картатыгар
картатын
карте
картер
картои
карточка
карточкалар
карточках
карточки
карты
картье
карьер
карьерата
карьератын
касается
каспии
кассиопея
кастилия
кастро
касьянов
кат
ката
каталог
каталогар
каталония
катар
категории
категорию
категория
категориялаах
категориялар
категориялара
категорияларга
категорияны
категорията
категорияҕа
категорія
католик
католиктар
католическаи
катын
кафедра
кафедралаах
кафедралара
кафедрата
кафедратыгар
кафедратын
ках
кац
качества
качестве
качество
качин
кашгар
кашгари
кашкаи
кашмир
каҕа
каһаах
кб
кв
квадрат
квадратнаи
квалификациялаах
квалификацияларын
квалификацияны
квантоваи
квартал
квартира
квартирата
квартиратыгар
кварц
квебек
квн
кг
кгб
кди
ке
кеи
кельт
кем
кемал
кемаль
кембридж
кембрии
кемерово
кемеровскаи
кемус
кен
кения
кеннеди
керала
керен
кечуа
кеша
ки
кигинскии
киданнар
кидань
киев
киевка
киевкэ
киевы
кии
киил
киилэ
киилэҕэ
киин
киинигэр
киинин
киининэн
кииниттэн
кииннэммит
кииннэнэн
кииннэригэр
кииннэрин
кииннэрэ
кииннээх
киинэ
киинэлэр
киинэлэргэ
киинэлэри
киинэлэрин
киинэлэрэ
киинэни
киинэтигэр
киинэтин
киинэтинэн
киинэтэ
киинэҕэ
киир
киирбиппит
киирбит
киирбитим
киирбитин
киирбитинэн
киирбититтэн
киирбиттэр
киирбиттэрин
киирбиттэрэ
киирбитэ
киирбэккэ
киирбэт
киирбэттэр
киирбэтэх
киирбэтэҕэ
киирбэх
киирдилэр
киирдим
киирдэ
киирдэхтэринэ
киирдэххэ
киирдэҕинэ
киирии
киириигэ
киириилэригэр
киириилэрин
киириилэрэ
киириини
киириитигэр
киириитин
киириититтэн
киириитэ
кииримэ
кииринньэҥ
киириэ
киириэн
киириэр
киириэх
киириэхтэрин
киириэхтээх
киириэххэ
киириэҕиттэн
киириэҕэ
киирсибит
киирсибэккэ
киирсибэт
киирсии
киирсиигэ
киирсиилэр
киирсиини
киирсиитигэр
киирсэ
киирсэллэр
киирсэллэрэ
киирсэн
киирсэр
киирсэрэ
кииртэлээн
киирэ
киирэллэр
киирэллэригэр
киирэллэрин
киирэллэриттэн
киирэллэрэ
киирэн
киирэннэр
киирэр
киирэргэ
киирэригэр
киирэрин
киирэриттэн
киирэрэ
киирээри
киирээччилэр
киис
кииттиҥилэр
кииҥҥэ
кииһи
киксэрэн
килбик
килбиэн
килбиэнин
килбиэннээх
килбургер
килбэи
килиимэт
килиимэтэ
килиэби
килиэккэтин
килиэп
киллэм
киллэр
киллэрбит
киллэрбитин
киллэрбиттэр
киллэрбиттэрэ
киллэрбитэ
киллэрбэт
киллэрдилэр
киллэрдэ
киллэрии
киллэриигэ
киллэриини
киллэриитэ
киллэриллибит
киллэриллибиттэр
киллэриллибиттэрэ
киллэриллибитэ
киллэриллэн
киллэриллэр
киллэринэр
киллэриэн
киллэриэххэ
киллэрэ
киллэрэбин
киллэрэллэр
киллэрэллэрэ
киллэрэн
киллэрэннэр
киллэрэр
киллэрэргэ
киллэрэри
киллэрэрин
киллэрэрэ
киллэрээри
килограмм
километр
киль
килэмиэтир
килэмиэтиргэ
килэмиэтирдээх
ким
кимберлит
кими
кимии
кимиэхэ
кимниин
кимнээх
кимтэн
кимэ
кимэн
кин
кинг
кинематограф
кини
кинигэ
кинигэлэр
кинигэлэргэ
кинигэлэрдээх
кинигэлэри
кинигэлэригэр
кинигэлэрин
кинигэлэрэ
кинигэлээх
кинигэни
кинигэнэн
кинигэтигэр
кинигэтин
кинигэтинэн
кинигэтиттэн
кинигэттэн
кинигэтэ
кинигэҕэ
кинилиин
кинилэр
кинилэргэ
кинилэри
кинилэртэн
кинини
киниттэн
киниэхэ
киннэр
кино
кинорежиссе
киностудия
кинээс
кинээстэр
кинээстэрин
кинээстэрэ
кинээстээбит
кинээһи
кинээһин
кинээһинэн
кинээһэ
киото
кипи
киппэ
кипр
кир
кирбии
кирбиилэ
кирбиилэригэр
кирбиитигэр
кирбиитэ
кирбэи
кирг
киргиз
киргизии
киргизия
киргизскаи
киргизтэр
киргизфильм
киргил
киргиэлэи
кирдээх
киренскаи
киренскэи
кири
кирии
кириисис
кириисиһин
кириисиһэ
кириитигэ
кириитик
кириитиктэр
кириитикэ
кирилиэс
кирилиэһинэн
кирилл
кириллин
кириллина
кириллица
кириллицаҕа
кириллов
кириллович
кирилловна
кирилэ
кирис
киристиэс
киритиэрии
кириэмил
кириэмилгэ
кириэмилин
кириэппэс
кириэппэскэ
кириэппэстэрин
кириэппэһи
кириэппэһин
кириэппэһэ
кириэс
кириэстии
кириэстээх
кириэһи
кириэһин
кириэһэ
киров
кирович
кировскаи
кирпииччэ
кирпииччэттэн
киртии
киртитии
кирхшпиль
кислород
кислороду
кислородунан
кислота
кислоталар
кистенев
кистии
кистиир
кистэлэҥ
кистэлэҥин
кистэлэҥинэн
кистэлэҥнэрин
кистэлэҥнэрэ
кистэлэҥнээх
кистэлэҥэ
кистээбит
кистээн
кит
китае
китаи
кито
киф
кичи
кичэи
киьи
киьиэхэ
киэ
киэбин
киэбэ
киэлитигэр
киэн
киэнин
киэнник
киэннэрэ
киэнэ
киэп
киэр
киэргэл
киэргэлгэ
киэргэлин
киэргэллээх
киэргэлэ
киэргэнэн
киэргэтии
киэргэтиллибит
киэргэтэллэр
киэргэтэн
киэргэтэр
киэркэи
киэҥ
киэҥи
киэҥник
киэҥэ
киэһэ
киэһэтигэр
киэһэтэ
киэһээ
киэһээҥҥи
киэһэҕэ
киі
киһи
киһибин
киһибит
киһигин
киһилии
киһилиин
киһилэригэр
киһилэрин
киһилэрэ
киһилээх
киһим
киһини
киһиннэн
киһинэн
киһиргиир
киһиргэс
киһиргэтии
киһиргэтэ
киһиргэтэн
киһиргэтэр
киһиргээмэ
киһиргээн
киһиргээһин
киһисаха
киһитигэр
киһитии
киһитин
киһититтэн
киһиттэн
киһитэ
киһитэофициальныи
киһитээҕэр
киһиэхэ
киһиҥ
кк
кл
клавдии
клавдия
кладкин
клара
класс
класса
классах
классе
классига
классик
классика
классификации
классификация
классификацията
классическаи
классов
клаус
клеи
клетка
клеткалар
клеткалара
клеткаларга
клеткалартан
клеткалары
клеткаларын
клеткаҕа
клиент
климат
климата
климаттаах
климент
климович
климовскаи
клиника
клиническаи
клиническэи
клиорина
клип
клод
клуб
ключ
км
кн
книг
книга
книге
книги
книгу
книжное
кнопка
кнопканы
кнопки
кнопку
кнр
княжество
княжествота
княжествотын
князец
князь
ко
коалиция
коб
кобляков
ков
ковалевскаи
ковлеков
ковскаи
когда
кого
код
кода
кодекс
кодекса
кодексын
кодексынан
кодов
коды
кожуун
козлов
козлова
кои
кока
кокос
кол
кола
колесов
колесова
количества
количество
количеством
коллеги
коллегия
колледж
колледжа
колледжын
коллежскаи
коллектив
коллектива
коллективизация
коллективнаи
коллективное
коллекция
колмогоров
колодезников
колокольчик
колониализм
колония
колонията
колорадо
колосов
колумб
колумбия
колумбията
колхоз
колхозка
колхозтаах
колхозтаахтар
колхозтар
колхозтары
колхоһу
колхуос
колхуоска
колхуостаах
колчак
колымы
коля
ком
кома
команда
командир
командира
командировкаҕа
командирынан
командующаи
команды
комбаи
комбинат
комедия
комедиятын
комета
коми
коминтерн
комиссара
комиссии
комиссия
комиссиятын
комитет
комитета
комитетыгар
комитетын
комментариев
комментарии
коммерческаи
коммуна
коммунальнаи
коммунар
коммунизм
коммунизмы
коммуникация
коммунист
коммунистар
коммунистары
коммунистическаи
компакт
компании
компания
компаниялар
компаниялара
компанията
компартиятын
компас
комплекс
комплекса
комплекснаи
комплексын
комплект
композитор
композитора
композитордар
композитордарын
композиция
компоненнарын
компонент
компоненыгар
компонеҥҥа
компрессия
компьютер
компьютерга
компьютердар
компьютернаи
компьютеры
комраков
комсомол
комсомолга
комсомолец
комсомолун
комсомольскаи
кому
комугар
комун
кон
конвеи
конвенция
конвенцияны
конвенцията
конвенцияҕа
конгломерат
конгломерата
конгломератка
конго
конгресс
конгреһыгар
кондаков
кондратьев
конец
конечно
конкретно
конкретного
конкретныи
конкурена
конкуреннара
конкурс
конкурса
конкурсе
конкурска
конкурсугар
кононов
кононович
конрад
консенсус
консенсуса
консервативнаи
консерватория
консерваторияны
консерваториятын
консерваторияҕа
консол
константин
константинов
константинова
константинович
константиновна
константинополы
константинополь
константинопольга
конституционнаи
конституция
конституцияны
конституцията
конституциятыгар
конституциятын
конституцияҕа
конструкции
консула
консультации
контакты
контеи
контексте
континеннар
континент
континентальнаи
континеҥҥа
контоев
контракт
контрреволюционнаи
конур
конус
конф
конфедералистар
конфедераттар
конференции
конференция
конференцията
конференциятыгар
конференцияҕа
конфликт
конфликта
конфликты
конфуции
конца
конце
концепция
концепцията
концепциятын
концерн
концерт
концертмеи
концлааҕырга
конь
кооператив
кооперативнаи
кооператордара
кооперация
координат
координаты
коп
копенгаген
коперник
копии
копирования
копия
копията
копырин
коран
кореец
коренных
корень
корея
кореяҕа
коркин
коркина
корнилов
корнилова
коробеи
короле
королева
королевата
королевскаи
королевство
короленко
король
корона
коронавирус
коронарнаи
коротких
корпорация
корпорациялар
корпорацията
корпус
корпуһа
корректно
корреспондена
корреспондент
корреспонденынан
коррика
коррупция
корсаков
кортес
корякин
корякина
космическаи
космодромтан
космонавт
космонавтика
космос
космоска
космостан
косово
коста
кости
кострома
кот
которая
которого
которое
которои
котором
которому
которую
которые
которыи
которым
которых
кофе
кофены
кочнев
коҥ
кп
кпрф
кпсс
краевед
краи
кракатау
кралин
красильников
красная
красного
краснодар
краснодарскаи
краснои
краснокамскии
красноярск
красноярскаи
красныи
кратер
краткая
краткие
краткии
краткое
кратнаи
крафт
крафта
краю
края
кредит
кредитнаи
креи
кремль
кремнии
крепостнои
кривошапкин
кризис
кристаал
кристааллар
кристааллара
кристалл
кристина
крит
критериев
критерии
критериям
критик
критика
критиэрии
крови
кроме
крона
круг
круга
крупская
крылов
крылова
крым
крымскаи
крымҥа
кс
ксения
ксенофонт
ксенофонтов
ксенофонтова
ксенофонтович
ксенофонтовы
ксеркс
кск
кстати
кто
ку
куала
куб
куба
кубалар
кубалаҥ
кубалыы
кубань
кубархаи
кубарыи
кубертен
кубога
кубогар
кубогын
кубрат
кубулуи
кубулуппут
кубулуталлар
кубулутан
кубулутар
кубулутара
кубулутуон
кубулутуу
кувеи
кугарчинскии
кугас
куда
кудаи
кудаҥса
кудрин
куду
кудуга
кудук
кузнецкаи
кузнецов
кузнецова
кузьма
кузьмин
кузьмина
кузьминична
кузьмич
куи
кук
кукаакы
кукка
кукуруза
кул
кулаак
кулааһаи
кулаковскаи
кулаковскии
кулаковского
кулан
кулантаи
кулачиков
кулгаах
кулгаахтаах
кулгааҕа
кулгааҕар
кулгааҕын
кулгааҕынан
куличкина
куллурууттар
куллустуур
култуура
култууралаах
култууралар
култууралара
култуураларыгар
култуураларын
култуураны
култуурата
култууратыгар
култууратын
култуураҕа
култуурунаи
кулу
кулуба
кулубата
кулубатын
кулубатынан
кулун
кулуну
кулут
кулуттааһын
кулуттааһыны
кулуттар
кулуттары
кулууба
кулуубугар
кулуубун
кулууп
кулуупка
кулууптар
кулууптара
кулууптарыгар
кулуһун
кулуһуннаах
куль
кульбертинов
культ
культпросвет
культур
культура
культуралаах
культураларын
культураны
культурата
культуратыгар
культуратын
культураҕа
культуре
культурнаи
культурно
культурного
культурное
культурные
культурныи
культурологическии
культурология
культуры
культуура
культууратын
кум
кума
кумаар
кумааҕы
кумааҕыга
кумааҕыны
кумалаан
кумамото
кумах
кумахтаах
кумахха
кумахыны
кумаҕы
кумаҕынан
кумык
кун
кунан
кунанбаев
куннэ
кунугэр
кунэ
куо
куобах
куобахтар
куобахтарын
куобаҕы
куода
куодунан
куои
куокуну
куола
куолаи
куолакал
куолакалы
куолас
куоластаабыт
куоластаабыттар
куоластаан
куоластаах
куоластааһын
куоластааһыны
куоластааһынынан
куоластааһыҥҥа
куоластыыр
куолаһа
куолаһы
куолаһын
куолаһынан
куолу
куонаан
куонкурус
куонкуруска
куону
куоппат
куоппуи
куоппут
куоппута
куоппуттар
куоракка
куорамыкы
куорамыкыга
куорат
куората
куоратка
куораттаах
куораттааҕы
куораттан
куораттар
куораттара
куораттарга
куораттартан
куораттары
куораттарыгар
куораттарын
куораттарынан
куораттарыттан
куораты
куоратыгар
куоратын
куоратынан
куоратыттан
куорпуһа
куорсуннаах
куортамҥа
куоска
куоскалар
куота
куоталаһыы
куоталлар
куотан
куотар
куоттаран
куотуу
куочаи
куоҕас
куоҥ
куоһарбыт
купала
купалы
купол
куппут
куппутун
кур
кура
курааи
кураан
кураанах
курашов
кураҕаччылар
курбуу
курбуһах
курган
курд
курдаах
курдары
курдат
курдаттыы
курдуга
курдугу
курдугун
курдугунан
курдук
курдукпун
курдукпут
курдуктар
курдуктара
курдуу
курил
курилов
курорт
курортнаи
курс
курса
курск
курска
курскаи
курсугар
куртах
куртахха
куртаҕа
куртаҕар
куртаҕы
куртуи
куру
курултааи
курултаи
куруппа
курус
курустаал
курутуи
куруубаи
куруук
курууппа
куруутун
куруҥ
куруһуогун
куруһуок
куруһуокка
курыкан
курыканнар
курэх
кус
куска
кустар
кустук
кустуҥулар
кут
кута
кутаа
кутабыт
куталлар
кутан
кутана
кутар
кутлуг
кутта
куттаан
куттаах
куттаахтар
куттааҕын
куттааһын
куттал
куттала
кутталга
кутталлаах
кутталлаахтар
кутталлааҕын
кутталланар
кутталлара
кутталтан
кутталы
куттаммакка
куттаммыт
куттан
куттана
куттаналлар
куттанан
куттанар
куттаныы
куттар
куттара
куттарга
куттартан
куттары
куттарыгар
куттарын
куттарынан
куттарыттан
куттуур
куту
кутугар
кутузов
кутуи
кутуллан
кутуллар
кутуллубут
кутум
кутун
кутунан
кутургуи
кутуруга
кутуругар
кутуругун
кутурук
кутуруктаах
кутурҕан
кутуттан
кутуу
кутуҥ
кууба
куубагын
куубаны
куубаҕа
куука
куукула
куул
куупала
кууран
куурбут
куурдар
куурдуллар
куурсугар
куурсун
куурус
кууруска
куурусса
куурустары
куурустарыгар
куурустарын
кууруһу
кууруһун
куус
куускэ
куустээх
кууһан
кууһума
кучу
кучум
куччугуи
кушнарев
кушнаренковскии
куюргазинскии
куҥҥэ
куһа
куһаҕан
куһаҕана
куһаҕаннаах
куһаҕаннар
куһаҕаннара
куһаҕаннары
куһаҕаннарын
куһаҕаннык
куһаҕантан
куһаҕаны
куһаҕанын
куһаҕанынан
куһаҕаныттан
куһаҕаҥҥа
куһу
кы
кыа
кыаи
кыалла
кыаллар
кыаллара
кыалларын
кыалларынан
кыаллыа
кыаллыан
кыаллыбакка
кыаллыбат
кыаллыбата
кыаллыбатаҕа
кыаллыбатаҕына
кыаллыбатын
кыаллыбыта
кыаллымыан
кыаммат
кыамталаах
кыамтата
кыана
кыанан
кыанар
кыанарга
кыараҕас
кыаттаран
кыаттарар
кыаттарбат
кыаттарбыт
кыах
кыахпыт
кыахтаах
кыахтаахпыт
кыахтаахтар
кыахтаахтара
кыахтаахтарын
кыахтаахтык
кыахтааҕа
кыахтааҕын
кыахтааҕынан
кыахтааҕыттан
кыахтаммыт
кыахтаммыта
кыахтаммыттар
кыахтаммыттара
кыахтаммытын
кыахтанабыт
кыахтаналлар
кыахтаналлара
кыахтаналларын
кыахтанан
кыахтанар
кыахтанара
кыахтанарын
кыахтанна
кыахтаннаҕына
кыахтанныбыт
кыахтаннылар
кыахтаныа
кыахтаныан
кыахтаныахтара
кыахтар
кыахтара
кыахтарын
кыахтарынан
кыаххын
кыаҕа
кыаҕар
кыаҕы
кыаҕым
кыаҕын
кыаҕынан
кыаҕырар
кыаҕыттан
кыбыллан
кыбыстар
кыбыстыы
кыбытан
кыбытык
кыбытыылаах
кыбыытын
кыдыи
кызыл
кыи
кыл
кылаабынаи
кылаан
кылааннаах
кылаас
кылааска
кылаассабаи
кылаастаах
кылаастан
кылаастар
кылаастарга
кылаастары
кылаастарыгар
кылаастарын
кылаат
кылаата
кылааттарын
кылааты
кылаатын
кылааһа
кылааһы
кылааһыгар
кылааһын
кылааһынан
кылабачыгас
кылабыыһатыгар
кылабыыһаҕа
кылбаи
кылгаан
кылгас
кылгастык
кылгатан
кылгатар
кылгатыллыбыта
кылгатыы
кылгаһын
кылгыыр
кылгыырыгар
кылы
кылыи
кылын
кылыс
кылыы
кымньыы
кымньыылаах
кымырдаҕас
кымыс
кымыһы
кымыһынан
кын
кына
кынан
кынат
кыната
кынаттаах
кынаттанан
кынаттар
кынаттара
кынаттарын
кынаттыыр
кынатын
кындыл
кып
кыптыыи
кыпчак
кыпчактар
кыр
кыра
кыраадыс
кыраадыска
кыраадыстаах
кыраадыстан
кырааи
кыраан
кырааска
кырааскалаах
кыракыи
кыралаан
кыралар
кыралара
кыралары
кыраларын
кырамаатыка
кыранан
кыраны
кыраныысса
кыраныыссаларын
кыраныыссалаһар
кыраныыссаны
кыраныыссата
кыраныыссатыгар
кыраныыссатын
кыраныыссаҕа
кырасыабаи
кырата
кыраттан
кыратыгар
кыратык
кыратын
кыратыттан
кырачаан
кыраҕа
кыраҕын
кыраһа
кыраһыабаи
кырбаан
кырбыи
кырган
кыргы
кыргыбыт
кыргыдаи
кыргыз
кыргызов
кыргызстан
кыргызтар
кыргыс
кыргыспыт
кыргыспыттар
кыргыстаан
кыргыстааҥҥа
кыргыстар
кыргыстара
кыргыстарын
кыргыттар
кыргыттара
кыргыттарга
кыргыттары
кыргыттарын
кыргыыс
кыргыыстар
кыргыһан
кыргыһыы
кыргыһыыга
кыргыһыылар
кыргыһыылара
кыргыһыыларга
кыргыһыыларыгар
кыргыһыыларын
кыргыһыыта
кыргыһыытыгар
кыргыһыытын
кырдал
кырдала
кырдьа
кырдьан
кырдьар
кырдьаҕас
кырдьаҕастар
кырдьаҕастара
кырдьаҕастары
кырдьаҕаһа
кырдьаҕаһы
кырдьыбыт
кырдьыга
кырдьыгы
кырдьыгын
кырдьыгынан
кырдьык
кырдьыктаах
кырдьыктаахтык
кырдьыы
кырса
кырсын
кырыа
кырыалаах
кырыи
кырыктаах
кырыктаахтык
кырыкыи
кырынаас
кырынаастыыр
кырыс
кырыы
кырыылаах
кырыылара
кырыылыыр
кырыым
кырыымтан
кырыымчык
кырыымҥа
кырыыс
кырыыска
кырыыстаах
кырыыта
кырыытыгар
кырыытынан
кырыытыттан
кырыыһы
кыс
кыстаабыт
кыстаан
кыстык
кыстыкка
кыстыы
кыстыыллар
кыстыыр
кыт
кытаанах
кытаанахтык
кытаанаҕа
кытаанаҕын
кытаат
кытаатан
кытаатыннаран
кытаи
кыталык
кыталыктар
кытара
кытаран
кытарар
кытархаи
кытары
кытах
кытта
кыттааччы
кыттааччыга
кыттааччылар
кыттааччылара
кыттааччыларга
кыттааччылары
кыттааччыларын
кыттааччыны
кыттааччыта
кытталлар
кытталларын
кыттан
кыттар
кыттара
кыттарга
кыттарын
кыттыан
кыттыбат
кыттыбатаҕа
кыттыбыт
кыттыбыта
кыттыбыттар
кыттыбыттара
кыттыбытын
кыттыбытыттан
кыттыгас
кыттыгастаах
кыттыгастыы
кыттыгаһа
кыттыспыт
кыттыспыта
кыттыспыттара
кыттыы
кыттыылаа
кыттыылаах
кыттыылаахтара
кыттыылаахтарын
кыттыылааҕа
кыттыыны
кыттыыта
кыттыытынан
кыттыҥ
кыттыһа
кыттыһаары
кыттыһаллар
кыттыһан
кыттыһар
кыттыһыы
кытыан
кытыастар
кытыга
кытыи
кытыл
кытыла
кытылга
кытыллара
кытылларыгар
кытылыгар
кытылым
кытылын
кытылынан
кытылыттан
кытынна
кытыт
кытыы
кытыыга
кытыылаах
кытыылааҕа
кытыыларыгар
кытыыларынан
кытыыта
кытыытыгар
кытыытын
кытыытынааҕы
кытыытынан
кытыытыттан
кычкин
кычкина
кыччаан
кыччатан
кыччатар
кыччатыы
кыччыыр
кычыгырыыр
кыы
кыыдааннаах
кыыл
кыыла
кыылга
кыыллаах
кыыллар
кыыллара
кыылларга
кыыллартан
кыыллары
кыылларыгар
кыылларын
кыылларынан
кыыллыы
кыылтан
кыылы
кыылым
кыылын
кыылынан
кыым
кыыма
кыымынан
кыымҥа
кыыраи
кыыран
кыырпах
кыырт
кыырыктаах
кыыс
кыыска
кыыспыт
кыыстаах
кыыстара
кыыстарын
кыыстарынан
кыысчаан
кыычыкын
кыыьа
кыыһа
кыыһар
кыыһы
кыыһыгар
кыыһын
кыыһынан
кыыһыра
кыыһыран
кыыһырар
кыыһырбыт
кыыһырбыта
кыыһырдаҕына
кыыһырыма
кыыһырымтаҕаи
кыыһырыы
кыыһыттан
кыьыл
кыҥкыи
кыһа
кыһаи
кыһалара
кыһаларыгар
кыһаларын
кыһаллар
кыһалҕа
кыһалҕалаах
кыһалҕалары
кыһалҕаларыгар
кыһалҕаларын
кыһалҕаны
кыһалҕата
кыһалҕаттан
кыһалҕатыгар
кыһалҕатын
кыһалҕаҕа
кыһаммакка
кыһаммат
кыһамматтар
кыһамньылаах
кыһан
кыһана
кыһаналлар
кыһаналлара
кыһаналларын
кыһанан
кыһанар
кыһанара
кыһаныахтара
кыһаныы
кыһарыи
кыһата
кыһатыгар
кыһатын
кыһыи
кыһыл
кыһыллар
кыһылларга
кыһыллартан
кыһыллары
кыһыллыҥы
кыһын
кыһына
кыһыннаах
кыһыннары
кыһыны
кыһыныгар
кыһынын
кыһыылаах
кыһыҥҥы
кэ
кэби
кэбии
кэбиниэтэ
кэбирэх
кэбис
кэбиспит
кэбиспитин
кэбиспиттэр
кэбиспиттэрин
кэбиспиттэриттэн
кэбиспиттэрэ
кэбиспитэ
кэбиспэккэ
кэбиспэт
кэбистибит
кэбистилэр
кэбистим
кэбистэ
кэбистэхтэринэ
кэбистэххэ
кэбистэҕинэ
кэбиһии
кэбиһиилээх
кэбиһиини
кэбиһииттэн
кэбиһиллэр
кэбиһиэн
кэбиһиэхтэрин
кэбиһиэххэ
кэбиһэ
кэбиһэбит
кэбиһэллэр
кэбиһэллэрин
кэбиһэллэриттэн
кэбиһэллэрэ
кэбиһэн
кэбиһэннэр
кэбиһэр
кэбиһэргэ
кэбиһэрин
кэбиһэриттэн
кэбиһэрэ
кэбээи
кэбэҕэстик
кэдьиҥэ
кэдэи
кэдэрги
кэи
кэккэ
кэккэлэригэр
кэккэлэһэ
кэккэтигэр
кэкэ
кэл
кэлбит
кэлбитигэр
кэлбитим
кэлбитин
кэлбитинэн
кэлбиттэр
кэлбиттэригэр
кэлбиттэрин
кэлбиттэрэ
кэлбитэ
кэлбэккэ
кэлбэт
кэлбэтэх
кэлгии
кэлии
кэлиилэр
кэлиилэригэр
кэлиилэрин
кэлиилэрэ
кэлиитигэр
кэлиитин
кэлиититтэн
кэлиитэ
кэлим
кэлимник
кэлимсэ
кэлин
кэлиэ
кэлиэм
кэлиэн
кэлиэр
кэлиэх
кэлиэхтэрин
кэлиэхтэриттэн
кэлиэхтэрэ
кэлиэхтээх
кэлиэҕэ
кэлиҥ
кэлиҥҥи
кэлли
кэллибит
кэллилэр
кэллим
кэллиэгии
кэллиэксии
кэллиэс
кэллиэһэ
кэллиҥ
кэллэ
кэллэхтэринэ
кэллэҕинэ
кэллэҕэ
кэлтэгэи
кэлтэи
кэлэ
кэлэбит
кэлэи
кэлэллэр
кэлэллэрин
кэлэллэрэ
кэлэн
кэлэннэр
кэлэр
кэлэригэр
кэлэрин
кэлэринэн
кэлэриттэн
кэлэрэ
кэлээр
кэлээри
кэлээт
кэлээччи
кэлэҕэи
кэм
кэмбинээт
кэмбинээтэ
кэми
кэмигэр
кэмин
кэминэн
кэминээҕи
кэмитиэккэ
кэмитиэт
кэмитиэти
кэмитиэтигэр
кэмитиэтин
кэмитиэттэрэ
кэмитиэтэ
кэмиттэн
кэмиэдьии
кэмиэрчэскэи
кэммит
кэммитигэр
кэммиэрсии
кэмниэ
кэмнэ
кэмнэр
кэмнэргэ
кэмнэрдээх
кэмнэрдээҕин
кэмнэри
кэмнэригэр
кэмнэрин
кэмнэриттэн
кэмнэртэн
кэмнэрэ
кэмнээн
кэмнээх
кэмнээхтэр
кэмнээҕи
кэмпилиэк
кэмпириэнсии
кэмпиэт
кэмпэндээи
кэмсинии
кэмсиниини
кэмсинэр
кэмтэн
кэмчи
кэмэ
кэмңэ
кэмҥэ
кэн
кэнгириэһин
кэнгириэһэ
кэннибэр
кэннигэр
кэнники
кэннилэригэр
кэннилэриттэн
кэннин
кэннинэн
кэннинээҕи
кэнниттэн
кэннэ
кэнсиэпсии
кэнсиэр
кэнсэлээрии
кэнтик
кэнчээри
кэнэн
кэнэҕэс
кэнэҕэски
кэнэҕэһин
кэп
кэппит
кэпсии
кэпсииллэр
кэпсииллэринэн
кэпсииллэрэ
кэпсиир
кэпсиирин
кэпсииринэн
кэпсиирэ
кэпсиэ
кэпсэнэллэр
кэпсэнэр
кэпсэнэринэн
кэпсэппит
кэпсэппиттэр
кэпсэппэт
кэпсэтии
кэпсэтиигэ
кэпсэтиилэр
кэпсэтиини
кэпсэтиэх
кэпсэттэ
кэпсэттэххэ
кэпсэтэ
кэпсэтэллэр
кэпсэтэллэрэ
кэпсэтэн
кэпсэтэр
кэпсэтэрэ
кэпсээ
кэпсээбит
кэпсээбитэ
кэпсээбэт
кэпсээммит
кэпсээн
кэпсээни
кэпсээнигэр
кэпсээнин
кэпсээнинэн
кэпсээниттэн
кэпсээнньит
кэпсээннэр
кэпсээннэргэ
кэпсээннэри
кэпсээннэригэр
кэпсээннэрин
кэпсээннэринэн
кэпсээннэриттэн
кэпсээннэртэн
кэпсээннэрэ
кэпсээннээх
кэпсээнэ
кэпсээтэ
кэпсээҥҥэ
кэпсээһин
кэр
кэрбээччилэр
кэргэн
кэргэни
кэргэнигэр
кэргэним
кэргэнин
кэргэнинээн
кэргэниттэн
кэргэннии
кэргэнниилэр
кэргэннэнэн
кэргэннэригэр
кэргэннэрин
кэргэннэрэ
кэргэннээх
кэргэнтэн
кэргэнэ
кэргэттэригэр
кэргэттэрин
кэргэттэрэ
кэргэҥҥэ
кэрдии
кэрдиилэр
кэрдиилээх
кэрдиис
кэрдиискэ
кэрдиистээх
кэрдиитэ
кэрдииһэ
кэрдэн
кэрдэр
кэри
кэрии
кэрискэ
кэриэ
кэриэи
кэриэн
кэриэс
кэриэскэ
кэриэстиир
кэриэстэрин
кэриэстэс
кэриэстээн
кэриэтин
кэриэтэ
кэриэһигэр
кэриэһин
кэриэһэ
кэриҥ
кэриҥин
кэриҥнээх
кэриҥэ
кэрчигэ
кэрчик
кэрчиктэрэ
кэрэ
кэрэгэи
кэрэи
кэрэмэс
кэрэни
кэрэспэдьиэнэ
кэрэтик
кэрэтин
кэрэтиэн
кэрэттэн
кэрэтэ
кэрэх
кэрэхсэбиллээх
кэрэхсээн
кэрээк
кэрээн
кэрэҕэ
кэрэһилиир
кэрэһилээн
кэрэһэлиир
кэс
кэскил
кэскилбит
кэскили
кэскилин
кэскиллээх
кэскилэ
кэспэккэ
кэспэт
кэт
кэтии
кэтиир
кэтиллэр
кэтин
кэтириинэ
кэтирээн
кэтирээһин
кэтирээһинтэн
кэтит
кэтитин
кэтиттээх
кэтитэ
кэтт
кэттэххинэ
кэттэххэ
кэтэ
кэтэбил
кэтэллэр
кэтэн
кэтэр
кэтэргэ
кэтэс
кэтэх
кэтэхтэн
кэтээн
кэтэҕин
кэтэҕинэн
кэтэҕэр
кэтэһии
кэтэһэ
кэтэһэллэр
кэтэһэн
кэтэһэр
кэхтибэт
кэхтии
кэхтэн
кэхтэр
кэччэгэи
кээмэи
кээн
кээспит
кэҕэ
кэҥгириэс
кэҥгириэстэрэ
кэҥии
кэҥиир
кэҥэтии
кэҥэтэн
кэҥэтэр
кэҥээбит
кэҥээбитэ
кэҥээн
кэҥээтэ
кэһии
кэһиигэ
кэһиилээх
кэһиини
кэһиитэ
кэһил
кэһиллибэт
кэһиллиитэ
кэһиллэр
кэһимэ
кэһиэччик
кэһэи
кэһэллэрэ
кэһэн
кэһэр
кэһэтэн
кэһээччилэр
кюри
кюсю
кү
күбэи
күбүрүнээтэр
күбүрүнээтэрин
күбүрүнээтэринэн
күбүрүнээтэрэ
күбүөрүнэ
күбүөрүнэтин
күбүөрүнэтээҕи
күбүөрүнэҕэ
күдэн
күдэх
күдэҥҥэ
күкүр
күл
күлгэри
күлэ
күлэн
күлэр
күлэрэ
күлүг
күлүгэ
күлүгэр
күлүгүн
күлүгүрэн
күлүк
күлүктэрэ
күлүм
күлүмнээн
күлүмнүү
күлүмнүүр
күлүмнүүрү
күлүмэ
күлүмэн
күлүмүрдэс
күлүмүрдүү
күлүнэн
күлүү
күлүүгэ
күлүүлээх
күлүүс
күммэр
күммүт
күн
күндэ
күндэи
күндэлэс
күндээдэ
күндү
күндүл
күндүлээн
күндүлүүр
күндүтүк
күннэи
күннэр
күннэрбэр
күннэргэ
күннэри
күннэригэр
күннэрин
күннэринэн
күннэриттэн
күннэрэ
күннэтэ
күннээх
күннээҕи
күннээҕэр
күннүгэ
күннүк
күнтэн
күнэ
күнэдень
күнү
күнүгэр
күнүм
күнүн
күнүнэн
күнүнээҕи
күнүс
күнүскү
күнүстэри
күнүттэн
күнүһүн
күп
күр
күргэ
күргэтин
күргэтэ
күргүөмнээх
күрдьэх
күрэнэн
күрэс
күрэскэ
күрэстэр
күрэстэһэр
күрэтэн
күрэх
күрэхтэһии
күрэхтэһиигэ
күрэхтэһиилэр
күрэхтэһиилэргэ
күрэхтэһиилэригэр
күрэхтэһиитигэр
күрэхтэһэр
күрэххэ
күрээбит
күрээбиттэр
күрээн
күрэҕэ
күрэҕэр
күрэҥ
күрэһигэр
күрэһин
күрэһэ
күрүлгэн
күрүүр
күрүө
күрүөнү
күттүөннээх
күтүр
күтүөт
күтүөтэ
күтүөтүн
күчүмэҕэи
күѳл
күҥкү
күҥҥэ
күү
күүгэн
күүдээх
күүкэи
күүлэи
күүлэт
күүппэппин
күүрдэн
күүрдэр
күүркэтэн
күүрэн
күүрэр
күүрүүлээх
күүс
күүскэ
күүстэнэр
күүстэр
күүстэргэ
күүстэри
күүстэригэр
күүстэрин
күүстэринэн
күүстэрэ
күүстээх
күүстээхтик
күүстээхтэн
күүстээхтэр
күүстээххин
күүстээҕи
күүстээҕин
күүстээҕинэн
күүстээҕиттэн
күүстээҕэ
күүтэбин
күүтэллэр
күүтэн
күүтэр
күүтүллэр
күүһэ
күүһү
күүһүгэр
күүһүлээн
күүһүлээһин
күүһүм
күүһүн
күүһүнэн
күүһүрбүт
күүһүрбүтэ
күүһүрбүтүн
күүһүрдэ
күүһүрдэллэр
күүһүрдэн
күүһүрдэр
күүһүрдэргэ
күүһүрдэҕинэ
күүһүрдүү
күүһүрэ
күүһүрэн
күүһүрэр
күүһүрэригэр
күүһүрэрин
күүһүрүүтэ
күүһүттэн
күһэи
күһэллибит
күһэллибиттэр
күһэллибиттэрэ
күһэллибитэ
күһэллэллэр
күһэллэр
күһэҥэ
күһэҥэи
күһүн
күһүнүгэр
күһүҥҥү
күһүүр
күһүөрү
күөгэи
күөдьүи
күөи
күөл
күөлгэ
күөллэр
күөллэргэ
күөллэрдээх
күөллэри
күөллэригэр
күөллэрин
күөллэрэ
күөллээх
күөлтэн
күөлэ
күөлэһии
күөлү
күөлүгэр
күөлүн
күөмэи
күөн
күөнэх
күөнүгэр
күөртээн
күөрчэх
күөрэгэи
күөрэи
күөс
күөх
күөхтүҥү
күөххэ
күөҕэ
күөҕүнэн
күөҥҥэ
кө
көбүтэр
көбүөр
көбүөргэ
көбөкөн
көбөн
көдьүүстээх
көдьүүһэ
көи
көк
көкөи
көлдьүн
көлүи
көлүнэр
көлүөнэ
көлүөнэлэр
көлүөнэлэрбит
көлүөнэлэрбитин
көлүөнэлэргэ
көлүөнэлэри
көлүөнэлэригэр
көлүөнэлэрин
көлүөнэлэриттэн
көлүөнэлэрэ
көлүөнэлээх
көлүөнэни
көлүөнэнэн
көлүөнэтигэр
көлүөнэтин
көлүөнэттэн
көлүөнэҕэ
көлө
көлөнү
көлөтүн
көлөһүн
көлөһүнэ
көлөһүнүн
көм
көммүт
көммөт
көмпүттэрэ
көмпүүтэр
көмпүүтэргэ
көмпүүтэри
көмүллэ
көмүллэн
көмүллэр
көмүллүбүт
көмүллүбүтэ
көмүлүөк
көмүс
көмүскэ
көмүскэл
көмүскэлигэр
көмүскэлин
көмүскэллээх
көмүскэлэ
көмүскэнии
көмүскэнэ
көмүскэнэр
көмүскэнэргэ
көмүскэнээри
көмүскэс
көмүскээ
көмүскээбит
көмүскээбиттэрэ
көмүскээбитэ
көмүскээн
көмүскээччи
көмүскээччитин
көмүскээһин
көмүскээһиҥҥэ
көмүскэһэр
көмүскүү
көмүскүүр
көмүскүүргэ
көмүстэн
көмүстээх
көмүү
көмүһэ
көмүһү
көмүһүнэн
көмүөл
көмө
көмөллөр
көмөллөрө
көмөлтө
көмөлө
көмөлөрүгэр
көмөлөрүн
көмөлөрүнэн
көмөлөрө
көмөлөс
көмөлөспүт
көмөлөспүттэрэ
көмөлөспүтэ
көмөлөспөт
көмөлөһүннэрэ
көмөлөһүҥ
көмөлөһүү
көмөлөһүө
көмөлөһүөн
көмөлөһүөхтэрин
көмөлөһүөхтээх
көмөлөһө
көмөлөһөллөр
көмөлөһөллөрүн
көмөлөһөллөрө
көмөлөһөн
көмөлөһөр
көмөлөһөргө
көмөлөһөрүн
көмөлөһөрө
көмөлөһөөччү
көмөлөһөөччүтэ
көмөлөһөөччүтүнэн
көмөлөөн
көмөлөөх
көмөн
көмөнү
көмөр
көмөтүгэр
көмөтүн
көмөтүнэн
көмөтө
көмөҕө
көннөрдөххө
көннөрү
көннөрүнэр
көннөрүнүөн
көннөрүү
көннөрүүгэ
көннөрүүнү
көннөрө
көннөрөн
көннөрөр
көннөрөргө
көннөрөрө
көннөҕүнэ
көнтөс
көнүстүүссүи
көнө
көнөн
көнөр
көнөрүн
көнөрө
көнөтүк
көнөтүнэн
көппүт
көппүттэр
көппүтэ
көппүтүн
көппөт
көппөҕөр
көпсөркөи
көр
көрбүппүт
көрбүт
көрбүттэр
көрбүттэрин
көрбүттэрэ
көрбүтэ
көрбүтүм
көрбүтүн
көрбүөччү
көрбөккө
көрбөт
көрбөттөр
көрбөттөргө
көрбөтөх
көргө
көрдүбүт
көрдүк
көрдүлэр
көрдүм
көрдүн
көрдүү
көрдүүбүн
көрдүүллэр
көрдүүллэрэ
көрдүүр
көрдүүргэ
көрдүүрэ
көрдүүрүн
көрдө
көрдөбүл
көрдөбүлгэ
көрдөбүллэр
көрдөбүллэргэ
көрдөбүллэри
көрдөбүллэригэр
көрдөбүллэрин
көрдөбүллэрэ
көрдөбүллээх
көрдөбүлэ
көрдөбүлү
көрдөбүлүгэр
көрдөбүлүн
көрдөбүлүнэн
көрдөнүллэр
көрдөнөр
көрдөр
көрдөрбүт
көрдөрбүттэр
көрдөрбүттэрэ
көрдөрбүтэ
көрдөрбүтүнэн
көрдөрбөккө
көрдөрбөт
көрдөрдүлэр
көрдөрдө
көрдөрүллэр
көрдөрүллүбүт
көрдөрүллүбүттэр
көрдөрүллүбүтэ
көрдөрүү
көрдөрүүгэ
көрдөрүүлэр
көрдөрүүлэри
көрдөрүүлэрин
көрдөрүүлэринэн
көрдөрүүлэрэ
көрдөрүүлээх
көрдөрүүлээхтик
көрдөрүүнү
көрдөрүүтэ
көрдөрүүтүнэн
көрдөрүөххэ
көрдөрө
көрдөрөллөр
көрдөрөллөрүн
көрдөрөллөрүнэн
көрдөрөн
көрдөрөр
көрдөрөргө
көрдөрөрүн
көрдөрөрүнэн
көрдөрөрө
көрдөрөөрү
көрдөрөөччү
көрдөспүт
көрдөспүтэ
көрдөхпүнэ
көрдөхпүтүнэ
көрдөхтөрүнэ
көрдөххүнэ
көрдөххө
көрдөҕүнэ
көрдөһүү
көрдөһүүтүнэн
көрдөһө
көрдөһөбүн
көрдөһөн
көрдөһөр
көрдөө
көрдөөбүт
көрдөөбүтэ
көрдөөбүтүн
көрдөөн
көрдөөх
көрдөөһүн
көрсүбэтэх
көрсүбүт
көрсүбүттэр
көрсүбүттэрэ
көрсүбүтэ
көрсүллэр
көрсүү
көрсүһэ
көрсүһэн
көрсүһэр
көрсүһүү
көрсүһүүгэ
көрсүһүүлэр
көрсүһүүлэрэ
көрсүө
көрсүөтүк
көрсүөххэ
көрсүөҕэ
көрсүөҕүҥ
көрсө
көрсөллөр
көрсөн
көрсөр
көрсөргө
көрү
көрүллэллэр
көрүллэн
көрүллэр
көрүллэрэ
көрүллүбүт
көрүллүбүтэ
көрүлээн
көрүлүүр
көрүн
көрүнэ
көрүнэн
көрүнэр
көрүнүү
көрүстэ
көрүстэҕинэ
көрүстүм
көрүтэлээн
көрүҥ
көрүҥнэнэн
көрүҥнэр
көрүҥнэргэ
көрүҥнэрдээх
көрүҥнэри
көрүҥнэригэр
көрүҥнэрин
көрүҥнэринэн
көрүҥнэриттэн
көрүҥнэрэ
көрүҥнээх
көрүҥнээхтик
көрүҥнээхтэр
көрүҥнээҕэ
көрүҥэ
көрүҥэр
көрүҥҥэ
көрүҥү
көрүҥүн
көрүҥүнэн
көрүҥүттэн
көрүү
көрүүгэ
көрүүлэр
көрүүлэригэр
көрүүлэрин
көрүүлэринэн
көрүүлэрэ
көрүүлээх
көрүүм
көрүүнэн
көрүүнү
көрүүттэн
көрүүтэ
көрүүтүгэр
көрүүтүн
көрүүтүнэн
көрүө
көрүөм
көрүөн
көрүөх
көрүөхпүт
көрүөхтэрин
көрүөхтээх
көрүөххэ
көрүөххүн
көрүөҕүҥ
көрө
көрөбүн
көрөбүт
көрөллөр
көрөллөрүгэр
көрөллөрүн
көрөллөрө
көрөн
көрөннөр
көрөр
көрөрбүт
көрөргө
көрөрү
көрөрүгэр
көрөрүн
көрөрүттэн
көрөрө
көрөҕүн
көрөөрү
көрөөт
көрөөччү
көрөөччүлэр
көс
көскө
көспүт
көспүттэр
көспүттэрэ
көспүтэ
көстүбэккэ
көстүбэт
көстүбэттэр
көстүбэтэ
көстүбэтэх
көстүбүт
көстүбүттэр
көстүбүттэрэ
көстүбүтэ
көстүбүтүн
көстүү
көстүүгэ
көстүүлэр
көстүүлэри
көстүүлэрин
көстүүлэринэн
көстүүлэрэ
көстүүлээх
көстүүм
көстүүнэн
көстүүнү
көстүүтэ
көстүүтүн
көстүүтүнэн
көстүө
көстүөн
көстүөхтэрин
көстүөҕэ
көстө
көстөкүүн
көстөллөр
көстөллөрүн
көстөллөрө
көстөн
көстөр
көстөрү
көстөрүн
көстөрүнэн
көстөрүттэн
көстөрө
көстөөх
көттө
көттөҕүнэ
көтүппүт
көтүрэн
көтүрүллүбүтэ
көтүтэ
көтүтэн
көтүтэр
көтүтүү
көтүү
көтүүнү
көтүүтэ
көтүүтүгэр
көтүүтүн
көтүөм
көтө
көтөллөр
көтөн
көтөр
көтөрдөр
көтөрдөргө
көтөрдөртөн
көтөрдөрү
көтөрдөрүгэр
көтөрдөрүн
көтөрдөрө
көтөрү
көтөрүгэр
көтөрүн
көтөрө
көтөх
көтөхпүт
көтөхтөрөн
көтөххө
көтөҕүллэн
көтөҕүллэр
көтөҕүллүбүт
көтөҕүү
көтөҕүүгэ
көтөҕө
көтөҕөн
көтөҕөр
көхсүгэр
көхсүн
көхсүттэн
көхсө
көхтөөх
көхтөөхтүк
көччүи
көҕүи
көҕүллээх
көҕүлээбитэ
көҕүлээн
көҕүлээччитэ
көҕүлээһин
көҕүлээһининэн
көҕүлээһиннэринэн
көҕүлүүр
көҕүрэтэн
көҕүрэтэр
көҕүрээн
көҕүрүү
көҕүрүүр
көҕүс
көҕүстээх
көҕүөр
көҕөн
көҕөрө
көҕөрөн
көҕөрөр
көҕөччөр
көҥдөи
көҥү
көҥүл
көҥүлгэ
көҥүллэммит
көҥүллэммэт
көҥүллэнэр
көҥүллэрин
көҥүллэринэн
көҥүллээбит
көҥүллээбиттэрэ
көҥүллээн
көҥүллээх
көҥүллүк
көҥүллүүр
көҥүлэ
көҥүлү
көҥүлүн
көҥүлүнэн
көһүи
көһүлээн
көһүлүүр
көһүннэ
көһүннэхтэринэ
көһүннэҕинэ
көһүппэтэх
көһүү
көһүүлэрэ
көһө
көһөллөр
көһөн
көһөр
көһөрбүт
көһөрбүттэр
көһөрбүттэрэ
көһөргө
көһөрүллэн
көһөрүллэр
көһөрүллүбүт
көһөрүллүбүтэ
көһөрүү
көһөрөн
көһөрөр
көһөрөргө
көөнньөрөн
көөнньөһүгүн
көөчүк
көөчүктээн
көөчүктээһин
л
ла
лаампа
лаампаны
лаамы
лаан
лааппы
лаах
лааҕыр
лааҕыра
лааҕырга
лааҕырдарга
лааҕырдарыгар
лааҕырыгар
лааҥкы
лабаа
лабаалаах
лабаалара
лабааларын
лабаата
лаборана
лаборант
лаборатории
лаборатория
лабораториятын
лабораторияҕа
лабыкта
лабыкталар
лава
лавлеи
лаврентии
лаврентьевич
лагуна
лазарев
лазаревич
лазарь
лазер
лазернаи
лаи
лакаи
ламутскаи
лан
ландшафт
ланка
лао
лаос
лаппа
лаптев
лаптевтар
лапу
лар
лара
ларга
лари
ларионов
ларионова
лариса
ларри
лары
ларыгар
ларын
лас
лат
латвии
латвия
латвияҕа
латин
латинскаи
латинское
латыш
латыын
латыынныы
лауреаата
лауреат
лауреата
лауреаттара
лауреаты
лах
лаҕына
ле
лебедев
лебедева
лебедкин
лебедь
лев
левин
легенда
легенды
легко
леди
ледокол
леи
лексика
лексиката
лексики
лексикография
лексикология
лексическэи
лектор
лекция
лена
ленд
ленин
ленина
ленинграадтааҕы
ленинград
ленинграда
ленинградка
ленинградскаи
ленинградтааҕы
ленинграды
ленинец
ленинизм
ленинскэи
ленскаи
ленскии
ленскэи
лену
лео
леон
леонард
леонардо
леонид
леонтьев
лепчиков
лер
лермонтов
лермонтовтан
лес
лет
летие
летию
летия
лето
летом
летопись
летчик
лех
лечебнаи
лечение
ли
либерализм
либо
ливан
ливия
ливияҕа
ливон
ливр
лига
лигалара
лидер
лидера
лидерства
лидия
лии
лиибии
лииндэ
лиинии
лииньии
лиис
лиитэрэ
ликбез
лилия
лимон
лин
лингвист
лингвистика
лингвистикаҕа
лингвистическэи
линденау
линеи
линза
линзалары
линия
линията
линиятын
линкольн
линнеи
линукс
лир
лира
лирика
лирическэи
лис
лиссиэи
лиссиэнсии
лист
лит
литва
литваҕа
литератур
литература
литературабыт
литературалар
литератураларын
литератураны
литературата
литературатыгар
литературатын
литератураҕа
литературе
литературнаи
литературная
литературно
литературного
литературныи
литературовед
литературы
литератуура
литератууратын
литинскаи
литовецтар
литр
литэрэтиирэ
литэрэтиирэлии
литэрэтиирэни
литэрэтиирэтигэр
литэрэтиирэтин
литэрэтиирэтэ
литэрэтиирэҕэ
лиханов
лиц
лица
лицах
лицеи
лицензиеи
лицензии
лицензия
лицензиялаах
лично
личное
личности
личность
личные
личных
лишь
лиэи
лиэксии
лиэксикэ
лиэнскэи
лиэнтэлээх
лиэнтэтэ
лиэнэҕэ
лия
лл
ло
лобанов
лобачевскаи
лов
лова
лович
ловка
ловна
логарифм
логика
логлои
логотип
ложка
лок
ломоносов
лонг
лонгинов
лондон
лондоннааҕы
лондоҥҥа
лоокуут
лоокууттарын
лоомтука
лоп
лорд
лорп
лос
лоскуи
лохов
лоҥ
лоһуор
лс
лу
лугинов
луи
луиза
луис
лука
лукин
лукина
лукич
луковцев
лумпур
луна
луначарскаи
лунцзян
луо
луугу
луук
луч
лучше
лучшие
лучшии
лучших
луҕат
лы
лыах
лыахтар
лыаҕа
лыглыи
лыргы
лыткина
лыы
лыҥкынас
ль
львов
львович
львовна
льн
лэ
лэгиэн
лэгэнтэи
лэкиэс
лэлиир
лэппиэскэ
лэр
лэри
лэрин
лэрэ
лээги
лээх
лэҕэ
лэҥкирэ
лэһит
лю
любви
любовь
любого
любое
любои
любом
любому
любые
любых
людвиг
людеи
люди
людмила
людовик
людьми
людям
людях
люксембург
лютер
люция
ляхов
лүкэтин
лүүчүн
лүөччүгэ
лүөччүк
лөгөи
лөкүө
лөкөчөөн
м
ма
маа
маада
мааи
маак
маалтааны
маалыкаи
маама
мааны
мааныга
маанылаан
маанылаах
маанылааһын
мааныламмыт
маанылана
мааныланан
маанылыыр
маанытык
мааппа
маар
маардарга
мааркап
маарката
маары
маарыи
маарыкчаан
маарыннаабат
маарыннаспаттар
маарыннатан
маарыннаһар
маарынныыр
маарынныыра
маарынныырын
маарыҥныыр
маас
мааска
маасса
маассабаи
маассата
маастар
маастара
маастараүөһээ
маастарга
маастардар
маастардара
маастарыгар
маастарын
маастарынан
маастарыстыбатын
мавзолеи
маврикии
магадаан
магадан
магеллаан
магеллан
магистр
магистраль
магнии
магнит
магнитнаи
магнитудалаах
мадагаскар
мадонна
мадрид
мадхья
мадьаар
мае
мажит
мазинскии
маи
мак
макаар
макао
макар
макаров
макарова
макаровна
макбет
македония
македуонускаи
макинтош
макроэкономика
макс
максвелл
максим
максимов
максимова
максимович
макскии
мал
мала
малааһын
малаи
малая
малга
малгин
малдьаҕар
маллаах
маллар
маллара
маллары
малларын
малов
малочисленных
малтан
малы
малыи
малын
малынан
малых
мальта
мальчик
малҕан
мама
мамаи
мамиашвили
мамоннар
мамонт
мамут
ман
мана
манаас
манаах
манааҕа
манан
манар
манас
манастыыр
манастыыра
манастыырга
манастыырын
манга
мандааттаах
мандар
мандарин
мандела
мандьуу
мани
манифест
манна
маннааҕы
маннаи
манныгы
маннык
манныкка
манныктар
манныктары
манньа
манньалаан
манньаны
манньыат
манньыата
манньыаттаах
манньыаттар
манньыаттара
манньыаттарын
манньыаты
манньыатын
манньыи
мансии
мантан
манхэттен
манчаары
манчаарыга
манчаарыны
манчестер
манчжурияҕа
маны
маныаха
маныга
маныы
маныыр
маныыһыт
маньчжур
маньчжурдар
маньчжурия
маньчжурияҕа
маньяк
маньяктар
мао
маори
маппыи
мар
мара
марафон
марафона
марафоҥҥа
марганец
маргарет
маргарита
мардьани
мари
марианна
марии
марина
марино
маринуи
мариуполь
мария
марк
марка
маркетинг
марков
маркова
маркович
маркс
марксизм
марксист
марокко
марс
марсден
марска
март
марта
мартин
марфа
марха
мархаҕа
марш
маршал
маршала
маршалл
маршрут
маршрута
маршрутунан
марыына
мас
маска
маслоцех
масс
массачусетс
массыына
массыыналар
массыыналара
массыыналарга
массыыналары
массыыналарын
массыыналарынан
массыынанан
массыынаны
массыыната
массыынатын
массыынатынан
массыынаҕа
мастаах
мастан
мастар
мастара
мастарга
мастардаах
мастары
мастарын
мастарыскыаи
мастер
мастера
мастерскои
мастыи
масштаб
мат
матаи
матан
матарыи
матвеев
матвеева
матвеевич
матвеи
математига
математик
математика
математиканы
математикаҕа
математиктар
математическаи
матери
материал
материала
материалам
материале
материализм
материалистар
материалов
материалы
материальнаи
материк
материя
матка
матрена
матриц
матрица
матрицалар
матрицаны
матрицы
матта
матч
матырыи
матыыба
матыыбын
матыып
мать
мах
махаров
махатма
махмуд
махно
махтаи
махтал
махтала
махталбытын
махталлаах
махталларын
махталын
махтана
махтанабын
махтанан
махтар
махтара
махтарга
махтары
махтарыгар
махтарын
махтарынан
махтарыттан
махтыы
махтыылар
махха
машиностроение
мая
маяк
маяковскаи
маҕа
маҕан
маҕар
маҕаһыын
маҕаһыына
маҕаһыыннар
маҕаһыыннарга
маҕаһыыҥҥа
маҕы
маҕын
маңнаи
маҥаас
маҥан
маҥаны
маҥнаи
маҥхаи
маҥырыыр
маһа
маһары
маһмуд
маһы
маһыгар
маһын
маһынан
мб
мбоу
мвд
мвт
мг
мгу
ме
мегафон
мегежекскэи
мегино
мед
медалларынан
медаль
медалью
медалями
медведев
медиа
медик
медико
медицина
медицинаҕа
медицинскаи
медицинскэи
медицинэ
медия
между
междунар
международнаи
международная
международного
международное
международнои
международныи
международных
меи
мекка
мексика
мексикаҕа
мексико
мел
мелеузовскии
мелик
мелодист
мелодистар
мелодия
мелодията
мелодиһа
мельбурн
мельников
мемориал
мемориальнаи
мен
менделеев
мендель
менеджер
менеджмент
менее
меньше
меня
мер
мера
мерал
мере
меридиан
меридиана
меркиттар
меркурии
месопотамия
месси
мест
места
месте
местников
местникова
местного
место
месяц
месяца
месяцев
мета
метаболизм
метал
металл
металлар
металлургия
метастаз
метафизика
метафора
метеорит
метеорология
метод
методика
методист
методистар
методическаи
методиһа
методы
метр
метро
метрополитен
метрота
механизированнаи
механизм
механизма
механик
механика
механическаи
мехико
мехмед
мехмет
меценат
меццо
мечетлинскии
мечеть
мечников
ми
мигалкин
миграция
миддендорф
мии
миигин
миигиттэн
миин
миинин
миинэ
миинэлэри
миинэн
миинэр
мииринэи
миирнэи
миитин
миитэрэи
микеланджело
микро
микроб
микробиолога
микрораи
микроскоп
микроскоптар
микроспория
милан
милиисии
милииссии
милиционер
милиция
милл
миллер
миллиард
миллиардер
миллион
милтон
мин
минарет
минерал
минераллар
минералогия
минеральнаи
мини
миниистир
миниистирдэр
миниистирдэрин
миниистирин
миниистиринэн
миниистирэ
минимум
министерство
министерствота
министерствотыгар
министерствотын
министиэристибэтигэр
министиэристибэтин
министиэристибэтэ
министр
министра
минньигэс
минньигэстик
минньигэһи
минскэи
минус
минусинскаи
минут
миньяр
минээн
мир
мира
мире
мирнинскии
мирнэи
мировои
миронов
мисима
мисс
митохондрия
митрополит
митрофан
митрофанович
миф
мифология
мифтахутдинович
мифы
михаи
михаил
михалева
мицуи
мичиган
мичии
мичик
мичил
мичилии
мичээр
мичээрэ
миша
мишель
мишкинскии
миэбэл
миэксикэ
миэксикэҕэ
миэлиҥсэ
миэнэ
миэрэлэр
миэрэлэри
миэстэ
миэстэлэргэ
миэстэлэри
миэстэлэрин
миэстэлэрэ
миэстэлээх
миэстэлээҕэ
миэстэни
миэстэтигэр
миэстэтин
миэстэтэ
миэстэҕэ
миэтирэ
миэтирэҕэ
миэтэрэ
миэтэрэлээх
миэтэрэҕэ
миэхэ
миэхэҕэ
миякинскии
мл
младшаи
младшии
млекопитающих
млн
млрд
мм
мне
мнение
мнению
многие
многих
много
множеств
множество
мнои
мнр
мо
мобил
мобильнаи
мог
могли
могу
могут
мода
модела
моделлар
моделын
модель
модули
модуль
модуля
модун
модут
модьу
модьуи
модьуун
мое
моеи
может
можете
можно
мозаика
мозамбик
мои
моисеи
мок
мокша
мол
молдавия
молдова
молекулярнаи
моллюска
молодая
молоде
молодежи
молодежь
молодои
молодых
молот
молотов
мольер
момент
момента
мон
монархия
монастырев
монг
монгол
монголии
монголия
монголияны
монголияҕа
монголлар
монголларга
монголлары
монголлуу
монгольских
монгуол
монгуоллар
монд
монета
монеты
мониторинг
монович
монография
монреаль
монро
монте
монтессори
моои
моонньо
моонньоох
моонньоҕон
моонньугар
моонньун
моорук
моравия
мораль
моратории
мординов
мордовия
мордьотуҥулар
море
моркуоп
мороду
мороженаи
морозов
морскои
морфологическаи
морфология
морфологията
моря
моряк
москва
москваны
москватааҕы
москваттан
москваҕа
москве
москвич
москвы
московскаи
московская
московскии
москуба
москубаны
москубатааҕы
москубаттан
москубаҕа
мосфильм
мотоцикл
мотуо
мотуок
мотуордаах
мотуруона
мотуруос
мотурууна
мохов
мохсоҕол
мохсоҕоллуҥулар
мохсуо
моцарт
моя
моҕои
моҕол
моҕоллор
моҕотои
моҕуол
моҕуоллар
моһуоннаах
мр
мрамор
мрт
мс
мт
мтс
му
мугудаи
муз
муза
музеи
музея
музыка
музыкальнаи
музыканнар
музыкант
музыканы
музыката
музыкатыгар
музыкатын
музыкаҕа
музыки
муи
мук
мукден
мукучу
мультига
мультик
мультфильм
мумбаи
муна
мунан
мунду
мундута
муниц
муниципалитет
муниципальнаи
муниципального
мунна
муннуга
муннугар
муннугуттан
муннук
муннукка
муннуктаах
муннуктар
муннуктардаах
муннуктарыгар
муннуктарыттан
муннун
муннунан
мунньа
мунньан
мунньар
мунньах
мунньахтаан
мунньахтара
мунньахтарыгар
мунньахтарын
мунньахха
мунньаҕа
мунньаҕар
мунньаҕы
мунньаҕын
мунньаҕынан
мунньубут
мунньулла
мунньуллан
мунньуллар
мунньуллубут
мунньуллуута
мунньуллуутун
мунньулуннаҕына
мунньуммут
мунньуна
мунньунан
мунньунар
мунньунуу
мунньустан
мунньустар
мунньустубут
мунньустуута
мунньуу
мунхалов
муода
муодарҕаан
муома
муора
муоранан
муораны
муората
муораттан
муоратыгар
муоратын
муораҕа
муос
муоста
муостаах
муостаны
муостата
муостаҕа
муосчут
муосчута
муосчуттар
муох
муоһа
муоһун
муоһунан
муоһуттан
муравье
мурад
мурат
муратов
мурманскаи
муртаза
мурун
муруннаах
муса
мусават
мускуи
мусоргскаи
муспут
мусталлар
мустан
мустаннар
мустар
мустафа
мустубут
мустубуттар
мустуу
мустуулара
мусукаан
мусулмаан
мусульмааннар
мусульман
мусульманнар
мусульманскаи
мутугун
мутук
мутуктаах
мутукча
мутукчалаах
муу
муудараи
муунта
муунтата
муус
мууска
муустаах
муустар
муусука
муусукатын
мууһа
мууһу
мууһугар
мууһунан
мууһуруу
мухаммад
мухаммед
мухтар
мухтуи
муҥ
муҥкук
муҥнаан
муҥнаах
муҥу
муҥун
муҥунан
муҥур
муҥура
муҥурдаммат
муҥутаан
муҥутуур
муҥутуурдук
муҥха
муһаммад
мы
мылаһан
мымах
мындааларыгар
мындаатыгар
мындаҕааи
мындыр
мыр
мыраан
мыреева
мыс
мысли
мысль
мытаах
мыттылла
мытыи
мыыла
мыыр
мыыт
мьянма
мэ
мэгэдьэк
мэдиссиинэ
мэдиссиинэҕэ
мэи
мэктиэлиир
мэктиэлэнэр
мэктиэтигэр
мэкчиргэ
мэкчиргэлэр
мэлдьи
мэлдьитин
мэлдьэхси
мэлии
мэн
мэндиэмэннээх
мэндээриччи
мэник
мэниктиир
мэниктээмэ
мэнэ
мэнэгэи
мэнээгэ
мэнээк
мэри
мэтириэт
мэтириэтин
мэтириэтэ
мэтээл
мэтээли
мэтээлин
мэтээлинэн
мэтээллэр
мэтээллэрдээх
мэтээллэрин
мэтээллэринэн
мэтээллэрэ
мэтээллээх
мэтээлэ
мэхээлэ
мэхээс
мэчиэккэ
мэчиэт
мэчиэтин
мэчиэтэ
мэччии
мэччирэҥ
мээлэ
мээндиги
мээнэ
мээнэҕэ
мээр
мээрэи
мээчиги
мээчигинэн
мээчик
мэҥ
мэҥии
мэҥэ
мэҥэдьэк
мэҥэлэр
мэҥэтин
мэҥэтэ
мэһэи
мюнстер
мюнхен
мюнхеҥҥа
мягков
мята
мүлдьү
мүн
мүнүүтэ
мүнүүтэлээх
мүнүүтэнэн
мүнүүтэҕэ
мүрү
мүччү
мүччүргэннээх
мүһэнэн
мүөт
мүөттээх
мөккүөр
мөккүөрдээх
мөккүөрэ
мөккүөрү
мөкү
мөкөөн
мөкөөҥҥө
мөл
мөллүи
мөлтүүр
мөлтүүрүгэр
мөлтүүрүн
мөлтүөҕэ
мөлтөтүү
мөлтөтөн
мөлтөтөр
мөлтөтөрүн
мөлтөх
мөлтөхтүк
мөлтөхтөр
мөлтөҕү
мөлтөҕүн
мөлтөҕүттэн
мөлтөҕө
мөлтөөбүт
мөлтөөбүтэ
мөлтөөбүтүн
мөлтөөбөккө
мөлтөөн
мөлтөөтө
мөлтөөтөҕүнэ
мөлтөөһүн
мөлтөөһүнэ
мөлтөөһүнү
мөлтөөһүнүгэр
мөлтөөһүнүн
мөлтөөһүнүттэн
мөлтөөһүҥҥэ
мөлүи
мөлүөкүлэ
мөссүөнэ
мөхсүбэккэ
мөхсөн
мөхсөр
мөҕөн
мөҥүрүөн
мөҥүөннээх
мөһөөччүк
н
на
наада
наадалаах
наадалааҕы
наадалааҕын
наадалар
наадата
наадатыгар
наадатын
наадаҕа
наадыи
наар
наара
наарва
наардаан
наардааһын
наардыыр
наассыи
наата
наах
наахара
наблюдения
навигация
навои
нагасаки
нагорнаи
награды
награжде
награжден
награждении
награжденных
над
надежда
надеюсь
надо
надписи
надпись
нажать
нажмите
назад
назаров
назарович
назв
название
названием
названии
названию
названия
названиями
назначить
называется
наи
наиболее
накаастаан
накаастабыл
накаастабылы
накааһа
накааһын
накыын
накыыҥҥа
наличие
наличии
наличия
наложения
налыи
нам
нами
намибия
намнааҕы
намскии
намтаан
намтал
намтала
намталыгар
намталынан
намтан
намтатан
намтатар
намтыыр
намчы
намы
намылыи
намыын
намыһах
намыһаҕын
намҥа
нан
нанкин
нансен
наоборот
написание
написания
написано
написать
напишите
наполеон
направления
например
напрямую
нар
нара
наркома
наркоман
наркоманнар
наркоматын
наркомун
наркомунан
наркотигы
наркотигынан
наркотик
наркотикка
наркотиктан
наркотиктар
наркотиктары
народ
народа
народах
народе
народнаи
народная
народник
народного
народное
народнои
народностеи
народные
народныи
народных
народов
народу
народы
нарушение
нарушении
нарушения
нары
нарын
нас
наса
населе
население
населения
насколько
наслег
наслега
наслеге
наследие
наследия
настаа
настааччыи
наставник
настои
настоящее
настоящем
настоящих
настрои
наталия
наталья
нато
натрии
натуральнаи
натуральных
наук
наука
наукалар
наукаларга
наукаларын
науканан
науканы
науката
наукатын
наукаҕа
науки
наумов
науру
науукатын
науч
научнаи
научно
научного
научное
научнои
научные
научныи
научных
находится
находятся
нац
нацизм
нации
национал
национализм
националистическаи
национальнаи
национальная
национально
национального
национальное
национальнои
национальные
национальныи
национальных
нацистар
нацистыы
нация
нациялар
нач
начаалынаи
начаалынньыга
начаалынньыгын
начаалынньыгынан
начала
начале
начало
начальнаи
начальнига
начальнигын
начальнигынан
начальник
начальное
начальных
начато
начать
начиная
наш
наша
наше
нашего
нашеи
наши
наших
ная
наҕараада
наҕараадалаах
наҕараадаламмыт
наҕараадаламмыта
наҕараадаламмыттар
наҕараадаланар
наҕараадалар
наҕараадалара
наҕараадалыыр
наҕарааданы
наҕараадата
наҕараадатын
наҕараадаҕа
наҕыл
наһаа
нвк
нг
нд
не
неба
неби
небо
невада
невозможно
неврологическаи
невскэи
него
недавно
недели
неделя
недерланд
недостатки
недостаточно
нее
независимо
независимости
независимых
незаметнаи
неи
некоторые
некоторых
некрасов
нельбисова
нельзя
нельсон
нем
немедленно
немец
немецкии
немецких
немецкэи
немецтэр
немного
нему
ненец
необходимо
необходимости
необходимость
необходимые
необязательныи
неоклассик
неолит
неорганическаи
непал
непосредственно
неправота
нептун
нер
нера
нервнаи
нервнэи
нерчинскэи
нерюнгри
несахарнаи
несвободное
нескольких
несколько
несмотря
нестерова
нестерович
нестор
нет
неустроев
неустроева
неустроевы
нефтебаза
нефть
ни
нибудь
нигер
нигерия
нигэр
нидерланд
нидерланды
нидерландыга
ние
ниже
нижегородскаи
нижнего
нижнеи
нижние
нижнии
нижнэи
нижняя
низами
нии
ник
ника
никаких
никарагуа
никель
никита
никитин
никитина
никитич
никитична
никифор
никифоров
никифорова
никифорович
никифоровна
никифоровы
ников
никогда
никола
николаев
николаева
николаевич
николаевичка
николаевка
николаевна
николаевскаи
николаевы
николаи
николая
никольскаи
никон
никонович
никотин
никто
никулин
нил
нильс
ним
ними
нин
нина
ниуэ
них
ницше
ничего
ниэби
ниэм
ниэмэс
ниэмэстии
ниэмэстэр
ниэп
ниэрбэ
нка
нквд
нкик
нких
нкс
нн
нная
нного
нное
ннои
нном
нные
нныи
нным
нных
но
нобелевскаи
нобелевскои
нобель
нов
нова
новая
новгород
новгородов
новгородова
новгородовы
новиков
нович
нового
новое
новои
новом
новороссии
новосибирск
новосибирскаи
новосибирскэи
новости
новую
новые
новыи
новым
новых
ногаи
ного
ноговицын
ное
ноев
нои
нок
нокдаун
нолуогу
нолуогун
нолуок
нолуоктар
нолуоктары
номер
номера
номиналлаах
номинации
номинация
номинацияҕа
номнуо
номох
номохтор
номохторго
номохторо
номохторун
номохторунан
номоххо
номоҕо
номоҕор
номоҕун
ноор
ноорои
норвегия
норвегияҕа
нормальнаи
нормального
норуодунаи
норуокка
норуоппут
норуот
норуота
норуоттар
норуоттара
норуоттарга
норуоттары
норуоттарыгар
норуоттарын
норуоту
норуотугар
норуотун
носов
носящих
ноуука
нохоо
нохсоров
ночлежка
ночоокко
ночоот
ночооттор
ночь
нояб
ноябрь
ноября
ноҕаи
нп
нс
нт
нтв
ну
нужен
нужна
нужно
нужны
нулевои
нумизмата
нун
нуолур
нуорма
нуормаларыгар
нуорманы
нуормата
нуорматтан
нуорматын
нуормаҕа
нуотара
нуоҕаи
нур
нуримановскии
нурхачи
нус
нуу
нууч
нуучч
нуучча
нууччалар
нууччаларга
нууччалардыын
нууччалартан
нууччалары
нууччалыы
нууччалыыта
нууччалыыттан
нууччаттан
нууччатымсыи
нууччаҕа
нучч
нучча
ную
нчи
нштеи
ны
ныгар
ные
ныи
нык
нын
ныне
ных
нь
ньаамырҕаан
ньалака
ньамыаскалаах
ньара
ньии
ньим
ньиргии
ньиргиэрдээх
ньирэи
ньиэмэс
ньиэмэстэр
ньиэмэстэри
ньиэмэстэртэн
ньиэп
ньиэптээх
ньиэрбэ
ньиэрпэлэр
ньолбо
ньолбоҕор
ньолбуһах
ньоҕои
ньукулаи
ньукуола
ньулуун
ньуоска
ньуосканан
ньуосканы
ньурба
ньурбатааҕы
ньурбаттан
ньурбачаан
ньурбаҕа
ньургу
ньургуи
ньургун
ньургуһун
ньургуһуннар
ньуур
ньуура
ньуурдаах
ньууругар
ньуурун
ньуучча
ньуч
ньыгыл
ньылхан
ньылхаҥҥа
ньыма
ньымалар
ньымалара
ньымалары
ньымаларыгар
ньымаларын
ньымаларынан
ньыманан
ньыманы
ньымата
ньыматын
ньыматынан
ньыыкан
ньээм
нью
ньютон
ньүүи
ньөрүктээи
нэ
нэдиэлэ
нэдиэлэнэн
нэдиэлэҕэ
нэи
нэлэмэн
нэм
нэми
нэмин
нэн
нэр
нэс
нэһ
нэһиилэ
нэһилиэги
нэһилиэгин
нэһилиэгиттэн
нэһилиэгэ
нэһилиэгэр
нэһилиэк
нэһилиэккэ
нэһилиэктэн
нэһилиэктэр
нэһилиэктэргэ
нэһилиэктэри
нэһилиэктэригэр
нэһилиэктэрин
нэһилиэктэринэн
нэһилиэктэрэ
нэһилиэнньэ
нэһилиэнньэлээх
нэһилиэнньэни
нэһилиэнньэтин
нэһилиэнньэттэн
нэһилиэнньэтэ
нэһилиэнньэҕэ
нэһилиэстибэтин
нэһилиэстибэтэ
нюрбинскии
нюргун
нюрнберг
нҥа
нүөмэр
нүөмэрдээх
нүөмэригэр
нүөмэрин
нүөмэрэ
нүөрүҥгүрү
нүөрүҥгүрүтээҕи
нөмүгү
нөргүи
нөрүөн
нөҥүө
нөҥүөлээн
нөөрүктээи
о
оао
об
оба
обама
обелиск
обеспечение
обеспечению
обзор
обком
обкома
обкомугар
обкомун
обкомын
обкуом
обкуомун
обл
области
областного
областнои
область
обо
обозначает
обозначение
обозначения
обозрение
обоих
оборон
оборона
оборонатын
оборону
оборор
обот
обработки
образ
образка
образование
образовании
образования
образом
образтаан
образтааһын
образтааһыҥҥа
образтанар
образтар
образтара
образцы
обратите
обратиться
обратно
обращение
обращения
обраһа
обраһын
обрезки
обручев
обсерватория
обсерваториятын
обсудить
обсуждать
обсуждение
обсуждении
обсуждения
обсуждениях
обуода
обуодалара
обуоданан
обуодата
обуодатынан
обуои
обургу
обучение
обучения
обход
общ
общая
общего
общее
общеи
общем
общества
общественнаи
общественно
общественнои
общественныи
общество
обществотын
обществоҕа
общие
общии
общим
община
общины
объект
объекта
объектар
объектарын
объектов
объявление
объявления
обычаи
обычно
обычного
обычные
обь
обязан
обязанности
обязательно
обязательныи
ов
овчинников
овчинникова
ога
огаи
огдолуи
огдообо
огдооччуи
огирко
огнем
огнестрельного
огня
огонь
огочонова
огпу
огрызко
огуз
одежда
одер
одесса
один
одна
однако
одним
одно
одновременно
одного
однои
одном
одну
одорусов
одулок
одун
одуулаан
одуулуу
одуулуур
одьоо
одьулуун
озера
озеро
ознаменование
означает
озон
озоноваи
ои
ок
ока
оказаться
окаи
окато
океан
океана
океания
океаҥҥа
окко
оккупация
оккупациялаабыт
оккупациялыыр
окладников
окоемов
около
оконешников
оконешникова
окончания
окончил
окончила
окороков
окорокова
округ
округа
окружности
оксана
оксфорд
окт
октавиан
октябрь
октябрьскаи
октября
ол
ола
олбохтоох
олбоххо
олбуор
олгуи
олег
олеи
олимп
олимпиада
олимпиадатыгар
олимпиадаҕа
олимпии
олимпия
оллонов
оллор
оло
олом
олонхо
олоох
олоппос
олоппоско
олоппоһу
олор
олорбокко
олорбот
олорбуппут
олорбут
олорбута
олорбуттар
олорбуттара
олорбуттарын
олорбутун
олорго
олордо
олордон
олордор
олордохпутуна
олордохторуна
олордоххо
олордоххуна
олордоҕуна
олордубут
олордубуттар
олордулар
олордуллубут
олордум
олордуу
олоро
олоробун
олоробут
олороллор
олороллоро
олороллоругар
олороллорун
олороллоруттан
олороммут
олорон
олороннор
олорооччулар
олорор
олорорбут
олорорго
олороро
олорору
олороругар
олорорун
олороруҥ
олороҕун
олорсон
олортон
олору
олорун
олорунан
олоруом
олоруон
олоруохтарын
олоруоххут
олоруоҥ
олоруу
олорууга
олоруулара
олорууларыгар
олорууларын
олорууну
олоруута
олоруҥ
олох
олохпор
олохпун
олохпут
олохпутугар
олохпутун
олохсуи
олохсутан
олохсутар
олохтоммут
олохтоммута
олохтоммуттар
олохтоммутун
олохтон
олохтонон
олохтонор
олохтонуута
олохтоо
олохтообут
олохтообута
олохтообуттар
олохтообуттара
олохтоон
олохтоох
олохтоохтор
олохтоохторго
олохтоохторо
олохтоохтортон
олохтоохтору
олохтоохторугар
олохтоохторун
олохтоохторуттан
олохтоохтук
олохтооччу
олохтооччулартан
олохтооччута
олохтооҕо
олохтооҕоофициальныи
олохтооҕун
олохтооҕуттан
олохтооһун
олохтооһуҥҥа
олохторо
олохторугар
олохторун
олохторунан
олохторуттан
олохтуу
олохтууллар
олохтуур
олохтуурга
олоххо
олоххор
олоххун
олоччу
олоҕо
олоҕор
олоҕу
олоҕум
олоҕун
олоҕунан
олоҕураллар
олоҕуран
олоҕурар
олоҕурбут
олоҕурбута
олоҕуттан
олоҕуҥ
олоҥхо
олоҥхолоон
олоҥхолор
олоҥхолорго
олоҥхолоро
олоҥхолору
олоҥхолоругар
олоҥхолорун
олоҥхолуур
олоҥхону
олоҥхото
олоҥхоттон
олоҥхотугар
олоҥхотун
олоҥхоҕо
олоҥхоһут
олоҥхоһуттар
олоҥхоһуттара
олуга
олуи
олук
олуктара
олунньу
олунньуга
олунньутааҕы
олунньутугар
олунньутуттан
олус
олустук
олуһун
ольга
ольхон
ом
оман
омар
омеи
оммут
омоллоон
омолои
омонимнар
омоон
омос
омоҕои
омск
омскаи
омсолоох
омуга
омугар
омугу
омугумсуи
омугун
омугунан
омугуттан
омук
омукка
омукпут
омукпутун
омуктан
омуктар
омуктара
омуктарга
омуктардааҕар
омуктардыын
омуктартан
омуктары
омуктарыгар
омуктарын
омуктарынан
омуктарыттан
омуктуу
омуктуун
омукчаан
омуннаах
омунугар
омуоруи
он
она
онах
ондар
оне
онегин
они
онкология
онлаи
онно
онноо
онноон
онноотоххо
оннооҕор
оннооһун
оннооһуннара
онноро
оннугар
оннук
оннукка
оннуларыгар
оннуларын
оннун
оннунан
оннуттан
оннуур
оно
онов
ономастика
онон
оноо
оноолоох
онороллор
онорон
онорор
оноҕос
оноҕосчут
онтарио
онто
онтон
онтубут
онтукаи
онтукам
онтуката
онтукатын
онтулара
онтуларын
онтун
онтуон
ону
онуга
онун
онунан
онуоха
онуохаҕа
онус
ончу
оо
оол
оон
ооннор
оонноро
ооннорун
оонньоммут
оонньонор
оонньообут
оонньообута
оонньоон
оонньоотоҕуна
оонньооччу
оонньооччулар
оонньооһун
оонньото
оонньотон
оонньуу
оонньууга
оонньуулаах
оонньуулар
оонньуулара
оонньууларга
оонньуулары
оонньууларыгар
оонньууларын
оонньууллар
оонньууллара
оонньууну
оонньуур
оонньуура
оонньуурга
оонньуурдары
оонньуурдарынан
оонньууру
оонньуурун
оонньуурунан
оонньууруттан
оонньуута
оонньуутугар
оонньуутун
ооно
оонун
ооо
ооҕуи
оп
опера
операта
оператор
оператора
оператын
операции
операционнаи
операция
операциялыыр
операцияны
опернаи
описание
описания
описываемого
опиум
ополовников
оппозиция
оппонент
оппонента
оппонентом
оппоненту
определе
определение
определения
определитель
определяет
опрос
оптика
оптическаи
оптуобус
опущен
опыт
опыта
опыттаах
опять
ор
оранж
оранжеваи
оратория
орбитатыгар
орбитаҕа
орган
органа
организации
организация
организм
организма
организмнар
организмы
организмыгар
организмын
организмҥа
органическаи
органнар
органнара
органнарга
органнары
органнарыгар
органнарын
органов
органы
оргуи
оргутан
оргутуллубут
оргууи
орда
орден
ордена
орденнаах
орденом
орденын
орденынан
орджоникидзе
орджоникидзевскаи
ордон
ордор
ордороллор
ордорон
ордорор
ордубат
ордубут
ордубута
ордуга
ордугу
ордугун
ордугунан
ордук
ордуктарын
ордуктук
ордуу
ордууга
ордууну
ордуута
ордууттан
ордуутун
орды
оре
орегон
орел
оренбург
оригинал
оригинала
ориенталистар
орион
орк
орка
оркестр
оркестра
оркестроваи
оркестрыгар
оркка
орлов
орловка
оро
оробуочаи
орои
орон
оронон
оронтон
оронугар
оронун
ороон
оросин
ороскуота
ороскуоту
ороскуотун
ороспуои
ороссолуода
ороҥҥо
ороһооспо
ороһу
ороһуоспа
ороһуунускаи
орто
ортоку
ортолоругар
ортолорунан
ортолоруттан
ортото
ортотугар
ортотун
ортотунааҕы
ортотунан
ортотуттан
оружие
оружия
оруи
оруннаах
оруо
оруобуна
оруол
оруола
оруолга
оруоллаах
оруоллаахтар
оруоллааҕа
оруоллара
оруолларга
оруоллары
оруолларын
оруолу
оруолугар
оруолун
оруос
оруоһуттар
орфографии
орхон
ос
осада
осака
освоения
осетин
осетия
осип
осипов
осипович
оскар
оскорбление
оскорбления
оскуола
оскуолабыт
оскуолалар
оскуолалара
оскуолаларга
оскуолалары
оскуолаларыгар
оскуолаларын
оскуоланы
оскуолата
оскуолаттан
оскуолатыгар
оскуолатын
оскуолаҕа
осло
осмаан
осмааннар
осман
основании
основания
основе
основная
основного
основное
основнои
основном
основные
основным
основы
особенно
особенности
ост
оставить
остается
осталось
остальные
остальных
остолобуои
остоох
остров
острова
островскаи
остулубуои
остуол
остуола
остуолба
остуолга
остуолу
остуоруи
остуруогар
остуруогу
остуруогун
остуруок
остуруокка
ось
от
отв
отвагу
ответ
ответа
ответить
ответственность
ответственныи
ответы
отвечают
отд
отдел
отдела
отделение
отделениета
отделениетыгар
отделениетын
отделения
отделениятын
отделыгар
отделын
отдельно
отдельного
отдельные
отдельных
отец
отечественнои
отечеством
отзывов
отзывы
отказа
открыт
открытие
открытии
открытия
откуда
отличается
отличие
отличник
отметку
относительно
относится
относятся
отношение
отношении
отношения
ото
отображается
отображать
отображаться
отображение
отображения
отои
отон
отонноох
отоно
отону
отонун
отох
отрезка
отрицательными
отряд
отсутствие
отсутствии
отсутствует
отсутствуют
отто
оттомо
оттон
оттонор
оттоон
оттоох
оттор
отторго
отторо
оттортон
оттору
отторун
оттотугар
оттук
оттуктар
оттунан
оттуу
оттуур
оту
отугар
отун
отунан
отут
отуттан
отутугар
отутус
отуу
отучча
отче
отчет
отчуоттуур
отчут
оукен
оуэн
офис
офицер
официал
официаллык
официальнаи
официально
официальныи
офиһа
оформление
оформления
офсет
ох
охлопков
охлопкова
охонооһои
охотскаи
охраны
охсо
охсоллор
охсоллоро
охсон
охсоннор
охсоору
охсоорулар
охсор
охсорго
охсоро
охсорун
охсу
охсубат
охсубут
охсубута
охсубутун
охсуллан
охсуллар
охсуллубут
охсуолаабат
охсуолаан
охсуолуур
охсуон
охсуохха
охсуспут
охсуспута
охсуу
охсууга
охсуулаах
охсуулара
охсууларынан
охсуунан
охсууну
охсуута
охсуутугар
охсуһа
охсуһаллар
охсуһаллара
охсуһан
охсуһар
охсуһарга
охсуһуннара
охсуһуу
охсуһууга
охсуһуулаах
охсуһуулар
охсуһуулара
охсуһууларын
охсуһууну
охсуһуута
охсуһуутун
охто
охтон
охтоох
охтор
охторо
охторон
охторор
охтубат
охтубут
охтубута
охтуу
охуоскаи
охчут
очевидно
очень
очередь
очерк
очеркалар
очеркалара
очерки
очеркист
очкам
очко
очуос
оччо
оччолорго
оччонон
оччотоо
оччотооҕу
оччотооҕуга
оччоттон
оччотугар
оччоҕо
оччоҕуна
оччугуи
ош
ошибка
ошибками
ошибки
ошибок
ошкар
оҕо
оҕобун
оҕобут
оҕобутун
оҕоло
оҕоломмот
оҕоломмут
оҕоломмута
оҕоломмуттар
оҕоломмуттара
оҕолоннохторуна
оҕолонноҕуна
оҕолоноллор
оҕолоноллоро
оҕолонон
оҕолонор
оҕолоор
оҕолоох
оҕолоохтор
оҕолоохторо
оҕолооҕо
оҕолор
оҕолорбут
оҕолорбутугар
оҕолорбутун
оҕолорго
оҕолордоох
оҕолоро
оҕолортон
оҕолору
оҕолоругар
оҕолорум
оҕолорун
оҕолорунан
оҕолоруттан
оҕолуу
оҕолуун
оҕом
оҕонньоор
оҕонньор
оҕонньорго
оҕонньордоох
оҕонньоро
оҕонньортон
оҕонньору
оҕонньоттор
оҕонон
оҕону
оҕоньньор
оҕоньор
оҕос
оҕото
оҕоттон
оҕотугар
оҕотун
оҕотунан
оҕотуттан
оҕоҕо
оҕоҕут
оҕоҥ
оҕоһо
оҕоһугар
оҕоһун
оҕоһунан
оҕу
оҕун
оҕунан
оҕуруо
оҕуруокка
оҕуруонан
оҕуруот
оҕус
оҕуста
оҕустаах
оҕустар
оҕустаран
оҕустараннар
оҕустарыы
оҕуттан
оҕуһа
оҕуһу
оҕуһун
оҕуһунан
оҕыр
оҕырдар
оңорор
оҥ
оҥкула
оҥкулун
оҥо
оҥоои
оҥор
оҥорбокко
оҥорбот
оҥорбото
оҥорботох
оҥорботоҕун
оҥорботоҕуна
оҥорботтор
оҥорботторо
оҥорботторун
оҥорботугар
оҥорботун
оҥорбуппут
оҥорбут
оҥорбута
оҥорбуттар
оҥорбуттара
оҥорбуттарын
оҥорбуттарыттан
оҥорбуту
оҥорбутугар
оҥорбутун
оҥорбутунан
оҥорбутуттан
оҥордо
оҥордохторуна
оҥордоххо
оҥордоҕуна
оҥордубут
оҥордулар
оҥордум
оҥоро
оҥоробун
оҥоробут
оҥороллор
оҥороллоро
оҥороллоругар
оҥороллорун
оҥороллоруттан
оҥорон
оҥороннор
оҥороору
оҥорооччу
оҥорооччулар
оҥорооччуларга
оҥорооччулары
оҥорооччута
оҥорор
оҥорорбут
оҥорорго
оҥорордооҕор
оҥороро
оҥорортон
оҥорору
оҥороругар
оҥорорун
оҥорорунааҕар
оҥорорунан
оҥороруттан
оҥортообут
оҥортообута
оҥортоон
оҥорторон
оҥорулла
оҥоруллан
оҥоруллар
оҥоруллара
оҥорулларын
оҥоруллубут
оҥорума
оҥорумаҥ
оҥоруо
оҥоруом
оҥоруон
оҥоруох
оҥоруохпут
оҥоруохтаах
оҥоруохтааҕын
оҥоруохтара
оҥоруохтарын
оҥоруохха
оҥоруу
оҥорууга
оҥоруулаах
оҥоруулар
оҥоруулара
оҥорууларын
оҥоруунан
оҥорууну
оҥоруута
оҥорууттан
оҥоруутугар
оҥоруутун
оҥоруутунан
оҥоруутуттан
оҥоруҥ
оҥосто
оҥостоллор
оҥостоллоро
оҥостоллоругар
оҥостон
оҥостоннор
оҥостоору
оҥостор
оҥосторго
оҥосторо
оҥосторугар
оҥостубут
оҥостубуттар
оҥостубуттара
оҥостунан
оҥостуу
оҥотторо
оҥотторон
оҥотторор
оҥотторуу
оҥочо
оҥоһук
оҥоһуктар
оҥоһуктара
оҥоһуктары
оҥоһуктарын
оҥоһулла
оҥоһуллаллар
оҥоһуллан
оҥоһуллар
оҥоһуллара
оҥоһуллубут
оҥоһуллубута
оҥоһуллубуттар
оҥоһуллубуттара
оҥоһуллубутун
оҥоһуллуон
оҥоһуллуохтаах
оҥоһулунна
оҥоһуу
оҥоһуулаах
оҥоһуута
оҥоһуутугар
оҥоһуутун
оҥоһуутунан
оҥхои
оҥҥо
оһол
оһолго
оһолтон
оһон
оһох
оһоххо
оһоҕос
оһоҕоско
оһоҕоһун
оһоҕу
оһоҕун
оһуобаи
оһуокаи
оһуор
оһуордаах
оһуохаи
п
па
пааматынньыга
пааматынньык
пааматынньыктар
пааматынньыктара
пааматынньыктарын
паапа
паапата
паар
паара
паараласпыт
пааранан
паарка
паарката
пааркатыгар
пааркаҕа
пааспар
павел
павла
павлин
павлов
павлова
павлович
павловна
павловскаи
павлуцкаи
падеж
паи
пак
пакистаан
пакистааҥҥа
пакистан
пакт
пал
палаататын
палата
палататын
палеозои
палеолит
палеонтолог
палеонтология
палестина
палестинаны
палестинаҕа
памир
памперс
памяти
памятник
памятники
памятных
память
пан
панаама
панама
пандемия
панораамата
панорама
пантелеи
папа
папата
папуа
парагваи
парадыгар
парадын
паразит
паралимпии
паралимпия
параллелепипед
параллели
параллелограмм
параметр
параметра
параметрами
параметрах
параметрдара
параметре
параметров
параметром
параметру
параметры
парахин
париж
парижка
парижтааҕы
парк
парламена
парламент
парламенын
парламеҥҥа
парников
парникова
паром
пароходствотын
партизан
партии
партия
партиялара
партияларын
партията
партиятын
партияҕа
партком
партне
парфеньевич
паскаль
паспорт
пассажир
пассажирдары
пассажирскаи
пассажиры
пастер
патеннаабыт
патент
патология
патриарх
патрик
патриот
патриотическаи
патрулирования
патрулированнои
патрулированным
патрулирующего
паулу
пауль
пахаи
пахомов
паша
пб
пе
певец
пегас
пегу
пед
педагог
педагога
педагогика
педагогикатын
педагогикаҕа
педагогическаи
педагогическая
педагогическои
педагогическэи
педагогтар
педиатрическаи
педиатрия
пединститукка
пединститут
пединституту
педро
педтехникуму
педтехникумҥа
педучилище
педучилищены
педучилищетын
педучилищеҕа
пеи
пекарня
пекарскаи
пекарскии
пекарского
пекин
пекиҥҥэ
пелагея
пеледуи
пен
пенза
пензатааҕы
пенициллин
пенни
пенсильвания
пенсионер
пенсия
пенсияҕа
пепеляев
пепеляевщина
пепеляевщинаҕа
пепеляевы
пер
первая
первичнаи
первого
первое
первои
первом
первомаи
первую
первые
первыи
первым
первых
перевести
перевод
перевода
переводе
переводится
переводом
переворот
перед
передае
переднеи
переи
переименование
переименования
переименовать
переменнои
перенаправление
перенаправлении
перенаправления
перенести
перенос
переписи
перепись
перераб
перестрои
переход
перечень
период
периода
периодическаи
периодка
периодтаах
пермнааҕы
пермскаи
пермь
перс
персия
персонаж
персоналии
персоналиях
персональнаи
персоны
перспективы
перстэр
перу
перуга
песен
песни
песня
песо
пестерев
пестряков
петер
петербург
петербурга
петербургтааҕы
петербургтан
петербурдааҕы
петербуурга
петербуурдааҕы
петр
петра
петров
петрова
петрович
петровка
петровна
петровскаи
петроград
петроградка
петроградтааҕы
петропавловскаи
петя
пехота
печати
печать
пи
пианист
пиаф
пии
пиибэ
пиибэни
пикселях
пилипиин
пилот
пилсудскаи
пинигин
пиньинь
пионер
пионердар
пионерскаи
пирамида
пиранделло
пиренеи
писателеи
писатели
писатель
писателя
писать
письма
письменности
письмо
питер
пифагор
пишет
пишется
пишите
пишпек
пишут
пиэнсии
пк
пкс
плазма
план
планета
планеталар
планетаны
планетаҕа
планциус
платон
платонов
платонова
платоновна
платформа
плацдарм
плеи
племен
племени
племеннои
племя
пленума
пленумугар
пленумун
плохо
площади
площадка
площадь
плюс
пляж
пневмония
по
победа
победитель
победу
победы
повар
поведение
поведения
повести
повесть
поводу
поволжье
повстанчество
повстанчествоҕа
поговорки
пограничник
под
подарок
подать
подбельскаи
подвиг
подвид
подводнаи
подготовки
поддерживает
поджелудочнаи
подкатегории
подлежат
подобных
подои
подписи
подписываи
подпись
подполковник
подразделении
подразделениях
подробнее
подробно
подростки
подряд
подстраницу
подстраницы
подход
поезд
пожалуи
позволяет
поздеева
позже
позиции
позкарта
познань
пои
поиск
поиска
пока
показана
показано
показать
показывает
показывается
поколения
покровка
покровскаи
пол
поле
полевои
полезно
полеи
полина
политбюротун
политехническаи
политехническэи
политига
политик
политика
политиканы
политиката
политикатыгар
политикатын
политикаҕа
политики
политиктар
политиктара
политическаи
политическая
политических
политическои
политическэи
политрук
политсыылынаи
полицеи
полиция
полициятын
полк
полка
полкатыгар
полкатын
полкаҕа
полковнига
полковник
полководец
полководеһа
полная
полного
полное
полнои
полномочии
полностью
полную
полныи
половине
половины
половои
положение
положения
полтава
получается
получение
получения
получил
получить
полушариеҕа
полушария
полуян
поль
пользователеи
пользователя
пользоваться
пользу
польскаи
польша
польшаны
польшаттан
польшаҕа
полюс
полюса
полюска
полюстар
полюстарга
поля
поляк
поляктар
поляна
поляр
полярнаи
полярная
пометка
пометки
пометку
помните
помочь
помощи
помощь
помощью
помпеи
понимаю
понятие
понятия
понятно
понять
поп
попечителеи
попов
попова
поповтар
попову
попробовать
популярнаи
пор
пора
порда
пордугар
пордун
порт
портаал
портал
портр
портрет
портреты
порту
португалия
португалияттан
португалияҕа
поручик
порфирьевич
порядин
порядке
порядок
посвященнои
посвященныи
поселение
посельская
поскачин
поскольку
послание
после
последнее
последние
последнии
пословицы
посмотреть
пособие
посполита
посредник
посредника
посредничества
посредничество
пост
поставить
поставлен
постановление
постары
постников
постоянно
построение
потанин
потапов
потапова
потенциал
потом
потомки
потому
потоси
потребительскаи
потребсоюз
поттер
поход
похуода
поче
почему
почета
почетного
почетные
почетныи
почта
почтаны
почтатын
почти
почту
почты
поэзии
поэзия
поэзията
поэзиятыгар
поэзиятын
поэзияҕа
поэма
поэмалар
поэмалара
поэмаларын
поэманы
поэмата
поэматын
поэмы
поэт
поэта
поэтесса
поэтическаи
поэтому
поэттар
поэттара
поэттарын
появится
появляется
пп
пр
прав
права
правах
правда
праве
правил
правила
правилам
правилами
правило
правильно
правильного
правительства
правительство
правительствота
правительствотын
править
правки
правление
правлениетын
правления
право
правовои
правок
правом
правому
правоприменения
православие
православнаи
прага
прагаҕа
прадеш
прадо
праздник
праздника
праздники
праздников
практ
практика
практикаҕа
практическаи
практическая
практически
практическои
прасковья
пред
предания
предварительного
предков
предлагаю
предложение
предложении
предложения
предложить
предмет
предмета
предметтэри
предназначен
предприниматель
предпринимательство
председатели
председателин
председателинэн
председатель
председателэ
председателя
представитель
представление
представления
представляет
предупреждение
предупреждения
прежде
президе
президена
президени
президенин
президент
президента
президенын
президенынан
президенэ
президиума
президиумун
президиумын
прекратить
премии
премия
премията
премиятын
премьер
премьерата
преображенскаи
преобразовании
преобразования
препараттар
преподавания
преподавателинэн
преподаватель
преподавателэ
пресмыкающиеся
пресс
префектура
префектуратын
префикс
при
прибаи
привести
привет
приглашаем
приднестровье
прие
приз
призе
призер
призера
признаки
приказ
прикладнои
приклонскаи
приложение
прим
применение
применения
применяется
применяться
пример
примере
примеры
примечание
примечания
приморскаи
приморье
принимает
принимать
принц
принцип
принципов
принципы
принял
принятия
принято
приняты
принять
природа
природы
присвоении
приход
прихода
приходскои
приходун
причин
причина
причине
причину
причины
про
пробалаах
пробел
пробелов
пробелы
проблем
проблема
проблемалара
проблемаларын
проблеманы
проблеме
проблему
проблемы
проваи
проверено
проверить
проверка
проверки
провинция
провинциялара
провинцията
провинциятыгар
провинциятын
провинцияҕа
проводится
программа
программалаа
программалар
программалара
программалары
программаларын
программанан
программаны
программата
программатыгар
программатын
программатынан
программаҕа
программирование
программист
программы
прогресс
прогрессивнаи
прогрессия
продолжить
продюсер
продюсера
проегын
проект
проекта
проектах
проекте
проектов
проектом
проекту
проекты
проекции
проекция
проза
прозаига
прозаик
прозатын
прозе
прои
произведение
произведении
произведения
производственнаи
производственная
производство
производствотын
производствоҕа
происходит
происхождение
происхождения
прокопии
прокопьев
прокопьева
прокопьевич
прокопьевна
прокуратура
пролетарскаи
промышленнаи
промышленно
промышленноска
промышленность
промышленноһа
промышленноһын
пропаганда
пропагандаҕа
пропагандист
просветителя
просвещение
просвещения
просмотр
проспект
просто
пространств
пространства
пространстве
пространство
простые
просьбои
протерозои
протестааннар
против
протодьяконов
протодьяконова
протопопов
протопопова
проф
профессиональнаи
профессор
профессора
профилактика
профилактическаи
профиль
профсоюз
профсоюзтар
прохоров
процедуре
процедуры
процентах
процесс
процесса
процессе
процессор
процесстар
процессы
процеһа
процеһыгар
процеһын
прошлого
прошлое
прошлом
прошу
пруссия
прямая
прямо
прямои
псевдоним
псевдонима
псевдонимынан
психолог
психологическаи
психология
психологията
психологтар
псков
пт
птаун
птиц
птицын
птолемеи
пу
пуанкаре
публикации
публицист
публицистика
публичнаи
пугаче
пуд
пулеме
пулеметчик
пункт
пункта
пунктов
пуои
пуонд
пуонда
пуонданы
пуондата
пуондатыгар
пуондатын
пуондатынан
пуорда
пуордун
пусан
пустои
пусть
путе
путешествие
пути
путин
путины
путч
путь
пуун
пууна
пууннар
пууннара
пууннарын
пуунсуи
пуунун
пухов
пушкин
пушкина
пушкинтан
пуштун
пуэрто
пфенниг
пциг
пьер
пьеса
пьесалар
пьесалара
пьесаны
пьесата
пьесатын
пэи
пяти
пятилетка
пять
пүүбүлүкэтин
р
ра
рабкооп
работ
работа
работает
работал
работать
работают
работе
работник
работника
работников
работу
работы
рабочаи
рабочии
равен
равно
рага
рагынан
радиация
радиациялаах
радиациянан
радиацияны
радио
радиоактив
радиостанция
радлов
радости
раен
раз
разведка
разведчик
развитие
развитии
развитию
развития
раздел
раздела
разделах
разделе
разделов
разделы
разин
различные
различных
размер
размера
разметки
разметку
размещается
размещения
разных
разработке
разрешается
разрешение
разрешения
разрешить
разрядтаах
раи
раиса
рак
ракета
ракеталар
ракеталарын
ракетнаи
ракитин
раковината
ракоши
рам
рамзан
рамках
ран
ранг
ранее
рар
расизм
расположение
распространения
рассадин
рассказ
рассказы
расстояние
расстрелян
растении
растения
расче
рат
раунд
рауҥҥа
рафаэль
рациональнаи
рашид
рг
рд
рдар
ре
реабилитация
реабилитацияламмыт
реабилитацияламмыта
реактивнаи
реактор
реакция
реализации
реализм
реалиста
реальнаи
реас
ребе
реверс
ревизор
ревком
ревкомун
революции
революционер
революционера
революционнаи
революция
революциялар
революцияны
революцията
революциятын
регион
региона
региональнаи
региональныи
регионе
регионнааҕы
регионнар
регионнарыгар
регионнарын
регионов
регионугар
региоҥҥа
регистрацияламмыт
ред
редактирование
редактирования
редактор
редактора
редакторов
редакторынан
редакциеи
редакцията
редакциятыгар
редакциятынан
редкол
редколлегия
реж
режим
режими
режиссе
режиссер
режиссера
режиссердар
режиссердара
резерват
резолюция
результат
результатам
результате
результаты
реи
река
реке
реки
реклама
рекомендации
рекомендуется
реконструкция
рекорд
рекордсмена
рекорду
рекордун
ректор
ректора
ректорынан
религии
религиозные
религия
релиз
реликтовые
рельеф
ренессанс
рентген
репин
реплика
репортаж
репрессии
репрессия
репрессияламмыт
репрессиялар
репрессияны
репрессияҕа
рес
респ
республик
республика
республикалар
республиканскаи
республиканского
республиканскои
республиката
республикатааҕы
республикатыгар
республикатын
республикаҕа
республике
республики
ресторан
ресторана
рестораннар
ресурс
ресурсаларын
ресурсы
референдум
референдумҥа
реформа
реформалары
реформата
реформатора
реформатын
рец
речи
речь
решение
решением
решении
решения
решетников
решетникова
ри
рига
ригэр
рии
риим
риимҥэ
рика
рико
рим
римляннар
римма
римскаи
римскии
римскэи
римц
римы
римҥа
римҥэ
рин
рингаҕа
рио
рис
ритм
рифма
рихард
ричард
рк
ркп
рн
рна
рнк
рнр
рныи
ро
роббек
роберт
робот
ров
род
рода
родился
родина
родины
родион
родионов
родного
роднои
родному
родовои
рождения
рожин
роза
розалия
рои
рок
роль
ром
роман
романа
романнар
романнара
романов
романова
романович
романовка
романовна
романовтар
романтическаи
романы
романыгар
романын
ромаҥҥа
ромб
ромео
рон
рональд
роннар
роно
рос
росс
россиеи
россии
россия
россияны
россиятааҕы
россияттан
россияҕа
рост
ростелеком
ростов
рот
рота
ротари
ротата
ротатыгар
ротатын
рр
рс
рсдрп
рсфср
рт
ру
руанда
рубеже
рублеи
рувики
рудник
рудольф
рузвельт
руи
рук
руки
руководитель
руководства
руководство
руководствоваться
рукопись
рулла
румыния
румынияҕа
рун
руна
руналар
рупия
рупията
рус
руси
руслан
русск
русскаи
русская
русски
русские
русскии
русским
русских
русско
русского
русское
русскои
русском
русскоязычных
руставели
рустам
русь
рут
руфов
рф
рч
ры
рыбы
рыгар
рыдзинскаи
рыи
рыкунов
рын
рынан
рыногар
рыногын
рынок
рынокка
рэ
рэи
рэн
рэп
рэхтээһинин
рэҕириитин
рюноскэ
рюрик
рюрикович
ряд
рядовои
рядом
рязанскаи
рязань
рүҥ
с
са
саа
сааба
саабылаан
саагыбар
саада
саадах
саадыгар
саадын
саадьаҕаи
сааи
саала
саалаах
саалар
сааларын
саалата
саалатыгар
саалаҕа
саамаи
саанан
сааны
саанык
сааппыска
саар
саара
сааратыы
саарба
саарбах
саарбахтаабат
саарбахтаммат
саарбаҕа
саарга
саары
саарын
саарыннара
саарыстыбата
саарыстыбатын
саас
сааска
сааскар
сааскы
сааскылаах
сааскылыы
сааспар
сааспын
саастаах
саастаахтар
саастааҕа
саастааҕар
саастара
саастарыгар
саастарын
саастарыттан
саат
саата
саатар
саататыы
сааттаах
саатын
саатыы
саах
саахал
саахалга
саахалламмыт
саахалыгар
саахар
саахардаах
саахары
саахымакка
саахымат
сааҕа
сааҕын
сааһа
сааһы
сааһыгар
сааһылаан
сааһым
сааһын
сааһынан
сааһыран
сааһырбыт
сааһыттан
саба
сабан
сабантуи
сабар
сабараи
сабардаан
сабардама
сабардыыр
сабаҕалаан
сабаҕалааһын
сабаҕаланар
сабаҕалыыллар
сабаҕалыылларынан
сабаҕалыырынан
саби
сабиха
сабы
сабыдыал
сабыдыала
сабыдыалга
сабыдыаллаах
сабыдыаллара
сабыдыалларынан
сабыдыаллыыр
сабыдыалы
сабыдыалыгар
сабыдыалын
сабыдыалынан
сабыдыалыттан
сабыи
сабылла
сабыллан
сабыллар
сабыллыбыт
сабыллыбыта
сабын
сабынан
сабырыи
сабырыкы
сабыс
сабыта
сабыы
сабыылаах
сабыыта
савва
саввин
саввинов
саввинова
саввич
саввична
сага
сад
саддам
садын
саи
сака
сакаас
сакаастаан
сакалаат
сакалар
саккырыыр
сакраменто
саксония
сал
сала
салаа
салаалаах
салаалар
салаалара
салааларга
салаалардаах
салааларыгар
салааларын
салааларынан
салааны
салаата
салаатыгар
салаатын
салаатынан
салааҕа
салават
салаватскии
салаи
салаллан
салаллар
салалта
салалталаах
салалталара
салалталарынан
салалтата
салалтатыгар
салалтатын
салалтатынан
салалтаҕа
салама
саламаат
салар
салардар
салахаи
салаҥ
салбаҥ
салвадор
салгыаҕар
салгын
салгына
салгыннаах
салгынтан
салгыны
салгынын
салгынынан
салгыы
салгыыр
салгыыта
салгыҥҥа
салла
саллааскы
саллааскыта
саллаат
саллаата
саллааттар
саллааттара
саллааттары
саллааттарын
саллааты
саллаатын
саллаллар
саллан
саллар
саллара
салы
салын
салыннарыы
салыҥнаах
сальвадор
салҕаабыт
салҕаабыта
салҕаан
салҕаммыт
салҕаммыта
салҕана
салҕанан
салҕанар
салҕыы
салҕыыр
сам
самааи
самаан
самаара
самалык
саманнык
самантан
самара
самарканд
самая
самбо
сами
самоа
самого
самодеятельнаи
самодеятельность
самое
самои
самоле
самолет
самолеттар
самом
самостоятельно
сампаан
самсонов
самсонова
самурааи
самые
самыи
самым
самых
самыыр
сан
сана
санаа
санаабакка
санаабар
санаабат
санаабаттар
санаабын
санаабыт
санаабыта
санаабытыгар
санаабытым
санаабытын
санаабычча
санааи
санаалаах
санаалаахпыт
санаалаахтар
санаалааҕа
санаалааҕын
санааланан
санааланнахтарына
санааланнаҕына
санааланыы
санааланыылара
санааланыыларын
санааланыыны
санаалар
санаалара
санааларга
санаалардаах
санаалардааҕа
санаалартан
санаалары
санааларыгар
санааларым
санааларын
санааларынан
санааларыттан
санааларыҥ
санаам
санаама
санаан
санаанан
санааннар
санааны
санааргыыр
санаарҕаабыт
санаарҕаан
санаарҕабыл
санаарҕабылга
санаарҕабылы
санаарҕатар
санаата
санаатахха
санаатаххына
санаатаҕына
санааттан
санаатыгар
санаатым
санаатын
санаатынан
санаатыттан
санааччылар
санааҕа
санааҕар
санааҕын
санааҕыт
санааҕытын
санааҥ
санааһын
санааһына
санаммыт
сананаллар
сананан
сананар
сананара
сананарыттан
сананыы
сананыылара
сананыыта
сананыытын
санаталаан
санаталлар
санатан
санатар
санатории
санаттахха
сангаар
сандаара
сандааран
сандаарар
сандаарыи
сандаарыччы
сандал
санитарнаи
санкт
санников
санникова
санныгар
саннын
санньыи
санскрит
санта
саныы
саныыбын
саныыбыт
саныыгын
саныыллар
саныыллара
саныылларынан
саныылларыттан
саныыр
саныыра
саныырыгар
саныырын
саныырынан
саныырыттан
сап
сапи
сапониннар
саппаас
саппаастара
саппаастарыттан
саппааһа
саппааһыгар
саппааһын
саппыи
саппыкы
саппыт
сар
сара
сарагоса
сараи
саратов
сарбыи
саргы
саргылаана
саргылаах
саргылана
сардаана
сардана
сардаҥа
сардаҥалаах
сардаҥалар
сардаҥалара
сардаҥаларын
сардаҥата
сардаҥатын
сарсыарда
сарсыардааҥы
сарсыардааҥҥы
сарсыардата
сарсыардаттан
сарсын
сарсыныгар
сарсыҥҥы
сартаҥ
сары
сарыал
сарыг
сарын
сарыы
сарыыта
сасанидтар
саспыт
сасср
састааба
састаабар
састаабыгар
састаабын
састаабынан
састаабыттан
састаап
састааптаах
састааптарыгар
сата
сатаа
сатаабакка
сатаабат
сатаабаттар
сатаабыт
сатаабыта
сатаабыттар
сатаабыттара
сатаабыттарын
сатаабытым
сатаабытын
сатаан
сатааннар
сатаата
сатаатахха
сатаатым
сатааччылар
сатааҥ
сатааһын
сатааһына
сатааһыннара
сатааһыннарын
сатааһынтан
сатааһыны
сатааһыҥҥа
сатабыл
сатабыла
сатабыллаах
сатабыллаахтык
сатабылын
сатаи
сатаммакка
сатаммаккалар
сатаммат
сатаммата
сатамматах
сатамматаҕына
сатамматын
сатана
сатанар
сатарыи
сатаҕаи
сатирическаи
сатурн
сатыахпыт
сатыахтарын
сатыахха
сатыы
сатыыбын
сатыыбыт
сатыыллар
сатыыллара
сатыылларыгар
сатыылларын
сатыылларыттан
сатыыр
сатыыра
сатыырбыт
сатыырга
сатыырыгар
сатыырын
сатыырынан
сатыырыттан
сауд
саудовскаи
сафронов
сафронова
сах
саха
сахаада
сахабын
сахабыт
сахавики
сахалар
сахалара
сахаларга
сахалартан
сахалары
сахаларын
сахалин
сахалыы
сахалыыга
сахалыыта
сахам
саханы
сахаполиграфиздат
сахарнаи
сахаров
сахателеком
сахаттан
сахатыи
сахатын
сахатыта
сахатытан
сахатытыы
сахафильм
сахаҕа
сахсыи
сахсырҕа
сахха
саша
саян
саҕа
саҕаи
саҕалаабыт
саҕалаабыта
саҕалаабыттар
саҕалаабыттара
саҕалаабытынан
саҕалаан
саҕалаата
саҕалаах
саҕалааччы
саҕалааччыта
саҕалааһын
саҕаламмыт
саҕаламмыта
саҕаламмыттар
саҕаламмыттара
саҕаламмытыгар
саҕаламмытын
саҕаланаллар
саҕаланан
саҕаланар
саҕаланара
саҕаланарын
саҕаланна
саҕаланнаҕына
саҕаланнылар
саҕаланыа
саҕаланыан
саҕаланыаҕыттан
саҕаланыыларыгар
саҕаланыыта
саҕаланыытыгар
саҕаланыытын
саҕаланыытынан
саҕаланыытыттан
саҕалыахха
саҕалыыллар
саҕалыыр
саҕалыыра
саҕалыырга
саҕана
саҕанааҕы
саҕаны
саҕата
саҕаттан
саҕатыгар
саҕах
саҕынньах
саңа
саңарар
саҥа
саҥалаах
саҥалара
саҥаларыгар
саҥаларын
саҥалыы
саҥанан
саҥаны
саҥар
саҥара
саҥарааччы
саҥараллар
саҥараллара
саҥаралларын
саҥаран
саҥарар
саҥарара
саҥарарга
саҥарары
саҥарарыгар
саҥарарын
саҥарарыттан
саҥарбакка
саҥарбат
саҥарбыт
саҥарда
саҥардан
саҥардыы
саҥарыллар
саҥарыллыбат
саҥарыма
саҥарыы
саҥарыыны
саҥата
саҥаттан
саҥатыгар
саҥатын
саҥатыттан
саҥаҕа
саҥыи
саһа
саһаан
саһан
саһар
саһарар
саһархаи
саһыл
саһылы
сб
сбербанк
сборнаи
сборник
сборнике
сбург
св
сведении
сведения
свердлов
свердловскаи
сверху
свет
света
свете
светлана
свобода
свободно
свободнои
свободы
свое
своего
своеи
своем
своему
свои
своим
своими
своих
свою
свфу
связанные
связанных
связи
связь
святого
святои
святослав
сгу
сд
сделал
сделали
сделана
сделано
сделать
се
себе
себя
севастополь
север
севера
севере
северная
северного
севернои
северныи
северо
сегодня
седалищев
седов
сезен
сезон
сеи
секретара
секретарынан
секретарь
секретаря
секс
сексуальнаи
секталар
сектор
сектора
секторын
секунд
села
селенга
село
сельпо
сельских
сельского
сельское
сельскои
сельскохозяи
сельсовет
сем
семантика
семантическаи
семе
семеи
семен
семенов
семенова
семенович
семеновна
семинар
семинарияны
семинарияҕа
семьи
семья
сен
сена
сенат
сенатор
сент
сентаво
сентесимо
сентября
сеп
септік
сер
сера
серафим
серафимовна
серб
сербия
сербияҕа
сербтэр
сервантес
сервер
сервис
сервиһэ
сергеев
сергеева
сергеевич
сергеевна
сергеи
сергучев
сердца
сердце
серебряков
середине
середины
сержана
сержант
сериал
сериала
сериалга
сериалын
серии
серия
серияларын
серошевскаи
серошевскии
серье
сессии
сет
сетевои
сети
сеть
сеул
сеченов
сзкэо
си
сиб
сибигинэи
сибидиэнньэ
сибидиэнньэлэр
сибиинньэ
сибиир
сибииргэ
сибиирдээҕи
сибиири
сибииртэн
сибики
сибикилэрэ
сибикитэ
сибилигин
сибири
сибирская
сибирские
сибирскии
сибирских
сибирского
сибирь
сибиряков
сибит
сибитэ
сибиэ
сибиэһэи
сибревком
сибэкки
сибэккигэ
сибэккилиир
сибэккилэнэр
сибэккилэр
сибэккилэрэ
сибэккилээх
сибэккини
сибэккинэн
сибэккитигэр
сибэккитин
сибэккитэ
сибэтии
сибэтиэи
сибээс
сибээскэ
сибээстииллэр
сибээстиир
сибээстэрин
сибээстээн
сибээстээх
сибээстээхтэр
сибээстээҕин
сибээстэһии
сибээстэһэ
сибээһи
сибээһин
сибээһинэн
сибээһэ
сивцев
сивцева
сигили
сигилилэрэ
сигилитин
сигилитэ
сигэ
сигэлэр
сигэлээх
сигэни
сигэнии
сигэнэн
сигэнэр
сиднеи
сидоркевич
сидоров
сидорова
сидорович
сидьиҥ
сии
сиибиктэ
сииги
сиигин
сиигинэн
сиигэ
сиидэлээн
сиик
сииктээх
сиикэи
сииллэр
сииллэрин
сииллэрэ
сииммитин
сиин
сиини
сиинигэр
сиинин
сииниттэн
сииннэрин
сииннэрэ
сииннээх
сиинтэн
сиинэ
сиир
сииргэ
сииригэр
сиирии
сиирин
сиирэ
сииҥҥэ
сиккиэр
сил
сила
силбэһии
силбэһиитин
силбэһиитэ
силбэһэр
силезия
сили
силик
силин
силип
силис
силистэрин
силистээх
силиэстии
силиһин
силиһэ
силлиэ
силтэһин
силу
силы
силэ
силэи
силээннээх
сим
символ
символа
символика
символлар
символов
символы
симиир
симон
симферополь
симфония
симэ
симэлии
симэлитэ
симэлитэн
симэлитэр
симэн
симэх
симэхтээх
симэҕэ
син
сингапур
сингапурга
сингл
сингла
сингллар
синдзи
синдьээн
синдьээҥ
синньигэс
синоним
синонима
синонимнар
синонимы
синтаксис
синтетическэи
синь
синьцзян
сип
сиппии
сиппит
сиппитин
сиппэт
сиппэтэх
сир
сирбит
сирбитигэр
сирбитин
сирбэр
сиргэ
сиргэнэр
сирдиир
сирдьит
сирдьитэ
сирдэр
сирдэргэ
сирдэрдээх
сирдэри
сирдэригэр
сирдэрин
сирдэринэн
сирдэриттэн
сирдэртэн
сирдэрэ
сирдэтэн
сирдээн
сирдээх
сирдээҕи
сири
сиригэр
сирии
сирим
сирин
сиринэн
сиринээҕи
сириттэн
сириэдии
сирия
сириятааҕы
сирияҕа
сиртэн
сирэ
сирэи
сирэм
сирэн
сирэр
сис
сискэ
систем
система
системалар
системалара
системаларга
системалары
системаларыгар
системаларын
системанан
системаны
системата
систематыгар
систематын
системаҕа
системе
системы
систиэмэ
систиэмэлэрэ
систиэмэни
систиэмэтигэр
систиэмэтин
систиэмэтэ
систэрин
сити
ситии
ситиинэн
ситиитигэр
ситиитин
ситиитэ
ситим
ситими
ситимигэр
ситимин
ситиминэн
ситимнииллэр
ситимниир
ситимнэр
ситимнэргэ
ситимнэри
ситимнэрин
ситимнэринэн
ситимнэрэ
ситимнээн
ситимнээх
ситимнээхтэр
ситимнээҕин
ситимнэһэн
ситимнэһэр
ситимэ
ситимҥэ
ситиспит
ситиспитин
ситиспиттэр
ситиспиттэрин
ситиспиттэрэ
ситиспитэ
ситиспэт
ситистилэр
ситистэхтэринэ
ситистэххэ
ситистэҕинэ
ситиһии
ситиһиигэ
ситиһиилэр
ситиһиилэри
ситиһиилэригэр
ситиһиилэрин
ситиһиилэрэ
ситиһиилээх
ситиһиилээхтик
ситиһиини
ситиһиитигэр
ситиһиитин
ситиһиитинэн
ситиһиитэ
ситиһиллибит
ситиһиллибитэ
ситиһиллибэт
ситиһиллэр
ситиһиллэрин
ситиһиллэрэ
ситиһиэ
ситиһиэн
ситиһиэхпит
ситиһиэхпитин
ситиһиэхтэрин
ситиһиэхтээх
ситиһиэххин
ситиһиэххэ
ситиһиэҕиҥ
ситиһэ
ситиһэллэр
ситиһэллэригэр
ситиһэллэрин
ситиһэллэрэ
ситиһэн
ситиһэннэр
ситиһэр
ситиһэргэ
ситиһэригэр
ситиһэрин
ситиһэрэ
ситиһээри
ситтэр
ситтэҕинэ
ситуации
ситуация
ситэ
ситэн
ситэр
ситэри
ситэриилээх
ситэрин
ситэрсэн
ситэрэн
ситэтэ
сих
сицилия
сицилияҕа
сиэ
сиэбигэр
сиэбит
сиэбэккэ
сиэбэт
сиэбэттэр
сиэгэн
сиэдэрэи
сиэи
сиэксии
сиэл
сиэлин
сиэлинэн
сиэллээх
сиэлэ
сиэмэ
сиэмэтин
сиэмэтэ
сиэмэх
сиэн
сиэниллэр
сиэнин
сиэннэр
сиэннэрдээх
сиэннэригэр
сиэннэрин
сиэннэрэ
сиэннээх
сиэннээхтэр
сиэнэ
сиэнэр
сиэп
сиэр
сиэргэ
сиэрдэри
сиэрдэрин
сиэрдэрэ
сиэрдээх
сиэрдээхтик
сиэри
сиэригэр
сиэрии
сиэрин
сиэринэн
сиэркилэ
сиэркилэҕэ
сиэрпэ
сиэртибэ
сиэртибэлэрин
сиэртибэлээбит
сиэрэ
сиэрэи
сиэссии
сиэстэрэ
сиэтии
сиэтл
сиэттиһэн
сиэттэрэн
сиэтэ
сиэтэн
сиэтэххэ
сиэтэҕинэ
сиэххэ
сиэһин
сиһи
сиһигэр
сиһилии
сиһин
сиһэ
ск
ска
сказ
сказка
сказки
скаи
скандинавия
ская
сквер
ские
скии
ским
ских
ско
скобках
скобки
ского
ское
скои
сколько
ском
скорее
скорпион
скота
скотт
скрипка
скрыбыкин
скрябин
скрябина
скрябиннар
скульптор
скульптора
скульптура
скэи
слава
славы
славян
славяннар
славянскаи
слева
следам
следует
следующем
следующие
следующии
следующим
следующих
слепцов
слепцова
слишком
слов
слова
словак
словакия
словами
словаре
словарнаи
словарные
словарь
словения
слово
сложное
слон
службы
служебные
служебных
служит
случае
случаев
случаи
случаях
см
смартфон
смартфоннары
смело
смена
смерти
смерть
сметанин
сми
смирнов
смит
смоленск
смоленскаи
сму
смысл
смысла
снаи
сначала
снг
снитко
снк
снов
со
соавт
соавтор
соавторстве
собакин
собо
собои
соболоох
собону
собор
собора
соборга
собрание
собрания
собственнои
собуокка
собуор
собуора
собуорун
собуот
собуота
собуоттара
собуотугар
собуотун
событиелар
событии
события
сов
совекка
совершенно
совершенства
совет
совета
советнига
советник
советскаи
советская
советскии
советских
советского
советскои
советы
советын
совместно
совминын
совнарком
совнаркома
совнаркомун
совнаркомын
совпадает
совпадать
современная
современник
современного
современное
современнои
современном
современность
современные
современныи
современных
совсем
совхоз
совхозка
согд
согласен
согласие
согласия
согласно
согласны
содержание
содержания
содержать
содержимое
содержит
содружество
содул
содула
содуллаах
содуллара
содулларын
содулун
содулуттан
содурдаама
создаваи
создавать
создае
создал
создан
создана
создание
создании
создания
создать
сознание
созыва
сои
сок
соколов
сокольников
сократ
сокуон
сокуона
сокуоннаах
сокуоннаи
сокуоннар
сокуоннара
сокуоннарга
сокуоннары
сокуоннарыгар
сокуоннарын
сокуоннарынан
сокуону
сокуонугар
сокуонун
сокуонунан
сокуоҥҥа
сол
солбуи
солбук
солбуллан
солбуллар
солбуллубат
солбуллубута
солдат
солдатов
солженицын
солидарность
солк
солко
солкуобаи
солнечного
солнца
солнце
соло
солобуодатын
соловеи
соловки
соловье
соловьев
соловьева
солодкин
сололоох
соломон
соломуон
солоон
солото
солотугар
солотун
солотуттан
солоҕо
солоҕон
солоҕоон
солумсах
солумсаҕырыы
солун
солуннары
солуну
солуур
солуута
сольнаи
солянаи
сомали
сомнения
соморсун
сомоҕо
сомоҕолоһуу
сомоҕолоһууларын
сомоҕолоһуутун
сомоҕолуур
сомоҕотто
сон
сонно
сонноох
соннорун
соннук
сонньуи
соно
соноҕос
сону
сонун
сонуннар
сонуннара
сонуннары
сонуну
сообщение
сообщении
сообщения
сообществ
сообщества
сообщество
сообществом
соответственно
соответствие
соответствии
соответствовать
соответствует
соответствуют
соответствующего
соответствующеи
соответствующие
соответствующии
соответствующих
соответствующую
соп
соппуруон
сопрано
сопредельных
сопхуос
сопхуоска
сор
соргу
соргулаах
соргуну
сордоох
сордоҥ
соро
сорок
сорох
сорохтор
сорохторго
сорохторо
сорохторун
сороҕо
сороҕор
сороҕото
сороҕун
сору
соруга
соругу
соругун
соругунан
сорудах
сорудахтары
сорудаҕы
сорудаҕынан
соруи
сорук
сорукка
соруктаах
соруктааҕа
соруктар
соруктара
соруктары
сорунан
соруокалар
сорҕолоро
сорҕото
сорҕотун
сорҕотунан
сосин
сосновка
сост
состав
составе
составитель
составу
состоит
состояние
состоянии
сото
сотоваи
сотон
сотор
соторго
сотору
соторутааҕыта
сотото
сотруднига
сотруднигынан
сотрудник
соттон
соттор
сотуллар
сотуллубут
сотуллубута
сотуллуохтаах
сотуу
софия
софрон
софронов
софронова
софронович
софроновна
софтуэр
софья
сохранение
сохранения
сохранить
соххор
соц
социал
социализм
социалист
социалистическаи
социалистическая
социалистических
социалистического
социалистическои
социалистическэи
социалистыы
социаль
социальнаи
социальная
социально
социального
социальное
социальнои
социальныи
социолог
социология
социологияҕа
сочетание
сочетания
сочи
сочига
сочинении
сочинения
соччо
соччонон
сош
сошла
союз
союза
союзка
союзнаи
союзниктар
союзтааҕы
союзтарын
союһун
соҕотох
соҕотохсуи
соҕотохто
соҕотохтуу
соҕотоҕун
соҕуруу
соҕуруулуу
соҕурууттан
соҕуруутугар
соҕурууҥу
соҕурууҥҥу
соҕус
соҕустук
соҥоон
соһо
соһон
соһор
соһуи
соһумар
соһутар
соһуччу
сп
спартак
спартакиада
спартакиадатыгар
спартакиадатын
спартакиадаҕа
спасибо
спб
спектакль
специалист
специалистар
специалиһа
специалиһынан
специальнаи
специально
специальные
специальныи
специальных
спид
спилберг
спираль
спиридон
спиридонов
спиридонова
спиридонович
спиридоновна
списка
списке
списков
список
спокои
спорду
спордугар
спордун
спордунан
спорка
спорт
спорта
спортивнаи
спортка
спортсмен
спортсмена
спортсменнар
спортсменнары
спортсменнарын
способ
способом
справ
справа
справка
справочник
спутник
ср
сравнение
сравнительно
сразу
сред
среди
средиземнаи
средневековья
среднее
среднеи
средние
средних
средняя
средств
средства
средство
сри
срок
сроках
сс
сскп
сср
ссрс
ссрска
ссср
ссылка
ссылкалара
ссылками
ссылках
ссылке
ссылки
ссылкои
ссылку
ссылок
ст
ста
стаатуһун
ставится
ставить
ставрополь
стадион
стадиона
стадиоҥҥа
стал
стала
сталин
сталинград
сталинградтааҕы
сталиҥҥа
стало
стамбул
стамбулга
стандарт
стандартнаи
станислав
станиславскаи
становится
становление
становления
становои
станции
станция
станциялар
станцията
станциятыгар
станциятын
станцияҕа
стар
стараи
старая
стареи
староватов
старому
староста
старостанан
старостин
старшаи
старшего
старшии
старшина
старые
старыи
статеи
статистика
статскаи
статус
статуса
статусом
статустаах
статуята
статуһа
статуһу
статуһун
стать
статье
статьи
статью
статья
статьям
статьях
стахановец
ств
ства
стве
ственнаи
ствие
ствии
ствительно
ствия
ство
ствовать
ствует
степан
степанида
степанов
степанова
степанович
степановна
степенеи
степени
степенин
степеннээх
степень
степенэ
степнои
степь
стер
стера
стерлибашевскии
стерлинг
стерлитамакскии
стефан
стив
стивен
стили
стилинэн
стилистическэи
стиль
стилэ
стилю
стиля
стипендиата
стипендия
стихи
стихотворения
стои
стоит
сток
стокгольм
столб
столбец
столетия
столицы
столпов
стоматологическаи
стоматология
сторон
сторону
стороны
стоун
стр
стран
страна
страниц
страница
страницах
страницаҕа
странице
страницу
страницы
страны
стратегии
стратегическаи
стратегическэи
стратегия
страуструп
страховои
стрекаловскаи
стрелка
стрелковаи
стремление
стресс
стрит
строд
строи
строительнаи
строительство
строк
строка
строке
строки
строку
структура
структурата
структуратыгар
структуратын
структурнаи
структуры
струннаи
стручков
стручкова
студена
студеннар
студент
студентов
студия
студиятыгар
студиятын
студияҕа
стче
стэнли
стюарт
су
субаи
субан
субсидия
субу
субугурдук
субуи
субуллар
субуота
субуруи
субуруччу
субурҕа
субуу
субъега
субъект
субъектар
субъектара
субъектарын
субъектарыттан
субъектов
суверенитет
суверенитетын
сувереннаи
суворов
сугдьаар
сугомак
сугун
суд
судаарыс
судаарысты
судаарыстыба
судаарыстыбалар
судаарыстыбалара
судаарыстыбаларга
судаарыстыбаларыгар
судаарыстыбаларын
судаарыстыбаннаи
судаарыстыбаннас
судаарыстыбаны
судаарыстыбата
судаарыстыбаттан
судаарыстыбатыгар
судаарыстыбатын
судаарыстыбаҕа
судаарыстыбыннаи
судан
судургу
судургута
судургутук
судьба
судьбы
судьуи
суздаль
суи
сука
сукуна
сулбу
сулеи
султаан
султаана
султан
сулумах
сулус
сулустаах
сулустар
сулустара
сулустардаах
сулустары
сулустарын
сулустуун
сулууспа
сулууспалаабыт
сулууспалаабыта
сулууспалаан
сулууспалаах
сулууспалыы
сулууспалыыр
сулууспата
сулууспатын
сулууспаҕа
сулуһа
сулуһу
сулуһум
сулҕаччы
суматра
сумы
сун
сунтаар
сунтаарга
сунтаардааҕы
сунтаартан
сунтар
сунтарскии
сунтарского
суо
суобас
суобастаах
суобастаахтык
суобаһа
суол
суола
суолбун
суолбут
суолга
суолгун
суолдьут
суоллаан
суоллаах
суоллар
суоллара
суолларга
суоллары
суолларыгар
суолларын
суолларынан
суолта
суолталаах
суолталаахтар
суолталаахтарын
суолталааҕа
суолталааҕын
суолталааҕынан
суолталаммыт
суолталаммыта
суолталанан
суолталанар
суолталара
суолталарыгар
суолталарын
суолталарынан
суолтан
суолтаны
суолтата
суолтатыгар
суолтатын
суолтатынан
суолтатыттан
суолтаҕа
суолу
суолугар
суолум
суолун
суолунан
суолуттан
суолуҥ
суон
суоппар
суоппара
суоппардар
суоппуи
суор
суоран
суорат
суораты
суорба
суорума
суорун
суорҕан
суорҕанынан
суос
суостаах
суот
суотабаи
суоттаан
суоттааһын
суотту
суоттуур
суотугар
суох
суохпун
суохтаах
суохтаахтар
суохтааҕын
суохтар
суохтара
суохтарга
суохтары
суохтарын
суохтарынан
суохтарыттан
суохтук
суохха
суоҕа
суоҕар
суоҕу
суоҕун
суоҕунан
суоҕуттан
суоһуур
супер
супту
суптугур
сур
сурааһын
сурах
сурахтаах
сурахтар
сурахтара
сураҕа
сураҕы
сураҕырбыт
сургуулук
сурдээх
суриков
суруга
суругар
суругу
суругун
суругунан
суруи
сурук
сурукка
суруксут
суруксута
суруксутунан
суруктаах
суруктар
суруктара
суруктарга
суруктары
суруктарыгар
суруктарын
сурулла
суруллаллар
суруллан
суруллар
сурулларынан
суруллубат
суруллубатах
суруллубут
суруллубута
суруллубуттар
суруллубуттара
суруллубуту
суруллубутун
суруллубутунан
суруллуохтаах
суруллуута
сурулунна
сурун
сурунаал
сурунаала
сурунаалга
сурунааллар
сурунаалларга
сурунаалларыгар
сурунаалы
сурунаалыгар
сурунаалын
суруналыыс
суруналыыстар
суруналыыстара
суруналыыстары
суруналыыстарын
суруналыыстыка
суруналыыстыкаҕа
суруналыыһа
сурунан
суруттарбыт
сурутуу
сурэх
сусанна
сут
сута
суток
сутуи
сутуллубут
сутуругун
сутуругунан
сутуруо
суу
суугунуу
суудаи
сууи
суукка
сууккаҕа
суулаан
сууланан
сууллан
сууллар
суулларан
суулларбыттар
сууллубут
сууллубута
сууллубутун
сууллуута
суумата
суунан
суунар
суураи
суураллан
суураллар
суураллыбыт
суут
суута
сууттаан
сууттаммыт
сууттар
сууттара
сууттуур
сууту
суутугар
суутун
суутунан
сухои
сухоностар
существование
существует
существуют
существующие
суэнага
суэц
суһал
суһаллык
суһуохтаах
сфера
сфератыгар
схема
схемата
сцена
сценарии
сценарист
сценариһа
сценатыгар
сценаҕа
счастье
счастья
считает
считается
считаю
сша
съезд
съезда
съезтэрин
съеһин
сы
сыа
сыал
сыала
сыалаах
сыалаи
сыалга
сыаллаах
сыаллара
сыаллары
сыалларын
сыалтан
сыалы
сыалыгар
сыалыи
сыалын
сыалынан
сыалыһар
сыана
сыанабыла
сыанабылы
сыаналаабакка
сыаналаабат
сыаналаабыта
сыаналаабыттара
сыаналаан
сыаналаатахха
сыаналаах
сыаналааһын
сыаналаммыт
сыаналаммыта
сыаналаналлар
сыаналанан
сыаналанар
сыаналанара
сыаналара
сыаналарын
сыаналыахха
сыаналыы
сыаналыыллар
сыаналыыллара
сыаналыыр
сыаналыыра
сыаналыырга
сыаналыырыгар
сыананы
сыаната
сыанатыгар
сыанатын
сыанаҕа
сыаны
сыаркаба
сыаркабын
сыаркап
сыаркаптарын
сыарҕа
сыарҕалаах
сыарҕаны
сыарҕатыгар
сыарҕаҕа
сыата
сыатын
сыатынан
сыаҕа
сыбааи
сыбаан
сыбаанньа
сыбаанньалаах
сыбаанньалара
сыбаанньатын
сыгааннар
сыгыи
сыгынньах
сыгынньаҕын
сыдьааи
сыдьаана
сыдьааннара
сыдьааннарын
сыл
сыла
сылаас
сылааска
сылаастык
сылаахха
сылааһа
сылааһы
сылааһын
сылааһынан
сылаи
сылаҥ
сылга
сылгы
сылгыга
сылгылаах
сылгылар
сылгылары
сылгыларын
сылгынан
сылгыны
сылгыта
сылгытын
сылгычыаи
сылгыһыт
сылгыһыта
сылгыһыттар
сылдьа
сылдьааччы
сылдьааччылар
сылдьабын
сылдьабыт
сылдьаллар
сылдьаллара
сылдьалларыгар
сылдьалларын
сылдьалларынан
сылдьалларыттан
сылдьаммын
сылдьан
сылдьаннар
сылдьар
сылдьара
сылдьарбыт
сылдьарбытыттан
сылдьарга
сылдьартан
сылдьары
сылдьарыгар
сылдьарым
сылдьарын
сылдьарынан
сылдьарыттан
сылдьарыҥ
сылдьыа
сылдьыам
сылдьыан
сылдьыахтаах
сылдьыахтаахтар
сылдьыахтара
сылдьыахтарын
сылдьыахха
сылдьыаҕа
сылдьыбакка
сылдьыбат
сылдьыбатах
сылдьыбаттар
сылдьыбатын
сылдьыбыппыт
сылдьыбыт
сылдьыбыта
сылдьыбыттар
сылдьыбыттара
сылдьыбыттарын
сылдьыбытым
сылдьыбытын
сылдьыллар
сылдьыма
сылдьыспыт
сылдьыы
сылдьыыга
сылдьыылара
сылдьыыны
сылдьыыта
сылдьыытын
сылдьыҥ
сылла
сыллаах
сыллааха
сыллаахтан
сыллаахха
сыллааҕы
сыллааҕыта
сыллар
сыллара
сылларга
сыллардаахтан
сыллардаахха
сыллардааҕы
сыллартан
сыллары
сылларыгар
сылларын
сылларынан
сылларыттан
сыллата
сыллахха
сыллаҕы
сылллаахха
сыллырга
сылтаан
сылтан
сылтанан
сылтах
сылы
сылыгар
сылыи
сылыктаан
сылыктаатахха
сылын
сылынан
сылытан
сылытар
сылыттан
сыма
сымара
сымнаабыт
сымнаан
сымнатан
сымнатар
сымнаҕас
сымнаҕастык
сымыи
сымыыт
сымыыта
сымыыттаах
сымыыттыыр
сымыыты
сымыытын
сын
сындалҕаннаах
сындыыс
сынньалаҥ
сынньалаҥнык
сынньалаҥҥа
сынньан
сынньана
сынньанан
сынньанар
сынньанарга
сынньата
сынньатар
сып
сыппах
сыппыт
сыппыта
сыр
сыраи
сыралаах
сыранов
сыратын
сырдаан
сырдарья
сырдатааччы
сырдатан
сырдатар
сырдатыы
сырдыга
сырдыгар
сырдыгы
сырдыгын
сырдыгынан
сырдык
сырдыкка
сырдыктан
сырдыыр
сырдьан
сыроватскаи
сыромятников
сыромятникова
сырсан
сырыт
сырытта
сырыттар
сырыттахпына
сырыттахпытына
сырыттахтарына
сырыттахха
сырыттаххына
сырыттаҕына
сырыттылар
сырыттым
сырыы
сырыыга
сырыылаах
сырыылара
сырыыларын
сырыынньа
сырыыны
сырыыта
сырыытыгар
сырыытын
сырье
сысолятин
сыспыт
сыспыта
сыспыттар
сыспыттара
сыста
сыстан
сыстар
сыстаҕас
сыстыбыт
сыстыганнаах
сыт
сыта
сытаан
сытабын
сыталлар
сытан
сытар
сытара
сытарга
сытарын
сытта
сыттаах
сыттары
сыттаҕына
сыттык
сыты
сытыара
сытыаран
сытыары
сытыган
сытыи
сытынан
сытыы
сытыырхаи
сытыытык
сычуань
сыы
сыыдам
сыыи
сыылааччылар
сыылкалар
сыылкаҕа
сыылла
сыыллан
сыылынаи
сыымах
сыыппара
сыыппаралар
сыыр
сыырдаах
сыыры
сыыс
сыыспат
сыыһа
сыыһалардаах
сыыһалары
сыыһаларын
сыыһаларыттан
сыыһаны
сыыһар
сыыһата
сыыһатын
сыыһын
сыҕарыи
сыҕарытан
сыҕарытар
сыҥаах
сыҥааҕын
сыҥалаабыт
сыһа
сыһан
сыһыан
сыһыана
сыһыаннаан
сыһыаннаах
сыһыаннаахтар
сыһыаннаахтарын
сыһыаннааҕа
сыһыаннааҕын
сыһыаннара
сыһыаннары
сыһыаннарыгар
сыһыаннарын
сыһыаннарыттан
сыһыаннаһаллар
сыһыаннаһалларын
сыһыаннаһар
сыһыаннаһара
сыһыаннаһарга
сыһыаннаһарын
сыһыаннаһыы
сыһыаннаһыылара
сыһыаннаһыыларыгар
сыһыаны
сыһыаныгар
сыһыанын
сыһыаныттан
сыһыаран
сыһыарар
сыһыары
сыһыарыллыбыт
сыһыарыы
сыһыарыылаах
сыһыарыылар
сыһыарыыларынан
сыһыарыынан
сыһыарыыта
сыһыарыытын
сыһыат
сыһыаҥҥа
сыһыннаҕына
сыһыы
сыһыыга
сьерра
сэ
сэби
сэбилэммит
сэбилэниилээх
сэбин
сэбинэн
сэбиргэл
сэбиргэли
сэбиргэлэ
сэбирдэх
сэбирдэхтэр
сэбирдэхтэрин
сэбирдэхтэрэ
сэбирдэхтээх
сэбирдэҕи
сэбирдэҕин
сэбирдэҕэ
сэбирдэҕэр
сэбиэдиссэи
сэбиэдэссэи
сэбиэскэи
сэбиэт
сэбиэти
сэбиэтигэр
сэбиэтин
сэбиэттэр
сэбиэттэри
сэбиэттэригэр
сэбиэттэрин
сэбиэттэрэ
сэбиэтэ
сэбэ
сэгэртэи
сэдэх
сэдэхтик
сэи
сэкиритээрин
сэкиритээринэн
сэкиритээрэ
сэкирэтээр
сэкирэтээринэн
сэкирэтээрэ
сэкрэтээрэ
сэксэи
сэкэрэтээрэ
сэл
сэлии
сэлиэнньэ
сэлиэнньэлэр
сэлиэнньэтигэр
сэлиэнньэтин
сэлиэнньэтиттэн
сэлиэнньэттэн
сэлиэнньэтэ
сэлиэнньэҕэ
сэлиэччик
сэлиэһинэи
сэллиги
сэллик
сэлликтэн
сэлэ
сэлээн
сэлээппэтин
сэлээппэтэ
сэм
сэминээрии
сэмэ
сэмэи
сэмэлиир
сэмэн
сэмэни
сэмэнчик
сэмээр
сэмэҕэ
сэн
сэниэ
сэниэтэ
сэнэх
сэп
сэппэрээк
сэптэри
сэптэрин
сэптэринэн
сэптэрэ
сэптээх
сэр
сэрбэкэ
сэргиир
сэргэ
сэргэи
сэргэлээх
сэргэни
сэргэстэһэ
сэргэтигэр
сэргэтин
сэргэтэ
сэргэх
сэргэхсии
сэргэхситэр
сэргээн
сэргэҕэ
сэрии
сэриигэ
сэриилии
сэриилэ
сэриилэр
сэриилэргэ
сэриилэригэр
сэриилэрин
сэриилэриттэн
сэриилэрэ
сэриилэспит
сэриилэспиттэрэ
сэриилэспитэ
сэриилээбит
сэриилээн
сэриилээх
сэриилэһии
сэриилэһиигэ
сэриилэһэ
сэриилэһэллэр
сэриилэһэн
сэриилэһэр
сэриилэһэргэ
сэриини
сэриинэн
сэриитигэр
сэриитин
сэриититтэн
сэрииттэн
сэриитэ
сэрииһит
сэрииһиттэр
сэрииһиттэрин
сэрииһиттэрэ
сэрииһитэ
сэрэбиэи
сэрэи
сэрэммэккэ
сэрэн
сэрэнии
сэрэниэ
сэрэниэхтэрэ
сэрэниэххэ
сэрэнэ
сэрэнэллэр
сэрэнэн
сэрэнэр
сэрэнэргэ
сэрэнэрэ
сэрэппит
сэрэтии
сэрэтэ
сэрэтэллэр
сэрэтэн
сэрэтэр
сэрэх
сэрэхтээх
сэрэхтээхтик
сэрэхтээҕин
сэрэҕи
сэрэҕэ
сэт
сэти
сэтинньи
сэтинньигэ
сэтинньитигэр
сэттис
сэттэ
сэттэлээх
сэттэтэ
сэттээх
сэтэ
сэтэкэм
сээкэи
сээркээн
сэҥии
сэҥээрэн
сэҥээрэр
сэһэн
сэһэни
сэһэнигэр
сэһэнин
сэһэнинэн
сэһэнньит
сэһэннэр
сэһэннэргэ
сэһэннэри
сэһэннэрин
сэһэннэрэ
сэһэнэ
сэһэргиир
сэһэҥҥэ
сюда
сюжет
сюжеттаах
сюжеты
сюита
сюльскаи
сюэсэнь
ся
сяопин
сіп
сѳп
сү
сүбэ
сүбэлииллэр
сүбэлиир
сүбэлэр
сүбэлэрин
сүбэлэрэ
сүбэлээбит
сүбэлээн
сүбэлэһэн
сүбэни
сүбэрэнитиэт
сүбэрэнитиэти
сүбэтигэр
сүбэтин
сүбэтинэн
сүбэтэ
сүбэһит
сүбэһитэ
сүгэ
сүгэллэр
сүгэн
сүгэни
сүгэнэн
сүгэр
сүгүн
сүгүннэрэн
сүгүрүи
сүдү
сүжета
сүкпүт
сүкпүтэ
сүктэ
сүктэн
сүктэр
сүлбэ
сүлэ
сүлүүдэлээх
сүлүһүннээх
сүмэтин
сүмэтэ
сүмэһин
сүмэһинин
сүнньэ
сүнньүгэр
сүнньүн
сүнньүнэн
сүппэт
сүппэтин
сүппүт
сүппүттэр
сүппүтэ
сүр
сүргэ
сүрдэрин
сүрдэрэ
сүрдээх
сүрдээхтик
сүрдээҕин
сүрэ
сүрэх
сүрэхпин
сүрэхпит
сүрэхпэр
сүрэхтэммит
сүрэхтэн
сүрэхтэнэн
сүрэхтэриттэн
сүрэхтэрэ
сүрэхтээх
сүрэххин
сүрэххэ
сүрэҕи
сүрэҕим
сүрэҕин
сүрэҕинэн
сүрэҕиттэн
сүрэҕиҥ
сүрэҕэ
сүрэҕэлдьиир
сүрэҕэр
сүрү
сүрүн
сүрүннэрэ
сүрүннээн
сүрүннээх
сүрүннүүр
сүрүнэ
сүттэ
сүтэ
сүтэн
сүтэр
сүтэрбит
сүтэрбиттэрэ
сүтэрбитэ
сүтэрбэккэ
сүтэрбэт
сүтэрии
сүтэрэ
сүтэрэн
сүтэрэр
сүтүк
сүтүктээх
сүтүү
сүтүүгэ
сүтүүтэ
сүтүөр
сүҥкэн
сүүи
сүүмэрдиир
сүүмэрдэммит
сүүмэрдээн
сүүмэх
сүүнэ
сүүрбэ
сүүрбэттэн
сүүрбэччэ
сүүрбэһис
сүүрдэ
сүүрдэн
сүүрдэр
сүүрдүүтэ
сүүрэ
сүүрэкэлии
сүүрэн
сүүрэр
сүүрэрин
сүүрэрэ
сүүрээн
сүүрээнигэр
сүүрээнин
сүүрээнэ
сүүрүгэ
сүүрүгэр
сүүрүгүн
сүүрүк
сүүрүктээх
сүүрүү
сүүрүүгэ
сүүрүүк
сүүрүүнэн
сүүс
сүүстэн
сүүстээх
сүүсчэкэ
сүүһүгэр
сүүһүн
сүүһүнэн
сүһэн
сүһүрдэн
сүһүрдэр
сүһүрэн
сүһүрүү
сүһүрүүнү
сүһүөх
сүһүөхтэригэр
сүһүөхтэрин
сүһүөхтэрэ
сүһүөхтээх
сүһүөххэ
сүһүөҕэ
сүһүөҕэр
сүһүөҕүн
сүһүөҕүнэн
сүө
сүөгэи
сүөдэр
сүөл
сүөһү
сүөһүгэ
сүөһүлэр
сүөһүлэри
сүөһүлэрин
сүөһүлэртэн
сүөһүлэрэ
сүөһүлээх
сүөһүлүү
сүөһүнэн
сүөһүнү
сүөһүттэн
сүөһүтэ
сүөһүтүгэр
сүөһүтүн
сө
сөб
сөбүгэр
сөбүи
сөбүлэспит
сөбүлэспиттэр
сөбүлэспэт
сөбүлэспэттэр
сөбүлээбит
сөбүлээбитин
сөбүлээбэккэ
сөбүлээбэт
сөбүлээбэтин
сөбүлээбэттэр
сөбүлээбэттэрин
сөбүлээбэттэрэ
сөбүлээн
сөбүлээһин
сөбүлэҥ
сөбүлэҥи
сөбүлэҥин
сөбүлэҥинэн
сөбүлэҥэ
сөбүлэҥэр
сөбүлэҥҥэ
сөбүлэһии
сөбүлэһиилэрэ
сөбүлэһэллэр
сөбүлэһэн
сөбүлэһэр
сөбүлүү
сөбүлүүллэр
сөбүлүүллэрэ
сөбүлүүр
сөбүлүүрэ
сөбүлүүрүн
сөбүн
сөбүттэн
сөбө
сөдүөт
сөк
сөкүүндэ
сөкүүндэҕэ
сөмүи
сөмүлүөт
сөмүлүөтэ
сөмөлүөт
сөп
сөпкө
сөпсөспөт
сөптөөх
сөптөөхтүк
сөптөөҕүн
сөптөөҕө
сөргүтэн
сөргүтэр
сөргүтэргэ
сөргүтүллүбүт
сөргүтүллүбүтэ
сөргүтүү
сөрүүн
сөрүө
сөтүөлүүр
сөтөл
сөтөлгө
сөхтөрөр
сөҕүмэр
сөҕө
сөҕөн
сөҕөр
сөҥүү
сөҥөн
т
та
таа
таабырын
таабырыннар
таабырыннара
тааи
таал
таала
таан
таарбаҕан
таары
таарыи
таас
тааска
таастаах
таастан
таастар
таастара
таастарга
таастары
таастарын
таастарынан
таатта
тааттаҕа
таах
тааҕы
тааҥка
тааһа
тааһаҕар
тааһы
тааһын
тааһынан
таба
табаар
табаара
табаардары
табаардарын
табаары
табаарын
табаарыс
табаарыстара
табаарыстарын
табаарыстыба
табаарыһа
табаах
табаахсыт
табааҕы
табак
табалаах
табалар
табалара
табан
табаны
табата
табатык
табатын
табах
табаҕа
табаҕы
табаһыт
табаһыттар
таблица
таблицаҕа
таблице
таблицу
таблицы
табыгастаах
табыгастаахтык
табыгаһа
табык
табыллан
табыллар
[...]
