!
"
#
##0
##1
##10
##11
##12
##13
##14
##15
##16
##17
##18
##19
##2
##20
##21
##22
##23
##24
##25
##26
##27
##28
##29
##3
##30
##31
##32
##33
##34
##35
##36
##37
##38
##39
##4
##40
##41
##42
##43
##44
##45
##46
##47
##48
##49
##5
##50
##51
##52
##53
##54
##55
##56
##57
##58
##59
##6
##60
##61
##62
##63
##64
##65
##66
##67
##68
##69
##7
##70
##71
##72
##73
##74
##75
##76
##77
##78
##79
##8
##80
##81
##82
##83
##84
##85
##86
##87
##88
##89
##9
##90
##91
##92
##93
##94
##95
##96
##97
##98
##99
$
%
&
'
(
)
*
+
,
-
.
/
0
00
000
001
002
00346
004
007
01
0122
0180
02
03
032332
038710
038770
04
048
05
06
07
08
083
09
0956
1
10
100
1000
10000
100000
1001
1007
101
1016
102
103
104
1049
105
1054
106
1068
107
1074
108
109
1095
11
110
1100
111
1113
112
113
1130
114
115
116
117
118
119
12
120
1200
1204
1209
121
122
1220
1224
1227
1229
123
1234
1235
1236
1238
124
1240
1241
1242
1248
125
1250
126
1260
1266
127
1270
128
1280
129
1291
1293
13
130
1300
1308
131
1310
1313
132
1320
1325
133
1337
134
1340
1341
1342
1347
1348
135
1357
1359
136
1360
1361
1363
1367
1368
137
1370
1375
1377
138
1380
1382
1386
1389
139
1399
14
140
1400
1402
1405
1406
141
1411
1415
1419
142
1420
1428
1429
143
1430
144
145
1450
1453
146
1460
1468
1469
147
148
1480
149
1492
1493
1494
1495
1499
15
150
1500
1502
1506
1509
151
1510
1519
152
1520
1521
153
1530
1533
154
1547
155
1550
1552
1555
1556
1558
156
1560
1563
1564
1566
1568
1569
157
1570
1571
158
1581
1582
1583
1584
1585
1586
1587
1588
1589
159
1590
1592
1594
1596
1597
1598
16
160
1600
1601
1603
1604
1605
1606
1607
161
1610
1612
1613
1616
1618
1619
162
1620
1622
1626
163
1630
1631
1632
1633
1634
1635
1636
1637
1638
1639
164
1640
1641
1642
1643
1644
1645
1646
1648
1649
165
1650
1651
1652
1653
1654
1655
166
1660
1661
1667
167
1675
1676
1678
168
1680
1681
1682
1683
1687
1689
169
1690
1692
1693
1694
1695
1696
1697
1699
17
170
1700
1701
1703
1704
1705
1707
1708
1709
171
1710
1711
1712
1714
1716
1718
172
1720
1721
1722
1723
1724
1725
1726
1727
1728
173
1730
1731
1732
1733
1736
1737
1739
174
1740
1741
1742
1743
1744
1745
1746
1747
1748
1749
175
1750
1752
1754
1755
1756
1757
1758
1759
176
1760
1762
1763
1764
1765
1766
1768
1769
177
1770
1771
1772
1773
1774
1775
1776
1777
1778
178
1780
1781
1782
1783
1784
1785
1787
1788
1789
179
1790
1791
1792
1793
1794
1795
1796
1797
1798
1799
18
180
1800
1801
1802
1803
1804
1805
1806
1807
1808
1809
181
1810
1811
1812
1813
1814
1815
1816
1817
1818
1819
182
1820
1821
1822
1823
1824
1825
1826
1827
1828
1829
183
1830
1831
1832
1833
1834
1835
1836
1837
1838
1839
184
1840
1841
1842
1843
1844
1845
1846
1847
1848
1849
185
1850
1851
1852
1853
1854
1855
1856
1857
1858
1859
186
1860
1861
1862
1863
1864
1865
1866
1867
1868
1869
187
1870
1871
1872
1873
1874
1875
1876
1877
1878
1879
188
1880
1881
1882
1883
1884
1885
1886
1887
1888
1889
189
1890
1891
1892
1893
1894
1895
1896
1897
1898
1899
19
190
1900
1901
1902
1903
1904
1905
1906
1907
1908
1909
191
1910
1911
1912
1913
1914
1915
1916
1917
1918
1919
192
1920
1921
1922
1923
1924
1925
1926
1927
1928
1929
193
1930
1931
1932
1933
1934
1935
1936
1937
1938
1939
194
1940
1941
1942
1943
1944
1945
1946
1947
1948
1949
195
1950
1951
1952
1953
1954
1955
1956
1957
1958
1959
196
1960
1961
1962
1963
1964
1965
1966
1967
1968
1969
197
1970
1971
1972
1973
1974
1975
1976
1977
1978
1979
198
1980
1981
1982
1983
1984
1985
1986
1987
1988
1989
199
1990
1991
1992
1993
1994
1995
1996
1997
1998
1999
2
20
200
2000
20000
2001
2002
2003
2004
2005
2006
2007
2008
2009
201
2010
2011
2012
2013
2014
2015
2016
2017
2018
2019
202
2020
2021
2022
203
204
205
206
207
208
2088
209
21
210
2100
211
212
213
214
215
216
2168
217
218
219
22
220
2200
2205
221
222
223
224
225
226
227
228
229
23
230
2300
231
232
233
234
235
236
237
238
239
24
240
2400
241
242
243
244
245
246
247
2475
248
249
25
250
2500
251
252
253
254
255
256
257
258
259
26
260
261
262
263
264
265
266
267
268
269
2696
27
270
271
272
273
274
275
276
277
278
279
28
280
2800
281
282
283
284
285
286
287
288
289
29
290
291
292
293
294
2947
295
296
297
298
299
2999
3
30
300
3000
301
302
303
304
305
306
307
308
309
31
310
311
312
3120
313
314
315
316
317
318
319
32
320
321
322
323
324
325
326
327
328
329
33
330
331
332
333
334
335
336
337
338
339
34
340
341
342
343
344
345
346
347
348
349
35
350
3500
351
3514
352
353
354
355
356
357
358
359
36
360
361
362
363
364
365
366
367
368
369
37
370
371
373
374
375
376
377
378
379
38
380
381
382
383
384
385
386
387
388
3880
389
39
390
391
392
395
396
398
399
4
40
400
4000
403
404
405
406
408
409
41
410
411
413
414
415
416
418
42
4217
422
423
424
425
426
427
428
429
43
430
431
432
433
434
437
438
44
440
444
445
446
447
448
449
45
450
4500
451
452
453
455
456
457
458
459
46
460
461
463
464
466
467
469
47
470
471
473
475
476
478
479
48
480
484
485
486
487
488
49
490
492
495
496
499
5
50
500
5000
501
502
506
51
512
515
517
52
520
521
523
527
528
53
530
532
533
534
537
54
540
542
544
546
55
550
552
554
558
56
560
564
567
57
570
575
576
57863
58
580
581
582
583
585
587
589
59
590
592
595
597
6
60
600
6000
601
603
604
605
606
607
61
610
614
616
618
62
624
627
628
63
630
632
633
634
636
64
640
641
642
644
648
65
650
653
66
661
664
665
67
670
674
675
68
680
69
7
70
700
7000
701
71
710
711
718
72
720
73
735
736
737
74
747
75
750
751
752
756
759
76
760
762
767
768
7696
77
770
771
775
78
780
781
7863
79
795
796
8
80
800
8000
801
81
810
814
82
83
830
84
840
844
847
85
850
85270
86
860
864
87
870
872
87444
88
880
89
9
90
900
91
917
92
93
930
933
94
945
95
950
954
96
960
965
97
970
975
978
98
985
987
99
9965
998
999
:
;
<
=
>
?
@
[
\
]
^
_
`
a
aa
aaha
aahan
aahar
aajy
aakhmedova
aan
aartyk
aas
aat
aata
aattaan
aattaaq
aattammyt
aattanan
aattanar
aattarynan
aattatalaan
aaty
aatyn
aatynan
ab
abaahy
abc
about
ac
academia
academic
academies
academy
accaghar
access
accessed
according
act
action
activision
actor
ad
adam
add
address
advanced
advantour
ae
aeroflot
af
affairs
africa
african
after
ag
against
age
agency
agha
aghaj
aghalan
aghalara
agham
aghata
aghatyn
aghyjaq
aghys
ah
aha
ahaan
ahara
ahatar
ahyy
ai
air
airbus
airlines
airport
ajannaan
ajaq
ajmaq
ajyy
ak
al
ala
alaas
alaaska
alan
albert
albrecht
album
albums
aldan
alexa
alexander
alghaan
algystaaq
all
allan
allara
allen
alpha
also
alt
alta
altan
altynnjy
alys
am
amazon
america
american
amma
ampaar
amsterdam
an
analysis
anas
ancient
and
andreas
andrew
android
angaar
animation
ann
annjan
annual
annygar
another
any
ap
app
apple
applications
april
aqsyn
ar
araas
araj
architecture
archive
archived
archivedate
archives
arctic
ardygar
are
area
ares
argentina
arghaa
armstrong
around
array
art
arthur
article
articles
artist
arts
aryy
aryylaaq
as
ashoka
asia
asian
asp
asset
association
astaan
at
ata
atagha
ataghyn
ataghynan
atahym
ataq
atlas
attaaq
attary
attempt
attygar
aty
atyn
atynan
atyrdjaq
atyyr
au
audi
august
australia
australian
author
auto
aviation
award
awards
ax
azerbaijan
b
ba
baaj
baaja
baajdaaq
baajga
baajyn
baallar
baallara
baar
baara
baarygar
baaryn
baattar
baatyr
bacca
bach
bacygyratar
bad
badjaajy
baghajy
baghar
bahygar
bahylyk
bahyn
bajaghantaj
bajan
bajar
bajyttyman
balaghan
balary
balyktaan
banco
bang
bangladesh
bank
bar
bara
barallar
baran
barannar
barar
barbyt
barcelona
barda
barefoot
bary
baryjaana
baryta
barytyn
bas
based
basic
bastaan
bastyng
batahyn
batahynan
batary
batas
battle
batyhan
batyjanan
bb
bbc
bc
bd
be
beatles
before
begin
beginning
beje
bejelere
bejete
bejetin
bekke
bell
ben
benz
berde
bergen
berke
berlin
bert
bes
best
bet
between
bf
bhatt
bie
bierbit
bierde
biereller
bieren
bierer
big
bihi
bii
biir
biirde
biirderin
biirge
biiter
bilbet
bile
bilen
biler
bili
biligi
biligin
biliginen
bilii
billboard
biller
billibet
bin
bio
biographies
biography
bir
birth
bkash
black
blackrock
blica
blizzard
blog
blood
bloomberg
blue
bmw
bo
board
body
boeing
bokuoja
bologur
bolt
boltongo
boluotunan
book
books
bootulu
bootur
born
boroghon
boroghonngo
boston
bot
box
boy
boys
break
bridge
brill
britannica
british
broadcasting
bros
brothers
bruce
bt
bu
budapest
buka
bulan
bulcut
bulgunnjaq
bull
bulletin
bullu
bullunan
bultaan
bultuu
bunker
buol
buola
buolallar
buolallara
buolan
buolannar
buolar
buolara
buolbat
buolbut
buolbuttar
buolla
buollagha
buollaghyna
buollar
buollun
buolta
buoltar
buoltara
buolun
buoluo
buoluoq
buoluoqtaaq
buoluoqtara
buor
buqatyyr
bureau
bush
business
but
bwodjoko
bwodong
bwogho
bwoghonu
bwoghos
bworo
bwotung
bwotungner
bwuluu
bwuluuge
bwutun
by
bya
bydjang
byha
byhyj
byhyta
byhyylaaq
byhyytynan
byjang
bylyr
bylyrgy
bylyrgyta
byraghan
byraghar
bystan
byyhygar
byyhynan
c
ca
cadillac
calendar
california
call
callaajy
called
cambridge
can
canada
canadian
capital
capreolus
card
care
carex
case
cases
casio
cat
category
cc
cctv
cd
cdot
cdots
ce
census
center
centerdot
central
centre
century
ceo
cervus
cf
ch
cha
change
channel
charity
charles
chart
charts
chase
chemical
chemistry
chernobyl
chevrolet
chicago
children
china
chinese
christian
christoph
christopher
ci
cia
cite
cities
city
civil
cl
class
climate
club
co
coca
code
coins
cola
collection
college
columbia
com
commission
committee
common
commons
community
companies
company
complete
computer
conference
conflict
congress
constitution
content
control
coordinates
coqunaj
corboghor
coregonus
corona
coroonnooq
corp
corporate
corporation
correspondence
corvus
cos
council
counter
countries
country
cov
covid
craig
creative
credit
cross
crow
cu
cuba
cultural
culture
cup
curapcy
cygnus
d
da
daewoo
daghany
daily
dajdy
dajdyga
dal
dance
daniel
daqqan
dark
das
data
database
date
david
day
dc
ddots
de
death
december
del
delbi
delta
den
department
depression
der
des
descendants
design
desihen
deutsche
development
di
dialogue
diary
dic
dictionary
die
dieki
diekitten
dien
dieni
dienner
diennge
dienten
dieri
dies
digital
dii
diir
discovery
disease
disney
displaystyle
division
dj
djaangy
djadangy
djaqtar
djaqtary
dje
djie
djieghe
djieleriger
djielerin
djietiger
djietin
djiibergeen
djollooq
djon
djonngo
djonnooq
djonnor
djonnordooq
djonnoro
djonnoru
djonnoruttan
djono
djonton
djonu
djonun
djonunuun
djonuttan
djulajan
djwolo
djwuhunneeq
dmitrij
do
doc
document
does
dog
doghoor
doghor
doi
dojdu
dojduga
dojdunu
dojduta
dojdutugar
domain
don
donald
donn
dos
dots
dq
dr
dream
ds
du
duet
duo
during
dutch
duty
duu
dvd
dwokso
dygyn
dygynnaaq
dygynnga
dygyny
dyly
dyson
e
ea
early
earth
east
ebe
ebii
ebikkin
ebit
ebite
ebitter
ebittere
economic
economics
economist
economy
ed
edersaas
edited
edition
eds
edu
education
educational
edward
ee
ehi
ejigin
ekkireten
ekkireter
el
elbeq
electric
electronic
electronics
elements
ellej
ellejge
elleji
elvis
embrace
eme
emeeqsin
emeeqsine
emie
emiske
emperor
empire
en
encyclopedia
encyclopædia
end
energy
enger
engin
engineering
england
english
eniac
enterprise
entertainment
entrepreneur
entrepreneurs
entrepreneurship
environment
eppit
eppitin
er
erde
erdeghine
ere
erer
ergije
ergijen
ergillen
erien
ernst
error
es
esa
espan
est
estimates
et
ete
eteller
eten
eter
etf
ethnic
ethnologue
etiger
etin
eu
europe
european
evolution
ex
exchange
executive
exh
experience
express
f
face
facebook
fact
factbook
facts
false
family
faq
father
fe
february
federal
federation
feed
festival
fi
fiat
field
fifa
figures
file
film
films
financial
fire
first
five
flag
florence
fm
food
football
for
forbes
ford
foreign
form
formatproperty
fortran
fortuna
fortune
forum
fossil
foundation
founder
four
fox
fr
frac
franc
france
francisco
frank
free
french
friedman
friedrich
friend
friends
from
front
fu
full
fund
future
g
ga
galaxy
gallery
game
games
ganesh
gdp
ge
general
generation
geo
geographic
george
georgia
georgian
german
germany
geschichte
get
gif
girl
girls
given
gks
glass
global
gm
gmbh
gnu
go
gogh
gold
golden
goldman
gone
good
google
gosspravka
gov
government
grameen
grammar
grand
great
greek
green
group
groups
growth
gsm
gt
gu
guardian
guide
gulo
gyna
gynan
h
ha
halantul
half
hall
hand
handbook
hard
harry
harvard
has
have
hcl
hd
he
head
health
heart
heavy
hello
henri
henry
her
hero
herz
heuberger
hi
high
higher
hill
his
historical
history
hl
hno
ho
hokusai
holdings
holidays
holocaust
holy
home
honda
house
houston
how
hp
href
htm
html
http
https
hu
huawei
hui
human
hundred
i
iaaf
iata
iau
ibm
ic
icao
iccite
ice
id
ie
if
ihe
ihen
iher
iherin
ihiger
ihiller
ihin
ihineeghi
ihineeghitiger
ihitin
ihitten
ii
iii
iin
iitinen
ij
ijelere
ijete
ijetin
ikki
ikkien
ikkihin
ikkis
il
ilbihi
ilbis
ildje
ildjen
ile
iligine
iliitiger
iliitin
iliitinen
ilin
im
images
imdb
immigration
impact
in
inc
including
independent
index
india
indigenous
indonesia
indriver
industrial
industries
info
infobox
information
ini
initiative
inniger
innine
innovators
instagram
institute
int
intel
intelligence
interactive
internacional
international
internationale
internet
interview
into
introduction
invest
ioc
ios
ip
ipa
ipad
iphone
ipo
ipod
ippone
iran
iraq
iris
is
isbn
isis
islamic
island
islands
iso
ispit
ispitter
issn
issue
istanbul
iste
isteghine
isten
isterim
it
italian
iti
itinen
its
itunes
iv
ix
j
ja
jackson
jakutskaj
james
jan
january
japan
japanese
java
jay
jeada
jean
jfk
ji
jo
john
jonathan
jones
jose
joseph
journal
journe
jpg
jpl
jr
july
jun
june
just
k
ka
kara
karl
kebiheller
kebihen
kebiher
kebis
kebiste
kel
kelbit
kele
keleller
kelen
kelenner
keler
kelimse
kelle
kellim
kem
keme
kemiger
kemnge
kemten
keneghes
kenne
kenneki
kenneth
kenniki
kennileritten
kennitten
kennje
kennjeler
kepseen
kepseten
kepsiir
kergen
keriete
kerije
ketehen
keten
keterden
kg
ki
kids
kiehe
kielburger
kieng
kiev
kihi
kihieqe
kihileeq
kihilere
kihilerin
kihiliin
kihini
kihite
kihitiger
kihitin
kihitten
kiirbit
kiireller
kiiren
kiirer
kiis
killem
killeren
kim
king
kingdom
kini
kinieqe
kiniler
kinilerge
kinini
kinitten
kino
km
known
ko
korea
korean
korrika
kp
ku
kugas
kuhaghan
kujaq
kulun
kumamoto
kuorat
kuotan
kuraaqtaaq
kurduk
kurien
kus
kutan
kuttanan
kuturuga
kuturuk
kwoccoq
kwodogoj
kwohon
kwojgo
kwoluje
kwono
kwootto
kwoottoro
kwoqsun
kwor
kworbute
kwordoghune
kwordohor
kworduon
kworduuller
kworduur
kworo
kworollor
kworon
kworoot
kworor
kworungneeq
kwostokuun
kwostor
kwoton
kwotor
kwuhengej
kwuhun
kwun
kwune
kwuolge
kwuolj
kwuolu
kwuon
kwuoq
kwureen
kwutur
kwuusteeq
kyajan
kyajbyt
kyhyl
kyhyn
kylyy
kymyhy
kymyhyn
kymys
kyra
kyrdjaghas
kyrdjyk
kyrgan
kyrgyha
kyrgyhyy
kyrgys
kyrynaastyyr
kytaanaq
kytta
kyushu
kyyha
kyyhy
kyyhyn
kyyl
kyyran
kyys
kyystaaq
kz
l
la
lab
laboratories
labyngqa
lake
land
lang
language
languages
las
last
late
latin
laureates
lauren
law
ldots
le
leader
leaders
leadership
learning
leccinum
lee
left
leiden
lenta
leonardo
les
let
letters
lexus
lg
li
liberty
library
libreoffice
life
light
like
limited
lincoln
linda
line
lines
linguistics
linkedin
linux
list
literature
little
live
lives
ll
lo
local
log
london
long
lord
los
lost
louis
love
lt
ltd
lu
lua
ly
m
ma
maany
maanylaan
maanylyyr
mac
machine
macos
made
magazine
maghan
magic
mahy
mahyn
mail
main
majgy
majgynynan
major
make
making
man
management
manan
mandela
mangnajgy
manna
mannyk
mannyktar
mantan
manual
many
manyaqa
map
marc
march
maria
marie
mark
market
markets
mars
martin
marx
mas
maska
master
mastercard
mathcal
mathematics
mathsf
matisse
max
maxthon
may
mazda
mcgraw
me
medal
media
medicine
meele
men
menge
mercedes
merriam
meta
metropolitan
mexico
mg
mi
michael
michelangelo
micro
microeconomics
microfinance
microsoft
middle
mieqe
miigin
miinen
million
milton
min
minge
ministry
miss
mit
mitsubishi
mitsui
mn
mo
mobile
model
modern
modjugu
modjukaan
moeobrazovanie
mondiale
monedas
monetary
money
mongodb
mongool
moon
more
moscow
most
motion
motor
motors
mountain
movement
movie
movies
mp
mr
ms
msk
msn
mt
mtv
mu
mugur
mundial
munnjan
muntiacus
muoha
muos
museo
museum
music
must
mustan
muus
mwocoko
mwondukeen
mwuru
mwuruge
my
myraan
myspace
mytona
n
na
naaqara
naaqaralar
naaqaralartan
naaqaralary
naar
nam
name
names
narod
nasa
nasdaq
naslegy
nat
nation
national
nations
nato
natural
nature
nbsp
nd
ne
ned
need
nehiliege
nehiliek
nelson
neq
nervus
nes
net
netflix
network
new
newman
news
nezami
ng
ngc
ni
nickelback
nickelodeon
night
nil
nine
nintendo
nissan
njuucca
njykaa
njyky
njyrbakaan
no
nobel
nobelprize
node
nokia
nominated
non
north
northern
not
note
notes
november
now
nr
nu
number
nuucca
nuuccalar
nvidia
ny
nyse
nytimes
o
occogho
occotooghu
october
of
off
office
official
og
ogho
ogholor
ogholoro
oghom
oghonnjor
oghonnjordooq
oghonu
oghorduk
oghoto
oghotun
oghu
oghun
oghunan
oghus
oh
ohoq
oil
ojogho
ojon
ojoq
ojoqtooq
ojuun
ojuuna
ojuunu
ol
old
oloccu
ologho
ologhor
ologhun
ologhuttan
olootto
oloottor
oloq
oloqsujan
oloqsujar
oloqtooq
olor
olorbut
olordoghuna
olordon
olordoqtoruna
oloro
olorollor
oloron
oloror
olorton
oloru
olus
olympic
olympics
omoghoj
omoghojdooq
omoghojgo
omolloon
omolloonu
omuk
on
one
oneplus
ongoron
ongostollor
ongoston
ongostor
ongottuur
online
only
onno
onnugar
onnuk
onoghoj
onon
onton
ontukata
onu
onuoqa
oo
oojnuu
oojnuuga
oojnuur
op
open
opera
option
oq
oqson
oqton
oqtoro
oqtorun
or
order
ordon
orduk
org
organization
origin
original
origins
orojuona
ortotugar
ortotunan
os
ot
other
otto
otton
our
out
over
overrightarrow
overview
own
ox
oxford
p
pa
page
pages
palgrave
panasonic
paper
papers
par
parameter
paris
park
part
partnership
paul
pc
pdf
people
peoples
per
permanent
personal
peter
pg
php
physics
physiology
pi
pictures
pizza
place
play
playstation
please
plus
pm
pmatrix
pmid
png
po
poem
point
pole
policy
polish
political
politics
poor
pop
population
post
postal
potter
pour
power
pp
pr
president
press
prime
prince
princeton
principles
print
prize
pro
proceedings
profile
program
project
projects
prospects
ps
pt
pub
public
publications
publishers
publishing
put
px
q
qaajan
qaalallar
qaalan
qaalar
qaalbyt
qaalla
qaallaran
qaalta
qaaltar
qaama
qaan
qaana
qaannaaq
qacygyr
qahan
qaja
qajagha
qajalara
qajtaq
qajyyjagha
qallaan
qalyng
qamnaan
qamnaccyt
qamnyyr
qanga
qangalas
qangas
qanna
qara
qaragha
qaraghyn
qarany
qas
qat
qata
qatanan
qatyly
qatyng
qohoon
qojuu
qojuut
qolbohon
qolkuostaaq
qonnoghun
qono
qonon
qonuuga
qonuutugar
qor
qoro
qoton
qotu
qotuja
qotun
que
queen
quot
r
ra
radio
raex
ranking
rankings
rating
ratings
raven
razde
rd
re
real
reckitt
record
records
red
ref
reference
references
region
relations
release
renaissance
renat
renault
report
repu
republic
republika
rer
res
research
resident
resources
results
retrieved
reuters
review
revision
revolution
ri
ricardo
richard
right
rights
rio
rise
river
rk
ro
robert
rock
role
roman
ron
ronald
roshaneh
rottenberg
route
routledge
roy
royal
rs
ru
rubens
rus
ruslat
russia
russian
ryan
s
sa
saa
saadaq
saahygar
saahyn
saamaj
saanan
saas
saastaaq
saata
saatyn
saba
safety
saga
sagha
saghana
sah
saha
sahan
saint
sajyn
sakha
sakhalife
sakhalit
sakhanews
sakhapress
sakhatyla
sam
samasource
sampah
samsung
san
sanaan
sanga
sangata
santa
sanyy
sanyyr
saqa
saqagha
saqalar
saqalary
saqany
saqsary
saqsaryga
sars
sassyarda
sataan
satammat
satyy
says
school
schwab
science
scientific
se
sea
search
sebe
second
seconds
secret
section
see
sehen
seheni
select
selected
self
sen
senior
sep
september
series
serii
seriige
seriihit
seriileeq
seriite
seriitin
service
sette
seven
sex
sh
shanghai
share
she
sheet
shizuoka
shop
short
show
shtml
si
sie
sielleeq
siemens
sien
sieten
sims
sin
singapore
sir
sirderiger
sirderin
sire
sirejge
sirge
siri
siriger
sirin
sirinen
sirten
sister
site
siten
sites
sitteghine
sk
skoll
sks
small
smith
sn
so
sochi
social
society
softbank
software
soghoruu
soghotoghun
soghotoq
soghotoqto
soghus
sohujan
sol
solar
some
son
sonno
sony
soroq
soroqtoro
sotoru
soundtrack
source
south
soviet
space
spanish
special
species
specify
spoken
sport
sports
spp
springer
sr
st
standard
star
start
state
states
statistical
statistics
stephen
still
stock
stone
store
stories
story
street
strike
stub
studies
studio
studios
study
style
su
subjects
sum
sumerian
sumitomo
summer
sun
suogha
suol
suola
suollaan
suollara
suolun
suon
suoq
super
support
survey
susan
sustainability
sutter
suullaran
svg
swift
swoghon
swop
swugen
swuohu
swuohuleeq
swuohulerin
swuohuluun
swuohunu
swuohute
swuohutun
swupsuk
swurdeeq
swurun
swuten
swuurden
swuuren
swuurer
swuuruk
syal
syba
syddjan
sygynnjaq
syhyy
syl
syldjan
syldjar
syldjybyt
sylgy
syllaaghyta
syppaj
syssan
system
sytan
sytar
syttaghyna
syyha
t
ta
taas
taatta
taban
table
tables
tahaaran
tahaarar
tahygar
tahynan
tahyttan
tajan
tajma
take
tangnary
taptaan
taqsa
taqsallar
taqsan
taqsar
taqsybyt
tarbyaq
tardan
tas
tastarygar
tataar
taylor
te
teach
team
tech
technology
tehe
tejen
telegraph
television
tenge
terijen
terijer
territories
teskileen
tesla
text
th
than
that
the
theft
their
then
theory
there
these
they
things
this
thomas
three
through
thumb
ti
tice
tiere
tietejbit
tihikeen
tiije
tiijen
tiikke
tiis
tiit
tiiti
time
times
timir
tiriite
tiriitin
title
to
tobulu
today
togho
toghus
tohujan
tojon
tojono
tojonu
tokyo
toloon
toloru
tom
tong
tongus
tongustar
top
toqoru
toqtoon
toqtuur
total
touch
tour
town
toxoplasmosis
toyota
tozun
tr
track
trade
translated
translatedate
travel
tre
true
tu
tugu
tuhunan
tula
tulaajaq
tumul
tuoj
tuoka
tuoq
tuora
tuoraan
tuos
tupputunan
turallar
turan
turar
turaryn
turbut
turdaghyna
turkey
turkic
turkish
turks
turuoran
turuorar
tuspa
tutan
tuttan
tuttaran
tv
twitter
two
twobotun
twoguruk
twoho
twonnollor
twonnon
twonnor
twonun
twordo
tworduger
tworoloj
tworuobut
tworuon
tworut
tworuttere
tworuur
twottoru
twubehen
twuhe
twuheet
twuheller
twuhen
twuher
twuheren
twuherer
twuhulge
twuhunen
twune
twuort
twusput
twuuleeq
twuun
twuute
tya
tyagha
tyaha
tyahyn
tyal
tygyn
tygynnaaq
tygyny
tyl
type
tyynnaaq
u
ua
ubaja
ubuntu
ucheba
udaghan
uefa
ugan
uhu
uhun
uk
ukraine
ukrainian
ulaqan
ulaqana
ullungaq
uluu
uluuha
uluuhun
uluus
umsa
umsan
un
und
under
undp
unesco
unguogha
unguoghun
unguoq
unguor
unguorgu
unicode
union
unit
united
universal
universitet
universities
university
unix
uokka
uol
uola
uolattar
uolattara
uolattardaaq
uolattaryn
uollaaq
uolu
uolun
uon
uonna
uoran
uordajan
uot
uota
uottaan
uottaaq
uotun
up
update
uraanaj
uraangqaj
uraha
urahagha
urahalaryn
urahanan
urahatyn
url
uruk
urukku
uruu
us
usa
use
used
uses
using
ustan
ustar
ustun
utary
utc
utuja
utujan
uu
uuga
uuha
uuhun
uuhuur
uunan
uuran
uus
uutun
uz
uzbekistan
v
va
value
van
var
varnothing
vdots
ve
vec
verlag
version
vhs
vi
video
vie
vienna
view
vii
viii
vikram
vincent
vinokurova
virgin
visa
vista
vittana
vivo
vk
vladimir
voka
vol
volkswagen
volume
von
vpn
vs
vuz
vuzopedia
vuzoteka
vuzov
w
wa
wall
walt
walter
war
warner
was
washington
watashi
watch
water
way
wayback
we
web
website
webster
weekly
wei
were
west
western
what
whatsapp
when
which
white
who
why
wiki
wikidata
wikidatacoords
wikileaks
wikimedia
wikipedia
wikisky
wild
wilhelm
will
william
williams
windows
wins
winter
with
without
wizard
wmf
wolbut
wolbute
wolbutun
woljtok
wolon
wolor
wolorbut
wolorollor
woloron
wolorooru
woloror
wolottoon
woluone
woluu
woman
women
wor
work
works
world
worldwide
woro
woruhu
woruhunen
worus
woruske
woruu
wottuger
wottun
wottunen
wottutten
wpp
wrestling
wu
wucugej
wugesteeq
wugus
wuhu
wulehit
wuleleen
wuluger
wunguu
wunguunen
wunguutun
wuohe
wuohee
wuohetten
wuor
wuoreghe
wuoskeebit
wuoskeebite
wuoskeen
wuoskuur
wurduger
wurduk
wurdunen
wureghi
wureq
wureqqe
wurung
wus
wuste
wutuo
wuuren
wuut
www
x
xa
xbox
xi
xiaomi
xii
xiii
xiv
xix
xls
xn
xp
xv
xvi
xvii
xviii
xx
xxi
xxii
xxiii
xxiv
xxix
xxv
xxvi
xxvii
xxx
y
ya
yahoo
yakt
yakut
yakutia
yakutsk
yal
yala
yale
yallyy
yan
yandex
yc
year
years
yhan
yhar
yhyaghar
yhyaq
yhyaqqa
yhyktan
yi
yjaan
yjaanan
yjanan
yjyn
yjytar
yksaan
ykt
yla
ylaary
ylan
ylar
ylbyt
yllyy
ynaghy
ynaghyn
ynaq
yngyran
yo
york
yota
you
young
your
youth
youtube
yppyta
yraaq
yraaqtaady
yraaqtaaghy
yrya
ysia
ystanan
yt
ytaaccy
ytan
ytar
ytyalaan
ytyhyyta
ytyk
ytyy
yu
yy
yytan
yytar
z
za
zafar
zidisha
zte
zu
zur
{
|
}
~
¡
¢
£
¤
¥
§
¨
©
«
¬
­
®
¯
°
±
²
²²
³
³³
´
µ
µµ
¶
·
¹
º
»
½
×
æ
ð
÷
ø
đ
ı
ŋ
ƶ
ƽ
ȷ
ɉ
ɔ
ə
ɛ
ɵ
ɵɵ
ʁ
ʏ
ʏɵ
ʏʏ
ʒ
ʰ
ʹ
ʻ
ʼ
ʾ
ʿ
ˈ
ˌ
ː
˚
˝
̀
́
̂
̃
̄
̆
̇
̈
̉
̊
̋
̌
̓
̔
̣
̦
̧
̨
̱
̲
̸
͂
͡
α
β
γ
γγ
δ
ε
ζ
η
θ
ι
κ
λ
μ
ν
ξ
ο
π
ρ
ς
σ
τ
υ
φ
χ
ω
а
аа
аабат
аабаттар
аабыл
аабыт
аабыта
аабыттара
аабыттарын
аабытын
аада
аадаҥ
аадырыс
аадырыстаах
аадырыһа
аадыча
ааи
аак
аакка
ааккын
аал
аала
аалаи
аалан
аалга
ааллаах
ааллар
ааллара
ааллартан
ааллары
аалларыгар
аалларын
аалларынан
аалтан
аалы
аалын
аалынан
аам
аан
аана
аангылыи
аандьы
ааннаах
ааннаи
ааннар
ааннара
ааннарын
аанньа
аанньал
аантан
аанчык
ааны
ааныгар
аанын
аанынан
ааныска
ааныстыырап
ааныттан
аао
ааппын
ааптар
ааптара
ааптардар
ааптардара
ааптардарыттан
аар
аара
аараллар
ааран
аарар
аарбыт
аарга
аардар
аардарга
аардарыгар
аарка
аармыи
аартан
аартыга
аартыгар
аартыгын
аартыгынан
аартык
аартыкка
аартыктарын
аары
аарыгар
аарыллар
аарыма
аарымыи
аарын
аарыскаи
аарыы
аарыылаах
аарыыны
аарыыта
аас
ааска
ааспакка
ааспат
ааспыт
ааспыта
ааспыттар
ааспыттара
ааспыттарын
ааспыты
ааспытын
ааста
аастар
аастахтарына
аастаҕына
аастылар
аасыи
аат
аата
аатамнаи
аатаҕына
аатта
ааттаа
ааттаабыт
ааттаабыта
ааттаабыттар
ааттаабыттара
ааттаабыттарын
ааттаан
ааттааннар
ааттаары
ааттаатахха
ааттаах
ааттаахтар
ааттаахтара
ааттааччылар
ааттааҕа
ааттааһын
ааттааһынтан
ааттааһыны
ааттаммат
ааттаммыт
ааттаммыта
ааттаммыттар
ааттаммыттара
ааттаммытын
ааттан
ааттана
ааттаналлар
ааттаналлара
ааттаналларын
ааттаналларынан
ааттанан
ааттанар
ааттанара
ааттанарын
ааттаныан
ааттаныы
ааттаныылара
ааттаныыта
ааттар
ааттара
ааттарга
ааттардаах
ааттары
ааттарыгар
ааттарын
ааттарынан
ааттарыттан
ааттатан
ааттатар
ааттах
ааттаһа
ааттаһан
ааттыахха
ааттыи
ааттыллар
ааттыы
ааттыыбыт
ааттыылар
ааттыыллар
ааттыыллара
ааттыылларын
ааттыылларыттан
ааттыыр
ааттыыра
ааттыырбыт
ааттыырга
ааттыыры
ааты
аатыгар
аатылар
аатым
аатын
аатынан
аатыр
аатыра
аатыран
аатырар
аатырбыт
аатырбыта
аатырга
аатырдар
аатырдыбыт
аатырыгар
аатырын
аатыттан
аатыыллар
аатыҥ
аах
аахаи
аахпакка
аахпат
аахпатылар
аахпыт
аахпыта
аахпыттар
аахпыттара
аахсаллар
аахсан
аахсар
аахсыбакка
аахсыбат
аахсыбаттар
аахсыи
аахтаах
аахтара
аахтахха
аахтаххына
аахха
ааччы
ааччыга
ааччылаах
ааччылар
ааччылара
ааччыларбыт
ааччыларга
ааччылартан
ааччылары
ааччыларыгар
ааччыларын
ааччыларынан
ааччыларыттан
ааччынан
ааччыны
ааччыта
ааччытыгар
ааччытын
ааччытынан
ааҕа
ааҕааччы
ааҕааччыга
ааҕааччылар
ааҕааччыларга
ааҕабыт
ааҕаллар
ааҕаллара
ааҕалларын
ааҕан
ааҕаннар
ааҕар
ааҕара
ааҕарга
ааҕарынан
ааҕы
ааҕыахха
ааҕылла
ааҕыллаллар
ааҕыллан
ааҕыллар
ааҕыллара
ааҕыллыахтарын
ааҕыллыбат
ааҕыллыбыт
ааҕыллыбыта
ааҕын
ааҕыналлар
ааҕынан
ааҕынар
ааҕыталаан
ааҕыы
ааҕыыга
ааҕыынан
ааҕыыннан
ааҕыытынан
ааҥл
ааҥллыы
ааҥнаан
ааҥыл
ааҥыллыы
ааҥҥа
ааһа
ааһаллар
ааһаллара
ааһалларын
ааһан
ааһар
ааһара
ааһарыгар
ааһарын
ааһыан
ааһыар
ааһыахтаах
ааһыаҕа
ааһын
ааһына
ааһыннаан
ааһыннаах
ааһыннара
ааһыннарын
ааһыны
ааһыныгар
ааһынын
ааһынынан
ааһыныттан
ааһыыта
ааһыытыгар
ааһыҥҥа
аб
аба
абаа
абаарыи
абааһы
абааһыга
абааһылаах
абааһылар
абааһылара
абааһыларга
абааһылартан
абааһылары
абааһыларынан
абааһынан
абааһыны
абааһыта
абааһыттан
абаи
абакан
абалаах
абалык
абар
абаран
абарбыт
абарыы
абата
абатын
абаҕа
абаҕата
абаҕатыгар
абаҕатын
абаҕаҕа
абаҕыыныскаи
абдрахманович
абдул
абдулла
абдьы
аборт
абраам
абрамов
абрамова
абрамович
абсолютнаи
абстрактнаи
абу
абулхаи
абулхаир
абхазия
абыи
абылаи
абылана
абылыанньа
абын
абыраа
абыраллаах
абыраналлар
абырах
абырахтаммат
абырахтанан
абырыыр
абыс
абыт
абытаи
абыычаи
ав
авар
авардар
авария
аввакумов
аввакумова
авг
август
августа
августина
авдеева
авиа
авиакомпания
авиакомпанията
авиахампаанньа
авиахампаанньата
авиационнаи
авиация
авиациятын
авксентии
авраам
аврора
австралия
австралияттан
австралияҕа
австрия
австрияҕа
австро
авт
автобиографическаи
автобус
автобуска
автобустар
автомат
автоматическаи
автомобиль
автомобильнаи
автономия
автономиялаах
автономияны
автономиятын
автономнаи
автономная
автономнои
автор
автора
автордар
автордара
автореф
автореферат
авториз
авторскаи
ага
агаджанян
агата
агафья
агенство
агенствота
агент
агентство
агиик
агики
агитационнаи
агитация
агитацияҕа
агму
агния
аграрнаи
аграфена
агрикултуура
агроном
агронома
агрофирма
ад
ада
адаар
адаарыи
адам
адамов
адамова
адамс
адан
адаптации
адвокат
аджи
административнаи
административно
администрации
администрация
администрацията
администрациятын
адмирал
адмирала
адо
адольф
адреналин
адыаччы
адыгея
адыи
адыыг
адьараи
адьас
адьырҕа
аз
азаров
азбука
азерб
азербаи
азиатскаи
азиз
азии
азия
азияны
азиятааҕы
азияттан
азияҕа
азов
азот
азра
азс
аи
аиза
аирпорт
аита
ак
ака
акаары
акад
академига
академии
академик
академика
академическаи
академическии
академическэи
академия
академияларын
академияны
академията
академиятыгар
академиятын
академияҕа
акадьыамыга
акадьыамыи
акадьыамык
акана
акаси
акбар
аким
акимов
акимова
акимович
акира
акка
аккаастаан
аккаастаммыт
аккаастаммыта
аккаастанан
аккаастанар
аккаастаныы
аккад
аксаков
аксения
аксу
акт
акте
актер
актера
активист
активнаи
актриса
актрисата
актуальнаи
актуальные
актыыбынаи
акула
акулина
акутагава
акушер
акционернаи
акция
акциялара
акцияларын
акцията
акциятын
акы
акыи
акылаат
акын
ал
ала
алаа
алаабыта
алаадьы
алаама
алаан
алааппыи
алаас
алааска
алаастан
алаастар
алаастара
алаастарга
алаастары
алаастарыгар
алаастарынан
алаах
алаахтар
алааһа
алааһы
алааһыгар
алааһын
алааһынан
алааһыттан
алабама
алаи
аламаас
аламаи
аламаҕаи
алампа
алан
аланан
аланар
алар
алара
аларга
алардаах
алартан
алары
аларыгар
аларын
аларынан
аларыттан
аласов
алатау
алахчын
алаш
алаҕар
алаһа
алаһыаи
албан
албания
албанияҕа
албаннар
албас
албастаах
албын
албына
албыннаабакка
албыннаабыт
албыннаама
албыннаан
албыннаары
албыннааһын
албыннааһыны
албыннааһыҥҥа
албыннарыгар
албыннатан
албынныы
албынныыллар
албынныыр
албынныырга
албыны
албыныгар
албыҥҥа
алгебра
алгебраическаи
алгебраҕа
алгыс
алгыска
алгыстаах
алгыстарын
алгысчыт
алгыы
алгыыр
алгыһа
алгыһы
алгыһын
алгыһынан
алдан
алданзолото
алданнааҕы
алданскии
алданского
алдантан
алдаҥҥа
алдьаммат
алдьаммыт
алдьаммыта
алдьанан
алдьанар
алдьанна
алдьаннаҕына
алдьаныы
алдьаныыта
алдьаныытын
алдьаппакка
алдьаппат
алдьаппыт
алдьархаи
алдьата
алдьаталлар
алдьатан
алдьатар
алдьатара
алдьаттахха
алдьатыма
алдьатыы
алдьатыыга
алдьатыылаах
алдьатыылары
алдьатыыны
алдьахаи
алекперов
александр
александра
александров
александрова
александрович
александровка
александровна
александровскаи
алексеев
алексеева
алексеевич
алексеевна
алексеевскаи
алексеи
алексии
алеут
алеша
алжир
али
алиев
алиса
алишер
алкалоид
алкалоидтар
алкивиад
алкоголизм
алла
аллаах
аллаи
аллан
аллар
аллара
аллараа
алларааттан
алларааҥҥы
алларанан
алларастаама
алларыгар
алларын
алларынан
алларыттан
аллах
алма
алмаа
алмаас
алмааска
алмаастаах
алмаастара
алмааһы
алмааһын
алмаз
алмазы
алмамбет
алмас
алматы
алп
алпаабыт
алпаабыта
алпаабытыгар
алпаабытын
алпаабытынан
алпабыыт
алпабыыта
алпабыытыгар
алпабыытын
алпабыытынан
алроса
алсу
алт
алта
алтааи
алтаан
алтае
алтаи
алталаах
алтан
алтаннаах
алтантан
алтаны
алтата
алтатын
алтая
алтаҥҥа
алтун
алты
алтын
алтынньы
алтынньыга
алтынньыттан
алтынньытыгар
алтынньытыттан
алтынсарин
алтыс
алтыспыт
алтыһан
алтыһар
алтыһыы
алфавит
алфавита
алфавитынан
алшыннар
алы
алыбыгар
алын
алып
алыптаах
алыс
алыы
алыын
алыыр
алыыта
алыһар
аль
альберт
альберта
альбина
альбом
альбома
альбомнара
альбому
альбомун
альмагест
альманах
альт
альтернативнаи
альфа
альфред
альцгеи
альянс
алюминии
аляска
алясканы
аляскаҕа
алҕаан
алҕааһын
алҕас
алҕаска
алҕастара
алҕаһы
ам
ама
амакинскаи
аман
аманаат
амарах
амбросьев
амга
амги
амгинскии
америка
американец
американецтар
американскаи
американы
америкатааҕы
америкаттан
америкаҕа
америки
ами
амир
амма
амманы
амматааҕы
амматтан
аммаҕа
аммед
аммосов
аммосова
аммосовка
аммосовы
аммыт
аммыта
амнистия
ампаар
ампаара
ампаардаах
ампаары
амсаи
амстердам
амтана
амтаннаах
амтаны
амтанын
амундсен
амур
амурскаи
амуур
амыр
амырыын
ан
ана
анаа
анаабыр
анаабыт
анаабыта
анаабыттар
анаабыттара
анаалыс
анаалыстыыр
анаан
анааран
анааһын
анабара
анабыл
анадырь
анаи
анал
анала
анализ
аналитическаи
аналлаах
аналлаахтар
аналлааҕа
аналлааҕын
аналламмыт
аналланан
аналланар
аналланара
аналланарын
аналлара
аналларын
аналын
аналынан
анаммыт
анаммыта
анаммыттар
анан
ананаллар
ананан
ананар
анании
анар
анара
анараа
анарааҥы
анардам
анастасия
аната
анатолии
анатолия
анатольевич
анатольевна
анатомия
анах
ангара
ангел
ангелина
ангилья
англ
англии
англичаннар
англия
англияттан
англияҕа
ангола
андаатар
андаатардар
андаҕаи
андаҕар
анджелес
андорра
андре
андреас
андреев
андреева
андреевич
андреевна
андреи
андрея
андриан
андромеда
андропов
андросов
андросова
анды
андьелес
анегина
анемподист
анжу
анимация
аниме
анисим
анисимов
анисимовна
анисия
анкара
анкараҕа
анна
аннаа
аннаабыт
аннаабыта
аннаабыттар
аннаабыттара
аннаан
аннаары
аннаатаххына
аннаах
аннааһын
аннан
аннар
аннараа
аннотация
анны
анныгар
анныларыгар
анныларынан
аннын
аннынааҕы
аннынан
анныттан
анныы
анныыллар
анныыр
анныыра
анныырга
анньа
анньаллар
анньан
анньар
анньыллан
анньыллар
анньыллыбыт
анньыт
анньыта
анньыттар
анньыттара
анньыы
анри
ансаамбыл
ансаамбыла
ансаамбылын
ансамбль
антанта
антарктида
антарктидаҕа
антарктика
антах
антибиотик
антигуа
антипин
антипина
античнаи
антология
антологията
антон
антонии
антоним
антонин
антонина
антонио
антонов
антонова
антонович
антоновка
антропологии
антропология
антропологов
антуан
аны
аныаха
аныгар
аныгы
аныгылыы
аныгыннан
аныгыскы
анын
аныы
аныыбын
аныыллар
аныыр
аныырга
аньыы
аньыыны
аньыыта
ао
ап
апартеид
апельсин
апокалипсис
аполлон
апостол
аппа
аппаны
аппараат
аппарат
аппарата
аппаратыгар
апполинарии
апр
апрель
апреля
апросимов
аптаах
аптаныамыи
аптека
ар
ара
араа
арааб
араабтар
араабтыы
араадаламмыта
араадьыи
араак
араап
араара
араараары
араараллар
араараллара
арааран
араарар
араарара
араарарга
араарбакка
араарбат
араарбыт
араарбыта
араарбыттар
араарбыттара
араартаан
араартааһын
араартыахха
араарыахха
араарыллан
араарыллар
араарыллыбат
араарыллыбыт
араарынар
араарыы
араарыыга
араарыылара
араарыыны
араарыыттан
араас
арааса
араастаан
араастаах
араастааҕын
араастар
араастара
араастарга
араастардаах
араастарын
араастык
араат
арааһа
арааһы
арааһын
арааһынаи
араб
арабията
арабскаи
арабтар
арабтыы
аравия
араи
аралдьыи
аралдьытан
аралдьытар
аралдьытыы
араллаан
арамаан
арамаана
арамаанын
аран
аранин
арар
арараат
араспаанньа
араспаанньалаах
араспаанньаны
араспаанньата
араспаанньатын
арассыи
арассыыи
арасыыи
арах
арахпат
арахпыт
арахса
арахсаллар
арахсаллара
арахсалларыгар
арахсалларын
арахсалларыттан
арахсан
арахсаннар
арахсар
арахсара
арахсарын
арахсыан
арахсыахтарын
арахсыбакка
арахсыбат
арахсыбыт
арахсыбыта
арахсыбыттар
арахсыбыттара
арахсыбыттарын
арахсыбытын
арахсыспат
арахсыы
арахсыыга
арахсыылар
арахсыылара
арахсыыларыгар
арахсыыларын
арахсыыны
арахсыыта
арахсыытыгар
арахсыытын
арахсыытыттан
араҕас
араҕастыҥы
араҕыстаҕына
араҥ
араҥа
араҥалара
араҥаларын
араҥас
араҥата
араҥатыгар
араҥатын
араҥаччылааһын
араҥаччыланар
араҥаччылыы
араҥаччылыыр
араҥаҕа
арба
арбаан
арбааһын
арбаҕас
арбита
арбыт
арбытынан
арга
аргентина
аргентинаҕа
аргумент
аргументы
аргунов
аргунова
аргыар
аргыи
аргыс
аргыстаах
аргыстара
аргыстаһан
аргыыи
аргыһа
арда
ардаи
ардах
ардахтаах
ардахтан
ардахтар
ардаҕа
ардаҕы
ардыгар
ардыларыгар
ардыларынааҕы
ардыларынан
ардынааҕы
ардынан
ареала
ареалын
аренда
арендаҕа
аржаков
аржакова
ариан
аризона
арии
аристотель
арифметика
арк
аркадии
арктика
арктиканы
арктики
арктическаи
армеец
армении
армения
арменияҕа
армии
армия
армияны
армията
армияттан
армиятыгар
армиятын
армияҕа
армстронг
армянин
армянскаи
арочнаи
арпагыраапыи
арсан
арсеньев
арслан
арсыын
арт
артамонов
артан
артем
артемьев
артериальнаи
артиллерии
артиллерист
артиллерия
артист
артиста
артистки
артур
артурга
артыал
артыы
артыыс
артыыската
артыыстар
артыыстара
артыыстарын
артыыһа
артыыһын
артыыһынан
аруба
архангельск
архангельскаи
археи
археолог
археологии
археологическаи
археологические
археологических
археология
археологияҕа
археологтар
архив
архива
архивировано
архивка
архивная
архивыгар
архип
архипелаг
архипов
архипова
архипович
архитектор
архитектора
архитектура
архитектураҕа
архитектурнаи
архыыба
архыыбыгар
архыыбын
архыыбыттан
архыып
архыыпка
архыыптаммыт
архыыптан
архыыптанна
арчы
арчылыыр
аршин
ары
арыгар
арыгы
арыгыга
арыгылаан
арыгылаах
арыгылааһын
арыгылааһыны
арыгылар
арыгылары
арыгыларын
арыгылыы
арыгылыыр
арыгылыырын
арыгынан
арыгыны
арыгыта
арыгытааҕар
арыгыттан
арыгытын
арыгыһыт
арыгыһыттар
арыгыһыттары
арыи
арыллан
арыллар
арылларын
арыллыаҕыттан
арыллыбыт
арыллыбыта
арыллыбыттар
арыллыбыттара
арыллыыта
арыллыытын
арылхаи
арылынна
арын
арынан
арыт
арыттаах
арыттан
арыттарбыт
арыы
арыыга
арыыи
арыылаах
арыылаахха
арыылар
арыылара
арыыларга
арыылардаах
арыылартан
арыылары
арыыларыгар
арыыларын
арыыларыттан
арыынан
арыыны
арыыта
арыыттан
арыытыгар
арыытын
арыытыттан
арыычча
арҕаа
арҕааттан
арҕаатыгар
арҕааҥы
арҕааҥҥы
арҕас
арҕахтаах
арҕахха
арҕаҕын
арҕаһа
арҕаһыгар
арҕаһынан
ас
асад
асессор
аска
аскалон
аскиз
аскорбиноваи
аспект
аспекты
аспирана
аспирант
аспирантов
аспирантура
аспирантураны
аспирантуратыгар
аспирантуратын
аспирантураҕа
аспыт
аспытын
ассамблеи
ассамблея
ассамблеята
ассамблеятын
ассистена
ассистент
ассоциации
ассоциация
ассоциацияларын
ассоциацията
ассоциациятын
асср
аст
аста
астаан
астаапкаҕа
астаах
астан
астана
астар
астара
астаран
астарбыт
астартан
астары
астарыгар
астарын
астарынан
астарыттан
астеризм
астероид
астрахан
астрахань
астрель
астрология
астромиф
астронавт
астроном
астронома
астрономическаи
астрономия
астык
астына
астынар
астыныы
астыныыны
астыыллар
астыыр
астыырга
асфальт
асчыт
ат
ата
атааннаах
атааннаспакка
атааннаһыы
атаараллар
атаарар
атаарбыт
атаарыы
атаарыыга
атаах
атаахтаан
атаахтаппакка
атаахтата
атаахтатан
атаахтатар
атаахтатыы
атаахтатыыга
атаахтатыыны
атаахтык
атаахтыы
атаахтыыр
атааҕы
атамаан
атамаи
атаман
атан
атар
атара
атарга
атас
атастарбар
атастаһан
атастаһар
атастаһыы
ататюрк
ататүрк
атах
атахтаах
атахтаахтар
атахтанар
атахтаныа
атахтаныы
атахтара
атахтарыгар
атахтарын
атахтарынан
атахтыыр
атахха
атаххын
атаҕа
атаҕар
атаҕастаабыт
атаҕастаан
атаҕастааһын
атаҕастабыл
атаҕастабылы
атаҕастаммыт
атаҕастыыр
атаҕы
атаҕым
атаҕын
атаҕынан
атаҕыттан
атаҕыҥ
атаһа
атеизм
атеистар
атеросклероз
атина
атланта
атлантик
атлантика
атлантическаи
атлас
атласи
атласов
атласова
атлетика
атлетикаҕа
атмосфера
атмосфераҕа
атом
атомнаах
атомнаи
атс
атсыз
атта
аттаах
аттаммыт
аттаммыта
аттаммыттар
аттан
аттанар
аттар
аттара
аттаран
аттары
аттарын
аттарыы
аттаһык
аттила
аттыбар
аттыгар
аттыларыгар
аттынааҕы
аттынан
аты
атыгар
атыи
атылыы
атын
атына
атынан
атыннаах
атыннык
атынтан
атыны
атынын
атынынан
атырдьах
атыттан
атыттар
атыттара
атыттарга
атыттардааҕар
атыттартан
атыттары
атыттарын
атыы
атыыга
атыыла
атыылаабыт
атыылаабыта
атыылаан
атыылааччы
атыылааһын
атыылааһыны
атыыламмыт
атыыламмыта
атыыланаллар
атыыланар
атыыласпыт
атыыласпыта
атыылаһааччы
атыылаһан
атыылаһар
атыылаһарга
атыылаһыы
атыылыы
атыылыыллар
атыылыыр
атыылыыра
атыылыырга
атыылыыры
атыынан
атыыны
атыыр
атыыра
атыырдар
атыыры
атыырын
атыыта
атыыттан
атыытын
атыытынан
атыытыттан
атыыһыт
атыыһыта
атыыһыттар
атыыһыттара
атыҥҥа
аудио
аудитория
аустралиа
аустралия
аустралияҕа
аустрия
аутомобил
аутоном
ауэзов
афанасии
афанасьев
афанасьева
афанасьевич
афанасьевна
афгани
афганистаан
афганистааҥҥа
афганистан
афганистаҥҥа
афина
афины
афоня
африка
африканы
африкатааҕы
африкаттан
африкаҕа
африки
афшар
афшардар
ах
аха
ахаан
ахан
аханан
ахата
ахатов
ахеменидтар
ахмад
ахмадулина
ахматова
ахмед
ахмет
ахс
ахса
ахсааммыт
ахсаан
ахсаана
ахсааннаах
ахсааннаахтар
ахсааннар
ахсааннара
ахсааннарыгар
ахсааннарын
ахсааннарынан
ахсааннарыттан
ахсааны
ахсааныгар
ахсаанын
ахсаанынан
ахсааныттан
ахсааҥҥа
ахсым
ахсын
ахсынньы
ахсынньыга
ахсынньытыгар
ахсынньытыттан
ахсыс
ахсыт
ахсыыр
ахта
ахтаах
ахтаахтар
ахтабын
ахталлар
ахталыи
ахтан
ахтар
ахтара
ахтарга
ахтары
ахтарыгар
ахтарын
ахтарынан
ахтыбакка
ахтыбат
ахтыбатах
ахтыбаттар
ахтыбаттара
ахтыбаттык
ахтыбыт
ахтык
ахтыллаллар
ахтыллар
ахтылларынан
ахтыллыбат
ахтыллыбыт
ахтылҕан
ахтылҕана
ахтылҕаннаах
ахтыы
ахтыылар
ахтыылара
ахтыылары
ахтыыларыгар
ахтыыларын
ахтыыларыттан
ахтыыны
ахтыыта
ахтыытыгар
ахтыытынан
ахтыытыттан
ахтыҥылар
ахура
ахха
аххан
аххын
ахш
ахшга
ахшка
ацтектар
ача
ачаахтаах
аччаабыт
аччаан
аччатар
аччы
аччыгыи
аччык
аччыктаабыт
аччыктаан
аччыктаатаҕына
аччыктааһын
аччыктааһынтан
аччыктааһыны
аччыктыыр
аччыктыыры
аччыта
ачыкы
ашина
ашока
ашхабад
аэрономия
аэропорда
аэропордугар
аэропорт
аэрофлот
аэс
аэции
ая
аятолла
аҕа
аҕаа
аҕаан
аҕабар
аҕабын
аҕабыт
аҕабыыт
аҕабыыта
аҕаи
аҕал
аҕала
аҕалаах
аҕалаллар
аҕалаллара
аҕалан
аҕаланнар
аҕалар
аҕалара
аҕаларга
аҕаларыгар
аҕаларын
аҕаларынан
аҕалбат
аҕалбатын
аҕалбыт
аҕалбыта
аҕалбыттар
аҕалбыттара
аҕалбытын
аҕалла
аҕаллаҕына
аҕалыа
аҕалыан
аҕалыахтарын
аҕалыллар
аҕалыллыбыт
аҕалыы
аҕам
аҕан
аҕантаи
аҕаны
аҕар
аҕас
аҕастаах
аҕата
аҕатта
аҕаттан
аҕатыгар
аҕатын
аҕатынан
аҕатыттан
аҕаҕа
аҕаҥ
аҕаһа
аҕаһын
аҕы
аҕыи
аҕын
аҕынан
аҕыс
аҕыт
аҕыттан
аҥ
аҥаа
аҥаар
аҥаара
аҥаардаах
аҥаардара
аҥаардас
аҥаарыгар
аҥаарыи
аҥаарын
аҥаарынан
аҥаарыттан
аҥала
аҥар
аҥара
аҥардаах
аҥардарыттан
аҥардас
аҥардастыы
аҥарыгар
аҥарын
аҥарынан
аҥарыттан
аҥнаах
аҥы
аҥылар
аҥыы
аҥҥа
аҥҥын
аһа
аһаа
аһаабакка
аһаабат
аһаабаттар
аһаабыт
аһаабытын
аһаан
аһаары
аһаатахха
аһаатаҕына
аһааһын
аһан
аһаппыт
аһар
аһара
аһаран
аһарар
аһарбакка
аһары
аһата
аһаталлар
аһаталлара
аһатан
аһатар
аһатарга
аһатыы
аһаҕас
аһаҕастар
аһаҕастык
аһмад
аһы
аһыан
аһыах
аһыахтарын
аһыахха
аһыаҕын
аһыгар
аһыи
аһыкаи
аһыллан
аһыллар
аһыллыаҕыттан
аһыллыбыт
аһыллыбыта
аһыллыбыттар
аһыллыбыттара
аһыллыыта
аһыллыытыгар
аһыллыытын
аһылыга
аһылыгар
аһылыгы
аһылыгын
аһылыгынан
аһылыгыттан
аһылык
аһылыкка
аһылыктаах
аһылыктан
аһылыктаналлар
аһылыктанар
аһылыктар
аһылыктара
аһылыктары
аһылыктарыгар
аһылыктарын
аһылыктарыттан
аһылынна
аһым
аһымал
аһыммат
аһын
аһына
аһынан
аһынар
аһыннара
аһыныгас
аһыныгаһа
аһыныы
аһыт
аһытан
аһыттан
аһыы
аһыылаах
аһыыллар
аһыыллара
аһыылларын
аһыыр
аһыыра
аһыырга
аһыыры
аһыырын
аһыырыттан
аһыыта
аһыҥа
б
ба
баа
баабыр
баабырыка
баазата
бааи
баал
баалабаи
бааллар
бааллара
баалларын
баалларынан
баалларыттан
баан
баана
баанабыс
баандатын
бааннар
бааннара
баанньык
баанньыкка
бааны
баанын
баар
баара
баараи
баараҕаи
баарбын
баарбыт
бааргын
баартыи
баары
баарыгар
баарыи
баарын
баарына
баарынан
баарыстаах
баарыттан
баас
бааска
бааскалар
баастаах
баата
баатара
баатаҕаи
баатыр
бааччы
бааҥка
бааҥҥа
бааһа
бааһы
бааһын
бааһына
бааһынаи
бааһынаҕа
бааһыран
бааһырар
бааһырбыт
бааһырбыта
бааһырдар
бааһырыы
баба
бабочки
бабушкин
бабыат
бавария
багдад
багдарыын
багынанова
бадараан
бадарааннаах
бадараанныыр
бадарааны
бадарааҥҥа
бадахтаах
бадаҕа
баден
бадык
бадьа
база
базалара
базаларын
базата
базатыгар
базатын
базель
базоваи
баи
баишев
баишева
бакалавр
бакалавриат
бакка
баккалар
баккын
бактерия
бактериялар
бактериялары
баку
бакуга
бакы
бал
бала
балаакка
балаи
балакшин
баламат
баланов
балар
балартан
балары
баласагун
балатон
балачча
балаҕан
балаҕана
балаҕаннаах
балаҕаны
балаҕаныгар
балаҕанын
балаҕаҥҥа
балаһа
балаһалаах
балаһалар
балаһалардаах
балаһыанньа
балаһыанньаны
балаһыанньата
балаһыанньаттан
балаһыанньатыгар
балаһыанньатын
балаһыанньаҕа
балбаара
балбаах
балерина
балерината
балет
балета
балетмеи
балетын
балкаан
балкан
балкария
баллар
балта
балтараа
балтии
балтика
балтия
балтылаах
балтыларын
балтым
балтын
балхаш
балыга
балыгы
балыгын
балыгынан
балыи
балык
балыкка
балыксыт
балыксыттар
балыктаа
балыктаан
балыктаах
балыктааһын
балыктар
балыктара
балыктары
балыктарын
балыктыы
балыктыыр
балыс
балыстарын
балыстыылар
балысхан
балысханнык
балыттаран
балыы
балыыһа
балыыһата
балыыһатыгар
балыыһаҕа
бальбоа
бам
бамбук
банаар
бангладеш
бандьыыт
бандьыыттар
бандьыыттары
банепа
банк
банке
банкноталар
баппат
баппаҕааи
баппаҕаи
баппын
баппыт
бар
бара
бараа
бараан
бараары
бараах
бараахап
бараахтар
барааччы
барааччылар
барабаан
барабыаи
барабын
барабыт
барак
бараллар
бараллара
баралларыгар
баралларын
барамаи
бараммат
бараммын
бараммыт
баран
баранан
баранар
бараннар
баранов
барар
барара
барарга
барары
барарыгар
барарын
барарынан
барарыттан
барахов
бараховы
барахсаанап
барахсан
барахсаны
барахсаттар
барашков
бараҕын
бараҥҥын
барбадос
барбакка
барбаппын
барбат
барбата
барбатах
барбатахтарына
барбатаҕына
барбаттар
барбаттара
барбаттарын
барбатыгар
барбатын
барбах
барби
барбуда
барбыт
барбыта
барбыттар
барбыттара
барбыттарын
барбыттарыттан
барбытыгар
барбытым
барбытын
барбытынан
барбытыттан
баргачан
баргузин
барда
бардам
бардар
бардахтарына
бардахха
бардаххына
бардаҕа
бардаҕына
бардо
бардыбыт
бардылар
бардым
барнаул
барокко
барон
барсан
барсар
барселона
барсыбыт
барто
бартольд
бартыһаан
бары
барыа
барыаи
барыам
барыан
барыар
барыах
барыахтаах
барыахтааҕын
барыахтара
барыахтарын
барыахха
барыаҕа
барыаҕыҥ
барыаҥ
барыбыт
барыбытыгар
барыбытын
барыга
барыи
барык
барыл
барыла
барылара
барыларыгар
барыларын
барыларыттан
барыллаан
барыллааһын
барыллыбат
барылын
барылынан
барыма
барыны
барыс
барыстаах
барыстара
барысы
барыта
барыттан
барытыгар
барытын
барытынан
барытыттан
барышня
барыы
барыыга
барыылаах
барыылара
барыылары
барыыларыгар
барыыларын
барыыны
барыыс
барыыта
барыыттан
барыытыгар
барыытын
барыытыттан
барыҥ
барыһа
барыһы
барҕа
барҕарыы
бас
баска
баскаков
баскетбол
баскыһыанньатыгар
баснаев
баспыт
бассаап
бассабыык
бассабыыктар
бассабыыктары
бассеи
бастаабыт
бастаабыта
бастаан
бастаанньа
бастаанньаларын
бастаанньатын
бастаанньаһыттар
бастаах
бастаахтар
бастааҥы
бастааҥҥы
бастаи
бастакы
бастакылара
бастакынан
бастакыннан
бастакыта
бастакыттан
бастакытын
бастакытынан
бастара
бастарыгар
бастарын
бастатан
бастыкы
бастын
бастыц
бастыы
бастыыр
бастың
бастыҥ
бастыҥа
бастыҥнар
бастыҥнара
бастыҥнарын
бастыҥын
басхана
басыгысова
бат
бата
батаакап
батальон
батальона
батальонун
батан
батарар
батарея
батары
батас
батах
батахтар
батахтарына
батаҕа
батаҕын
батаҕына
батор
баттаа
баттаабыт
баттаабыта
баттаабыттар
баттаабыттара
баттаан
баттаата
баттааһын
баттааһына
баттааһыннаах
баттааһыны
баттааһынын
баттааһыныттан
баттааһыҥҥа
баттабыл
баттал
батталлаах
батталларын
батталтан
батталы
батталыгар
батталыттан
баттаммыт
баттаммыта
баттаммытын
баттанан
баттанар
баттар
баттара
баттарын
баттарыттан
баттатан
баттатар
баттах
баттахтаах
баттахтарын
баттаххын
баттаҕа
баттаҕы
баттаҕын
баттаһа
баттыгастаах
баттык
баттыы
баттыыллар
баттыыр
баттыыра
баттыырга
баттыырын
бату
батуев
баты
батыгар
батыи
батыммыт
батыммыта
батын
батыр
батыттан
батыһа
батыһааччылар
батыһан
батыһар
батыһарга
батыһыннара
батыһыннаран
батыһыннарар
батыһыы
бах
бахреи
бахсы
бахсылааны
бахсылар
бахчисараи
бачча
баччааҥҥа
баччаҕа
баш
башар
башарин
башарина
башк
башкиир
башкиирдар
башкир
башкирдар
башкирии
башкирия
башкирскаи
башкирская
башкирского
башкортостаан
башкортостан
башкортостана
башня
башняны
башнята
башнятын
баян
баяндаи
баҕа
баҕаи
баҕалаах
баҕалаахтар
баҕалара
баҕаларын
баҕаларынан
баҕана
баҕаны
баҕар
баҕара
баҕарааччылар
баҕарабын
баҕарабыт
баҕараллар
баҕараллара
баҕаралларын
баҕаралларыттан
баҕаран
баҕарар
баҕарара
баҕарарын
баҕарбаппын
баҕарбат
баҕарбата
баҕарбаттар
баҕарбыт
баҕарбыта
баҕарбытын
баҕардахтарына
баҕардаххына
баҕардаҕына
баҕардым
баҕарыы
баҕас
баҕата
баҕатааи
баҕаттан
баҕатын
баҕатынан
баҕах
баҥладеш
баһа
баһаам
баһаар
баһаара
баһаарга
баһаардар
баһаартан
баһаарынаи
баһаатаи
баһан
баһар
баһарҕас
баһреи
баһы
баһыгар
баһыи
баһылаабыт
баһылаабыта
баһылаабыттар
баһылаабыттара
баһылаабыттарын
баһылаабыттарыттан
баһылаабытын
баһылааммыт
баһылаан
баһылааннар
баһылаатахтарына
баһылаатаҕына
баһылаатылар
баһылааһын
баһылааһына
баһылааһыннара
баһылааһыннарыгар
баһылааһынтан
баһылааһыныгар
баһылааһынын
баһылааһыҥҥа
баһылаи
баһылыар
баһылыга
баһылыгар
баһылыгын
баһылыгынан
баһылык
баһылыктаах
баһылыктар
баһылыктара
баһылыктарын
баһылыктарыттан
баһылыы
баһылыыллар
баһылыыр
баһылыыра
баһылыырга
баһылыырыгар
баһылыырын
баһымньы
баһын
баһынан
баһыттан
баһыттаран
баһыттарар
баһыттарыы
баһыыба
ббк
бе
без
безопасности
беи
бек
беларусь
беларуська
белая
белгород
белгородскаи
белгородтааҕы
белград
белиз
белла
белое
белок
белоктар
белолюбскаи
белор
белорус
белоруссия
белоруссияны
белоруссияҕа
белорусскаи
белорустар
белоруус
белоручев
белыи
белых
бельгия
бельгияҕа
беляев
бен
бенгаал
бенджамин
бензин
бензини
бенин
бере
бережнов
березкин
березовка
березовскаи
берен
берестов
беринг
беркакит
беркли
берлин
берлины
берлиҥҥэ
бернар
бернулли
беспокои
бессознательное
бессонов
бета
бетлингк
бетон
би
бибилитиэкэ
бибилитиэкэтин
бибилэтиэкэ
бибилэтиэкэтэ
библиогр
библиограф
библиографическии
библиография
библиотека
библиотекарынан
библиотеката
библиотекатыгар
библиотекатын
библиотекаҕа
библиотеки
библиотечнаи
библиотечная
библия
библияҕа
бигэ
бигэнэн
бигэргэммит
бигэргэммитэ
бигэргэнэр
бигэргэппит
бигэргэппиттэр
бигэргэппитэ
бигэргэтии
бигэргэтиллибит
бигэргэтиллибитэ
бигэргэтиллэн
бигэргэтиллэр
бигэргэтэллэр
бигэргэтэллэринэн
бигэргэтэн
бигэргэтэр
бигэргэтэрин
бигэргэтэринэн
бигэтик
бигээн
бизнес
бизнеса
бизнесмен
бии
биибилии
биизинэс
биики
бииллээх
биилэр
биилээх
биилээҕи
биилээҕинэн
биир
бииргэ
биирдигэ
биирдии
биирдиилэригэр
биирдиилэрин
биирдиилэрэ
биирдиилээн
биирдиитэ
биирдик
биирдэ
биирдэм
биирдэр
биирдэрин
биирдэрэ
биирдэстэригэр
биирдэстэрин
биирдэстэринэн
биирдэстэрэ
биирдээх
биирдэһиллибит
биирдэһэ
биири
бииригэр
биирим
биирин
бииринэн
биирис
бииртэн
биирэ
биис
биисинэс
биистэн
биистэр
биистэри
биистэрин
биистэриттэн
биистэрэ
биитин
биитэ
биитэр
бииһин
бииһиттэн
бииһэ
бикипиэдьии
бил
билаи
билбиппит
билбит
билбитим
билбитин
билбититтэн
билбиттэр
билбиттэрин
билбиттэрэ
билбитэ
билбэккин
билбэккэ
билбэппин
билбэппит
билбэппититтэн
билбэт
билбэти
билбэтигэр
билбэтим
билбэтин
билбэтинэн
билбэтиттэн
билбэттэн
билбэттэр
билбэттэригэр
билбэттэрин
билбэттэринэн
билбэттэриттэн
билбэттэрэ
билбэтэ
билбэтэх
билбэтэҕинэ
билбэтэҕэ
билгэ
билгэлииллэр
билгэлиир
билгэлээн
билгэлээһин
били
билиги
билигин
билии
билиибит
билиигэ
билиилэр
билиилэрбит
билиилэргэ
билиилэри
билиилэригэр
билиилэрин
билиилэринэн
билиилэриттэн
билиилэртэн
билиилэрэ
билиилээх
билиини
билиинэн
билиитигэр
билиитин
билиитинэн
билиититтэн
билииттэн
билиитэ
билик
билиллэр
билим
билими
билимигэр
билимин
билиммит
билиммиттэр
билиммиттэрэ
билиммитэ
билиммэккэ
билиммэт
билиммэттэр
билиммэтэх
билиммэтэҕэ
билимнэр
билимнэрин
билимҥэ
билинии
билиниигэ
билиниилэрин
билиниилэрэ
билиниини
билиниитин
билинииттэн
билиниитэ
билиниллибит
билиниллибитэ
билиниллэн
билиниллэр
билиниэ
билиниэхпит
билиниэхтэрэ
билинни
билиннэ
билиннэҕинэ
билинэ
билинэбит
билинэллэр
билинэллэрин
билинэллэринэн
билинэллэрэ
билинэн
билинэннэр
билинэр
билинэргэ
билинэрин
билинэринэн
билинэрэ
билирдэрэ
билиэ
билиэн
билиэннэи
билиэт
билиэх
билиэхпит
билиэхпитин
билиэхтэрин
билиэхтэрэ
билиэхтээх
билиэххин
билиэххэ
билиэҥҥэ
билиңңи
билиҥҥи
билиҥҥигэ
билиҥҥинэн
билиҥҥиттэн
билиҥҥитэ
билиҥҥэ
билиҥҥээҥҥэ
билиһиннэрбит
билиһиннэрии
билиһиннэрэр
билл
биллибит
биллибитин
биллибитинэн
биллибиттэрэ
биллибитэ
биллибэккэ
биллибэт
биллибэти
биллибэтин
биллибэтинэн
биллибэтиттэн
биллибэттэр
биллибэтэ
биллии
биллиилээх
биллиитэ
биллилэр
биллим
биллингс
биллиэн
биллиэҕэ
биллэ
биллэллэр
биллэллэрэ
биллэн
биллэр
биллэрбит
биллэрбиттэр
биллэрбиттэрэ
биллэрбитэ
биллэрбэккэ
биллэрбэт
биллэрдик
биллэрдэ
биллэрдэҕинэ
биллэрии
биллэриигэ
биллэриитэ
биллэриллибит
биллэриллибитэ
биллэрин
биллэринэн
биллэриттэн
биллэриэ
биллэриэн
биллэрэ
биллэрэбит
биллэрэллэр
биллэрэн
биллэрэр
биллэрэргэ
биллэрэрин
биллэрэринэн
биллэрэрэ
биллэрээри
биллэхтэринэ
биллэххэ
биллэҕинэ
билсибит
билсибитэ
билсии
билсиһии
билсиһиэххэ
билсиһэ
билсиһэн
билсиһэр
билсэ
билсэллэр
билсэн
билсэр
бильге
бильярд
билэ
билэбин
билэбит
билэлиэгии
билэллэр
билэллэригэр
билэллэрин
билэллэринэн
билэллэриттэн
билэллэрэ
билэлэр
билэлээх
билэн
билэннэр
билэр
билэрбит
билэргэ
билэригэр
билэрин
билэринэн
билэриттэн
билэрэ
билээри
билээччи
билээччилэр
билээччитэ
билэҕин
билюкина
бин
бинсээк
бинтиэпкэ
био
биобиблиогр
биобиблиографическии
биографии
биографическии
биография
биографията
биолог
биологическаи
биологических
биология
биологияҕа
биолого
биосфера
биохимия
биоэтика
биппит
биржа
биржата
биржатыгар
биржаҕа
биригэдьиир
биригэдьииринэн
биригэдьиирэ
биригээдэ
биригээдэтигэр
биригээдэтин
биригээдэтэ
бириигэбэр
бириис
бириискэ
бириискэлэригэр
бириистээх
бирииһи
бирииһигэр
бирииһин
бирииһэ
бирикээс
бирикээсчиктэр
бирикээһи
бирикээһинэн
бирикээһэ
бирисээгэ
биричиинэ
биричиинэлэр
биричиинэлэрин
биричиинэлэринэн
биричиинэлэрэ
биричиинэнэн
биричиинэтинэн
биричиинэттэн
биричиинэтэ
бириэмии
бириэмиэи
бириэмэ
бириэмэлэрэ
бириэмэлээх
бириэмэни
бириэмэтигэр
бириэмэтин
бириэмэттэн
бириэмэтэ
бириэмэҕэ
бириэт
бирма
бирюза
бис
биссау
бит
битва
бити
битигэ
битигэр
битии
битиктэрэ
битим
битин
битинэн
бититтэн
битлз
биттэр
биттэрин
биттэрэ
битэ
битэмиин
битэмииннэр
битэмииннээх
бич
бичиги
бичигин
бичигинэн
бичигэ
бичигэр
бичик
бичиккэ
бичиктээх
бичурин
бишкек
биьиги
биэ
биэбэи
биэдэрэ
биэксэл
биэлсэр
биэни
биэнсии
биэр
биэрбит
биэрбитин
биэрбитинэн
биэрбиттэр
биэрбиттэрин
биэрбиттэрэ
биэрбитэ
биэрбэккэ
биэрбэт
биэрбэтигэр
биэрбэтин
биэрбэттэр
биэрбэттэрэ
биэрбэтэ
биэрбэтэх
биэрбэтэхтэрэ
биэрбэтэххэ
биэрбэтэҕинэ
биэрбэтэҕэ
биэрдилэр
биэрдэ
биэрдэхпитинэ
биэрдэхтэринэ
биэрдэххинэ
биэрдэххэ
биэрдэҕинэ
биэрии
биэриигэ
биэриилэри
биэриилэригэр
биэриилэрин
биэриилэринэн
биэриилэриттэн
биэриилэрэ
биэриини
биэриинэн
биэриитигэр
биэриитин
биэриитинэн
биэрииттэн
биэриитэ
биэриллэр
биэримэ
биэриэ
биэриэм
биэриэн
биэриэхпит
биэриэхтэрин
биэриэхтээх
биэриэхтээҕин
биэриэххин
биэриэххэ
биэриҥ
биэрсии
биэртэлээн
биэрэ
биэрэбин
биэрэбит
биэрэгин
биэрэгэ
биэрэгэр
биэрэк
биэрэккэ
биэрэллэр
биэрэллэригэр
биэрэллэрин
биэрэллэриттэн
биэрэллэрэ
биэрэн
биэрэннэр
биэрэпис
биэрэпискэ
биэрэпиһин
биэрэпиһинэн
биэрэр
биэрэргэ
биэрэри
биэрэригэр
биэрэрин
биэрэринэн
биэрэриттэн
биэрэрэ
биэрэс
биэрэстэ
биэрэстэлээх
биэрээри
биэрээччи
биэрээччилэр
биэс
биэскэ
биэстии
биэстэ
биэстээх
биэтэ
биһи
биһиги
биһигини
биһигиттэн
биһигэ
биһик
биһикки
биһилэх
биһилэҕи
биһирэбили
биһирэбилин
биһирэбиллэрин
биһирэм
биһирэммит
биһирэммитэ
биһирээн
биһиэнэ
биһиэхэ
благими
благовещенскаи
ближнэи
бло
блок
бниц
бнц
бо
боб
бобо
боболлор
боболлоро
бобон
бобор
бобров
бобуллан
бобуллар
бобуллубат
бобуллубут
бобуллубута
бобуу
бобууга
бобуулаах
бобуулааҕы
бобуулар
бобуулары
бобууну
бобуута
бобууттан
бобуутун
бог
бога
богатырев
богдан
богемия
богиня
богтарын
бодо
бодои
бодотун
боевои
боескоров
божедонов
божеств
божество
бои
боккуои
бокс
бокса
боксаҕа
боксе
боксер
боксера
бокуои
бокуонньук
бол
болбукта
болг
болга
болгар
болгардар
болгарии
болгария
болгарияҕа
болгарскаи
болгуо
болдьох
болдьохтоон
болдьохтоох
болдьоххо
болдьоҕо
болдьоҕун
более
болезни
болезнь
болеслав
боливар
боливиано
боливия
боллох
боллур
боло
бологур
боломуочуи
боломуочунаи
болоорхои
болот
болотныи
болт
болтоҥо
болтуо
болугур
болуо
болуоссакка
болуоссат
болуоссата
болуоссатыгар
больных
большая
больше
большевик
большевиктар
большевиктары
большие
большим
большои
болҕар
болҕои
болҕомто
болҕомтолоох
болҕомтолоохтук
болҕомтолорун
болҕомтону
болҕомтотун
болҕомтоҕо
бомба
бон
бонапарт
бондарь
боотулу
боотулуу
боотулууга
боотулуулар
боотур
боотурдар
боотурускаи
боотуруус
боотуруускаи
боппот
боппуруос
боппуруоска
боппуруостар
боппуруостара
боппуруостарга
боппуруостары
боппуруостарыгар
боппуруостарын
боппуруоһа
боппуруоһу
боппуруоһугар
боппуруоһун
боппут
боппута
боппуттар
боппуттара
боппутун
бор
бордоҥ
бордоҥнор
борис
борисов
борисова
борисович
борисовна
боробулуоха
борогонскаи
бородин
бородино
бородууксуи
бородуукта
борокуоппаи
борокуот
борокуруора
боронсуус
боростуои
боротокуол
боротокуола
боротокуолга
борохуот
борохуотунан
бороҕон
бороҕоннор
бороҕоҥҥо
бороҥ
бороҥуи
бороһуок
борук
борукуоппаи
боруллуо
боруоба
боруобалаан
боруобалааһын
боруобаланан
боруобалыы
боруобалыыр
боруода
боруодалара
боруодаларын
боруодата
боруодатын
боруок
боруонса
боруонсаттан
боруу
боруулаах
борщ
борьба
борьбе
борьбы
босиков
босния
боссоои
бостон
бостуои
босуобуи
босфор
босхо
босхоломмут
босхоломмута
босхолоно
босхолонон
босхолонор
босхолонуу
босхолонуутун
босхолообут
босхолообута
босхолообуттар
босхолоон
босхолооһун
босхолооһуҥҥа
босхолоспут
босхолуур
босхолуурга
босхону
босхоҥ
босяк
ботанига
ботаник
ботаника
ботаническаи
боткин
бото
ботсвана
ботугуруу
ботуобуи
ботур
ботуруон
ботуччу
бохои
бохсурҕан
бохуот
бочаров
бочкарев
бочкарева
бочугурас
бочуот
бочуоттаах
бочуотун
бочуотунаи
боччумнаах
боччумнаахтык
боякова
бояров
боҕо
боҕра
бравина
браге
бразилия
бразилияҕа
браи
брат
братскаи
браузер
браузердар
брежнев
бреи
бренд
бриллиант
британия
британияны
британияттан
британияҕа
британскаи
бродников
брокгауз
брокгауза
брокер
бронха
бронхит
брошюра
брун
брунеи
брэгг
брянскаи
бск
бсэ
бу
бубякин
бубякина
буг
бугера
бугул
будапешт
будда
буддизм
буддистар
будет
буду
будут
будущего
будущее
буи
бука
букатын
букатыннаахтык
букатыҥылар
буква
буквы
буккаастаах
буккуи
буккулла
буккуллан
буккуллар
буккуллубут
буккуллуута
буккууру
букубаар
букубаары
бул
була
булаары
булак
булаллар
булан
буланнар
булар
буларга
буларыгар
булас
булатов
булбакка
булбат
булбатах
булбут
булбута
булбуттар
булбуттара
булбуттарын
булбутун
булгар
булгария
булгу
булгунньах
булгунньахтаах
булгуруи
булгуччу
булгуччулаах
булда
булду
булдун
булдунан
булдуҥ
булка
булкаас
булкаастаах
булкуи
булкуспут
булкуһан
булларан
булларар
булларыы
буллахтарына
буллаҕына
буллулар
булт
бултаабыт
бултаан
бултаах
бултааһын
бултааһыны
бултанар
бултуи
бултуу
бултууллар
бултууллара
бултуур
бултуурга
булугас
булуллар
булуллубут
булуллубута
булуллубуттар
булуллубуттара
булулунна
булуммут
булун
булуна
булунаары
булунан
булунар
булунарыгар
булунуу
булуо
булуон
булуохха
булуоҥ
булуу
булууга
булууну
булуус
булуута
булуҥ
булуҥҥа
булчут
булчута
булчуттар
булчуттары
булчутунан
булҕар
булҕардар
бун
бунге
бункер
буну
буо
буобура
буои
буоксаҕа
буол
буола
буолааи
буолаараи
буолаары
буолаат
буолааччы
буолааччылар
буолабын
буолабыт
буолаллар
буолаллара
буолалларыгар
буолалларын
буолалларынан
буолалларыттан
буоламмын
буоламмыт
буолан
буоланнар
буолар
буолара
буоларбыт
буоларбытын
буоларга
буолартан
буолары
буоларыгар
буоларын
буоларынан
буоларыттан
буолас
буолаҕын
буолаҥҥын
буолаһа
буолаһыгар
буолаһын
буолбаат
буолбакка
буолбат
буолбата
буолбатах
буолбатахпын
буолбатахпыт
буолбатахтар
буолбатахтарын
буолбатахтарына
буолбатаҕа
буолбатаҕын
буолбатаҕына
буолбаттар
буолбаттарын
буолбаты
буолбатын
буолбуппут
буолбут
буолбута
буолбуттар
буолбуттара
буолбуттарга
буолбуттарыгар
буолбуттарын
буолбуттарыттан
буолбуту
буолбутугар
буолбутум
буолбутун
буолбутунан
буолбутуттан
буолла
буоллаллар
буоллар
буолларбын
буолларгын
буоллах
буоллахкына
буоллахпына
буоллахпытына
буоллахтара
буоллахтарына
буоллахха
буоллаххына
буоллаххытына
буоллаҕа
буоллаҕаи
буоллаҕым
буоллаҕына
буоллаҕыҥ
буоллубут
буоллулар
буоллум
буоллун
буоллуннар
буоллуҥ
буолсу
буолта
буолтар
буолтум
буолтун
буолума
буолуо
буолуои
буолуом
буолуон
буолуор
буолуох
буолуохпун
буолуохпут
буолуохпутун
буолуохтаах
буолуохтаахтар
буолуохтаахтара
буолуохтааҕа
буолуохтааҕар
буолуохтааҕын
буолуохтара
буолуохтарыгар
буолуохтарын
буолуохтарыттан
буолуохтун
буолуохха
буолуоххун
буолуоххут
буолуоҕа
буолуоҕаи
буолуоҕун
буолуоҕуттан
буолуоҕуҥ
буолуоҥ
буолуу
буолуубут
буолууга
буолуулара
буолууларыгар
буолууларын
буолууларыттан
буолуунан
буолууну
буолуута
буолууттан
буолуутугар
буолуутун
буолуутуттан
буолуҥ
буомба
буомбалаабыттар
буомбалары
буомбаны
буомбатын
буор
буора
буораи
буорах
буораҕы
буорга
буордаах
буортан
буорту
буортулаан
буортулаах
буортулаахтарын
буортулааҕа
буортулааҕы
буортулааҕын
буортулуон
буортулууллар
буортулуур
буортуну
буортута
буору
буоругар
буорун
буорунан
буоруттан
буотама
буотах
буох
буппут
бур
бурак
бургунас
бурдуга
бурдугу
бурдугун
бурдугунан
бурдук
бурдукка
бурдуктан
буржуазнаи
буркина
бурнашев
бурнашева
буруи
бурунди
буруо
буруолаах
буруолуу
буруону
буруота
буруотун
бурут
бурхан
бурханизм
бурцев
бурцева
бурят
бурятия
бурятияҕа
буряттар
буряттары
бурҕаи
бус
буспут
бут
бута
бутан
бутанаев
буттаах
буттар
буттара
буттарын
буту
бутугар
бутуи
бутум
бутун
бутунан
бутуттан
бутэи
бутэрбитэ
бутэрэн
бууктаах
буукуба
буукубалаах
буукубалар
буукубалара
буукубалары
буукубаларын
буукубаларынан
буукубанан
буукубаны
буукубата
буукубаттан
буулдьа
буулдьалар
буулдьанан
буулуур
буур
буура
буураи
буурҕа
буурҕаҕа
буут
бууттаах
буутун
буучугурас
бухара
бухатыыр
бухатыыра
бухатыырдар
бухатыырдара
бухатыырдарын
бухатыыры
бухатыырын
бухгалтер
бухгалтерынан
бучча
буччатын
буш
буэнос
буҕа
буһан
буһара
буһаран
буһарар
буһарарга
буһарарыгар
буһарыллар
буһарыллыбыт
буһарын
буһарыы
бхатт
бы
быа
быалаах
быанан
быаны
быар
быара
быарга
быары
быарыгар
быарым
быарын
быата
быатын
быган
быдан
быданнаабыт
быданнаата
быданнааҕыта
быдьар
быи
быкка
был
была
былаа
былаадьык
былаан
былаана
былааннаан
былааннаах
былааннаахтык
былааннаммыт
былааннанар
былааннар
былааннарын
былаанныыр
былааны
былаанын
былаас
былааска
былаастаах
былаастан
былаастар
былаастара
былаастарын
былаат
былаатын
былаатынан
былаах
былаахтара
былааччыи
былаачыи
былааҕа
былааҕы
былааҕын
былааҥҥа
былааһа
былааһы
былааһыгар
былааһын
былааһынан
былааһыттан
былас
былатыан
былаҕаи
былаһын
былдьа
былдьаабыт
былдьаабыта
былдьаабыттар
былдьаан
былдьааһын
былдьаммыт
былдьаммыта
былдьаппыт
былдьатан
былдьаһа
былдьаһан
былдьаһар
былдьаһыктаах
былдьаһыннара
былдьаһыы
былдьаһыыта
былдьаһыытын
былдьыыр
были
было
былчархаи
былчыҥ
былыкка
былыр
былыргаттан
былыргы
былыргыга
былыргылар
былыргылара
былыргыларын
былыргылыы
былыргыны
былыргыт
былыргыта
былыргыттан
былыргытын
былыргытыттан
былырыын
былырыыҥҥы
былыт
былыта
былыттаах
былыттар
былыты
былытынан
былыыр
бын
быппыт
быр
быра
быраа
бырааба
быраабата
быраабатын
быраабы
быраабыгар
быраабыла
быраабылалар
быраабылалара
быраабылалары
быраабылаларын
быраабыланы
быраабылата
быраабылатын
быраабын
быраабынан
быраап
быраапка
бырааптаах
бырааптаахтар
бырааптаммыта
бырааптара
бырааптарын
быраас
бырааска
быраастар
быраастара
быраастары
быраастарын
быраат
быраата
бырааттаах
бырааттара
бырааттарын
бырааттыы
бырааттыылар
быраатыгар
быраатым
быраатын
бырааһа
бырааһын
бырааһынан
бырааһынньыга
бырааһынньыгар
бырааһынньыгы
бырааһынньыгын
бырааһынньык
бырааһынньыкка
бырааһынньыктар
бырааһынньыктара
бырааһынньыктарга
бырааһынньыктарын
бырабылыанньа
бырабылыанньата
бырабылыанньатын
бырабыы
бырабыыталыстыба
бырабыыталыстыбалара
бырабыыталыстыбаны
бырабыыталыстыбата
бырабыыталыстыбатыгар
бырабыыталыстыбатын
бырабыытылыстыбатын
бырагыраама
бырагырааманы
бырагырааматын
бырагыраамматын
быраи
быракаан
быралыи
бырамыысыланнас
бырамыысыланнаһа
бырамыысыланнаһын
бырастыы
бырах
бырахпакка
бырахпат
бырахпаттар
бырахпыт
бырахпыта
бырахпыттар
бырахпыттара
бырахта
бырахтахха
бырахтаҕына
бырачыас
бырачыастааччылар
бырачыастар
быраҕа
быраҕаллар
быраҕан
быраҕар
быраҕарга
быраҕаттаан
быраҕыллан
быраҕыллар
быраҕыллыбат
быраҕыллыбыт
быраҕыллыбыта
быраҕыы
быраҕыыга
быраһааи
бырдах
бырдахтар
бырдахха
бырдаҕы
бырдьааҕаи
быры
бырыы
бырыһыан
бырыһыана
бырыһыаннаах
бырыһыаннара
бырыһыаннарын
бырыһыаныгар
бырыһыанын
бырыһыаҥҥа
быс
быспакка
быспыт
быспыта
быспыттара
быста
быстан
быстар
быстара
быстах
быстахтык
быстахха
быстыбакка
быстыбат
быстыбыт
быстыбыта
быстыспат
быстыы
быстыыны
быстыыта
быстыҥа
быт
быта
бытаан
бытааннык
бытааран
бытаарар
бытаардар
бытанан
бытантаи
бытархаи
бытарыи
бытарык
бытарытан
бытаһыттар
бытаһыттара
бытаһыттыҥылар
бытие
бытовои
быттар
быттара
быттарын
быты
бытыа
бытыгар
бытык
бытыктаах
бытым
бытын
бытынан
бытырыыс
бытыттан
бытыылка
бытыылканы
быть
быччархаи
быччыҥ
быччыҥа
быччыҥнар
быччыҥнара
быччыҥнарга
быччыҥнары
быччыҥнарыгар
быччыҥнарын
быччыҥы
быччыҥҥа
бышев
быы
быыбар
быыбара
быыбарга
быыбардаммыта
быыбарданан
быыбарданар
быыбардыыр
быыбары
быыбарыгар
быыбарын
быыбарынаи
быыгынас
быыкаа
быыл
быыппаҕы
быыра
быыс
быысаһар
быыстаах
быыстала
быыстапка
быыстапкалара
быыстапкаларга
быыстапкаларыгар
быыстапката
быыстапкатыгар
быыстапкатын
быыстапкаҕа
быыстарыгар
быыстарынан
быытта
быыһа
быыһаабыт
быыһаабыта
быыһаан
быыһаммыт
быыһаммыта
быыһанаары
быыһанан
быыһанар
быыһаныы
быыһыгар
быыһык
быыһын
быыһынан
быыһыттан
быыһыы
быыһыыр
быьа
быьаарар
быьыытынан
быһа
быһаа
быһаар
быһаара
быһаараары
быһаарабыт
быһаараллар
быһаараллара
быһааралларынан
быһааран
быһаараннар
быһаарар
быһаарара
быһаарарбыт
быһаарарга
быһаарарыгар
быһаарарын
быһаарарынан
быһаарбакка
быһаарбаккалар
быһаарбат
быһаарбаттар
быһаарбыппыт
быһаарбыт
быһаарбыта
быһаарбыттар
быһаарбыттара
быһаарбытынан
быһаардахпытына
быһаардахха
быһаардылар
быһаарсар
быһаарсыы
быһаарсыыга
быһаарыахпыт
быһаарыахтаах
быһаарыахха
быһаарылла
быһаарыллаллар
быһаарыллан
быһаарыллар
быһаарыллара
быһаарылларын
быһаарыллыан
быһаарыллыбат
быһаарыллыбатах
быһаарыллыбыт
быһаарыллыбыта
быһаарыллыбытын
быһаарылынна
быһаарыммыт
быһаарыммыта
быһаарынан
быһаарынар
быһаарыныы
быһаарыныылары
быһаарыныыны
быһаарытынан
быһаарыы
быһаарыыбыт
быһаарыыбытын
быһаарыыбытынан
быһаарыыга
быһаарыылаах
быһаарыылар
быһаарыылара
быһаарыыларбытын
быһаарыыларга
быһаарыылартан
быһаарыылары
быһаарыыларыгар
быһаарыыларын
быһаарыыларынан
быһаарыынан
быһаарыыны
быһаарыыта
быһаарыыттан
быһаарыытыгар
быһаарыытын
быһаарыытынан
быһалыы
быһан
быһар
быһары
быһата
быһах
быһахтанан
быһаччы
быһаҕа
быһаҕас
быһаҕаһын
быһаҕы
быһаҕын
быһаҕынан
быһыи
быһылаан
быһылааннар
быһылааннарга
быһылаах
быһылааҥҥа
быһыллан
быһыллар
быһыллыбыт
быһыллыбыта
быһыллыбыттара
быһыннаҕына
быһыт
быһыта
быһыты
быһыы
быһыыбыт
быһыыга
быһыылаах
быһыылаахтар
быһыылаахтык
быһыылааҕа
быһыылан
быһыыланан
быһыыланар
быһыыланара
быһыыланарга
быһыыланарын
быһыыланыы
быһыыланыыга
быһыыланыыны
быһыылар
быһыылара
быһыыларга
быһыылартан
быһыылары
быһыыларыгар
быһыыларын
быһыыларынан
быһыыларыттан
быһыыларыҥ
быһыынан
быһыыны
быһыыта
быһыыттан
быһыытыгар
быһыытыи
быһыытын
быһыытынан
быһыытыттан
быһыыҥ
бье
бэ
бэббидж
бэбиэскэ
бэдьимэ
бэдьээлэ
бэдэр
бэдэрээлинэи
бэдэрээссии
бэи
бэк
бэкир
бэккэ
бэклэрбэк
бэкээринэ
бэл
бэлиитигэ
бэлиитик
бэлиитикэ
бэлиитикэни
бэлиитикэтин
бэлиитикэтэ
бэлиитикэҕэ
бэлисипиэт
бэлитиичэскэи
бэлиэ
бэлиэлэр
бэлиэлэргэ
бэлиэлэрдээх
бэлиэлэри
бэлиэлэрин
бэлиэлэринэн
бэлиэлэртэн
бэлиэлэрэ
бэлиэлээх
бэлиэни
бэлиэнэн
бэлиэр
бэлиэтигэр
бэлиэтии
бэлиэтиибит
бэлиэтииллэр
бэлиэтииллэринэн
бэлиэтииллэрэ
бэлиэтиир
бэлиэтииргэ
бэлиэтиирин
бэлиэтииринэн
бэлиэтиирэ
бэлиэтин
бэлиэтинэн
бэлиэтиэххэ
бэлиэтэ
бэлиэтэммит
бэлиэтэммиттэрэ
бэлиэтэммитэ
бэлиэтэнэн
бэлиэтэнэр
бэлиэтэнэрэ
бэлиэтээбит
бэлиэтээбитинэн
бэлиэтээбиттэр
бэлиэтээбиттэрэ
бэлиэтээбитэ
бэлиэтээн
бэлиэтээһин
бэлиэтээһиннэр
бэлиэтээһиннэрэ
бэлиэҕэ
бэлэм
бэлэми
бэлэмигэр
бэлэмин
бэлэмнии
бэлэмнииллэр
бэлэмниир
бэлэмнииргэ
бэлэмнэммит
бэлэмнэнии
бэлэмнэниигэ
бэлэмнэниини
бэлэмнэннэҕинэ
бэлэмнэнэ
бэлэмнэнэллэр
бэлэмнэнэн
бэлэмнэнэр
бэлэмнэригэр
бэлэмнэрин
бэлэмнээ
бэлэмнээбит
бэлэмнээбиттэр
бэлэмнээбитэ
бэлэмнээн
бэлэмнээтилэр
бэлэмнээтэ
бэлэмнээх
бэлэмнээһин
бэлэмнээһиҥҥэ
бэлэмэ
бэлэмҥэ
бэлэс
бэлэх
бэлэхтиир
бэлэхтэри
бэлэхтэрэ
бэлэхтээ
бэлэхтээбит
бэлэхтээбитэ
бэлэхтээн
бэлэҕи
бэлэҕэ
бэлэһигэр
бэппин
бэр
бэрбээкэи
бэргэн
бэргэнник
бэргэһэ
бэргэһэлэммит
бэргэһэлэр
бэргэһэлэрин
бэргэһэлээх
бэргэһэни
бэргэһэтин
бэргэһэтэ
бэрдибэк
бэрдимсии
бэрдин
бэрдиттэн
бэрдьигэстээх
бэрдьигэстээххэ
бэрдэ
бэрии
бэрик
бэриллибит
бэриллибиттэрэ
бэриллибитэ
бэриллибэт
бэриллиитин
бэриллиитэ
бэриллиэн
бэриллиэхтээх
бэриллэллэр
бэриллэн
бэриллэр
бэриллэрин
бэриллэрэ
бэриммит
бэриммиттэр
бэриммиттэрэ
бэриммитэ
бэриммэт
бэринии
бэриниилээх
бэриниилээхтик
бэриннэрэр
бэринэн
бэринэр
бэринэргэ
бэриэт
бэриэччиттээх
бэрияк
бэркэ
бэрпин
бэрсии
бэрсэллэр
бэрсэн
бэрсэр
бэрт
бэртэрэ
бэртээхэи
бэрэ
бэрэбинэ
бэрэбинэни
бэрэбиэркэ
бэрэбиэркэлиир
бэрэбиэркэлээн
бэрэбээски
бэрэмэдэи
бэрэпиэссэр
бэрэпиэссэрэ
бэрэсидьиэн
бэрэсидьиэнин
бэрэсидьиэнинэн
бэрэсидьиэнэ
бэрэссэдээтэл
бэрэссэдээтэлин
бэрэссэдээтэлинэн
бэрэссэдээтэллэрэ
бэрэссэдээтэлэ
бэрэстэбиитэл
бэрэстэбиитэлин
бэрэстэбиитэлинэн
бэрэстэбиитэллэр
бэрэстэбиитэллэрин
бэрэстэбиитэллэрэ
бэрэстэбиитэлэ
бэрэстээтэл
бэрэстээтэлин
бэрэстээтэлинэн
бэрэстээтэлэ
бэрэсэдээтэлин
бэрэсэдээтэлинэн
бэрэсэдээтэлэ
бэрээдэги
бэрээдэгин
бэрээдэгинэн
бэрээдэгэ
бэрээдэгэр
бэрээдэк
бэрээдэккэ
бэрээдэктэрэ
бэрээдэктээх
бэрээдэктээхтик
бэс
бэскэ
бэстибээл
бэстибээлигэр
бэстибээлин
бэстибээлэ
бэстилиэнэи
бэстилиэти
бэстилиэтинэн
бэстээх
бэстээххэ
бэт
бэтигэр
бэтин
бэтинчэ
бэтинэн
бэтиттэн
бэттиэмэ
бэттэр
бэттэрин
бэттэрэ
бэттэх
бэтэ
бэтэринээр
бэтэрээ
бэтэрээн
бэтэрээннэр
бэтэрээннэрин
бэтэрээнэ
бэтэх
бэтэҕинэ
бэх
бэчээккэ
бэчээт
бэчээтин
бэчээттиир
бэчээттэммит
бэчээттэммиттэр
бэчээттэммиттэрэ
бэчээттэммитэ
бэчээттэнэллэр
бэчээттэнэллэрэ
бэчээттэнэн
бэчээттэнэр
бэчээттэппит
бэчээттэппитэ
бэчээттэттэ
бэчээттэтэн
бэчээттэтэр
бэчээттээбит
бэчээттээбиттэрэ
бэчээттээбитэ
бэчээттээн
бээрии
бээтинэ
бэҕэһээ
бэһис
бюджет
бюллетень
бюро
бюрота
бюротун
бястинов
бі
бүгэн
бүгүн
бүгүнүгэр
бүгүҥҥэ
бүгүҥҥү
бүддьүөт
бүддьүөттэн
бүдүрүи
бүк
бүлүкэтин
бүлүү
бүлүүгэ
бүлүүттэн
бүлүүтээҕи
бүлүүчээн
бүлүүһэ
бүппэт
бүппүт
бүппүттэр
бүппүтэ
бүппүтүн
бүппүтүнэн
бүрэ
бүрээт
бүрээтии
бүрээттэр
бүрээттэргэ
бүрүи
бүрүллэн
бүрүллэр
бүрүллүбүт
бүрүнэн
бүрүстүөлгэ
бүрүстүөлүттэн
бүрүүкээн
бүрүө
бүрүөтэ
бүрүөтүн
бүрүөһүн
бүрүөһүнэ
бүрүөһүнүн
бүт
бүттэ
бүттэр
бүттэрэ
бүттэҕинэ
бүттүүн
бүттүүнэ
бүттүүнүн
бүтэ
бүтэи
бүтэллэр
бүтэн
бүтэр
бүтэрбит
бүтэрбитин
бүтэрбиттэр
бүтэрбиттэрэ
бүтэрбитэ
бүтэрбэтэх
бүтэригэр
бүтэрии
бүтэрин
бүтэриэҕиттэн
бүтэрэ
бүтэрэллэр
бүтэрэллэрин
бүтэрэн
бүтэрэр
бүтэрээри
бүтэрээт
бүтэҥи
бүтэһигин
бүтэһигэр
бүтэһик
бүтэһиктээх
бүтэһиктээхтик
бүтүгэр
бүтүн
бүтүннүү
бүтүннүүтэ
бүтүннүүтүгэр
бүтүннүүтүн
бүтүнэн
бүтүү
бүтүүлэригэр
бүтүүлээх
бүтүүтэ
бүтүүтүгэр
бүтүүтүн
бүтүүтүттэн
бүтүө
бүтүөр
бүүрүктээх
бүүс
бүүчээн
бүүһэ
бүөбэи
бүөккэ
бүөкээн
бүөлэммит
бүөлэнэн
бүөлүү
бүөр
бүөргэ
бүөтүн
бүөтүр
бө
бөдөҥ
бөдөҥнөрө
бөдөҥсүи
бөлкөи
бөлүһүөгэ
бөлүһүөк
бөлүһүөпүи
бөлөх
бөлөхтөн
бөлөхтөр
бөлөхтөргө
бөлөхтөртөн
бөлөхтөрү
бөлөхтөрүгэр
бөлөхтөрүн
бөлөхтөрүттэн
бөлөхтөрө
бөлөххө
бөлөҕү
бөлөҕүн
бөлөҕүнэн
бөлөҕө
бөлөҕөр
бөлөһүөгэ
бөлөһүөк
бөлөһүөпүи
бөр
бөрдө
бөртөлүөт
бөртөлөөх
бөрүстүөлгэ
бөрүстүөлтэн
бөрүө
бөрө
бөрөлөр
бөрөлөөх
бөрөнү
бөрөстүөлгэ
бөрөсүүдьүмүн
бөрөттөн
бөтүрүөп
бөтүҥ
бөтүҥнэр
бөх
бөхө
бөҕү
бөҕө
бөҕөнү
бөҕөргүүр
бөҕөргүүрүгэр
бөҕөргүүрүн
бөҕөргөтүллүбүт
бөҕөргөтүү
бөҕөргөтүүгэ
бөҕөргөтөн
бөҕөргөтөр
бөҕөргөтөргө
бөҕөргөөбүтэ
бөҕөргөөн
бөҕөс
бөҕөтүн
бөҕөтүнэн
бөҕөтө
бөҕөх
бөҕөҕө
бөҕөһө
бөһүөлэги
бөһүөлэгин
бөһүөлэгэ
бөһүөлэгэр
бөһүөлэк
бөһүөлэккэ
бөһүөлэктэр
бөһүөлэктэргэ
в
ва
ваби
вавилон
вагнер
вадим
ваи
вак
вакцина
вакцинация
валентин
валентина
валентинович
валериан
валерии
валерия
валл
валлии
валюта
валюталар
валютаны
валютата
валютатын
вам
ван
ванкувер
вануату
вань
ваня
варвара
варгасов
вариана
вариант
варламов
варламова
варшава
варшаваны
варшаватааҕы
варшаваҕа
вас
василевич
василии
василия
васильев
васильева
васильевич
васильевна
васильевы
васко
вася
ватаси
ватикан
ваххабиттар
вацлав
ваш
ваше
вашингтон
вашингтоҥҥа
вв
введение
ввп
ввс
вгтрк
вднх
ве
веб
вега
вегас
ведомости
ведущаи
веи
век
века
веках
веке
веков
вектор
вектора
вектордар
векторнаи
веку
великая
великие
великии
великобритания
великобританияҕа
великого
великои
великолепныи
вена
венаны
венатааҕы
венаҕа
венгр
венгрия
венгрияҕа
венера
венесуэла
венеция
вениамин
вениаминов
вера
верде
верди
веровании
верования
версии
версия
версията
версиятын
версиятынан
верхневилюи
верховнаи
верховного
верховныи
верхоянскаи
верхоянского
веры
весна
вестготтар
вести
вестник
вестфалия
весь
ветер
ветеран
ветерана
ветераны
ветеринария
ветеринарнаи
вече
вечер
вечернии
вечная
вещество
веществолар
веществолары
взаимодеи
взвод
взводун
взгляд
ви
виа
вид
виде
видео
видеоклип
видик
видов
виды
виет
виета
византии
византия
византияҕа
визирова
визуальнаи
вики
викимедиа
википедия
виктор
виктория
викторович
викторовна
вильгельм
вильдан
вильнюс
вилюи
вилюя
вина
винница
виноград
винокуров
винокурова
винсент
виолетта
виргин
вирджиния
виртуальнаи
виртуальныи
вирус
вирустар
вируһа
вируһу
вируһун
виталии
витамин
виташевскаи
витебскаи
витим
витсен
витус
вице
вич
вишневскаи
вка
вклад
вконтакте
вкп
владивосток
владивостокка
владивостоктан
владимир
владимира
владимиров
владимирович
владимировна
владислав
власов
власти
власть
влияние
влксм
вместе
вмф
внимание
вновь
внуково
во
вов
вода
водка
водород
водороднаи
воды
водянова
воевода
военкоматынан
военнаи
военная
военно
военное
воз
возвращение
воздеи
возможно
возможность
возраст
возраста
возрождение
вои
воинов
воины
вок
вокал
вокальнаи
вокзал
вокруг
волга
волгатааҕы
волгаҕа
волгоград
волгоградтааҕы
волеи
волк
волков
волкова
вологда
володя
волонте
волости
волость
волревком
волховскаи
вольдемар
вольтер
воля
вообще
вооруженных
вопрос
вопроса
вопросам
вопросов
вопросу
вопросы
вор
ворона
воронеж
воронежскаи
воронежтааҕы
ворошилов
воскресенье
воспитание
воспитания
воспоминании
воспоминания
восток
востока
востоке
востокка
востоковед
востоковедение
востоковедения
востоктааҕы
восточная
восточно
восточного
восточнои
восточныи
вострецов
вот
вота
впервые
вперед
врангель
врач
врачтар
време
времен
времена
времени
временное
время
вс
все
всеволод
всеволодовна
всегда
всего
всеи
всем
всемирнои
всемирныи
всероссии
всесоюзная
всех
вся
вторая
второи
ву
вузов
вулкаан
вулкан
вулканнар
вцик
вчера
вы
выборам
выборах
выборов
выдающии
выи
вылка
вып
выпуск
выпуски
выпускнига
выпусниктар
выпуһун
выражает
выставка
высшая
высшего
высших
выше
вышкаларын
вьет
вьетнам
вьетнамҥа
вэи
вяону
вячеслав
вүртемберг
г
га
гааз
гаас
гааһа
гааһы
гааһынан
габдулла
габдуллаа
габон
габриэль
габышев
габышева
гавааи
гаваи
гавриил
гаврил
гаврилов
гаврилова
гаврилович
гавриловна
гаврильев
гаврильева
гаврильевич
гаврильевна
гага
гагарин
гагауз
гагаузия
гагаузтар
газ
газета
газеты
гази
газпром
гаи
гаити
галактика
галактикалар
галерея
галибаров
галилеи
галилео
галина
галкин
гама
гамбия
гамбург
гамлет
ган
гана
ганди
ганеш
ганьсу
ганя
гаогюи
гаоцзюи
гар
гараж
гарвард
гарнизона
гарри
гаршнептар
гаспринскаи
гастев
гастрикка
гастрит
гафури
гаһы
гбу
гвардеи
гвардия
гватемала
гвинея
гвинеята
гг
где
гдр
ге
геван
гевара
гевелии
геденштром
геи
гектар
гектартан
гелии
геллер
геллерт
геморрои
ген
генеалогия
генезис
генерал
генерала
генералы
генеральнаи
генерального
генеральнои
генетика
генетиката
генетическаи
генетическэи
гении
геннадии
геннэрэ
геноцид
генри
генрих
географ
географии
географическаи
географические
географическии
географических
географического
география
географиялара
географията
географиятын
географияҕа
геолог
геолога
геологическаи
геология
геологияҕа
геолого
геологоразведочнаи
геологтар
геометрическаи
геометрия
георг
георгиевич
георгиевна
георгиевскаи
георгии
геохимия
гепатит
гераи
герасим
герасимов
герасимова
герасимович
герб
гербэтэ
герман
германия
германиялыын
германияны
германияттан
германияҕа
германскаи
гермогенов
геродот
героев
герои
героическаи
героическии
героя
герцеговина
герцен
герцена
герцог
гете
ги
гигиена
гидра
гидролог
гильберт
гильдиялаах
гималаи
гимн
гимназия
гимназияны
гимназията
гимназиятыгар
гимназиятын
гимназияҕа
гимнастика
гимнастикаҕа
гин
гинея
гипертоническаи
гипертония
гипноз
гипноһу
гипоталамус
гипотеза
гипофиз
гиппократ
гир
гириэк
гириэктии
гириэктэр
гитара
гитараҕа
гитис
гитлер
гиэнэ
гкчп
гл
глава
главнаи
главное
главнои
главнокомандующаи
главныи
главным
главсевморпуть
главы
глагол
глагола
глаголы
глаз
гласнаи
глебов
гликозидтар
глинка
глобал
глобальнаи
глобус
глотов
глюкоза
го
гоби
говор
говордарга
говорит
говоров
говорящего
гог
гоген
гоголев
гоголева
гоголь
год
года
годах
годов
году
годунов
годы
гои
гол
голд
голдман
голиков
голландия
голландияҕа
голливуд
голова
головин
голос
голоса
голосование
голосовании
голосования
гольдеров
гольдерова
гольян
гомель
гомер
гондурас
гонконг
гонкоҥҥа
гор
гора
горбаче
горбачев
гордеев
гордон
горизонт
горкома
горкомун
гормон
гормональнаи
гормоннар
гормоннары
гормону
горнаи
горно
горного
горняк
город
города
городе
городов
городок
городских
городского
городскои
горохов
горохова
горшокка
горы
горькаи
гос
госдума
госкомстат
госпиталыгар
госпитальга
гост
гостиница
государств
государства
государственнаи
государственная
государственного
государственное
государственнои
государственности
государственныи
государственными
государство
государствобыт
государстволар
государстволара
государстволарга
государстволары
государстволарын
государством
государствоны
государствота
государствоттан
государствотыгар
государствоҕа
госуниверситета
готовцев
готовцева
гоша
гр
граждане
гражданин
гражданина
гражданинын
гражданнар
гражданнара
гражданнарыгар
гражданнарын
гражданскаи
гражданская
гражданскои
гражданство
грамм
грамматика
грамматиката
грамматикатын
грамматическаи
грамота
грамоталара
грамоталарынан
грамотанан
грамотата
грамотатын
грамотатынан
гран
грана
гранаада
гранаата
граната
гранд
грани
гранит
границы
грант
гранын
граф
графига
график
графика
графикка
графическаи
греи
грек
греко
греков
гректэр
гректэргэ
гректэртэн
гренада
гренадиннар
гренландия
грета
грех
греция
грецияны
грецияҕа
греч
греческаи
гречиха
гречневаи
грибоктар
грибы
григориан
григории
григорьев
григорьева
григорьевич
григорьевна
григорян
грин
гринвич
грипп
грифон
грознаи
гроссмеи
гроут
груз
грузин
грузиннар
грузинскаи
грузия
грузияттан
грузияҕа
грузовиктары
грузовои
груп
групп
группа
группалаах
группалара
группата
группатыгар
группатын
группаҕа
группы
груша
грэмми
грэс
гу
гуам
гуатемала
губаи
губбюро
губернатор
губернатора
губернаторыгар
губернии
губерния
губернията
губерниятыгар
губерниятын
губерниятыттан
губернияҕа
губернскаи
губревком
гуи
гуинея
гулаана
гулаах
гулаг
гулиганнар
гуляев
гуманист
гуманит
гуманитарнаи
гуманитарная
гуманитарные
гуманитарныи
гуманитарных
гумиле
гумилев
гун
гуна
гуннар
гуннара
гуннук
гуп
гур
гурдар
гурии
гуркин
гуров
гурьев
густав
гутун
гуур
гуурдар
гуурдары
гчи
гы
гыга
гылаах
гылаахтар
гылаахтара
гылаахтарын
гылааҕа
гылааҕын
гыланан
гылар
гылара
гыларын
гыммакка
гыммат
гыммыккын
гыммыт
гыммыта
гыммыттан
гыммыттар
гыммыттара
гыммыттарын
гыммытын
гын
гына
гынаары
гыналлар
гыналларын
гынан
гынар
гынара
гынарга
гынарын
гынаҕын
гынна
гыннанан
гыннар
гыннаран
гыннатан
гыннахтарына
гыннахха
гыннаххына
гыннаҕына
гыннаһаллар
гыннаһар
гынным
гынныыллар
гынныыр
гынныҥ
гыны
гыныан
гыныгар
гыныма
гынын
гынынан
гыныы
гыр
гыстан
гыта
гытта
гыттан
гытыгар
гытын
гытынан
гыы
гыыллар
гыыр
гэ
гэи
гэлэр
гэлэргэ
гэлэригэр
гэлэрин
гэлэрэ
гэлээх
гэни
гэннэ
гэр
гэс
гэтигэр
гэтин
гэтинэн
гэтиттэн
гэттэн
гэтэ
гэҕэ
гюи
гянджеви
гүн
гүс
гүт
гө
гөр
д
да
даа
даабакка
даабат
даабыт
даабыта
даабыттар
даабыттара
даадар
дааи
даан
даана
дааннаах
дааннаи
дааннар
дааны
даар
дааран
даарар
даарыи
даата
даатахпытына
даатахха
даах
даахтар
даахтары
дааҕар
дааҕы
дааҕын
дааһын
дааһыҥҥа
дабаан
дабаи
дабыл
дабыыдап
дабыыт
давид
давидович
давыдов
давыдова
давыдович
дагдаи
дагестаан
дагестааҥҥа
дагестан
дагестанец
дадаскинов
даже
даи
дакаастаабыт
дакаастаабыта
дакаастаабыттара
дакаастаан
дакаастаата
дакаастааһын
дакаастабыл
дакаастабыла
дакаастабылга
дакаастабылынан
дакаастаммыт
дакаастаммыта
дакаастана
дакаастанан
дакаастанар
дакаастанна
дакаастаннаҕына
дакаастыы
дакаастыыбыт
дакаастыыллар
дакаастыыр
дакаастыырга
дакылаат
дакылааты
дакылаатыгар
дакылаатын
дал
дала
далааһына
далааһыннаах
далааһыннаахтык
далаи
далан
далбар
далбараи
далбардаах
далеко
дали
даллан
далланыҥылар
даллар
далларыгар
далларын
далыгар
далыр
даль
дальнаи
дальнего
дальнем
дальнии
дальстрои
далянь
дам
дама
дамматах
даммыт
даммыта
дан
дана
данан
данар
данелия
дани
даниил
данил
данилов
данилова
данилович
даниловна
дания
данияттан
данияҕа
даннаи
даннар
данного
данные
данным
данных
данте
дапсы
дар
дара
даран
дарбасов
дарбыи
дарбыт
дарвин
дарга
дардаах
дардыы
дарии
дария
дартан
дархан
дархана
дарханын
дары
дарыгар
дарын
дарынан
дарыттан
дарыылаах
дарья
дассыан
дат
дата
даты
даурдар
дах
дахпытына
дахтаах
дахтарына
дахха
даххына
дашт
даҕа
даҕааһын
даҕаны
даҕатан
даҕыи
даҕын
даҕына
даҕыттан
даҥ
даҥа
даһан
даһыы
два
двадцать
две
движение
движения
двои
дворянин
дворяннар
двумя
двух
де
дебул
девочка
дегтярев
деда
дедушка
дедюкин
дежнев
деи
дек
декабристар
декабрь
декабря
декана
декарт
декларация
декларацията
декларациятын
декоративнаи
декоративные
дел
дела
делам
делегат
делегата
делегатынан
делегация
деление
дели
дело
деловои
дель
дельта
дельтатыгар
дельтатын
деменция
демобилизацияланан
демография
демократ
демократическаи
демократия
демократияны
демон
демонстрация
демоскоп
ден
денарии
дениз
денис
денисович
денисовна
деноминация
день
деньги
департамент
департаменын
депрессия
депутат
депутата
депутатов
депутатскаи
депутатскии
депутаттар
депутаттары
депутаттарын
депутаты
депутатынан
дер
деревья
дерпт
десант
десна
десяткин
дет
детеи
детектив
дети
детсад
детсадка
детсадтарга
детская
детскии
детскои
детям
деятель
деятельности
деятельность
деятелэ
деятеля
дж
джаз
джаи
джалиль
джамбул
джами
джан
джана
джанскаи
джаспер
джаҥҥа
джеи
джек
джексон
джерси
джоан
джобс
джованни
джозеф
джои
джон
джонс
джонсон
джордж
джорджия
джульетта
джунгардар
джурма
джучи
дзи
ди
диабет
диагноз
диагностика
диалега
диалегар
диалекка
диалект
диалектар
диалектара
диалектологическии
диалог
диаметра
диаметрдаах
диана
дианетика
дианетике
диаспората
дибит
диван
дивизия
дивизиятын
дивизияҕа
диего
диетаны
диетаҕа
диз
дизаи
дии
диибин
диибит
диигин
дииллэр
дииллэригэр
дииллэрин
дииллэрэ
диин
диир
диирбит
дииргэ
диири
диирин
диириттэн
диирэ
диискэ
дик
диктатор
диктаторскаи
диктатура
диктатураны
диктатурата
дилэр
дим
дима
димитриан
димитрии
дин
дина
динаар
динамика
динамиты
динамо
динар
династия
династиялара
династияларын
династията
династиятын
дингер
динлиннэр
динозавр
динозаврдар
диодорова
диоклетиан
дионисии
диплом
дипломана
дипломат
дипломатия
дипломнаи
дипломун
дипломунан
директор
директора
директордаабыта
директоры
директорын
директорынан
дириже
дирижер
дирижера
дирижирование
дирин
дириэктэр
дириэктэрдэрин
дириэктэрдээбит
дириэктэрдээбитэ
дириэктэри
дириэктэрин
дириэктэринэн
дириэктэрэ
дириҥ
дириҥиир
дириҥин
дириҥник
дириҥнээх
дириҥэ
дириҥэтэн
дириҥэтэр
дириҥээн
дириҥҥэ
дис
диснеи
диспансер
дисплеи
дисс
диссертации
диссертационнаи
диссертация
диссертацияны
диссертациятын
диссэртээссии
дистанцияҕа
дистиллированнаи
дисциплиналар
диэ
диэбиккэ
диэбиппит
диэбит
диэбитигэр
диэбитин
диэбиттии
диэбиттэр
диэбиттэрин
диэбиттэрэ
диэбиттээх
диэбитэ
диэбэккэ
диэбэт
диэбэттэр
диэи
диэки
диэкинэн
диэкиттэн
диэкки
диэммин
диэммит
диэмэ
диэн
диэни
диэнинэн
диэннэр
диэннэргэ
диэннэри
диэнтэн
диэнэ
диэри
диэт
диэтилэр
диэтим
диэтэ
диэтэр
диэтэргин
диэтэргит
диэтэхпинэ
диэтэхпитинэ
диэтэхтэринэ
диэтэххэ
диэтэҕинэ
диэх
диэхпитин
диэхсин
диэхтэрэ
диэххэ
диэччилэр
диэҕэ
диэҥ
диэҥҥэ
диэһин
диҥилэр
для
дмитриев
дмитриева
дмитриевич
дмитриевна
дмитрии
дмитрьевич
дмитрьевна
дне
днеи
днепр
днепропетровскаи
днестр
дни
днк
днэн
дня
до
доблестныи
доблесть
добрыи
добун
догдо
догдоон
догдоҥо
договор
догордуров
догу
дозата
дои
докл
доклад
докладов
доктор
доктора
доктордара
докторов
докторова
докторскаи
докторыгар
докторын
документ
документальнаи
документов
документы
докумуон
докумуона
докумуоннар
докумуоннара
докумуоннарга
докумуоннары
докумуоннарыгар
докумуоннарын
докумуону
докумуонугар
докумуонун
докумуонунан
докумуоҥҥа
долган
долго
долгуи
долгун
долгуна
долгуннаах
долгуннар
долгуннара
долгуннары
долгунугар
долгунун
долгутар
должен
должно
должны
долина
доллар
доллара
долларга
долларов
доллары
долларыгар
долли
доллу
долохуна
долоҕои
дом
дома
домен
домена
доминго
доминика
домодедово
доможаков
домох
домохтор
домоххо
дон
дональд
донецк
донецкаи
донн
донскои
дону
доо
доон
доосо
доох
дооҕу
доп
дополнительные
доппуруос
дор
дора
доргуи
доро
доров
дорович
дорога
дороги
дорообо
дорофеев
дорофеевич
дорун
доруобаи
доруобуи
дорҕоон
дорҕоонноох
дорҕоонноохтук
дорҕооннор
дорҕооннорго
дорҕооннордоох
дорҕоонноро
дорҕооннортон
дорҕооннору
дорҕоонноругар
дорҕооннорун
дорҕооннорунан
дорҕоонноруттан
дорҕооно
дорҕоонтон
дорҕоону
дорҕоонун
дорҕоонунан
дорҕооҥҥо
достижения
достоевскаи
достои
дохсун
дохсуннук
дохуот
дохуота
дохуоттаах
дохуоту
дохуотун
доцена
доцент
дочь
доҕолоҥ
доҕоор
доҕор
доҕорбор
доҕоргун
доҕордоох
доҕордоһон
доҕордоһор
доҕордоһуу
доҕордоһуулара
доҕордоһууларын
доҕордуу
доҕордуулар
доҕоро
доҕоругар
доҕорум
доҕорун
доҕоруом
доҕоруҥ
доҕорчуок
доҕотто
доҕоттоор
доҕоттор
доҕотторгун
доҕотторо
доҕотторун
доҕотторуҥ
доҕуһуол
доҕуһуоллаах
доҕуһуолланан
др
драгоценных
драи
дракон
драм
драма
драмалар
драмата
драматическаи
драматура
драматург
драматурга
драматургия
драматуур
драматыгар
драматын
драхма
древнеи
древнетюркскои
древние
древних
древности
древняя
дреи
дрозд
дрофа
друг
друга
другие
другим
других
другои
дружба
дружина
дружинатыгар
дружинатын
друзеи
дсо
ду
дуб
дубаи
дубар
дубильнаи
дублин
дублон
дубо
дубун
дубут
дубутугар
дубутун
дуга
дугар
дугдуруи
дуглас
дугуи
дуи
дук
дукат
дула
дулаах
дулаахпыт
дулаахтара
дулаахтарбыт
дулаахтарын
дулааҕа
дулааҕын
дулар
дулара
дуларга
дулартан
дулары
дуларыгар
дуларын
дуларынан
дуларыттан
дулгаан
дулгааннар
дулҕа
дулҕалаах
дум
дума
думатын
думаҕа
думы
дун
дунааи
дунаи
дунан
дуну
дуо
дуобакка
дуобат
дуобата
дуогабар
дуогабара
дуогабарга
дуогабары
дуогабарын
дуогабарынан
дуоктар
дуоктара
дуоктарын
дуол
дуола
дуолаи
дуолан
дуолга
дуоллар
дуоллара
дуолларга
дуоллары
дуолларын
дуолу
дуолун
дуон
дуона
дуораана
дуораи
дуораһыи
дуохха
дуоҕаар
дуоһуи
дуоһунас
дуоһунаска
дуоһунастаах
дуоһунастарга
дуоһунаһыгар
дуоһунаһын
дуоһунаһыттан
дуоһунаһыҥ
дурда
дуров
дута
дутааҕы
дуткин
дуттан
дутугар
дутун
дутунан
дутуттан
дуу
дуулаҕа
дууллар
дуума
дуумата
дууматын
дууп
дуур
дуура
дуурга
дууһа
дууһалаах
дууһаларын
дууһам
дууһаны
дууһата
дууһатыгар
дууһатын
дух
духа
духов
духовнаи
духовного
духовнои
духовои
духуобунаи
духуобунас
духуобунаһын
душа
душе
душевного
души
дуэт
дуҕан
ды
дыа
дыан
дыахтаах
дыаҕыттан
дыбакка
дыбарыас
дыбарыаһа
дыбарыаһыгар
дыбарыаһын
дыбат
дыбатах
дыбатаҕына
дыбо
дыбыт
дыбыта
дыбыттар
дыбыттара
дыбыттарын
дыбытын
дыбытынан
дыбытыттан
дыгын
дык
дылар
дылы
дым
дын
дыраама
дыргыл
дыттан
дыы
дыыга
дыылаах
дыылаахпыт
дыылаахтар
дыылааҕын
дыылара
дыыларыгар
дыыларын
дыыллар
дыын
дыыны
дыыр
дыырга
дыыта
дыыттан
дыытыгар
дыытын
дыытынан
дыытыттан
дыҥ
дыҥы
дыҥылар
дыһан
дыһыыны
дь
дьа
дьаабылака
дьаабылыка
дьаакып
дьаалатынан
дьаалы
дьаам
дьаан
дьаарбаи
дьаарбаҥкаҕа
дьаархан
дьаархаҥҥа
дьаарыстаан
дьаат
дьааттаах
дьааты
дьааҥы
дьааҥыга
дьааҥҥа
дьааһыи
дьааһык
дьааһыла
дьааһын
дьабака
дьабара
дьабарааскы
дьабарыкы
дьабыл
дьабыыл
дьагдьаи
дьадаи
дьадаҥы
дьадаҥылар
дьадаҥылара
дьадаҥыларга
дьадаҥылары
дьадаҥыны
дьадаҥыта
дьадаҥыттан
дьадаҥытык
дьадаҥытын
дьадид
дьаи
дьалаҕаи
дьалбаа
дьалкыи
дьалкытан
дьаллыкка
дьалхаан
дьалхааннаах
дьан
дьанибэк
дьаннар
дьаныардаах
дьаныардаахтык
дьаныһан
дьапталҕа
дьар
дьарааһын
дьаралыга
дьаралык
дьаргыстаи
дьардьама
дьарыга
дьарыгы
дьарыгын
дьарыгынан
дьарыгырар
дьарыгыттан
дьарыи
дьарык
дьарыкка
дьарыктаабыт
дьарыктаан
дьарыктаах
дьарыктааһын
дьарыктаммыт
дьарыктаммыта
дьарыктаммыттар
дьарыктаммыттара
дьарыктана
дьарыктанааччылар
дьарыктаналлар
дьарыктаналлара
дьарыктаналларыгар
дьарыктаналларын
дьарыктанан
дьарыктананнар
дьарыктанар
дьарыктанара
дьарыктанарга
дьарыктанарын
дьарыктаннахха
дьарыктаннаҕына
дьарыктаныы
дьарыктара
дьарыктарын
дьарыктарынан
дьарыктыы
дьарыктыыр
дьарыктыыра
дьарҕа
дьарҕаа
дьарҕаалаах
дьахталлар
дьахталлара
дьахталларбыт
дьахталларга
дьахталлартан
дьахталлары
дьахталларын
дьахталларыттан
дьахтар
дьахтара
дьахтарга
дьахтардаах
дьахтартан
дьахтары
дьахтарын
дьахтарыттан
дьаҕыл
дьаҥ
дьаҥхаады
дьаҥылы
дьаҥҥа
дьаһаах
дьаһааҕы
дьаһабыл
дьаһабыллар
дьаһаи
дьаһал
дьаһала
дьаһаллар
дьаһаллары
дьаһалта
дьаһалтата
дьаһалтатын
дьаһалы
дьаһалынан
дьаһанар
дьаһаныы
дьаһах
дьаһахтарын
дьаһахха
дьаһаҕа
дьаһаҕар
дьаһаҕы
дьаһаҕын
дьибути
дьигиһии
дьиибэ
дьиикэи
дьиксинэн
дьикти
дьиктилэрин
дьиктилээх
дьиктини
дьиктитик
дьиктитэ
дьилиндэ
дьим
дьин
дьини
дьиннээх
дьиппинии
дьиппиэн
дьирибинэ
дьириҥ
дьириҥэ
дьит
дьиэ
дьиэбит
дьиэбитигэр
дьиэбэр
дьиэлэр
дьиэлэргэ
дьиэлэри
дьиэлэригэр
дьиэлэрин
дьиэлэринэн
дьиэлэриттэн
дьиэлэртэн
дьиэлэрэ
дьиэлээх
дьиэлээхтэр
дьиэм
дьиэни
дьиэнэн
дьиэрэи
дьиэрэҥкэи
дьиэрэҥнэр
дьиэтигэр
дьиэтин
дьиэтиттэн
дьиэттэн
дьиэтэ
дьиэтээҕи
дьиэҕэ
дьиэҕэр
дьиэҥ
дьиҥ
дьиҥинэн
дьиҥнээх
дьиҥнээхтии
дьиҥнээхтик
дьиҥэ
дьиҥэр
дьо
дьобуруопа
дьогдьуурдаах
дьои
дьокутаат
дьокутаата
дьокутааттар
дьокутааттара
дьокутааттарын
дьокутаатынан
дьокуускаи
дьол
дьолго
дьоллонор
дьоллоох
дьоллоохтук
дьоло
дьолу
дьолум
дьолун
дьолунан
дьолуо
дьоммор
дьоммун
дьоммут
дьоммутугар
дьоммутун
дьон
дьонно
дьонноох
дьоннооҕор
дьоннор
дьоннорбут
дьоннорго
дьонноргун
дьоннордоох
дьонноро
дьоннортон
дьоннору
дьонноругар
дьоннорун
дьоннорунан
дьонноруттан
дьонноруҥ
дьоннуу
дьоно
дьонтон
дьону
дьонугар
дьонум
дьонун
дьонунан
дьонуттан
дьонуҥ
дьоп
дьоппуон
дьоппуоннар
дьоппуоннарга
дьоппуоннары
дьоппуоннуу
дьоппуону
дьоппуоҥҥа
дьорбуоҥка
дьордь
дьоро
дьоруо
дьоруои
дьохсоҕон
дьоҕур
дьоҕура
дьоҕурдаах
дьоҕурдааҕа
дьоҕурдааҕын
дьоҕурдара
дьоҕурдарын
дьоҕуру
дьоҕурун
дьоҕус
дьоҥҥо
дьоҥҥор
дьоҥҥун
дьоҥҥут
дьоһун
дьоһуннаах
дьоһуннаахтык
дьоһунун
дьукаах
дьукку
дьулаан
дьулаи
дьулуруи
дьулуур
дьулуура
дьулуурдаах
дьулуурдаахтык
дьулуурдара
дьулууру
дьулуурун
дьулуурунан
дьулуһаллар
дьулуһан
дьулуһар
дьулуһара
дьулуһуу
дьулуһууларын
дьулуһуута
дьуо
дьуон
дьуот
дьуоту
дьуотунан
дьуптуон
дьураа
дьураалаах
дьурантааи
дьут
дьута
дьууруи
дьуҥҕаар
дьуһаал
дьыала
дьыалабыаи
дьыалалаахтар
дьыалалар
дьыалалара
дьыалаларга
дьыалаларгын
дьыалалары
дьыалаларыгар
дьыалаларын
дьыалаларынан
дьыалаларыттан
дьыалаларыҥ
дьыаланан
дьыаланы
дьыалата
дьыалаттан
дьыалатыгар
дьыалатын
дьыалатынан
дьыалаҕа
дьыалаҕар
дьыалаҕын
дьыалаҥ
дьыбаан
дьыбааҥҥа
дьыбар
дьыбардаахха
дьыл
дьыла
дьылга
дьыллааҕы
дьыллар
дьылларга
дьылы
дьылыгар
дьылын
дьылҕа
дьылҕалаах
дьылҕаланаллар
дьылҕаланар
дьылҕаланара
дьылҕалара
дьылҕаларын
дьылҕам
дьылҕата
дьылҕатыгар
дьылҕатын
дьыт
дьэ
дьэбин
дьэбиннээх
дьэбириэи
дьэбэриэи
дьэгдьии
дьэдьэн
дьэи
дьэкиим
дьэллик
дьэр
дьэргэлгэн
дьэрэкээн
дьэс
дьээ
дьэҥкир
дьэҥкэ
дьэҥкэтик
дьэһиэи
дьяконов
дьяконова
дьячковскаи
дьячковская
дьячковскии
дьү
дьүдьэи
дьүккүи
дьүккүөрдээх
дьүкээбил
дьүкээгир
дьүлэи
дьүчи
дьүүктэ
дьүүл
дьүүлгэ
дьүүллээн
дьүүллүүр
дьүүлэ
дьүһүи
дьүһүн
дьүһүннэнэр
дьүһүннэр
дьүһүннэрэ
дьүһүннээн
дьүһүннээх
дьүһүннээхтэр
дьүһүннээһин
дьүһүннээһини
дьүһүннээһинигэр
дьүһүннээһиннэр
дьүһүннээһиннэри
дьүһүннээһиннэригэр
дьүһүннээһиннэрин
дьүһүннээһиннэрэ
дьүһүннээһиҥҥэ
дьүһүннүүллэр
дьүһүннүүр
дьүһүннүүргэ
дьүһүнэ
дьүһүнү
дьүһүнүн
дьүһүнүнэн
дьүөгэ
дьүөгэтэ
дьүөрэ
дьүөрэлии
дьүөрэлиир
дьүөрэлээн
дьүөрэлэһиилэрин
дьүөрэлэһэн
дьүөрэлэһэр
дьөгүөнньүк
дьөгүөр
дьөккөн
дьөлүтэ
дьөлүһүөн
дьөлө
дьөлөҕөс
дьөппөн
дьөһүөл
дьөһөгөи
дэ
дэбдэи
дэбдэтэн
дэбдэтэр
дэбдэҥ
дэбигис
дэбилии
дэвид
дэвис
дэгиттэр
дэгэрэҥ
дэгэт
дэгэттээх
дэи
дэкириэт
дэкириэтинэн
дэлби
дэлэгэи
дэлэгээссии
дэлэгээт
дэлэгээтинэн
дэлэгээтэ
дэлэи
дэлэччи
дэлэҕэ
дэм
дэммит
дэммэккэ
дэмнээх
дэмнээхтик
дэн
дэнбэи
дэнии
дэниитэ
дэниэхтэрин
дэнэ
дэнэллэр
дэнэллэрэ
дэнэн
дэнэр
дэнэрэ
дэнээччи
дэнэҕин
дэпсэи
дэр
дэргэ
дэри
дэригэр
дэрин
дэринэн
дэриттэн
дэриэбинэ
дэриэбинэлэр
дэриэбинэлэргэ
дэриэбинэлэри
дэриэбинэлэригэр
дэриэбинэлэрин
дэриэбинэни
дэриэбинэтигэр
дэриэбинэтин
дэриэбинэтэ
дэриэбинэҕэ
дэриэспэ
дэртэн
дэрэ
дэс
дэтэ
дэтэн
дэхси
дэхтэринэ
дэххинэ
дэххэ
дээ
дээбит
дээбитэ
дээбэт
дээл
дээн
дээх
дээхтик
дээхтэн
дээхтэр
дээххэ
дээҕи
дээҕин
дээҕиттэн
дээҕэр
дээһин
дэҕинэ
дэҥ
дэҥнэнии
дэҥнээн
дэҥнээтэҕинэ
дэҥҥэ
дэһэ
дэһэллэр
дягилев
дүллүкү
дүлүҥ
дүпсүн
дүҥүр
дүҥүрүн
дүү
дүүбүн
дүүбүт
дүүллэр
дүүллэрэ
дүүр
дүүргэ
дүүрэ
дүүрүгэр
дүүрүн
дүүрүттэн
дүө
дүөн
дүөхпүт
дүөхтэрэ
дүөххэ
дө
дөбүл
дөбүлгэ
дөбүллэнэр
дөбүллэр
дөбүллэргэ
дөбүллэрдээх
дөбүллэри
дөбүллэригэр
дөбүллэрин
дөбүллэринэн
дөбүллэриттэн
дөбүллэртэн
дөбүллэрэ
дөбүллээн
дөбүллээх
дөбүллээхтэр
дөбүллээҕин
дөбүллээҕэ
дөбүлтэн
дөбүлэ
дөбүлү
дөбүлүгэр
дөбүлүн
дөбүлүнэн
дөбүлүттэн
дөбүнньүк
дөбөҥ
дөбөҥнүк
дөи
дөкүмүөн
дөкүмүөннэрэ
дөлбү
дөлүһүөн
дөммүт
дөммөт
дөнүллэр
дөнүмтүө
дөнүөн
дөнөллөр
дөнөн
дөнөр
дөнөрө
дөр
дөртөн
дөрүгэр
дөрүн
дөрүнэн
дөрүттэн
дөрө
дөспөт
дөтүү
дөтө
дөтөллөр
дөтөн
дөтөр
дөһүү
дөһөн
дөһөр
дөө
дөөбөккө
дөөбөппүн
дөөбөт
дөөбөттөр
дөөн
дөөтөххө
дөөх
дөөхтөр
дөөхтөрө
дөөҕү
дөөҕүн
дөөһүн
е
ев
ева
евангелие
евгении
евгения
евгеньевич
евграф
евдокимов
евдокимова
евдокимович
евдокия
евклид
евразии
евразия
евразияҕа
евреи
евро
евровидение
еврозона
европа
европаны
европатааҕы
европаттан
европаҕа
европе
европеи
европы
евросоюз
евроҕа
евсеев
евсеева
евсеевич
египеккэ
египет
его
егор
егоров
егорова
егорович
егоровна
ед
единая
единица
единицы
ее
ежегодник
еи
екатерина
екатеринбург
елена
елизавета
елисеевич
елисеи
ель
ельцин
ельцинныын
ем
емельян
емельянов
емен
ему
ен
енисеи
епискоба
епископ
ер
еремеев
еремеевич
еремеевна
еремеи
ермак
ермака
ермолаев
ерошенко
ершов
ес
есенин
если
ессе
естественнаи
естественно
естественнэи
есть
ефим
ефимов
ефимова
ефимович
ефимовна
ефрем
ефремов
ефремова
ефремович
ефрон
ефрона
еще
ж
жадеи
жак
жан
жана
жанаев
жанеи
жанна
жанр
жанра
жанрга
жанрдаах
жанрдар
жанрыгар
жанрын
жаргон
жаргону
жатаи
жданов
же
жегусов
желание
железо
жена
женева
женеваҕа
женщин
женщина
женщины
жи
живая
живет
живои
живописец
живописеһа
живописи
живописнаи
живопись
животные
животных
жиганскии
жизель
жизни
жизнь
жил
жирафа
жирков
жиркова
житомир
жить
жорж
жорницкая
жрец
жуков
жукова
журнал
журнала
журналист
журналистарын
журналистика
журналистов
жюль
з
за
зааи
забаи
заболоцкаи
забота
зав
заведении
завирушковые
завод
завода
заводтар
заводтара
заводу
завтра
завуч
завуһунан
задача
заж
заи
закон
зал
залог
замбия
заметки
замок
заочнаи
западная
западнои
записи
записки
запись
заповедник
запорожье
зарекаи
заречнаи
зарница
заря
заседание
заслуги
заслуженного
заслуженныи
застои
затем
зафар
захар
захаров
захарова
захарович
захаровна
захарьин
зашиверскаи
защиты
звание
званиелаах
звания
звезда
звено
звенота
зверев
зверева
здесь
здоровье
здоровья
здравоохранения
здравствуи
зе
зевс
зеландия
зеландияҕа
зеленыи
земле
земледелия
земли
земля
земноводные
земскэи
земство
земфира
зер
зимбабве
зимин
зинаида
зия
знаага
знага
знагын
знагынан
знаете
знак
знактарынан
знаменат
знаменательных
знамя
знамята
знамятын
знание
знании
знать
значение
значения
зодиак
золотарев
золотая
золото
золотои
золотые
зона
зоната
зонатыгар
зонатын
зонд
зоология
зоопарка
зоотехнигынан
зоотехник
зороастризм
зоя
зрения
зуев
зыков
зырянка
зябликтар
и
иа
иакинф
ибир
ибн
ибрагим
ибраи
ива
иван
ивана
иванов
иванова
иванович
ивановна
иваново
ивановскаи
иво
ивр
иврит
ивуар
иги
игидэи
игиипмнс
игил
игин
игирэ
игирэлэр
игиттэн
игнатии
игнатьев
игнатьева
игнатьевич
игнатьевна
игорь
игр
игра
игры
игэ
игэр
ид
идеи
идеолога
идеология
идеологията
идеологиятын
идея
идеялара
идеяларын
идеята
идеятын
идиш
идиэи
идьм
идэ
идэлги
идэлэрин
идэлэринэн
идэлээх
идэлээхтэр
идэлээҕэ
идэни
идэтигэр
идэтии
идэтин
идэтинэн
идэтэ
идэҕэ
идэһэ
иероглиф
иероглифтар
иерусалим
иерусалимы
ижевскаи
из
изабелла
избеков
избекова
избирателя
избранное
избранные
избранных
известия
известные
известныи
изд
издание
издании
издания
издат
издательскаи
издательская
издательскии
издательство
издательствота
издательствотыгар
измаи
изменении
изменения
измир
израиль
израильга
изучение
изучении
изучению
изучения
изяслав
ии
иибитигэр
иигин
иигэ
иик
ииктэтэр
ииктээһин
иилиллэр
иилинэр
иилэ
иилэн
иилэр
иилэргэ
иилэри
иилэригэр
иилэрин
иилэринэн
иилэрэ
иилээн
иилээх
иилээхтик
иим
иин
ииндии
иини
иинин
иинэн
ииппит
ииппитэ
ииппэккэ
ииппэт
ииппэттэриттэн
иирбит
иирдэр
иирсэн
иирсээн
иирсээни
иирсээнэ
иирэ
иирэн
иирэр
иирээн
иис
иистэнньэҥ
иистэнэр
иистээх
иисус
иит
иитигэр
иитии
иитиигэ
иитиилэригэр
иитиилэрэ
иитиилээх
иитиини
иитиинэн
иитиитигэр
иитиитин
иитиитинэн
иитииттэн
иитиитэ
иитилиннэҕинэ
иитиллибит
иитиллибитин
иитиллибититтэн
иитиллибиттэрэ
иитиллибитэ
иитиллибэтэх
иитиллии
иитиллэ
иитиллэллэриттэн
иитиллэллэрэ
иитиллэн
иитиллэр
иитиллэригэр
иитиллэрин
иитиллэриттэн
иитиллэрэ
иитиллээччи
иитиллээччилэр
иитиллээччилэрэ
иитиллээччитэ
иитин
иитинэн
иититтэн
иитиэ
иитиэх
иитиэхтэрэ
иитиэхтээн
иитиэххэ
ииттинэн
ииттэн
ииттэр
ииттэрин
ииттэрэ
ииттэрэн
ииттэхтэринэ
ииттэххэ
ииттэҕинэ
иитэ
иитэллэр
иитэллэригэр
иитэллэрин
иитэллэриттэн
иитэллэрэ
иитэн
иитэннэр
иитэр
иитэргэ
иитэрин
иитэринэн
иитэртэн
иитэрэ
иитээччи
иитээччилэр
иитээччилэрэ
иитээччинэн
иитээччитэ
ииҥҥэ
ииһи
ииһэ
ик
икбал
икки
иккилии
иккини
иккис
иккискэ
иккистээн
иккитин
иккиттэн
иккитэ
иккиэ
иккиэи
иккиэн
иккиэннэригэр
иккиэннэрин
иккиһин
иккиһинэн
иккиһэ
ил
илбии
илбис
илбистээх
илбэҥэ
илгии
илгэ
илгэлээх
илдьи
илдьибит
илдьиркэи
илдьит
илдьити
илдьитин
илдьитэ
илдьэ
илдьэллэр
илдьэн
илдьэр
или
илигин
илигинэ
илигинэн
илигиттэн
илигэ
илии
илиибин
илиибэр
илиигин
илиигинэн
илиигэ
илиигэр
илиилэригэр
илиилэрин
илиилэринэн
илиилэриттэн
илиилэрэ
илиилээх
илиим
илиини
илиинэн
илиитигэр
илиитин
илиитинэн
илиититтэн
илииттэн
илиитэ
илииҥ
илик
иликпин
иликпит
иликпититтэн
иликтэн
иликтэр
иликтэрин
иликтэринэ
иликтэриттэн
иликтэрэ
илим
илимниир
илин
илини
илинигэр
илинни
илиннээҕи
илинтэн
илиэгин
илиэгэ
илиэгэр
илиэк
илиэнньэ
илиҥ
илиҥҥи
илиҥҥэ
илкэн
илларионов
илларионович
иллиитэ
иллинои
иллэ
иллэр
иллэрин
иллэрэ
иллээх
иллээхтик
иллэҥ
иллэҥсии
иллюстрированныи
ильин
ильина
ильинична
ильич
ильмень
илья
ильяхов
илэ
илэр
илэргэ
илэри
илэрин
илэртэн
илэрэ
илэтигэр
илээх
им
имам
име
имеет
имеется
имен
имена
имени
иметь
имигэс
имигэстик
иминэн
имири
имитэн
имиэххэ
иммиграннар
иммиграция
иммит
иммунитет
иммунитета
иммунитеты
иммуннаи
иммэт
император
императора
императорга
императордар
императорскаи
императорского
императорын
империатыгар
империи
империя
империялар
империяны
империята
империятыгар
империятын
империяҕа
импиэрии
импульс
импэрээтэр
импэрээтэрин
импэрээтэринэн
импэрээтэрэ
имтиэ
имтиэлэр
имтиэтик
имтиэтин
имтиэтэ
имэ
имэрии
имэҥ
имэҥнээх
имя
ин
инбэлиит
инбэлииттэр
инбэлииттэргэ
инбэлиитэ
инв
инвалид
инвалидов
инвалиды
инвестиции
инвестиционнаи
инвестиция
ингуш
ингушетия
инд
индеец
индеецтэр
индекс
индекска
индиана
индивидуальнаи
индигиир
индигир
индии
индия
индияттан
индияҕа
индо
индоевропеи
индокитаи
индонезия
индонезияҕа
индуизм
индустриальнаи
индустрия
индустрията
индустриятыгар
индустриятын
индэксэ
инженер
инженера
инженеринэн
инженернаи
инженерно
инженернэи
инженерын
инженерынан
инженерэ
ини
инибин
инии
иниилэрэ
иниини
инилэр
инин
инитэ
инквизиция
инкубатор
инн
инна
иннибитигэр
иннибэр
иннигэр
инник
инники
инникигэ
инникини
инникитин
иннилэригэр
иннилэрин
иннилэринэ
иннин
иннинэ
иннинэн
иннинээҕи
инниттэн
инновации
инновационнаи
инновация
иннокентии
иннокентьев
иннокентьева
иннокентьевич
иннокентьевна
иннокентьевскаи
инньэ
инньэлээх
иннэ
иннэлээх
иннэни
иногда
инородец
инородецтар
инородцев
инородцы
инспектор
инспектора
инспекторынан
институкка
институт
института
институтка
институттара
институттарыгар
институттарын
институту
институтугар
институтун
институты
институтыгар
институтын
институукка
институута
институуту
институутугар
институутун
инструктор
инструктора
инструкторынан
инструменнар
инструменнары
инструменнарын
инструмент
инструментальнаи
инсулин
инсулины
инсульт
интеллектуальнаи
интеллигенции
интеллигенция
интеллигенциятын
интервью
интернакка
интернат
интернатыгар
интернационал
интернациональнаи
интернекка
интернет
интернешнл
интерфакс
интерфеи
интириэһинэи
интэлигиэнсии
интэн
интэриниэккэ
интэриниэт
интэринээккэ
интэринээт
интэриэс
интэриэстэрин
интэриэстээх
интэриэһи
интэриэһин
интэриэһинэи
интэриэһиргэтэр
интэриэһэ
инфаркт
инфекционнаи
инфекция
инфляция
информ
информатика
информатикаҕа
информации
информационнаи
информационное
информационные
информационныи
информация
информацияны
информациятын
инчэҕэи
инь
инэ
инэи
инэллэрэ
инэн
инэр
иоаким
иоанн
иоганн
иокогама
ион
иона
ионеско
ионов
ионова
ионович
иордания
иосиф
иосифович
иохельсон
ип
ипкро
ипподром
ир
ираак
ираан
ирааҥҥа
ираида
ирак
иракка
иран
иранныы
ираҥҥа
ирбэт
ирдииллэр
ирдииллэрэ
ирдиир
ирдиирин
ирдиирэ
ирдьэ
ирдэбил
ирдэбилгэ
ирдэбили
ирдэбилигэр
ирдэбилин
ирдэбилинэн
ирдэбиллэрин
ирдэбиллэрэ
ирдэбиллээх
ирдэбилэ
ирдэниллэр
ирдэнэр
ирдэнэрин
ирдэнэрэ
иренак
иригэр
ирина
ириэнэх
ириэрэн
ириҥэ
ириҥэлээх
иркутск
иркутскаи
иркутского
иркутскои
ирландия
ирландияҕа
иртыш
ирчитин
ирчитэ
ирэ
ирэн
ирэр
ирээтэ
ис
исаак
исаи
исаков
исидор
иске
искра
искусств
искусства
искусственнаи
искусство
искусствовед
искусствоведение
искусствотыгар
искусствотын
искусствоҕа
искэ
искэн
искэни
искэр
искэҥ
ислаам
ислаамы
ислам
исламы
исландия
исландияҕа
исмаил
исп
испаан
испан
испанецтар
испания
испанияны
испанияттан
испанияҕа
испанскаи
испии
испиир
испииргэ
испиирдэр
испиири
испииртэн
испиискэ
испиискэни
испииһэгэ
испииһэгэр
испииһэк
испииһэккэ
испииһэктэригэр
испииһэктэрэ
испирдиэн
испит
испитигэр
испитин
испиттэр
испиттэрэ
испитэ
испиэскэ
исповедь
исполком
исполкома
исполкомун
использование
использования
испр
исправнигар
исправник
испэккэ
испэр
испэссээлинэскэ
испэт
испэтин
испэттэр
испэттэрин
испэтэх
испэтэҕинэ
исраил
исслед
исследование
исследовании
исследования
исследователи
исследователь
иссык
ист
истамбул
истанбул
истибит
истибитим
истибитин
истибиттэр
истибиттэрэ
истибитэ
истибэккэ
истибэт
истибэтин
истибэтэх
истигэн
истии
истиигэ
истиил
истиилигэр
истиилин
истиилинэн
истииллээх
истиилэ
истиилэригэр
истиини
истииттэн
истиитэ
истилиистикэ
истилэр
истим
истимтиэ
истин
истина
истиэ
истиэнэ
истиэнэтин
истиэнэҕэ
истиэп
истиэптэригэр
истиэпэн
истиэпэнин
истиэпэннээх
истиэпэнэ
истиэххин
истиэххэ
истиэҕиҥ
истиэҥ
истиҥ
истиҥник
истоки
историга
истории
историк
историко
историктар
историографии
историография
историческаи
историческая
исторические
историческии
исторических
исторического
историческое
историческои
историю
история
историялаах
историялара
историяларын
историяны
историята
историятыгар
историятын
историятыттан
историяҕа
источник
источники
источников
источниковедение
источниктар
источниктара
источниктарга
истэ
истэбин
истэбит
истэллэр
истэллэрин
истэллэрэ
истэн
истэр
истэргэ
истэри
истэригэр
истэрим
истэрин
истэриттэн
истэрэ
истэх
истэхпитинэ
истэхтэрин
истэхтэринэ
истэххинэ
истэххэ
истээт
истээх
истээччи
истээччилэр
истээччитэ
истэҕин
истэҕинэ
исус
исхаков
ит
итака
италия
италияттан
италияҕа
итальянскаи
ити
итибубан
итигэр
итии
итиигэ
итиини
итиинэн
итиитик
итииттэн
итиитэ
итилэр
итилэргэ
итилэри
итилэртэн
итим
итин
итини
итиниэхэ
итинник
итинниккэ
итиннэ
итинтэн
итинэн
итирбит
итирбитин
итирдии
итирдэн
итирдэр
итирдэхтэринэ
итирдэҕинэ
итирии
итирик
итирэ
итирэн
итирэр
ититэн
ититэр
итиччэ
итиэннэ
итогам
итогах
итоги
иттифак
иттэн
иттэнэ
иттэр
иттэрин
иттэрэ
итф
итэ
итэн
итэр
итээҕи
итэҕэ
итэҕэи
итэҕэл
итэҕэлбит
итэҕэлбитин
итэҕэлгэ
итэҕэли
итэҕэлигэр
итэҕэлин
итэҕэлинэн
итэҕэлиттэн
итэҕэллэр
итэҕэллэри
итэҕэллэригэр
итэҕэллэрин
итэҕэллэринэн
итэҕэллэриттэн
итэҕэллэрэ
итэҕэллээх
итэҕэллээхтэр
итэҕэлтэн
итэҕэлэ
итэҕэппитэ
итэҕэс
итэҕэстии
итэҕэстээх
итэҕэстээҕи
итэҕэтиилээх
итэҕэтиилээхтик
итэҕэтэр
итэҕэһи
итэҕэһэ
иудаизм
иудеи
их
ичигэс
иччи
иччилэр
иччилэргэ
иччилэри
иччилэрин
иччилэртэн
иччилэрэ
иччилээх
иччитигэр
иччитин
иччититтэн
иччиттэн
иччитэ
иччитэх
иьигэр
иьин
иэ
иэгэ
иэдьэгэи
иэдэи
иэдэскин
иэдэстээх
иэдээн
иэдээннээх
иэи
иэлээн
иэм
иэн
иэнигии
иэнигэр
иэнин
иэнинэн
иэниттэн
иэннэрэ
иэннээх
иэннээҕи
иэнэ
иэр
иэримэ
иэс
иэскэ
иэстэбил
иэстэбили
иэстэбилэ
иэстэригэр
иэстэрин
иэстэрэ
иэстээх
иэстэһии
иэстэһэн
иэстэһэр
иэт
иэтэ
иэх
иэхпит
иэхсит
иэхтэрин
иэхтэрэ
иэхтээх
иэххэ
иэхэ
иэҕэ
иэҥҥэ
иэһи
иэһигэр
иэһин
иэһэ
июль
июля
июнь
июня
ияли
иҥ
иҥиир
иҥиирэ
иҥиитэ
иҥин
иҥмит
иҥмитин
иҥмититтэн
иҥмитэ
иҥмэт
иҥнибит
иҥнибэт
иҥнэн
иҥнэри
иҥнэхтэринэ
иҥнэҕинэ
иҥсэ
иҥсэлээх
иҥэ
иҥэллэр
иҥэмтэлээх
иҥэмтэлээхтик
иҥэмтэтэ
иҥэн
иҥэннэр
иҥэр
иҥэрбит
иҥэрбиттэр
иҥэрбиттэрэ
иҥэрбитэ
иҥэригэр
иҥэрии
иҥэриини
иҥэриллибит
иҥэриллибитэ
иҥэриллибэтэх
иҥэриллэн
иҥэриллэр
иҥэриммит
иҥэрин
иҥэринии
иҥэриниитэ
иҥэриннэҕинэ
иҥэринэ
иҥэринэллэрэ
иҥэринэн
иҥэринэр
иҥэринэригэр
иҥэринэрин
иҥэринэрэ
иҥэриттэн
иҥэриэххэ
иҥэрчэ
иҥэрэ
иҥэрэллэр
иҥэрэн
иҥэрэр
иҥэтэ
иһи
иһигэр
иһии
иһиигэ
иһиилэригэр
иһиилэрин
иһиилэриттэн
иһиилэрэ
иһиини
иһиирэмнэр
иһиирэр
иһиитигэр
иһиитин
иһиитинэн
иһиититтэн
иһииттэн
иһиитэ
иһиккэ
иһилиннэ
иһилиннэҕинэ
иһиллибит
иһиллибитин
иһиллибитэ
иһиллибэт
иһиллиир
иһиллиэ
иһиллэр
иһиллэрэ
иһиллээн
иһин
иһинэн
иһинээҕи
иһинээҕитэ
иһирдьэ
иһирик
иһирэх
иһит
иһити
иһитин
иһитиннэрбит
иһитиннэрбитэ
иһитиннэрии
иһитиннэриини
иһитиннэрэр
иһиттэн
иһиттэр
иһиттэргэ
иһиттэри
иһиттэрин
иһиттэххинэ
иһиттэххэ
иһиттэҕинэ
иһитэ
иһиэ
иһиэн
иһиэх
иһиэхтэрин
иһиэхтэрэ
иһиэхтээх
иһиэхтээхтэр
иһиэхтээҕин
иһиэххэ
иһиэхэ
иһиэҕин
иһиэҕэ
иһиҥ
иһэ
иһэбин
иһэбит
иһэллэр
иһэллэригэр
иһэллэрин
иһэллэринэн
иһэллэриттэн
иһэллэрэ
иһэн
иһэннэр
иһэр
иһэрбит
иһэргэ
иһэрдэн
иһэри
иһэригэр
иһэрин
иһэринэн
иһэриттэн
иһэртэн
иһэрэ
иһээри
иһээччи
иһээччилэр
иһээччилэри
иһэҕин
к
ка
каадырдары
каал
каалга
каан
каарта
каарталарга
каартаҕа
кабардино
кабинет
кабинетын
кабо
кавабата
кавалер
кавалера
кавалердара
кавалерии
кавалерия
кавалеры
кавказ
кавказа
кавказка
кавказтааҕы
каган
каганата
кадр
кадрдар
кадрдары
кадров
кадроваи
кадыров
каждыи
каженкин
каженкина
каженкиннар
каз
казаактар
казаах
казаахтар
казак
казаков
казактар
казан
казаннааҕы
казанскаи
казань
казах
казахов
казахскаи
казахскои
казахстаан
казахстааҥҥа
казахстан
казахстана
казахстаҥҥа
казахтар
казахтыы
казаҥҥа
казеннаи
казначеи
каи
каида
каин
как
какои
кал
кала
калаах
каландарашвили
каландаришвили
калар
калашников
кале
каледония
календарь
календула
калибрдаах
калии
калимантан
калинин
калининград
калининскаи
калиновка
калифорния
калифорнияҕа
калмык
калмыкия
калмыков
калмыктар
калмыцкого
кало
калов
калории
калуга
калууга
калье
калькулятор
кальскаи
кальции
калян
кама
камбоджа
камбодьа
каменка
каменныи
камера
камернаи
камерун
камнях
камчаатка
камчаатканы
камчааткаҕа
камчатка
камчаткаҕа
камчатки
камчатскаи
камчатскои
кан
канаада
канаадалар
канаадаҕа
канаал
канаала
канаалга
канада
канадаҕа
канаев
канал
кангаласскии
кангаласского
канд
кандидаата
кандидат
кандидата
кандидатов
кандидатскаи
кандидаттара
кандидаты
кандидатыгар
кандидатын
канева
канзас
канин
кант
кантата
кантон
кантри
каны
каньон
капиллярдара
капитал
капитала
капитализациятынан
капитализм
капитализмы
капитан
капитана
капитолии
капитонов
капрынов
кар
кара
караат
карабах
караван
караганда
карамзин
карапапахтар
карасакал
карат
каратаев
караттаах
караханидов
караханидского
караханидтар
карачаево
карачаи
кардашевскаи
карел
карелия
кариб
кариес
карим
карл
карлович
карловы
карлос
карлук
карлуктар
карлуктары
каров
каролина
каротин
карпов
карпович
карс
карта
картатыгар
картер
картография
карточка
карты
карьератын
каспии
кассиопея
кастро
касьянов
кат
ката
каталог
каталогар
каталония
катанов
катанова
катар
категории
категория
категориялаах
категорияҕа
католик
католиктар
католическаи
катын
кафедра
кафедралаах
кафедралара
кафедрата
кафедратыгар
кафедратын
кафедраҕа
каховка
кац
качестве
кашгар
кашгари
кашкаи
кашмир
каҕа
каһаах
каө
кб
кв
квадрат
квадратнаи
квалификациялаах
квалификацияларын
квалификацияны
квалификациятын
квантоваи
квартира
квартирата
квартиратыгар
кварц
квебек
квжд
квн
кг
кгб
ке
кеи
кельт
кем
кемал
кемаль
кембридж
кембрии
кемерово
кемеровскаи
кемус
кен
кения
кеннеди
керамика
кердерер
кереи
керен
керер
кечуа
кеша
ки
киданнар
кидань
киев
киевка
киевкэ
киевы
кижи
кии
киил
киилэ
киилэлээх
киилэттэн
киилэҕэ
киин
киини
киинигэр
киинин
киининэн
кииниттэн
кииннэммит
кииннэнэн
кииннэр
кииннэригэр
кииннэрин
кииннэрэ
кииннээн
кииннээх
киинэ
киинэлэр
киинэлэргэ
киинэлэри
киинэлэрин
киинэлэрэ
киинэни
киинэтигэр
киинэтин
киинэтинэн
киинэтэ
киинэҕэ
киир
киирбиппит
киирбит
киирбитигэр
киирбитим
киирбитин
киирбитинэн
киирбититтэн
киирбиттэр
киирбиттэрин
киирбиттэрэ
киирбитэ
киирбэккэ
киирбэт
киирбэтин
киирбэттэр
киирбэтэх
киирбэтэҕинэ
киирбэтэҕэ
киирбэх
киирдилэр
киирдим
киирдэ
киирдэхтэринэ
киирдэххэ
киирдэҕинэ
киирии
киириигэ
киириилэригэр
киириилэрин
киириилэрэ
киириини
киириитигэр
киириитин
киириититтэн
киириитэ
кииримэ
кииринньэҥ
киириэ
киириэн
киириэр
киириэх
киириэхтэрин
киириэхтээх
киириэххэ
киириэҕиттэн
киириэҕэ
киирсибит
киирсибиттэрэ
киирсибитэ
киирсибэккэ
киирсибэт
киирсии
киирсиигэ
киирсиилэр
киирсиини
киирсиитигэр
киирсииттэн
киирсэ
киирсэллэр
киирсэллэрэ
киирсэн
киирсэннэр
киирсэр
киирсэрин
киирсэринэн
киирсэрэ
кииртэлээн
киирэ
киирэллэр
киирэллэригэр
киирэллэрин
киирэллэрэ
киирэн
киирэннэр
киирэр
киирэргэ
киирэригэр
киирэрин
киирэриттэн
киирэрэ
киирээри
киирээт
киис
кииттиҥилэр
кииҥҥэ
кииһи
кикбоксиҥҥа
киксэрэн
кил
килбигии
килбик
килбиэн
килбиэнин
килбиэннээх
килбургер
килбэи
килиимэт
килиэби
килиэккэлэр
килиэп
киллэм
киллэр
киллэрбит
киллэрбитин
киллэрбиттэр
киллэрбиттэрэ
киллэрбитэ
киллэрбэккэ
киллэрбэт
киллэрбэттэр
киллэрдилэр
киллэрдэ
киллэрдэххэ
киллэрдэҕинэ
киллэрии
киллэриигэ
киллэриини
киллэриитэ
киллэриллибит
киллэриллибиттэр
киллэриллибиттэрэ
киллэриллибитэ
киллэриллэллэр
киллэриллэн
киллэриллэр
киллэринэр
киллэриэн
киллэриэхтээх
киллэриэххэ
киллэрсибит
киллэрэ
киллэрэллэр
киллэрэллэрин
киллэрэллэрэ
киллэрэн
киллэрэннэр
киллэрэр
киллэрэргэ
киллэрэри
киллэрэрин
киллэрэринэн
киллэрэрэ
киллэрээри
киллэрээччилэр
килограмм
километр
километрга
километры
киль
килэгир
килэмиэтир
килэмиэтиргэ
килэмиэтирдээх
ким
кимактар
кимберлит
кими
кимии
кимин
киминэн
кимиэхэ
кимниин
кимнээх
кимтэн
кимэ
кимэн
кин
кинг
кини
кинигэ
кинигэлэр
кинигэлэргэ
кинигэлэрдээх
кинигэлэри
кинигэлэригэр
кинигэлэрин
кинигэлэрэ
кинигэлээх
кинигэни
кинигэнэн
кинигэтигэр
кинигэтин
кинигэтинэн
кинигэтиттэн
кинигэттэн
кинигэтэ
кинигэҕэ
кинилиин
кинилэр
кинилэргэ
кинилэрдиин
кинилэри
кинилэртэн
кинини
киниттэн
кинитээҕэр
киниэхэ
киннэр
кино
кинорежиссе
киностудия
киносценарист
кинээс
кинээстэр
кинээстэрин
кинээстэрэ
кинээстээбит
кинээһи
кинээһин
кинээһинэн
кинээһэ
киото
кипи
киппэ
кипр
кир
кирбии
кирбиилэ
кирбиилэригэр
кирбиитигэр
кирбиитэ
кирбэи
кирг
киргиз
киргизии
киргизия
киргизскаи
киргизтэр
киргизфильм
киргил
киргиэлэи
кирдэр
кирдээх
киренскаи
киренскэи
кири
кирибати
кириисис
кириисиһин
кириисиһэ
кириитигэ
кириитик
кириитиктэр
кириитикэ
кириитикэлиир
кирилиэс
кирилиэһинэн
кирилл
кириллин
кириллина
кириллица
кириллицаҕа
кириллов
кириллович
кирилловна
кирилэ
кирис
киристиэс
кириэмилгэ
кириэппэс
кириэппэскэ
кириэппэстэрин
кириэппэһи
кириэппэһин
кириэппэһэ
кириэс
кириэстии
кириэстэммит
кириэстээх
кириэһи
кириэһин
кириэһэ
киров
кирович
кировскаи
кирпииччэ
кирпииччэттэн
киртии
киртитии
киртитэн
кислород
кислороду
кислородунан
кислота
кислоталар
кислотаны
кистенев
кистии
кистиир
кистэлэҥ
кистэлэҥин
кистэлэҥинэн
кистэлэҥнэрин
кистэлэҥнэрэ
кистэлэҥэ
кистээбит
кистээн
кистэһэн
кит
китае
китаи
китая
китс
киф
кичэи
кишка
киьи
киьиэхэ
киэ
киэбин
киэбэ
киэли
киэлитигэр
киэлитин
киэн
киэнин
киэнник
киэннэрэ
киэнэ
киэп
киэптээн
киэптээх
киэр
киэргэл
киэргэлгэ
киэргэллэри
киэргэллээх
киэргэлэ
киэргэммит
киэргэнэн
киэргэтии
киэргэтиллибит
киэргэтэллэр
киэргэтэллэрэ
киэргэтэн
киэргэтэр
киэркэи
киэсэ
киэҥ
киэҥи
киэҥин
киэҥник
киэҥэ
киэһэ
киэһэтигэр
киэһэтэ
киэһээ
киэһээҥи
киэһээҥҥи
киэһэҕэ
киі
киһи
киһибин
киһибит
киһигин
киһилии
киһилиин
киһилэригэр
киһилэрин
киһилэрэ
киһилээх
киһим
киһин
киһини
киһиннэн
киһинэн
киһиргиир
киһиргэс
киһиргэтии
киһиргэтэ
киһиргэтэн
киһиргэтэр
киһиргээмэ
киһиргээн
киһиргээһин
киһитигэр
киһитии
киһитин
киһитиниин
киһитинэн
киһититтэн
киһиттэн
киһитэ
киһитээҕэр
киһиэхэ
киһиҥ
кк
кл
клавдии
клавдия
кладкин
клара
кларк
класс
класса
классе
классига
классик
классика
классификация
классическаи
классов
клаус
клеи
клетка
клеткалар
клеткалара
клеткаларга
клеткалартан
клеткалары
клеткаларыгар
клеткаларын
клеткаҕа
клиент
климат
климата
климаттаах
климент
климович
климовскаи
клин
клиника
клиническаи
клиническэи
клиорина
клип
клод
клуб
ключ
кляшторныи
км
кн
книг
книга
книгакан
книге
книги
книгу
книжное
кнопка
кнопканы
кнр
княжество
княжествота
княжествотын
князец
князь
ко
коалиция
коб
кобляков
кобяи
ковалев
ковалевскаи
ковлеков
ковскаи
ковчег
когда
кого
код
кода
кодекс
кодекса
кожуун
козлов
козлова
кои
кока
коканд
кокос
кол
кола
колбунов
колесов
колесова
колец
количество
коллегия
коллегиятын
колледж
колледжа
колледжка
колледжыгар
колледжын
коллежскаи
коллектив
коллектива
коллективизация
коллективка
коллективнаи
коллективное
коллекция
коллекцията
колмогоров
колодезников
колодезникова
колокольчик
колониализм
колония
колонията
колорадо
колосов
колумб
колумбия
колхоз
колхоза
колхозка
колхозтаах
колхозтаахтар
колхозтар
колхозтары
колхоһу
колхоһугар
колхуос
колхуоска
колхуостаах
колчак
колыма
колымская
колымы
кольскаи
кольцо
коля
ком
кома
команда
командир
командира
командирдаах
командировкаҕа
командирын
командирынан
командующаи
команды
комаров
комарова
комбаи
комбинат
комедия
комедиятын
комета
коми
коминтерн
комиссара
комиссии
комиссия
комиссиятын
комитет
комитета
комитетыгар
комитетын
комментарии
коммерсантъ
коммерческаи
коммуна
коммунальнаи
коммунар
коммунизм
коммунизмы
коммунизмҥа
коммуникация
коммунист
коммунистар
коммунистары
коммунистическаи
комордар
компакт
компании
компания
компаниялар
компаниялара
компанияны
компанията
компартиятын
компас
комплекс
комплекса
комплекснаи
комплекстар
комплексы
комплексын
композитор
композитора
композитордар
композитордарын
композиторов
композиция
компонена
компоненнарын
компонент
компоненыгар
компонеҥҥа
компрессия
компьютер
компьютерга
компьютердар
компьютердарга
компьютердары
компьютернаи
компьютеры
комраков
комсомол
комсомолга
комсомолец
комсомолецтар
комсомолун
комсомольскаи
кому
комугар
комун
кон
конвеи
конвенция
конвенцията
конвенцияҕа
конгломерат
конгломерата
конгломератка
конго
конгресс
конгресса
конгреһыгар
кондаков
кондрат
кондратьев
конец
конкурена
конкурс
конкурса
конкурска
конкурсугар
конон
кононов
кононович
конрад
консервативнаи
консерватория
консерваторияны
консерваториятын
консерваторияҕа
консол
константин
константинов
константинова
константинович
константиновна
константинополь
константинопольга
конституционнаи
конституция
конституцияны
конституцията
конституциятыгар
конституциятын
конституцияҕа
конструктор
конструкции
конструкцияларын
консула
консультант
контакте
контакты
контеи
контексте
континент
континентальнаи
континеҥҥа
контоев
контракт
контрреволюционнаи
конур
конус
конф
конфедералистар
конференции
конференция
конференциялар
конференцияларга
конференцияларын
конференциятыгар
конференцияҕа
конфликт
конфликта
конфуции
конца
конце
концепция
концепцията
концепциятын
концерн
концерт
концертмеи
концертнаи
концлааҕырга
конь
кооператив
кооперативнаи
кооперация
кооперациятын
координаталара
коп
коперник
копия
копырин
копырина
кор
коран
кордорор
кореец
коренные
коренных
корея
кореяҕа
коринская
коринф
коркин
коркина
корни
корнилов
корнилова
коробеи
короле
королева
королевата
королевскаи
королевство
короленко
король
корона
коронавирус
корпоративнаи
корпорация
корпорациялар
корпорацията
корпус
корпуһа
корреспондена
корреспондент
корреспонденынан
коррика
коррупция
корсаков
кортес
корякин
корякина
кос
космаче
космическаи
космодромтан
космонавт
космонавтика
космос
космоска
космостан
косово
коста
кости
костор
кострома
костя
кот
котельнаи
которая
которого
которое
которои
котором
которые
которыи
которых
кофе
кофеин
кофены
кох
кочевых
кочнев
коюнлу
коҥ
кп
кпрф
кпсс
краевед
краеведение
краеведческаи
краи
кракатау
кралин
крапивниковые
красильников
красная
красноармеец
красноармеи
красного
краснодаар
краснодар
краснодарскаи
краснои
красноярск
красноярскаи
красноярского
красныи
красоты
кратер
краткая
краткие
краткии
краткое
кратнаи
крафт
крафта
крахмал
края
кредит
кредитнаи
креи
кремль
кремнии
крепостнои
крест
крестоносецтар
крестьянскаи
кречетович
кривои
кривошапкин
кризис
кризиһэ
криминал
кристааллар
кристалл
кристина
критерии
критига
критигэ
критик
критика
критики
крови
кроме
крона
кроната
круг
круга
крупнеи
крупныи
крупская
крушинка
крылов
крылова
крылья
крым
крымскаи
крымҥа
кс
ксения
ксенофонт
ксенофонтов
ксенофонтова
ксенофонтович
ксенофонтовы
ксеркс
кск
кто
ку
куала
куб
куба
кубалар
кубалаҥ
кубалыы
кубань
кубархаи
кубарыи
кубертен
кубога
кубогар
кубогын
кубок
кубрат
кубулуи
кубулуппут
кубулуппута
кубулуппуттара
кубулуталлар
кубулутан
кубулутар
кубулутара
кубулутуон
кубулутуу
кувезин
кувеи
кугаевскаи
кугас
куда
кудаи
кудаҥса
кудрин
кудряшов
куду
кудуга
кудук
куех
кузнецкаи
кузнецов
кузнецова
кузьма
кузьмин
кузьмина
кузьминична
кузьмич
куи
кук
кукаакы
кукка
кукуруза
кул
кулаак
кулааһаи
кулаковскаи
кулаковскии
кулаковского
кулан
кулантаи
кулар
кулачиков
кулгаах
кулгаахтаах
кулгааҕа
кулгааҕар
кулгааҕын
кулгааҕынан
куличкин
куличкина
куллурууттар
куллустуур
култуура
култууралаах
култууралар
култууралара
култуураларыгар
култуураларын
култуураны
култуурата
култууратыгар
култууратын
култуураҕа
култуурнаи
култуурунаи
кулу
кулуба
кулубата
кулубатын
кулубатынан
кулун
кулуну
кулунчук
кулут
кулута
кулуттааһын
кулуттааһыны
кулуттар
кулуту
кулууба
кулуубугар
кулуубун
кулууп
кулуупка
кулууптар
кулууптарыгар
кулууптарын
кулуһун
кулуһуннаах
куль
кульбертинов
культ
культпросвет
культур
культура
культуралаах
культураларын
культураны
культурата
культуратыгар
культуратын
культураҕа
культуре
культурнаи
культурно
культурного
культурное
культурные
культурныи
культуролог
культурологическии
культурология
культуры
культуура
культууратын
кум
кума
кумаа
кумаар
кумааҕы
кумааҕыга
кумааҕыны
кумалаан
кумалааҥҥа
кумамото
кумах
кумахтаах
кумахха
кумахыны
кумаҕы
кумаҕынан
кумык
кумыктар
кун
кунан
кунанбаев
куннэ
кунугэр
кунэ
куо
куобах
куобахтар
куобахтары
куобахтарын
куобахха
куобаҕа
куобаҕы
куода
куои
куокуну
куола
куолаи
куолакал
куолакалы
куолас
куоластаабыт
куоластаабыттар
куоластаан
куоластаах
куоластааһын
куоластааһынынан
куоластааһыҥҥа
куоластыыр
куолаһа
куолаһы
куолаһын
куолаһынан
куоллара
куолу
куонаан
куонкурус
куонкуруска
куонкуруһугар
куону
куоппат
куоппуи
куоппут
куоппута
куоппуттар
куоппуттара
куоракка
куорамыкы
куорамыкыга
куорат
куората
куоратка
куораттаах
куораттааҕы
куораттан
куораттар
куораттара
куораттарга
куораттартан
куораттары
куораттарыгар
куораттарын
куораттарынан
куораттарыттан
куораттыы
куораты
куоратыгар
куоратын
куоратынан
куоратыттан
куорпуһа
куорсуна
куорсуннаах
куортамҥа
куоска
куоскалар
куоската
куота
куотаары
куоталаһыы
куоталлар
куотан
куотар
куоттаран
куотуу
куочаи
куоҕас
куоҕастар
куоҥ
куоһарар
куоһарбыт
купала
куппут
куппутун
кур
кура
курааи
кураан
кураанах
курашов
кураҕаччылар
курбуу
курбуһах
курган
курд
курдаах
курдар
курдары
курдат
курдаттыы
курдуга
курдугу
курдугун
курдугунан
курдук
курдукка
курдукпун
курдукпут
курдуктаах
курдуктар
курдуктара
курдуу
курил
курилов
курорт
курортнаи
курс
курса
курска
курскаи
курстарын
курсугар
курсун
куртах
куртахтара
куртахха
куртаҕа
куртаҕар
куртаҕы
куртуи
куру
курултааи
курултаи
курун
куруппа
курус
курустаал
курутуи
куруубаи
куруук
курууппа
курууска
куруутун
куруҥ
куруһуогар
куруһуогу
куруһуогун
куруһуок
куруһуокка
курыкан
курыканнар
курэх
кус
куска
кустар
кустарын
кустук
кустуров
кустуу
кустуҥулар
кут
кута
кутаа
куталлар
кутан
кутана
кутар
кутлуг
куторалар
кутта
куттаан
куттаах
куттаахтар
куттаахтарын
куттааҕын
куттааһын
куттал
куттала
кутталга
кутталлаах
кутталлаахтар
кутталлааҕа
кутталлааҕын
кутталланар
кутталлара
кутталтан
кутталы
кутталыттан
куттаммакка
куттаммат
куттаммыт
куттан
куттана
куттаналлар
куттанан
куттанар
куттаныы
куттар
куттара
куттарга
куттартан
куттары
куттарыгар
куттарын
куттарынан
куттарыттан
куттарыыта
куттас
куттуу
куттуур
куту
кутугар
кутузов
кутуи
кутуллар
кутуллубут
кутум
кутун
кутунан
кутуран
кутургуи
кутуруга
кутуругар
кутуругун
кутуругунан
кутурук
кутуруктаах
кутурҕан
кутуттан
кутуу
кутуҥ
куу
кууба
куубагын
куубаны
куубаҕа
куука
куукула
куукулатын
куукуна
куукунаҕа
куул
куула
куулу
кууран
куурбут
куурдар
куурдуллар
куурсугар
куурсун
куурус
кууруска
куурусса
куурустар
куурустары
куурустарыгар
куурустарын
кууруһу
кууруһугар
кууруһун
куус
куускаи
куускэ
куустээх
кууһан
кууһума
кухня
кучу
кучум
куччугуи
кушнарев
куҥ
куҥҥэ
куһа
куһаҕан
куһаҕана
куһаҕаннаах
куһаҕаннааҕын
куһаҕаннар
куһаҕаннара
куһаҕаннары
куһаҕаннарын
куһаҕаннарыттан
куһаҕаннык
куһаҕантан
куһаҕаны
куһаҕанын
куһаҕанынан
куһаҕаныттан
куһаҕаҥҥа
куһу
куөх
къ
кы
кыа
кыаи
кыалла
кыаллар
кыаллара
кыалларын
кыалларынан
кыаллыа
кыаллыан
кыаллыаҕа
кыаллыбакка
кыаллыбат
кыаллыбата
кыаллыбатаҕа
кыаллыбатаҕына
кыаллыбатын
кыаллыбыта
кыаллымыан
кыаммакка
кыаммат
кыамталаах
кыана
кыанан
кыанар
кыанарга
кыараҕас
кыаттаран
кыаттарар
кыаттарбакка
кыаттарбат
кыаттарбата
кыаттарбатаҕына
кыаттарбыт
кыаттарбыта
кыаттарбыты
кыаттарыа
кыаттарыы
кыах
кыахпыт
кыахтаах
кыахтаахпыт
кыахтаахтар
кыахтаахтара
кыахтаахтарын
кыахтаахтык
кыахтааҕа
кыахтааҕы
кыахтааҕын
кыахтааҕынан
кыахтааҕыттан
кыахтаммыт
кыахтаммыта
кыахтаммыттар
кыахтаммыттара
кыахтаммытын
кыахтанабыт
кыахтаналлар
кыахтаналлара
кыахтаналларын
кыахтанан
кыахтанар
кыахтанара
кыахтанарын
кыахтанарыттан
кыахтанна
кыахтаннаҕына
кыахтанныбыт
кыахтаннылар
кыахтаныа
кыахтаныан
кыахтаныахтара
кыахтаныахтарын
кыахтаныыта
кыахтара
кыахтарыгар
кыахтарын
кыахтарынан
кыахха
кыаххын
кыаҕа
кыаҕар
кыаҕы
кыаҕым
кыаҕын
кыаҕынан
кыаҕыран
кыаҕырар
кыаҕыттан
кыбыллан
кыбыстан
кыбыстар
кыбыстыбакка
кыбыстыы
кыбытан
кыбытык
кыбытыылаах
кыбыыга
кыбыыны
кыбыытын
кыдыи
кыдьыктаныма
кызласов
кызыл
кыи
кыл
кылаа
кылаабынаи
кылаан
кылааннаах
кылаас
кылааска
кылаассабаи
кылаастаах
кылаастан
кылаастар
кылаастарга
кылаастары
кылаастарыгар
кылаастарын
кылаат
кылаата
кылааттарын
кылааты
кылаатын
кылааһа
кылааһы
кылааһыгар
кылааһын
кылааһынан
кылабачыгас
кылабыыһатыгар
кылабыыһаҕа
кылбаи
кылбаччы
кылгаан
кылгаата
кылгас
кылгастык
кылгатан
кылгатар
кылгатыллыбыт
кылгатыллыбыта
кылгатыы
кылгаһын
кылгыыр
кылгыырыгар
кыллаах
кылы
кылыи
кылын
кылынан
кылырҕастаах
кылыс
кылыы
кымаахтаан
кымньыы
кымньыылаах
кымырдаҕас
кымыс
кымыска
кымыһы
кымыһынан
кын
кына
кынан
кынат
кыната
кынаттаах
кынаттаахтар
кынаттанан
кынаттар
кынаттара
кынаттарын
кынаттыыр
кынатын
кындыл
кынчаал
кынчарыи
кынык
кып
кыптыыи
кыпчак
кыпчактар
кыр
кыра
кыраадыс
кыраадыска
кыраадыстаах
кыраадыстан
кырааи
кыраан
кырааска
кырааскалаах
кыраасканан
кыракыи
кыралаан
кыралар
кыралара
кыралары
кыраларын
кыранан
кыраны
кыраныысса
кыраныыссалара
кыраныыссаларын
кыраныыссалаһар
кыраныыссаны
кыраныыссата
кыраныыссатыгар
кыраныыссатын
кыраныыссатыттан
кыраныыссаҕа
кырасдааныскаи
кырасыабаи
кырата
кыраттан
кыратыгар
кыратык
кыратын
кыратыттан
кырачаан
кыраҕа
кыраҕы
кыраҕын
кыраһа
кыраһыабаи
кырбаан
кырбанан
кырбас
кырбыи
кырбыы
кырбыыр
кырг
кырган
кыргы
кыргыбыт
кыргыбыттар
кыргыдаи
кыргыз
кыргызов
кыргызскии
кыргызского
кыргызстан
кыргызстана
кыргызтар
кыргызы
кыргыс
кыргыспыт
кыргыспыттар
кыргыстаан
кыргыстааҥҥа
кыргыстар
кыргыстара
кыргыстарын
кыргыттар
кыргыттара
кыргыттарга
кыргыттары
кыргыттарын
кыргыыс
кыргыыстар
кыргыһыы
кыргыһыыга
кыргыһыылар
кыргыһыылара
кыргыһыыларга
кыргыһыыларыгар
кыргыһыыларын
кыргыһыыта
кыргыһыытыгар
кыргыһыытын
кырдал
кырдала
кырдьа
кырдьан
кырдьар
кырдьаҕас
кырдьаҕастан
кырдьаҕастар
кырдьаҕастара
кырдьаҕастары
кырдьаҕастарын
кырдьаҕаһа
кырдьаҕаһы
кырдьыбыт
кырдьыга
кырдьыгы
кырдьыгын
кырдьыгынан
кырдьык
кырдьыктаах
кырдьыктаахтык
кырдьыы
кырса
кырсаны
кырсыгар
кырсын
кырыалаах
кырыи
кырыктаах
кырыктаахтык
кырыкыи
кырынаас
кырынаастыыр
кырыс
кырыы
кырыылаах
кырыылара
кырыылыыр
кырыым
кырыымтан
кырыымчык
кырыымы
кырыымҥа
кырыыс
кырыыса
кырыыска
кырыыстаах
кырыыта
кырыытыгар
кырыытынан
кырыытыттан
кырыыһы
кыс
кыскыи
кыстаабыт
кыстаан
кыстык
кыстыкка
кыстыы
кыстыыллар
кыстыыр
кыт
кытаанах
кытаанахтык
кытаанаҕа
кытаанаҕын
кытаат
кытаатан
кытаатыннаран
кытаи
кыталыгы
кыталык
кыталыктар
кытара
кытаран
кытарар
кытархаи
кытары
кытарымтыи
кытах
кытахтан
кытаҕа
кытта
кыттааччы
кыттааччылар
кыттааччылара
кыттааччыларын
кыттааччыта
кытталлар
кытталлара
кытталларын
кыттан
кыттар
кыттара
кыттарга
кыттарын
кытты
кыттыан
кыттыбат
кыттыбатаҕа
кыттыбыт
кыттыбыта
кыттыбыттар
кыттыбыттара
кыттыбытын
кыттыбытыттан
кыттыгас
кыттыгастаах
кыттыгастыы
кыттыгаһа
кыттыспыт
кыттыспыта
кыттыспыттара
кыттыы
кыттыылаа
кыттыылаах
кыттыылаахтара
кыттыылаахтарын
кыттыылааҕа
кыттыыны
кыттыыта
кыттыытынан
кыттыһа
кыттыһаары
кыттыһаллар
кыттыһаллара
кыттыһалларын
кыттыһан
кыттыһар
кыттыһыы
кытыан
кытыастар
кытыи
кытыл
кытыла
кытылга
кытыллара
кытылларыгар
кытылыгар
кытылым
кытылын
кытылынан
кытылыттан
кытынна
кытыт
кытыы
кытыыга
кытыылаах
кытыылааҕа
кытыылара
кытыыларыгар
кытыыларынан
кытыыта
кытыытыгар
кытыытын
кытыытынааҕы
кытыытынан
кытыытыттан
кычкин
кычкина
кыччаабат
кыччаабыт
кыччаабыта
кыччаан
кыччатан
кыччатар
кыччатыы
кыччыыр
кычыгырыыр
кыы
кыыдааннаах
кыыл
кыыла
кыылга
кыыллаах
кыыллар
кыыллара
кыылларга
кыыллартан
кыыллары
кыылларыгар
кыылларын
кыылларынан
кыылларыттан
кыыллыы
кыылтан
кыылы
кыылым
кыылын
кыылынан
кыым
кыыма
кыымнаах
кыымынан
кыыраи
кыыран
кыырар
кыырарыгар
кыырпах
кыырпаҕа
кыырпаҕын
кыырт
кыырыктаах
кыыс
кыыска
кыыспыт
кыыстаах
кыыстаахтар
кыыстааҕа
кыыстан
кыыстара
кыыстарын
кыыстарынан
кыысчаан
кыычыкын
кыыһа
кыыһар
кыыһы
кыыһыгар
кыыһын
кыыһынан
кыыһыра
кыыһыран
кыыһырар
кыыһырбат
кыыһырбыт
кыыһырбыта
кыыһырбытын
кыыһырдахтарына
кыыһырдаҕына
кыыһырсыы
кыыһырыма
кыыһырымтаҕаи
кыыһырыы
кыыһыттан
кыьыл
кыҥкыи
кыһа
кыһаи
кыһалара
кыһаларыгар
кыһаларын
кыһаллан
кыһаллар
кыһалҕа
кыһалҕалаах
кыһалҕалары
кыһалҕаларыгар
кыһалҕаларын
кыһалҕаны
кыһалҕата
кыһалҕаттан
кыһалҕатыгар
кыһалҕатын
кыһалҕаҕа
кыһаммакка
кыһаммат
кыһамматтар
кыһамньылаах
кыһамньытын
кыһан
кыһана
кыһаналлар
кыһаналлара
кыһаналларын
кыһанан
кыһанар
кыһанара
кыһанарын
кыһаныахтара
кыһаныахха
кыһаныы
кыһарыи
кыһата
кыһатыгар
кыһатын
кыһыи
кыһыл
кыһыллар
кыһылларга
кыһыллартан
кыһыллары
кыһыллыҥы
кыһын
кыһына
кыһыннаах
кыһыннары
кыһыны
кыһыныгар
кыһынын
кыһыы
кыһыылаах
кыһыҥҥы
кэ
кэби
кэбии
кэбиниэтэ
кэбирэх
кэбис
кэбиспит
кэбиспитин
кэбиспититтэн
кэбиспиттэр
кэбиспиттэрин
кэбиспиттэриттэн
кэбиспиттэрэ
кэбиспитэ
кэбиспэккэ
кэбиспэт
кэбистибит
кэбистилэр
кэбистим
кэбистэ
кэбистэхтэринэ
кэбистэххэ
кэбистэҕинэ
кэбиһии
кэбиһиилээх
кэбиһиини
кэбиһииттэн
кэбиһиллэр
кэбиһиэм
кэбиһиэн
кэбиһиэхтэрин
кэбиһиэххэ
кэбиһэ
кэбиһэбит
кэбиһэллэр
кэбиһэллэрин
кэбиһэллэриттэн
кэбиһэллэрэ
кэбиһэн
кэбиһэннэр
кэбиһэр
кэбиһэргэ
кэбиһэригэр
кэбиһэрин
кэбиһэриттэн
кэбиһэрэ
кэбиһээччилэр
кэбээи
кэбэҕэстик
кэдьиҥэ
кэдэи
кэдэрги
кэи
кэккэ
кэккэлэ
кэккэлэригэр
кэккэлэтэ
кэккэлэһэ
кэккэтигэр
кэккэҕэ
кэкэ
кэл
кэлбиппит
кэлбит
кэлбитигэр
кэлбитим
кэлбитин
кэлбитинэн
кэлбиттэр
кэлбиттэригэр
кэлбиттэрин
кэлбиттэрэ
кэлбитэ
кэлбэккэ
кэлбэт
кэлбэтин
кэлбэтэ
кэлбэтэх
кэлгии
кэлии
кэлиилэр
кэлиилэригэр
кэлиилэрин
кэлиилэриттэн
кэлиилэрэ
кэлиитигэр
кэлиитин
кэлиититтэн
кэлиитэ
кэлим
кэлимник
кэлимсэ
кэлин
кэлиэ
кэлиэи
кэлиэкэ
кэлиэм
кэлиэн
кэлиэр
кэлиэх
кэлиэхтэрин
кэлиэхтэриттэн
кэлиэхтэрэ
кэлиэхтээх
кэлиэҕиҥ
кэлиэҕэ
кэлиҥ
кэлиҥҥи
кэлли
кэллибит
кэллилэр
кэллим
кэллиэгии
кэллиэксии
кэллиэс
кэллиэһэ
кэллиҥ
кэллэ
кэллэхтэринэ
кэллэххэ
кэллэҕинэ
кэллэҕэ
кэлтэгэи
кэлтэи
кэлэ
кэлэбит
кэлэи
кэлэллэр
кэлэллэрин
кэлэллэрэ
кэлэн
кэлэннэр
кэлэр
кэлэргэ
кэлэригэр
кэлэрин
кэлэринэн
кэлэриттэн
кэлэрэ
кэлээр
кэлээри
кэлээт
кэлээччи
кэлэҕэи
кэм
кэми
кэмигэр
кэмим
кэмин
кэминэн
кэминээҕи
кэмитиэккэ
кэмитиэт
кэмитиэтигэр
кэмитиэтин
кэмитиэттэрэ
кэмитиэтэ
кэмиттэн
кэмиэдьии
кэмиэрчэскэи
кэммит
кэммитигэр
кэммиэрсии
кэмниир
кэмниэ
кэмнэ
кэмнэммэт
кэмнэнэр
кэмнэр
кэмнэргэ
кэмнэрдээх
кэмнэрдээҕин
кэмнэрдээҕэ
кэмнэри
кэмнэригэр
кэмнэрин
кэмнэринээҕи
кэмнэриттэн
кэмнэртэн
кэмнэрэ
кэмнээн
кэмнээх
кэмнээхтэр
кэмнээҕи
кэмнээҕин
кэмпилиэк
кэмпириэнсии
кэмпиэт
кэмпиэти
кэмпэндээи
кэмсинии
кэмсиниини
кэмсинэр
кэмтэн
кэмчи
кэмчилээн
кэмэ
кэмңэ
кэмҥэ
кэмҥэр
кэн
кэнгириэһин
кэнгириэһэ
кэниттэн
кэннигэр
кэнники
кэнникинэн
кэннилэригэр
кэннилэриттэн
кэннин
кэннинэн
кэннинээҕи
кэнниттэн
кэннэ
кэнсиэпсии
кэнсиэр
кэнсэлээрии
кэнтик
кэнтиккэ
кэнчээри
кэнэн
кэнэҕэс
кэнэҕэски
кэнэҕэһин
кэп
кэппит
кэпсии
кэпсииллэр
кэпсииллэринэн
кэпсииллэрэ
кэпсиир
кэпсииргэ
кэпсиирин
кэпсииринэн
кэпсиирэ
кэпсиэ
кэпсиэн
кэпсэнэллэр
кэпсэнэр
кэпсэнэринэн
кэпсэппит
кэпсэппиттэр
кэпсэппэт
кэпсэтии
кэпсэтиигэ
кэпсэтиилэр
кэпсэтиини
кэпсэтииттэн
кэпсэтиэх
кэпсэттэ
кэпсэттэххэ
кэпсэтэ
кэпсэтэллэр
кэпсэтэллэрин
кэпсэтэллэрэ
кэпсэтэн
кэпсэтэр
кэпсэтэрэ
кэпсээ
кэпсээбит
кэпсээбитэ
кэпсээбэт
кэпсээммит
кэпсээн
кэпсээни
кэпсээнигэр
кэпсээнин
кэпсээнинэн
кэпсээниттэн
кэпсээнньит
кэпсээннэр
кэпсээннэргэ
кэпсээннэри
кэпсээннэригэр
кэпсээннэрин
кэпсээннэринэн
кэпсээннэриттэн
кэпсээннэртэн
кэпсээннэрэ
кэпсээннээх
кэпсээнэ
кэпсээтэ
кэпсээтэҕинэ
кэпсээҥҥэ
кэпсээһин
кэр
кэрбээччилэр
кэргэн
кэргэни
кэргэнигэр
кэргэним
кэргэнин
кэргэнинээн
кэргэниттэн
кэргэниҥ
кэргэннии
кэргэнниилэр
кэргэннэммит
кэргэннэнэ
кэргэннэнэн
кэргэннэригэр
кэргэннэрин
кэргэннэрэ
кэргэннээх
кэргэнтэн
кэргэнэ
кэргэттэригэр
кэргэттэрин
кэргэттэрэ
кэргэҥҥин
кэргэҥҥэ
кэрдии
кэрдиилээх
кэрдиис
кэрдиискэ
кэрдиистээх
кэрдиитигэр
кэрдиитэ
кэрдииһигэр
кэрдииһэ
кэрдиллибит
кэрдэн
кэрдэр
кэри
кэрии
кэрискэ
кэриэ
кэриэи
кэриэн
кэриэс
кэриэстиир
кэриэстэрин
кэриэстэс
кэриэстээн
кэриэтин
кэриэтэ
кэриэһигэр
кэриэһин
кэриэһэ
кэриҥ
кэриҥин
кэриҥнээх
кэриҥэ
кэрчигэ
кэрчик
кэрэ
кэрэгэи
кэрэи
кэрэмэс
кэрэни
кэрэспэдьиэнэ
кэрэтик
кэрэтин
кэрэтиэн
кэрэттэн
кэрэтэ
кэрэх
кэрэхсэбиллээх
кэрэхсээн
кэрээк
кэрээн
кэрэҕэ
кэрэһилиир
кэрэһилээн
кэрэһэлиир
кэс
кэскил
кэскилбит
кэскилбитин
кэскили
кэскилин
кэскиллээх
кэскилэ
кэспэккэ
кэспэт
кэт
кэтии
кэтиир
кэтиллэр
кэтин
кэтириинэ
кэтирээн
кэтирээһин
кэтирээһинтэн
кэтит
кэтитин
кэтиттээх
кэтитэ
кэтт
кэттэххинэ
кэттэххэ
кэтэ
кэтэллэр
кэтэллэрэ
кэтэн
кэтэр
кэтэргэ
кэтэрдэ
кэтэрдэн
кэтэрдэр
кэтэс
кэтэспит
кэтэх
кэтэхтэн
кэтээн
кэтэҕин
кэтэҕинэн
кэтэҕириин
кэтэҕиттэн
кэтэҕэ
кэтэҕэр
кэтэһии
кэтэһиилээх
кэтэһэ
кэтэһэллэр
кэтэһэн
кэтэһэр
кэтэһэрэ
кэхтибэт
кэхтии
кэхтэн
кэхтэр
кэччэгэи
кээмэи
кээн
кээнчэ
кээрэкээн
кээспит
кэҕэ
кэҥгириэс
кэҥгириэстэрэ
кэҥии
кэҥиир
кэҥэтии
кэҥэтэн
кэҥэтэр
кэҥээбит
кэҥээбитэ
кэҥээн
кэҥээтэ
кэһии
кэһиигэ
кэһиилэрэ
кэһиилээх
кэһиини
кэһиинэн
кэһиитин
кэһиитэ
кэһил
кэһиллибэт
кэһиллиитэ
кэһиллэр
кэһимэ
кэһиэччик
кэһэи
кэһэллэрэ
кэһэн
кэһэр
кэһэтии
кэһэтэн
кэһээччилэр
кю
кюль
кюри
кюсю
кяхта
кі
кѳрѳн
кѳрүҥ
кү
күбэи
күбүрүнээтэр
күбүрүнээтэрин
күбүрүнээтэринэн
күбүрүнээтэрэ
күбүөрүнэ
күбүөрүнэтин
күбүөрүнэтээҕи
күбүөрүнэҕэ
күдэн
күдэх
күдэҕин
күдэҥҥэ
күкүр
күл
күлгэри
күлэ
күлэн
күлэр
күлэрэ
күлүгэ
күлүгэр
күлүгүн
күлүгүрэн
күлүк
күлүктэрэ
күлүктээх
күлүм
күлүмнүү
күлүмнүүр
күлүмнүүрү
күлүмэ
күлүмэн
күлүмүрдэс
күлүмүрдүү
күлүнэн
күлүү
күлүүгэ
күлүүлээх
күлүүнү
күлүүс
күлүүтэ
күммүт
күн
күндэ
күндэи
күндэлэс
күндээдэ
күндү
күндүл
күндүлээн
күндүлээһин
күндүлүүр
күндүтүк
күннэи
күннэр
күннэрбэр
күннэргэ
күннэри
күннэригэр
күннэрин
күннэриттэн
күннэрэ
күннэтэ
күннээх
күннээҕи
күннээҕинэн
күннээҕэр
күннүгэ
күннүк
күнтэн
күнугэр
күнэ
күнү
күнүгэр
күнүм
күнүн
күнүнэн
күнүнээҕи
күнүс
күнүскү
күнүстэри
күнүттэн
күнүһүн
күп
күр
күргэ
күргүөмнээх
күргүөмүнэн
күрдьэх
күрэнэн
күрэс
күрэскэ
күрэстэр
күрэстэһэн
күрэстэһэр
күрэтэн
күрэх
күрэхтэ
күрэхтэригэр
күрэхтэһии
күрэхтэһиигэ
күрэхтэһиилэр
күрэхтэһиилэргэ
күрэхтэһиилэригэр
күрэхтэһиини
күрэхтэһиитигэр
күрэхтэһиитин
күрэхтэһэллэр
күрэхтэһэн
күрэхтэһэр
күрэххэ
күрээбит
күрээбиттэр
күрээбиттэрэ
күрээбитэ
күрээн
күрэҕэ
күрэҕэр
күрэҥ
күрэһигэр
күрэһин
күрэһэ
күрүлгэн
күрүс
күрүҥ
күрүүр
күрүө
күрүөлээх
күрүөнү
күрүөтэ
күрүөтүн
күттүөннээх
күтэрдэр
күтүр
күтүөт
күтүөтэ
күтүөтү
күтүөтүн
күчүмэҕэи
күѳл
күҥкү
күҥҥэ
күү
күүгэн
күүдээх
күүкэи
күүлэи
күүлэт
күүппэппин
күүппүт
күүрдэн
күүркэтэн
күүрэн
күүрэр
күүрээннээх
күүрүүлээх
күүс
күүскэ
күүскүн
күүстэнэр
күүстэр
күүстэргэ
күүстэри
күүстэригэр
күүстэрин
күүстэринэн
күүстэриттэн
күүстэрэ
күүстээх
күүстээхтик
күүстээхтэн
күүстээхтэр
күүстээхтэрэ
күүстээххэ
күүстээҕи
күүстээҕин
күүстээҕинэн
күүстээҕиттэн
күүстээҕэ
күүтэ
күүтэбин
күүтэллэр
күүтэн
күүтэр
күүтүллэр
күүһэ
күүһү
күүһүгэр
күүһүлээн
күүһүлээһин
күүһүм
күүһүн
күүһүнэн
күүһүрбүт
күүһүрбүтэ
күүһүрбүтүн
күүһүрдэ
күүһүрдэллэр
күүһүрдэн
күүһүрдэр
күүһүрдэргэ
күүһүрдэҕинэ
күүһүрдүү
күүһүрдүүгэ
күүһүрэ
күүһүрэн
күүһүрэр
күүһүрэригэр
күүһүрэрин
күүһүрүүтэ
күүһүрүүтүн
күүһүрүө
күүһүттэн
күһэи
күһэллибит
күһэллибиттэр
күһэллибиттэрэ
күһэллибитэ
күһэллэллэр
күһэллэн
күһэллэр
күһэҥэ
күһэҥэи
күһүн
күһүнүгэр
күһүнүн
күһүҥҥү
күһүүр
күһүөрү
күө
күөгэи
күөдьүи
күөдьүтэн
күөи
күөл
күөлгэ
күөллэр
күөллэргэ
күөллэрдээх
күөллэри
күөллэригэр
күөллэрин
күөллэртэн
күөллэрэ
күөллээх
күөлтэн
күөлэ
күөлэһии
күөлү
күөлүгэр
күөлүм
күөлүн
күөмэи
күөн
күөнэх
күөнүгэр
күөрт
күөртээн
күөрчэх
күөрэ
күөрэгэи
күөрэи
күөс
күөскүн
күөстүү
күөх
күөхтүҥү
күөххэ
күөҕэ
күөҕүнэн
күөҥҥэ
кө
көбүтэр
көбүтээччи
көбүөр
көбүөргэ
көбөн
көдьүүстээх
көдьүүстээхтик
көдьүүһэ
көи
көк
көкөи
көлдьүн
көлүи
көлүнэр
көлүөнэ
көлүөнэлэниэхтэрин
көлүөнэлэр
көлүөнэлэрбит
көлүөнэлэрбитин
көлүөнэлэргэ
көлүөнэлэри
көлүөнэлэригэр
көлүөнэлэрин
көлүөнэлэриттэн
көлүөнэлэрэ
көлүөнэлээх
көлүөнэни
көлүөнэнэн
көлүөнэтигэр
көлүөнэтин
көлүөнэттэн
көлүөнэтэ
көлүөнэҕэ
көлүөһэлээх
көлө
көлөнү
көлөтүн
көлөһүн
көлөһүнэ
көлөһүнү
көлөһүнүн
көм
көммүт
көммөт
көмпүттэрэ
көмпүүтэр
көмпүүтэргэ
көмпүүтэрдэргэ
көмпүүтэри
көмус
көмүллэ
көмүллэн
көмүллэр
көмүллүбүт
көмүллүбүтэ
көмүлүөк
көмүс
көмүскэ
көмүскэл
көмүскэлигэр
көмүскэлин
көмүскэллээх
көмүскэлэ
көмүскэнии
көмүскэнэ
көмүскэнэн
көмүскэнэр
көмүскэнэргэ
көмүскэнээри
көмүскэс
көмүскэспит
көмүскээ
көмүскээбит
көмүскээбиттэрэ
көмүскээбитэ
көмүскээн
көмүскээччи
көмүскээччитэ
көмүскээһин
көмүскээһиҥҥэ
көмүскэһии
көмүскэһэн
көмүскэһэр
көмүскүү
көмүскүүллэр
көмүскүүр
көмүскүүргэ
көмүстэн
көмүстээх
көмүстүҥү
көмүү
көмүһэ
көмүһү
көмүһүн
көмүһүнэн
көмүөл
көмө
көмөллөр
көмөллөрө
көмөлө
көмөлөрү
көмөлөрүгэр
көмөлөрүн
көмөлөрүнэн
көмөлөрө
көмөлөс
көмөлөспүт
көмөлөспүттэрин
көмөлөспүттэрэ
көмөлөспүтэ
көмөлөспөт
көмөлөстө
көмөлөстөҕүнэ
көмөлөһүннэрэ
көмөлөһүннэрэн
көмөлөһүү
көмөлөһүүттэн
көмөлөһүө
көмөлөһүөн
көмөлөһүөхтэрин
көмөлөһүөхтээх
көмөлөһө
көмөлөһөллөр
көмөлөһөллөрүн
көмөлөһөллөрө
көмөлөһөн
көмөлөһөр
көмөлөһөргө
көмөлөһөрүн
көмөлөһөрө
көмөлөһөөччү
көмөлөһөөччүнэн
көмөлөһөөччүтэ
көмөлөһөөччүтүнэн
көмөлөөн
көмөлөөх
көмөн
көмөнү
көмөр
көмөтүгэр
көмөтүн
көмөтүнэн
көмөтө
көмөҕө
көннөрдөххө
көннөрү
көннөрүнэр
көннөрүнүөн
көннөрүү
көннөрүүгэ
көннөрүө
көннөрүөн
көннөрө
көннөрөн
көннөрөр
көннөрөргө
көннөрөрө
көннөҕүнэ
көнтөс
көнтөстөөх
көнүстүүссүи
көнүө
көнүөн
көнө
көнөн
көнөр
көнөрүн
көнөрө
көнөтүк
көнөтүнэн
көп
көппүт
көппүттэр
көппүтэ
көппүтүн
көппөт
көппөх
көппөҕөр
көпсөркөи
көр
көрбүппүт
көрбүт
көрбүттэр
көрбүттэрин
көрбүттэрэ
көрбүтэ
көрбүтүм
көрбүтүн
көрбүөччү
көрбөккө
көрбөт
көрбөттөр
көрбөтүм
көрбөтүн
көрбөтөх
көрбөтөхтөрүнэ
көрбөтөҕүм
көрбөтөҕүн
көргө
көрдүбүт
көрдүгэн
көрдүк
көрдүлэр
көрдүм
көрдүн
көрдүү
көрдүүбүн
көрдүүллэр
көрдүүллэрэ
көрдүүр
көрдүүргэ
көрдүүрэ
көрдүүрүн
көрдө
көрдөбүл
көрдөбүлгэ
көрдөбүллэр
көрдөбүллэргэ
көрдөбүллэрдээх
көрдөбүллэри
көрдөбүллэригэр
көрдөбүллэрин
көрдөбүллэрэ
көрдөбүллээх
көрдөбүлэ
көрдөбүлү
көрдөбүлүгэр
көрдөбүлүн
көрдөбүлүнэн
көрдөнүллэр
көрдөнөр
көрдөр
көрдөрбүт
көрдөрбүттэр
көрдөрбүттэрэ
көрдөрбүтэ
көрдөрбүтүнэн
көрдөрбөккө
көрдөрбөт
көрдөрдүлэр
көрдөрдө
көрдөрүллэллэр
көрдөрүллэр
көрдөрүллүбүт
көрдөрүллүбүттэр
көрдөрүллүбүтэ
көрдөрүмүөхтэрин
көрдөрүү
көрдөрүүгэ
көрдөрүүлэр
көрдөрүүлэри
көрдөрүүлэрин
көрдөрүүлэринэн
көрдөрүүлэрэ
көрдөрүүлээх
көрдөрүүлээхтик
көрдөрүүнэн
көрдөрүүнү
көрдөрүүтэ
көрдөрүүтүн
көрдөрүүтүнэн
көрдөрүөн
көрдөрүөххэ
көрдөрө
көрдөрөллөр
көрдөрөллөрүн
көрдөрөллөрүнэн
көрдөрөллөрө
көрдөрөн
көрдөрөр
көрдөрөргө
көрдөрөрүн
көрдөрөрүнэн
көрдөрөрө
көрдөрөөрү
көрдөрөөччү
көрдөспүт
көрдөспүтэ
көрдөстөҕүнэ
көрдөхпүнэ
көрдөхпүтүнэ
көрдөхтөрүнэ
көрдөххүнэ
көрдөххө
көрдөҕүнэ
көрдөһүү
көрдөһүүтүн
көрдөһүүтүнэн
көрдөһө
көрдөһөбүн
көрдөһөллөр
көрдөһөн
көрдөһөр
көрдөө
көрдөөбүт
көрдөөбүтэ
көрдөөбүтүн
көрдөөн
көрдөөтөххө
көрдөөтөҕүнэ
көрдөөх
көрдөөһүн
көрдөөһүнэ
көрсү
көрсүбэтэх
көрсүбүт
көрсүбүттэр
көрсүбүттэрэ
көрсүбүтэ
көрсүллэр
көрсүү
көрсүүтэ
көрсүһэ
көрсүһэн
көрсүһэр
көрсүһүү
көрсүһүүгэ
көрсүһүүлэр
көрсүһүүлэрэ
көрсүһүүттэн
көрсүө
көрсүөн
көрсүөтүк
көрсүөхтэрин
көрсүөхтэрэ
көрсүөххэ
көрсүөххүн
көрсүөҕэ
көрсүөҕүҥ
көрсө
көрсөллөр
көрсөллөрүн
көрсөллөрө
көрсөн
көрсөр
көрсөргө
көрсөөрү
көрү
көрүллэллэр
көрүллэн
көрүллэр
көрүллэрэ
көрүллүбүт
көрүллүбүтэ
көрүлээн
көрүнэ
көрүнэн
көрүнэр
көрүнүү
көрүстэ
көрүстэххинэ
көрүстэҕинэ
көрүстүлэр
көрүстүм
көрүтэлээн
көрүҥ
көрүҥнэнэн
көрүҥнэр
көрүҥнэргэ
көрүҥнэрдээх
көрүҥнэри
көрүҥнэригэр
көрүҥнэрин
көрүҥнэринэн
көрүҥнэриттэн
көрүҥнэрэ
көрүҥнээх
көрүҥнээхтик
көрүҥнээхтэр
көрүҥнээҕиттэн
көрүҥнээҕэ
көрүҥтэн
көрүҥэ
көрүҥэр
көрүҥҥэ
көрүҥү
көрүҥүн
көрүҥүнэн
көрүҥүттэн
көрүү
көрүүгэ
көрүүлэр
көрүүлэри
көрүүлэригэр
көрүүлэрин
көрүүлэринэн
көрүүлэриттэн
көрүүлэрэ
көрүүлээх
көрүүм
көрүүнэн
көрүүнү
көрүүттэн
көрүүтэ
көрүүтүгэр
көрүүтүн
көрүүтүнэн
көрүүтүттэн
көрүө
көрүөм
көрүөн
көрүөх
көрүөхпүн
көрүөхпүт
көрүөхтэрин
көрүөхтээх
көрүөххэ
көрүөххүн
көрүөҕэ
көрүөҕүҥ
көрүөҥ
көрө
көрөбүн
көрөбүт
көрөллөр
көрөллөрүгэр
көрөллөрүн
көрөллөрө
көрөн
көрөннөр
көрөр
көрөрбүт
көрөргө
көрөрү
көрөрүгэр
көрөрүн
көрөрүттэн
көрөрө
көрөҕүн
көрөөрү
көрөөт
көрөөччү
көрөөччүлэр
көрөөччүлэри
көрөөччүнэн
көрөөччүтэ
көс
көскө
көспүт
көспүттэр
көспүттэрэ
көспүтэ
көстүбэккэ
көстүбэт
көстүбэттэр
көстүбэтэ
көстүбэтэх
көстүбүт
көстүбүттэр
көстүбүттэрэ
көстүбүтэ
көстүбүтүн
көстүмэ
көстүү
көстүүгэ
көстүүлэр
көстүүлэри
көстүүлэригэр
көстүүлэрин
көстүүлэринэн
көстүүлэрэ
көстүүлээх
көстүүм
көстүүнэн
көстүүнү
көстүүтэ
көстүүтүн
көстүүтүнэн
көстүө
көстүөн
көстүөхтэрин
көстүөхтэрэ
көстүөҕэ
көстө
көстөкүүн
көстөллөр
көстөллөрүн
көстөллөрө
көстөн
көстөннөр
көстөр
көстөрү
көстөрүн
көстөрүнэн
көстөрүттэн
көстөрө
көстөөрү
көстөөх
көттө
көттөҕүнэ
көтүппэккэ
көтүппүт
көтүрэн
көтүрүллүбүтэ
көтүтэ
көтүтэн
көтүтэр
көтүтүү
көтүү
көтүүнү
көтүүтэ
көтүүтүгэр
көтүүтүн
көтүөм
көтө
көтөллөр
көтөн
көтөр
көтөргө
көтөрдөр
көтөрдөргө
көтөрдөртөн
көтөрдөрү
көтөрдөрүгэр
көтөрдөрүн
көтөрдөрө
көтөрдөөх
көтөрү
көтөрүгэр
көтөрүн
көтөрө
көтөх
көтөхпүт
көтөхпүтэ
көтөхтөрөн
көтөххө
көтөҕүллэн
көтөҕүллэр
көтөҕүллүбүт
көтөҕүллүүтэ
көтөҕүллүүтүн
көтөҕүү
көтөҕүүгэ
көтөҕө
көтөҕөн
көтөҕөр
көтөҕөргө
көтөҕөөрү
көхсүгэр
көхсүн
көхсүттэн
көхсө
көхтөөх
көхтөөхтүк
көччүи
көҕүи
көҕүллээх
көҕүлээбитэ
көҕүлээн
көҕүлээччи
көҕүлээччитэ
көҕүлээһин
көҕүлээһининэн
көҕүлээһиннэринэн
көҕүлүүр
көҕүрэтэн
көҕүрэтэр
көҕүрээн
көҕүрүү
көҕүрүүр
көҕүс
көҕүстэнэр
көҕүстээх
көҕүтэр
көҕүөр
көҕөн
көҕөрбүт
көҕөрүмтүи
көҕөрө
көҕөрөн
көҕөрөр
көҕөччөр
көҥдөи
көҥү
көҥүл
көҥүлгэ
көҥүллэммит
көҥүллэммэт
көҥүллэнэр
көҥүллэрин
көҥүллэринэн
көҥүллээбит
көҥүллээбиттэрэ
көҥүллээн
көҥүллээх
көҥүллүк
көҥүллүүр
көҥүлэ
көҥүлү
көҥүлүн
көҥүлүнэн
көһуннэҕинэ
көһүи
көһүлээн
көһүлүүр
көһүннэ
көһүннэхтэринэ
көһүннэҕинэ
көһүппэтэх
көһүү
көһүүгэ
көһүүлэрэ
көһүөн
көһө
көһөллөр
көһөн
көһөр
көһөрбүт
көһөрбүттэр
көһөрбүттэрэ
көһөрбүтэ
көһөргө
көһөрүллэн
көһөрүллэр
көһөрүллүбүт
көһөрүллүбүтэ
көһөрүү
көһөрөн
көһөрөр
көһөрөргө
көһөҥө
көөнньөрөн
көөнньөһүгэ
көөнньөһүгүн
көөчүк
көөчүктээн
көөчүктээһин
л
ла
лаа
лаампа
лаампаны
лаамы
лаан
лааппы
лаах
лааҕыр
лааҕыра
лааҕырга
лааҕырдар
лааҕырдарга
лааҕырдарыгар
лааҕырыгар
лааҥкы
лабаа
лабаалаах
лабаалара
лабааларын
лабаата
лабаатын
лаборана
лаборант
лаборатории
лаборатория
лабораториятыгар
лабораториятын
лабораторияҕа
лабораторнаи
лабрадор
лабыкта
лабыкталар
лавлеи
лаврентии
лаврентьева
лаврентьевич
лазарев
лазаревич
лазарь
лазер
лазернаи
лаи
лакаи
ламутскаи
лан
ландау
ландшафт
ланка
лаос
лап
лаппа
лаптев
лаптевтар
лапу
лар
лара
ларга
лари
ларионов
ларионова
лариса
ларри
лары
ларыгар
ларын
лас
лат
латвии
латвия
латвияҕа
латин
латинскаи
латыш
латышев
латыын
латыынныы
лауреаата
лауреат
лауреата
лауреаттара
лауреаты
лауреатын
лах
лахсыи
лаҕына
лаҥхалаах
лгбт
ле
лебедев
лебедева
лебедкин
лебедь
лев
левин
легенда
легенды
легковои
леди
ледокол
леи
лексика
лексиката
лексики
лексико
лексикограф
лексикография
лексикология
лексическэи
лектор
лекции
лекция
лекциялары
лена
ленаҕа
ленд
лене
ленин
ленина
ленинграадтааҕы
ленинград
ленинграда
ленинградка
ленинградскаи
ленинградтааҕы
ленинграды
ленинец
ленинизм
ленинскэи
лениҥҥэ
ленскаи
ленскии
ленскэи
лену
леня
лео
леон
леонард
леонардо
леоне
леонид
леонидович
леонтии
леонтьев
лепчиков
лер
лермонтов
лес
леса
лесото
лесун
лет
летие
летию
летия
лето
летом
летопись
летчик
лех
лечебнаи
лечение
ли
либан
либерализм
либерия
либидо
либо
лив
ливан
ливия
ливияҕа
ливон
ливония
ливр
лига
лигалара
лигин
лидер
лидера
лидерства
лидия
лии
лиибии
лииньии
лиис
лиитирэ
лиитэрэ
лииһигэр
ликбез
лилия
лимон
лин
лингвист
лингвистика
лингвистикаҕа
лингвистическэи
линденау
линеи
линза
линзалары
линзаны
линия
линията
линиятын
линиятынан
линкольн
линукс
линус
лионель
липецкаи
липииттэр
лир
лира
лирик
лирика
лирическаи
лирическэи
лис
лиссиэи
лиссиэнсии
лист
лит
литва
литваҕа
литвинов
литератур
литература
литературабыт
литературалар
литератураларын
литератураны
литературата
литературатыгар
литературатын
литератураҕа
литературе
литературнаи
литературная
литературно
литературного
литературные
литературныи
литературовед
литературы
литератуура
литератууратын
литинскаи
литовскаи
литр
литэрэтиирэ
литэрэтиирэлии
литэрэтиирэни
литэрэтиирэтигэр
литэрэтиирэтин
литэрэтиирэтэ
литэрэтиирэҕэ
лиханов
лихтенштаи
лица
лицах
лицеи
лицензии
лицензия
лицензиялаах
личности
личность
лишь
лиэи
лиэксии
лиэксикэ
лиэксикэтэ
лиэнскэи
лиэнтэлээх
лиэнэҕэ
лия
лл
лмо
ло
лобанов
лобачевскаи
лов
лова
лович
ловна
ловы
логарифм
логика
логическаи
логлои
ложка
локальнаи
ломоносов
лонг
лонгинов
лондон
лондоннааҕы
лондоҥҥа
лоокуут
лоокууттарын
лоомтука
лоп
лорд
лорен
лорп
лос
лоскуи
лохов
лоҥ
лоһуор
лс
лу
лугат
лугинов
луи
луиза
луис
лука
лукашенко
лукин
лукина
лукич
луковцев
лумпур
луна
луначарскаи
лунцзян
луо
луугу
луук
лучшая
лучше
лучшие
лучшии
лучших
луҕат
лы
лыах
лыахтар
лыаҕа
лыглыи
лыгыи
лыргы
лыткин
лыткина
лыы
лыҥкынас
ль
львов
львович
львовна
льюис
лэ
лэгиэн
лэгэнтэи
лэкиэс
лэкээрис
лэлии
лэлиир
лэлээн
лэнд
лэппиэскэ
лэр
лэргэ
лэри
лэригэр
лэрин
лэрэ
лээги
лээх
лэҕэ
лэҥкирэ
лэһит
лю
любви
любовь
любои
людвиг
людеи
люди
людмила
людовик
людям
люксембург
лютер
люция
ляхов
лүксембург
лүкэтин
лүүчүн
лүөччүгэ
лүөччүк
лөгөи
лөкүө
лөкөчөөн
м
ма
маа
маабаттар
маабыт
маада
мааи
маак
маалдьаҕар
маалтааны
маалыкаи
маама
мааны
мааныга
маанылаан
маанылаах
маанылааһын
мааныламмыт
маанылана
мааныланан
маанылыыр
маанытык
мааппа
маар
мааргы
маардарга
мааркалаах
мааркап
маарката
маархаи
маары
маарыи
маарыкчаан
маарынна
маарыннаабат
маарыннаабатын
маарыннаабатынан
маарыннаспаттар
маарыннатан
маарыннаһар
маарынныыллар
маарынныыллара
маарынныыр
маарынныыра
маарынныырын
маарыҥныыр
маас
мааска
маасса
маассабаи
маассата
маассатын
маастар
маастара
маастарга
маастардар
маастардара
маастардарын
маастарыгар
маастарын
маастарынан
маастарыстыбатын
маат
мавзолеи
маврикии
магадаан
магадан
магеллаан
магеллан
магистр
магистратура
магнии
магнит
магнитнаи
магнитогорскаи
магнитудалаах
магомет
мадагаскар
мадам
мадонна
мадрид
мадьаар
мае
мажит
маи
мак
макаар
макао
макар
макаренко
макаров
макарова
макаровна
макбет
македония
македонскаи
макинтош
макс
максвелл
максим
максимиан
максимов
максимова
максимович
мал
мала
малааи
малааһын
малави
малаи
малая
малга
малгин
малдьаҕар
малдьаҕарга
мали
малина
маллаах
маллар
маллара
маллары
малларын
малов
малочисленные
малочисленных
малтан
малы
малыи
малын
малынан
малых
мальдив
мальта
мальчик
малҕан
мама
мамаи
мамиашвили
мамоннар
мамонт
мамут
ман
мана
манаан
манаас
манаах
манаахтар
манааҕа
манан
манар
манас
манастыыр
манастыыра
манастыырга
манга
мандааттаах
мандар
мандарин
мандела
мандьуу
мани
манифест
манихеи
манна
маннааҕы
маннаи
манныгы
маннык
манныкка
манныктар
манныктарга
манныктары
манных
манньа
манньалаан
манньалааһын
манньаны
манньыат
манньыата
манньыаттаах
манньыаттар
манньыаттара
манньыаттары
манньыаттарын
манньыаты
манньыатын
манньыи
манси
мансии
мантан
манчаары
манчаарыга
манчаарыны
манчары
манчестер
манчжурияҕа
маны
маныаха
маныга
маныы
маныыр
маныыһыт
маньчжур
маньчжурдар
маньчжурия
маньчжурияҕа
маньяк
маньяктар
мао
маори
маппыи
маппыт
мар
мара
марафон
марафонун
марафоҥҥа
марганец
маргарет
маргарита
марджани
мардьани
мари
марианна
марии
марина
марино
маринуи
мариуполь
мария
марк
марка
маркетинг
маркетинговаи
марков
маркова
маркович
маркс
марксизм
марксист
марокко
марс
марсден
марсель
марска
март
марта
мартен
мартин
мартын
марфа
марха
мархаҕа
марш
маршак
маршал
маршала
маршалл
маршрут
маршрута
маршрутунан
марыына
мас
маска
масс
массата
массачусетс
массыына
массыыналар
массыыналара
массыыналарга
массыыналары
массыыналарын
массыыналарынан
массыынанан
массыынаны
массыыната
массыынатын
массыынатынан
массыынаҕа
массыынаҥ
мастаах
мастан
мастар
мастара
мастарга
мастардаах
мастары
мастарын
мастарыскыаи
мастер
мастера
мастерскои
мастыи
мат
матаи
матан
матарбакка
матарыи
матвеев
матвеева
матвеевич
матвеи
математига
математик
математика
математиканы
математикаҕа
математиктар
математическаи
матер
матери
материал
материалам
материале
материализм
материалистар
материалов
материалы
материальнаи
материальная
материк
материктар
материя
матка
матре
матрена
матриц
матрица
матрицалар
матрицы
матта
маттаҕа
матч
матырыи
матыыба
матыыбын
матыып
мать
мауритания
мах
махаров
махатма
махачкала
махмуд
махсыым
махтаи
махтал
махтала
махталлаах
махталларын
махталын
махтана
махтанабын
махтанан
махтанар
махтар
махтара
махтарбыт
махтарга
махтаргыттан
махтары
махтарыгар
махтарын
махтарынан
махтарыттан
махтарыҥ
махтаһыы
махтыы
махтыылар
махха
машиностроение
мая
маяк
маяковскаи
маятник
маҕа
маҕан
маҕар
маҕаһыын
маҕаһыына
маҕаһыыннар
маҕаһыыннара
маҕаһыыннарга
маҕаһыыны
маҕаһыыныгар
маҕаһыынын
маҕаһыыҥҥа
маҕы
маҕыи
маҕын
маңнаи
маҥаас
маҥан
маҥаны
маҥнаи
маҥхаи
маҥырыыр
маҥыт
маһа
маһары
маһмуд
маһы
маһыгар
маһым
маһын
маһынан
мб
мбоу
мвд
мвт
мвф
мг
мгб
мгу
ме
мегафон
мегежекскэи
мегино
мед
медалларынан
медалынан
медаль
медалями
медведев
медиа
медик
медико
медицина
медицинаҕа
медицинскаи
медицинскии
медицинскэи
медицины
медицинэ
медия
медресе
между
междунар
международнаи
международная
международного
международнои
международные
международныи
международным
международных
межелаи
мезозои
меи
мекка
мексика
мексикаҕа
мексико
мел
мелик
мелодист
мелодистар
мелодия
мелодията
мелодиһа
мельбурн
мельников
мемориал
мемориальнаи
мен
менделеев
мендель
менеджер
менеджмент
менеджмента
менее
менен
меня
мер
мера
мерал
меридиан
меркит
меркиттар
меркурии
мероприятия
месопотамия
месси
места
местников
местникова
местного
место
местоимение
мета
метал
металл
металлар
металлургия
метастаз
метафора
метеорит
метеорология
метинов
метки
метод
методика
методиката
методикатын
методист
методическаи
методические
методиһа
методиһынан
методы
метонимия
метр
метрическэи
метро
метрополитен
механизация
механизированнаи
механизм
механик
механика
механическаи
мехмед
мехмет
меценат
мецената
меццо
мечеть
мечников
мечты
ми
мигалкин
мигалкина
мигель
миграция
миддендорф
мии
миигин
миигиттэн
мииммит
миин
миинин
миинэ
миинэлэри
миинэн
миинэр
мииринэи
миирнэи
миитин
миитэрэи
микеланджело
миклухо
микро
микроб
микробиолога
микронезия
микрораи
микроскоп
милан
милиисии
милииссии
милиционер
милиция
миллер
миллиард
миллиардер
миллион
миллионер
милтон
мин
минарет
минерал
минераллар
минералогия
минеральнаи
мини
миниистир
миниистирдэр
миниистирдэрин
миниистирин
миниистиринэн
миниистирэ
минин
министерства
министерство
министерствота
министерствотыгар
министерствотын
министиэристибэтигэр
министиэристибэтин
министиэристибэтэ
министр
министра
министрдэрин
министрин
министров
министрэ
минньигэс
минньигэстик
минньигэһи
минометнаи
минск
минскаи
минскэи
минусинскаи
миньяр
минээн
мир
мира
мире
мирнинскии
мирнэи
мировая
мировоззрение
мировои
миронов
мисима
мисс
миссии
миссионерскаи
миссури
митрополит
митрофан
митрофанович
миф
мифология
мифологиятыгар
мифтахутдинович
мифы
михаи
михаил
михалев
михалева
мицкевич
мицуи
мичиган
мичик
мичил
мичилии
мичээр
мичээрэ
миша
миэбэл
миэксикэ
миэксикэҕэ
миэлиҥсэни
миэнэ
миэрэлэр
миэрэлэри
миэстэ
миэстэлэргэ
миэстэлэри
миэстэлэригэр
миэстэлэрин
миэстэлэрэ
миэстэлээх
миэстэлээҕэ
миэстэни
миэстэтигэр
миэстэтин
миэстэтэ
миэстэҕэ
миэтирэ
миэтирэҕэ
миэтэрэ
миэтэрэлээх
миэтэрэттэн
миэтэрэҕэ
миэхэ
миэхэҕэ
миҥэ
мл
младшаи
млекопитающих
млн
млрд
мм
мн
мне
многие
многих
много
мнои
мною
мнр
мо
мобил
мобильнаи
могила
могиле
могут
мода
модела
моделлар
моделын
модель
модуль
модун
модут
модьу
модьуи
мое
моеи
может
можете
можно
мозаика
мозамбик
мои
моисеевич
моисеи
мок
мокли
мокша
мол
молд
молдавия
молдавияҕа
молдова
молдоваҕа
молекулалар
молекулалара
молекулярнаи
молодая
молоде
молодежи
молодежь
молодои
молодые
молодых
молот
молотов
мольер
мон
монако
монархия
монастырев
монг
монгол
монголии
монголия
монголияны
монголияҕа
монголлар
монголларга
монголлары
монголлуу
монголо
монгольскаи
монгольских
монгуол
монгуоллар
монд
монет
монета
монеты
мониторинг
монович
монография
мономах
монреаль
монте
монтессори
монумент
моои
моонньо
моонньоох
моонньоҕон
моонньугар
моонньун
моорук
моравия
мораль
моральнаи
мординов
мордовия
мордьотуҥулар
море
морис
моркуоп
мороду
мороженаи
морозов
морскои
морфологическаи
морфология
моря
моряк
москва
москваны
москватааҕы
москваттан
москваҕа
москве
москвич
москвы
московскаи
московская
московскии
московского
москуба
москубаны
москубатааҕы
москубаттан
москубаҕа
мосфильм
мотив
мотивы
мотострелковаи
мотоцикл
моттои
мотуо
мотуок
мотуордаах
мотуруона
мотуруос
мотурууна
мохначевскаи
мохов
мохсоҕол
мохсоҕоллуҥулар
мохсуо
мочанов
моя
моҕои
моҕол
моҕоллор
моҕоллору
моҕотои
моҕуол
моҕуоллар
моҥнон
моһуоннаах
мп
мр
мрамор
мрт
мс
мстислав
мт
мтз
мтс
му
мугудаи
муз
муза
музеи
музея
музыка
музыкальнаи
музыкально
музыкального
музыкант
музыканы
музыката
музыкатыгар
музыкатын
музыкаҕа
музыки
муи
мук
муканов
мукден
мукучу
мулла
мультига
мультик
мультинационал
мультинациональнаи
мультфильм
муна
мунаахсыи
мунан
мунду
мундута
муниц
муниципалитет
муниципальнаи
муниципального
мунна
муннуга
муннугар
муннугу
муннугуттан
муннук
муннукка
муннуктаах
муннуктар
муннуктардаах
муннуктарыгар
муннуктарыттан
муннуктуу
муннун
муннунан
муннуттан
мунньа
мунньан
мунньар
мунньах
мунньахтаан
мунньахтара
мунньахтарга
мунньахтарыгар
мунньахтарын
мунньахха
мунньаҕа
мунньаҕар
мунньаҕы
мунньаҕын
мунньаҕынан
мунньубут
мунньулла
мунньуллаллар
мунньуллан
мунньулланнар
мунньуллар
мунньуллубут
мунньуллубута
мунньуллубутун
мунньуллуута
мунньуллуутун
мунньуллуутуттан
мунньулуннаҕына
мунньуммут
мунньуна
мунньуналлар
мунньунан
мунньунар
мунньунуу
мунньусталлар
мунньустан
мунньустаннар
мунньустар
мунньустубут
мунньустуулара
мунньустуута
мунньуу
мунхалов
муода
муодарҕаан
муома
муора
муоралар
муоранан
муораны
муората
муораттан
муоратыгар
муоратын
муораҕа
муос
муоска
муоста
муостаах
муостааҕы
муостан
муостанан
муостаны
муостата
муостатын
муостаҕа
муосчут
муосчута
муох
муохтар
муоһа
муоһун
муоһунан
муоһуттан
муравье
муравьев
мурад
мурат
муратов
мурзата
мурманскаи
мурун
муруннаах
муруну
муса
мусават
мусоргскаи
муспут
мусталлар
мустан
мустаннар
мустар
мустафа
мустубут
мустубуттар
мустуу
мустуулара
мусукаан
мусукаана
мусулмаан
мусульмаан
мусульмааннар
мусульман
мусульманнар
мусульманнары
мусульманскаи
мусуои
мутугун
мутук
мутуктаах
мутукча
мутукчалаах
мутукчата
муу
муудараи
муунта
муунтата
муунтуи
муус
мууска
муустаах
муустар
муусука
муусукатын
муусукаҕа
мууһа
мууһу
мууһугар
мууһун
мууһунан
мууһуруу
мухаммад
мухаммед
мухоловки
мухоплева
мухтар
мухтуи
муҥ
муҥа
муҥатыи
муҥкук
муҥнаан
муҥнаах
муҥнана
муҥнанан
муҥу
муҥун
муҥунан
муҥур
муҥура
муҥурдаммакка
муҥурдаммат
муҥурданар
муҥутаан
муҥутах
муҥутуур
муҥутуурдук
муҥха
муһаммад
муһуннахтарына
мфа
мы
мылаһан
мымах
мындааларыгар
мындааларыттан
мындаатыгар
мындаҕааи
мындыр
мыр
мыраан
мыреев
мыреева
мырыла
мыс
мысли
мысль
мытаах
мыттылла
мытыи
мыыла
мыыр
мыыт
мьянма
мэ
мэгэдьэк
мэдиссиинэ
мэдиссиинэҕэ
мэи
мэктиэлиир
мэктиэлэнэр
мэктиэтигэр
мэкчиргэ
мэкчиргэлэр
мэлдьи
мэлдьитин
мэлдьэхси
мэлдьэхтээх
мэлии
мэлииппэ
мэлиллибит
мэн
мэндиэмэннээх
мэндээриччи
мэник
мэниктиир
мэниктээбэт
мэниктээмэ
мэниктээн
мэнэ
мэнээгэ
мэнээк
мэра
мэри
мэриленд
мэркииттэр
мэтириэтин
мэтириэттэрэ
мэтириэтэ
мэтэдиис
мэтээл
мэтээли
мэтээлин
мэтээлинэн
мэтээллэр
мэтээллэрдээх
мэтээллэрин
мэтээллэринэн
мэтээллэрэ
мэтээллээх
мэтээлэ
мэхээлэ
мэхээс
мэчиэккэ
мэчиэт
мэчиэтэ
мэччии
мэччирэҥ
мэччирэҥэ
мээлэ
мээндиги
мээнчэ
мээнэ
мээнэҕэ
мээрэи
мээчиги
мээчигинэн
мээчик
мэҥ
мэҥнээх
мэҥэ
мэҥэдьэк
мэҥэлэр
мэҥэтин
мэҥэтэ
мэһэи
мюнхен
мягков
мята
мүлдьү
мүлчү
мүлүрүи
мүн
мүнүүтэ
мүнүүтэлээх
мүнүүтэнэн
мүнүүтэҕэ
мүрү
мүччү
мүччүргэннээх
мүһэнэн
мүөт
мүөттээх
мүөтү
мөккүөр
мөккүөргэ
мөккүөрдээх
мөккүөрэ
мөккүөрү
мөкү
мөкүнү
мөкүчүгэ
мөкөөн
мөкөөҥҥө
мөл
мөллүи
мөлтүүр
мөлтүүрүгэр
мөлтүүрүн
мөлтүөн
мөлтүөҕэ
мөлтөтүү
мөлтөтөллөр
мөлтөтөн
мөлтөтөр
мөлтөтөрүн
мөлтөх
мөлтөхпүн
мөлтөхтүк
мөлтөхтөр
мөлтөҕү
мөлтөҕүн
мөлтөҕүттэн
мөлтөҕө
мөлтөһүөр
мөлтөөбүт
мөлтөөбүтэ
мөлтөөбүтүн
мөлтөөбөккө
мөлтөөбөт
мөлтөөн
мөлтөөннөр
мөлтөөтө
мөлтөөтөҕүнэ
мөлтөөһүн
мөлтөөһүнэ
мөлтөөһүнү
мөлтөөһүнүгэр
мөлтөөһүнүн
мөлтөөһүнүттэн
мөлтөөһүҥҥэ
мөлүи
мөлүөкүлэ
мөрүөн
мөрөи
мөссүөнэ
мөссүөнүн
мөхсүбэккэ
мөхсөн
мөхсөр
мөҕүллүбэт
мөҕүө
мөҕө
мөҕөн
мөҥүрүөн
мөҥүөннээх
мөһөөччүк
н
на
наа
наада
наадалаах
наадалааҕы
наадалааҕын
наадалар
наадата
наадатыгар
наадатын
наадаҕа
наадыи
наака
наакаан
наар
наара
наарва
наардаан
наардааһын
наассыи
наата
наатыгар
наах
наахара
наброски
навои
нагасаки
нагорнаи
наградами
награднои
наградные
награды
награжде
награжден
награждении
награжденного
награжденных
над
надежда
надеи
надо
назад
назаров
назарович
назв
название
названии
названия
называется
наи
наиболее
накаастаан
накааһа
накааһыгар
накааһын
наклонение
накыын
накыыҥҥа
налимскаи
налыи
нам
наме
намерениями
нами
намибия
намнааҕы
намскии
намтаан
намтал
намтала
намталга
намталыгар
намталынан
намтан
намтатан
намтатар
намтыыр
намчы
намы
намылыи
намыын
намыһах
намыһаҕын
намҥа
нан
нанаи
нансен
наполеон
направления
например
нар
нара
нардаах
наркома
наркоман
наркоманнар
наркоматын
наркомпрос
наркомун
наркомунан
наркотигы
наркотигынан
наркотик
наркотикка
наркотиктан
наркотиктар
наркотиктарга
наркотиктары
народ
народа
народах
народе
народнаи
народная
народник
народного
народное
народнои
народностеи
народные
народныи
народных
народов
народоволец
народу
народы
нары
нарын
нас
наса
насекомые
населе
население
населения
наскы
наслег
наслега
наслеге
наследие
наследия
наследники
настаа
наставнига
наставник
настои
настоящее
настоящем
наталия
наталья
нато
натрии
натуралист
натуральнаи
наук
наука
наукалар
наукаларга
наукаларын
науканан
науканы
науката
наукатыгар
наукатын
наукаҕа
науки
наум
наумов
науру
науукатын
науч
научнаи
научная
научно
научного
научное
научнои
научные
научныи
научных
нах
находится
находкин
нац
нацизм
нации
национал
национализм
националистическаи
национальнаи
национальная
национально
национального
национальное
национальнои
национальному
национальностар
национальности
национальные
национальныи
национальных
нацистар
нацистыы
нация
нациялар
нач
начаалынаи
начаалынньыга
начаалынньыгын
начаалынньыгынан
начал
начала
начале
начало
начальнаи
начальнига
начальнигын
начальнигынан
начальник
начальных
начато
наш
наша
наше
нашего
нашеи
наши
наших
ная
наҕараада
наҕараадалаабыт
наҕараадалаах
наҕараадаламмыт
наҕараадаламмыта
наҕараадаламмыттара
наҕараадаланаллара
наҕараадаланар
наҕараадалар
наҕараадалара
наҕараадалары
наҕараадалыыр
наҕарааданы
наҕараадата
наҕараадатын
наҕараадаҕа
наҕыл
наһаа
нвк
нг
нд
не
неба
неби
небо
невада
невис
неврологическаи
невскэи
него
негрдар
нед
недели
неделя
недерланд
недоступная
нее
независимости
незаметнаи
неи
неке
некоторые
некоторых
некрасов
нелунов
нельбисова
нельзя
нельсон
нем
немец
немецкаи
немецкэи
немецтэр
ненец
ненецтэр
необходимо
неолит
неорганическаи
непал
нер
нера
нервнаи
нервнэи
нерон
нерчинскэи
нерюнгри
несколько
нестеров
нестерова
нестерович
нестор
нет
неустроев
неустроева
неустроевы
нефтебаза
нефть
ни
нигер
нигерия
нигэр
нидерл
нидерланд
нидерланды
нидерландыга
нидьили
ние
ниже
нижегородскаи
нижнии
нижнэи
низами
нии
ник
ника
никарагуа
никель
никита
никитин
никитина
никитич
никитична
никифор
никифоров
никифорова
никифорович
никифоровна
никифоровы
ников
никогда
никодим
никола
николаев
николаева
николаевич
николаевичка
николаевна
николаевскаи
николаи
николая
никольскаи
никон
никонович
никотин
никулин
нил
ними
нин
нина
нипк
ниуэ
них
нихаль
ницше
нич
ниэби
ниэм
ниэмэс
ниэмэстии
ниэмэстэр
ниэп
ниэрбэ
нка
нквд
нкик
нких
нкс
нм
нн
ннаи
нная
нного
нные
нныи
нных
но
нобелевскаи
нобелевская
нобелевскии
нобелевскои
нобель
нов
нова
новаи
новатор
новая
новгород
новгородка
новгородов
новгородова
новгородовы
новеи
новиков
нович
новна
нового
новограц
новое
новои
новом
новороссии
новосельцев
новосибирск
новосибирскаи
новосибирскэи
новости
новые
новыи
новых
ногаи
ного
ноговицын
ное
ноев
нои
нок
нокдаун
нокоо
нолуогу
нолуогун
нолуок
нолуоктары
ном
номер
номинал
номиналлаах
номинация
номинациятын
номинацияҕа
номнуо
номох
номохтор
номохторго
номохторо
номохторугар
номохторун
номохторунан
номоххо
номоҕо
номоҕор
номоҕу
номоҕун
номоҕунан
ноо
ноор
ноорои
норвегия
норвегияҕа
норильскаи
нормальнаи
норуодунаи
норуокка
норуоппут
норуот
норуота
норуоттан
норуоттар
норуоттара
норуоттарга
норуоттары
норуоттарыгар
норуоттарын
норуоту
норуотугар
норуотун
носов
ноуука
ноуукатын
нохоо
нохсоров
ночлежка
ночоокко
ночоот
ночооттоох
ночооттор
ночооту
ночь
нояб
ноябрь
ноября
ноҕаи
нп
нпк
нс
нт
нтв
ну
нужно
нулевои
нумизмата
нумизматическии
нун
нуолур
нуорма
нуорманы
нуормата
нуорматтан
нуорматын
нуормаҕа
нуотара
нуоҕаи
нур
нурхачи
нус
нуу
нуул
нууч
нуучч
нуучча
нууччалар
нууччаларга
нууччалардыын
нууччалартан
нууччалары
нууччаларынан
нууччалыы
нууччалыыта
нууччалыыттан
нууччаттан
нууччатыи
нууччатымсыи
нууччаҕа
нучч
нучча
нхсб
нчи
нштеи
ны
ныгар
ные
ныи
нык
нын
ных
нь
ньаамырҕаан
ньалака
ньамаи
ньамыаскалаах
ньара
ньии
ньим
ньир
ньиргии
ньиргиэрдээх
ньирэи
ньиэмэс
ньиэмэстэр
ньиэмэстэри
ньиэмэстэртэн
ньиэп
ньиэптээх
ньиэрбэ
ньиэрбэтэ
ньиэрпэлэр
ньокоокуи
ньолбо
ньолбоҕор
ньолбуһах
ньоҕои
ньукулаи
ньукуола
ньулуун
ньуолах
ньуоска
ньуосканан
ньуосканы
ньурба
ньурбатааҕы
ньурбаттан
ньурбачаан
ньурбаҕа
ньургу
ньургуи
ньургун
ньургуһун
ньургуһуннар
ньуур
ньуура
ньуурдаах
ньууругар
ньуурун
ньуучча
ньуч
ньыгыл
ньылхан
ньылхаҥҥа
ньыма
ньымалар
ньымалара
ньымаларга
ньымалары
ньымаларыгар
ньымаларын
ньымаларынан
ньыманан
ньыманы
ньымата
ньыматыгар
ньыматын
ньыматынан
ньыыкан
ньээм
нью
ньюман
ньютон
ньюфаундленд
ньүдьү
ньүүи
нэ
нэдиэлэ
нэдиэлэнэн
нэдиэлэтэ
нэдиэлэҕэ
нэи
нэлим
нэлэгэр
нэлэмэн
нэм
нэми
нэмии
нэмин
нэмнээхтик
нэн
нэп
нэр
нэс
нэьилиэгэр
нэҕинэ
нэһ
нэһиилэ
нэһилиэги
нэһилиэгим
нэһилиэгин
нэһилиэгинэн
нэһилиэгиттэн
нэһилиэгэ
нэһилиэгэр
нэһилиэк
нэһилиэккэ
нэһилиэкпит
нэһилиэктэн
нэһилиэктэр
нэһилиэктэргэ
нэһилиэктэри
нэһилиэктэригэр
нэһилиэктэрин
нэһилиэктэртэн
нэһилиэктэрэ
нэһилиэнньэ
нэһилиэнньэлээх
нэһилиэнньэни
нэһилиэнньэтин
нэһилиэнньэттэн
нэһилиэнньэтэ
нэһилиэнньэҕэ
нэһилиэстибэ
нэһилиэстибэтин
нэһилиэстибэтэ
нюрба
нюрбинскии
нюргун
нюрнберг
нҥа
нүөмэр
нүөмэрдэрэ
нүөмэрдээх
нүөмэри
нүөмэригэр
нүөмэрин
нүөмэрэ
нүөрүҥгүрү
нүөрүҥгүрүтээҕи
нөмүгү
нөргүи
нөрүөн
нөҥүө
нөҥүөлээн
нөөрүктээи
о
оао
об
обама
обд
обелиск
обеспечению
обзор
обитавших
обком
обкома
обкомугар
обкомун
обкомын
обкуом
обкуомун
обл
области
областного
областное
областнои
область
областью
обозначения
обозрение
оборон
оборона
оборонатыгар
оборонатын
оборону
оборор
оборудование
оборуона
обот
образ
образа
образка
образование
образовании
образованию
образования
образом
образтаан
образтааһын
образтааһыны
образтааһыҥҥа
образтанар
образтар
образтара
образтары
образтыыр
образцы
образы
обратно
обратнои
обращения
обраһа
обраһын
обручев
обсерватория
обсерваториятын
обсуждение
обсуждения
обуода
обуоданан
обуодата
обуодатынан
обуои
обургу
обутова
обучение
обучения
обход
общ
общая
общего
общее
общеи
обществ
общества
обществе
общественнаи
общественник
общественно
общественного
общественнои
общественныи
общественных
общество
обществотын
обществоҕа
общии
община
объедине
объект
объектар
объектары
объектарын
обыкновенная
обыкновенныи
обычаи
обь
обязанности
ов
овчинников
овчинникова
ога
огаи
огдолуи
огдообо
огдооччуи
огирко
огнем
огни
огня
огонек
огонь
огпу
огрызко
огуз
огурт
ода
одежда
одер
одесса
один
одна
однако
одним
одно
одного
однои
одноклассники
одну
одорусов
одулок
одун
одуну
одур
одуулаан
одуулуу
одуулуур
одьоо
одьулуун
одьуогун
озера
озеро
ознаменование
озон
озоноваи
ои
ок
ока
окаи
окато
оквил
океан
океана
океания
океаны
океаныгар
океаҥҥа
окко
оккупация
оккупациялыыр
окладников
оклахома
окоемов
около
оконешников
оконешникова
окончательных
окончил
окороков
окорокова
округ
округа
оксана
оксид
оксида
оксфорд
окт
октавиан
октябрь
октябрьскаи
октября
ол
ола
олбохтоох
олбоххо
олбуор
олбуору
олгуи
олег
олеи
олень
олимп
олимпиада
олимпиадатыгар
олимпиадаҕа
олимпии
олимпия
олимпиятааҕы
оллонов
оллор
оло
олом
олонхо
олонхону
олонхосутов
олонхотун
олонхоһут
олоох
олоппос
олоппоско
олоппоһу
олор
олорбокко
олорбот
олорбуппут
олорбут
олорбута
олорбуттар
олорбуттара
олорбуттарын
олорбутун
олорго
олордо
олордоллор
олордон
олордор
олордохпутуна
олордохторуна
олордоххо
олордоххуна
олордоҕуна
олордубут
олордубуттар
олордулар
олордуллубут
олордум
олордуу
олоро
олоробун
олоробут
олороллор
олороллоро
олороллоругар
олороллорун
олороллоруттан
олороммут
олорон
олороннор
олороору
олорооччу
олорооччулар
олорор
олорорбут
олорорбутун
олорорго
олороро
олорору
олороругар
олорорун
олороруттан
олороруҥ
олороҕун
олорсон
олорто
олортон
олору
олорун
олорунан
олоруом
олоруон
олоруохтаах
олоруохтарын
олоруохха
олоруоххун
олоруоххут
олоруоҥ
олоруу
олорууга
олоруулара
олорууларыгар
олорууларын
олорууну
олоруута
олоруҥ
олох
олохпор
олохпун
олохпут
олохпутугар
олохпутун
олохсуи
олохсуталлар
олохсутан
олохсутар
олохсутуу
олохто
олохтоммут
олохтоммута
олохтоммуттар
олохтоммутун
олохтон
олохтонон
олохтонор
олохтонуута
олохтонуутун
олохтоо
олохтообут
олохтообута
олохтообуттар
олохтообуттара
олохтоон
олохтоох
олохтоохтор
олохтоохторго
олохтоохторо
олохтоохтортон
олохтоохтору
олохтоохторугар
олохтоохторун
олохтоохторуттан
олохтоохтук
олохтооччу
олохтооччулартан
олохтооччута
олохтооҕо
олохтооҕун
олохтооҕуттан
олохтооһун
олохтооһуҥҥа
олохторо
олохторугар
олохторун
олохторунан
олохторуттан
олохтоспут
олохтуу
олохтууллар
олохтууллара
олохтуур
олохтуурга
олохтууругар
олоххо
олоххор
олоххун
олоххутун
олоччу
олоҕо
олоҕор
олоҕу
олоҕугар
олоҕум
олоҕун
олоҕунан
олоҕураллар
олоҕуран
олоҕурар
олоҕурара
олоҕурбут
олоҕурбута
олоҕурдаҕына
олоҕуттан
олоҕуҥ
олоҥ
олоҥхо
олоҥхолоон
олоҥхолор
олоҥхолорго
олоҥхолоро
олоҥхолортон
олоҥхолору
олоҥхолоругар
олоҥхолорун
олоҥхолуур
олоҥхолуура
олоҥхолуурун
олоҥхону
олоҥхото
олоҥхоттон
олоҥхотугар
олоҥхотун
олоҥхотуттан
олоҥхоҕо
олоҥхоһут
олоҥхоһута
олоҥхоһуттар
олоҥхоһуттара
олоҥхоһуттары
олоҥхоһуттарын
олу
олуга
олуи
олук
олуктара
олунньу
олунньуга
олунньутааҕы
олунньутугар
олунньутуттан
олуона
олус
олуһун
ольга
ольхон
оляпковые
ом
оман
омар
омеи
омоллоон
омолои
омонимнар
омос
омоҕои
омск
омскаи
омсолоох
омуга
омугар
омугу
омугумсуи
омугун
омугунан
омугуттан
омук
омукка
омукпут
омукпутун
омуктан
омуктар
омуктара
омуктарга
омуктардааҕар
омуктардыын
омуктартан
омуктары
омуктарыгар
омуктарын
омуктарынан
омуктарыттан
омуктуу
омуктуун
омукчаан
омуннаах
омунугар
омуоруи
он
она
онах
ондар
оне
онегин
они
онкология
онлаи
онно
онноноллор
онноо
онноон
онноотоххо
оннооҕор
оннооһун
оннооһуннара
онноро
оннугар
оннук
оннукка
оннуларыгар
оннуларын
оннун
оннунан
оннуохха
оннуттан
оннуу
оннуур
оннуурга
оно
онов
онолуи
ономастика
онон
оноо
оноолоох
онооҕо
онорбут
онорбута
онороллор
онорон
онорор
оностон
оноҕос
онтарио
онто
онтон
онтубут
онтукаи
онтукаларын
онтуката
онтукатын
онтуктара
онтулара
онтуларын
онтун
ону
онуга
онун
онунан
онуоха
онуохаҕа
онус
ончу
оо
оол
оон
ооннор
оонноро
ооннорун
оонньоммут
оонньонор
оонньооботох
оонньообут
оонньообута
оонньообуттар
оонньоон
оонньоотоҕуна
оонньооччу
оонньооччулар
оонньооһун
оонньото
оонньотон
оонньотор
оонньуу
оонньууга
оонньуулаах
оонньуулар
оонньуулара
оонньууларга
оонньуулары
оонньууларыгар
оонньууларын
оонньууларынан
оонньууллар
оонньууллара
оонньуулларын
оонньууну
оонньуур
оонньуура
оонньуурга
оонньуурдары
оонньуурдарынан
оонньууру
оонньууругар
оонньуурун
оонньуурунан
оонньууруттан
оонньуута
оонньуутугар
оонньуутун
ооно
оонун
ооо
ооҕуи
оп
опера
опералар
операта
оперативнаи
оператор
оператора
оператын
операции
операционнаи
операция
операциялар
операциялыыр
операцияны
опеределитель
опернаи
оперы
описание
описания
опиум
ополовников
оппозиция
определитель
определяет
оптическаи
оптуобус
опыт
опыта
опыттаах
опытын
ор
ора
оранж
оранжеваи
оратория
орбитатыгар
орбитаҕа
оргазм
орган
органа
организатор
организации
организация
организм
организма
организмнар
организмнарга
организмы
организмыгар
организмын
организмҥа
органическаи
органнар
органнара
органнарга
органнары
органнарыгар
органнарын
органов
органы
оргуи
оргуталлар
оргутан
оргутуллубут
оргууи
орда
орден
ордена
орденнаах
орденнар
орденнарынан
орденом
орденын
орденынан
орджоникидзе
орджоникидзевскаи
ордон
ордор
ордорбокко
ордороллор
ордорон
ордорор
ордубат
ордубут
ордубута
ордуга
ордугу
ордугун
ордугунан
ордугургуур
ордук
ордукпун
ордуктарын
ордуктук
ордуу
ордууга
ордууну
ордуута
ордууттан
ордуутун
орды
оре
орегон
орел
оренбург
ориенталистар
орион
орк
орка
оркестр
оркестра
оркестрга
оркестроваи
оркестрыгар
оркка
орлов
орловскаи
оро
оробуочаи
орои
орон
оронон
оронтон
оронугар
оронун
оронуттан
ороон
оросин
ороскуот
ороскуота
ороскуоттар
ороскуоттарын
ороскуоту
ороскуотун
ороспуои
ороҥҥо
ороһооспо
ороһу
ороһуоспа
ороһуунускаи
орто
ортобутугар
ортоку
ортолоругар
ортолорунан
ортолоруттан
ортото
ортотугар
ортотун
ортотунааҕы
ортотунан
ортотуттан
оружия
оруи
орулуос
орулуу
орулҕан
орун
оруна
оруннаах
оруо
оруобуна
оруол
оруола
оруолга
оруоллаах
оруоллаахтар
оруоллааҕа
оруоллааҕын
оруоллара
оруолларга
оруоллары
оруолларын
оруолу
оруолугар
оруолун
оруос
оруосабаи
оруоһун
оруоһуттар
оруу
орхан
орхон
ос
осада
осака
освоения
осетин
осетия
осетияҕа
осип
осипов
осипова
осипович
оскар
оскуола
оскуолабыт
оскуолалар
оскуолалара
оскуолаларга
оскуолалары
оскуолаларыгар
оскуолаларын
оскуоланы
оскуолата
оскуолаттан
оскуолатыгар
оскуолатын
оскуолатыттан
оскуолаҕа
осло
осмаан
осмааннар
осман
основания
основе
основнои
основные
основы
особенно
особенности
осока
оссо
ост
остается
остолобуои
остолубуои
остоох
остров
острова
островскаи
остулубуои
остуол
остуола
остуолба
остуолга
остуолу
остуолугар
остуоруи
остуруогар
остуруогу
остуруогун
остуруок
остуруокка
от
отв
ответы
отгон
отд
отдел
отдела
отделение
отделениета
отделениетыгар
отделениетын
отделения
отделениятыгар
отделениятын
отделом
отделыгар
отделын
отелло
отец
отечественнои
отечеством
открытие
открытии
открытия
отличие
отличник
отмечается
отмечают
отношение
отношении
отношения
отношениях
ото
отои
отон
отонноох
отоно
отону
отонун
отох
отоһут
отряд
отставкаҕа
оттенком
отто
оттомноох
оттомо
оттон
оттонор
оттоон
оттоох
оттор
отторго
отторо
оттортон
оттору
отторун
оттотугар
оттубут
оттук
оттуктар
оттунан
оттуу
оттуур
оту
отугар
отун
отунан
отут
отуттан
отутугар
отутус
отуу
отучча
отца
отче
отчет
отчуот
отчуоттуур
отчут
оуэн
офис
офиснаи
офистара
офицер
офицердар
официал
официаллык
официальнаи
официально
официальном
официальные
официальныи
офиһа
офсет
ох
оханссон
охлопков
охлопкова
охонооһои
охотскаи
охраны
охсо
охсоллор
охсоллоро
охсон
охсоннор
охсоору
охсоорулар
охсор
охсорго
охсоро
охсорун
охсоруттан
охсу
охсубат
охсубут
охсубута
охсубутун
охсуллан
охсуллар
охсуллубут
охсуолаабат
охсуолаан
охсуолуур
охсуон
охсуохтарын
охсуохха
охсуспут
охсуспута
охсуу
охсууга
охсуулаах
охсуулара
охсууларынан
охсуунан
охсууну
охсуута
охсуутугар
охсуһа
охсуһааччы
охсуһаллар
охсуһаллара
охсуһан
охсуһар
охсуһарга
охсуһуннара
охсуһуу
охсуһууга
охсуһуулаах
охсуһуулар
охсуһуулара
охсуһууларын
охсуһууну
охсуһуута
охсуһууттан
охсуһуутугар
охсуһуутун
охто
охтон
охтоох
охтор
охторо
охторон
охторор
охторун
охтубат
охтубут
охтубута
охтубуттар
охтуо
охтуон
охтуу
охуоскаи
охчут
оценка
очень
очерк
очеркалар
очеркалара
очерки
очеркист
очкам
очко
очуос
очуостар
оччо
оччолорго
оччолордооҕу
оччонон
оччотоо
оччотооҕу
оччотооҕуга
оччоттон
оччотугар
оччоҕо
оччоҕуна
оччугуи
ош
ошибка
ошкар
ођо
оҕо
оҕобун
оҕобут
оҕобутугар
оҕобутун
оҕоло
оҕоломмот
оҕоломмут
оҕоломмута
оҕоломмуттар
оҕоломмуттара
оҕолоннохторуна
оҕолонноҕуна
оҕолоноллор
оҕолоноллоро
оҕолонон
оҕолонор
оҕолоноро
оҕолонуу
оҕолоор
оҕолоох
оҕолоохтор
оҕолоохторо
оҕолооҕо
оҕолор
оҕолорбут
оҕолорбутугар
оҕолорбутун
оҕолорго
оҕолордоох
оҕолоро
оҕолортон
оҕолору
оҕолоругар
оҕолорум
оҕолорун
оҕолорунан
оҕолоруттан
оҕолуу
оҕолуун
оҕом
оҕонньоор
оҕонньор
оҕонньорбут
оҕонньорго
оҕонньордоох
оҕонньоро
оҕонньортон
оҕонньору
оҕонньоттор
оҕонон
оҕону
оҕоньор
оҕор
оҕос
оҕосторо
оҕото
оҕотооҕор
оҕоттон
оҕотугар
оҕотун
оҕотунан
оҕотуттан
оҕоҕо
оҕоҕун
оҕоҕут
оҕоҥ
оҕоһо
оҕоһугар
оҕоһун
оҕоһунан
оҕу
оҕун
оҕунан
оҕуннаҕына
оҕуруо
оҕуруокка
оҕуруонан
оҕуруот
оҕус
оҕуста
оҕустаах
оҕустар
оҕустаран
оҕустараннар
оҕустарар
оҕустарбат
оҕустарыы
оҕустахтарына
оҕустахха
оҕуттан
оҕуһа
оҕуһу
оҕуһун
оҕуһунан
оҕыр
оҕырдар
оңорор
оҥ
оҥкула
оҥкулун
оҥкучах
оҥо
оҥои
оҥололор
оҥоои
оҥор
оҥорбокко
оҥорбот
оҥорбото
оҥорботох
оҥорботохторуна
оҥорботоҕун
оҥорботоҕуна
оҥорботтор
оҥорботторо
оҥорботторун
оҥорботугар
оҥорботун
оҥорбуппут
оҥорбут
оҥорбута
оҥорбуттар
оҥорбуттара
оҥорбуттарын
оҥорбуттарыттан
оҥорбуту
оҥорбутугар
оҥорбутун
оҥорбутунан
оҥорбутуттан
оҥорбутуҥ
оҥордо
оҥордохпутуна
оҥордохторуна
оҥордоххо
оҥордоххуна
оҥордоҕуна
оҥордубут
оҥордулар
оҥордум
оҥоро
оҥоробун
оҥоробут
оҥороллор
оҥороллоро
оҥороллоругар
оҥороллорун
оҥороллоруттан
оҥорон
оҥороннор
оҥороору
оҥорооччу
оҥорооччулар
оҥорооччуларга
оҥорооччулартан
оҥорооччулары
оҥорооччута
оҥорор
оҥорорбут
оҥорорго
оҥорордооҕор
оҥороро
оҥорортон
оҥорору
оҥороругар
оҥорорум
оҥорорун
оҥорорунааҕар
оҥорорунан
оҥороруттан
оҥортообут
оҥортообута
оҥортообуттара
оҥортоон
оҥорторон
оҥортуур
оҥорулла
оҥоруллаллар
оҥоруллан
оҥоруллар
оҥоруллара
оҥорулларын
оҥоруллубут
оҥоруллубута
оҥоруллубутун
оҥоруллуо
оҥоруллуон
оҥоруллуохтаах
оҥорулуннаҕына
оҥорума
оҥорумаҥ
оҥорумуон
оҥоруо
оҥоруом
оҥоруон
оҥоруох
оҥоруохтаах
оҥоруохтааҕа
оҥоруохтааҕын
оҥоруохтара
оҥоруохтарын
оҥоруохха
оҥоруоххун
оҥоруоҕа
оҥоруу
оҥорууга
оҥоруулаах
оҥоруулар
оҥоруулара
оҥорууларын
оҥоруунан
оҥорууну
оҥоруута
оҥорууттан
оҥоруутугар
оҥоруутун
оҥоруутунан
оҥоруутуттан
оҥоруҥ
оҥосто
оҥостоллор
оҥостоллоро
оҥостоллоругар
оҥостоллорун
оҥостон
оҥостоннор
оҥостоору
оҥостор
оҥосторго
оҥосторо
оҥосторугар
оҥосторун
оҥостубат
оҥостубут
оҥостубуттар
оҥостубуттара
оҥостунан
оҥостунар
оҥостуон
оҥостуу
оҥотторбут
оҥотторо
оҥотторон
оҥотторор
оҥотторуу
оҥочо
оҥоһуга
оҥоһугу
оҥоһук
оҥоһуктар
оҥоһуктара
оҥоһуктарга
оҥоһуктары
оҥоһуктарын
оҥоһуллаллар
оҥоһуллан
оҥоһуллар
оҥоһуллара
оҥоһуллубут
оҥоһуллубута
оҥоһуллубуттар
оҥоһуллубуттара
оҥоһуллубутун
оҥоһуллуон
оҥоһуллуохтаах
оҥоһулунна
оҥоһун
оҥоһуннаҕына
оҥоһуу
оҥоһуулаах
оҥоһуулаахтар
оҥоһуута
оҥоһуутугар
оҥоһуутун
оҥоһуутунан
оҥхои
оҥҥо
оүөо
оһо
оһол
оһолго
оһолтон
оһолу
оһон
оһор
оһорор
оһох
оһоххо
оһоҕо
оһоҕос
оһоҕоско
оһоҕоһун
оһоҕу
оһоҕун
оһуобаи
оһуокаи
оһуор
оһуордаах
оһуохаи
п
па
пааматынньыга
пааматынньык
пааматынньыктар
пааматынньыктара
пааматынньыктарын
паапа
паапата
паар
паара
паараласпыт
пааранан
паарка
паарката
пааркатыгар
пааркаҕа
пааспар
пабликеи
павел
павлов
павлова
павлович
павловна
павловскаи
павлуцкаи
падает
падеж
падение
паи
пак
пакистаан
пакистааҥҥа
пакистан
пакистаҥҥа
пакт
пал
палаататын
палата
палататын
палау
палеозои
палеолит
палеонтолог
палестина
палестинаны
палестинаҕа
палл
памир
памперс
памят
памяти
памятник
памятники
памятников
памятных
память
пан
панаама
панама
панда
пандемия
пантелеи
папа
папата
папуа
папышев
парагваи
парагуаи
парадыгар
парадын
паразит
паралимпии
паралимпия
параллелепипед
параллелограмм
параллельнаи
параметр
парахин
париж
парижка
парижтааҕы
парк
паркинсон
парламена
парламент
парламенын
парламеҥҥа
парников
парникова
паром
пароходство
пароходствотын
партизан
партии
партия
партиялара
партияларыгар
партияларын
партияны
партията
партияттан
партиятын
партияҕа
партком
парткомун
партне
партнера
парфении
парфеньевич
паскаль
паспорт
пассажир
пассажирдары
пассажирскаи
пассажиры
пассионарнаи
пастер
патеннаабыт
патент
патологическаи
патология
патриарх
патриархальнаи
патрик
патриот
патриотическаи
паулу
пахаи
пахомов
пахомова
паша
пе
певец
пегас
пегу
пед
педагог
педагога
педагогика
педагогикатын
педагогикаҕа
педагогическаи
педагогическая
педагогическии
педагогического
педагогическои
педагогическэи
педагогтар
педиатрическаи
педиатрия
пединститукка
пединститут
пединституту
педтехникуму
педтехникумҥа
педучилище
педучилищены
педучилищетын
педучилищеҕа
педчтения
пеи
пекарскаи
пекарскии
пекарского
пекин
пекиҥҥэ
пелагея
пеледуи
пен
пенза
пензатааҕы
пенициллин
пенни
пенсильвания
пенсионер
пенсионнаи
пенсия
пенсияҕа
пенсияҕэ
пепеляев
пепеляевщина
пепеляевщинаҕа
пепеляевы
пер
первая
первичнаи
первичнои
первого
первое
первои
первые
первыи
первых
перевести
перевод
перевода
переводе
переворот
перед
переднеи
переи
переписи
перепись
перераб
переработкалыыр
перестрои
период
периода
периодическаи
периодка
периодтаах
периодын
пермнааҕы
пермскаи
пермь
пермяков
перс
персия
персонаж
персонажтар
персональнаи
перспективы
перстэр
перу
перуга
песен
песни
песня
песо
пестерев
пестряков
петер
петербург
петербурга
петербургского
петербургское
петербургтааҕы
петербургтан
петербурдааҕы
петербуурга
петербуурдааҕы
петр
петра
петров
петрова
петрович
петровна
петровскаи
петроград
петроградка
петроградтааҕы
петрозаводскаи
петропавловскаи
петя
пехота
пехотнаи
печати
печать
пи
пианист
пиастр
пиаф
пии
пиибэ
пиибэни
пилипиин
пилот
пилсудскаи
пинигин
пиньинь
пионер
пионердар
пионерскаи
пирамида
пиранделло
пиренеи
пирогов
писателеи
писатели
писатель
писателя
письма
письменности
письменные
письмо
питер
пифагор
пиэнсии
пк
пкс
плазма
план
планета
планеталар
планетаны
планетаҕа
планциус
платон
платонов
платонова
платоновна
платформа
плацдарм
плеи
племен
племени
племеннои
племя
пленума
пленумугар
пленумун
площадка
площаи
плюс
пляж
пневмония
по
победа
победитель
победу
победы
повар
поведения
повести
повесть
поводу
поволжье
повстанчество
повстанчествоҕа
повторение
поговорки
под
подари
подарок
подбельскаи
подвиг
подвид
подготовки
подои
подполковник
подростки
подсознание
подход
поезд
пожалуи
поздеева
пои
поисеев
поиск
поиски
пока
показателеи
показатели
поколения
покровскаи
пол
поле
полевои
полигон
полиграфист
полина
политехника
политехническаи
политехническии
политехническэи
политига
политик
политика
политиканы
политиката
политикатыгар
политикатын
политикаҕа
политики
политическаи
политическая
политических
политического
политическои
политическэи
политрук
политсыылынаи
полицеи
полиция
полициятын
полк
полка
полкатыгар
полкатын
полкаҕа
полковнига
полковник
полководец
полководеһа
половина
половине
половины
половои
положение
положения
полоуснаи
полтава
получил
полушарие
полушариеҕа
полуян
поль
польскаи
польша
польшаны
польшаттан
польшаҕа
полюс
полюска
полюстар
полюстарга
поляк
поляктар
поляр
полярнаи
полярная
помогите
помочь
помощи
помощь
помощью
помпеи
пономарев
поп
попечителеи
попов
попова
поповтар
попову
популярнаи
популяция
популяцията
пор
пора
порда
пордугар
пордун
порт
портал
портнягин
портр
портрет
портреты
португаал
португалия
португалияттан
португалияҕа
поручик
порфирьевич
порядин
порядка
порядок
посвящ
посвященнои
посвященныи
поселении
посельскаи
посельская
поскачин
послание
после
последнее
последние
последнии
последствия
пословицы
пособие
посол
посола
посольствотын
посполита
пост
постановление
постары
постников
постоянного
потанин
потапов
потапова
потенциал
потомки
потребительскаи
потребкооперация
потребсоюз
поттер
поход
поче
почекаев
почему
почета
почетная
почетного
почетные
почетныи
почта
почтаны
почтатын
почти
поэзии
поэзия
поэзията
поэзиятыгар
поэзиятын
поэзияҕа
поэма
поэмалар
поэмалары
поэмаларын
поэманы
поэмата
поэматын
поэмы
поэт
поэта
поэтесса
поэтессата
поэтика
поэтическаи
поэтому
поэттар
поэттара
поэттарын
поярков
пп
прав
права
правах
правда
правила
правительства
правительство
правительствота
правительствотын
правление
правлениетын
правления
право
правовои
правоприменения
православие
православнаи
прага
прагаҕа
прадеш
прадо
праздник
праздника
праздники
праздников
практ
практика
практикаҕа
практики
практическаи
практическая
практически
практическои
прапорщик
прасковья
пред
предания
предисловие
предков
предложение
предложении
предложения
предмет
предмети
предметтэри
предпринимателеи
предприниматель
предпринимательства
предпринимательство
председатели
председателин
председателинэн
председатель
председателэ
председателя
представитель
представителэ
президе
президена
президени
президенин
президент
президента
президенын
президенынан
президенэ
президиума
президиумун
президиумын
премии
премиум
премия
премияны
премията
премиятын
премьер
премьерата
преображенскаи
преобразовании
препарат
препараттар
препараттары
преподавания
преподавателинэн
преподавателлэр
преподаватель
преподавателэ
пресмыкающиеся
пресноводные
пресс
преступление
префектура
префектуратыгар
префектуратын
при
прибаи
прибалтии
привет
пригороднаи
приднестровье
прие
призе
призер
призера
призму
приказ
прикладного
прикладнои
приклонскаи
приложение
прим
применения
примере
приморскаи
приморье
принсипи
принц
принцесса
принцип
принциптэрэ
принципы
принять
природа
природы
присвоении
присвоено
приход
прихода
приходскои
приходун
про
пробалаах
проблем
проблема
проблемалара
проблемалары
проблемаларыгар
проблемаларын
проблеманы
проблемата
проблеме
проблемы
проваи
проверено
провинция
провинцията
провинциятыгар
провинциятын
провинцияҕа
прогимназияны
программа
программалаа
программалар
программалара
программалары
программаларыгар
программаларын
программанан
программаны
программата
программатыгар
программатын
программатынан
программаҕа
программирование
программист
программы
прогресс
прогрессивнаи
прогрессия
продолжить
продюсер
продюсера
проегын
проект
проекта
проекте
проектов
проза
прозаига
прозаик
прозаиктарын
прозатын
прозе
прои
произведении
произведения
производства
производственнаи
производственная
производство
производствотын
производствоҕа
происхождение
происхождении
происхождения
прокопии
прокопьев
прокопьева
прокопьевич
прокопьевна
прокуратура
прокурор
прокурора
пролетарскаи
прометеи
промышленнаи
промышленно
промышленноска
промышленность
промышленноһа
промышленноһыгар
промышленноһын
пропаганда
пропагандалааһын
пропагандаҕа
пропагандист
прорабынан
проректора
просветителя
просвещение
просвещения
проспект
просто
пространства
пространстве
пространство
прострел
протерозои
протестааннар
протестант
протестар
против
противника
протодьяконов
протодьяконова
протоиереи
протопопов
протопопова
проф
профессиональнаи
профессионального
профессор
профессора
профессорынан
профилактика
профилактическаи
профиль
профсоюз
профсоюзтар
профсоюзтарын
профсоюһун
прохоров
процесс
процесса
процессе
процессор
процесстар
процесстары
процесстарын
процессы
процеһа
процеһыгар
процеһын
прошлое
прошлом
пруссия
пруссияҕа
прядезников
псевдонима
псевдонимынан
психолог
психологическаи
психология
психологтар
псков
псковтааҕы
пт
птиц
птицы
птицын
птолемеи
пу
пуанкаре
публикации
публицист
публицистика
публицистическаи
публициһа
публичнаи
пугаче
пугачев
пуд
пулеме
пулеметнаи
пулеметчик
пулитцер
пульс
пункт
пунктов
пуои
пуонд
пуонда
пуонданы
пуондата
пуондатыгар
пуондатын
пуондатынан
пуорда
пуочтата
пусан
пусть
путешествие
пути
путин
путины
путуҥхуа
путч
путь
пуун
пууна
пууннар
пууннарга
пууннарын
пуунсуи
пуунун
пухов
пушкин
пушкина
пушкинтан
пуштун
пуэрто
пфенниг
пциг
пшенников
пьер
пьеса
пьесалар
пьесалара
пьесалары
пьесаны
пьесата
пьесатын
пьесы
пэи
пятилетка
пятс
пять
пүүбүлүкэтин
р
ра
раама
работ
работа
работал
работать
работе
работник
работника
работников
работу
работы
рабочаи
рабочии
рага
рагын
рагынан
радиация
радиациялаах
радиациянан
радиацияны
радии
радикальнаи
радио
радиоактив
радиостанция
радиотехника
радлов
радости
раен
раз
разведка
разведчик
разведчиктар
развитие
развитии
развитию
развития
раздел
разин
различные
различных
размера
разных
разработке
разрядтаах
раи
раиса
рак
ракета
ракеталар
ракеталары
ракеталарын
ракетнаи
ракитин
ракоши
рам
рамзан
ран
ранг
ранее
раннего
раны
рар
расизм
распад
распоряжение
распутин
распутина
рассадин
расселение
расселения
рассказ
рассказов
рассказы
расстрелян
растении
растения
расторгуев
расторгуева
рат
ратов
раунд
рауҥҥа
рафаэль
рационализатор
рациональнаи
рашид
рашидун
рб
рбк
рг
ргд
ргпу
рд
ре
реабилитация
реабилитацияламмыт
реабилитацияламмыта
реакция
реал
реализации
реализм
реализма
реалиста
реальнаи
реас
ребе
реверс
ревизор
ревком
ревкомун
ревматизмҥа
револии
революции
революционер
революционера
революционердар
революционердарыттан
революционнаи
революция
революциялар
революцияны
революцията
революциятын
регион
региона
региональнаи
региональнои
региональныи
регионам
регионе
регионнааҕы
регионнар
регионнарыгар
регионнарын
регионов
регионугар
регионун
региоҥҥа
регистрацияламмыт
ред
редактор
редактора
редакторы
редакторын
редакторынан
редакциеи
редакция
редакцията
редакциятыгар
редакциятынан
редкол
редколлегия
редовскаи
реж
режим
режими
режиссе
режиссер
режиссера
режиссердар
реза
резолюции
резолюция
резолюцията
результаты
реи
река
реке
реки
реклама
реконструкция
рекорд
рекордсмена
рекорду
рекордун
ректор
ректора
ректорынан
религии
религиознаи
религиозные
религия
реликтовые
рельеф
рене
ренессанс
рентген
репертуара
репин
репортаж
репрессии
репрессия
репрессияламмыт
репрессияламмыта
репрессиялар
репрессияны
репрессияҕа
рес
респ
республик
республика
республикалар
республикаларын
республиканскаи
республиканская
республиканскии
республиканского
республиканскои
республиката
республикатааҕы
республикатыгар
республикатын
республикатыныын
республикаҕа
республике
республики
реставратор
рестлингу
ресторан
ресторана
рестораннар
рестораҥҥа
ресурс
ресурсаларын
ресурсы
ретеи
референдум
референдумҥа
реформа
реформалары
реформата
реформатора
реформатын
рец
речи
речь
решение
решения
решетников
решетникова
ржев
ри
риа
рига
ригаҕа
ригэр
рии
риим
риимҥэ
рик
рика
рико
рим
римляннар
римма
римскаи
римскэи
римц
римҥа
римҥэ
рин
рингаҕа
рио
рис
ритм
риттэн
рифма
ричард
рк
ркп
рн
рна
рнк
рнр
ро
роббек
роберт
ров
род
рода
родился
родина
родины
родион
родионов
родного
роднои
родному
родовои
родоплеменнои
родословная
рождения
рожин
роза
розалия
рои
рок
рокфеллер
роли
роль
ром
роман
романа
романе
романнар
романнара
романнары
романнарын
романов
романова
романович
романовка
романовна
романовтар
романтическаи
романы
романыгар
романын
ромаҥҥа
ромб
ромео
рон
рональд
роннар
роно
рор
рос
росс
россиеи
россии
россия
россияны
россиятааҕы
россияттан
россияҕа
росспэн
рост
ростелеком
ростов
рот
рота
ротари
ротатыгар
ротатын
ротшильд
рр
рс
рсдрп
рских
рсфср
рт
ру
руанда
рубаи
рубеже
рублеи
рудатын
рудник
рудольф
рузвельт
руи
рук
руки
руководитель
руководства
руководстве
руководство
рукопись
рулла
рум
румын
румыния
румынияҕа
румянцев
рун
руна
руналар
руническаи
рупия
рупията
рус
руси
руслан
русса
русск
русская
русские
русскии
русским
русских
русско
русского
русское
русскои
русском
руставели
рустам
русь
рут
руфов
рф
ры
рыбы
рыгар
рыдзинскаи
рыи
рыкунов
рын
рына
рынан
рыногар
рыногын
рынок
рынокка
рыта
рыттан
рыцардарын
рэ
рэи
рэн
рэп
рэхтээһинин
рэҕириитин
рюноскэ
рюрик
рюрикович
рядовои
рязанскаи
рязань
рүҥ
с
са
саа
сааба
саагыбар
саада
саадах
саадыгар
саадын
саадьаҕаи
сааи
саала
саалаах
саалалаах
саалар
сааларын
саалата
саалатыгар
саалаҕа
саамаи
саанан
сааннан
сааны
саанык
сааппат
сааппыска
саар
саара
саараи
сааратыы
саарба
саарбах
саарбахтаабат
саарбахтааһын
саарбахтаммат
саарбаҕа
саарга
саары
саарын
саарыннара
саарыстыба
саарыстыбата
саарыстыбатын
саас
сааска
сааскар
сааскы
сааскылаах
сааскылыы
сааспар
сааспыттан
саастаах
саастаахтар
саастаахтара
саастааҕа
саастааҕар
саастара
саастарыгар
саастарын
саастарыттан
саат
саата
саатар
саататыы
сааттаах
саатын
саатыы
саах
саахал
саахалга
саахалламмыт
саахалыгар
саахар
саахардаах
саахары
саахха
саахымакка
саахымат
сааҕа
сааҕын
сааһа
сааһы
сааһыары
сааһыгар
сааһылаан
сааһым
сааһын
сааһынан
сааһыран
сааһырбыт
сааһыттан
саба
сабаллар
сабан
сабанджи
сабантуи
сабар
сабараи
сабардаан
сабардама
сабардыыр
сабахаттин
сабаҕалаан
сабаҕалааһын
сабаҕалааһыны
сабаҕаланар
сабаҕалыыллар
сабаҕалыылларынан
сабаҕалыырынан
саби
сабы
сабыдыал
сабыдыала
сабыдыалга
сабыдыаллаах
сабыдыаллааҕын
сабыдыаллара
сабыдыалларыгар
сабыдыалларын
сабыдыалларынан
сабыдыаллыыр
сабыдыалы
сабыдыалыгар
сабыдыалын
сабыдыалынан
сабыдыалыттан
сабыи
сабылла
сабыллан
сабыллар
сабыллыбыт
сабыллыбыта
сабын
сабынан
сабырыи
сабырыкы
сабыс
сабыта
сабыы
сабыылаах
сабыыта
савва
саввин
саввина
саввинов
саввинова
саввич
саввична
савинов
савицкаи
сага
сад
садаҕа
саддам
садын
садьык
саи
сака
сакаас
сакаастаан
сакааһынан
сакалаат
сакалар
саки
саккырыыр
сакраменто
сал
сала
салаа
салаалаах
салаалар
салаалара
салааларга
салаалардаах
салааларыгар
салааларын
салааларынан
салааларыттан
салааны
салаата
салаатыгар
салаатын
салаатынан
салааҕа
салават
салаи
салаллан
салаллар
салаллыыта
салаллыытын
салалта
салалталаах
салалталара
салалталарын
салалталарынан
салалтата
салалтатыгар
салалтатын
салалтатынан
салалтаҕа
салалыннылар
салама
саламаат
салар
салардар
салахаи
салашин
салаҥ
салвадор
салгыаҕар
салгын
салгына
салгыннаах
салгынтан
салгыны
салгынын
салгынынан
салгыы
салгыыр
салгыырыгар
салгыыта
салгыҥҥа
салла
саллааскы
саллааскыта
саллаат
саллаата
саллааттар
саллааттара
саллааттары
саллааттарын
саллааттарынан
саллааты
саллаатын
саллаллар
саллан
саллар
саллара
салларын
салтыков
салы
салыаҥ
салын
салыннарыы
салыҥнаах
сальвадор
салҕаабыт
салҕаабыта
салҕаан
салҕаммыт
салҕаммыта
салҕан
салҕана
салҕанан
салҕанар
салҕыы
салҕыыр
салҕыыта
сам
самааи
самаан
самаара
самаи
самалык
саманнык
самантан
самара
самарканд
самая
самбо
сами
самнан
самныбат
самоа
самого
самодеятельнаи
самодеятельноска
самодеятельность
самое
самои
самоле
самолет
самолета
самолеттар
самоуправления
сампаан
сампааны
самсонов
самсонова
самураи
самыи
самыыр
сан
сана
санаа
санаабакка
санаабар
санаабат
санаабаттар
санаабын
санаабыт
санаабыта
санаабытыгар
санаабытым
санаабытын
санаабычча
санааи
санаала
санаалаах
санаалаахпыт
санаалаахтар
санаалаахтара
санаалаахтары
санаалаахтарын
санаалааҕа
санаалааҕын
санаалааҕыттан
санааламмыттара
санааланан
санааланар
санааланнахтарына
санааланнаҕына
санааланыы
санааланыыга
санааланыылара
санааланыыларын
санааланыыны
санаалар
санаалара
санааларга
санаалардаах
санаалардааҕа
санаалартан
санаалары
санааларыгар
санааларым
санааларын
санааларынан
санааларыттан
санааларыҥ
санаам
санаама
санаан
санаанан
санааннар
санааны
санааргыы
санааргыыр
санаарҕаабыт
санаарҕаан
санаарҕабыл
санаарҕабылга
санаарҕабылы
санаарҕатар
санаата
санаатахтарына
санаатахха
санаатаххына
санаатаҕына
санааттан
санааты
санаатыгар
санаатым
санаатын
санаатынан
санаатыттан
санааччылар
санааҕа
санааҕар
санааҕын
санааҕыт
санааҥ
санааһын
санааһына
санаммыт
сананааччылар
сананаллар
сананаллара
сананан
сананар
сананара
сананарын
сананарыттан
сананыллар
сананыма
сананыы
сананыылара
сананыыларыттан
сананыыта
сананыытын
санаталаан
санаталлар
санатан
санатар
санатории
санаттахха
сангаар
сандаара
сандааран
сандаарар
сандаарыи
сандаарыччы
сандал
сандалы
сани
санитарнаи
санкт
санников
санникова
санныга
санныгар
саннын
санньыи
санскр
санскрит
санта
сантим
сантиметр
саныан
саныахха
саныы
саныыбын
саныыбыт
саныыгын
саныыллар
саныыллара
саныылларын
саныылларынан
саныылларыттан
саныыр
саныыра
саныырбыт
саныырга
саныырыгар
саныырым
саныырын
саныырынан
саныырыттан
сап
сапер
сапи
сапожников
сапониннар
саппаас
саппаастаах
саппаастара
саппаастарыттан
саппааһа
саппааһыгар
саппааһын
саппааһыттан
саппыи
саппыкы
саппыт
сапсыи
саптын
сар
сара
сараи
саратов
саратовтааҕы
сарбыи
сарбынньах
саргы
саргылаана
саргылаах
саргылана
сардаана
сардана
сардаҥа
сардаҥалар
сардаҥалара
сардаҥаларын
сардаҥата
сардаҥатын
сарсыарда
сарсыардааҥы
сарсыардааҥҥы
сарсыардата
сарсыардаттан
сарсын
сарсыныгар
сарсыҥҥы
сартаҥ
сары
сарыал
сарыг
сарын
сарыы
сарыынан
сарыыта
сарыытыгар
сасанидтар
саспыт
сасср
састааба
састаабар
састаабыгар
састаабын
састаабынан
састаабыттан
састаап
састааптаах
састааптарыгар
састааптарын
сата
сатаа
сатаабакка
сатаабаппыт
сатаабат
сатаабаттар
сатаабыт
сатаабыта
сатаабыттар
сатаабыттара
сатаабыттарын
сатаабытым
сатаабытын
сатаан
сатааннар
сатаата
сатаатахтарына
сатаатахха
сатаатаххына
сатаатаҕына
сатааччы
сатааччылар
сатааһын
сатааһына
сатааһыннара
сатааһыннарын
сатааһынтан
сатааһыны
сатааһынынан
сатааһыҥҥа
сатабыл
сатабыла
сатабыллаах
сатабыллаахтык
сатабылларын
сатабылы
сатабылын
сатаи
сатаммакка
сатаммаккалар
сатаммат
сатаммата
сатамматах
сатамматаҕына
сатамматын
сатанар
сатарахсыи
сатарыи
сатаҕаи
сатира
сатирик
сатирическаи
сатурн
сатыахпыт
сатыахтарын
сатыахха
сатыы
сатыыбын
сатыыбыт
сатыылаан
сатыыллар
сатыыллара
сатыылларыгар
сатыылларын
сатыылларыттан
сатыыр
сатыыра
сатыырбыт
сатыырга
сатыырыгар
сатыырын
сатыырынан
сатыырыттан
сауд
саудовскаи
сафронов
сафронова
сах
саха
сахаада
сахаачча
сахабын
сахабыт
сахалар
сахалара
сахаларга
сахалартан
сахалары
сахаларын
сахалиин
сахалин
сахалыы
сахалыыга
сахалыыта
сахам
саханы
сахаполиграфиздат
сахара
сахарнаи
сахаров
сахата
сахаттан
сахатыи
сахатын
сахатыта
сахатытан
сахатытыы
сахафильм
сахачаан
сахаҕа
сахсыи
сахсырҕа
сахха
саша
саян
сађа
саҕа
саҕаи
саҕалаабыппыт
саҕалаабыт
саҕалаабыта
саҕалаабыттар
саҕалаабыттара
саҕалаабыттарын
саҕалаабытынан
саҕалаан
саҕалаары
саҕалаатылар
саҕалаах
саҕалааччы
саҕалааччыта
саҕалааһын
саҕаламмыт
саҕаламмыта
саҕаламмыттар
саҕаламмыттара
саҕаламмытыгар
саҕаламмытын
саҕаламмытынан
саҕаланаллар
саҕаланан
саҕаланар
саҕаланара
саҕаланарын
саҕаланна
саҕаланнаҕына
саҕаланнылар
саҕаланыа
саҕаланыан
саҕаланыаҕыттан
саҕаланыыларыгар
саҕаланыыта
саҕаланыытыгар
саҕаланыытын
саҕаланыытынан
саҕаланыытыттан
саҕалыахха
саҕалыыллар
саҕалыыр
саҕалыыра
саҕалыырга
саҕана
саҕанааҕы
саҕаны
саҕата
саҕаттан
саҕатыгар
саҕатын
саҕах
саҕынньах
саңа
саңарар
саҥа
саҥалаах
саҥалара
саҥалары
саҥаларыгар
саҥаларын
саҥаларыттан
саҥалыы
саҥанан
саҥаны
саҥар
саҥара
саҥарааччы
саҥараллар
саҥараллара
саҥаралларын
саҥаран
саҥарар
саҥарара
саҥарарга
саҥарары
саҥарарыгар
саҥарарын
саҥарарыттан
саҥарбакка
саҥарбат
саҥарбыт
саҥарбытын
саҥарда
саҥардан
саҥардыбыта
саҥардыллыбыт
саҥардыы
саҥарыллар
саҥарыллыбат
саҥарыма
саҥарыы
саҥарыыга
саҥарыыны
саҥата
саҥаттан
саҥатыгар
саҥатын
саҥатынан
саҥатыттан
саҥаҕа
саҥыи
саһа
саһаан
саһан
саһар
саһарар
саһархаи
саһыл
саһыллар
саһылы
сб
сбербаан
сбербанк
сборнаи
сборник
сборнике
сборнои
св
сведении
сведения
свердлов
свердловскаи
свет
света
свете
светлана
свиристелевые
свобода
свободы
свое
своего
своеи
своем
свои
своим
своими
своих
свою
свфу
связи
связь
святого
святои
святослав
священник
сгу
сд
се
себахат
себе
себя
севастополь
север
севера
севере
северная
северного
севернои
северныи
северных
северо
сегодня
седалищев
седалищева
седан
седов
сезен
сезон
сеи
сек
секретара
секретарынан
секретарь
секретаря
секс
сексуальнаи
секталар
сектор
сектора
секторы
секторын
села
селен
селенга
село
сельджук
сельпо
сельских
сельского
сельское
сельскохозяи
сельсовет
сельсоветын
сем
семантика
семантическаи
семе
семеи
семен
семенов
семенова
семенович
семеновна
семинар
семинария
семинарияны
семинариятыгар
семинарияҕа
семье
семьи
семья
сен
сена
сенат
сенатор
сенегал
сент
сентаво
сентесимо
сентябрь
сентября
сеп
сер
сера
серафим
серафимовна
серб
сербия
сербияҕа
сербтэр
сервер
сервис
сервиһэ
сергеев
сергеева
сергеевич
сергеевна
сергеи
сергучев
сергучева
сердца
сердце
серебряков
серебряныи
середина
середине
середины
сержана
сержант
сериал
сериала
сериалга
серии
серия
сериянан
серошевскаи
серошевскии
сертаб
серыи
сессии
сетевои
сети
сеть
сеул
сеченов
сзкэо
си
сиб
сибааи
сибель
сибигинэи
сибидиэнньэ
сибидиэнньэлэр
сибиинньэ
сибиир
сибииргэ
сибиирдээҕи
сибиири
сибииртэн
сибики
сибикилэрэ
сибикитэ
сибилигин
сибинньэ
сибири
сибирская
сибирские
сибирскии
сибирских
сибирского
сибирское
сибирскэи
сибирь
сибиряков
сибит
сибитэ
сибиэ
сибиэн
сибиэһэи
сибревком
сибэкки
сибэккигэ
сибэккилиир
сибэккилэнэр
сибэккилэр
сибэккилэри
сибэккилэрэ
сибэккилээх
сибэккинэн
сибэккитин
сибэккитэ
сибэтии
сибэтиэи
сибээс
сибээскэ
сибээстииллэр
сибээстиир
сибээстэрин
сибээстээн
сибээстээх
сибээстээхтэр
сибээстээҕин
сибээстээҕэ
сибээстэһии
сибээстэһэ
сибээстэһэр
сибээһи
сибээһин
сибээһинэн
сибээһэ
сивцев
сивцева
сигили
сигилилэрэ
сигилилээх
сигилитин
сигилитэ
сигэ
сигэнэн
сиднеи
сидоркевич
сидоров
сидорова
сидорович
сидьиҥ
сии
сиибиктэ
сииги
сиигин
сиигинэн
сиигэ
сиигэр
сиидэлээн
сиик
сииктээх
сиикэи
сииллэр
сииллэригэр
сииллэрин
сииллэрэ
сииммит
сииммитин
сиин
сиини
сиинигэр
сиинин
сииниттэн
сииннэригэр
сииннэрин
сииннэринэн
сииннэриттэн
сииннэрэ
сииннээх
сиинтэн
сиинэ
сиир
сииргэ
сииригэр
сиирии
сиирин
сиириттэн
сииртэн
сиирэ
сииҥҥэ
сил
сила
силбэһии
силбэһиитигэр
силбэһиитин
силбэһиитэ
силбэһэр
сили
силигин
силик
силин
силинэн
силип
силис
силистэрин
силистээх
силиэстии
силиһин
силиһэ
силлиир
силлиэ
силлээмэ
силтэһин
силу
силы
силэ
силэи
силээннээх
сим
символ
символа
символика
символическаи
симииллэрэ
симиир
симо
симон
симпозиума
симферополь
симфония
симэ
симэлии
симэлитии
симэлитэ
симэлитэн
симэлитэр
симэн
симэх
симэхтээх
симэҕэ
син
синаи
сингапур
сингапурга
сингл
синдзи
синдром
синдьээн
синдьээҥ
синньигэс
синньээн
синод
синоним
синонимнар
синонимнаһар
синонимы
синтаксис
синтетическэи
синь
синьцзян
синэ
сип
сиппии
сиппит
сиппитин
сиппэккэ
сиппэт
сир
сирбит
сирбитигэр
сирбитин
сирбэр
сиргэ
сиргэнэр
сирдиир
сирдьит
сирдьиттэрэ
сирдьитэ
сирдэр
сирдэргэ
сирдэрдээх
сирдэри
сирдэригэр
сирдэрин
сирдэринэн
сирдэриттэн
сирдэртэн
сирдэрэ
сирдэтэн
сирдээн
сирдээх
сирдээҕи
сири
сиригэр
сирии
сирим
сирин
сиринэн
сиринээҕи
сириттэн
сириэдии
сирия
сирияҕа
сириҥ
сиртэн
сирэ
сирэи
сирэм
сирэн
сирэр
сис
сискэ
система
системалаах
системалар
системалара
системаларга
системалары
системаларын
системанан
системаны
системата
систематтан
систематыгар
систематын
системаҕа
системе
системнаи
системы
систиэмэ
систиэмэлэрэ
систиэмэни
систиэмэтигэр
систиэмэтин
систиэмэтэ
систиэмэҕэ
систэрин
систэриттэн
сити
ситии
ситиинэн
ситиитигэр
ситиитин
ситиитэ
ситим
ситими
ситимигэр
ситимин
ситиминэн
ситимиттэн
ситимнииллэр
ситимниир
ситимнэнэн
ситимнэр
ситимнэргэ
ситимнэри
ситимнэригэр
ситимнэрин
ситимнэринэн
ситимнэрэ
ситимнээн
ситимнээх
ситимнээхтэр
ситимнээҕин
ситимнэһэн
ситимнэһэр
ситимэ
ситимҥэ
ситиспит
ситиспитин
ситиспиттэр
ситиспиттэрин
ситиспиттэрэ
ситиспитэ
ситиспэккэ
ситиспэт
ситиспэтэх
ситистилэр
ситистэ
ситистэхтэринэ
ситистэххэ
ситистэҕинэ
ситиһии
ситиһиибит
ситиһиигэ
ситиһиилэммитэ
ситиһиилэр
ситиһиилэри
ситиһиилэригэр
ситиһиилэрин
ситиһиилэринэн
ситиһиилэрэ
ситиһиилээх
ситиһиилээхтик
ситиһиини
ситиһиитигэр
ситиһиитин
ситиһиитинэн
ситиһииттэн
ситиһиитэ
ситиһиллибит
ситиһиллибитэ
ситиһиллибэт
ситиһиллэр
ситиһиллэрин
ситиһиллэрэ
ситиһиэ
ситиһиэн
ситиһиэр
ситиһиэхпит
ситиһиэхпитин
ситиһиэхтэрин
ситиһиэхтэрэ
ситиһиэхтээх
ситиһиэххин
ситиһиэххэ
ситиһиэҕиҥ
ситиһиэҥ
ситиһэ
ситиһэллэр
ситиһэллэригэр
ситиһэллэрин
ситиһэллэрэ
ситиһэн
ситиһэннэр
ситиһэр
ситиһэргэ
ситиһэригэр
ситиһэрин
ситиһэрэ
ситиһээри
ситтэр
ситтэҕинэ
ситуации
ситуация
ситэ
ситэн
ситэр
ситэри
ситэригэр
ситэриилээх
ситэрин
ситэрсэн
ситэрэн
ситэтэ
сих
сицилия
сицилияҕа
сиэ
сиэбигэр
сиэбит
сиэбэккэ
сиэбэт
сиэбэттэр
сиэгэн
сиэдэрэи
сиэи
сиэксии
сиэл
сиэлин
сиэлинэн
сиэллээх
сиэлэ
сиэмэ
сиэмэтин
сиэмэтэ
сиэмэх
сиэн
сиэниллэр
сиэнин
сиэннэр
сиэннэрдээх
сиэннэригэр
сиэннэрин
сиэннэриттэн
сиэннэрэ
сиэннээх
сиэннээхтэр
сиэнэ
сиэнэр
сиэп
сиэр
сиэргэ
сиэрдэри
сиэрдэрин
сиэрдэрэ
сиэрдээх
сиэрдээхтик
сиэри
сиэригэр
сиэрии
сиэрин
сиэринэн
сиэркилэ
сиэркилэтэ
сиэркилэҕэ
сиэрпэ
сиэртибэ
сиэртибэлэрин
сиэртибэлээбит
сиэртибэтэ
сиэртэн
сиэрэ
сиэрэи
сиэссии
сиэстэрэ
сиэтии
сиэттиһэн
сиэттэрэн
сиэтэ
сиэтэн
сиэтэр
сиэтэххэ
сиэтэҕинэ
сиэхтэрин
сиэххэ
сиэҕин
сиэҥ
сиэһин
сиэһэллэрэ
сиһи
сиһигэр
сиһилии
сиһин
сиһэ
ск
ска
сказ
сказание
сказка
сказки
скаи
скандинавия
скауттар
ская
сквер
сквозь
скворецтыҥылар
ские
скии
ским
скифтэр
ских
ско
ского
ское
скои
сколл
сколько
ском
скому
скораи
скорпион
скота
скотт
скрипицын
скрипка
скрипкаҕа
скрыбыкин
скрынников
скрябин
скрябина
скульптор
скульптора
скульптура
скэи
слава
славковые
славы
славян
славяннар
славянскаи
сланецтар
следам
слепцов
слепцова
слесарь
слов
слова
словак
словакия
словаре
словарнаи
словарные
словарь
словаря
словения
слово
сложное
слон
служба
службы
служил
слух
случае
случаи
см
смартфон
смартфоннарга
смартфоннары
смерти
смерть
сметанин
сми
смик
смирнов
смит
смоленск
смоленскаи
сму
смысл
снаи
снаряд
снг
снитко
снк
снов
со
соавт
соавтор
соавторстве
собакин
собо
собои
соболоох
собону
собор
собора
соборга
собрание
собрания
собуокка
собуор
собуора
собуорун
собуот
собуота
собуоттар
собуоттара
собуоту
собуотугар
собуотун
событиелар
события
сов
соверен
совершенства
совет
совета
советнига
советник
советов
советскаи
советская
советскии
советских
советского
советскои
советтарын
советы
советыгар
советын
совместно
совминын
совнарком
совнаркома
совнаркомун
совнаркомын
современная
современник
современного
современное
современнои
современном
современность
современные
современныи
современных
совхоз
совхозка
согд
согласно
содержание
содружество
содул
содула
содуллаах
содуллааҕа
содулланан
содуллара
содулларын
содулугар
содулун
содулуттан
содуом
содурдаама
создание
создания
сознание
сознания
созыв
созыва
сои
соискание
сок
соколов
соколова
сокольников
сократ
сокровенная
сокуон
сокуона
сокуоннаах
сокуоннаи
сокуоннар
сокуоннара
сокуоннарга
сокуоннары
сокуоннарыгар
сокуоннарын
сокуоннарынан
сокуону
сокуонугар
сокуонун
сокуонунан
сокуоҥҥа
сол
солбуи
солбук
солбуллан
солбуллар
солбулларын
солбуллубат
солбуллубута
солдат
солдатов
солженицын
солидарность
солистката
солиһа
солк
солко
солкуобаи
солнечнаи
солнечного
солнца
солнце
соло
солобуодатын
соловеи
соловки
соловье
соловьев
соловьева
сололоох
соломо
соломов
соломон
соломуон
солоон
солото
солотугар
солотун
солотуттан
солотуулаах
солоҕо
солоҕон
солоҕоон
солоҥдотуҥулар
солумсах
солумсахтара
солумсаҕыра
солумсаҕырыы
солун
солуннар
солуннары
солуну
солуур
солуута
солуҥҥа
сольнаи
солянаи
сомали
сомоготто
соморсун
сомоҕо
сомоҕолоһуу
сомоҕолоһууларын
сомоҕолоһуута
сомоҕолоһуутун
сомоҕолуур
сомоҕотто
сон
сонно
сонноох
соннорун
соннук
соно
соноҕос
сону
сонумсах
сонун
сонуннар
сонуннара
сонуннары
сонуну
сообщение
сообщения
сообществ
сообщества
соответствии
соп
соппуруон
сопрано
сопредельных
сопхуос
сопхуоска
сор
соргу
соргулаах
соргуну
сордоон
сордоох
сордоҥ
соревнования
соро
сорок
сорох
сорохтор
сорохторго
сорохторо
сорохтору
сорохторун
сороххо
сороҕо
сороҕор
сороҕото
сороҕун
сортоллор
сору
соруга
соругу
соругун
соругунан
сорудах
сорудахтары
сорудаҕы
сорудаҕынан
соруи
сорук
сорукка
соруктаах
соруктааҕа
соруктара
соруктары
соруктарын
сорунан
соруокалар
сорҕолоро
сорҕото
сорҕотун
сорҕотунан
сосин
сост
состав
составе
составил
составители
составитель
составу
состоит
состояние
состояния
сото
сотоваи
сотон
сотор
сотору
соторутааҕы
соторутааҕыта
сотото
сотруднига
сотруднигынан
сотрудник
соттон
соттор
сотуллубута
сотунна
софии
софия
софр
софрон
софронов
софронова
софронович
софроновна
софья
сохранение
сохранения
соххор
соц
социал
социализм
социализмы
социалист
социалистическаи
социалистическая
социалистических
социалистического
социалистическои
социалистическэи
социалистыы
социаль
социальнаи
социальная
социально
социального
социальное
социальнои
социальные
социальныи
социальных
социолог
социологическаи
социология
социологияҕа
сочетание
сочи
сочига
сочинении
сочинения
соччо
соччонон
соччото
сош
союз
союза
союзка
союзнаи
союзниктар
союзтааҕы
союзтарын
союһун
соҕотох
соҕотохсуи
соҕотохто
соҕотохтуу
соҕотоҕо
соҕотоҕун
соҕурулуу
соҕуруу
соҕуруулуу
соҕурууттан
соҕуруутугар
соҕурууҥу
соҕурууҥҥу
соҕус
соҕустук
соҥоон
соһо
соһон
соһор
соһуи
соһумар
соһутар
соһуччу
сп
спартак
спартакиада
спартакиадатыгар
спартакиадатын
спартакиадаҕа
спасибо
спасскаи
спб
спектакль
специалист
специалистар
специалистарын
специалиһа
специалиһынан
специальнаи
специальноһа
спид
спилберг
спираль
спиридон
спиридонов
спиридонова
спиридонович
спиридоновна
список
споратын
спорда
спорду
спордугар
спордун
спордунан
спорка
спорт
спорта
спортивнаи
спортивнои
спортка
спортсаала
спортсмен
спортсмена
спортсменнар
спортсменнара
спортсменнары
спортсменнарын
спорту
способ
справ
справка
справочник
спутник
спутниковаи
ср
сравнительно
сразу
сред
среди
средиземнаи
средневековые
средневековье
средневековья
среднего
среднеи
средних
средняя
средства
средство
сри
сс
ссе
сскп
сср
ссрс
ссрска
ссру
ссср
ссылка
ссылке
ссылки
ст
ста
стаатуһун
ставрополь
стадион
стадиоҥҥа
стадията
стал
стала
сталин
сталинград
сталинграда
сталинградтааҕы
сталинграды
сталиҥҥа
стамбул
стамбулга
стандарт
стандарта
стандартнаи
станислав
станиславскаи
станковаи
становление
становления
становои
станция
станциялар
станцияларын
станцията
станциятыгар
станциятын
станцияҕа
стар
стареи
староватов
староста
старостанан
старостин
старостина
стартап
старшаи
старшего
старшии
старшина
старшиналар
старыи
статеи
статистика
статистики
статистическаи
статистических
статскаи
статус
статустаах
статуята
статуһа
статуһу
статуһун
стать
статьи
статья
стахановец
стационарнаи
ств
ства
стве
ственнаи
ственнои
ствие
ствии
ствия
ство
ствоҕа
степан
степаненко
степанида
степанов
степанова
степанович
степановна
степеи
степенеи
степени
степенин
степеннээх
степень
степенэ
степнои
степь
стер
стера
стерлинг
стефан
стив
стивен
стилинэн
стилистическэи
стиль
стилэ
стипендиата
стипендия
стипендиятын
стихи
стихов
стихотворения
стои
сток
стокгольм
стокгольмҥа
столб
столбец
столетия
столицы
столыпин
стоматолог
стоматологическаи
стоматология
стороны
стоун
стр
стран
страна
странден
страница
страницаҕа
странице
страницы
страны
стратегии
стратегическаи
стратегическэи
стратегия
страуструп
страховои
стрекаловскаи
стрелковаи
стресс
стриминг
стрит
строд
строи
строительнаи
строительства
строительство
строк
строка
строке
строки
структура
структурата
структуратыгар
структуратын
структурнаи
структуры
струннаи
стручков
стручкова
студена
студеннар
студеннары
студеннарыгар
студеннарын
студент
студентов
студия
студиятыгар
студиятын
студияҕа
ступеннаах
стэнли
стэнфорд
стюарт
су
субаи
субан
субата
субатын
субсидия
субу
субугурдук
субудаи
субуи
субуллар
субуота
субуруи
субуруускаи
субуруччу
субурҕа
субуу
субъега
субъект
субъектам
субъектар
субъектара
субъектарыттан
субъектов
суверенитет
суверенитетын
сувереннаи
суворов
сугдьаар
сугомак
сугун
суд
судаан
судаарыс
судаарыстыба
судаарыстыбалар
судаарыстыбалара
судаарыстыбаларга
судаарыстыбаларыгар
судаарыстыбаларын
судаарыстыбаннаи
судаарыстыбаннас
судаарыстыбаны
судаарыстыбата
судаарыстыбаттан
судаарыстыбатыгар
судаарыстыбатын
судаарыстыбаҕа
судаарыстыбыннаи
судан
судургу
судургута
судургутук
судургутун
судьба
судьбы
судьуи
суздаль
суи
сука
суккун
сукуна
сулбу
сулеи
султаан
султаана
султан
султанов
сулу
[...]
