!
"
#
##0
##1
##10
##11
##12
##13
##14
##15
##16
##17
##18
##19
##2
##20
##21
##22
##23
##24
##25
##26
##27
##28
##29
##3
##30
##31
##32
##33
##34
##35
##36
##37
##38
##39
##4
##40
##41
##42
##43
##44
##45
##46
##47
##48
##49
##5
##50
##51
##52
##53
##54
##55
##56
##57
##58
##59
##6
##60
##61
##62
##63
##64
##65
##66
##67
##68
##69
##7
##70
##71
##72
##73
##74
##75
##76
##77
##78
##79
##8
##80
##81
##82
##83
##84
##85
##86
##87
##88
##89
##9
##90
##91
##92
##93
##94
##95
##96
##97
##98
##99
$
%
&
'
(
)
*
+
,
-
.
/
0
00
000
0004
001
001389
002
00238
003
004
005
006
007
008
009
01
010
011
012
01254
013
0136120512
016
02
025
03
03134
03158
0373
04
0415285569
04971
05
054
0585317631
06
07
08
0815332181
09
098
1
10
100
1000
10000
1001
1002
1003
1004
1005
1006
1007
1008
1009
101
1010
1011
1012
1013
1014
1015
1016
1017
1018
1019
102
1020
1021
1022
1023
1024
1025
1026
1027
1028
1029
103
1030
1031
1032
1033
1034
1035
1036
1037
1038
1039
104
1040
1041
1042
1043
1044
1045
1046
1047
1048
1049
105
1050
1051
1052
1053
1054
1055
1056
1057
1058
1059
106
1060
1061
1062
1063
1064
1065
1066
1067
1068
1069
107
1070
1071
1072
1073
1074
1075
1076
1077
1078
1079
108
1080
1081
1082
1083
1084
1085
1086
1087
1088
1089
109
1090
1091
1092
1093
1094
1095
1096
1097
1098
1099
11
110
1100
11000
1101
1102
1103
1104
1105
1106
1107
1108
1109
111
1110
1111
1112
1113
1114
1115
1116
1117
1118
1119
112
1120
1121
1122
1123
1124
1125
1126
1127
1128
1129
113
1130
1131
1132
1133
1134
1135
1136
1137
1138
1139
114
1140
1141
1142
1143
1144
1145
1146
1147
1148
1149
115
1150
1151
1152
1153
1154
1155
1156
1157
1158
1159
116
1160
1161
1162
1163
1164
1165
1166
1167
1168
1169
117
1170
1171
1172
1173
1174
1175
1176
1177
1178
1179
118
1180
1181
1182
1183
1184
1185
1186
1187
1188
1189
119
1190
1191
1192
1193
1194
1195
1196
1197
1198
1199
12
120
1200
1201
1202
1203
1204
1205
1206
1207
1208
1209
121
1210
1211
1212
1213
1214
1215
1216
1217
1218
1219
122
1220
12200
1221
1222
1223
1224
1225
1226
1227
1228
1229
123
1230
12300
1231
1232
1233
1234
1235
1236
1237
1238
1239
124
1240
1241
1242
1243
1244
1245
1246
1247
1248
1249
125
1250
1251
1252
1253
1254
1255
1256
1257
1258
1259
126
1260
1261
1262
1263
1264
1265
1266
1267
1268
1269
127
1270
1271
1272
1273
1274
1275
1276
1277
1278
1279
128
1280
1281
1282
1283
1284
1285
1286
1287
1288
1289
129
1290
1291
1292
1293
1294
1295
1296
1297
1298
1299
13
130
1300
1302
1303
1304
1305
1306
1307
1308
1309
131
1310
1311
1312
1313
1314
1315
1316
1317
1318
1319
132
1320
1321
1322
1323
1324
1325
1326
1327
1328
1329
133
1330
1331
1332
1333
1334
1335
1336
1337
1338
1339
134
1340
1341
1342
1343
1344
1345
1346
1347
1348
1349
135
1350
1351
1352
1353
1354
1355
1356
1357
1358
1359
136
1360
1361
1362
1363
1364
1365
1366
1367
1368
1369
137
1370
1371
1372
1373
1374
1375
1376
1377
1378
1379
138
1380
1381
1382
1383
1384
1385
1386
1388
1389
139
1390
1391
1392
1393
1394
1395
1396
1397
1398
1399
14
140
1400
1401
1402
1403
1404
1405
1406
1407
1408
1409
141
1410
1411
1412
1413
1414
1415
1416
1417
1418
1419
142
1420
1421
1422
1423
1424
1425
1426
1427
1428
1429
143
1430
1431
1432
1433
1434
1435
1436
1437
1438
1439
144
1440
1441
1442
1443
1444
1445
1446
1447
1448
1449
145
1450
1451
1452
1453
1454
1455
1456
1457
1458
1459
146
1460
1461
1462
1463
1464
1465
1466
1467
1468
1469
147
1470
1471
1472
1473
1474
1475
1476
1477
1478
1479
148
1480
1481
1482
1483
1484
1485
1486
1487
1488
1489
149
1490
1491
1492
1493
1494
1495
1496
1497
1498
1499
15
150
1500
15000
1501
1502
1503
1504
1505
1506
1507
1508
1509
151
1510
1511
1512
1513
1514
1515
1516
1517
1518
1519
152
1520
1521
1522
1523
1524
1525
1526
1527
1528
1529
153
1530
1531
1532
1533
1534
1535
1536
1537
1538
1539
154
1540
1541
1542
1544
1545
1546
1547
1548
1549
155
1550
15500
1551
1552
1553
1554
1555
1556
1557
1558
1559
156
1560
1561
1562
1563
1564
1565
1566
1567
1568
1569
157
1570
1571
1572
1573
1574
1575
1576
1578
1579
158
1580
1581
1582
1584
1585
1586
1587
1588
159
1590
1593
1594
1595
1596
1597
1598
1599
16
160
1600
16000
1601
1602
1603
1604
1605
1606
1608
1609
161
1610
1611
1612
1613
1614
1615
1616
1617
1618
1619
162
1620
1622
1623
1624
1625
1626
1627
1628
1629
163
1630
1632
1633
1634
1635
1636
1637
1638
1639
164
1640
1642
1643
1644
1646
1647
1648
1649
165
1650
1652
1653
1654
1655
1656
1657
1658
1659
166
1660
1662
1664
1665
1666
1667
1668
1669
167
1670
1671
1672
1674
1675
1676
1678
1679
168
1680
1681
1682
1683
1684
1685
1686
1687
1688
1689
169
1690
1691
1692
1693
1694
1695
1696
1699
17
170
1700
1701
1702
1703
1704
1705
1706
1707
1708
1709
171
1710
1711
1713
1714
1715
1716
1717
1718
1719
172
1720
1721
1722
1723
1724
1725
1726
1727
1728
1729
173
1730
1731
1732
1733
1734
1735
1736
1737
1738
1739
174
1740
1741
1742
1743
1744
1745
1746
1747
1748
1749
175
1750
1752
1753
1754
1755
1756
1757
1758
1759
176
1760
1761
1762
1763
1764
1765
1766
1767
1768
1769
177
1770
1771
1772
1773
1774
1775
1776
1777
1778
1779
178
1780
1781
1782
1783
1784
1785
1786
1787
1788
1789
179
1790
1791
1792
1793
1794
1795
1796
1797
1798
1799
18
180
1800
18000
1801
1802
1803
1804
1805
1806
1807
1808
1809
181
1810
1811
1812
1813
1814
1815
1816
1817
1818
1819
182
1820
1821
1822
1823
1824
1825
1826
1827
1828
1829
183
1830
1831
1832
1833
1834
1835
1836
1837
1838
1839
184
1840
1841
1842
1843
1844
1845
1846
1847
1848
1849
185
1850
1851
1852
1853
1854
1855
1856
1857
1858
1859
186
1860
1861
1862
1863
1864
1865
1866
1867
1868
1869
187
1870
1871
1872
1873
1874
1875
1876
1877
1878
1879
188
1880
1881
1882
1883
1884
1885
1886
1887
1888
1889
189
1890
1891
1892
1893
1894
1895
1896
1897
1898
1899
19
190
1900
19000
1901
1902
1903
1904
1905
1906
1907
1908
1909
191
1910
1911
1912
1913
1914
1915
1916
1917
1918
1919
192
1920
1921
1922
1923
1924
1925
1926
1927
1928
1929
193
1930
1931
1932
1933
1934
1935
1936
1937
1938
1939
194
1940
1941
1942
1943
1944
1945
1946
1947
1948
1949
195
1950
1951
1952
1953
1954
1955
1956
1957
1958
1959
196
1960
1961
1962
1963
1964
1965
1966
1967
1968
1969
197
1970
1971
1972
1973
1974
1975
1976
1977
1978
1979
198
1980
1981
1982
1983
1984
1985
1986
1987
1988
1989
199
1990
1991
1992
1993
1994
1995
1996
1997
1998
1999
2
20
200
2000
20000
2001
2002
2003
2004
2005
2006
2007
2008
2009
201
2010
2011
2012
2013
2014
2015
2016
2017
2018
2019
202
2020
2021
2022
2023
2024
203
2030
204
205
206
207
208
209
21
210
2100
21000
211
212
2129
213
2134
2136
2137
2138
214
215
216
217
218
219
22
220
2200
221
222
223
224
225
226
227
228
229
23
230
2300
231
232
233
234
235
236
237
238
239
24
240
241
242
243
244
245
246
247
248
249
25
250
2500
251
252
253
254
255
256
257
258
259
26
260
261
262
263
264
265
266
267
268
269
27
270
271
272
273
274
275
276
277
278
279
28
280
281
282
283
284
285
286
287
288
289
29
290
291
2916
292
293
294
295
296
297
298
299
3
30
300
3000
301
302
303
304
305
306
307
308
309
31
310
3100
311
312
313
314
315
316
317
318
319
32
320
321
322
323
324
325
326
327
328
329
33
330
331
332
333
334
335
336
337
338
339
34
340
341
342
343
344
345
346
347
348
349
35
350
3500
351
352
353
354
355
356
357
358
359
36
360
361
362
363
364
365
366
367
368
369
37
370
371
372
373
374
375
376
377
378
379
38
380
381
382
383
384
385
386
387
388
3881
389
39
390
391
392
393
394
395
396
397
398
399
4
40
400
4000
401
402
403
404
405
406
407
408
409
41
410
411
412
413
414
415
416
417
418
419
42
420
421
422
423
424
425
426
427
428
429
43
430
431
432
433
434
435
436
437
438
439
44
440
441
442
443
444
445
446
447
448
449
45
450
4500
451
452
453
454
455
456
457
458
459
46
460
461
462
463
464
465
466
467
468
469
47
470
471
472
473
474
475
476
477
478
479
48
480
481
482
483
484
485
486
487
488
489
49
490
491
492
493
494
495
496
497
498
499
5
50
500
5000
500062
500071
501
502
503
504
505
506
507
508
509
51
510
511
512
513
514
515
516
517
518
519
52
520
521
522
523
524
525
526
527
528
529
53
530
531
532
533
534
535
536
537
538
539
54
540
541
542
543
544
545
545058
546
547
548
549
55
550
5500
551
552
553
554
555
556
557
558
559
56
560
561
562
563
564
565
566
567
568
569
57
570
571
572
573
574
575
576
577
578
579
58
580
581
582
583
584
585
586
587
588
589
59
590
591
592
593
594
595
596
597
598
599
6
60
600
6000
601
602
603
604
605
606
607
608
609
61
610
611
612
613
614
615
616
6161
617
618
619
62
620
621
622
623
624
625
6253
6256
626
627
628
629
63
630
631
632
633
634
635
636
637
638
639
64
640
641
642
643
644
645
646
647
648
649
65
650
651
652
653
654
655
656
657
658
659
66
660
661
662
663
664
665
666
667
668
669
67
670
671
672
673
674
675
676
677
678
679
68
680
681
682
683
684
685
686
687
688
689
69
690
691
692
693
694
695
696
697
698
699
7
70
700
7000
701
702
703
704
705
706
707
708
709
71
710
7106
711
712
713
714
715
716
717
718
719
72
720
7203
721
722
723
724
725
726
727
728
729
73
730
731
732
733
734
735
736
737
738
739
74
740
741
742
743
744
745
746
747
748
749
75
750
751
752
753
754
755
756
757
758
759
76
760
761
762
763
764
765
766
767
768
769
77
770
771
772
773
774
775
776
777
778
779
78
780
781
782
783
784
785
786
787
788
789
79
790
791
792
793
794
795
796
797
798
799
8
80
800
8000
801
802
803
804
805
806
807
808
809
81
810
811
8112027
812
813
814
815
816
817
818
819
82
820
821
822
823
824
825
826
827
828
829
83
830
831
832
833
834
835
836
837
838
839
84
840
841
842
843
844
84433
845
846
847
848
849
85
850
851
852
85270
853
854
85401
855
856
857
858
859
86
860
861
862
863
864
865
866
867
868
869
87
870
871
872
873
874
875
876
877
878
879
88
880
881
88185
882
883
884
88459
885
886
887
888
88810
889
89
890
891
892
893
894
895
896
897
898
89800
899
9
90
900
9000
901
902
902375
903
904
905
906
907
908
909
91
910
911
912
913
914
915
916
91674
917
918
919
92
920
921
922
9223372036854775808
923
924
925
926
927
928
929
93
930
931
932
933
934
935
936
937
938
939
94
940
941
942
943
944
945
946
947
948
949
95
950
951
952
953
9530650
954
955
956
957
958
959
96
960
961
962
963
964
965
966
967
968
969
97
970
971
972
973
974
975
976
977
978
9783642297182
9785386009687
979
98
980
981
982
983
984
985
986
987
988
989
99
990
991
992
993
994
995
996
9965
997
998
999
:
;
<
=
>
?
@
\
^
_
`
a
aa
aaa
ab
abc
about
abril
absolute
ac
access
actions
ad
add
administraciones
administrati
administrative
ady
ae
af
after
ag
age
agrilus
agyneta
ah
ai
aila
aip
air
aj
ajdar
ak
al
ala
alanı
alar
aları
alberts
alexander
alg
ali
aliases
aliasesp
align
all
alman
almania
almas
alpha
also
alt
altın
alu
alıp
am
american
amu
an
ancient
and
anda
andersson
annan
annar
annual
any
anı
anın
ao
ap
april
aq
aqc
aqs
ar
araneus
arasında
architecture
archive
are
area
arg
args
arguments
ark
arms
array
art
article
articles
arxiv
arı
as
asia
asnost
aspx
ast
asteroids
astrobl
astron
astronomical
astronomy
astrophysical
astrophysics
ası
asırda
at
atlas
atomic
au
august
author
authority
autonomous
av
available
averaged
avery
avgust
aw
awrupa
ax
ay
ayırım
az
azatliq
azinform
azərbaycan
aʙoutmari
b
ba
background
bag
bagnulo
bakı
banarsidass
bao
bar
bara
barlıqqa
bas
bases
basıp
batson
bb
bbc
bc
bd
be
been
before
bel
bela
belem
ber
berda
berenc
berenda
berla
berlege
berlin
bernic
berse
best
beta
between
bf
bg
bh
bhutan
bi
bia
bianco
bik
bila
bilgela
biology
bira
biru
bit
biten
bitena
bitta
biza
bj
bk
bl
black
blicas
blu
blue
bm
bn
bo
boeing
bolg
book
books
border
borıng
box
bp
bq
br
brandt
brasileiro
brasław
bratislava
brazil
british
bruce
bry
bs
bt
bu
bula
bularaq
bulg
bulletin
bulmag
bulıp
bumthang
bur
bureau
business
but
buyı
buyınc
bv
bw
bx
by
bychkov
bychkova
bz
c
ca
cambridge
can
canada
carbon
case
cat
catalog
catalogue
category
catherine
cave
cb
cc
cd
cdot
ce
celkem
cell
center
central
centre
century
cerga
cet
cf
cfg
cg
cgi
ch
cha
chamberlin
change
changes
chapman
chapter
che
check
chemically
chicago
china
chu
chv
ci
cia
ciba
cild
cilddə
cin
cir
cita
cite
city
cj
ck
cl
claim
claims
class
classification
climate
cm
cn
co
coat
code
coelotes
color
com
combination
comets
commons
communities
community
con
config
contemporary
content
context
copyright
cos
count
country
cp
cq
cr
crater
create
cs
css
ct
cu
cultural
culture
curletti
current
cv
cw
cx
cy
cz
cze
cəʙᴎ
d
da
dag
dan
daresi
das
data
database
datatype
datavalue
date
datos
david
davies
day
db
dbinet
dbscripts
dc
dd
de
december
default
deka
del
delhi
delta
demoscope
der
derslek
des
description
deutschland
development
df
dfbworld
dg
dh
di
dia
diagram
dictionary
die
diffusion
diga
din
dip
discussion
display
div
dizini
dj
dk
dl
dm
dms
dn
do
dobes
doc
doi
don
dostupne
dq
dr
draconarius
ds
dt
du
duniłowicze
dus
dv
dw
dwornik
dx
dy
dz
dziejo
dzisien
e
ea
early
east
eastern
eb
ec
ed
edit
editing
edition
editor
editors
edu
ee
ef
efende
effective
eg
eh
ei
ej
ek
el
ela
elek
elementlarnı
elements
eler
else
elseif
elsevier
em
empire
empty
en
ena
enc
encyclopedia
end
enda
energy
english
enlarged
ensiklopedik
entidades
entity
entityid
eo
ep
epos
eq
er
era
error
es
ese
eska
eskov
esky
estati
estimate
estimates
estonian
et
etne
eu
europe
european
ev
eva
evolutionary
ew
ex
excel
extragalactic
ey
ez
f
fa
facebook
false
fam
far
fb
fc
fd
fe
feature
february
feedback
feriados
ff
fg
fh
fi
fields
fifth
figueras
file
files
film
find
firqa
first
fj
fk
fl
flag
fm
fn
fo
font
for
form
format
found
foundation
fp
fq
fr
frac
frame
free
frhdkazan
from
fs
ft
fu
function
g
ga
gabriel
galaxy
garland
gault
gazetteer
gb
ge
geiger
gel
gem
gen
gena
genel
general
geografia
geograficzny
geological
george
georges
geospatial
get
gez
gf
gh
gif
gimen
gino
given
gje
gks
global
gmina
go
gomez
google
gov
government
gp
gr
great
grenier
group
groups
gsc
gsub
gu
guide
gło
h
ha
hacienda
has
have
hawa
hazırladıg
hbar
hd
he
health
heidelberg
help
here
hf
hg
hgmn
hi
hiddencat
hindu
hinduism
hipparcos
his
history
hl
hledi
ho
holidays
house
how
hr
htm
html
http
https
hu
human
i
ia
ic
icarus
icon
id
ida
ide
iec
ietova
if
ig
igbe
ii
iii
ik
ike
ikenc
il
ila
ile
illa
ilnur
im
image
images
img
imla
imperia
impgal
in
index
india
indian
info
inform
information
infty
ing
innosti
input
insert
instagram
institute
instituto
int
international
internet
into
introduction
inzibati
iop
ipac
ipairs
ir
ire
irk
irka
is
isa
isbn
iseme
islam
islamic
island
iso
issn
issue
it
ita
italian
itela
itelga
item
itep
itka
its
itu
iv
iva
ivie
ix
iyu
j
ja
james
jana
january
japan
je
jean
jew
jezdu
jiny
jo
john
johnson
journal
jpg
julian
july
june
k
ka
kab
kag
kai
kal
kam
kao
kar
kazan
kc
ke
kebek
kec
keith
kem
kena
kera
kerremans
kerrod
kes
key
keyserling
kg
kha
khk
ki
kic
kila
kilep
kiles
kilga
kimia
kin
kinematics
king
kingdom
kir
kira
kis
kitap
kla
km
ko
koch
kochukhov
kom
kon
koper
korec
kos
kova
kra
kraje
krhova
kris
krishna
krm
kro
kta
ku
kug
kur
kya
kz
kısaltmalar
l
la
label
ladislav
lake
lan
land
lang
language
languages
lar
ları
las
last
lat
latin
lauko
law
lb
lc
le
left
lege
legena
lek
leklese
lem
len
lene
lenenia
lenenie
length
lerner
les
lestwa
levi
levitation
lewis
ley
lga
lgu
li
library
lidove
life
like
limits
line
linear
link
links
lip
list
listesi
literature
lka
lla
ller
lm
ln
lo
local
locales
london
loneos
long
los
love
low
lsa
lt
lu
lunar
luri
lutz
lı
lıg
lıq
lıy
m
ma
madej
mag
magnetic
magnitudes
mahalle
main
mainsnak
make
maksudi
man
manfroid
mangora
many
map
mar
marat
marcela
march
maria
mark
martin
mass
mat
match
math
mathbf
mathrm
matlar
max
maxsus
may
mc
mcclure
me
media
mediawiki
medicine
men
menda
mennessier
mercury
message
meta
meteorology
meteors
mezir
mg
mhu
mi
miasta
mic
michael
michaud
microsoft
miejscowos
miestnej
milla
milli
millidge
million
miloslav
min
ministerio
ministerstvo
minor
minule
mk
ml
mma
mn
mo
mode
model
modern
module
mojgorod
molecular
moliterno
monda
month
monthly
monı
mor
mora
more
morrison
mos
moscow
mosque
most
motilal
movement
mow
msd
msk
mu
multimedia
municipal
municipalities
munst
mur
museum
music
muslim
must
mw
my
məlumat
n
na
nabla
nach
nacional
nakladatelstvi
name
names
narod
nasa
national
navbox
nb
nbatıs
nc
nd
nda
ne
nedir
need
nen
nes
net
new
news
next
ng
nga
ngc
ngr
ni
nia
nigez
nigezenda
nigezla
nil
niz
nl
nna
nnen
no
nobel
nomenclature
non
none
nor
north
not
note
notices
notoc
nove
november
noviny
now
nr
nu
num
number
numbers
nvs
ny
nya
nyaq
nı
nın
o
obce
obci
obe
obenberger
obl
observances
oc
october
od
of
office
official
ogg
ogv
okr
okresy
old
olsztyn
omega
oms
on
one
online
only
open
opera
operatorname
oproti
opt
options
or
order
ore
orf
org
organiza
original
orl
os
other
our
out
over
oxford
oyıs
p
pa
padding
page
pages
pairs
param
parameter
parameters
paris
park
parms
part
partial
pats
paul
pavol
pc
pdf
pe
peculiar
people
per
period
peter
petrlova
phi
philosophy
php
physics
pi
pl
pla
planet
planetary
ple
please
png
pnz
po
poc
podrocje
pojezierze
polarimetry
polic
polskiego
polskiej
population
portal
post
power
powiat
powiatu
powiaty
pp
ppen
praha
pre
precision
prefix
prehl
press
preston
prezidentı
pri
processes
project
projects
properties
property
propertyid
provinces
proyektı
proyektının
psi
psk
pt
pu
public
publication
publications
published
publishing
px
pᴎᴙ
q
qa
qabul
qac
qag
qala
qalası
qalg
qalıbı
qan
qara
qarag
qaras
qaraw
qars
qatnas
qayber
qazan
qdinar
qid
qu
qualifier
qualifiers
qullanıla
qus
qı
qıc
qırım
qısqa
qıtay
qızıl
qərb
r
ra
radiometry
raff
range
rangle
rank
raq
rayon
rayonı
rb
rbi
rc
rcema
rd
rda
re
read
red
ref
reference
references
reform
reg
region
registro
reguladora
rela
related
reles
religion
religious
ren
rena
renaissance
renda
renen
renes
renna
renson
rep
report
republic
republika
republiky
require
required
res
research
resolution
resources
respublikası
respublikasının
result
results
retrieved
retscreen
return
review
revised
rg
rga
rho
ri
ria
right
rim
river
rk
rkem
rki
rkia
rla
rle
rlu
rm
rma
rne
rnen
ro
robert
roberts
robin
rolabel
roman
ros
rosso
routledge
row
royal
royer
rs
rsa
rt
rtu
ru
rus
rusia
russell
russia
russian
rya
rzeczypospolitej
s
sa
sah
saint
sak
sam
same
san
sanala
sanskrit
sanı
sar
saylang
saylanıp
scale
scap
schmadel
school
schuster
science
scientific
se
sea
search
second
see
self
sen
sena
senda
senen
sep
separator
september
sequence
series
ses
set
sh
shift
short
should
show
si
simon
sin
single
sir
site
sites
siyahıyaalınması
size
sk
ska
ske
ski
skorowidz
sl
slam
slc
slovenska
slovenskej
smi
smo
snak
so
social
society
solar
some
son
souboru
souc
source
south
sovet
sovetı
sp
space
spacewatch
spanish
spb
special
spectrophotometry
spra
springer
sqrt
sr
sri
ssp
ssrb
st
sta
standard
stars
start
stat
state
statement
states
statistical
statistics
statystyczny
stellar
stica
str
strand
string
strom
struc
studies
study
style
su
sub
sug
sum
surface
survey
sv
sve
svg
symbol
synthesis
system
sı
sıltamalar
słownik
səh
t
ta
table
tag
talk
tam
tan
tanasevitch
tanılg
tapqır
tarafından
tarafınnan
target
tari
tarix
tas
tat
tatar
tatarc
tatarica
tatarstan
tawıs
tc
td
te
team
technical
tel
tela
tele
telenda
telenen
tella
template
templates
temple
ten
tena
tenda
tendo
tenen
teoria
teru
test
text
th
than
that
the
their
then
theory
there
these
they
this
thorell
through
thumb
ti
tica
ties
tik
tiks
till
time
timer
times
timming
tira
title
tka
tku
tla
tle
tmem
tnej
to
today
tolma
tom
tonumber
tool
top
toplusu
toponimlərinin
toppdoma
tora
torg
tormıs
torra
tostring
tr
tra
transformations
translate
translation
trim
true
ts
tt
tta
tu
tug
tul
tully
turı
turında
turındag
tuu
tuv
tv
tve
two
type
tyu
tıruda
tırılg
tıs
u
ua
uc
udm
uesac
uezd
ug
uk
ul
ulay
uly
ulı
un
und
unit
united
units
university
unknown
up
upper
uq
ur
urda
url
urnas
urta
urza
urını
urıs
us
use
used
user
users
uses
usgs
using
usporiadani
ustring
utc
utype
v
va
val
valas
valid
value
values
van
var
vc
ve
vec
veda
version
veterinary
vezi
vgg
vi
video
vienna
view
vii
viii
vildanov
viliam
vishniac
visual
visualeditor
vitebsk
vizier
vk
vla
vladimir
vlg
vne
vneho
vnom
vnu
voja
vojensky
vol
volko
volume
von
vor
vseti
vy
vyc
vyd
vznikaji
w
wa
walckenaeria
walter
wamında
wang
waqig
waqıtta
waqıtında
war
warszawa
was
way
wc
wda
we
web
webm
webrzs
website
weekly
weights
wes
west
what
when
where
which
whitaker
white
who
width
wiki
wikibase
wikidata
wikimedia
wikipedia
wikis
wikitext
wilejka
wilen
will
windows
with
wla
wmf
wny
wolumin
women
word
work
world
would
wps
wunderlich
www
wykaz
x
xa
xakimia
xalqı
xalıq
xalıqara
xan
xanlıg
xese
xesla
xezma
xi
xifa
xii
xiii
xiv
xix
xma
xo
xv
xvi
xvii
xviii
xx
xxi
y
ya
yag
yan
yanında
yar
yaxs
yazuc
yazılıs
year
years
yek
yla
yo
york
you
your
youtube
yra
yu
yug
yulı
yıl
yılda
yıldan
yılg
yıllarda
yılnın
yılı
z
za
zab
zahidulla
zdenko
ze
zeles
zelga
zellner
zemi
zemne
zemnom
zemnospra
zerge
zga
zh
ziemia
zla
zme
znf
zone
zr
zu
zubriczky
zur
{
|
}
~
¡
£
§
©
«
¬
­
°
±
²
³
µ
·
»
½
×
æ
ı
ıc
ıg
ılar
ın
ına
ında
ınnan
ının
ıp
ıq
ıqqan
ıs
ısı
ız
ŋ
ǝ
ə
əhalisinin
ərazi
ərq
əti
ɜ
ɵ
ɵᴍh
ʔ
ʙ
ʜ
ʰ
ʲ
ʻ
ʼ
ʿ
ˈ
ː
̀
́
̂
̃
̄
̆
̇
̈
̉
̊
̋
̌
̓
̛
̣
̦
̧
̨
͡
α
β
γ
δ
ε
η
θ
λ
μ
ν
ο
π
ς
ω
а
ааҗ
аб
абаи
абдулла
абдуллин
абзелиловскии
абласнога
абруи
абруцци
абруццо
абсолют
абхазия
абыи
аваз
авазы
авангард
авг
август
августа
августта
августы
августына
августында
августыннан
авеи
аверон
авеста
авиатөзелеш
авиация
авила
австралия
австрии
австрия
австриянең
авт
автобус
автоматик
автомобиль
автоном
автономияле
автономная
автономныи
автор
автордаш
авторлар
авторлары
авторлык
авторның
авторы
авыз
авыл
авылга
авылда
авылдан
авыллар
авылларда
авыллары
авылларында
авылны
авылның
авылы
авылына
авылында
авылындагы
авылыннан
авылының
авыр
авыргазы
авырлыгы
авырлык
авырту
авыру
авыруга
авырудан
авырулар
авыруларга
авыруларда
авыруларны
авыруларның
авырулары
авыруларын
авыруны
авыруның
авыруы
авырып
ага
агарту
агач
агачлар
агачлары
агачтан
агачы
агдам
агеева
агентлыгы
аграр
агроном
агры
агулы
агунг
агыи
агым
агымы
агымында
агып
ад
адана
адидже
адиҗе
адм
административ
административно
административныи
администрации
администрациясе
адмирал
адольф
адрес
адресы
адыгея
адым
адыяман
ае
аена
аенда
аеның
аера
аералар
аерма
аермалы
аермасы
аеру
аеруча
аерыла
аерылган
аерылып
аерым
аерымланган
аерып
аждаһа
аз
азагында
азак
азат
азатлык
азербаи
азия
азиядә
азиянең
азнакаи
азовскии
азор
азрак
азчылык
азык
азәрбаи
аи
ак
акад
академигы
академии
академик
академия
академиясе
академиясен
академиясендә
академиясенең
акдиңгез
аккош
аклар
акларның
акмола
акмулла
акрынлап
аксаи
аксак
аксараи
аксе
аксу
аксубаи
аксыл
аксым
аксымнар
аксымы
актаныш
акте
актер
актерлар
актерлары
актерлык
актеры
актив
активлыгы
актриса
актрисалары
актрисасы
актуальные
актүбә
акушерлык
акционерлык
акча
акчарлак
акчасына
акш
акшның
акшта
акъяр
акыл
акыллы
акһисар
ал
ала
алабама
алабуга
алабугада
алагоас
алаи
алалар
алан
аланы
алар
аларга
аларда
алардан
аларны
аларның
аласыз
алатыр
алатырь
алаҗа
алба
албан
албания
алга
алган
алганда
алганнан
алганнар
алгач
алгы
алда
алдагы
алдан
алды
алдына
алдынгы
алдында
алдындагы
алдыннан
але
алеи
александр
александра
александро
александров
александрович
александровка
александровна
александрово
александровскии
александровское
алексеев
алексеевич
алексеевка
алексеевск
алексеевскии
алексеевское
алексеи
алжир
али
аликанте
алиш
алиһә
алиһәсе
алла
аллаһ
аллаһның
алма
алмаган
алмаз
алман
алмания
алманиядә
алманияне
алманиянең
алманнар
алмас
алматы
алмаш
алмыи
алпавыт
алсу
алтаи
алты
алтын
алтынчы
алтыэи
алу
алуга
алуны
алучы
алуы
алына
алынган
алынмалар
алып
алырга
алыштыра
аль
альберт
альбина
альбом
альбомы
алье
альмерия
альплар
альплары
альтернатив
альто
альфред
альшеевскии
аляска
ам
амасья
америка
америкада
американ
американың
америки
аминов
амур
амурская
ан
ана
анализ
аналитик
аналитическии
аналык
анастасия
анасы
анатолии
анатолия
анатомия
англ
англии
англия
англиянең
анда
андагы
андерсон
андре
андреапольскии
андреев
андреевич
андреевка
андреевское
андреи
андыи
анкара
анкетирование
анна
аннан
аннары
анри
ансамбле
ансамбль
ант
антакья
анталья
антон
антонио
антонов
антоновка
анхальт
аны
аның
ао
аоста
апа
апас
апасы
апостол
аппараты
апр
апреле
апрелендә
апреленнән
апреленә
апрель
апрельдә
апреля
апулия
ар
ара
арад
арада
аралашу
арасы
арасына
арасында
арасындагы
арасыннан
арач
арбаж
аргаяш
аргентина
ардатовскии
ардахан
арденны
ардеш
арджеш
арендага
арзамасскии
аризона
арии
арка
аркадии
арканзас
аркасында
арктика
аркылы
арлар
армии
армия
армиягә
армиядә
армияләрнең
армиянең
армиясе
армиясендә
армиясенең
армор
арнольд
арпа
арслан
арсланов
арт
арта
артвин
арте
артиллерия
артист
артисткасы
артистлар
артистлары
артисты
артка
арткан
арткы
артлы
арттыра
арттыру
арту
артур
арты
артык
артында
артыннан
артып
архангельск
архангельская
архангельскии
архангельское
археолог
археологик
археология
архив
архивировано
архивы
архитектор
архитекторалар
архитекторлар
архитекторы
архитектура
архитектурасы
арча
аршанскии
аръягы
ары
арыс
арыслан
арыш
арьеж
ас
асаба
асбассеи
асиповицкии
аска
аскы
аскын
аспирантура
аспирантурада
ассистент
ассистенты
ассоциациясе
асср
ассрга
ассрның
аст
аста
астана
астара
астероид
астероидлар
астероидлары
астероидның
астероиды
астравецкии
астраханская
астрель
астрономия
асты
астына
астында
астындагы
асыл
ат
ата
атаган
атаганнар
атаклы
атала
аталган
атама
атамасы
атамура
атап
атарга
атасы
атказанган
атлантик
атлар
атлас
атлетика
атлы
атмосфера
атмосфераның
атмосферасы
атна
атнага
атнадан
атналык
атом
ату
аты
атыи
атып
атырау
ау
ауразия
аургазинскии
аурупа
аурупада
аурупаның
афанасьево
афи
африка
африкада
африканың
ахун
ахыр
ахыргы
ахыры
ахырына
ахырында
ача
ачкан
ачлык
ачу
ачы
ачык
ачыклана
ачыклау
ачыклыи
ачыла
ачылган
ачылды
ачылу
ачып
аш
аша
ашарга
ашау
ашказаны
ашлык
ашмянскии
ашыгыч
ашыи
ашыра
ашыру
ашырыла
аэропорт
аэропорты
аю
аюрведа
аяз
аяк
аҗ
аң
аңа
аңлата
аңлатма
аңлатмалы
аңлату
аңлатыла
аңлау
аңлыи
аңы
б
ба
баба
бабаи
бабалары
бабасы
бабино
бабич
бабруи
бабынинскии
бавария
бавыр
багамольнікава
багана
багратионовскии
багышлана
багышланган
багышлап
багышлыи
бад
бадахос
баден
бадәт
бадәтханә
бадәтханәгә
бадәтханәдә
бадәтханәләр
бадәтханәләре
бадәтханәне
бадәтханәнең
бадәтханәсе
бадәтханәсендә
бадәтханәсенең
база
базар
базары
базасы
базасында
базиликата
баи
баия
бакалинскии
бакалы
бакеу
бакиров
баку
бакча
бакчасараи
бакчасы
бакы
бакыда
бакыи
бакыр
бал
бала
балага
балалар
балаларга
балаларда
балаларны
балаларның
балалары
балаларын
балалы
баланы
баланың
баласы
балачагы
балачак
балет
балетмеи
балеты
бали
балка
балкан
балканах
балкар
балкария
балл
баллар
балта
балтаи
балтач
балтыи
балчык
балык
балыкесир
балыклар
бангладеш
банк
банкы
бар
бара
баралар
баранавицкии
барановка
барган
барганда
барда
баренец
баренцев
барлыгы
барлык
барлыкка
бармак
барнавыл
барс
барселона
барсуки
барсын
бартын
бару
баручы
баручысы
бары
барыбер
барыи
барыла
барылган
барып
барырга
барысавскии
барысы
барысын
барыш
барышы
барышында
барәт
бас
баса
баскан
баскетбол
баскыч
басма
басмалар
басмалары
басмасы
баспасы
бассеи
басср
бассрның
бастыра
бастырган
бастыру
бастырыла
бастырылган
бастырып
басу
басыла
басылган
басылып
басым
басымы
басып
батальоны
батталгази
бату
батыр
батырлыгы
батырлык
баулы
бауман
бафра
баш
башбит
башинформ
башк
башка
башкала
башкалалары
башкалар
башкаласы
башкара
башкаралар
башкарган
башкарма
башкару
башкаручы
башкаручылар
башкарыла
башкарылган
башкарырга
башкача
башкир
башкирии
башкирская
башкирскии
башкирского
башкирскои
башкорт
башкортлар
башкортларның
башкортлары
башкортостан
башкортостана
башкортстан
башкортстанда
башкортстанның
башлаган
башлаганнар
башлагач
башлады
башлана
башланган
башлангач
башлангыч
башлангычы
башланды
башлану
башланып
башлап
башларга
башлау
башлы
башлыгы
башлыгының
башлыи
башлык
башлыклары
башлыча
башта
баштагы
баштан
башы
башын
башына
башында
башыннан
башҡорт
башҡортостан
баян
баянчы
бдб
бду
бе
бежа
бежаницкии
бежецкии
без
безгә
безнең
беи
бек
беларус
беларусия
беларускаи
беларусь
беларусі
белая
белгеч
белгече
белгечлеге
белгечләр
белгечләре
белгород
белгородская
белгән
белдергән
белдерү
белдерә
беле
белебеевскии
белем
белеме
белемен
белемле
белемне
белеп
белергә
белешмә
белешмәлек
белинскии
белкартография
белков
белогорскии
белое
белокалитвинскии
белор
белорет
белорецкии
белорус
белоруслар
белоруссии
белоруссия
белоруссиянең
белорусскии
белоярскии
белыи
бельгия
бельскии
бельфор
белэн
беляев
белү
белә
белән
бен
београд
бер
бераз
бераздан
бераставицкии
бергә
бергәләп
бердәм
бердәмлек
бердәнбер
бере
берег
березники
березовка
березово
березовскии
беренче
беренчел
беренчелегендә
беренчеләрдән
беренчесе
беркаи
беркем
беркетелгән
берлеге
берлегендә
берлегенең
берлегенә
берлек
берлектә
берлин
берлинда
берләр
берләре
берләшкән
берләшмә
берләшмәсе
берләшмәсенең
берләштергән
берләштерелгән
берләштерү
берләштерә
берникадәр
бернинди
берничә
беррәттән
берсе
берсен
берсендә
берсеннән
берсенә
бертуган
берьюлы
берәмлеге
берәмлек
берәмлекләр
берәмлекләре
берәр
берәү
берәүләр
бет
бетергән
бетерелгән
бетерелә
бетерергә
бетерү
бетерә
беткән
бетон
бетә
бешанковицкии
би
библиография
библиотека
бига
бигрәк
биек
биеклеге
биеклектә
биеклектәге
биектау
бижбулякскии
бизе
бизнес
бизәлгән
бизәү
бии
бик
билбау
билге
билгеле
билгели
билгелиләр
билгеләгән
билгеләмәләр
билгеләнгән
билгеләнде
билгеләнә
билгеләп
билгеләр
билгеләргә
билгеләре
билгеләү
билгеләүче
билгесе
билгесез
билеҗик
били
биләгән
биләмәләрендә
биләп
биләр
бин
бина
бинада
биналар
биналартөркем
биналары
бинаны
бинаның
бинасы
бинасын
бинасында
бингөл
бине
биобиблиографик
биографии
биографическии
биография
биографиясе
биологик
биология
биргән
биргәннәр
бирде
бирдин
бирегә
биредә
биредәге
бирелгән
бирелде
бирелә
биреп
бирергә
бирле
бирми
бирскии
бирү
бирүне
бирүче
бирә
бирәләр
бискаи
бисмил
бистрица
бистә
бистәләре
бистәсе
бистәсендә
бистәсенә
бит
бите
битендә
битенә
битлек
битлис
битләр
битләрендә
биттә
бихор
бич
биш
бишбүләк
бишенче
бию
биюе
биюләре
биюче
бия
бк
благовар
благоварскии
благовещен
благовещенскии
благоевград
блок
бмо
бмоның
бобровка
богдановка
богданово
богородицкии
богородскии
богородское
бодаи
бодлея
боерыгы
боерык
боз
бозу
бозылу
бои
бок
бол
болаи
болар
боларның
болгар
болгария
болгариянең
болгарлар
болгары
боливия
бологовскии
болу
болховскии
болын
болытлары
болытлы
большая
большевик
большевиклар
большие
большое
большои
бор
бораи
борго
борис
борисовка
борисово
борки
боровичскии
боровскии
бородино
борок
борчак
борын
борынгы
борыны
борынына
борынынан
босния
бот
ботаника
ботошани
ботошань
боуэлл
бохара
боябат
боҗра
бр
брага
браганса
бразилия
бразилиядә
браи
бранденбург
браничево
бранко
бранку
браславскии
брахма
брахман
брашов
бреи
бреила
брест
брестская
бригада
бригадасы
британ
британия
брод
брокгауза
бронза
броја
брэсцкага
брэсцкая
брэсцкии
брянск
брянская
брянскии
бу
буа
бугазы
буда
будапешт
будда
буддачылык
буддизм
будет
буе
буена
буенда
буендагы
буенча
буздякскии
бузеу
буи
була
булалар
буларак
булат
булатов
булачак
булгаков
булган
булганга
булганда
булганлыктан
булганнан
булганнар
булганча
булганы
булганын
булгач
булды
булдыра
булдырган
булдыру
булдырыла
булдырылган
буллинскии
булмавы
булмаган
булмаганга
булмаганда
булмас
булмаса
булмаска
булмау
булмыи
булса
булсын
булу
булуга
булуы
булуын
булуына
булып
булыр
булырга
булыша
булышлык
буразналары
буранлы
бургас
бургенланд
бургос
бурдур
бурса
бурт
бурычы
бурятия
бутан
бутырки
буш
бушлаи
буын
буяу
бхагавата
бхакти
бы
бывшее
быз
быково
был
быть
быхавскии
быч
бышев
бышевскии
бюджет
бюро
бюросы
бюст
бюсты
бялыницкии
бяразавскии
бярэзинскии
бүген
бүгенге
бүздәк
бүлгесеадминистративное
бүлгесенең
бүлеге
бүлеген
бүлегендә
бүлегенең
бүлегенә
бүлек
бүлекләр
бүлекләре
бүлекчәсе
бүленгән
бүленеп
бүленеш
бүленеше
бүленә
бүлеп
бүлмә
бүлмәсе
бүлү
бүләге
бүләк
бүләкләнгән
бүләкләнде
бүләкләнүчеләр
бүләкләнә
бүләкләр
бүләкләре
бүләкләү
бүре
бүтән
бәбәк
бәи
бәк
бәкер
бәлки
бәләбәи
бәләкәи
бәрдә
бәрелеш
бәрелеше
бәрелү
бәреп
бәрәңге
бәт
бәхет
бәхетле
бәхәс
бәя
бәяләнә
бәяләү
бәян
бәясе
бөгелмә
бөек
бөекбритания
бөер
бөре
бөркет
бөрҗән
бөтен
бөтендөнья
бөтенесе
бөтенләи
бөтенроссия
бөтенрусия
бөтенсоюз
бөҗәкләр
в
ва
вавилов
вавкавыскии
вага
вагага
вагаи
вадим
вазифаларын
вазифасын
вазифасына
вазифасыннан
вазыи
ваи
вак
вакыи
вакыт
вакытка
вакытлар
вакытларда
вакытлы
вакытлыча
вакытны
вакытта
вакыттан
вакыты
вакытын
вакытында
вакытыннан
валгамаа
валдаи
вале
валенсия
валентин
валентина
валерии
валле
валожынскии
валь
вальядолид
валя
ван
вандея
ваннар
ваннарның
вань
вар
вариант
варианты
вариолит
варисы
варламова
вармия
варна
варшава
вары
вас
василево
василии
васильев
васильева
васильевич
васильевка
васильевна
васильево
васильевскии
васильевское
васлуи
васюган
васюганнан
ватан
ватанабэ
ватандаш
ватандашлар
ватандашы
ватаным
вафат
вафатлар
вафатыннан
вах
вахит
вахитов
вачскии
вашингтон
ваянг
ваҗык
вв
введение
ве
веб
ведик
ведомости
везиркөпрү
веи
век
века
веков
вектор
велика
великая
великии
велико
великои
великолукскии
великопольское
велли
вельск
вельскии
вена
венгрия
вене
венера
венесуэла
венето
венеция
вера
верди
верещагинскии
вермонт
версия
версиясе
вертикаль
верх
верхнедонскои
верхнее
верхнетоемскии
верхние
верхнии
верхнядзвинскии
верхняя
верховного
верховскии
весе
вест
вестник
вестфалия
весь
весьегонскии
ветераны
ветеринария
ветлужскии
ви
виана
вид
видео
видин
византия
визеу
вики
викимедиа
викимәгълүмат
викимәгълүматтан
википедии
википедия
википедиядә
википедиянең
википедиясе
википедиясендә
виктор
виктория
вила
вилаяте
вилаятендә
вилегодскии
вилеи
вилен
виленскии
вилледж
вилча
вильяндимаа
виноградовскии
вираншеһир
виргиния
вирджиния
вирумаа
висконсин
виталии
витебск
витебская
витебскои
вице
вицебскии
вичугскии
вишне
вишну
вишнуизм
вишнуның
вишня
вка
вконтакте
вкп
владивосток
владимир
владимирович
владимировка
владимирская
владислав
власти
влксм
внесении
внутренних
во
вобласць
вогез
воеводалыгы
воеводина
воеводство
воениздат
военно
военныи
вож
вознесенка
вознесенскии
вои
вокал
вокаль
вокзалы
воклюз
волга
волгоград
волгоградская
волеи
волжск
волжскии
волков
волково
воловскии
вологда
вологодская
волоколамскии
волосте
волости
волость
вольф
воля
вопросу
вопросы
воранавскии
воробье
воронеж
воронежская
воронино
воронов
вороново
ворошилов
воскресенскии
воскресенское
воспоминания
восток
востока
восточнои
восточныи
восход
вп
вранча
враца
времени
временник
время
врх
все
всеволод
всероссии
всесоюзная
всех
вскии
вское
вторая
второе
второи
вуз
вукмировић
вулыс
вулыслары
вулысы
вулька
вы
выканау
выканкома
вып
выползово
выпуск
вырумаа
выселки
высоково
высокое
высочина
выставка
вычегда
вышневолоцкии
вьенна
вьетнам
вюртемберг
вя
вязниковскии
вязовка
вярхоу
вятка
вячеслав
віцебская
вә
вәгъдә
вәкаләтле
вәкил
вәкиле
вәкилләре
вәли
вәлиди
вәлиев
вәлиева
вәлиуллин
г
га
габдрахман
габдулла
габрово
гаваи
гаврилов
гавриловка
гагарин
гадел
гади
гадәти
гадәттә
гадәттән
газ
газета
газеталары
газеталарында
газетаның
газетасы
газетасында
газетасының
гази
газиантеп
газиз
гаи
гаилә
гаиләдә
гаиләләре
гаиләсе
гаиләсендә
гаиләсенең
гаиләсенә
галактика
галактикалар
галар
галары
галац
галерея
галереясе
гали
галиев
галиева
галим
галиме
галимнең
галимнәр
галимнәре
галимов
галимҗан
галина
галия
галиябану
галиәсгар
галкина
галәи
галәм
галәми
галәмнең
гамбәр
гамәл
гамәлгә
гамәлдә
гамәлдәге
гамәли
гамәлләр
гамәлләре
ган
ганга
ганеша
ганиев
ганнар
ганчы
ганчыга
гапоненка
гарады
гари
гариза
гарипов
гарипова
гариф
гарифуллин
гаронна
гарри
гарәбстаны
гарәп
гарәпләр
гарәпчә
гаскәр
гаскәре
гаскәрен
гаскәренең
гаскәри
гаскәрләр
гаскәрләре
гаскәрләрен
гаскәрләренең
гастрольләрдә
гасыр
гасырга
гасырда
гасырдан
гасырлар
гасырларда
гасырның
гасыры
гаудия
гафу
гафури
гафурии
гашыи
гаяз
гаять
гаҗәеп
гвадалахара
гвардеи
гвардия
гвинея
гг
где
гдовскии
ге
гедә
геи
гектар
гел
ген
генерал
генералы
генераль
генетик
генең
генкін
геннадии
генри
генрих
генә
геогр
географии
географик
географические
географических
географическое
география
географиясе
географо
геодезии
геолог
геологик
геология
геометрик
геометрия
георг
георгии
гер
геральдика
герб
гербы
герельс
герман
германия
герое
герои
гесе
гесендә
гессен
гигант
гигиена
гидрологик
гидротөененнән
гидротөененә
гилл
гиллс
гильфердинг
гильфердинга
гималаи
гимн
гимназия
гимназиясе
гимназиясен
гимназиясендә
гимнастика
гимнның
гимны
гиресун
гисэ
гитара
гл
глава
главна
главное
глаукома
глебово
глинка
глобаль
глускии
глыбоцкии
гмина
гминасы
гминасында
го
гобәи
гоголь
год
года
годов
году
годы
гол
головина
головино
гольштеи
гомель
гомельскага
гомельская
гомельскии
гомер
гомере
гомерен
гомеренең
гомернең
гомум
гомуми
гомумрусия
гомумән
гомәр
гора
горацкии
гореф
горж
горизонталь
горка
горки
горни
горныи
город
города
городецкии
городище
городов
городок
городских
городского
городское
городскои
гороховецкии
горы
горькии
гос
госман
госманлы
государства
государственная
государственного
государственное
государственнои
государственныи
гояс
гравитацион
гравитацияне
градец
градова
градюшко
граждан
гражданины
гражданлык
гражданнар
гражданска
гражданы
грамматика
грамотасы
гран
гранада
гранд
гранди
граф
график
графика
графлыгында
граче
греи
грек
греция
григории
григорово
григорьев
григорьевич
григорьевка
грин
гришино
гродзенскага
гродзенская
гродзенскии
гродно
грозныи
гросу
гроув
грузии
грузин
грузия
груневельд
группасы
гуарда
губа
губадлы
губерна
губернасы
губернасына
губернасында
губернасының
губернатор
губернаторы
губернии
губерния
гуманитар
гура
гуру
гурьевскии
гусар
гусь
гута
гы
гыи
гына
гыр
гэмпшир
гэс
гүзәл
гүмүшхане
гүнеи
гә
гәдәбәи
гәзите
гән
гәрчә
гәрәев
гәрәи
гәҗит
гәҗите
гәҗитләр
гәҗитләре
гәүдә
гөи
гөл
гөлбашы
гөлназ
гөлнара
гөмбәләр
гөнен
гөрҗистан
д
да
даведнік
давид
давлекановскии
давыдово
дагестан
дагстан
дагы
даи
даими
даирәсендә
дакота
дала
далана
далану
далануга
даланыла
даланып
далы
даль
дальнии
дам
дамир
дан
данда
даниловка
даниловскии
дания
данковскии
данлы
данлыклы
данные
данным
данчыгы
даны
данын
данында
данә
дар
даровскои
дару
дарулар
дасына
дата
датасы
даутов
дахо
дача
два
дварэцкии
движения
двина
двиналар
двор
дворики
дворы
де
дебеонь
дебют
деи
дек
декабре
декабрендә
декабреннән
декабренә
декабрь
декабрьдә
декабря
декадасында
деканы
декоратив
дел
дела
деление
дело
дель
дельберг
деменскии
демирҗи
демография
демократик
демянскии
ден
дени
денис
день
департамент
департаменты
департаментына
департаментында
депутат
депутатлар
депутатлары
депутатларының
депутаты
дер
деревня
дерюжинскии
десант
деятельности
дж
джаганнатх
джаз
джан
джанкои
джеи
джек
джексон
джел
джерси
джон
джордж
джорджия
джулия
джурджу
дзержинскии
дзонгхагы
дзонгхагында
дзяржынскии
ди
диагноз
диагностика
диалектлар
диалекты
диаметры
дивизии
дивизия
дивизиясе
дивизиясенең
дивриги
дигән
дигәндә
дигәнне
дизаи
диләр
диләрә
дим
димбовица
димәк
дин
динамикасы
динамо
динар
династиясе
динг
дингә
дине
динен
динендә
диненең
диненә
дини
диния
диннәр
дип
диплом
дипломатик
дипломы
директор
директорлар
директоры
дирекция
дириже
дирижер
дирижеры
дисенскии
диск
диссертация
диссертациясе
диссертациясен
дистә
дисәтинә
дифференциаль
диффузия
диярбакыр
диярлек
диңгез
диңгезгә
диңгезе
диңгезенә
для
дмитриевич
дмитриевка
дмитриевскии
дмитриевское
дмитрии
дмитровскии
днепр
дновскии
дня
до
добрич
дога
доктор
докторлары
докторлык
докторы
документ
документаль
документлар
докшицкии
дол
долгое
долж
долина
доллар
долни
дом
дома
домены
домодедово
дон
донец
донецк
донскои
дону
доп
дополнении
дор
дордонь
доровка
доровскии
доцент
доценты
дошман
дошманның
др
драгичынскии
драма
драматик
драматург
драматурглары
драматургы
древнеи
древнюю
дром
дружба
дрыбинскии
ду
дубки
дубовскии
дубрава
дуброва
дубровенскии
дубровка
дуброво
дубровскии
дулкын
дулкыннар
дулла
дуллин
дуллина
думасы
думасына
дунаи
дурга
дурсунбеи
дус
дуслар
дуслары
дуслыгы
дуслык
дусты
дучар
дуңгыз
дхарма
ды
дымлы
дын
дэви
дэвид
дэпутатау
дю
дүзҗе
дүрт
дүртенче
дүртөи
дә
дәвалау
дәвалауны
дәвам
дәвамлы
дәвамы
дәвамында
дәвере
дәверендә
дәгъва
дәлилләр
дәләр
дәләре
дәләрен
дән
дәп
дәр
дәреслек
дәреслекләр
дәресләр
дәресләре
дәрәҗә
дәрәҗәгә
дәрәҗәдә
дәрәҗәдәге
дәрәҗәле
дәрәҗәләре
дәрәҗәсе
дәрәҗәсен
дәрәҗәсендә
дәрәҗәсенә
дәшев
дәүләкән
дәүләт
дәүләте
дәүләтенең
дәүләтенә
дәүләткә
дәүләтләр
дәүләтләре
дәүләтнең
дәүләттә
дәүче
дөге
дөнья
дөньяви
дөньяга
дөньяда
дөньядагы
дөньякүләм
дөньяны
дөньяның
дөньясы
дөньясында
дөрес
е
евгении
евгения
евреи
евровидение
европа
европада
европеи
еган
егерме
егет
егетләр
его
егоров
егорьевскии
ее
ежегодник
еи
екатерина
екатеринбург
екатериновка
ел
елан
елга
елгалар
елгалары
елгаларын
елганың
елгасы
елгасын
елгасына
елгасында
елгасының
елгы
елда
елдагы
елдан
елдызэли
елена
елизавета
еллар
елларга
елларда
еллардагы
еллардан
елларның
еллары
елларында
еллыгы
еллыгына
еллык
елны
елның
елы
елына
елында
ен
енисеи
енишеһир
ениҗе
енн
енче
епархиясе
епискобы
епископ
епископы
ер
ерак
ераклыкта
ере
ереван
ермекеевскии
ертылу
если
есназарова
есть
етничка
етноконфесионални
ефремов
ефремовскии
ефрона
ефәк
еш
ешилъюрт
ешлыгы
ешлык
ешрак
еще
ж
жабинскавскии
жан
жанеи
жанр
жарковскии
же
железногорскии
железнодорожная
железнодорожныи
жер
жераи
жетісу
жизни
жизнь
жирона
жиронда
жлобинскии
жныи
жорж
жос
жудецы
жудецында
жуков
жуково
жуковскии
журавле
журнал
журналист
журналистика
журналистлар
журналистлары
журналисты
журналлар
журналларда
журналлары
журналларында
журналы
журналында
журналының
жучкевич
жылғы
жытавицкии
жюри
з
за
забаи
заболотье
заборье
завод
заводлары
заводта
заводы
заводында
заводының
заволжскии
завьяловскии
загора
загорье
задонскии
заечар
заи
закир
закиров
закирова
закон
законау
законнар
законы
зал
залегощенскии
залесье
залы
залында
зальцбург
заман
заманда
замандашлар
заманча
заманында
заозерье
заокскии
западнодвинскии
западныи
записки
заполье
зара
зараи
зарарланган
зарарлану
зарарлануы
заречная
заречное
заречныи
заречье
зарипов
зарубежная
зарубежным
зарур
заря
зат
затлар
захаров
захарово
заһир
збор
зборнік
звания
зве
звезда
звезды
звенигово
здесь
зеи
зеландия
зеле
зеленоградскии
земли
земля
земство
зенит
зерноградскии
ззәт
ззәтуллин
зи
зианчуринскии
зиле
зиннур
зират
зираты
зиратында
зия
зиянчура
зиярәт
златибор
златоуст
злин
знаменка
знаменскии
знаменское
знамя
зненскии
зовка
зовскии
золотая
золотои
зона
зонасы
зонасында
зонгулдак
зоология
зубово
зубцовскии
зуевка
зуево
зуевскии
зуллин
зуллина
зур
зураи
зурлыгы
зурлыктагы
зуррак
зырянское
зыян
зэльвенскии
зәгыи
зәи
зәки
зәрдөштлек
зәңгәр
зөлфия
зөлфәт
зөләи
зөфәр
зөя
зөһрә
и
иа
ибн
ибне
ибраһим
ибраһимов
ибраһимова
иван
иванавскии
иванов
иванова
иванович
ивановка
ивановна
иваново
ивановская
ивановскии
ивановское
иваньково
ивацеицкии
ивевскии
ивелин
иганә
игезәк
иген
игенче
игенчелек
иглин
иглинскии
игорь
игълан
игътибар
игътибарга
игътибарын
ида
идарә
идарәсе
идарәсендә
идарәсенең
идарәче
идарәчесе
иде
идел
иделгә
иделның
идем
идрис
иж
ижау
ижевск
из
известия
изге
изгеләре
изд
издание
издательство
изер
измаи
изменении
измит
изображение
израиль
ике
икеле
икеләтә
икенче
икенчел
икенчесе
икесе
икмәк
икътисад
икътисади
икътисадчы
икътисадчысы
икътисады
икътисадыи
икән
икәнен
ил
илаһ
илаһи
илаһлар
илаһы
илгиз
илгә
илдар
илдус
илдә
илдәге
илдән
иле
илендә
иленә
илеш
или
илишевскии
илл
илле
иллинои
илләр
илләргә
илләрдә
илләрдән
илләре
илләрендә
илләренең
илләрнең
илне
илнең
илнур
илфов
илче
илчедер
илчеләре
илчесе
илчесенә
илшат
иль
ильинка
ильино
ильинскии
ильинское
ильич
илья
ильяс
ильясов
илһам
им
имам
имамы
иман
имени
иминлек
император
императоры
империи
империя
империясе
империясендә
империясенең
империясенә
импульс
имранлы
имуществу
имән
ин
инвестицион
инвестицияләр
ингл
инглиз
инглизчә
ингуш
ингушетия
инде
индекс
индекслары
индексы
индиана
индонезия
индонезиядә
индра
индрик
индузтрияле
индуктивлык
индустриаль
инегөл
инештән
инженер
инженерлар
инженерлык
инженеры
инициативасы
инкыи
инновацион
инспекторы
инспекциясе
институт
института
институтны
институтның
институтта
институты
институтын
институтына
институтында
институтының
инструкторы
инструменталь
интеллектуаль
интервью
интернат
интернет
интертат
интерфеи
инфекция
информ
информатика
информации
информация
инфраструктура
иоанн
иоганн
иосиф
иптәше
ир
иран
иранда
иранның
ире
иреге
ирек
иреккә
ирекле
ирешкән
ирешү
ирешә
ирина
иркен
иркутск
иркутская
ирландия
ирләр
иртеш
иртештән
иртә
иртәнге
иртәрәк
ис
исаково
исем
исемдәге
исеме
исемен
исемендә
исемендәге
исеменең
исеменнән
исеменә
исемле
исемлеге
исемлегендә
исемлегенә
исемлек
исемлекләр
исемләнгән
исемнәр
исемнәре
исемнәрен
иске
искиткеч
исккон
искра
искусства
искусство
искә
искәндәр
искәрмә
искәрмәләр
ислам
исламга
исламны
исламның
исмаеллы
исмәгыи
испан
испания
испаниянең
исраил
исследование
исследования
иссә
ист
истанбул
истмала
истории
историко
историческая
историческии
историю
история
источники
истринскии
истә
истәлеге
истәлегенә
истәлек
истәлекле
истәлекләр
исхак
исхаков
исхакыи
исүче
исә
исәбе
исәбенә
исән
исәнбәт
исәп
исәпкә
исәпләгәндә
исәпләмичә
исәпләнгән
исәпләнә
исәпләү
исәптә
исәптән
ит
италия
италиядә
италиянең
итальян
ите
итегез
ителгән
ителде
ителми
ителү
ителә
итеп
иткән
иткәндә
иткәннән
иткәннәр
иткәнчә
итми
итогам
итоги
итте
иттеләр
итэ
итү
итүгә
итүдә
итүе
итүен
итүне
итүнең
итүче
итә
итәләр
итәм
итәр
итәргә
их
ихлас
ихтимал
ихтирам
ишарә
ишек
ишем
ишембаи
ишимбаи
июл
июле
июлендә
июленнән
июленә
июль
июльдә
июльне
июльнеке
июльнең
июля
июн
июне
июнендә
июненнән
июненә
июнь
июньдә
июня
ия
ияләре
иярчен
иясе
иҗади
иҗат
иҗаты
иҗатын
иҗатына
иҗатында
иҗтимагыи
иң
к
ка
кабак
кабан
кабарда
кабардино
кабат
кабер
кабере
кабилә
кабиләләр
кабиләләре
кабиләсе
кабинеты
кабул
кавак
кавалерия
кавалерлары
кавалеры
кавказ
кавказда
кага
кагыи
кагыла
кагылгысыз
кагылмыи
кагылышлы
кадрлар
кадыи
кадәр
кадәрге
каен
каз
каза
казак
казаклар
казаков
казакъ
казакълар
казакъстан
казакъстанда
казакъстанның
казан
казана
казанга
казанда
казандагы
казани
казанка
казаннан
казанны
казанның
казанская
казанские
казанскии
казанского
казанскои
казанышлар
казанышлары
казань
казарма
казахлар
казахстан
казахстана
казе
казу
казчина
казыи
казылмалар
каи
как
кал
кала
калабрия
калалар
каласы
каласына
каласынан
каласыннан
калган
калганнары
калганы
калды
калдыклары
калдыра
калдырган
калдырыла
калдырып
калдырырга
кале
календаре
календарь
кали
калии
калинин
калининград
калининградская
калинино
калининскии
калинкаицкии
калиновка
калифорния
калкулыгы
калкулык
калмыи
калмык
калмыкия
калсын
калтасы
калу
калуга
калужская
калын
калып
калыплар
калыплары
калырга
кальвадос
кальскии
кальции
калязинскии
каләм
кама
камаз
камал
каменецкии
каменка
каменныи
каменск
каменскии
камень
камера
камил
камилләштерү
кампания
камчатскии
камыр
камышлы
камянецкии
камітэта
кан
канада
канал
каналы
каналында
канат
канатлы
канаш
кангал
кандидат
кандидатлары
кандидатлык
кандидаты
кандыра
канзас
канин
канлы
кантабрия
канталь
кантон
кантоннан
кантоны
кантонына
канун
кануннары
кануны
канэда
капитан
капитаны
капка
капланган
каплыи
капма
капылоу
капыльскии
кар
кара
карабүк
карагаи
караган
караганда
караганды
карагыз
карадиңгез
караидел
караидельскии
карала
каралар
каралган
карамагына
карамагында
карамагындагы
карамалы
караман
карамастан
каран
карап
карар
карарга
карары
карасу
карата
каратаи
карау
караучы
карачаево
карачаи
карачевскии
караш
карашлары
карашы
караңгы
карга
каргалы
каргопольскии
кардәш
карел
карелия
кариев
каринтия
карл
карловы
карлы
карма
кармаскалинскии
каролина
карпатасты
карпеков
карпово
карс
карт
карта
картасы
карте
картиналар
картинасы
картографии
картография
карточкалар
каршы
каршылыгы
каршылык
каршында
каршындагы
карыи
карьера
карьерасы
карьерасын
карэлицкии
касерес
касимовскии
каспии
кастамону
кастельон
касцюковицкии
касы
касыи
кат
катаи
каталог
каталогларда
каталогында
каталогының
катаракта
катарина
катгыи
категория
катилнич
катлам
катламнар
катламнарында
катламы
катлау
катлаулы
катлы
катнаш
катнаша
катнашалар
катнашкан
катнашмаларга
катнашты
катнашу
катнашучы
катнашучылар
катнашучыларның
катнашучылары
катнашучысы
катнашуы
катнашында
катнашып
катнашырга
католик
католиклар
катта
катунь
каты
кать
каурыи
кафедра
кафедрасы
кафедрасын
кафедрасында
кафедрасының
кахта
кача
качып
кашале
кашарскии
кашинскии
каширскии
каштелу
кашыгы
каюм
кая
каһарман
каһарманнары
каһарманы
каһраманмараш
кв
квадрат
квадраты
квалификация
квант
кваркуш
квасников
кг
кду
ке
кебек
кеи
келераш
кем
кемерово
кемеровская
кения
кентукки
кенә
кенәз
кенәзе
кенәзлеге
кер
кергән
керде
керем
кереп
керергә
кереш
керешә
кертелгән
кертелә
кертем
кертеп
кертергә
керткән
кертми
кертмичә
кертү
кертә
кертәләр
керфексыман
керү
керүе
керүче
керә
керәактуална
керәләр
керәшен
кесовогорскии
кет
кетрмичә
кеть
кече
кечерәк
кечкенә
кечкенәдән
кеше
кешегә
кешедән
кешелек
кешеләр
кешеләргә
кешеләрдә
кешеләре
кешеләрне
кешеләрнең
кешене
кешенең
кешесе
ки
кибет
кибете
кигән
киев
киевта
кием
киеме
киемнәре
киеп
кикнур
килгән
килгәндә
килгәннән
килгәннәр
килгәч
килде
килемар
килеп
килергә
килеш
килешү
килешүе
килми
километр
километрга
километрлы
килү
килүе
килүен
килүче
килүчеләр
килә
киләләр
киләсе
киләчәк
киләчәктә
ким
кима
кимегән
кимендә
киметү
киметә
кими
кимовскии
кимрскии
кимрәк
кимү
кимүе
кин
киндер
кинешемскии
кино
кинорежиссе
кинскии
кинәт
кипр
киравскии
кире
киреевскии
киресенчә
киржачскии
кирил
кирилл
кирмән
кирмәне
киров
кирово
кировская
кировскии
кирпеч
кирпечтән
кирәк
кирәкле
кирәклеге
кирәкми
киселгән
киселештә
кисеп
кисешкән
кисешә
кискен
кислотасы
кисәкчекләр
кисәтү
кит
китабы
китабын
китабына
китабында
китами
китап
китаплар
китаплары
китапта
китапханә
китапханәләр
китапханәсе
китеп
китергән
китерелгән
китерелә
китереп
китерергә
китерү
китерүче
китерә
китерәләр
киткән
киткәч
китт
китте
китү
китүе
китә
китәләр
китәргә
кич
кичергән
кичерә
кичке
кичә
кия
кияү
кияүгә
киң
киңлеге
киңлектә
киңрәк
киңәи
киңәш
киңәшче
киңәшчесе
кл
клаи
клара
класс
класса
классик
классификаторы
классификация
классификациясе
класслы
классы
кле
клеи
клепиковскии
клеть
климавицкии
климат
климатлар
климатның
климаты
климово
клин
клиник
клинскии
кличавскии
клуб
клублары
клубы
клубына
клуж
ключ
ключи
км
кн
кнд
книга
книги
книжное
князь
ко
кобаяси
кобрынскии
ков
кова
ковасна
ковернинскии
ково
ковровскии
ковскии
код
кодлана
кодлары
коды
кожуун
козан
козельскии
козлов
козловка
козлово
кои
коимбра
кол
колак
коле
коллегиясе
коллектив
коллективы
колодезь
коломенскии
колониаль
колорадо
колпнянскии
колубара
колумбия
колхоз
колхозда
колхозы
кольчугинскии
ком
команда
командасы
командасына
командасының
командирлар
командиры
комаровка
комарово
комбинаты
комедия
коми
комилар
комиссариаты
комиссарлары
комиссары
комиссия
комиссиясе
комитет
комитета
комитеты
комитетында
комитетының
комментарии
коммерция
коммуна
коммунага
коммуналары
коммуналь
коммунасына
коммунист
коммунистик
коммунистлар
компания
компанияләр
компаниясе
комплекс
комплекслы
комплексы
композитор
композиторлар
композиторлары
композиторы
композиция
компьютер
комсомол
комсомольскии
комсомольское
комы
конаковскии
конвекция
конго
конгрессы
конда
кондома
конец
конкурс
конкурсы
конкурсында
коннектикут
коношскии
консерваториясе
консерваториясен
консерваториясендә
консерваториясенең
константин
константиновка
константиновскии
констанца
конституцион
конституция
конституциясе
конструктор
континенталь
контрада
контракт
контроле
контроль
контрольдә
конференции
конференция
конференциясе
конференција
концепция
концепциясе
концерт
концертлар
коншак
конъюнктива
конья
координаталары
координаталы
кораб
кораблар
корал
кораллар
кораллары
кораллы
коралы
корбан
корбаннары
корбаны
кордон
корея
коровино
короле
король
корочанскии
корпус
корпусы
коррез
корреспондент
корреспонденты
корсак
корсаков
корсика
корт
кору
коръән
коры
корыла
корылган
корылма
корылмалар
корылмалары
корылтае
корылтаи
корыч
космик
косово
коста
костанаи
костино
кострома
костромская
кот
котельнич
котельничскии
котласскии
котлякова
котово
котып
кош
кошки
кошлар
кошы
кою
коючы
коя
кояш
коҗасинан
коҗаэли
кпсс
кпссның
крае
краенда
краеның
краи
кралове
красная
красноармеи
красноборскии
красновская
красногвардеи
красногорскии
краснодар
краснодарскии
краснодарского
красное
краснокамскии
красносулинскии
краснохолмскии
красноярск
красноярскии
красные
красныи
кратер
кратерга
кратерлар
кратерлары
кратеры
краткая
краткии
края
кре
креи
кремль
крестьян
крестьяннар
крик
критерии
кришна
кришнаның
кромскои
круглянскии
крупскии
крус
крым
крычавскии
крюково
кстовскии
кто
куба
кубань
кубарылуы
кубен
кубогы
кувшиновскии
кугарчинскии
куе
куела
куелган
куеп
куергазы
кузнецкии
кузнецов
кузнецово
куи
кукмара
кул
кулаи
кулга
кулдан
куллана
кулланалар
кулланган
кулланганнар
кулланма
куллану
кулланучы
кулланучылар
кулланыла
кулланылган
кулланылышы
кулланып
кулланырга
култыгы
кулъязма
кулы
кулына
кулында
культура
культурного
культуры
культы
куме
кунак
кунгурскии
кураи
курган
курганская
курганскии
куркинскии
куркыныч
куркынычлыгы
куркынычсызлык
куркынычы
курорт
курс
курск
курская
курскии
курслары
курсларын
курсларында
курсы
курсын
курчак
кусиро
куша
кушалар
кушма
кушнаренко
кушу
кушыла
кушылган
кушылганга
кушылганчы
кушылдыгы
кушылдыклар
кушылдыклары
кушылдыктары
кушылу
кушылып
кушымта
кушып
куып
куэнка
кую
куюргазинскии
куючы
куя
куявия
куялар
куян
куярга
куәтле
кфу
кхмер
към
кы
кыек
кыен
кыз
кызганычка
кызгылт
кызлар
кызларга
кызларның
кызлары
кызу
кызы
кызык
кызыклы
кызыксына
кызыксыну
кызыл
кызылорда
кызылтепе
кызылъяр
кызылҗаһамам
кыи
кыла
кылган
кыллы
кылу
кылыч
кына
кыпчак
кыр
кырау
кыргыз
кыргызстан
кыргызстанның
кыргыи
кыркларэли
кырлаи
кырмыскалы
кыршеһир
кыры
кырыи
кырык
кырыккале
кырым
кырымда
кырымтатар
кырында
кырының
кырыс
кырҗали
кысаларында
кыска
кыскача
кытаи
кыш
кышкы
кышлар
кышын
кыю
кэб
кэролин
књига
күбесе
күбесенчә
күбрәк
күгәрчен
күз
күзгә
күздә
күзнең
күзәнәк
күзәнәкле
күзәнәкләр
күзәнәкләре
күзәтелә
күзәтеп
күзәтү
күк
күкерт
күккә
күкрәк
күкәи
күл
күле
күлләр
күлләре
күлмәк
күлнең
күләм
күләмдә
күләме
күләмен
күләмендә
күләмле
күмелгән
күмер
күмәк
күн
күп
күпер
күпере
күпкә
күпләп
күпме
күпмедер
күпсанлы
күптән
күпчелеге
күпчелек
күпчелекне
күпьеллык
күргәзмә
күргәзмәләр
күргәзмәләре
күргәзмәсе
күргәзмәсендә
күргән
күрде
күренекле
күренеш
күренеше
күренешләр
күренешләре
күренмә
күренә
күреп
күрергә
күрсәтелгән
күрсәтелә
күрсәтеп
күрсәтергә
күрсәткеч
күрсәткече
күрсәткән
күрсәтмә
күрсәтү
күрсәтүче
күрсәтә
күрсәтәләр
күрше
күрү
күрә
күтахья
күтәрелгән
күтәрелеш
күтәрелеше
күтәрелә
күтәреп
күтәрү
күтәрә
күченеп
күченә
күчеп
күчерелгән
күчерелә
күчереп
күчерү
күчерә
күчерәләр
күчкән
күчмә
күчү
күчә
күңел
күңелле
кә
кәбисә
кәгазь
кәл
кәлбәҗәр
кәле
кәлимуллин
кәлләр
кәлләре
кәрим
кәримов
кәрлә
кәҗә
көе
көз
көзге
көзен
көзендә
көи
көллияте
көлмез
көмеш
көн
көнбатыш
көнбатышка
көнбатышта
көнбатыштагы
көнбатыштан
көнбатыштарак
көнбатышында
көнгә
көндезге
көндә
көндәлек
көне
көнен
көнендә
көненә
көнкүреш
көнлек
көнне
көннән
көннәр
көннәрдә
көннәре
көннәрендә
көннәрнең
көнчыгыш
көнчыгышка
көнчыгышта
көнчыгыштан
көнчыгыштарак
көнчыгышынан
көнчыгышында
көньягында
көньяк
көньякка
көньякта
көньяктарак
көрән
көрәш
көрәше
көрәштә
көрәшә
көстендил
көтеп
көтүче
көч
көче
көчен
көченә
көчле
көчләр
көчләре
көчләрен
көчләренең
көчәи
көчәнеш
көчәя
көҗәңәр
л
ла
лаб
лаби
лабка
лаборатория
лабораториясе
лабчы
лабы
лабына
лабыннан
лаган
лагои
ладога
лаек
лаеклы
лаеш
лазерлы
лаи
лакшми
лалы
лан
лана
ланган
ланда
ланды
ланка
ланма
ланмалар
ланыла
лап
лаптева
лар
ларга
ларда
лардан
лариса
ларны
ларның
лары
ларын
ларына
ларында
лас
лат
латвия
латин
латыи
латыш
лау
лаулар
лауларда
лауларында
лауреат
лауреатлары
лауреаты
лацио
лачын
лађевић
лгота
ле
лебедев
лебедева
лебяжье
лев
левитация
лез
леи
лек
лекцияләр
лем
леме
лемцюгова
лемцюговаи
лена
ленд
ленин
ленина
ленинград
ленинградская
ленинградта
ленино
лениногорск
ленинскии
ленинское
ленскии
леон
леонид
лепельскии
лер
лерик
лес
лесная
лесничество
лесное
леснои
лет
летию
ли
либерец
ливенскии
лига
лигасы
лигасында
лигасының
лигурия
лидеры
лидия
лидскии
лилия
лиләр
лингвистик
лингвистика
линиясе
липецк
липецкая
липовка
лирик
лиссабон
лит
литва
литература
литературная
литературы
лихославльскии
лицеи
лицензиясе
лишаи
лки
лковскии
ло
лобачевскии
лов
лова
ловеч
лович
ловка
ловна
лово
ловскии
ловское
лог
лодзь
лозер
лои
лок
локалита
локалној
локомотив
локотки
ломбардия
ломоносов
ломоносова
лондон
лондонда
лопатино
лор
лос
лотос
лотошинскии
луар
луара
луаре
луг
луговая
луговое
луговои
лужки
луза
луи
луиза
луизиана
луизина
лука
лукино
луны
лухскии
луч
лы
лыгы
лыи
лык
лыкка
лысковскии
ль
львов
льеи
льми
любанскии
любви
люблин
любовь
любуш
любытинскии
люди
людмила
люксембург
лютага
ляхавицкии
ляэне
ліпеня
лүл
лә
ләгән
ләи
ләкин
ләм
ләнгән
ләндереп
ләнеп
ләнергә
ләнеш
ләнеше
ләнештә
ләнү
ләнә
ләп
ләр
ләре
ләшелә
ләшү
ләшүләр
ләшүчеләр
ләшә
ләшәләр
ләҗев
ләү
ләүче
м
ма
маврикии
мавыга
магнит
магнитогорск
магіле
мадагаскар
мадрид
мае
маена
маенда
маеннан
мазинскии
мазовия
мазурия
мазы
маи
мак
макаров
макарово
македония
макнот
макова
макс
максаковскии
максат
максатихинскии
максатлары
максаты
максатында
максатыннан
максим
максималь
максимов
максимовка
макскии
максуди
мактау
мактаулы
макуляр
мал
мала
малага
маладзечанскии
малаи
малатья
малахово
малая
мале
мали
малиновка
малмыж
маловишерскии
малое
малонистогорская
малоярославецкии
малые
малыи
мальта
мамадыш
мамаи
мамык
ман
мана
манавгат
манара
манарасы
мандир
маниса
манов
манова
манси
мансии
мансур
мантыи
манш
мар
марамуреш
мараньян
марат
марафон
маргарита
мардин
маре
мари
марии
марина
маритим
мария
марк
маркасы
марке
марково
маркс
марна
марокко
марс
марсель
март
марта
мартен
мартин
мартның
мартта
марты
мартына
мартында
мартыннан
мартыновскии
маршрут
марьевка
марьино
масаллы
маслово
масса
массакүләм
массалары
массаларын
массасы
массачусетс
мастер
мастеры
мастовскии
матбугат
матбугатта
матбугаты
матбугатында
матвеевка
матвеево
матвеи
матди
матдә
матдәләр
математигы
математик
математика
математикада
материал
материаллар
материаллары
материалов
материалы
мату
матур
матурлык
матч
матчта
матчында
маунт
махсус
мачва
машина
машиналар
машиналары
машинасы
мая
маяк
мај
маҗар
маҗаралары
маҗарстан
мвд
мг
мгу
мду
ме
медале
медаль
медальләр
медальләре
медведево
медвенскии
медиа
медитация
медицина
медицинасы
медынскии
мезень
меи
мекленбург
мексика
мексико
мелеузовскии
мемориаль
мен
менаванні
менделеевск
менеджмент
менә
менән
мер
мерам
меркурии
мерсин
меса
мессье
мест
местного
местные
место
металл
металлургия
методик
методикасы
методы
метр
метражлы
метрга
метргорода
метрдан
метрлы
метро
метрополитены
метрополитенының
механизм
механик
механика
механикасы
мехединць
мечетлинскии
мечеть
мещовскии
мең
меңгә
меңнән
меңнәрчә
ми
мидхәт
мие
миев
микрораи
милади
милас
милек
милиция
миллеровскии
милли
миллиард
миллион
миллионнан
милләт
милләте
милләтләр
милләтне
милләттәшләр
милославскии
милютинскии
миләүшә
мин
минас
мине
минем
минемчә
минералогия
минераль
минзәлә
мини
минималь
министерства
министерство
министр
министрлар
министрлары
министрлыгы
министрлыгында
министрлыгының
министры
министрының
миннесота
минск
минская
минскии
минтимер
минус
минут
мир
мира
мирас
мирасы
мирза
мирныи
мирхәи
мисал
мисаллар
мисалы
миссисипи
миссури
мисыр
митино
мифология
мифологиясе
михаи
михаил
мичиган
мичуринскии
мишкинскии
мишкә
мишәр
мишәрләр
миякинскии
миякә
миңа
миңнеханов
миңнуллин
млн
млрд
мм
ммәтле
мн
мо
мов
могиле
мода
моделе
модель
модуль
можаи
можга
мозаик
мозель
мои
мокша
молдавия
молдова
молекуляр
молекулярная
молизе
молодая
молоде
молоковскии
мон
монастыре
монастырь
монах
монгол
монголия
монда
мондыи
моннан
монография
монографияләр
монтана
монте
моны
моның
моравич
моравия
морат
морбиан
мордва
мордовия
мордовскии
морза
морке
морозко
морозов
морозово
морозовскии
мортазин
мосальскии
моск
москва
москвы
московская
московскии
московского
мост
мостаи
мостафа
мостафин
мотыи
мохит
мошенскои
моя
моңа
моңы
мркос
мс
мсциславскии
мугла
музее
музеенда
музееның
музеи
музыка
музыкаль
музыкант
музыкантлар
музыкасы
мукшы
мул
мулла
мулланур
мультимедиясе
муниципалитет
муниципалитетлары
муниципалитетына
муниципаль
муниципального
муниципальное
муниципальныи
муниципальных
муреш
муркаш
мурманск
мурманская
муса
мусин
мускул
муссонлы
мустафакемалпаша
мут
муш
мценскии
мы
мыи
мыр
мыс
мысль
мытищинскии
мэн
мэриленд
мэры
мядзельскии
мякотин
мінская
міністрау
мһүр
мә
мәгариф
мәгарифе
мәгарә
мәгарәсе
мәгълүм
мәгълүмат
мәгълүмати
мәгълүматлар
мәгълүматлары
мәгълүматларына
мәгълүматны
мәгълүматы
мәгънә
мәгънәдә
мәгънәле
мәгънәсе
мәгънәсендә
мәгърифәтче
мәдинә
мәдрәсә
мәдрәсәдә
мәдрәсәсе
мәдрәсәсен
мәдрәсәсендә
мәдәни
мәдәният
мәдәнияте
мәдәниятен
мәдәниятенең
мәи
мәкалә
мәкаләдә
мәкаләләр
мәкаләләре
мәкаләләрне
мәкаләне
мәкаләнең
мәкаләсе
мәкаләсен
мәктәбе
мәктәбен
мәктәбендә
мәктәбенең
мәктәбенә
мәктәп
мәктәпкә
мәктәпкәчә
мәктәпләр
мәктәпләрдә
мәктәпләре
мәктәпләрендә
мәктәпне
мәктәпнең
мәктәптә
мәләвез
мәләкәс
мәләр
мәрмәр
мәртәбә
мәрьям
мәрҗани
мәсе
мәскәү
мәскәүгә
мәскәүдә
мәскәүдәге
мәскәүдән
мәскәүнең
мәсьәлә
мәсьәләләр
мәсьәләләре
мәсьәләләрен
мәсьәләләренә
мәсьәләләрне
мәсьәлән
мәсьәләсе
мәсәлән
мәхмүт
мәхмүтов
мәхрүм
мәхәббәт
мәхәллә
мәхәлләләре
мәче
мәчет
мәчете
мәчетенең
мәчеткә
мәчетле
мәчетләр
мәчетләре
мәчетне
мәчетнең
мәчеттә
мәшһүр
мәҗбүр
мәҗбүри
мәҗит
мәҗитов
мәңге
мәңгелек
мөгаен
мөгаллим
мөгезкатлау
мөгезкатлауның
мөгезле
мөдире
мөдәррис
мөмкин
мөмкинлеге
мөмкинлеген
мөмкинлек
мөмкинлекләре
мөмкинчелек
мөнәсәбәт
мөнәсәбәтләр
мөнәсәбәтләре
мөрәҗәгать
мөселман
мөселманнар
мөселманнарга
мөселманнарның
мөселманнары
мөселманнарының
мөслим
мөстәкыи
мөфти
мөфтие
мөхбир
мөхәммәд
мөхәммәт
мөхәммәтшин
мөхәммәтҗанов
мөхәррир
мөхәррире
мөхәррирләр
мөһим
н
на
навагрудскии
наварра
навигацион
нага
нагаи
наган
нагорныи
награждении
над
надежда
надеждино
надым
названии
названия
назвы
наи
наил
наилә
нак
нала
намаз
намус
намуслы
нан
нап
наполеон
нар
нарат
нараяна
нарга
нарматыу
наро
народа
народная
народов
народы
нас
населе
население
населения
населенных
населеных
насељима
наслег
наследие
наследия
настоящ
насыи
наталья
нату
натураль
нау
наук
наука
наукам
науки
науменко
науч
научн
научно
научнои
научныи
научы
нахчыван
национална
национальная
национальное
национальныи
начала
начало
начальнигы
начар
наш
ная
нвар
нварда
нварның
нвары
нварына
нварында
нварыннан
нда
ндә
не
небраска
невада
невскии
невшеһир
недоступная
неи
некаторых
неклиновскии
некрасово
нелидовскии
нем
немец
ненец
неопр
непал
нер
нерв
нервы
несеуд
нестеров
нетдин
нетдинов
нефтекама
нефтеюганск
нефть
нечкә
нең
ни
нибары
нива
нигде
нигез
нигездә
нигезе
нигезен
нигезендә
нигезенә
нигезләгән
нигезләнгән
нигезләнеп
нигезләнү
нигезләнә
нигезләре
нигезләрен
нигъмәтуллин
нидерланд
нидерландлар
ниев
нижегородская
нижнее
нижние
нижнии
нижняя
ник
никах
никита
никитин
никитино
никифоров
никола
николаев
николаевич
николаевка
николаевна
николаевскии
николаевское
николаи
николо
николсон
никольск
никольскии
никольское
никулино
нил
нина
нинди
ниндидер
нинскии
ницца
ничек
ничелек
ничә
ниш
ния
нияз
ниһаять
нка
нквд
нки
нланд
нмут
ннары
нныи
нных
нның
но
нобель
нов
нова
новая
новгород
новгородская
новгородскии
нове
новии
новинка
новинки
новка
ново
новоалександровка
новое
новокузнецк
новомихаи
новомосковск
новониколаевка
новопокровскии
новороссии
новосе
новоселки
новосибирск
новосибирская
новости
новотроицкое
новскии
новское
новые
новыи
ногаи
ногинскии
ное
нои
нократ
нокта
ноктасы
номенклатурасы
номер
номерлы
номеры
номинациясендә
нор
норвегия
норлат
нормаль
норт
норти
ноя
ноябре
ноябрендә
ноябреннән
ноябрь
ноябрьдә
ноябрьнең
ноября
нс
нскии
нт
нугаи
нулин
нуллин
нур
нуриев
нуриман
нурланыш
нуруллин
нуры
нче
нчы
нштеи
ны
ныгытма
ныгыту
ные
ныи
нык
нына
ныннан
нының
нынң
нысанбаев
ныф
ныфы
ных
ның
ньевр
нью
ньютон
нязепетровск
нямц
няндомскии
нясвижскии
нә
нәгыи
нәзарәте
нәкъ
нәкыи
нән
нәп
нәрсә
нәрсәне
нәсел
нәселдәнлек
нәселе
нәселеннән
нәтиҗә
нәтиҗәдә
нәтиҗәле
нәтиҗәләр
нәтиҗәләре
нәтиҗәләрен
нәтиҗәсе
нәтиҗәсендә
нәфис
нәшер
нәшр
нәшрият
нәшрияты
нәшриятында
нәҗип
о
об
обка
обл
области
область
обливскии
оборона
образование
образовании
образования
образы
обращения
обсерваториясендә
обслужване
обсуждение
общ
общегеографическии
общества
общественные
общественным
общество
общин
община
общинасы
общини
объект
объектлар
объектлары
объекты
объектының
ова
оваҗык
овернь
ога
огаи
огаре
огачи
огиз
огузэли
огынты
огынтысы
огынтысын
огынтысында
огышлы
од
одесса
одинцовскии
одоевскии
оеша
оешкан
оешма
оешмалар
оешмаларда
оешмалары
оешманың
оешмасы
оешмасының
оештыра
оештырган
оештыру
оештыруда
оештыручы
оештыручыларның
оештыручысы
оештырыла
оештырылган
озаи
озак
озакка
озгат
озе
озерки
озеро
озын
озынлыгы
озынлыкта
озынча
ои
оидзуми
ока
окато
океан
океаннан
океаны
оклахома
округ
округлары
округов
округы
округына
округында
округының
окт
октябре
октябрендә
октябреннән
октябренә
октябрь
октябрьдә
октябрьскии
октябрьское
октября
окуловскии
окы
ола
олалары
олдыз
олдызлар
олдызларда
олдызлардан
олдызлары
олдызларында
олдызлыгы
олдызны
олдызның
олдызча
олдызы
оле
олег
оленинскии
олимпия
оломоуц
олт
олу
олуг
олы
олысы
ольга
ольховка
ольшанка
ом
оминг
омск
омская
омскии
омтыла
омшак
омырка
омышлы
он
она
онга
онда
оне
онега
они
оникишубат
онкарахисар
онлаи
онна
оннар
оннарда
оннары
оннарына
оннарында
оннарының
онның
онов
оны
оныгы
онына
онында
онындагы
оныннан
онының
ооо
оп
опера
операсы
операсында
оператив
операцион
операция
операциядән
операцияләре
операциясе
описание
ополе
оптик
оптика
општина
опыт
ор
орбиталары
орбиталь
орган
организации
организација
организм
организмга
организмда
организмның
органик
органнары
органы
орден
орденнары
ордены
орденының
орду
орды
оре
орегон
оренбург
оренбургская
орехово
оригиналь
оричевскии
оричи
орк
оркестр
оркестры
оркта
орлов
орловка
орлово
орловская
орловскии
орн
орск
орт
ортка
ортлар
ортлары
ортларын
ортларында
ортта
орты
ортын
ортына
ортында
ортының
оршанка
оры
осетия
осиновка
осипов
оскар
ослан
османгази
османие
основы
особенности
оста
остазы
осталары
осталыгы
остановочная
остасы
остаханәсе
осташковскии
остров
островскии
осыпов
осыф
от
ота
отв
отд
отделение
отделения
отдыха
отечественнои
отличнигы
отрадное
отрядлары
отряды
отставкага
оф
офицер
офицеры
официальныи
офтальмология
охшаган
охшаш
оценка
оча
очалар
очерк
очерки
очерклар
очкыч
очкычлары
очкычы
очрагында
очракларда
очраклары
очраклы
очракта
очраша
очрашу
очрыи
очу
очучы
очы
очып
очыш
ошкар
ою
п
па
павел
павлов
павлович
павловка
павлово
павловск
павловскии
павловское
павлодар
пад
пазарҗык
паи
пакистан
палатасы
палеарктика
паленсия
палехскии
паломар
памяти
памятник
памятники
память
панама
папа
пар
пара
парагваи
параиба
параллель
параметрларына
парана
парвати
пардубице
париж
парижда
парк
паркы
парламент
парламенты
партизан
партия
партиянең
партиясе
партиясенең
паспорт
пассажир
паставскии
пастаноу
патологик
патша
патшабикә
патшабикәсе
патшалары
патшалыгы
патшалыгының
патшалык
патшасы
паулу
пауль
паша
пе
педагог
педагогик
педагогика
педагогия
педагогы
пеи
пекуляр
пен
пенза
пензенская
пеновскии
пенсильвания
пенсиягә
пер
пераи
первая
первое
первои
первомаи
первыи
перевод
перемышльскии
переписи
перепись
переработанное
период
периода
периодик
периоды
пермскии
пермь
пернамбуку
перник
перу
пески
песни
песня
пестово
пестовскии
песчанка
петербург
петербургның
петербургта
петр
петров
петрова
петрович
петровка
петровна
петрово
петровскии
петровское
петроград
петрозаводск
петропавловка
петропавловскии
петрыкавскии
петушинскии
пехота
печатня
печора
печорскии
печән
пи
пиауи
пижанка
пик
пинскии
пионер
пиренеи
пирот
писатели
писатель
питер
питрәч
питырбурда
пичета
пко
пкс
план
планета
планетасы
планетасының
планлаштыру
планы
платформа
плевен
плеи
плесецкии
пло
пловдив
плоское
пльзень
плюс
по
победа
пов
повесте
повесть
погорелка
погост
под
подаци
подберезье
подгорное
подгорныи
поддорскии
подлясье
подольскии
подосиновец
подполковник
позицион
пои
покров
покровка
покровскии
покровское
пол
полатлы
полацкии
поле
полевои
политехник
политехника
политическои
полиция
полк
полковнигы
полковник
полкы
полкының
полное
положение
поль
польскии
польша
польшада
польшаның
польше
польшетерриториальное
поля
поляк
поляна
полянскии
полянского
поляны
поляр
померания
поморав
пономаре
понте
попов
поповка
попово
популяр
популярлык
популярное
поречье
порт
портал
порталы
порталында
портрет
портреты
порту
португалия
португалиядә
португалиянең
порты
посадскии
посады
посе
поселение
поселении
поселок
после
пособие
поспелов
поссовет
пост
постоянен
постоянного
постына
посынан
пот
поттер
поты
поче
почепскии
почет
починки
починок
почмак
почмаклы
почта
поэма
поэмасы
поясы
поясында
ппен
праваслау
правда
правдинскии
правинсәсендә
право
православ
православие
прага
прадеш
практик
практика
прахова
працоу
пре
преглед
предприятие
предприятиеләре
предприятиесе
председателе
президент
президента
президентлары
президенты
президентының
президиума
президиумы
президиумының
премии
премия
премияләр
премияләре
премиясе
премиясен
премиясенә
премьер
премьерасы
преображенскии
преобразовании
препаратлар
пресс
префектурасы
префектурасында
при
приволжскии
пригородныи
призе
призеры
призчысы
приморскии
принц
припадност
присвоении
пристань
про
проблема
проблемалар
проблемалары
проблемы
прованс
провинциясе
провинциясендә
провинциясенә
программа
программалар
программалары
программалау
программасы
программасын
прогресс
продуктлары
продукция
продукциясе
продюсер
проект
проектлар
проектлары
проектны
проектның
проекты
проектын
проза
прозаик
прокуроры
пролетарскии
пропаганда
проректоры
проспекты
проф
профессиональ
профессор
профессора
профессорлар
профессоры
профиль
прохоров
прохоровскии
процент
проценты
процесс
процесслар
процесслардан
процессы
процессында
прудки
пруды
пружанскии
пруссия
прэзідыума
псевдонимы
психик
психологик
психология
псков
псковская
публицист
публицистик
пугаче
пугачев
пункт
пунктау
пунктлар
пунктлары
пунктов
пунктта
пункты
пур
пура
пурана
пустошка
пустошкинскии
пути
путин
путь
пухавицкии
пучежскии
пушкин
пушкино
пушкинскии
пфальц
пчинья
пылвамаа
пынарбашы
пышма
пыяла
пыяласыман
пьемонт
пьер
пьеса
пьесалар
пьесалары
пьесасы
пьетро
пюи
пяно
пярнумаа
пятое
пһра
пәи
р
ра
работы
рабочии
равил
рагачовскии
рагы
радик
радио
радиосы
разведка
развитие
развития
разград
раздольное
разъезд
раи
рак
ракета
рам
рама
рамазан
рамаяна
раменскии
раменье
рамешковскии
рамил
ран
рандин
раннур
рапламаа
расина
раслаганча
раслана
расланган
раслыи
расонскии
распараджэнняу
рассвет
рассказы
рат
рафаил
рафаэль
рашат
рашка
раштуа
рашэнне
рб
ре
реал
реаль
ревизия
революцион
революция
революциягә
революциясе
регион
региональ
регионы
регистрация
ред
редактор
редакторы
редакция
редакциясе
редакциясендә
редакциясы
редкол
реестры
реестрында
реж
режимы
режиссе
режиссер
режиссеры
реи
река
реклама
ректор
ректоры
рельеф
ремонт
ремонтлау
ренат
репертуар
репертуарында
репрессияләре
републици
републички
республика
республикада
республиканың
республикасы
республикасында
республикасының
республике
республики
ресурслары
ресурсларының
ретдинов
рефахие
референдум
реформы
рецензенты
речка
ржевскии
рзд
ри
риваять
риваятьләр
ривер
рига
ригведа
ридж
риза
ризе
ризык
ризыклар
рика
рим
римма
ринат
рио
риохи
рипол
риу
риф
рифкать
ричард
рия
рк
рки
ркп
рлар
рлары
рная
рнген
рное
рныи
ро
роберт
робот
роботлар
ров
рова
род
родина
родионово
родники
родниковскии
рождения
рождествено
рождественское
роза
розасында
рои
рок
роле
ролен
ролендә
роль
рольләре
рольне
роман
романнар
романовка
романово
романы
романья
рон
рона
россии
россия
россиягә
россиядә
россиянең
ростов
ростовская
ростовскои
роща
рскии
рсфср
рсфсрның
рт
ру
рубежом
рубин
руда
рудня
рудольф
рузскии
руллин
румын
румыния
румыниянең
руп
рус
русе
русия
русиядә
русиянең
руслан
руслар
русская
русские
русскии
русских
русско
русского
русское
русскои
русча
русь
рух
рухани
руханилар
рухи
рухият
ручеи
рф
рфа
рфның
ры
рыбинск
рыбинскии
рыльскии
рь
рьләр
рьләре
рьнең
рэд
рэспублікі
рэчыцкии
рязанская
рязанскии
рязань
рә
рәвеше
рәвешендә
рәвешле
рәвештә
рәи
рәис
рәисе
рәисенең
рәм
рәме
рәмиев
рәмнәр
рәмнәре
рәнгән
рәнеп
рәнергә
рәнү
рәнүгә
рәнүче
рәнә
рәс
рәсе
рәсем
рәсеме
рәсемнәр
рәсми
рәссам
рәссамнар
рәссамнары
рәссамның
рәссамы
рәсәи
рәт
рәтенә
рәттән
рәтү
рәтә
рәфыи
рәхим
рәхимов
рәхмәт
рәшит
рөстәм
рөхсәт
с
са
саба
сабан
сабантуи
сабир
сабиров
сабитов
сабыи
савез
савета
савин
савино
савинскии
савои
савыт
сад
садовое
садовыи
садри
садыи
саен
саи
сак
сакарья
саклаган
саклана
сакланган
саклану
сакланып
саклап
сакларга
саклау
саклаучы
саклыи
саклык
сакмар
саксония
сакчы
сала
салават
салалар
саламанка
салган
салехард
салигорскии
салих
салихов
салкын
салкынча
салу
салучы
салучыларның
салым
салына
салынган
салып
салырга
сальскии
самар
самара
самарская
самои
самора
самоуправи
самоуправление
самоуправления
самсун
сан
санак
санала
саналган
санатории
санағының
санда
сандовскии
санитар
сания
санкт
санлы
саннар
саннары
санның
санскрит
сант
санта
сантарен
санту
санчурск
саны
саныи
санын
санына
сар
сара
сарагоса
сарае
сараевскии
сараенда
сараи
саранск
сарапул
сарасвати
саратов
саратовская
сарденья
сардиния
саркисов
саркисова
сарман
сарта
сары
сарык
сарытау
сарыф
сасовскии
сатирик
сато
сату
сатучы
сатыла
сатып
саут
саф
сафа
сафин
сафиуллин
сафларына
сафларында
саха
сахалинская
саҗидә
сб
сбкф
сборник
свами
сваминараян
сведении
сведения
свентокшиж
свердловск
свердловская
свердловскии
свет
светлагорскии
светлана
светлыи
свислацкии
свобода
свободныи
свои
связи
се
сеара
себер
себердә
севастополь
северин
северная
северное
северныи
северо
северскии
севилья
севр
сеговия
сез
сезгә
сезлеге
сезлеген
сезлек
сезнең
сезон
сезонда
сезонында
сеи
сек
секретаре
секторы
секунд
села
селаж
селивановскии
селижаровскии
селище
село
сельскага
сельскии
сельских
сельского
сельское
сельсовет
сельцо
сембер
семе
семен
семеновскии
сен
сена
сенаторов
сенаторова
сенненскии
сенова
сент
сентер
сентябре
сентябрендә
сентябреннән
сентябренә
сентябрь
сентябрьдә
сентября
сер
серб
сербия
сербиянең
сергеев
сергеевич
сергеевка
сергеи
сергиево
сере
середина
сержант
сери
сериал
серия
сериясе
серле
сернур
серпуховскии
сетубал
сеңлесе
си
сибаи
сибири
сибиу
сивас
сиверек
сигез
сигезенче
сигезьеллык
сигнал
сидек
сизелерлек
сизелә
сиирт
силезия
силистра
силья
символик
символның
символы
симидзу
симптомнар
симферопольскии
симфоник
симфония
син
синдромы
сине
синең
синлун
синоп
синтетик
сирәгрәк
сирәк
система
системалар
системалары
системалы
системасы
системасын
системасына
системасында
системасының
системы
ситдыи
сити
сицилия
сиңа
ск
ска
ская
ские
скии
ских
ского
ское
скои
скрипка
скульптор
скульптура
скуратов
скі
славян
слесарь
сливен
сливкера
слобода
слободка
слободскои
словакия
словакиянең
словареи
словари
словарь
словении
словения
словениядә
словениянең
слово
слонимскии
службы
слуцкии
см
смалявицкии
смаргонскии
смирнов
смирнова
смоленск
смоленская
смолян
со
соавт
собинскии
соборы
собрание
сов
совет
совета
советлар
советск
советская
советскии
советского
советское
советскои
советы
советына
советының
современнои
современность
современных
совхоз
совхоза
согуд
соединенные
сои
соколов
соколовка
соколово
сокольскии
сокорро
солдат
солецкии
солисты
солнечногорскии
солнечныи
соловье
солтан
солтанов
солы
солых
соль
сомали
сомма
сон
сона
сонковскии
сопра
сопрано
сорап
сорау
сораулар
сория
сорокино
соры
сорыи
сосва
сосновка
сосновскии
сосновыи
сост
состав
составители
составитель
составы
составына
составында
составындагы
составыннан
сосьва
сото
софия
софья
социал
социалистик
социаль
социология
сочи
сочинении
союз
союза
союзы
соң
соңгы
соңгысы
соңрак
соңыннан
спартак
спас
спасскии
спасское
спб
спектакле
спектаклендә
спектакль
спектакльләр
спектакльләре
спектраль
спектрдагы
спировскии
список
спорт
спортчы
спортчылар
спортчылары
спортчысы
спорты
справочник
справочников
спринг
спрингс
србије
србији
србију
средние
среднии
средняя
сср
ссрб
ссрбда
ссрбның
ссрның
ссср
сссрның
ссылка
ст
ставбцовскии
ставрополь
ставропольскии
стадион
стадионы
стакан
стал
сталин
сталинград
стална
стан
стандарт
станислав
станица
становника
становништво
станции
станция
станцияләре
станциясе
стара
старая
старе
старии
старицкии
старо
старое
старорусскии
старост
старт
старые
старыи
стат
статеи
статистик
статистика
статистикасы
статистики
статистику
статистические
статистическии
статистическое
статус
статуска
статусы
статусын
статусына
статьи
статья
ства
стве
ствии
ство
ствоэнциклопедия
стена
степан
степанов
степановка
степени
степное
степнои
стер
стереотип
стерлибашевскии
стерлитамакскии
стиле
стилендә
стиль
стихи
столинскии
стоматология
стр
стран
странам
страница
страницы
страны
стратегик
стрелка
стрелковскии
строи
структура
структурасы
студенец
студент
студентлар
студентлары
студенты
студзеня
студия
студиясе
студиясендә
ступинскии
стәрлебаш
стәрлетамак
су
суб
субъектлары
суворов
суворовскии
суга
суган
сугу
сугыш
сугыша
сугышка
сугышлар
сугышларда
сугышлары
сугышларында
сугышны
сугышның
сугышта
сугыштан
сугышчан
сугышчы
сугышы
сугышына
сугышында
сугышыннан
сугышының
суд
суда
судан
суднолар
судогодскии
суды
сузыла
сузылган
суи
сукыр
сул
сулары
сулда
сулеи
сулы
сулыш
сум
сумга
сумлык
суммасы
сунгурлу
суны
суның
сур
суражскии
суруч
сурья
сурәт
сурәте
сурәтли
сурәтләнгән
сурәтләнә
сурәтләр
сурәтләре
сус
сусаклагычы
сусаклагычына
сусаклагычыннан
сухая
сухиничскии
сухои
сухона
сучава
суы
суык
суыта
схема
сценарии
сценарист
съезды
сы
сыек
сыекча
сыену
сыер
сыз
сызыгы
сызыгының
сызык
сыи
сылтама
сылтамалар
сылу
сыман
сын
сына
сынап
сынау
сынган
сынлы
сыннар
сынчы
сыны
сыр
сыра
сыры
сысола
сьерра
сьюдад
сэи
сюр
сүз
сүзе
сүзен
сүзенең
сүзеннән
сүзлеге
сүзлек
сүзләр
сүзләре
сүзләрен
сүзләренә
сүзләрне
сүзне
сүзнең
сүлеи
сүлпәнәя
сүрия
сүрәсе
сә
сәбәбе
сәбәп
сәбәпле
сәбәпләр
сәбәпләре
сәвиты
сәг
сәгать
сәгыи
сәет
сәи
сәламәт
сәламәтлеге
сәламәтлек
сәләт
сәләте
сәләтен
сәләтле
сәмәрканд
сән
сәнгате
сәнгатен
сәнгатенең
сәнгать
сәнгатьтә
сәнәгате
сәнәгать
сәнәгыи
сәргаскәре
сәркатибе
сәркәтибе
сәфәр
сәхифәсе
сәхнә
сәхнәгә
сәхнәдә
сәхнәсендә
сәяси
сәясәт
сәясәте
сәясәтен
сәясәтче
сәясәтчеләр
сәясәтчеләре
сәясәтчесе
сәяхәт
сәяхәтчесе
сәүдә
сәүдәгәр
сәүдәгәре
сәүдәгәрләр
сәүдәгәрләре
сөембикә
сөи
сөләи
сөнни
сөнниләр
сөргенгә
сөрү
сөт
сөяге
сөяк
т
та
таба
табарга
табиб
табиблар
табиблары
табибы
табигате
табигать
табигыи
таблица
таблицы
табу
табыла
табылган
табын
табыналар
табыну
табып
табыш
тавиры
тавшанлы
тавы
тавык
тавыш
тавышы
тагил
тагы
тагын
таз
таи
таиланд
так
также
таксономия
такта
такташ
такым
тал
талантлы
талачинскии
талдомскии
талица
таләп
там
тамагы
тамагына
тамагыннан
тамак
тамара
тамаша
тамашачы
тамашачылар
тамбов
тамбовская
тамбовскии
тамил
тамыр
тамырлар
тамырлары
тамырлы
тамыры
тан
танасковић
танзания
танк
танклар
тантана
тантаналы
тантанасы
тантанасында
тану
таныи
таныла
танылган
танылу
танып
таныш
таныша
таныштыра
тап
тапкан
тапкыр
тапкырчыгышы
тапшыра
тапшыру
тапшырулар
тапшырыла
тапшырылган
тар
тара
тарала
таралган
таралу
таралыш
таралышы
тарасово
тарасовскии
тарату
тарафдарлары
тарафдарларының
тарафдары
тарафыннан
тарих
тарихи
тарихка
тарихта
тарихчы
тарихчылар
тарихчылары
тарихчысы
тарихы
тарихын
тарихына
тарихында
таркала
тармагы
тармак
тармаклары
тарн
таррагана
тарсус
тарта
тарту
тартумаа
тартып
тару
тархан
тарыла
тасвирлаган
тасвирлама
тасвирламасы
тасвирлана
тасвирланган
тасвирлау
тасвирлыи
тасма
тасср
тассрның
тат
татар
татарлар
татарларны
татарларның
татарлары
татарларының
татарская
татарские
татарскии
татарского
татарское
татарскои
татарском
татарстан
татарстана
татарстанда
татарстанның
татарча
татары
татвики
татистика
татлы
татмедиа
татнефть
татьяна
тау
тауда
таулар
таулары
таулы
таутенбург
тацинскии
таш
ташкент
ташкәнт
ташкөпрү
ташлап
ташлар
ташлы
таштан
ташу
ташы
таянып
таяныч
таҗ
таҗи
таҗик
таҗикстан
таң
таңнары
таһир
таһиров
тбилиси
тв
тверская
тверь
творчество
те
театр
театра
театрга
театрда
театрлар
театрлары
театрның
театры
театрына
театрында
театрының
теге
тегү
теи
текирдаг
текст
текстлар
текстлары
текстларында
тексты
текә
тел
телгә
телгән
телдә
теле
телевидение
телевизион
телен
телендә
телендәге
теленең
теленнән
теленә
телеорман
телескоп
телефон
тели
телле
телләр
телләргә
телләрдә
телләре
телләрен
телләрендә
телләренең
телләренә
телләрнең
телне
телнең
телә
теләге
теләгән
теләк
теләп
теләсә
теләче
тема
темага
темалар
темасы
темасына
тематик
темников
температура
температурасы
тенант
тенанты
теннесси
теоретик
теории
теория
теориясе
теориясен
теп
тепебашы
тер
терапия
тергә
тере
терек
тереклек
теркәлгән
теркәлү
теркәлә
теркәү
терлек
терлекчелек
терме
термин
термины
терн
терр
территориаль
территориального
территориальное
территориальном
территории
территория
территорияләр
территорияләре
территориясе
территориясендә
территориясенең
территориясеннән
территориясенә
теруэль
техас
техник
техника
техникасы
техникумы
техникумын
техникумында
технолог
технологик
технология
технологияләр
технологияләре
технологиясе
теш
ти
тибет
тибындагы
тигез
тигезлеге
тигезлегенең
тигезлек
тиеш
тиешле
тиз
тиздән
тизлеге
тизлек
тизрәк
тик
тикшерелә
тикшеренү
тикшеренүләр
тикшеренүләре
тикшереп
тикшерү
тикшерүче
тикшерә
тимер
тимерхан
тимиш
тимур
тинчурин
тип
типа
типик
типография
типтагы
типтәр
типтәрләр
тираж
тирбәлеше
тире
тироль
тирә
тирәли
тирән
тирәнлеге
тирәсе
тирәсендә
тирәсендәге
тискәре
тифлис
тихвинскии
тишек
тиң
ткан
ткач
ткн
ткән
ткәндә
тлары
тләр
тмәгән
то
тобол
тов
товар
товуз
тоз
тои
ток
токантис
токаре
токарев
токат
токио
токымнары
токымы
тол
толедо
толстои
только
том
томанлыклар
томас
томах
томда
томск
томская
томскии
томь
тон
тонна
топлич
топоним
топонимическии
топонимнар
тор
тора
торак
торалар
торган
торгызу
торгызыла
торгызылган
торе
торжокскии
тормыи
тормыш
тормышка
тормышның
тормышта
тормышы
тормышын
тормышына
тормышында
тормышының
торопецкии
тору
торучы
торъял
торып
торырга
торышы
торышының
тоскана
тота
тоталар
тотарга
тоташ
тоташа
тоташкан
тоташтырылган
тоташу
тоткан
тоткарлаучы
тотрыклы
тотрыклылыкны
тоту
тотучы
тотыла
тотылган
тотып
тр
трабзон
традицион
традиция
традицияләре
традициясе
трактор
тракты
траль
трамваи
транспорт
транспорты
тре
тренер
тренеры
трентино
три
трның
троица
троицк
троицкии
троицкое
тропик
труд
труда
труды
труппасы
тс
тсының
ту
туа
туберкулез
тубыл
тубылдан
тугаи
туган
туганнар
туганнары
туганы
тугъры
тугърылар
тугыз
тугызынчы
тудыра
тудырган
тудыргыч
тудыру
туе
туи
тукаи
туклана
туклану
туктамыш
туктата
туктату
туктатыла
туктыи
тукыма
тула
тулаем
тулаи
тулу
тулча
тулы
тулысынча
тульская
тум
тумыштан
тунис
тунҗэли
туп
туплаган
туплана
тупланган
тупланмалары
тупланмасы
туплап
туплау
туплыи
тур
тура
тургаи
туризм
турку
турции
турция
туры
турыдан
турында
турындагы
тутаевскии
тутуков
туу
туулар
тууы
тууына
туфан
туфрак
туып
ты
тыва
тыгыз
тыгызлыгы
тыела
тыелган
тыи
тыкрыгы
тын
тында
тыныч
тынычлык
тып
тырга
тырговиште
тырново
тырыша
тырышлыгы
тысын
тыш
тышка
тышкы
тышчасы
тыю
тыюлыгы
ть
тьче
тэхналогія
тюменская
тюрингия
тям
тү
түбә
түбән
түбәнгә
түбәндәге
түбәндәгечә
түбәнрәк
түбәсе
түгел
түгәрәге
түгәрәк
түләү
түнтәр
тә
тәгаенләнә
тәкъвим
тәкъвимендә
тәкъдим
тәкъдиме
тәлгать
тәләр
тәмам
тәмамлаган
тәмамлаганнан
тәмамлагач
тәмамлана
тәмамланган
тәмамлангач
тәмамлап
тәмамлаучылар
тәмамлыи
тәмәке
тән
тәнкыи
тәрбит
тәрбия
тәртибе
тәртибен
тәртип
тәртиптә
тәрҗемә
тәрҗемәи
тәрҗемәсе
тәрҗемәче
тәрәзә
тәтеш
тәтешле
тәхеткә
тәшкил
тәэмин
тәэсир
тәэсире
тәэсирендә
тәҗрибә
тәҗрибәле
тәҗрибәсе
тәңгәл
тәүге
тәүлек
төбе
төбендә
төбәге
төбәгендә
төбәгенә
төбәк
төбәкләр
төбәкләрдә
төбәкләре
төбәкләрендә
төбәкнең
төбәктә
төгәл
төз
төзегән
төзекләндерү
төзелгән
төзелеп
төзелеш
төзелеше
төзелешен
төзелешендә
төзелешенә
төзелешле
төзелә
төзеп
төзергә
төзи
төзиләр
төзү
төзүгә
төзүдә
төзүче
төзүчеләр
төзүчесе
төзәтелгән
төзәтү
төи
төлек
төлке
төмән
төн
төнге
төндә
төнлә
төньягында
төньяк
төньякка
төньякта
төньяктан
төп
төр
төре
төрек
төрекләр
төрекмән
төрекмәнстан
төрендәге
төркем
төркемгә
төркемдә
төркеме
төркемен
төркемендә
төркеменең
төркеменә
төркемләү
төркемнең
төркемнәр
төркемнәре
төркестан
төрки
төркистан
төркия
төркиягә
төркиядә
төркиянең
төрле
төрлечә
төрләр
төрләре
төрмәгә
төс
төсе
төсле
төсләр
төстә
төстәге
төхфәтуллин
төче
төш
төшем
төшемле
төшемнәр
төшенчә
төшенчәләр
төшенчәләре
төшенчәсе
төшеп
төшергән
төшерелгән
төшерелә
төшереп
төшерү
төшерә
төшкән
төшү
төшә
у
уаз
уаза
увеит
угыр
удмурт
удмуртии
удмуртия
удмуртиянең
удомельскии
уезд
уезда
уен
уенда
уеннар
уеннары
уеннарында
уеннарының
уенчы
уенчысы
уены
уефа
уза
узган
узгач
узденскии
узды
уздыра
уздыру
уздырыла
уздырылган
узловскии
узу
узып
уи
уильям
ук
ука
указ
указау
указы
украин
украина
украинада
украинаның
украине
украиннар
украі
уку
укуханәсен
укучы
укучылар
укучылары
укучысы
укуын
укчы
укчылар
укыган
укыганда
укыи
укыла
укып
укырга
укыта
укыткан
укыту
укытучы
укытучылар
укытучылары
укытучысы
укытыла
ул
улан
улица
уллары
улус
улы
улының
ульянов
ульяновка
ульяновск
ульяновская
ульяновскии
умаа
умбрия
ун
унжа
универсаль
универсиада
университет
университета
университетлар
университетлары
университетны
университетның
университетта
университеты
университетын
университетына
университетында
университетының
уникаль
унике
унитар
унъеллык
унъеллыклар
унынчы
упознајте
упоредни
управление
управления
ур
урак
урал
урала
уральскии
урам
урамга
урамда
урамнар
урамнары
урамы
урамына
урамында
урамындагы
урамыннан
урамының
уран
урата
урда
урданың
уренскии
урицкии
урман
урманнар
урманче
урманы
урнар
урнаша
урнашалар
урнашкан
урнаштыра
урнаштыру
урнаштырыла
урнаштырылган
урнашу
урнашуы
урожаи
урта
уртак
урталарында
уртасына
уртасында
уртасыннан
уртача
уругваи
урын
урынбасары
урынга
урынган
урында
урындагы
урындан
урынлы
урыннан
урыннар
урыннарда
урыннары
урыннарында
урынны
урынның
урыны
урынын
урынына
урынында
урыныннан
урыс
урыслар
урысча
уса
усман
усманов
успенка
успенскии
успенское
устецк
устрои
усть
устье
устьянскии
ут
утары
утка
утлары
утравы
утравында
утравының
утрау
утрауда
утраулар
утраулары
утрауларында
уты
утыз
утыра
утырган
утырту
утырып
утырырга
утырышында
уфа
уфага
уфада
уфадагы
уфаның
уфимскии
уч
учалинскии
учалы
участогы
участок
уче
учеб
учебник
учебное
училище
училищесы
училищесын
училищесына
училищесында
учреждениесе
ушак
ушаково
ушацкии
уэда
уэска
уң
уңаеннан
уңаи
уңда
уңыш
уңышка
уңышлары
уңышлы
уңышсыз
ф
фа
фабрика
фабрикасы
фаи
факт
фактлар
фактория
факультет
факультеты
факультетын
факультетына
факультетында
факультетының
фаларын
фамилия
фамилияләр
фамилиясе
фантастик
фараз
фарсы
фару
фасын
фасына
фасында
фат
фатежскии
фатиры
фатих
фатлана
фатлы
фаты
фатыи
фатын
фатында
фашист
фе
фебруар
фев
феврале
февралендә
февраленнән
февраленә
февраль
февральдә
февраля
федераль
федеральнои
федератив
федерации
федерация
федерациясе
федерациясенең
федор
федоровка
феи
феодализма
ферзиковскии
фермер
фестивале
фестивалендә
фестиваль
фестивальләр
фи
фигуралы
фигыль
фидакарь
фиджи
физигы
физик
физика
физикасы
физиология
физическая
физкультура
фикер
фикере
фикеренчә
фикерләр
фил
филармониясе
филиал
филиалы
филипин
филипп
филология
филологиясе
философия
фильм
фильмда
фильмнар
фильмнары
фильмның
фильмография
фильмы
фильмында
фин
финал
финалда
финанс
финансов
финистер
финляндия
фирка
фиркасе
фиркасенең
фировскии
флаг
флагы
флора
флорида
флоты
фоат
фольклор
фольклорчы
фольклоры
фоминскии
фон
фонд
фонды
фондының
форарльберг
форма
формада
формалары
формалаша
формалашкан
формаль
формасы
формасын
формасында
формасындагы
формула
форт
фортепиано
фото
фотографическии
фр
франк
франц
франции
франция
франциядә
франциядәге
франциянең
француз
фрегезия
фрегезияләре
фреи
фридрих
фриули
фролово
фронт
фронтка
фронтларында
фронтның
фронтта
фронты
фронтында
фронтының
фрунзе
фс
фуллин
фундаменталь
функциональ
функция
функцияләр
функциясе
фурмановскии
фут
футбол
футболчы
футболчысы
фь
фәи
фәкать
фәлсәфи
фәлсәфә
фәлсәфәсе
фәлсәфәче
фәлсәфәчеләре
фәлсәфәчесе
фән
фәнгә
фәне
фәнис
фәнни
фәннәр
фәннәре
фәридә
фәрит
фәрһад
фәхретдин
фәхретдинов
х
ха
хабаровскии
хаи
хакас
хакасия
хакиме
хакимият
хакимияте
хакимиятен
хакимиятенең
хакимияткә
хакимлек
хакы
хакыи
хакында
халиков
халкы
халкын
халкына
халкының
халык
халыкара
халыкка
халыклар
халыкларның
халыклары
халыкларының
халыкны
халыкның
халыкта
халқының
халәт
халәте
хан
ханлыгы
ханнары
ханның
ханов
ханскии
хант
ханты
хануман
ханы
ханым
характерлана
характерлы
харгита
харис
харисов
харитасындагы
харьков
харьюмаа
хас
хасанов
хасил
хасково
хастаханәсе
хастаханәсендә
хат
хатлар
хаты
хатыи
хатын
хатыннар
хатыны
хаутен
хафиз
хач
хачмаз
хаэн
хаҗи
хвои
хезмәт
хезмәте
хезмәтен
хезмәтендә
хезмәтенең
хезмәтенә
хезмәткә
хезмәткәр
хезмәткәре
хезмәткәрләр
хезмәткәрләре
хезмәтләр
хезмәтләре
хезмәтләрен
хезмәттә
хезмәттәшлек
хеи
хелин
хи
хии
хикәя
хикәяләр
хикәяләре
хикәясе
химигы
химик
химия
химиясе
хирург
хирургик
хирургия
хисабына
хисап
хмао
хмелевка
ходае
ходаи
хозяи
хои
хоккеи
хокук
хокуклары
хокукларын
хокуклы
хокукы
хокукыи
хокукын
холм
холмогорскии
холмскии
хольт
хопер
хор
хорватия
хореография
хосусыи
христиан
христианлык
христианнар
хроник
хрустальныи
хуан
художник
хунедоара
хуплыи
хутор
хуш
хуҗа
хуҗалары
хуҗалыгы
хуҗалыгын
хуҗалыгында
хуҗалыгының
хуҗалык
хуҗалыклар
хуҗалыкта
хуҗасы
хх
хәбибуллин
хәбәр
хәбәрләр
хәбәрләре
хәбәрчесе
хәзер
хәзерге
хәзинә
хәзрәт
хәи
хәким
хәкимов
хәл
хәлакъ
хәлдә
хәле
хәлил
хәлиткеч
хәлләр
хәмзин
хәмзә
хәмидуллин
хәмит
хәрби
хәреф
хәрефе
хәрефләр
хәрефләре
хәрәкәт
хәрәкәте
хәрәкәтен
хәрәкәтенең
хәрәкәтләр
хәрәкәтләре
хәсән
хәсәнов
хәтер
хәтле
хәтта
хәттә
хөкем
хөкеме
хөкүмәт
хөкүмәте
хөкүмәтенең
хөрмәт
хөрмәтенә
хөрмәтле
хөсәен
хөсәенов
ц
цария
цев
цево
целинныи
целинскии
центр
центральныи
циклоннар
циклы
цирк
цифрлар
цифровои
цона
цы
ч
ча
чабаксар
чавускии
чага
чагыла
чагылган
чагылдыра
чагылыш
чагылышы
чагында
чагыштырганда
чагыштырма
чагыштырмача
чагыштыру
чаи
чак
чаклы
чакмагыш
чакрым
чакта
чакыра
чакыралар
чакыру
чакыруы
чакырыла
чакырылган
чакырылыш
чаллы
чаллыда
чаллының
чамасы
чан
чанаккале
чандыр
чанкая
чанкыры
чара
чаралар
чаралары
чараларын
чараларында
чарасы
чарльз
чаршамба
часть
чачэрскии
чашницкии
чаңгы
че
чебоксары
чегәннәр
челны
человек
человека
челтәр
челтәре
челтәркатлау
челтәркатлауның
челябинск
челябинская
чемпион
чемпионатларының
чемпионаты
чемпионатында
чемпионатының
чемпионнары
чемпионы
чепецк
чепецкии
чере
черкесия
чернскии
чернушка
черных
чернышковскии
черняховскии
чертковскии
чесе
чех
чехии
чехия
чехиянең
чехов
чеховскии
чехословакия
чечен
чечня
чиге
чигендә
чигеннән
чигенә
чигә
чик
чикләнгән
чикләре
чикләрен
чикләрендә
чиксез
чиктә
чиктәш
чиктәшлек
чили
чиләбе
чимал
чинар
чинмои
чир
чиратта
чираттагы
чиратында
чире
чиркәве
чиркәвенең
чиркәү
чирмеш
чирмешләр
чирмешән
чирнең
численности
численность
чиста
чистаи
чистарту
чит
чита
читкә
читтә
читтән
чишминскии
чишмә
чишмәсе
чишү
чк
чкаловскии
чокыр
чокыры
чолгап
чор
чорга
чорда
чорларына
чорум
чоры
чорына
чорында
чорының
что
чты
чуаш
чуашлар
чуашстан
чуашстанның
чуваш
чувашия
чувашскои
чувашстат
чуел
чуи
чукотка
чулман
чулпан
чулым
чулымдан
чумыш
чутаи
чы
чыга
чыгалар
чыганагы
чыганак
чыганаклар
чыганакларда
чыганаклары
чыгара
чыгаралар
чыгарга
чыгарган
чыгарды
чыгару
чыгаручы
чыгарыла
чыгарылган
чыгарылыш
чыгарылышы
чыгарып
чыгарырга
чыгу
чыгучы
чыгуы
чыгып
чыгыш
чыгышлар
чыгышлары
чыгышлы
чыгышы
чыккан
чыккач
чыкмыи
чыкты
чын
чынлы
чынлыкта
чыннан
чыршы
чыңгыз
чэрвеньскии
чүпрәле
чүпче
чәи
чәч
чәчкаб
чәчәге
чәчәк
чәчәкләр
чөнки
ш
шабалино
шаблон
шагыи
шаи
шакир
шакиров
шакирова
шакти
шактизм
шактыи
шамил
шанлыурфа
шапель
шар
шаран
шаранскии
шаранта
шаркавшчынскии
шаркышла
шарль
шарт
шартлар
шартларда
шартлары
шартларында
шартлау
шартлы
шато
шатурскии
шахмат
шаховскои
шахунья
шашка
шаһ
шаһинбеи
швед
швеи
швеция
ше
шевченко
шеи
шекспир
шелте
шенкурскии
шер
шеш
шешү
шива
шивага
шиваизм
шиваның
шигъри
шигърият
шигыи
шигыре
шигырь
шигырьләр
шигырьләре
шигырьләрен
шие
шик
шикелле
шикәр
шилово
шиловскии
шиманскии
ширкәт
ширкәте
ширкәтләре
ших
шишкино
шиһабетдин
шкловскии
школа
школы
шлезвиг
шнавизм
шолоховскии
шор
шотландия
шоу
шри
штаб
штабы
штат
штатлары
штатларында
штатларының
штаты
штатына
штатында
штирия
шуи
шул
шулаи
шулар
шулардан
шуларның
шулкадәр
шумади
шумеи
шумен
шумилинскии
шунда
шундыи
шунлыктан
шуннан
шуны
шуның
шура
шурасы
шурасының
шушы
шуңа
шчучынскии
шырнак
шүрәле
шә
шәех
шәехзадә
шәи
шәл
шәригать
шәрипов
шәриф
шәрык
шәрәфле
шәфкать
шәхес
шәхесләр
шәхесләре
шәхесләртөркем
шәхси
шәхсән
шәүкәт
шәһит
шәһри
шәһәр
шәһәргә
шәһәрдә
шәһәрдән
шәһәре
шәһәрен
шәһәрендә
шәһәрендәге
шәһәренең
шәһәреннән
шәһәренә
шәһәрләр
шәһәрләрдә
шәһәрләре
шәһәрләрендә
шәһәрне
шәһәрнең
шәһәрчеге
шәһәрчек
шәһәрчекләре
шөгыльләнгән
шөгыльләнә
щ
ще
щигровскии
ъ
ы
ыгдыр
ыгевамаа
ык
ын
ына
ында
ынчы
ының
ыругы
ыруы
ырынбур
ырынбурда
ыспарта
ысул
ысуллар
ысуллары
ысулларын
ысулы
ысулын
ышану
ышаныла
ышанычлы
ь
ьюбие
э
эволюция
эгеи
эдвард
эдирне
эдуард
эзлеклелек
эзләнү
эзләп
эзләре
эзләү
эи
эквадор
экз
экологик
экология
экспедиция
экспедициясе
эксперименталь
эксперт
экспонатлар
эл
элазыг
элеанор
элегрәк
элек
элекке
элеккеге
электр
электрик
электромагнит
электрон
электроника
электән
элемент
элементар
элементлар
элементларны
элементлары
элементы
элемтә
элемтәләр
элита
эль
эльмира
эльст
эләгә
эләккән
эмилия
эмиль
эн
эна
эндатэ
эндр
энергетик
энергетика
энергия
энергиясе
энесе
энциклопедии
энциклопедик
энциклопедическии
энциклопедических
энциклопедия
энциклопедиясе
энциклопедиясендә
энциклопедиясенең
энциклопедиясы
энциклопедияһы
энцыклапедыя
энҗе
эпик
эпителии
эр
эрага
эраның
эрбет
эре
эрегли
эрзинҗан
эрзурум
эрик
эро
эскишеһир
эссе
эссонна
эстон
эстонии
эстония
эстониянең
эстрада
эт
этимология
этник
этнограф
этнографик
этнографическое
этнография
это
этои
этәргеч
эффекты
эч
эчендә
эчендәге
эченә
эчке
эчкә
эчтәлеге
эчтәлек
эчтән
эчәк
эчәргә
эш
эше
эшен
эшендә
эшенә
эшкә
эшкәрткеч
эшкәртү
эшлекле
эшлеклеләре
эшлеклесе
эшли
эшлиләр
эшләвен
эшләгән
эшләгәндә
эшләде
эшләнгән
эшләнә
эшләп
эшләр
эшләргә
эшләре
эшләрен
эшләрендә
эшләү
эшләүче
эшмәкәр
эшмәкәре
эшмәкәрлеге
эшне
эштә
эштән
эшче
эшчеләр
эшчеләре
эшчәнлеге
эшчәнлеген
эшчәнлегендә
эшчәнлегенең
эшчәнлегенә
эшчәнлек
ю
юан
юбилеи
югала
югалган
югалта
югалткан
югалту
юган
югары
югарыда
югарырак
югославия
югра
юдино
южная
южно
южныи
юзеев
юити
юк
юка
юкка
юл
юлаев
юлга
юлда
юлдаш
юлия
юллар
юллары
юлларын
юлны
юлы
юлын
юлына
юлында
юлының
юнан
юнеско
юникодта
юнусемре
юныс
юнәлгән
юнәлеш
юнәлеше
юнәлешендә
юнәлешләре
юнәлештә
юнәлтелгән
юпитер
юра
юрамасы
юрегир
юридик
юрии
юрино
юрист
юристы
юрт
юрьев
юрьевецкии
юрьево
юрья
юстиция
юта
ютазы
юхновскии
я
ябланич
ябык
ябыла
ябылган
ява
явада
явыз
явым
яга
ягулык
ягъни
ягъфәров
ягы
ягына
ягында
ягыннан
ядернә
яз
яза
язарга
язган
язгы
язма
язмалар
язмалары
язмасы
язмыш
язмышы
язу
язучы
язучылар
язучылары
язучының
язучысы
язуы
язык
языка
языке
языки
языла
язылган
язында
язып
яи
яисә
як
яки
якка
яклаган
яклап
яклары
яклау
яклаучы
яклаучысы
яклы
яклыи
якны
якның
яков
яковлев
яковлевка
яковлево
якта
яктагы
яктан
якты
яктылык
якуп
якупов
якут
якутия
якутск
якшәмбе
якын
якындагы
якынрак
якынча
ял
ялга
ялган
ялгыз
ялгыш
ялкын
ялкынсыну
ялкынсынуы
яломица
ям
ямал
яман
ямашев
ямбол
ян
яна
янаульскии
января
янгын
янучы
яны
янына
янында
янындагы
янып
янә
янәдән
янәшә
япон
японии
япония
япониядә
япониянең
яр
яраклы
яралана
ярамыи
яранскии
ярата
яраткан
яратып
ярашлы
яраң
ярвамаа
ярдәм
ярдәме
ярдәмендә
ярдәмче
ярдәмчесе
ярлары
ярлы
ярмәкәи
ярослав
ярославль
ярославская
ярославскии
ярты
яртысы
яртысында
яртысыннан
яруллин
яры
ярыи
ярым
ярымсакчы
ярымутравы
ярымутравының
ярына
ярында
ярыннан
ярыш
ярышлар
ярышларда
ярышлары
ярышларында
ясаган
ясады
ясак
ясала
ясалган
ясалма
ясалу
ясап
ясарга
ясау
ясаучы
ясмык
ясная
ясногорскии
ясси
яссы
ясыи
ята
ятим
яткан
яу
яулаган
яулады
яулап
яулыи
яфраклары
яфраклы
ях
яха
яхин
яхшы
яхшырак
яхшырту
яше
яшел
яшелчә
яшен
яшендә
яшеннән
яшерен
яши
яшиләр
яшнәүләр
яшь
яшькә
яшьлек
яшьләр
яшьләре
яшьтә
яшьтәге
яшьтән
яшүсмер
яшүсмерләр
яшәве
яшәгән
яшәгәннәр
яшәп
яшәргә
яшәү
яшәүче
яшәүчеләр
яңа
яңавыл
яңадан
яңалыклар
яңарыш
яңгыр
яңгырыи
яһүд
ђурић
і
інш
језик
језички
љубоја
ғ
җ
җавап
җаваплы
җаек
җаи
җамбыл
җан
җанда
җанисәбен
җанисәп
җанның
җеи
җенес
җенси
җентекләп
җепшек
җибәргән
җибәрелгән
җибәрелә
җибәрү
җибәрә
җибәрәләр
җиде
җидееллык
җиденче
җил
җилле
җилләр
җилләрне
җилнең
җиләк
җимерелгән
җимерелә
җимеш
җимешләре
җинаять
җир
җиргә
җирдә
җирдән
җире
җирендә
җиренә
җирле
җирлеге
җирлегендә
җирлегенә
җирлекләре
җирләнгән
җирләнә
җирләр
җирләргә
җирләрдә
җирләре
җирләрен
җирләрендә
җирләренә
җирләрне
җирне
җирнең
җисем
җисеме
җисемнең
җисемнәр
җитди
җитен
җитештерелгән
җитештерелә
җитештерү
җитештерүне
җитештерүче
җитештерә
җиткән
җитми
җитә
җитәкли
җитәкләгән
җитәкче
җитәкчелеге
җитәкчелегендә
җитәкчелегендәге
җитәкчелек
җитәкчеләре
җитәкчесе
җитәрлек
җиңгән
җиңде
җиңел
җиңеләи
җиңеп
җиңү
җиңүгә
җиңүче
җиңүчесе
җиңә
җиһазлар
җиһазлары
җиһанов
җиһаншин
җомга
җулия
җчҗ
җыела
җыелган
җыелма
җыелмасы
җыелышы
җыентыгы
җыентык
җыентыклары
җыены
җыеп
җыи
җылаер
җылы
җылылык
җыр
җырлап
җырлар
җырлары
җырларын
җырлау
җырлыи
җырчы
җырчылар
җырчылары
җырчысы
җыры
җырын
җыю
җыючы
җыя
җәбраел
җәен
җәендә
җәза
җәи
җәлеп
җәлил
җәлилабад
җәмгыяви
җәмгыяте
җәмгыятен
җәмгыятендә
җәмгыятендәсписок
җәмгыятенең
җәмгыятенә
җәмгыять
җәмгыятьләре
җәмгыятьнең
җәмигъ
җәмәгате
җәмәгать
җәмәгатьчелек
җәрәхәт
җәфа
җәяүле
җәүдәт
җөи
җөмһүри
җөмһүрият
җөмһүрияте
җөмһүриятенең
җөп
қазақ
қазақстан
қорытындылары
ң
ү
үги
үз
үзара
үзбәк
үзбәкстан
үзбәкстанның
үзгәреш
үзгәреше
үзгәрешләр
үзгәртелгән
үзгәртелә
үзгәртеп
үзгәртү
үзгәртүләр
үзгәртә
үзгәрүчән
үзгәрә
үзе
үзен
үзендә
үзенең
үзеннән
үзенчәлеге
үзенчәлекле
үзенчәлекләр
үзенчәлекләре
үзенчәлекләрен
үзенә
үзешчән
үзеңне
үзидарә
үзләре
үзләрен
үзләренең
үзләренә
үзләштерү
үзләштерә
үзәге
үзәген
үзәгендә
үзәгенең
үзәгеннән
үзәгенә
үзәк
үзәкләре
үзәктә
үзән
үзәне
үк
үлгән
үлгәннән
үле
үлем
үлеме
үлеменнән
үлеп
үлсәү
үлчәү
үлә
үлән
үпкә
үрнәге
үрнәк
үрнәкләре
үрчетү
үсемлек
үсемлекләр
үсемлекләрнең
үсеп
үсеш
үсеше
үсешен
үсешенә
үскән
үстерелә
үстерү
үстерүгә
үстерүдә
үстерә
үстерәләр
үсүче
үсә
үт
үтенече
үтеп
үтерелгән
үтерелә
үтерү
үтерә
үти
үткенлеге
үткән
үткәргән
үткәрелгән
үткәрелә
үткәрергә
үткәрү
үткәрә
үткәрәләр
үткәч
үтте
үтү
үтә
үтәгән
үтәргә
үтәү
үч
ұлттық
һ
һава
һавада
һавасы
һавза
һади
һаи
һалылые
һаман
һан
һарран
һатаи
һидрологик
һинд
һиндле
һиндстан
һиндстанга
һиндстанда
һиндстаннан
һиндстанның
һинду
һиндулар
һоккеи
һәвәскәр
һәи
һәлак
һәм
һәр
һәрбер
һәрберсе
һәрвакыт
һәркаи
һө
һөнәр
һөнәре
һөнәри
һөнәрләре
һөҗүм
һөҗүме
һөҗүмче
ә
әби
әбисе
әбу
әбҗәлил
әбү
әверелгән
әверелә
әгерҗе
әгъза
әгъзалары
әгъзалык
әгъзасы
әгәр
әдип
әдәби
әдәбият
әдәбиятта
әдәбияты
әдәбиятын
әдәбиятында
әдәбиятының
әз
әзер
әзербаи
әзерлек
әзерли
әзерләгән
әзерләнгән
әзерләнә
әзерләү
әзерләүдә
әи
әкият
әкиятләр
әкрен
әкренләп
әл
әлбәттә
әле
әлеге
әлегә
әлек
әлифба
әлифбасы
әлифбасында
әлифбасының
әлки
әллә
әлмәт
әлфия
әлшәи
әм
әмин
әминә
әмир
әмирхан
әмма
әммә
әмәт
әнвәр
әни
әнисе
әнәс
әр
әрмән
әрмәннәр
әрмәнстан
әсгать
әсир
әсирлеккә
әстерхан
әсәр
әсәре
әсәрен
әсәрләр
әсәрләре
әсәрләрен
әсәрләрендә
әсәрләренең
әти
әтисе
әтисенең
әтнә
әфганстан
әфәнде
әхлак
әхлакыи
әхмәд
әхмәт
әхмәтзәки
әхмәтов
әхмәтшин
әхмәтҗанов
әхәт
әче
әчинск
әңгәмә
әүвәл
әһеле
әһелләре
әһәмияте
әһәмиятендәге
әһәмияткә
әһәмиятле
ө
өз
өздән
өзе
өзеп
өзлегүләр
өзлексез
өзнең
өзү
өзә
өи
өк
өлгерә
өлеш
өлеше
өлешен
өлешендә
өлешенең
өлешеннән
өлешенә
өлешкә
өлешләре
өлешләрендә
өлештән
өлешчә
өлкә
өлкәдә
өлкәләр
өлкәләрдә
өлкәләре
өлкәләрендә
өлкән
өлкәнең
өлкәннәр
өлкәсе
өлкәсендә
өлкәсендәге
өлкәсенең
өлкәсенә
өмет
өргән
өреп
өрергә
өреше
өри
өртелгән
өртелә
өрткән
өртү
өртүче
өртә
өртәләр
өрҗем
өрү
өрүче
өрәк
өске
өскә
өслеге
өслегендә
өслегенә
өслекнең
өсте
өстен
өстендә
өстендәге
өстенлек
өстеннән
өстенә
өстә
өстәвенә
өстәл
өстәлгән
өстәлә
өстәмә
өстәп
өстәрәк
өфө
өч
өчен
өченче
өчтән
өяз
өязе
өязендә
өязенең
өязенә
،
ا
ب
ة
ت
ج
ح
خ
د
ذ
ر
ز
س
ش
ص
ع
ف
ق
ك
ل
م
ن
ه
و
ى
ي
ً
ٌ
ٍ
َ
ُ
ِ
ّ
ْ
ٓ
ٔ
ٕ
ٰ
ं
ः
क
ग
च
ज
ट
ण
त
थ
द
ध
न
प
ब
भ
म
य
र
ल
व
श
ष
स
ह
ा
ि
ी
ु
ू
ृ
े
ै
ो
ौ
्
ॐ
।
॥
র
া
ি
ে
্
க
ச
ட
த
ப
ம
ய
ர
ல
வ
ா
ி
ு
ே
ை
்
ം
ക
ി
്
่
་
រ
ា
្
ᴋ
ᴍ
ᴎ
ᴙ
ᴛ
ᴦ
ᴨ
ᴫе
​
‌
‍
‎
‏
‑
–
—
―
‘
’
“
”
„
†
•
…
′
″
›
№
↑
→
↓
↔
↷
−
≈
③
④
⑦
─
█
▪
☸
♀
⺀
⺄
⺆
⺈
⺊
⺌
⺕
⺝
⺸
⺼
⿰
⿱
⿲
⿳
⿴
⿵
⿶
⿷
⿸
⿹
⿺
⿻
。
〢
の
゙
ア
イ
コ
フ
ユ
ン
ー
㇁
㇂
㇄
㇇
㇈
㇉
㇓
㐁
㐄
㐅
㐌
㐫
㐬
㐭
㐮
㐱
㑒
㒵
㒸
㒼
㓁
㓞
㔾
㕛
㕣
㖾
㘝
㚅
㚇
㚔
㚘
㝉
㝡
㝴
㝵
㞋
㞢
㞷
㠩
㠭
㠯
㡀
㡭
㡿
㢲
㢴
㣇
㣺
㥯
㪅
㫄
㫐
㫒
㫺
㬅
㬎
㬥
㬰
㲋
㳄
㷠
㸒
㸚
㸦
㼌
㼲
㽞
㿟
䀠
䂞
䍃
䏍
䒑
䖍
䖒
䖝
䖵
䙴
䚻
䜌
䝿
䡛
䧹
䪞
一
丁
丂
七
丄
丅
丆
万
丈
三
上
下
丌
不
与
丏
丐
丑
专
且
丕
世
丘
丙
业
东
丞
丢
丣
两
严
並
丨
丩
个
丫
丬
中
丮
丰
丱
串
丵
丶
丷
丸
丹
为
主
丽
丿
乀
乂
乃
久
乆
乇
么
义
之
乌
乍
乎
乏
乐
乑
乔
乖
乗
乘
乙
乚
乛
乜
九
乞
也
习
乡
乳
乾
亀
亅
了
亇
予
争
事
二
亍
于
亏
亐
云
互
亓
五
井
亘
亚
亜
亞
亟
亠
亡
亢
交
亥
亦
产
亨
亩
享
京
亭
亮
亯
亰
亲
亳
亶
亷
人
亻
亼
亾
仁
今
介
仌
从
仐
仑
仒
仓
仕
他
付
仝
代
令
以
任
企
伊
伏
伐
休
会
伯
但
位
佐
何
佘
余
作
佥
使
來
侈
侌
侖
侯
侵
便
保
俞
信
修
倉
倍
候
倠
備
僉
僕
儿
兀
允
兂
元
兄
充
兆
兇
先
光
兊
克
兌
免
兑
兒
兓
兔
党
兜
兟
入
全
兩
兪
八
公
六
兮
兰
共
关
兵
其
具
典
兹
兼
冀
冂
冃
冄
内
冈
冉
冊
冋
册
再
冎
冏
冐
冒
冓
冖
冗
冘
军
农
冝
冡
冥
冫
冬
冷
几
凡
凢
凵
凶
凷
凸
凹
出
函
凾
刀
刁
刂
刃
刄
刅
分
切
刍
刑
刕
刖
列
刘
则
初
別
利
别
到
制
刺
則
削
剌
前
剡
剽
劉
力
功
加
劦
助
劫
劳
劵
勃
勇
勉
勒
動
務
勞
勤
勹
勺
勻
勾
勿
匀
匂
包
匆
匈
匊
匋
匍
匕
化
北
匚
匝
匡
匪
匱
匸
匹
区
医
匽
匿
區
十
卂
千
卄
卅
卆
升
午
卉
半
卌
华
卑
卒
卓
单
卖
南
卜
卝
卞
占
卡
卢
卣
卤
卦
卩
卪
卬
卯
印
危
即
却
卵
卷
卸
卻
厂
厃
厄
历
厈
厉
厌
厓
厘
厚
原
厤
厥
厨
厭
厲
厶
厷
厸
去
厼
厽
叀
参
參
叅
又
叉
及
友
双
反
叐
发
叒
叔
叕
取
受
叚
叜
叟
口
古
句
另
叩
只
召
可
台
叱
史
右
叵
号
司
叹
吂
各
吅
合
吉
吊
吋
同
名
后
吏
向
吕
君
吝
吞
否
含
启
吳
吴
吹
吾
呂
呆
呈
告
员
呙
周
命
咅
和
咎
咠
咢
咨
咸
咼
哀
品
哉
員
哥
哲
唐
商
啇
問
啚
啬
啻
善
喜
喬
單
喿
嗇
噩
嚴
囊
囗
囘
囙
囚
四
回
囟
因
囧
囬
困
囱
囷
固
国
圂
圅
國
圍
圓
土
圡
圣
圥
在
圭
地
圶
圼
坐
坒
坚
坴
垂
垔
垚
埀
埋
埶
執
基
堂
堅
堆
堇
堯
塞
墨
壘
士
壬
壯
声
壳
壴
壹
壺
壽
夂
处
夅
夆
备
夊
夋
夌
复
夏
夒
夕
外
夗
夘
多
夜
夢
大
夨
天
太
夫
夬
夭
央
失
夲
头
夷
夸
夹
夻
夾
奂
奄
奇
奈
奉
奎
奏
奐
契
奓
奔
奚
奞
奠
奢
奥
奭
女
奴
奻
好
如
妄
妙
妟
妥
妻
妾
姑
委
姜
威
娄
婁
婴
嬰
嬴
子
孑
孔
孕
孖
字
存
孚
孛
孝
孟
季
孤
学
孫
孱
學
宀
宁
宂
它
宅
宇
守
安
宋
完
宏
宓
宗
官
定
宛
宜
宝
客
宣
室
宮
宰
害
家
容
宾
宿
寄
寅
密
富
寒
察
寧
審
寫
寬
寮
寸
对
寺
寻
寽
対
寿
封
尃
射
将
將
專
尉
尊
尋
尌
對
小
少
尒
尓
尔
尖
尗
尚
尞
尢
尣
尤
尧
尨
尭
就
尸
尹
尺
尻
尼
尽
尾
尿
局
居
屈
屋
屎
屏
屑
展
屖
屚
属
屠
屡
屬
屮
屯
屰
山
屵
屾
岁
岂
岑
岡
岩
岳
岸
峯
島
崇
崑
崔
崖
崙
崩
嵬
嶲
巂
巛
川
州
巟
巠
巢
巤
工
左
巧
巨
巩
巫
差
己
已
巳
巴
巷
巸
巽
巾
巿
帀
市
布
希
帚
帛
帝
带
師
席
帶
常
干
平
年
幵
并
幷
幸
幺
幻
幼
幽
幾
广
広
庄
床
底
店
庚
府
度
庫
庭
庶
康
庸
廉
廌
廛
廣
廩
廴
延
廷
建
廾
廿
开
弁
弃
弄
弇
弋
式
弓
弔
引
弗
弘
弜
弟
弥
弦
弱
張
強
强
彊
彌
彎
彐
彑
当
彔
录
彖
彗
彡
形
彥
彦
彧
彭
彳
役
彼
往
待
律
徒
得
徙
從
復
微
徵
心
忄
必
忌
忍
志
忝
忠
忩
快
念
忽
忿
思
怠
急
怱
恆
恒
恩
恭
息
悉
患
悤
悲
悶
惠
惡
惢
愁
愈
意
愛
感
慈
慧
慮
憂
憲
應
戀
戈
戉
戊
戋
戌
戍
戎
成
我
戒
戔
或
戚
戠
戢
截
戲
戶
户
戹
戼
戾
房
所
扁
扇
手
扌
才
打
托
执
承
折
拉
拜
拿
掌
推
提
摩
支
攴
攵
收
攸
改
放
政
敄
敏
敕
敖
敗
敝
敞
敢
散
敦
敫
敬
数
敷
數
斂
文
斉
斊
斗
斤
斥
斩
斬
斯
新
方
於
施
斿
旁
旋
族
无
旡
既
旣
日
旦
旧
旨
早
旬
旱
旲
时
旾
昆
昇
昌
昍
明
昏
易
昔
昗
昜
星
春
昬
是
昱
昴
昷
時
晃
晋
晏
普
景
晶
智
暑
暴
曇
曩
曰
曲
曳
更
曷
書
曹
曼
曾
替
最
朁
會
月
有
朋
服
朔
朕
朗
望
朝
木
朩
未
末
本
札
朮
术
朱
朵
朶
朿
杀
杏
杜
束
条
来
東
杲
杳
松
析
林
枚
果
枝
枲
枼
某
柔
查
柬
柰
柴
栗
桀
桑
桼
梁
條
梟
梨
棘
棠
棥
森
楚
業
楽
榮
樂
樊
欠
次
欣
欮
欲
欶
欽
款
歆
歇
歛
止
正
此
步
武
歨
歪
歮
歯
歰
歲
歴
歷
歸
歹
歺
死
殳
段
殷
殸
殹
殺
殻
殿
毋
毌
母
每
毒
比
毕
毚
毛
毳
氏
氐
民
气
氣
水
氵
氶
氷
永
氺
氾
求
汝
汞
江
沃
沓
沙
沝
泉
法
波
泣
泥
泰
洛
洪
活
派
流
浦
浪
浮
淡
淮
清
渚
渠
湯
滿
漸
火
灬
灭
灰
灵
灷
炅
炎
炏
炗
炙
炭
為
烈
烏
烝
焉
無
焦
焱
然
煞
熊
熏
燕
營
燮
爪
爫
爭
爯
爰
爱
爲
爵
父
爻
爽
爾
爿
片
牙
牚
牛
牜
牟
牢
牧
牪
牽
犀
犬
犭
犮
狂
狄
狊
独
狺
猋
猒
猪
献
獻
玄
率
玉
王
玟
玨
珎
班
琴
瑟
瑩
瓜
瓦
甘
甚
生
産
用
甫
甬
田
由
甲
申
电
甶
男
甸
甹
画
甾
畀
界
畏
畐
留
畜
畟
畢
畧
畨
番
畫
異
畱
當
畺
畾
疊
疋
疌
疑
疒
疾
癶
癸
癹
登
發
白
百
皀
皃
的
皆
皇
皋
皐
皕
皮
皷
皿
盃
盆
盇
盈
益
盍
盎
监
盒
盖
盛
盡
監
盤
盧
目
直
相
盾
省
眇
眉
看
眔
眞
真
眷
眼
眾
着
睘
睪
睿
瞏
瞢
瞿
矍
矛
矞
矢
矣
知
矦
短
石
破
碎
磊
磨
示
礻
礼
祟
票
祭
禀
禁
禸
禹
禺
离
禽
禾
禿
秀
秃
秉
秋
科
秝
秦
移
稟
穀
穌
穴
究
穹
空
穿
突
窄
窒
窟
立
竒
竜
竝
竟
章
童
竹
笑
笠
第
筆
等
答
箕
算
箴
節
篤
篭
米
粉
粛
粟
粤
粦
粲
糞
糸
糹
系
約
納
素
索
紫
累
細
絜
絫
絲
維
綿
縣
繇
纍
纟
缶
网
罒
罔
罕
罗
罙
罡
罢
罪
署
罷
羅
羊
羌
羍
美
羔
羕
羗
羞
羡
羣
群
義
羲
羸
羽
翁
翏
習
翕
翟
翠
翼
老
耂
考
者
耆
而
耎
耑
耒
耳
耴
耶
耷
聂
聊
聖
聚
聶
聿
肀
肃
肅
肉
肖
肙
肥
肩
肯
育
肴
胃
背
胡
胥
能
脊
脩
膚
臣
臤
臧
自
臬
臭
臯
臱
至
致
臺
臼
臽
臾
臿
舀
舂
舄
與
興
舉
舌
舍
舛
舜
舞
舟
般
艮
良
色
艸
艹
艾
芒
芔
芬
芮
花
芳
芺
芻
苔
苗
苟
若
苦
英
茶
茸
荅
草
荒
荣
荼
莆
莧
莫
莽
菆
菊
菐
華
萬
落
葉
著
葛
董
葵
蒙
蒦
蒼
蓋
蓬
蓺
蔑
蔡
蕉
蕭
薄
薛
薦
薰
藍
藏
藤
藥
蘭
虍
虎
虐
虒
虔
處
虖
虗
虘
虚
虛
虜
虞
虫
虽
蚤
蚩
蜀
蜜
蟲
蠡
血
行
衍
衛
衣
衤
表
衮
衰
袁
袞
裕
褭
褱
襄
襾
西
覀
要
覃
見
規
覓
覧
親
覽
见
角
解
言
訁
訇
計
詹
語
誩
諸
讠
谷
豆
豈
豊
豐
豕
豖
豙
象
豦
豩
豪
豸
貇
貝
貞
貟
負
貢
貧
貪
貫
責
貳
貴
買
費
賁
資
賈
賏
賓
賔
賛
賞
賢
賣
質
賴
贊
贝
贡
责
贯
贲
贵
赖
赞
赤
赦
走
越
足
路
蹇
身
躬
車
軍
軎
軟
輦
车
辛
辜
辟
辥
辰
辱
農
辵
辶
边
达
过
近
连
迷
追
退
送
逆
逐
通
速
造
逢
連
逮
進
遀
遂
過
道
達
遣
適
遷
遺
邊
邑
邕
那
邦
邪
郎
部
郭
都
鄉
酉
酋
配
酓
釆
采
里
重
野
量
金
釒
錢
钅
長
镸
长
門
閃
閉
開
閏
閑
閒
間
閔
閵
閻
闌
门
间
闷
阑
阜
阝
阿
降
陳
隆
隊
隋
隡
隨
隱
隶
隹
隺
隻
隼
隽
难
雀
雁
集
雈
雋
雍
雐
雔
雙
雚
雜
雝
離
難
雨
雩
雪
雲
零
雷
需
霍
霜
霝
霞
霸
靈
靑
青
非
靡
面
靣
革
韋
韦
韭
韯
韱
音
頁
頃
項
須
頗
頡
頻
顛
页
風
风
飛
飞
食
飠
養
饣
首
香
馬
馮
駦
马
骨
高
髟
鬥
鬯
鬲
鬼
魚
魯
鮮
鱼
鲁
鳥
鳳
鸟
鹵
鹿
麃
麗
麥
麦
麻
黃
黄
黍
黎
黑
黒
黨
黹
黽
黾
鼎
鼓
鼠
鼻
齊
齋
齐
齒
齿
龍
龙
龜
龟
龠
龰
龱
龴
龵
龶
龷
龸
龹
ꞑ
者
艹
﴾
﴿
ﺎ
ﻪ
，
？
𐬀
𠀁
𠀃
𠀆
𠀉
𠀎
𠀐
𠁁
𠁣
𠂆
𠂇
𠂈
𠂉
𠂊
𠂋
𠂎
𠂒
𠂔
𠂛
𠂡
𠂢
𠂤
𠂬
𠂭
𠂹
𠃊
𠃋
𠃌
𠃍
𠃎
𠃑
𠃓
𠃔
𠃜
𠄌
𠄎
𠄠
𠄢
𠆢
𠆥
𠇍
𠈌
𠌵
𠓜
𠔉
𠔥
𠔼
𠔽
𠔿
𠕀
𠕁
𠕋
𠘧
𠘨
𠙻
𠙼
𠚏
𠚒
𠚤
𠚪
𠣏
𠤎
𠤕
𠥓
𠦄
𠦑
𠦝
𠧒
𠧗
𠧪
𠩺
𠪚
𠫓
𠫔
𠫤
𠬛
𠬝
𠬞
𠬢
𠬤
𠬶
𠮛
𠮦
𠮷
𠯑
𠱠
𠳮
𠷎
𡈼
𡉀
𡉵
𡌥
𡍮
𡏳
𡕒
𡕩
𡕰
𡖅
𡗗
𡗜
𡘆
𡘤
𡧱
𡨄
𡩧
𡬠
𡭽
𡰣
𡰥
𡰪
𡰯
𡰱
𡷈
𡸁
𡿨
𡿩
𡿪
𡿺
𢀖
𢀛
𢀩
𢁙
𢆉
𢆰
𢆶
𢇁
𢇇
𢉖
𢌬
𢌿
𢏚
𢑑
𢑚
𢖻
𢙣
𢛳
𢦏
𢦒
𢧵
𢼄
𢾕
𣁋
𣄼
𣅀
𣅽
𣍘
𣎳
𣎵
𣏋
𣏼
𣗥
𣥂
𣥖
𣦵
𣦼
𣧄
𣪊
𣪠
𣬉
𣳾
𣶒
𤇾
𤊽
𤐫
𤓰
𤔔
𤕨
𤣩
𤰇
𤰔
𤰞
𤴓
𤴔
𤽄
𥁑
𥁕
𥃦
𥃩
𥃭
𥇡
𥑟
𥘅
𥘈
𥝢
𥫗
𥱡
𦈢
𦉪
𦉬
𦉼
𦍌
𦍒
𦎧
𦐇
𦓔
𦔮
𦘒
𦙃
𦚏
𦣝
𦣞
𦣻
𦥑
𦥔
𦥯
𦨉
𦭝
𦰩
𧆞
𧈧
𧘇
𧰨
𧴪
𧴮
𧵩
𧾷
𨸏
𨾴
𩙿
𩠐
𩫏
𩵋
𪉷
𪜀
𪟽
𪠲
𪩲
𫇦
𫔭
𫜸
𫝀
𫠣
𫠩
𫢉
𫥞
𫩏
𫩠
𫪡
𫲽
𫶧
𬀷
𬐘
𬗌
𬙙
𬛸
𬜯
𬟩
𬯁
𬴘
𬺻
𬼉
𬼖
𭀰
𭁈
𭁨
𭅰
𭑈
𭕄
𭗼
𭤨
𭥫
𭻾
𮅕
𮊿
𮍌
𮍏
𮓗
𮥼
𮧮
廾
𰀁
𰀄
𰀈
𰀉
𰀕
𰀠
𰀡
𰀢
𰀪
𰁜
𰃮
𰆊
𰆘
𰋙
𰕎
𰢴
𰧭
𰯲
01--
02--
03--
03010000--
0302010021210--
0302010031210--
0302020011210--
0302020021210--
0302030011210--
0302030021210--
0302030031210--
0303000011210--
0304000011210--
0305010011210--
0305010021210--
0305020011210--
0305030011210--
0305030021210--
0306000011210--
04--
05--
06--
08--
08010300312--
1001010011211--
1001010021211--
1001010091211--
130--
130101003--
130102003--
130104002--
130111002--
138--
140101003--
140105025--
140107001--
150202001--
150203001--
150203003--
150500002--
154--
157--
158--
159--
160--
162--
163--
164--
165--
166--
167--
169--
171--
175--
202--
203--
204--
205--
206--
207--
208--
209--
210--
2100--
211--
212--
213--
214--
215--
216--
217--
218--
219--
220--
221--
222--
223--
224--
225--
226--
227--
228--
229--
230--
231--
232--
233--
234--
235--
236--
237--
238--
239--
240--
241--
242--
243--
244--
245--
246--
247--
248--
249--
250--
251--
252--
253--
254--
255--
256--
257--
258--
259--
260--
261--
262--
263--
264--
265--
266--
267--
268--
269--
270--
271--
272--
273--
274--
275--
276--
277--
278--
279--
280--
281--
282--
283--
284--
285--
286--
287--
288--
289--
290--
291--
292--
293--
294--
295--
296--
297--
298--
299--
300--
301--
302--
303--
304--
305--
306--
307--
308--
309--
310--
311--
312--
313--
314--
315--
316--
317--
318--
319--
320--
321--
322--
323--
324--
325--
326--
327--
328--
329--
330--
331--
332--
333--
334--
335--
336--
337--
338--
339--
340--
341--
342--
343--
344--
345--
346--
347--
348--
349--
350--
351--
352--
353--
354--
355--
356--
357--
358--
359--
360--
361--
362--
363--
364--
365--
366--
367--
368--
369--
370--
371--
372--
373--
374--
375--
376--
377--
378--
379--
380--
381--
382--
383--
384--
385--
386--
387--
388--
389--
390--
391--
392--
393--
394--
395--
396--
397--
398--
399--
400--
401--
402--
403--
404--
405--
406--
407--
408--
409--
410--
411--
412--
413--
414--
415--
416--
417--
418--
419--
420--
421--
422--
423--
424--
425--
426--
427--
428--
429--
430--
431--
432--
433--
434--
435--
436--
437--
438--
439--
440--
441--
442--
443--
444--
445--
446--
447--
448--
449--
450--
451--
452--
453--
454--
455--
456--
457--
458--
459--
460--
461--
462--
463--
464--
465--
466--
467--
468--
469--
470--
471--
472--
473--
474--
475--
476--
477--
478--
479--
480--
481--
482--
483--
484--
486--
487--
488--
489--
490--
491--
492--
493--
494--
495--
496--
497--
498--
499--
500--
501--
502--
503--
504--
505--
506--
507--
508--
509--
510--
511--
512--
513--
514--
515--
516--
517--
518--
519--
520--
521--
522--
523--
524--
525--
526--
527--
528--
529--
530--
531--
532--
533--
534--
535--
536--
537--
538--
539--
540--
541--
542--
543--
544--
545--
546--
547--
548--
549--
550--
551--
552--
553--
554--
555--
556--
557--
558--
559--
560--
561--
562--
563--
564--
565--
566--
567--
568--
569--
570--
571--
572--
573--
574--
575--
576--
577--
578--
579--
580--
581--
582--
583--
584--
585--
586--
587--
589--
590--
591--
592--
593--
594--
596--
597--
598--
599--
600--
601--
602--
603--
604--
605--
606--
607--
608--
609--
610--
611--
612--
614--
615--
616--
617--
618--
619--
620--
621--
622--
623--
624--
625--
626--
627--
628--
629--
630--
631--
632--
633--
634--
635--
636--
637--
638--
639--
640--
641--
642--
643--
644--
645--
646--
647--
648--
649--
650--
651--
652--
653--
654--
655--
656--
657--
658--
659--
660--
661--
662--
663--
664--
665--
666--
667--
668--
669--
670--
671--
672--
673--
674--
675--
676--
677--
678--
679--
680--
681--
684--
685--
686--
688--
689--
690--
691--
692--
693--
694--
695--
696--
697--
699--
700--
701--
702--
703--
704--
705--
706--
707--
708--
709--
710--
711--
712--
713--
714--
715--
716--
717--
718--
719--
720--
721--
722--
723--
724--
725--
726--
727--
728--
729--
730--
731--
732--
733--
734--
735--
736--
737--
738--
739--
740--
741--
742--
743--
744--
745--
746--
747--
748--
749--
750--
751--
752--
753--
755--
756--
757--
758--
759--
760--
762--
763--
764--
765--
766--
767--
768--
769--
770--
771--
772--
773--
774--
775--
776--
777--
778--
779--
780--
781--
782--
783--
784--
785--
786--
787--
788--
789--
790--
791--
792--
793--
794--
795--
796--
798--
799--
800--
801--
802--
803--
804--
805--
806--
807--
808--
809--
810--
811--
812--
813--
814--
815--
816--
817--
818--
819--
820--
821--
822--
823--
825--
826--
827--
828--
829--
830--
831--
832--
833--
834--
835--
836--
837--
838--
839--
840--
841--
842--
843--
844--
846--
847--
848--
849--
850--
851--
852--
853--
854--
855--
856--
857--
858--
859--
860--
861--
862--
863--
864--
865--
866--
867--
868--
869--
870--
871--
872--
873--
874--
875--
876--
877--
878--
879--
880--
881--
882--
883--
884--
885--
886--
887--
888--
889--
890--
891--
892--
893--
894--
895--
896--
897--
898--
899--
900--
901--
902--
903--
904--
905--
906--
907--
908--
909--
910--
911--
912--
913--
914--
915--
916--
917--
918--
919--
920--
921--
922--
923--
924--
925--
926--
927--
928--
930--
931--
932--
933--
934--
935--
936--
937--
938--
939--
940--
941--
942--
943--
944--
945--
946--
947--
948--
949--
950--
951--
952--
953--
954--
955--
956--
957--
958--
959--
960--
961--
962--
963--
964--
965--
966--
967--
969--
970--
971--
972--
973--
974--
975--
976--
977--
978--
979--
980--
981--
982--
983--
984--
985--
986--
987--
988--
989--
990--
991--
992--
993--
994--
995--
996--
997--
998--
999--
ab--
ac--
acad--
ad--
add--
ae--
af--
ag--
ah--
ai--
air--
ak--
al--
ala--
alek--
am--
an--
ang--
ap--
aq--
ar--
art--
as--
asso--
ast--
ası--
at--
au--
austr--
av--
aw--
awı--
ay--
az--
ba--
bal--
bar--
be--
beg--
bel--
ber--
bh--
bi--
bil--
bio--
bl--
bo--
bos--
br--
bu--
buil--
by--
ca--
cal--
car--
cc--
ce--
cele--
celebraci--
cen--
ch--
cha--
che--
chri--
ci--
cir--
cl--
co--
col--
colle--
com--
con--
contri--
coor--
cor--
cr--
cu--
cy--
cı--
d--
da--
date--
de--
demo--
den--
dh--
di--
dig--
dis--
do--
docu--
dr--
du--
dy--
ea--
ec--
econo--
ed--
edu--
ef--
ei--
ek--
el--
elec--
em--
en--
end--
ep--
er--
es--
et--
eu--
euro--
ev--
ex--
exam--
f--
fa--
fe--
fest--
fi--
fiz--
fl--
flo--
fo--
format--
fr--
fran--
fu--
fut--
g--
ga--
ge--
gen--
geo--
get--
glo--
go--
gr--
gu--
h--
ha--
har--
he--
hel--
hi--
ho--
hu--
i--
ia--
ic--
ig--
ik--
il--
im--
in--
inst--
inter--
iqti--
ir--
is--
isem--
it--
j--
ja--
je--
jo--
k--
ka--
ke--
ki--
kilo--
ko--
kom--
kon--
kre--
ku--
l--
la--
lam--
lat--
le--
li--
lifb--
live--
lo--
lou--
lu--
m--
ma--
maha--
man--
maq--
mar--
mc--
me--
mi--
mil--
min--
mis--
ml--
mo--
mon--
mu--
my--
n--
na--
nase--
nc--
nd--
ne--
ng--
ni--
nl--
no--
nu--
o--
obj--
obl--
oc--
od--
of--
omu--
on--
or--
ori--
os--
p--
pa--
para--
pas--
pe--
per--
phi--
pho--
pi--
pl--
po--
poli--
posi--
pra--
pre--
pro--
pu--
publ--
q--
qa--
qay--
qo--
qor--
qu--
quo--
qı--
r--
ra--
re--
ren--
rep--
res--
ri--
ro--
ros--
row--
rt--
ru--
s--
sa--
saq--
sch--
sco--
scri--
se--
sele--
ser--
sh--
si--
sig--
sim--
sl--
so--
sp--
spec--
squ--
st--
stu--
su--
sub--
supp--
swa--
sy--
sı--
t--
ta--
tar--
tat--
te--
tech--
tem--
ter--
texno--
th--
the--
tho--
ti--
tiz--
to--
tr--
tri--
ts--
tu--
tuq--
tı--
u--
uc--
uk--
ul--
un--
uni--
univ--
univer--
up--
upan--
uqı--
ur--
us--
utı--
uy--
v--
va--
var--
ve--
vi--
vo--
w--
wa--
watan--
we--
wiki--
wil--
wo--
wri--
x--
xa--
xat--
xet--
xi--
xo--
xx--
y--
ya--
yaq--
yar--
yo--
yu--
yıl--
z--
za--
ze--
zh--
ı--
ız--
ə--
а--
аб--
абдрах--
абдул--
ав--
ава--
аваз--
аве--
ави--
авиа--
авто--
авыш--
аг--
ага--
агент--
агро--
ад--
адво--
админ--
ае--
аер--
аерыл--
аз--
аза--
аи--
ак--
аку--
акц--
акч--
акча--
акъ--
ал--
ала--
алго--
але--
алек--
алексин--
алеш--
али--
алко--
алт--
алу--
алфа--
алфе--
алы--
алымн--
алын--
алыр--
алыш--
алышты--
аль--
ам--
амаз--
ан--
ана--
анг--
андр--
ани--
аном--
ант--
анти--
антро--
ап--
апа--
аппара--
ар--
ара--
арг--
аргу--
аре--
арт--
архан--
архи--
архитек--
арш--
ас--
аспек--
аспи--
ассамб--
ассоциация--
аст--
астро--
ат--
ата--
атама--
атна--
атро--
атте--
ау--
аучы--
аф--
афа--
афанасье--
ах--
ахма--
ахме--
ача--
ачык--
ачыш--
аш--
аша--
ашам--
аэро--
аю--
ая--
аяк--
аҗ--
аң--
аңлат--
б--
ба--
баг--
багыш--
бае--
баз--
бак--
бактерия--
бал--
бала--
бан--
бар--
бара--
бас--
бат--
бах--
баш--
баһ--
баһавет--
бе--
без--
бек--
бел--
белг--
белмә--
бело--
белоу--
бель--
бен--
бер--
берләш--
бес--
бет--
бех--
би--
биб--
библи--
библио--
биз--
бизә--
бик--
бил--
билге--
био--
бир--
бире--
бит--
биш--
бию--
бл--
бла--
бли--
ближ--
бо--
боб--
бобров--
бог--
богос--
бод--
бое--
боз--
бозыл--
бол--
болга--
болот--
боль--
больше--
бом--
бон--
бор--
борау--
борисо--
боро--
борт--
бот--
бояр--
бр--
брат--
бре--
бри--
бро--
бру--
брю--
бу--
буа--
буг--
буд--
бул--
була--
булу--
буль--
бур--
бурыч--
бут--
бух--
буха--
бухгал--
буш--
бха--
бы--
бю--
бюл--
бү--
бүл--
бһ--
бә--
бәе--
бәк--
бәр--
бәхти--
бәш--
бәя--
бө--
бөрте--
в--
ва--
ваг--
важ--
вази--
вазифа--
вак--
вал--
ван--
вар--
варис--
вас--
василь--
вась--
вах--
ваш--
введен--
ве--
веге--
ведом--
вел--
вели--
велико--
вен--
вер--
верт--
верхне--
верш--
вес--
весе--
вет--
ветер--
вз--
ви--
вид--
видео--
вики--
вил--
виль--
вин--
виног--
вис--
вит--
витамин--
виш--
вла--
во--
вод--
воево--
воз--
воздвиже--
вознесен--
вок--
вол--
воло--
володар--
волок--
волхо--
воль--
вор--
воро--
вос--
воскре--
восточ--
вот--
вп--
вра--
вре--
все--
ву--
вуд--
вуз--
вул--
вы--
выс--
высо--
выш--
вь--
вя--
вяз--
вязо--
вязь--
вяли--
вә--
вәкалә--
г--
га--
габ--
габдел--
габи--
гав--
гадә--
гае--
гаеп--
газ--
гал--
гам--
ган--
гар--
гарм--
гастроль--
гафа--
гва--
ге--
ген--
георгие--
гер--
герц--
ги--
гидр--
гидро--
гидроу--
гил--
гин--
гине--
гипер--
гир--
гисто--
гит--
гл--
гла--
глав--
глин--
глу--
глухо--
глуш--
го--
гово--
гол--
голо--
гомум--
гон--
гонча--
гор--
горб--
горе--
горно--
горур--
горь--
гос--
госпи--
государ--
гр--
гра--
грави--
грамма--
гре--
гремя--
гри--
григо--
гриш--
гро--
грос--
гру--
гряз--
гу--
гул--
гуль--
гун--
гур--
гусе--
гы--
гыр--
гү--
гүл--
гә--
гө--
гөк--
гөл--
гөмб--
гөмбәз--
гөнаһ--
гөр--
д--
да--
дав--
даи--
даирә--
дал--
дала--
дам--
дан--
дар--
дата--
дач--
даш--
дв--
дви--
двига--
де--
дев--
дегт--
дек--
дем--
деми--
демо--
демок--
демь--
дер--
деталь--
дея--
дж--
дже--
джо--
ди--
диаг--
диапаз--
дивар--
дивизи--
дие--
дик--
дин--
диод--
дис--
диско--
дисципли--
дми--
дмитро--
до--
добр--
добрин--
добро--
дол--
долгору--
дом--
домин--
дон--
дор--
доро--
др--
дра--
древ--
дроз--
дру--
друг--
друж--
ду--
дуб--
дубо--
дубро--
дум--
дур--
дура--
духов--
ды--
дырыш--
дь--
дьяк--
дэ--
дэва--
дю--
дә--
дәва--
дө--
е--
ев--
евдо--
евра--
евро--
егәр--
ел--
елан--
елец--
елиза--
ело--
елхо--
елъ--
ель--
еме--
емельяно--
ен--
ени--
ер--
ерак--
ере--
ермо--
ерт--
ершо--
ефи--
еш--
ешил--
ж--
жаб--
жанр--
жар--
же--
жел--
желез--
железно--
женщ--
жер--
жи--
живо--
жир--
жит--
жу--
жура--
журав--
з--
за--
зав--
заг--
зал--
залес--
зам--
запа--
запад--
запас--
зар--
зат--
зах--
заха--
заһи--
здравоох--
зе--
зем--
зен--
зер--
зи--
зин--
зиннә--
зло--
зна--
зо--
золо--
зор--
зрах--
зу--
зур--
зы--
зыялы--
зә--
зәр--
и--
ив--
ива--
иван--
иваш--
иг--
игна--
иде--
идео--
иер--
иж--
из--
избран--
ик--
ике--
ико--
ил--
иле--
иллю--
иль--
им--
имзал--
иммун--
имти--
ин--
индивиду--
индус--
ине--
инициа--
инно--
ино--
инстру--
инструк--
интег--
интер--
ип--
иптәш--
ир--
ире--
ис--
иса--
исбат--
искус--
историче--
источ--
истре--
исәп--
ит--
ите--
ителмә--
итү--
итә--
их--
ихтыяҗ--
иш--
ише--
ишим--
ия--
иң--
к--
ка--
кабат--
кабыр--
кад--
кады--
каж--
каз--
как--
кал--
кали--
каль--
кам--
камб--
камен--
камыш--
камыше--
кан--
канәгатьлән--
кап--
капи--
кар--
кара--
кас--
каст--
кат--
каш--
каша--
каһ--
каһан--
кв--
кд--
ке--
кел--
кем--
кен--
кеп--
кер--
ки--
киз--
кил--
килмә--
килог--
ким--
киме--
кимче--
кин--
кинемато--
кино--
кип--
кир--
кирпич--
кирсано--
кирт--
кис--
кисе--
кисә--
кисәкч--
кит--
кич--
киш--
киң--
кл--
клав--
кле--
климо--
кло--
ключе--
кн--
кня--
княж--
ко--
коб--
ков--
ког--
код--
кож--
коз--
кок--
коко--
кол--
коллекц--
коло--
колыш--
ком--
компонент--
кон--
конг--
кондр--
коно--
конс--
консерва--
конструкц--
конструкция--
консуль--
конт--
контр--
конф--
коор--
координ--
коп--
копы--
кор--
коре--
кори--
корк--
коро--
корт--
кос--
косм--
космо--
кост--
кот--
кото--
коч--
коче--
кош--
коң--
кр--
кра--
краеведче--
крас--
красно--
кре--
кри--
криво--
кро--
кру--
круп--
кры--
крым--
ку--
кубр--
куда--
куз--
кузга--
кузне--
кузь--
кук--
кул--
кули--
куль--
кум--
кун--
куп--
кур--
куро--
курс--
кут--
куч--
куш--
кушыл--
кушымча--
куы--
куыш--
куә--
кы--
кыз--
кызыл--
кыл--
кыр--
кыс--
кыш--
кыяфә--
кың--
кю--
кү--
күз--
күзә--
күк--
күнег--
күп--
күр--
күре--
күрен--
күрсә--
күрсәт--
күч--
күчен--
күчер--
кә--
кө--
көл--
көн--
көп--
көч--
л--
ла--
лаб--
лав--
лаг--
лаз--
лаза--
лам--
лан--
лап--
лас--
лаш--
ле--
лебе--
лев--
леген--
леги--
леж--
лек--
лекси--
лем--
лен--
лер--
лес--
лесо--
ли--
либер--
лидер--
лим--
лин--
лип--
литви--
литер--
лиц--
лич--
ло--
лоба--
лов--
лоз--
лок--
лом--
лон--
лу--
луж--
лук--
луко--
лун--
луч--
лы--
лык--
ль--
лью--
лю--
люби--
люд--
люц--
ля--
лә--
лән--
ләш--
м--
ма--
мав--
маг--
мага--
мад--
маз--
мазы--
мак--
мал--
мали--
мало--
маль--
ман--
мар--
мари--
мас--
мат--
математиче--
матч--
мах--
маха--
махабха--
маш--
маң--
маһ--
ме--
мед--
медвед--
медведе--
медицин--
меж--
между--
мез--
мел--
меле--
мели--
мель--
мембр--
мемо--
мен--
мер--
мес--
мет--
мета--
мето--
метод--
мех--
меч--
меш--
мең--
меңь--
ми--
миг--
миз--
мик--
микро--
микъ--
мил--
мин--
мир--
миро--
мис--
мит--
митр--
митропо--
миф--
мифтахет--
мих--
миха--
мич--
миш--
миң--
миңле--
миңне--
ммә--
мн--
мо--
мов--
мог--
могҗ--
мож--
мок--
мол--
моло--
мон--
моно--
мону--
мор--
морфо--
мотив--
мох--
мохо--
мош--
моң--
мс--
му--
мук--
мул--
мульт--
мун--
мур--
мусуль--
мусульман--
муха--
мухи--
мы--
мыл--
мыш--
мьян--
мә--
мәгъ--
мәзһә--
мәк--
мәнфәгать--
мәр--
мәрх--
мәс--
мәх--
мәхкә--
мәҗ--
мәҗүси--
мәһ--
мө--
мөх--
мөхтә--
мөхтәси--
мөхәр--
мөһаҗ--
н--
на--
наг--
наго--
награ--
надеждин--
наз--
наза--
назы--
нак--
нал--
наместник--
нан--
нар--
нас--
нау--
нах--
наци--
не--
нев--
неве--
невро--
нег--
нек--
некот--
некра--
некрасов--
некро--
нер--
неф--
нефт--
нефте--
ни--
нигез--
ниж--
нижне--
низа--
ник--
никит--
ниц--
ниш--
но--
нови--
ново--
ног--
нор--
нс--
ну--
нуж--
нур--
нурет--
ны--
нык--
ныф--
ню--
нә--
нәш--
нәҗ--
нәүр--
о--
об--
обл--
обоз--
образ--
обухо--
обще--
объе--
ов--
овсян--
ог--
од--
оеш--
оешты--
оз--
озе--
ок--
окл--
ол--
ола--
оли--
олим--
оло--
олы--
оль--
ольг--
ольхо--
ом--
омут--
он--
оны--
оп--
оппо--
опти--
ор--
ори--
орлык--
орт--
ос--
осе--
оси--
осин--
осм--
основ--
осо--
от--
отдель--
отече--
отк--
отрад--
оф--
официа--
офтальмо--
ох--
охот--
оч--
очк--
очра--
ош--
оя--
п--
па--
пав--
пад--
пал--
паль--
памят--
пан--
пант--
пар--
пара--
парт--
пас--
пат--
пато--
пах--
пациент--
паш--
пе--
пен--
пензен--
пер--
перво--
пере--
перифе--
персонаж--
пес--
песоч--
пеш--
пи--
пиан--
пиг--
пик--
пил--
пирам--
пиро--
писа--
пись--
пл--
пла--
плаз--
плас--
пласти--
плат--
пле--
пло--
плот--
плут--
по--
погоре--
под--
подго--
пож--
поз--
позиц--
пок--
пол--
поли--
полит--
политиче--
поло--
полови--
полта--
полу--
поп--
порт--
порхо--
пос--
пот--
пота--
пох--
поход--
поч--
поэ--
пра--
прав--
правитель--
празд--
практиче--
пре--
пред--
преображе--
префек--
при--
приволь--
приз--
примор--
принцип--
про--
проб--
прог--
продукт--
произве--
производ--
прокур--
прост--
проте--
прото--
проф--
пру--
пруд--
псев--
психиат--
психо--
пу--
публи--
пул--
пуле--
пун--
пур--
пуст--
пут--
путеше--
пуш--
пы--
пылыш--
пыч--
пье--
пя--
пят--
пяти--
пятниц--
пәр--
р--
ра--
раб--
работ--
рав--
рад--
ради--
радио--
рае--
раз--
рак--
рал--
рам--
ран--
рас--
рат--
рах--
раци--
раш--
ре--
реакц--
рев--
рег--
ред--
рез--
резе--
рези--
резиденц--
резолюц--
резуль--
реконс--
реконструкция--
рент--
ресурс--
рети--
реч--
реш--
реше--
ржа--
ри--
рим--
рит--
ритуал--
риш--
рк--
ро--
ров--
род--
роди--
рож--
рожде--
роз--
романо--
рон--
рос--
рс--
ру--
руб--
руд--
руковод--
рус--
рух--
рф--
ры--
рыб--
рыж--
рь--
рю--
ря--
рядо--
ряза--
рә--
рәм--
рәт--
рәф--
с--
са--
сав--
сад--
садо--
саз--
сазлык--
сак--
саклагыч--
сал--
салты--
саль--
сальва--
сам--
само--
самс--
сан--
сап--
сар--
сармат--
сас--
сат--
саф--
сб--
сва--
све--
сверд--
сви--
свобод--
свя--
се--
север--
сед--
сек--
секре--
секц--
сел--
сели--
сель--
семи--
семин--
семинар--
сен--
сер--
сергие--
сертифи--
сес--
сече--
сең--
си--
сиб--
сибга--
сибир--
сив--
сид--
сиз--
сик--
сил--
силь--
сим--
симбир--
символ--
симме--
симп--
симферо--
син--
синга--
сир--
сит--
сих--
ск--
ска--
скан--
ско--
ску--
сла--
слав--
слад--
сле--
сли--
сло--
слоб--
слобод--
служ--
см--
смо--
смоль--
со--
сов--
совре--
соз--
сок--
сокл--
соколь--
сол--
солнеч--
соло--
солтан--
сор--
сора--
сорт--
сос--
сот--
сох--
социо--
спек--
специа--
спи--
спо--
спра--
сред--
средне--
ст--
ста--
стад--
стар--
старо--
статистиче--
стаци--
сте--
стен--
степ--
сти--
сто--
стол--
стр--
стрел--
струк--
сту--
су--
суб--
суд--
суз--
суздаль--
сук--
сул--
сум--
супер--
сур--
сурәт--
сус--
сух--
сухо--
суш--
суы--
сфе--
сы--
сыз--
сыл--
сын--
сыну--
сыр--
сырт--
сь--
сэ--
сю--
сү--
сүн--
сүрәт--
сә--
сәли--
сәлим--
сәр--
сәхиф--
сө--
сөр--
сөяк--
т--
та--
таб--
тав--
таз--
так--
тал--
тало--
там--
тамга--
тан--
таны--
танык--
тап--
тапшыр--
тар--
тас--
тат--
тау--
таш--
таҗет--
таң--
тв--
творче--
тга--
те--
тез--
тек--
тел--
теле--
телерадио--
тем--
тен--
тео--
теоретиче--
теп--
тер--
термо--
терно--
техниче--
теш--
ти--
тигез--
тик--
тил--
тим--
тимер--
тимо--
тин--
тип--
тир--
тих--
тиш--
тма--
то--
тоз--
ток--
тол--
том--
томан--
тон--
топ--
топо--
тор--
тот--
тоткын--
тр--
тра--
трав--
трак--
транс--
трас--
тре--
трест--
треть--
три--
тро--
тру--
тс--
ту--
туг--
тугры--
туз--
тук--
тукл--
тул--
тулы--
тум--
тумыш--
тун--
туп--
тур--
турин--
туры--
туш--
ты--
тыл--
тыр--
тырыш--
тыш--
тыю--
тың--
ть--
тю--
тюрк--
тюрко--
тям--
тү--
тә--
тәгъ--
тәгъли--
тәгълима--
тәлин--
тәм--
тәмам--
тән--
тәфс--
тәхе--
тәхет--
тәң--
тәү--
тәһ--
тө--
төзеклән--
төзә--
төзәт--
төп--
төр--
төс--
төш--
у--
уваро--
уг--
угл--
удар--
уен--
уз--
уза--
узыш--
ук--
уку--
укы--
ул--
уль--
умырт--
ун--
упа--
упанишад--
ур--
ураз--
ураль--
уро--
урю--
ус--
уст--
уста--
ут--
уфимс--
ух--
уч--
участ--
уче--
учреж--
уш--
уң--
ф--
фа--
фаз--
фактор--
фар--
фармако--
фат--
фаҗи--
фе--
федо--
федоро--
фельд--
фено--
феод--
фер--
фет--
фи--
фигура--
физио--
фил--
филар--
фило--
фин--
фир--
фл--
фо--
фом--
фомин--
фон--
фоне--
фор--
форма--
формир--
фору--
фото--
фр--
фракц--
фран--
фре--
фро--
фу--
фул--
фун--
фур--
фь--
фә--
фәл--
фән--
фәр--
фәт--
фәтхул--
х--
ха--
хак--
хал--
хам--
хан--
хар--
харак--
характер--
хари--
хас--
хасия--
хаста--
хат--
хаҗи--
хва--
хе--
хел--
хен--
хер--
хет--
хи--
химиче--
хис--
хиса--
хлеб--
хме--
хмель--
хо--
ход--
хок--
хол--
хом--
хомуто--
хоп--
хор--
хорео--
хот--
хох--
хри--
хру--
ху--
художе--
хуп--
хуҗ--
хы--
хыял--
хә--
хәби--
хәбәш--
хәер--
хәл--
хәнә--
хәр--
хәраб--
хөс--
ц--
цар--
цве--
цвет--
це--
цел--
цен--
цер--
цере--
цех--
ци--
цикл--
цит--
цифр--
цы--
ч--
ча--
чагыл--
чагылдыр--
чагыш--
чак--
чал--
чам--
чан--
чап--
чапае--
чар--
чат--
че--
чел--
чем--
чен--
чер--
черепа--
черк--
черкас--
черн--
черниго--
черно--
черныше--
чи--
чибәр--
чиг--
чик--
чиклә--
чин--
чир--
чис--
чит--
чиш--
чише--
чк--
чле--
чол--
чолганыш--
чор--
чте--
чу--
чудо--
чук--
чукын--
чул--
чур--
чы--
чыл--
чын--
чып--
чүл--
чә--
чәч--
чөген--
ш--
ша--
шаб--
шад--
шак--
шал--
шам--
шан--
шап--
шар--
шара--
шат--
шах--
шац--
шаһ--
ше--
шекс--
шел--
шем--
шен--
шер--
шеш--
ши--
шик--
шил--
шим--
шин--
шир--
широ--
шифа--
шиш--
школь--
шо--
шом--
шор--
шос--
шри--
штур--
шу--
шуми--
шун--
шы--
шә--
шәкер--
шәл--
шәм--
шәмсет--
шәрәфет--
шәҗ--
шәһ--
шө--
шөгыль--
щ--
ще--
ы--
ыл--
ын--
ыргы--
ыш--
ышан--
э--
эв--
эвакуация--
эве--
эд--
эз--
эзәрлек--
эк--
экват--
эки--
эко--
эконо--
экономиче--
экс--
экспо--
экспозиц--
эл--
эль--
эләк--
эмб--
эн--
эндо--
эпи--
эпиз--
эпо--
эпос--
эр--
эре--
эс--
эск--
эспи--
эсте--
эт--
этаб--
этап--
эти--
этниче--
этно--
эф--
эч--
эчемлек--
эш--
эшку--
эшлә--
эшлән--
ю--
юби--
югал--
юж--
юк--
юл--
юн--
юни--
юно--
юнәл--
юр--
юра--
юсу--
юш--
я--
ябло--
ябыш--
яг--
ягод--
яз--
яза--
язу--
язы--
як--
якш--
ял--
ям--
ян--
яна--
яно--
яп--
яр--
ярым--
яс--
яса--
ят--
яу--
яфр--
ях--
яш--
яшә--
яңа--
яңартыл--
җ--
җам--
җан--
җе--
җеп--
җепсел--
җи--
җибәр--
җим--
җимер--
җир--
җит--
җитеш--
җиң--
җиһ--
җиһаз--
җу--
җы--
җыелыш--
җыр--
җә--
җәдвә--
җәел--
җәза--
җәл--
җәм--
җән--
җәүһәр--
җө--
җөмлә--
ҡ--
ү--
үз--
үзгә--
үзгәр--
үзлек--
үзләш--
үк--
үл--
үлч--
үлчә--
үлчәм--
үн--
үр--
үс--
үсмер--
үт--
үтер--
үткә--
үтә--
һ--
һар--
һен--
һим--
һун--
һә--
һәр--
һөжү--
ә--
әб--
әбү--
әве--
әдип--
әз--
әзер--
әк--
әл--
әм--
ән--
әни--
әр--
әс--
әсбап--
әсә--
әти--
әф--
әх--
әхмә--
әхмәт--
әхтә--
әш--
әю--
әҗ--
ө--
өз--
өзе--
өк--
өл--
өлгер--
өр--
өреш--
өри--
өрә--
өс--
өч--
өче--
өчен--
өяз--
ا--
ب--
--0
--00
--000
--001
--002
--003
--004
--005
--007
--008
--01
--011
--02
--022
--03
--030
--031
--032
--035
--04
--040
--043
--05
--053
--06
--065
--07
--070
--072
--078
--08
--080
--082
--09
--092
--095
--097
--1
--10
--100
--11
--12
--121
--122
--127
--13
--131
--14
--141
--15
--155
--157
--16
--17
--170
--18
--19
--2
--20
--21
--22
--23
--233
--24
--242
--25
--252
--26
--264
--27
--28
--29
--3
--30
--300
--301
--31
--32
--33
--334
--34
--35
--355
--36
--366
--37
--371
--376
--38
--39
--395
--4
--40
--41
--415
--418
--42
--43
--44
--444
--45
--455
--46
--47
--48
--49
--5
--50
--51
--511
--516
--52
--53
--54
--55
--56
--562
--566
--57
--575
--58
--59
--599
--6
--60
--600
--603
--61
--62
--63
--631
--64
--649
--65
--653
--657
--66
--67
--677
--68
--688
--69
--7
--70
--700
--703
--71
--72
--73
--74
--743
--75
--755
--76
--77
--78
--780
--786
--79
--793
--8
--80
--800
--81
--82
--83
--84
--85
--86
--87
--876
--877
--88
--89
--9
--90
--91
--910
--92
--922
--93
--935
--938
--94
--945
--95
--96
--961
--97
--976
--98
--985
--99
--997
--a
--ad
--ada
--ae
--ag
--ah
--al
--am
--ama
--an
--ana
--ant
--aphy
--aq
--ar
--ara
--ary
--as
--at
--ata
--ate
--ates
--ation
--ations
--ator
--ay
--az
--b
--ble
--box
--bus
--bı
--c
--ca
--cal
--ce
--ces
--ch
--ck
--co
--cs
--ct
--cts
--cus
--d
--da
--dar
--date
--de
--di
--do
--dom
--ds
--dı
--e
--ea
--ed
--ek
--el
--em
--en
--ensis
--ent
--er
--ern
--ers
--es
--ess
--est
--et
--ev
--ey
--f
--g
--ga
--ge
--ger
--gia
--gin
--gn
--go
--gs
--gy
--h
--ha
--her
--hi
--ht
--i
--ia
--ial
--iam
--ian
--ic
--ica
--ical
--ice
--ics
--id
--ie
--ied
--ier
--ies
--ii
--ik
--ika
--il
--ily
--im
--in
--ina
--ine
--ing
--ins
--io
--ion
--ional
--ions
--ip
--is
--ism
--ist
--it
--ity
--ium
--ius
--ix
--iya
--j
--ja
--ji
--k
--ka
--ke
--ki
--ko
--ks
--l
--la
--lar
--ld
--le
--ler
--lf
--lg
--li
--lia
--lin
--lis
--lk
--ll
--lle
--lly
--lm
--lo
--logy
--ls
--lus
--ly
--lı
--m
--ma
--mal
--mas
--me
--ment
--mer
--mi
--mia
--mn
--mon
--mp
--ms
--mı
--n
--na
--nar
--nc
--nce
--nd
--nda
--ne
--ner
--ng
--ni
--nii
--nik
--nk
--nn
--nnan
--no
--ns
--nt
--ntes
--nu
--nus
--ny
--nı
--nın
--o
--ode
--og
--ok
--ol
--ology
--om
--on
--ons
--op
--or
--ors
--ort
--os
--osa
--ot
--ov
--ova
--ow
--own
--oz
--p
--pa
--ps
--put
--q
--qa
--qc
--r
--ra
--ral
--rd
--re
--rg
--ri
--ring
--rix
--rn
--rnı
--ro
--rry
--rs
--rt
--ry
--rı
--rın
--s
--sa
--sal
--se
--sf
--sh
--si
--sia
--sion
--sis
--sk
--so
--ss
--st
--ster
--sus
--sı
--t
--ta
--tal
--tary
--te
--ted
--ter
--tes
--th
--tha
--ti
--tic
--ting
--tion
--tions
--to
--ton
--tor
--tos
--ts
--tsia
--ture
--tus
--ty
--tı
--u
--ub
--ue
--um
--un
--ur
--ure
--us
--ut
--v
--va
--ve
--vel
--via
--vo
--w
--wn
--x
--y
--ya
--yn
--ys
--z
--za
--ze
--zg
--zi
--zı
--ı
--ıg
--ıl
--ın
--ıp
--ıq
--ıs
--ıy
--а
--абад
--ав
--ава
--аг
--ага
--агы
--ад
--ада
--адан
--ады
--ае
--аев
--аево
--аж
--аза
--аи
--ак
--ака
--аки
--аков
--аково
--акт
--ал
--алы
--аль
--ам
--ама
--ами
--амик
--амика
--ан
--ана
--анд
--ане
--ани
--ание
--ания
--ано
--анов
--ановление
--аново
--аны
--аның
--ао
--ап
--ар
--ара
--арга
--арда
--аре
--ари
--арны
--аров
--арь
--ас
--аса
--асы
--асын
--ат
--ате
--атит
--атия
--атлары
--атов
--атор
--аты
--ау
--аф
--ах
--ацион
--ация
--ач
--аче
--ачи
--аш
--ая
--б
--ба
--баев
--баева
--баево
--баи
--бан
--бах
--баш
--бе
--без
--беи
--би
--бо
--бов
--бург
--бы
--быз
--бызның
--бя
--бә
--бәк
--в
--ва
--ват
--вая
--ве
--вен
--вер
--вец
--ви
--вилл
--виль
--вин
--вина
--вис
--вит
--вица
--вич
--вичы
--вка
--во
--вое
--вр
--вскии
--ву
--вуд
--вцы
--вшии
--вы
--вые
--выи
--вын
--вье
--г
--га
--гал
--гали
--галь
--ган
--гар
--гасы
--гач
--ге
--гез
--ги
--гиев
--гии
--гин
--гино
--гия
--глар
--го
--гов
--гово
--гол
--гор
--град
--грак
--гу
--гулов
--гъ
--гы
--гыз
--гын
--гә
--гәи
--гән
--гәч
--д
--да
--даг
--дагы
--дан
--дар
--даш
--де
--дер
--дж
--джа
--джи
--дзе
--ди
--дии
--дит
--дия
--дка
--дки
--дного
--днои
--дные
--дныи
--до
--дов
--дово
--дои
--дра
--дс
--дт
--ду
--ды
--дык
--дым
--дыр
--дыра
--дь
--дә
--дәге
--дән
--дәш
--е
--ев
--ева
--евич
--евка
--ево
--евскии
--еге
--ед
--еда
--еде
--ее
--еев
--еево
--еж
--ез
--еи
--ек
--ел
--ела
--елгән
--елде
--еле
--елево
--ели
--ело
--ель
--елү
--елә
--еләре
--ем
--ен
--ена
--енда
--ендә
--ендәге
--ене
--енең
--ени
--ение
--ении
--ения
--енки
--енко
--еннән
--енс
--ент
--енчә
--ень
--енә
--еп
--ер
--ера
--ергә
--ерде
--ери
--ерина
--еры
--ес
--есе
--еси
--есса
--ет
--ета
--етдин
--ете
--ето
--ется
--етто
--еты
--ец
--ецкии
--ецкое
--ець
--еч
--еш
--ешти
--ешть
--ея
--ең
--ж
--жа
--же
--жи
--жка
--жки
--жок
--жы
--жье
--з
--за
--задә
--зар
--зары
--зация
--зд
--зе
--зек
--зеро
--зи
--зин
--зка
--зки
--злуҗа
--злы
--зм
--зма
--зник
--зо
--зов
--зово
--зу
--зы
--зыи
--зь
--зя
--зянов
--зә
--и
--иаль
--иан
--иб
--ибы
--ив
--иг
--ига
--игы
--ид
--ида
--ие
--иев
--иева
--иевка
--ием
--из
--изация
--издат
--изм
--ии
--ик
--ика
--ики
--ико
--ил
--ила
--илов
--илово
--иль
--иләр
--им
--има
--имов
--ин
--ина
--инг
--ине
--ини
--инка
--ино
--инов
--иново
--инск
--инскии
--ины
--иның
--ио
--ион
--ип
--ир
--ис
--ист
--истик
--истика
--истлар
--исты
--ит
--ита
--итлар
--иты
--ить
--иу
--иф
--их
--иха
--иц
--ица
--ице
--иции
--иция
--ицкии
--ицкое
--ицы
--иця
--ич
--ическая
--ическии
--ическои
--ичи
--иш
--ище
--ищево
--ищи
--ию
--ия
--иягә
--иядә
--ияле
--ияләр
--ияне
--иянең
--иясе
--ият
--ияте
--иях
--к
--ка
--каев
--каи
--кан
--кач
--кая
--ке
--ки
--кие
--кии
--кин
--кино
--ких
--кка
--ккә
--клар
--клары
--клу
--клы
--кләр
--кләре
--кны
--кның
--ко
--ков
--ково
--кого
--кое
--кс
--кт
--кта
--ктив
--кты
--ктә
--ку
--кув
--кур
--куш
--кция
--кша
--къ
--кы
--кып
--күл
--кә
--кәи
--кән
--кәннәр
--кәсе
--кәч
--көи
--көпрү
--л
--ла
--лав
--лавы
--лаган
--лады
--лаи
--лама
--ламыи
--лана
--лану
--лануы
--ланып
--лап
--лар
--ларга
--ларда
--лардан
--ларны
--ларның
--лары
--ларын
--ларына
--ларында
--ларыннан
--ларының
--лау
--лаучы
--лаш
--лаша
--лашкан
--лаштыра
--лаштыру
--лаштырыла
--лаштырылган
--лашу
--лашып
--лая
--лган
--лгән
--лгәч
--лде
--лды
--ле
--леге
--леген
--легендә
--легенә
--легия
--леи
--лек
--леккә
--лекләр
--лекләре
--лекне
--лекнең
--лектә
--лектән
--леләр
--лен
--леп
--ли
--лии
--лик
--лим
--лин
--лина
--лино
--линское
--лиф
--лия
--лка
--лл
--лла
--лли
--ллин
--ллина
--ллс
--лми
--ло
--лов
--лое
--лон
--лс
--лт
--лу
--луы
--лы
--лыгы
--лыгын
--лыгына
--лыгында
--лыи
--лык
--лыкка
--лыклар
--лыклары
--лыкны
--лыкның
--лыкта
--лыктан
--лылар
--лылык
--лып
--лыш
--лышы
--ль
--льд
--лье
--льныи
--льт
--лья
--лю
--люции
--ля
--ляр
--лү
--лүе
--лә
--ләве
--ләде
--ләмә
--ләмәсе
--ләндерү
--ләнү
--ләнә
--ләп
--ләр
--ләргә
--ләрдә
--ләрдән
--ләре
--ләрен
--ләрендә
--ләренең
--ләреннән
--ләренә
--ләрне
--ләрнең
--ләтә
--ләшеп
--ләшкән
--ләштерелгән
--ләштерү
--ләшү
--ләү
--м
--ма
--мада
--маи
--ман
--мас
--масы
--мат
--маш
--мга
--мда
--ме
--меш
--ми
--мик
--мичә
--мия
--мка
--мле
--мли
--млы
--мнар
--мне
--мны
--мның
--мо
--мп
--мск
--мскии
--му
--мы
--мыи
--мыш
--мь
--мә
--мәгән
--мәдә
--мәт
--н
--на
--намә
--нан
--нар
--нарга
--нарда
--нардан
--нарны
--нарның
--нары
--нарын
--ная
--нг
--нга
--нган
--нд
--нда
--ндагы
--нде
--ндә
--ндәге
--не
--нево
--него
--нее
--неке
--нен
--нес
--нет
--нец
--нең
--ни
--ние
--нием
--нии
--ник
--ники
--ников
--никово
--нин
--нино
--нинское
--нир
--ниха
--ница
--нию
--ния
--нк
--нка
--нки
--нко
--нлы
--нн
--ннан
--ннар
--нная
--нни
--нно
--нного
--нное
--ннои
--нны
--нные
--нными
--ннән
--ннәр
--но
--нов
--ново
--ного
--ное
--нои
--ном
--ности
--ность
--нс
--нсе
--нск
--нская
--нские
--нскии
--нского
--нское
--нт
--нта
--нте
--нтии
--нты
--ну
--нца
--нцы
--нча
--нче
--ны
--ные
--ныи
--ныкы
--ным
--нын
--нып
--ных
--ның
--нь
--ньга
--нье
--ньи
--нья
--ня
--нү
--нә
--нән
--нәр
--нәргә
--нәре
--нәрен
--нәрне
--нәрнең
--о
--оа
--ов
--ова
--овая
--оведения
--овец
--овик
--ович
--овичи
--овка
--овлар
--овна
--овны
--овның
--ово
--овое
--овои
--овск
--овская
--овскии
--овское
--овщина
--овы
--овые
--овыи
--овых
--овье
--ог
--оги
--огии
--огик
--огия
--оглу
--ого
--огр
--од
--ода
--ое
--оз
--оза
--ои
--оид
--оидлар
--ок
--оки
--ол
--оло
--ология
--оль
--ом
--ома
--омик
--омы
--он
--оп
--опия
--ополь
--ор
--ора
--орлар
--оры
--ос
--оса
--от
--отик
--ото
--оу
--охово
--ош
--оя
--п
--па
--пе
--пи
--пп
--пр
--пс
--пу
--пы
--р
--ра
--рада
--рак
--раль
--расы
--рация
--рг
--рга
--рган
--ргә
--ргән
--рд
--рда
--рдан
--рде
--рды
--рдә
--ре
--рев
--рево
--релү
--рен
--реп
--рет
--ри
--рии
--рик
--рин
--рино
--рит
--рия
--рка
--рли
--рлы
--рма
--рмау
--рмыи
--рн
--рне
--рны
--рның
--ро
--ров
--рово
--рс
--рск
--рт
--рта
--рту
--ртыла
--ртылган
--ртып
--ру
--ручы
--руы
--рчы
--ры
--рыла
--рылган
--рылды
--рылу
--рын
--рына
--рында
--рып
--рырга
--рь
--рье
--рья
--ря
--ряд
--рҗ
--рү
--рә
--рәк
--с
--са
--сбург
--свилл
--се
--сез
--сем
--сен
--сендә
--сенең
--сеннән
--сенә
--сең
--си
--сик
--сис
--сия
--ск
--ска
--ская
--ски
--ские
--скии
--ским
--ских
--ско
--ского
--ское
--скои
--ском
--скому
--скә
--слав
--со
--сом
--сон
--спи
--сс
--ст
--ста
--ств
--ство
--сти
--стик
--сты
--сть
--стә
--су
--сы
--сыз
--сызлыгы
--сын
--сына
--сында
--сыннан
--сының
--сь
--сье
--сья
--ся
--сү
--сә
--т
--та
--тава
--тагы
--таж
--тан
--тас
--тау
--тация
--таш
--тва
--те
--тево
--тез
--теи
--тен
--тер
--ти
--тив
--тии
--тик
--тин
--тина
--тино
--тия
--тка
--тки
--тлар
--тле
--тли
--тлы
--тне
--тны
--то
--тов
--тово
--тое
--тон
--тор
--торы
--тра
--тс
--тскии
--тское
--тся
--тт
--тта
--ту
--тун
--ты
--тык
--тыла
--тым
--тыр
--тыра
--тыру
--тыручы
--тырыла
--тырып
--тырырга
--ть
--тье
--тьев
--тья
--тү
--тә
--тәге
--тән
--төркем
--у
--уа
--уб
--ув
--уг
--уга
--уд
--уда
--уз
--уи
--ук
--укция
--ул
--ула
--улар
--улла
--уллин
--уллина
--уль
--ум
--ун
--уна
--унов
--уны
--уның
--уп
--ур
--ура
--ург
--ус
--ут
--ута
--ух
--учы
--уш
--уша
--уши
--ушино
--ушка
--уы
--ую
--ф
--фа
--фак
--фи
--фия
--форд
--фт
--фы
--фыи
--фә
--х
--ха
--хан
--ханә
--ханәсе
--хет
--хи
--хин
--хино
--хо
--хов
--хово
--ход
--хт
--ху
--хә
--ц
--ца
--це
--цев
--цево
--ци
--ции
--цин
--цино
--цион
--ция
--циягә
--цк
--цкии
--цкое
--цо
--цов
--цово
--цы
--ць
--ця
--ч
--ча
--чаи
--чак
--чам
--чан
--че
--чев
--чево
--чек
--чел
--челеге
--челек
--челәр
--челәре
--челәрнең
--ченко
--чесе
--чи
--чии
--чин
--чино
--чиха
--чка
--чки
--чо
--чу
--чы
--чык
--чыл
--чылар
--чылары
--чылык
--чысы
--чь
--чье
--чьи
--чә
--чәк
--чән
--ш
--ша
--шал
--шат
--ше
--шев
--шева
--шево
--шен
--шеһир
--ши
--шид
--шин
--шина
--шино
--шка
--шки
--шлы
--шня
--шов
--шово
--шта
--ште
--штыра
--шть
--шу
--шур
--шы
--шып
--шь
--шье
--шү
--шә
--ща
--ще
--щи
--щина
--ъ
--ъе
--ъя
--ы
--ыгино
--ыгы
--ыгыз
--ые
--ыз
--ыи
--ык
--ыл
--ыла
--ылды
--ылу
--ылып
--ылырга
--ылыш
--ым
--ын
--ына
--ында
--ыннан
--ының
--ып
--ыр
--ырга
--ырып
--ыс
--ысы
--ыт
--ых
--ыч
--ыш
--ыша
--ышево
--ышка
--ышта
--ышы
--ыя
--ың
--ь
--ьба
--ьга
--ье
--ьев
--ьевич
--ьево
--ьер
--ьи
--ьино
--ька
--ьки
--ьм
--ьма
--ьне
--ьно
--ьность
--ьныи
--ьо
--ьон
--ьс
--ьск
--ьская
--ьскии
--ьт
--ью
--ья
--ьян
--ьяно
--э
--эли
--ю
--юг
--юк
--юс
--ют
--я
--ягә
--ядә
--яево
--язы
--як
--яле
--яләр
--яләре
--ям
--ян
--яне
--янең
--янка
--яно
--янов
--яр
--яс
--ясе
--ят
--яте
--ять
--ях
--яция
--і
--җ
--җа
--җан
--җанов
--җе
--җи
--җиев
--җик
--җо
--җы
--җык
--җә
--җәп
--ҡ
--ң
--ү
--үгә
--үдә
--үе
--үл
--үн
--үче
--һ
--һа
--һие
--ә
--әге
--әгә
--әдә
--әи
--әк
--әл
--әләр
--әләре
--әм
--ән
--әне
--әп
--әр
--әргә
--әрдә
--әре
--әрен
--әрне
--әс
--әсе
--әт
--әте
--әтә
--әш
--әюе
--әя
--әү
--өи
--өрен
--د
--ر
--ن
--ه
