!
"
#
##a
##aa
##ab
##ac
##ad
##ae
##af
##ag
##ah
##ai
##aj
##ak
##al
##am
##an
##ao
##ap
##aq
##ar
##as
##at
##au
##av
##aw
##ax
##ay
##az
##b
##ba
##bb
##bc
##bd
##be
##bf
##bg
##bh
##bi
##bj
##bk
##bl
##bm
##bn
##bo
##bp
##bq
##br
##bs
##bt
##bu
##bv
##bw
##bx
##by
##bz
##c
##ca
##cb
##cc
##cd
##ce
##cf
##cg
##ch
##ci
##cj
##ck
##cl
##cm
##cn
##co
##cp
##cq
##cr
##cs
##ct
##cu
##cv
##cw
##cx
##cy
##cz
##d
##da
##db
##dc
##dd
##de
##df
##dg
##dh
##di
##dj
##dk
##dl
##dm
##dn
##do
##dp
##dq
##dr
##ds
##dt
##du
##dv
##dw
##dx
##dy
##dz
##e
##ea
##eb
##ec
##ed
##ee
##ef
##eg
##eh
##ei
##ej
##ek
##el
##em
##en
##eo
##ep
##eq
##er
##es
##et
##eu
##ev
##ew
##ex
##ey
##ez
##f
##fa
##fb
##fc
##fd
##fe
##ff
##fg
##fh
##fi
##fj
##fk
##fl
##fm
##fn
##fo
##fp
##fq
##fr
##fs
##ft
##fu
##fv
##fw
##fx
##fy
##fz
##g
##ga
##gb
##gc
##gd
##ge
##gf
##gg
##gh
##gi
##gj
##gk
##gl
##gm
##gn
##go
##gp
##gq
##gr
##gs
##gt
##gu
##gv
##gw
##gx
##gy
##gz
##h
##ha
##hb
##hc
##hd
##he
##hf
##hg
##hh
##hi
##hj
##hk
##hl
##hm
##hn
##ho
##hp
##hq
##hr
##hs
##ht
##hu
##hv
##hw
##hx
##hy
##hz
##i
##ia
##ib
##ic
##id
##ie
##if
##ig
##ih
##ii
##ij
##ik
##il
##im
##in
##io
##ip
##iq
##ir
##is
##it
##iu
##iv
##iw
##ix
##iy
##iz
##j
##ja
##jb
##jc
##jd
##je
##jf
##jg
##jh
##ji
##jj
##jk
##jl
##jm
##jn
##jo
##jp
##jq
##jr
##js
##jt
##ju
##jv
##jw
##jx
##jy
##jz
##k
##ka
##kb
##kc
##kd
##ke
##kf
##kg
##kh
##ki
##kj
##kk
##kl
##km
##kn
##ko
##kp
##kq
##kr
##ks
##kt
##ku
##kv
##kw
##kx
##ky
##kz
##l
##la
##lb
##lc
##ld
##le
##lf
##lg
##lh
##li
##lj
##lk
##ll
##lm
##ln
##lo
##lp
##lq
##lr
##ls
##lt
##lu
##lv
##lw
##lx
##ly
##lz
##m
##ma
##mb
##mc
##md
##me
##mf
##mg
##mh
##mi
##mj
##mk
##ml
##mm
##mn
##mo
##mp
##mq
##mr
##ms
##mt
##mu
##mv
##mw
##mx
##my
##mz
##n
##na
##nb
##nc
##nd
##ne
##nf
##ng
##nh
##ni
##nj
##nk
##nl
##nm
##nn
##no
##np
##nq
##nr
##ns
##nt
##nu
##nv
##nw
##nx
##ny
##nz
##o
##oa
##ob
##oc
##od
##oe
##of
##og
##oh
##oi
##oj
##ok
##ol
##om
##on
##oo
##op
##oq
##or
##os
##ot
##ou
##ov
##ow
##ox
##oy
##oz
##p
##pa
##pb
##pc
##pd
##pe
##pf
##pg
##ph
##pi
##pj
##pk
##pl
##pm
##pn
##po
##pp
##pq
##pr
##ps
##pt
##pu
##pv
##pw
##px
##py
##pz
##q
##qa
##qb
##qc
##qd
##qe
##qf
##qg
##qh
##qi
##qj
##qk
##ql
##qm
##qn
##qo
##qp
##qq
##qr
##qs
##qt
##qu
##qv
##qw
##qx
##qy
##qz
##r
##ra
##rb
##rc
##rd
##re
##rf
##rg
##rh
##ri
##rj
##rk
##rl
##rm
##rn
##ro
##rp
##rq
##rr
##rs
##rt
##ru
##rv
##rw
##rx
##ry
##rz
##s
##sa
##sb
##sc
##sd
##se
##sf
##sg
##sh
##si
##sj
##sk
##sl
##sm
##sn
##so
##sp
##sq
##sr
##ss
##st
##su
##sv
##sw
##sx
##sy
##sz
##t
##ta
##tb
##tc
##td
##te
##tf
##tg
##th
##ti
##tj
##tk
##tl
##tm
##tn
##to
##tp
##tq
##tr
##ts
##tt
##tu
##tv
##tw
##tx
##ty
##tz
##u
##ua
##ub
##uc
##ud
##ue
##uf
##ug
##uh
##ui
##uj
##uk
##ul
##um
##un
##uo
##up
##uq
##ur
##us
##ut
##uu
##uv
##uw
##ux
##uy
##uz
##v
##va
##vb
##vc
##vd
##ve
##vf
##vg
##vh
##vi
##vj
##vk
##vl
##vm
##vn
##vo
##vp
##vq
##vr
##vs
##vt
##vu
##vv
##vw
##vx
##vy
##vz
##w
##wa
##wb
##wc
##wd
##we
##wf
##wg
##wh
##wi
##wj
##wk
##wl
##wm
##wn
##wo
##wp
##wq
##wr
##ws
##wt
##wu
##wv
##ww
##wx
##wy
##wz
##x
##xa
##xb
##xc
##xd
##xe
##xf
##xg
##xh
##xi
##xj
##xk
##xl
##xm
##xn
##xo
##xp
##xq
##xr
##xs
##xt
##xu
##xv
##xw
##xx
##xy
##xz
##y
##ya
##yb
##yc
##yd
##ye
##yf
##yg
##yh
##yi
##yj
##yk
##yl
##ym
##yn
##yo
##yp
##yq
##yr
##ys
##yt
##yu
##yv
##yw
##yx
##yy
##yz
##z
##za
##zb
##zc
##zd
##ze
##zf
##zg
##zh
##zi
##zj
##zk
##zl
##zm
##zn
##zo
##zp
##zq
##zr
##zs
##zt
##zu
##zv
##zw
##zx
##zy
##zz
$
%
&
'
(
)
*
+
,
-
.
/
0
00
000
0000
0001
0002
0004
0006
001
002
0022
003
004
005
006
007
008
009
01
010
011
012
013
014
0140
015
016
017
018
019
02
020
021
022
023
024
025
026
0261
027
028
029
03
030
031
032
033
034
035
036
0362
038
04
040
041
042
043
044
05
050
051
06
060
061
067
068
07
070
08
080
081
083
09
090
0901
0a
0b
0c
0d
0e
0f
0g
0h
0i
0j
0k
0l
0m
0n
0o
0p
0q
0r
0s
0t
0u
0v
0w
0x
0y
0z
1
10
100
1000
1001
1002
1006
1007
101
1016
1017
102
1021
103
1037
1038
104
1046
105
1051
1056
106
1063
1066
107
1073
108
1080
1086
1088
109
1093
1097
1098
11
110
1100
1103
1109
111
1111
112
1126
1128
113
1130
1136
114
1146
115
116
1163
117
1177
118
1186
119
12
120
1200
1204
121
122
123
124
1241
1243
125
1250
126
127
128
129
13
130
1300
131
132
133
134
135
1350
1353
136
1365
137
1371
138
1385
139
14
140
1400
141
142
143
144
145
1450
1453
146
147
148
149
1492
15
150
1500
151
1515
152
1520
1521
1525
1526
153
1530
154
1540
155
1550
156
157
1570
158
159
1592
16
160
1600
1603
1605
161
162
1620
163
1630
1633
164
1640
1644
1648
165
1650
166
1660
1667
167
168
1680
1688
1689
169
17
170
1700
1701
1707
171
172
1720
173
1730
1739
174
1740
1745
175
1750
1755
1756
1757
1758
176
1760
1762
1763
1765
1766
1768
177
1770
1771
1772
1773
1774
1775
1776
1777
1778
1779
178
1780
1781
1782
1783
1784
1785
1786
1787
1788
1789
179
1790
1791
1792
1793
1794
1795
1796
1797
1798
1799
18
180
1800
1801
1802
1803
1804
1805
1806
1807
1808
1809
181
1810
1811
1812
1813
1814
1815
1816
1817
1818
1819
182
1820
1821
1822
1823
1824
1825
1826
1827
1828
1829
183
1830
1831
1832
1833
1834
1835
1836
1837
1838
1839
184
1840
1841
1842
1843
1844
1845
1846
1847
1848
1849
185
1850
1851
1852
1853
1854
1855
1856
1857
1858
1859
186
1860
1861
1862
1863
1864
1865
1866
1867
1868
1869
187
1870
1871
1872
1873
1874
1875
1876
1877
1878
1879
188
1880
1881
1882
1883
1884
1885
1886
1887
1888
1889
189
1890
1891
1892
1893
1894
1895
1896
1897
1898
1899
19
190
1900
1901
1902
1903
1904
1905
1906
1907
1908
1909
191
1910
1911
1912
1913
1914
1915
1916
1917
1918
1919
192
1920
1921
1922
1923
1924
1925
1926
1927
1928
1929
193
1930
1931
1932
1933
1934
1935
1936
1937
1938
1939
194
1940
1941
1942
1943
1944
1945
1946
1947
1948
1949
195
1950
1951
1952
1953
1954
1955
1956
1957
1958
1959
196
1960
1961
1962
1963
1964
1965
1966
1967
1968
1969
197
1970
1971
1972
1973
1974
1975
1976
1977
1978
1979
198
1980
1981
1982
1983
1984
1985
1986
1987
1988
1989
199
1990
1991
1992
1993
1994
1995
1996
1997
1998
1999
1a
1b
1c
1d
1e
1f
1g
1h
1i
1j
1k
1l
1m
1n
1o
1p
1q
1r
1s
1t
1u
1v
1w
1x
1y
1z
2
20
200
2000
2001
2002
2003
2004
2005
2006
2007
2008
2009
201
2010
2011
2012
2013
2014
2015
2016
2017
2018
2019
202
2020
2021
2022
2023
2024
2025
2026
203
2030
204
205
2050
206
207
208
209
21
210
211
212
213
214
215
216
217
218
219
22
220
221
222
223
224
225
226
227
228
229
23
230
2305
2307
231
232
233
234
235
236
237
238
239
24
240
241
242
243
244
245
246
247
248
249
25
250
2500
251
252
253
254
255
256
257
258
259
26
260
261
262
263
264
265
266
267
268
269
27
270
271
2710063
272
273
274
275
276
277
278
279
28
280
281
282
283
284
285
286
287
288
289
29
290
291
292
293
294
295
296
297
298
299
2a
2b
2c
2d
2e
2f
2g
2h
2i
2j
2k
2l
2m
2n
2o
2p
2q
2r
2s
2t
2u
2v
2w
2x
2y
2z
3
30
300
3000
301
302
303
304
305
306
307
3077
308
309
31
310
311
312
313
314
315
316
3166
317
318
319
32
320
321
322
323
324
325
326
327
328
329
33
330
331
332
333
334
335
336
337
338
339
34
340
341
342
343
344
345
346
347
348
349
35
350
351
352
353
354
355
356
357
358
359
36
360
361
362
363
364
365
366
367
368
369
37
370
371
372
373
374
375
376
377
378
379
38
380
381
382
383
384
385
386
387
388
389
39
390
391
392
393
394
395
396
397
398
399
3a
3b
3c
3d
3e
3f
3g
3h
3i
3j
3k
3l
3m
3n
3o
3p
3q
3r
3s
3t
3u
3v
3w
3x
3y
3z
4
40
400
4000
401
402
403
404
405
406
407
408
409
41
410
411
412
413
414
415
416
417
418
419
42
420
421
422
423
424
425
426
427
428
429
43
430
431
432
433
4331
434
435
436
437
438
439
44
440
441
442
443
444
445
446
447
448
449
45
450
451
452
453
454
455
456
457
458
459
46
460
461
462
463
464
465
466
467
468
469
47
470
471
472
473
474
475
476
477
478
479
48
480
481
482
483
484
485
486
487
488
489
49
490
491
492
493
494
495
496
497
498
499
4a
4b
4c
4d
4e
4f
4g
4h
4i
4j
4k
4l
4m
4n
4o
4p
4q
4r
4s
4t
4u
4v
4w
4x
4y
4z
5
50
500
5000
501
502
503
504
505
506
507
508
509
51
510
511
512
513
514
515
516
517
518
519
52
520
521
522
523
524
525
526
527
528
529
53
530
531
532
533
534
535
536
537
538
539
54
540
541
542
543
544
545
546
547
548
549
55
550
551
552
553
554
555
556
557
55750
558
559
56
560
561
562
563
565
567
568
569
57
570
571
573
574
575
576
577
579
58
580
581
582
583
584
585
586
587
588
589
59
590
591
592
593
594
595
596
597
598
599
5a
5b
5c
5d
5e
5f
5g
5h
5i
5j
5k
5l
5m
5n
5o
5p
5q
5r
5s
5t
5u
5v
5w
5x
5y
5z
6
60
600
6000
601
602
603
604
605
606
607
609
61
610
611
612
613
614
615
616
617
618
62
620
621
622
623
624
625
626
627
628
629
63
630
631
632
633
634
635
636
6361
637
639
64
640
641
642
643
644
645
646
65
650
651
653
655
66
660
661
664
665
666
667
668
67
670
671
672
674
675
676
677
679
68
680
681
683
684
685
687
688
689
69
690
691
692
699
6a
6b
6c
6d
6e
6f
6g
6h
6i
6j
6k
6l
6m
6n
6o
6p
6q
6r
6s
6t
6u
6v
6w
6x
6y
6z
7
70
700
7000
701
705
707
709
71
710
711
715
717
72
720
721
723
724
725
726
727
73
730
731
732
733
737
74
740
745
747
75
750
751
757
76
760
767
77
770
777
78
780
781
783
7864
787
79
790
7a
7b
7c
7d
7e
7f
7g
7h
7i
7j
7k
7l
7m
7n
7o
7p
7q
7r
7s
7t
7u
7v
7w
7x
7y
7z
8
80
800
8000
801
8014
8018
802
8028
8047
808
81
810
8108
815
817
82
820
8248
83
830
833
84
840
849
85
850
86
867
87
870
87021
874
88
880
883
886
89
892
893
8a
8b
8c
8d
8e
8f
8g
8h
8i
8j
8k
8l
8m
8n
8o
8p
8q
8r
8s
8t
8u
8v
8w
8x
8y
8z
9
90
900
907
91
910
911
917
92
920
93
930
933
94
95
950
96
960
962
963
965
967
97
970
975
978
9789794153857
979
98
980
981
983
99
990
999
9a
9b
9c
9d
9e
9f
9g
9h
9i
9j
9k
9l
9m
9n
9o
9p
9q
9r
9s
9t
9u
9v
9w
9x
9y
9z
:
;
<
=
>
?
@
[
[CLS]
[MASK]
[PAD]
[SEP]
[UNK]
\
]
^
_
`
a
a0
a1
a2
a3
a4
a5
a6
a7
a8
a9
aa
aaa
aal
aan
aang
aaron
ab
aba
abad
abadi
abah
abang
abbas
abbasiyah
abbey
abbott
abc
abd
abdel
abdi
abdul
abdullah
abdurrahman
abe
abel
abelian
abhishek
abi
abidin
abigail
abingdon
abis
abjad
abkhazia
abnormal
aborigin
aborsi
about
above
abraham
abrams
abri
abs
absen
absolut
absolute
abstract
abstracts
abstrak
abu
abubakar
abul
abuse
ac
academia
academic
academie
academy
acak
acanthochaetetes
acap
acara
acaranya
access
accessdate
accessed
accessyear
accident
according
account
accounting
accounts
accreditations
ace
aceh
aces
achievement
achmad
acid
acm
acmaeodera
acoustic
acquires
acquisition
across
act
acta
acting
action
active
activist
activities
activity
actor
actors
actress
acts
actually
acuan
acute
ad
ada
adab
adakah
adakan
adalah
adam
adams
adanja
adanya
adaptasi
adaptation
adapun
adat
add
added
addison
additional
address
adds
ade
adegan
adelaide
adele
aden
adhi
adi
adidas
adik
adikku
adiknya
adil
adinda
adipati
adit
aditif
aditya
adj
adjektiva
adji
adjusted
adler
admin
administrasi
administratif
administration
administrative
administrator
admiral
adnan
adobe
adolf
adonan
adopsi
adrian
adu
adult
adults
advance
advanced
advances
advent
adventure
adventures
adverbia
advertising
advisory
advocate
advokasi
advokat
ae
aek
aerial
aero
aeronautics
aerospace
aevi
af
afc
afdeeling
afdeling
aff
affair
affairs
afganistan
afghan
afghanistan
afi
afiliasi
afp
africa
african
afrika
afro
after
ag
aga
again
against
agak
agaknya
agam
agama
agamanya
agar
agatha
age
agen
agence
agency
agenda
ageng
agensi
agent
agents
ages
agm
agnes
agni
ago
agong
agraria
agree
agreement
agregat
agresi
agresif
agribisnis
agricultural
agriculture
agrilus
agromyza
agromyzidae
aguilera
agung
agus
agustin
agustinus
agustus
ah
ahead
ahli
ahmad
ahmed
ahn
ahok
ai
aib
aichi
aid
aida
aids
aim
aims
ain
ainu
ainun
aip
aipc
air
airasia
airbus
aircraft
aires
airlangga
airline
airlines
airnya
airplay
airport
airports
airways
aisha
aishwarya
aisyah
aisyiyah
aj
aja
ajaib
ajak
ajakan
ajang
ajar
ajaran
ajarannya
ajax
ajay
ajeng
aji
ajudan
ak
aka
akabri
akad
akademi
akademik
akademis
akademisi
akal
akan
akandia
akar
akarnya
akb
akbar
akbp
akhir
akhiran
akhirat
akhirnya
akhlak
akhmad
aki
akibat
akibatnya
akimoto
akira
akita
akkadia
akmil
akoe
akomodasi
akpol
akrab
akreditasi
akronim
aksara
akselerasi
aksen
akses
aksesoris
akshay
aksi
aksinya
aksioma
akta
aktif
akting
aktingnya
aktivasi
aktivis
aktivitas
aktivitasnya
aktor
aktris
aktual
aku
akuarium
akuatik
akuisisi
akulah
akumulasi
akun
akuntabilitas
akuntan
akuntansi
akurasi
akurat
akustik
akut
al
ala
alabama
aladdin
alaihi
alain
alam
alamat
alami
alamiah
alamnya
alamsyah
alan
aland
alang
alangkah
alap
alarm
alas
alasan
alasannya
alaska
alat
alauddin
alba
albania
albany
albatros
albert
alberta
alberto
albertus
albion
albrecht
album
albumnya
albums
albuquerque
alcohol
aldi
aldo
alec
alejandro
aleksander
aleksandr
aleksandria
aleksey
aleppo
alergi
alert
alessandro
alex
alexa
alexander
alexandra
alexandre
alexandria
alexis
alfa
alfabet
alfonso
alfred
alfredo
alga
algebra
algeria
algoritma
algoritme
alhasil
ali
alia
aliansi
alias
alice
alicia
alien
alif
aligned
alih
alik
alim
alinea
aliran
alis
alison
alive
aliyah
aljabar
aljazair
alkali
alkitab
alkohol
all
alla
allah
allan
allen
alley
alliance
allied
allison
allium
allkpop
allmovie
allmusic
allrovi
ally
alm
alma
almanac
almanak
almarhum
almost
alokasi
alone
along
alonso
alor
aloysius
alpen
alpha
alphabet
alphonse
alpine
alquran
already
als
also
alt
altar
alter
alternatif
alternative
although
altimetrica
altitudine
alto
alu
alue
aluminium
alumni
alumnus
alun
alur
alvarez
alvaro
alvin
always
alwi
alzheimer
am
ama
amal
amalia
aman
amanah
amanat
amanda
amandemen
amangkurat
amar
amarah
amaryllidaceae
amat
amateur
amatir
amazing
amazon
ambang
ambarawa
ambassador
amber
ambil
ambisi
ambisius
ambon
ambrose
ambulans
amc
amd
ame
amelia
amendemen
america
american
americana
americans
americas
amerika
ames
amfibi
ami
amid
amin
amina
aminah
amino
amir
amit
amitabh
amman
amnesti
amnesty
amon
among
amonia
amonium
amor
amos
amour
amp
ampas
ampat
ampel
ampuh
ampun
amr
ams
amsal
amsterdam
amunisi
amuntai
amy
an
ana
anak
anakku
anaknya
anal
analis
analisa
analisis
analitik
analog
analogi
analysis
anand
ananda
anang
ananta
anarkis
anarkisme
anas
anastasia
anatolia
anatomi
anatomy
ancaman
ancestry
anchor
ancient
ancol
and
anda
andadiskusikan
andalan
andalas
andalus
andalusia
andaman
anders
andersen
anderson
andes
andhika
andhra
andi
andika
andil
andini
ando
andorra
andra
andras
andre
andrea
andreas
andreeva
andrei
andres
andrew
andrews
andrey
android
andy
aneh
aneka
aneksasi
anemia
ang
angan
angel
angela
angeles
angelina
angelo
angels
angga
anggap
anggapan
anggar
anggaran
anggota
anggotanya
anggrek
anggun
anggur
angin
angka
angkasa
angkat
angkatan
angkatnya
angklung
angkola
angkor
angkot
angkut
angkutan
angle
anglikan
anglo
angola
angry
angsa
angsur
angsuran
angus
anhui
ani
anies
anil
animal
animalia
animals
animasi
animated
animation
animator
anime
anion
anis
anita
anjing
anjlok
anjou
anjungan
anjuran
ankara
ann
anna
annales
annals
annapolis
anne
annette
annex
annie
annisa
anniversary
anno
annotated
announce
announced
announcement
announces
annual
ano
anom
anonim
anonymous
anorganik
another
answer
answers
ant
antagonis
antar
antara
antaranews
antaranya
antarctic
antariksa
antariksawan
antarklub
antarkota
antarktika
antarmuka
antarstasiun
antartika
antasari
antena
anterior
anthaxia
anthem
anthology
anthony
anthrax
anthropology
anti
antibiotik
antibodi
antigen
antigua
antik
anting
antiokhia
antiokhos
antioksidan
antiquities
antiquity
antoine
antologi
anton
antonia
antonio
antonius
antonov
antony
antropolog
antropologi
antusias
antv
anu
anugerah
anugrah
anumerta
anus
anwar
any
anyaman
anyar
anything
ao
aoi
aoki
aol
aomori
aorta
aoyama
ap
apa
apabila
apache
apakah
apalagi
apapun
aparat
aparatur
apartemen
apartheid
apbd
apbn
apel
apg
api
apj
aplikasi
apocalypse
apollo
apostolic
apostolicae
apostolik
apotek
apoteker
app
appeal
appear
appearance
appears
appendix
apple
appleton
application
applications
applied
appointed
approach
approaches
apps
apr
apresiasi
april
apung
aq
aqua
aquinas
aquino
aquitaine
ar
ara
arab
arabia
arabian
arabic
arabs
arafat
aragon
arah
arahan
arak
arakan
aram
araneae
araneidae
araneus
arang
aransemen
aras
arashi
arbitrase
arbor
arc
arca
arcade
arch
archaeological
archaeology
archbishop
archdiocese
archer
archibald
archipelago
architectural
architecture
archive
archived
archives
arctic
are
area
areal
areas
arema
aren
arena
ares
arg
argentina
argo
argumen
argumentasi
ari
aria
ariana
arie
arief
ariel
arif
arifin
ario
aris
aristokrat
aristoteles
aritmetika
arizona
arjun
arjuna
ark
arkais
arkansas
arkeolog
arkeologi
arkeologis
arktik
arlington
arm
armada
armand
armando
armed
armenia
armenian
armor
armour
arms
armstrong
army
arnold
arok
aroma
aromatik
aron
arondisemen
around
array
arrested
arrow
ars
arsenal
arsip
arsitek
arsitektur
arsyad
art
arte
artefak
artemis
arteri
artha
arthropoda
arthur
arti
article
articles
artificial
artikel
artileri
artillery
artinya
artis
artist
artistik
artists
arts
aru
aruba
arun
arung
arus
arwah
arxiv
arya
as
asa
asahan
asahi
asal
asalkan
asalnya
asam
asap
asas
asasi
ascii
asean
asem
asep
aset
asetat
ash
asha
asher
ashgate
ashley
ashton
asi
asia
asian
asiatic
asih
asilidae
asimilasi
asin
asing
asiria
asisten
ask
asked
asli
aslinya
asma
asmara
asmat
asn
asoka
asosiasi
asosiatif
asp
aspal
asparagales
aspects
aspek
aspergillus
aspirasi
aspx
asrama
asri
assad
assam
assassin
assassination
assault
assembly
assessment
asset
assist
assistance
assistant
associated
associates
association
associations
astana
asteraceae
asterales
asteroid
asteroids
asti
aston
astra
astragalus
astrid
astro
astrologi
astronaut
astronom
astronomi
astronomical
astronomy
astrophysical
astrophysics
asuh
asuhan
asuka
asumsi
asupan
asuransi
asy
asyik
asyur
at
ata
atalanta
atap
atapnya
atari
atas
atasan
atasnya
ataturk
atau
ataukah
ataupun
ateis
aten
ath
athena
athens
athletes
athletic
ati
atkins
atkinson
atlanta
atlantic
atlantik
atlantis
atlas
atlet
atletico
atletik
atm
atma
atmosfer
atmospheric
atol
atom
atomic
atp
atr
atraksi
atribut
atsushi
attack
attacks
attempt
aturan
au
aubrey
auckland
audi
audience
audio
audiobantuan
audisi
audit
auditor
auditorium
audrey
auf
aug
augsburg
august
augusta
auguste
augustine
augustus
auksilier
aula
aulia
aun
aung
aur
aura
aurora
aus
auschwitz
austin
australia
australian
australis
austria
austrian
austronesia
author
authorities
authority
authors
autisme
auto
autobiografi
autobiography
autobots
automatic
automobile
automotive
autosport
autumn
aux
av
ava
available
avant
avatar
ave
avec
avengers
avenue
average
avery
avex
aviation
aviv
avril
aw
awak
awakening
awal
awalan
awalnya
awam
awan
awang
award
awarded
awards
away
awet
ax
axel
axis
ay
aya
ayah
ayahanda
ayahandanya
ayahku
ayahnya
ayaka
ayam
ayat
ayo
ayu
ayub
ayumi
az
azab
azerbaijan
azhar
azis
aziz
aztek
b
b0
b1
b2
b3
b4
b5
b6
b7
b8
b9
ba
baal
bab
baba
babad
babak
babakan
babat
babe
babel
babi
babilonia
babu
baby
bac
baca
bacaan
bach
bachchan
bachelor
bachtiar
back
background
backing
bacon
bactrocera
bad
bada
badai
badak
badan
badannya
badar
badawi
baden
badminton
badui
badung
badut
bae
baek
baekje
bafta
bag
bagai
bagaikan
bagaimana
bagaimanakah
bagaimanapun
bagan
bagasi
baghdad
bagi
bagian
bagiannya
bagikan
bagiku
bagimu
baginda
baginya
bagong
bagus
bah
baha
bahagia
bahagian
bahama
bahan
bahar
bahari
bahasa
bahasanya
bahawa
bahaya
bahkan
bahn
bahrain
bahru
bahtera
bahu
bahwa
bahwasanya
bai
baik
baiklah
baiknya
bailey
baillargeon
bailly
bait
baitul
baja
bajaj
bajak
baji
bajo
baju
bak
baka
bakal
bakar
bakat
bakatnya
bakau
baker
bakrie
bakso
bakteri
bakti
baktinya
baku
bala
balada
balai
balance
balangan
balap
balapan
balas
balasan
baldwin
bale
balet
bali
balige
balik
balikpapan
baling
balistik
balita
balkan
balkans
ball
ballad
balok
balon
balsaminaceae
baltik
baltimore
bambang
bamboo
bambu
ban
banana
banarsidass
band
banda
bandai
bandar
bandara
banding
bandingkan
bandit
bandung
bang
bangalore
bangau
banget
bangga
banggai
bangil
bangka
bangkai
bangkalan
bangkit
bangkok
bangkrut
bangku
bangladesh
bangli
bangsa
bangsal
bangsanya
bangsawan
bangun
bangunan
bangunannya
bani
banjak
banjar
banjarbaru
banjarmasin
banjarnegara
banjarsari
banjir
bank
banking
bankir
banks
banksia
banner
bantaeng
bantal
bantalan
bantam
banten
banteng
bantimurung
bantu
bantuan
bantul
banu
banua
banyak
banyaknya
banyu
banyuasin
banyumas
banyuwangi
bao
bapa
bapak
bapaknya
baptis
baptisan
baptist
baptiste
bar
bara
barack
barak
barang
barangay
barangkali
barangsiapa
barat
barbados
barbar
barbara
barber
barbuda
barcelona
barclays
barel
bareng
bareskrim
bari
baris
barisan
barito
barker
barnabas
barnard
barnes
barney
baro
baroe
barok
baron
barong
barr
barrett
barrier
barron
barru
barry
bart
bartlett
barton
baru
barulah
barunya
barus
bas
basa
basah
basal
base
baseball
based
basel
basic
basil
basilika
basin
basis
basket
basketball
basque
basri
bass
bassis
bastian
basu
basuki
baswedan
bat
bata
batak
batal
batalion
batalyon
batam
batang
batanghari
batangnya
batara
batas
batasan
batavia
bataviaasch
baterai
bates
bath
batik
batin
batman
battery
battle
battles
batu
batuan
batubara
batuk
batur
baturaja
bau
baudouin
bauer
bavaria
bawa
bawaan
bawah
bawahan
bawahannya
bawahnya
bawang
bawaslu
baxter
bay
baya
bayan
bayang
bayangan
bayar
bayaran
bayer
bayerisches
bayern
bayi
bayinya
bayu
bb
bbc
bbm
bc
bca
bd
bdfutbol
be
bea
beach
beam
bean
bear
bears
beasiswa
beast
beat
beatles
beatrice
beats
beautiful
beauty
beaux
beban
bebas
bebatuan
bebek
beberapa
becak
became
because
beck
becker
become
becomes
becoming
bed
beda
bedagai
bedah
bedanya
bedil
bee
been
beer
beethoven
before
began
begin
begini
beginning
beginnings
begins
begitu
begitulah
begonia
begoniaceae
behavior
behavioral
behaviour
behind
bei
beijing
being
beirut
bej
bejana
beji
bek
bekal
bekas
bekasi
bekerdja
bekerja
bekerjasama
beku
bel
bela
beladiri
belah
belahan
belajar
belaka
belakang
belakangan
belakangnya
belalang
belanda
belang
belanja
belantara
belarus
belarusia
belas
belasan
belenggu
belerang
belfast
belgia
belgian
belgium
belgrade
beli
beliau
belief
beliefs
believe
belitung
belize
bell
bella
bellamy
belle
belok
below
belt
belu
beluk
belukar
belum
belut
bem
ben
benang
benar
bencana
benci
benda
bendahara
bendera
bendungan
benedict
benediktus
benefits
bener
benfica
bengal
bengali
bengawan
benggala
bengkak
bengkalis
bengkayang
bengkel
bengkok
bengkulu
beni
benih
benin
bening
benito
benjamin
bennett
benny
benoit
bensin
benson
bentang
benteng
benth
bentley
bentrok
bentrokan
bentuk
bentukan
bentuknya
benturan
benua
benyamin
benz
beograd
bepergian
ber
berabad
beracun
berada
beradaptasi
beradik
beradu
berafiliasi
beragam
beragama
berair
berakar
berakhir
berakhirnya
berakibat
beraksi
berakting
beralamat
beralasan
beralih
beraliran
beralkohol
berambut
beranak
beranda
beraneka
berang
beranggapan
beranggotakan
berangkat
berangsur
berani
beranjak
berantai
berantakan
berapa
berapi
berargumen
berarti
beras
berasa
berasal
berat
beratnya
beraturan
berau
berawak
berawal
berbadan
berbagai
berbagi
berbahagia
berbahan
berbahasa
berbahaya
berbakat
berbakti
berbalik
berbanding
berbangsa
berbaring
berbaris
berbasis
berbatasan
berbatu
berbau
berbayar
berbeda
berbelanja
berbelok
berbentuk
berber
berbicara
berbisnis
berbobot
berbohong
berbuah
berbuat
berbukit
berbulan
berbulu
berbunga
berbunyi
berburu
bercabang
bercahaya
bercak
bercakap
bercampur
bercanda
bercerai
bercerita
bercita
bercocok
bercorak
berdagang
berdamai
berdampak
berdampingan
berdarah
berdasar
berdasarkan
berdatangan
berdaulat
berdaun
berdaya
berdebat
berdekatan
berdiam
berdiameter
berdimensi
berdinas
berdiri
berdirilah
berdirinya
berdiskusi
berdjalan
berdoa
berdomisili
berdosa
berdua
berduet
berduka
berdurasi
berduri
bereaksi
beredar
beregu
berekspansi
bereksperimen
berenang
berencana
berevolusi
berfirman
berfokus
berfungsi
berg
bergabung
bergambar
berganti
bergantian
bergantung
bergaris
bergaul
bergaya
bergegas
bergelar
bergelombang
bergen
bergengsi
bergenre
berger
bergerak
bergeser
berguna
berguru
berhadapan
berhak
berhala
berhalangan
berhaluan
berharap
berharga
berhasil
berhati
berhenti
berhubung
berhubungan
beri
beribadah
beribu
berikan
berikatan
beriklim
berikut
berikutnya
beriman
beringin
berinteraksi
berinvestasi
berisi
berisikan
berisiko
beristirahat
berita
beritasatu
berjadwal
berjaga
berjalan
berjalannya
berjangka
berjanji
berjarak
berjasa
berjaya
berjenis
berjiwa
berjualan
berjuang
berjudul
berjumlah
berjumpa
berkabung
berkah
berkaitan
berkaki
berkala
berkali
berkampanye
berkantor
berkapasitas
berkarier
berkarya
berkas
berkat
berkata
berkatalah
berkebangsaan
berkecepatan
berkecimpung
berkedudukan
berkeinginan
berkekuatan
berkelahi
berkelana
berkelanjutan
berkeley
berkeliaran
berkeliling
berkelompok
berkemah
berkembang
berkembangnya
berkenaan
berkenalan
berkenan
berkencan
berkendara
berkepala
berkepanjangan
berkepentingan
berkerabat
berkesempatan
berkesinambungan
berkewajiban
berkewarganegaraan
berkiprah
berkisah
berkisar
berkolaborasi
berkomentar
berkomitmen
berkompetisi
berkomunikasi
berkonsentrasi
berkonsultasi
berkontribusi
berkualitas
berkuasa
berkuda
berkuliah
berkulit
berkumpul
berkunjung
berkurang
berkurangnya
berlabuh
berlaga
berlainan
berlaku
berlakunya
berlalu
berlandaskan
berlangganan
berlangsung
berlangsungnya
berlanjut
berlantai
berlapis
berlari
berlatar
berlatih
berlawanan
berlayar
berlebih
berlebihan
berlian
berlibur
berlimpah
berlin
berlinale
berlindung
berlipat
berlisensi
berlokasi
berlomba
berlubang
bermacam
bermain
bermakna
bermaksud
bermanfaat
bermarkas
bermasalah
bermata
bermatapencaharian
bermesin
bermigrasi
bermimpi
berminat
bermitra
bermotor
bermuara
bermuatan
bermuda
bermukim
bermula
bermunculan
bermusik
bermusuhan
bermutu
bern
bernama
bernapas
bernard
bernardo
bernaung
bernegara
bernegosiasi
bernhard
berniat
bernie
bernilai
bernomor
bernstein
bernuansa
bernyanyi
bernyawa
beroperasi
berorientasi
berpacaran
berpakaian
berpaling
berpandangan
berpangkat
berpartisipasi
berpasangan
berpasir
berpegang
berpendapat
berpendidikan
berpenduduk
berpengalaman
berpengaruh
berpenghuni
berperan
berperang
berperilaku
berpidato
berpihak
berpikir
berpindah
berpisah
berpori
berposisi
berpotensi
berprestasi
berprofesi
berpuasa
berpura
berpusat
berputar
berputra
berry
bersabda
bersahabat
bersaing
bersaksi
bersalah
bersama
bersamaan
bersamanya
bersambung
bersandar
bersangkutan
bersarang
bersatu
bersaudara
bersayap
bersebelahan
berseberangan
bersedia
bersejarah
bersekolah
bersekutu
berselang
berselisih
bersemangat
bersembunyi
bersenang
bersenjata
bersentuhan
bersepeda
berseri
berseru
bersiap
bersiaran
bersifat
bersih
bersikap
bersikeras
bersinar
bersinonim
berskala
berspekulasi
berstatus
bersuara
bersuku
bersumber
bersumpah
bersyarat
bersyukur
bert
bertabrakan
bertahan
bertahap
bertahta
bertahun
bertajuk
bertakhta
bertambah
bertambahnya
bertanding
bertanggal
bertanggung
bertanggungjawab
bertani
bertanya
bertapa
bertaraf
bertarikh
bertarung
bertekad
bertekanan
bertelur
bertema
bertemakan
berteman
bertempat
bertempur
bertemu
bertenaga
bertengkar
bertentangan
bertepatan
berteriak
berterima
bertiga
bertindak
bertingkat
bertiup
bertobat
bertolak
bertrand
bertubuh
bertugas
bertujuan
bertukar
bertulang
bertuliskan
bertumbuh
bertumpu
bertunangan
berturut
beruang
berubah
berujung
berukuran
berulang
berumur
berunding
beruntun
beruntung
berupa
berupaya
berurusan
berurutan
berusaha
berusia
bervariasi
berwarna
berwenang
berwujud
besar
besaran
besarnya
beserta
besi
besok
best
bet
beta
betapa
betawi
beth
betina
betis
betlehem
beton
better
betty
betul
betung
between
beverly
bevolkerung
bevolkerungsstandes
bey
beyonce
beyond
bf
bfi
bg
bh
bhakti
bharat
bhatt
bhayangkara
bhd
bhikkhu
bhre
bhutan
bi
biak
bian
bianca
biang
biar
biara
biarawan
biarawati
biarkan
biarlah
bias
biasa
biasanya
biaya
bibcode
bibel
bibi
bibinya
bibir
bibit
bible
biblical
bibliografi
bibliography
bibliotheca
bibliotheque
bicara
bid
bidadari
bidan
bidang
bidangnya
biden
bieber
biennale
big
bigg
biggest
bij
bijak
bijaksana
biji
bijian
bijih
bijinya
bikin
bikini
biksu
bila
bilah
bilamana
bilancio
bilang
bilangan
bilateral
bilbao
bilik
bill
billboard
billie
billion
billy
bima
bimbingan
bin
bina
binapemdes
binasa
binatang
bincang
biner
bing
bingkai
bingung
binjai
binomial
bintan
bintang
bintara
bintaro
binti
bintik
bintuni
bio
biochemistry
biodata
biodiversity
biografi
biographical
biographie
biographies
biography
biokimia
biol
biola
biologi
biological
biologis
biology
biomassa
bioskop
biotechnology
bioteknologi
bipolar
bir
biran
bird
birdlife
birds
bireuen
birmingham
biro
birokrasi
birokrat
birth
birthday
biru
bis
bisa
bisbol
bisby
biseksual
bishop
bisma
bismarck
bisnis
bisnisnya
bison
bissau
bisu
bit
bitcoin
bitung
biz
bizantin
bizantium
bj
bk
bl
blabbermouth
black
blackberry
blackburn
blackpink
blackwell
blade
blair
blake
blambangan
blanc
blanche
blanchett
blanco
blang
blast
bleach
bless
blessed
blind
blink
blitar
bloch
block
blockbuster
blockchain
blog
blogger
blogs
blogspot
blok
blokade
blommendaal
blood
bloody
bloom
bloomberg
bloomington
bloomsbury
blora
blu
blue
blues
bluetooth
bm
bmatrix
bmg
bmi
bmj
bmw
bn
bni
bo
boa
board
boat
bob
bobby
bobo
boboiboy
bobot
boca
bocah
bocor
bodi
bodies
bodoh
body
boeing
boekan
boer
boga
bogor
bogota
bohemia
bohong
bois
boiss
bojonegoro
bojong
bok
boku
bola
bolaang
bolak
bold
boleh
bolesław
bolivia
bollywood
bologna
bolshevik
bolt
bolton
bom
bomb
bombardier
bombay
bomber
bombing
bombyliidae
bombylius
bon
bonaparte
bond
bondowoso
bone
boneka
bones
bong
bongkar
bonjol
bonn
bonnie
bono
bontang
bonto
bontoa
bonus
book
books
boom
boost
boot
booth
bor
bora
bordeaux
border
borders
boris
borjuis
born
borneo
borobudur
boron
borough
boru
borussia
borys
bos
bosan
bosch
bose
bosnia
boss
boston
bosworth
bot
botani
botanic
botanical
botany
both
botol
botswana
bottom
boulder
boulevard
bound
boundaries
boundary
bounty
bourbon
bourgogne
bourgoin
bourne
boven
bow
bowie
bowl
box
boxer
boxing
boxofficemojo
boy
boyband
boyd
boydell
boyfriend
boyle
boyolali
boys
bp
bpd
bpk
bppt
bps
bq
br
bra
brabant
brad
bradford
bradley
brady
braga
brahma
brahmana
braille
brain
bram
branch
brand
brandenburg
brandon
brands
brantas
brasil
bratislava
braun
brave
bravo
brawijaya
brazil
brazilian
bread
break
breaking
breaks
breath
brebes
bremen
brenda
brendan
brennan
brent
brescia
bretagne
brett
breuning
brevet
brewster
brexit
bri
brian
bride
bridge
bridges
brief
brien
brigade
brigadir
briggs
bright
brighton
brigif
brigjen
brill
brimob
bring
bringing
brings
brisbane
bristol
brit
britain
britania
britannica
british
britney
brittany
broadband
broadcast
broadcasting
broadway
brock
broken
bromo
bronx
bronze
brook
brooke
brooklyn
brooks
bros
brother
brothers
brought
brown
browne
browning
browse
browser
brt
bruce
brunei
bruno
brunswick
brussel
brussels
brutal
bruto
bryan
bryant
bryce
bs
bsd
bt
btr
bts
bu
buah
buahan
buahnya
buana
buang
buangan
buas
buat
buatan
buatannya
buaya
bubar
bubble
bubuk
bubur
buchanan
buck
buckley
bud
budak
budapest
budaya
budayawan
buddha
buddhis
buddhism
buddhisme
buddhist
buddy
budget
budha
budi
budidaya
budiman
buenos
buffalo
bug
bugguide
bugis
bugs
build
building
buildings
built
bujang
bujur
buka
bukaan
bukan
bukankah
bukanlah
bukannya
bukhari
bukit
bukittinggi
bukti
buku
bukunya
bulan
bulanan
bulat
bulbophyllum
buleleng
buletin
bulgaria
bulgarian
bulir
bull
bulla
bullet
bulletin
bullock
bulu
buluh
bulukumba
bulungan
bulunya
bulutangkis
bum
bumbu
bumi
bumiputera
bumn
bun
bunda
bundar
bundaran
bundesliga
bung
bunga
bunganya
bunge
bungkus
bungo
bungsu
bunker
bunko
bunny
buntu
bunuh
bunyi
buol
bupati
buprestidae
buprestis
buprestoidea
bureau
burger
burgess
burhan
burhanuddin
buritan
burke
burkina
burma
burn
burning
burns
bursa
burt
burton
buru
buruan
buruh
buruk
buruknya
burundi
burung
bury
bus
busa
busan
busana
busch
bush
business
businessweek
buster
busuk
busur
but
buta
butir
butiran
butler
buton
butterfly
button
butuh
buwono
buy
buya
buys
buyut
buzz
bv
bw
bwf
bx
by
bye
byrne
byron
byung
byzantine
byzantium
bz
c
c0
c1
c2
c3
c4
c5
c6
c7
c8
c9
ca
cabai
cabang
cabe
cabinet
cable
cabrera
cacar
cacat
cacing
cadang
cadangan
caesar
caf
cafe
cagar
cage
cagliari
cahaya
cai
cain
cair
cairan
cairo
cak
cakap
cakar
cake
cakra
cakram
cakrawala
cakung
cakupan
calais
calcarea
calcio
calcutta
caldwell
caleg
calendar
calgary
california
call
called
calling
calls
callyspongia
calon
calvin
cam
camat
cambodia
cambridge
cambuk
came
cameo
camera
cameron
camille
camp
campaign
campaigns
campania
campbell
campo
campur
campuran
campus
can
canada
canadian
canal
canberra
cancer
candi
candidate
candra
candu
candy
canggih
cangkang
cangkir
cannes
cannon
canon
canterbury
cantik
canton
canyon
cao
cap
capacity
cape
capital
capitalism
capitani
capitol
capo
captain
capture
car
cara
caranya
carbon
card
cardiff
cardinal
cardinals
cards
care
career
carex
carey
cargo
cari
caribbean
carl
carla
carlo
carlos
carlton
carmen
carnegie
carnival
carol
carolina
caroline
carolyn
carpenter
carr
carrefour
carrie
carrier
carroll
carry
cars
carson
carter
cartoon
cas
casa
casablanca
case
cases
casey
cash
casino
cast
castillo
casting
castle
castro
casts
cat
catalan
catalog
catalogue
catalunya
catatan
catch
cate
category
cathedral
catherine
catholic
catholica
cathy
cats
catur
cause
causes
cave
cavendish
cawan
cayman
cb
cbc
cbn
cbs
cc
cctv
cd
cdc
cdma
cdot
cdots
ce
cebu
cecil
cecilia
cedera
cek
ceko
cekoslowakia
cekungan
celah
celaka
celana
celcius
celebes
celebrate
celebrates
celebration
celebrities
celebrity
celine
cell
cello
cells
cellular
celtic
cemara
cemas
cemburu
cemerlang
cemetery
cempaka
cena
cendana
cendekiawan
cenderawasih
cenderung
cendrawasih
cengkih
census
center
centers
central
centre
centro
centuries
century
ceo
cepat
cepu
cerah
cerai
ceramah
cerambycidae
cerdas
cerdik
ceremony
ceres
cerezo
ceria
cerita
ceritanya
cermat
cermin
cerodontha
cerpen
certain
certificate
certification
certifications
certified
cesar
ceska
cessna
cet
cetak
cetakan
cewek
ceylon
cf
cfm
cg
cgi
ch
cha
chad
chae
chai
chain
chair
chairil
chairman
challenge
challenger
challenges
cham
chamber
chamberlain
chamberlin
chambers
champ
champagne
champion
champions
championship
championships
chan
chance
chandler
chandra
chang
change
changed
changes
changing
channel
channels
chao
chaos
chapel
chaplin
chapman
chapter
chapters
character
characteristics
characters
charge
charity
charlemagne
charles
charlie
charlotte
chart
charter
charts
chase
chat
chateau
chatterjee
chau
chavez
che
chechnya
check
checklist
cheese
chef
chelsea
chem
chemical
chemistry
chen
cheney
cheng
chengdu
chennai
cheol
chernobyl
cherry
cheryl
chess
chester
cheung
chevrolet
chi
chia
chiang
chiba
chicago
chicken
chief
chika
child
childhood
children
chile
chili
chin
china
chinese
ching
chip
chironomidae
chisholm
chloe
cho
chocolate
choe
choi
choice
choir
chong
chongqing
chopra
chorus
chosen
chosun
chou
chow
chris
christ
christi
christian
christianity
christians
christie
christina
christine
christmas
christoph
christophe
christopher
christy
chrisye
chrome
chronicle
chronicles
chronology
chrysler
chrysobothris
chu
chuck
chul
chun
chung
chuo
church
churches
churchill
ci
cia
ciamis
cianjur
cibinong
cibubur
cicero
cicit
cid
cikal
cikampek
cikarang
cilacap
cilegon
cilik
cimahi
cina
cincin
cincinnati
cinderella
cindy
cine
cinema
cinemascore
cineplex
cinta
cintaku
cintanya
cipinang
cipt
cipta
ciptaan
ciptaannya
ciptakan
ciputat
ciputra
circ
circle
circuit
circus
cirebon
ciri
cis
cit
cita
citanya
citation
cite
cited
cites
cities
citizen
citizens
citizenship
citra
citroen
city
ciudad
ciuman
civic
civil
civilization
cj
ck
cl
claim
claims
claire
clara
clare
clarence
clarendon
clark
clarke
clarkson
clash
class
classic
classical
classics
classification
classifying
clathria
claude
claudia
claudio
claudius
claus
clay
clayton
clean
clear
clement
cleopatra
cleveland
click
client
cliff
clifford
climate
clinic
clinical
clinton
clio
clip
clive
clock
clojure
close
closed
closer
closing
cloud
clouds
club
clubs
cluster
clyde
cm
cn
cnbc
cnet
cnn
co
coach
coal
coalition
coast
coastal
coauthors
coba
cobaan
cobra
coca
cochrane
coco
cocok
code
codes
codex
cody
coen
coffee
cognitive
cohen
coin
coins
cokelat
coklat
col
cola
cold
coldplay
cole
coleman
coleoptera
coli
colin
coll
collaboration
collapse
collected
collection
collections
collective
collector
college
colleges
collider
collier
collins
cologne
colombia
colonel
colonial
colony
color
colorado
colors
colour
columbia
columbus
column
columns
com
combat
combined
come
comeback
comedy
comes
comets
comfort
comic
comics
coming
command
commander
comment
commentary
comments
commerce
commercial
commission
commissioner
committee
common
commons
commonwealth
communication
communications
communism
communist
communities
community
commuter
como
compact
compagnie
companies
companion
company
comparative
comparison
compendium
competition
compilation
complete
completes
complex
composer
composition
compound
compounds
comprehensive
compton
computer
computing
comte
comune
comuni
con
conan
concacaf
concept
concepts
concern
concerning
concert
concise
conde
conder
conditions
condong
confederation
conference
confirm
confirmed
confirms
conflict
cong
congo
congress
congressional
conmebol
connect
connecticut
connection
connie
connor
conquest
conrad
consciousness
consequences
conservation
conservative
considered
consortium
conspiracy
constance
constant
constantine
constitution
constitutional
construction
consulting
consumer
contact
containing
contains
conte
contemporary
content
contents
contest
context
continental
continue
continues
continuum
contoh
contohnya
contra
contract
contribution
contributions
control
controversy
convention
conversation
conversion
conway
cook
cooking
cool
cooper
cooperation
cop
copa
copenhagen
coppa
copris
copy
copyright
cor
corak
coral
cordoba
core
corey
cornelis
cornelius
cornell
corner
cornwall
corona
coronavirus
corong
corp
corpora
corporate
corporation
corps
corpus
correspondence
corruption
cory
cos
cosmic
cosmos
cost
costa
costume
cot
cote
cotton
could
council
count
countdown
counter
countries
country
county
coup
coupe
couple
courage
courier
course
court
courtney
courts
cov
cover
coverage
covers
covid
cowboy
cowok
cox
cp
cpm
cpu
cq
cr
craft
craig
crane
crash
craven
crawford
crazy
crc
cream
create
created
creating
creation
creative
creator
credit
credits
creed
creek
crew
cricket
crime
crimes
criminal
crimson
crisis
cristina
critic
critical
criticism
critics
critique
croatia
croatian
crocidura
cromwell
crore
crosby
cross
crossing
crossover
crossroads
crow
crown
crowned
cruise
crunchyroll
crusade
crusades
crush
cruz
cry
crystal
cs
csi
css
ct
ctv
cu
cuaca
cuba
cube
cuci
cucu
cucunya
cucurbitales
cuisine
cuka
cukai
cukup
cult
cultural
culture
cultures
cum
cuma
cumi
cummings
cumulative
cunningham
cup
cuplikan
curacao
curah
curam
cure
curiga
curletti
curlie
currency
current
curry
curse
curtis
curug
custom
customer
customs
cut
cuti
cv
cw
cx
cy
cyber
cycle
cynthia
cyperaceae
cyperus
cyprus
cyril
cyrus
cz
czech
czi
d
d0
d1
d2
d3
d4
d5
d6
d7
d8
d9
da
dacus
dad
dada
dadanya
daddy
dadi
dadu
dae
daendels
daeng
daerah
daerahnya
daftar
daftarbahasa
dag
dagang
dagangan
daging
dagingnya
daha
dahan
dahi
dahlan
dahlia
dahoeloe
dahsyat
dahulu
dahulunya
dai
daihatsu
daily
daimler
daimyo
dairi
daisuke
daisy
dakota
dakwaan
dakwah
dal
dalai
dalam
dalamnya
dalang
dale
dalem
dalil
dallas
dalton
dam
damage
damai
damar
damaskus
dame
damian
damien
damon
dampak
dampaknya
damri
dan
dana
danau
dance
dancer
dancing
dandim
dang
dangdut
danger
dangerous
dangkal
dani
daniel
danielle
daniels
danish
danny
danrem
dans
dansa
dante
danton
danyon
dao
dapat
dapatkan
dapatlah
dapil
dapobas
dapur
dar
dara
darah
darahnya
darat
daratan
dare
dari
daring
darinya
daripada
darius
dark
darkness
darling
darma
darmawan
darren
darul
darurat
darussalam
darwin
das
dasar
dasarnya
dasawarsa
dash
dassault
dat
data
databahasa
database
datang
datanglah
datangnya
datar
dataran
date
dated
datenverarbeitung
dates
dati
dating
dato
datu
datuk
daud
daughter
daum
daun
daunnya
daur
dave
david
davidson
davies
davis
dawai
dawkins
dawn
dawson
dawud
day
daya
dayah
dayak
dayang
days
daytona
dayung
db
dc
dd
de
dea
dead
deadline
deadly
deal
dealer
dean
dear
death
deaths
debat
debate
debit
deborah
debt
debu
debut
debutnya
debuts
dec
decade
deccan
december
decepticons
decision
deck
declaration
decline
dedaunan
deddy
dede
dedi
dedicated
dedikasi
dee
deep
def
default
defeat
defence
defender
defense
definisi
definitif
definition
definitive
defisiensi
defisit
degeneres
degli
degradasi
degree
dei
dek
dekade
dekan
dekat
dekatnya
deklarasi
dekorasi
dekret
dekrit
del
delapan
delaware
delegasi
delhi
deli
delima
delivery
dell
della
delle
delta
deluxe
dem
demak
demam
demand
demang
demetrius
demi
demikian
demikianlah
demo
democracy
democratic
demografi
demografico
demographics
demokrasi
demokrat
demokratik
demokratis
demon
demonax
demonstran
demonstrasi
demospongiae
den
denda
dendam
dendrobium
deng
dengan
dengannya
dengar
dengarkan
denis
denise
denmark
dennis
denny
denominasi
denpasar
density
denver
denyut
depan
depannya
departemen
departement
department
depati
depdikbud
depo
depok
deportasi
deportivo
deposit
depot
depresi
depression
dept
depth
deputi
deputy
der
derajat
deras
derby
derek
deret
deretan
derita
dermaga
dermawan
des
desa
desain
desainer
desainnya
desakan
desanya
descendants
description
desember
desentralisasi
desert
desi
design
designer
desimal
desire
desk
deskripsi
desktop
desmond
despite
destinasi
destination
destiny
destruction
desy
det
detail
detailed
details
detak
detasemen
detection
detective
deteksi
detektif
detektor
determination
detik
detikcom
detikhot
detiknews
detroit
deutsch
deutsche
deutschen
deutscher
deutschland
deux
dev
developer
developers
developing
development
developments
devi
device
devices
devil
devisa
devon
dewa
dewan
dewanagari
dewasa
dewata
dewey
dewi
df
dfb
dg
dh
dhabi
dhaka
dhamma
dhani
dharma
dharmasraya
di
dia
diabadikan
diabaikan
diabetes
diadakan
diadakannya
diadaptasi
diadili
diadopsi
diagnosis
diagnostik
diagonal
diagram
diah
diajak
diajarkan
diajukan
diakhiri
diakibatkan
diakon
diakritik
diakses
diaktifkan
diakui
diakuisisi
dialah
dialami
dialaminya
dialect
dialek
dialektika
dialektometri
dialihkan
dialiri
dialog
dialogue
dialokasikan
diam
diamati
diambil
diameter
diamond
diamonds
dian
diana
dianalisis
diancam
diandalkan
diane
dianggap
dianggapnya
diangkat
diangkut
dianjurkan
diantara
diantaranya
dianugerahi
dianugerahkan
dianut
diapit
diaplikasikan
diarahkan
diare
diaries
diarsipkan
diartikan
diary
dias
diasingkan
diasosiasikan
diaspora
diasuh
diasumsikan
diatas
diatasi
diatur
diawali
diawasi
diaz
dibaca
dibacakan
dibagi
dibagian
dibagikan
dibahas
dibakar
dibalik
dibanding
dibandingkan
dibangkitkan
dibangun
dibangunnya
dibantah
dibantu
dibaptis
dibatalkan
dibatasi
dibawa
dibawah
dibawakan
dibayar
dibayarkan
dibebankan
dibebaskan
dibedakan
dibelah
dibeli
dibenarkan
dibentuk
dibentuklah
dibentuknya
diberhentikan
diberi
diberikan
diberitahu
diberitahukan
diberitakan
diberkati
diberlakukan
dibersihkan
dibesarkan
dibiarkan
dibiayai
dibicarakan
dibidang
dibilang
dibintangi
dibongkar
dibuang
dibuat
dibuatkan
dibuatnya
dibubarkan
dibudidayakan
dibuka
dibukanya
dibuktikan
dibungkus
dibunuh
diburu
dibutuhkan
dicabut
dicalonkan
dicampur
dicantumkan
dicap
dicapai
dicari
dicat
dicatat
dicegah
diceritakan
dicetak
dicetuskan
dicintai
diciptakan
dicirikan
dick
dickens
dickinson
dicky
dictionary
dictionnaire
diculik
dicuri
dicurigai
did
didaerah
didaftarkan
didahului
didakwa
didalam
didalamnya
didampingi
didanai
didapat
didapati
didapatkan
didasari
didasarkan
didatangi
didatangkan
didedikasikan
didefinisikan
dideklarasikan
didengar
diderita
dideritanya
didesain
dideskripsikan
dideteksi
didi
didiagnosis
didiami
dididik
didier
didik
didirikan
didirikannya
didistribusikan
didn
didokumentasikan
didominasi
didorong
diduduki
diduga
didukung
didunia
die
died
diedarkan
diedit
diego
dieja
dieksekusi
diekspor
diekspresikan
diem
dieng
dies
diesel
diet
dieter
dietrich
dievakuasi
diferensial
difference
differences
different
difilmkan
difokuskan
difungsikan
difusi
digabung
digabungkan
digagas
digali
digambar
digambarkan
diganggu
diganti
digantikan
digantung
digarap
digelar
digemari
digerakkan
digest
digimon
digit
digital
digoel
digolongkan
digoreng
digubah
digulingkan
digunakan
digunakannya
dihabiskan
dihadapan
dihadapi
dihadapkan
dihadiri
dihancurkan
dihapus
dihapuskan
diharapkan
dihargai
diharuskan
dihasilkan
dihentikan
dihiasi
dihidangkan
dihidupkan
dihilangkan
dihindari
dihitung
dihormati
dihubungkan
dihukum
dihuni
diidentifikasi
diidentifikasikan
diikat
diikuti
diilhami
diilustrasikan
diimplementasikan
diimpor
diingat
diinginkan
diintegrasikan
diiringi
diisi
diisolasi
diizinkan
dijabat
dijadikan
dijadwalkan
dijaga
dijalani
dijalankan
dijamin
dijangkau
dijanjikan
dijatuhi
dijatuhkan
dijawab
dijelaskan
dijual
dijuluki
dijumpai
dik
dika
dikabarkan
dikabulkan
dikaitkan
dikalahkan
dikandung
dikarang
dikarenakan
dikaruniai
dikatakan
dikategorikan
dikebumikan
dikehendaki
dikejar
dikelilingi
dikelola
dikelompokkan
dikeluarkan
dikeluarkannya
dikemas
dikembalikan
dikembangkan
dikemukakan
dikenai
dikenakan
dikenal
dikenali
dikenang
dikendalikan
dikepalai
dikepung
dikerahkan
dikeringkan
dikerjakan
diketahui
diketuai
dikhususkan
dikirim
dikirimkan
dikisahkan
diklaim
diklasifikasikan
diklat
dikombinasikan
dikomposisikan
dikonfirmasi
dikonsumsi
dikontrak
dikontrol
dikonversi
dikosongkan
dikreditkan
dikritik
diktator
dikti
dikuasai
dikubur
dikuburkan
dikukuhkan
dikumpulkan
dikunjungi
dikurangi
dikutip
dikutuk
dil
dilacak
dilafalkan
dilahirkan
dilaksanakan
dilakukan
dilakukannya
dilalui
dilambangkan
dilancarkan
dilanda
dilanggar
dilangsungkan
dilanjutkan
dilantik
dilapisi
dilaporkan
dilarang
dilatih
dilayani
dilema
dilemparkan
dilengkapi
dilepas
dilepaskan
dilestarikan
diletakkan
dilewati
dili
dilihat
dilihatnya
dilindungi
dilintasi
dilipat
dillon
diluar
dilukis
diluncurkan
dilupakan
dimahkotai
dimainkan
dimakamkan
dimakan
dimaksud
dimaksudkan
dimana
dimanfaatkan
dimas
dimasa
dimasak
dimasukkan
dimekarkan
dimenangkan
dimengerti
dimensi
dimension
dimiliki
dimilikinya
diminati
diminta
diminum
dimodifikasi
dimuat
dimulai
dimulainya
dimungkinkan
dimusnahkan
dimutasi
din
dina
dinaikkan
dinamai
dinamakan
dinamika
dinamis
dinamo
dinar
dinas
dinasti
dinda
dinding
ding
dingin
dini
dinikmati
dinilai
dinner
dino
dinobatkan
dinominasikan
dinonaktifkan
dinosaur
dinosaurus
dinyalakan
dinyanyikan
dinyatakan
dio
diobati
diocese
dioecesis
dioksida
diolah
dion
dioperasikan
dioptimalkan
dipadukan
dipahami
dipajang
dipakai
dipaksa
dipamerkan
dipanaskan
dipancarkan
dipandang
dipandu
dipanen
dipanggang
dipanggil
dipasang
dipasangkan
dipasarkan
dipastikan
dipati
dipecah
dipecahkan
dipecat
dipegang
dipekerjakan
dipelajari
dipelihara
dipelopori
dipengaruhi
dipenggal
dipenjara
dipenjarakan
dipentaskan
dipenuhi
diperankan
diperbaharui
diperbaiki
diperbarui
diperbesar
diperbolehkan
dipercaya
dipercayai
dipercayakan
diperdagangkan
diperdebatkan
diperebutkan
dipergunakan
diperhatikan
diperhitungkan
diperiksa
diperingati
diperintah
diperintahkan
diperkenalkan
diperkenankan
diperkirakan
diperkuat
diperlakukan
diperlihatkan
diperluas
diperlukan
diperoleh
diperolehnya
diperpanjang
dipersembahkan
dipersenjatai
dipersiapkan
dipertahankan
dipertandingkan
dipertanyakan
dipertimbangkan
dipertuturkan
diperuntukkan
dipesan
dipicu
dipidana
dipilih
dipimpin
dipindah
dipindahkan
dipinjam
dipinjamkan
dipisah
dipisahkan
diploma
diplomacy
diplomasi
diplomat
diplomatic
diplomatik
diponegoro
dipopulerkan
dipotong
diprakarsai
dipraktikkan
diprediksi
diproduksi
diproduseri
dipromosikan
diproses
diproyeksikan
diptera
dipublikasikan
dipuja
dipuji
dipukul
dipulihkan
dipungut
dipusatkan
diputar
diputuskan
dir
diragukan
diraih
dirakit
dirampas
dirancang
dirasa
dirasakan
dirawat
dirayakan
direbus
direbut
direct
directed
direction
directions
director
directorate
directors
directory
direkam
direkomendasikan
direkrut
direksi
direktorat
direktori
direktur
direncanakan
direnovasi
diresmikan
direvisi
dirgantara
diri
dirikan
diriku
dirilis
dirilisnya
dirimu
dirintis
dirinya
diriwayatkan
dirjen
dirk
dirty
dirugikan
dirujuk
dirumuskan
dirusak
dirut
dis
disaat
disabilitas
disadari
disahkan
disajikan
disaksikan
disalin
disalurkan
disamakan
disambiguasi
disambut
disampaikan
disamping
disana
disangka
disapa
disarankan
disaster
disatukan
disc
disco
discography
discogs
discourse
discover
discovered
discoveries
discovery
discussion
disease
diseases
disebabkan
disebarkan
disebelah
disebut
disebutkan
disederhanakan
disediakan
disegani
disekitar
disekitarnya
diselamatkan
diselenggarakan
diselesaikan
diselidiki
diseluruh
disematkan
disembah
disembuhkan
disembunyikan
disempurnakan
disengaja
disepakati
diserahkan
diserang
diserap
disertai
disertakan
disertasi
disertifikasi
disesuaikan
disetujui
disewa
disiapkan
disiarkan
disiksa
disimpan
disimpulkan
disingkat
disingkirkan
disini
disintesis
disiplin
disita
disitu
disk
diskografi
diskriminasi
diskusi
disney
disorder
disorders
display
displaystyle
disponsori
dispute
dissertation
distance
distilasi
distinguished
distorsi
distribusi
distribution
distributor
district
districts
distrik
disuarakan
disukai
disumbangkan
disunting
disuruh
disusul
disusun
disutradarai
dit
ditafsirkan
ditahan
ditahbiskan
ditaklukan
ditaklukkan
ditakuti
ditambah
ditambahkan
ditampilkan
ditanam
ditanami
ditandai
ditandatangani
ditangani
ditangguhkan
ditanggung
ditangkap
ditanya
ditargetkan
ditarik
ditaruh
ditata
ditawan
ditawari
ditawarkan
ditayangkan
ditebang
ditegaskan
ditekan
diteliti
ditelusuri
ditemani
ditembak
ditembakkan
ditempat
ditempati
ditempatkan
ditempuh
ditemui
ditemukan
ditemukannya
ditengah
ditenggelamkan
ditentang
ditentukan
diterangkan
diterapkan
diterbangkan
diterbitkan
diterima
diterimanya
diterjemahkan
diteruskan
ditetapkan
ditiadakan
ditimbulkan
ditinggal
ditinggalkan
ditingkatkan
ditinjau
ditjen
ditolak
ditonton
ditransfer
dituangkan
dituduh
ditugaskan
dituju
ditujukan
ditukar
ditulis
dituliskan
ditulisnya
ditumbuhi
ditunda
ditunjuk
ditunjukkan
dituntut
diturunkan
ditutup
ditutupi
dituturkan
diubah
diucapkan
diuji
diukir
diukur
diulang
diumumkan
diundang
diundangkan
diunduh
diunggah
diungkapkan
diuraikan
diurus
diurutkan
diusahakan
diusir
diusulkan
diusung
diutamakan
diutus
diva
diversity
divine
diving
divisi
division
divonis
divorce
diwajibkan
diwakili
diwariskan
diwarnai
diwujudkan
dixit
dixon
diy
diyakini
dj
djadi
djakarta
djalan
djangan
djarum
djawa
djikalau
djoega
djoko
djvu
dk
dki
dkk
dkpbb
dl
dll
dlm
dm
dmitry
dmoz
dn
dna
dng
dns
do
doa
doc
docs
doctor
doctrine
document
documentary
documentation
documents
dodge
dodo
dodson
doea
doel
doenia
does
doesn
dog
doge
dogma
dogs
doha
doi
doing
dok
dokter
doktor
doktoral
doktrin
dokumen
dokumentasi
dokumenter
dolar
dolichopeza
doll
dollar
dolly
dolok
dolores
dom
domain
domba
dome
domenico
domestic
domestik
dominan
dominasi
domingo
domini
dominic
dominika
dominion
dominique
domino
dompet
don
dona
donal
donald
donasi
donau
done
donetsk
dong
donga
dongeng
donggala
doni
donna
donny
dono
donor
donovan
doo
doom
door
doors
doping
dora
doraemon
dorcadion
dordrecht
doris
dorna
dorong
dorongan
dorothy
dorsal
dortmund
dos
dosa
dosen
dosis
dot
dots
dou
douban
double
doubleday
doug
douglas
dove
dover
dow
down
downey
download
downloaded
downloads
downtown
doyle
dp
dpc
dpd
dpl
dpp
dpr
dprd
dprk
dpw
dq
dr
dra
dracula
draft
drag
dragon
dragons
drainase
drake
drama
dramatic
dramatis
drastis
draw
dream
dreams
dreamworks
dresden
dress
drew
drink
drive
driven
driver
drivers
driving
drone
drop
drops
drs
drug
drugs
drum
drummer
drums
dry
ds
dsb
dsm
dst
dt
du
dua
dual
duan
duanya
dub
dubai
dubes
dublin
ducati
duchess
duck
duduk
due
duel
duet
duffy
dugaan
duka
dukcapil
duke
dukuh
dukun
dukung
dukungan
dukungannya
dulu
dulunya
dumai
dumbledore
duncan
dunia
duniawi
dunn
duo
dupont
dur
duran
durasi
duren
durga
durham
duri
durian
during
duryodana
dus
dusseldorf
dust
dusta
dusun
duta
dutch
dutt
duty
duyung
dv
dvd
dw
dwarf
dwi
dwight
dx
dy
dyah
dying
dylan
dynamic
dynamics
dynamo
dynasty
dz
e
e0
e1
e2
e3
e4
e5
e6
e7
e8
e9
ea
each
eagle
eagles
earl
earliest
early
earnhardt
earth
earthquake
east
easter
eastern
easy
eat
eating
eb
ebert
ec
eceran
echo
eclipse
eco
ecole
ecological
ecology
economic
economics
economist
economy
ecuador
ed
eddie
eddy
eden
edgar
edge
edi
edinburgh
edisi
edison
edit
edited
edith
editing
edition
editions
editor
editorial
editors
edmond
edmund
edo
edom
edouard
eds
edu
eduard
eduardo
education
educational
edukasi
edward
edwards
edwin
edy
ee
een
eerdmans
ef
efek
efektif
efektivitas
efesus
effect
effective
effects
effendi
efisien
efisiensi
efrat
eg
egan
egg
ego
egypt
egyptian
eh
ei
eiga
eigen
eight
eighteenth
eighth
ein
eindhoven
eine
einstein
eisenhower
ej
ejaan
ek
eka
ekar
ekaristi
eki
eko
ekologi
ekonom
ekonomi
ekonominya
ekonomis
ekor
ekornya
ekosistem
eks
eksekusi
eksekutif
eksemplar
eksentrisitas
eksis
eksistensi
eksklusif
eksotis
ekspansi
ekspedisi
eksperimen
eksperimental
eksplisit
eksploitasi
eksplorasi
eksponensial
ekspor
ekspres
ekspresi
ekstensi
ekstensif
eksternal
ekstra
ekstrak
ekstraksi
ekstrakurikuler
ekstrem
ekstrim
ekuador
ekuitas
ekuivalen
el
elaine
elam
elang
elder
eleanor
elected
election
elections
electoral
electric
electrical
electron
electronic
electronics
elegan
elektor
elektrik
elektro
elektrode
elektrolit
elektromagnetik
elektron
elektronik
elektronika
elemen
element
elementary
elements
elena
elenco
elephant
elevasi
eleven
eleventh
elex
elf
elgar
eli
elia
elias
eliminasi
eliot
elips
elisa
elisabeth
elit
elite
eliza
elizabeth
ella
elle
ellen
ellie
elliot
elliott
ellis
elly
elo
elok
elsa
else
elsevier
elton
elvis
em
ema
email
emanuel
emas
embassy
ember
embraer
embrio
embun
emerald
emergence
emergency
emerging
emeritus
emerson
emi
emil
emile
emilia
emilio
emily
eminem
emir
emirat
emirates
emisi
emma
emmanuel
emmy
emosi
emosional
empat
empedu
emperor
empire
empires
empiris
emporis
empress
empty
empu
en
enak
enam
encore
encounter
encyclopaedia
encyclopedia
encyclopædia
end
endah
endang
endangered
endapan
ende
endemik
ending
endo
ends
enemy
energi
energy
enewsworld
eng
engel
engels
enggan
engine
engineer
engineering
engineers
engines
engkau
england
english
enigma
enim
enix
enkripsi
enlightenment
enough
enrekang
enrico
enrique
ensemble
ensiklik
ensiklopedi
ensiklopedia
entah
enter
enterprise
enterprises
enters
entertainment
entire
entitas
entity
entrepreneur
entri
entry
environment
environmental
enzim
eo
eon
ep
epa
eparki
epic
epidemi
epidendrum
epik
epilepsi
episkopal
episode
episodes
epos
eps
epstein
eq
equal
equality
equation
equipment
er
era
erasmus
erat
eri
eric
erica
ericaceae
ericales
erich
erick
erickson
ericsson
erik
erika
erin
eritrea
erlangga
ernest
ernesto
ernst
eropa
eropah
eros
erosi
error
erupsi
erwin
es
esa
esai
escape
eselon
esensi
esensial
esok
esp
espana
especially
espn
esports
essay
essays
essential
essentials
essex
essonne
est
established
establishment
estadio
estate
este
ester
estetika
esther
estimasi
estimates
estonia
et
eta
etanol
etc
eter
eternal
ethan
ethics
ethiopia
ethiopian
ethnic
ethnicity
ethnologue
etienne
etik
etika
etimologi
etiopia
etis
etnik
etnis
etnografi
etudes
etymology
eu
eubel
eugene
eugenia
euklides
euler
eumicrotipula
eun
eunidia
eur
eurasia
euro
europa
europe
european
eurovision
eusebius
ev
eva
evakuasi
evaluasi
evaluation
evan
evans
eve
evelyn
even
evening
event
events
ever
everett
everton
every
everybody
everyday
everyone
everything
evidence
evil
evolusi
evolusioner
evolution
evolutionary
ew
ex
examination
example
examples
excavations
excel
excellence
excerpt
exchange
exclusive
exechia
executive
exeter
exhibition
exile
exist
existence
exit
exo
exocentrus
exodus
exoplanet
exoprosopa
exp
expanded
expansion
expedition
experience
experiment
experimental
expert
experts
explained
explains
exploration
explore
explorer
exploring
explosion
expo
export
exposition
exposure
express
expression
extended
extends
extension
extensive
external
extinction
extra
extraordinary
extreme
ey
eyang
eye
eyed
eyes
ez
ezra
f
f0
f1
f2
f3
f4
f5
f6
f7
f8
f9
fa
faa
fabaceae
fabales
fabel
faber
fabian
fabio
face
facebook
facelift
faces
facility
fact
factbook
facto
factor
factors
factory
facts
faculty
fadli
faham
fahmi
failure
fair
fairy
faisal
faith
fajar
fake
fakfak
faksi
fakta
faktanya
faktor
fakultas
falah
falcon
fall
fallen
falling
falls
fals
falsafah
false
fam
fame
famili
familia
familiar
families
family
famous
fan
fana
fang
fanny
fans
fantasi
fantasia
fantastic
fantasy
fao
faq
far
farah
farewell
farid
farida
farisi
fariz
farm
farmasi
farmer
faroe
farrel
farrell
fasa
fase
fashion
fasih
fasilitas
fasis
fasisme
faso
fast
fat
fatah
fatal
fate
father
fathers
fatima
fatimah
fatwa
fauna
faust
fauzi
favorit
favorite
favoritnya
favourite
fax
fb
fbi
fc
fd
fda
fe
fear
feast
feat
feature
featured
features
featuring
feb
februari
february
federal
federasi
federation
federico
feed
feel
feeling
feet
fei
felipe
felix
fellow
fellowship
female
femina
feminin
feminis
feminisme
feminist
feng
fenisia
fenomena
feodal
ferb
ferdinand
ferguson
feri
fermentasi
fernandes
fernandez
fernando
ferrari
ferreira
ferry
fest
festival
festivals
fever
few
ff
ffi
fg
fh
fi
fia
fiat
fiba
fiber
fiction
ficus
fide
fidel
field
fields
fifa
fifth
fifty
fight
fighter
fighters
fighting
figur
figure
figures
fihak
fiji
fikih
fikri
fiksi
fiktif
file
files
filipi
filipina
filipino
filippo
filipus
filistin
film
filmfare
filmindonesia
filming
filmnya
filmografi
filmography
films
filosofi
filosofis
filsafat
filsuf
filter
filum
fim
fimela
fin
final
finale
finalis
finally
finals
finance
financial
finansial
find
finding
finds
fine
finger
finis
finish
finland
finlandia
finn
finnish
fiona
fiorentina
fiqh
fiqih
fir
firaun
firdaus
fire
firefox
firenze
firm
firma
firman
first
fis
fiscal
fischer
fish
fishbase
fisher
fisheries
fishes
fishing
fisi
fisik
fisika
fisikawan
fisiknya
fisiologi
fisiologis
fisip
fiskal
fit
fitnah
fitri
fitur
fitzgerald
five
fix
fixed
fj
fk
fl
flag
flags
flame
flanders
flandria
flash
flat
flavius
fleet
fleksibel
fleksibilitas
fleming
fletcher
flight
flights
flint
flood
floor
flora
florence
flores
florida
flow
flower
flowers
floyd
flu
fluida
fly
flying
flynn
fm
fn
fo
focus
fogg
fokker
fokus
folk
folklore
follow
following
fondasi
fonem
fonetik
fong
font
food
foods
fool
foot
footage
football
for
forbes
forbidden
force
forced
forces
ford
foreign
forensik
forest
forever
forget
forgotten
forkel
form
formal
formasi
format
formation
former
formerly
formosa
forms
formula
formulir
forrest
fort
fortress
fortschreibung
fortuna
fortune
forty
forum
forward
fosfat
fosfor
fosil
fossil
foster
foto
fotografer
fotografi
foton
fotosintesis
found
foundation
foundations
founder
founding
four
fourth
fowler
fox
fp
fpi
fq
fr
fra
frac
fragmen
fragments
fraksi
frame
framework
franc
francais
francaise
france
frances
francesco
franchise
francis
francisco
franco
francois
frank
franka
frankfurt
frankie
franklin
franky
frans
fransiskus
franz
frasa
frase
fraser
frater
fred
freddie
freddy
frederic
frederick
frederik
free
freedom
freeman
fregat
freiburg
frekuensi
french
frequency
frequently
fresh
freud
friday
friedman
friedrich
friend
friendly
friends
friendship
fritz
frog
from
front
frontier
frontiers
frost
frozen
fruit
fry
fs
ft
ftv
fu
fuad
fuel
fuji
fujian
fujiwara
fukuoka
fukushima
fulham
full
fullbottle
fuller
fully
fun
function
functional
functions
fund
fundamental
fundamentals
funeral
fung
fungi
fungsi
fungsinya
fungsional
funimation
funk
funny
fur
furious
further
fury
fusi
fusion
fussballdaten
futbol
futsal
future
fv
fw
fx
fy
fyodor
fz
g
g0
g1
g2
g3
g4
g5
g6
g7
g8
g9
ga
gabon
gabriel
gabung
gabungan
gabus
gadang
gading
gadis
gadjah
gadung
gaga
gagah
gagak
gagal
gagang
gagasan
gaia
gaib
gail
gain
gairah
gaius
gajah
gaji
gak
gakuen
gal
gala
galactic
galai
galaksi
galang
galangan
galat
galatia
galaxy
gale
galeri
galia
galian
galilea
galileo
galisia
gallagher
gallery
galuh
galur
galway
gam
gama
gamba
gambar
gambaran
gambarnya
gambia
gambir
gambut
game
gamelan
gamer
games
gamespot
gaming
gamma
gampang
gamping
gampong
gan
ganas
ganda
gandar
gandeng
gandhi
gandum
ganesha
gang
gangga
gangguan
gangster
gani
ganja
ganjil
ganteng
ganti
gantikan
gantinya
gantung
gao
gaon
gaonchart
gap
gapura
gara
garam
garapan
garasi
garcia
garda
garde
garden
gardens
gardiner
gardner
gare
gareth
garfield
garis
garland
garnisun
garrett
garry
garuda
garut
gary
gas
gaston
gatal
gate
gates
gateway
gatot
gatra
gaul
gaulle
gaun
gauss
gautama
gave
gavin
gawang
gay
gaya
gayo
gaza
gazette
gazetteer
gb
gbif
gbr
gc
gcatholic
gd
gdp
ge
gear
gebang
gede
gedong
gedung
geger
geiger
gejala
gejolak
gel
geladak
gelandang
gelang
gelanggang
gelap
gelar
gelaran
gelarnya
gelas
gelembung
gelisah
gelombang
gelora
gema
gemar
gembala
gembira
gemeente
gemeinden
gemilang
gemini
gempa
gempol
gemuk
gen
genap
gencatan
gendang
gender
gene
genealogy
genera
general
generalisasi
generals
generasi
generation
generator
generik
genes
genesis
genetic
genetics
genetik
genetika
geneva
geng
genggam
genie
genius
genoa
genocide
genom
genome
genosida
genova
genre
genta
genteng
gentianales
genting
gentleman
genus
geo
geodia
geoff
geoffrey
geofisika
geografi
geografis
geographic
geographical
geography
geologi
geological
geologis
geology
geometri
geometris
geometry
geonames
geophysical
georg
george
georges
georgetown
georgia
georgian
gerai
gerak
gerakan
gerald
gerard
gerbang
gerbong
gereja
gerejawi
gergaji
gerhana
gerhard
gerilya
gerilyawan
gerindra
germain
german
germany
gerobak
gerombolan
geron
gerry
gertrude
geschichte
gesek
gesekan
gesellschaft
geser
get
getah
getaran
gets
getting
getty
geum
geun
geza
gf
gg
gh
ghana
ghazali
ghetto
ghosh
ghost
ghosts
ghz
gi
gia
giacomo
gian
giant
giants
gianyar
giat
gibbs
gibraltar
gibson
gideon
gif
gift
gifu
gigi
gigih
gigitan
gil
gila
gilang
gilbert
giles
giliran
gilirannya
gill
gilles
gim
gin
gina
ginjal
ginting
giok
giorgio
giovanni
girang
giri
girl
girlfriend
girls
giro
gironde
gisela
gita
gitar
gitaris
github
giuseppe
give
given
gives
giving
gizi
gj
gk
gki
gkj
gl
gladys
glam
glasgow
glass
glee
glen
glenea
glenn
gletser
global
globalisasi
globalization
globalsecurity
globe
globes
globo
gloria
glory
glosarium
glossary
glottolog
glover
glukosa
gm
gma
gmbh
gmim
gn
gnome
gnu
go
goa
goal
goals
gobel
god
godam
goddess
godfrey
gods
godzilla
goenawan
goeroe
goes
goethe
gogh
goguryeo
going
goku
gol
gold
goldberg
golden
goldman
goldstein
goldwyn
golek
golf
golkar
golongan
gombong
gomez
gondang
gone
gong
gontor
gonzalez
goo
good
goodbye
goodman
goodreads
google
gor
gorbachev
gordon
gore
goreng
gorman
goro
gorontalo
goryeo
gosei
gosip
gosong
gospel
gospels
gossip
got
goth
gotham
gothic
gotik
goto
gotong
gottfried
gottingen
gould
gov
governance
government
governor
govt
gowa
goyang
gp
gpib
gps
gq
gr
grace
grade
gradien
graduate
graf
grafik
grafis
grafiti
graha
graham
gram
gramedia
grammar
grammy
gran
granada
granat
grand
grande
granit
grant
graphic
graphics
grass
gratis
grave
graves
gravitasi
gravity
gray
great
greater
greatest
greece
greek
green
greene
greenland
greenwich
greenwood
greg
gregg
gregorian
gregorius
gregory
grenada
gresik
grey
grid
griffin
griffith
griffiths
griya
grobogan
grogol
groningen
groove
grosir
gross
ground
group
groups
grove
grow
growing
growth
grumbul
grumman
grup
gruyter
gs
gsm
gt
gtv
gu
gua
guadalcanal
guadalkanal
guam
guan
guang
guangdong
guangxi
guangzhou
guard
guardian
guardians
guatemala
gubernur
gubuk
guci
gudang
gue
guerra
guest
guevara
gugatan
gugur
gugus
gugusan
gui
guide
guidelines
guides
guido
guild
guillaume
guillermo
guilty
guinea
guinness
guiry
guitar
gujarat
guk
gula
gulai
gulat
gulden
gulf
gulma
gulung
gulungan
gumpalan
gun
guna
gunakan
gunanya
gunawan
gundam
gundukan
gunma
guns
gunter
gunther
gunting
guntur
gunung
gunungkidul
gunungsitoli
guo
gupta
gurih
gurita
guru
guruh
gurun
gurunya
gus
gustav
gusti
gutawa
gutenberg
guthrie
gutierrez
guy
guyana
guys
gv
gw
gx
gy
gym
gyu
gz
h
h0
h1
h2
h3
h4
h5
h6
h7
h8
h9
ha
haag
haaretz
haas
habib
habibie
habis
habisan
habitat
habitatnya
habsburg
hackett
had
hadapan
hadapi
hadawi
hades
hadi
hadiah
hadir
hadirin
hadirkan
hadirnya
hadis
hadits
hae
hafiz
hague
hahn
hai
haid
haifa
hainan
hair
haiti
hajar
haji
hajime
hak
hakikat
hakim
hakka
haknya
hal
halal
halaman
halamannya
halangan
hale
haley
half
halichondria
haliclona
halim
halimah
hall
halle
halloween
halmahera
halnya
halo
haloes
halte
haluan
halus
halusinasi
ham
hama
hamas
hamba
hambatan
hamburg
hamburger
hamengkubuwana
hamid
hamil
hamilton
hamka
hammarstrom
hammer
hammond
hampa
hamparan
hampir
hampshire
hamzah
han
hana
hanafi
hancinema
hancock
hancur
hand
handal
handbook
handbuch
hands
hang
hangat
hangul
hangus
hangzhou
hanja
hank
hanks
hanna
hannah
hannibal
hannover
hanoi
hans
hansard
hansen
hanson
hantu
hanura
hanya
hanyalah
hanyu
hanyut
hanzi
hao
happened
happiness
happy
hapus
har
hara
harafiah
harahap
harald
haram
harap
harapan
harbor
harbour
harcourt
hard
hardcore
hardcover
harding
hardware
hardy
hare
harfiah
harga
harganya
hari
harian
harimau
harinya
haris
harits
harlem
harley
harmoni
harmonis
harmony
harold
harper
harpercollins
harriet
harris
harrison
harry
hart
harta
hartmann
hartono
haru
haruka
harum
harun
haruna
harus
haruslah
harvard
harvest
harvey
haryanto
haryono
has
hasan
hasanuddin
hasanudin
hashimoto
hasil
hasilnya
haspelmath
hasrat
hassan
hasta
hastings
hasyim
hat
hata
hate
hathaway
hati
hatiku
hatimu
hatinya
hatta
haus
haute
havana
have
haven
having
hawa
hawai
hawaii
hawaiian
hawk
hawking
hawkins
hay
hayam
hayashi
hayat
hayati
hayatnya
hayden
hayes
haymarket
haynes
hazard
hb
hbo
hc
hd
hdl
he
head
headline
headquarters
heads
health
healthcare
healthy
hear
heard
heart
hearts
heat
heath
heather
heaven
heavy
hebat
hebei
hebrew
hector
hee
hegel
hegemoni
heidelberg
height
heights
heinemann
heinrich
heinz
hektar
hektare
helai
held
helen
helena
helene
helenistik
helicopter
helikopter
heliophanus
helium
hell
hellenistic
hello
helm
helmut
help
helped
helsinki
hemat
hemingway
hen
henan
hendak
hendaklah
hendaknya
henderson
hendra
hendrick
hendrik
hengkang
henri
henrik
henry
henryk
henti
heo
hepatitis
hepburn
her
hera
herakles
herald
heran
herbal
herbarium
herbermann
herbert
herbivora
hercules
here
herge
heri
heritage
herman
hermann
hermawan
hermes
hermione
hernandez
hero
herodes
herodotos
herodotus
heroes
heroik
herry
herschel
heru
herzegovina
herzog
hess
hesse
het
hewan
hey
hf
hg
hh
hi
hias
hiasan
hiatus
hibah
hibrida
hiburan
hidangan
hidayah
hidayat
hidayatullah
hidden
hideyoshi
hidoep
hidrogen
hidrokarbon
hidroksida
hidung
hidup
hidupku
hidupnya
hierarchia
hierarchy
hierarki
hieroglif
hieronimus
higashi
higgins
high
higher
highest
highlights
highly
highway
hij
hijau
hijrah
hijriah
hijriyah
hikari
hikaru
hikayat
hikmah
hikmat
hilal
hilang
hilangnya
hilary
hilda
hilir
hill
hillary
hills
hilton
him
himalaya
himne
himpunan
himself
hina
hindi
hindia
hindu
hinduism
hindustan
hingga
hino
hip
hipertensi
hipotesis
hiro
hiroki
hiroshi
hiroshima
hiroyuki
his
hist
histoire
historia
historian
historians
historic
historical
histories
historiografi
historiography
historique
historis
history
hisyam
hit
hitachi
hitam
hitchcock
hitler
hits
hitung
hitungan
hiu
hiv
hizkia
hj
hk
hkbp
hkt
hl
hlm
hlmn
hm
hmi
hms
hn
ho
hoa
hobi
hoc
hockey
hoeve
hoffman
hoffmann
hogan
hogwarts
hok
hoki
hokkaido
hokkien
hold
holden
holding
holdings
holds
hole
holiday
holland
holly
hollywood
holm
holmes
holocaust
holstein
holt
holy
home
homecat
homeland
homepage
homer
homme
homo
homogen
homoseksual
homoseksualitas
hon
honda
honduras
honey
hong
hongaria
hongkong
honolulu
honor
honorary
honors
honour
honours
hoo
hood
hook
hoon
hoover
hop
hope
hopes
hopkins
horace
horizon
horizons
horizontal
hormat
hormon
horn
hornet
horor
horror
horse
horst
hosea
hospital
host
hot
hotel
hotels
hotspur
hou
houghton
hour
hours
house
household
housing
houston
how
howard
howe
howell
however
hp
hq
hr
hrsg
hs
hsu
ht
htm
html
http
https
hu
hua
huan
huang
hub
hubbard
hubble
hubei
hubert
hubung
hubungan
hubungannya
hud
huda
hudson
huffington
huge
hugh
hughes
hugo
hugues
hui
hujan
hukum
hukuman
hukumnya
hulk
hull
hulu
hum
human
humaniora
humanitarian
humanities
humanity
humans
humas
humbang
humboldt
hume
humor
hun
hunan
hundred
hung
hungama
hungaria
hungarian
hungary
hunger
hunian
hunt
hunter
hunting
huntington
hurricane
hurst
hurt
huru
huruf
husada
husain
husband
husein
husin
hussain
hussein
hut
huta
hutagalung
hutan
hutang
hutchinson
hv
hw
hwa
hwan
hwang
hx
hy
hyang
hybrid
hyde
hyderabad
hydrogen
hye
hyeon
hymedesmia
hyo
hyuk
hyun
hyundai
hyung
hz
i
i0
i1
i2
i3
i4
i5
i6
i7
i8
i9
ia
iain
ialah
ian
iapun
iata
iau
iaurif
ib
ibadah
ibadat
ibarat
iberia
ibid
iblis
ibm
ibn
ibnu
ibrahim
ibrani
ibtidaiyah
ibu
ibukota
ibuku
ibunda
ibundanya
ibunya
ic
icao
icarus
ice
iceland
ich
ichi
ichiro
ichtiar
icon
icons
id
ida
idaho
ide
idea
ideal
idealisme
ideas
identification
identifikasi
identik
identitas
identitasnya
identities
identity
ideologi
ideologis
ideology
idf
idi
idm
idn
idol
idola
idris
idrus
idul
ie
ieee
ieyasu
if
ifpi
ig
iga
igi
ign
ignatius
igor
ih
ihsan
ii
iii
iis
ij
ija
ijazah
ijin
ijo
ik
ika
ikan
ikat
ikatan
ikhlas
ikhtisar
ikip
iklan
iklim
ikon
ikut
ikuti
il
ilahi
ilbo
ile
ilegal
ilham
ilir
ill
illegal
illinois
illustrated
illustrations
ilmiah
ilmu
ilmuwan
ilo
ilusi
ilustrasi
ilustrator
ilyas
im
image
images
imagination
imagine
imaging
imajinasi
imam
imamat
iman
imbalan
imbang
imbuhan
imdb
imelda
imf
img
imigran
imigrasi
imlek
immanuel
immigration
impact
impatiens
impeachment
imperatif
imperial
imperialis
imperialism
imperialisme
imperium
impian
implementasi
implementation
implications
implikasi
implisit
impor
importance
important
impossible
imran
imun
in
ina
inang
inangnya
inap
inc
inch
incheon
inci
incident
include
included
includes
including
income
incorporated
increase
incredible
ind
indah
indahnya
indeks
independen
independence
independent
index
india
indian
indiana
indianapolis
indians
indiatimes
indie
indies
indiewire
indigenous
indikasi
indikator
indira
indische
individu
individual
indo
indochina
indonesia
indonesian
indoor
indosat
indosiar
indra
indragiri
indramayu
indro
induced
induk
induknya
induksi
indus
industri
industrial
industrialisasi
industries
industry
indy
indycar
inersia
inews
inf
infanteri
infantri
infantry
infection
infectious
infeksi
infinite
infinity
inflamasi
inflasi
influence
influential
influenza
info
informal
informasi
informatika
information
inframerah
infrastructure
infrastruktur
infty
ing
ingat
ingatan
ingatlah
inggeris
inggris
inggrisnya
ingin
inginkan
ingrid
inhibitor
ini
inilah
inipun
inisial
inisiasi
inisiatif
initial
initiative
injeksi
injil
injili
injured
injury
inka
inkarnasi
inkigayo
inklusif
inn
inner
innocent
innovation
inorganic
inoue
inovasi
inovatif
inpres
input
inquirer
inquiry
insan
insang
insani
inscription
inscriptions
insecta
insee
insentif
inside
insiden
insider
insight
insights
insinyur
inskripsi
inspeksi
inspektorat
inspektur
inspirasi
inspired
instagram
instalasi
instan
instansi
instead
insting
institusi
institut
institute
institution
institutions
instituto
instruksi
instruktur
instrumen
instrument
instrumental
instruments
insulin
insurance
int
intan
integer
integral
integrasi
integrated
integration
integritas
intel
intelektual
intelijen
intellectual
intelligence
intelligent
intens
intensif
intensitas
inter
interaction
interactive
interaksi
interaktif
intercontinental
interest
interface
interim
interior
intern
internacional
internal
internasional
international
internationale
internazionale
internet
interpretasi
interpretation
interval
intervensi
intervention
interview
interviews
inti
intim
intinya
into
intra
intrinsik
intro
introducing
introduction
invalid
invasi
invasion
inventarisasi
invention
invers
investasi
investigasi
investigation
investment
investor
invisible
io
ioc
ion
ionia
ionik
ios
iowa
ip
ipa
ipad
ipar
iparnya
ipb
iphone
ipm
ipo
ipod
ips
iptek
ipv
iq
iqbal
ir
ira
irak
irama
iran
iranian
iranica
iraq
iraqi
irawan
ireland
irene
irfan
iri
irian
irigasi
iringan
iris
irisan
irish
irjen
irlandia
irma
iron
irvine
irving
irwan
irwin
is
isa
isaac
isabel
isabella
isabelle
isaiah
isbn
ise
ishak
ishaq
ishida
ishikawa
isi
isian
isinya
isis
iskandar
isl
islam
islami
islamic
islamiyah
island
islandia
islands
isle
ismael
ismail
isn
iso
isolasi
isolek
isotop
israel
israeli
iss
issn
issue
issues
ist
istana
istananya
istanbul
istat
isteri
isterinya
istiadat
istilah
istimewa
istirahat
istituto
istri
istriku
istrinya
istvan
isu
isuzu
isyana
isyarat
it
ita
italia
italian
italiana
italy
itb
item
ithaca
itik
itis
ito
itoe
itoelah
its
itself
ittf
itu
itulah
itunes
itupun
itv
iu
iucn
iupac
iuran
iv
ivan
ivanovich
ivy
iw
iwan
iwata
iwate
ix
iy
iya
iz
izin
izumi
j
j0
j1
j2
j3
j4
j5
j6
j7
j8
j9
ja
jaar
jabar
jabat
jabatan
jabatannya
jabodetabek
jabung
jack
jackie
jackson
jacob
jacobs
jacobus
jacqueline
jacques
jade
jadi
jadikan
jadilah
jadinya
jadwal
jae
jaga
jagat
jago
jagoan
jaguar
jagung
jahat
jahe
jai
jailolo
jaime
jain
jajahan
jajak
jajanan
jajaran
jak
jaka
jakarta
jake
jaket
jakob
jakoeb
jaksa
jala
jalal
jalan
jalanan
jalannya
jalar
jalil
jalur
jalurnya
jam
jama
jamaah
jamaica
jamaika
jamak
jamal
jaman
jambi
jambu
jambul
james
jami
jamie
jamil
jaminan
jamu
jamur
jan
janda
jane
janeiro
janet
jang
jangan
janganlah
jangka
jangkar
jangkauan
janin
janji
janjinya
jansen
jantan
jantung
januari
january
japan
japanese
jarak
jaraknya
jarang
jared
jari
jaring
jaringan
jarum
jas
jasa
jasad
jasanya
jasmani
jasmine
jason
jasper
jatah
jateng
jati
jatibarang
jatim
jatinegara
jatuh
jatuhnya
jauh
jauhnya
java
javanese
javier
jawa
jawab
jawaban
jawabannya
jawabnya
jawapos
jawatan
jawi
jay
jaya
jayabaya
jayakarta
jayapura
jayawijaya
jazeera
jazirah
jazz
jb
jc
jd
jdih
je
jean
jeanne
jebakan
jeda
jeddah
jeff
jefferson
jeffrey
jejak
jejaring
jeju
jelajah
jelang
jelas
jelata
jelek
jelly
jemaah
jemaat
jembatan
jember
jembrana
jen
jena
jenazah
jenazahnya
jend
jendela
jenderal
jendral
jenewa
jenis
jenisnya
jenius
jenjang
jenkins
jenner
jennifer
jennings
jenny
jens
jensen
jenuh
jeon
jeong
jepang
jepara
jerami
jeremy
jerman
jermanik
jernih
jerome
jerry
jersey
jeruk
jerusalem
jesse
jessica
jessie
jesus
jet
jetis
jewel
jewish
jews
jf
jg
jh
jha
ji
jia
jian
jiang
jiangsu
jibril
jie
jihad
jika
jikalau
jilid
jill
jim
jimat
jimmy
jin
jinak
jing
jingga
jiro
jitu
jiwa
jiwanya
jj
jk
jkt
jl
jln
jm
jn
jo
joachim
joan
joanna
joao
joaquin
job
jobs
jodi
jodoh
joe
joel
joey
jogja
jogjakarta
joglo
johan
johann
johanna
johannes
johannesburg
johansson
johar
john
johnny
johns
johnson
johnston
johor
join
joins
joint
jojo
joker
joko
jokowi
jolie
jombang
jon
jonas
jonathan
jones
jong
jonggol
joo
joon
joong
joongang
jordan
jorge
jorong
jose
josef
joseon
joseph
josephine
josephus
josh
joshi
joshua
journal
journalism
journalist
journals
journey
joy
joyce
jozef
jp
jpg
jpl
jpn
jpnn
jq
jr
js
jstor
jt
jtbc
ju
jua
jual
juan
juanda
juang
juara
jubah
judaism
judd
judge
judges
judgment
judi
judith
judo
judul
judulnya
judy
juga
juice
jujur
jul
jules
juli
julia
julian
julie
julien
juliet
julio
julius
julu
julukan
july
jum
jumat
jumlah
jumlahnya
jump
jumpa
jun
junction
june
jung
jungle
juni
junior
juniornya
juno
junta
jupiter
juragan
jurang
jurassic
jure
jurgen
juri
jurnal
jurnalis
jurnalisme
jurnalistik
juru
jurus
jurusan
jury
jus
just
justice
justin
justitie
justru
jusuf
juta
jutaan
juventus
juz
jv
jw
jx
jy
jyp
jz
k
k0
k1
k2
k3
k4
k5
k6
k7
k8
k9
ka
kab
kabag
kabar
kabarnya
kabel
kabin
kabinet
kabir
kabisat
kabul
kabupaten
kabur
kabushiki
kabut
kaca
kacamata
kacang
kacangan
kacau
kadal
kadang
kadar
kader
kadet
kadin
kadipaten
kadir
kadokawa
kafe
kafir
kaget
kagoshima
kagum
kah
kahin
kahn
kai
kaidah
kaimana
kain
kairo
kaisar
kaisarea
kaiser
kait
kaitan
kaitannya
kajian
kajol
kak
kaka
kakak
kakaknya
kakao
kakawin
kakek
kakeknya
kaki
kakinya
kaku
kal
kala
kalah
kalam
kalangan
kalau
kalbar
kaldu
kaledonia
kalender
kaleng
kali
kalian
kaliber
kaligrafi
kalijaga
kalimantan
kalimat
kalinya
kalium
kalkulus
kalla
kalo
kaloe
kalor
kalori
kalsel
kalsium
kalteng
kaltim
kalung
kam
kamakura
kamal
kamar
kamarnya
kambing
kamboja
kamen
kamera
kamerun
kami
kamil
kamis
kamoe
kamp
kampanye
kampar
kampong
kampung
kampus
kamu
kamus
kamusbesar
kan
kana
kanaan
kanada
kanagawa
kanak
kanal
kanan
kanannya
kancah
kancing
kandang
kandangan
kandangnya
kandas
kandidat
kandung
kandungan
kandungnya
kane
kang
kanisius
kanjeng
kanji
kanker
kannada
kano
kanon
kanonik
kansai
kansas
kanselir
kant
kantin
kanto
kanton
kantong
kantor
kantornya
kantung
kao
kaohsiung
kaori
kaoru
kaos
kap
kapada
kapadamoe
kapadanja
kapak
kapal
kapalnya
kapan
kapanlagi
kapas
kapasitas
kapel
kapita
kapital
kapitalis
kapitalisme
kapitan
kaplan
kapolda
kapolres
kapolri
kapoor
kappa
kapsul
kapten
kapuas
kapur
kara
karabakh
karachi
karaeng
karakter
karakteristik
karakternya
karam
karan
karang
karangan
karanganyar
karangasem
karantina
karaoke
karat
karate
karawang
karawitan
karbohidrat
karbon
karbonat
kardinal
karel
karen
karena
karenanya
karesidenan
karet
kargo
kari
karibia
karier
kariernya
karim
karimun
karimunjawa
karin
karina
karir
karirnya
karl
karma
karna
karnataka
karnaval
karnivora
karno
karo
karpet
karst
kartago
kartanegara
kartasura
kartika
kartini
kartu
kartun
karun
karung
karunia
karya
karyanya
karyawan
kas
kasad
kasal
kasar
kasasi
kasat
kasau
kasdam
kaset
kashima
kashmir
kasi
kasih
kasihan
kasim
kasino
kasta
kastil
kastila
kastilia
kasur
kasus
kat
kata
katai
katak
katakan
katakana
katakanlah
katalis
katalog
katanja
katanya
kate
katedral
kateglo
kategori
katekismus
katherine
kathleen
kathryn
kathy
katie
katingan
kation
katniss
kato
katolik
katrina
katsir
katup
katy
katz
kau
kaufman
kaukasus
kaul
kaum
kauman
kaumnya
kaur
kaus
kautsky
kav
kavaleri
kawah
kawan
kawanan
kawannya
kawasaki
kawasan
kawat
kawi
kawin
kay
kaya
kayan
kayu
kayunya
kazakh
kazakhstan
kazan
kaze
kazimierz
kb
kbbi
kbri
kbs
kc
kd
ke
keabadian
keadaan
keadaannya
keadilan
keagamaan
keagungan
keahlian
keahliannya
keajaiban
keamanan
keanekaragaman
keanggotaan
kearah
kearifan
keatas
keaton
kebahagiaan
kebahasaan
kebaikan
kebajikan
kebakaran
kebaktian
kebal
kebalikan
kebanggaan
kebangkitan
kebangkrutan
kebangsaan
kebangsawanan
kebanyakan
kebayoran
kebebasan
kebenaran
kebenarannya
kebencian
keberadaan
keberadaannya
keberagaman
keberangkatan
keberanian
keberatan
keberhasilan
keberhasilannya
keberlanjutan
kebersamaan
kebersihan
keberuntungan
kebesaran
kebetulan
kebiasaan
kebidanan
kebijakan
kebijaksanaan
kebingungan
kebo
kebocoran
kebodohan
kebohongan
kebon
kebudayaan
kebugaran
kebumen
kebun
kebutuhan
kec
kecabangan
kecakapan
kecamatan
kecanduan
kecantikan
kecap
kecapi
kecelakaan
kecemasan
kecenderungan
kecepatan
kecerdasan
kecewa
kecil
kecilnya
kecintaan
kecoklatan
kecuali
kecurangan
kecurigaan
kedah
kedai
kedalam
kedalaman
kedamaian
kedatangan
kedatangannya
kedaulatan
kedekatan
kedelai
kedelapan
kedepan
kediaman
kediamannya
kediktatoran
kediri
kedokteran
kedu
kedua
keduanya
kedubes
kedudukan
kedudukannya
kedung
kedutaan
keemasan
keempat
keempatnya
keenam
keep
keeping
keesokan
kegagalan
kegelapan
kegembiraan
kegiatan
kegiatannya
kegubernuran
kegunaan
keguruan
kehabisan
kehadiran
kehadirannya
kehakiman
kehamilan
kehancuran
keharusan
kehendak
kehidupan
kehidupannya
kehilangan
kehitaman
kehormatan
kehutanan
kei
keiji
keiko
keikutsertaan
keilmuan
keindahan
keinginan
keinginannya
keislaman
keistimewaan
keisuke
keith
kejadian
kejahatan
kejaksaan
kejam
kejang
kejar
kejatuhan
kejayaan
kejayaannya
keji
kejiwaan
keju
kejuaraan
kejujuran
kejuruan
kejutan
kekacauan
kekaisaran
kekal
kekalahan
kekasih
kekasihnya
kekayaan
kekayaannya
kekebalan
kekecewaan
kekejaman
kekeliruan
kekeluargaan
kekerabatan
kekerasan
kekeringan
kekhalifahan
kekhanan
kekhawatiran
kekosongan
kekristenan
kekuasaan
kekuasaannya
kekuatan
kekuatannya
kekuningan
kekurangan
kel
kelabu
kelahiran
kelahirannya
kelainan
kelak
kelakuan
kelam
kelamaan
kelamin
kelancaran
kelangsungan
kelanjutan
kelantan
kelapa
kelaparan
kelas
kelasnya
kelautan
kelayakan
kelebihan
keledai
kelelahan
kelelawar
kelemahan
kelembaban
kelembagaan
kelembapan
kelengkapan
kelenjar
kelenteng
kelestarian
kelihatan
kelihatannya
keliling
kelima
kelimpahan
kelinci
keling
keliru
kelistrikan
keller
kelley
kelly
kelola
kelompok
kelompoknya
kelopak
kelt
keluar
keluaran
keluarga
keluarganya
keluarnya
keluhan
kelulusan
kelurahan
kelvin
kemacetan
kemah
kemaharajaan
kemahasiswaan
kemajuan
kemakmuran
kemal
kemampuan
kemampuannya
kemana
kemandirian
kemang
kemanusiaan
kemarahan
kemarau
kemari
kemarin
kemas
kemasan
kemasyarakatan
kematian
kematiannya
kemauan
kemayoran
kembali
kembalinya
kembang
kembangkan
kembar
kemdikbud
kemeja
kemenag
kemenangan
kemenangannya
kemendagri
kemendikbud
kemenkeu
kementerian
kementrian
kemenyan
kemerahan
kemerdekaan
kemerdekaannya
kemih
kemiliteran
kemiri
kemiringan
kemiripan
kemiskinan
kemitraan
kemoedian
kemudahan
kemudi
kemudian
kemuliaan
kemunculan
kemunduran
kemungkinan
kemurnian
ken
kena
kenaikan
kenal
kenalan
kenang
kenangan
kenapa
kenari
kencana
kencang
kencing
kendal
kendala
kendali
kendall
kendang
kendaraan
kendari
kendati
kendi
kenegaraan
kenikmatan
kenji
kennedy
kenneth
kenny
kent
kental
kentang
kentucky
kenya
kenyamanan
kenyataan
kenyataannya
kenyatta
keolahragaan
kep
kepada
kepadaku
kepadamu
kepadanya
kepadatan
kepahiang
kepahlawanan
kepala
kepalanya
kepandaian
kepanduan
kepangeranan
kepanjangan
kepastian
kepatuhan
kepausan
kepedulian
kepegawaian
kepemilikan
kepemimpinan
kepemimpinannya
kependekan
kependidikan
kependudukan
kepengurusan
kepentingan
keperawatan
kepercayaan
kepercayaannya
kepergian
keperluan
keping
kepingan
kepiting
kepler
kepolisian
keponakan
keponakannya
kepopuleran
keppres
kepresidenan
kepri
kepribadian
keprihatinan
kepuasan
kepulauan
kepunahan
kepunyaan
kepustakaan
keputusan
keputusannya
kera
kerabat
kerabatnya
keracunan
keragaman
keraguan
kerah
kerahasiaan
kerajaan
kerajaannya
kerajinan
kerak
kerala
keramaian
keramat
keramik
kerana
kerang
kerangka
keranjang
kerap
kerapatan
keras
kerasnya
keraton
kerbau
kerdil
keren
kerentanan
keresidenan
kereta
kerikil
kerinci
kering
keringat
keripik
keris
kerja
kerjakan
kerjanya
kerjasama
kernel
kerohanian
keroncong
kerr
kerremans
kerry
kertas
kerucut
kerugian
kerukunan
kerumunan
keruntuhan
kerupuk
kerusakan
kerusuhan
kesabaran
kesadaran
kesakitan
kesaksian
kesaktian
kesal
kesalahan
kesalahannya
kesalahpahaman
kesamaan
kesan
kesana
kesatria
kesatu
kesatuan
kesayangan
kesebelas
kesederhanaan
kesedihan
keseharian
kesehatan
kesehatannya
keseimbangan
kesejahteraan
keselamatan
keseluruhan
kesembilan
kesempatan
kesempurnaan
kesemuanya
kesenangan
kesengsaraan
kesenian
kesenjangan
kesepakatan
kesepian
kesepuluh
kesesuaian
kesetaraan
kesetiaan
kesetimbangan
keshogunan
kesiapan
kesibukan
kesimpulan
kesopanan
kestabilan
kesuburan
kesucian
kesukaan
kesuksesan
kesulitan
kesultanan
kesusahan
kesusastraan
ketaatan
ketahanan
ketahui
ketakutan
ketan
ketapang
ketat
ketebalan
ketegangan
ketemu
ketenagakerjaan
ketenangan
ketenaran
ketentuan
ketepatan
keterampilan
keterangan
keterbatasan
keterbukaan
ketergantungan
keterkaitan
keterlibatan
keterlibatannya
ketersediaan
ketertarikan
ketertiban
ketetapan
ketiadaan
ketidak
ketidakadilan
ketidakmampuan
ketidakpastian
ketidakpuasan
ketidakstabilan
ketiga
ketiganya
ketik
ketika
ketimbang
ketinggalan
ketinggian
ketinggiannya
ketjil
ketrampilan
ketua
ketuhanan
ketujuh
ketukan
ketupat
keturunan
keturunannya
ketut
keuangan
keunggulan
keunikan
keuntungan
keuskupan
keutamaan
keutuhan
kevin
kew
kewajiban
kewajibannya
kewarganegaraan
kewenangan
kewenangannya
kewirausahaan
key
keyakinan
keyboard
keynes
keys
keyserling
kf
kfc
kg
kh
khadijah
khalayak
khalid
khalidi
khalifa
khalifah
khalil
khan
khanna
kharisma
khas
khasnya
khatib
khatulistiwa
khawatir
khazanah
khmer
khotbah
khusus
khususnya
ki
kia
kiai
kiamat
kian
kiasan
kiblat
kibor
kick
kicker
kid
kids
kidul
kidung
kiev
kiii
kijang
kiki
kikuchi
kilang
kilas
kilat
kill
killed
killer
killing
kills
kilogram
kilometer
kim
kimberly
kimi
kimia
kimiawan
kimiawi
kimura
kin
kinabalu
kinase
kincir
kind
kinerja
kinetik
king
kingdom
kingdoms
kings
kingston
kini
kios
kipas
kiper
kiprah
kiprahnya
kir
kira
kirana
kiranya
kirby
kirgizstan
kiri
kiril
kirim
kiriman
kirinya
kirk
kis
kisah
kisahnya
kisaran
kisi
kiss
kit
kita
kitab
kitchen
kitchener
kitty
kj
kk
kko
kkp
kkpd
kl
klad
klaim
klan
klarifikasi
klasemen
klasifikasi
klasik
klaten
klaus
klausa
klein
klemens
klenteng
kleopatra
klien
klik
klinik
klinis
klip
kliwon
klm
klorida
klorin
klub
klungkung
kluwer
km
kmt
kn
knesset
knew
knight
knights
knil
knock
knopf
knot
know
knowledge
knowles
known
knows
knox
knpi
ko
koalisi
kobayashi
kobe
koboi
koch
kod
koda
kodam
kodansha
kode
kodeks
kodepos
kodim
kodok
kodrat
koe
koefisien
koen
koes
koeswoyo
kognitif
koh
koi
koichi
koin
koji
kojima
kok
koki
koko
kokoh
kokpit
kol
kolaborasi
kolaka
kolam
koleksi
kolektif
kolektor
kolera
kolese
kolesterol
kolkata
koln
kolom
kolombia
kolonel
koloni
kolonial
kolonialisme
kolonisasi
kom
koma
komandan
komando
kombes
kombinasi
komedi
komedian
komentar
komentari
komentator
komering
komersial
komet
komik
komika
kominfo
komisaris
komisi
komisioner
komite
komitmen
komnas
komoditas
komoditi
komodo
komoro
kompak
komparatif
kompartemen
kompas
kompasiana
kompatibel
kompeni
kompensasi
kompeten
kompetensi
kompetisi
kompetitif
kompi
kompilasi
komplek
kompleks
kompleksitas
komplikasi
komponen
komponis
komposer
komposisi
komposit
komprehensif
kompresi
kompromi
komputasi
komputer
komputindo
komune
komuni
komunikasi
komunis
komunisme
komunitas
komutatif
komuter
kon
konawe
kondisi
kondisinya
kondo
kondolojy
konduktor
kondusif
koneksi
konfederasi
konferensi
konfiden
konfigurasi
konfirmasi
konflik
konfrontasi
konfusianisme
kong
konghucu
konglomerat
kongo
kongregasi
kongres
kongsi
koni
koninklijke
konjektur
konjungsi
konklaf
konkret
kono
konon
konotasi
konrad
konsekuensi
konseling
konsensus
konsentrasi
konsep
konsepsi
konseptual
konser
konservasi
konservatif
konsesi
konsili
konsisten
konsistensi
konsol
konsolidasi
konsonan
konsorsium
konspirasi
konstan
konstanta
konstantin
konstantinopel
konstantinus
konstelasi
konstituante
konstituen
konstituensi
konstitusi
konstitusional
konstruksi
konstruktor
konsul
konsulat
konsultan
konsultasi
konsumen
konsumsi
kontak
kontaminasi
kontan
konteks
kontemporer
konten
kontes
kontestan
kontinental
kontingen
kontinu
kontra
kontrak
kontraknya
kontraksi
kontraktor
kontras
kontrasepsi
kontribusi
kontribusinya
kontributor
kontrol
kontroversi
kontroversial
kontur
konveksi
konvensi
konvensional
konversi
konvoi
konyol
koo
koordinasi
koordinat
koordinator
kopassus
kopenhagen
koperasi
kopi
koppen
kopral
koptik
kor
koramil
koran
korawa
korban
korbannya
korea
korean
koreksi
korelasi
korem
koreografer
koreografi
koresh
koresponden
korespondensi
koridor
korintus
korn
korona
koronavirus
koroner
korosi
korpora
korporasi
korps
korsika
korup
korupsi
kosakata
kosmetik
kosmik
kosmologi
kosmos
kosong
kosovo
kosta
kostrad
kostum
kota
kotabaru
kotak
kotamadya
kotanya
kotapraja
kotawaringin
koto
kotor
kotoran
kovalen
kovenan
kp
kpi
kpk
kpop
kpt
kpts
kpu
kpud
kq
kr
kraft
krajan
krakatau
krakow
krama
kramat
kramer
kraton
krause
kreasi
kreatif
kreativitas
kredit
kremlin
kreol
kresna
kreta
kretek
kri
kriket
krim
krimea
kriminal
kriptografi
kris
krisdayanti
krishna
krisis
kristal
kristen
kristiani
kristin
kristo
kristus
kriteria
kritik
kritikan
kritikus
kritis
krl
kroasia
kroll
kromium
kromosom
kronik
kronis
kronologi
kronologis
kru
krueng
kruyt
ks
ksatria
kt
ktm
ktp
ktt
ku
kuadrat
kuah
kuala
kualifikasi
kualitas
kualitatif
kuantan
kuantitas
kuantitatif
kuantum
kuartal
kuasa
kuat
kuatnya
kuba
kubah
kubik
kubis
kubu
kubur
kuburan
kubus
kuching
kucing
kuda
kudeta
kudo
kudus
kue
kuhp
kuil
kuis
kuk
kukar
kuku
kukuh
kuli
kuliah
kuliahnya
kuliner
kulit
kulitnya
kulon
kultivar
kultur
kultural
kultus
kuma
kumamoto
kuman
kumar
kumbang
kumi
kumis
kumoring
kumparan
kumpulan
kumuh
kumulatif
kun
kunci
kung
kuning
kuningan
kunjung
kunjungan
kunjungi
kuno
kuntilanak
kunyit
kuo
kuomintang
kuota
kupang
kupu
kura
kurang
kurangnya
kurator
kurban
kurdi
kurdistan
kurikulum
kurma
kurnia
kurniawan
kurosawa
kursi
kursus
kurt
kuru
kurun
kurung
kurungan
kurus
kurva
kusta
kusuma
kuta
kutai
kutipan
kutoarjo
kutu
kutub
kutukan
kuwait
kuwu
kv
kw
kwak
kwan
kwang
kwartir
kwee
kwon
kx
ky
kya
kyai
kyiv
kyle
kylie
kyo
kyoko
kyoto
kyu
kyung
kyushu
kz
l
l0
l1
l2
l3
l4
l5
l6
l7
l8
l9
la
lab
laba
laban
labbineka
label
labor
laboratorium
laboratory
labour
labs
labu
labuan
labuhan
labuhanbatu
lada
ladang
ladies
lady
laga
lagi
lagos
lagu
laguna
lagunya
lah
lahan
lahat
lahir
lahirlah
lahirnya
lahore
lai
laila
lain
lainnya
lainya
lajos
laju
lajur
lake
lakers
lakes
laki
lakinya
lakon
laksamana
laksana
lakshmi
laku
lakukan
lal
lala
lalang
lalat
laloe
lalu
lalunya
lam
lama
laman
lamanya
lamaran
lamb
lambang
lambat
lambatnya
lambda
lambert
lambung
lamela
lamiaceae
lamiales
lamongan
lampau
lampiran
lampu
lampung
lan
lana
lanal
lancar
lancaster
lance
lancet
land
landai
landak
landas
landasan
landesamt
landing
landmark
lands
landscape
landsdrukkerij
lane
lang
lange
langgam
langganan
langit
langka
langkah
langkat
langsa
langsung
language
languages
lanham
lanjut
lanjutan
lanka
lansia
lanskap
lantai
lantamal
lantaran
lantas
lantik
lanud
lao
laos
lap
lapang
lapangan
lapar
lapis
lapisan
laporan
laptop
lara
larang
larangan
laras
large
largest
lari
larik
laris
larry
lars
larsen
larson
larut
larutan
larva
las
lasem
laser
laskar
lasor
last
laszlo
lat
latar
late
later
lateral
latest
latief
latif
latih
latihan
latin
latina
latvia
lau
lauk
laun
launch
launched
launches
launching
laura
laurel
lauren
laurence
laurent
laurie
lausanne
laut
lautan
lautnya
lava
law
lawak
lawan
lawang
lawannya
lawas
lawrence
laws
lawson
lawyer
lay
layak
layaknya
layanan
layang
layar
layer
layout
lazarus
lazim
lazimnya
lazio
lb
lc
lccn
lcd
ld
le
lea
lead
leader
leaders
leadership
leading
leads
leaf
league
leang
learn
learned
learning
least
leave
leaves
leaving
lebah
lebak
lebanon
lebar
lebaran
lebarnya
lebat
lebih
lebong
lebur
leclerc
lecture
lectures
led
ledak
ledakan
ledger
lee
leeds
left
leg
lega
legacy
legal
legend
legenda
legendaris
legendary
legends
legion
legislasi
legislatif
legislative
legitimasi
legiun
lego
leher
lehernya
lei
leia
leicester
leiden
leigh
leipzig
lekas
leksikon
lelah
lelaki
lelang
lele
lelucon
leluhur
leluhurnya
lema
lemah
lemak
lemari
lembab
lembaga
lembah
lembang
lembap
lembar
lembaran
lembata
lembu
lembut
lemdiklat
lemes
lemhannas
lemon
lempar
lemparan
lempeng
lempengan
lempung
len
lena
lencana
lendir
lengan
lengkap
lengkapnya
lengkong
lengkung
lengkungan
length
lenin
leningrad
lennon
lenny
lens
lensa
lentera
lenyap
leo
leon
leonard
leonardo
leone
leonid
leopard
leopold
lepas
leptotarsus
leq
lereng
leroy
les
lesbian
lesley
leslie
lesmana
lesotho
less
lesson
lessons
lestari
leste
lester
lesti
lesung
let
letak
letaknya
letjen
letkol
letnan
letter
letters
letusan
leukemia
leung
lev
levant
level
levels
levi
levin
levine
levy
lewat
lewi
lewis
lex
lexicon
lexikon
lexington
lexus
leyte
lezat
lf
lfp
lg
lgbt
lh
lhokseumawe
li
lia
liam
lian
liang
liao
liar
liat
lib
liberal
liberalisme
liberation
liberia
liberty
libraries
library
libreria
librivox
libur
liburan
libya
license
licik
licin
lidah
lie
liechtenstein
liege
liem
lies
life
lifestyle
lifetime
lift
liga
ligan
light
lightning
lights
ligue
lih
lihat
lihatlah
like
likely
liku
lil
lili
lilin
lille
lillian
lily
lim
lima
limau
limbah
limit
limited
limits
lin
lina
lincah
lincoln
linda
lindsay
lindung
line
linear
liner
lines
lineup
ling
lingga
lingkar
lingkaran
lingkungan
lingkungannya
lingkup
lingua
linguistic
linguistics
linguistik
lini
linier
link
linked
linkin
links
linnaeus
lintah
lintang
lintas
lintasan
linud
linux
linyphiidae
lion
lionel
liong
lions
lipat
lipatan
lipi
lipid
lippo
liputan
liquid
lira
lirik
liriknya
liriomyza
lisa
lisan
lisboa
lisbon
lisensi
lissodendoryx
list
lista
listby
liste
listed
listen
listing
listrik
lists
lit
litbang
liter
literary
literasi
literatur
literature
lithium
lithuania
litium
little
littlefield
lituania
liturgi
liu
live
liver
liverpool
lives
living
livius
liz
liza
lj
ljubljana
lk
ll
llc
lloyd
lm
ln
lo
loa
loan
lobi
lobster
loc
local
location
locations
lock
locke
lockheed
locus
lodge
log
logam
logan
logaritma
logat
logic
logika
logis
logistik
logo
logos
loh
lohan
loi
loire
lois
lok
loka
lokakarya
lokal
lokasi
lokasinya
loki
lokomotif
lola
lolos
loma
lomba
lombardia
lombok
lompat
lompatan
loncat
lonceng
london
lone
lonely
long
longer
longest
longgar
longman
longsor
lonjong
lontar
lontara
lontong
loo
look
looking
looks
loop
lopez
lor
lord
lorde
lords
lore
lorenzo
lori
lorong
lorraine
los
lose
loser
loss
losses
lost
lot
lotte
lotus
lou
loud
louis
louise
louisiana
lounge
louvre
lovato
love
loved
lovely
lover
lovers
loves
loving
low
lowe
lower
lp
lq
lr
lrt
ls
lsm
lt
ltd
lu
lua
luang
luar
luarnya
luas
luasnya
lubang
lubis
lubuk
lubuklinggau
luc
luca
lucas
lucia
luciano
lucius
luck
lucky
lucu
lucy
ludwig
lufthansa
luftwaffe
luhur
luigi
luis
luiz
luk
luka
lukas
luke
lukis
lukisan
lukisannya
lukman
luksemburg
lulu
lulus
lulusan
lumajang
lumayan
lumba
lumban
lumbung
lumia
lumpuh
lumpur
lumut
lun
luna
lunak
lunar
lunas
lunatipula
luncurkan
lund
lung
luo
lupa
lupus
luput
lurah
lurus
luther
lutheran
lutut
luv
luwu
lux
luxembourg
luzon
lv
lw
lx
ly
lydia
lynch
lynn
lynne
lynx
lyon
lyons
lyrics
lz
m
m0
m1
m2
m3
m4
m5
m6
m7
m8
m9
ma
maaf
maatschappij
mabes
mabuk
mac
macam
macan
macarthur
macau
macdonald
macedonia
macet
mach
machine
machines
mack
mackenzie
macmillan
mad
mada
madagascar
madagaskar
madame
madani
made
madeleine
madinah
madison
madiun
madness
madonna
madras
madrasah
madrid
madu
madura
madya
mae
maeda
maestro
mafia
mag
magang
magazine
magdalena
magelang
magetan
maggie
magic
magical
magis
magister
magma
magna
magnesium
magnet
magnetic
magnetik
magnitudo
magnus
magyar
mah
maha
mahabharata
mahakam
mahal
mahar
maharaja
maharani
maharashtra
mahasiswa
mahasiswi
mahathir
mahayana
mahdi
mahendra
mahir
mahkamah
mahkota
mahluk
mahmoud
mahmud
mai
maia
maid
maiden
mail
main
mainan
maine
mainichi
mainstream
maintenance
mainz
maja
majalah
majalengka
majapahit
majelis
majemuk
majesty
majid
majikan
majlis
major
majority
maju
mak
maka
makabe
makalah
makam
makamnya
makan
makanan
makanannya
makasar
makassar
makau
make
makedonia
maker
makers
makes
makhluk
maki
makin
making
makk
makka
makkah
maklumat
makmur
makna
maknanya
mako
makoto
makro
maksimal
maksimum
maksud
maksudnya
mal
mala
malabar
maladewa
malaga
malah
malahan
malaikat
malaka
malam
malang
malapetaka
malaria
malas
malawi
malay
malaya
malayalam
malaysia
malaysian
malcolm
male
maleficent
malhotra
mali
malik
malinau
mall
mallorca
malta
malu
maluku
mama
mamak
mamalia
mamasa
mamberamo
mami
mamluk
mammal
mammals
mampu
mamuju
man
mana
manado
manaf
management
manager
managing
manajemen
manajer
manakah
manakala
manapun
mancanegara
manchester
manchu
manchuria
mancur
mandailing
mandala
mandar
mandarin
mandat
mandela
mandi
mandiri
manfaat
manfred
mang
manga
mangalore
mangan
mangga
manggarai
manggis
mangkat
mangkubumi
mangkuk
mangkunegara
mangkunegaran
mangkurat
mangora
mangrove
mangsa
mangsanya
manhattan
mani
mania
manifestasi
manifesto
manik
manila
manipulasi
manis
mann
manning
manokwari
mans
mansion
mansur
mantan
mantap
mantel
mantra
mantri
manu
manual
manuel
manufacturing
manufaktur
manurung
manuscript
manuscripts
manusia
manusiawi
manuskrip
manuver
many
mao
maoe
maori
map
mapan
mapper
mapping
maps
mar
mara
marah
marathi
marathon
maraton
marc
marcel
marcelo
march
marching
marco
marconi
marcos
marcus
mare
mareka
maret
marga
margaret
margasatwa
margin
margot
marguerite
mari
maria
mariah
marian
mariana
marianne
mariano
marie
mariko
marilah
marilyn
marin
marina
marine
marinir
marino
mario
marion
marissa
maritim
maritime
marius
marjorie
mark
markah
markas
market
marketing
markets
marks
markus
marmer
marne
maroko
maroon
maros
maroskab
marquez
marquis
marriage
married
marry
mars
marseille
marsekal
marsh
marsha
marshal
marshall
marsma
mart
marta
martabat
martapura
marten
martha
martial
martin
martinez
martins
martinus
martir
marty
maru
marvel
marvin
marwan
marx
marxis
marxisme
mary
maryam
maryland
marzuki
mas
masa
masak
masakan
masaki
masalah
masalahnya
masanya
masehi
masif
masih
masing
masinis
masjid
mask
maskapai
masker
maskot
maskulin
mason
masoret
masoretik
mass
massa
massachusetts
massacre
massal
massive
master
masterchef
mastering
masters
masuk
masukan
masukkan
masuknya
masyarakat
masyarakatnya
masyumi
mat
mata
matahari
matan
matang
matanya
mataram
match
matches
mate
matematika
matematikawan
matematis
mater
materi
material
materialisme
materials
materiil
math
mathbb
mathbf
mathematical
mathematics
mathfrak
mathias
mathrm
mathworld
mati
matilda
matinya
matius
matra
matriks
matrix
matsuda
matsui
matsumoto
matsuri
matt
matteo
matter
matters
matthew
matthews
matthias
mau
maulana
maulid
maupun
maureen
maurice
mauritania
mauritius
mausoleum
maut
mawar
max
maxim
maximilian
maximum
maximus
maxwell
may
maya
mayang
mayat
mayer
mayjen
mayo
mayor
mayoritas
mayu
mazda
mazhab
mazmur
mb
mba
mbah
mbc
mbox
mc
mccarthy
mccartney
mcdonald
mcdonnell
mcfarland
mcgill
mcgraw
mclaren
mcmahon
mcnary
md
mdpl
mdt
me
mead
mean
meaning
means
measurement
measures
meat
mebel
mechanical
mechanics
mechanism
mechanisms
mecklenburg
med
medal
medali
medan
medang
medcom
media
mediaindonesia
median
medianet
mediasi
mediator
medical
medici
medicine
medien
medieval
medii
medina
medis
meditasi
mediterania
mediterranean
medium
medley
mee
meet
meeting
meets
meg
mega
megah
megan
megatron
megawati
meghan
megumi
mehmed
mehta
mei
meiji
mein
meitetsu
meja
mekah
mekanik
mekanika
mekanis
mekanisme
mekar
mekkah
mekong
meksiko
mel
melacak
melahirkan
melainkan
melaju
melaka
melaksanakan
melakukan
melakukannya
melalui
melamar
melambangkan
melampaui
melanagromyza
melancarkan
melanda
melanggar
melangkah
melangsungkan
melanie
melanjutkan
melantai
melantik
melapor
melaporkan
melarang
melarikan
melastomataceae
melati
melatih
melawan
melayang
melayani
melayu
melbourne
melebar
melebihi
meledak
meledakkan
melek
melekat
melemah
melemahkan
melempar
melemparkan
melengkapi
melengkung
melenyapkan
melepas
melepaskan
melestarikan
meletakkan
meletus
meletusnya
melewati
melewatkan
melibatkan
melihat
melihatnya
melimpah
melindungi
melingkar
melingkupi
melintang
melintas
melintasi
meliput
meliputi
melissa
mello
melly
melodi
melody
meloloskan
melompat
melon
meluas
melukai
melukis
melukiskan
melumpuhkan
meluncur
meluncurkan
melupakan
mem
memaafkan
memadai
memadamkan
memadukan
memahami
memainkan
memajukan
memakai
memakan
memaksa
memaksakan
memaksanya
memaksimalkan
memalukan
memamerkan
memanaskan
memancarkan
memancing
memandang
memandu
memanfaatkan
memang
memanggil
memanggilnya
memangsa
memanipulasi
memanjang
memanjat
memantau
memaparkan
memasak
memasang
memasarkan
memasok
memastikan
memasukan
memasuki
memasukkan
memasukkannya
mematahkan
mematikan
mematuhi
membaca
membacakan
membagi
membagikan
membahas
membahayakan
membaik
membakar
membalap
membalas
membalikkan
membandingkan
membangkitkan
membangun
membangunkan
membantah
membantu
membantunya
membatalkan
membatasi
membawa
membawahi
membawakan
membawanya
membayangkan
membayar
membebaskan
membedakan
membedakannya
membeku
membela
membelah
membeli
membelot
membenarkan
membenci
membentang
membentuk
member
memberantas
memberdayakan
memberhentikan
memberi
memberikan
memberikannya
memberinya
memberitahu
memberitahukan
memberitakan
memberkati
memberlakukan
memberontak
members
membersihkan
membesar
membesarkan
membiarkan
membiayai
membicarakan
membikin
membimbing
membina
membinasakan
membingungkan
membintangi
memblokir
membolehkan
membongkar
membran
membuahkan
membuang
membuat
membuatnya
membubarkan
membujuk
membuka
membuktikan
membunuh
membunuhnya
memburu
memburuk
membusuk
membutuhkan
meme
memecah
memecahkan
memecat
memegang
memelihara
memeluk
memenangi
memenangkan
memengaruhi
mementingkan
memenuhi
memerangi
memerankan
memeriksa
memerintah
memerintahkan
memerlukan
memesan
memetakan
memetik
memfasilitasi
memfokuskan
memicu
memihak
memikat
memikirkan
memikul
memilih
memiliki
memimpin
memindahkan
meminimalkan
meminjam
meminjamkan
meminta
memintanya
meminum
memisahkan
memoar
memodifikasi
memohon
memoir
memoirs
memorandum
memori
memorial
memories
memory
memotong
memotret
mempawah
mempekerjakan
mempelai
mempelajari
mempengaruhi
memperbaiki
memperbarui
memperbesar
memperbolehkan
mempercayai
mempercepat
memperdalam
memperebutkan
mempergunakan
memperhatikan
memperhitungkan
memperingati
memperingatkan
memperjuangkan
memperkaya
memperkenalkan
memperkirakan
memperkuat
memperlakukan
memperlambat
memperlihatkan
memperluas
mempermudah
memperoleh
memperpanjang
mempersatukan
mempersembahkan
mempersiapkan
mempertahankan
mempertanyakan
mempertemukan
mempertimbangkan
memphis
mempraktikkan
memprediksi
memproduksi
mempromosikan
memproses
memprotes
mempublikasikan
mempunyai
memuaskan
memuat
memudahkan
memudar
memuja
memuji
memukul
memulai
memuliakan
memulihkan
memuncak
memuncaki
memunculkan
memungkinkan
memungkinkannya
memungut
memusatkan
memusnahkan
memutar
memutus
memutuskan
men
menabrak
menafsirkan
menahan
menaiki
menaikkan
menak
menakjubkan
menaklukan
menaklukkan
menakutkan
menamai
menamainya
menamakan
menamatkan
menambah
menambahkan
menampakkan
menampilkan
menampung
menanam
menanamkan
menandai
menandakan
menandatangani
menang
menangani
menanggapi
menanggung
menangis
menangkap
menangkapnya
menanjak
menantang
menanti
menantu
menantunya
menanyakan
menara
menargetkan
menari
menarik
menaruh
menata
menatap
menaungi
menawan
menawarkan
menayangkan
mencabut
mencakup
mencalonkan
mencampur
mencantumkan
mencapai
mencari
mencatat
mencatatkan
mencegah
mencela
menceritakan
mencerminkan
mencetak
mencintai
menciptakan
mencium
mencoba
mencolok
mencuci
mencukupi
menculik
mencurahkan
mencuri
mencurigai
mendadak
mendaftar
mendaftarkan
mendagri
mendahului
mendaki
mendalam
mendalami
mendampingi
mendanai
mendapat
mendapati
mendapatkan
mendapatkannya
mendarat
mendasar
mendasari
mendasarkan
mendatang
mendatangi
mendatangkan
mendedikasikan
mendefinisikan
mendekat
mendekati
mendekatkan
mendeklarasikan
mendengar
mendengarkan
mendengarnya
menderita
mendes
mendesain
mendesak
mendeskripsikan
mendeteksi
mendiami
mendiang
mendidih
mendidik
mendirikan
mendiskusikan
mendistribusikan
mendjadi
mendokumentasikan
mendominasi
mendorong
mendorongnya
mendoza
menduduki
menduga
mendukung
mendukungnya
menebus
menegakkan
menegaskan
menekan
menekankan
menekuni
menelan
menelepon
meneliti
menelusuri
menemani
menembak
menembaki
menembakkan
menembus
menempati
menempatkan
menempatkannya
menempel
menempuh
menemui
menemukan
menemukannya
menenangkan
menengah
menenggelamkan
menentang
menentukan
menerangkan
menerapkan
menerbangkan
menerbitkan
menerima
menerimanya
menerjemahkan
menerobos
menerus
meneruskan
menetap
menetapkan
menetas
menewaskan
meng
mengabaikan
mengabarkan
mengabdi
mengabdikan
mengabulkan
mengacu
mengadakan
mengadaptasi
mengadili
mengadopsi
mengadu
mengagumi
mengagumkan
mengaitkan
mengajak
mengajar
mengajari
mengajarkan
mengaji
mengajukan
mengakhiri
mengakibatkan
mengakomodasi
mengakses
mengaktifkan
mengaku
mengakui
mengakuisisi
mengalahkan
mengalami
mengalihkan
mengalir
mengalirkan
mengamalkan
mengamankan
mengamati
mengambang
mengambil
mengampuni
mengamuk
menganalisis
mengancam
mengandalkan
mengandung
menganggap
menganggapnya
mengangkat
mengangkatnya
mengangkut
menganjurkan
mengantar
mengantarkan
mengantisipasi
menganugerahkan
menganut
mengapa
mengapung
mengarah
mengarahkan
mengarang
mengartikan
mengarungi
mengasihi
mengasingkan
mengasuh
mengasumsikan
mengatakan
mengatasi
mengatur
mengawal
mengawali
mengawasi
mengebor
mengecam
mengecewakan
mengedepankan
mengejar
mengejek
mengejutkan
mengeksekusi
mengeksploitasi
mengeksplorasi
mengekspor
mengekspresikan
mengelilingi
mengelola
mengeluarkan
mengeluh
mengembalikan
mengemban
mengembang
mengembangkan
mengembara
mengemudi
mengemukakan
mengenai
mengenakan
mengenal
mengenali
mengenalkan
mengenang
mengendalikan
mengendarai
mengenyam
mengepalai
mengepung
mengerahkan
mengerikan
mengerjakan
mengerti
mengesahkan
mengesankan
mengetahui
mengetahuinya
mengevaluasi
menggabungkan
menggagalkan
menggalang
menggali
menggambar
menggambarkan
menggambarkannya
menggandeng
mengganggu
mengganti
menggantikan
menggantikannya
menggantinya
menggantung
menggarap
menggelar
menggerakkan
menggeser
menggigit
menggoda
menggubah
menggugat
menggulingkan
menggunakan
menggunakannya
mengguncang
menghabiskan
menghadap
menghadapi
menghadiri
menghadirkan
menghalangi
menghalau
menghambat
menghampiri
menghancurkan
menghantam
menghapus
menghapuskan
mengharapkan
menghargai
mengharuskan
menghasilkan
menghasut
menghemat
menghendaki
menghentikan
mengherankan
menghiasi
menghibur
menghidupkan
menghilang
menghilangkan
menghimpun
menghina
menghindar
menghindari
menghindarkan
menghitung
menghormati
menghormatinya
menghubungi
menghubungkan
menghukum
menghuni
mengibarkan
mengidap
mengidentifikasi
mengikat
mengikut
mengikuti
mengikutinya
mengilhami
mengimbangi
mengimplementasikan
mengimpor
menginap
mengindahkan
mengindikasikan
menginfeksi
menginformasikan
mengingat
mengingatkan
menginginkan
menginjak
menginspirasi
mengintegrasikan
menginvasi
mengira
mengirim
mengirimkan
mengiringi
mengisahkan
mengisi
mengisolasi
mengisyaratkan
mengitari
mengizinkan
mengkaji
mengkhawatirkan
mengkhianati
mengkhususkan
mengklaim
mengklasifikasikan
mengkonfirmasi
mengkonsumsi
mengkoordinasikan
mengkritik
mengobati
mengolah
mengomentari
mengonfirmasi
mengonsumsi
mengontrol
mengoperasikan
mengoptimalkan
mengorbankan
mengorbit
mengorganisir
menguap
menguasai
menguatkan
mengubah
mengubahnya
mengucap
mengucapkan
mengudara
menguji
mengukir
mengukuhkan
mengukur
mengulang
mengulangi
mengulas
mengumpulkan
mengumumkan
mengunci
mengundang
mengundurkan
mengunggah
mengungguli
mengungkap
mengungkapkan
mengungsi
mengunjungi
menguntungkan
mengupayakan
menguraikan
mengurangi
mengurus
mengurusi
mengusahakan
mengusir
mengusulkan
mengusung
mengutamakan
mengutip
mengutuk
mengutus
meniadakan
menikah
menikahi
menikahinya
menikahkan
menikmati
menilai
menimba
menimbang
menimbulkan
menimpa
menindas
meninggal
meninggalkan
meninggalkannya
meninggalnya
meningkat
meningkatkan
meningkatnya
meninjau
menipu
meniru
menit
menjabarkan
menjabat
menjadi
menjadikan
menjadikannya
menjaga
menjalani
menjalankan
menjalar
menjalin
menjamin
menjangkau
menjanjikan
menjarah
menjatuhkan
menjauh
menjauhi
menjauhkan
menjawab
menjebak
menjelajah
menjelajahi
menjelang
menjelaskan
menjelma
menjemput
menjual
menjualnya
menjuarai
menjulang
menjumpai
menjunjung
menobatkan
menolak
menolaknya
menolong
menon
menonjol
menonjolkan
menonton
menopang
mensponsori
menstruasi
mensyaratkan
mentah
mental
mentari
mentawai
mentega
menteng
menteri
mentor
mentransfer
menu
menuai
menuduh
menugaskan
menuju
menukar
menular
menulis
menuliskan
menumbuhkan
menumpang
menumpas
menunaikan
menunda
menundukkan
menunggu
menunjang
menunjuk
menunjukan
menunjukkan
menuntun
menuntut
menurun
menurunkan
menurunnya
menurut
menuruti
menurutnya
menusuk
menutup
menutupi
menuturkan
menyadari
menyajikan
menyakiti
menyakitkan
menyaksikan
menyala
menyalahkan
menyalakan
menyalin
menyalip
menyalurkan
menyamai
menyamakan
menyamar
menyambung
menyambut
menyampaikan
menyandang
menyangka
menyangkal
menyangkut
menyanyi
menyanyikan
menyapa
menyapu
menyarankan
menyatakan
menyatu
menyatukan
menyayangi
menyebabkan
menyebar
menyebarkan
menyeberang
menyeberangi
menyebut
menyebutkan
menyebutnya
menyediakan
menyedihkan
menyeimbangkan
menyelam
menyelamatkan
menyelamatkannya
menyelenggarakan
menyelesaikan
menyelidiki
menyeluruh
menyembah
menyembuhkan
menyembunyikan
menyempurnakan
menyenangkan
menyentuh
menyepakati
menyerah
menyerahkan
menyerang
menyerap
menyerbu
menyertai
menyertakan
menyerukan
menyerupai
menyesal
menyesatkan
menyesuaikan
menyetujui
menyewa
menyiapkan
menyiarkan
menyiksa
menyimpan
menyimpang
menyimpulkan
menyinggung
menyingkirkan
menyiratkan
menyisakan
menyita
menyokong
menyoroti
menyuarakan
menyukai
menyulitkan
menyumbang
menyumbangkan
menyunting
menyuruh
menyuruhnya
menyusui
menyusul
menyusun
menyusup
menyusuri
menyusut
menyutradarai
mer
meragukan
merah
meraih
merak
meramalkan
merambah
merambat
merampas
merancang
merangin
merangkap
merangsang
merantau
meranti
merapi
merasa
merasakan
merata
merauke
meraup
merawat
merayakan
mercedes
mercer
merchant
merck
mercury
mercusuar
mercy
merdeka
mere
merebut
meredam
meredith
merefleksikan
merek
mereka
merekam
merekomendasikan
merekrut
merencanakan
merendahkan
merepresentasikan
meresmikan
merespon
merger
meriah
meriam
meridian
merilis
meringankan
merintis
merit
meriwayatkan
merk
merkuri
mermaid
merokok
merosot
merpati
merr
merriam
merrill
merry
merta
mertua
mertuanya
merugikan
merujuk
merumuskan
merupakan
merusak
mesa
mesias
mesin
mesinnya
mesir
mesiu
mesjid
meski
meskipun
mesopotamia
message
messenger
messi
messier
mesti
mestinya
met
meta
metabolisme
metacritic
metafora
metal
metana
metcalf
meteor
meteorologi
meter
meterai
method
methodist
methods
metil
metode
metodologi
metrik
metro
metropolis
metropolitan
metrotv
metz
metzger
meunasah
mewah
mewajibkan
mewakili
mewarisi
mewariskan
mewarnai
mewujudkan
mexican
mexico
meyakini
meyakinkan
meyer
meyrick
mf
mg
mgm
mgr
mh
mhz
mi
mia
miami
mic
michael
michel
michele
micheli
michelin
michelle
michigan
mick
mickey
miconia
micro
microbiology
microsoft
mid
middle
midi
midland
midnight
midun
midway
mie
mieszko
mifflin
miftahul
mig
migas
might
mighty
migran
migrasi
migration
miguel
mika
mikael
mike
mikha
mikhael
mikhail
miki
mikro
mikrob
mikroorganisme
mikroskop
mil
mila
milan
milano
mild
mile
milenium
miles
miley
miliar
milik
miliki
miliknya
milimeter
milisi
militan
military
militer
militernya
milk
mill
millennium
miller
millidge
million
millions
mills
milo
milton
milwaukee
milyar
mimbar
mimi
mimika
mimpi
mimpinya
min
mina
minahasa
minaj
minami
minamoto
minang
minangkabau
minat
minatnya
minato
mind
mindanao
minds
mine
minecraft
mineral
ming
minggu
mingguan
minh
mini
miniatur
minim
minimal
minimum
mining
miniseri
minister
ministers
ministry
minneapolis
minnesota
minor
minoritas
minority
minsk
mint
minta
minum
minuman
minus
minuscule
minute
minutes
minyak
mio
mir
mira
miracle
mirage
mirai
miranda
miri
miriam
miring
mirip
miroslav
mirror
mirza
mis
misa
misaki
misal
misalkan
misalnya
mischa
mishra
misi
misil
misinya
misionaris
miskin
miss
missile
missiles
missing
mission
missionary
missions
mississippi
missouri
mister
misteri
misterius
misti
mistik
mistis
mit
mitch
mitchell
mito
mitokondria
mitologi
mitos
mitra
mitsubishi
mitsui
miura
mix
mixed
mixing
miyazaki
miyuki
mizan
mizuki
mj
mk
ml
mm
mn
mnc
mnctv
mnet
mnras
mo
moab
mob
mobil
mobile
mobilisasi
mobilitas
mobilnya
mochtar
mod
moda
modal
mode
model
modeling
models
modena
moderat
modern
modernisasi
modi
modifikasi
modul
modular
module
modus
moe
moerid
moga
mogok
moh
mohamad
mohamed
mohammad
mohammed
mohan
mohd
mohon
mohr
moi
mojo
mojokerto
mol
moldova
molecular
molekul
molekuler
molly
mom
momen
moment
moments
momentum
momo
mon
mona
monaco
monako
monarchy
monarki
moncong
moncongloe
monday
monde
monetary
moneter
money
mongol
mongolia
mongondow
monica
monitor
monitoring
monk
monkey
monkeys
monmouth
mono
monogatari
monograph
monographs
monoksida
monopoli
monroe
mons
monster
monsters
montana
monte
montenegro
montgomery
month
monthly
months
montpellier
montreal
monty
monumen
monument
monumental
monuments
monyet
moo
mood
moody
moon
moonlight
moor
moore
mor
moral
morales
moralitas
moran
moravia
more
moreno
morfem
morfologi
morgan
mori
morison
mormon
morning
moro
morocco
morotai
morowali
morris
morrison
morrow
morse
morton
mosaik
moscow
moses
moshe
mosi
moskow
moskwa
mosque
moss
most
mosul
mother
motif
motilal
motion
motivasi
moto
motogp
motor
motors
motorsport
motorsports
motto
mou
mount
mountain
mountains
mouse
mouth
moutong
move
movement
movements
moves
movie
movies
moving
moyang
mozambik
mozart
mozilla
mp
mph
mpr
mprs
mpu
mq
mr
mrs
mrt
ms
msc
msn
msnbc
mt
mtr
mts
mtv
mu
mual
muara
muaro
muasal
muat
muatan
muawiyah
much
muchtar
muda
mudah
mudanya
mudik
mufakat
mufti
mughal
muh
muhamad
muhammad
muhammadiyah
muhyiddin
mui
mujahidin
muka
mukanya
mukerji
mukherjee
mukhtar
mukim
mukjizat
mukmin
muktamar
mukti
mula
mulai
mulailah
mulanya
mulawarman
mulia
muller
mulo
multi
multilateral
multimedia
multinasional
multiple
mulus
mulut
mulutnya
mulya
mulyadi
mulyo
mumbai
mun
muna
munafik
munchen
muncul
muncullah
munculnya
mundo
mundur
mungkin
munich
municipal
municipality
munir
munisipalitas
munoz
munster
muntah
murad
murah
murakami
mural
murba
murder
muri
muria
murid
muridnya
murka
murni
murphy
murray
murung
mus
musa
musang
musashi
muscle
muse
musee
museo
museum
museums
mushola
musholla
musi
musibah
music
musica
musical
musik
musikal
musiknya
musikus
musim
musiman
musisi
musk
muslihat
muslim
muslimah
muslimin
muslims
musnah
muson
mussolini
must
mustafa
mustahil
mustika
musuh
musuhnya
musume
musyawarah
mutakhir
mutasi
mutiara
mutlak
mutlaknya
mutu
mutual
muzik
mv
mvp
mw
mwave
mx
my
myanmar
mycale
mycetophila
mycetophilidae
mycomya
myers
myrmarachne
myrtaceae
myrtales
myself
myspace
mysterious
mystery
myth
mythology
myths
myung
mz
n
n0
n1
n2
n3
n4
n5
n6
n7
n8
n9
na
naa
naar
nabati
nabi
nabila
nabire
nach
nacional
nad
nada
nadi
nadia
nadine
nadu
nadya
nafas
nafkah
nafsu
naga
nagano
nagara
nagari
nagasaki
nagori
nagorno
nagoya
nah
nahdlatul
nai
naif
naik
naiknya
nair
nairobi
najib
nak
naka
nakagawa
nakajima
nakal
nakamura
naked
nakhoda
nam
nama
namanya
namco
name
named
names
namibia
namun
nan
nana
nanas
nancy
nanda
nang
nanga
nangka
nani
nanjing
nano
nanti
nantinya
nao
naoki
naomi
napas
naples
napoleon
napoli
nara
narapidana
nararya
narasi
narasumber
naratif
narator
narayan
narkoba
narkotika
narnia
narrative
naruto
nas
nasa
nasabah
nascar
nasdaq
nasdem
nash
nashville
nasi
nasib
nasibnya
nasihat
nasional
nasionalis
nasionalisme
nasir
naskah
naskahnya
nasrani
nassau
nasser
nasution
nat
nata
natal
natalia
natalie
natasha
nate
nathan
nathaniel
nation
national
nationale
nationalism
nations
native
nato
natrium
natsir
natsu
natuna
natur
natural
naturalis
nature
naungan
nauru
naval
navarra
naver
navigasi
navigator
navy
nawawi
naya
nazar
nazi
nazionale
nb
nba
nbc
nc
nct
nd
ndtv
nduga
ne
neal
near
nearly
nebraska
nebukadnezar
nebula
nec
necessary
ned
nederland
nederlands
nederlandsch
nederlandse
nee
need
needham
needs
negara
negaranya
negarawan
negatif
negative
negeri
negerinya
negosiasi
negri
negro
nehemia
nehru
neil
neill
neko
nektar
nel
nelayan
nellie
nelson
nen
nenek
neneknya
neo
neolophonotus
neon
nepal
nepenthes
nephrotoma
neptune
neptunus
neraca
neraka
nero
nest
nestle
net
netflix
netherlands
netral
network
networks
neue
neumann
neuron
neutron
nevada
never
neville
nevis
new
newcastle
newman
news
newsen
newsletter
newspaper
newspapers
newsweek
newton
next
nexus
neza
nf
nfl
ng
nga
ngada
nganjuk
ngarai
ngawi
ngc
nggak
ngin
ngo
ngurah
nguyen
nh
nhk
ni
nia
niaga
nias
niat
niatnya
nic
nica
nice
nicea
nicholas
nichols
nicholson
nick
nickelodeon
nicki
nicky
nico
nicola
nicolas
nicole
nicolson
niels
nielsen
niet
nietzsche
nigel
niger
nigeria
night
nightmare
nights
nih
nihon
niigata
niis
nijhoff
nikah
nikaragua
nike
nikel
nikita
nikkei
nikki
nikmat
nikolai
nil
nila
nilai
nilainya
nina
nine
nineteenth
ning
ningrat
ninja
nino
nintendo
ninth
nio
niosh
nipah
nippon
nirkabel
nirlaba
nis
nisa
nisan
niscaya
nishi
nissan
nitrat
nitrogen
nixon
nj
nja
nk
nkri
nl
nm
nmb
nme
nn
no
noaa
noah
nobel
nobita
noble
nobody
nobunaga
noda
node
noel
noer
noh
noir
noise
nokia
nol
nolan
nomaden
nomenclature
nomenklatur
nomina
nominal
nominasi
nominated
nomination
nominations
nomine
nominee
nominees
nomor
nomura
non
nona
nonaktif
none
nonton
noor
nopember
nor
nora
nord
nordic
nordik
norfolk
norma
normal
norman
normandia
norris
norte
north
northern
northrop
northwest
norton
norway
norwegia
norwegian
norwich
nos
nostalgia
not
nota
notaris
notasi
note
notes
nothing
notice
notices
notre
nottingham
nouvelle
nov
nova
novel
novelis
novelnya
novels
november
novi
now
np
npr
npsn
nq
nr
ns
nsw
nt
ntb
ntt
ntv
nu
nuansa
nubia
nubuat
nuclear
nueva
nuevo
nugini
nugraha
nugroho
nuh
nukleus
nuklir
number
numbers
numeralia
numerik
numfor
nun
nunsiatur
nunsius
nunukan
nur
nurani
nurbaya
nurdin
nuremberg
nurhaliza
nuri
nurul
nusa
nusantara
nutrisi
nutrition
nv
nw
nx
ny
nya
nyai
nyak
nyala
nyaman
nyamuk
nyanyian
nyaris
nyata
nyawa
nyawanya
nyc
nyeri
nyi
nyoman
nyonya
nytimes
nz
o
o0
o1
o2
o3
o4
o5
o6
o7
o8
o9
oa
oak
oakland
oaks
oasis
ob
obama
obat
obatan
obenberger
oberea
obesitas
obituary
object
objects
objek
objektif
oblast
obligasi
obor
obrolan
observasi
observations
observatorium
observatory
observer
oc
occupation
occupational
occupied
ocean
oceania
och
oclc
oct
october
od
oda
ode
oder
odisseus
odyssey
oe
oecd
oentoek
of
ofensif
off
offensive
offer
offers
office
officer
officers
official
officially
officials
often
og
ogan
oggi
oh
ohio
oi
oil
oise
oita
oj
ojek
ok
oka
okada
okayama
okezone
oki
okinawa
oklahoma
oksida
oksidasi
oksigen
oktober
oku
ol
olaf
olah
olahan
olahraga
old
oldest
ole
oleg
oleh
olehnya
olga
oli
olih
olimpiade
oliv
olive
oliveira
oliver
olivia
olivier
olok
olsen
olson
olympia
olympic
olympics
olympus
om
oman
omar
ombak
ombudsman
omega
ommatius
omnibus
omong
on
once
onder
one
ones
ong
ongkos
onitis
online
only
onna
ono
ons
ontario
onthophagus
oo
oost
op
open
opening
opens
opera
operasi
operasinya
operasional
operating
operation
operations
operator
operatorname
opini
opinion
opium
oposisi
opposition
ops
opsi
opsional
opsir
optical
optik
optimal
optimis
optimus
option
optis
opus
oq
or
ora
oracle
oral
orang
orange
orangnya
orangtua
orangtuanya
oranye
orbit
orbital
orchestra
orchidaceae
orde
order
orders
ordinary
ordo
ordonansi
ore
oregon
org
organ
organic
organik
organisasi
organisation
organisme
organization
organizations
oricon
orient
oriental
orientalis
orientasi
origenes
origin
original
originally
originals
origins
orion
orisinal
orkes
orkestra
orlando
orleans
ormas
ornamen
oro
orrell
orthodox
ortodoks
orton
os
osaka
osborne
oscar
oscars
oseania
osen
oshima
osiris
osis
oskar
oslo
osman
osn
osprey
ossetia
ost
oswald
ot
ota
otak
otentik
other
others
oto
otomatis
otomotif
otonom
otonomi
otorita
otoritas
otoriter
otot
ottawa
otto
ottoman
ou
our
out
outbreak
outer
outlet
outline
outlook
output
outside
outstanding
ouvrard
ov
ova
oval
oven
over
overseas
overview
ow
owen
own
owner
ownership
ox
oxford
oxygen
oxyopes
oy
oz
ozon
p
p0
p1
p2
p3
p4
p5
p6
p7
p8
p9
pa
paban
pabean
pablo
pabrik
pabrikan
pac
pacar
pacarnya
pace
pacific
pacitan
pack
package
pacu
pacul
pad
pada
padahal
padaku
padam
padamu
padanan
padang
padanya
padat
padatan
padi
padilla
padjadjaran
padma
pado
padri
paduan
paduka
pagan
pagar
pagaruyung
page
pageant
pagelaran
pages
pagi
paglinawan
pagoda
paguyuban
paha
pahala
paham
pahang
pahat
pahatan
pahit
pahlawan
pai
paid
pain
painter
painting
paintings
pair
pais
pajajaran
pajak
pajang
pak
pakai
pakaian
pakan
pakar
paket
pakis
pakistan
pakpak
paksa
paksaan
pakta
paku
pakuan
pakubuwana
pal
pala
palace
palais
palang
palangka
palangkaraya
palapa
palau
palawija
palazzo
palearktik
palem
palembang
palermo
palestina
palestine
palestinian
palgrave
pali
paling
palm
palma
palme
palmer
palopo
palsu
palu
palung
pam
pama
paman
pamannya
pamekasan
pamela
pamen
pameran
pamflet
pamong
pamungkas
pan
panah
panahan
panama
panas
panasonic
panca
pancaran
pancasila
panci
panda
pandai
pandan
pandang
pandangan
pandangannya
pandawa
pandeglang
pandemi
pandemic
pandji
pandora
pandu
panduan
pane
panel
panembahan
panen
pang
pangan
pangandaran
pangdam
pangeran
panggang
panggil
panggilan
panggul
panggung
panggungnya
pangkal
pangkalan
pangkalpinang
pangkat
pangkatnya
pangkep
panglima
pangsa
paniai
panic
panicum
panik
panitera
panitia
panjaitan
panjalu
panjang
panjangnya
panjat
panji
panorama
pantai
pantang
pantas
pantheon
panther
panti
pantun
pantura
panzer
pao
paolo
papa
papan
paparan
paper
paperback
papers
papirus
papua
papyrus
par
para
parabola
parade
paradigma
paradise
paradoks
paragraf
paraguay
parah
parahyangan
paralel
paralimpiade
parallel
paralympic
parameter
paramiliter
paramount
parang
paranormal
parasit
parazoa
pare
parents
parepare
parfum
pari
pariaman
parigi
paripurna
paris
parish
parit
pariwisata
park
parker
parkinson
parkir
parks
parlemen
parlementer
parliament
parliamentary
parma
parodi
paroki
parpol
parsial
parsons
part
partai
partainya
parthia
partial
parties
partikel
partikelir
partikula
partisan
partisi
partisipan
partisipasi
partner
partners
partnership
parts
party
paru
paruh
pas
pasa
pasai
pasal
pasaman
pasang
pasangan
pasangannya
pasar
pasaran
pasaribu
pasca
pascal
pascasarjana
paser
pasha
pasi
pasien
pasif
pasifik
pasir
paskah
paskibra
paslon
pasokan
paspor
pass
passage
passenger
passepartout
passes
passing
passion
past
pasta
pasti
pastikan
pastinya
pastor
pastoral
pasukan
pasukannya
pasundan
pasuruan
pat
patah
patahan
patch
patel
paten
patent
pater
path
pati
patient
patients
patih
patogen
patologi
patria
patriark
patriarkat
patricia
patrick
patriot
patriotik
patrol
patroli
patterns
patterson
pattimura
patton
patty
patuh
patung
patungan
patut
pau
paud
paul
paula
pauline
paulo
paulus
pauly
paus
pausanias
pav
pavel
paviliun
paw
pawai
pay
paya
payah
payakumbuh
payne
pays
payudara
payung
paz
pb
pbb
pbs
pc
pcr
pd
pdb
pddikti
pdf
pdi
pdip
pdt
pe
peace
peak
pearce
pearl
pearson
pebisnis
pecah
pecahan
pecahnya
pecinta
peckham
pedagang
pedal
pedalaman
pedang
pedas
pedesaan
pedoman
pedro
pedukuhan
peduli
peer
pegang
pegangan
pegas
pegasus
pegawai
peggy
pegulat
pegunungan
pei
pejabat
pejalan
pejantan
pejuang
peka
pekalongan
pekan
pekanbaru
pekarangan
pekat
pekerdjaan
pekerja
pekerjaan
pekerjaannya
pekerti
peking
pekon
pelabuhan
pelacakan
pelacur
pelacuran
peladen
pelafalan
pelajar
pelajaran
pelaksana
pelaksanaan
pelaksanaannya
pelaku
pelakunya
pelalawan
pelan
pelanggan
pelanggaran
pelangi
pelantikan
pelaporan
pelarangan
pelari
pelarian
pelarut
pelat
pelataran
pelatih
pelatihan
pelaut
pelawak
pelayan
pelayanan
pelayaran
pelbagai
peleburan
pelecehan
peledak
pelengkap
pelepasan
pelestarian
peletakan
peleton
peliharaan
pelindung
pelita
pelopor
pelosok
peluang
pelukis
peluncur
peluncuran
peluru
peluruhan
pemadam
pemahaman
pemain
pemainnya
pemakai
pemakaian
pemakaman
pemakan
pemalang
pemalsuan
pemalu
pemanah
pemanas
pemanasan
pemancar
pemandangan
pemandian
pemandu
pemanfaatan
pemangku
pemangsa
pemantau
pemantauan
pemasangan
pemasaran
pemasok
pemasukan
pemasyarakatan
pematang
pematangsiantar
pematung
pembaca
pembacaan
pembagian
pembaharuan
pembahasan
pembajak
pembajakan
pembakaran
pembalap
pembalasan
pembangkit
pembangun
pembangunan
pembangunannya
pembantaian
pembantu
pembaptis
pembaptisan
pembaruan
pembatalan
pembatas
pembatasan
pembawa
pembayaran
pembebasan
pembedahan
pembekuan
pembela
pembelaan
pembelahan
pembelajaran
pembeli
pembelian
pembenaran
pembengkakan
pembentuk
pembentukan
pembentukannya
pemberani
pemberantasan
pemberdayaan
pemberhentian
pemberi
pemberian
pemberitaan
pemberitahuan
pemberlakuan
pemberontak
pemberontakan
pembersih
pembersihan
pembesar
pembesaran
pembiayaan
pembicara
pembicaraan
pembimbing
pembina
pembinaan
pembom
pembongkaran
pembuangan
pembuat
pembuatan
pembuatannya
pembubaran
pembuka
pembukaan
pembuktian
pembukuan
pembuluh
pembunuh
pembunuhan
pemburu
pemda
pemecah
pemecahan
pemegang
pemekaran
pemeliharaan
pemeluk
pemenang
pemenangnya
pementasan
pemenuhan
pemeran
pemerannya
pemeriksa
pemeriksaan
pemerintah
pemerintahan
pemerintahannya
pemerkosaan
pemesanan
pemetaan
pemicu
pemikir
pemikiran
pemikirannya
pemilih
pemilihan
pemilik
pemiliknya
pemilu
pemimpin
pemimpinnya
pemindahan
pemirsa
pemisah
pemisahan
pemkab
pemkot
pemodelan
pemogokan
pemohon
pemotongan
pemprov
pemrograman
pemrosesan
pemuda
pemugaran
pemujaan
pemuka
pemukim
pemukiman
pemukul
pemula
pemuliaan
pemulihan
pemungutan
pemurnian
pemusik
pemusnahan
pemutar
pemutaran
pemutusan
pen
pena
penafsiran
penahan
penahanan
penakluk
penaklukan
penalaran
penalti
penamaan
penambahan
penambang
penambangan
penampakan
penampang
penampil
penampilan
penampilannya
penampungan
penanaman
penanda
penandatanganan
penang
penanganan
penanggalan
penanggulangan
penanggung
penangkap
penangkapan
penangkaran
penari
penarik
penarikan
penasaran
penasehat
penasihat
penata
penataan
penataran
penawaran
penayangan
pencabutan
pencaharian
pencahayaan
pencak
pencakar
pencalonan
pencampuran
pencapaian
pencari
pencarian
pencatatan
pencegahan
pencemaran
pencerahan
pencernaan
pencetak
pencetakan
pencetus
pencinta
pencipta
penciptaan
pencitraan
pencucian
penculikan
pencuri
pencurian
pendaftaran
pendahulu
pendahuluan
pendahulunya
pendaki
pendakian
pendamping
pendanaan
pendapat
pendapatan
pendapatnya
pendarahan
pendarat
pendaratan
pendatang
pendayagunaan
pendek
pendekar
pendekatan
pendeknya
pendengar
pendengaran
penderita
penderitaan
pendeta
pendiam
pendidik
pendidikan
pendidikannya
pendingin
pendinginan
pendiri
pendirian
pendiriannya
pendirinya
pendistribusian
pendopo
pendorong
penduduk
pendudukan
penduduknya
pendukung
pendukungnya
penebangan
penebusan
penegak
penegakan
penekanan
peneliti
penelitian
penelitiannya
penelope
penelusuran
penembak
penembakan
penempatan
penemu
penemuan
penemuannya
penentang
penentangan
penentu
penentuan
penerangan
penerapan
penerbang
penerbangan
penerbit
penerbitan
penerima
penerimaan
penerjemah
penerjemahan
penerus
penerusnya
penetapan
penetrasi
peng
pengabdian
pengabdiannya
pengacara
pengadaan
pengadilan
pengaduan
pengairan
pengajar
pengajaran
pengajian
pengajuan
pengakuan
pengalaman
pengalamannya
pengalihan
pengaman
pengamanan
pengamat
pengamatan
pengambilalihan
pengambilan
pengampunan
pengangguran
pengangkatan
pengangkut
pengangkutan
penganiayaan
pengantar
pengantin
penganugerahan
penganut
pengarah
pengarahan
pengarang
pengaruh
pengaruhnya
pengasih
pengasingan
pengasuh
pengatur
pengaturan
pengawal
pengawas
pengawasan
pengebom
pengeboman
pengeboran
pengecualian
pengejaran
pengelola
pengelolaan
pengelompokan
pengeluaran
pengembalian
pengembang
pengembangan
pengembara
pengemis
pengemudi
pengenaan
pengenal
pengenalan
pengendali
pengendalian
pengendara
pengepungan
pengeringan
pengerjaan
pengertian
pengesahan
pengetahuan
pengetahuannya
penggabungan
penggagas
penggalangan
penggalian
penggambaran
pengganti
penggantian
penggantinya
penggemar
penggemarnya
penggerak
penggolongan
penggugat
pengguna
penggunaan
penggunaannya
penggunanya
penghakiman
penghalang
penghambat
penghancur
penghancuran
penghapusan
pengharapan
penghargaan
penghasil
penghasilan
penghematan
penghentian
penghibur
penghidupan
penghilangan
penghinaan
penghitungan
penghormatan
penghubung
penghujan
penghujung
penghulu
penghuni
pengikat
pengikut
pengikutnya
penginapan
penginjil
penginjilan
pengintai
pengintaian
pengirim
pengiriman
pengiring
pengisi
pengisian
pengkajian
pengkhianat
pengkhianatan
pengkhotbah
penglihatan
pengobatan
pengolahan
pengoperasian
pengorbanan
pengrajin
penguasa
penguasaan
penguat
penguatan
pengubahan
penguburan
pengucapan
penguin
pengujian
pengukuhan
pengukur
pengukuran
pengulangan
pengumpul
pengumpulan
pengumuman
pengundian
pengunduran
pengungkapan
pengungsi
pengunjuk
pengunjung
pengurangan
pengurus
pengurusan
pengusaha
pengusiran
pengutipan
penh
penilaian
penindasan
peninggalan
peningkatan
peninjauan
peninsula
penipu
penipuan
penis
penjabat
penjaga
penjagaan
penjahat
penjajah
penjajahan
penjaminan
penjara
penjarahan
penjelajah
penjelajahan
penjelasan
penjual
penjualan
penjumlahan
penjuru
penn
pennsylvania
penny
penobatan
penolakan
penolong
penomoran
penonton
pensil
pensiun
pensiunan
penske
pentagon
pentakosta
pentas
penting
pentingnya
penugasan
penuh
penularan
penulis
penulisan
penulisnya
penumpang
penundaan
penunggang
penunjang
penunjuk
penunjukan
penuntun
penuntut
penuntutan
penurunan
penutup
penutupan
penutur
penyair
penyajian
penyakit
penyalahgunaan
penyaluran
penyampaian
penyandang
penyangga
penyanyi
penyatuan
penyayang
penyebab
penyebabnya
penyebar
penyebaran
penyeberangan
penyebutan
penyedia
penyediaan
penyelamat
penyelamatan
penyelenggara
penyelenggaraan
penyelesaian
penyelidik
penyelidikan
penyelundupan
penyembahan
penyembuhan
penyempurnaan
penyerahan
penyerang
penyerangan
penyerapan
penyerbuan
penyertaan
penyesalan
penyesuaian
penyewa
penyewaan
penyiapan
penyiar
penyiaran
penyidik
penyidikan
penyihir
penyiksaan
penyimpanan
penyimpangan
penyisihan
penyitaan
penyu
penyuluhan
penyunting
penyuntingan
penyusun
penyusunan
penyutradaraan
people
peoples
peparnas
pepatah
pepaya
pepe
peperangan
pepohonan
pepper
peptida
per
peradaban
peradangan
peradilan
peraga
perahu
peraih
perairan
perak
perakitan
peralatan
peralihan
peramban
perampok
perampokan
peran
peranakan
peranan
perancang
perancangan
perancis
perang
perangkap
perangkat
perannya
perantara
perantaraan
perantau
perantauan
peranti
perasaan
perasaannya
peraturan
perawan
perawat
perawatan
perayaan
perbaikan
perbandingan
perbankan
perbatasan
perbedaan
perbedaannya
perbekalan
perbelanjaan
perbendaharaan
perbincangan
perbuatan
perbuatannya
perbudakan
perbukitan
perburuan
perburuhan
percabangan
percakapan
percampuran
percaya
percent
percepatan
perceraian
percetakan
percikan
percintaan
percobaan
percy
perda
perdagangan
perdamaian
perdana
perdanakusuma
perdananya
perdarahan
perdata
perdebatan
perdesaan
perdu
pere
perebutan
peredaran
pereira
perekam
perekaman
perekat
perekonomian
perekrutan
perempat
perempatfinal
perempoean
perempuan
perempuannya
perenang
perencana
perencanaan
peresmian
perez
perfect
perfilman
perform
performa
performance
performances
performed
performing
pergantian
pergaulan
pergelangan
pergerakan
pergeseran
pergi
pergilah
pergolakan
perguruan
perhatian
perhatiannya
perhatikan
perhelatan
perhentian
perhiasan
perhimpunan
perhitungan
perhubungan
peri
peribadatan
peribahasa
perihal
perikanan
periklanan
periksa
perilaku
perilisan
perimbangan
perindustrian
peringatan
peringkat
perintah
perintis
period
periode
periodik
perisai
peristirahatan
peristiwa
periuk
perizinan
perjalanan
perjalanannya
perjamuan
perjanjian
perjoangan
perjuangan
perjuangannya
perjudian
perkakas
perkalian
perkampungan
perkantoran
perkapalan
perkara
perkasa
perkataan
perkawinan
perkebunan
perkelahian
perkemahan
perkembangan
perkembangannya
perkenalan
perkeretaapian
perkins
perkiraan
perkotaan
perkuliahan
perkumpulan
perkusi
perlahan
perlakuan
perlawanan
perlengkapan
perlindungan
perlintasan
perlombaan
perlu
perluasan
perlunya
permai
permainan
permainannya
permaisuri
permana
permanen
permanent
permasalahan
permata
permen
permendagri
permintaan
permohonan
permukaan
permukaannya
permukiman
permulaan
permusuhan
permusyawaratan
pernah
pernapasan
perniagaan
pernikahan
pernikahannya
pernyataan
peroksida
peroleh
perolehan
perombakan
perompak
peron
perorangan
perpaduan
perpajakan
perpanjangan
perpecahan
perpindahan
perpisahan
perpustakaan
perputaran
perrin
perry
pers
persada
persahabatan
persaingan
persalinan
persamaan
persatu
persatuan
persaudaraan
persawahan
persebaran
persebaya
persediaan
persegi
persekutuan
persela
perselisihan
persemakmuran
persembahan
persembunyian
persen
persenjataan
persentase
persentasi
perseorangan
persepsi
perserikatan
persero
perseroan
perseteruan
persetujuan
perseus
persia
persian
persiapan
persib
persiba
persidangan
persija
persik
persilangan
persim
persimpangan
persinyalan
persipura
persis
persoalan
person
persona
personal
personality
personel
personil
persons
perspective
perspectives
perspektif
persyaratan
pertahanan
pertama
pertamanya
pertambahan
pertambangan
pertamina
pertanahan
pertanda
pertandingan
pertanggungjawaban
pertanian
pertanyaan
pertapa
pertapaan
pertarungan
pertempuran
pertemuan
pertengahan
pertengkaran
pertentangan
perth
pertiga
pertikaian
pertimbangan
pertiwi
pertobatan
pertokoan
pertolongan
pertuan
pertukaran
pertumbuhan
pertunangan
pertunjukan
pertunjukkan
peru
perubahan
perum
perumahan
perumpamaan
perumusan
perundang
perundingan
perunggu
perusahaan
perusahaannya
perusak
perusakan
perut
perutnya
perwakilan
perwalian
perwira
perwujudan
pes
pesaing
pesan
pesanan
pesanggrahan
pesantren
pesat
pesawat
pesawatnya
peserta
pesiar
pesisir
pesona
pesta
pestisida
pet
peta
petabahasa
petahana
petak
petang
petani
petarung
pete
petenis
peter
peternak
peternakan
peterpan
peters
petersburg
petersen
peterson
peti
petinggi
petinju
petir
petisi
petit
petra
petrokimia
petroleum
petrus
petty
petualang
petualangan
petugas
petunjuk
peugeot
pew
pewaris
pewarisan
pewarna
pewarnaan
pewayangan
peziarah
pf
pfa
pfalz
pfeiffer
pg
pgri
ph
phantom
pharmaceutical
phase
phd
phi
phil
philadelphia
philip
philipp
philippe
philippine
philippines
philips
phillip
phillips
philosophical
philosophy
phineas
phnom
phoebe
phoenix
phone
phonographic
photo
photographs
photography
photos
php
phu
phylogeny
phys
physical
physics
physiology
phytomyza
pi
pia
piagam
piala
pianis
piano
piatu
pic
pick
picks
picture
pictures
pidana
pidato
pidatonya
pidie
pie
piece
pieces
pier
pierce
pierre
pieter
pietro
pig
pigmen
pihak
pii
pijar
pike
pikir
pikiran
pikirannya
pikirkan
piksel
pil
pilar
pilatus
pilbup
pilih
pilihan
pilihannya
pilkada
pilot
pilpres
pimpin
pimpinan
pin
pinang
pindad
pindah
pine
pineda
ping
pinggang
pinggir
pinggiran
pingsan
pinjam
pinjaman
pink
pinrang
pintar
pinto
pintu
pinus
pinyin
pioneer
pionir
pipa
piper
pipi
pipih
pir
piramida
pirang
pirate
pirates
piring
piringan
pirminus
pisa
pisah
pisang
pisau
pistol
piston
pit
pita
pitch
pitt
pittsburgh
pius
piutang
pixar
pizza
pj
pjs
pk
pkb
pki
pkk
pks
pkt
pl
place
places
plain
plakat
plan
planck
plane
planet
planetary
planetisimal
planets
plankton
planned
planning
plans
plant
plants
plasma
plasmodium
plastic
plastik
plat
plate
platform
platina
platinum
platnick
plato
play
playback
playboy
played
player
players
playing
playoff
plays
playstation
plaza
plc
please
pleno
pln
plos
plot
plt
plta
plural
plus
plutarch
pluto
plutonium
plymouth
pm
pmatrix
pmc
pmid
pmk
pmr
pn
pnas
pnb
pneumonia
png
pni
pnri
pns
po
poaceae
poales
pob
poblacion
pocket
pocong
pod
podcast
podium
poela
poem
poems
poet
poetry
pohon
poin
point
points
pojok
pokemon
poker
pokok
pokoknya
pol
pola
poland
polandia
polar
polda
pole
polemik
polen
polewali
police
policies
policy
poliklinik
polimer
polinesia
polinomial
polis
polish
polisi
politbiro
politeknik
political
politico
politics
politik
politiknya
politikus
politis
politisi
poll
polo
polong
polos
polres
polri
polsek
polski
polusi
polygon
pom
pommern
pompa
pon
pond
pondasi
pondok
pong
ponorogo
ponsel
pont
pontianak
pony
pool
poole
poor
pop
pope
poppy
popular
popularitas
popularitasnya
populasi
populasinya
population
populations
populer
por
pori
porifera
porno
pornografi
poros
porsche
porsi
port
portabel
portable
portal
porter
portland
porto
portofolio
portrait
portraits
portsmouth
portugal
portugis
portuguese
pos
pose
poseidon
posesif
posisi
posisinya
positif
position
positions
positive
poso
possible
post
poster
postur
posyandu
pot
potensi
potensial
potential
potentilla
potong
potongan
potret
potter
pound
pour
poverty
powell
power
powered
powerful
powers
powiat
poznan
pp
ppi
ppk
ppm
ppp
pq
pr
pra
prabowo
prabu
prabumulih
practical
practice
practices
pradesh
praeger
prague
praha
praja
prajurit
prakarsa
prakash
praktek
praktik
praktiknya
praktis
praktisi
prambanan
pramoedya
pramono
pramuka
pranala
prancis
prangko
prasad
prasangka
prasarana
prasasti
prasejarah
prasetyo
pratama
pratt
prayer
pre
precure
predator
predikat
prediksi
prefecture
prefek
prefektur
preferensi
prehistoric
prekursor
preliminary
prelude
prem
preman
premier
premiere
premieres
premis
premium
prentice
preposisi
presence
present
presentasi
presentation
presented
presenter
presents
preservation
presiden
presidency
president
presidential
presidents
presidium
presisi
presley
press
presse
pressure
prestasi
prestasinya
preston
pretty
prevention
preview
pria
priangan
pribadi
pribadinya
pribumi
price
pride
priest
prihatin
prima
primary
primata
prime
primer
primera
primetime
primitif
primordial
prince
princess
princeton
principal
principe
principle
principles
pringsewu
prinsip
prinsipnya
print
printed
printer
printing
priok
prior
prioritas
prism
prisma
prison
prisoner
privacy
privasi
privat
private
prix
priya
priyanka
prize
pro
probabilitas
probably
probe
problem
problems
probolinggo
proc
proceedings
process
processes
processing
prodeskel
prodi
produce
produced
producer
producers
product
production
productions
products
produk
produknya
produksi
produksinya
produktif
produktivitas
produsen
produser
prof
profesi
profesional
profesionalnya
profesor
professional
professor
profil
profile
profiles
profit
progo
program
programme
programming
programs
progresif
progress
progressive
project
projects
proklamasi
proletar
proletariat
prometheus
promise
promises
promo
promosi
promotion
promotor
pronomina
proof
propaganda
proper
properti
properties
property
prophet
propinsi
proporsi
proporsional
proposal
proposed
proposisi
prosa
prosedur
proses
prosesi
prosesnya
prosesor
prosopocera
prospects
prospek
prost
prostitusi
protagonis
protect
protection
protein
proteksi
protektorat
protes
protest
protestan
protests
proto
protocol
protokol
proton
prototipe
proud
provence
providence
province
provinces
provincial
provinsi
provisional
proyek
proyeksi
proyektil
proyektor
prri
prusia
ps
psalms
pseudo
psi
psikiater
psikolog
psikologi
psikologis
psis
psm
psms
psp
pss
pssi
psv
psychiatry
psycho
psychological
psychology
psychotria
pt
pte
pterolophia
ptik
ptolemaios
pts
pu
puan
puas
puasa
pub
public
publication
publications
publik
publikasi
publikdomain
publikfalsefalse
published
publisher
publishers
publishing
pucat
pucuk
puerto
puing
puisi
puisinya
pujangga
puji
pujian
pukul
pukulan
pula
pulang
pulau
pulih
pulitzer
pulo
pulp
pulsa
pulse
puluh
puluhan
pun
punah
puncak
puncaknya
punch
punggung
punggungnya
punjab
punjabi
punk
punya
pupuk
pura
purana
purba
purbakala
purbalingga
purdue
pure
puri
purn
purnama
purnawirawan
purnomo
purple
purpose
pursuit
puru
purwakarta
purwarupa
purwodadi
purwokerto
purworejo
purwosari
pusaka
pusaran
pusat
pusatnya
push
pusing
puskesmas
puspa
pustaka
pustakawan
put
putar
putaran
putera
puteranya
puteri
putih
putin
puting
putnam
putra
putranya
putri
putrinya
putu
putus
putusan
puzzle
pv
pvt
pw
pwi
px
py
pyaar
pyongyang
pyotr
pythagoras
python
pz
q
q0
q1
q2
q3
q4
q5
q6
q7
q8
q9
qa
qaeda
qantas
qasim
qatar
qb
qc
qd
qe
qf
qg
qh
qi
qian
qin
qing
qj
qk
ql
qm
qn
qo
qp
qq
qr
qs
qt
qu
quad
quake
qualifying
quality
quan
quantum
quarter
quarterly
quartet
que
quebec
queen
queens
queensland
queer
quentin
query
quest
question
questions
quezon
qui
quick
quiet
quinn
qumran
quo
quote
quoted
qur
quraisy
quran
qv
qw
qx
qy
qz
r
r0
r1
r2
r3
r4
r5
r6
r7
r8
r9
ra
raad
rabbi
rabbit
rabi
rabu
race
racer
races
rachel
rachman
rachmat
racial
racing
racun
radang
radar
raden
radial
radiasi
radiation
radical
radikal
radio
radioaktif
raditya
radius
radja
rae
raf
rafael
raffi
raffles
raga
ragam
rage
ragi
ragu
rahang
rahardjo
rahasia
rahayu
rahib
rahim
rahma
rahman
rahmat
rahul
rahwana
rai
raid
raida
raider
raiders
raih
raihan
raikkonen
rail
railroad
railstation
railway
railways
rain
rainbow
rainer
rainfall
rais
raisa
raj
raja
rajanya
rajawali
rajin
rajo
rak
rakai
rakit
rakjat
raksa
raksasa
rakyat
rakyatnya
rally
ralph
ram
rama
ramadan
ramadhan
ramah
ramai
ramalan
raman
ramayana
rambu
rambut
rambutan
rambutnya
rami
ramirez
ramli
ramon
ramos
ramping
rampung
ramsay
ramsey
ramuan
ran
rana
ranah
rancangan
rand
randall
random
randy
rang
range
ranger
rangers
rangga
rangka
rangkaian
rangkap
rangsangan
rani
ranjang
ranjau
rank
ranked
ranking
rankings
rano
rantai
rantau
ranting
rao
raoul
rap
rapat
rape
raphael
rapi
rapid
rapids
rapper
rapuh
rara
rare
ras
rasa
rasakan
rasanya
rashid
rasi
rasial
rasio
rasional
rasisme
rasmussen
rasul
rasulullah
rasyid
rat
rata
ratapan
rate
rates
rather
ratih
rating
ratings
ratio
ratna
ratu
ratulangi
ratus
ratusan
raul
raven
ravi
raw
rawa
rawan
rawas
rawat
ray
raya
raymond
rayon
razak
rb
rc
rca
rcti
rd
re
reach
reaction
reactions
reactor
read
reader
readers
reading
ready
reagan
reaksi
reaktif
reaktor
real
realisasi
realisme
realistis
realitas
reality
really
reason
reasons
rebana
rebecca
rebel
rebellion
rebels
reborn
rebus
rec
receive
received
receives
recent
receptor
recipe
recipes
recipients
recognition
reconstruction
record
recorded
recording
recordings
records
recovery
red
redaksi
redaktur
reddy
rediff
reduction
reduksi
reed
reel
rees
reese
reeves
ref
reference
references
referendum
referensi
reflections
refleksi
reform
reformasi
reformation
reformed
reformis
refugee
refugees
regard
regarding
regbahasa
regen
regensbergiana
regent
reggae
regime
regina
reginald
region
regional
regions
register
registrasi
registration
registry
regnum
regu
regular
regulasi
regulation
regulations
regulator
reguler
rehabilitasi
rei
reich
reid
reign
reilly
reina
reinhard
reinkarnasi
rejang
rejo
reka
rekam
rekaman
rekan
rekannya
rekapitulasi
rekayasa
rekening
reklamasi
rekomendasi
rekonsiliasi
rekonstruksi
rekor
rekreasi
reksa
rektor
rel
rela
relasi
related
relatif
relating
relation
relations
relationship
relationships
relative
relativitas
relawan
relay
release
released
releases
relevan
reli
relief
religi
religion
religions
religious
religius
rem
remains
remaja
remake
rembang
remember
remembering
remigius
remix
remo
remote
rempah
remy
ren
rena
renaisans
renaissance
renang
renault
rencana
rencananya
rendah
rendahnya
rendra
rendy
rene
renee
reno
renovasi
rentan
rentang
reog
reorganisasi
rep
replika
report
reported
reporter
reports
repository
representasi
representation
representative
representatives
reprint
reprinted
reproduksi
reptil
reptile
repubblica
republic
republica
republican
republik
republika
reputasi
reputasinya
request
required
requirements
rer
reruntuhan
res
rescue
research
resensi
resep
resepsi
reseptor
reserse
reserve
reservoir
resi
residen
residence
resident
residu
resimen
resin
resistance
resistensi
resmi
resmikan
resminya
resolusi
resolution
resonansi
resor
resort
resource
resources
respect
respon
responden
respons
response
responsibility
rest
restaurant
restoran
restorasi
restoration
restrukturisasi
restu
result
results
resurrection
retail
retak
retina
retno
retorika
retribusi
retrieved
retro
return
returns
reuni
reunion
reuters
rev
reveal
revealed
reveals
revenge
review
reviews
revised
revisi
revision
revisited
revitalisasi
revival
revolt
revolusi
revolusioner
revolution
revolutionary
revue
rex
rey
reyes
reynolds
reza
rezeki
rezim
rf
rfc
rg
rh
rhein
rhine
rho
rhode
rhodes
rhododendron
rhoma
rhythm
ri
ria
riaa
riaj
riam
rian
riang
rias
riau
ribu
ribuan
ribut
rica
ricardo
rice
rich
richard
richards
richardson
richie
richmond
richter
rick
ricklefs
ricky
rico
ride
rider
riders
ridge
ridho
ridley
ridwan
riemann
rif
rifle
riga
right
rights
rihanna
riil
rika
riko
riley
rilis
rilisan
rilisnya
rim
rima
rimba
rin
rina
rinci
rincian
rindu
ring
ringan
ringkas
ringkasan
rings
rini
rintangan
rintisan
rinunce
rio
riot
ris
risa
risalah
rise
rises
riset
risiko
rising
risk
rita
ritel
ritme
ritual
ritus
ritzler
riv
rival
river
rivera
rivers
riwayat
riyadh
riyadi
riyanto
riza
rizal
rizki
rizky
rj
rk
rl
rlts
rm
rms
rn
rna
ro
roach
road
rob
robbie
robbins
robby
robert
roberto
roberts
robertson
robin
robinson
robo
robot
roche
rochester
rock
rockefeller
rocket
rockets
rocks
rocky
rod
roda
rodney
rodrigo
rodrigues
rodriguez
roemah
roger
rogers
rogue
roh
rohan
rohani
rohaniwan
rohis
rohit
roi
rok
rokan
roket
rokok
roland
role
roles
roll
roller
rolling
rolls
rom
roma
roman
romance
romania
romanian
romano
romansa
romantic
romantis
romawi
rombongan
rome
romeo
romero
romo
ron
ronald
ronaldo
ronde
rong
rongga
ronnie
ronny
rookie
room
rooney
roosevelt
root
roots
roro
rosa
rosario
rose
rosemary
rosen
rosenberg
roses
roskov
ross
rossa
rossi
rotan
rotasi
rotation
rote
roth
rothschild
roti
rotor
rotten
rotterdam
rouge
rough
round
route
routledge
rover
rovers
row
rowling
rowman
roy
royal
royale
royalti
royce
royong
rp
rpg
rpm
rq
rr
rri
rrt
rs
rss
rsssf
rsud
rt
rtv
ru
ruang
ruangan
ruas
rubah
rubber
ruben
rubiaceae
rubin
rubrik
ruby
rudal
rudi
rudolf
rudolph
rudy
rue
ruf
rugbi
rugby
rugi
rui
ruiz
rujak
rujukan
rukh
rukun
rule
rulers
rules
rum
rumah
rumahan
rumahnya
rumania
rumi
rumit
rumor
rumpun
rumput
rumus
rumusan
run
runcing
rune
runner
running
runtuh
runtuhnya
runway
rupa
rupanya
rupert
rupiah
rural
rus
rusa
rusak
rush
rusia
rusli
russel
russell
russia
russian
russo
rusuk
rut
rute
rutgers
ruth
rutherford
rutin
ruu
rv
rw
rwanda
rx
ry
ryan
ryo
ryu
ryukyu
rz
s
s0
s1
s2
s3
s4
s5
s6
s7
s8
s9
sa
saab
saat
saatnya
saba
sabah
saban
sabang
sabar
sabat
sabda
saber
sabha
sabit
sabrina
sabtu
sabu
sabuk
sabun
sachsen
sacra
sacramento
sacred
sad
sadar
saddam
sadja
sae
safari
safe
safety
saga
sagan
sage
sagu
sah
sahabat
sahabatnya
sahaja
saham
sahamnya
sahara
sahih
sahli
sahur
sai
said
saiful
saigon
sailor
saing
saingan
saingannya
sains
saint
sainte
saints
saitama
saito
saja
sajak
saji
sajian
saka
sakai
sakamoto
saki
sakit
sakral
sakramen
saksi
sakti
saku
sakura
sakurai
sal
sala
salad
salah
salahuddin
salak
salam
salat
salatiga
sale
saleh
salem
sales
salib
salim
salinan
saling
salju
sally
salma
salman
salmon
salomo
salon
salt
salticidae
saluran
salvador
salvia
salzburg
sam
sama
samad
saman
samantha
samar
samaran
samaria
samarinda
samba
sambal
sambas
sambil
sambung
sambungan
sambutan
same
sami
sammy
samoa
samosir
sampah
sampai
sampaikan
sampailah
sampang
sampe
sampel
samping
sampingan
sampit
sample
sampoerna
sampson
sampul
samson
samsung
samudera
samudra
samuel
samurai
san
sana
sanak
sanchez
sanctuary
sand
sandal
sandang
sandera
sanders
sandi
sandiwara
sandra
sands
sandwich
sandy
sang
sanga
sangat
sangatlah
sanggar
sanggau
sanggup
sangha
sanghyang
sangihe
sangka
sangkar
sani
sanitasi
sanjay
sanjaya
sanksi
sankt
sans
sansekerta
sanskerta
sanskrit
sant
santa
santai
santan
santana
santi
santiago
santo
santos
santosa
santoso
santri
santun
sanusi
sao
sapa
sapaan
sapi
sapporo
sapta
sapu
saputra
sar
sara
saraf
saragih
sarah
sarajevo
saran
sarana
sarang
sarapan
saraswati
sarat
sarawak
sardegna
sardi
sardinia
sarekat
sargassum
sari
sarjana
sars
sarung
sas
sasak
sasaki
sasaran
sasha
sasis
sastra
sastrawan
sasuke
sat
satan
sate
satelah
satelit
satellite
satellites
satgas
sati
satir
sato
satoe
satoshi
satpam
satria
satu
satuan
satunya
satupun
saturday
saturn
saturnus
satwa
satya
satyalancana
saud
saudagar
saudara
saudaranya
saudari
saudarinya
saudi
saul
saunders
saus
savage
save
saving
savoia
savoy
saw
sawah
sawahlunto
sawit
sawyer
saxon
say
saya
sayaka
sayang
sayangnya
sayap
sayapnya
sayembara
says
sayur
sayuran
sayyid
sb
sbg
sbs
sby
sc
scale
scan
scandal
scarabaeidae
scarecrow
scarlet
scarlett
scene
scenes
sch
schedule
schengen
schleswig
schltr
schmidt
schneider
scholar
scholars
scholarship
school
schools
schumacher
schumi
schuster
schwartz
schwarz
sci
science
sciences
scientific
scientist
scientists
scopula
score
scores
scotland
scott
scottish
scout
scream
screen
screenplay
scribner
script
scrolls
sctv
sculpture
sd
sdm
sdn
sdr
se
sea
seabad
seakan
seal
sean
seandainya
seantero
searah
search
seas
season
seasons
seat
seattle
sebab
sebabnya
sebagai
sebagaimana
sebagainya
sebagi
sebagian
sebahagian
sebaik
sebaiknya
sebaliknya
sebanding
sebanyak
sebaran
sebastian
sebatang
sebatas
sebelah
sebelas
sebelum
sebelumnya
sebenarnya
sebentar
seberang
seberapa
seberat
sebesar
sebetulnya
sebidang
sebuah
sebulan
sebut
sebutan
sec
secara
secepat
second
secondary
seconds
secret
secretary
secrets
section
sections
sector
securities
security
sedan
sedang
sedangkan
sedap
sede
sedekah
sedemikian
sederajat
sederhana
sedia
sedih
sedikit
sedikitnya
sedimen
sedis
sedjak
sedunia
see
seed
seekor
seen
sees
sefrin
sega
segala
segalanya
segan
segar
segel
segelintir
segenap
segera
segi
segitiga
segmen
segunda
seharga
sehari
seharusnya
sehat
sehingga
sehubungan
sei
seidman
seimbang
seine
seiring
sejahtera
sejajar
sejak
sejalan
sejarah
sejarahnya
sejarahwan
sejarawan
sejati
sejatinya
sejauh
sejawat
sejenak
sejenis
sejenisnya
sejuk
sejumlah
sejuta
sekadar
sekadau
sekai
sekali
sekalian
sekaligus
sekalipun
sekar
sekarang
sekarat
sekat
sekedar
sekelas
sekeliling
sekelilingnya
sekelompok
sekembalinya
seketika
sekian
sekilas
sekiranya
sekitar
sekitaran
sekitarnya
sekjen
sekolah
sekolahnya
sekresi
sekretariat
sekretaris
seks
seksi
seksual
seksualitas
sekte
sektor
sekuat
sekuel
sekuelnya
sekuler
sekumpulan
sekunder
sekurang
sekuritas
sekutu
sekutunya
sel
sela
selada
selagi
selai
selain
selaku
selalu
selam
selama
selamanya
selamat
selambat
selandia
selang
selangor
selanjutnya
selaput
selaras
selasa
selat
selatan
selayar
selebar
selebihnya
selebritas
selebriti
select
selected
selection
selects
seleksi
selektif
selembar
selena
selendang
selepas
selera
selesai
selesainya
seleukia
seleukos
self
selimut
selir
selisih
seljuk
sell
selling
sells
selo
seluas
selubung
seluler
seluncur
seluruh
seluruhnya
sem
semacam
semak
semakin
semalam
semangat
semanggi
semantik
semar
semarang
semasa
semata
sembah
sembahyang
sembarang
sembarangan
sembari
sembilan
sembiring
semboyan
sembuh
sembunyi
semburan
semen
semenanjung
semenjak
sementara
semesta
semester
semestinya
semi
semifinal
semifinalis
semikonduktor
seminar
seminari
seminary
seminggu
semiperairan
semisal
semit
semoga
sempat
sempit
sempurna
semu
semua
semuanya
semula
semut
sen
sena
senam
senang
senantiasa
senapan
senar
senat
senate
senator
senayan
senbatsu
sendai
sendang
sendi
sendiri
sendirian
sendirinya
sendok
senecio
senegal
senen
seng
sengaja
sengit
sengketa
sengsara
seni
senilai
seniman
senin
senior
seniornya
senja
senjata
senna
sensasi
sense
sensitif
sensor
sensus
sent
sentai
sentimen
sentimeter
sentinel
sentosa
sentra
sentral
sentuh
sentuhan
sentul
senyawa
senyum
seo
seok
seolah
seon
seong
seorang
seorangpun
seoul
sep
sepak
sepakat
sepakbola
sepanjang
separatis
separuh
sepasang
sepatu
sepeda
sepengetahuan
sepeninggal
sepenuh
sepenuhnya
seperangkat
seperempat
seperti
sepertiga
sepertinya
sepi
sepihak
sepotong
sept
september
septuaginta
sepucuk
sepuh
sepuluh
sepupu
sepupunya
sepur
seputar
sequel
sequence
sequences
ser
sera
seragam
serah
serahkan
seram
serambi
serang
serangan
serangga
serangkaian
serapan
serat
seratus
seraya
serba
serbaguna
serbia
serbian
serbu
serbuan
serbuk
serdadu
serdang
seremonial
serena
serentak
serge
sergei
sergey
sergio
seri
serial
seribu
serie
series
serigala
serikat
sering
seringkali
serious
serius
seroja
serpihan
serpong
sersan
serta
sertifikasi
sertifikat
sertijab
seru
seruan
seruling
serum
serupa
server
service
services
servis
ses
sesaat
sesak
sesama
sesampainya
sesar
sesat
sesekali
seseorang
sesepuh
sesi
sesko
seskoad
sespim
session
sessions
sesuai
sesuatu
sesudah
sesudahnya
sesungguhnya
set
setahun
setan
setapak
setara
setebal
setelah
setelahnya
setempat
setengah
seterusnya
seth
setia
setiap
setiawan
setidaknya
setimnya
setinggi
setingkat
setlist
seto
sets
setting
settlement
setuju
seumur
seung
seusai
seven
seventeen
seventh
several
sevilla
sewa
sewaan
sewaktu
sewenang
sewu
sex
sexual
sexuality
sexy
seychelles
seymour
sf
sg
sh
sha
shaanxi
shadily
shadow
shadows
shah
shahab
shahih
shake
shakespeare
shakti
shalat
shall
shan
shandong
shane
shang
shanghai
shankar
shannon
shao
shape
shapiro
share
shared
shares
sharif
sharing
shark
sharma
sharon
sharp
sharpe
shaun
shaw
shawn
she
sheep
sheeran
sheet
sheets
sheffield
sheikh
sheila
shek
sheldon
shell
shelter
shen
sheng
shenzhen
shepherd
sheridan
sheriff
sherlock
sherman
shi
shibuya
shield
shift
shih
shim
shima
shimbun
shimizu
shin
shine
shinee
shinichi
shinji
shinkansen
shinoda
shinta
shinto
ship
shipping
ships
shire
shirley
shiro
shirt
shizuoka
sho
shock
shoes
shogakukan
shogun
shojo
sholat
shonen
shoot
shooting
shop
shopping
shore
short
shot
shoten
shou
should
show
showa
showbiz
showbuzz
showbuzzdaily
showcase
showing
shows
showtime
shri
shrine
shu
shueisha
shui
shun
shuttle
si
sia
siaga
siahaan
siak
sial
siam
sian
siang
siantar
siap
siapa
siapakah
siapapun
siapkan
siar
siaran
siasat
siau
siber
siberia
sibolga
sibuk
sic
sichuan
sid
sidang
side
sidi
sidik
sidney
sidoarjo
sidomulyo
sidorejo
sie
siecle
siege
siegel
siemens
siena
sierra
sifat
sifatnya
sig
sight
sigi
sigit
sigma
sigmund
sign
signal
signature
signed
significance
signifikan
signs
sih
sihanouk
sihir
sihombing
sijunjung
sik
sikap
sikapnya
sikh
sikka
siklik
siklon
siklus
sikorsky
siksaan
siku
sil
sila
silakan
silam
silang
silat
silence
silent
silentera
silesia
silicon
silih
silikon
silinder
siliwangi
silk
silla
silo
silsilah
siluman
silva
silver
silverstone
silvia
sim
sima
simak
simalungun
simanjuntak
simatupang
simbad
simbol
simbolik
simbolis
simbolon
simeon
simetri
simetris
simeulue
simfoni
similar
simmons
simon
simone
simpan
simpanan
simpang
simpanse
simpati
simple
simpson
simpsons
simpul
sims
simulasi
sin
sina
sinaga
sinagoge
sinai
sinaiticus
sinar
since
sinclair
sindang
sindo
sindonews
sindrom
sinema
sinemart
sinematografer
sinematografi
sinetron
sing
singa
singapore
singapura
singel
singer
singgah
singgasana
singh
singing
singingi
singkat
singkatan
singkatnya
singkawang
singkil
singkong
single
singles
singosari
sinha
sinhala
sini
sinilah
sinjai
sinkronisasi
sino
sinode
sinonim
sinopsis
sint
sintang
sintesis
sintetis
sinus
sinyal
sion
sipil
siprus
siput
sir
siregar
siri
siria
sirih
sirip
sirius
sirkuit
sirkulasi
sirkus
sirup
sis
sisa
sisanya
sisi
sisik
sisilia
sisinya
sisipan
siska
sistem
sistematis
sistemik
sister
sisters
sistim
siswa
siswi
sita
site
sites
siti
sitkom
sitoplasma
situ
situasi
situation
situbondo
situlah
situs
siu
siwa
six
sixteenth
sixth
size
sj
sjahrir
sk
skadron
skala
skalar
skandal
skandinavia
skating
ske
skema
skenario
skenarionya
skep
sketch
sketsa
ski
skies
skill
skin
skinner
skizofrenia
skor
skotlandia
skrip
skripsi
skt
skuad
skuadron
skuat
sky
skyscraperpage
sl
slam
slamet
slank
slate
slave
slavery
slavia
slayer
sleep
sleeping
sleman
slide
slogan
slot
slovak
slovakia
slovenia
slow
slowakia
slta
sltp
sm
sma
small
sman
smart
smartphone
smash
smile
smith
smithsonian
smk
smkn
smoke
smp
smpn
sms
smu
sn
snake
snakes
snh
sniper
snow
snyder
so
soa
soal
soc
soccer
soccerbase
soccerway
social
socialism
socialist
sociedad
societe
societies
society
sociology
socrates
soda
sodium
soe
soeatoe
soedah
soedirman
soeharto
soeka
soekarno
soekarnoputri
soepaja
soerat
soest
sofia
soft
software
sofyan
soil
sok
sol
solar
sold
soldier
soldiers
soleh
solid
solidaritas
solo
solok
solomon
solonya
solusi
solution
solutions
soma
somalia
sombong
some
someone
somerset
something
sometimes
son
sonata
song
songs
sonia
sonic
sonny
sono
sons
sony
soo
sook
soompi
soon
sopan
sophia
sophie
sopir
soppeng
sora
sorak
soraya
sore
soreang
sorga
sorong
sorotan
sorry
sos
sosial
sosialis
sosialisasi
sosialisme
sosialnya
sosiolog
sosiologi
sosis
sosok
soto
soul
sound
sounds
soundtrack
source
sourcebook
sources
sous
sousa
south
southampton
southeast
southern
southwest
souza
soviet
soyuz
sp
spa
space
spacex
spain
span
spanduk
spanish
spanyol
spark
sparks
sparta
spasial
speak
speaker
speaking
speaks
spears
special
specialist
species
specific
specification
specifications
spectrum
speculative
speech
speed
speedway
spektakuler
spektroskopi
spektrum
spekulasi
spelling
spencer
sperma
spesial
spesialis
spesialisasi
spesies
spesifik
spesifikasi
spesimen
spice
spider
spiegel
spielberg
spies
spike
spin
spiral
spirit
spirits
spiritual
spirogyra
split
spongebob
spons
sponsor
spontan
spora
sport
sporting
sports
spot
spotify
spotlight
spp
spread
spring
springer
springfield
springs
sprint
spurs
spy
sq
sqrt
squad
squadron
square
squarepants
squidward
sr
sragen
src
sri
sriwijaya
ss
st
sta
staatsblad
staatsspoorwegen
stabil
stabilitas
stability
stable
stade
stadion
stadium
staf
staff
stage
stain
stake
stalin
stamford
stan
stand
standar
standard
standardisasi
standards
standing
standl
stanford
stanley
star
starbucks
stardust
stark
starr
starring
stars
start
started
starter
starting
starts
startup
stasi
stasiun
stat
state
statement
states
statesman
station
stations
statis
statistica
statistical
statistics
statistik
statistika
statistisches
stats
status
statusnya
statuta
stay
steam
steel
steele
stefan
stefano
stefanus
stein
steiner
stella
stellar
stem
step
stephan
stephanie
stephen
stephens
steps
stereo
sterling
stern
steve
steven
stevens
stevenson
stewart
stick
stie
stigma
still
stimulus
stkip
stm
stmik
stock
stockholm
stok
stoke
stone
stoner
stones
stop
storage
store
storia
stories
storm
story
strabo
straight
strain
straits
strand
strange
stranger
strangers
strasbourg
strata
strategi
strategic
strategies
strategis
strategy
strauss
strawberry
stream
streaming
street
streets
strength
streptomyces
stres
stress
strike
striker
strikes
string
strip
stroke
strong
structural
structure
structures
struggle
struktur
struktural
strukturnya
sts
stt
stuart
stub
student
students
studi
studies
studinya
studio
studios
study
stuff
stupa
stuttgart
style
styles
su
suaka
suami
suamiku
suaminya
suap
suar
suara
suaranya
suarez
suasana
suatu
sub
subang
subaru
subdistrik
subdit
subgrup
subianto
subject
subjek
subjektif
submarine
subprefektur
subregnum
subroto
subsidi
subsp
subspesies
substansi
substansial
substitusi
substrat
subtropis
subuh
subunit
subur
subway
subyek
success
successful
succession
such
suci
sud
sudah
sudahlah
sudan
sudarso
sudirman
sudut
sue
suez
suffragan
sufi
sufragan
sufyan
sugar
sugeng
suharto
suhu
sui
suicide
suit
suite
sujud
suk
suka
sukabumi
sukacita
sukadana
sukar
sukarela
sukarelawan
sukarno
sukhoi
suki
sukma
sukoharjo
sukorejo
sukses
suksesi
suku
sul
sula
sulaiman
sulawesi
sule
suleiman
sulfat
sulfida
sulfur
suling
sulit
sullivan
sulsel
sultan
sulteng
sulu
sulung
sulungnya
sulut
sum
suma
sumatera
sumatra
sumba
sumbangan
sumbar
sumbawa
sumber
sumberdaya
sumbernya
sumbu
sumedang
sumenep
sumeria
sumitomo
summary
summer
summit
sumo
sumpah
sumsel
sumsum
sumur
sumut
sun
sunan
sunat
sunda
sundance
sunday
sunderland
sung
sungai
sungguh
sungguhpun
sunnah
sunni
sunny
sunrise
sunset
sunshine
sunting
suntingan
suny
sunyi
sup
supaya
super
superbike
superficie
superhero
superior
superman
supermarket
supernatural
supernova
superstar
suplai
suplemen
suporter
suppl
supplement
supply
support
supported
supporting
supranational
supranatural
supremasi
supreme
sur
sura
surabaya
surah
surakarta
suram
surat
suratnya
surau
surel
surface
surga
surgawi
surgery
suri
suriah
suriname
suro
surprise
surrey
surut
survei
survey
survival
survivor
surya
suryadi
suryani
suryo
sus
susah
susan
susanti
susanto
susi
susilo
suspensi
sussex
sustainable
suster
susu
susuhunan
susun
susunan
sutan
sutera
sutherland
sutra
sutradara
sutrisno
sutta
sutton
suv
suzanne
suzuki
sv
sven
sw
swa
swadaya
swalayan
swan
swansea
swapraja
swara
swasta
sweden
swedia
swedish
sweet
swift
swing
swiss
switch
switzerland
sword
swt
sx
sy
syafi
syah
syahadat
syaikh
syair
syam
syamsuddin
syamsul
syarat
syari
syariah
syariat
syarif
sybra
sydney
syed
syeikh
syekh
syi
syiah
sylvester
sylvia
symbol
symbols
symphony
symposium
syndrome
synopsis
synthesis
synthesizer
syracuse
syria
syrian
system
systematic
systems
syukur
syuting
sz
t
t0
t1
t2
t3
t4
t5
t6
t7
t8
t9
ta
taal
taat
tab
tabalong
tabanan
tabari
tabel
tabi
tabib
tabir
table
tables
tablet
tabloid
tabloidbintang
tabrakan
tabu
tabung
tabungan
tabut
tacitus
tactical
tadah
tadi
tadinya
tadmur
tae
taekwondo
tafsir
tafsiran
tag
tagar
tagihan
tahan
tahanan
tahap
tahapan
tahi
tahir
tahiti
tahoe
tahta
tahu
tahun
tahunan
tahunnya
tai
taiga
tail
taipei
taira
taiwan
tajam
tajikistan
tajuk
tak
takagi
takahashi
takashi
takbenda
takdir
take
takeda
taken
takes
takeshi
takeuchi
takhta
taking
takkan
takluk
taksi
taksonomi
taktik
taktis
takumi
takut
talaga
talang
talaud
tale
talent
talenta
tales
tali
taliban
talk
talking
talks
tall
tallo
talmud
tam
tama
taman
tamansari
tamar
tamara
tamat
tambah
tambahan
tambahkan
tambak
tambang
tambun
tamiang
tamil
tampa
tampak
tampaknya
tampan
tampil
tampilan
tampilkan
tampuk
tamu
tan
tana
tanah
tanahnya
tanaka
tanam
tanaman
tanasevitch
tanda
tandang
tanduk
tang
tangan
tangani
tangannya
tangerang
tangga
tanggal
tanggamus
tanggapan
tangguh
tanggul
tanggung
tangkai
tangkap
tangkapan
tangki
tangkis
tango
tani
tania
tanjung
tanjungpinang
tanjungpura
tanjungsari
tank
tanker
tankobon
tanks
tanpa
tantangan
tante
tanya
tanzania
tao
taoisme
tap
tapa
tapak
tapal
tapanuli
tape
tapi
tapin
taqwa
tar
tara
taraf
tarakan
tarbiyah
tarekat
target
tari
tarian
tarif
tarigan
tarik
tarikh
taring
taro
taroh
taruhan
taruna
tarzan
tas
tasawuf
tasikmalaya
task
tasmania
taste
tasya
tat
tata
tatanan
tatap
tatar
tate
tatkala
tato
tatsuya
tau
taufik
taufiq
tauhid
taurat
tauris
taurus
tautan
tavakilian
tawa
tawanan
tawang
tawar
tawaran
tawarikh
tawon
tax
taxi
taxonomic
taxonomy
tay
tayang
tayangan
taylor
tb
tba
tbd
tbilisi
tbk
tbs
tc
tcm
tcp
td
tdk
te
tea
teacher
teachers
teaching
team
teams
tears
teaser
teater
teatrikal
tebal
tebing
tebo
tebu
tebusan
tech
techcrunch
technical
technique
techniques
technische
technologies
technology
ted
teddy
teen
teenage
tegak
tegal
tegalan
tegang
tegangan
tegar
tegas
teguh
teguran
teh
teheran
tehran
tek
teka
tekad
tekan
tekanan
teki
teknik
teknis
teknisi
teknologi
teks
tekstil
tekstual
tekstur
tektonik
tel
teladan
telaga
telah
telak
telanjang
telapak
telecom
telefon
telegraf
telegram
telegraph
telekomunikasi
telephone
telepon
telescope
teleskop
televisi
television
telinga
teliti
telkom
telkomsel
tell
tells
telugu
teluk
telur
tema
teman
temanggung
temannya
tematis
tembaga
tembak
tembakan
tembakau
tembang
tembikar
tembok
tembolok
tembus
tempat
tempatnya
tempe
tempel
temperatur
temperature
templat
template
temple
tempo
temporal
tempuh
tempur
tempurung
temu
temuan
temui
temukan
temurun
ten
tenaga
tenang
tenasia
tencent
tenda
tendangan
tender
teng
tengah
tengahnya
tenggang
tenggara
tenggelam
tengger
tenggorokan
tengkorak
tengku
tenis
tennessee
tennis
tentang
tentangan
tentara
tentaranya
tentu
tentulah
tentunya
tenun
teolog
teologi
teologis
teorema
teoretis
teori
teorinya
tepat
tepatnya
tepercaya
tephritidae
tephritis
tepi
tepian
tepung
ter
terakhir
terakhirnya
terakreditasi
terampil
terancam
terang
terangan
terangkat
terapan
terapi
terapung
terarah
teras
terasa
teratai
teratas
teratur
terawal
terbagi
terbaik
terbaiknya
terbakar
terbalik
terbang
terbangun
terbanyak
terbaru
terbarukan
terbarunya
terbatas
terbawa
terbawah
terbebas
terbelah
terbenam
terbentang
terbentuk
terbentuklah
terbentuknya
terbesar
terbesarnya
terbiasa
terbilang
terbit
terbitan
terbitnya
terbuat
terbuka
terbukti
terbunuh
terburuk
tercantum
tercapai
tercatat
tercepat
tercermin
tercinta
tercipta
terciptanya
terdaftar
terdahulu
terdakwa
terdalam
terdampak
terdampar
terdapat
terdegradasi
terdekat
terdengar
terdepan
terdesak
terdeteksi
terdiri
terduga
tereliminasi
terencana
terence
terendah
terendam
terengganu
teresa
terestrial
terfavorit
terfokus
tergabung
terganggu
tergantung
tergolong
tergugat
terhadap
terhadapnya
terhalang
terhambat
terhebat
terhenti
terhindar
terhingga
terhitung
terhormat
terhubung
teri
teriakan
teridentifikasi
terigu
terikat
terima
terindah
terinfeksi
teringat
terinspirasi
terintegrasi
terisi
terisolasi
teritori
teritorial
terj
terjadi
terjadilah
terjadinya
terjadwal
terjaga
terjal
terjalin
terjangkau
terjatuh
terjauh
terjebak
terjemahan
terjual
terjun
terkadang
terkait
terkalahkan
terkandung
terkaya
terkecil
terkecuali
terkejut
terkemuka
terkena
terkenal
terkendali
terkesan
terkini
terkonsentrasi
terkontaminasi
terkuat
terkubur
terkumpul
terkunci
terlahir
terlaksana
terlalu
terlama
terlambat
terlampau
terlarang
terlaris
terlarut
terlatih
terlebih
terlepas
terlestarikan
terletak
terlibat
terlihat
terluar
terluas
terluka
terlupakan
term
termaksud
termal
termasuk
terminal
terminologi
terminus
termodinamika
terms
termuat
termuda
ternak
ternama
ternate
ternyata
terobosan
terobsesi
terompet
teror
terorganisir
teroris
terorisme
terowongan
terpadat
terpadu
terpakai
terpaksa
terpanjang
terpapar
terpasang
terpecah
terpelajar
terpencil
terpengaruh
terpenting
terpenuhi
terperangkap
terperinci
terpesona
terpidana
terpilih
terpisah
terpisahkan
terpopuler
terpuji
terpusat
terputus
terra
terrestrial
territorial
territoriale
territories
territory
terror
terrorism
terrorist
terry
tersangka
tersebar
tersebut
tersedia
tersedianya
terselesaikan
tersembunyi
tersendiri
tersentuh
tersenyum
terserang
tersesat
tersibuk
tersier
tersimpan
tersingkir
tersirat
tersisa
terstruktur
tersusun
tertanam
tertanggal
tertangkap
tertarik
tertawa
tertekan
tertembak
tertentu
tertera
tertib
tertidur
tertindas
tertinggal
tertinggi
tertua
tertuang
tertulis
tertunda
tertutup
terumbu
terungkap
terurai
terus
terusan
terutama
terutang
terwujud
terwujudnya
tes
tesalonika
tesaurus
tesis
tesla
test
testament
testamentum
testing
tests
tetangga
tetangganya
tetap
tetapi
tetapkan
tetes
tetesan
tetua
teu
teuku
teungku
tewas
texas
text
textbook
texts
textual
tf
tg
tgl
th
tha
thaha
thai
thailand
thales
thalib
thames
thamrin
than
thanh
thank
thanks
that
thatcher
thayer
the
theater
theatre
thebes
theft
their
them
theme
then
theo
theodor
theodore
theological
theology
theorem
theoretical
theories
theory
therapy
theravada
there
theresa
theresia
thermal
these
thesis
theta
they
thi
thief
thiele
thierry
thin
thing
things
think
thinking
third
thirty
this
thn
thomas
thompson
thomson
thor
thorell
thornton
those
though
thought
thoughts
thousand
thousands
thrash
threat
threatened
three
thriller
thrones
through
thunder
thursday
ti
tia
tiada
tiadalah
tian
tiang
tianjin
tiap
tiara
tiba
tiberius
tibet
tibetan
ticket
tidak
tidakkah
tidaklah
tidaknya
tidore
tidung
tidur
tidurnya
tie
tien
ties
tiffany
tiga
tiger
tigris
tijdschrift
tik
tika
tikar
tiket
tiktok
tikungan
tikus
til
till
tim
timah
timbal
timbangan
timbul
timbulnya
time
timeline
times
timnas
timnya
timor
timothy
timotius
timur
tin
tina
tindak
tindakan
tindakannya
tindih
ting
tinggal
tinggalkan
tinggalnya
tinggi
tingginya
tingkah
tingkat
tingkatan
tinjauan
tinju
tinta
tintin
tiny
tio
tiong
tionghoa
tiongkok
tip
tipe
tipis
tips
tipu
tipula
tipulidae
tirai
tiram
tiri
tirinya
tirol
tirta
tirto
tiruan
tirus
tita
titan
titanic
titanium
titel
titi
titik
title
titled
titles
tito
tituler
titus
tiup
tj
tjita
tk
tki
tkr
tl
tm
tn
tni
tnt
to
toba
tobacco
tobago
tobias
tobing
tobu
toby
tochigi
today
todd
toean
toehan
toei
toga
together
togo
toh
toho
tohoku
toilet
tojo
tok
toke
token
toko
tokoh
toksin
tokugawa
tokusatsu
tokyo
tol
tolak
told
toledo
toleran
toleransi
toli
tolkien
toll
tolong
tom
tomas
tomat
tomatoes
tomb
tombak
tombol
tome
tommy
tomo
tomohon
tomomi
tomorrow
tomus
ton
tondano
tone
tong
tonga
tonggak
tongkat
toni
tonight
tonjolan
tony
too
took
tool
tools
top
topan
topeng
topi
topic
topics
topik
topografi
topografis
topologi
tops
tor
tora
torah
toraja
torch
torino
tornado
toro
toronto
torpedo
torres
torsi
torture
toru
torymus
tot
total
toto
tottenham
touch
tough
toulouse
tour
touring
tourism
tourist
tourn
tournament
tournamentsoftware
tours
toward
towards
tower
towers
town
towns
toy
toyama
toyota
tp
tpa
tpi
tps
tq
tr
track
tracking
tracks
tracy
trade
trading
tradisi
tradisional
tradition
traditional
traditions
traffic
tragedi
tragedy
tragis
trail
trailer
train
trainee
trainer
training
trains
traktat
traktor
tran
trans
transaction
transactions
transaksi
transcript
transfer
transfermarkt
transformasi
transformation
transformers
transgender
transisi
transistor
transit
transitif
transition
transjakarta
transkripsi
translate
translated
translation
translations
translator
translit
transliterasi
transmigrasi
transmisi
transmission
transneptunus
transparan
transparansi
transplantasi
transport
transportasi
transportation
trap
trauma
travel
travels
travis
trayek
treasure
treatment
treaty
tree
trees
trek
trem
tren
trend
trends
trenggalek
trent
tres
trevor
trey
tri
trial
trials
triangle
tribe
tribun
tribunal
tribune
tribunnews
tribute
trick
trigger
trik
trikora
triliun
trilogi
trilogy
trim
trinidad
trinitas
trinity
trio
trip
triple
tripoli
trisakti
tristan
tritunggal
triumph
trofi
troops
trophy
tropical
tropis
trouble
troy
troya
truck
true
truk
truman
trump
trust
truth
try
ts
tsanawiyah
tsar
tsubasa
tsunami
tt
ttd
tu
tua
tuah
tuan
tuanku
tuannya
tuanya
tuas
tuba
tuban
tube
tuberkulosis
tubingen
tubuh
tubuhnya
tucker
tudor
tuduhan
tudung
tuesday
tugas
tugasnya
tugu
tuhan
tuhanku
tuhanmu
tuhannya
tujuan
tujuannya
tujuh
tuk
tukang
tukar
tulang
tuli
tulis
tulisan
tulisannya
tulungagung
tulus
tumbang
tumbuh
tumbuhan
tumbuhnya
tumbukan
tumenggung
tumor
tumpah
tumpang
tumpukan
tun
tuna
tunai
tunangan
tunas
tunda
tunduk
tune
tung
tunggal
tunggu
tunggul
tungkai
tungku
tunis
tunisia
tunjangan
tunjuk
tunnel
tuntas
tuntutan
tuo
tupai
tupolev
tur
turbin
turbo
turboprop
turi
turikale
turin
turis
turk
turkey
turki
turkish
turkmenistan
turks
turn
turnamen
turned
turner
turning
turns
turun
turunan
turunannya
turunnya
turut
tusuk
tutorial
tuttitalia
tuttle
tutul
tutup
tutur
tuvalu
tv
tvn
tvone
tvri
tvxq
tw
tweet
twelve
twentieth
twenty
twice
twilight
twin
twins
twist
twitter
two
tx
ty
tyler
type
types
typhoon
tyson
tz
tzu
u
u0
u1
u2
u3
u4
u5
u6
u7
u8
u9
ua
uae
uang
uangnya
uap
ub
ubah
uber
ubi
ubin
ubud
ubuntu
ubur
uc
ucap
ucapan
ucla
ud
udang
udara
udayana
udin
udo
ue
uea
uefa
uf
ufo
ug
uganda
ugm
uh
uhf
ui
uighur
uin
uit
uj
ujar
uji
ujian
ujung
ujungnya
uk
uki
ukir
ukiran
ukm
ukraina
ukraine
ukrainian
uks
ukur
ukuran
ukurannya
ul
ulah
ulama
ulang
ulangan
ular
ulasan
ulat
ulrich
ulster
ultimate
ultra
ultraman
ultratop
ultraviolet
ulu
ulum
ulung
um
uma
umar
umat
umayyah
umbi
umbul
umi
umkm
umm
umno
umpamanya
umpan
umum
umumnya
umur
umurnya
un
una
unand
uncial
uncle
und
undang
undangan
under
underground
understanding
undian
undip
undocs
unduhan
une
unesco
unggas
unggul
unggulan
ungkap
ungkapan
ungu
uni
unicef
unicode
unik
uniknya
union
unique
unit
united
units
unity
univ
universal
universe
universidad
universitas
universitat
universite
universiteit
universities
university
unix
unjuk
unknown
unlimited
uno
unofficial
unpad
unsur
unta
until
untold
untuk
untukmu
untuknya
untung
untungnya
unveiled
unveils
unwin
uo
up
upacara
upah
upaya
upayanya
upcoming
update
updated
updates
upeti
upgrade
upi
upon
upper
ups
upt
uptd
uq
ur
uraian
urang
uranium
uranus
urat
urb
urban
urdu
uri
urin
url
ursula
uruguay
urusan
urut
urutan
us
usa
usaf
usage
usah
usaha
usahanya
usai
usang
usb
usd
usda
use
used
user
users
uses
usgs
usia
usianya
using
uskup
usman
uss
ussr
ustadz
ustaz
usu
usul
usulan
usulnya
usus
ut
uta
utah
utama
utamanya
utami
utang
utara
utc
utilitas
utk
utomo
utopia
utrecht
utsman
utsmani
utsmaniyah
uttar
utuh
utusan
uu
uud
uv
uw
ux
uy
uz
uzbekistan
v
v0
v1
v2
v3
v4
v5
v6
v7
v8
v9
va
vacante
vaccine
vaclav
vagina
vaksin
vaksinasi
vakum
val
valencia
valentin
valentine
valentino
valerie
valid
validasi
valle
valley
value
values
valve
vampir
vampire
van
vancouver
vanessa
vanguard
vanity
vanuatu
var
variabel
variable
varian
variant
variasi
variation
varietas
variety
various
varphi
vasal
vasily
vatican
vaticanus
vatikan
vb
vc
vd
ve
vec
vector
ved
veer
vega
vegas
vegetarian
vegetasi
vehicle
vehicles
vektor
velvet
vena
venesia
venezia
venezuela
vengeance
venice
ventilasi
ventura
venture
ventures
venue
venus
ver
vera
verba
verbal
verde
verge
verifikasi
verlag
verm
verma
vermont
vernon
vernonia
verona
veronica
versailles
verse
versi
version
versions
verso
verstappen
versus
vertebrata
vertical
vertikal
very
veteran
vettel
vf
vg
vh
vhs
vi
via
viacom
vic
vice
vicente
vichy
vickers
vicky
victims
victor
victoria
victorian
victory
vida
vidal
video
videos
vidio
vidya
vie
vienna
vienne
viet
vietnam
vietnamese
view
viewers
views
vihara
vii
viii
vijay
vikariat
vikaris
viking
vikram
viktor
vila
villa
village
villages
villarreal
ville
villeneuve
vilnius
vina
vince
vincent
vinci
vintage
viola
violence
violent
violet
violin
vip
viral
virgin
virginia
virgo
virtual
virus
visa
viscosa
visi
vision
visit
visitor
vista
visual
visualisasi
vita
vitae
vital
vitalitas
vitamin
vitro
vittorio
viva
vivian
vixx
viz
vj
vk
vl
vladimir
vm
vn
vo
voa
voc
vocal
vocals
vogel
vogue
voice
voices
vokal
vokalis
vokasi
vol
volcano
voldemort
voli
volkenkunde
volkswagen
vols
volt
voltaire
volume
volumes
volvo
vom
von
vonis
voor
vosges
vote
voting
vox
voyage
voyager
vp
vq
vr
vs
vt
vu
vulcan
vulgata
vulkanik
vulture
vv
vw
vx
vy
vz
w
w0
w1
w2
w3
w4
w5
w6
w7
w8
w9
wa
wabah
wabup
wacana
wada
wadah
wadan
wade
wadi
waduk
wafat
wafatnya
wage
wagner
wagon
wah
wahab
wahai
wahana
wahid
wahyu
wahyudi
wai
wait
waiting
wajah
wajahnya
wajar
wajib
wajo
waka
wakaf
wakatobi
wake
wakil
wakilnya
waktoe
waktu
waktunya
wal
walau
walaupun
wales
wali
walid
waligereja
walikota
walk
walker
walking
wall
wallace
wallis
walls
walsh
walt
walter
walters
walton
waltz
wamena
wan
wana
wanda
wanderers
wang
wangi
wangsa
wanita
wanna
want
wanted
wants
war
waralaba
ward
warfare
warga
warganya
waris
warisan
warisnya
warkop
warna
warnanya
warner
warni
warning
warren
warrior
warriors
wars
warsaw
warsawa
warships
warta
wartawan
waru
warung
warwick
was
washington
wasiat
wasit
wasp
waspada
waste
wat
watak
watanabe
watch
water
waters
wates
watkins
watson
watt
watts
watu
wave
waves
wawan
wawancara
wawasan
way
wayan
wayang
wayback
wayne
ways
wazir
wb
wc
wcsp
wd
we
wealth
weapon
weapons
weather
weaver
web
webarchive
webb
webber
webcite
weber
webpage
website
webster
weda
wedana
wedding
wednesday
week
weekend
weekly
weeks
wehrmacht
wei
weibo
weight
weimar
weinstein
weird
weiss
weisstein
welch
welcome
welfare
well
welle
wellington
wells
wellsi
welsh
welt
wembley
wen
wenang
wendy
went
were
werner
wes
wesel
wesley
wesolowska
west
western
westminster
westport
wet
wetan
wewenang
wf
wg
wh
whale
what
whatsapp
wheel
wheeler
when
where
which
while
white
whitehead
whitney
who
whole
whose
why
wi
wib
wibowo
wicara
wide
widianto
widjaja
widodo
widow
widya
wie
wien
wiener
wiesbaden
wife
wifi
wihara
wii
wijaya
wiki
wikia
wikidata
wikilatih
wikimapia
wikimedia
wikipedia
wikipelatih
wikiquote
wikisource
wiktionary
wilayah
wilayahnya
wild
wildcard
wilde
wildlife
wiley
wilhelm
wilhelmina
wilkins
wilkinson
will
willard
willem
william
williams
williamson
willie
willis
willy
wilson
wimbledon
win
wina
winchester
wind
window
windows
windsor
wine
wing
wings
winner
winners
winning
wins
winston
winter
wira
wiracarita
wiraswasta
wirausaha
wire
wired
wireless
wisata
wisatawan
wisconsin
wisdom
wise
wish
wisma
wisnu
wit
wita
witch
with
within
without
witness
wives
wizard
wj
wk
wl
wm
wn
wni
wo
wol
wolf
wolfe
wolff
wolfgang
wolfram
wolverine
wolves
woman
women
won
wonder
wonderful
wonderland
wong
wonogiri
wonorejo
wonosari
wonosobo
woo
wood
woods
woody
wook
woon
woong
worcester
word
wordpress
words
work
workers
working
works
workshop
world
worldcat
worldfootball
worlds
worldwide
worms
worship
worst
wortel
worth
would
wow
wp
wq
wr
wrap
wrestling
wright
write
writer
writers
writing
writings
written
wrong
wrote
ws
wsk
wt
wta
wto
wu
wuhan
wujud
wulan
wurdack
wurttemberg
wuruk
wv
ww
wwe
wwf
www
wx
wy
wyatt
wz
władysław
x
x0
x1
x2
x3
x4
x5
x6
x7
x8
x9
xa
xaverius
xavier
xb
xbox
xc
xd
xe
xf
xg
xh
xi
xia
xian
xiang
xiao
xie
xii
xiii
xin
xing
xinhua
xinjiang
xiv
xix
xj
xk
xl
xm
xml
xn
xo
xp
xq
xr
xs
xt
xu
xuan
xue
xun
xv
xvi
xvii
xviii
xw
xx
xxi
xxiii
xxiv
xxx
xy
xz
y
y0
y1
y2
y3
y4
y5
y6
y7
y8
y9
ya
yah
yahoo
yahudi
yahya
yaitu
yak
yakin
yakni
yakobus
yakub
yale
yam
yamada
yamagata
yamaguchi
yamaha
yamamoto
yaman
yamashita
yamato
yamazaki
yamin
yan
yang
yangon
yangtze
yani
yankee
yao
yap
yapen
yard
yash
yasin
yasmin
yasushi
yat
yatim
yayasan
yazid
yb
yc
yd
ye
year
yearbook
years
yeh
yehezkiel
yehuda
yehuwa
yellow
yemen
yen
yeo
yeon
yeong
yeremia
yerusalem
yes
yesaya
yesterday
yesuit
yesus
yet
yf
yg
yh
yi
yin
ying
yj
yk
yl
ym
yn
yo
yoga
yogi
yogya
yogyakarta
yoh
yohanes
yokai
yoko
yokohama
yom
yomiuri
yon
yong
yonhap
yonif
yoo
yoon
yordan
yordania
york
yorker
yorkshire
yos
yosef
yosefus
yoshida
yosua
you
young
younger
your
yourself
youth
youtube
youtuber
yovie
yp
yq
yr
ys
yt
yu
yuan
yudaisme
yudas
yudea
yudha
yudhoyono
yudisial
yudistira
yue
yuen
yugoslavia
yui
yuichi
yuji
yuk
yuka
yuki
yuko
yume
yumi
yun
yunani
yung
yuni
yunnan
yunus
yupiter
yuri
yuris
yurisdiksi
yusuf
yv
yves
yvonne
yw
yx
yy
yz
z
z0
z1
z2
z3
z4
z5
z6
z7
z8
z9
za
zach
zack
zagreb
zahra
zaid
zain
zainal
zaini
zainuddin
zaitun
zakaria
zakat
zakharia
zaliznyak
zaman
zamannya
zambia
zanzibar
zap
zara
zaragoza
zat
zb
zc
zd
ze
zealand
zebra
zedong
zee
zeit
zeitschrift
zeitung
zen
zeni
zenit
zeppelin
zero
zeta
zeus
zf
zg
zh
zhang
zhao
zhejiang
zhen
zheng
zhi
zhong
zhou
zhu
zhuang
zi
ziarah
zijn
zimbabwe
zionis
zirah
zj
zk
zl
zm
zn
zo
zoe
zombie
zona
zonder
zondervan
zone
zoo
zoologi
zoology
zoom
zp
zq
zr
zs
zt
zu
zubair
zulkifli
zum
zur
zurich
zv
zw
zx
zy
zz
{
|
}
~
¡
£
¥
§
©
ª
«
¬
®
¯
°
±
²
³
´
µ
·
¹
º
»
¼
½
¾
¿
×
ß
æ
ð
ø
þ
đ
đinh
ħ
ı
ł
ŋ
œ
ƒ
ɐ
ɑ
ɒ
ɔ
ɕ
ə
ɛ
ɜ
ɟ
ɡ
ɣ
ɦ
ɨ
ɪ
ɫ
ɬ
ɯ
ɲ
ɴ
ɵ
ɾ
ʀ
ʁ
ʂ
ʃ
ʊ
ʋ
ʌ
ʎ
ʏ
ʐ
ʑ
ʒ
ʔ
ʕ
ʰ
ʲ
ʷ
ʹ
ʻ
ʼ
ʾ
ʿ
ˆ
ˇ
ˈ
ˊ
ˋ
ˌ
ː
˙
˚
ˤ
˧
α
β
γ
δ
ε
ζ
η
θ
ι
κ
και
λ
μ
ν
ξ
ο
π
ρ
ς
σ
τ
του
υ
φ
χ
ψ
ω
ϕ
ϵ
а
б
в
г
года
д
е
ж
з
и
к
л
м
н
на
населения
о
п
по
р
россиискои
с
т
у
ф
федерации
х
ц
ч
ш
щ
ъ
ы
ь
э
ю
я
ђ
є
і
ј
љ
њ
ћ
ґ
қ
ү
ә
ө
ա
բ
գ
դ
ե
զ
ը
թ
ի
լ
խ
կ
հ
ղ
մ
յ
ն
շ
ո
պ
ռ
ս
վ
տ
ր
ց
ւ
ք
־
׃
א
ב
ג
ד
ה
ו
ז
ח
ט
י
ך
כ
ל
ם
מ
ן
נ
ס
ע
ף
פ
ץ
צ
ק
ר
ש
ת
״
،
ء
ا
ال
الله
ب
بن
ة
ت
ث
ج
ح
خ
د
ذ
ر
ز
س
ش
ص
ض
ط
ظ
ع
عبد
غ
ـ
ف
في
ق
ك
ل
م
محمد
ن
ه
و
ى
ي
ٱ
پ
چ
ڠ
ڤ
ک
گ
ھ
ہ
ی
ە
ܐ
ܕ
ܘ
ܝ
ܡ
ܢ
ܪ
ܬ
अ
आ
उ
ए
क
ख
ग
च
ज
ट
ड
ण
त
थ
द
ध
न
प
फ
ब
भ
म
य
र
ल
व
श
ष
स
ह
আ
ক
গ
চ
জ
ট
ত
দ
ন
প
ব
ম
য
র
ল
শ
স
হ
க
ச
ட
த
ந
ன
ப
ம
ய
ர
ற
ல
ள
வ
న
ర
ల
వ
ಕ
ರ
ക
ത
ന
യ
ര
ක
ත
න
ම
ය
ර
ල
ව
ස
ก
ข
ค
ง
จ
ฉ
ช
ซ
ญ
ฐ
ณ
ด
ต
ถ
ท
ธ
น
บ
ป
ผ
พ
ฟ
ภ
ม
ย
ร
ล
ว
ศ
ษ
ส
ห
อ
ฮ
ะ
า
ำ
เ
แ
โ
ใ
ไ
ນ
າ
་
ག
ང
ད
བ
མ
ར
ལ
ས
က
ခ
င
စ
ဆ
ဇ
ည
တ
ထ
ဒ
န
ပ
ဖ
ဘ
မ
ယ
ရ
လ
ဝ
သ
ဟ
အ
ა
ბ
გ
დ
ე
ვ
თ
ი
კ
ლ
მ
ნ
ო
რ
ს
ტ
უ
ქ
შ
ხ
ᄀ
가
간
감
강
개
거
걸
검
게
격
결
경
계
고
곡
공
과
관
광
교
구
국
군
권
규
그
극
글
금
기
김
ᄁ
까
ᄂ
나
남
내
너
네
녀
년
노
눈
뉴
는
늘
니
ᄃ
다
단
달
당
대
더
데
도
독
돌
동
두
드
들
등
디
ᄄ
ᄅ
라
랑
래
러
런
레
력
로
루
룹
류
를
름
리
린
림
ᄆ
마
만
말
매
맨
메
면
명
모
무
문
물
뮤
미
민
ᄇ
바
박
반
발
방
배
백
버
번
범
변
별
병
보
복
본
봉
부
분
뷔
뷰
브
블
비
빈
ᄈ
ᄉ
사
산
상
새
생
서
석
선
설
성
세
소
속
손
솔
송
수
순
스
승
시
식
신
실
심
ᄊ
씨
ᄋ
아
악
안
애
앨
야
약
양
어
언
업
에
엑
엔
여
역
연
열
영
예
오
온
올
와
완
왕
요
용
우
욱
운
울
워
원
월
위
유
윤
으
은
을
음
의
이
인
일
임
입
있
ᄌ
자
작
장
재
저
적
전
정
제
조
종
주
준
중
즈
지
직
진
집
ᄍ
ᄎ
차
창
천
첫
청
체
초
최
출
측
치
친
ᄏ
카
캐
컴
케
코
콘
크
키
ᄐ
타
탄
태
터
토
투
트
특
티
팅
ᄑ
파
판
퍼
편
포
표
프
플
피
ᄒ
하
학
한
함
합
해
행
혁
현
형
혜
호
홍
화
확
환
활
황
회
효
후
훈
흡
희
ᅡ
ᅢ
ᅣ
ᅥ
ᅦ
ᅧ
ᅨ
ᅩ
ᅪ
ᅫ
ᅬ
ᅭ
ᅮ
ᅯ
ᅰ
ᅱ
ᅲ
ᅳ
ᅴ
ᅵ
ᆨ
ᆩ
ᆫ
ᆭ
ᆮ
ᆯ
ᆰ
ᆱ
ᆶ
ᆷ
ᆸ
ᆹ
ᆺ
ᆻ
ᆼ
ᆽ
ᆾ
ᇀ
ᇁ
ᇂ
ក
ង
ច
ជ
ត
ទ
ន
ប
ព
ម
យ
រ
ល
វ
ស
ᠠ
ᨀ
ᨁ
ᨂ
ᨄ
ᨅ
ᨆ
ᨈ
ᨉ
ᨊ
ᨌ
ᨍ
ᨐ
ᨑ
ᨒ
ᨓ
ᨔ
ᨕ
ᮃ
ᮊ
ᮌ
ᮎ
ᮒ
ᮓ
ᮔ
ᮕ
ᮘ
ᮙ
ᮛ
ᮜ
ᮝ
ᮞ
ᯉ
ᯒ
ᯘ
‐
‑
‒
–
—
―
‖
‘
’
“
”
„
†
‡
•
…
‧
′
″
‹
›
※
‿
⁄
ⁿ
₩
€
₹
℃
ℏ
ℓ
№
™
←
↑
→
↓
↔
↦
↷
⇒
⇢
∀
∂
∃
∅
∇
∈
∏
∑
−
∖
∗
∘
∙
√
∞
∣
∧
∨
∩
∪
∫
∼
≈
≡
≤
≥
⊂
⊆
⊕
⊗
⋅
⋮
⋯
⋱
①
②
③
④
⑦
─
│
░
■
▪
▶
◀
○
●
◦
★
☆
☉
♀
♂
♠
♡
♣
♥
♪
♭
⟨
⟩
⟶
⠀
⭐
⺀
⺄
⺆
⺈
⺊
⺌
⺕
⺝
⺸
⺼
⿰
⿱
⿲
⿳
⿴
⿵
⿶
⿷
⿸
⿹
⿺
⿻
、
。
々
〈
〉
《
》
「
」
『
』
【
】
〜
〢
あ
い
う
え
お
か
から
き
く
け
こ
さ
さん
し
す
せ
そ
た
ち
っ
つ
て
と
な
に
ぬ
ね
の
のお
は
ひ
ふ
へ
ほ
ま
み
む
め
も
ゃ
や
ゅ
ゆ
ょ
よ
ら
らせ
り
る
れ
ろ
わ
を
ん
ァ
ア
アニメ
ィ
イ
ゥ
ウ
ェ
エ
ォ
オ
カ
キ
ク
ケ
コ
サ
サイト
シ
シンクル
ス
セ
ソ
タ
チ
ッ
ツ
テ
ト
ナ
ニ
ヌ
ネ
ノ
ハ
ヒ
フ
ヘ
ホ
マ
ミ
ム
メ
モ
ャ
ヤ
ュ
ユ
ョ
ヨ
ラ
ライタ
リ
ル
レ
ロ
ワ
ヲ
ン
ヶ
・
ー
㇁
㇂
㇄
㇇
㇈
㇉
㇓
㐁
㐄
㐅
㐌
㐫
㐬
㐭
㐮
㐱
㑒
㒵
㒸
㒼
㓁
㓞
㔾
㕛
㕣
㖾
㘝
㚅
㚇
㚔
㚘
㝉
㝡
㝴
㝵
㞋
㞢
㞷
㠩
㠭
㠯
㡀
㡭
㡿
㢲
㢴
㣇
㣺
㥯
㪅
㫄
㫐
㫒
㫺
㬅
㬎
㬥
㬰
㲋
㳄
㷠
㸒
㸚
㸦
㼌
㼲
㽞
㿟
䀠
䂞
䍃
䏍
䒑
䖍
䖒
䖝
䖵
䙴
䚻
䜌
䝿
䡛
䧹
䪞
一
丁
丂
七
丄
丅
丆
万
丈
三
上
下
丌
不
与
丏
丐
丑
专
且
丕
世
丘
丙
业
东
丞
両
丢
丣
两
严
並
丨
丩
个
丫
丬
中
丮
丰
丱
串
丵
丶
丷
丸
丹
为
主
丽
丿
乀
乂
乃
久
乆
乇
么
义
之
乌
乍
乎
乏
乐
乑
乔
乖
乗
乘
乙
乚
乛
乜
九
乞
也
习
乡
书
乱
乳
乾
亀
亅
了
亇
予
争
事
二
亍
于
亏
亐
云
互
亓
五
井
亘
亚
亜
亞
亟
亠
亡
亢
交
亥
亦
产
亨
亩
享
京
亭
亮
亯
亰
亲
亳
亶
亷
人
亻
亼
亾
仁
今
介
仌
从
仐
仑
仒
仓
仔
仕
他
付
仙
仝
代
令
以
们
仮
仲
件
任
份
企
伊
伏
伐
休
会
伝
伟
传
伦
伯
伸
但
位
住
佐
佑
体
何
佘
余
佛
作
你
佥
佳
使
來
侈
例
侌
侍
侖
依
侯
侵
便
係
俊
保
俞
信
修
俺
倉
個
倍
倒
候
倠
値
倫
停
健
偵
偶
備
催
傳
僉
像
僕
儀
億
優
儿
兀
允
兂
元
兄
充
兆
兇
先
光
兊
克
兌
免
児
兑
兒
兓
兔
党
兜
兟
入
內
全
兩
兪
八
公
六
兮
兰
共
关
兴
兵
其
具
典
兹
兼
冀
冂
冃
冄
内
円
冈
冉
冊
冋
册
再
冎
冏
冐
冒
冓
冖
冗
冘
写
军
农
冝
冠
冡
冥
冫
冬
冰
况
冷
几
凡
凢
凤
凵
凶
凷
凸
凹
出
函
凾
刀
刁
刂
刃
刄
刅
分
切
刊
刍
刑
划
刕
刖
列
刘
则
创
初
判
別
利
别
到
制
刺
刻
則
削
剌
前
剛
剡
剣
剧
副
創
剽
劇
劉
力
办
功
加
务
劦
动
助
劫
劳
劵
勃
勇
勉
勒
動
務
勝
勞
勢
勤
勹
勺
勻
勾
勿
匀
匂
包
匆
匈
匊
匋
匍
匕
化
北
匚
匝
匡
匪
匱
匸
匹
区
医
匽
匿
區
十
卂
千
卄
卅
卆
升
午
卉
半
卌
华
卑
卒
卓
協
单
卖
南
単
博
卜
卝
卞
占
卡
卢
卣
卤
卦
卩
卪
卫
卬
卯
印
危
即
却
卵
卷
卸
卻
厂
厃
厄
历
厈
厉
厌
厓
厘
厚
原
厤
厥
厨
厭
厲
厶
厷
厸
去
厼
厽
县
叀
参
參
叅
又
叉
及
友
双
反
収
叐
发
叒
叔
叕
取
受
变
叚
叜
叟
口
古
句
另
叩
只
召
可
台
叱
史
右
叵
号
司
叹
吂
各
吅
合
吉
吊
吋
同
名
后
吏
向
吕
君
吝
吞
否
含
启
吳
吴
吹
吾
呂
呆
呈
告
员
呙
周
呪
味
呼
命
咅
和
咎
咠
咢
咨
咲
咸
咼
哀
品
哈
哉
員
哥
哲
唐
唯
唱
商
啇
問
啚
啬
啻
善
喜
喬
單
営
喿
嗇
嘉
器
噩
嚴
囊
囗
囘
囙
囚
四
回
囟
因
团
団
囧
囬
园
困
囱
図
囷
固
国
图
圂
圅
國
圍
園
圓
圖
團
土
圡
圣
圥
在
圭
地
圶
场
圼
坂
均
坊
坐
坒
坚
坛
坡
坴
垂
型
垔
垚
垣
埀
埋
城
域
埶
執
基
堀
堂
堅
堆
堇
堯
報
場
塔
塚
塞
境
墓
増
墨
壘
士
壬
壯
声
売
壳
壴
壹
壺
壽
夂
处
夅
夆
备
変
夊
夋
夌
复
夏
夒
夕
外
夗
夘
多
夜
夢
大
夨
天
太
夫
夬
夭
央
失
夲
头
夷
夸
夹
夻
夾
奂
奄
奇
奈
奉
奎
奏
奐
契
奓
奔
奖
奚
奞
奠
奢
奥
奭
女
奴
奻
好
如
妃
妄
妖
妙
妟
妥
妹
妻
妾
姉
始
姐
姑
委
姜
姫
姬
威
娄
娘
娱
婁
婚
婴
嫁
嫌
嬰
嬴
子
孑
孔
孕
孖
字
存
孙
孚
孛
孝
孟
季
孤
学
孫
孱
學
宀
宁
宂
它
宅
宇
守
安
宋
完
宏
宓
宗
官
宙
定
宛
宜
宝
实
実
客
宣
室
宫
宮
宰
害
家
容
宾
宿
寄
寅
密
富
寒
察
實
寧
審
寫
寬
寮
寶
寸
对
寺
寻
导
寽
対
寿
封
尃
射
将
將
專
尉
尊
尋
尌
對
導
小
少
尒
尓
尔
尖
尗
尚
尞
尢
尣
尤
尧
尨
尭
就
尸
尹
尺
尻
尼
尽
尾
尿
局
层
居
屈
届
屋
屎
屏
屑
展
屖
屚
属
屠
屡
屬
屮
屯
屰
山
屵
屾
岁
岂
岐
岑
岛
岡
岩
岳
岸
峯
峰
島
崇
崎
崑
崔
崖
崙
崩
嵐
嵬
嶋
嶲
巂
巛
川
州
巟
巠
巢
巤
工
左
巧
巨
巩
巫
差
己
已
巳
巴
巷
巸
巻
巽
巾
巿
帀
市
布
师
希
帚
帛
帝
带
師
席
帰
帳
帶
常
幕
干
平
年
幵
并
幷
幸
幹
幺
幻
幼
幽
幾
广
庁
広
庄
庆
床
序
库
应
底
店
庚
府
度
座
庫
庭
庶
康
庸
廉
廌
廛
廣
廩
廴
延
廷
建
廾
廿
开
弁
弃
弄
弇
弋
式
弓
弔
引
弗
弘
弜
弟
张
弥
弦
弱
張
強
强
弾
彊
彌
彎
彐
彑
当
彔
录
彖
彗
彙
彡
形
彥
彦
彧
彩
彭
影
彳
役
彼
往
征
待
律
後
徐
徒
得
徙
從
御
復
微
徳
徵
德
心
忄
必
忌
忍
志
忘
応
忝
忠
忩
快
念
忽
忿
怒
怖
思
怠
怡
急
性
怪
怱
总
恆
恋
恐
恒
恩
恭
息
恵
悉
悟
悠
患
悤
悪
悲
悶
情
惠
惡
惢
想
愁
愈
意
愛
感
慈
慎
慧
慮
慶
憂
憲
憶
應
戀
戈
戉
戊
戋
戌
戍
戎
戏
成
我
戒
戔
或
战
戚
戠
戢
戦
截
戰
戲
戶
户
戸
戹
戼
戾
房
所
扁
扇
手
扌
才
打
托
执
批
承
技
投
抗
折
抜
护
报
披
抱
担
拉
拍
拓
拜
拳
拿
持
指
挑
挙
振
据
授
掌
排
探
接
推
描
提
揭
援
摩
撃
播
撮
支
攴
攵
收
攸
改
攻
放
政
敄
故
敏
救
敕
敖
敗
教
敝
敞
敢
散
敦
敫
敬
数
整
敵
敷
數
斂
文
斉
斊
斗
料
斤
斥
斩
斬
断
斯
新
方
於
施
斿
旁
旅
旋
族
旗
无
旡
既
旣
日
旦
旧
旨
早
旬
旱
旲
时
旾
昆
昇
昌
昍
明
昏
易
昔
昗
昜
星
映
春
昬
昭
是
昱
昴
昷
時
晃
晉
晋
晏
晓
晚
普
景
晴
晶
智
暑
暗
暴
曇
曜
曝
曩
曰
曲
曳
更
曷
書
曹
曼
曾
替
最
朁
會
月
有
朋
服
朔
朕
朗
望
朝
期
木
朩
未
末
本
札
朮
术
朱
朵
朶
机
朿
杀
杉
李
杏
村
杜
束
条
来
杨
杭
杰
東
杲
杳
松
板
析
林
枚
果
枝
枲
枼
柏
某
染
柔
查
柬
柰
柳
柴
査
栄
栗
校
株
根
格
桀
桂
桃
案
桐
桑
桜
档
桥
桼
梁
梅
條
梟
梦
梨
棒
棘
棠
棥
森
植
検
楊
楚
業
極
楼
楽
概
榜
榮
様
樂
樊
標
模
横
樹
橋
機
欠
次
欣
欮
欲
欶
欽
款
歆
歇
歌
歛
止
正
此
步
武
歨
歩
歪
歮
歯
歰
歲
歳
歴
歷
歸
歹
歺
死
殳
段
殷
殸
殹
殺
殻
殿
毅
毋
毌
母
毎
每
毒
比
毕
毚
毛
毳
氏
氐
民
气
気
氣
水
氵
氶
氷
永
氺
氾
求
汉
汝
汞
江
池
決
沃
沈
沓
沖
沙
沝
沢
河
油
治
沼
沿
況
泉
法
波
泣
泥
注
泰
泽
洋
洛
洞
津
洪
洲
活
派
流
浅
济
浜
浦
浩
浪
浮
海
消
涙
涼
淡
淮
深
淳
清
済
渚
渠
渡
温
港
游
湖
湘
湯
湾
満
源
準
溪
滅
滝
满
滿
演
漢
漫
漸
潮
澤
激
濟
瀬
灣
火
灬
灭
灰
灵
灷
災
炅
炎
炏
炗
炙
炭
点
為
烈
烏
烝
热
焉
無
焦
焱
然
焼
煞
照
熊
熏
熙
熱
燃
燕
營
燮
爆
爪
爫
爭
爯
爰
爱
爲
爵
父
爻
爽
爾
爿
片
版
牙
牚
牛
牜
牟
牢
牧
物
牪
特
牽
犀
犬
犭
犮
犯
状
狂
狄
狊
狐
独
狺
狼
猋
猒
猛
猪
猫
献
獄
獎
獣
獨
獻
玄
率
玉
王
玟
玨
现
玲
珍
珎
珠
班
現
球
理
琉
琴
瑜
瑞
瑟
瑩
環
瓜
瓦
甘
甚
甜
生
産
用
甫
甬
田
由
甲
申
电
甶
男
甸
甹
町
画
甾
畀
界
畏
畐
留
畜
畟
畢
略
畧
畨
番
畫
異
畱
當
畺
畾
疊
疋
疌
疑
疒
疫
疾
病
症
痛
癶
癸
癹
発
登
發
白
百
皀
皃
的
皆
皇
皋
皐
皕
皮
皷
皿
盃
盆
盇
盈
益
盍
盎
监
盒
盖
盛
盟
盡
監
盤
盧
目
直
相
盾
省
眇
眉
看
県
眔
眞
真
眷
眼
眾
着
睘
督
睪
睿
瞏
瞢
瞿
矍
矛
矞
矢
矣
知
矦
短
石
码
砂
研
破
碎
確
磊
磨
示
礻
礼
社
祐
祖
祝
神
祟
祥
票
祭
禀
禁
福
禮
禸
禹
禺
离
禽
禾
禿
秀
私
秃
秉
秋
科
秘
秝
秦
称
移
程
稟
種
稲
穀
穂
穌
穴
究
穹
空
穿
突
窄
窒
立
竒
站
竜
竝
竟
章
童
端
竹
笑
笠
第
筆
等
答
策
简
箕
算
管
箴
節
篇
篤
篭
簡
籍
米
粉
粛
粟
粤
粦
粲
精
糖
糞
糸
糹
系
紀
約
紅
納
純
紗
紙
級
素
索
紫
累
細
紹
終
組
経
結
絜
絫
統
絲
絵
絶
經
続
維
網
綾
綿
総
緒
線
編
縄
縣
總
繇
織
纍
纟
红
级
纪
线
组
经
结
统
编
缶
网
罒
罔
罕
罗
罙
罡
罢
罪
置
署
罷
羅
羊
羌
羍
美
羔
羕
羗
羞
羡
羣
群
義
羲
羸
羽
翁
翏
習
翔
翕
翟
翠
翼
耀
老
耂
考
者
耆
而
耎
耑
耒
耳
耴
耶
耷
聂
聊
联
聖
聚
聞
聯
聲
聴
聶
職
聿
肀
肃
肅
肉
肖
肙
股
肥
肩
肯
育
肴
肺
胃
背
胡
胥
能
脊
脩
脱
腔
腾
膚
臣
臤
臧
臨
自
臬
臭
臯
臱
至
致
臺
臼
臽
臾
臿
舀
舂
舄
與
興
舉
舌
舍
舛
舜
舞
舟
航
般
船
艦
艮
良
色
艸
艹
艺
艾
节
芒
芔
芦
芬
芮
花
芳
芸
芺
芻
芽
苏
苔
苗
苟
若
苦
英
茂
范
茶
茸
荅
草
荒
荣
荼
莆
莉
莧
莫
获
莽
菆
菊
菐
菜
華
萌
营
萬
落
葉
著
葛
董
葵
蒙
蒦
蒼
蓋
蓬
蓮
蓺
蔑
蔡
蔵
蕉
蕭
薄
薛
薦
薬
薰
藍
藏
藝
藤
藥
蘇
蘭
虍
虎
虐
虒
虔
處
虖
虗
虘
虚
虛
虜
虞
號
虫
虹
虽
蚤
蚩
蜀
蜜
蟲
蠡
血
行
衍
術
街
衛
衣
衤
表
衮
衰
袁
袞
被
装
裏
裕
補
製
褭
褱
襄
襲
襾
西
覀
要
覃
見
規
覓
視
覚
覧
親
観
覽
觀
见
观
视
角
解
言
訁
訂
訇
計
訊
記
訪
設
許
評
詞
試
詩
話
詹
誌
認
誕
語
誠
誩
說
説
読
誰
課
調
談
論
諸
謎
講
謝
警
議
護
變
讠
计
讯
记
许
论
设
词
话
语
说
调
谷
豆
豈
豊
豐
豕
豖
豙
象
豦
豩
豪
豸
貇
貝
貞
貟
負
財
貢
貧
貪
貫
責
貳
貴
買
費
賀
賁
資
賈
賊
賏
賓
賔
賛
賞
賢
賣
質
賴
贊
贝
贡
责
贯
贲
贵
资
赖
赛
赞
赤
赦
走
赵
起
超
越
趙
足
跡
路
蹇
身
躬
車
軌
軍
軎
軟
転
載
輔
輝
輦
輩
輪
輸
车
轨
辛
辜
辞
辟
辥
辰
辱
農
辵
辶
边
辺
达
过
迎
运
近
这
进
连
迷
追
退
送
逆
选
逐
通
速
造
逢
連
逮
週
進
遀
遂
遊
運
過
道
達
遠
遣
遥
適
遷
選
遺
邊
邑
邓
邕
那
邦
邪
郎
郑
郡
部
郭
郷
都
鄉
鄭
酉
酋
配
酒
酓
釆
采
里
重
野
量
金
釒
鈴
鉄
銀
錄
錢
録
鎮
鏡
鐵
鑑
钅
铁
银
锦
镇
長
镸
长
門
閃
閉
開
閏
閑
閒
間
閔
関
閣
閵
閻
闇
闌
闘
關
门
问
间
闷
闻
阑
阜
阝
队
阪
防
阳
阿
际
陆
陈
降
限
院
陣
除
陰
陳
陵
陸
険
陽
隆
隊
隋
際
隡
隨
隱
隶
隹
隺
隻
隼
隽
难
雀
雁
雄
雅
集
雈
雋
雍
雐
雔
雙
雚
雜
雝
離
難
雨
雩
雪
雲
零
雷
電
需
震
霊
霍
霜
霝
霞
露
霸
靈
靑
青
靖
静
非
靡
面
靣
革
韋
韓
韦
韩
韭
韯
韱
音
響
頁
頃
項
順
須
頗
領
頡
頭
頻
題
顔
願
顛
類
页
顶
领
频
题
風
风
飛
飞
食
飠
飯
養
館
饣
馆
首
香
馬
馮
駅
駦
騎
马
骨
體
高
髟
鬥
鬯
鬲
鬼
魂
魏
魔
魚
魯
鮮
鱼
鲁
鳥
鳳
鳴
鶴
鸟
鹵
鹿
麃
麗
麥
麦
麻
黃
黄
黍
黎
黑
黒
黨
黹
黽
黾
鼎
鼓
鼠
鼻
齊
齋
齐
齒
齿
龍
龙
龜
龟
龠
龰
龱
龴
龵
龶
龷
龸
龹
ꦄ
ꦏ
ꦒ
ꦔ
ꦕ
ꦗ
ꦚ
ꦝ
ꦠ
ꦢ
ꦤ
ꦥ
ꦧ
ꦩ
ꦪ
ꦫ
ꦭ
ꦮ
ꦱ
ꦲ
者
艹
ﷺ
？
･
�
🌐
𠀁
𠀃
𠀆
𠀉
𠀎
𠀐
𠁁
𠁣
𠂆
𠂇
𠂈
𠂉
𠂊
𠂋
𠂎
𠂒
𠂔
𠂛
𠂡
𠂢
𠂤
𠂬
𠂭
𠂹
𠃊
𠃋
𠃌
𠃍
𠃎
𠃑
𠃓
𠃔
𠃜
𠄌
𠄎
𠄠
𠄢
𠆢
𠆥
𠇍
𠈌
𠌵
𠓜
𠔉
𠔥
𠔼
𠔽
𠔿
𠕀
𠕁
𠕋
𠘧
𠘨
𠙻
𠙼
𠚏
𠚒
𠚤
𠚪
𠣏
𠤎
𠤕
𠥓
𠦄
𠦑
𠦝
𠧒
𠧗
𠧪
𠩺
𠪚
𠫓
𠫔
𠫤
𠬛
𠬝
𠬞
𠬢
𠬤
𠬶
𠮛
𠮦
𠮷
𠯑
𠱠
𠳮
𠷎
𡈼
𡉀
𡉵
𡌥
𡍮
𡏳
𡕒
𡕩
𡕰
𡖅
𡗗
𡗜
𡘆
𡘤
𡧱
𡨄
𡩧
𡬠
𡭽
𡰣
𡰥
𡰪
𡰯
𡰱
𡷈
𡸁
𡿨
𡿩
𡿪
𡿺
𢀖
𢀛
𢀩
𢁙
𢆉
𢆰
𢆶
𢇁
𢇇
𢉖
𢌬
𢌿
𢏚
𢑑
𢑚
𢖻
𢙣
𢛳
𢦏
𢦒
𢧵
𢼄
𢾕
𣁋
𣄼
𣅀
𣅽
𣍘
𣎳
𣎵
𣏋
𣏼
𣗥
𣥂
𣥖
𣦵
𣦼
𣧄
𣪊
𣪠
𣬉
𣳾
𣶒
𤇾
𤊽
𤐫
𤓰
𤔔
𤕨
𤣩
𤰇
𤰔
𤰞
𤴓
𤴔
𤽄
𥁑
𥁕
𥃦
𥃩
𥃭
𥇡
𥑟
𥘅
𥘈
𥝢
𥫗
𥱡
𦈢
𦉪
𦉬
𦉼
𦍌
𦍒
𦎧
𦐇
𦓔
𦔮
𦘒
𦙃
𦚏
𦣝
𦣞
𦣻
𦥑
𦥔
𦥯
𦨉
𦭝
𦰩
𧆞
𧈧
𧘇
𧰨
𧴪
𧴮
𧵩
𧾷
𨸏
𨾴
𩙿
𩠐
𩫏
𩵋
𪉷
𪜀
𪟽
𪠲
𪩲
𫇦
𫔭
𫜸
𫝀
𫠣
𫠩
𫢉
𫥞
𫩏
𫩠
𫪡
𫲽
𫶧
𬀷
𬐘
𬗌
𬙙
𬛸
𬜯
𬟩
𬯁
𬴘
𬺻
𬼉
𬼖
𭀰
𭁈
𭁨
𭅰
𭑈
𭕄
𭗼
𭤨
𭥫
𭻾
𮅕
𮊿
𮍌
𮍏
𮓗
𮥼
𮧮
廾
𰀁
𰀄
𰀈
𰀉
𰀕
𰀠
𰀡
𰀢
𰀪
𰁜
𰃮
𰆊
𰆘
𰋙
𰕎
𰢴
𰧭
𰯲
0--
001--
019--
03--
030--
031--
04--
041--
05--
06--
07--
08--
080--
081--
09--
1--
143--
146--
147--
2--
3--
4--
5--
56--
57--
6--
64--
65--
66--
67--
69--
7--
70--
71--
72--
73--
74--
75--
76--
77--
78--
79--
8--
80--
81--
82--
83--
84--
85--
86--
87--
88--
89--
9--
90--
900--
91--
92--
93--
94--
95--
96--
97--
978--
97805--
97807--
97808--
978979--
979--
98--
99--
aa--
ab--
aba--
abd--
abdul--
abe--
aberd--
abi--
abor--
abs--
absor--
abu--
ac--
acal--
acant--
acce--
accele--
accu--
ace--
achi--
activ--
ad--
ada--
add--
addit--
ade--
adi--
adj--
adop--
adverti--
ae--
aero--
aest--
af--
aff--
affec--
ag--
aga--
age--
ago--
agra--
agri--
ah--
ai--
air--
aj--
aji--
ak--
aka--
aki--
aku--
al--
ala--
alde--
alder--
aldr--
ales--
alge--
ali--
all--
allge--
alm--
als--
alt--
alu--
am--
ama--
ame--
amend--
ami--
amp--
amphi--
amr--
an--
ana--
anarc--
ance--
and--
anda--
ang--
angio--
ani--
ann--
anna--
ano--
ant--
antar--
anti--
antro--
anu--
any--
ao--
ap--
apa--
apart--
aper--
api--
apoc--
apok--
apol--
apost--
app--
appoint--
appro--
apr--
aq--
aqua--
ar--
ara--
arbit--
arc--
arch--
are--
arg--
argen--
ari--
ark--
arm--
ars--
art--
arti--
as--
asa--
ash--
asi--
ask--
asp--
astro--
asy--
at--
ata--
ath--
ati--
atr--
atten--
attr--
au--
aug--
aur--
aus--
austr--
auto--
av--
ava--
ave--
avia--
aw--
ax--
axin--
ay--
ayu--
az--
b--
ba--
bab--
bac--
back--
bad--
baek--
bag--
bah--
bai--
bak--
bala--
bale--
ball--
balt--
balu--
ban--
bang--
banyu--
bao--
bapp--
bar--
bas--
bat--
batu--
bau--
bay--
bb--
bc--
bd--
be--
bea--
bed--
bee--
bei--
bek--
bel--
bela--
beli--
bell--
ben--
ber--
berg--
beri--
berke--
berkh--
berki--
berko--
bert--
bess--
bet--
beter--
bh--
bi--
bibl--
biblio--
bid--
big--
bij--
bin--
bina--
bio--
bir--
bis--
bit--
biz--
bj--
bk--
bl--
black--
blu--
blue--
bm--
bn--
bo--
bob--
bodh--
body--
bok--
bola--
boli--
bols--
bon--
bonif--
book--
bor--
bos--
bot--
bouc--
boul--
bour--
bous--
bout--
bow--
box--
boy--
bp--
br--
bra--
brad--
break--
bree--
bres--
brev--
brez--
bri--
broa--
brom--
bron--
bs--
bt--
bu--
bud--
bulu--
bum--
bumi--
bun--
bundes--
bundesverfassungsge--
burg--
burling--
bus--
but--
butter--
by--
ca--
cai--
cak--
cakra--
calab--
calc--
cald--
cali--
cam--
can--
cangk--
cap--
car--
care--
cari--
cas--
cast--
cat--
cauc--
caul--
cb--
cc--
cd--
ce--
cek--
cele--
cemp--
cend--
ceng--
cent--
centen--
cerv--
cet--
cf--
ch--
cha--
chan--
charl--
chat--
che--
chem--
chi--
cho--
chry--
chu--
ci--
cia--
cica--
cid--
cili--
cinc--
cine--
cinn--
circ--
cis--
cit--
city--
cl--
clim--
cm--
cn--
cnn--
co--
cock--
col--
com--
come--
con--
concent--
confess--
conside--
const--
coor--
cop--
cor--
cos--
cosmo--
cot--
coul--
cour--
cov--
cp--
cr--
cran--
cres--
crist--
crit--
croc--
cs--
ct--
cu--
cum--
cup--
curt--
cut--
cy--
cyber--
cycl--
cyrt--
cz--
d--
da--
dae--
dag--
dai--
daily--
dal--
dam--
dan--
dar--
das--
data--
day--
db--
dc--
dd--
de--
dea--
dead--
dec--
decla--
dee--
def--
dei--
dek--
dekom--
del--
deli--
dem--
demen--
demet--
demo--
demonst--
den--
depen--
depo--
der--
deriv--
des--
det--
deter--
detik--
dev--
dh--
di--
dia--
diban--
dican--
dice--
dicho--
dict--
did--
didi--
die--
diekspl--
diffi--
dihim--
diin--
dija--
dije--
dik--
dika--
dikemud--
dikom--
dil--
dilem--
din--
dineg--
dio--
diorg--
diper--
dir--
dirah--
dis--
disam--
discip--
disel--
disem--
dit--
diten--
diter--
ditun--
diur--
divi--
dj--
djoe--
dl--
dm--
dn--
do--
doa--
doc--
dog--
dok--
dom--
don--
dong--
doo--
dos--
dou--
down--
dp--
dr--
dra--
dream--
druk--
dry--
ds--
du--
dua--
dub--
duck--
dung--
dupl--
dur--
dv--
dw--
dwi--
dy--
dynas--
dz--
ea--
earn--
east--
eb--
eber--
ec--
eccl--
eccles--
eco--
econo--
ed--
edel--
edu--
ee--
ef--
effi--
eg--
eh--
ei--
ein--
eisen--
ej--
ek--
eka--
eki--
eko--
eks--
ekstra--
el--
elec--
elek--
eleva--
eli--
elo--
em--
emans--
emer--
emi--
emigr--
emiss--
emot--
empl--
en--
end--
endo--
eng--
eo--
ep--
ephe--
ephr--
epig--
epis--
eps--
eq--
equest--
equi--
er--
era--
eri--
erupt--
es--
esp--
est--
et--
eu--
eun--
euph--
eur--
euro--
ev--
eva--
eve--
ever--
evol--
ew--
ex--
execut--
exer--
exhi--
exp--
expec--
extra--
ey--
eye--
ez--
fa--
faci--
fahr--
fair--
falk--
fam--
fan--
far--
fasci--
fat--
fe--
feb--
fei--
feld--
feli--
feng--
ferr--
fi--
fift--
fili--
film--
filo--
fin--
fir--
fire--
fis--
fit--
fix--
fk--
fl--
flam--
flav--
flor--
flu--
fluor--
fly--
fm--
fo--
foot--
for--
foren--
foto--
four--
fox--
fp--
fr--
fra--
free--
frei--
fret--
frie--
frus--
frustr--
ft--
fu--
fuji--
fuku--
full--
fun--
fur--
furni--
fy--
ga--
gak--
gal--
gam--
game--
gan--
gao--
gas--
gay--
gb--
gc--
gd--
ge--
gel--
gemb--
gen--
geo--
gera--
germ--
gers--
get--
gh--
gi--
gian--
gibb--
giga--
gil--
gim--
gin--
giri--
girl--
gk--
gl--
glen--
glob--
glor--
gm--
gn--
go--
god--
gol--
gold--
gonc--
gond--
gong--
gonz--
good--
gor--
got--
gour--
gov--
gp--
gr--
grac--
gram--
gran--
grand--
green--
gren--
grim--
gris--
gs--
gu--
gua--
guan--
gue--
gui--
gun--
guo--
gus--
gw--
gy--
gym--
ha--
hack--
had--
hadi--
hae--
hai--
hak--
hal--
ham--
han--
hana--
hand--
hang--
hank--
har--
hard--
hari--
hart--
has--
hat--
haun--
hawt--
hay--
hd--
he--
head--
heart--
hedg--
hee--
heil--
hein--
heli--
hell--
helv--
hen--
her--
het--
hexa--
hey--
hi--
hide--
hidr--
hidrok--
hidroli--
high--
hild--
him--
hind--
hip--
hiper--
hirs--
his--
hit--
hk--
hl--
hm--
ho--
hodg--
hok--
holl--
holo--
holog--
home--
homo--
hon--
hoo--
hop--
hot--
hou--
house--
how--
hr--
hs--
ht--
hu--
hua--
hub--
hud--
huff--
hui--
hum--
humph--
hun--
hut--
huta--
hy--
hydr--
hyo--
hyper--
hypothe--
ia--
ib--
ic--
ich--
id--
ida--
ide--
ie--
if--
ig--
ign--
ih--
ii--
ij--
ik--
ika--
il--
ill--
illumi--
illus--
ilo--
im--
imag--
impre--
impro--
in--
ina--
inc--
incor--
ind--
indo--
indul--
inf--
info--
ing--
ini--
inn--
insp--
inspec--
inspira--
inst--
instruct--
insur--
int--
integ--
inter--
inti--
intra--
inve--
invent--
invest--
investiga--
io--
ion--
ip--
iq--
ir--
ira--
iri--
is--
isa--
ishi--
iso--
ist--
istiq--
it--
ita--
iu--
iv--
iw--
iy--
iz--
ja--
jae--
jai--
jak--
jam--
jan--
jang--
jas--
jati--
java--
jay--
jaya--
jc--
je--
jen--
jet--
jh--
ji--
jia--
jian--
jim--
jin--
jing--
jo--
joe--
jon--
jong--
jp--
jr--
js--
ju--
jum--
jun--
juru--
juve--
jy--
k--
ka--
kab--
kah--
kai--
kal--
kali--
kalku--
kam--
kami--
kan--
kang--
kap--
kara--
karang--
karb--
karbok--
kardash--
karn--
karo--
kars--
kart--
kartog--
kas--
kasub--
kat--
kata--
kate--
kau--
kav--
kawa--
kay--
kayu--
kazu--
kb--
kc--
kd--
ke--
kebon--
kec--
kedua--
kei--
kel--
kemen--
kemo--
kemun--
ken--
kena--
kep--
kera--
keri--
kers--
kert--
kertos--
keru--
keter--
ketidak--
ketop--
kew--
key--
kg--
kh--
khal--
khat--
khaya--
khil--
khur--
ki--
kid--
kim--
kin--
kir--
kirk--
kis--
kit--
kita--
kj--
kk--
kl--
klas--
klim--
km--
kn--
ko--
kodik--
koe--
koh--
koi--
kok--
kol--
kolab--
kolum--
kom--
kon--
koo--
kor--
kota--
kp--
kr--
kri--
kris--
krom--
kru--
ks--
kt--
ku--
kuk--
kun--
kuri--
kusn--
kuta--
kv--
kw--
ky--
kyo--
kyu--
l--
la--
lab--
lah--
laks--
lal--
lam--
lan--
land--
lang--
lao--
lap--
las--
lat--
lau--
laugh--
law--
lay--
ld--
le--
lea--
led--
lee--
leg--
lei--
leks--
lemb--
len--
lept--
les--
let--
leuc--
lev--
lh--
li--
liao--
lib--
liber--
lie--
lieuten--
life--
lim--
lin--
ling--
lips--
lit--
live--
lk--
ll--
lo--
loa--
lock--
log--
long--
loo--
lor--
los--
lot--
lou--
love--
low--
lp--
lu--
luc--
ludo--
luk--
lump--
lun--
luo--
lv--
lx--
ly--
m--
ma--
mac--
macro--
mad--
made--
mae--
mag--
mah--
maha--
mai--
main--
mak--
mal--
mala--
man--
mang--
mani--
mans--
manu--
mao--
map--
mar--
mara--
mari--
mark--
marlb--
mas--
masa--
mat--
mata--
matsu--
mau--
max--
may--
maya--
mb--
mc--
mccl--
mccon--
md--
me--
meas--
med--
mee--
meg--
mega--
mei--
mel--
melam--
melan--
melod--
mem--
meman--
meme--
memper--
men--
mence--
meneb--
mener--
meng--
menja--
menje--
menu--
menung--
menya--
menyan--
menye--
menyen--
menyi--
menyu--
mer--
meratifi--
mere--
meso--
mesoa--
mess--
met--
meta--
metro--
mi--
mia--
mic--
micro--
mid--
mie--
mig--
miko--
mikro--
mil--
mill--
min--
mini--
mio--
mir--
mis--
mit--
mittel--
mix--
miya--
mizu--
mk--
ml--
mm--
mn--
mo--
moe--
moh--
moi--
mojo--
mol--
mom--
mon--
mono--
monte--
mor--
mori--
motiva--
moto--
motor--
mou--
mp--
mr--
ms--
mt--
mu--
muh--
muji--
mukh--
mulj--
mull--
multi--
mun--
murd--
mus--
music--
mutt--
muza--
mw--
my--
myst--
n--
na--
naga--
nah--
nai--
nak--
naka--
nam--
nan--
nano--
narr--
nas--
nat--
nata--
naut--
naviga--
nc--
nd--
ne--
nec--
nee--
negotia--
neig--
neighbo--
nel--
nen--
neo--
net--
neur--
neuros--
neus--
neut--
new--
news--
ng--
nga--
ngem--
ngo--
nh--
ni--
nic--
nica--
nieder--
nieu--
nigr--
nih--
niko--
nikol--
nil--
nis--
nj--
nk--
no--
non--
nor--
nord--
north--
nos--
not--
note--
nov--
now--
nr--
ns--
nt--
nu--
nukl--
numis--
nun--
nur--
nusa--
nuss--
nw--
ny--
nya--
nyi--
oa--
ob--
ober--
obitu--
observa--
obst--
oc--
occas--
och--
oct--
od--
oda--
oe--
of--
off--
og--
oh--
oi--
oj--
ok--
oka--
okta--
oku--
ol--
old--
ole--
oli--
oligo--
om--
omni--
on--
onder--
one--
ong--
ono--
oo--
oost--
op--
open--
opport--
or--
ora--
ore--
oro--
orth--
orto--
os--
osil--
ost--
osteo--
oster--
ot--
oto--
ou--
out--
ov--
over--
ow--
ox--
oy--
oz--
pa--
pac--
pad--
pada--
pai--
pak--
paku--
pal--
pala--
paleo--
pali--
pam--
pan--
panca--
pang--
par--
para--
partic--
pas--
pasca--
pass--
pat--
pau--
pav--
paw--
pay--
pb--
pc--
pd--
pe--
pedia--
pei--
pela--
pele--
peli--
pell--
peloponne--
pelu--
pemb--
pemba--
pembang--
pembed--
pember--
pembia--
pembua--
peme--
pemer--
pemin--
pemotr--
pemr--
pemu--
pen--
pena--
peneg--
pener--
peng--
penim--
penja--
penje--
penum--
penya--
penyam--
penyan--
penye--
penyen--
penyi--
penyu--
per--
percept--
pere--
peri--
perme--
pers--
pertj--
pes--
pet--
peta--
petro--
pew--
pf--
pg--
ph--
phen--
phi--
phil--
phono--
photo--
phylog--
pi--
pia--
pic--
pick--
pie--
pig--
pil--
pin--
ping--
pir--
pit--
pk--
pl--
plas--
play--
plea--
plei--
ples--
plum--
pm--
pn--
po--
pod--
poer--
pol--
politic--
pom--
pon--
pop--
por--
pos--
post--
pot--
power--
pp--
pr--
pra--
pre--
predict--
prest--
prim--
pring--
pris--
prit--
pro--
proc--
pronun--
proto--
provi--
ps--
psi--
psiko--
psychi--
psycho--
pt--
pte--
ptole--
pu--
pub--
publi--
pull--
pulm--
pulo--
pun--
purc--
purw--
pusdik--
pusp--
put--
py--
qa--
qi--
qing--
qo--
qu--
quad--
quan--
que--
qui--
quo--
ra--
radh--
radio--
raf--
rai--
rain--
raj--
raja--
rak--
ram--
rama--
ran--
rang--
rap--
ras--
rat--
raw--
rawa--
ray--
rc--
re--
real--
rec--
recom--
recommen--
red--
redempt--
ref--
regg--
regi--
regl--
rei--
reinh--
rejo--
rel--
rem--
ren--
rengg--
rep--
repos--
rer--
res--
resi--
reti--
retr--
retro--
rev--
revel--
rever--
rey--
rf--
rh--
rhap--
rhet--
rho--
ri--
ricc--
rim--
rin--
ris--
riv--
ro--
road--
rob--
rock--
rod--
roh--
rok--
rom--
ron--
rong--
rose--
row--
rp--
rs--
rt--
ru--
rukm--
rum--
run--
rus--
rut--
ry--
ryo--
ryu--
s--
sa--
sabb--
sad--
sae--
sah--
sai--
saka--
sakh--
saks--
sal--
salis--
salva--
sam--
sama--
san--
sand--
sang--
sar--
sari--
sarol--
sas--
sat--
satya--
savi--
saw--
say--
sb--
sc--
scan--
sch--
schol--
sci--
scien--
scor--
scud--
sd--
se--
sea--
sebas--
sec--
see--
sei--
seku--
sel--
sela--
seleng--
selo--
sem--
semi--
sen--
sena--
seng--
seo--
sep--
seper--
ser--
ses--
set--
sf--
sg--
sh--
sha--
shah--
she--
shen--
shi--
shin--
ship--
sho--
show--
shu--
si--
sia--
sic--
sid--
siddh--
side--
sie--
sig--
sih--
sik--
sil--
sim--
simul--
sin--
sing--
sino--
sint--
sir--
sis--
situ--
six--
sj--
sk--
ske--
ski--
sky--
skysc--
sl--
slav--
slip--
sm--
sn--
snap--
snow--
so--
soa--
socio--
soe--
soft--
sok--
sol--
some--
son--
song--
soo--
soph--
sos--
sound--
souv--
sp--
spa--
space--
spec--
spek--
spoo--
sq--
squa--
squi--
sr--
sri--
ss--
st--
sta--
stall--
star--
sten--
stim--
stir--
stoo--
stra--
strat--
stri--
stru--
stun--
stur--
styl--
su--
suara--
sub--
subst--
sud--
sue--
suff--
sugg--
sugi--
sui--
suk--
suka--
sul--
sum--
sun--
sung--
sup--
super--
sur--
sura--
surya--
sus--
sustai--
sv--
sw--
swa--
swim--
sy--
syaf--
syah--
syai--
syam--
sylv--
symb--
symp--
synd--
synt--
syst--
sz--
t--
ta--
tab--
tae--
tag--
tai--
tak--
take--
tali--
tam--
tan--
tang--
tao--
tap--
tar--
taruma--
tas--
tat--
tata--
tau--
tc--
te--
tea--
tech--
tect--
ted--
teh--
tek--
tel--
temb--
temp--
ten--
teng--
teod--
ter--
terce--
tergel--
terj--
terpe--
tes--
tetr--
tets--
teu--
tf--
th--
tha--
the--
theo--
thi--
thirt--
thur--
ti--
tie--
tiga--
til--
tim--
timber--
time--
timesof--
tin--
tio--
tip--
tj--
tjah--
tl--
tm--
tn--
to--
toh--
tok--
tol--
toli--
tom--
tomo--
ton--
tong--
too--
top--
topog--
tor--
tot--
toxi--
toy--
tr--
tramwe--
trans--
trea--
treat--
tri--
tricho--
trigono--
trom--
trop--
trot--
trun--
try--
ts--
tsub--
tsuk--
tu--
tua--
tump--
tun--
tuna--
tung--
tur--
turbo--
turbu--
turn--
tv--
tw--
ty--
tyran--
tz--
ua--
ub--
ubi--
uc--
uchi--
ud--
ue--
uf--
ug--
uh--
ui--
uj--
uk--
ul--
ultra--
ulu--
um--
un--
una--
und--
under--
uni--
unifi--
univer--
unter--
up--
ups--
ur--
us--
usa--
usu--
ut--
uu--
uw--
uy--
uz--
va--
val--
van--
var--
vaud--
vaug--
ve--
ved--
veget--
vene--
vent--
ventri--
ver--
verte--
vest--
vi--
vic--
vie--
vill--
viro--
visc--
visi--
vitt--
viva--
vl--
vo--
voc--
vol--
volks--
vr--
vs--
vt--
vu--
vv--
vy--
wa--
wah--
wai--
waka--
wal--
wali--
wan--
wana--
wang--
war--
was--
wat--
water--
watu--
way--
wb--
we--
web--
wei--
wen--
wes--
west--
wester--
wet--
wh--
what--
whis--
whit--
white--
wi--
wib--
wie--
wiki--
wild--
wilf--
win--
wind--
wira--
wit--
with--
wl--
wm--
wn--
wo--
wol--
won--
woo--
wood--
work--
wr--
ws--
wu--
ww--
wy--
wyom--
xa--
xant--
xe--
xeno--
xi--
xia--
xiao--
xin--
xl--
xp--
xu--
xx--
ya--
yah--
yak--
yakov--
yam--
yan--
yang--
yasu--
yat--
ye--
yes--
yi--
yin--
yn--
yo--
yoh--
yon--
yong--
yos--
yoshi--
you--
yp--
yu--
yue--
yun--
yust--
yv--
za--
zap--
zb--
zd--
ze--
zee--
zen--
zh--
zhi--
zhu--
zi--
zimmer--
zo--
zoo--
zu--
zucker--
zulf--
zur--
zw--
zy--
æ--
đ--
ɡ--
ɪ--
ʃ--
αυ--
δ--
ε--
ο--
τ--
а--
в--
д--
з--
и--
к--
м--
н--
о--
пере--
р--
рос--
с--
со--
т--
א--
י--
ا--
ب--
ح--
س--
ع--
ق--
ل--
م--
و--
ي--
ก--
ง--
น--
อ--
า--
เ--
ᄀ--
ᄁ--
ᄂ--
ᄃ--
ᄄ--
ᄅ--
ᄆ--
ᄇ--
ᄈ--
ᄉ--
ᄊ--
ᄋ--
ᄌ--
ᄍ--
ᄎ--
ᄏ--
ᄐ--
ᄑ--
ᄒ--
あ--
い--
え--
か--
こ--
さ--
し--
す--
た--
て--
と--
な--
に--
ま--
ア--
イ--
エ--
カ--
キ--
キャ--
ク--
コ--
サ--
シ--
ス--
セ--
タ--
テ--
ト--
ナ--
ニ--
ハ--
ヒ--
フ--
ヘ--
ホ--
マ--
ミ--
メ--
ラ--
ラン--
リ--
ル--
レ--
--0
--0
--00
--01
--02
--03
--04
--05
--06
--07
--08
--09
--1
--1
--10
--11
--12
--13
--14
--15
--16
--17
--18
--19
--2
--2
--20
--21
--22
--23
--24
--25
--26
--27
--28
--29
--3
--3
--30
--31
--32
--33
--34
--35
--36
--37
--38
--39
--4
--4
--40
--41
--42
--43
--44
--45
--46
--47
--48
--49
--5
--5
--50
--51
--52
--53
--54
--55
--56
--57
--58
--59
--6
--6
--60
--61
--62
--63
--64
--65
--66
--67
--68
--69
--7
--7
--70
--71
--72
--73
--74
--75
--76
--77
--78
--79
--8
--8
--80
--81
--82
--83
--84
--85
--86
--87
--88
--89
--9
--9
--90
--91
--92
--93
--94
--95
--96
--97
--98
--99
--a
--aa
--aah
--aan
--aar
--aat
--aati
--ab
--abad
--ability
--able
--abo
--ac
--aca
--ach
--acio
--ack
--aco
--acy
--ad
--ada
--ade
--adi
--ado
--ados
--adu
--ae
--aea
--ael
--aeus
--af
--ag
--aga
--age
--agi
--agih
--agung
--ah
--ahal
--ahan
--ahi
--ahkan
--ahu
--ahun
--ai
--aian
--aic
--aik
--ail
--ain
--aine
--air
--aire
--ais
--ait
--aj
--aja
--aji
--ajo
--ak
--aka
--akan
--ake
--aki
--akkan
--ako
--aks
--al
--ala
--alah
--ale
--ali
--alis
--alkan
--all
--ally
--alo
--alog
--am
--ama
--ami
--amkan
--amu
--an
--ana
--anan
--ance
--and
--ane
--anen
--ang
--ani
--anja
--anjur
--ank
--ankan
--anlah
--ann
--annya
--ano
--ans
--ant
--anto
--ants
--any
--anya
--ao
--ap
--apa
--apkan
--aq
--ar
--ara
--arai
--aran
--ard
--ardi
--ardjo
--are
--ari
--aries
--arium
--arjo
--arna
--arno
--aro
--art
--aru
--arum
--ary
--as
--asa
--asah
--asan
--asari
--ase
--ashi
--asi
--asikan
--at
--ata
--atan
--ate
--ated
--ates
--ati
--atif
--atik
--atika
--ation
--ations
--ative
--atkan
[...]
