!
"
#
##0
##1
##10
##11
##12
##13
##14
##15
##16
##17
##18
##19
##2
##20
##21
##22
##23
##24
##25
##26
##27
##28
##29
##3
##30
##31
##32
##33
##34
##35
##36
##37
##38
##39
##4
##40
##41
##42
##43
##44
##45
##46
##47
##48
##49
##5
##50
##51
##52
##53
##54
##55
##56
##57
##58
##59
##6
##60
##61
##62
##63
##64
##65
##66
##67
##68
##69
##7
##70
##71
##72
##73
##74
##75
##76
##77
##78
##79
##8
##80
##81
##82
##83
##84
##85
##86
##87
##88
##89
##9
##90
##91
##92
##93
##94
##95
##96
##97
##98
##99
$
%
&
'
(
)
*
+
,
-
.
/
0
00
000
0000
0001
0002
0003
0004
0006
001
002
0022
003
004
005
006
007
008
009
01
010
011
012
013
014
0140
015
016
017
018
019
02
020
021
022
023
024
025
026
0261
027
028
029
03
030
031
032
033
034
035
036
0362
037
038
039
04
040
041
042
043
044
045
046
047
048
049
05
050
051
052
055
056
06
060
061
062
064
066
067
068
07
070
071
072
074
08
080
081
082
083
09
090
0901
091
1
10
100
1000
1001
1002
1006
1007
101
1010
1016
1017
102
1021
1023
1024
1029
103
1037
1038
1039
104
1046
105
1050
1051
1056
1057
106
1063
1066
107
1071
1073
108
1080
1086
1088
109
1090
1093
1095
1097
1098
1099
11
110
1100
1101
1103
1109
111
1111
112
1126
1128
113
1130
1136
114
1145
1146
115
116
1163
117
1177
118
1180
1186
119
1198
12
120
1200
1204
121
122
123
1230
1235
124
1241
1243
125
1250
126
1260
127
128
129
13
130
1300
131
132
133
134
135
1350
1351
1353
136
1365
1368
137
1371
138
1385
139
1392
14
140
1400
141
1410
1415
142
143
144
1440
145
1450
1453
146
1467
1468
1469
147
1471
148
149
1492
15
150
1500
151
1511
1512
1515
1517
152
1520
1521
1524
1525
1526
1527
1528
153
1530
1534
1535
1536
154
1540
1542
1545
1546
155
1550
1558
1559
156
1560
1565
157
1570
1571
1572
1573
158
1580
159
1590
1592
1596
1598
16
160
1600
1601
1602
1603
1605
1606
1607
1609
161
1610
1612
1613
1615
1618
1619
162
1620
1621
1623
1625
1629
163
1630
1632
1633
1635
1636
1637
1638
164
1640
1641
1642
1644
1646
1648
1649
165
1650
166
1660
1661
1662
1663
1666
1667
167
1670
1674
1677
1679
168
1680
1681
1682
1683
1685
1688
1689
169
1690
1699
17
170
1700
1701
1703
1704
1705
1707
171
1710
1714
1715
172
1720
1721
1723
1724
1727
173
1730
1736
1739
174
1740
1741
1742
1743
1744
1745
1746
1748
1749
175
1750
1751
1752
1753
1754
1755
1756
1757
1758
1759
176
1760
1761
1762
1763
1764
1765
1766
1767
1768
1769
177
1770
1771
1772
1773
1774
1775
1776
1777
1778
1779
178
1780
1781
1782
1783
1784
1785
1786
1787
1788
1789
179
1790
1791
1792
1793
1794
1795
1796
1797
1798
1799
18
180
1800
1801
1802
1803
1804
1805
1806
1807
1808
1809
181
1810
1811
1812
1813
1814
1815
1816
1817
1818
1819
182
1820
1821
1822
1823
1824
1825
1826
1827
1828
1829
183
1830
1831
1832
1833
1834
1835
1836
1837
1838
1839
184
1840
1841
1842
1843
1844
1845
1846
1847
1848
1849
185
1850
1851
1852
1853
1854
1855
1856
1857
1858
1859
186
1860
1861
1862
1863
1864
1865
1866
1867
1868
1869
187
1870
1871
1872
1873
1874
1875
1876
1877
1878
1879
188
1880
1881
1882
1883
1884
1885
1886
1887
1888
1889
189
1890
1891
1892
1893
1894
1895
1896
1897
1898
1899
19
190
1900
1901
1902
1903
1904
1905
1906
1907
1908
1909
191
1910
1911
1912
1913
1914
1915
1916
1917
1918
1919
192
1920
1921
1922
1923
1924
1925
1926
1927
1928
1929
193
1930
1931
1932
1933
1934
1935
1936
1937
1938
1939
194
1940
1941
1942
1943
1944
1945
1946
1947
1948
1949
195
1950
1951
1952
1953
1954
1955
1956
1957
1958
1959
196
1960
1961
1962
1963
1964
1965
1966
1967
1968
1969
197
1970
1971
1972
1973
1974
1975
1976
1977
1978
1979
198
1980
1981
1982
1983
1984
1985
1986
1987
1988
1989
199
1990
1991
1992
1993
1994
1995
1996
1997
1998
1999
2
20
200
2000
2001
2002
2003
2004
2005
2006
2007
2008
2009
201
2010
2011
2012
2013
2014
2015
2016
2017
2018
2019
202
2020
2021
2022
2023
2024
2025
2026
2027
203
2030
204
205
2050
206
207
208
209
21
210
2100
211
212
213
214
215
216
217
218
219
22
220
221
222
223
224
225
226
227
228
229
23
230
2305
2307
231
232
233
234
235
236
237
238
239
24
240
241
242
243
244
245
246
247
248
249
25
250
2500
251
252
253
254
255
256
257
258
259
26
260
261
262
263
264
265
266
267
268
269
27
270
271
2710063
272
273
274
275
276
277
278
279
28
280
281
282
283
284
285
286
287
288
289
29
290
291
292
293
294
295
296
297
298
299
3
30
300
3000
301
302
303
304
305
306
307
3077
308
309
31
310
311
312
313
314
315
316
3166
317
318
319
32
320
321
322
323
324
325
326
327
328
329
33
330
331
332
333
334
335
336
337
338
339
34
340
341
342
343
344
345
346
347
348
349
35
350
351
352
353
354
355
356
357
358
359
36
360
361
362
363
364
365
366
367
368
369
37
370
371
372
373
374
375
376
377
378
379
38
380
381
382
383
384
385
386
387
388
389
39
390
391
392
393
394
395
396
397
398
399
4
40
400
4000
401
402
4020
403
404
405
4051
406
407
408
409
41
410
411
412
413
414
415
416
417
418
419
42
420
421
422
423
424
425
426
427
428
429
43
430
431
432
433
4331
434
435
436
437
438
439
44
440
441
442
443
444
445
446
447
448
449
45
450
451
452
453
454
455
456
457
458
459
46
460
461
462
463
464
465
466
467
468
469
47
470
471
472
473
474
475
476
477
478
479
48
480
481
482
483
484
485
486
487
488
489
49
490
491
492
493
494
495
496
497
498
499
5
50
500
5000
501
502
503
504
505
506
507
508
509
51
510
511
512
513
514
515
516
517
518
519
52
520
521
522
523
524
525
526
527
528
529
53
530
531
532
533
534
535
536
537
538
539
54
540
541
542
543
544
545
546
547
548
549
55
550
551
552
553
554
555
556
557
55750
558
559
56
560
561
562
563
564
565
566
567
568
569
57
570
571
572
573
574
575
576
577
578
579
58
580
581
582
583
584
585
586
587
588
589
59
590
591
592
593
594
595
596
597
598
599
6
60
600
6000
601
602
603
604
605
606
607
608
609
61
610
611
612
613
614
615
616
617
618
619
62
620
621
622
623
624
625
626
627
628
629
63
630
631
632
633
634
635
636
6361
637
638
639
64
640
641
642
643
644
645
646
647
648
649
65
650
651
652
653
654
655
656
657
658
659
66
660
661
662
663
664
665
666
667
668
669
67
670
671
672
673
6736
674
675
676
677
678
679
68
680
681
682
683
684
685
686
687
688
689
69
690
691
692
693
694
695
696
697
698
699
7
70
700
7000
701
702
703
704
705
706
707
709
71
710
711
712
713
714
715
716
717
718
719
72
720
721
722
723
724
725
726
727
728
729
73
730
731
732
733
734
735
736
737
739
74
740
741
742
743
744
745
746
747
748
749
75
750
751
752
753
754
7546
755
756
757
758
759
76
760
762
763
765
767
768
769
77
770
771
774
775
776
777
778
78
780
781
782
783
785
786
7864
787
788
789
79
790
7914
792
794
796
797
799
8
80
800
8000
801
8014
8018
802
8028
803
804
8047
805
808
809
81
810
8108
811
812
813
814
815
817
82
820
821
823
8248
825
827
828
83
830
833
838
84
840
841
84176
842
843
849
8493
85
850
85177
853
855
86
860
864
865
866
867
869
87
870
87021
874
875
876
88
880
883
885
886
888
89
890
892
893
895
899
9
90
900
901
902
903
905
907
909
91
910
911
912
913
914
915
917
918
919
92
920
924
925
929
93
930
933
935
937
94
940
945
95
950
953
954
955
96
960
961
962
963
965
966
967
968
97
970
971
972
973
974
975
976
977
978
9789794153857
9789794158159
979
98
980
981
983
985
986
987
99
990
991
995
996
999
:
;
<
=
>
?
@
[
\
]
^
_
`
a
aa
aaa
aachen
aal
aamir
aan
aang
aaron
aau
ab
aba
abad
abadi
abah
abang
abangnya
abba
abbas
abbasiyah
abbey
abbott
abc
abd
abdel
abdi
abdillah
abdu
abdul
abdullah
abdur
abdurrahman
abe
abel
abelian
aberdeen
abhishek
abi
abidin
abigail
abimanyu
abingdon
abis
abjad
abkhazia
able
abnormal
aborigin
aborsi
abortion
about
above
abraham
abrams
abri
abroad
abs
absen
absolut
absolute
abstract
abstracts
abstrak
abu
abubakar
abul
abuse
ac
acad
acade
academia
academic
academy
acak
acalolepta
acanthochaetetes
acap
acar
acara
acaranya
access
accessdate
accessed
accessyear
accident
according
account
accounting
accounts
accreditations
accused
ace
aceh
aces
achievement
achmad
aci
acid
acids
acm
acmaeodera
acoustic
acquire
acquired
acquires
acquisition
acre
across
act
acta
acting
action
actions
active
activist
activities
activity
actor
actors
actress
actresses
acts
actually
acuan
acuh
acute
ad
ada
adab
adakah
adakalanya
adakan
adalah
adam
adams
adanja
adanya
adapon
adaptasi
adaptation
adaptif
adapun
adat
add
added
addison
addition
additional
address
adds
ade
adegan
adel
adelaide
adele
aden
adha
adhi
adi
adidas
adik
adikku
adiknya
adil
adinda
adipati
adit
aditia
aditif
aditya
adj
adjektiva
adji
adjie
adjusted
adler
admin
administrasi
administratif
administration
administrative
administrator
admiral
adnan
ado
adobe
adolf
adolphe
adonan
adopsi
adrian
adriana
adriatik
ads
adu
aduk
adult
adults
adv
advance
advanced
advances
advent
adventure
adventures
adverbia
advertising
advice
advisory
advocate
advokasi
advokat
ae
aegea
aek
aer
aerial
aero
aeronautics
aerospace
aevi
af
afc
afdeeling
afdeling
aff
affair
affairs
affan
affandi
afganistan
afghan
afghanistan
afi
afiliasi
afl
afonso
afp
africa
african
afrika
afro
afrodit
after
aftermath
ag
aga
again
against
agak
agaknya
agam
agama
agamanya
agar
agatha
agb
age
aged
agen
agence
agencies
agency
agenda
ageng
agensi
agent
agents
ages
agm
agnes
agni
ago
agong
agraria
agraris
agree
agreement
agregat
agresi
agresif
agribisnis
agricultural
agriculture
agrilus
agro
agromyza
agromyzidae
aguilera
agung
agus
agustin
agustina
agustinus
agustus
ah
ahad
ahead
ahli
ahmad
ahmadiyah
ahmed
ahn
ahok
ai
aia
aib
aichi
aid
aida
aidan
aids
aijer
aikatsu
aim
aims
ain
ainu
ainun
aip
aipc
air
airasia
airborne
airbus
aircraft
aires
airlangga
airline
airlines
airnya
airplay
airport
airports
airways
ais
aise
aisha
aishwarya
aisyah
aisyiyah
aizu
aj
aja
ajaib
ajak
ajakan
ajal
ajam
ajang
ajar
ajaran
ajarannya
ajax
ajay
ajeng
aji
ajudan
ajun
ak
aka
akabri
akad
akademi
akademie
akademik
akademis
akademisi
akal
akan
akandia
akane
akar
akari
akarnya
akb
akbar
akbp
aken
akhemeniyah
akhilles
akhir
akhiran
akhirat
akhirnya
akhlak
akhmad
akhtar
aki
akibat
akibatnya
akidah
akiko
akimoto
akira
akita
akkadia
akmil
akoe
akomodasi
akpol
akrab
akreditasi
akronim
aksara
akselerasi
aksen
akses
aksesi
aksesori
aksesoris
akshay
aksi
aksinya
aksioma
akta
aktif
akting
aktingnya
aktiva
aktivasi
aktivis
aktivitas
aktivitasnya
aktor
aktris
aktual
aku
akuarium
akuatik
akui
akuisisi
akulah
akumulasi
akun
akuntabilitas
akuntan
akuntansi
akurasi
akurat
akustik
akut
al
ala
alabama
aladdin
alai
alaihi
alain
alam
alamat
alami
alamiah
alaminya
alamnya
alamsyah
alan
aland
alang
alangkah
alap
alarm
alas
alasan
alasannya
alaska
alat
alauddin
alawi
alba
albania
albanian
albany
albatros
albert
alberta
alberto
albertus
albion
albirex
albrecht
album
albumnya
albums
albuquerque
alcohol
aldershot
aldi
aldo
ale
alec
alejandro
aleksander
aleksandr
aleksandria
aleksey
aleppo
alergi
alert
alessandro
alex
alexa
alexander
alexandra
alexandre
alexandria
alexandrinus
alexei
alexis
alfa
alfabet
alfian
alfonso
alfred
alfredo
alga
algebra
algeria
algoritma
algoritme
alhamdulillah
alhasil
ali
alia
aliansi
alias
alice
alicia
alien
alif
aligned
alih
alik
alim
alinea
aliran
alis
alison
alit
alive
aliyah
aljabar
aljazair
aljazeera
alkali
alkitab
alkitabiah
alkohol
all
alla
allah
allan
alle
allen
alley
allgemeine
alliance
allied
allies
allison
allium
allkpop
allmovie
allmusic
allrovi
ally
alm
alma
almanac
almanak
almarhum
almasih
almost
alokasi
alone
along
alonso
alor
aloysius
alpaida
alpen
alpha
alphabet
alphonse
alpine
alquran
already
als
alsace
also
alt
altar
alter
alternatif
alternative
although
altimetrica
altitudine
alto
alu
alue
aluminium
alumni
alumnus
alun
alur
alvarez
alves
alvin
always
alwi
alya
alyssa
alzheimer
am
ama
amadeus
amal
amalan
amalia
aman
amanah
amanat
amanda
amandemen
amangkurat
amar
amarah
amaryllidaceae
amat
amateur
amatir
amazing
amazon
ambang
ambar
ambarawa
ambassador
amber
ambigu
ambil
ambisi
ambisius
ambon
ambrose
ambulans
amc
amd
ame
amelia
amendemen
amendment
america
american
americana
americans
americas
amerika
ames
amfibi
amherst
ami
amid
amien
amin
amina
aminah
amino
amir
amis
amit
amitabh
amman
amnesia
amnesti
amnesty
amon
among
amonia
amonium
amor
amos
amour
amp
ampang
ampar
ampas
ampat
ampel
ampera
amplop
ampuh
ampun
amr
amran
amri
ams
amsal
amsterdam
amt
amun
amunisi
amuntai
amy
an
ana
anak
anakan
anakku
anaknya
anal
analis
analisa
analisis
analitik
analog
analogi
analysis
analytical
anand
ananda
anang
ananta
anarchism
anarkis
anarkisme
anas
anastasia
anastrepha
anatolia
anatoly
anatomi
anatomy
anc
ancaman
ancestry
anchor
anchorage
ancient
ancol
and
anda
andadiskusikan
andai
andal
andalan
andalas
andalus
andalusia
andaman
anderlecht
anders
andersen
anderson
andersson
andes
andesit
andhika
andhra
andi
andika
andil
andini
ando
andorra
andra
andre
andrea
andreas
andreeva
andrei
andretti
andrew
andrews
andrey
andri
android
andromeda
andrzej
andy
aneh
anehnya
aneka
aneksasi
anemia
ang
angan
ange
angel
angela
angeles
angelina
angelo
angelou
angels
anger
angga
anggap
anggapan
anggar
anggara
anggaran
anggota
anggotanya
anggrek
anggun
anggur
angie
angin
angka
angkasa
angkat
angkatan
angkatnya
angke
angket
angklung
angkola
angkor
angkot
angkuh
angkut
angkutan
angle
anglikan
anglo
angola
angry
angsa
angsur
angsuran
angus
anhui
ani
anies
anil
animal
animalia
animals
animasi
animated
animation
animator
anime
animisme
anion
anis
anita
anjing
anjlok
anjou
anjung
anjungan
anjuran
ankara
ann
anna
annales
annals
annapolis
anne
annette
annex
annie
annisa
anniversary
anno
annotated
announce
announced
announcement
announces
annual
annurev
ano
anolis
anom
anomali
anonim
anonymous
anorganik
another
ans
ansambel
answer
answers
ant
anta
antagonis
antar
antara
antaranews
antaranya
antarctic
antariksa
antariksawan
antarklub
antarkota
antarktika
antarmuka
antarnegara
antarstasiun
antartika
antasari
ante
antena
anterior
anthaxia
anthem
anthology
anthony
anthrax
anthropological
anthropology
anti
antibiotik
antibodi
antigen
antigua
antik
anting
antiokhia
antiokhos
antioksidan
antique
antiquities
antiquity
antisipasi
antivirus
antlers
anto
antoine
antoinette
antologi
anton
antoni
antonia
antonio
antonius
antonov
antony
antrian
antropolog
antropologi
antusias
antv
antwerp
antwerpen
anu
anugerah
anugrah
anumerta
anus
anwar
any
anya
anyaman
anyar
anyone
anything
ao
aoa
aoi
aoki
aol
aomori
aorta
aoyama
ap
apa
apabila
apache
apakah
apalagi
apapun
aparat
aparatur
apart
apartemen
apartheid
apartment
apbd
apbn
apc
ape
apec
apel
apg
api
apj
aplikasi
apocalypse
apollo
apostle
apostolic
apostolicae
apostolik
apotek
apoteker
app
appeal
appear
appearance
appeared
appears
appendix
apple
appleton
application
applications
applied
appointed
appoints
approach
approaches
approved
approves
apps
apr
apresiasi
april
aprilia
apt
apung
aq
aqua
aquarius
aquinas
aquino
aquitaine
ar
ara
arab
arabi
arabia
arabian
arabic
arabs
arafat
aragon
arah
arahan
arahnya
arai
arak
arakan
aram
araneae
araneidae
araneus
arang
aransemen
aras
arashi
arau
arbiter
arbitrase
arbor
arbuckle
arc
arca
arcade
arch
archaea
archaeological
archaeology
archbishop
archdiocese
arche
archer
archibald
archie
archimedes
archipelago
architect
architects
architectural
architecture
archive
archived
archives
arctic
ardi
are
area
areal
areas
arema
aren
arena
ares
arfak
arg
argentina
argentine
argo
argon
argos
argumen
argument
argumentasi
arh
ari
aria
arian
ariana
arie
arief
ariel
aries
arif
arifin
ario
aris
aristokrat
aristoteles
aristotle
aritmetika
arizona
arjun
arjuna
ark
arkais
arkansas
arkeolog
arkeologi
arkeologis
arktik
arles
arlington
arm
armada
armadanya
arman
armand
armando
arme
armed
armenia
armenian
armies
armor
armored
armour
arms
armstrong
army
arne
arnold
arok
aroma
aromatik
aron
arondisemen
arora
around
array
arrest
arrested
arrival
arrives
arrow
ars
arsenal
arsip
arsitek
arsitektur
arsy
arsyad
art
arte
artefak
artemis
arteri
artha
arthropoda
arthur
arti
artian
article
articles
artificial
artikel
artikelnya
artikulasi
artileri
artillery
artinya
artis
artist
artistik
artists
arts
arturo
aru
aruba
arum
arun
aruna
arung
arus
arwah
arxiv
ary
arya
aryan
aryo
as
asa
asad
asahan
asahi
asal
asalkan
asalnya
asam
asap
asas
asasi
ascii
asean
aseksual
asem
asep
aset
asetat
ash
asha
asher
ashgate
ashikaga
ashley
ashok
ashraf
ashton
asi
asia
asian
asiatic
asih
asilidae
asimilasi
asin
asing
asiria
asisten
ask
asked
asli
aslinya
asma
asmara
asmat
asn
aso
asoka
asops
asosiasi
asosiatif
asp
aspal
asparagales
aspects
aspek
aspergillus
aspirasi
aspx
asrama
asri
ass
assad
assam
assassin
assassination
assault
assembly
assessment
asset
assets
assist
assistance
assistant
associate
associated
associates
association
associations
assyrian
astana
asteraceae
asterales
asterisma
asteroid
asteroids
asti
aston
astra
astragalus
astrid
astro
astrologi
astronaut
astronom
astronomi
astronomical
astronomis
astronomy
astrophysical
astrophysics
asturias
astuti
asuh
asuhan
asuka
asumsi
asupan
asura
asuransi
asy
asyik
asyur
at
ata
atalanta
atambua
atap
atapnya
atari
atas
atasan
atasannya
atase
atasnya
atatu
atau
ataukah
ataupun
atawa
ateis
aten
ath
athanasius
athena
athens
athlete
athletes
athletic
athletics
ati
atjeh
atkins
atkinson
atlanta
atlantic
atlantik
atlantis
atlas
atle
atlet
atletik
atm
atma
atmosfer
atmosphere
atmospheric
atol
atom
atomic
atp
atr
atraksi
atribusi
atribut
atrium
ats
atsuko
atsushi
attack
attacks
attempt
attention
attila
attorney
aturan
atv
au
aubrey
auckland
audi
audience
audiens
audio
audiobantuan
audisi
audit
audition
auditor
auditorium
audrey
auf
aug
augsburg
august
augusta
auguste
augustin
augustine
augusto
augustus
auksilier
aula
aulia
aun
aung
aur
aura
auri
aurora
aus
auschwitz
austin
australasia
australia
australian
australis
austria
austrian
austriancharts
austronesia
austronesian
author
authorities
authority
authors
autisme
auto
autobiografi
autobiography
autobots
automatic
automobile
automotive
autonomous
autosport
autumn
aux
av
ava
available
avant
avatar
ave
avec
avengers
avenue
average
avery
avex
avi
aviation
avignon
aviv
avn
avril
aw
awak
awakening
awal
awalan
awalnya
awam
awan
awang
award
awarded
awards
awareness
awas
away
awet
ax
axel
axis
ay
aya
ayah
ayahanda
ayahandanya
ayahku
ayahnya
ayaka
ayam
ayat
ayer
ayo
ayrton
ayu
ayub
ayumi
ayunan
ayyub
az
azab
azad
azan
azas
azerbaijan
azeri
azhar
azhari
azis
aziz
azizah
azmi
aztek
azwar
b
ba
baal
bab
baba
babad
babak
babakan
babat
babe
babel
babi
babilonia
babu
baby
babylon
babylonian
bac
baca
bacaan
bacan
bach
bachchan
bachelor
bachtiar
back
background
backing
bacon
bacteria
bactrocera
bad
bada
badai
badak
badan
badannya
badar
badawi
baden
badminton
badui
badung
badut
bae
baek
baekje
bafta
bag
bagai
bagaikan
bagaimana
bagaimanakah
bagaimanapun
bagan
bagas
bagasi
bagdad
baghdad
bagi
bagian
bagiannya
bagikan
bagiku
bagimu
baginda
baginya
bagoes
bagong
bagus
bah
baha
bahadur
bahagia
bahagian
bahama
bahan
bahar
bahari
bahasa
bahasan
bahasanya
bahawa
bahaya
bahkan
bahn
bahrain
bahri
bahru
bahtera
bahu
bahwa
bahwasanya
bai
baidu
baik
baiklah
baiknya
bailey
baillargeon
bailly
baim
baird
bait
baitul
baja
bajaj
bajak
baji
bajo
baju
bak
baka
bakal
bakalan
bakar
bakat
bakatnya
bakau
baker
bakr
bakri
bakrie
bakso
bakteri
bakti
baktinya
baktria
baku
bakung
bal
bala
balada
balai
balance
balangan
balap
balapan
balas
balasan
baldwin
bale
balet
balfour
bali
balige
balik
balikpapan
baling
balistik
balita
balkan
balkans
ball
ballad
ballantine
ballet
ballroom
balok
balon
balsaminaceae
baltic
baltik
baltimore
bambang
bamboo
bambu
ban
banana
banarsidass
banco
band
banda
bandai
bandang
bandar
bandara
banding
bandingkan
bandit
bands
bandung
bandwidth
banerjee
bang
bangalore
bangau
banget
bangga
banggai
bangil
bangka
bangkai
bangkalan
bangkit
bangkitnya
bangko
bangkok
bangkrut
bangku
bangladesh
bangli
bangsa
bangsal
bangsanya
bangsawan
bangun
bangunan
bangunannya
bani
banjak
banjar
banjaran
banjarbaru
banjarmasin
banjarnegara
banjarsari
banjir
bank
banking
bankir
banks
banksia
banned
banner
bantaeng
bantal
bantalan
bantam
bantaran
banten
banteng
bantimurung
bantu
bantuan
bantul
banu
banua
banyak
banyaknya
banyu
banyuasin
banyumas
banyuwangi
bao
bapa
bapak
bapaknya
bappeda
bappenas
baptis
baptisan
baptist
baptiste
baqarah
bar
bara
barack
barak
barang
barangay
barangkali
barangsiapa
barat
barbados
barbar
barbara
barbarossa
barber
barbie
barbuda
barcelona
barclays
bare
barel
bareng
bareskrim
bari
baris
barisan
barito
barium
barker
barks
barlow
barnabas
barnard
barnes
barnett
barney
baro
baroe
barok
baron
barong
barongan
barr
barrett
barrie
barrier
barron
barrow
barru
barry
barrymore
bart
barth
bartlett
barton
baru
barulah
barunya
barus
bas
basa
basah
basal
base
baseball
based
basel
basi
basic
basics
basil
basilika
basin
basis
basket
basketball
baso
basque
basri
bass
bassett
bassis
bassist
bastian
basu
basuki
baswedan
bat
bata
batak
batal
batalion
batalyon
batam
batang
batangan
batanghari
batangnya
batara
batas
batasan
batasnya
batavia
bataviaasch
baterai
bates
bath
batik
batin
batista
batman
batoe
battery
battista
battle
battlefield
battles
battleship
batu
batuan
batubara
batuk
batur
baturaja
bau
baudouin
bauer
baut
bautista
bavaria
bawa
bawaan
bawah
bawahan
bawahannya
bawahnya
bawang
bawaslu
bawean
baxter
bay
baya
bayam
bayan
bayang
bayangan
bayangkan
bayar
bayaran
bayer
bayerisches
bayern
bayi
bayinya
bayu
bazaar
bb
bbc
bbm
bc
bca
bd
bdfutbol
be
bea
beach
beacon
beam
bean
bear
bears
beasiswa
beast
beasts
beat
beatles
beato
beatrice
beatrix
beats
beatty
beau
beaufort
beaumont
beautiful
beauty
beaux
beban
bebas
bebatuan
bebek
beberapa
bec
becak
became
because
beck
becker
beckett
beckham
becky
become
becomes
becoming
bed
beda
bedagai
bedah
bedanya
bede
bedford
bedil
bee
been
beer
beethoven
before
began
begin
begini
beginning
beginnings
begins
begitoe
begitu
begitulah
begonia
begoniaceae
begum
behavior
behavioral
behaviour
behind
bei
beijing
being
beirut
beit
bej
bejana
beji
bek
bekal
bekas
bekasi
bekerdja
bekerja
bekerjasama
beku
bel
bela
beladiri
belah
belahan
belajar
belaka
belakang
belakangan
belakangnya
belalang
belanda
belang
belanja
belantara
belarus
belarusia
belas
belasan
belawan
belenggu
belerang
belfast
belgia
belgian
belgium
belgrade
beli
belia
beliau
belief
beliefs
believe
belimbing
belitung
belize
bell
bella
bellamy
belle
bellmare
belo
belok
beloved
below
belt
belu
beluk
belukar
belum
belut
bem
ben
benang
benar
bencana
benci
benda
bendahara
bender
bendera
bendung
bendungan
benedict
benediktus
benefit
benefits
bener
benevento
benfica
beng
bengal
bengali
bengawan
benggala
bengkak
bengkalis
bengkayang
bengkel
bengkok
bengkulu
beni
benih
benin
bening
benito
benjamin
bennett
benny
bensin
benson
bentang
bentangan
benteng
benth
bentley
benton
bentrok
bentrokan
bentuk
bentukan
bentuknya
benturan
benua
benyamin
benz
benzena
beograd
bepergian
ber
berabad
beracun
berada
beradab
beradaptasi
beradik
beradu
berafiliasi
beragam
beragama
berair
berakar
berakhir
berakhirnya
berakibat
beraksi
berakting
beraktivitas
beralamat
beralasan
beralih
beraliran
beralkohol
berambut
beranak
beranda
beraneka
berang
beranggapan
beranggotakan
berangkat
berangsur
berani
beranjak
berantai
berantakan
berapa
berapi
berargumen
berarti
beras
berasa
berasal
berasosiasi
berat
beratap
beratnya
beraturan
berau
berawak
berawal
berbadan
berbagai
berbagi
berbahagia
berbahan
berbahasa
berbahaya
berbakat
berbakti
berbalik
berbanding
berbangsa
berbaring
berbaris
berbasis
berbatas
berbatasan
berbatu
berbau
berbaur
berbayar
berbeda
berbekal
berbelanja
berbelok
berbentuk
berber
berbiak
berbiaya
berbicara
berbincang
berbintik
berbisa
berbisnis
berbobot
berbohong
berbuah
berbuat
berbudi
berbukit
berbulan
berbulu
berbunga
berbunyi
berburu
bercabang
bercahaya
bercak
bercakap
bercampur
bercanda
bercerai
bercerita
bercinta
bercita
bercocok
bercorak
berdagang
berdakwah
berdamai
berdampak
berdampingan
berdarah
berdasar
berdasarkan
berdatangan
berdaulat
berdaun
berdaya
berdebat
berdekatan
berdiam
berdiameter
berdimensi
berdinas
berdiri
berdirilah
berdirinya
berdiskusi
berdjalan
berdoa
berdomisili
berdosa
berdua
berduet
berduka
berdurasi
berduri
bereaksi
berebut
beredar
beregu
berekor
berekspansi
bereksperimen
beremigrasi
berenang
berencana
bereproduksi
beretnis
berevolusi
berfirman
berfokus
berfungsi
berg
bergabung
bergambar
berganda
berganti
bergantian
bergantung
bergaris
bergaul
bergaya
bergegas
bergelar
bergelombang
bergen
bergengsi
bergenre
berger
bergerak
bergeser
bergman
bergulir
berguna
bergunung
berguru
berhadapan
berhak
berhala
berhalangan
berhaluan
berharap
berharga
berhari
berhasil
berhati
berhenti
berhubung
berhubungan
berhulu
beri
beribadah
beribu
berikan
berikatan
beriklim
berikut
berikutnya
berilah
beriman
berimigrasi
beringin
berinteraksi
berinvestasi
berirama
berisi
berisikan
berisiko
beristirahat
berita
beritahu
beritasatu
berjadwal
berjaga
berjalan
berjalannya
berjangka
berjanji
berjarak
berjasa
berjaya
berjenis
berjiwa
berjualan
berjuang
berjudul
berjumlah
berjumpa
berkabung
berkah
berkaitan
berkaki
berkala
berkali
berkampanye
berkantor
berkapasitas
berkarier
berkarya
berkas
berkat
berkata
berkatalah
berkebangsaan
berkebun
berkecepatan
berkecimpung
berkedudukan
berkeinginan
berkekuatan
berkelahi
berkelana
berkelanjutan
berkeley
berkeliaran
berkeliling
berkelompok
berkemah
berkembang
berkembangnya
berkenaan
berkenalan
berkenan
berkencan
berkendara
berkepala
berkepanjangan
berkepentingan
berkerabat
berkesempatan
berkesinambungan
berkewajiban
berkewarganegaraan
berkhianat
berkilau
berkiprah
berkisah
berkisar
berkobar
berkode
berkolaborasi
berkomentar
berkomitmen
berkompetisi
berkomunikasi
berkonsentrasi
berkonsultasi
berkontribusi
berkorban
berkshire
berkualitas
berkuasa
berkuda
berkuliah
berkulit
berkumpul
berkunjung
berkurang
berkurangnya
berlabuh
berlaga
berlainan
berlaku
berlakunya
berlalu
berlandaskan
berlangganan
berlangsung
berlangsungnya
berlanjut
berlantai
berlapis
berlari
berlatar
berlatih
berlawanan
berlayar
berlebih
berlebihan
berlian
berlibur
berlimpah
berlin
berlinale
berlindung
berliner
berlipat
berlisensi
berlokasi
berlomba
berlubang
berlutut
bermacam
bermain
bermakna
bermaksud
bermalam
bermanfaat
bermarga
bermarkas
bermasalah
bermasyarakat
bermata
bermatapencaharian
bermerek
bermesin
bermigrasi
bermimpi
berminat
bermitra
bermoral
bermotif
bermotor
bermuara
bermuatan
bermuda
bermukim
bermula
bermunculan
bermusik
bermusuhan
bermutu
bern
bernada
bernama
bernapas
bernard
bernardo
bernaung
bernd
bernegara
bernegosiasi
bernhard
berniat
bernie
bernilai
bernomor
bernstein
bernuansa
bernyanyi
bernyawa
beroda
berolahraga
beroleh
beroperasi
berorientasi
berpacaran
berpakaian
berpaling
berpandangan
berpangkat
berpartisipasi
berpasangan
berpasir
berpedoman
berpegang
berpendapat
berpendidikan
berpenduduk
berpengalaman
berpengaruh
berpenghasilan
berpenghuni
berperan
berperang
berperilaku
berperingkat
berpesan
berpidato
berpihak
berpikir
berpikiran
berpindah
berpisah
berpori
berposisi
berpotensi
berprestasi
berprofesi
berpuasa
berpulang
berpuluh
berpuncak
berpura
berpusat
berputar
berputra
berry
bersabda
bersahabat
bersaing
bersaksi
bersalah
bersalin
bersama
bersamaan
bersamanya
bersambung
bersandar
bersangkutan
bersantai
bersarang
bersatu
bersaudara
bersayap
bersebelahan
berseberangan
bersedia
bersedih
bersejarah
bersekolah
bersekutu
berselang
berselingkuh
berselisih
bersemangat
bersemayam
bersembunyi
bersenang
bersenjata
bersentuhan
bersepakat
bersepeda
berseri
bersertifikat
berseru
bersiap
bersiaran
bersidang
bersifat
bersih
bersikap
bersikeras
bersimpati
bersinar
bersinonim
berskala
berspekulasi
berstatus
bersuara
bersuku
bersumber
bersumpah
bersyarat
bersyukur
bert
bertabrakan
bertahan
bertahap
bertahta
bertahun
bertajuk
bertakhta
bertambah
bertambahnya
bertanda
bertanding
bertanggal
bertanggung
bertanggungjawab
bertangkai
bertani
bertanya
bertapa
bertaraf
bertarikh
bertarung
bertekad
bertekanan
bertelur
bertema
bertemakan
berteman
bertempat
bertempur
bertemu
bertenaga
bertengger
bertengkar
bertentangan
bertepatan
berteriak
berterima
bertetangga
bertha
bertiga
bertikai
bertindak
bertingkah
bertingkat
bertipe
bertiup
bertobat
bertolak
bertrand
bertubuh
bertugas
bertujuan
bertukar
bertulang
bertuliskan
bertumbuh
bertumpu
bertunangan
berturut
bertutur
beru
beruang
berubah
berujung
berukuran
berulang
berumah
berumur
berunding
beruntun
beruntung
berupa
berupaya
berurusan
berurutan
berusaha
berusia
berutang
bervariasi
berwajah
berwarna
berwawasan
berwenang
berwujud
berziarah
bes
besar
besaran
besarnya
beserta
besi
besok
best
bet
beta
betapa
betawi
beth
bethany
betina
betis
betlehem
betoel
beton
better
betty
betul
betung
between
beverly
bevo
bew
bey
beyonce
beyond
bf
bfi
bg
bh
bha
bhakti
bharat
bharata
bhatara
bhatt
bhayangkara
bhd
bhikkhu
bhre
bhutan
bi
biak
bian
bianca
bianchi
biang
biao
biar
biara
biarawan
biarawati
biarkan
biarlah
biarpun
bias
biasa
biasanya
biawak
biaya
biayanya
bibcode
bibel
bibi
bibinya
bibir
bibit
bible
biblical
bibliografi
bibliography
biblioteca
bibliothe
bibliotheca
bicara
bicarakan
bid
bidadari
bidan
bidang
bidangnya
biden
bie
bieber
biennale
big
bigbang
bigg
bigger
biggest
bihar
bij
bijak
bijaksana
bijdragen
biji
bijian
bijih
bijinya
bike
bikin
bikini
biksu
bila
bilah
bilamana
bilancio
bilang
bilangan
bilateral
bilbao
bilik
bilingual
bill
billah
billboard
billie
billion
bills
billy
bima
bimbingan
bimo
bin
bina
binaan
binapemdes
binary
binasa
binatang
bincang
binding
biner
bing
bingen
bingkai
bingung
bini
binjai
binomial
bintan
bintang
bintara
bintaro
binti
bintik
bintuni
bio
biochemistry
biodata
biodiversity
biografi
biographical
biographie
biographies
biography
biokimia
biol
biola
biologi
biological
biologis
biology
biomassa
bios
bioskop
biota
biotechnology
bioteknologi
bipolar
bir
biran
birch
bird
birdlife
birds
bireuen
birma
birmingham
biro
birokrasi
birokrat
birth
birthday
biru
bis
bisa
bisbol
bisby
biseksual
bishop
bishops
biskuit
bisma
bismarck
bisnis
bisnisnya
bison
bissau
bisu
bit
bita
bitcoin
bitter
bitung
bius
biz
bizantin
bizantium
bizarre
bj
bjo
bk
bkr
bl
blabbermouth
black
blackberry
blackburn
blackpink
blackwell
blade
blair
blake
blambangan
blanc
blanche
blanchett
blanco
blang
blank
blast
blasteran
bleach
bless
blessed
blica
blind
blink
bliss
blitar
bloch
block
blockbuster
blockchain
blog
blogger
blogs
blogspot
blok
blokade
blommendaal
blonde
blood
bloody
bloom
bloomberg
bloomington
bloomsbury
blora
blow
blu
blue
blues
bluetooth
blum
blume
bm
bmatrix
bmc
bmg
bmi
bmj
bmkg
bmw
bn
bni
bo
boa
boalemo
board
boas
boat
bob
bobby
bobo
boboiboy
bobot
boca
bocah
bocor
bode
bodhi
bodi
bodies
bodoh
body
boe
boeat
boeing
boekan
boemboe
boer
boga
bogor
bogota
bohemia
bohong
bohr
boikot
bois
boiss
bojonegoro
bojong
bok
boku
bola
bolaang
bolak
bolango
bolasport
bold
bole
boleh
bolesław
boletina
boli
bolivia
bollywood
bologna
bolong
bolshevik
bolt
bolton
bom
bomb
bombardier
bombay
bomber
bombing
bombs
bombyliidae
bombylius
bon
bona
bonang
bonaparte
bond
bondan
bondowoso
bone
boneka
bones
bong
bongkar
bonjol
bonn
bonnie
bono
bontang
bonto
bontoa
bonus
boo
boogie
book
booklet
books
boolean
boom
boomerang
boon
boost
boot
booth
boots
bor
bora
bordeaux
border
borders
borg
boris
borjuis
born
borneo
borobudur
boron
borough
boru
borussia
borys
bos
bosan
bosch
bosco
bose
bosnia
boss
boston
bosworth
bot
botak
botani
botanic
botanical
botany
both
botol
botswana
bottas
bottom
bougainville
boulder
boulenger
boulevard
boulogne
bound
boundaries
boundary
bounty
bourbon
bourgogne
bourgoin
bourne
boushaki
boven
bow
bowen
bowie
bowl
bowling
bowman
box
boxer
boxing
boxofficemojo
boy
boyband
boyd
boydell
boyer
boyfriend
boyle
boyolali
boys
boyz
bp
bpd
bpi
bpk
bppt
bps
br
bra
brabant
brace
brad
bradford
bradley
brady
braga
brahma
brahmana
brahmi
braille
brain
bram
branch
brand
brandenburg
branding
brandon
brands
brandt
brantas
brasil
brass
brata
bratislava
braun
braunschweig
brave
bravo
brawijaya
bray
brazil
brazilian
bre
bread
break
breakdown
breakfast
breaking
breaks
breakthrough
breath
brebes
breda
bremen
brenda
brendan
brennan
brent
brescia
brest
bretagne
brett
breuning
brevet
brewer
brewster
brexit
bri
brian
brick
bride
bridge
bridges
brie
brief
briefing
brien
brigade
brigadir
briggs
bright
brighton
brigif
brigjen
brill
brilliant
brimob
bring
bringing
brings
brisbane
bristol
brit
britain
britania
britannia
britannica
british
britney
brittany
britton
broad
broadband
broadcast
broadcasting
broadway
brock
brody
broke
broken
bromo
bromwich
bronx
bronze
brook
brooke
brooklyn
brooks
bros
brosur
brother
brothers
brought
brown
browne
browning
browse
browser
brt
bru
bruce
bruder
brunei
bruno
brunswick
brussel
brussels
brutal
bruto
bryan
bryant
bryce
bs
bsc
bsd
bt
btr
bts
bu
buah
buahan
buahnya
buana
buang
buangan
buas
buat
buatan
buatannya
buaya
bubar
bubble
bubbling
bubuk
bubungan
bubur
buchanan
bucharest
buck
buckingham
buckley
bud
buda
budak
budapest
budaya
budayanya
budayawan
buddha
buddhis
buddhism
buddhisme
buddhist
buddy
budget
budha
budi
budidaya
budiman
buenos
buffalo
bug
bugguide
bugis
bugs
buih
build
building
buildings
built
bujang
bujur
buka
bukaan
bukan
bukankah
bukanlah
bukannya
bukhari
bukit
bukittinggi
bukti
buku
bukunya
bulan
bulanan
bulannya
bulat
bulbophyllum
buleleng
buletin
bulgaria
bulgarian
bulir
bull
bulla
bullet
bulletin
bullock
bulls
bulu
buluh
bulukumba
bulungan
bulunya
bulus
bulutangkis
bum
bumbu
bumi
bumiputera
bumn
bun
bunda
bundar
bundaran
bundesliga
bundesverfassungsgerichts
bundy
bung
bunga
bunganya
bunge
bungkus
bungo
bungsu
bunker
bunko
bunny
buntu
bunuh
bunyi
bunyinya
buol
bupati
buprestidae
buprestis
buprestoidea
bureau
burger
burgess
burhan
burhanuddin
burial
buritan
burke
burkina
burlington
burma
burmese
burn
burnett
burning
burnley
burns
buronan
bursa
burt
burton
buru
buruan
buruh
buruk
buruknya
burundi
burung
bury
bus
busa
busan
busana
busch
bush
business
businessweek
buster
busuk
busur
but
buta
butik
butir
butiran
butler
buton
butterfly
butterworth
button
butuh
buwono
buy
buya
buys
buyung
buyut
buzz
bv
bw
bwf
by
bye
byrne
byron
byte
byung
byz
byzantine
byzantium
c
ca
cab
cabai
cabang
cabangnya
cabe
cabinet
cable
cabrera
cacar
cacat
cache
cacing
cadang
cadangan
caesar
caf
cafe
cagar
cage
cagliari
cahaya
cahya
cai
cain
cair
cairan
cairo
caitlin
cak
cakap
cakar
cake
cakra
cakram
cakrawala
cakung
cakupan
cal
calabria
calais
calcarea
calcio
calculus
calcutta
caldwell
caleg
calendar
calgary
california
call
callaghan
called
calling
calls
callyspongia
calon
calvin
cam
camat
camba
cambodia
cambridge
cambuk
came
cameo
camera
cameron
cameroon
camilan
camilla
camille
camp
campaign
campaigns
campania
campbell
campeonato
camping
campo
campos
camps
campur
campuran
campus
can
canada
canadian
canal
canary
canberra
cancer
candi
candidate
candidates
candra
candu
candy
canggih
cangkang
cangkir
cannes
cannon
cannot
canon
canterbury
canthidium
canthon
cantik
canton
canvas
canyon
cao
cap
capacity
capai
capaian
cape
capital
capitalism
capitani
capitol
capo
caporiacco
capsule
captain
capture
car
cara
caracas
caranya
carbon
card
cardiff
cardinal
cardinals
cards
care
career
carex
carey
cargo
cari
caribbean
carik
carita
carl
carla
carlo
carlos
carlson
carlton
carly
carmen
carnegie
carnival
carol
carole
carolina
caroline
carolyn
carpenter
carr
carrefour
carrie
carrier
carroll
carry
cars
carson
cart
carter
cartoon
cary
cas
casa
casablanca
case
cases
casey
cash
casino
cass
cassell
cassidy
cassius
cast
castilla
castillo
casting
castle
castro
casts
cat
catalan
catalog
catalogue
catalunya
catania
catat
catatan
catch
cate
catechism
categories
category
cathedral
catherine
catholic
catholica
cathy
cato
cats
catur
caucasus
caught
causa
cause
caused
causes
cave
cavendish
caves
cawan
cawang
cayman
cb
cbc
cbd
cbn
cbs
cc
cctv
cd
cdc
cdma
cdot
cdots
ce
cebu
cecil
cecilia
cedera
cek
ceko
cekoslowakia
cekungan
celah
celaka
celana
celcius
celebes
celebrate
celebrates
celebrating
celebration
celebrities
celebrity
celestial
celia
celine
cell
cello
cells
cellular
celtic
cemara
cemas
cembung
cemburu
cemerlang
cemetery
cempaka
cena
cendana
cendekia
cendekiawan
cenderawasih
cenderung
cendrawasih
cengage
cengkareng
cengkeh
cengkih
cenrana
census
cent
centennial
center
centers
central
centre
centro
centuries
century
ceo
cepat
cepu
cerah
cerai
ceramah
cerambycidae
cerdas
cerdik
ceremony
ceres
cerezo
ceria
cerita
ceritanya
cermat
cermin
ceroboh
cerodontha
cerpen
certain
certificate
certification
certifications
certified
ceruk
ces
cesar
cesare
ceska
cessna
cet
cetak
cetakan
cewek
ceylon
cf
cfm
cg
cgi
ch
cha
chad
chadwick
chae
chai
chain
chains
chair
chairil
chairman
challenge
challenger
challenges
cham
chamber
chamberlain
chamberlin
chambers
champ
champa
champagne
champion
champions
championship
championships
chan
chance
chancellor
chand
chandler
chandra
chang
change
changed
changes
changi
changing
channel
channels
chao
chaos
chapel
chaplin
chapman
chapter
chapters
char
character
characteristics
characterization
characters
charge
charged
charity
charlemagne
charles
charleston
charlie
charlotte
charlton
charm
chart
charter
charts
chase
chat
chatterjee
chau
che
chechnya
check
checklist
cheese
chef
chelsea
chelseafc
chem
chemical
chemicals
chemie
chemistry
chen
cheney
cheng
chengdu
chennai
cheol
cher
chernobyl
cherry
cheryl
chess
chester
cheung
chevalier
chevrolet
chhu
chi
chia
chiang
chiba
chicago
chichester
chick
chicken
chief
chika
child
childhood
children
chile
chili
chin
china
chinatown
chinese
ching
chip
chironomidae
chisholm
chiu
chloe
chlorophorus
cho
chocolate
choe
choi
choice
choir
chola
chomsky
chong
chongqing
choose
chopra
chorus
chosen
chosun
chou
chow
chris
christ
christchurch
christensen
christi
christian
christianity
christians
christie
christina
christine
christmas
christoph
christophe
christopher
christy
chrisye
chrome
chronic
chronicle
chronicles
chronology
chrysler
chrysobothris
chu
chua
chuck
chul
chun
chung
church
churches
churchill
ci
cia
ciamis
cianjur
cibinong
cibubur
cicero
cicit
cid
cie
cik
cikal
cikampek
cikarang
cilacap
cilandak
ciledug
cilegon
cileungsi
cilik
ciliwung
cimahi
cina
cincang
cincin
cincinnati
cinderella
cindy
cine
cinema
cinemas
cinemascore
cinematic
cineplex
cinta
cintai
cintaku
cintamu
cintanya
cio
cipinang
cipt
cipta
ciptaan
ciptaannya
ciptakan
cipto
ciputat
ciputra
circ
circle
circuit
circular
circulation
circus
cirebon
ciri
cis
cisco
cit
cita
citadel
citanya
citation
cite
cited
cites
cities
citizen
citizens
citizenship
citra
citroe
citta
city
ciudad
ciuman
civic
civil
civilian
civilization
civilizations
cj
ck
cl
claim
claims
claire
clan
clancy
clara
clare
clarence
clarendon
clark
clarke
clarkson
clash
class
classes
classic
classical
classics
classification
classifying
classroom
clathria
claude
claudia
claudio
claudius
claus
clay
clayton
cle
clean
clear
clemens
clement
cleopatra
clermont
cleveland
click
client
cliff
clifford
climate
clin
clinic
clinical
clint
clinton
clio
clip
clive
clock
clojure
close
closed
closer
closing
cloud
clouds
clover
club
clubs
cluster
clyde
cm
cms
cn
cnbc
cnet
cnn
co
coach
coal
coalition
coast
coastal
coates
coauthors
coba
cobaan
cobra
coburg
coca
cochrane
coco
cocok
cocos
code
codes
codeshare
codex
cody
coe
coen
coffee
cogn
cognitive
cohen
cohn
coin
coins
cokelat
coklat
col
cola
cold
coldplay
cole
coleman
coleoptera
coli
colin
coll
collaboration
collapse
collected
collection
collections
collective
collector
college
colleges
collider
collier
collins
colo
cologne
colombia
colombo
colonel
colonial
colony
color
colorado
colors
colour
columbia
columbus
column
columns
com
combat
combined
combinedfleet
comcast
come
comeback
comedy
comes
comet
comets
comfort
comic
comics
coming
comingsoon
command
commander
comment
commentary
comments
commerce
commercial
commission
commissioner
committee
commodore
common
commons
commonwealth
commune
communication
communications
communism
communist
communities
community
commuter
como
compact
compagnie
companies
companion
company
comparative
compared
comparison
compass
compendium
competition
competitions
compilation
compiled
complete
completed
completes
complex
component
composer
composition
compound
compounds
comprehensive
compton
computational
computer
computers
computing
comte
comtesse
comune
comuni
con
conan
concacaf
concept
concepts
concern
concerning
concert
concerto
concise
concord
conde
conder
condition
conditions
condong
condor
confederation
conference
confession
confessions
confirm
confirmed
confirms
conflict
conflicts
cong
congo
congress
congressional
conmebol
conn
connect
connected
connecticut
connection
connell
connie
connor
conquer
conquest
conrad
conradus
conscience
consciousness
consequences
conservation
conservative
considered
consolidated
consortium
conspiracy
constable
constance
constant
constantine
constantinople
constellation
constitution
constitutional
construction
consulting
consumer
consumption
contact
containing
contains
conte
contemporary
content
contents
contest
context
continental
continue
continued
continues
continuum
contoh
contohnya
contra
contract
contribution
contributions
control
controlled
controller
controversial
controversy
convention
conversation
conversations
conversion
conway
cook
cooke
cookie
cooking
cool
cooper
cooperation
cooperative
cop
copa
cope
copenhagen
copies
coppa
copper
copris
coptic
copy
copyright
cor
corak
coral
core
corey
cork
cornelia
cornelis
cornelius
cornell
corner
cornwall
corolla
corona
coronavirus
corong
corp
corpora
corporate
corporation
corps
corpus
correspondence
correspondent
corruption
corte
cortez
cory
cos
cosmic
cosmo
cosmopolitan
cosmos
cost
costa
costume
cot
cotton
could
coulthard
council
count
countdown
counter
countess
counties
countries
country
county
coup
coupe
couple
courage
courant
courier
course
court
courtney
courts
cov
covenant
cover
coverage
covers
covid
cowboy
cowell
cowok
cox
cp
cpm
cpu
cr
craft
craig
crane
crash
crashes
craven
crawford
crazy
crc
cre
cream
create
created
creating
creation
creative
creator
creatures
credit
credits
creed
creek
crescent
cretaceous
crew
cricket
crime
crimea
crimes
criminal
crimson
crisis
cristiano
cristina
cristo
criterion
critic
critical
criticism
critics
critique
croatia
croatian
crocidura
crocker
croix
cromwell
crore
crosby
cross
crossing
crossover
crossroads
crow
crowd
crowe
crown
crowned
cruise
cruiser
cruises
crunchyroll
crusade
crusades
crush
cruz
cry
crystal
crystalyn
cs
csi
cska
css
ct
ctor
ctv
cu
cuaca
cuba
cuban
cube
cuci
cucu
cucunya
cucurbitales
cuisine
cuka
cukai
cukup
cukur
cullen
cult
cultura
cultural
culture
cultures
cum
cuma
cumi
cummings
cumulative
cunningham
cup
cuplikan
curac
curah
curam
curang
cure
curiga
curious
curletti
curlie
currency
current
curriculum
curry
curse
curtis
curug
curup
curve
custom
customer
customs
cut
cuti
cuts
cutting
cv
cw
cx
cy
cyber
cycle
cycling
cyclone
cynthia
cyperaceae
cyperus
cyprus
cyril
cyrus
cyworld
cz
czech
czi
d
da
daan
dacus
dad
dada
dadang
dadanya
daddy
dadi
dadu
dae
daegu
daendels
daeng
daerah
daerahnya
dafif
daftar
daftarbahasa
daftarnya
dag
dagang
dagangan
daging
dagingnya
dagu
dah
daha
dahan
dahi
dahl
dahlan
dahlia
dahoeloe
dahsyat
dahsyatnya
dahulu
dahulunya
dai
daigo
daihatsu
daily
daimler
daimyo
dairi
dairy
daisuke
daisy
dak
dakar
dakota
dakwaan
dakwah
dal
dalai
dalam
dalamnya
dalang
dale
dalem
dali
dalih
dalil
dallas
dalton
daly
dam
damage
damai
damanik
damar
damaskus
dame
damian
damien
damon
dampak
dampaknya
damri
dan
dana
danang
danau
dance
dancer
dancing
dandim
dane
dang
dangdut
danger
dangerous
dangkal
dani
daniel
danielle
daniels
danish
danny
danrem
dans
dansa
dante
danton
danu
danube
danyon
danyonif
dao
daon
dapat
dapatkan
dapatlah
dapil
dapobas
dapodik
dapur
dar
dara
darah
darahnya
darat
daratan
dare
dari
daring
darinya
daripada
daripadanya
darius
darjah
dark
darkness
darling
darma
darmawan
darmstadt
darrell
darren
darul
darurat
darussalam
darwin
darwis
das
dasar
dasarnya
dasawarsa
dash
dassault
dat
data
databahasa
database
datang
datanglah
datangnya
datar
dataran
date
dated
dateng
datenverarbeitung
dates
dati
dating
dato
datu
datuak
datuk
dau
daud
daughter
daughters
daum
daun
daunnya
daur
davao
dave
davenport
david
davidson
davies
davis
davy
dawai
dawkins
dawn
dawson
dawud
day
daya
dayah
dayak
dayang
days
daytona
dayung
db
dc
dd
de
dea
dead
deadline
deadly
deal
dealer
dean
dear
death
deaths
debat
debate
debbie
debby
debian
debit
debitur
deborah
debra
debt
debu
debut
debutnya
debuts
dec
decade
decades
decay
deccan
december
decepticons
decision
decisions
deck
declaration
declared
decline
dedaunan
deddy
dede
dedi
dedicated
dedikasi
dedy
dee
deep
deer
def
default
defeat
defence
defender
defense
defensif
defined
definisi
definitif
definition
definitions
definitive
defisiensi
defisit
degeneres
degli
degradasi
degree
deh
dehidrasi
dei
dek
dekade
dekan
dekat
dekatnya
dekker
deklarasi
dekomposisi
dekorasi
dekoratif
dekret
dekrit
del
delapan
delaware
delay
delayed
delegasi
delft
delhi
deli
delik
delima
delivered
delivery
dell
della
delle
dello
delphi
delta
deluxe
dem
demak
demam
demand
demang
demeter
demetrios
demetrius
demi
demikian
demikianlah
demo
democracy
democratic
demografi
demografico
demographic
demographics
demokrasi
demokrat
demokratik
demokratis
demon
demonax
demons
demonstran
demonstrasi
demospongiae
den
denda
dendam
dendrobium
dendy
deng
dengan
dengannya
dengar
dengarkan
dengeki
dengen
denial
denis
denise
denma
denmark
dennis
denny
denominasi
denpasar
densitas
density
dental
denver
denys
denyut
depan
depannya
departemen
department
depati
depdikbud
dependensi
dependent
depo
depok
deportasi
deportivo
deposit
deposito
depot
depresi
depression
dept
depth
depuis
deputi
deputy
der
derajat
deras
derby
derbyshire
derek
deret
deretan
derita
derivatif
derived
dermaga
dermawan
des
desa
desai
desain
desainer
desainnya
desakan
desanya
desas
descartes
descendants
described
description
descriptions
desember
desentralisasi
deseret
desert
desi
design
designed
designer
designs
desimal
desire
desk
deskripsi
deskriptif
desktop
desmond
despite
destinasi
destination
destiny
destroyer
destroyers
destruction
desus
desy
det
detail
detailed
details
detak
detasemen
detection
detective
deteksi
detektif
detektor
determination
detik
detikcom
detiknews
detroit
deus
deutsch
deutsche
deutschen
deutscher
deutsches
deutschland
deux
dev
deva
developed
developer
developers
developing
development
developments
devi
device
devices
devil
devisa
devon
dewa
dewan
dewanagari
dewantara
dewasa
dewata
dewey
dewi
dexter
df
dfb
dg
dh
dhabi
dhaka
dhamma
dhani
dharma
dharmasraya
dhl
di
dia
diabadikan
diabaikan
diabetes
diadakan
diadakannya
diadaptasi
diadili
diadopsi
diafragma
diagnosis
diagnostik
diagonal
diagram
diah
diajak
diajarkan
diajukan
diakhiri
diakibatkan
diakon
diakritik
diakses
diaktifkan
diakui
diakuisisi
dialah
dialami
dialaminya
dialect
dialects
dialek
dialektika
dialektometri
dialihkan
dialiri
dialog
dialogue
dialokasikan
diam
diamati
diambil
diameter
diamond
diamonds
diampuni
dian
diana
dianalisis
diancam
diandalkan
diane
dianeksasi
dianggap
dianggapnya
diangkat
diangkut
dianiaya
dianjurkan
dianne
diantar
diantara
diantaranya
dianugerahi
dianugerahkan
dianut
diapit
diaplikasikan
diarahkan
diaransemen
diare
diaries
diario
diarsipkan
diartikan
diary
dias
diasingkan
diasosiasikan
diaspora
diasuh
diasumsikan
diatas
diatasi
diatur
diawali
diawasi
diawetkan
diaz
dibaca
dibacakan
dibagi
dibagian
dibagikan
dibahas
dibakar
dibalik
dibanding
dibandingkan
dibangkitkan
dibangun
dibangunnya
dibantah
dibantai
dibantu
dibaptis
dibatalkan
dibatasi
dibawa
dibawah
dibawakan
dibawanya
dibayangkan
dibayar
dibayarkan
dibebankan
dibebaskan
dibedakan
dibekukan
dibelah
dibelakang
dibeli
dibenarkan
dibenci
dibentuk
dibentuklah
dibentuknya
diberangkatkan
diberhentikan
diberi
diberikan
diberikannya
diberitahu
diberitahukan
diberitakan
diberkati
diberlakukan
dibersihkan
dibesarkan
dibiarkan
dibiayai
dibicarakan
dibidang
dibilang
dibina
dibintangi
diblokir
dibongkar
dibuang
dibuat
dibuatkan
dibuatnya
dibubarkan
dibudidayakan
dibujuk
dibuka
dibukanya
dibuktikan
dibumbui
dibungkus
dibunuh
diburu
dibutuhkan
dicabut
dicalonkan
dicampur
dicanangkan
dicantumkan
dicap
dicapai
dicari
dicat
dicatat
dicegah
diceritakan
dicetak
dicetuskan
dichotomius
dicintai
diciptakan
dicirikan
dick
dickens
dickinson
dickson
dicky
dicoba
dicopot
dictionaries
dictionary
dictionnaire
dicuci
diculik
dicuri
dicurigai
did
didaerah
didaftarkan
didahului
didakwa
didalam
didalamnya
didampingi
didanai
didapat
didapati
didapatkan
didasari
didasarkan
didatangi
didatangkan
didaur
didedikasikan
didefinisikan
didekati
dideklarasikan
didengar
dideportasi
diderita
dideritanya
didesain
dideskripsikan
dideteksi
didi
didiagnosis
didiami
dididik
didier
didih
didik
didikan
didinginkan
didirikan
didirikannya
didiskualifikasi
didistribusikan
didn
didokumentasikan
didominasi
didorong
diduduki
diduga
didukung
didunia
die
died
diedarkan
diedit
diego
dieja
dieksekusi
diekspor
diekspresikan
dien
dieng
dies
diesel
diet
dieter
dietrich
dievakuasi
dievaluasi
difabel
diferensial
diferensiasi
difference
differences
different
differential
difilmkan
difokuskan
difungsikan
difusi
digabung
digabungkan
digagas
digali
digambar
digambarkan
diganggu
diganti
digantikan
digantung
digarap
digelar
digemari
digerakkan
digest
digimon
digit
digital
digitalisasi
digoel
digolongkan
digoreng
digubah
digulingkan
digunakan
digunakannya
dihabiskan
dihadapan
dihadapi
dihadapkan
dihadiri
dihadirkan
dihancurkan
dihapus
dihapuskan
diharapkan
dihargai
diharuskan
dihasilkan
dihentikan
dihiasi
dihidangkan
dihidupkan
dihilangkan
dihimpun
dihindari
dihitung
dihormati
dihubungkan
dihukum
dihuni
diidentifikasi
diidentifikasikan
diijinkan
diikat
diikuti
diikutsertakan
diilhami
diilustrasikan
diimplementasikan
diimpor
diingat
diinginkan
diintegrasikan
diiringi
diisi
diisolasi
diizinkan
dijabarkan
dijabat
dijadikan
dijadwalkan
dijaga
dijajah
dijalani
dijalankan
dijamin
dijangkau
dijanjikan
dijarah
dijatuhi
dijatuhkan
dijawab
dijelaskan
dijodohkan
dijual
dijuluki
dijumpai
dik
dika
dikabarkan
dikabulkan
dikagumi
dikaitkan
dikaji
dikalahkan
dikalangan
dikandung
dikarang
dikarenakan
dikaruniai
dikatakan
dikategorikan
dikawal
dikebumikan
dikecualikan
dikehendaki
dikejar
dikelilingi
dikelola
dikelompokkan
dikeluarkan
dikeluarkannya
dikemas
dikembalikan
dikembangkan
dikemukakan
dikenai
dikenakan
dikenal
dikenali
dikenalkan
dikenang
dikendalikan
dikendarai
dikepalai
dikepung
dikerahkan
dikeringkan
dikerjakan
diketahui
diketemukan
diketuai
dikhawatirkan
dikhianati
dikhususkan
dikibarkan
dikira
dikirim
dikirimkan
dikisahkan
diklaim
diklapa
diklasifikasikan
diklat
dikombinasikan
dikomposisikan
dikonfirmasi
dikonsumsi
dikontrak
dikontrol
dikonversi
dikosongkan
dikreditkan
dikritik
diktator
dikti
dikuasai
dikubur
dikuburkan
dikukuhkan
dikukus
dikumpulkan
dikunjungi
dikurangi
dikurung
dikutip
dikutuk
dil
dilacak
dilafalkan
dilahirkan
dilaksanakan
dilakukan
dilakukannya
dilalui
dilambangkan
dilancarkan
dilanda
dilandasi
dilanggar
dilangsungkan
dilanjutkan
dilantik
dilapisi
dilaporkan
dilarang
dilarikan
dilatarbelakangi
dilatih
dilayani
dilebur
dilema
dilemma
dilempar
dilemparkan
dilengkapi
dilepas
dilepaskan
dilestarikan
diletakkan
dilewati
dili
dilibatkan
dilihat
dilihatnya
dilindungi
dilintasi
dilipat
diliputi
dilisensikan
dillon
diluar
dilukis
diluncurkan
dilupakan
dimahkotai
dimainkan
dimajukan
dimakamkan
dimakan
dimaknai
dimaksud
dimaksudkan
dimana
dimanfaatkan
dimas
dimasa
dimasak
dimasukan
dimasuki
dimasukkan
dimatikan
dimekarkan
dimenangkan
dimengerti
dimensi
dimension
dimensional
dimensions
dimiliki
dimilikinya
diminati
diminta
diminum
dimitri
dimodifikasi
dimuat
dimulai
dimulainya
dimuliakan
dimunculkan
dimungkinkan
dimusnahkan
dimutasi
din
dina
dinaikkan
dinamai
dinamakan
dinamika
dinamis
dinamo
dinar
dinas
dinasti
dinda
dinding
ding
dingin
dini
dinikahi
dinikahkan
dinikmati
dinilai
diniyah
dinner
dino
dinobatkan
dinominasikan
dinonaktifkan
dinosaur
dinosaurs
dinosaurus
dinyalakan
dinyanyikan
dinyatakan
dio
diobati
diocese
dioecesis
dioksida
diolah
dion
dionisos
dioperasikan
dioptimalkan
diorganisir
dipa
dipadamkan
dipadukan
dipahami
dipahat
dipajang
dipakai
dipaksa
dipaksakan
dipamerkan
dipanaskan
dipancarkan
dipandang
dipandu
dipanen
dipanggang
dipanggil
dipasang
dipasangkan
dipasarkan
dipasok
dipastikan
dipatenkan
dipati
dipecah
dipecahkan
dipecat
dipegang
dipekerjakan
dipelajari
dipelihara
dipelopori
dipengaruhi
dipenggal
dipenjara
dipenjarakan
dipentaskan
dipenuhi
diperankan
diperbaharui
diperbaiki
diperbantukan
diperbarui
diperbesar
diperbolehkan
diperbuat
dipercaya
dipercayai
dipercayakan
dipercepat
diperdagangkan
diperdebatkan
diperebutkan
dipergunakan
diperhatikan
diperhitungkan
diperiksa
diperingati
diperintah
diperintahkan
diperkaya
diperkenalkan
diperkenankan
diperkirakan
diperkosa
diperkuat
diperlakukan
diperlihatkan
diperluas
diperlukan
diperoleh
diperolehnya
diperpanjang
dipersatukan
dipersembahkan
dipersenjatai
dipersiapkan
dipertahankan
dipertandingkan
dipertanyakan
dipertemukan
dipertimbangkan
dipertuan
dipertunjukkan
dipertuturkan
diperuntukkan
dipesan
dipicu
dipidana
dipikirkan
dipilih
dipimpin
dipimpinnya
dipindah
dipindahkan
dipinjam
dipinjamkan
dipisah
dipisahkan
diploma
diplomacy
diplomasi
diplomat
diplomatic
diplomatik
dipol
diponegoro
dipopulerkan
diposisikan
dipotong
diprakarsai
dipraktikkan
diprediksi
diproduksi
diproduseri
dipromosikan
diproses
diproyeksikan
diptera
dipublikasikan
dipuja
dipuji
dipukul
dipukuli
dipulangkan
dipulihkan
dipungut
dipusatkan
diputar
diputus
diputuskan
dir
diragukan
dirahasiakan
diraih
diraja
dirakit
dirampas
dirancang
dirasa
dirasakan
diratifikasi
dirawat
dirayakan
direbus
direbut
direct
directed
direction
directions
director
directorate
directors
directory
direduksi
direkam
direkomendasikan
direkonstruksi
direkrut
direksi
direktorat
direktori
direktur
direncanakan
direndam
direnovasi
direpresentasikan
diresmikan
direvisi
dirgantara
diri
dirikan
diriku
dirilis
dirilisnya
dirimu
dirinja
dirintis
dirinya
diriwayatkan
dirjen
dirk
dirty
dirugikan
dirujuk
dirumah
dirumuskan
dirusak
dirut
dis
disaat
disabilitas
disadari
disahkan
disajikan
disaksikan
disalin
disalurkan
disamakan
disambiguasi
disambut
disampaikan
disamping
disana
disangka
disapa
disarankan
disaring
disaster
disatukan
disc
disco
discography
discogs
discourse
discover
discovered
discoveries
discovery
discrimination
discusses
discussion
disease
diseases
disebabkan
disebarkan
disebelah
disebut
disebutkan
disebutnya
disederhanakan
disediakan
disegani
disekitar
disekitarnya
diselamatkan
diselenggarakan
diselesaikan
diselidiki
diseluruh
disematkan
disembah
disembelih
disember
disembuhkan
disembunyikan
disempurnakan
disengaja
disepakati
diserahkan
diserang
diserap
diserbu
disertai
disertakan
disertasi
disertifikasi
disesuaikan
disetiap
disetujui
disewa
disewakan
disfungsi
disiapkan
disiarkan
disiksa
disimpan
disimpulkan
disingkat
disingkirkan
disini
disintesis
disiplin
disisi
disisipkan
disita
disitu
disk
diskografi
diskon
diskriminasi
diskusi
disney
disorder
disorders
dispatch
display
displaystyle
disponsori
dispute
dissertation
distance
distilasi
distinguished
distorsi
distribusi
distributed
distribution
distributor
district
districts
distrik
disuarakan
disukai
disumbangkan
disunting
disuruh
disusul
disusun
disutradarai
dit
ditabrak
ditafsirkan
ditahan
ditahbiskan
ditahun
ditakdirkan
ditaklukan
ditaklukkan
ditakuti
ditambah
ditambahkan
ditampilkan
ditanam
ditanami
ditandai
ditandatangani
ditangani
ditanggapi
ditangguhkan
ditanggung
ditangkap
ditanya
ditargetkan
ditarik
ditaruh
ditata
ditawan
ditawari
ditawarkan
ditayangkan
ditebang
ditegakkan
ditegaskan
ditekan
ditekankan
ditelan
diteliti
ditelusuri
ditemani
ditembak
ditembakkan
ditempat
ditempati
ditempatkan
ditempuh
ditemui
ditemukan
ditemukannya
ditenagai
ditengah
ditenggelamkan
ditentang
ditentukan
diterangkan
diterapkan
diterbangkan
diterbitkan
diterbitkannya
diterima
diterimanya
diterjemahkan
diteruskan
ditetapkan
ditiadakan
ditimbulkan
ditimpa
ditinggal
ditinggali
ditinggalkan
ditingkatkan
ditinjau
dition
ditions
ditiru
ditjen
ditolak
ditolong
ditonton
ditopang
ditransfer
ditransmisikan
dituangkan
dituduh
ditugaskan
dituju
ditujukan
ditukar
ditularkan
ditulis
dituliskan
ditulisnya
ditumbuhi
ditunda
ditunjang
ditunjuk
ditunjukkan
dituntut
diturunkan
ditutup
ditutupi
dituturkan
diubah
diucapkan
diuji
diukir
diukur
diulang
diumumkan
diundang
diundangkan
diundi
diunduh
diundur
diunggah
diungkapkan
diuraikan
diurus
diurutkan
diusahakan
diusir
diusulkan
diusung
diutamakan
diutus
div
diva
dive
diversifikasi
diversity
divide
divided
dividen
divine
diving
divisi
divisio
division
divisions
divonis
divorce
diwajibkan
diwakili
diwarisi
diwariskan
diwarnai
diwawancarai
diwilayah
diwujudkan
dixit
dixon
diy
diyakini
dj
djadi
djakarta
djalan
djam
djangan
djarot
djarum
djati
djawa
djawatan
djepang
djibouti
djika
djikalau
djoega
djohan
djoko
djpk
djuga
djvu
dk
dki
dkk
dkpbb
dl
dll
dlm
dm
dmitry
dmoz
dn
dna
dng
dns
do
doa
doc
docs
doctor
doctors
doctrine
document
documentary
documentation
documents
dodd
dodge
dodo
dodol
dodson
doe
doea
doedoek
doel
doeloe
doenia
does
doesn
dog
doge
dogma
dogs
doha
doi
doing
dok
dokter
doktor
doktoral
doktrin
dokumen
dokumentasi
dokumenter
dolan
dolar
dolichopeza
doll
dollar
dolls
dolly
dolok
dolores
dolphin
dom
domain
domba
dome
domenico
domestic
domestik
dominan
dominasi
domingo
domini
dominic
dominika
dominikan
dominion
dominique
domino
dompet
dompu
don
donal
donald
donasi
donat
donau
done
donetsk
dong
donga
dongeng
donggala
doni
donna
donne
donnell
donner
donny
dono
donor
donovan
doo
doom
door
doors
doping
dora
doraemon
dorcadion
dordrecht
doria
doris
dorna
dorong
dorongan
dorothy
dorsal
dortmund
dos
dosa
dosanya
dosen
dosis
dot
dota
dots
dou
douard
douban
double
doubleday
doubles
doubt
doug
douglas
dove
dover
dow
down
downey
download
downloaded
downloads
downtown
doyle
dp
dpc
dpd
dpl
dpp
dpr
dprd
dprk
dpw
dq
dr
dra
draco
dracula
draf
draft
drag
dragon
dragons
drainase
drake
drama
dramatic
dramatis
drastis
draw
drawing
drawings
draws
dream
dreams
dreamworks
dresden
dress
drew
drink
drive
driven
driver
drivers
driving
drona
drone
drop
dropadi
drops
drs
drug
drugs
drum
drummer
drums
dry
ds
dsb
dsm
dst
dt
du
dua
dual
dualisme
duan
duanya
duarte
dub
dubai
dubes
dublin
ducati
duchess
duck
duda
dudley
duduk
due
duel
duet
duff
duffy
duga
dugaan
duka
dukcapil
duke
dukuh
dukun
dukung
dukungan
dukungannya
dulu
dulunya
duma
dumai
dumbarton
dumbledore
dumont
dun
duncan
dungeon
dunia
dunianya
duniawi
dunn
duo
dupa
dupont
dur
dura
duran
durasi
duren
durga
durhaka
durham
duri
durian
during
duryodana
dus
dust
dusta
dustin
dusun
duta
dutch
dutchcharts
dutt
dutta
dutton
duty
duyung
dvd
dw
dwarf
dwi
dwibahasa
dwight
dx
dy
dyah
dyer
dying
dylan
dynamic
dynamics
dynamo
dynasties
dynasty
dz
e
ea
each
eagle
eagles
earhart
earl
earlier
earliest
early
earnhardt
earns
earth
earthquake
east
easter
eastern
easton
easy
eat
eating
eb
eberhard
ebert
ebola
ebook
ec
ecclesiastical
eceran
echo
eclipse
eco
ecological
ecology
economic
economics
economist
economy
ecuador
ed
eda
edaran
eddie
eddy
eden
edgar
edge
edi
edinburgh
edisi
edison
edit
edited
edith
editing
edition
editions
editor
editorial
editors
editrice
edm
edmond
edmund
edn
edo
edom
eds
edu
eduard
eduardo
education
educational
edukasi
edward
edwards
edwin
edy
ee
een
eerdmans
eerste
ef
efek
efeknya
efektif
efektivitas
efesus
effect
effective
effects
effendi
effendy
effort
efforts
efisien
efisiensi
efl
efraim
efrat
eg
egan
egg
eggs
ego
egois
egypt
egyptian
eh
ehrman
ei
eiffel
eiga
eigen
eight
eighteenth
eighth
eiji
eileen
ein
eindhoven
eine
einer
einstein
eisenhower
either
ej
ejaan
ejekan
ek
eka
ekar
ekaristi
eki
eko
ekologi
ekologis
ekonom
ekonomi
ekonominya
ekonomis
ekor
ekornya
ekosistem
eks
eksekusi
eksekutif
eksemplar
eksentrisitas
eksis
eksistensi
ekskavasi
eksklusif
eksotis
ekspansi
ekspatriat
ekspedisi
eksperimen
eksperimental
eksplisit
eksploitasi
eksplorasi
eksponen
eksponensial
ekspor
ekspres
ekspresi
ekstensi
ekstensif
eksterior
eksternal
ekstra
ekstrak
ekstraksi
ekstrakurikuler
ekstrem
ekstrim
ekuador
ekuitas
ekuivalen
ekumenis
el
elaine
elam
elang
elastis
elder
eleanor
eleazar
elected
election
elections
electoral
electric
electrical
electricity
electro
electron
electronic
electronics
elegan
elegans
elektor
elektoral
elektrik
elektro
elektrode
elektrolit
elektromagnetik
elektron
elektronik
elektronika
elemen
element
elementary
elements
elena
elenco
elephant
elevasi
elevator
eleven
eleventh
elex
elf
elgar
eli
elia
elias
eliminasi
elimination
eliot
elips
elis
elisa
elisabeth
elise
elit
elite
eliza
elizabeth
ella
elle
ellen
ellie
elliot
elliott
ellis
elly
elmer
elo
elok
elon
elsa
else
elsevier
elton
elvira
elvis
em
ema
email
emansipasi
emanuel
emas
embargo
embassy
ember
emblem
embraer
embrio
embun
emerald
emergence
emergency
emerging
emeritus
emerson
emi
emigrasi
emil
emile
emilia
emilio
emily
eminem
emir
emirat
emirates
emisi
emma
emmanuel
emmy
emosi
emosional
emotional
empat
empedu
emperor
empire
empires
empiris
emplasemen
employment
emporis
empress
empty
empu
empuk
en
enak
enam
encer
encore
encounter
encounters
encyclopaedia
encyclopedia
encyclopædia
end
endah
endang
endangered
endapan
ende
ended
endemik
ending
endless
endo
ends
enemies
enemy
energi
energy
enewsworld
eng
engadget
engagement
engel
engels
enggan
engine
engineer
engineering
engineers
engines
engkau
engku
england
english
enhanced
enigma
enim
enix
enkripsi
enlightenment
enough
enrekang
enrico
enrique
ensemble
ensiklik
ensiklopedi
ensiklopedia
ent
entah
enter
enterprise
enterprises
enters
entertain
entertainment
entire
entitas
entity
entre
entrepreneur
entri
entries
entropi
entry
environment
environmental
enzim
enzo
eo
eon
ep
epa
eparki
epic
epicypta
epidemi
epidemiologi
epidemiology
epidendrum
epik
epilepsi
episkopal
episode
episodes
epos
eps
epsilon
epstein
equal
equality
equation
equestria
equinox
equipment
equity
er
era
eragrostis
erasmus
erat
eredivisie
eri
eric
erica
ericaceae
ericales
erich
erick
erickson
ericsson
erik
erika
erin
eritrea
erlangga
erlewine
ernest
ernesto
ernie
ernst
eropa
eropah
eros
erosi
erotis
error
erupsi
eruption
erwin
es
esa
esai
esau
escape
esctoday
eselon
esensi
esensial
esok
esp
espan
especially
espn
esports
esposito
essay
essays
essen
essential
essentials
essex
essonne
est
esta
established
establishment
estadio
estado
estafet
estate
este
esteban
ester
estetika
esther
estimasi
estimate
estimates
estonia
et
eta
etanol
etc
eter
eternal
ethan
ethel
ethical
ethics
ethiopia
ethiopian
ethnic
ethnicity
ethnologue
etik
etika
etimologi
etiopia
etis
etnik
etnis
etnografi
etruria
etymology
eu
eubel
euge
eugen
eugene
eugenia
eukariota
euklides
euler
eumicrotipula
eun
eunidia
eur
eurasia
euro
eurogamer
europa
europe
european
eurovision
eusebius
ev
eva
evakuasi
evaluasi
evaluation
evan
evangelical
evans
eve
evelyn
even
evening
event
events
ever
everest
everett
evergreen
everton
every
everybody
everyday
everyone
everything
evi
evic
evidence
evil
evo
evolusi
evolusioner
evolution
evolutionary
ew
ex
exact
examination
example
examples
excavations
excel
excellence
except
excerpt
exchange
exclusive
exechia
executive
exercise
exeter
exhibition
exile
exist
existence
exit
exo
exocentrus
exodus
exoplanet
exoprosopa
exp
expanded
expands
expansion
expected
expedition
experience
experiences
experiment
experimental
experiments
expert
experts
explained
explains
explanation
exploration
explore
explorer
exploring
explosion
expo
export
exposition
exposure
express
expression
extended
extends
extension
extensive
external
extinction
extra
extraordinary
extreme
eyang
eyd
eye
eyed
eyes
ez
ezra
f
fa
faa
fabaceae
fabales
fabel
faber
fabian
fabio
face
facebook
facelift
faces
facilities
facility
facing
fact
factbook
facto
factor
factors
factory
facts
factsheet
faculty
fadli
faham
fahmi
fai
failed
failure
fair
fairchild
fairy
faisal
faith
faizal
fajar
fak
fake
fakfak
fakir
faksi
fakta
faktanya
faktor
fakultas
falah
falcon
falkland
fall
fallen
falling
falls
fals
falsafah
false
fam
fame
famili
familia
familiar
families
family
famous
fan
fana
fanatik
fandom
fang
fanny
fans
fantasi
fantasia
fantastic
fantasy
fao
faq
faqih
far
farah
farewell
farhan
farid
farida
farisi
fariz
farm
farmasi
farmer
farming
faroe
farrar
farrel
farrell
fas
fasa
fasad
fascism
fase
fashion
fasih
fasik
fasilitas
fasilitasi
fasis
fasisme
faso
fast
fastest
fat
fatah
fatal
fate
father
fathers
fatih
fatima
fatimah
fatimiyah
fatin
fatmawati
fatty
fatwa
fault
fauna
faust
fauzan
fauzi
favorit
favorite
favoritnya
favourite
fax
fay
faye
fb
fbi
fc
fda
fe
fear
fears
feast
feat
feature
featured
features
featuring
feb
februari
february
federal
federasi
federation
federico
fee
feed
feeding
feel
feeling
feet
fei
feldman
felipe
felix
fell
fellow
fellows
fellowship
female
femina
feminin
feminis
feminism
feminisme
feminist
femme
fender
feng
fenisia
fenomena
fenomenal
feodal
fer
ferb
ferdinand
ferenc
ferguson
feri
fermat
fermentasi
ferna
fernandes
fernandez
fernando
ferrara
ferrari
ferreira
ferrer
ferry
fest
festival
festivals
fesyen
fever
few
feyenoord
ff
ffi
fh
fi
fia
fiat
fiba
fiber
fiction
ficus
fide
fidel
field
fields
fifa
fifth
fifty
fight
fighter
fighters
fighting
figur
figure
figures
fihak
fiji
fikih
fikiran
fikri
fiksi
fiktif
fil
filamen
file
filem
files
filipi
filipina
filipino
filippo
filipus
filistin
film
filmfare
filmindonesia
filming
filmmaker
filmnya
filmografi
filmography
films
filosofi
filosofis
filsafat
filsuf
filter
filum
fim
fimela
fin
final
finale
finalis
finally
finals
finance
financial
finansial
finch
find
finding
finds
fine
finger
finis
finish
finland
finlandia
finn
finnish
fiona
fiorentina
fiqh
fiqih
fir
firaun
firdaus
fire
firefox
firenze
fires
firm
firma
firman
firmansyah
first
firstpost
firth
fis
fiscal
fischer
fish
fishbase
fisher
fisheries
fishes
fishing
fisi
fisik
fisika
fisikawan
fisiknya
fisiologi
fisiologis
fisip
fiskal
fist
fit
fitnah
fitness
fitri
fitur
fitzgerald
fivb
five
fix
fixed
fk
fkip
fl
flag
flags
flame
flanders
flandria
flash
flat
flavius
fleet
fleksibel
fleksibilitas
fleming
fletcher
flickr
flight
flights
flint
flip
flo
floating
flood
floor
flora
florence
flores
florian
florida
flow
flower
flowers
floyd
flu
fluid
fluida
fluks
fluktuasi
fluorida
flute
fly
flying
flynn
fm
fn
fo
focus
fogg
fokker
fokus
foley
folio
folk
folklore
follow
following
fondasi
fonem
fonetik
fong
fonologi
font
fontaine
foo
food
foods
fool
foot
footage
football
for
forbes
forbidden
force
forced
forces
ford
foreign
forensik
forest
forests
forever
foreword
forget
forgotten
forkel
form
formal
formasi
format
formation
formed
former
formerly
formosa
forms
formula
formulasi
formulir
forrest
forster
fort
fortress
fortschreibung
fortuna
fortune
forty
forum
forward
fosfat
fosfor
fosil
fossil
foster
foto
fotografer
fotografi
fotokopi
foton
fotosintesis
found
foundation
foundations
founded
founder
founding
four
fourier
fourth
fowler
fox
fp
fpi
fr
fra
frac
fragmen
fragments
fraksi
frame
framework
franc
france
frances
francesca
francesco
franchise
francis
francisco
franck
franco
francois
frank
franka
frankfurt
frankie
franklin
franky
frans
fransiskan
fransiskus
franz
frasa
frase
fraser
frater
fre
fred
freddie
freddy
frederic
frederick
frederik
free
freedman
freedom
freeman
freeport
freeze
fregat
freiburg
frekuensi
french
frequency
frequently
fresh
fretilin
freud
friday
fried
friedman
friedrich
friend
friendly
friends
friendship
frisia
fritz
froese
frog
from
front
frontal
frontier
frontiers
frost
frozen
frs
fru
fruit
frustrasi
fry
fs
ft
ftv
fu
fuad
fuel
fuji
fujian
fujita
fujiwara
fukui
fukuoka
fukushima
fulham
full
fullbottle
fuller
fully
fun
function
functional
functions
fund
fundamental
fundamentals
funding
funeral
fung
fungi
fungsi
fungsinya
fungsional
funimation
funk
funny
furious
furnitur
further
furukawa
fury
fusi
fusion
fussballdaten
futsal
future
futures
fx
fy
fyodor
g
ga
gabon
gabriel
gabriela
gabriella
gabrielle
gabung
gabungan
gabus
gad
gada
gadang
gadget
gading
gadis
gadjah
gado
gadung
gaga
gagah
gagak
gagal
gagang
gagasan
gagasannya
gai
gaia
gaib
gail
gain
gairah
gaisha
gaius
gajah
gaji
gak
gakuen
gal
gala
galactic
galah
galai
galaksi
galang
galangan
galat
galatasaray
galatia
galaxies
galaxy
gale
galeri
gali
galia
galian
galih
galilea
galileo
galisia
gallagher
gallery
galon
galuh
galur
galway
gam
gama
gamal
gamba
gambar
gambaran
gambarnya
gambia
gambir
gamble
gambut
game
gamelan
gamer
games
gamespot
gaming
gamma
gampang
gamping
gampong
gan
ganas
ganda
gandar
gandeng
gandhi
gandrung
gandum
ganesha
gang
gangga
ganggang
gangguan
gangnam
gangster
gani
ganja
ganjar
ganjil
gannett
gansu
ganteng
ganti
gantikan
gantinya
gantung
gantungan
gao
gaon
gaonchart
gap
gapura
gar
gara
garam
garapan
garasi
garci
garcia
garda
garde
garden
gardens
gardiner
gardner
gardu
gare
gareth
garfield
gari
garis
garland
garner
garnisun
garpu
garrett
garry
garuda
garut
gary
gas
gaston
gat
gatal
gate
gates
gateway
gatot
gatra
gaudi
gaul
gaulle
gaun
gauss
gautama
gave
gavin
gawang
gawat
gay
gaya
gayanya
gayo
gaza
gazebo
gazette
gazetteer
gb
gbif
gbr
gc
gcatholic
gd
gdan
gde
gdp
ge
gear
gebang
gedang
gedangan
gede
gedong
gedung
gee
geger
geiger
geisha
gejala
gejolak
gel
geladak
gelandang
gelang
gelanggang
gelap
gelar
gelaran
gelarnya
gelas
gelembung
gelisah
gelombang
gelora
gema
gemar
gembala
gembira
gembong
gemeente
gemeinden
gemilang
gemini
gempa
gempol
gemuk
gen
genap
gencar
gencatan
gendang
gender
gending
gene
genealogy
genera
general
generalisasi
generals
generasi
generation
generations
generator
generik
genes
genesis
genetic
genetics
genetik
genetika
geneva
geng
genggam
genie
genital
genius
genji
genoa
genocide
genom
genome
genootschap
genosida
genova
genre
gent
genta
gentar
genteng
gentianales
genting
gentleman
gentry
genus
geo
geodia
geoff
geoffrey
geofisika
geografi
geografis
geographic
geographical
geography
geologi
geological
geologis
geology
geometri
geometris
geometry
geonames
geophysical
georg
george
georges
georgetown
georgia
georgian
geospatial
ger
gerai
gerak
gerakan
gerakannya
gerald
geraldine
gerard
gerbang
gerbong
gerd
gereja
gerejawi
gergaji
gerhana
gerhard
gerilya
gerilyawan
gerindra
germain
german
germany
gerobak
gerombolan
geron
gerry
gertrude
gesa
geschichte
geschiedenis
gesek
gesekan
gesellschaft
geser
get
getah
getaran
gets
getting
getty
geum
geun
gg
gh
ghana
ghani
ghazali
ghetto
ghosh
ghost
ghosts
ghz
gi
gia
giacomo
gian
giant
giants
gianyar
giat
gibbon
gibbons
gibbs
gibraltar
gibson
gideon
gie
gif
gift
gifu
gigi
gigih
gigitan
gil
gila
gilang
gilbert
gilda
giles
gilgamesh
gili
giling
giliran
gilirannya
gill
gilles
gillian
gim
gin
gina
gini
ginjal
ginting
giok
gion
giorgio
giovanni
girang
giri
girl
girlband
girlfriend
girls
giro
gironde
gis
gisela
gita
gitar
gitaris
github
giulio
giuseppe
give
given
gives
giving
gizi
gki
gkj
gkps
gl
gladiator
gladys
glam
glamour
glasgow
glass
glee
glen
glenea
glenn
gletser
global
globalisasi
globalization
globalsecurity
globe
globes
globo
gloria
glory
glosarium
glossary
glottolog
gloucester
glover
glukosa
gm
gma
gmail
gmbh
gmim
gmina
gmt
gnome
gnu
go
goa
goal
goals
gobel
gober
god
godam
goddard
goddess
godfather
godfrey
gods
godzilla
goela
goenawan
goeroe
goes
goeslaw
goethe
gogh
goguryeo
goh
going
goku
gol
gold
goldberg
golden
goldman
goldstein
goldwyn
golek
golf
golkar
golok
golongan
gombong
gomes
gomez
gon
gondang
gone
gong
gonna
gontor
gonza
gonzaga
gonzalez
gonzalo
goo
good
goodbye
goodman
goodreads
goods
goodwin
google
gopal
gor
gorbachev
gordon
gore
goreng
goresan
gorila
gorman
goro
gorontalo
gory
goryeo
gosei
gosip
gosling
gosong
gospel
gospels
gossip
got
goth
gotha
gotham
gothic
gotik
goto
gotong
gottfried
gould
goulding
gov
governance
government
governor
govt
gowa
goyang
gp
gpib
gps
gq
gr
gra
grace
gracia
gracilis
grade
gradien
graduate
grady
graf
grafik
grafika
grafis
grafit
grafiti
graha
graham
gram
gramatikal
gramedia
grammar
grammy
grampus
gran
granada
granat
grand
grande
grandmaster
granit
grant
graph
graphic
graphics
grasindo
grass
gratis
grave
graves
gravitasi
gravity
gray
graz
gre
great
greater
greatest
greece
greek
greeks
green
greenberg
greene
greenland
greenpeace
greenwich
greenwood
greg
gregg
gregorian
gregorio
gregorius
gregory
grenada
gresik
greta
grey
grid
griffin
griffith
griffiths
grigory
grimm
grissom
griya
gro
grobogan
grogol
groningen
groove
grosir
gross
ground
group
groups
grove
grover
groves
grow
growing
growth
gru
grumbul
grumman
grunge
grup
grupo
gruyter
gs
gsm
gt
gtv
gu
gua
guadalcanal
guadalkanal
guam
guan
guang
guangdong
guangxi
guangzhou
guard
guardian
guardians
guatemala
gubahan
gubernur
gubuk
guci
gudang
gue
guerra
guerre
guerrero
guest
guevara
guez
gugat
gugatan
gugur
gugus
gugusan
gui
guidance
guide
guided
guidelines
guides
guido
guild
guillaume
guillermo
guilty
guinea
guinness
guiry
guitar
gujarat
guk
gula
gulai
gulat
gulden
gulf
guling
gulma
gulung
gulungan
gum
gumpalan
gun
guna
gunakan
gunanya
gunawan
guncangan
gundam
gundik
gundukan
gundul
gung
gunma
gunnar
guns
gunter
gunting
guntur
gunung
gunungkidul
gunungsitoli
guo
gupta
gurih
gurita
guru
guruh
gurun
gurunya
gus
gustaf
gustav
gustave
gustavo
gusti
gutawa
gutenberg
guthrie
guy
guyana
guys
gw
gwen
gyeonggi
gyllenhaal
gym
gyo
gyu
h
ha
haag
haaretz
haas
habib
habibie
habis
habisan
habitat
habitatnya
habsburg
hachette
hacker
hackett
had
hadapan
hadapi
hadawi
haddad
hades
hadi
hadiah
hadid
hadiningrat
hadir
hadiri
hadirin
hadirkan
hadirnya
hadis
hadits
hae
hafiz
hagen
hague
hahn
hai
haid
haifa
hail
hain
hainan
hair
haiti
hajar
hajat
haji
hajime
hajj
hak
hakikat
hakikatnya
hakim
hakka
haknya
hal
halal
halaman
halamannya
halangan
hale
haley
half
halichondria
haliclona
halida
halilintar
halim
halimah
hall
halle
halloween
halmahera
halnya
halo
haloes
halte
haluan
halus
halusinasi
ham
hama
hamas
hamba
hambali
hambatan
hamburg
hamburger
hamdan
hamengkubuwana
hamengkubuwono
hamid
hamil
hamilton
hamka
hamlet
hammarstro
hammer
hammond
hampa
hamparan
hampir
hampshire
hampton
hamster
hamzah
han
hana
hanacaraka
hanafi
hancinema
hancock
hancur
hand
handal
handayani
handbook
handbuch
handle
handoko
hands
hang
hangat
hangul
hangus
hangzhou
hani
hanif
hanja
hank
hanks
hankyung
hanna
hannah
hannibal
hannover
hanoi
hanover
hans
hansard
hansen
hanson
hantu
hanung
hanura
hanya
hanyalah
hanyu
hanyut
hanzi
hao
happen
happened
happiness
happy
hapus
haq
har
hara
harada
harafiah
harahap
harald
haram
harap
harapan
harapkan
harbor
harbour
harcourt
hard
hardcore
hardcover
harding
hardware
hardy
hare
harem
harfiah
harga
harganya
hari
harian
harimau
harinya
haris
harits
harlem
harley
harlow
harman
harmoni
harmonis
harmony
harold
harper
harpercollins
harrassowitz
harriet
harrington
harris
harrison
harry
hart
harta
hartanya
hartawan
hartmann
hartono
haru
haruka
harum
harun
haruna
harus
haruslah
harusnya
harvard
harvest
harvey
haryanto
haryono
has
hasan
hasanuddin
hasanudin
hasbro
hasegawa
hashim
hashimoto
hasibuan
hasil
hasilnya
haspelmath
hasrat
hassan
hasta
hastings
hasundutan
hasyim
hat
hata
hatchback
hate
hathaway
hati
hatiku
hatimu
hatinja
hatinya
hatta
haul
haunted
haus
haute
havana
have
haven
havilland
having
hawa
hawai
hawaii
hawaiian
hawk
hawke
hawker
hawking
hawkins
hawks
hay
hayam
hayashi
hayat
hayati
hayatnya
hayato
hayden
hayes
hayley
haymarket
haynes
hazard
hazards
hazel
hb
hbo
hbs
hc
hcl
hd
hdl
he
head
headed
headline
headquarters
heads
healing
health
healthcare
healthy
hear
heard
hearing
hearst
heart
hearts
heat
heath
heather
heaven
heavenly
heavy
hebat
hebei
hebrew
hebron
hector
hedgehog
hee
hegel
hegemoni
hei
heian
heidegger
heidelberg
heidi
height
heights
heinemann
heinrich
heinz
hektar
hektare
helai
held
helen
helena
helene
helenistik
helicopter
helikopter
heliophanus
helios
helium
hell
hellenic
hellenistic
heller
hello
helm
helmut
help
helped
helsinki
hemat
hemingway
hen
henan
hendak
hendaklah
hendaknya
henderson
hendra
hendri
hendrick
hendrik
hendro
heng
hengkang
henokh
henri
henrik
henry
henryk
henti
heo
hepatitis
hepburn
her
hera
herakles
herald
heran
herbal
herbarium
herbermann
herbert
herbivora
hercules
here
herge
heri
heritage
herman
hermann
hermawan
hermes
hermione
herna
hernandez
hero
herodes
herodotos
herodotus
heroes
heroik
heroin
herrera
herrick
herry
herschel
hertz
heru
herzegovina
herzog
hess
hesse
hessen
het
heterogen
heteroseksual
hewan
hewitt
hewlett
hey
hf
hg
hi
hias
hiasan
hiatus
hibah
hibrida
hiburan
hicks
hidangan
hidayah
hidayat
hidayatullah
hidden
hide
hideaki
hideyoshi
hidoep
hidraulis
hidrogen
hidrokarbon
hidroksida
hidrolisis
hidung
hidup
hidupku
hidupnya
hierarchia
hierarchy
hierarki
hieroglif
hieronimus
higashi
higgins
high
higher
highest
highland
highlights
highly
highway
hij
hijab
hijau
hijaz
hijrah
hijriah
hijriyah
hikari
hikaru
hikayat
hikmah
hikmat
hilal
hilang
hilangnya
hilary
hilbert
hilda
hilir
hill
hillary
hills
hilton
him
himalaya
himne
himpunan
himself
hina
hinata
hindi
hindia
hindu
hinduism
hinduisme
hindustan
hing
hingga
hino
hip
hipertensi
hipotesis
hiro
hirohito
hiroki
hiroshi
hiroshima
hiroyuki
hirsch
his
hispania
hispanik
hist
histo
histoire
historia
historian
historians
historic
historical
histories
historiografi
historiography
historique
historis
history
hisyam
hit
hitachi
hitam
hitchcock
hitler
hitomi
hits
hitung
hitungan
hiu
hiv
hizkia
hj
hk
hkbp
hkt
hl
hler
hlm
hlmn
hm
hmi
hms
hn
ho
hoa
hoax
hobbes
hobbit
hobi
hoboken
hoc
hockey
hodder
hodgkins
hoe
hoeve
hoffman
hoffmann
hogan
hogwarts
hok
hoki
hokkaido
hokkien
hoku
hold
holden
holding
holdings
holds
hole
holiday
holland
hollow
holly
hollywood
holm
holmes
holocaust
holstein
holt
holy
home
homecat
homecoming
homeland
homepage
homer
homeros
homes
homme
homo
homogen
homoseksual
homoseksualitas
homosexuality
hon
honda
honduras
honey
hong
hongaria
hongkong
honolulu
honor
honorary
honored
honoris
honors
honour
honours
honshu
hoo
hood
hook
hooker
hoon
hooper
hoover
hop
hope
hopes
hopkins
hopper
horace
horison
horisontal
horizon
horizons
horizontal
hormat
hormon
horn
horner
hornet
horor
horror
horse
horst
hortikultura
horton
horus
hosea
hoshi
hospital
host
hosted
hosting
hosts
hot
hotel
hotels
hotspot
hotspur
hotstar
hou
houghton
hour
hours
house
household
houses
housing
houston
hove
how
howard
howe
howell
however
howitzer
hp
hq
hr
hrer
hrsg
hs
hsu
ht
htm
html
http
https
hu
hua
huan
huang
hub
hubbard
hubble
hubei
hubert
hubung
hubungan
hubungannya
hud
huda
hudson
huffington
huffpost
huge
hugh
hughes
hugo
hugues
hui
hujan
hukum
hukuman
hukumannya
hukumnya
hukumonline
hulk
hull
hulu
hum
huma
human
humaniora
humanis
humanitarian
humanities
humanity
humans
humas
humbang
humboldt
hume
humor
humphrey
hun
hunan
hundred
hundreds
hung
hungama
hungaria
hungarian
hungary
hunger
huni
hunian
hunt
hunter
hunters
hunting
huntington
huperzia
hur
hurricane
hurst
hurt
huru
huruf
husada
husain
husband
husein
husin
husni
hussain
hussein
hut
huta
hutagalung
hutan
hutang
hutchinson
hutton
huxley
hwa
hwan
hwang
hyang
hybrid
hyde
hyderabad
hydrogen
hye
hyeon
hymedesmia
hymenoptera
hyo
hyper
hypothesis
hyuk
hyun
hyundai
hyung
hz
i
ia
iaa
iai
iain
ialah
ian
iapun
iast
iata
iau
iaurif
ib
iba
ibadah
ibadat
iban
ibaraki
ibarat
iberia
ibid
ibis
iblis
ibm
ibn
ibnu
ibrahim
ibrani
ibtidaiyah
ibu
ibukota
ibuku
ibunda
ibundanya
ibunya
ic
icao
icarus
icc
ice
iceland
ich
ichi
ichigo
ichikawa
ichiro
ichsan
ichtiar
icon
iconic
icons
ict
id
ida
idaho
idaman
ide
idea
ideal
idealisme
ideas
identification
identified
identifikasi
identik
identitas
identitasnya
identities
identity
idenya
ideologi
ideologis
ideology
idf
idi
idiot
idm
idn
idol
idola
idris
idrus
idul
idx
ie
iec
ieee
ieyasu
if
ifpi
ig
iga
igi
ign
ignacio
ignatius
igor
ihsan
ihwal
ii
iii
iis
ija
ijazah
ijin
ijo
ik
ika
ikan
ikat
ikatan
ike
ikeda
ikhlas
ikhtisar
ikip
iklan
iklim
ikon
ikonik
iku
ikut
ikuti
il
ila
ilahi
ilbo
ile
ilegal
ilham
ili
iliad
ilir
ill
illegal
illinois
illusion
illustrated
illustrations
ilmiah
ilmiahnya
ilmu
ilmunya
ilmuwan
ilo
ilusi
ilustrasi
ilustrator
ilya
ilyas
ilyushin
im
ima
image
images
imagination
imagine
imaging
imajinasi
imajiner
imam
imamat
iman
imannya
imax
imbalan
imbang
imbuhan
imdb
imelda
imf
img
imigran
imigrasi
imlek
immanuel
immigration
immortal
immunology
imo
impact
impacts
impatiens
impeachment
imperatif
imperial
imperialis
imperialism
imperialisme
imperium
impian
implementasi
implementation
implications
implikasi
implisit
impor
import
importance
important
importir
impossible
imprint
improvisasi
impuls
imran
imun
imunitas
in
ina
inang
inangnya
inap
inc
inca
inch
incheon
inci
incident
include
included
includes
including
income
incorporated
increase
incredible
ind
indah
indahnya
indeks
independen
independence
independent
indera
index
india
indian
indiana
indianapolis
indians
indiatimes
indica
indie
indies
indiewire
indigenous
indigo
indikasi
indikator
indira
indische
individu
individual
indo
indochina
indone
indonesia
indonesian
indoor
indosat
indosiar
indra
indragiri
indramayu
indro
induced
induk
induknya
induksi
indulgensi
indus
industri
industrial
industrialisasi
industries
industry
indy
indycar
ine
inersia
inews
inf
infanteri
infantri
infantry
infection
infectious
infeksi
infinite
infinity
inflamasi
inflasi
influence
influential
influenza
info
informal
informasi
informatika
information
infra
inframerah
infrared
infrastructure
infrastruktur
infty
ing
ingat
ingatan
ingatannya
ingatlah
inge
inggeris
inggris
inggrisnya
ingin
inginkan
ingkar
ingrid
inhibitor
ini
inilah
inipun
inisial
inisiasi
inisiatif
initial
initiative
injection
injeksi
injil
injili
injured
injury
ink
inka
inkarnasi
inkigayo
inklusif
inlandsche
inn
inner
innocence
innocent
innosensius
innovation
innsbruck
inorganic
inoue
inovasi
inovatif
inpres
input
inquirer
inquiry
ins
insan
insang
insani
inscription
inscriptions
insecta
insee
insentif
inside
insiden
insider
insight
insights
insinyur
inskripsi
insomnia
inspector
inspeksi
inspektorat
inspektur
inspirasi
inspiratif
inspiration
inspired
instagram
instalasi
instan
instansi
instant
instead
insting
institusi
institut
institute
institutes
institution
institutional
institutions
instituto
instituut
instruction
instruksi
instruktur
instrumen
instrument
instrumental
instrumentasi
instruments
insulin
insurance
int
intan
integer
integral
integrasi
integrated
integration
integritas
intel
intelektual
intelijen
intellectual
intelligence
intelligent
intens
intensif
intensitas
inter
interaction
interactions
interactive
interaksi
interaktif
intercontinental
interest
interface
interim
interior
intermediate
intern
internacional
internal
internasional
international
internationale
internazionale
internet
interogatif
interpretasi
interpretation
interstate
interval
intervensi
intervention
interview
interviews
inti
intim
intimate
intimidasi
intinya
intisari
into
intra
intrik
intrinsik
intro
introduced
introduces
introducing
introduction
introductory
inu
invalid
invasi
invasif
invasion
inventaris
inventarisasi
invention
inventory
invers
invertebrata
investasi
investigasi
investigation
investment
investor
invisible
involved
io
ioannes
ioc
iodin
ion
ionia
ionik
ionisasi
ios
iowa
ip
ipa
ipad
ipar
iparnya
ipb
iphone
ipin
ipm
ipo
ipod
ips
iptek
ipv
iq
iqbal
ir
ira
irak
irama
iran
irani
iranian
iranica
iraq
iraqi
irawan
ireland
irene
ireng
irfan
iri
irian
irigasi
irina
iring
iringan
iris
irisan
irish
iritasi
irjen
irlandia
irma
iron
irsyad
irvine
irving
irwan
irwin
is
isa
isaac
isabel
isabella
isabelle
isaiah
isbn
isc
ise
ishak
ishaq
ishida
ishii
ishikawa
ishq
isi
isian
isidro
isinya
isis
iskandar
isl
isla
islam
islamabad
islami
islamic
islamiyah
island
islandia
islands
isle
isles
isma
ismael
ismail
isn
iso
isolasi
isolek
isomer
isotop
isra
israel
israeli
israil
iss
issn
issue
issued
issues
ist
istana
istananya
istanbul
istat
isteri
isterinya
istiadat
istilah
istimewa
istirahat
istituto
istri
istriku
istrinya
istva
isu
isuzu
isyana
isyarat
it
ita
italia
italian
italiana
italiano
italy
itb
itc
item
itf
ithaca
itik
itis
ito
itoe
itoelah
its
itself
ittf
itu
itulah
itunes
itupun
itv
iu
iucn
iupac
iuran
iv
iva
ivan
ivanovich
ivie
ivo
ivory
ivy
iwa
iwan
iwata
iwate
ix
iya
iyah
iz
izin
izumi
j
ja
jaan
jaar
jabal
jabar
jabat
jabatan
jabatannya
jabodetabek
jabung
jack
jackie
jackman
jackson
jacob
jacobs
jacobson
jacobus
jacqueline
jacques
jade
jadi
jadikan
jadilah
jadinya
jadwal
jae
jafar
jaga
jagat
jago
jagoan
jaguar
jagung
jahat
jahe
jahit
jai
jail
jailolo
jaime
jain
jajahan
jajak
jajanan
jajar
jajaran
jak
jaka
jakarta
jake
jaket
jakob
jakoeb
jaksa
jala
jalak
jalal
jalaluddin
jalan
jalanan
jalani
jalannya
jalar
jalil
jalinan
jalur
jalurnya
jam
jama
jamaah
jamaica
jamaika
jamak
jamal
jamaluddin
jaman
jambi
jambu
jambul
james
jami
jamie
jamil
jaminan
jammu
jamu
jamuan
jamur
jan
jana
janda
jane
janeiro
janet
jang
jangan
janganlah
janggut
jangka
jangkar
jangkauan
janin
janji
janjinya
jansen
janssen
jantan
jantung
januari
january
japan
japanese
jar
jarak
jaraknya
jaranan
jarang
jared
jari
jaring
jaringan
jarum
jas
jasa
jasad
jasadnya
jasanya
jasmani
jasmine
jason
jasper
jassin
jatah
jateng
jati
jatibarang
jatim
jatinegara
jatuh
jatuhnya
jauh
jauhnya
java
javanese
javascript
javier
jawa
jawab
jawaban
jawabannya
jawabnya
jawapos
jawara
jawatan
jawi
jay
jaya
jayabaya
jayakarta
jayapura
jayawijaya
jazeera
jazirah
jazz
jb
jc
jd
jdih
je
jean
jeanne
jebakan
jeda
jeddah
jeep
jef
jeff
jefferson
jeffrey
jefri
jejak
jejaring
jeju
jelai
jelajah
jelang
jelas
jelasnya
jelata
jelek
jelita
jelly
jemaah
jemaat
jembatan
jember
jembrana
jempol
jen
jena
jenazah
jenazahnya
jend
jendela
jenderal
jendral
jeneponto
jenewa
jenis
jenisnya
jenius
jenjang
jenkins
jenna
jenner
jennifer
jennings
jenny
jens
jensen
jenuh
jeon
jeong
jeopardy
jepang
jepara
jerami
jeremiah
jeremy
jerman
jermanik
jernih
jero
jerome
jerry
jersey
jeruk
jerusalem
jess
jesse
jessica
jessie
jesu
jesus
jet
jetis
jets
jew
jewel
jewish
jews
jf
jfk
jg
jh
jha
ji
jia
jian
jiang
jiangsu
jiangxi
jibril
jie
jihad
jika
jikalau
jilbab
jilid
jill
jim
jima
jimat
jimmie
jimmy
jin
jinak
jing
jingga
jinnah
jinping
jiro
jitu
jiu
jiwa
jiwanya
jj
jk
jkt
jl
jln
jm
jo
joa
joachim
joan
joanna
joanne
job
jobs
jodi
jodie
jodoh
jody
joe
joel
joey
jogja
jogjakarta
joglo
johan
johann
johanna
johannes
johannesburg
johansson
johar
john
johnny
johns
johnson
johnston
johor
join
joins
joint
jojo
joker
joko
jokowi
jolie
jombang
jon
jonah
jonas
jonathan
jones
jong
jonggol
joni
joo
joon
joong
joongang
jordan
jorge
jorong
jose
josef
joseon
joseph
josephine
josephus
josh
joshi
joshua
journal
journalism
journalist
journalists
journals
journey
jovi
joy
joyce
jp
jpeg
jpg
jpl
jpn
jpnn
jr
js
json
jstor
jt
jtbc
ju
jua
jual
juan
juanda
juang
juara
jubah
jubilee
judah
judaism
judd
jude
judge
judges
judgment
judi
judicial
judith
judo
judul
judulnya
judy
juga
juice
jujur
jul
julai
jules
juli
julia
julian
juliana
julie
julien
juliet
juliette
julio
julius
julu
julukan
july
jum
jumat
jumlah
jumlahnya
jump
jumpa
jumpai
jun
junction
june
jung
jungle
juni
junior
juniornya
junjungan
juno
junta
jupiter
jura
juragan
jurang
jurassic
jure
juri
jurnal
jurnalis
jurnalisme
jurnalistik
jurong
juru
jurus
jurusan
jury
jus
just
justice
justin
justitie
justru
jusuf
juta
jutaan
juventus
juz
jv
jw
jyp
k
ka
kab
kabag
kabar
kabaret
kabarnya
kabel
kabhi
kabid
kabilah
kabin
kabinet
kabir
kabisat
kabuki
kabul
kabupaten
kabur
kabushiki
kabut
kaca
kacamata
kacang
kacangan
kacau
kada
kadal
kadalam
kadang
kadar
kader
kades
kadet
kadin
kadipaten
kadir
kadiri
kadmium
kado
kadokawa
kadus
kafe
kafilah
kafir
kagami
kaget
kagoshima
kagum
kah
kahar
kahin
kahn
kahyangan
kai
kaidah
kaimana
kain
kairo
kaisar
kaisarea
kaiser
kait
kaitan
kaitannya
kaito
kajang
kaji
kajian
kajol
kak
kaka
kakak
kakaknya
kakao
kakap
kakashi
kakawin
kakek
kakeknya
kaki
kakinya
kaktus
kaku
kal
kala
kalah
kalahkan
kalam
kalang
kalangan
kalau
kalbar
kalbu
kaldera
kaldu
kaledonia
kalender
kaleng
kali
kalian
kalibata
kaliber
kaligrafi
kalijaga
kalimantan
kalimat
kalinya
kalinyamat
kalium
kaliwungu
kalkulator
kalkulus
kalla
kalo
kaloe
kalook
kalor
kalori
kalsel
kalsium
kalteng
kaltim
kalung
kalurahan
kam
kamakura
kamal
kamar
kamarnya
kambing
kamboja
kamen
kameo
kamera
kamerun
kami
kamikaze
kamil
kamis
kamoe
kamp
kampanye
kampanyenya
kampar
kampong
kampung
kampungnya
kampus
kamu
kamus
kamusbesar
kan
kana
kanaan
kanada
kanagawa
kanak
kanal
kanan
kanannya
kancah
kancil
kancing
kanda
kandang
kandangan
kandangnya
kandas
kandidat
kandung
kandungan
kandungnya
kane
kang
kangean
kangen
kangkung
kangxi
kanisius
kanit
kanjeng
kanji
kanjuruhan
kanker
kannada
kano
kanoman
kanon
kanonik
kanopi
kansai
kansas
kanselir
kant
kantin
kanto
kanton
kantong
kantor
kantornya
kantung
kanvas
kanye
kao
kaohsiung
kaori
kaoru
kaos
kap
kapada
kapadamoe
kapadanja
kapak
kapal
kapala
kapalnya
kapan
kapanlagi
kapas
kapasitas
kapasitasnya
kapasitor
kapel
kapita
kapital
kapitalis
kapitalisasi
kapitalisme
kapitan
kaplan
kapolda
kapolres
kapolri
kapolsek
kapoor
kappa
kapsul
kapten
kapuas
kapuk
kapur
kar
kara
karabakh
karachi
karaeng
karakter
karakteristik
karakternya
karam
karan
karang
karangan
karanganyar
karangasem
karangrejo
karangsari
karangtengah
karantina
karaoke
karat
karate
karawang
karawitan
karbohidrat
karbon
karbonat
kardashian
kardinal
kardiovaskular
kare
karel
karen
karena
karenanya
karesidenan
karet
kargo
kari
karib
karibia
karier
kariernya
karim
karimun
karimunjawa
karin
karina
karir
karirnya
karismatik
karl
karma
karna
karnataka
karnaval
karnivora
karno
karo
karpet
karst
kartago
kartanegara
kartasura
kartel
kartika
kartini
kartu
kartun
kartunis
karun
karung
karunia
karya
karyanya
karyawan
karyawannya
kas
kasad
kasai
kasal
kasar
kasasi
kasat
kasau
kasdam
kasepuhan
kaset
kashima
kashiwa
kashmir
kasi
kasih
kasihan
kasim
kasino
kaspia
kasta
kastel
kastil
kastila
kastilia
kasuari
kasubdit
kasunanan
kasur
kasus
kasusnya
kat
kata
katai
katak
katakan
katakana
katakanlah
katalan
katalis
katalog
katanja
katanya
katarina
kate
katedral
kategori
katekismus
katharine
katherine
kathleen
kathmandu
katholik
kathryn
kathy
katie
katingan
kation
katniss
kato
katolik
katrina
katsir
katun
katup
katy
katz
kau
kaufman
kaukasus
kaul
kaum
kauman
kaumnya
kaur
kaus
kautsar
kautsky
kav
kavaleri
kawah
kawan
kawanan
kawannya
kawasaki
kawasan
kawashima
kawat
kawedanan
kawi
kawin
kay
kaya
kayak
kayan
kayo
kayu
kayunya
kazakh
kazakhstan
kazan
kaze
kazimierz
kazuki
kazuya
kb
kbbi
kbri
kbs
kc
kd
ke
keabadian
keabsahan
keadaan
keadaannya
keadilan
keagamaan
keagungan
keahlian
keahliannya
keajaiban
keamanan
keandalan
keanekaragaman
keanggotaan
keanggotaannya
kearah
kearifan
keasaman
keaslian
keatas
keaton
kebahagiaan
kebahasaan
kebaikan
kebajikan
kebakaran
kebaktian
kebal
kebalikan
kebanggaan
kebangkitan
kebangkrutan
kebangsaan
kebangsawanan
kebanyakan
kebawah
kebaya
kebayoran
kebebasan
kebenaran
kebenarannya
kebencian
keberadaan
keberadaannya
keberagaman
keberangkatan
keberanian
keberatan
keberhasilan
keberhasilannya
keberlangsungan
keberlanjutan
kebersamaan
kebersihan
keberuntungan
kebesaran
kebetulan
kebiasaan
kebidanan
kebijakan
kebijakannya
kebijaksanaan
kebingungan
kebisingan
kebo
kebocoran
kebodohan
kebohongan
kebon
kebudayaan
kebugaran
kebumen
kebun
kebutuhan
kec
kecabangan
kecakapan
kecaman
kecamatan
kecanduan
kecantikan
kecap
kecapi
kecelakaan
kecemasan
kecenderungan
kecepatan
kecerdasan
kecewa
kecil
kecilnya
kecintaan
kecoklatan
kecuali
kecurangan
kecurigaan
kedah
kedai
kedalam
kedalaman
kedamaian
kedap
kedatangan
kedatangannya
kedaton
kedaulatan
kedekatan
kedelai
kedelapan
kedepan
kediaman
kediamannya
kediktatoran
kedirgantaraan
kediri
kedokteran
kedu
kedua
keduabelas
keduanya
kedubes
kedudukan
kedudukannya
kedung
kedutaan
kee
keemasan
keempat
keempatnya
keenam
keep
keeping
keeps
keesokan
kegagalan
kegan
kegelapan
kegemaran
kegembiraan
kegiatan
kegiatannya
kegubernuran
kegunaan
keguruan
kehabisan
kehadiran
kehadirannya
kehakiman
kehamilan
kehancuran
keharusan
kehendak
kehendaki
kehidupan
kehidupannya
kehijauan
kehilangan
kehitaman
kehormatan
kehutanan
kei
keiji
keiko
keikutsertaan
keilmuan
keimanan
keimigrasian
keindahan
keinginan
keinginannya
keislaman
keistimewaan
keisuke
keita
keith
keizer
kejadian
kejahatan
kejaksaan
kejam
kejang
kejar
kejaran
kejatuhan
kejauhan
kejayaan
kejayaannya
kejelasan
keji
kejiwaan
kejora
keju
kejuaraan
kejujuran
kejuruan
kejutan
kek
kekacauan
kekaisaran
kekal
kekalahan
kekalahannya
kekasih
kekasihnya
kekayaan
kekayaannya
kekebalan
kekecewaan
kekejaman
kekeliruan
kekeluargaan
kekerabatan
kekerasan
kekeringan
kekhalifahan
kekhanan
kekhasan
kekhawatiran
kekosongan
kekristenan
kekuasaan
kekuasaannya
kekuatan
kekuatannya
kekuningan
kekurangan
kel
kelabu
kelahiran
kelahirannya
kelainan
kelak
kelakuan
kelalaian
kelam
kelamaan
kelamin
kelana
kelancaran
kelangkaan
kelangsungan
kelanjutan
kelantan
kelapa
kelaparan
kelarutan
kelas
kelasnya
kelautan
kelayakan
kelebihan
keledai
kelelahan
kelelawar
kelemahan
kelembaban
kelembagaan
kelembapan
kelengkapan
kelenjar
kelenteng
kelestarian
kelihatan
kelihatannya
keliling
kelima
kelimanya
kelimpahan
kelinci
keling
kelipatan
keliru
kelistrikan
keller
kelley
kelly
kelok
kelola
kelompok
kelompoknya
kelopak
kelt
keluar
keluaran
keluarga
keluarganya
keluarlah
keluarnya
keluhan
kelulusan
kelurahan
kelvin
kemacetan
kemah
kemaharajaan
kemahasiswaan
kemajuan
kemakmuran
kemal
kemampuan
kemampuannya
kemana
kemandirian
kemang
kemanusiaan
kemarahan
kemarau
kemari
kemarin
kemas
kemasan
kemasyarakatan
kematangan
kematian
kematiannya
kemauan
kemayoran
kembali
kembalinya
kembang
kembangan
kembangkan
kembar
kembarnya
kemdikbud
kemegahan
kemeja
kemenag
kemenakan
kemenangan
kemenangannya
kemendagri
kemendes
kemendesa
kemendikbud
kemenkeu
kementerian
kementrian
kemenyan
kemerahan
kemerdekaan
kemerdekaannya
kemerosotan
kemewahan
kemhan
kemih
kemiliteran
kemiri
kemiringan
kemiripan
kemiskinan
kemitraan
kemoedian
kemudahan
kemudi
kemudian
kemuliaan
kemunculan
kemunculannya
kemunduran
kemungkinan
kemuning
kemurahan
kemurnian
ken
kena
kenabian
kenaikan
kenal
kenalan
kenang
kenangan
kenapa
kenari
kencan
kencana
kencang
kencing
kendal
kendala
kendali
kendall
kendang
kendaraan
kendari
kendati
kendi
kenegaraan
keng
kenikmatan
kenji
kennedy
kenneth
kenny
kenshin
kent
kenta
kental
kentang
kentucky
kenya
kenyamanan
kenyataan
kenyataannya
kenyatta
keolahragaan
keong
kep
kepada
kepadaku
kepadamu
kepadanya
kepadatan
kepahiang
kepahlawanan
kepala
kepalanya
kepandaian
kepanduan
kepangeranan
kepanikan
kepanjangan
kepastian
kepatuhan
kepausan
kepedulian
kepegawaian
kepekaan
kepemilikan
kepemilikannya
kepemimpinan
kepemimpinannya
kependekan
kependidikan
kependudukan
kepengurusan
kepentingan
kepentingannya
keperawatan
kepercayaan
kepercayaannya
kepergian
keperluan
keping
kepingan
kepiting
kepler
kepolisian
keponakan
keponakannya
kepopuleran
keppres
kepresidenan
kepri
kepribadian
kepribadiannya
keprihatinan
kepuasan
kepulauan
kepunahan
kepunyaan
kepustakaan
keputihan
keputusan
keputusannya
kera
kerabat
kerabatnya
keracunan
keragaman
keraguan
kerah
kerahasiaan
kerajaan
kerajaannya
kerajinan
kerak
kerakyatan
kerala
keramaian
keramat
keramik
kerana
kerang
kerangka
keranjang
kerap
kerapatan
keras
kerasnya
keraton
kerbau
kerdil
kere
keren
kerentanan
keresidenan
kereta
keributan
kerikil
kerinci
kerinduan
kering
keringat
keripik
keris
kerja
kerjakan
kerjanya
kerjasama
kern
kernel
kerohanian
keroncong
kerr
kerremans
kerry
kershaw
kertajaya
kertanegara
kertas
kertosono
kerucut
kerugian
keruh
kerukunan
kerumunan
keruntuhan
kerupuk
kerusakan
kerusuhan
kes
kesabaran
kesadaran
kesakitan
kesaksian
kesaktian
kesal
kesalahan
kesalahannya
kesalahpahaman
kesamaan
kesan
kesana
kesatria
kesatu
kesatuan
kesayangan
kesebelas
kesederhanaan
kesedihan
keseharian
kesehatan
kesehatannya
keseimbangan
kesejahteraan
keselamatan
keseluruhan
keseluruhannya
kesembilan
kesempatan
kesempurnaan
kesemuanya
kesenangan
kesengsaraan
kesenian
kesenjangan
kesepakatan
kesepian
kesepuluh
kesesuaian
kesetaraan
kesetiaan
kesetimbangan
keshogunan
kesiapan
kesibukan
kesimpulan
kesinambungan
kesombongan
kesopanan
kestabilan
kesuburan
kesucian
kesukaan
kesukaran
kesuksesan
kesuksesannya
kesulitan
kesultanan
kesusahan
kesusastraan
ketaatan
ketahanan
ketahuan
ketahui
ketahuilah
ketakutan
ketam
ketan
ketapang
ketat
ketatanegaraan
ketebalan
ketegangan
ketela
ketemu
ketenagakerjaan
ketenangan
ketenaran
ketentuan
ketepatan
keterampilan
keterangan
keteraturan
keterbatasan
keterbukaan
ketergantungan
keterikatan
keterkaitan
keterlambatan
keterlibatan
keterlibatannya
ketersediaan
ketertarikan
ketertarikannya
ketertiban
ketetapan
ketiadaan
ketiak
ketidak
ketidakadilan
ketidakmampuan
ketidakpastian
ketidakpuasan
ketidakstabilan
ketiga
ketiganya
ketik
ketika
ketimbang
ketinggalan
ketinggian
ketinggiannya
ketjil
keton
ketrampilan
ketua
ketuanya
ketuhanan
ketujuh
ketukan
ketupat
keturunan
keturunannya
ketut
keuangan
keunggulan
keunikan
keuntungan
keuskupan
keutamaan
keutuhan
kevin
kew
kewajiban
kewajibannya
kewarganegaraan
kewenangan
kewenangannya
kewilayahan
kewirausahaan
key
keyakinan
keyakinannya
keyboard
keynes
keys
keyserling
kf
kfc
kg
kgb
kge
kh
kha
khadijah
khalayak
khaled
khalid
khalidi
khalifa
khalifah
khalil
khan
khanna
kharisma
khas
khasiat
khasnya
khatib
khattab
khatulistiwa
khawatir
khayalan
khazanah
khi
khitan
khmer
kho
khotbah
khrushchev
khusus
khususnya
ki
kia
kiai
kiamat
kian
kiasan
kiat
kiblat
kibor
kick
kicker
kid
kidal
kidman
kids
kidul
kidung
kie
kiev
kii
kiii
kijang
kiki
kikuchi
kilang
kilas
kilat
kilau
kill
killed
killer
killing
kills
kilo
kilogram
kilometer
kim
kimberly
kimi
kimia
kimiawan
kimiawi
kimono
kimura
kin
kinabalu
kinase
kincir
kind
kinerja
kinetik
king
kingdom
kingdoms
kings
kingsley
kingston
kini
kino
kintetsu
kios
kip
kipas
kiper
kiprah
kiprahnya
kir
kira
kirana
kiranya
kirby
kirgizstan
kiri
kiribati
kiril
kirim
kiriman
kirinya
kirk
kis
kisah
kisahnya
kisaran
kisi
kiss
kit
kita
kitab
kitagawa
kitchen
kitchener
kitlv
kitts
kitty
kj
kk
kkn
kko
kkp
kkpd
kkr
kl
klad
klaim
klan
klang
klapa
klarifikasi
klasemen
klasifikasi
klasik
klaten
klaus
klausa
klein
klemens
klenteng
kleopatra
klerus
klien
klik
klimatologi
klinik
klinis
klip
klitoris
kliwon
klm
klorida
klorin
klub
klubnya
klungkung
kluwer
km
kmdb
kmt
kn
knesset
knew
knife
knight
knights
knil
knock
knopf
knot
know
knowledge
knowles
known
knows
knox
knpi
ko
koalisi
koarmada
kobalt
kobayashi
kobe
koboi
koch
kod
koda
kodam
kodansha
kode
kodeks
kodepos
kodim
kodok
kodrat
koe
koefisien
koen
koes
koeswoyo
kognitif
koh
koi
koin
koji
kojima
kok
koki
koko
kokoh
kokoro
kokpit
kol
kolaborasi
kolaboratif
kolaborator
kolaka
kolam
kolega
koleksi
koleksinya
kolektif
kolektor
kolera
kolese
kolesterol
kolkata
kolom
kolombia
kolonel
kolong
koloni
kolonial
kolonialisme
kolonisasi
kolose
kolumnis
kom
koma
komandan
komando
komatsu
kombes
kombinasi
komedi
komedian
komentar
komentari
komentator
komering
komersial
komet
komik
komika
kominfo
komisaris
komisi
komisioner
komite
komitmen
komnas
komnenos
komoditas
komoditi
komodo
komodor
komoro
kompak
komparatif
kompartemen
kompas
kompasiana
kompatibel
kompeni
kompensasi
kompeten
kompetensi
kompetisi
kompetitif
kompetitor
kompi
kompilasi
komplek
kompleks
kompleksitas
komplikasi
komponen
komponis
kompor
komposer
komposisi
komposit
komprehensif
kompresi
kompromi
komputasi
komputer
komputindo
komunal
komune
komuni
komunikasi
komunis
komunisme
komunitas
komutatif
komuter
kon
konawe
kondensasi
kondisi
kondisinya
kondo
kondolojy
konduktivitas
konduktor
kondusif
koneksi
konektivitas
konfederasi
konferensi
konfiden
konfigurasi
konfirmasi
konflik
konfrontasi
konfusianisme
konfusius
kong
konghucu
konglomerat
kongo
kongregasi
kongres
kongsi
koni
koninklijk
koninklijke
konjektur
konjugasi
konjungsi
konklaf
konkret
kono
konon
konotasi
konrad
konsekuensi
konseling
konselor
konsensus
konsentrasi
konsep
konsepsi
konseptual
konser
konservasi
konservatif
konsesi
konsili
konsisten
konsistensi
konsol
konsolidasi
konsonan
konsorsium
konspirasi
konstan
konstanta
konstantin
konstantinopel
konstantinus
konstelasi
konstituante
konstituen
konstituensi
konstitusi
konstitusional
konstruksi
konstruktor
konsul
konsulat
konsuler
konsultan
konsultasi
konsumen
konsumsi
kontainer
kontak
kontaminasi
kontan
konteks
kontemporer
konten
kontes
kontestan
kontinental
kontingen
kontinu
kontra
kontradiksi
kontrak
kontraknya
kontraksi
kontraktor
kontras
kontrasepsi
kontribusi
kontribusinya
kontributor
kontrol
kontroversi
kontroversial
kontur
konveksi
konvensi
konvensional
konvergen
konvergensi
konversi
konvoi
konyol
koo
kooperatif
koordinasi
koordinat
koordinator
kopassus
kopenhagen
koper
koperasi
kopertis
kopi
kopling
kopral
koptik
kor
koral
koramil
koran
korawa
korban
korbannya
korea
korean
koreksi
korelasi
korem
koreografer
koreografi
koresh
koresponden
korespondensi
koridor
korintus
korn
korona
koronavirus
koroner
korosi
korpora
korporasi
korporat
korps
korpus
korsika
korteks
korup
korupsi
kos
kosakata
kosmetik
kosmik
kosmologi
kosmos
kosong
kosovo
kosta
kostrad
kostum
kota
kotabaru
kotak
kotaku
kotamadya
kotanya
kotapraja
kotawaringin
koto
kotor
kotoran
kovalen
kovenan
kp
kpa
kpi
kpk
kpop
kpt
kpts
kpu
kpud
kr
kra
krabs
kraft
krai
krajan
krakatau
krako
krama
kramat
kramer
kraton
krause
krd
kreasi
kreatif
kreativitas
kreator
krebs
kredit
kreditur
kredo
kremlin
kreol
kresna
kreta
kretek
kri
kriket
krim
krimea
kriminal
kripto
kriptografi
kris
krisdayanti
krishna
krisis
krisna
kristal
kristen
kristian
kristiani
kristin
kristina
kristo
kristus
kriteria
kritik
kritikan
kritikus
kritis
kriya
krl
kro
kroasia
kroll
krom
kromatografi
kromium
kromosom
kronik
kronis
kronologi
kronologis
kronos
kroya
kru
krueng
kruyt
ks
ksatria
kt
ktm
ktp
ktt
ku
kuadrat
kuah
kuala
kualifikasi
kualitas
kualitasnya
kualitatif
kuan
kuantan
kuantitas
kuantitatif
kuantum
kuarsa
kuartal
kuasa
kuasai
kuat
kuatnya
kuba
kubah
kubang
kubik
kubis
kubo
kubu
kubur
kuburan
kubus
kuch
kuching
kucing
kuda
kudanya
kudeta
kudo
kudus
kue
kufah
kuhp
kuhperd
kuil
kuis
kujang
kukar
kuku
kukuh
kuli
kuliah
kuliahnya
kuliner
kulit
kulitnya
kulon
kultivar
kultur
kultural
kultus
kuma
kumamoto
kuman
kumar
kumbang
kumi
kumis
kumoring
kumparan
kumpulan
kumuh
kumulatif
kun
kuna
kunang
kunci
kung
kungfu
kuning
kuningan
kunjung
kunjungan
kunjungannya
kunjungi
kuno
kunst
kuntilanak
kunyit
kuo
kuomintang
kuota
kupang
kuping
kupu
kura
kurang
kurangnya
kurator
kurban
kurdi
kurdish
kurdistan
kuria
kurikulum
kuripan
kurir
kurma
kurnia
kurniawan
kuro
kurosawa
kurs
kursi
kursus
kurt
kuru
kurun
kurung
kurungan
kurus
kurva
kush
kusta
kusuma
kusumo
kuta
kutai
kutipan
kutoarjo
kutu
kutub
kutukan
kuwait
kuwu
kv
kw
kwak
kwan
kwang
kwartir
kwee
kwok
kwon
ky
kya
kyai
kyeong
kyiv
kyle
kylie
kyo
kyoko
kyoto
kyu
kyun
kyung
kyushu
l
la
lab
laba
laban
labbineka
label
labirin
labor
laboratories
laboratorium
laboratory
labour
labrador
labs
labu
labuan
labuhan
labuhanbatu
lada
ladang
laden
ladies
lady
lae
laga
lagi
lagos
lagu
laguna
lagunya
lah
lahan
lahar
lahat
lahir
lahirlah
lahirnja
lahirnya
lahore
lai
laila
lain
lainnya
lainya
lajang
lajos
laju
lajur
lak
lake
lakers
lakes
laki
lakinya
lakon
laksamana
laksana
lakshmi
laku
lakukan
lal
lala
lalai
lalang
lalat
laloe
lalu
lalunya
lam
lama
laman
lamanja
lamanya
lamar
lamaran
lamb
lamban
lambang
lambat
lambatnya
lambda
lambert
lamborghini
lambung
lamela
lamiaceae
lamiales
lamongan
lampau
lampiran
lampu
lampung
lamun
lan
lana
lanal
lanang
lancang
lancar
lancaster
lance
lancet
lancip
land
landai
landak
landas
landasan
landau
landesamt
landing
landkreis
landmark
lands
landscape
landsdrukkerij
lane
lang
lange
langgam
langganan
langgar
langit
langka
langkah
langkat
langsa
langsung
language
languages
lanham
lanjut
lanjutan
lanka
lansia
lanskap
lantai
lantamal
lantang
lantaran
lantas
lantik
lanud
lao
laos
lap
lapan
lapang
lapangan
lapar
laphria
lapis
lapisan
laporan
laporannya
laporte
laptop
lara
larang
larangan
larantuka
laras
larasati
large
largest
lari
larik
laris
larry
lars
larsen
larson
larut
larutan
larva
las
lasem
laser
laskar
lasor
last
lat
lata
latar
late
later
lateral
latest
latief
latif
latih
latihan
latin
latina
latino
latvia
lau
lauda
laude
lauk
laun
launch
launched
launches
launching
laura
laurel
lauren
laurence
laurent
laurie
lausanne
laut
lautan
lautnya
lava
lavender
lavigne
law
lawak
lawan
lawang
lawannya
lawas
lawe
lawrence
laws
lawson
lawu
lawyer
lay
layak
layaknya
layanan
layang
layar
layer
layout
layu
lazarus
lazim
lazimnya
lazio
lb
lbf
lc
lccn
lcd
ld
ldots
le
lea
lead
leader
leaders
leadership
leading
leads
leaf
league
leah
leang
leap
learn
learned
learning
least
leave
leaves
leaving
lebah
lebak
lebanon
lebar
lebaran
lebarnya
lebat
leben
lebih
lebong
lebur
lech
leclerc
lecture
lectures
led
ledak
ledakan
ledger
lee
leeds
leela
left
leg
lega
legacy
legal
legend
legenda
legendaris
legendary
legends
legion
legislasi
legislatif
legislation
legislative
legislator
legitimasi
legiun
lego
leher
lehernya
lehman
lei
leia
leibniz
leicester
leiden
leigh
leila
leinster
leipzig
lekas
lekat
leksikal
leksikon
lelah
lelaki
lelang
lele
leluasa
lelucon
leluhur
leluhurnya
lem
lema
lemah
lemak
lemari
lembab
lembaga
lembah
lembang
lembap
lembar
lembaran
lembata
lembing
lembu
lembut
lemdiklat
lemes
lemhanas
lemhannas
lemon
lempar
lemparan
lempeng
lempengan
lempung
len
lena
lencana
lendir
lengan
lengannya
lengkap
lengkapnya
lengket
lengkong
lengkung
lengkungan
length
lenin
leningrad
lennon
lenny
lens
lensa
lentera
lenyap
leo
leon
leonard
leonardo
leone
leonid
leopard
leopold
lepas
leptogaster
leptotarsus
leq
lereng
lerner
leroy
les
lesbian
lescharts
lesi
lesley
leslie
lesmana
lesotho
less
lesser
lesson
lessons
lestari
leste
lester
lesti
lesung
let
letak
letaknya
letjen
letkol
letnan
letter
letters
lettres
lettu
letusan
leukemia
leung
leuven
lev
levant
level
levels
leverkusen
levi
levin
levine
levy
lew
lewat
lewi
lewis
lex
lexicon
lexikon
lexington
lexus
leyte
lez
lezat
lf
lfp
lg
lgbt
lh
lhokseumawe
li
lia
liam
lian
liang
liao
liar
liat
lib
libanon
liber
liberal
liberalisme
liberation
liberia
libertarian
liberty
libraries
library
libre
libreria
librivox
libur
liburan
libya
license
licenses
licik
licin
lida
lidah
liddell
lie
liechtenstein
liem
lien
lies
lieutenant
life
lifestyle
lifetime
lift
liga
ligaindonesia
ligan
light
lightning
lights
ligue
lih
lihat
lihatlah
like
likely
liku
likuiditas
lil
lila
lili
lilin
lille
lillian
lily
lim
lima
limau
limbah
limburg
limit
limited
limits
limo
lin
lina
lincah
lincoln
linda
linden
lindl
lindsay
lindsey
lindung
line
linear
linen
liner
lines
lineup
ling
lingga
lingkar
lingkaran
lingkungan
lingkungannya
lingkup
lingua
linguistic
linguistics
linguistik
lini
linier
link
linked
linkedin
linkin
links
linnaeus
lintah
lintang
lintas
lintasan
linud
linus
linux
linyphiidae
lio
lion
lionel
liong
lions
lipa
lipat
lipatan
lipi
lipid
lippincott
lippo
liputan
liquid
lira
lirik
lirikis
liriknya
liriomyza
lis
lisa
lisan
lisboa
lisbon
lisensi
lissodendoryx
list
lista
listby
liste
listed
listen
listing
listrik
lists
lit
litbang
lite
liter
literal
literary
literasi
literatur
literature
lithium
lithuania
litium
little
littlefield
lituania
liturgi
liu
liur
liv
live
lived
liver
liverpool
livery
lives
living
livius
lix
liz
liza
ljubljana
lk
lkerung
lkerungsstandes
lkis
ll
lla
llc
ller
lloyd
lm
ln
lng
lo
loa
loan
lobby
lobi
lobster
loc
local
located
location
locations
lock
locke
lockheed
locus
lodge
loe
loeb
log
logam
logan
logaritma
logat
logic
logika
logis
logistics
logistik
logo
logos
loh
lohan
loire
lois
loji
lok
loka
lokakarya
lokal
lokasi
lokasinya
loket
loki
lokomotif
lola
lolos
loma
lomba
lombard
lombardia
lombok
lompat
lompatan
lon
loncat
lonceng
london
lone
lonely
long
longer
longest
longgar
longman
longmans
longsor
lonjong
lontar
lontara
lontong
loo
look
looking
looks
loop
lopes
lopez
lor
lord
lorde
lords
lore
lorenzo
lori
lorong
lorraine
los
losari
lose
loser
loses
loss
losses
lost
lot
lotte
lotus
lou
loud
louis
louisa
louise
louisiana
louisville
lounge
louvre
lovato
love
loved
lovely
lover
lovers
loves
loving
low
lowe
lowell
lower
lowong
lowry
loyal
loyalis
loyalitas
loyola
lp
lpg
lps
lr
lrt
ls
lsm
lt
ltd
lte
lu
lua
luang
luar
luarnya
luas
luasnya
lubang
lubis
lubuk
lubuklinggau
luc
luca
lucas
lucia
luciano
lucien
lucius
luck
lucky
lucu
lucy
ludwig
lufthansa
luftwaffe
luhur
lui
luigi
luis
luisa
luiz
luk
luka
lukas
luke
lukis
lukisan
lukisannya
lukman
luksemburg
lulu
lulus
lulusan
lumajang
lumayan
lumba
lumban
lumbung
lumia
lumpuh
lumpur
lumut
lun
luna
lunak
lunar
lunas
lunatipula
luncur
luncurkan
lund
lung
luo
lupa
lupin
lupus
luput
lurah
lurus
luther
lutheran
luthfi
lutung
lutut
lutz
luv
luwu
luwuk
lux
luxembourg
luxury
luz
luzon
lv
lvaro
ly
lydia
lyle
lynch
lyndon
lynn
lynne
lynx
lyon
lyons
lyric
lyrics
m
ma
maa
maaf
maar
maastricht
maatschappij
mabel
mabes
mabuk
mac
macam
macan
macarthur
macau
macdonald
macedonia
macet
mach
machi
machine
machines
macht
macintosh
mack
mackay
mackenzie
macmillan
mactutor
macy
mad
mada
madagascar
madagaskar
madam
madame
madani
made
madeira
madeleine
madelung
madhuri
madinah
madison
madiun
madjid
madness
madonna
madras
madrasah
madrid
madu
madura
madya
mae
maeda
maestro
mafia
mag
magang
magazine
magazines
magdalena
magelang
magellan
magetan
maggie
maghrib
magic
magical
magis
magister
magma
magna
magnesium
magnet
magnetic
magnetik
magnificent
magnitude
magnitudo
magnum
magnus
magyar
mah
maha
mahabharata
mahakam
mahakuasa
mahal
mahar
maharaja
maharani
maharashtra
mahasiswa
mahasiswi
mahasz
mahathir
mahatma
mahayana
mahdi
mahendra
maher
mahesh
mahir
mahkamah
mahkota
mahluk
mahmoud
mahmud
maho
mai
maia
maid
maiden
mail
main
mainan
maine
mainichi
mainkan
mainstream
maintenance
mainz
maison
maja
majalah
majalengka
majapahit
majelis
majemuk
majene
majesty
majid
majikan
majlis
major
majority
maju
mak
maka
makabe
makalah
makam
makamnya
makan
makanan
makanannya
makasar
makassar
makau
make
makedonia
maker
makers
makes
makhluk
maki
makin
making
makk
makka
makkah
maklumat
makmur
makna
maknanya
mako
makoto
makro
maksimal
maksimum
maksoed
maksud
maksudnya
mal
mala
malabar
maladewa
malah
malahan
malaikat
malaka
malam
malang
malapetaka
malaria
malas
malawi
malay
malaya
malayalam
malaysia
malaysian
malcolm
malden
male
maleficent
malhotra
mali
malik
maliki
malin
malinau
maling
mall
mallorca
malmo
malone
malta
malu
maluku
mama
mamak
mamalia
maman
mamasa
mamberamo
mami
mamluk
mammal
mammals
mampu
mamuju
man
mana
manado
manaf
management
manager
managing
manajemen
manajer
manakah
manakala
manapun
manasye
mancanegara
manchester
manchu
manchuria
mancur
manda
mandai
mandailing
mandala
mandar
mandarin
mandat
mandate
mandela
mandi
mandiri
mandor
mane
manfaat
manfaatnya
manfred
mang
manga
mangalore
mangan
mangga
manggala
manggarai
manggis
manggung
mangkat
mangkok
mangkubumi
mangkuk
mangkunegara
mangkunegaran
mangkurat
mango
mangora
mangrove
mangsa
mangsanya
manhattan
mani
mania
manifestasi
manifesto
manik
manila
manipulasi
manis
manisan
manja
mann
manna
manning
manoesia
manoj
manokwari
manor
manota
mans
mansell
mansfield
mansion
mansur
mansyur
mantan
mantap
mantel
mantra
mantri
manu
manual
manuel
manufacturing
manufaktur
manunggal
manurung
manuscript
manuscripts
manusia
manusiawi
manuskrip
manuver
many
mao
maoe
map
mapan
maple
mapper
mapping
maps
mar
mara
marah
marak
marathi
marathon
maraton
marc
marca
marcel
marcello
marcelo
march
marche
marching
marcia
marco
marconi
marcos
marcus
mare
marek
mareka
maret
marga
margaret
margasatwa
margin
margot
marguerite
marhaen
mari
maria
mariah
mariam
marian
mariana
marianne
mariano
marie
marika
mariko
marilah
marilyn
marin
marina
marine
marines
marinir
marino
mario
marion
marisa
marissa
maritim
maritime
marius
marjorie
mark
marka
markah
markas
market
marketing
markets
markgraf
marko
marks
markus
marmer
marne
maroko
maroon
maros
maroskab
marquis
marriage
married
marry
mars
marsden
marseille
marsekal
marsh
marsha
marshal
marshall
marsma
mart
marta
martabat
martapura
marten
martha
marti
martial
martian
martin
martina
martinez
martini
martins
martinus
martir
marty
martyr
maru
marusu
marvel
marvin
marwan
marx
marxis
marxisme
mary
maryam
maryland
marzuki
mas
masa
masahiro
masak
masakan
masaki
masalah
masalahnya
masam
masanya
masashi
masato
masayuki
masehi
masi
masif
masih
masing
masinis
masjid
masjidil
mask
maskapai
masker
maskot
maskulin
masoek
mason
masoret
masoretik
mass
massa
massachusetts
massacre
massal
massimo
massive
master
masterchef
mastering
masterpiece
masters
masuda
masuk
masukan
masukkan
masuknya
masyarakat
masyarakatnya
masyhur
masyumi
mat
mata
matahari
matan
matang
matanya
mataram
match
matches
mate
matematika
matematikawan
matematis
mateo
mater
materi
material
materialisme
materials
materiil
math
mathbb
mathbf
mathematical
mathematics
mathfrak
mathias
mathilde
mathrm
mathworld
mati
matian
matilda
matinya
matius
matra
matriks
matrix
matsuda
matsui
matsumoto
matsumura
matsuri
matt
matteo
matter
matters
matthew
matthews
matthias
mau
maudy
maulana
maulid
maupun
maureen
maurice
mauritania
mauritius
mauro
maurya
mausoleum
maut
maverick
mawar
max
maxi
maxim
maximilian
maximum
maximus
maxwell
may
maya
mayang
mayat
maybe
maybrat
mayer
mayjen
maynard
mayo
mayor
mayoritas
mayr
mayu
mayur
mazda
mazhab
mazmur
mb
mba
mbah
mbak
mbc
mbe
mbox
mbs
mc
mccarthy
mccartney
mccoy
mcdonald
mcdonnell
mcdowell
mcfarland
mcgill
mcgraw
mcgregor
mcguire
mckay
mckenzie
mckinley
mclaren
mclaughlin
mclean
mcmahon
mcnary
mcqueen
mcu
md
mdpl
mdt
me
mead
mean
meaning
means
measure
measurement
measures
meat
mebel
mechanical
mechanics
mechanism
mechanisms
mecklenburg
med
medal
medali
medan
medang
medcom
media
mediaindonesia
median
medianet
mediasi
mediator
medical
medici
medicine
medien
medieval
medii
medina
medis
meditasi
mediterania
mediterranean
medium
medley
mee
meer
meet
meeting
meets
meg
mega
megah
megan
megatron
megawati
meghan
megumi
mehmed
mehra
mehta
mei
meier
meiji
mein
meitetsu
meja
mekah
mekanik
mekanika
mekanis
mekanisme
mekar
mekkah
mekong
meksiko
mel
melacak
melahirkan
melainkan
melaju
melaka
melaksanakan
melakukan
melakukannya
melalui
melamar
melambangkan
melampaui
melanagromyza
melancarkan
melanda
melanesia
melanggar
melangkah
melangsungkan
melanie
melanjutkan
melantai
melantik
melapor
melaporkan
melarang
melarikan
melastomataceae
melati
melatih
melawan
melawannya
melawi
melayang
melayani
melayu
melbourne
melebar
melebihi
melebur
meledak
meledakkan
melek
melekat
meleleh
melemah
melemahkan
melempar
melemparkan
melengkapi
melengkung
melenyapkan
melepas
melepaskan
melestarikan
meletakkan
meletus
meletusnya
melewati
melewatkan
melibatkan
melihat
melihatnya
melimpah
melinda
melindungi
melindunginya
melingkar
melingkupi
melintang
melintas
melintasi
meliput
meliputi
melissa
mello
mellon
melly
melodi
melodrama
melody
meloloskan
melompat
melon
melonjak
melontarkan
meluas
melukai
melukis
melukiskan
melumpuhkan
melunasi
meluncur
meluncurkan
melupakan
meluruh
melville
melvin
mem
memaafkan
memacu
memadai
memadamkan
memadukan
memahami
memainkan
memajukan
memakai
memakainya
memakan
memakannya
memaksa
memaksakan
memaksanya
memaksimalkan
memalukan
memamerkan
memanah
memanas
memanaskan
memancarkan
memancing
memandang
memandu
memanfaatkan
memang
memanggil
memanggilnya
memangku
memangsa
memanipulasi
memanjang
memanjat
memantapkan
memantau
memaparkan
memasak
memasang
memasarkan
memasok
memastikan
memasukan
memasuki
memasukkan
memasukkannya
mematahkan
mematikan
mematuhi
membaca
membacakan
membacanya
membagi
membagikan
membahas
membahayakan
membaik
membajak
membakar
membalap
membalas
membalikkan
membandingkan
membanggakan
membangkitkan
membangun
membangunkan
membantah
membantai
membantu
membantunya
membasmi
membatalkan
membatasi
membawa
membawahi
membawakan
membawanya
membayangkan
membayar
membebaskan
membedakan
membedakannya
membeku
membela
membelah
membeli
membelinya
membelot
membenarkan
membenci
membendung
membentang
membentuk
member
memberantas
memberdayakan
memberhentikan
memberi
memberikan
memberikannya
memberinya
memberitahu
memberitahukan
memberitahunya
memberitakan
memberkati
memberlakukan
memberontak
members
membership
membersihkan
membesar
membesarkan
membiarkan
membiayai
membicarakan
membidangi
membikin
membimbing
membina
membinasakan
membingungkan
membintangi
memblokir
membolehkan
membongkar
membosankan
membran
membuahkan
membuang
membuat
membuatnya
membubarkan
membujuk
membujur
membuka
membuktikan
membungkus
membunuh
membunuhnya
memburu
memburuk
membusuk
membutuhkan
meme
memecah
memecahkan
memecat
memegang
memelihara
memeluk
memenangi
memenangkan
memengaruhi
memenjarakan
mementingkan
memenuhi
memerangi
memerankan
memeras
memeriksa
memerintah
memerintahkan
memerlukan
memesan
memetakan
memetik
memfasilitasi
memfokuskan
memicu
memihak
memikat
memikirkan
memikul
memilih
memiliki
memilikinya
memilki
memimpin
memindahkan
meminimalkan
meminjam
meminjamkan
meminta
memintanya
meminum
memisahkan
memo
memoar
memodifikasi
memohon
memoir
memoirs
memorandum
memori
memorial
memoriam
memories
memory
memotivasi
memotong
memotret
mempawah
mempekerjakan
mempelai
mempelajari
mempelopori
mempengaruhi
memperbaharui
memperbaiki
memperbanyak
memperbarui
memperbesar
memperbolehkan
memperburuk
mempercayai
mempercayakan
mempercepat
memperdalam
memperdebatkan
memperebutkan
mempergunakan
memperhatikan
memperhitungkan
memperingati
memperingatkan
memperjelas
memperjuangkan
memperkaya
memperkenalkan
memperkirakan
memperkosa
memperkuat
memperlakukan
memperlambat
memperlihatkan
memperluas
mempermudah
memperoleh
memperpanjang
mempersatukan
mempersembahkan
mempersiapkan
mempertahankan
mempertanyakan
mempertemukan
mempertimbangkan
memphis
mempopulerkan
memposting
memprakarsai
mempraktikkan
memprediksi
mempresentasikan
memproduksi
memproduseri
memproklamasikan
memproklamirkan
mempromosikan
memproses
memprotes
mempublikasikan
mempunyai
memuaskan
memuat
memudahkan
memudar
memuja
memuji
memukau
memukul
memulai
memuliakan
memulihkan
memuncak
memuncaki
memunculkan
memungkinkan
memungkinkannya
memungut
memusatkan
memusnahkan
memusuhi
memutar
memutus
memutuskan
men
mena
menaati
menabrak
menafsirkan
menahan
menaiki
menaikkan
menak
menakjubkan
menaklukan
menaklukkan
menakutkan
menamai
menamainya
menamakan
menamatkan
menambah
menambahkan
menampakkan
menampilkan
menampung
menanam
menanamkan
menandai
menandakan
menandatangani
menang
menangani
menanggapi
menangguhkan
menanggulangi
menanggung
menangis
menangkap
menangkapnya
menanjak
menantang
menanti
menantikan
menantu
menantunya
menanyakan
menara
menargetkan
menari
menarik
menariknya
menaruh
menasihati
menata
menatap
menaungi
menawan
menawarkan
menayangkan
mencabut
mencair
mencakup
mencalonkan
mencampur
mencampurkan
mencantumkan
mencapai
mencari
mencatat
mencatatkan
mencegah
mencegahnya
mencela
menceraikan
menceritakan
mencerminkan
mencetak
mencetuskan
mencintai
mencintainya
menciptakan
mencium
mencoba
mencolok
mencuat
mencuci
mencukupi
menculik
mencurahkan
mencuri
mencurigai
mencurigakan
mendadak
mendaftar
mendaftarkan
mendagri
mendahului
mendaki
mendalam
mendalami
mendamaikan
mendampingi
mendanai
mendapat
mendapati
mendapatkan
mendapatkannya
mendarat
mendaratkan
mendasar
mendasari
mendasarkan
mendatang
mendatangi
mendatangkan
mendatar
mendedikasikan
mendefinisikan
mendekat
mendekati
mendekatkan
mendeklarasikan
mendemonstrasikan
mendengar
mendengarkan
mendengarnya
menderita
mendes
mendesain
mendesak
mendeskripsikan
mendeteksi
mendiami
mendiang
mendidih
mendidik
mendikbud
mendirikan
mendiskusikan
mendistribusikan
mendjadi
mendoakan
mendokumentasikan
mendominasi
mendorong
mendorongnya
mendoza
menduduki
menduga
mendukung
mendukungnya
menebang
menebus
menegakkan
menegaskan
menegosiasikan
menegur
menekan
menekankan
menekuni
menelan
menelepon
meneliti
menelurkan
menelusuri
menemani
menembak
menembaki
menembakkan
menembus
menempati
menempatkan
menempatkannya
menempel
menempelkan
menempuh
menemui
menemukan
menemukannya
menenangkan
menendang
menengah
menenggelamkan
menentang
menentu
menentukan
menenun
menerangi
menerangkan
menerapkan
menerbangkan
menerbitkan
menerima
menerimanya
menerjemahkan
menerobos
menerus
meneruskan
menetap
menetapkan
menetas
menewaskan
meng
mengabadikan
mengabaikan
mengabarkan
mengabdi
mengabdikan
mengabulkan
mengacaukan
mengacu
mengadakan
mengadaptasi
mengadili
mengadopsi
mengadu
mengagumi
mengagumkan
mengaitkan
mengajak
mengajaknya
mengajar
mengajari
mengajarkan
mengaji
mengajukan
mengakhiri
mengakibatkan
mengakomodasi
mengakses
mengaktifkan
mengaku
mengakui
mengakuisisi
mengalah
mengalahkan
mengalahkannya
mengalami
mengalihkan
mengalir
mengalirkan
mengalokasikan
mengamalkan
mengamankan
mengamati
mengambang
mengambil
mengambilnya
mengampuni
mengamuk
menganalisis
mengancam
mengandalkan
mengandung
menganggap
menganggapnya
mengangkat
mengangkatnya
mengangkut
menganiaya
menganjurkan
mengantar
mengantarkan
mengantisipasi
menganugerahkan
menganut
mengapa
mengapung
mengarah
mengarahkan
mengarang
mengartikan
mengarungi
mengasah
mengasihi
mengasingkan
mengasuh
mengasumsikan
mengatakan
mengatasi
mengatur
mengawal
mengawali
mengawasi
mengebor
mengecam
mengecewakan
mengecil
mengedepankan
mengedit
mengejar
mengejarnya
mengejek
mengejutkan
mengeksekusi
mengeksploitasi
mengeksplorasi
mengekspor
mengekspresikan
mengelilingi
mengelola
mengelompokkan
mengeluarkan
mengeluh
mengembalikan
mengemban
mengembang
mengembangkan
mengembara
mengemudi
mengemudikan
mengemukakan
mengenai
mengenakan
mengenal
mengenali
mengenalkan
mengenalnya
mengenang
mengendalikan
mengendarai
mengenyam
mengepalai
mengepung
mengerahkan
mengerikan
mengering
mengerjakan
mengerti
mengesahkan
mengesampingkan
mengesankan
mengetahui
mengetahuinya
mengevakuasi
mengevaluasi
menggabungkan
menggagalkan
menggalang
menggali
menggambar
menggambarkan
menggambarkannya
menggandeng
mengganggu
mengganti
menggantikan
menggantikannya
menggantinya
menggantung
menggantungkan
menggapai
menggarap
menggelar
menggerakkan
menggeser
menggigit
menggoda
menggubah
menggugat
menggulingkan
menggunakan
menggunakannya
mengguncang
menghabisi
menghabiskan
menghadang
menghadap
menghadapi
menghadiri
menghadirkan
menghafal
menghalangi
menghalau
menghambat
menghampiri
menghancurkan
menghantam
menghapus
menghapuskan
mengharapkan
menghargai
mengharuskan
menghasilkan
menghasut
menghemat
menghendaki
menghentikan
mengherankan
menghiasi
menghibur
menghidupi
menghidupkan
menghilang
menghilangkan
menghimpun
menghina
menghindar
menghindari
menghindarkan
menghisap
menghitung
menghormati
menghormatinya
menghubungi
menghubungkan
menghukum
menghuni
mengibarkan
mengidap
mengidentifikasi
mengidentifikasikan
mengikat
mengikut
mengikuti
mengikutinya
mengikutsertakan
mengilhami
mengimbangi
mengimplementasikan
mengimpor
menginap
mengincar
mengindahkan
mengindikasikan
menginduksi
menginfeksi
menginformasikan
mengingat
mengingatkan
menginginkan
mengingkari
menginjak
menginspirasi
menginstruksikan
mengintegrasikan
mengintip
menginvasi
mengira
mengirim
mengirimkan
mengirimnya
mengiringi
mengisahkan
mengisi
mengisolasi
mengisyaratkan
mengitari
mengizinkan
mengkaji
mengkhawatirkan
mengkhianati
mengkhususkan
mengkilap
mengklaim
mengklasifikasikan
mengkonfirmasi
mengkonsumsi
mengkoordinasikan
mengkritik
mengobati
mengolah
mengoleksi
mengomentari
mengonfirmasi
mengonsumsi
mengontrol
mengoperasikan
mengoptimalkan
mengorbankan
mengorbit
mengorganisir
menguap
menguasai
menguatkan
mengubah
mengubahnya
mengucap
mengucapkan
mengudara
menguji
mengukir
mengukuhkan
mengukur
mengulang
mengulangi
mengulas
mengumpulkan
mengumumkan
mengunci
mengundang
mengunduh
mengundurkan
mengunggah
mengungguli
mengungkap
mengungkapkan
mengungsi
mengunjungi
menguntungkan
mengupayakan
menguraikan
mengurangi
mengurung
mengurus
mengurusi
mengusahakan
mengusir
mengusulkan
mengusung
mengutamakan
mengutarakan
mengutip
mengutuk
mengutus
meniadakan
menikah
menikahi
menikahinya
menikahkan
menikmati
menilai
menimba
menimbang
menimbulkan
menimpa
menindaklanjuti
menindas
meninggal
meninggalkan
meninggalkannya
meninggalnya
meningitis
meningkat
meningkatkan
meningkatnya
meninjau
menipu
meniru
menit
meniti
meniup
menjabarkan
menjabat
menjadi
menjadikan
menjadikannya
menjaga
menjahit
menjajah
menjalani
menjalankan
menjalar
menjalin
menjamin
menjangkau
menjanjikan
menjarah
menjatuhkan
menjauh
menjauhi
menjauhkan
menjawab
menjebak
menjelajah
menjelajahi
menjelang
menjelaskan
menjelma
menjembatani
menjemput
menjual
menjualnya
menjuarai
menjulang
menjumpai
menjunjung
menko
menobatkan
menolak
menolaknya
menolong
menon
menonjol
menonjolkan
menonton
menopang
mensponsori
menstabilkan
menstruasi
mensyaratkan
ment
mentah
mental
mentari
mentawai
mentega
menteng
menteri
mentimun
mentor
mentransfer
menu
menuai
menuangkan
menuduh
menugaskan
menuju
menukar
menular
menulis
menuliskan
menumbuhkan
menumpang
menumpas
menumpuk
menunaikan
menunda
menundukkan
menunggang
menunggu
menunjang
menunjuk
menunjukan
menunjukkan
menuntun
menuntut
menurun
menurunkan
menurunnya
menurut
menuruti
menurutnya
menusuk
menutup
menutupi
menuturkan
menyadari
menyaingi
menyajikan
menyakiti
menyakitkan
menyaksikan
menyala
menyalahgunakan
menyalahkan
menyalakan
menyalin
menyalip
menyalurkan
menyamai
menyamakan
menyamar
menyambung
menyambut
menyampaikan
menyandang
menyang
menyangka
menyangkal
menyangkut
menyanyi
menyanyikan
menyapa
menyapu
menyarankan
menyaring
menyatakan
menyatu
menyatukan
menyayangi
menyebabkan
menyebabkannya
menyebar
menyebarkan
menyebarluaskan
menyeberang
menyeberangi
menyebut
menyebutkan
menyebutnya
menyederhanakan
menyediakan
menyedihkan
menyeimbangkan
menyelam
menyelamatkan
menyelamatkannya
menyelenggarakan
menyelesaikan
menyelesaikannya
menyelidiki
menyelinap
menyeluruh
menyembah
menyembelih
menyembuhkan
menyembunyikan
menyempurnakan
menyenangkan
menyentuh
menyepakati
menyerah
menyerahkan
menyerahkannya
menyerang
menyerangnya
menyerap
menyerbu
menyeret
menyertai
menyertakan
menyerukan
menyerupai
menyesal
menyesali
menyesatkan
menyesuaikan
menyetujui
menyewa
menyiapkan
menyiarkan
menyiksa
menyimpan
menyimpang
menyimpulkan
menyinggung
menyingkirkan
menyiratkan
menyisakan
menyisihkan
menyita
menyokong
menyoroti
menyuarakan
menyukai
menyukainya
menyulitkan
menyumbang
menyumbangkan
menyunting
menyuruh
menyuruhnya
menyusui
menyusul
menyusun
menyusup
menyusuri
menyusut
menyutradarai
mer
mera
meragukan
merah
meraih
merak
meramalkan
merambah
merambat
merampas
merampok
merancang
merangin
merangkap
merangkul
merangkum
merangsang
merantau
meranti
merapi
merasa
merasakan
merata
meratifikasi
merauke
meraup
merawat
merayakan
merayu
mercedes
mercer
merchant
mercia
merck
mercu
mercury
mercusuar
mercy
merdeka
merdu
mere
merebut
meredakan
meredam
meredith
merefleksikan
mereformasi
merek
mereka
merekalah
merekam
merekomendasikan
merekrut
meremehkan
merencanakan
merendahkan
merenggut
merepresentasikan
meresmikan
merespon
merespons
merevisi
merger
meri
meriah
meriam
meridian
merilis
merindukan
meringankan
merintis
merit
meriwayatkan
merk
merkel
merkuri
merkurius
merlin
mermaid
merobek
merokok
merosot
merpati
merr
merriam
merrill
merry
merta
mertua
mertuanya
merubah
merugi
merugikan
merujuk
merumuskan
meruncing
meruntuhkan
merupakan
merusak
mes
mesa
mesias
mesin
mesinnya
mesir
mesiu
mesjid
meski
meskipun
mesopotamia
mesra
message
messagero
messages
messenger
messi
messiah
messier
messina
mesti
mestinya
met
meta
metabolism
metabolisme
metabolit
metacritic
metafisika
metafora
metal
metallica
metals
metalurgi
metana
metcalf
meteor
meteorit
meteorologi
meteorological
meter
meterai
method
methodist
methods
metil
metode
metodis
metodologi
metrik
metro
metropolis
metropolitan
metrotv
metrotvnews
metz
metzger
meunasah
mewah
mewajibkan
mewakili
mewarisi
mewariskan
mewarnai
mewawancarai
mewujudkan
mexican
mexicana
mexico
meyakini
meyakinkan
meyer
meyers
meyrick
mez
mezbah
mf
mg
mgm
mgr
mh
mhz
mi
mia
miami
miao
mic
mice
michael
michaels
michel
michelangelo
michele
micheli
michelin
michelle
michigan
mick
mickey
miconia
micro
microbiol
microbiology
microcionidae
microsoft
microstylum
mid
middle
middleton
midi
midland
midnight
midori
midun
midway
mie
mieszko
mifflin
miftahul
mig
migas
might
mighty
migran
migrasi
migration
miguel
mika
mikael
mike
mikha
mikhael
mikhail
miki
mikian
miko
mikro
mikrob
mikrobiologi
mikrofon
mikronesia
mikroorganisme
mikroskop
mil
mila
milan
milano
mild
mile
milenial
milenium
miles
milestone
miley
miliar
milik
miliki
miliknya
milimeter
milisi
militaire
militan
military
militer
militernya
milk
milky
mill
millennium
miller
millidge
million
millionaire
millions
mills
milo
milos
milton
milwaukee
milyar
mimbar
mimi
mimika
mimpi
mimpinya
min
mina
minahasa
minaj
minami
minamoto
minang
minangkabau
minas
minat
minatnya
minato
mind
mindanao
minds
mine
minecraft
mineral
minerva
ming
minggu
mingguan
minh
mini
miniatur
minim
minimal
minimum
mining
miniseri
minister
ministers
ministry
minneapolis
minnesota
mino
minor
minoritas
minorities
minority
minsk
mint
minta
minum
minuman
minus
minuscule
minute
minutes
minyak
mio
mir
mira
miracle
miracles
mirage
mirai
miranda
miri
miriam
miring
mirip
miroslav
mirror
mirza
mis
misa
misaki
misal
misalkan
misalnya
mischa
mishra
misi
misil
misinya
misionaris
miskin
miss
missile
missiles
missing
mission
missionary
missions
mississippi
missouri
mister
misteri
misterius
misti
mistik
mistis
mit
mita
mitch
mitchell
mitigasi
mito
mitochondrial
mitokondria
mitologi
mitos
mitra
mitsubishi
mitsui
miura
mix
mixed
mixing
miyagi
miyako
miyamoto
miyazaki
miyazawa
miyuki
mizan
mizuki
mj
mk
ml
mls
mm
mn
mnc
mnctv
mnet
mnras
mo
moab
mob
mobil
mobile
mobilisasi
mobilitas
mobility
mobilnya
mobygames
moch
mochtar
mod
moda
modal
mode
model
modeling
models
modem
modena
moderat
moderator
modern
modernisasi
modernity
modi
modified
modifikasi
modul
modular
module
modus
moe
moeda
moerid
moga
mogok
moh
mohamad
mohamed
mohammad
mohammed
mohan
mohd
mohon
mohr
moi
moiyan
mojo
mojokerto
mok
mol
moldavia
moldova
molecular
molekul
molekuler
molibdenum
molina
molly
molotov
moluska
mom
momen
moment
moments
momentum
momo
mon
mona
monaco
monako
monarchy
monarki
monas
monastery
monastik
moncong
moncongloe
monday
monde
mondo
monetary
moneter
money
mong
mongol
mongolia
mongondow
monica
monitor
monitoring
monk
monkey
monkeys
monmouth
mono
monogatari
monograph
monographs
monoid
monoksida
monopoli
monroe
mons
monsieur
monster
monsters
mont
montana
monte
montefiore
montenegro
montgomery
month
monthly
months
montpellier
montreal
montserrat
monty
monumen
monument
monumental
monuments
monyet
monza
moo
mood
moody
moon
moonlight
moor
moore
mor
mora
moral
morales
moralitas
moran
moravia
more
moreno
morfem
morfologi
morgan
mori
morison
morita
moritz
morley
mormon
morning
moro
morocco
morotai
morowali
morphology
morris
morrison
morrow
morse
mort
mortality
mortimer
mortir
morton
mos
mosaik
moscow
moses
moshe
mosi
moskow
moskwa
mosque
moss
most
mosul
mother
motif
motilal
motion
motivasi
moto
motogp
motor
motorola
motors
motorsport
motorsports
motto
mou
mount
mountain
mountains
mouse
mouth
moutong
move
moved
movement
movements
moves
movie
movies
moving
moyang
moyangnya
mozambik
mozart
mozilla
mp
mph
mpk
mpr
mprs
mpu
mr
mrna
mrs
mrt
ms
msc
msn
msnbc
mt
mtr
mts
mtv
mu
mual
muara
muaro
muasal
muat
muatan
muawiyah
mubarak
much
muchtar
mud
muda
mudah
mudanya
mudi
mudik
mueller
mufakat
mufti
mughal
muh
muhamad
muhammad
muhammadiyah
muhyiddin
mui
mujahidin
muka
mukanya
mukerji
mukherjee
mukhtar
mukim
mukjizat
mukmin
mukomuko
mukosa
muktamar
mukti
mula
mulai
mulailah
mulan
mulanya
mulawarman
mulia
muljana
muller
mulo
multi
multilateral
multimedia
multinasional
multiple
multivision
muluk
mulus
mulut
mulutnya
mulya
mulyadi
mulyo
mulyono
mumbai
mumi
mumpuni
mun
muna
munafik
muncul
muncullah
munculnya
mundo
mundur
mundurnya
mungkin
munich
municipal
municipality
munir
munisipal
munisipalitas
muntah
mur
mura
murad
murah
murakami
mural
murba
murder
murdoch
muri
muria
murid
muridnya
murka
murni
murphy
murray
murtad
murung
mus
musa
musang
musashi
muscle
muse
museo
museum
museums
mushola
musholla
musi
musibah
music
musica
musical
musicians
musik
musikal
musiknya
musikus
musim
musiman
musisi
musk
muslihat
muslim
muslimah
muslimin
muslims
musnah
muson
mussolini
must
mustafa
mustahil
mustang
mustika
mustofa
musuh
musuhnya
musume
musyawarah
mutakhir
mutan
mutasi
mutiara
mutlak
mutlaknya
mutu
mutual
muzik
mv
mvp
mw
mwave
mx
my
myanmar
mycale
mycetophila
mycetophilidae
mycomya
myers
myo
myrmarachne
myrtaceae
myrtales
myself
mysore
myspace
mysteries
mysterious
mystery
mystic
myth
mythicomyia
mythology
myths
myung
n
na
naa
naar
nabati
nabi
nabila
nabire
nach
nacional
nad
nada
nadal
nadi
nadia
nadine
nadu
nadya
nafas
nafkah
nafsu
naga
nagai
nagano
nagara
nagarakretagama
nagari
nagasaki
nagori
nagorno
nagoya
nah
nahdlatul
nahum
nai
naif
naik
naiknya
naipospos
nair
nairobi
najib
najis
nak
naka
nakagawa
nakajima
nakal
nakamura
nakano
naked
nakhoda
nalar
naluri
nam
nama
namakan
namanya
namco
name
named
names
namibia
namida
naming
nampak
namun
nan
nana
nanang
nanas
nancy
nanda
nang
nanga
nanggroe
nangka
nani
nanjing
nano
nantes
nanti
nantinya
nao
naoki
naomi
napas
naples
napoleon
napoli
nara
narapidana
nararya
narasi
narasumber
naratif
narator
narayan
narendra
narita
narkoba
narkotika
narnia
narrative
naruto
nas
nasa
nasabah
nascar
nasdaq
nasdem
nash
nashville
nasi
nasib
nasibnya
nasihat
nasional
nasionalis
nasionalisasi
nasionalisme
nasir
naskah
naskahnya
nasr
nasrani
nassau
nasser
nast
nasution
nat
nata
natal
natalia
natalie
natasha
nate
nath
nathan
nathaniel
nation
national
nationale
nationalism
nationalist
nations
nationwide
native
nato
natrium
natsir
natsu
natsuki
natsume
natsumi
natuna
natur
natural
naturalis
nature
nauli
naungan
nauru
naval
navarra
navarro
naver
navigasi
navigation
navigator
navy
nawawi
naya
nazar
nazaret
nazareth
nazaruddin
nazi
nazionale
nb
nba
nbc
nc
ncaa
ncbi
nchen
nchez
ncis
nct
nd
ndak
ndao
nde
nder
ndez
ndtv
nduga
ne
neal
near
nearly
nebraska
nebukadnezar
nebula
nec
necessary
ned
nederland
nederlands
nederlandsch
nederlandse
nee
need
needed
needham
needs
negara
negaranya
negarawan
negatif
negative
negeri
negerinya
negosiasi
negri
negro
neha
nehemia
nehru
neighbors
neil
neill
nekat
neko
nektar
nel
nelayan
nella
nellie
nelly
nelson
nemo
nen
nenek
neneknya
neo
neolitikum
neolophonotus
neon
nepal
nepenthes
nephrotoma
neptune
neptunus
neraca
neraka
nero
nes
nest
nestle
nestor
net
netanyahu
netflix
netherlands
neto
netral
network
networks
neue
neuen
neumann
neuron
neuroscience
neutron
nevada
never
neville
nevis
new
newark
newcastle
newfoundland
newly
newman
newport
news
newsen
newsletter
newspaper
newspapers
newsroom
newsweek
newswire
newton
next
nexus
nez
neza
nf
nfl
ng
nga
ngabehi
ngada
ngaju
ngan
nganjuk
ngarai
ngawi
ngc
nge
ngel
ngemplak
ngengat
nggak
ngi
ngkau
ngo
ngurah
nguye
nguyen
nh
nha
nhk
nhl
ni
nia
niaga
nias
niat
niatnya
nic
nica
nicaragua
nice
nicea
nicholas
nichols
nicholson
nick
nickelodeon
nicki
nicky
nico
nicola
nicolas
nicole
nicolson
nie
niels
nielsen
niet
nietzsche
nieuw
nieuwe
nigel
niger
nigeria
nigerian
night
nightmare
nights
nih
nihon
niigata
niis
nijhoff
nik
nikah
nikaragua
nike
nikel
niken
niki
nikita
nikkei
nikki
nikmat
niko
nikola
nikolai
nikolas
nikolay
nil
nila
nilai
nilainya
nile
nils
nimfa
nin
nina
nine
nineteenth
ning
ningrat
nini
ninja
ninjago
nino
nintendo
ninth
nio
niosh
nipah
nippon
nira
nirkabel
nirlaba
nirvana
nirwana
nis
nisa
nisan
niscaya
nishi
nissan
nist
nita
nitrat
nitrogen
nixon
nj
nja
njang
njonja
nk
nkri
nl
nm
nmb
nme
nmi
nn
no
noaa
noah
nobel
nobelprize
nobita
noble
nobody
nobunaga
noda
node
noe
noel
noer
noh
noir
noise
nokia
nol
nolan
nom
nomaden
nomenclature
nomenklatur
nomina
nominal
nominasi
nominated
nomination
nominations
nomine
nominee
nominees
nomor
nomura
non
nona
nonaktif
none
nonlogam
nonton
noor
nopember
nor
nora
norbert
nord
nordic
nordik
norfolk
norma
normal
norman
normandia
normatif
norris
norse
norte
north
northeast
northern
northrop
northwest
northwestern
norton
norway
norwegia
norwegian
norwich
nos
nose
nostalgia
not
nota
notable
notaris
notasi
note
notebook
notes
nothing
notice
notices
notre
nottingham
noun
nouveau
nouvelle
nov
nova
novak
novel
novelis
novelnya
novels
november
novgorod
novi
novita
novo
novosti
novum
now
nowhere
np
npr
npsn
nr
ns
nster
nsw
nt
ntb
nther
ntt
ntv
nu
nuansa
nubia
nubuat
nuclear
nueva
nuevo
nugini
nugraha
nugroho
nuh
nukleat
nukleotida
nukleus
nuklida
nuklir
number
numbers
numeralia
numerik
numfor
nun
nunsiatur
nunsius
nunukan
nunung
nur
nurani
nurbaya
nurdin
nuremberg
nurhaliza
nuri
nurse
nurul
nus
nusa
nusantara
nussbaum
nutrisi
nutrition
nv
nw
ny
nya
nyai
nyak
nyala
nyaman
nyamuk
nyanyi
nyanyian
nyaring
nyaris
nyata
nyatanya
nyawa
nyawanya
nyc
nyeri
nyi
nyoman
nyonya
nyse
nytimes
nyu
nz
o
oak
oakland
oaks
oasis
ob
obama
obat
obatan
obenberger
oberea
obesitas
obi
obituary
object
objects
objek
objektif
oblast
obligasi
obor
obrolan
observasi
observation
observations
observatorium
observatory
observer
obsesi
obyek
oc
occupation
occupational
occupied
ocean
oceania
oceanic
och
oclc
oct
octavia
october
od
oda
odd
ode
oder
odessa
odisseus
odnb
odyssey
oe
oecd
oei
oentoek
of
ofc
ofensif
off
offensive
offer
offers
office
officer
officers
official
officially
officials
offline
offshore
often
og
ogan
oggi
ogos
oh
ohio
oi
oil
ois
oise
oita
ojek
ojk
ok
oka
okada
okamoto
okayama
oke
okezone
oki
okinawa
oklahoma
oknum
oksida
oksidasi
oksigen
oktober
oku
ol
ola
olaf
olah
olahan
olahraga
olahragawan
old
older
oldest
ole
oleg
oleh
olehnya
olga
oli
olih
olimpiade
oliv
olive
oliveira
oliver
olivia
olivier
olok
olsen
olson
olympia
olympiad
olympic
olympics
olympus
om
oma
oman
omar
ombak
ombudsman
omega
ommatius
omnibus
omong
ompu
on
once
onder
onderwijs
one
onepage
ones
ong
ongkos
oni
onitis
online
only
onna
ono
ons
onsen
ontario
onthophagus
oo
oost
oostindische
op
opel
open
opening
opens
openstreetmap
opera
operasi
operasinya
operasional
operasionalnya
operating
operation
operational
operations
operator
operatorname
opini
opinion
opium
oposisi
oppenheimer
opportunities
opportunity
opposition
oprah
ops
opsi
opsional
opsir
optical
optik
optimal
optimis
optimus
option
options
optis
opus
or
ora
oracle
oral
orang
orange
orangnya
orangtua
orangtuanya
orangutan
oranje
oranye
orbit
orbital
orchard
orchestra
orchidaceae
orde
order
ordered
orders
ordinary
ordo
ordonansi
ore
oregon
org
organ
organic
organik
organisasi
organisasinya
organisation
organisme
organization
organizations
organized
ori
oricon
orient
oriental
orientalis
orientasi
orientation
oriented
origen
origenes
origin
original
originally
originals
origins
orion
orisinal
orkes
orkestra
orlando
orle
orleans
ormas
ornamen
oro
orrell
orthodox
ortiz
ortodoks
ortografi
orton
os
osaka
osamu
osborne
oscar
oscars
oseania
osen
oshima
osiris
osis
oskar
oslo
osman
osn
osprey
ossetia
ost
oswald
ot
ota
otak
otentik
other
others
otis
oto
otobiografi
otomatis
otomotif
otonom
otonomi
otorita
otoritas
otoriter
otot
ott
ottawa
otto
ottoman
ou
oup
our
out
outbreak
outdoor
outer
outlet
outline
outlook
output
outside
outstanding
ouvrard
ov
ova
oval
ovarium
oven
over
overall
overdosis
overseas
overview
owen
owens
owl
own
owner
owners
ownership
oxford
oxygen
oxyopes
oxyopidae
oxyrhynchus
oz
ozawa
ozon
p
pa
paban
pabandya
pabean
pablo
pabrik
pabrikan
pabriknya
pac
pacar
pacaran
pacarnya
pace
pacific
pacitan
pack
package
packard
pacu
pacuan
pacul
pad
pada
padahal
padaku
padalarang
padam
padamu
padanan
padang
padanja
padanya
padat
padatan
padepokan
padi
padilla
padjadjaran
padma
pado
padova
padri
padu
padua
paduan
paduka
padukone
pagan
pagar
pagaruyung
page
pageant
pagelaran
pages
pagi
paginya
paglinawan
pagoda
pagu
paguyuban
pah
paha
pahala
paham
pahang
pahat
pahatan
pahit
pahlavi
pahlawan
pai
paid
pailit
pain
paine
paint
painted
painter
painting
paintings
pair
pajajaran
pajak
pajang
pak
pakai
pakaian
pakaiannya
pakan
pakar
pake
paket
pakis
pakistan
pakpak
paksa
paksaan
pakta
paku
pakuan
pakubuwana
pal
pala
palabuhanratu
palace
palais
palang
palangka
palangkaraya
palapa
palau
palawija
palazzo
pale
palearktik
palem
palembang
palermo
palestina
palestine
palestinian
palgrave
pali
paling
palm
palma
palme
palmer
palmyra
palo
paloh
palopo
palsu
palu
palung
pam
pama
paman
pamandanya
pamannya
pamekasan
pamela
pamen
pameran
pamflet
pamona
pamong
pamungkas
pan
panah
panahan
panama
panas
panasnya
panasonic
panca
pancaran
pancasila
panci
pancing
pancoran
panda
pandai
pandan
pandang
pandangan
pandangannya
pandawa
pandeglang
pandemi
pandemic
pandey
pandit
pandji
pandora
pandu
panduan
pane
panel
panembahan
panen
pang
pangan
pangandaran
pangdam
pangeran
pangerang
panggabean
panggang
panggil
panggilan
panggul
panggung
panggungnya
pangkajene
pangkal
pangkalan
pangkalpinang
pangkat
pangkatnya
pangkep
panglima
pangsa
paniai
panic
panicum
panik
panitera
panitia
panjaitan
panjalu
panjang
panjangnya
panjat
panji
pankreas
panorama
pantai
pantang
pantas
pantheon
panther
panti
pantulan
pantun
pantura
panutan
panwaslu
panzer
pao
paolo
papa
papal
papan
paparan
paper
paperback
papers
papirus
papua
papyri
papyrus
par
para
parabola
parade
paradigma
paradise
paradoks
paradox
paragraf
paragraph
paraguay
parah
parahyangan
paralel
paralimpiade
parallel
paralympic
parameter
parameters
paramiliter
paramita
paramount
parang
paranormal
pararaton
paras
parasit
parasite
parasut
parazoa
pare
parent
parents
parepare
parfum
pari
pariaman
parigi
paripurna
paris
parish
parit
pariwisata
park
parker
parkinson
parkir
parks
parlemen
parlementer
parliament
parliamentary
parma
parodi
paroki
parpol
parsial
parsons
part
partai
partainya
partement
parthia
parti
partial
participation
particle
particular
parties
partikel
partikelir
partikula
partisan
partisi
partisipan
partisipasi
partner
partners
partnership
parts
party
paru
paruh
parung
parut
pas
pasa
pasadena
pasai
pasak
pasal
pasaman
pasang
pasangan
pasangannya
pasar
pasaran
pasaribu
pasca
pascal
pascasarjana
paser
pasha
pasi
pasien
pasif
pasifik
pasir
paskah
paskhas
paskibra
paslon
paso
pasokan
paspor
pass
passage
passenger
passepartout
passes
passing
passion
passport
past
pasta
pasteur
pasti
pastikan
pastilah
pastinya
pastor
pastoral
pasukan
pasukannya
pasundan
pasuruan
pat
patah
patahan
patas
patch
patel
paten
patent
pater
path
pathology
pati
patient
patients
patih
patogen
patokan
patologi
patra
patria
patriark
patriarkat
patrice
patricia
patrick
patriot
patriotik
patriotisme
patrol
patroli
patron
pattern
patterns
patterson
pattimura
patton
patty
patuh
patung
patungan
patut
pau
paud
pauh
paul
paula
pauli
pauline
paulo
paulus
pauly
paus
pausanias
pav
pavel
pavia
paviliun
paw
pawai
pawang
pax
pay
paya
payah
payakumbuh
payne
pays
payudara
payung
paz
pb
pbb
pbs
pc
pcr
pd
pda
pdam
pdb
pddikti
pdf
pdi
pdip
pdt
pdtt
pe
peabody
peace
peak
peaked
pearce
pearl
pearson
pebisnis
pebruari
pecah
pecahan
pecahnya
pecandu
pecel
pecinan
pecinta
peck
peckham
pedagang
pedal
pedalaman
pedang
pedangnya
pedas
pedersen
pedesaan
pedoman
pedro
pedukuhan
peduli
peel
peer
pegang
pegangan
pegas
pegasus
pegawai
peggy
pegulat
pegunungan
pei
pejabat
pejalan
pejantan
pejuang
peka
pekalongan
pekan
pekanbaru
pekarangan
pekat
pekerdjaan
pekerja
pekerjaan
pekerjaannya
pekerti
peking
pekon
pela
pelabuhan
pelacak
pelacakan
pelacur
pelacuran
peladen
pelafalan
pelajar
pelajaran
pelajari
pelaksana
pelaksanaan
pelaksanaannya
pelaku
pelakunya
pelalawan
pelamar
pelampung
pelan
pelancong
pelanggan
pelanggar
pelanggaran
pelangi
pelantikan
pelapis
pelapor
pelaporan
pelarangan
pelari
pelarian
pelarut
pelat
pelataran
pelatih
pelatihan
pelaut
pelawak
pelayan
pelayanan
pelayanannya
pelayaran
pelbagai
peleburan
pelecehan
peledak
pelelangan
pelengkap
pelepah
pelepasan
pelestarian
peletakan
peleton
peliharaan
pelindung
pelita
pelopor
pelosok
peluang
pelukis
pelumas
peluncur
peluncuran
peluru
peluruhan
pemadam
pemadaman
pemahaman
pemahat
pemain
pemainnya
pemakai
pemakaian
pemakaiannya
pemakaman
pemakamannya
pemakan
pemaksaan
pemalang
pemalsuan
pemalu
pemanah
pemanas
pemanasan
pemancar
pemandangan
pemandian
pemandu
pemanfaatan
pemanggilan
pemangku
pemangsa
pemantau
pemantauan
pemasangan
pemasaran
pemasok
pemasukan
pemasyarakatan
pematang
pematangsiantar
pematung
pembaca
pembacaan
pembacanya
pembagi
pembagian
pembaharuan
pembahasan
pembajak
pembajakan
pembakar
pembakaran
pembalap
pembalasan
pembangkit
pembangkitan
pembangun
pembangunan
pembangunannya
pembantaian
pembantu
pembaptis
pembaptisan
pembaruan
pembatalan
pembatas
pembatasan
pembawa
pembayaran
pembebasan
pembeda
pembedaan
pembedahan
pembekuan
pembela
pembelaan
pembelahan
pembelajaran
pembeli
pembelian
pembenaran
pembengkakan
pembentuk
pembentukan
pembentukannya
pemberani
pemberantasan
pemberdayaan
pemberhentian
pemberi
pemberian
pemberitaan
pemberitahuan
pemberlakuan
pemberontak
pemberontakan
pembersih
pembersihan
pembesar
pembesaran
pembiayaan
pembicara
pembicaraan
pembimbing
pembina
pembinaan
pembom
pemboman
pembongkaran
pembuahan
pembuangan
pembuat
pembuatan
pembuatannya
pembubaran
pembuka
pembukaan
pembukaannya
pembuktian
pembukuan
pembuluh
pembungkus
pembunuh
pembunuhan
pemburu
pemda
pemecah
pemecahan
pemecatan
pemegang
pemekaran
pemeliharaan
pemeluk
pemenang
pemenangnya
pementasan
pemenuhan
pemeran
pemerannya
pemerasan
pemerataan
pemeriksa
pemeriksaan
pemerintah
pemerintahan
pemerintahannya
pemerkosaan
pemersatu
pemesanan
pemetaan
pemicu
pemikir
pemikiran
pemikirannya
pemilih
pemilihan
pemilik
pemilikan
pemiliknya
pemilu
pemimpin
pemimpinnya
peminat
peminatan
pemindahan
pemirsa
pemisah
pemisahan
pemkab
pemkot
pemodelan
pemogokan
pemohon
pemotongan
pemotretan
pemprov
pemrograman
pemrosesan
pemuda
pemudi
pemugaran
pemujaan
pemuka
pemukim
pemukiman
pemukul
pemula
pemuliaan
pemulihan
pemungut
pemungutan
pemurnian
pemusik
pemusnahan
pemutar
pemutaran
pemutusan
pen
pena
penabur
penafsiran
penagihan
penahan
penahanan
penahbisan
penajam
penakluk
penaklukan
penalaran
penalti
penalty
penamaan
penambahan
penambang
penambangan
penampakan
penampang
penampil
penampilan
penampilannya
penampungan
penanaman
penanda
penandatangan
penandatanganan
penang
penanganan
penanggalan
penangguhan
penanggulangan
penanggung
penangkap
penangkapan
penangkaran
penari
penarik
penarikan
penasaran
penasehat
penasihat
penata
penataan
penataran
penatua
penawaran
penayangan
pencabutan
pencaharian
pencahayaan
pencak
pencakar
pencalonan
pencampuran
pencapaian
pencari
pencarian
pencatatan
pencegahan
pencemaran
pencerahan
pencernaan
pencetak
pencetakan
pencetus
pencinta
pencipta
penciptaan
pencitraan
pencucian
penculikan
pencuri
pencurian
pendaftaran
pendahulu
pendahuluan
pendahulunya
pendaki
pendakian
pendamping
pendanaan
pendapat
pendapatan
pendapatnya
pendarahan
pendarat
pendaratan
pendatang
pendayagunaan
pendek
pendekar
pendekatan
pendeknya
pendengar
pendengaran
penderita
penderitaan
pendeta
pendiam
pendidik
pendidikan
pendidikannya
pendingin
pendinginan
pendiri
pendirian
pendiriannya
pendirinya
pendistribusian
pendopo
pendorong
penduduk
pendudukan
penduduknya
pendukung
pendukungnya
penebangan
penebusan
penegak
penegakan
penegas
penegasan
penekanan
peneliti
penelitian
penelitiannya
penelope
penelusuran
penembak
penembakan
penempatan
penempatannya
penemu
penemuan
penemuannya
penentang
penentangan
penentu
penentuan
penerangan
penerapan
penerapannya
penerbang
penerbangan
penerbit
penerbitan
penerima
penerimaan
penerjemah
penerjemahan
penerus
penerusnya
penetapan
penetrasi
peng
pengabdian
pengabdiannya
pengacara
pengadaan
pengadilan
pengaduan
pengairan
pengajar
pengajaran
pengajian
pengajuan
pengakuan
pengalaman
pengalamannya
pengalihan
pengaman
pengamanan
pengamat
pengamatan
pengambil
pengambilalihan
pengambilan
pengampunan
penganan
pengangguran
pengangkatan
pengangkatannya
pengangkut
pengangkutan
penganiayaan
pengantar
pengantin
penganugerahan
penganut
pengarah
pengarahan
pengarang
pengaruh
pengaruhnya
pengasih
pengasingan
pengasuh
pengatur
pengaturan
pengawal
pengawas
pengawasan
pengawetan
pengebom
pengeboman
pengeboran
pengecer
pengecualian
pengejaran
pengelasan
pengelola
pengelolaan
pengelolaannya
pengelompokan
pengeluaran
pengemasan
pengembalian
pengembang
pengembangan
pengembangannya
pengembara
pengemis
pengemudi
pengenaan
pengenal
pengenalan
pengendali
pengendalian
pengendapan
pengendara
pengepungan
pengerahan
pengeras
pengerat
pengeringan
pengerjaan
pengertian
pengesahan
pengetahuan
pengetahuannya
penggabungan
penggagas
penggalangan
penggalian
penggambaran
penggandaan
pengganggu
pengganti
penggantian
penggantinya
penggarapan
penggemar
penggemarnya
penggembala
penggembalaan
penggerak
penggilingan
penggolongan
penggugat
pengguna
penggunaan
penggunaannya
penggunanya
penghabisan
penghakiman
penghalang
penghambat
penghancur
penghancuran
penghantar
penghapusan
pengharapan
penghargaan
penghasil
penghasilan
penghematan
penghentian
penghibur
penghidupan
penghilangan
penghinaan
penghitungan
penghormatan
penghubung
penghujan
penghujung
penghukuman
penghulu
penghuni
penghuninya
pengikat
pengikatan
pengikut
pengikutnya
penginapan
penginjil
penginjilan
pengintai
pengintaian
pengirim
pengiriman
pengiring
pengisi
pengisian
pengkajian
pengkhianat
pengkhianatan
pengkhotbah
penglihatan
pengobatan
pengolah
pengolahan
pengontrol
pengoperasian
pengorbanan
pengrajin
penguapan
penguasa
penguasaan
penguat
penguatan
pengubahan
penguburan
pengucapan
penguin
pengujian
pengukuhan
pengukur
pengukuran
pengulangan
pengulas
pengumpan
pengumpul
pengumpulan
pengumuman
pengundangan
pengundian
pengunduran
pengungkapan
pengungsi
pengungsian
pengunjuk
pengunjung
penguraian
pengurangan
pengurus
pengurusan
pengusaha
pengusahaan
pengusiran
pengutipan
penh
penilaian
penimbunan
penindasan
peninggalan
peningkatan
peninjauan
peninsula
penipu
penipuan
penis
penistaan
penjabat
penjaga
penjagaan
penjahat
penjahit
penjajah
penjajahan
penjamin
penjaminan
penjara
penjarahan
penjelajah
penjelajahan
penjelasan
penjelasannya
penjelmaan
penjual
penjualan
penjualannya
penjumlahan
penjuru
penn
pennsylvania
penny
penobatan
penolakan
penolong
penomoran
penonton
penopang
pensil
pensiun
pensiunan
penske
pentagon
pentakosta
pentas
penting
pentingnya
penuaan
penugasan
penuh
penularan
penulis
penulisan
penulisannya
penulisnya
penumpang
penumpasan
penumpukan
penundaan
penunggang
penunjang
penunjuk
penunjukan
penuntun
penuntut
penuntutan
penurunan
penutup
penutupan
penutupnya
penutur
penuturan
penyair
penyajian
penyakit
penyakitnya
penyalahgunaan
penyaliban
penyaluran
penyamaran
penyambung
penyambutan
penyampaian
penyandang
penyangga
penyangkalan
penyanyi
penyaringan
penyatuan
penyayang
penyebab
penyebabnya
penyebar
penyebaran
penyeberangan
penyebutan
penyederhanaan
penyedia
penyediaan
penyelam
penyelamat
penyelamatan
penyelenggara
penyelenggaraan
penyelesaian
penyelidik
penyelidikan
penyelundupan
penyembahan
penyembuhan
penyempurnaan
penyerahan
penyerang
penyerangan
penyerapan
penyerbuan
penyerbukan
penyertaan
penyesalan
penyesuaian
penyewa
penyewaan
penyiapan
penyiar
penyiaran
penyidik
penyidikan
penyihir
penyiksaan
penyimpan
penyimpanan
penyimpangan
penyintas
penyisihan
penyitaan
penyu
penyucian
penyulingan
penyuluhan
penyumbang
penyunting
penyuntingan
penyusun
penyusunan
penyusutan
penyutradaraan
people
peoples
pepanthan
peparnas
pepatah
pepaya
pepe
peperangan
pepohonan
pepper
peptida
per
perabot
perabotan
peradaban
peradangan
peradilan
peraga
perahu
peraih
perairan
perak
perakitan
peralatan
peralihan
peramal
peramban
perampasan
perampok
perampokan
peran
peranakan
peranan
perancang
perancangan
perancis
perang
perangkap
perangkat
perangko
perangnya
perannya
perantara
perantaraan
perantau
perantauan
peranti
perapian
perasaan
perasaannya
peraturan
perawan
perawat
perawatan
perayaan
perbaikan
perbandingan
perbankan
perbatasan
perbedaan
perbedaannya
perbekalan
perbelanjaan
perbendaharaan
perbincangan
perbuatan
perbuatannya
perbudakan
perbukitan
perburuan
perburuhan
percabangan
percakapan
percampuran
percaya
percent
percepatan
perception
perceraian
percetakan
percikan
percintaan
percobaan
percontohan
percy
perda
perdagangan
perdamaian
perdana
perdanakusuma
perdananya
perdarahan
perdata
perdebatan
perdesaan
perdu
pereaksi
perebutan
peredaran
pereira
perekam
perekaman
perekat
perekonomian
perekrutan
perempat
perempatan
perempatfinal
perempoean
perempuan
perempuannya
perenang
perencana
perencanaan
peresmian
peretas
perez
perfect
perfilman
perform
performa
performance
performances
performed
performing
pergamon
pergantian
pergaulan
pergelangan
pergelaran
pergerakan
pergeseran
pergi
pergilah
pergolakan
perguruan
perhatian
perhatiannya
perhatikan
perhelatan
perhentian
perhiasan
perhimpunan
perhitungan
perhotelan
perhubungan
perhutani
peri
peribadatan
peribahasa
perihal
perikanan
periklanan
periksa
perilaku
perilakunya
perilisan
perilisannya
perimbangan
perincian
perindustrian
peringatan
peringkat
perintah
perintis
period
periode
periodic
periodik
perisai
peristirahatan
peristiwa
periuk
perizinan
perjalanan
perjalanannya
perjamuan
perjanjian
perjoangan
perjuangan
perjuangannya
perjudian
perkakas
perkalian
perkampungan
perkantoran
perkapalan
perkara
perkasa
perkataan
perkawinan
perkebunan
perkelahian
perkemahan
perkembangan
perkembangannya
perkenalan
perkenalkan
perkeretaapian
perkins
perkiraan
perkosaan
perkotaan
perkuliahan
perkumpulan
perkusi
perlahan
perlakuan
perlawanan
perlengkapan
perlindungan
perlintasan
perlombaan
perlu
perluasan
perlunya
permai
permainan
permainannya
permaisuri
permana
permanen
permanent
permasalahan
permata
permen
permendagri
permenhub
permesta
permias
permintaan
permintaannya
perminyakan
permohonan
permukaan
permukaannya
permukiman
permulaan
permuseuman
permusuhan
permusyawaratan
permutasi
pernah
pernapasan
perniagaan
pernikahan
pernikahannya
pernyataan
pernyataannya
pero
perokok
peroksida
peroleh
perolehan
perombakan
perompak
peron
perorangan
perpaduan
perpajakan
perpanjangan
perpecahan
perpindahan
perpisahan
perpres
perpustakaan
perputaran
perrier
perrin
perry
pers
persada
persahabatan
persaingan
persalinan
persamaan
persatu
persatuan
persaudaraan
persawahan
persebaran
persebaya
persediaan
persegi
persekutuan
persela
perselingkuhan
perselisihan
persemakmuran
persembahan
persembunyian
persen
persenjataan
persentase
persentasi
perseorangan
persepsi
perserikatan
persero
perseroan
perseteruan
persetujuan
perseus
persia
persian
persiapan
persib
persiba
persidangan
persija
persik
persikabo
persilangan
persim
persimpangan
persinggahan
persinyalan
persipura
persiraja
persis
persita
persoalan
person
persona
personal
personality
personel
personil
personnel
persons
perspective
perspectives
perspektif
persyaratan
pertahanan
pertama
pertamanya
pertambahan
pertambangan
pertamina
pertanahan
pertanda
pertandingan
pertanggungjawaban
pertanian
pertanyaan
pertapa
pertapaan
pertarungan
pertemanan
pertempuran
pertemuan
pertengahan
pertengkaran
pertentangan
perth
pertiga
pertigaan
pertikaian
pertimbangan
pertiwi
pertobatan
pertokoan
pertolongan
pertuan
pertukaran
pertumbuhan
pertumbuhannya
pertunangan
pertunjukan
pertunjukkan
peru
perubahan
perum
perumahan
perumpamaan
perumusan
perundang
perundangan
perundingan
perunggu
perusahaan
perusahaannya
perusahan
perusak
perusakan
perut
perutnya
perwakilan
perwalian
perwira
perwujudan
pes
pesaing
pesan
pesanan
pesanggrahan
pesantren
pesat
pesawaran
pesawat
pesawatnya
pesepak
pesepakbola
peserta
pesiar
pesisir
peso
pesona
pesta
pestisida
pesulap
pet
peta
petabahasa
petahana
petak
petang
petani
petarung
pete
petenis
peter
peterburg
peternak
peternakan
peterpan
peters
petersburg
petersen
peterson
peti
petik
petikan
petinggi
petinju
petir
petisi
petit
petra
petro
petrokimia
petroleum
petronas
petrus
petski
petta
petty
petualang
petualangan
petugas
petunjuk
peugeot
pew
pewaris
pewarisan
pewarna
pewarnaan
pewayangan
pez
peziarah
pfa
pfalz
pfeiffer
pg
pga
pgi
pgri
ph
pha
phane
phantom
pharmaceutical
pharmacology
phase
phd
phenomenon
phi
phil
philadelphia
phileas
philharmonic
philip
philipp
philippe
philippine
philippines
philips
phillip
phillips
philosopher
philosophical
philosophy
phineas
phnom
pho
phoebe
phoenix
phone
phonetic
phonographic
phonology
photo
photograph
photographic
photographs
photography
photos
php
phpu
phra
phronia
phu
phyllis
phylogenetic
phylogeny
phys
physical
physics
physiology
phytomyza
pi
pia
piagam
piala
pialang
pianis
piano
piatu
piazza
pic
picard
pick
picks
pickup
pictorial
picture
pictures
pidana
pidato
pidatonya
pidie
pie
piece
pieces
pier
pierce
piero
pierre
piet
pieter
pietro
pig
pigmen
pihak
pihaknya
pii
pijakan
pijar
pikachu
pike
pikir
pikiran
pikirannya
pikirkan
piksel
pil
pilar
pilatus
pilbup
pilgrimage
pilgub
pilih
pilihan
pilihannya
pilkada
pilot
pilots
pilpres
pimpin
pimpinan
pin
pinang
pindad
pindah
pine
pineda
ping
pinggang
pinggir
pinggiran
pinggul
pingsan
pinjam
pinjaman
pink
pinrang
pintar
pinto
pintu
pinus
pinyin
pio
pioneer
pioneers
pionir
pipa
piper
pipi
pipih
pipit
pippin
pir
piramida
pirang
pirate
pirates
piring
piringan
pirminus
pisa
pisah
pisang
pisau
pistol
piston
pit
pita
pitch
pitchfork
pitt
pittsburgh
pitu
pius
piutang
pixar
pixel
pizza
pj
pjs
pk
pkb
pki
pkk
pks
pkt
pl
pla
place
places
plain
plains
plakat
plan
planck
plane
planes
planet
planetary
planetisimal
planets
plankton
planned
planning
plans
plant
plants
plasma
plasmodium
plastic
plastik
plat
plata
plate
platform
platina
platinum
platnick
plato
play
playback
playbill
playboy
played
player
players
playing
playlist
playoff
plays
playstation
plaza
plc
please
pleasure
pleistosen
pleno
plh
pln
plo
plos
ploso
plot
plt
plta
pltu
plug
pluit
plural
pluralisme
plus
plutarch
pluto
plutonium
plymouth
pm
pmatrix
pmc
pmi
pmid
pmk
pmr
pn
pnas
pnb
pneumonia
png
pni
pnpm
pnri
pns
po
poaceae
poales
pob
poblacion
poci
pocket
pocong
pod
podcast
podium
poe
poekoel
poela
poem
poems
poen
poenja
poet
poetry
poets
pohon
poin
point
points
poison
pojok
poke
pokemon
poker
pokok
pokoknya
pol
pola
poland
polandia
polar
polarisasi
polda
pole
polemik
polen
polewali
poli
police
policies
policy
poligon
poliklinik
polimer
polimerase
polinesia
polinomial
polio
polis
polish
polisi
politbiro
politeknik
political
politician
politico
politics
politiek
politik
politiknya
politikus
politis
politisi
polity
poll
polling
pollution
polo
polong
polos
polres
polresta
polri
polsek
polski
polusi
polygon
pom
pommern
pompa
pon
pond
pondasi
pondok
pone
pong
poni
ponorogo
ponpes
ponsel
ponsonby
pont
pontianak
pony
pooja
pool
poole
poor
pop
pope
popov
poppy
popular
popularitas
popularitasnya
populasi
populasinya
population
populations
populer
por
pori
porifera
porn
porno
pornografi
poros
porsche
porselen
porsi
port
porta
portabel
portable
portal
porter
portfolio
portland
portnoy
porto
portofolio
portrait
portraits
portsmouth
portugal
portugis
portuguese
pos
pose
poseidon
posesif
posisi
posisinya
positif
position
positions
positive
poso
possible
post
postal
posted
poster
posterior
posting
posts
postur
posyandu
pot
potato
potensi
potensial
potential
potentilla
potong
potongan
potret
potsdam
potter
pottong
pound
pour
poverty
powell
power
powered
powerful
powers
powiat
poznan
pp
ppd
ppen
ppi
ppk
ppm
ppn
ppp
pps
pr
pra
prabowo
prabu
prabumulih
practical
practice
practices
pradesh
praeger
prague
praha
prairie
praise
praja
prajurit
prakarsa
prakash
prakiraan
praktek
praktik
praktiknya
praktis
praktisi
prambanan
pramoedya
pramono
pramuka
pranala
pranata
prancis
prangko
prasad
prasangka
prasarana
prasasti
prasejarah
prasetya
prasetyo
pratama
pratiwi
pratt
prayer
prayitno
pre
precious
precure
predator
predikat
prediksi
preface
prefecture
prefek
prefektur
preferensi
pregnancy
prehistoric
prehistory
prekursor
preliminary
prelude
prem
preman
premi
premier
premiere
premieres
premio
premis
premium
prentice
preparation
prepared
preposisi
pres
presbiterian
presbyterian
presence
present
presentasi
presentation
presented
presenter
presents
preservation
presiden
presidency
presidensial
president
presidente
presidential
presidents
presidium
presisi
presley
press
presse
presses
pressure
prestasi
prestasinya
preston
pretty
prevalensi
prevention
preview
previous
prey
pri
pria
priangan
pribadi
pribadinya
pribumi
price
prices
pride
priest
priestley
prihatin
prima
primadona
primary
primata
prime
primer
primera
primetime
primitif
primordial
primus
prince
princes
princess
princeton
principal
principe
principle
principles
pringsewu
prinsip
prinsipnya
print
printed
printer
printing
priok
prior
prioritas
priscilla
prism
prisma
prison
prisoner
prisoners
privacy
privasi
privat
private
privatisasi
prix
priya
priyanka
prize
prizes
pro
probabilitas
probably
probe
problem
problems
probolinggo
proc
procedure
proceedings
process
processes
processing
prodeskel
prodi
produce
produced
producer
producers
product
production
productions
products
produk
produknya
produksi
produksinya
produktif
produktivitas
produsen
produser
prof
profesi
profesinya
profesional
profesionalnya
profesor
professional
professionals
professor
profil
profile
profiles
profit
progo
program
programme
programmer
programmes
programming
programnya
programs
progresif
progress
progressive
project
projects
proklamasi
proletar
proletariat
promachus
prometheus
promise
promises
promo
promosi
promotion
promotor
pronomina
pronunciation
proof
propaganda
propelan
proper
properti
properties
property
prophet
propinsi
proporsi
proporsional
proposal
proposed
proposisi
propulsi
propulsion
proquest
prosa
prosedur
proses
prosesi
prosesnya
prosesor
prosiding
prosopocera
prospects
prospek
prost
prostitusi
protagonis
protect
protected
protection
protein
proteksi
protektorat
protes
protest
protestan
protesters
protests
proto
protocol
protokol
proton
prototipe
prototype
protozoa
proud
prov
provence
provide
provided
providence
provider
provides
province
provinces
provincial
provinsi
provisional
proyek
proyeksi
proyektil
proyektor
prri
prusia
prussia
ps
psalms
pseudo
psg
psi
psikiater
psikiatri
psikis
psikolog
psikologi
psikologis
psis
psm
psms
psp
pss
pssi
psv
psychiatric
psychiatry
psycho
psychological
psychology
psychotria
pt
pte
pterelachisus
pterolophia
ptik
ptolemaios
ptolemy
ptpn
pts
pty
pu
puak
puan
puas
puasa
pub
publ
public
publication
publications
publik
publikasi
publikdomain
publikfalsefalse
publique
published
publisher
publishers
publishing
publisitas
pubmed
pucat
pucuk
puerto
puing
puisi
puisinya
puitis
puja
pujaan
pujangga
puji
pujian
pukat
pukul
pukulan
pula
pulang
pulau
pulih
pulitzer
pull
pulmonary
pulo
pulp
pulsa
pulsar
pulse
puluh
puluhan
puma
pun
punah
punca
puncak
puncaknya
punch
pundak
punggung
punggungnya
pungutan
punishment
punjab
punjabi
punk
punta
punya
pupuk
pura
purana
purba
purbakala
purbalingga
purdue
pure
puri
purn
purna
purnama
purnawirawan
purnomo
purple
purpose
pursuit
puru
purwa
purwakarta
purwanto
purwarupa
purwodadi
purwokerto
purworejo
purwosari
pusaka
pusaran
pusat
pusatnya
push
pusing
puskesmas
puspa
puspita
pustaka
pustakawan
put
putar
putaran
putera
puteranya
puteri
puth
puti
putih
putin
puting
putnam
putra
putranya
putri
putrinya
puts
putu
putus
putusan
puyuh
puzzle
pv
pvt
pw
pwi
px
pyaar
pyongyang
pyotr
pyramid
pyre
pythagoras
python
q
qa
qadir
qaeda
qantas
qanun
qasim
qatar
qi
qian
qin
qing
qiu
qq
qs
qu
qua
quad
quake
qualifying
quality
quan
quantum
quarter
quarterly
quartet
qub
que
quebec
queen
queens
queensland
queer
quentin
query
quest
question
questions
quezon
qui
quick
quiet
quincy
quinn
quits
quiz
qumran
quo
quote
quoted
quotes
qur
quraisy
quran
r
ra
raad
rabbi
rabbit
rabi
rabies
rabu
race
racer
races
raceway
rachel
rachman
rachmat
racial
racing
racism
racun
rad
rada
radang
radar
radcliffe
raden
radha
radial
radiasi
radiation
radical
radikal
radio
radioaktif
radiohead
radioisotop
raditya
radius
radja
rae
raf
rafael
raffi
raffles
rafi
raga
ragam
rage
ragi
ragu
ragunan
rah
rahang
rahardjo
raharja
rahasia
rahayu
rahel
rahib
rahim
rahma
rahman
rahmat
rahul
rahwana
rai
raid
raida
raider
raiders
raih
raihan
raikkonen
rail
railroad
railstation
railway
railways
rain
rainbow
rainer
rainfall
rais
raisa
raise
raises
raising
raj
raja
rajah
rajanya
rajasthan
rajawali
rajin
rajo
rajput
raju
rak
raka
rakai
rakfat
rakit
rakjat
raksa
raksasa
rakyat
rakyatnya
ral
ralf
rally
ralph
ram
rama
ramachandran
ramadan
ramadhan
ramah
ramai
ramalan
raman
ramayana
rambu
rambut
rambutan
rambutnya
ramen
rami
ramirez
ramli
ramo
ramon
ramos
rampai
rampasan
ramping
rampung
ramsay
ramses
ramsey
ramuan
ran
rana
ranah
rancang
rancangan
ranch
rand
randall
randolph
random
randy
rang
range
ranger
rangers
rangga
rangka
rangkaian
rangkap
rangkasbitung
rangle
rangsangan
rani
ranjang
ranjau
rank
ranked
ranking
rankings
rano
rantai
rantau
ranting
rao
raoul
rap
rapa
rapat
rape
raphael
rapi
rapid
rapids
rapinoe
rappang
rapper
rappler
rapuh
rara
rard
rare
ras
rasa
rasakan
rasanya
rashid
rasi
rasial
rasio
rasional
rasionalisme
rasis
rasisme
rasminah
rasmussen
rasul
rasulullah
rasyid
rasyidin
rat
rata
ratapan
rate
rates
rather
ratifikasi
ratih
rating
ratings
ratio
ration
ratna
raton
ratu
ratulangi
ratus
ratusan
rau
raul
raven
ravenna
ravi
raw
rawa
rawan
rawas
rawat
ray
raya
rayap
raymond
rayon
raytheon
razak
rb
rc
rca
rchb
rcti
rd
rdoba
re
rea
reach
reaches
reaction
reactions
reactor
read
reader
readers
reading
readings
ready
reagan
reaksi
reaktif
reaktor
real
realisasi
realisme
realistis
realitas
reality
really
realm
reason
reasons
rebana
rebecca
rebel
rebellion
rebels
rebo
reboot
reborn
rebus
rec
recall
receive
received
receives
recent
reception
receptor
recipe
recipes
recipients
recognition
recommendations
reconstruction
record
recorded
recording
recordings
records
recovery
red
redaksi
redaktur
reddy
redemption
rediff
reds
reduction
reduksi
redup
reed
reeder
reef
reel
rees
reese
reeves
ref
reference
references
referendum
referensi
reflections
refleks
refleksi
reform
reformasi
reformation
reformed
reformis
refugee
refugees
regard
regarding
regbahasa
rege
regency
regenerasi
regensbergiana
regent
reggae
reggenti
reggenza
regime
regiment
regina
reginald
region
regional
regions
register
registered
registrasi
registration
registry
reglemen
regnum
regu
regular
regulasi
regulation
regulations
regulator
reguler
rehabilitasi
rei
reich
reichstag
reid
reign
reilly
reims
reina
reinhard
reinhold
reinkarnasi
reis
rejang
rejects
rejo
rejosari
reka
rekam
rekaman
rekamannya
rekan
rekannya
rekapitulasi
rekayasa
rekening
rekha
reklamasi
rekomendasi
rekonsiliasi
rekonstruksi
rekor
rekreasi
reksa
rektor
rel
rela
relasi
related
relatif
relating
relation
relations
relationship
relationships
relative
relativitas
relativity
relawan
relay
release
released
releases
relevan
reli
relief
religi
religion
religions
religious
religius
relikui
relokasi
relung
rem
remain
remains
remaja
remake
remarks
rembang
remember
remembering
remigius
remix
remo
remote
rempah
remy
ren
rena
renaisans
renaissance
renang
renault
rencana
rencananya
rendah
rendahnya
rendang
render
rendra
rendy
rene
renewable
rennes
reno
renovasi
rental
rentan
rentang
rentetan
reog
reorganisasi
rep
replace
replacement
replika
replikasi
reply
report
reported
reporter
reporting
reports
repositori
repository
represent
representasi
representatif
representation
representative
representatives
reprint
reprinted
reproduksi
reptil
reptile
reptiles
repu
repubblica
republic
republican
republik
republika
republikan
reputasi
reputasinya
request
requiem
required
requirements
rer
rerata
reruntuhan
res
rescue
research
researches
resensi
resep
resepsi
reseptor
reserse
reserve
reservoir
resesi
resi
residen
residence
resident
residents
residu
resiko
resimen
resin
resistance
resistansi
resistensi
resmi
resmikan
resminya
resolusi
resolution
resonansi
resor
resort
resorts
resource
resources
respect
respirasi
respiratory
respon
responden
respons
response
responses
responsibility
ressort
rest
restaurant
restoran
restorasi
restoration
restrukturisasi
restu
result
results
resurrection
retail
retak
retakan
rethinking
retina
retno
retorika
retribusi
retrieved
retro
return
returning
returns
reuben
reuni
reunion
reuters
rev
reveal
revealed
reveals
revelation
revenge
revenue
reverse
review
reviewed
reviews
revised
revisi
revision
revisited
revista
revitalisasi
revival
revolt
revolusi
revolusioner
revolution
revolutionary
revolver
revue
rex
rey
reyes
reynolds
rez
reza
rezeki
rezim
rf
rfc
rg
rgen
rh
rhapsody
rhein
rhetoric
rhine
rho
rhode
rhodes
rhodesia
rhododendron
rhoma
rhys
rhythm
ri
ria
riaa
riaj
riam
rian
riang
rias
riau
riba
ribu
ribuan
ribut
ric
rica
ricardo
ricci
ricciardo
rice
rich
richard
richards
richardson
richie
richmond
richter
rick
ricklefs
ricky
rico
rida
riddle
ride
rider
riders
ridge
ridho
riding
ridley
ridwan
rie
riemann
rif
riff
rifle
riga
right
rightarrow
rights
rihanna
riil
rika
riki
riko
riley
rilis
rilisan
rilisnya
rim
rima
rimba
rin
rina
rinci
rincian
rindu
ring
ringan
ringgit
ringkas
ringkasan
rings
rini
rino
rintangan
rintisan
rinunce
rio
riot
rip
riri
ris
risa
risalah
rise
rises
riset
rishi
risiko
rising
risk
risks
rita
ritchie
rite
ritel
ritme
ritter
ritual
ritus
ritzler
riv
rival
river
rivera
rivers
riverside
riwayat
riyadh
riyadi
riyanto
riza
rizal
rizki
rizky
rj
rk
rkara
rl
rlts
rm
rms
rn
rna
rnberg
ro
roach
road
roads
rob
robbie
robbins
robby
robek
robert
roberto
roberts
robertson
robin
robinson
robo
roboh
robot
robson
robusta
roc
roche
rochester
rock
rockefeller
rocket
rockets
rocks
rockstar
rockwell
rocky
rod
roda
rodgers
rodney
rodri
rodrigo
rodrigues
rodriguez
roe
roem
roemah
roepa
roger
rogers
rogue
roh
rohan
rohani
rohaniwan
rohingya
rohis
rohit
roi
rok
rokan
roket
rokok
roland
role
roles
rolf
roll
roller
rolling
rolls
roly
rom
roma
roman
romana
romance
romania
romanian
romanisasi
romano
romans
romansa
romantic
romantik
romantis
romawi
rombongan
rome
romeo
romero
romo
ron
rona
ronald
ronaldo
ronan
ronde
rong
rongga
ronnie
ronny
roof
rookie
room
rooney
roosevelt
root
roots
roque
roro
rory
ros
rosa
rosales
rosario
rose
rosemary
rosen
rosenberg
roses
rosetta
roshan
rosie
roskov
ross
rossa
rossi
rosso
rotan
rotasi
rotation
rote
roth
rothschild
roti
rotor
rotten
rotterdam
rouen
rouge
rough
round
rousseau
route
routes
routledge
rover
rovers
rovi
row
rowan
rowland
rowling
rowman
roy
royal
royale
royalti
royce
royong
rp
rpa
rpg
rpm
rquez
rr
rri
rrt
rs
rss
rsssf
rsu
rsud
rt
rta
rte
rth
rti
rttemberg
rtv
ru
ruam
ruang
ruangan
ruas
rubah
rubber
rubel
ruben
rubens
rubiaceae
rubin
rubrik
ruby
rudal
rudd
rudi
rudolf
rudolph
rudy
rue
ruf
rufus
rugbi
rugby
rugi
rui
ruiz
rujak
rujukan
rukh
rukun
rule
rulers
rules
ruling
rum
rumah
rumahan
rumahnya
rumania
rumbai
rumbia
rumble
rumi
rumit
rumor
rumpun
rumput
rumus
rumusan
run
runaway
runcing
runduk
rune
runner
runners
running
runs
runtuh
runtuhnya
runway
rupa
rupanya
rupert
rupiah
rural
rus
rusa
rusak
rusdi
rush
rusia
ruslan
rusli
russ
russel
russell
russia
russian
russo
rustam
rusuk
rut
rute
rutgers
ruth
rutherford
rutin
ruu
rv
rw
rwanda
rx
ry
ryan
ryder
ryo
ryu
ryukyu
rz
s
sa
saab
saad
saat
saatnya
saba
sabah
saban
sabana
sabang
sabar
sabat
sabbath
sabda
saber
sabha
sabine
sabit
sabotase
sabrina
sabtu
sabu
sabuk
sabun
sachs
sachsen
sacra
sacramento
sacred
sad
sadar
saddam
saddle
sadikin
sadja
sae
safari
safe
safety
sag
saga
sagan
sage
sagita
sagu
sah
sahabat
sahabatnya
sahaja
saham
sahamnya
sahara
sahih
sahli
sahu
sahur
sai
said
saif
saifuddin
saiful
saigon
sail
sailor
saing
saingan
saingannya
sains
saint
sainte
saints
sainz
saitama
saito
saja
sajak
saji
sajian
saka
sakai
sakamoto
sake
sakhalin
saki
saking
sakit
sakitnya
sakral
sakramen
saksama
saksi
saksikan
saksofon
sakti
saku
sakura
sakurai
sal
sala
salad
salah
salahuddin
salak
salam
salat
salatiga
saldo
sale
saleh
salem
salemba
salerno
sales
salib
salim
salinan
saling
salisbury
salju
sally
salma
salman
salmon
salo
salomo
salomon
salon
salt
salticidae
saluran
salvador
salvation
salvatore
salvia
salzburg
sam
sama
samad
saman
samantha
samar
samaran
samaria
samarinda
samba
sambal
sambas
sambil
sambung
sambungan
sambut
sambutan
same
sami
sammy
samoa
samosir
sampah
sampai
sampaikan
sampailah
sampan
sampang
sampdoria
sampe
sampel
samping
sampingan
sampingnya
sampit
sample
sampling
sampoerna
sampson
sampul
samson
samsu
samsung
samudera
samudra
samuel
samurai
san
sana
sanak
sanalah
sanchez
sancho
sanctuary
sand
sandakan
sandal
sandang
sandera
sanders
sandi
sandiwara
sandra
sandro
sands
sandwich
sandy
sang
sanga
sangat
sangatlah
sanger
sanggar
sanggau
sanggul
sanggup
sangha
sanghyang
sangihe
sangka
sangkar
sanherib
sani
sanitasi
sanjak
sanjay
sanjaya
sanksi
sankt
sans
sansekerta
sanskerta
sanskrit
sant
santa
santai
santan
santana
santander
santi
santiago
santo
santos
santosa
santoso
santri
santun
sanusi
sao
sap
sapa
sapaan
saparua
sape
sapi
sapiens
sapporo
sapta
sapu
saputra
sar
sara
saraf
saragih
sarah
sarajevo
saran
sarana
sarang
sarapan
sarasvati
saraswati
sarat
sarawak
sardegna
sardi
sardinia
sarekat
sargassum
sari
sarjana
sarkar
sarolangun
sars
sarung
sas
sasak
sasaki
sasana
sasaran
sasha
sasis
sastra
sastrawan
sasuke
sat
satan
sate
satelit
satellite
satellites
satgas
sati
satir
sato
satoe
satoru
satoshi
satpam
satria
satrio
satu
satuan
satunya
satupun
saturday
saturn
saturnus
satwa
satya
satyalancana
satyalencana
sauber
saud
saudagar
saudara
saudaranya
saudari
saudarinya
saudi
saul
saunders
saus
savage
savannah
save
saved
saving
savoia
savoy
saw
sawa
sawah
sawahlunto
sawangan
sawit
sawo
sawyer
saxon
say
saya
sayaka
sayang
sayangnya
sayap
sayapnya
sayembara
sayid
says
sayur
sayuran
sayyid
sb
sbb
sbg
sbs
sbsn
sby
sc
scale
scan
scandal
scania
scar
scarabaeidae
scarabaeus
scarecrow
scarlet
scarlett
scene
scenes
sch
scha
schalke
schedule
scheme
schengen
schleswig
schltr
schmidt
schmitt
schneider
scho
scholar
scholarly
scholars
scholarship
school
schools
schro
schu
schultz
schulz
schumacher
schumi
schuster
schwartz
schwarz
sci
science
sciences
scientific
scientist
scientists
sciophila
scooby
scopula
score
scores
scorsese
scotia
scotland
scots
scott
scottish
scout
scream
screen
screening
screenplay
scribner
script
scripture
scroll
scrolls
sctv
scuderia
sculpture
sd
sdm
sdn
sdr
se
sea
seabad
seakan
seal
seals
sean
seandainya
seantero
searah
search
seas
season
seasons
seat
seattle
sebab
sebabnya
sebagai
sebagaimana
sebagainya
sebagi
sebagian
sebahagian
sebaik
sebaiknya
sebaliknya
sebanding
sebanyak
sebaran
sebastia
sebastian
sebatang
sebatas
sebelah
sebelas
sebelum
sebelumnya
sebenar
sebenarnya
sebentar
seberang
seberapa
seberat
sebesar
sebetulnya
sebidang
sebuah
sebulan
sebut
sebutan
sebutkan
sec
secara
secepat
secepatnya
second
secondary
seconds
secret
secretariat
secretary
secrets
section
sections
sector
secular
secure
securities
security
sedalam
sedan
sedang
sedangkan
sedap
sedari
sede
sedekah
sedemikian
sederajat
sederhana
sedia
sediaan
sedih
sedikit
sedikitnya
sedikitpun
sedimen
sedis
sedjak
sedunia
see
seed
seeing
seek
seeking
seekor
seeks
seen
sees
sefrin
sega
segala
segalanya
segan
segar
segara
segaris
segel
segelintir
segenap
segera
segi
segitiga
segmen
segunda
seharga
sehari
seharusnya
sehat
sehelai
sehingga
sehubungan
sei
seidman
seiji
seiko
seimbang
sein
seine
seiring
seishun
seismik
seiyu
seiyuu
sejahtera
sejajar
sejak
sejalan
sejarah
sejarahnya
sejarahwan
sejarawan
sejati
sejatinya
sejauh
sejawat
sejenak
sejenis
sejenisnya
sejuk
sejumlah
sejuta
sek
sekadar
sekadau
sekai
sekali
sekalian
sekaligus
sekalipun
sekar
sekarang
sekarat
sekat
sekda
sekedar
sekejap
sekelas
sekelasnya
sekeliling
sekelilingnya
sekelompok
sekembalinya
seketika
seki
sekian
sekilas
sekira
sekiranya
sekitar
sekitaran
sekitarnya
sekjen
sekoci
sekolah
sekolahnya
sekresi
sekretariat
sekretaris
seks
seksi
seksual
seksualitas
sekte
sektor
sekuat
sekuel
sekuelnya
sekuler
sekumpulan
sekunder
sekurang
sekuritas
sekutu
sekutunya
sel
sela
selada
selagi
selai
selain
selaku
selaloe
selalu
selam
selama
selamanya
selamat
selambat
selancar
selandia
selang
selangor
selanjutnya
selaput
selaras
selasa
selat
selatan
selayaknya
selayang
selayar
selebar
selebaran
selebihnya
selebritas
selebriti
select
selected
selection
selects
seleksi
selektif
selembar
selena
selendang
selengkapnya
selepas
selera
selesai
selesainya
seleukia
seleukos
self
selim
selimut
selir
selisih
seljuk
sell
seller
sellers
selling
sells
selo
selokan
seluas
selubung
seluk
seluler
selulosa
seluncur
seluruh
seluruhnya
sem
semacam
semak
semakin
semalam
semangat
semanggi
semangka
semantik
semar
semarang
semasa
semata
sembah
sembahyang
sembarang
sembarangan
sembari
sembilan
sembiring
semboyan
sembuh
sembunyi
semburan
semen
semenanjung
semenjak
sementara
semeru
semesta
semester
semestinya
semi
semifinal
semifinalis
semikonduktor
seminar
seminari
seminary
seminggu
semiperairan
semisal
semit
semitic
semoga
sempat
sempit
sempurna
semu
semua
semuanya
semula
semusim
semut
sen
sena
senam
senang
senantiasa
senapan
senapati
senar
senat
senate
senator
senayan
senbatsu
send
sendai
sendang
sendi
sendiri
sendirian
sendirinya
sendok
senecio
senegal
senen
seng
sengaja
sengit
sengketa
sengoku
sengsara
seni
senilai
seniman
senin
seninya
senior
seniornya
senja
senjata
senjatanya
senna
seno
senopati
sensasi
sense
sensei
sensitif
sensitivitas
sensor
sensus
sent
sentai
sentani
sentimen
sentimeter
sentinel
sento
sentosa
sentra
sentral
sentuh
sentuhan
sentul
senyawa
senyum
seo
seok
seolah
seon
seong
seorang
seorangpun
seoul
sep
sepadan
sepak
sepakat
sepakbola
sepang
sepanjang
separate
separation
separatis
separuh
sepasang
sepatu
sepeda
sepekan
sepengetahuan
sepeninggal
sepenuh
sepenuhnya
seperangkat
seperempat
seperti
sepertiga
sepertinya
sepi
sepihak
sepotong
sept
september
septuaginta
sepucuk
sepuh
sepuluh
sepupu
sepupunya
sepur
seputar
sequel
sequence
sequences
ser
sera
seragam
serah
serahkan
serai
serak
seram
serambi
serang
serangan
serangannya
serangga
serangkai
serangkaian
serapan
serasi
serat
seratus
seraya
serayu
serba
serbaguna
serbia
serbian
serbu
serbuan
serbuk
serdadu
serdang
seremonial
serena
serentak
serge
sergei
sergey
sergio
seri
serial
seribu
serie
series
serigala
serikat
sering
seringkali
seringnya
serious
serius
seroja
serpihan
serpong
serra
sersan
serse
serta
sertifikasi
sertifikat
sertijab
seru
seruan
seruling
serum
serumpun
serupa
seruyan
serve
server
service
services
servis
ses
sesaat
sesak
sesama
sesampainya
sesar
sesat
sesekali
seseorang
sesepuh
sesi
sesko
seskoad
seskoal
sespim
session
sessions
sesuai
sesuatu
sesudah
sesudahnya
sesungguhnya
set
setahun
setan
setapak
setara
setebal
setelah
setelahnya
setelan
setempat
setengah
setengahnya
seterusnya
seth
setia
setiabudi
setiap
setiawan
setibanya
setidaknya
setimnya
setinggi
setingkat
setlist
seto
sets
setting
settlement
settlements
setu
setuju
setya
seukuran
seul
seumur
seung
seusai
seven
seventeen
seventeenth
seventh
several
severus
sevilla
seville
sewa
sewaan
sewaktu
sewenang
sewu
sex
sexual
sexuality
sexy
seychelles
seymour
sezaman
sf
sg
sh
sha
shaanxi
shades
shadily
shadow
shadows
shah
shahab
shahid
shahih
shake
shakespeare
shakhtar
shakti
shalat
shalih
shall
shan
shandong
shane
shang
shanghai
shani
shania
shankar
shannon
shanxi
shao
shape
shaped
shapiro
share
shared
shares
sharif
sharing
shark
sharma
sharon
sharp
sharpe
shaun
shaw
shawn
she
shea
sheep
sheeran
sheet
sheets
sheffield
sheikh
sheila
shek
shekhar
sheldon
shell
shelley
shelter
shen
sheng
shenzhen
shepard
shepherd
sheppard
sheridan
sheriff
sherlock
sherman
sherwood
shetty
shi
shibuya
shield
shift
shigeru
shih
shihab
shiki
shikoku
shim
shima
shimbun
shimizu
shin
shinano
shine
shinee
shingo
shinichi
shining
shinji
shinjuku
shinkansen
shinoda
shinta
shinto
shiori
ship
shipping
ships
shire
shirley
shiro
shirt
shizuka
shizuoka
sho
shock
shoes
shogakukan
shogun
sholat
shonan
shonen
shoot
shooter
shooting
shop
shopping
shore
short
shot
shoten
shou
should
show
showbiz
showbuzz
showbuzzdaily
showcase
shower
showing
shows
showtime
shrek
shri
shrine
shtml
shu
shueisha
shui
shun
shut
shuttle
shy
si
sia
siaga
siagian
siahaan
siak
sial
siam
sian
siang
sianida
siantar
siap
siapa
siapakah
siapapun
siapkan
siar
siaran
siarannya
siasat
siau
siber
siberia
sibolga
sibuk
sic
sica
sichuan
sick
sid
sidang
side
sidempuan
sidenreng
sidi
sidik
sidney
sidoarjo
sidomulyo
sidorejo
sidrap
sie
siege
siegel
siegfried
siemens
siena
sierra
sifat
sifatnya
sify
sig
sight
sigi
sigismund
sigit
sigma
sigmund
sign
signal
signature
signed
significance
significant
signifikan
signing
signs
sih
sihanouk
sihir
sihombing
sijunjung
sik
sikap
sikapnya
sikat
sikh
sikka
sikkim
siklik
siklon
siklus
sikorsky
siksa
siksaan
siku
sil
sila
silakan
silalahi
silam
silang
silas
silat
silaturahmi
silek
silence
silent
silentera
silesia
silicon
silih
silika
silikon
silinder
siliwangi
silk
silla
silo
silsilah
siluman
silva
silver
silverman
silverstone
silvia
sim
sima
simak
simalungun
simanjuntak
simatupang
simbad
simbang
simbol
simbolik
simbolis
simbolon
simeon
simetri
simetris
simeulue
simfoni
similar
simmons
simo
simon
simone
simons
simpan
simpanan
simpang
simpanse
simpati
simpatisan
simple
simplex
simply
simpson
simpsons
simpul
simpulan
sims
simulasi
simulation
simulator
simultan
sin
sina
sinaga
sinagoge
sinai
sinaiticus
sinar
sinatra
since
sinclair
sindang
sindikat
sindiran
sindo
sindonews
sindrom
sinema
sinemart
sinematografer
sinematografi
sinergi
sinetron
sing
singa
singapore
singapura
singaraja
singasari
singel
singer
singers
singgah
singgasana
singgung
singh
singhasari
singing
singingi
singkarak
singkat
singkatan
singkatnya
singkawang
singkil
singkong
single
singles
singosari
sings
singular
sinh
sinha
sinhala
sini
sinilah
sinjai
sinkronisasi
sino
sinode
sinonim
sinopsis
sint
sinta
sintaksis
sintang
sintesis
sintetis
sinus
sinyal
sio
sion
sipil
siprus
siput
sir
sira
sirah
sirait
siregar
siri
siria
sirih
sirip
sirius
sirkuit
sirkulasi
sirkus
siro
sirup
sis
sisa
sisanya
sisi
sisik
sisilia
sisinya
sisipan
sisir
siska
sistem
sistematis
sistemik
sister
sisters
sistim
siswa
siswi
sit
sita
site
sites
siti
sitkom
sitoplasma
sitorus
sitti
situ
situasi
situation
situbondo
situlah
situmorang
situs
siu
siwa
six
sixteenth
sixth
size
sj
sjahrir
sk
ska
skadron
skala
skalar
skandal
skandinavia
skating
ske
skema
skenario
skenarionya
skep
skeptis
sketch
sketsa
ski
skies
skill
skills
skin
skinner
skisma
skizofrenia
skor
skotlandia
skrip
skripsi
skt
skuad
skuadron
skuat
skull
sky
skyhawk
skyscraper
skyscraperpage
sl
sla
slam
slamet
slang
slank
slate
slater
slave
slavery
slaves
slavia
slavic
slayer
sleep
sleeping
sleman
slide
slim
slip
slipknot
sloan
slogan
slot
slovak
slovakia
slovenia
slow
slowakia
slta
sltp
sm
sma
smackdown
small
smallville
sman
smart
smartphone
smash
smea
smile
smith
smithsonian
smk
smkn
smoke
smoking
smp
smpn
sms
smtown
smu
sn
snake
snakes
snap
sncf
snh
sniper
snow
snyder
so
soa
soal
soap
soares
soba
sobre
soc
soccer
soccerbase
soccernet
soccerway
sochi
social
socialism
socialist
socie
sociedad
societies
society
sociological
sociology
socrates
soda
sodium
sodom
soe
soeatoe
soeda
soedah
soedirman
soeharto
soeka
soekarno
soekarnoputri
soepaja
soerat
soeratin
soest
sofia
soft
software
sofyan
soil
sok
soko
sokrates
sol
solar
sold
soldier
soldiers
sole
soleh
solid
solidaritas
solidarity
solo
solok
solomon
solonya
solopos
solusi
solution
solutions
som
soma
somali
somalia
sombong
some
someone
somerset
something
sometimes
son
sonar
sonata
song
songket
songs
soni
sonia
sonic
sonny
sono
sons
sony
soo
sook
soompi
soon
sop
sopan
sophia
sophie
sophronica
sopir
soppeng
sora
sorak
soraya
sore
soreang
sorga
sorong
sorotan
sorry
sos
sosial
sosialis
sosialisasi
sosialisme
sosialnya
sosio
sosiolog
sosiologi
sosis
sosok
soto
soul
souls
sound
sounds
soundtrack
soup
sour
source
sourcebook
sources
sous
sousa
south
southampton
southeast
southern
southwest
souza
sovereign
sovereignty
soviet
soyuz
sp
spa
space
spacecraft
spaceflight
spaces
spacex
spain
spam
span
spanduk
spanish
spanyol
spark
sparks
sparrow
sparta
spartak
spasi
spasial
spbu
spd
speak
speaker
speaking
speaks
spears
special
specialist
species
specific
specification
specifications
specified
spectrum
speculative
speech
speed
speedway
speelman
spektakuler
spektroskopi
spektrum
spekulasi
spell
spelling
spence
spencer
sperma
spesial
spesialis
spesialisasi
spesies
spesifik
spesifikasi
spesimen
sphere
spice
spider
spiegel
spielberg
spies
spike
spin
spiral
spirit
spirits
spiritual
spiritualitas
spirogyra
split
spoken
spongebob
spons
sponsor
sponsorship
spontan
spora
sport
sportbox
sporting
sports
spot
spotify
spotlight
spp
spread
spring
springer
springfield
springs
sprint
spt
spurs
sputnik
spy
sq
sqrt
squad
squadron
square
squarepants
squidward
sr
sragen
src
sri
srikandi
srimulat
sriwijaya
ss
ssb
sseldorf
st
sta
staatsblad
staatsspoorwegen
stabil
stabilitas
stability
stable
stacy
stad
stade
stadion
stadium
stadt
staf
staff
stage
stages
stai
stain
stake
stalin
stalingrad
stamford
stan
stanbul
stand
standar
standard
standardisasi
standards
standing
standings
standl
stanford
stanley
stanton
star
starbucks
stardust
stark
starr
starring
stars
starship
start
started
starter
starting
starts
startup
stasi
stasiun
stat
state
statement
statements
states
statesman
station
stations
statis
statistica
statistical
statistics
statistik
statistika
statistisches
stats
statue
status
statusnya
statuta
stay
ste
steam
steel
steele
stefan
stefano
stefanus
steffen
stein
steiner
stella
stellar
stelletta
stem
stempel
step
stephan
stephanie
stephen
stephens
stephenson
steps
stereo
stereotip
sterling
stern
steroid
sterreich
steve
steven
stevens
stevenson
stevie
stewart
sti
stick
stie
stigma
stik
still
stimulasi
stimulus
sting
stingray
stirling
stkip
stm
stmik
sto
stock
stockholm
stok
stoke
stokes
stolen
stone
stoner
stones
stoomtram
stop
storage
store
stores
storia
stories
storm
story
strabo
straight
strain
strait
straits
strand
strange
stranger
strangers
strasbourg
strata
strategi
strategic
strategies
strategis
strategy
straus
strauss
strawberry
stray
stream
streaming
street
streets
strength
streptomyces
stres
stress
strike
striker
strikes
string
strip
stroke
strong
strongest
stroud
structural
structure
structures
struggle
struktur
struktural
strukturnya
sts
stt
stu
stuart
stub
student
students
studi
studia
studien
studies
studinya
studio
studios
study
stuff
stupa
stuttgart
style
styles
su
sua
suaka
suami
suamiku
suaminya
suap
suar
suara
suaranya
suasana
suatu
sub
subang
subaru
subdistrik
subdit
subdivisi
subduksi
subfamili
subgenre
subgrup
subianto
subject
subjects
subjek
subjektif
subkelompok
submarine
subprefektur
subregnum
subroto
subscription
subsidi
subsp
subspesies
substance
substansi
substansial
substitusi
substrat
subtropis
subuh
subunit
subur
suburban
subway
subyek
success
successful
succession
such
suci
sud
sudah
sudahlah
sudan
sudarso
sudi
sudirman
sudiro
sudut
sue
suez
suffolk
suffragan
sufi
sufragan
sufyan
suga
sugar
sugeng
sugiarto
suharto
suhu
sui
suicide
suikoden
suit
suite
sujud
suk
suka
sukabumi
sukacita
sukadana
sukai
sukamaju
sukar
sukaraja
sukarela
sukarelawan
sukarno
suke
sukhoi
suki
sukma
sukoharjo
sukorejo
sukses
suksesi
suku
sukun
sul
sula
sulaiman
sulap
sulawesi
sule
suleiman
sulfat
sulfida
sulfur
sulih
suling
sulit
sulitnya
sullivan
sulsel
sultan
sulteng
sultra
sulu
suluk
sulung
sulungnya
sulut
sum
suma
sumatera
sumatra
sumba
sumbang
sumbangan
sumbar
sumbawa
sumber
sumberdaya
sumbernya
sumbu
sumedang
sumenep
sumeria
sumitomo
summa
summary
summer
summers
summit
sumo
sumpah
sumpit
sumsel
sumsum
sumur
sumut
sun
sunah
sunan
sunat
sunda
sundance
sunday
sunderland
sung
sungai
sungguh
sungguhpun
sunil
sunnah
sunni
sunny
sunrise
suns
sunset
sunshine
suntikan
sunting
suntingan
suny
sunyi
sup
supaya
super
superbike
superficie
superhero
superior
superman
supermarket
supernatural
supernova
supersonik
superstar
supervisor
supir
suplai
suplemen
suporter
suppl
supplement
supply
support
supported
supporter
supporters
supporting
supra
supranational
supranatural
suprapto
supremasi
supreme
sur
sura
surabaya
surah
surakarta
suram
surat
suratnya
surau
surel
suresh
surf
surface
surga
surgawi
surgery
suri
suriah
suriname
suro
surplus
surprise
surrey
suru
suruh
surut
survei
surveillance
survey
surveys
survival
survive
survivor
survivors
surya
suryadi
suryani
suryo
sus
susah
susan
susanna
susanti
susanto
sushi
susi
susilo
suspect
suspensi
sussex
sustainability
sustainable
suster
susu
susuhunan
susukan
susulan
susun
susunan
sutan
sutanto
sutera
sutherland
sutomo
sutra
sutradara
sutrisno
sutta
sutton
suv
suzanne
suzuka
suzuki
suzy
sv
sven
sw
swa
swadaya
swalayan
swami
swan
swansea
swapraja
swara
swasembada
swasta
swatantra
swaziland
sweden
swedia
swedish
sweeney
sweet
swift
swimming
swing
swiss
swisscharts
switch
switzerland
sword
sworn
swt
sy
sya
syafi
syafruddin
syah
syahadat
syahid
syahrul
syaiful
syaikh
syair
syam
syamsuddin
syamsul
syarat
syari
syariah
syariat
syarief
syarif
syawal
sybra
sydney
syed
syeikh
syekh
syi
syiah
sykes
sylvester
sylvia
symbol
symbols
symphony
symposium
syndrome
synopsis
synth
synthesis
synthesizer
syracuse
syria
syriac
syrian
system
systematic
systematics
systems
systropus
syu
syukur
syuting
sz
sze
szlo
t
ta
taal
taat
tab
tabalong
tabanan
tabari
tabel
tabi
tabib
tabir
table
tables
tablet
tabloid
tabloidbintang
tabrakan
tabu
tabung
tabungan
tabut
tachi
tachibana
tacitus
tactical
tactics
tadah
tadi
tadie
tadinya
tadmur
tae
taekwondo
tafsir
tafsiran
tag
tagalog
tagar
tagihan
tagore
tahan
tahanan
tahap
tahapan
taher
tahi
tahir
tahiti
tahoe
tahta
tahtanya
tahu
tahun
tahunan
tahunnya
tai
taiga
tail
tainan
taipei
taiping
taira
taisho
taiwan
taizong
taj
tajam
tajik
tajikistan
tajuk
tak
taka
takagi
takahashi
takahiro
takalar
takao
takashi
takbenda
takdir
take
takeda
taken
takes
takeshi
takeuchi
takhta
taki
taking
takkan
takluk
taksi
takson
taksonomi
taktik
taktis
takumi
takut
takuya
tal
tala
talaga
talak
talang
talas
talaud
talbot
tale
talent
talenta
tales
tali
taliban
talk
talking
talks
talkshow
tall
tallinn
tallo
talmud
talun
tam
tama
taman
tamansari
tamar
tamara
tamat
tambah
tambahan
tambahkan
tambak
tambang
tambo
tambora
tambun
tambunan
tamiang
tamil
tampa
tampak
tampaknya
tampan
tampil
tampilan
tampilkan
tampuk
tampung
tamtama
tamu
tamura
tan
tana
tanah
tanahnya
tanaka
tanakh
tanam
tanaman
tanasevitch
tanda
tandang
tanding
tandingan
tanduk
tanete
tang
tangah
tangan
tangani
tangannya
tangerang
tangga
tanggal
tanggamus
tangganya
tanggap
tanggapan
tangguh
tanggul
tanggung
tanggungan
tangis
tangkai
tangkap
tangkapan
tangkas
tangki
tangkis
tango
tani
tania
tanimbar
tanjakan
tanjung
tanjungbalai
tanjungpinang
tanjungpura
tanjungsari
tank
tanker
tanko
tanks
tanner
tanpa
tantangan
tante
tanur
tanya
tanzania
tao
taoisme
tap
tapa
tapak
tapal
tapanuli
tape
tapi
tapin
taqwa
tar
tara
taraf
tarakan
tarbiyah
tarekat
target
targets
tari
tarian
tarif
tarigan
tarik
tarikan
tarikh
taring
taro
taroh
taruhan
tarumanagara
taruna
tarung
tarutung
tarzan
tas
tasawuf
tasikmalaya
task
tasmania
taste
tasya
tat
tata
tatanan
tatap
tatar
tate
tatiana
tatkala
tato
tatsuya
tau
taubman
taufik
taufiq
tauhid
taurat
tauris
taurus
tautan
tavakilian
tawa
tawanan
tawang
tawar
tawaran
tawarikh
tawon
tax
taxi
taxonomic
taxonomy
tay
tayang
tayangan
taylor
tb
tba
tbd
tbilisi
tbk
tbol
tbs
tc
tcm
tcp
td
tdk
te
tea
teacher
teachers
teaching
teachings
team
teams
tears
teaser
teater
teatrikal
teau
tebal
tebet
tebing
tebo
tebu
tebusan
tech
techcrunch
technica
technical
technique
techniques
technische
technological
technologies
technology
ted
teddy
teduh
tee
teen
teenage
tegak
tegal
tegalan
tegalrejo
tegalsari
tegang
tegangan
tegar
tegas
teguh
teguran
teh
teheran
tehran
tek
teka
tekad
tekan
tekanan
teki
teknik
teknis
teknisi
teknologi
teks
tekstil
tekstual
tekstur
tektonik
tekun
tel
teladan
telaga
telah
telak
telanjang
telapak
telecom
telecommunications
telefon
telegraf
telegram
telegraph
telekomunikasi
telenovela
telephone
telepon
telescope
teleskop
televisi
television
telinga
teliti
telkom
telkomsel
tell
tells
telor
telugu
teluk
telur
telurnya
tema
teman
temanggung
temannya
tematik
tematis
tembaga
tembak
tembakan
tembakau
tembang
tembikar
tembok
tembolok
tembus
tempat
tempatnya
tempe
tempel
temperatur
temperature
templat
template
temple
tempo
temporal
temps
tempuh
tempur
tempurung
temu
temuan
temui
temukan
temurun
ten
tenaga
tenaganya
tenang
tenasia
tencent
tenda
tendangan
tender
teng
tengah
tengahnya
tenggang
tenggara
tenggarong
tenggelam
tenggelamnya
tengger
tenggorokan
tengkorak
tengku
tenis
tennessee
tennis
tenor
tensor
tentang
tentangan
tentara
tentaranya
tenteram
tenth
tentoelah
tentu
tentukan
tentulah
tentunya
tenun
teo
teolog
teologi
teologis
teorema
teoretis
teori
teorinya
teoritis
tepat
tepatnya
tepercaya
tephritidae
tephritis
tepi
tepian
tepuk
tepung
ter
tera
terada
terakhir
terakhirnya
terakreditasi
teramati
terampil
terancam
terang
terangan
terangkat
terapan
terapi
terapung
terarah
teras
terasa
terasing
teratai
teratas
teratur
terawal
terawat
terbaca
terbagi
terbaik
terbaiknya
terbakar
terbalik
terbang
terbangun
terbanyak
terbaring
terbaru
terbarukan
terbarunya
terbatas
terbawa
terbawah
terbebas
terbelah
terbelakang
terbenam
terbentang
terbentuk
terbentuklah
terbentuknya
terberat
terbesar
terbesarnya
terbiasa
terbilang
terbit
terbitan
terbitnya
terbuang
terbuat
terbuka
terbukti
terbunuh
terburu
terburuk
tercantum
tercapai
tercapainya
tercatat
tercela
tercemar
tercepat
tercermin
tercinta
tercipta
terciptanya
terdaftar
terdahulu
terdakwa
terdalam
terdampak
terdampar
terdapat
terdegradasi
terdekat
terdekatnya
terdengar
terdepan
terdesak
terdeteksi
terdiri
terdistribusi
terdorong
terduga
tere
tereliminasi
terencana
terence
terendah
terendam
terengganu
teresa
terestrial
terfavorit
terfokus
tergabung
terganggu
tergantikan
tergantung
tergelincir
tergenang
tergesa
tergolong
tergugat
terhadap
terhadapnya
terhalang
terhambat
terhebat
terhenti
terhindar
terhingga
terhitung
terhormat
terhubung
teri
teriak
teriakan
teridentifikasi
terigu
terikat
terima
terindah
terinfeksi
teringat
terinspirasi
terintegrasi
terisi
terisolasi
teritori
teritorial
terj
terjadi
terjadilah
terjadinya
terjadwal
terjaga
terjal
terjalin
terjamin
terjangkau
terjangkit
terjatuh
terjauh
terjebak
terjemahan
terjemahannya
terjual
terjun
terkadang
terkait
terkalahkan
terkandung
terkaya
terkecil
terkecuali
terkejut
terkemuka
terkena
terkenal
terkenalnya
terkendali
terkesan
terkini
terkonfirmasi
terkonsentrasi
terkontaminasi
terkontrol
terkuat
terkubur
terkumpul
terkunci
terkurung
terlahir
terlaksana
terlalu
terlama
terlambat
terlampau
terlarang
terlaris
terlarut
terlatih
terlebih
terlempar
terlengkap
terlepas
terlestarikan
terletak
terlibat
terlihat
terlindung
terlindungi
terluar
terluas
terluka
terlupakan
term
termahal
termaksud
termal
termasuk
termasyhur
terminal
terminologi
terminology
terminus
termodinamika
termohon
terms
termuat
termuda
ternak
ternama
ternate
ternyata
terobosan
terobsesi
terompet
terong
teropong
teror
terorganisasi
terorganisir
teroris
terorisme
terowongan
terpadat
terpadu
terpakai
terpaksa
terpanas
terpandang
terpanjang
terpapar
terpasang
terpecah
terpelajar
terpelihara
terpencil
terpendek
terpengaruh
terpenting
terpenuhi
terperangkap
terperinci
terpesona
terpidana
terpilih
terpilihnya
terpimpin
terpisah
terpisahkan
terpopuler
terpotong
terpuji
terpusat
terputus
terra
terre
terrestrial
territorial
territoriale
territories
territory
terror
terrorism
terrorist
terry
tersambung
tersangka
tersangkut
tersebar
tersebut
tersedia
tersedianya
terselesaikan
tersembunyi
tersendiri
tersentuh
tersenyum
terserang
tersesat
tersibuk
tersier
tersimpan
tersinggung
tersingkir
tersirat
tersisa
terstruktur
tersukses
tersusun
tertahan
tertanam
tertanggal
tertangkap
tertarik
tertawa
tertekan
tertembak
tertentu
tertera
tertib
tertidur
tertindas
tertinggal
tertinggi
tertingginya
tertua
tertuang
tertulis
tertunda
tertutup
terukur
terumbu
terungkap
terurai
terus
terusan
terutama
terutang
terwujud
terwujudnya
tes
tesalonika
tesaurus
tesis
tesla
test
testament
testamentum
testing
tests
tetangga
tetangganya
tetap
tetapi
tetapkan
tetaplah
tetes
tetesan
tetsuya
tetua
teu
teuku
teungku
tewas
tex
texas
text
textbook
texts
textstyle
textual
tf
tfrac
tg
tgk
tgl
th
tha
thaha
thai
thailand
thakur
thales
thalib
thames
thamrin
than
thani
thank
thanks
thanksgiving
that
thatcher
thayer
the
theater
theatre
thebes
thee
theft
theguardian
their
them
theme
themes
themselves
then
theo
theodor
theodora
theodore
theodosius
theological
theology
theorem
theoretical
theories
theory
therapy
theravada
there
theresa
theresia
thermal
theron
these
theseus
thesis
thessaloniki
theta
thewrap
they
thi
thie
thief
thiele
thierry
thin
thing
things
think
thinking
third
thirty
this
thn
tho
thom
thomas
thompson
thomson
thor
thorell
thorne
thornton
those
though
thought
thoughts
thousand
thousands
thrash
thread
threat
threatened
three
thriller
throne
thrones
through
throughout
thrust
thu
thunder
thursday
thus
ti
tia
tiada
tiadalah
tian
tiang
tianjin
tiap
tiara
tiba
tiberias
tiberius
tibet
tibetan
tica
ticket
tickets
tico
tida
tidak
tidakkah
tidaklah
tidaknya
tidal
tide
tidore
tidung
tidur
tidurnya
tie
tien
tienne
ties
tiff
tiffany
tiga
tiger
tigers
tigo
tigris
tii
tijdschrift
tik
tika
tikal
tikar
tiket
tiktok
tikungan
tikus
til
till
tim
timah
timbal
timbang
timbangan
timberlake
timbul
timbulnya
timbunan
time
timeline
times
timesofindia
timika
timnas
timnya
timo
timor
timothy
timotius
timur
timurnya
tin
tina
tindak
tindakan
tindakannya
tindih
ting
tinggal
tinggalkan
tinggalnya
tinggi
tingginya
tingkah
tingkat
tingkatan
tinja
tinjauan
tinju
tinta
tintin
tiny
tio
tiong
tionghoa
tiongkok
tip
tipe
tipikal
tipis
tips
tipu
tipula
tipulidae
tirai
tiram
tiran
tirana
tiri
tirinya
tiro
tiroid
tirol
tirta
tirto
tiruan
tirus
tis
tissue
tita
titah
titan
titanic
titanium
titans
titel
titi
titian
titiek
titik
title
titled
titles
tito
tituler
titus
tiup
tj
tjahaja
tjita
tjong
tk
tki
tkr
tl
tm
tmesisternus
tn
tni
tnt
to
toa
toba
tobacco
tobago
tobias
tobing
tobu
toby
tochigi
tod
today
todd
toe
toean
toehan
toei
toer
toga
together
togo
toh
toho
tohoku
toi
toilet
tojo
tok
toke
token
toki
toko
tokoh
tokohnya
toksin
toksisitas
tokugawa
tokusatsu
tokushima
tokyo
tol
tolak
told
toledo
toleran
toleransi
toli
tolitoli
tolkien
toll
tolong
tom
toma
tomas
tomat
tomatoes
tomb
tombak
tombol
tome
tommy
tomo
tomohon
tomomi
tomorrow
tompobulu
tomus
ton
tondano
tone
tong
tonga
tonggak
tongjian
tongkang
tongkat
toni
tonight
tonjolan
tonkin
tonny
tontonan
tony
too
took
tool
tools
toon
top
topan
topeng
topi
topic
topics
topik
topografi
topografis
topography
topologi
tops
tor
tora
torah
toraja
torch
tori
torino
torium
tornado
toro
toronto
torpedo
torre
torres
torsi
torture
toru
tory
torymus
toshiba
tot
total
toto
totok
tottenham
tottori
touch
tough
toulouse
tour
touring
tourism
tourist
tourn
tournament
tournamentsoftware
tours
toward
towards
tower
towers
town
towns
townsend
township
toxic
toy
toyama
toyota
toyotomi
tp
tpa
tpi
tps
tpu
tr
tra
track
tracking
tracks
tracy
trade
trading
tradisi
tradisional
tradition
traditional
traditions
traffic
trafficking
trafford
tragedi
tragedy
tragis
trah
trail
trailer
train
trainee
trainer
training
trainor
trains
trakia
traksi
traktat
traktor
tram
tramwegen
tran
trans
transaction
transactions
transaksi
transcript
transfer
transfermarkt
transformasi
transformation
transformers
transgender
transilvania
transisi
transistor
transit
transitif
transition
transjakarta
transkripsi
translasi
translate
translated
translation
translations
translator
translit
transliterasi
transmigrasi
transmisi
transmission
transnational
transneptunus
transnistria
transparan
transparansi
transplantasi
transpor
transport
transportasi
transportation
transporter
trap
trauma
travel
traveler
travels
travers
travis
trayek
tre
treasure
treasures
treasury
treatise
treatment
treaty
tree
trees
trek
trem
tren
trend
trending
trends
trenggalek
trent
trento
tres
trevor
trey
tri
trial
trials
triana
triangle
tribal
tribe
tribes
tribun
tribunal
tribune
tribunnews
tribute
trick
trier
trieste
trigger
trigonometri
trik
trikora
triliun
trilogi
trilogy
trim
trinidad
trinitas
trinity
trio
trip
triple
tripoli
trisakti
tristan
trisula
triton
tritunggal
triumph
tro
trofi
troll
troops
trophy
tropical
tropika
tropis
trotoar
trotsky
trouble
trout
troy
troya
tru
truck
trucks
true
truk
truman
trump
trupanea
trust
truth
try
trying
ts
tsai
tsanawiyah
tsar
tsb
tse
tsu
tsubaki
tsubasa
tsunami
tt
ttd
ttingen
tu
tua
tuah
tuak
tual
tuan
tuanku
tuannya
tuanya
tuas
tuba
tubagus
tuban
tube
tuberculosis
tuberkulosis
tubuh
tubuhnya
tucker
tucson
tudes
tudor
tuduhan
tudung
tuesday
tugas
tugasnya
tugu
tuha
tuhan
tuhanku
tuhanmu
tuhannya
tujuan
tujuannya
tujuh
tuk
tukang
tukar
tulah
tulang
tuli
tulip
tulis
tulisan
tulisannya
tulisnya
tulsa
tulungagung
tulus
tum
tumbang
tumbuh
tumbuhan
tumbuhnya
tumbukan
tumenggung
tumor
tumpah
tumpang
tumpeng
tumpuan
tumpukan
tumpul
tun
tuna
tunai
tunangan
tunas
tunda
tunduk
tune
tunes
tung
tunggal
tunggang
tunggu
tunggul
tungkai
tungku
tunis
tunisia
tunjangan
tunjuk
tunku
tunnel
tuntas
tuntutan
tuo
tupai
tupolev
tur
turbin
turbo
turbofan
turboprop
turi
turikale
turin
turing
turis
turk
turkey
turki
turkish
turkmenistan
turks
turn
turnamen
turnbull
turned
turner
turning
turns
turtle
turun
turunan
turunannya
turunnya
turut
tusuk
tutorial
tuttitalia
tuttle
tutul
tutup
tutur
tuvalu
tv
tvb
tvguide
tvline
tvn
tvone
tvri
tvxq
tw
tweet
twelfth
twelve
twente
twentieth
twenty
twice
twilight
twin
twinkle
twins
twist
twitch
twitter
two
tx
txt
ty
tyler
tyndale
tyo
type
types
typhoon
tyrannosaurus
tyson
tz
tze
tzu
u
ua
uae
uang
uangnya
uap
ub
ubah
uber
ubi
ubin
ubisoft
ubs
ubud
ubuntu
ubur
uc
ucap
ucapan
ucapkan
uchicago
uchida
uci
ucla
ud
udah
udang
udara
udaranya
udayana
udin
udinese
udo
ue
uea
ueda
uefa
ueno
ufo
uganda
ugly
ugm
uh
uhf
ui
uighur
uin
uit
ujar
ujaran
uji
ujian
ujung
ujungnya
uk
uki
ukir
ukiran
ukm
ukraina
ukraine
ukrainian
uks
ukur
ukuran
ukurannya
ul
ula
ulah
ulama
ulang
ulangan
ular
ulasan
ulat
uli
ulin
ullmann
ulrich
ulster
ultimate
ultimatum
ultra
ultraman
ultratop
ultraviolet
ulu
ulum
ulun
ulung
um
uma
umar
umat
umayyah
umberto
umbi
umbrella
umbul
umbut
umi
umkm
umm
ummat
ummu
umno
umpamanya
umpan
umrah
umum
umumkan
umumnya
umur
umurnya
un
una
unand
[...]
