!
"
#
##0
##1
##10
##11
##12
##13
##14
##15
##16
##17
##18
##19
##2
##20
##21
##22
##23
##24
##25
##26
##27
##28
##29
##3
##30
##31
##32
##33
##34
##35
##36
##37
##38
##39
##4
##40
##41
##42
##43
##44
##45
##46
##47
##48
##49
##5
##50
##51
##52
##53
##54
##55
##56
##57
##58
##59
##6
##60
##61
##62
##63
##64
##65
##66
##67
##68
##69
##7
##70
##71
##72
##73
##74
##75
##76
##77
##78
##79
##8
##80
##81
##82
##83
##84
##85
##86
##87
##88
##89
##9
##90
##91
##92
##93
##94
##95
##96
##97
##98
##99
$
%
&
'
(
)
*
+
,
-
.
/
0
00
000
001
002
003
004
005
006
007
008
009
01
010
011
012
013
014
015
016
017
018
019
02
020
021
022
023
024
025
026
027
028
029
03
030
031
032
033
034
035
036
037
038
039
04
040
041
042
043
044
045
047
049
05
050
051
052
053
06
060
061
062
063
064
067
07
070
071
072
074
08
080
081
083
09
090
091
1
10
100
1000
1001
1002
1009
101
1010
1011
1016
102
1024
103
104
105
1050
106
1066
107
1071
108
1080
109
11
110
1100
111
112
113
1130
114
115
1150
116
1160
117
118
1180
1185
119
12
120
1200
1204
121
1216
122
123
1230
124
1240
1241
125
1250
1257
1258
126
1260
127
1270
1274
1279
128
1280
129
1290
1295
13
130
1300
131
132
1328
133
134
135
1350
136
1365
1368
137
138
1385
139
1392
14
140
1400
141
1410
1415
142
1420
1424
143
144
1440
145
1450
1453
146
147
148
149
1492
15
150
1500
1501
1503
1505
151
1510
1511
1512
1513
1515
1516
1517
1519
152
1520
1521
1522
1524
1525
1526
1527
1528
1529
153
1530
1533
1534
1535
1536
154
1540
1542
1545
1546
155
1550
1552
1555
1559
156
1560
1564
1565
1568
157
1570
1571
1572
1575
1578
1579
158
1580
1582
1585
1587
159
1590
1592
1595
1596
1598
1599
16
160
1600
1601
1602
1603
1604
1605
1606
1607
1608
1609
161
1610
1611
1612
1613
1614
1615
1616
1618
1619
162
1620
1621
1622
1623
1624
1625
1626
1627
1628
1629
163
1630
1632
1635
1636
1637
1638
164
1640
1641
1642
1643
1644
1645
1646
1647
1648
1649
165
1650
1651
1652
1654
1655
1656
166
1660
1661
1662
1663
1665
1666
1667
1668
1669
167
1670
1672
1673
1675
1676
1677
1678
1679
168
1680
1681
1682
1683
1684
1685
1686
1688
1689
169
1690
1696
1697
1699
17
170
1700
1701
1703
1704
1705
1706
1707
1708
1709
171
1710
1713
1714
1715
1718
172
1720
1721
1723
1724
1725
1727
173
1730
1733
1735
1736
1737
1738
1739
174
1740
1741
1742
1743
1744
1745
1746
1747
1748
1749
175
1750
1751
1752
1753
1754
1755
1756
1757
1758
1759
176
1760
1761
1762
1763
1764
1765
1766
1767
1768
1769
177
1770
1771
1772
1773
1774
1775
1776
1777
1778
1779
178
1780
1781
1782
1783
1784
1785
1786
1787
1788
1789
179
1790
1791
1792
1793
1794
1795
1796
1797
1798
1799
18
180
1800
1801
1802
1803
1804
1805
1806
1807
1808
1809
181
1810
1811
1812
1813
1814
1815
1816
1817
1818
1819
182
1820
1821
1822
1823
1824
1825
1826
1827
1828
1829
183
1830
1831
1832
1833
1834
1835
1836
1837
1838
1839
184
1840
1841
1842
1843
1844
1845
1846
1847
1848
1849
185
1850
1851
1852
1853
1854
1855
1856
1857
1858
1859
186
1860
1861
1862
1863
1864
1865
1866
1867
1868
1869
187
1870
1871
1872
1873
1874
1875
1876
1877
1878
1879
188
1880
1881
1882
1883
1884
1885
1886
1887
1888
1889
189
1890
1891
1892
1893
1894
1895
1896
1897
1898
1899
19
190
1900
1901
1902
1903
1904
1905
1906
1907
1908
1909
191
1910
1911
1912
1913
1914
1915
1916
1917
1918
1919
192
1920
1921
1922
1923
1924
1925
1926
1927
1928
1929
193
1930
1931
1932
1933
1934
1935
1936
1937
1938
1939
194
1940
1941
1942
1943
1944
1945
1946
1947
1948
1949
195
1950
1951
1952
1953
1954
1955
1956
1957
1958
1959
196
1960
1961
1962
1963
1964
1965
1966
1967
1968
1969
197
1970
1971
1972
1973
1974
1975
1976
1977
1978
1979
198
1980
1981
1982
1983
1984
1985
1986
1987
1988
1989
199
1990
1991
1992
1993
1994
1995
1996
1997
1998
1999
2
20
200
2000
2001
2002
2003
2004
2005
2006
2007
2008
2009
201
2010
2011
2012
2013
2014
2015
2016
2017
2018
2019
202
2020
2021
2022
2023
2024
2025
2026
203
2030
204
205
2050
206
207
208
209
21
210
2100
211
212
213
214
215
216
217
218
219
22
220
221
222
223
224
225
226
227
228
229
23
230
231
232
233
234
235
236
237
238
239
24
240
241
242
243
244
245
246
247
248
249
25
250
2500
251
252
253
254
255
256
257
258
259
26
260
261
262
263
264
265
266
267
268
269
27
270
271
272
273
274
275
276
277
278
279
28
280
281
282
283
284
285
286
287
288
289
29
290
291
292
293
294
295
296
297
298
299
3
30
300
3000
301
302
303
304
305
306
307
308
309
31
310
311
312
313
314
315
316
3166
317
318
319
32
320
321
322
323
324
325
326
327
328
329
33
330
331
332
333
334
335
336
337
338
339
34
340
341
342
343
344
345
346
347
348
349
35
350
351
352
353
354
355
356
357
358
359
36
360
361
362
363
364
365
366
367
368
369
37
370
371
372
373
374
375
376
377
378
379
38
380
381
382
383
384
385
386
387
388
389
39
390
391
392
393
394
395
396
397
398
399
4
40
400
4000
401
402
403
404
405
406
407
408
409
41
410
411
412
413
414
415
416
417
418
419
42
420
421
422
423
424
425
426
427
428
429
43
430
431
432
433
434
435
436
437
438
439
44
440
441
442
443
444
445
446
447
448
449
45
450
451
452
453
454
455
456
457
458
459
46
460
461
462
463
464
465
466
467
468
469
47
470
471
472
473
474
475
476
477
478
479
48
480
481
482
483
484
485
486
487
488
489
49
490
491
492
493
494
495
496
497
498
499
5
50
500
5000
501
502
503
504
505
506
507
508
509
51
510
511
512
513
514
515
516
517
518
519
52
520
521
522
523
524
525
526
527
528
529
53
530
531
532
533
534
535
536
537
538
539
54
540
541
542
543
544
545
546
547
548
549
55
550
551
552
553
554
555
556
557
558
559
56
560
561
562
563
564
565
566
567
568
569
57
570
571
572
573
574
575
576
577
578
579
58
580
581
582
583
584
585
586
587
588
589
59
590
591
592
593
594
595
596
597
598
599
6
60
600
6000
601
602
603
604
605
606
607
608
609
61
610
611
612
613
614
615
616
617
618
619
62
620
621
622
623
624
625
626
627
628
629
63
630
631
632
633
634
635
636
637
638
639
64
640
641
642
643
644
645
647
648
649
65
650
651
652
653
654
655
656
657
658
66
660
661
664
665
666
667
668
669
67
670
671
672
673
674
675
676
677
678
679
68
680
681
682
683
684
685
686
687
688
689
69
690
691
692
695
696
697
7
70
700
7000
701
702
703
705
707
709
71
710
711
712
713
714
715
716
717
718
719
72
720
721
722
723
724
725
726
727
728
73
730
731
732
735
737
739
74
740
741
742
743
744
745
747
748
75
750
751
752
753
754
755
756
757
76
760
763
765
767
768
77
770
774
775
776
777
78
780
782
787
79
790
792
797
8
80
800
8000
801
802
804
805
808
809
81
810
811
812
813
815
82
820
821
823
824
825
827
828
83
830
84
840
842
843
85
850
853
86
860
864
865
867
87
870
875
88
880
885
888
89
890
892
9
90
900
9000
9001
901
902
903
904
905
907
909
91
910
911
912
913
915
918
919
92
920
923
924
925
929
93
930
931
935
937
94
940
944
945
95
950
955
96
960
961
962
963
965
97
970
973
975
978
9789794153857
9789794158159
979
98
980
981
983
985
987
99
990
995
996
999
:
;
<
=
>
?
@
\
^
_
`
a
aa
aaa
aachen
aal
aam
aamir
aan
aang
aaron
aau
ab
aba
abad
abadi
abah
abang
abangnya
abas
abba
abbas
abbasiyah
abbey
abbott
abc
abd
abdel
abdi
abdillah
abdu
abdul
abdullah
abdur
abdurrahman
abe
abel
abelian
aberdeen
abhishek
abi
abidin
abigail
abimanyu
abjad
abkhazia
abnormal
aborigin
aborsi
about
above
abraham
abram
abrams
abri
abs
absen
absolut
absolute
abstain
abstract
abstrak
abstraksi
abu
abuan
abubakar
abul
ac
acacia
acade
academia
academic
academy
acak
acalolepta
acanthochaetetes
acap
acar
acara
acaranya
access
accessed
accident
according
account
accounting
accounts
ace
aceh
aces
achievement
achmad
acid
acmaeodera
acoustic
acre
across
act
acta
acting
action
active
activision
activities
activity
acton
actor
actors
actress
acts
acuan
acuh
acutipula
ad
ada
adab
adakah
adakalanya
adakan
adalah
adam
adams
adanya
adaptasi
adaptif
adapun
adat
add
added
addison
additional
address
ade
adegan
adel
adelaide
adele
aden
adha
adhi
adi
adidas
adik
adiknya
adil
adinda
adipati
adipradana
adisi
adit
aditif
aditya
adityawarman
adji
adjie
adler
admin
administrasi
administratif
administration
administrative
administrator
admiral
adnan
ado
adobe
adolf
adolphe
adonan
adonara
adopsi
adrian
adriana
adriano
adrianus
adriatik
ads
adu
aduk
adult
advance
advanced
advent
adventure
adventures
advertising
advisory
advokasi
advokat
ae
aegea
aek
aerial
aero
aerobik
aerodinamika
aerodinamis
aeroflot
aerosol
aerospace
aesop
af
afc
afdeeling
afdeling
aff
affair
affairs
affan
affandi
affinis
afgan
afganistan
afghan
afghanistan
afi
afiliasi
afinitas
afl
afonso
afp
africa
african
afrika
afro
after
afternoon
ag
aga
agabag
again
against
agak
agaknya
agam
agama
agamanya
agar
agatha
age
agen
agency
agenda
ageng
agensi
agent
ages
aggregat
aglomerasi
agm
agnes
agni
agong
agra
agraria
agraris
agreement
agregat
agresi
agresif
agribisnis
agricultural
agriculture
agrikultur
agrilus
agro
agromyza
agromyzidae
agrowisata
aguilera
agung
agus
agustin
agustinus
agustus
ah
ahab
ahas
ahead
ahli
ahlul
ahmad
ahmadiyah
ahmed
ahn
ahok
ai
aia
aib
aichi
aid
aida
aids
aika
aikatsu
aiko
aim
aime
ain
ainu
ainun
air
airasia
airborne
airbus
aircraft
aires
airlangga
airline
airlines
airnya
airport
airports
airways
ais
aise
aisha
aishwarya
aisne
aisyah
aisyiyah
aj
aja
ajaib
ajakan
ajal
ajang
ajar
ajaran
ajarannya
ajax
ajay
ajeng
aji
ajudan
ajun
ak
aka
akabri
akad
akademi
akademik
akademis
akademisi
akal
akan
akane
akap
akar
akari
akarnya
akatsuki
akb
akbar
akbp
akhemeniyah
akhir
akhiran
akhirat
akhirnya
akhlak
akhmad
akhtar
aki
akibat
akibatnya
akidah
akimoto
akira
akita
akkadia
akko
akmil
akomodasi
akpol
akrab
akreditasi
akronim
aksara
akselerasi
aksen
akses
aksesi
aksesibilitas
aksesori
aksesoris
akshay
aksi
aksinya
aksioma
akta
aktif
akting
aktingnya
aktinida
aktiva
aktivasi
aktivis
aktivisme
aktivitas
aktivitasnya
aktor
aktris
aktual
aku
akuarium
akuatik
akuisisi
akulah
akulturasi
akumulasi
akun
akuntabilitas
akuntan
akuntansi
akurasi
akurat
akustik
akut
al
ala
alabama
aladdin
alai
alaihi
alain
alam
alamat
alami
alamiah
alaminya
alamnya
alamsyah
alan
aland
alang
alangkah
alap
alarm
alas
alasan
alasannya
alaska
alat
alatas
alauddin
alawi
alba
albania
albany
albar
albatros
albert
alberta
alberto
albertus
albion
albirex
albon
albrecht
album
albumnya
albums
albuquerque
albus
aldehida
aldi
aldo
aldrin
ale
alec
alejandro
aleksander
aleksandr
aleksandra
aleksandria
aleksei
aleksey
alel
aleppo
alergi
alert
alessandro
alex
alexa
alexander
alexandra
alexandre
alexandria
alexandrinus
alexei
alexis
alexius
alfa
alfabet
alfian
alfonso
alfred
alfredo
alga
algebra
algoritma
algoritme
alhasil
ali
alia
aliansi
alias
alice
alicia
alie
alien
alif
align
alignbars
alih
alik
alim
alinea
aliran
alis
alison
alit
alive
aliyah
aljabar
aljazair
aljir
alkali
alkaloid
alkana
alkena
alkil
alkimia
alkitab
alkitabiah
alkohol
all
alla
allah
allan
alle
allen
alley
alliance
allied
allison
allium
allkpop
allmusic
ally
alm
alma
almarhum
almond
almost
alokasi
alone
along
alonso
alor
aloysius
alpaida
alpen
alpes
alpha
alphabet
alphonse
alpine
alquran
alri
als
alsace
also
alt
alta
altai
altar
alter
alternatif
alternative
although
alto
alu
alue
aluminium
alumni
alumnus
alun
alur
alvarez
alves
alvin
always
alwi
alya
alzheimer
am
ama
amadeus
amal
amalan
amalia
aman
amanah
amanat
amanda
amandemen
amangkurat
amar
amarah
amarna
amaryllidaceae
amat
amateur
amatir
amazing
amazon
ambang
ambar
ambarawa
ambassador
amber
ambigu
ambiguitas
ambil
ambisi
ambisius
ambon
ambrose
ambulans
ambyah
amc
amd
ame
amelia
amen
amendemen
america
american
americans
americas
amerika
ames
amfibi
amg
amherst
ami
amida
amien
amik
amin
amina
aminah
amino
amir
amis
amit
amitabh
amman
amnesia
amnesti
amnesty
amon
among
amonia
amonium
amor
amore
amori
amos
amour
amp
ampang
ampar
ampas
ampat
ampek
ampel
ampera
amplifier
amplitudo
amplop
ampuh
ampun
amr
amri
amrullah
ams
amsal
amsterdam
amun
amunisi
amuntai
amx
amy
an
ana
anak
anakan
anakku
anaknya
anal
analis
analisa
analisis
analitik
analitis
analog
analogi
analysis
anand
ananda
anang
ananta
anarki
anarkis
anarkisme
anarko
anas
anastasia
anastrepha
anatolia
anatoly
anatomi
anatomy
anc
ancaman
anchor
anchorage
ancient
ancol
and
anda
andai
andal
andalan
andalas
andalus
andalusia
andaman
anders
andersen
anderson
andes
andesit
andhika
andhra
andi
andika
andil
andini
ando
andong
andorra
andra
andre
andrea
andreas
andrei
andres
andretti
andrew
andrews
andrey
andri
android
andromeda
andy
aneh
anehnya
aneka
aneksasi
anemia
anestesi
aneurisma
ang
angan
ange
angel
angela
angeles
angelina
angelo
angelou
angels
angga
anggap
anggapan
anggar
anggaran
anggota
anggotanya
anggrek
anggun
anggur
angie
angin
angka
angkasa
angkat
angkatan
angkatnya
angke
angker
angket
angklung
angkola
angkor
angkot
angkuh
angkut
angkutan
angle
anglia
anglikan
anglo
angola
angry
angsa
angsur
angsuran
angus
anhalt
anhui
ani
anies
anil
animal
animalia
animals
animasi
animated
animation
animator
anime
animisme
anion
anis
anita
anjing
anjlok
anjou
anjung
anjungan
anjuran
ankara
ann
anna
annales
annals
anne
annette
annie
annisa
anniversary
anno
annotated
announced
announces
annual
ano
anoa
anolis
anom
anomali
anonim
anonymous
anorganik
another
ans
ansambel
answer
answers
ant
anta
antagonis
antar
antara
antaranews
antaranya
antarbintang
antariksa
antariksawan
antarklub
antarkota
antarktika
antarmuka
antarnegara
antartika
antasari
ante
antena
anterior
anthaxia
anthem
anthology
anthony
anthrax
anthropology
anti
antibiotik
antibodi
antigen
antigonos
antigua
antik
antimon
anting
antiokhia
antiokhos
antioksidan
antique
antiquities
antiquity
antisemitisme
antisipasi
antitank
antivirus
antlers
anto
antoine
antoinette
antologi
anton
antoni
antonia
antonio
antonius
antono
antonov
antony
antropolog
antropologi
antusias
antusiasme
antv
antwerp
antwerpen
anu
anugerah
anugrah
anumerta
anus
anwar
any
anya
anyaman
anyar
anything
ao
aoa
aoi
aoki
aol
aomori
aorta
aoyama
aozora
ap
apa
apabila
apache
apakah
apalagi
apapun
aparat
aparatur
apartemen
apartheid
apartment
apbd
apbn
apc
ape
apec
apel
apg
api
apink
aplikasi
aplikasinya
apocalypse
apokaliptik
apollo
apostolik
apotek
apoteker
app
appa
appeal
appearance
appendix
apple
appleton
application
applications
applied
approach
approaches
apps
apr
apresiasi
april
aprilia
apron
apu
apung
aq
aqidah
aqua
aquarius
aquila
aquinas
aquino
aquitaine
ar
ara
arab
arabi
arabia
arabian
arabic
arafat
aragon
arah
arahan
arahnya
arai
arak
arakan
aram
araneae
araneidae
araneus
arang
aransemen
aras
arashi
arau
arbiter
arbitrase
arbor
arbuckle
arc
arca
arcade
arch
archaea
archaeological
archaeology
archangel
archdiocese
archer
archibald
archie
archimedes
archipelago
architectural
architecture
archive
archived
archives
arctic
ardi
are
area
areal
areas
arema
aren
arena
ares
arfak
arg
arga
argentina
argo
argon
argumen
argumentasi
argyll
arh
ari
aria
arian
ariana
ariane
arie
arief
ariel
aries
arif
arifin
arini
ario
aris
aristokrasi
aristokrat
aristoteles
aristotle
aritmetika
arizona
arjun
arjuna
ark
arkade
arkansas
arkea
arkeolog
arkeologi
arkeologis
arktik
arles
arlington
arm
armada
armadanya
arman
armand
armando
arme
armed
armenia
armenian
armor
armour
arms
armstrong
army
arn
arnhem
arnold
aro
arok
aroma
aromatik
aron
arondisemen
arora
around
arranger
array
arrow
arrows
ars
arsen
arsenal
arsip
arsitek
arsitektur
arsy
arsyad
art
arte
artefak
artemis
arteri
artha
arthas
arthropoda
arthur
arti
artian
article
articles
artificial
artikel
artikelnya
artikulasi
artileri
artillery
artinya
artis
artist
artistik
artists
arts
artscroll
arturo
aru
aruba
arum
arun
aruna
arung
arus
arwah
ary
arya
aryan
aryo
as
asa
asad
asahan
asahi
asal
asalkan
asalnya
asam
asami
asano
asap
asas
asasi
ascii
asean
aseksual
asem
asep
aset
asetat
asetnya
ash
asha
asher
ashgate
ashikaga
ashita
ashkenazi
ashley
ashton
asi
asia
asian
asiatic
asih
asilidae
asilus
asimetris
asimilasi
asin
asing
asiria
asisten
asistennya
ask
aslan
asli
aslinya
asma
asmara
asmat
asn
aso
asoka
asops
asosiasi
asosiatif
asp
aspal
asparagales
aspects
aspek
aspergillus
aspirasi
aspx
asrama
asri
asrul
assad
assam
assassin
assault
assembly
assessment
asset
assist
assistance
assistant
associate
associated
associates
association
associations
astana
astatin
asteraceae
asterales
asterisma
asterisme
asteroid
asti
aston
astra
astragalus
astrid
astro
astrologi
astronaut
astronom
astronomi
astronomical
astronomis
astronomy
asturias
asuh
asuhan
asuka
asumsi
asupan
asura
asuransi
asy
asyik
asyur
at
ata
atalanta
atambua
atap
atapnya
atari
atas
atasan
atasannya
atase
atasnya
atatu
atau
ataukah
ataupun
atc
ateis
ateisme
aten
atena
ath
athanasius
athena
athens
athletic
athrun
ati
atjeh
atkins
atkinson
atlanta
atlantic
atlantik
atlantis
atlas
atle
atlet
atletik
atm
atma
atmosfer
atol
atom
atomic
atp
atr
atraksi
atribusi
atribut
atrium
ats
atsuko
atsushi
attack
attila
aturan
atv
au
aubrey
auckland
audi
audience
audiens
audio
audisi
audit
audition
auditor
auditorium
audrey
auf
aug
augsburg
august
augusta
auguste
augustin
augustine
augusto
augustus
auksilier
aula
aulia
aun
aung
aur
aura
aurelius
aureus
auri
aurora
aus
auschwitz
austin
australasia
australia
australian
australis
austria
austrian
austro
austronesia
author
authority
authors
autisme
auto
autobiografi
autobiography
autobots
automatic
automobile
automotive
autumn
aux
av
ava
available
avant
avar
avatar
ave
avec
avengers
avenue
average
avery
avex
avi
aviation
avignon
avionik
avispa
aviv
avril
avro
aw
awa
awak
awakening
awaknya
awal
awalan
awalnya
awam
awan
awang
award
awards
awas
awatara
away
awet
ax
axel
axinella
axis
ay
aya
ayah
ayahanda
ayahandanya
ayahku
ayahnya
ayaka
ayam
ayana
ayat
ayo
ayodhya
ayrton
ayu
ayub
ayumi
ayunan
ayutthaya
ayyub
ayyubiyah
az
azab
azad
azan
azas
azerbaijan
azhar
azhari
azis
aziz
azmi
aztek
azuma
azwar
b
ba
baal
bab
baba
babad
babak
babakan
babat
babe
babel
babi
babilon
babilonia
babu
babul
baby
bac
baca
bacaan
bacan
bach
bachchan
bachelor
bachtiar
back
background
backing
bacon
bactrocera
bad
bada
badai
badak
badan
badannya
badar
badawi
baden
badminton
badui
badung
badut
bae
baek
baekje
bafta
bag
bagai
bagaikan
bagaimana
bagaimanakah
bagaimanapun
bagan
bagansiapiapi
bagas
bagasi
bagdad
baghdad
bagi
bagian
bagiannya
bagikan
bagiku
bagimu
baginda
baginya
bagong
bagus
bah
baha
bahadur
bahagia
bahagian
bahama
bahan
bahar
bahari
baharkam
bahasa
bahasan
bahasanya
bahawa
bahaya
bahia
bahkan
bahn
bahrain
bahri
bahru
bahtera
bahu
bahwa
bahwasanya
bai
baik
baiklah
baiknya
bailey
baillargeon
bailly
baim
bais
bait
baitul
baja
bajaj
bajak
baji
bajing
bajo
baju
bak
baka
bakal
bakalan
bakar
bakat
bakatnya
bakau
baker
bakr
bakri
bakrie
bakso
bakteri
bakti
baktinya
baktria
baku
bakung
bal
bala
balada
balai
balairung
balak
balance
balang
balangan
balap
balapan
balas
balasan
baldwin
bale
balet
balfour
bali
balige
balik
balikpapan
baling
balistik
balita
balkan
balkon
ball
ballad
ballet
ballroom
balok
balon
balong
balsaminaceae
baltik
baltimore
bambang
bambu
ban
banana
banco
band
banda
bandai
bandang
bandar
bandara
bandeng
banding
bandingkan
bandit
bandnya
bandoeng
bandung
bandwidth
bang
bangalore
bangau
banget
bangga
banggai
bangil
bangka
bangkai
bangkalan
bangkit
bangkitnya
bangko
bangkok
bangkrut
bangku
bangladesh
bangli
bangsa
bangsal
bangsanya
bangsawan
bangun
bangunan
bangunannya
bani
banjar
banjaran
banjarbaru
banjari
banjarmasin
banjarnegara
banjarsari
banjir
bank
banking
bankir
banks
banksia
banner
bantaeng
bantahan
bantal
bantalan
bantam
bantaran
banten
banteng
bantimurung
bantu
bantuan
bantuannya
bantul
banu
banua
banyak
banyaknya
banyu
banyuasin
banyumas
banyumasan
banyuwangi
bao
bapa
bapak
bapaknya
bappeda
bappenas
baptis
baptisan
baptist
baptiste
baqarah
bar
bara
barabai
barack
barak
barang
barangay
barangkali
barangnya
barangsiapa
barat
baratnya
barbados
barbar
barbara
barbarossa
barber
barbera
barbie
barbuda
barcelona
barclays
bare
barel
bareng
bareskrim
baret
bari
baris
barisan
barito
barium
barker
barnabas
barnes
barney
baro
barok
baron
barong
barongan
barongsai
baroque
barr
barra
barrett
barrichello
barrier
barrow
barru
barry
barrymore
barset
bart
barth
bartlett
barton
baru
barukh
barulah
barumun
barunya
barus
bas
basa
basah
basal
base
baseball
based
basel
basement
basi
basic
basil
basilica
basilika
basin
basis
basket
basketball
baso
basque
basra
basri
bass
bassett
bassis
bassist
bastian
basu
basuki
baswedan
bat
bata
batak
batal
batalion
batalyon
batam
batang
batangan
batanghari
batangnya
batara
batas
batasan
batasnya
batavia
batch
batee
baterai
bates
bath
batik
batin
batista
batman
batrik
battery
battista
battle
battlefield
battles
batu
batuan
batubara
batuk
batur
baturaja
batusangkar
batutah
bau
baubau
baudouin
bauer
baut
bautista
bavaria
bawa
bawaan
bawah
bawahan
bawahannya
bawahnya
bawang
bawaslu
bawean
baxter
bay
baya
bayam
bayan
bayang
bayangan
bayar
bayaran
bayer
bayern
bayi
bayinya
bayu
bayur
bazaar
bazar
bb
bbc
bbm
bc
bca
bd
bdfutbol
be
bea
beach
beacon
beam
bean
bear
bears
beasiswa
beast
beat
beatles
beatrice
beatrix
beats
beatty
beau
beaufort
beaumont
beautiful
beauty
beaux
beban
bebas
bebatuan
bebek
beberapa
bebuyutan
beby
bec
becak
became
because
beck
becker
beckett
become
becomes
bed
beda
bedagai
bedah
bedanya
bedford
bedil
bedug
bee
been
beer
beethoven
beetle
before
began
begawan
begin
begini
beginner
beginning
begins
begitu
begitulah
begitupun
begonia
begoniaceae
begum
behavior
behind
bei
beijing
being
beirut
beit
bej
bejana
beji
bek
bekal
bekas
bekasi
bekerja
bekerjasama
beku
bel
bela
beladiri
belah
belahan
belajar
belaka
belakang
belakangan
belakangnya
belalang
belanda
belang
belanja
belantara
belarus
belarusia
belas
belasan
belasungkawa
belati
belawan
belenggu
belerang
belfast
belgia
belgium
belgrade
beli
belia
beliau
belief
believe
belimbing
belitang
belitung
belize
bell
bella
bellamy
belle
bellmare
belo
belok
belokan
belong
below
belt
belu
beluk
belukar
belum
belut
bem
ben
benang
benar
bencana
benci
bend
benda
bendahara
bendera
bendung
bendungan
benedict
benediktin
benediktus
bener
benetton
benevento
benfica
beng
bengal
bengali
bengawan
benggala
bengkak
bengkalis
bengkayang
bengkel
bengkok
bengkulu
beni
benih
benin
bening
benito
benjamin
bennett
benny
bensin
benson
bentang
bentangan
benteng
benth
bentley
bentoel
bentrok
bentrokan
bentuk
bentukan
bentuknya
benturan
benua
benuaq
benyamin
benz
benzema
benzena
beograd
beom
bepergian
ber
berabad
beracun
berada
beradab
beradaptasi
beradik
beradu
berafiliasi
beragam
beragama
berair
berakar
berakhir
berakhiran
berakhirnya
berakibat
beraksi
berakting
beraktivitas
beralamat
beralasan
beralih
beraliran
beralkohol
berambut
beranak
beranda
beraneka
berang
beranggapan
beranggotakan
berangkat
berangsur
berani
beranjak
berantai
berantakan
berapa
berapi
berargumen
berarti
beras
berasa
berasal
berasimilasi
berasosiasi
beraspal
berasumsi
berat
beratap
beratnya
beraturan
berau
berawak
berawal
berbadan
berbagai
berbagi
berbahan
berbahasa
berbahaya
berbakat
berbakti
berbalik
berbanding
berbangsa
berbaring
berbaris
berbasis
berbatas
berbatasan
berbatu
berbau
berbaur
berbayar
berbeda
berbekal
berbelanja
berbelok
berbentuk
berber
berbiak
berbiaya
berbicara
berbincang
berbintang
berbintik
berbisa
berbisnis
berbobot
berbohong
berbuah
berbuat
berbudaya
berbudi
berbukit
berbulan
berbulu
berbunga
berbunyi
berburu
bercabang
bercahaya
bercak
bercakap
bercampur
bercanda
bercerai
bercerita
bercinta
bercita
berciuman
bercocok
bercorak
berdagang
berdakwah
berdamai
berdampak
berdampingan
berdarah
berdasar
berdasarkan
berdatangan
berdaulat
berdaun
berdaya
berdebat
berdedikasi
berdekatan
berdiam
berdiameter
berdimensi
berdinas
berdinding
berdiri
berdirilah
berdirinya
berdiskusi
berdoa
berdomisili
berdosa
berdua
berduet
berduka
berdurasi
berduri
bereaksi
berebut
beredar
beregu
berekor
berekspansi
bereksperimen
berekspresi
beremigrasi
berempat
berenang
berencana
berenergi
bereproduksi
beretnis
beretta
berevolusi
berfirman
berfokus
berfungsi
berg
bergabung
bergabungnya
bergambar
berganda
berganti
bergantian
bergantung
bergaris
bergaul
bergaya
bergegas
bergelar
bergelombang
bergen
bergengsi
bergenre
berger
bergerak
bergeser
bergetar
bergiliran
bergman
bergulat
bergulir
berguna
bergunung
berguru
berhadapan
berhak
berhala
berhalangan
berhaluan
berharap
berharga
berhari
berhasil
berhati
berhenti
berhingga
berhubung
berhubungan
berhulu
berhutan
berhutang
beri
beribadah
beribu
berikan
berikatan
beriklim
berikut
berikutnya
berilium
beriman
berimbang
berimigrasi
beringin
berinisiatif
berinteraksi
berinvestasi
berirama
berisi
berisikan
berisiko
beristirahat
berita
beritasatu
berjadwal
berjaga
berjalan
berjalannya
berjam
berjangka
berjanji
berjarak
berjasa
berjaya
berjenis
berjiwa
berjualan
berjuang
berjudul
berjuluk
berjumlah
berjumpa
berkabung
berkah
berkaitan
berkaki
berkala
berkali
berkampanye
berkantor
berkapasitas
berkarakter
berkarier
berkarir
berkarya
berkas
berkat
berkata
berkatalah
berkebangsaan
berkebun
berkecamuk
berkecepatan
berkecimpung
berkedudukan
berkeinginan
berkekuatan
berkelahi
berkelana
berkelanjutan
berkelas
berkeley
berkeliaran
berkeliling
berkelompok
berkemah
berkemampuan
berkembang
berkembangnya
berkenaan
berkenalan
berkenan
berkencan
berkendara
berkepala
berkepanjangan
berkepentingan
berkerabat
berkerja
berkesan
berkesempatan
berkesinambungan
berkewajiban
berkewarganegaraan
berkhianat
berkhotbah
berkilau
berkiprah
berkisah
berkisar
berkobar
berkode
berkolaborasi
berkomentar
berkomitmen
berkompetisi
berkomunikasi
berkonsentrasi
berkonsultasi
berkontribusi
berkoordinasi
berkorban
berkorelasi
berkshire
berkualitas
berkuasa
berkuda
berkuliah
berkulit
berkumpul
berkumpulnya
berkunjung
berkurang
berkurangnya
berlabuh
berlaga
berlainan
berlaku
berlakunya
berlalu
berlandaskan
berlangganan
berlangsung
berlangsungnya
berlanjut
berlantai
berlapis
berlari
berlarut
berlatar
berlatih
berlawanan
berlayar
berlebih
berlebihan
berlian
berlibur
berlimpah
berlin
berlindung
berliner
berlipat
berlisensi
berlokasi
berlomba
berlubang
berlutut
bermacam
bermagnitudo
bermain
bermakna
bermaksud
bermalam
bermanfaat
bermarga
bermarkas
bermasalah
bermassa
bermasyarakat
bermata
bermatapencaharian
bermerek
bermesin
bermigrasi
bermimpi
berminat
bermitra
bermoral
bermotif
bermotor
bermuara
bermuatan
bermuda
bermukim
bermula
bermunculan
bermusik
bermusuhan
bermutu
bern
bernada
bernama
bernapas
bernard
bernardino
bernardo
bernaung
bernegara
bernegosiasi
bernhard
berniat
bernie
bernilai
bernomor
bernstein
bernuansa
bernyanyi
beroda
berolahraga
beroleh
beroperasi
berorganisasi
berorientasi
berpacaran
berpakaian
berpaling
berpandangan
berpangkalan
berpangkat
berpartisipasi
berpasangan
berpasir
berpatroli
berpedoman
berpegang
berpenampilan
berpendapat
berpendidikan
berpendingin
berpenduduk
berpengalaman
berpengaruh
berpenghasilan
berpenghuni
berperan
berperang
berperilaku
berperingkat
berpesan
berpesta
berpidato
berpihak
berpikir
berpikiran
berpindah
berpisah
berpori
berpose
berposisi
berpotensi
berprestasi
berprofesi
berpuasa
berpuluh
berpuncak
berpura
berpusat
berputar
berputra
berry
bersabda
bersahabat
bersaing
bersaksi
bersalah
bersalaman
bersalin
bersama
bersamaan
bersamanya
bersambung
bersandar
bersangkutan
bersantai
bersarang
bersatu
bersaudara
bersayap
bersebelahan
berseberangan
bersedia
bersedih
bersejarah
bersekolah
bersekongkol
bersekutu
berselang
berselingkuh
berselisih
bersemangat
bersemayam
bersembunyi
bersemi
bersenang
bersenjata
bersenjatakan
bersentuhan
bersepakat
bersepeda
berseri
bersertifikat
berseru
bersesuaian
berseteru
bersiap
bersiaran
bersidang
bersifat
bersih
bersikap
bersikeras
bersimpati
bersinar
bersinggungan
berskala
berspekulasi
berspesialisasi
berstandar
berstatus
bersuara
bersuku
bersumber
bersumpah
bersyarat
bersyukur
bert
bertabrakan
bertahan
bertahap
bertahta
bertahun
bertajuk
bertakhta
bertakwa
bertambah
bertambahnya
bertanda
bertanding
bertanggal
bertanggung
bertanggungjawab
bertangkai
bertani
bertanya
bertapa
bertaraf
bertarif
bertarikh
bertarung
bertekad
bertekanan
berteknologi
bertekstur
bertelur
bertema
bertemakan
berteman
bertempat
bertempur
bertemu
bertenaga
bertengger
bertengkar
bertentangan
bertepatan
berteriak
berterima
bertetangga
bertha
bertiga
bertikai
bertindak
bertinggi
bertingkah
bertingkat
bertipe
bertiup
bertobat
bertolak
bertopik
bertrand
bertransformasi
bertubuh
bertugas
bertujuan
bertukar
bertulang
bertuliskan
bertumbuh
bertumpu
bertunangan
berturut
bertutur
beru
beruang
berubah
berujung
berukuran
berulang
berumah
berumur
berunding
beruntun
beruntung
berupa
berupaya
berurusan
berurutan
berusaha
berusia
berutang
bervariasi
berwajah
berwarna
berwawasan
berwenang
berwibawa
berwujud
berziarah
bes
besar
besaran
besarnya
beserta
besi
besluit
besok
best
besuki
besutan
bet
beta
betapa
betawi
beternak
beth
bethany
bethel
bethesda
betina
betis
betlehem
beton
better
betty
betul
betung
between
beverly
bey
beyonce
beyond
bf
bg
bh
bha
bhakti
bharat
bharata
bhatara
bhatt
bhayangkara
bhd
bhikkhu
bhinneka
bhre
bhumi
bhutan
bi
biak
bian
bianca
bianchi
biang
biao
biar
biara
biarawan
biarawati
biarkan
biarlah
biaro
biarpun
bias
biasa
biasanya
biawak
biaya
biayanya
bibi
bibinya
bibir
bibit
bible
biblical
bibliografi
bibliography
bibliothe
bibliotheca
bicara
bid
bidadari
bidah
bidan
bidang
bidangnya
biden
bidik
bieber
biennale
big
biggest
bihar
bii
bij
bijak
bijaksana
biji
bijian
bijih
bijinya
bike
bikin
bikini
biksu
bila
bilah
bilamana
bilang
bilangan
bilateral
bilbao
bileam
bilik
bilingual
bill
billah
billboard
billie
billion
bills
billy
bima
bimbingan
bimbo
bimo
bin
bina
binaan
binapemdes
binasa
binatang
bincang
biner
bing
bingen
bingkai
bingung
binjai
binomial
bintan
bintang
bintangnya
bintara
bintaro
binti
bintik
bintuni
bio
biodata
biodiesel
biodiversity
biografi
biographical
biographies
biography
biokimia
biola
biologi
biological
biologis
biology
biomassa
biomedis
bioskop
biota
bioteknologi
bipolar
bir
bira
birch
bird
birdlife
birds
bireuen
birma
birmingham
biro
birokrasi
birokrat
birth
birthday
biru
bis
bisa
bisbol
bisby
biseksual
bishop
bishops
biskuit
bisma
bismarck
bisnis
bisnisnya
bison
bissau
bisu
bit
bita
bitcoin
bitter
bitung
bius
bizantin
bizantium
bj
bjo
bk
bkr
bl
black
blackberry
blackburn
blackpink
blackwell
blade
blair
blake
blambangan
blanc
blanche
blanchett
blanco
blang
blank
blast
blaster
blasteran
bleach
bless
blimbing
blind
blink
bliss
blitar
blitz
bloch
block
blockbuster
blockchain
blog
blogger
blogspot
blois
blok
blokade
blommendaal
blonde
blood
bloody
bloom
bloomberg
bloomington
bloomsbury
blora
blossom
blow
blu
blue
blues
bluetooth
blume
bm
bmatrix
bmg
bmi
bmw
bn
bni
bnn
bnp
bo
boa
boalemo
board
boas
boat
bob
bobby
bobo
boboiboy
bobot
boca
bocah
bocor
bode
bodhi
bodhisattva
bodi
bodoh
body
bodyguard
boeing
boer
boga
bogie
bogor
bogota
bohemia
bohol
bohong
bohr
boikot
bois
boiss
bojonegoro
bojong
bok
boku
bola
bolaang
bolak
bolango
bold
bole
boleh
bolesław
boletina
boli
bolivia
bolkiah
bollywood
bologna
bolon
bolong
bolshevik
bolt
bolton
bolu
bom
bomb
bombardier
bombay
bomber
bombyliidae
bombylius
bon
bona
bonang
bonaparte
bond
bondan
bondowoso
bone
boneka
bones
bong
bongkar
bongo
bonifasius
bonjol
bonn
bonnie
bono
bontang
bonto
bontoa
bonus
boo
boogie
book
books
boolean
boom
boomerang
boon
boot
booth
boots
bor
bora
borat
bordeaux
border
borders
bordil
bordir
borg
boris
borjuis
born
borneo
borobudur
boron
borough
boru
borussia
bos
bosan
bosch
bosco
bose
bosnia
boss
bostock
boston
bosworth
bot
botak
botani
both
botol
botswana
bottas
bottom
bougainville
boulder
boulenger
boulevard
boulogne
bound
boundary
bounty
bourbon
bourgogne
bourgoin
bournemouth
boushaki
boven
bow
bowie
bowl
bowling
bowman
box
boxer
boxing
boy
boyband
boyd
boyfriend
boyle
boyolali
boys
boyz
bp
bpd
bpk
bpm
bppt
bps
br
bra
brabant
brabham
brad
bradford
bradley
brady
braga
brahma
brahman
brahmana
brahmi
braille
brain
bram
bramantyo
bran
branch
brand
brandenburg
branding
brandon
brands
brandt
brantas
brasil
brass
brata
bratislava
braun
braunschweig
brave
bravo
brawijaya
bray
brazil
brazilian
bre
bread
break
breakfast
breaking
breakthrough
breath
brebes
breda
bremen
brenda
brendan
brennan
brent
brescia
brest
bretagne
breton
brett
breuning
brevet
brexit
brezhnev
bri
brian
bride
bridge
bridges
brie
brief
brien
brigade
brigadir
briggs
bright
brighton
brigif
brigjen
brilian
brill
brimob
bring
brisbane
bristol
brit
britain
britania
britannia
britannica
british
britney
brittany
broad
broadband
broadcast
broadcasting
broadway
brock
brody
broken
broker
bromida
bromo
bromwich
bronx
bronze
brook
brooke
brooklyn
brooks
bros
brosnan
brosur
brother
brothers
brown
browne
browning
browser
brt
bru
bruce
bruder
brunei
bruno
brunswick
brussel
brussels
brutal
bruto
bryan
bryant
bryce
bs
bsc
bsd
bt
btn
btr
bts
bu
buah
buahan
buahnya
buana
buang
buangan
buas
buat
buatan
buatannya
buaya
bubar
bubble
bubuk
bubungan
bubur
buchanan
bucharest
buck
buckingham
buckinghamshire
buckley
bud
buda
budak
budapest
budaya
budayanya
budayawan
buddha
buddhis
buddhism
buddhisme
buddhist
buddy
budget
budha
budi
budidaya
budiman
budokan
buenos
buffalo
bug
bugis
bugs
buih
build
building
buildings
built
buitenzorg
bujang
bujur
buka
bukaan
bukan
bukankah
bukanlah
bukannya
bukares
bukhari
bukit
bukittinggi
bukti
buktinya
buku
bukunya
bulan
bulanan
bulannya
bulat
bulatan
bulbophyllum
buleleng
buletin
bulgaria
bulir
bull
bulla
bullet
bulletin
bullock
bulls
bulu
buluh
bulukumba
bulungan
bulunya
bulus
bulusaraung
bulutangkis
bum
bumbu
bumi
bumiayu
bumiputera
bumiputra
bumn
bumper
bun
bunda
bundar
bundaran
bundel
bundesliga
bundesverfassungsgerichts
bundy
bung
bunga
bunganya
bunge
bungku
bungkus
bungo
bungsu
bungsunya
bunker
bunko
bunny
buntu
bunuh
bunyi
bunyinya
buol
bupati
buprestidae
buprestis
bureau
burger
burgess
burgundia
burhan
burhanuddin
buritan
burke
burkina
burlington
burma
burman
burn
burnett
burning
burnley
burns
buronan
bursa
burt
burton
buru
buruan
buruh
buruk
buruknya
burundi
burung
bury
bus
busa
busan
busana
busch
bush
business
bustanul
buster
busters
busuk
busur
but
buta
butch
bute
butik
butir
butiran
butler
buton
butterfly
button
butuh
butuhkan
buwono
buy
buya
buyung
buyut
buyutnya
buzz
bv
bw
bwf
by
bye
bypass
byrne
byron
byte
byung
byz
byzantine
byzantium
c
ca
cab
cabai
cabang
cabangnya
cabe
cabinet
cable
cabral
cabrera
cacar
cacat
cache
cacing
cad
cadang
cadangan
cadas
cadbury
cadillac
caesar
caf
cafe
cagar
cage
cagliari
cahaya
cai
caicos
cain
cair
cairan
cairo
cak
cakap
cakar
cake
cakra
cakram
cakrawala
cakung
cakupan
cal
calabria
calais
calcarea
calcio
calcutta
caleg
calendar
calgary
california
call
called
calling
calls
callyspongia
calon
calvin
cam
camar
camat
camba
cambodia
cambridge
cambuk
came
cameo
camera
cameron
camilan
camilla
camille
camp
campaign
campak
campania
campbell
campeonato
campiglossa
camping
campo
campos
campur
campuran
campus
can
canada
canadian
canal
canary
canberra
cancer
candi
candra
candu
candy
canggih
canggung
cangkang
cangkir
canis
cannes
cannon
canon
canterbury
canthidium
canthon
cantik
canton
canvas
canyon
cao
cap
capacity
capaian
capcom
cape
capital
capitalism
capitol
capo
caporiacco
caps
captain
capture
capung
car
cara
caracas
caranya
carbon
card
cardiff
cardinal
cardinals
cards
care
career
carex
carey
cargo
cari
caribbean
carik
carita
carl
carla
carlisle
carlo
carlos
carlton
carly
carmen
carnegie
carnival
carol
carolina
caroline
carolus
carolyn
carpenter
carr
carrefour
carrie
carrier
carroll
carry
cars
carson
cart
cartagena
carter
cartoon
cary
cas
casa
casablanca
case
cases
casey
cash
casino
cassidy
cassini
cassius
cast
castile
castilla
castillo
casting
castle
castro
cat
catalan
catalina
catalog
catalogue
catalunya
catania
catat
catatan
catatannya
catch
cate
category
cathedral
catherine
catholic
cathy
cato
cats
catu
catur
causa
cause
causes
cave
cavendish
caves
cawan
cawang
cayman
cb
cbc
cbd
cbn
cbs
cc
ccd
cctv
cd
cdc
cdma
cdot
cdots
ce
cebu
cecep
cecil
cecilia
cedar
cedera
cedric
cek
ceko
cekoslowakia
cekung
cekungan
celah
celaka
celana
celcius
celebes
celebration
celebrity
celine
cell
cello
celsius
celtic
cemara
cemas
cembung
cemburu
cemerlang
cemetery
cempaka
cena
cendana
cendekia
cendekiawan
cenderawasih
cenderung
cendrawasih
cengkareng
cengkeh
cengkih
cenrana
census
censusindia
center
centers
central
centre
centro
centuries
century
ceo
cepat
cepu
cerah
cerai
ceramah
cerambycidae
cerdas
cerdik
ceremony
ceres
cerezo
ceria
cerita
ceritanya
cermat
cermin
ceroboh
cerobong
cerodontha
cerpen
certain
certificate
ceruk
cervantes
ces
cesare
cessna
cet
cetak
cetakan
cewek
ceylon
cf
cfc
cfm
cg
cgi
ch
cha
chad
chae
chai
chain
chains
chair
chairman
chairul
chakra
challenge
challenger
challenges
cham
chamber
chamberlain
chamberlin
chambers
champ
champa
champagne
champion
champions
championship
championships
chan
chance
chand
chandler
chandra
chanel
chang
change
changed
changes
changi
changing
changsha
channel
channels
chao
chaos
chapel
chaplin
chapman
chapter
chapters
char
character
characters
charge
charged
charity
charlemagne
charles
charleston
charlie
charlotte
charlton
chart
charter
charts
chase
chat
chatterjee
chau
che
chechnya
check
checklist
cheese
chef
chelsea
chem
chemical
chemistry
chen
cheney
cheng
chengdu
chennai
cheol
cheon
cher
chernobyl
cherokee
cherry
cherrybelle
cheryl
chesapeake
cheshire
chess
chester
cheung
chevalier
chevrolet
chevron
chi
chia
chiang
chiba
chicago
chick
chicken
chico
chief
chika
child
childhood
children
chile
chili
chin
china
chinatown
chinese
ching
chip
chips
chironomidae
chironomus
chiu
chloe
chlorophorus
cho
chocolate
choe
choi
choice
choir
chola
chomsky
chong
chongqing
chopin
chopra
chord
chorus
chou
chow
chris
christ
christi
christian
christianity
christians
christie
christina
christine
christmas
christoph
christophe
christopher
christy
chrisye
chrome
chronicle
chronicles
chronology
chrysler
chrysobothris
chu
chuck
chul
chun
chung
chuo
church
churches
churchill
ci
cia
ciamis
cianjur
ciawi
cibadak
cibeureum
cibinong
cibitung
cibodas
cibubur
cicero
cicit
cid
cie
ciel
cik
cikal
cikampek
cikarang
cikini
cilacap
cilandak
ciledug
cilegon
cileungsi
cilik
cililitan
ciliwung
cimahi
cina
cincang
cincin
cincinnati
cinderella
cindy
cine
cinema
cinemascore
cinematic
cineplex
cinta
cintai
cintaku
cintamu
cintanya
cio
ciomas
cipanas
cipayung
cipinang
cipt
cipta
ciptaan
ciptaannya
ciptakan
cipto
ciputat
ciputra
ciracas
circ
circa
circle
circuit
circular
circus
cirebon
ciri
cis
cisarua
cisco
cit
cita
citadel
citanya
citarum
citation
cite
cited
cites
cities
citizen
citizens
citra
citroe
citta
city
ciudad
ciuman
civic
civil
civilization
cixi
cj
ck
cl
claims
clair
claire
clan
clara
clare
clarence
clarendon
clark
clarke
clarkson
clash
class
classic
classical
classics
classification
clathria
claude
claudia
claudio
claudius
claus
clav
clay
clayton
cle
clean
clear
clemens
clement
cleopatra
clermont
cleveland
click
client
cliff
clifford
climate
clinic
clinical
clint
clinton
clio
clip
clive
clock
close
closed
closer
cloud
clouds
clover
club
clubs
cluster
clyde
cm
cmos
cn
cnbc
cnn
co
coach
coal
coalition
coast
coastal
coaster
coat
coba
cobaan
cobra
coburg
coca
coco
cocok
cocos
code
codes
codeshare
codex
cody
coen
coffee
cohen
coin
coins
cokelat
coklat
col
cola
colbert
cold
cole
coleman
coleoptera
coli
colin
collaboration
collected
collectie
collection
collections
collective
collector
college
colleges
collier
collins
colo
cologne
colombia
colombo
colonel
colonial
colony
color
colorado
colors
colour
colt
columbia
columbus
column
com
combat
combined
comcast
come
comeback
comedy
comes
comet
comfort
comic
comics
coming
command
commander
comment
commentary
commerce
commercial
commission
committee
commodore
common
commons
commonwealth
commune
communication
communications
communism
communist
communities
community
commuter
como
compact
compagnie
companies
companion
company
comparative
comparison
compass
competition
compilation
complete
complex
composer
composition
compound
comprehensive
compton
computer
computing
comte
comtesse
comune
con
conan
concacaf
concept
concepts
concerning
concert
concerto
concise
concord
concorde
concordia
conde
condong
condor
conductor
confederate
conference
confession
confessions
conflict
cong
congo
congress
congressional
conmebol
connect
connecticut
connection
connell
connie
connor
conquest
conrad
consadole
conscience
conservation
conservative
considered
consortium
conspiracy
constance
constant
constantine
constellation
constitution
constitutional
construction
consulting
consumer
contact
containing
contains
conte
contemporary
content
contents
contest
context
continental
continuum
contoh
contohnya
contra
contract
contribution
contributions
control
controller
controversy
convention
conversation
conversion
conway
coo
cook
cooke
cookie
cooking
cool
cooper
cooperation
cop
copa
copenhagen
coppa
copper
copris
copy
copyright
cor
corak
coral
core
corey
cork
cornelia
cornelis
cornelius
cornell
corner
cornwall
corolla
corona
coronavirus
corong
corp
corporate
corporation
corps
corpus
correspondence
corruption
corte
cortez
corun
cory
cos
cosmic
cosmo
cosmos
cost
costa
costume
cot
cottage
cotton
could
coulthard
council
count
countdown
counter
countess
countries
country
county
coup
coupe
couple
courage
courant
course
court
courtney
courts
cov
cove
coventry
cover
coverage
covid
cowboy
cowok
cox
cp
cpm
cpu
cr
craft
craig
crane
crash
craven
crawford
crazy
crc
cre
cream
create
created
creation
creative
creator
credit
credits
creed
creek
crescent
crew
cricket
cricotopus
crime
crimes
criminal
crimson
crisis
cristiano
cristina
cristo
critical
criticism
critics
critique
crocidura
croix
cromwell
cropped
crore
crosby
cross
crossing
crossover
crossroads
crouch
crow
crown
cruise
cruiser
cruises
crunchyroll
crusade
crusades
crush
cruz
cry
crystal
cs
csa
csi
csr
css
ct
ctor
ctv
cu
cuaca
cuba
cube
cuci
cucu
cucunya
cucurbitales
cuisine
cuka
cukai
cukup
cukur
cullen
cult
cultural
culture
cultures
cum
cuma
cumbria
cumi
cunningham
cup
cuplikan
curac
curah
curam
curang
cure
curie
curiga
curious
curletti
current
curry
curse
curtis
curtiss
curug
curup
custom
customer
customs
cut
cuti
cutting
cv
cw
cx
cy
cyber
cybertron
cycle
cynthia
cyperaceae
cyperus
cyprus
cyril
cyrus
cz
czech
czi
d
da
daan
dacia
dacus
dad
dada
dadang
dadanya
daddy
dadi
dadu
dae
daegu
daendels
daeng
daerah
daerahnya
daftar
dag
dagang
dagangan
dagestan
daging
dagingnya
dagu
daha
dahan
dahi
dahlan
dahlia
dahsyat
dahsyatnya
dahulu
dahulunya
dai
daigo
daihatsu
daily
daimler
daimyo
dairi
dairy
daisuke
daisy
dajjal
dakar
dakota
dakwaan
dakwah
dal
dalai
dalam
dalamnya
dalan
dalang
dale
dalem
dali
dalian
dalida
dalih
dalil
dallas
dalton
daly
dam
damai
damanik
damar
damaskus
dame
damian
damien
damon
dampak
dampaknya
damri
dan
dana
danang
danau
dance
dancer
dancing
dandim
dane
dang
dangdut
danger
dangerous
dangkal
dani
daniel
danielle
daniels
danish
danki
danny
danrem
dans
dansa
dante
danton
danu
danube
danyon
danyonif
danzig
dao
dapat
dapatkan
dapil
dapur
dar
dara
darah
darahnya
darat
daratan
dare
dari
daring
darinya
daripada
daripadanya
darius
darjah
dark
darkness
darling
darlington
darma
darmawan
darmstadt
darrell
darren
darul
darurat
darussalam
darwin
darwis
das
dasa
dasar
dasarnya
dasawarsa
dash
dasi
dassault
dat
data
database
datang
datanglah
datangnya
datanya
datar
dataran
date
dated
dateformat
dates
dati
dating
dato
datu
datuak
datuk
dau
daud
daughter
daughters
daum
daun
daunnya
daur
davao
dave
davenport
david
davidson
davies
davis
davy
dawai
dawkins
dawn
dawson
dawud
day
daya
dayah
dayak
dayang
days
daytona
dayung
db
dc
dd
ddi
de
dea
dead
deadline
deadly
deal
dealer
dean
dear
death
deaths
debat
debate
debby
debit
debitur
deborah
debt
debu
debut
debutnya
dec
decade
december
decepticons
decision
deck
declaration
decline
dedaunan
deddy
dede
dedi
dedicated
dedikasi
dedy
dee
deeds
deep
deer
def
default
defence
defender
defense
defensif
definisi
definitif
definition
definitive
defisiensi
defisit
deforestasi
deformasi
degeneres
degli
degradasi
degree
dehidrasi
dei
deir
dek
deka
dekade
dekan
dekaranger
dekat
dekatnya
dekker
deklarasi
dekomposisi
dekorasi
dekoratif
dekret
dekrit
del
delapan
delaware
delegasi
delft
delhi
deli
delik
delima
delivered
delivery
dell
della
delle
delos
delphi
delta
deluxe
dem
demak
demam
demand
demang
demeter
demetrios
demetrius
demi
demikian
demikianlah
demo
democracy
democratic
demografi
demografis
demokrasi
demokrat
demokratik
demokratis
demokratisasi
demon
demonax
demonstran
demonstrasi
demospongiae
den
denah
denda
dendam
dendrobium
dendy
deng
denga
dengan
dengannya
dengar
dengeki
denis
denise
denma
denmark
dennis
denny
denominasi
denpasar
densitas
dental
denver
denyut
deok
depan
depannya
departemen
department
depati
depdikbud
dependensi
depo
depok
deportasi
deportivo
deposit
deposito
depot
depresi
dept
depth
deputi
deputy
der
derajat
deras
derby
derbyshire
derek
deret
deretan
derita
derivatif
dermaga
dermawan
des
desa
desai
desain
desainer
desainnya
desakan
desanya
desas
descartes
descendants
described
description
desember
desentralisasi
desert
desi
design
designer
desimal
desire
deskripsi
deskriptif
desktop
desmond
destinasi
destination
destiny
destroyer
destruction
desus
desy
det
detail
detailed
details
detak
detasemen
detection
detective
deteksi
detektif
detektor
determinan
detik
detroit
deus
deutsch
deutsche
deutschen
deutscher
deutschland
deux
dev
deva
developer
developing
development
devi
device
devices
devil
devisa
devon
devosi
dewa
dewan
dewantara
dewasa
dewata
dewey
dewi
dex
dexter
df
dfb
dg
dh
dha
dhabi
dhaka
dhamma
dhani
dharma
dharmasraya
dhl
di
dia
diabadikan
diabaikan
diabetes
diadakan
diadakannya
diadaptasi
diadili
diadopsi
diafragma
diagnosis
diagnostik
diagonal
diagram
diah
diajak
diajari
diajarkan
diajukan
diakhiri
diakibatkan
diakon
diakritik
diakses
diaktifkan
diakui
diakuisisi
dial
dialah
dialami
dialaminya
dialek
dialektika
dialihkan
dialiri
dialirkan
dialog
dialogue
dialokasikan
diam
diamanatkan
diamankan
diamati
diambil
diameter
diamond
diamonds
diampuni
dian
diana
dianalisis
diancam
diandalkan
diane
dianeksasi
dianggap
dianggapnya
diangkat
diangkut
dianiaya
dianjurkan
dianne
diantar
diantara
diantaranya
dianugerahi
dianugerahkan
dianut
diapit
diaplikasikan
diarahkan
diarak
diaransemen
diare
diaries
diarsipkan
diartikan
diary
dias
diasingkan
diasosiasikan
diaspora
diasuh
diasumsikan
diatas
diatasi
diatur
diawali
diawasi
diawetkan
diaz
dibaca
dibacakan
dibagi
dibagian
dibagikan
dibahas
dibakar
dibalas
dibalik
dibanding
dibandingkan
dibangkitkan
dibangun
dibangunnya
dibantah
dibantai
dibantu
dibaptis
dibatalkan
dibatasi
dibawa
dibawah
dibawakan
dibawanya
dibayangkan
dibayar
dibayarkan
dibebankan
dibebaskan
dibeberapa
dibedakan
dibekali
dibekukan
dibelah
dibelakang
dibeli
dibenarkan
dibenci
dibentuk
dibentuklah
dibentuknya
diberangkatkan
diberbagai
diberhentikan
diberi
diberikan
diberikannya
diberitahu
diberitahukan
diberitakan
diberkati
diberlakukan
diberlakukannya
dibersihkan
dibesarkan
dibiarkan
dibiayai
dibicarakan
dibidang
dibilang
dibimbing
dibina
dibintangi
diblokir
dibolehkan
dibom
dibongkar
dibuang
dibuat
dibuatkan
dibuatlah
dibuatnya
dibubarkan
dibudidayakan
dibujuk
dibuka
dibukanya
dibuktikan
dibukukan
dibumbui
dibungkus
dibunuh
dibunyikan
diburu
dibutuhkan
dicabut
dicalonkan
dicampur
dicanangkan
dicantumkan
dicap
dicapai
dicari
dicat
dicatat
dicegah
diceritakan
dicerna
dicetak
dicetuskan
dichotomius
dicintai
diciptakan
dicirikan
dick
dickens
dickinson
dickson
dicky
dicoba
dicopot
dictionary
dictionnaire
dicuci
diculik
dicuri
dicurigai
did
didaerah
didaftarkan
didahului
didakwa
didalam
didalamnya
didampingi
didanai
didapat
didapati
didapatkan
didasari
didasarkan
didatangi
didatangkan
didaulat
didaur
didedikasikan
didefinisikan
didekati
dideklarasikan
didenda
didengar
didepan
dideportasi
diderita
dideritanya
didesa
didesain
didesak
dideskripsikan
dideteksi
didi
didiagnosis
didiami
dididik
didier
didih
didik
didikan
didinginkan
didirikan
didirikannya
didiskualifikasi
didistribusikan
didokumentasikan
didominasi
didorong
diduduki
diduga
didukung
didunia
die
died
diedarkan
diedit
diego
dieja
dieksekusi
dieksploitasi
diekspor
diekspresikan
dielektrik
dieliminasi
dien
dieng
dies
diesel
diet
dieter
dietrich
dievakuasi
dievaluasi
difabel
difasilitasi
diferensial
diferensiasi
difference
different
difilmkan
difokuskan
difoto
diftong
difungsikan
difusi
digabung
digabungkan
digagalkan
digagas
digali
digambar
digambarkan
diganggu
diganti
digantikan
digantung
digarap
digelar
digelari
digemari
digerakkan
digeser
digest
digimon
digit
digital
digitalisasi
digoel
digolongkan
digoreng
digubah
digulingkan
digunakan
digunakannya
dihabiskan
dihadang
dihadapan
dihadapi
dihadapkan
dihadiri
dihadirkan
dihancurkan
dihapus
dihapuskan
diharapkan
dihargai
diharuskan
dihasilkan
dihasilkannya
dihentikan
dihias
dihiasi
dihidangkan
dihidupkan
dihilangkan
dihimpun
dihindari
dihitung
dihormati
dihubungi
dihubungkan
dihukum
dihuni
diidentifikasi
diidentifikasikan
diijinkan
diikat
diikuti
diikutsertakan
diilhami
diilustrasikan
diimplementasikan
diimpor
diinduksi
diingat
diinginkan
diinstal
diintegrasikan
diinterogasi
diiringi
diiris
diisi
diisolasi
diizinkan
dijabarkan
dijabat
dijadikan
dijadwalkan
dijaga
dijajah
dijalani
dijalankan
dijamin
dijangkau
dijanjikan
dijarah
dijatuhi
dijatuhkan
dijawab
dijelaskan
dijemput
dijodohkan
dijual
dijuluki
dijumpai
dik
dika
dikabarkan
dikabulkan
dikagumi
dikaitkan
dikaji
dikalahkan
dikalangan
dikalikan
dikandung
dikarang
dikarenakan
dikaruniai
dikatakan
dikategorikan
dikawal
dikebumikan
dikecam
dikecualikan
dikehendaki
dikejar
dikelilingi
dikelola
dikelompokkan
dikeluarkan
dikeluarkannya
dikemas
dikembalikan
dikembangkan
dikemudian
dikemudikan
dikemukakan
dikenai
dikenakan
dikenal
dikenali
dikenalkan
dikenalnya
dikenang
dikendalikan
dikendarai
dikepalai
dikepung
dikerahkan
dikeringkan
dikerjakan
diketahui
diketemukan
diketuai
dikhawatirkan
dikhianati
dikhususkan
dikibarkan
dikira
dikirim
dikirimkan
dikisahkan
diklaim
diklapa
diklasifikasikan
diklat
dikombinasikan
dikomposisikan
dikonfirmasi
dikonfirmasikan
dikonsumsi
dikontrak
dikontrol
dikonversi
dikoordinasikan
dikosongkan
dikreditkan
dikritik
diktator
dikti
dikuasai
dikuatkan
dikubur
dikuburkan
dikucilkan
dikukuhkan
dikukus
dikumpulkan
dikunjungi
dikurangi
dikurung
dikutip
dikutuk
dil
dilacak
dilafalkan
dilahirkan
dilaksanakan
dilakukan
dilakukannya
dilalui
dilambangkan
dilancarkan
dilanda
dilandasi
dilanggar
dilangsungkan
dilanjutkan
dilantik
dilapisi
dilaporkan
dilarang
dilarikan
dilarutkan
dilatarbelakangi
dilatih
dilayani
dilebur
dilekatkan
dilema
dilempar
dilemparkan
dilengkapi
dilepas
dilepaskan
dilestarikan
diletakkan
dilewati
dili
dilibatkan
dilihat
dilihatnya
dilindungi
dilintasi
dilipat
diliputi
dilisensi
dilisensikan
dillon
dilontarkan
diluar
dilukis
dilukiskan
diluncurkan
dilupakan
dimahkotai
dimainkan
dimajukan
dimakamkan
dimakan
dimaknai
dimaksud
dimaksudkan
dimana
dimanfaatkan
dimas
dimasa
dimasak
dimasukan
dimasuki
dimasukkan
dimatikan
dimekarkan
dimenangkan
dimengerti
dimensi
dimension
dimiliki
dimilikinya
diminati
diminta
dimintai
diminum
dimitri
dimodelkan
dimodifikasi
dimuat
dimulai
dimulailah
dimulainya
dimuliakan
dimunculkan
dimungkinkan
dimurnikan
dimusnahkan
dimutasi
din
dina
dinaikkan
dinamai
dinamakan
dinamika
dinamis
dinamo
dinar
dinas
dinasti
dinda
dinding
dindingnya
ding
dingin
dini
dinikahi
dinikahkan
dinikmati
dinilai
diniyah
dinner
dino
dinobatkan
dinominasikan
dinonaktifkan
dinosaur
dinosaurus
dinyalakan
dinyanyikan
dinyatakan
dio
diobati
diocese
dioda
diogenes
diokletianus
dioksida
diolah
dion
dionisos
dioperasikan
diorganisir
diosesan
dipa
dipadamkan
dipadukan
dipahami
dipahat
dipajang
dipakai
dipaksa
dipaksakan
dipamerkan
dipanaskan
dipancarkan
dipandang
dipandu
dipanen
dipanggang
dipanggil
dipantau
dipaparkan
dipasang
dipasangi
dipasangkan
dipasarkan
dipasok
dipastikan
dipatahkan
dipatenkan
dipati
dipatuhi
dipecah
dipecahkan
dipecat
dipegang
dipegangnya
dipekerjakan
dipelajari
dipelihara
dipelopori
dipengaruhi
dipenggal
dipenjara
dipenjarakan
dipensiunkan
dipentaskan
dipenuhi
diperankan
diperbaharui
diperbaiki
diperbarui
diperbesar
diperbolehkan
diperbuat
diperbudak
dipercaya
dipercayai
dipercayakan
dipercepat
diperdagangkan
diperdebatkan
diperebutkan
dipergunakan
diperhatikan
diperhitungkan
diperiksa
diperingati
diperintah
diperintahkan
diperkaya
diperkenalkan
diperkenalkannya
diperkenankan
diperkirakan
diperkosa
diperkuat
diperlakukan
diperlengkapi
diperlihatkan
diperluas
diperlukan
diperoleh
diperolehnya
diperpanjang
diperparah
dipersatukan
dipersembahkan
dipersenjatai
dipersiapkan
dipertahankan
dipertandingkan
dipertanggungjawabkan
dipertanyakan
dipertemukan
dipertimbangkan
dipertuan
dipertukarkan
dipertunjukkan
dipertuturkan
diperuntukan
diperuntukkan
dipesan
dipetakan
dipetik
dipicu
dipidana
dipikirkan
dipilih
dipilihnya
dipimpin
dipimpinnya
dipindah
dipindahkan
dipinjam
dipinjamkan
dipisah
dipisahkan
diploma
diplomacy
diplomasi
diplomat
diplomatic
diplomatik
dipol
diponegoro
dipopulerkan
diposisikan
dipotong
diprakarsai
dipraktikkan
diprediksi
dipresentasikan
diproduksi
diproduseri
diprogram
diproklamasikan
dipromosikan
diproses
diproyeksikan
diptera
dipublikasikan
dipugar
dipuja
dipuji
dipukul
dipukuli
dipulangkan
dipulihkan
dipungut
dipusatkan
diputar
diputus
diputuskan
dir
diragukan
dirahasiakan
diraih
diraihnya
diraja
dirakit
dirampas
dirancang
dirasa
dirasakan
diratifikasi
dirawat
dirayakan
direalisasikan
direbus
direbut
direct
directed
direction
directions
director
directors
directory
direduksi
direkam
direkomendasikan
direkonstruksi
direkrut
direksi
direktif
direktorat
direktori
direktur
direncanakan
direndam
direnovasi
direpresentasikan
diresmikan
direstorasi
direvisi
dirgantara
dirham
diri
dirikan
diriku
dirilis
dirilisnya
dirimu
dirintis
dirinya
diriwayatkan
dirjen
dirk
dirombak
dirty
dirugikan
dirujuk
dirumah
dirumuskan
dirusak
dirut
dis
disaat
disabilitas
disadari
disahkan
disajikan
disaksikan
disalahkan
disalibkan
disalin
disalurkan
disamakan
disambiguasi
disambung
disambut
disampaikan
disamping
disana
disandang
disangka
disantap
disapa
disarankan
disaring
disaster
disatukan
disc
disco
discography
discover
discovery
discussion
disease
diseases
disebabkan
disebarkan
disebarluaskan
disebelah
disebuah
disebut
disebutkan
disebutnya
disederhanakan
disediakan
disegani
disegel
disekitar
disekitarnya
diselamatkan
diselenggarakan
diselesaikan
diselidiki
diselimuti
diselingi
diseluruh
disematkan
disemayamkan
disembah
disembelih
disembuhkan
disembunyikan
disempurnakan
disengaja
disentuh
disepakati
diserahkan
diserang
diserap
diserbu
disertai
disertakan
disertasi
disertifikasi
disesuaikan
disetiap
disetujui
disewa
disewakan
disfungsi
disiapkan
disiarkan
disiksa
disimpan
disimpulkan
disinggung
disingkat
disingkirkan
disini
disintesis
disiplin
disisi
disisipkan
disita
disitu
disk
disko
diskografi
diskon
diskriminasi
diskriminatif
diskrit
diskualifikasi
diskusi
disney
disneyland
disorder
disorot
display
disponsori
dissertation
distance
distilasi
distinguished
distorsi
distribusi
distribution
distributor
district
distrik
disuarakan
disukai
disumbangkan
disunting
disuruh
disusul
disusun
disutradarai
dit
ditabrak
ditafsirkan
ditahan
ditahbiskan
ditahun
ditakdirkan
ditaklukan
ditaklukkan
ditakuti
ditambah
ditambahkan
ditambang
ditampilkan
ditampung
ditanam
ditanami
ditanamkan
ditandai
ditandatangani
ditangani
ditanggapi
ditangguhkan
ditanggung
ditangkap
ditantang
ditanya
ditargetkan
ditarik
ditarikan
ditaruh
ditata
ditawan
ditawari
ditawarkan
ditayangkan
ditebalkan
ditebang
ditegakkan
ditegaskan
ditekan
ditekankan
ditelan
diteliti
ditelusuri
ditemani
ditembak
ditembakkan
ditembus
ditempat
ditempati
ditempatkan
ditempuh
ditemui
ditemukan
ditemukannya
ditenagai
ditengah
ditenggelamkan
ditentang
ditentukan
diterangkan
diterapkan
diterbangkan
diterbitkan
diterbitkannya
diterima
diterimanya
diterjemahkan
diteruskan
ditetapkan
ditetapkannya
ditiadakan
ditimbulkan
ditimpa
ditindaklanjuti
ditindas
ditinggal
ditinggali
ditinggalkan
ditinggikan
ditingkatkan
ditinjau
ditions
ditipu
ditiru
ditjen
ditolak
ditolong
ditonton
ditopang
ditransfer
ditransmisikan
dituangkan
dituduh
ditugasi
ditugaskan
dituju
ditujukan
ditukar
ditularkan
ditulis
dituliskan
ditulisnya
ditumbuhi
ditumbuk
ditunda
ditunggu
ditunjang
ditunjuk
ditunjukkan
dituntut
diturunkan
ditutup
ditutupi
dituturkan
diubah
diucapkan
diuji
diukir
diukur
diulang
diumumkan
diundang
diundangkan
diundi
diunduh
diundur
diunggah
diunggulkan
diungkapkan
diuntungkan
diupayakan
diuraikan
diurus
diurutkan
diusahakan
diusir
diusulkan
diusung
diutamakan
diutus
div
diva
dive
diverifikasi
diversifikasi
diversity
dividen
divine
diving
divisi
divisio
division
divonis
diwajibkan
diwakili
diwakilkan
diwarisi
diwariskan
diwarnai
diwawancarai
diwilayah
diwujudkan
dixie
dixit
dixon
diy
diyakini
dj
djakarta
djalan
djarot
djarum
djati
djawa
djoega
djohan
djoko
djokovic
djuanda
dk
dki
dkk
dkpbb
dl
dll
dm
dmitri
dmitry
dn
dna
dns
do
doa
doc
docs
doctor
doctrine
document
documentary
documentation
documents
dodd
dodge
dodo
dodol
dodson
doe
doel
does
dog
doge
dogiyai
dogma
dogs
doha
doi
dok
dokter
doktor
doktoral
doktrin
dokumen
dokumentasi
dokumenter
dolar
dolby
dolichopeza
doll
dollar
dolls
dolly
dolok
dolores
dolphin
dom
domain
domba
dome
domenico
domestic
domestik
domestikasi
dominan
dominasi
domingo
dominic
dominika
dominikan
dominion
dominique
domino
dompet
dompu
don
donal
donald
donasi
donat
donau
done
donetsk
dong
dongeng
donggala
doni
donna
donnie
donny
dono
donor
donovan
doo
doom
door
doors
doping
dora
doraemon
dorcadion
doremi
doria
doris
dornier
dorong
dorongan
dorothy
dorsal
dorset
dortmund
dos
dosa
dosanya
dosen
dosis
dostoyevsky
dot
dota
dots
dou
douard
double
doubleday
doug
douglas
dove
dover
dow
down
downey
download
downloaded
downtown
doyle
dp
dpc
dpd
dpl
dpp
dpr
dprd
dprk
dpw
dq
dr
dra
draco
dracula
draf
draft
drag
dragon
dragons
drainase
drake
drama
dramatic
dramatis
dramawan
drastis
draw
drawing
dream
dreams
dreamworks
dresden
dress
drew
drink
drive
driven
driver
driving
drona
drone
drop
dropadi
drs
drug
drugs
drum
drumer
drummer
drums
dry
ds
dsb
dsm
dsn
dst
dt
dtk
du
dua
dual
dualisme
duan
duanya
duarte
dub
dubai
dubbing
dubes
dublin
duc
ducati
duchess
duck
duda
dudley
duduk
dudukan
due
duel
duet
duff
duffy
dugaan
duka
duke
dukuh
dukun
dukung
dukungan
dukungannya
dulles
dulu
dulunya
duma
dumai
dumbledore
dun
duncan
dungeon
dunia
dunianya
duniawi
dunlop
dunn
duo
dupa
duplikat
dupont
dur
dura
duran
durasi
duren
durga
durhaka
durham
duri
durian
during
duryodana
dus
dust
dusta
dustin
dusun
duta
dutch
dutt
dutta
duty
duyung
dvb
dvd
dw
dwi
dwibahasa
dwidya
dwight
dwikora
dx
dy
dyah
dying
dylan
dynamic
dynamics
dynamo
dynasty
dz
e
ea
each
eagle
eagles
earhart
earl
earliest
early
earnhardt
earth
earthquake
east
easter
eastern
easy
eat
eb
eberhard
ebert
ec
eceran
echo
eclipse
eco
ecology
economic
economics
economist
economy
ed
eda
edaran
eddie
eddy
edema
eden
edessa
edgar
edge
edi
edinburgh
edisi
edison
edit
edited
edith
editing
edition
editions
editor
editorial
editors
edmond
edmonton
edmund
edn
edo
edom
eds
edu
eduard
eduardo
education
educational
edukasi
edward
edwards
edwin
edy
ee
een
eerdmans
eerste
ef
efek
efeknya
efektif
efektivitas
efesus
effect
effects
effendi
effendy
efisien
efisiensi
efl
efraim
efrat
eg
egg
ego
egois
egypt
egyptian
eh
ehime
ei
eiffel
eigen
eight
eighteenth
eiji
eileen
ein
eindhoven
eine
einer
einstein
eisenhower
ej
ejaan
ejekan
ek
eka
ekaristi
eki
eko
ekologi
ekologis
ekonom
ekonomi
ekonominya
ekonomis
ekor
ekornya
ekosistem
eks
eksekusi
eksekutif
eksemplar
eksentrik
eksentrisitas
eksis
eksistensi
eksistensinya
ekskavasi
eksklusif
ekskul
ekslusif
eksoplanet
eksotis
ekspansi
ekspatriat
ekspedisi
ekspektasi
eksperimen
eksperimental
eksplisit
eksploitasi
eksplorasi
eksplosif
eksponen
eksponensial
ekspor
eksportir
ekspres
ekspresi
ekstensi
ekstensif
eksterior
eksternal
ekstra
ekstrak
ekstraksi
ekstrakulikuler
ekstrakurikuler
ekstraseluler
ekstrem
ekstrim
ektoparasit
ekuador
ekuitas
ekuivalen
ekumenis
el
elaine
elam
elang
elastis
elder
eleanor
eleazar
election
elections
electoral
electric
electrical
electro
electronic
electronics
elegan
elegans
elektor
elektoral
elektra
elektrifikasi
elektrik
elektro
elektrode
elektrokimia
elektrolisis
elektrolit
elektromagnetik
elektron
elektronegativitas
elektronik
elektronika
elemen
element
elemental
elementary
elementer
elements
elena
elephant
elevasi
elevator
eleven
elex
elf
elgar
eli
elia
elias
eliminasi
elimination
elips
elis
elisa
elisabeth
elit
elite
eliza
elizabeth
ell
ella
elle
ellen
ellie
elliot
elliott
ellis
elly
elmer
elo
els
elsa
else
elsevier
elst
elton
elvira
elvis
em
ema
email
emansipasi
emanuel
emas
embargo
embassy
ember
emblem
embraer
embrio
embun
emd
emerald
emergence
emergency
emerging
emeritus
emerson
emi
emigran
emigrasi
emil
emile
emilia
emilio
emily
eminem
emir
emirat
emirates
emisi
emiten
emma
emmanuel
emmy
emosi
emosional
empat
empati
empedu
emperor
empire
empires
empiris
empis
emplasemen
emporis
empress
empty
empu
empuk
en
enak
enam
encer
encore
encounter
encyclopaedia
encyclopedia
encyclopædia
end
endah
endang
endangered
endapan
ende
endemik
ending
endless
endo
endokrin
ends
enemy
energi
energik
energinya
energy
eng
engels
enggan
engine
engineer
engineering
engineers
engines
engkau
engkaulah
engku
england
english
enigma
enim
enix
enkripsi
enlightenment
enough
enrekang
enrico
enrique
ensemble
ensiklik
ensiklopedi
ensiklopedia
entah
enter
enterprise
enterprises
entertainer
entertainment
entire
entitas
entrance
entre
entrepreneur
entri
entropi
entry
environment
environmental
enzim
enzo
eo
eon
ep
epa
eparki
epic
epicypta
epidemi
epidemiologi
epidendrum
epik
epikuros
epilepsi
episkopal
episode
episodenya
episodes
epistemologi
epitel
eponim
epos
eprix
eps
epsilon
epstein
equality
equestria
equipment
equity
equiv
er
era
eragrostis
erasmus
erat
eredivisie
eri
eric
erica
ericaceae
ericales
erich
erick
ericsson
erie
erik
erika
erin
erina
eris
eritrea
erlangga
erna
ernest
ernesto
ernie
ernst
eropa
eros
erosi
erotis
error
erupsi
erwin
es
esa
esai
esau
escape
eselon
esensi
esensial
eskatologi
esok
espan
espanyol
especially
espn
esports
essay
essays
essen
essential
essentials
essex
essonne
est
esta
established
estadio
estafet
estat
estate
este
esteban
ester
estetika
esther
estimasi
estonia
estrogen
et
eta
etanol
etape
etc
eter
eternal
eternity
ethan
ethel
ethernet
ethics
ethiopia
ethiopian
ethnic
ethnologue
etik
etika
etil
etilena
etimologi
etiopia
etis
etnik
etnis
etnografi
etos
eu
euclid
euge
eugen
eugene
eugenia
eugenio
eukariota
euklides
euler
eumicrotipula
eun
eunidia
eur
eurasia
eureka
euro
eurocopter
europa
europe
european
eurovision
eusebius
eutanasia
ev
eva
evakuasi
evaluasi
evaluation
evan
evangelical
evangelion
evangelis
evans
eve
evelyn
even
evening
event
events
ever
everest
everett
evergreen
everton
every
everybody
everyday
everyone
everything
evic
evidence
evil
evo
evolto
evolusi
evolusioner
evolution
evolutionary
ex
example
excel
excellence
excellent
excerpt
exchange
exclusive
exe
exechia
executive
exeter
exhibition
exile
exit
exo
exocentrus
exodus
exoprosopa
exp
expansion
expedition
experience
experiment
experimental
expert
exploration
explorer
exploring
expo
export
exposition
exposure
express
expression
expressway
extended
extension
extensive
external
extra
extraordinary
extreme
eyang
eye
eyed
eyes
ez
ezra
f
fa
faa
fabaceae
fabales
fabel
faber
fabian
fabio
face
facebook
facelift
faces
facility
fact
factbook
facto
factor
factory
facts
faculty
fadli
faham
fahd
fahmi
fahri
fai
failure
fair
fairbanks
fairchild
fairy
faisal
faith
fajar
fak
fake
fakfak
fakir
faksi
fakta
faktanya
faktor
faktual
faktur
fakultas
falah
falcon
falkland
fall
fallen
falling
falls
fals
falsafah
false
fam
fame
famili
familia
familiar
families
family
famous
fan
fana
fanatik
fang
fanny
fans
fantasi
fantasia
fantastic
fantastis
fantasy
fao
faq
faqih
far
faraday
farah
farewell
farhan
farid
farida
farisi
fariz
farm
farmakologi
farmasi
farmer
faroe
farrel
farrell
fas
fasa
fasad
fascism
fase
fashion
fasih
fasik
fasilitas
fasilitasi
fasis
fasisme
faso
fast
fat
fatah
fatahillah
fatal
fate
father
fathers
fatih
fatima
fatimah
fatimiyah
fatin
fatmawati
fattah
fatwa
fauna
faust
fauzan
fauzi
favorit
favorite
favoritnya
favourite
fax
fay
faye
fb
fbi
fc
fda
fe
fear
fearless
feast
feat
feature
featured
features
featuring
feb
februari
february
federal
federasi
federation
federer
federico
feed
feel
feeling
feet
fei
felipe
felix
fellow
fellowship
felt
female
femina
feminin
feminis
feminisme
feminist
femme
fender
fenerbahc
feng
fenisia
fenol
fenomena
fenomenal
fense
feodal
fer
ferb
ferdinand
ferenc
ferguson
feri
fermat
fermentasi
ferna
fernandes
fernandez
fernando
ferrara
ferrari
ferreira
ferrer
ferry
fes
fest
festival
fesyen
fever
few
feyenoord
ff
ffi
fgm
fh
fi
fia
fiat
fiba
fiber
fiction
ficus
fide
fidel
field
fields
fifa
fife
fifth
fifty
fight
fighter
fighters
fighting
figur
figuran
figure
figures
fiji
fikih
fikri
fiksi
fiktif
fil
filamen
filantropis
file
files
filipi
filipina
filipino
filippo
filipus
filistin
film
filmfare
filmindonesia
filmnya
filmografi
filmography
films
filologi
filosofi
filosofis
filsafat
filsuf
filter
filum
fim
fin
final
finalis
finally
finals
finance
financial
finansial
finch
find
finding
fine
finger
finis
finish
finland
finlandia
finn
fiona
fiorentina
fiqh
fiqih
fir
firaun
firdaus
fire
firefox
firenze
firm
firma
firman
firmansyah
first
firth
fis
fischer
fish
fisher
fisheries
fishing
fisi
fisik
fisika
fisikawan
fisiknya
fisiologi
fisiologis
fisip
fiskal
fist
fit
fitnah
fitri
fittipaldi
fitur
fitzgerald
fivb
five
fix
fixed
fk
fkip
fl
flag
flags
flame
flanders
flandria
flash
flat
flavius
fleet
fleksibel
fleksibilitas
fleming
flemish
fletcher
flickr
flight
flint
flip
flo
floating
flood
floor
flora
florence
flores
florian
florida
flow
flower
flowers
floyd
flu
fluida
fluks
fluktuasi
fluorida
fluorin
flute
fly
flying
flynn
fm
fn
fo
focus
fogg
fokker
fokus
fokusnya
folat
folder
foley
folikel
folio
folk
folklore
follow
following
fon
fondasi
fonem
fonetik
fong
fonologi
font
fontaine
fontana
fontsize
foo
food
foods
fool
foot
footage
football
for
forbes
forbidden
force
forces
ford
foreign
forensik
forest
forever
forget
forgotten
form
formal
formasi
format
formation
former
formerly
formosa
forms
formula
formulasi
formulir
forrest
fort
fortress
fortuna
fortune
forty
forum
forward
fosfat
fosfor
fosil
foster
foto
fotografer
fotografi
fotokopi
foton
fotonya
fotosintesis
found
foundation
foundations
founder
founding
fountain
four
fourier
fourth
fowler
fox
fp
fpi
fps
fr
fra
frac
fragmen
fragmentasi
fragments
fraksi
frame
framework
franc
franca
france
frances
francesca
francesco
franchise
francis
francisco
franco
francois
frank
franka
frankenstein
frankfurt
frankie
franklin
franky
frans
fransisco
fransiskan
fransiskus
franz
frasa
frase
fraser
frater
fre
fred
freddie
freddy
frederic
frederick
frederik
free
freedom
freeman
freeport
freeze
fregat
freiburg
frekuensi
french
frequency
fresh
fretilin
freud
friday
fried
friedman
friedrich
friend
friendly
friends
friendship
frigia
frisia
fritz
frog
from
front
frontal
frontier
frost
frozen
fruhstorfer
fruit
frustasi
frustrasi
fry
fs
ft
ftp
ftv
fu
fuad
fuel
fuji
fujian
fujita
fujiwara
fukui
fukuoka
fukushima
fulham
full
fullbottle
fuller
fully
fun
function
fund
fundamental
funeral
fung
fungi
fungsi
fungsinya
fungsional
fungsionalitas
funimation
funk
funky
funny
furious
furnitur
furniture
further
furukawa
fury
fusi
fusion
futari
futsal
future
futures
fuzhou
fv
fw
fx
fyodor
g
ga
gabon
gabriel
gabriela
gabrielle
gabungan
gabus
gaby
gad
gada
gadang
gaddafi
gadget
gading
gadis
gadjah
gado
gadung
gaga
gagah
gagak
gagal
gagang
gagarin
gagasan
gagasannya
gai
gaia
gaib
gail
gain
gairah
gaius
gajah
gaji
gak
gakuen
gal
gala
galactic
galai
galak
galaksi
galang
galangan
galat
galatama
galatasaray
galatia
galau
galaxy
gale
galeri
gali
galia
galian
galicia
galih
galilea
galileo
galisia
gallagher
gallery
gallus
galois
galon
galuh
galur
gam
gama
gamal
gamba
gambang
gambar
gambaran
gambarnya
gambia
gambir
gambut
game
gamelan
gameplay
gamer
games
gamet
gaming
gamma
gampang
gamping
gampong
gan
ganas
ganda
gandar
gandeng
gandhi
gandrung
gandum
ganesa
ganesha
gang
gangga
ganggang
gangguan
gangnam
gangster
gani
ganja
ganjar
ganjil
gansu
ganteng
ganti
gantinya
gantung
gantungan
gao
gaon
gaozu
gap
gapura
gar
gara
garage
garam
garang
garapan
garasi
garci
garcia
garda
garde
garden
gardens
gardiner
gardner
gardu
gare
gareth
garfield
garis
garland
garner
garnisun
garpu
garrett
garuda
garut
gary
gas
gaston
gat
gatal
gate
gates
gateway
gatot
gatotkaca
gatra
gaudi
gaul
gaulle
gaun
gauri
gauss
gautama
gavin
gawang
gawat
gay
gaya
gayanya
gayatri
gayo
gaza
gazebo
gazette
gb
gc
gcatholic
gd
gdan
gde
ge
gear
gebang
gec
gedangan
gede
gedong
gedung
gee
geger
gehrels
geiger
geisha
gejala
gejolak
gekijou
gel
geladak
gelandang
gelang
gelanggang
gelap
gelar
gelaran
gelarnya
gelas
gelembung
gelgel
gelisah
gelombang
gelora
gem
gema
gemar
gembala
gembira
gembong
gemeente
gemilang
gemini
gempa
gempol
gemuk
gen
genangan
genap
gencar
gencatan
gendang
gender
gending
gene
genealogy
genera
general
generalisasi
generasi
generation
generator
generik
genesis
genetic
genetik
genetika
geneva
geng
genggam
genie
genius
genji
genoa
genocide
genom
genosida
genova
genre
gent
genta
genteng
gentianales
genting
gentleman
genus
geo
geodia
geoff
geoffrey
geofisika
geografi
geografis
geografisnya
geographic
geographical
geography
geologi
geological
geologis
geology
geometri
geometris
geometry
geonames
geopolitik
georg
george
georges
georgetown
georgia
georgian
georgius
georgy
geospatial
ger
gerabah
gerai
gerak
gerakan
gerakannya
gerald
geraldine
gerard
gerbang
gerbong
gerd
gereja
gerejawi
gergaji
gerhana
gerhard
gerilya
gerilyawan
gerindra
germain
german
germania
germanium
germany
gerobak
gerombolan
geron
gerry
gersang
gertrude
gesa
geschichte
geschiedenis
gesek
gesekan
gesellschaft
geser
get
getah
getaran
gets
getting
getty
geum
geun
gg
gh
ghana
ghani
ghazali
ghent
ghetto
ghosh
ghost
ghosts
ghulam
ghz
gi
gia
giacomo
gian
giancarlo
giant
giants
gianyar
giat
gibbon
gibbs
gibraltar
gibson
gideon
gie
gif
gift
gifu
gigi
gigih
gigitan
gil
gila
gilang
gilbert
gilberto
gilda
gilead
giles
gilgamesh
gili
giliran
gilirannya
gill
gilles
gilmour
gim
gimnasium
gin
gina
gingham
ginjal
ginting
giok
gion
giorgio
giovanni
girang
giri
girl
girlband
girlfriend
girls
giro
gironde
gis
gita
gitar
gitaris
giulio
giuseppe
give
given
gives
giving
gizi
gje
gki
gkj
gkpi
gkps
gl
gladiator
gladys
glagah
glam
glasgow
glasial
glass
glee
glen
glenea
glenn
gletser
glikol
gliserol
global
globalisasi
globalization
globalsecurity
globe
globo
gloria
glory
glossary
gloucester
gloucestershire
glover
glukosa
gm
gma
gmail
gmbh
gmc
gmi
gmim
gmina
gmt
gnome
gnostik
gnu
gnz
go
goa
goal
goals
gobel
gober
goblin
god
godaan
godam
godang
goddard
goddess
godfather
godfrey
gods
godzilla
goes
goeslaw
goethe
gogh
gogo
goguryeo
goh
gohan
going
gojek
gokai
gokaiger
goku
gol
golan
gold
goldberg
golden
goldman
goldstein
goldwyn
golek
golf
golkar
golnya
golok
golongan
gom
gombong
gomes
gomez
gon
gondang
gone
gong
gonna
gontor
gonza
gonzaga
gonzalez
gonzalo
goo
good
goodbye
goodman
goodwin
google
goose
gopal
gopi
gor
gorbachev
gordon
gore
goreng
goresan
gorila
gorilla
goro
gorontalo
gory
goryeo
gosei
goseiger
gosip
gosling
gosong
gospel
gospels
got
goth
gotha
gotham
gothenburg
gothic
gothik
gotik
goto
gotong
gottfried
gould
gov
governance
government
governor
gowa
goyah
goyang
gp
gpib
gps
gpu
gr
gra
grabag
grace
gracia
gracilis
grade
gradien
graduate
graf
graffiti
grafik
grafika
grafis
grafit
grafiti
graha
graham
gram
gramedia
grammar
grammy
gran
granada
granat
grand
grande
grandmaster
granit
grant
graphic
graphics
grass
gratis
grave
graves
gravitasi
gravity
gray
graz
gre
great
greater
greatest
greece
greek
greeks
green
greene
greenland
greenpeace
greenwich
greenwood
greg
gregg
gregorian
gregorio
gregorius
gregory
grenada
grenoble
gresik
grey
grid
griffin
griffith
grigory
grimm
griya
grobogan
groeneveld
grogol
groningen
groove
grosir
grosjean
gross
ground
group
groups
grove
grover
grow
growing
growth
gru
grumbul
grumman
grunge
grup
grupnya
gruyter
gs
gsm
gt
gtv
gu
gua
guadalajara
guadalcanal
guadalkanal
guam
guan
guang
guangdong
guangxi
guangzhou
guard
guardian
guardians
guatemala
gubahan
gubeng
gubernur
gubuk
guci
gudang
gue
guerra
guerre
guerrero
guest
guevara
guez
gugat
gugatan
gugur
gugus
gugusan
gui
guide
guides
guido
guild
guillaume
guillermo
guinea
guinness
guitar
guitars
guizhou
gujarat
guk
gula
gulag
gulai
gulat
gulden
gulf
guling
gulma
gulung
gulungan
gum
gumpalan
gun
guna
gunakan
gunanya
gunawan
guncangan
gundala
gundam
gundik
gundukan
gundul
gung
gunma
gunnar
guns
gunting
guntur
gunung
gunungan
gunungkidul
gunungsitoli
guo
gupta
gurih
gurion
gurita
guru
guruh
gurun
gurunya
gus
gustaf
gustav
gustave
gustavo
gusti
gutawa
gutenberg
guthrie
guy
guyana
guys
gw
gwang
gwangju
gwen
gyeonggi
gyeongju
gyeongsang
gyllenhaal
gym
gymnasium
gyo
gyu
h
ha
haag
haas
habib
habibie
habis
habisan
habitat
habitatnya
habsburg
hacker
hackett
had
hadapan
hadapi
haddad
haddock
hades
hadi
hadiah
hadiningrat
hadir
hadirin
hadirnya
hadis
hadits
hadramaut
hae
hafiz
hagar
hagen
hague
hahn
hai
haid
haifa
haim
hain
hainan
hair
haiti
hajar
haji
hajime
hak
hakikat
hakikatnya
hakiki
hakim
hakka
haknya
hakodate
hal
halal
halaman
halamannya
halangan
hale
haleakala
haley
half
halichondria
haliclona
halida
halifax
halilintar
halim
halimah
hall
halle
halloween
halmahera
halnya
halo
halogen
halte
haluan
halus
halusinasi
ham
hama
hamad
haman
hamas
hamba
hambali
hambatan
hamburg
hamburger
hamdan
hamengku
hamengkubuwana
hamengkubuwono
hamid
hamil
hamilton
hamka
hamlet
hammer
hammond
hampa
hamparan
hampir
hampshire
hampton
hamster
hamzah
han
hana
hanacaraka
hanafi
hancock
hancur
hancurnya
hand
handal
handayani
handbook
handbuch
handel
handle
handoko
handphone
hands
hang
hangat
hangul
hangus
hangzhou
hani
hanif
hanifah
hanja
hank
hankam
hanks
hanna
hannah
hannibal
hannover
hanoi
hanover
hans
hansen
hanson
hantu
hanung
hanura
hanya
hanyalah
hanyu
hanyut
hanzi
hao
happened
happiness
happy
haq
har
hara
harada
harafiah
harahap
harald
haram
harap
harapan
harapannya
harapkan
harbin
harbor
harbour
harcourt
hard
hardcore
hardcover
harding
hardware
hardy
hare
harem
harfiah
harga
harganya
hari
harian
harianku
hariannya
harimau
harinya
haris
harits
harlem
harley
harman
harmoni
harmonik
harmonis
harmonisasi
harmony
haro
harold
harpa
harper
harpercollins
harrier
harriet
harris
harrison
harry
harsono
hart
harta
hartanya
hartawan
hartford
hartono
haru
haruka
harum
harun
haruna
harus
haruslah
harusnya
harvard
harvest
harvey
hary
haryanto
haryono
has
hasan
hasanuddin
hasbro
hasbullah
hash
hashim
hashimoto
hasibuan
hasil
hasilnya
hasrat
hassan
hasta
hastings
hasundutan
hasutan
hasyim
hat
hata
hatch
hatchback
hate
hathaway
hati
hatiku
hatimu
hatinya
hatta
haul
haunted
haus
haute
hautes
havana
have
haven
havilland
having
hawa
hawai
hawaii
hawaiian
hawk
hawke
hawker
hawking
hawkins
hawks
hay
hayam
hayashi
hayat
hayati
hayatnya
hayato
hayden
hayes
hazard
hazel
hb
hbo
hbs
hc
hcl
hd
he
head
header
headline
headquarters
heads
healing
health
hear
heard
heart
hearts
heat
heath
heather
heathrow
heaven
heavenly
heavy
hebat
hebei
hebrew
hebron
hector
hedgehog
hee
hegel
hegemoni
hei
heian
heidegger
heidelberg
height
heights
heinemann
heinrich
heinz
hektar
hektare
helai
held
helen
helena
helene
helenistik
helicopter
helikopter
heliophanus
helios
helium
hell
hellenistic
hello
helm
helmut
help
helsinki
hemat
hemingway
hemoglobin
hen
henan
hendak
hendaklah
hendaknya
henderson
hendra
hendri
hendrick
hendrik
hendrix
hendro
heng
hengkang
henk
henokh
henri
henrik
henry
henryk
henti
heo
hepatitis
hepburn
her
hera
herakles
herald
heran
herba
herbal
herbarium
herbert
herbivora
hercules
here
hereford
herge
heri
hering
heritage
herman
hermann
hermansyah
hermawan
hermes
hermione
herna
hernandez
hero
herodes
herodotos
herodotus
heroes
heroik
heroin
herrera
herry
herschel
herself
herter
hertfordshire
hertz
heru
herzegovina
herzog
hesse
hessen
het
heterogen
heteroseksual
hewan
hewani
hewitt
hey
hf
hg
hi
hias
hiasan
hiatus
hibah
hibrida
hiburan
hicks
hidangan
hidayah
hidayat
hidayatullah
hidden
hide
hideaki
hideki
hideyoshi
hidraulis
hidrida
hidrogen
hidrokarbon
hidroksida
hidroksil
hidrolisis
hidrologi
hidung
hidungnya
hidup
hidupku
hidupnya
hierarchy
hierarki
hieroglif
hieronimus
higashi
higgins
high
higher
highest
highland
highway
hijab
hijau
hijaz
hijrah
hijriah
hijriyah
hikari
hikaru
hikayat
hikmah
hikmat
hilal
hilang
hilangnya
hilary
hilbert
hilda
hilir
hill
hillary
hillenburg
hills
hilman
hilton
him
himalaya
hime
himmler
himne
himpunan
himself
hina
hinata
hindi
hindia
hindu
hinduisme
hindustan
hingga
hino
hip
hipatia
hiperbolik
hipertensi
hipnosis
hipoklorit
hipotesis
hipotetis
hippo
hiragana
hirata
hiro
hirohito
hiroki
hiromi
hiroshi
hiroshima
hiroyuki
hirsch
his
hispania
hispanik
hist
histoire
historia
historian
historians
historic
historical
histories
historiografi
historiography
historis
history
hisyam
hit
hitachi
hitam
hitchcock
hitler
hitomi
hits
hitu
hitung
hitungan
hiu
hiv
hizkia
hj
hk
hkbp
hkt
hl
hler
hlm
hlmn
hm
hmi
hms
hno
ho
hoa
hobbes
hobbit
hobi
hobinya
hoc
hockey
hoe
hoeve
hoffman
hoffmann
hogan
hogwarts
hok
hokage
hoki
hokkaido
hokkien
hoku
hokuto
hold
holden
holding
holdings
hole
holiday
holland
hollow
holly
hollywood
holm
holmes
holocaust
hologram
holokaus
holstein
holt
holy
home
homepage
homer
homeros
homme
homo
homogen
homomorfisme
homoseksual
homoseksualitas
hon
honda
honduras
honey
honeywell
hong
hongaria
hongkong
honneur
honolulu
honor
honorary
honoris
honour
honshu
hoo
hood
hook
hooker
hoon
hooper
hoover
hop
hope
hopkins
hopper
horace
horison
horisontal
horizon
horizontal
hormat
hormon
horn
horner
hornet
horor
horror
horse
horst
horta
hortikultura
horton
horus
hos
hosea
hoshi
hoshino
hospital
host
hosted
hosting
hot
hotel
hotels
hotspot
hotspur
hou
houghton
hour
hours
house
houses
housing
houston
houten
hove
how
howard
howe
however
howitzer
hoyt
hp
hr
hrer
hrsg
hs
hsbc
hsu
ht
htm
html
http
https
hu
hua
huan
huang
hub
hubbard
hubble
hubei
hubert
hubung
hubungan
hubungannya
hud
huda
hudson
hue
hugh
hughes
hugo
hugues
hui
hujan
hukum
hukuman
hukumannya
hukumnya
hula
hulk
hull
hulu
hum
human
humaniora
humanis
humanisme
humanitarian
humanities
humanity
humas
humbang
humboldt
hume
humor
humphrey
hun
hunan
hundred
hung
hungama
hungaria
hungarian
hungary
hunger
huni
hunian
hunt
hunter
hunting
huntington
huperzia
hur
hurairah
hurricane
hurt
huru
huruf
husada
husain
husband
husein
husin
husni
hussain
hussein
hut
huta
hutabarat
hutagalung
hutama
hutan
hutang
hutchinson
hutton
hwa
hwan
hwang
hyang
hybrid
hyde
hyderabad
hye
hyeon
hymedesmia
hymenoptera
hyo
hyogo
hyper
hyuk
hyun
hyundai
hyung
hz
i
ia
iaa
iai
iain
iaitu
ialah
ian
iapun
iata
iaurif
ib
iba
ibadah
ibadat
iban
ibaraki
ibarat
iberia
ibid
ibis
iblis
ibm
ibn
ibni
ibnu
ibrahim
ibrani
ibtidaiyah
ibu
ibukota
ibuku
ibunda
ibundanya
ibunya
ic
icao
icc
ice
ich
ichi
ichigo
ichikawa
ichiro
ichtiar
icmi
icon
icons
icrc
ict
id
ida
idaho
idaman
ide
idea
ideal
idealis
idealisme
ideas
identification
identifikasi
identik
identitas
identitasnya
identity
idenya
ideologi
ideologis
ideology
idf
idham
idi
idiom
idiot
idm
idol
idola
idris
idrus
idul
ie
iec
ieee
ieyasu
if
ig
iga
igi
ign
ignacio
ignatius
igor
ihsan
ihwal
ii
iida
iii
iis
ijazah
ijin
ijo
ik
ika
ikan
ikat
ikatan
ike
ikeda
ikhlas
ikhtisar
ikhwan
ikip
ikko
iklan
iklim
ikon
ikonik
ikonografi
iku
ikut
ikuti
il
ila
ilahi
ile
ilegal
ilham
ili
iliad
ilir
ill
illegal
illinois
illusion
illustrated
illustrations
ilmiah
ilmiahnya
ilmu
ilmunya
ilmuwan
ilo
iloilo
ilusi
ilustrasi
ilustrator
ilya
ilyas
ilyushin
im
ima
image
images
imagesize
imagination
imagine
imaging
imajinasi
imajiner
imam
imamat
iman
imannya
imanuel
imax
imbalan
imbang
imbuhan
imdb
imelda
imf
img
imigran
imigrasi
imlek
immanuel
immortal
impact
impatiens
impeachment
imperial
imperialis
imperialisme
imperium
impian
impiannya
implan
implementasi
implementation
implications
implikasi
implisit
impor
import
important
importir
impossible
improvisasi
impuls
imran
imun
imunisasi
imunitas
imut
in
ina
inang
inangnya
inap
inbox
inc
inca
inch
incheon
inchi
inci
incident
include
included
includes
including
income
incorporated
incredible
increment
ind
indah
indahnya
indeks
independen
independence
independent
indera
index
india
indian
indiana
indianapolis
indians
indica
indie
indies
indigenous
indigo
indika
indikasi
indikator
indira
indische
individu
individual
indo
indochina
indofood
indonesia
indonesian
indoor
indosat
indosiar
indra
indragiri
indramayu
indro
induk
induknya
induksi
induktif
indulgensi
indus
industri
industrial
industrialisasi
industries
industry
indy
indycar
ine
inersia
inews
inf
infanteri
infantri
infantry
infeksi
inferior
inferno
infinite
infiniti
infinity
inflamasi
inflasi
influence
influenza
info
informal
informan
informasi
informatika
information
infra
inframerah
infrastructure
infrastruktur
infty
ing
ingat
ingatan
ingatannya
ingatlah
inge
inggeris
inggris
inggrisnya
ingin
inginkan
ingkang
ingkar
ingrid
inhibitor
ini
inilah
inipun
inisial
inisiasi
inisiatif
initial
initiative
injak
injeksi
injil
injili
inka
inkarnasi
inkigayo
inklusi
inklusif
inkubasi
inkuisisi
inlandsche
inn
inner
innocence
innocent
innosensius
innovation
innsbruck
ino
inorganic
inoue
inovasi
inovatif
inpres
input
inquiry
ins
insan
insang
insani
inscription
inscriptions
insecta
insee
insektisida
insentif
inside
insiden
insider
insight
insinyur
inskripsi
insomnia
inspector
inspeksi
inspektorat
inspektur
inspirasi
inspiratif
instagram
instalasi
instan
instansi
instant
insting
institusi
institusional
institut
institute
institution
institutions
instituto
instruction
instruksi
instruktur
instrumen
instrument
instrumental
instrumentasi
instruments
insulin
insurance
int
intai
intan
integer
integral
integrasi
integrated
integration
integritas
intel
intelektual
intelijen
intellectual
intelligence
intelligent
intens
intensif
intensitas
inter
interactive
interaksi
interaktif
intercontinental
interest
interface
interferensi
interim
interior
interkontinental
intermediate
intern
internacional
internal
internasional
internasionalnya
international
internationale
internazionale
internet
interogasi
interpersonal
interpol
interpretasi
interpretation
interstate
interval
intervensi
interview
interviews
inti
intim
intimidasi
intinya
intisari
into
intra
intravena
intrik
intrinsik
intro
introducing
introduction
intuisi
intuitif
inu
inul
invarian
invasi
invasif
invasion
inventaris
inventarisasi
invention
invers
invertebrata
investama
investasi
investigasi
investigation
investment
investor
invisible
io
ioannes
ioc
iodida
iodin
ion
ionia
ionik
ionisasi
ios
iowa
ip
ipa
ipad
ipar
iparnya
ipb
ipdn
iphone
ipin
ipm
ipo
ipod
ips
iptek
ipv
iq
iqbal
ir
ira
irak
irama
iran
irani
iranian
iraq
iraqi
irasional
irawan
ireland
irene
ireng
irfan
iri
irian
irigasi
irina
iring
iringan
iris
irisan
irish
iritasi
irjen
irlandia
irma
iron
ironisnya
irsyad
irvine
irving
irwan
irwin
is
isa
isaac
isabel
isabella
isabelle
isai
isaiah
isbn
isc
ise
isfahan
ishak
ishaq
ishida
ishii
ishikawa
isi
isian
isidro
isinya
isis
iskandar
iskandariyah
isl
isla
islam
islamabad
islami
islamic
islamis
islamiyah
island
islandia
islands
isle
isles
isma
ismael
ismail
iso
isolasi
isomer
isomorfik
isotop
isra
israel
israeli
israil
iss
issn
issue
issues
ist
istana
istananya
istanbul
istat
isteri
isterinya
istiadat
istilah
istimewa
istiqlal
istirahat
istituto
istri
istriku
istrinya
istva
isu
isuzu
iswahyudi
isyana
isyarat
it
ita
itachi
italia
italian
italiana
italik
italy
itano
itb
itc
ite
item
iterasi
itf
ithaca
itik
itis
ito
itoe
its
itself
ittf
itu
itulah
itunes
itupun
itv
iu
iucn
iupac
iuran
iv
iva
ivan
ivanovich
ivie
ivo
ivy
iwa
iwan
iwata
iwate
ix
iya
iyah
iz
izin
izumi
j
ja
jaan
jabal
jabar
jabat
jabatan
jabatannya
jabodetabek
jabung
jack
jackie
jackson
jacky
jacob
jacobs
jacobus
jacqueline
jacques
jade
jadi
jadikan
jadilah
jadinya
jadwal
jae
jafar
jaga
jagal
jagat
jago
jagoan
jaguar
jagung
jahat
jahe
jahit
jai
jaime
jain
jajahan
jajak
jajanan
jajar
jajaran
jak
jaka
jakarta
jake
jaket
jakob
jaksa
jala
jalak
jalal
jalaluddin
jalan
jalanan
jalani
jalannya
jalar
jalil
jalinan
jalur
jalurnya
jam
jama
jamaah
jamaica
jamaika
jamak
jamal
jamaluddin
jaman
jambe
jambi
jambore
jambu
jambul
james
jami
jamie
jamil
jaminan
jammu
jamu
jamuan
jamur
jan
jana
janda
jane
janeiro
janet
jang
jangan
janganlah
janggut
jangka
jangkar
jangkauan
jangkrik
janin
janji
janjinya
jannah
jansen
janssen
jantan
jantung
januari
january
japan
japanese
japonica
jar
jarak
jaraknya
jaran
jaranan
jarang
jared
jargon
jari
jaring
jaringan
jaringannya
jarinya
jarum
jas
jasa
jasad
jasadnya
jasanya
jasin
jasmani
jasmine
jason
jasper
jassin
jat
jatah
jateng
jati
jatibarang
jatim
jatinegara
jatuh
jatuhnya
jauh
jauhnya
java
javascript
javier
jawa
jawab
jawaban
jawabannya
jawabnya
jawara
jawatan
jawi
jay
jaya
jayabaya
jayakarta
jayapura
jayawijaya
jazeera
jazirah
jazz
jb
jc
jd
je
jean
jeanne
jeans
jebakan
jeda
jeddah
jedi
jeep
jef
jeff
jefferson
jeffrey
jejak
jejaring
jeju
jelai
jelajah
jelang
jelas
jelasayat
jelasnya
jelaspasal
jelata
jelek
jeli
jelita
jelly
jemaah
jemaat
jembatan
jember
jembrana
jempol
jen
jena
jenar
jenazah
jenazahnya
jend
jendela
jenderal
jendral
jeneponto
jenewa
jengkol
jenis
jenisnya
jenius
jenjang
jenkins
jenner
jennifer
jennings
jenny
jens
jensen
jenson
jenuh
jeon
jeong
jepang
jepara
jeram
jerami
jeremiah
jeremy
jericho
jeritan
jerman
jermanik
jernih
jero
jerome
jerry
jersey
jeruk
jerusalem
jesse
jessica
jessie
jesu
jesus
jet
jetis
jets
jewel
jewish
jews
jfk
ji
jia
jian
jiang
jiangsu
jiangxi
jibril
jie
jihad
jika
jikalau
jilbab
jilid
jill
jim
jima
jimat
jime
jimi
jimmie
jimmy
jin
jinak
jinan
jing
jingga
jingle
jinnah
jiraiya
jiro
jitu
jiu
jiwa
jiwanya
jj
jk
jkt
jl
jln
jm
jmpl
jo
joa
joachim
joan
joanna
joanne
job
jobim
jobs
jodi
jodoh
jody
joe
joel
joey
jogja
jogjakarta
joglo
johan
johann
johanna
johannes
johannesburg
johansson
johar
john
johnny
johns
johnson
johnston
johor
join
joins
joint
jojo
joker
joko
jokowi
jolie
jombang
jomblo
jompo
jon
jonah
jonas
jonathan
jones
jong
jonggol
joni
joo
joon
joong
jordan
jorge
jorong
jos
jose
josef
joseon
josep
joseph
josephine
josephus
josh
joshi
joshua
joss
journal
journalism
journals
journey
jovi
joy
joyce
jp
jpeg
jpg
jr
js
jstor
jt
jtbc
ju
jua
jual
juan
juanda
juang
juara
jubah
jubilee
judaism
judd
jude
judge
judgment
judi
judika
judith
judo
judul
judulnya
judy
juga
juice
jujur
jul
jules
juli
julia
julian
juliana
julie
julien
juliet
juliette
julio
julius
julu
julukan
julukannya
july
jum
jumat
jumlah
jumlahnya
jump
jumpa
jumpai
jun
junction
june
jung
jungle
juni
junior
juniornya
juniors
junjungan
juno
junta
jupiter
jura
juragan
jurang
jurassic
jure
juri
jurina
jurnal
jurnalis
jurnalisme
jurnalistik
jurong
juru
jurubicara
jurus
jurusan
jury
jus
just
justice
justin
justitie
justru
jusuf
juta
jutaan
jutsu
juventus
juwana
juz
jw
jyp
k
ka
kab
kaba
kabag
kabar
kabaret
kabarnya
kabayan
kabel
kabhi
kabid
kabilah
kabin
kabinet
kabinetnya
kabir
kabisat
kabu
kabuki
kabul
kabupaten
kabur
kabut
kabuto
kaca
kacamata
kacang
kacangan
kacau
kacirebonan
kadal
kadang
kadar
kader
kades
kadet
kadin
kadipaten
kadir
kadiri
kadmium
kado
kadokawa
kadus
kafe
kafilah
kafir
kagami
kagawa
kaget
kagoshima
kagum
kahar
kaharingan
kahayan
kahn
kahyangan
kai
kaidah
kaido
kaimana
kain
kairo
kaisar
kaisarea
kaiser
kait
kaitan
kaitannya
kaito
kaja
kajang
kajen
kajian
kajol
kak
kaka
kakak
kakaknya
kakandanya
kakao
kakap
kakashi
kakatua
kakawin
kakek
kakeknya
kaki
kakinya
kaktus
kaku
kal
kala
kalah
kalam
kalang
kalangan
kalau
kalbar
kaldera
kaldu
kaledonia
kalender
kaleng
kali
kalian
kalibaru
kalibata
kaliber
kalideres
kaligrafi
kalijaga
kalimantan
kalimas
kalimat
kalingga
kalinya
kalinyamat
kalium
kaliwungu
kalkulator
kalkulus
kalkun
kalla
kalor
kalori
kalsel
kalsium
kalteng
kaltim
kalung
kalurahan
kam
kamakura
kamal
kamang
kamar
kamarnya
kambing
kamboja
kamen
kameo
kamera
kamerun
kami
kamikaze
kamil
kamis
kamp
kampanye
kampanyenya
kampar
kampong
kampung
kampungnya
kampus
kamu
kamuflase
kamus
kan
kana
kanaan
kanada
kanagawa
kanak
kanal
kanan
kanannya
kanazawa
kancah
kancil
kancing
kanda
kandang
kandangan
kandangnya
kandas
kandidat
kandung
kandungan
kandungnya
kane
kang
kangean
kangen
kangin
kangjeng
kangkung
kangxi
kanisius
kanit
kanjeng
kanji
kanker
kannada
kano
kanoman
kanon
kanonik
kanopi
kansai
kansas
kanselir
kant
kantin
kanto
kanton
kantong
kantor
kantornya
kantung
kanvas
kanye
kao
kaohsiung
kaori
kaoru
kaos
kap
kapak
kapal
kapalnya
kapan
kapanewon
kapanlagi
kapas
kapasitas
kapasitasnya
kapasitor
kapel
kapiler
kapita
kapital
kapitalis
kapitalisasi
kapitalisme
kapitan
kaplan
kapolda
kapolres
kapolri
kapolsek
kapoor
kappa
kapsul
kapten
kapuas
kapuk
kapur
kar
kara
karabakh
karachi
karaeng
karakter
karakterisasi
karakteristik
karakternya
karam
karan
karang
karangan
karanganyar
karangasem
karangrejo
karangsari
karangtengah
karantina
karaoke
karat
karate
karawaci
karawang
karawitan
karbala
karbohidrat
karboksilat
karbon
karbonat
karbonil
kardashian
kardinal
kardiovaskular
karel
karen
karena
karenanya
karesidenan
karet
kargo
kari
karib
karibia
karier
kariernya
karikatur
karim
karimun
karimunjawa
karin
karina
karir
karirnya
karisma
karismatik
karl
karlsruhe
karma
karmel
karna
karnataka
karnaval
karnivora
karno
karo
karol
karoling
karpet
karst
karta
kartago
kartanegara
kartasura
kartel
kartika
karting
kartini
kartu
kartun
kartunis
karun
karung
karunia
karya
karyanya
karyawan
karyawannya
kas
kasad
kasai
kasal
kasar
kasasi
kasat
kasatmata
kasau
kasdam
kasdim
kasepuhan
kaset
kashima
kashiwa
kashiwagi
kashmir
kasi
kasih
kasihan
kasim
kasino
kaskus
kaspia
kassi
kasta
kastel
kastil
kastila
kastilia
kasuari
kasubdit
kasultanan
kasuma
kasunanan
kasur
kasus
kasusnya
kat
kata
katai
katak
katakan
katakanlah
katalis
katalog
katanya
katarina
kate
katedral
kategori
katekismus
katharine
katherine
kathleen
kathmandu
katholik
kathryn
kathy
katie
katingan
kation
katniss
kato
katode
katolik
katrina
katsir
katsuragi
katto
katun
katup
katy
katz
kau
kaufman
kaukasia
kaukasus
kaul
kaum
kauman
kaumnya
kaur
kaus
kautsky
kav
kavaleri
kawa
kawah
kawali
kawan
kawanan
kawannya
kawasaki
kawasan
kawat
kawedanan
kawi
kawin
kawula
kawung
kay
kaya
kayak
kayan
kaye
kayla
kayo
kayu
kayunya
kayutanam
kazakh
kazakhstan
kazan
kaze
kazimierz
kazuki
kazuma
kazumi
kazuya
kb
kbbi
kbri
kbs
kc
kd
kde
ke
keabadian
keabsahan
keadaan
keadaannya
keadilan
keagamaan
keagungan
keahlian
keahliannya
keajaiban
keakuratan
keamanan
keandalan
keanehan
keanekaragaman
keanggotaan
keanggotaannya
kearah
kearifan
keasaman
keaslian
keatas
keaton
kebahagiaan
kebahasaan
kebaikan
kebajikan
kebakaran
kebaktian
kebal
kebalikan
kebalikannya
kebanggaan
kebangkitan
kebangkrutan
kebangsaan
kebangsawanan
kebangunan
kebanyakan
kebawah
kebaya
kebayoran
kebebasan
kebenaran
kebenarannya
kebencian
keberadaan
keberadaannya
keberagaman
keberangkatan
keberanian
keberaniannya
keberatan
keberhasilan
keberhasilannya
keberlangsungan
keberlanjutan
kebersamaan
kebersihan
keberuntungan
kebesaran
kebetulan
kebiasaan
kebidanan
kebijakan
kebijakannya
kebijaksanaan
kebingungan
kebiruan
kebisingan
kebo
kebobolan
kebocoran
kebodohan
kebohongan
kebon
kebonagung
kebudayaan
kebugaran
kebumen
kebumian
kebun
kebuntuan
keburukan
kebutaan
kebutuhan
kebutuhannya
kec
kecabangan
kecacatan
kecakapan
kecaman
kecamatan
kecanduan
kecantikan
kecantikannya
kecap
kecapi
kecelakaan
kecemasan
kecenderungan
kecepatan
kecepatannya
kecerahan
kecerdasan
kecewa
kecil
kecilnya
kecintaan
kecintaannya
kecokelatan
kecoklatan
kecuali
kecurangan
kecurigaan
kedah
kedai
kedalam
kedalaman
kedaluwarsa
kedamaian
kedap
kedatangan
kedatangannya
kedaton
kedaulatan
kedawung
kedekatan
kedelai
kedelapan
kedepan
kedewasaan
kediaman
kediamannya
kediktatoran
kedinasan
kedirgantaraan
kediri
kedisiplinan
kedokteran
kedu
kedua
keduabelas
keduanya
kedubes
kedudukan
kedudukannya
kedung
kedutaan
kee
keemasan
keempat
keempatnya
keenam
keenan
keep
keesaan
keesokan
kegagalan
kegelapan
kegelisahan
kegemaran
kegembiraan
kegemukan
kegiatan
kegiatannya
kegigihan
kegilaan
kegubernuran
keguguran
kegunaan
kegunaannya
keguruan
kehabisan
kehadiran
kehadirannya
kehakiman
kehamilan
kehancuran
keharusan
kehebatan
kehendak
kehendaki
kehendaknya
kehidupan
kehidupannya
kehijauan
kehilangan
kehitaman
kehormatan
kehutanan
kei
keiji
keiko
keikutsertaan
keilahian
keilmuan
keimanan
keimigrasian
keindahan
keinginan
keinginannya
keislaman
keistimewaan
keisuke
keita
keith
kejadian
kejahatan
kejaksaan
kejam
kejang
kejar
kejaran
kejatuhan
kejauhan
kejayaan
kejayaannya
kejelasan
keji
kejiwaan
keju
kejuaraan
kejujuran
kejuruan
kejut
kejutan
kek
kekacauan
kekaisaran
kekal
kekalahan
kekalahannya
kekanak
kekar
kekasih
kekasihnya
kekayaan
kekayaannya
kekebalan
kekecewaan
kekejaman
kekekalan
kekeliruan
kekeluargaan
kekerabatan
kekerasan
kekeringan
kekhalifahan
kekhanan
kekhasan
kekhawatiran
kekhususan
kekosongan
kekristenan
kekuasaan
kekuasaannya
kekuatan
kekuatannya
kekuningan
kekurangan
kel
kelabu
kelahiran
kelahirannya
kelainan
kelak
kelakuan
kelalaian
kelam
kelamaan
kelamin
kelana
kelancaran
kelangkaan
kelangsungan
kelanjutan
kelantan
kelapa
kelaparan
kelarutan
kelas
kelasnya
kelautan
kelayakan
kelebihan
keledai
kelelahan
kelelawar
kelemahan
kelembaban
kelembagaan
kelembapan
kelengkapan
kelenjar
kelenteng
kelestarian
kelihatan
kelihatannya
keliling
kelima
kelimanya
kelimpahan
kelinci
keling
kelipatan
keliru
kelistrikan
keller
kelley
kelly
kelok
kelola
kelompok
kelompoknya
kelontong
kelopak
kelt
keltik
keluar
keluaran
keluarga
keluarganya
keluarlah
keluarnya
keluhan
keluhuran
kelulusan
kelulusannya
kelumpuhan
kelurahan
kelvin
kemacetan
kemah
kemaharajaan
kemahasiswaan
kemahiran
kemajuan
kemakmuran
kemal
kemampuan
kemampuannya
kemana
kemandirian
kemang
kemanusiaan
kemarahan
kemarau
kemari
kemarin
kemas
kemasan
kemasyarakatan
kematangan
kematian
kematiannya
kemauan
kemayoran
kembali
kembalinya
kembang
kembangan
kembangkan
kembar
kembaran
kembarnya
kemdikbud
kemegahan
kemeja
kemenag
kemenakan
kemenangan
kemenangannya
kemendagri
kemendikbud
kementerian
kementrian
kemenyan
kemerahan
kemerdekaan
kemerdekaannya
kemerosotan
kemewahan
kemhan
kemih
kemiliteran
kemiri
kemiringan
kemiripan
kemiskinan
kemitraan
kemoterapi
kempo
kemudahan
kemudi
kemudian
kemuliaan
kemunculan
kemunculannya
kemunduran
kemungkinan
kemuning
kemurahan
kemurnian
ken
kena
kenabian
kenaikan
kenal
kenalan
kenamaan
kenampakan
kenang
kenangan
kenapa
kenari
kencan
kencana
kencang
kencing
kendal
kendala
kendali
kendall
kendang
kendaraan
kendari
kendati
kendi
kenegaraan
keng
kenichi
kenikmatan
kenisah
kenji
kennedy
kenneth
kenny
kenshin
kensington
kent
kenta
kental
kentang
kento
kentucky
kenya
kenyamanan
kenyataan
kenyataannya
kenyatta
keolahragaan
keong
kep
kepada
kepadaku
kepadamu
kepadanya
kepadatan
kepahiang
kepahlawanan
kepala
kepalanya
kepandaian
kepanduan
kepangeranan
kepangkatan
kepanikan
kepaniteraan
kepanjen
keparahan
kepastian
kepatihan
kepatuhan
kepausan
kepedulian
kepegawaian
kepekaan
kepelatihan
kepemilikan
kepemilikannya
kepemimpinan
kepemimpinannya
kepemudaan
kependekan
kependidikan
kependudukan
kepengurusan
kepentingan
kepentingannya
keperawatan
kepercayaan
kepercayaannya
kepergian
kepergiannya
keperluan
kepindahan
keping
kepingan
kepiting
kepler
kepolisian
keponakan
keponakannya
kepopuleran
keppres
kepramukaan
kepresidenan
kepri
kepribadian
kepribadiannya
keprihatinan
kepuasan
kepulangan
kepulauan
kepunahan
kepunyaan
kepustakaan
keputihan
keputusan
keputusannya
keputusasaan
kera
kerabat
kerabatnya
keracunan
keragaman
keraguan
kerah
kerahasiaan
kerajaan
kerajaannya
kerajinan
kerak
kerakyatan
kerala
keramaian
keramat
keramik
kerana
kerang
kerangka
keranjang
kerap
kerapatan
kerapu
keras
kerasnya
kerasukan
kerasulan
keraton
kerbau
kerdil
kere
keren
kerendahan
kerentanan
keresidenan
kereta
keretakan
keributan
kerikil
kerinci
kerinduan
kering
keringat
keripik
keris
keriting
kerja
kerjakan
kerjanya
kerjasama
kerk
kern
kernel
kerohanian
keroncong
kerr
kerremans
kerry
kertajaya
kertanegara
kertapati
kertas
kertosono
kerucut
kerudung
kerugian
kerukunan
kerumitan
kerumunan
keruntuhan
kerupuk
kerusakan
kerusuhan
kes
kesabaran
kesadaran
kesakitan
kesaksian
kesaktian
kesal
kesalahan
kesalahannya
kesalahpahaman
kesalehan
kesamaan
kesan
kesana
kesatria
kesatu
kesatuan
kesayangan
kesebelas
kesederhanaan
kesediaan
kesedihan
keseharian
kesehatan
kesehatannya
keseimbangan
kesejahteraan
keselamatan
keselarasan
keseluruhan
keseluruhannya
kesembilan
kesembuhan
kesempatan
kesempurnaan
kesemuanya
kesenangan
kesengsaraan
kesenian
kesenjangan
kesepahaman
kesepakatan
kesepian
kesepuluh
kesesatan
kesesuaian
kesetaraan
kesetiaan
kesetiaannya
kesetimbangan
keshogunan
kesiapan
kesibukan
kesimpulan
kesinambungan
kesombongan
kesopanan
kestabilan
kesuburan
kesucian
kesukaan
kesuksesan
kesuksesannya
kesukuan
kesulitan
kesultanan
kesuma
kesusahan
kesusastraan
ketaatan
ketahanan
ketahuan
ketahui
ketahuilah
ketakutan
ketan
ketapang
ketat
ketatanegaraan
ketebalan
ketegangan
keteguhan
ketekunan
ketel
ketela
ketelitian
ketemu
ketenagakerjaan
ketenangan
ketenaran
ketentaraan
ketenteraman
ketentuan
ketepatan
keterampilan
keterangan
keteraturan
keterbatasan
keterbukaan
ketergantungan
keterikatan
keterkaitan
keterlambatan
keterlibatan
keterlibatannya
ketersediaan
ketertarikan
ketertarikannya
ketertiban
ketetapan
ketiadaan
ketiak
ketidak
ketidakadilan
ketidakmampuan
ketidakpastian
ketidakpuasan
ketidakseimbangan
ketidakstabilan
ketidaktahuan
ketiga
ketiganya
ketik
ketika
ketimbang
ketimpangan
ketinggalan
ketinggian
ketinggiannya
keton
ketopong
ketoprak
ketrampilan
ketua
ketuanya
ketuhanan
ketujuh
ketukan
ketulusan
ketungau
ketupat
keturunan
keturunannya
ketut
keuangan
keuangannya
keunggulan
keunikan
keuntungan
keuskupan
keutamaan
keutuhan
kev
kevin
kewajiban
kewajibannya
kewalahan
kewarganegaraan
kewaspadaan
kewenangan
kewenangannya
kewilayahan
kewirausahaan
key
keyakinan
keyakinannya
keyboard
keyboards
keynes
keys
keyserling
kf
kfc
kfz
kg
kgb
kh
kha
khadafi
khadijah
khairul
khalayak
khaldun
khaled
khalid
khalifa
khalifah
khalil
khan
khanna
kharisma
kharkiv
khartoum
khas
khasiat
khasnya
khatib
khattab
khatulistiwa
khawarij
khawatir
khayalan
khazanah
khazar
khilafah
khitan
khmer
kho
khomeini
khotbah
khrushchev
khusus
khususnya
khz
ki
kia
kiai
kiamat
kian
kiasan
kiat
kiblat
kibor
kick
kid
kidal
kidman
kids
kidul
kidung
kie
kiel
kiev
kii
kiii
kijang
kiki
kikuchi
kilang
kilas
kilat
kilau
kilikia
kill
killed
killer
killing
kilo
kilogram
kilometer
kim
kimberly
kimchi
kimi
kimia
kimiawan
kimiawi
kimono
kimura
kin
kina
kinabalu
kinal
kinase
kincir
kind
kinerja
kinerjanya
kinetik
king
kingdom
kingdoms
kings
kingsley
kingston
kini
kino
kinoshita
kintetsu
kios
kip
kipas
kiper
kiprah
kiprahnya
kir
kira
kirab
kirana
kiranya
kirby
kirgizstan
kiri
kiribati
kiril
kirim
kiriman
kirinya
kirk
kis
kisah
kisahnya
kisaran
kisi
kiss
kit
kita
kitab
kitagawa
kitchen
kite
kitlv
kitsune
kitt
kitts
kitty
kiva
kj
kk
kkn
kko
kkpd
kkr
kl
kla
klad
klaim
klaimnya
klan
klang
klarifikasi
klasemen
klasifikasi
klasik
klasis
klaster
klaten
klaus
klausa
klausul
klein
klemens
klender
klenteng
kleopatra
klerus
klien
kliennya
klik
klimaks
klimatologi
klinik
klinis
klip
kliring
klitoris
kliwon
klm
klon
kloning
klorida
klorin
klub
klubnya
klungkung
kluster
km
kmt
kn
knesset
knew
knight
knights
knil
knip
knock
knopf
knot
know
knowledge
knowles
known
knows
knox
knpi
ko
koalisi
koarmada
kobalt
kobayashi
kobe
koboi
kobra
koch
kochi
kock
kod
koda
kodam
kodansha
kode
kodeks
kodepos
kodiklat
kodim
kodok
kodrat
koefisien
koen
koes
koeswoyo
kofu
kognisi
kognitif
koh
koi
koichi
koin
koine
koji
kojima
kok
kokain
koki
koko
kokoh
kokoro
kokpit
koku
kol
kolaborasi
kolaboratif
kolaborator
kolaka
kolam
kolega
koleganya
koleksi
koleksinya
kolektif
kolektor
kolera
kolese
kolesterol
kolkata
kolom
kolombia
kolombo
kolonel
kolong
koloni
kolonial
kolonialisme
kolonisasi
kolumbus
kolumnis
kom
koma
komandan
komando
komatsu
kombes
kombinasi
komedi
komedian
komentar
komentari
komentator
komering
komersial
komet
komik
komika
komikus
kominfo
komisariat
komisaris
komisi
komisioner
komite
komitmen
komnas
komnenos
komoditas
komoditi
komodo
komodor
komoro
kompak
komparatif
kompartemen
kompas
kompatibel
kompatibilitas
kompeni
kompensasi
kompeten
kompetensi
kompetisi
kompetitif
kompetitor
kompi
kompilasi
komplek
kompleks
kompleksitas
komplemen
komplikasi
komplotan
komponen
komponennya
komponis
kompor
kompos
komposer
komposisi
komposisinya
komposit
komprehensif
kompresi
kompresor
kompromi
komputasi
komputer
komputindo
komunal
komune
komuni
komunikasi
komunikator
komunis
komunisme
komunitas
komutatif
komuter
kon
konawe
kondensasi
kondisi
kondisinya
kondo
kondom
konduktivitas
konduktor
kondusif
koneksi
konektivitas
konektor
konfederasi
konferensi
konfigurasi
konfirmasi
konflik
konfrontasi
konfusianisme
konfusius
kong
konga
konghucu
konglomerat
kongo
kongregasi
kongres
kongsi
koni
koninklijke
konjektur
konjugasi
konjungsi
konklaf
konkret
kono
konoha
konon
konotasi
konrad
konsekuensi
konsekuensinya
konseling
konselor
konsensus
konsentrasi
konsep
konsepnya
konsepsi
konseptual
konser
konservasi
konservatif
konsesi
konsili
konsisten
konsistensi
konsol
konsolidasi
konsonan
konsorsium
konspirasi
konstan
konstanta
konstantin
konstantinopel
konstantinus
konstelasi
konstituante
konstituen
konstituensi
konstitusi
konstitusional
konstruksi
konstruktor
konsul
konsulat
konsuler
konsultan
konsultansi
konsultasi
konsumen
konsumsi
kontainer
kontak
kontaminasi
konteks
kontekstual
kontemporer
konten
kontes
kontestan
kontinental
kontingen
kontinu
kontinuitas
kontra
kontradiksi
kontrak
kontraknya
kontraksi
kontraktor
kontras
kontrasepsi
kontribusi
kontribusinya
kontributor
kontrol
kontroversi
kontroversial
kontur
konveksi
konvensi
konvensional
konvergen
konvergensi
konversi
konvoi
konyol
koo
kook
kooperatif
koordinasi
koordinat
koordinator
kopassus
kopenhagen
koper
koperasi
kopertis
kopi
kopling
kopral
koptik
kor
kora
koral
koramil
koran
korawa
korban
korbannya
kordoba
korea
korean
korek
koreksi
korelasi
korem
koreografer
koreografi
koresh
koresponden
korespondensi
koresy
koridor
korintus
korn
koro
korona
koronavirus
koroner
korosi
korporasi
korporat
korps
korpus
korsika
korteks
korup
korupsi
korvet
kos
kosakata
kosmetik
kosmik
kosmologi
kosmos
kosong
kosovo
kost
kosta
kostrad
kostum
kota
kotabaru
kotak
kotamadya
kotamobagu
kotanya
kotapraja
kotaro
kotawaringin
koto
kotor
kotoran
kovalen
kovenan
kowloon
koyama
kp
kpa
kpi
kpk
kpts
kpu
kpud
kr
kra
krabs
kraft
krai
krajan
krakatau
krako
krama
kramat
kramer
kranggan
kraton
krd
kreasi
kreatif
kreativitas
kreator
kredibilitas
kredit
kreditur
kredo
kremlin
kreol
kresna
kreta
kretek
kri
krida
kriket
krim
krimea
kriminal
kriminalitas
kripto
kriptografi
kris
krisdayanti
krishna
krisis
krisna
kristal
kristen
kristiani
kristin
kristina
kristologi
kristus
kriteria
kritik
kritikan
kritikus
kritis
kriya
krl
kro
kroasia
krom
kromatografi
kromium
kromosom
kronik
kronis
kronologi
kronologis
kronos
kroya
kru
krueng
krupp
krustasea
kruyt
ks
ksatria
kt
ktm
ktp
ktt
ku
kuadrat
kuah
kuala
kualifikasi
kualitas
kualitasnya
kualitatif
kuan
kuantan
kuantitas
kuantitatif
kuantum
kuark
kuarsa
kuartal
kuartet
kuas
kuasa
kuasai
kuasi
kuat
kuatnya
kuba
kubah
kubang
kubica
kubik
kubis
kubo
kubu
kubur
kuburan
kubus
kuch
kuching
kucing
kuda
kudanya
kudeta
kudo
kudus
kue
kufah
kuhp
kuhperd
kuil
kuis
kujang
kukar
kuku
kukuh
kuli
kuliah
kuliahnya
kuliner
kulit
kulitnya
kulkas
kulon
kultivar
kultur
kultural
kultus
kuma
kumamoto
kuman
kumar
kumbang
kumi
kumis
kumparan
kumpulan
kumuh
kumulatif
kun
kunang
kunci
kuncoro
kung
kungfu
kuning
kuningan
kunjung
kunjungan
kunjungannya
kunjungi
kunming
kuno
kunst
kunti
kuntilanak
kunyit
kuo
kuomintang
kuota
kupang
kupon
kupu
kura
kurang
kurangnya
kurator
kurban
kurcaci
kurdi
kurdistan
kure
kuri
kuria
kurikulum
kuripan
kurir
kurma
kurnia
kurniawan
kuro
kurosawa
kurs
kursi
kursus
kurt
kuru
kurukshetra
kurun
kurung
kurungan
kurus
kurva
kusan
kush
kusir
kusta
kusuma
kusumo
kuta
kutai
kutipan
kutoarjo
kutu
kutub
kutukan
kuwait
kuwu
kuznetsov
kv
kw
kwak
kwan
kwang
kwartir
kwee
kwh
kwi
kwk
kwon
ky
kya
kyai
kyiv
kyle
kylie
kyo
kyoko
kyoto
kyu
kyun
kyung
kyushu
l
la
laa
lab
laba
laban
label
labirin
labor
laboratories
laboratorium
laboratory
labour
labrador
labs
labu
labuan
labuhan
labuhanbatu
lachaise
lada
ladang
laden
ladies
lady
lae
laga
lagi
lagos
lagu
laguna
lagunya
lah
lahan
lahat
lahir
lahirlah
lahirnya
lahore
lai
laila
lain
lainnya
lainya
lajang
lajos
laju
lajur
lake
lakers
lakes
laki
lakinya
lakon
laksa
laksamana
laksana
lakshmi
laktat
laktosa
laku
lakukan
lal
lala
lalai
lalang
lalat
lalu
lalunya
lam
lama
laman
lamandau
lamanya
lamar
lamaran
lamb
lamban
lambang
lambat
lambatnya
lambda
lambert
lamborghini
lambung
lamela
lamiaceae
lamiales
lamongan
lampau
lampiran
lampu
lampung
lamun
lan
lana
lanal
lanang
lancar
lancashire
lancaster
lance
lancip
land
landai
landak
landas
landasan
landau
landing
landkreis
landmark
lands
landscape
lane
lang
lange
langgam
langganan
langgar
langit
langka
langkah
langkahnya
langkap
langkat
langle
langley
langsa
langsung
language
languages
lanham
lanjut
lanjutan
lanka
lansia
lanskap
lantai
lantamal
lantang
lantanida
lantaran
lantas
lantern
lantik
lanud
lao
laos
lap
lapan
lapang
lapangan
lapar
laphria
lapis
lapisan
laporan
laporannya
laptop
lara
larang
larangan
larantuka
laras
larasati
large
largest
lari
larik
laris
larry
lars
larsen
larson
larut
larutan
larva
las
lasem
laser
laskar
lasor
lasso
last
lat
lata
latar
late
later
lateral
lateran
latest
latief
latif
latih
latihan
latin
latina
lativi
latvia
lau
lauda
laude
lauk
laun
launch
launching
laura
laurel
lauren
laurence
laurent
laurie
lausanne
laut
lautan
lautnya
lava
laval
lavender
lavigne
law
lawa
lawak
lawan
lawang
lawannya
lawas
lawe
lawrence
laws
lawson
lawu
lay
layak
layaknya
layanan
layanannya
layang
layar
layer
layout
layu
lazarus
lazim
lazimnya
lazio
lb
lbf
lc
lcd
ld
ldots
le
lea
lead
leader
leaders
leadership
leading
leaf
league
leang
lear
learn
learning
lease
least
leatherface
leave
leaves
lebah
lebak
lebanon
lebar
lebaran
lebarnya
lebat
leben
lebih
lebihkan
lebong
lebur
lech
leclerc
lecture
lectures
led
ledak
ledakan
lee
leeds
leela
left
leg
lega
legacy
legal
legalitas
legend
legenda
legendaris
legendary
legends
legi
legion
legislasi
legislatif
legislator
legitimasi
legiun
lego
leher
lehernya
lehman
lei
leia
leibniz
leicester
leiden
leigh
leila
leimena
leinster
leipzig
leita
lekas
leksikal
leksikon
lekukan
lelah
lelaki
lelakinya
lelang
lele
leleh
leluasa
lelucon
leluhur
leluhurnya
lem
lemah
lemahnya
lemak
lemari
lematang
lembab
lembaga
lembah
lembang
lembap
lembar
lembaran
lembata
lembing
lembu
lembut
lemdiklat
lemhanas
lemhannas
lemon
lempar
lemparan
lempeng
lempengan
lempung
len
lena
lencana
lendir
lengan
lengannya
lengkap
lengkapnya
lengket
lengkong
lengkung
lengkungan
length
lenin
leningrad
leninis
leninisme
lennon
lenny
lens
lensa
lentera
lentur
lenyap
leo
leon
leonard
leonardo
leone
leonid
leopard
leopold
lepas
leptogaster
leptotarsus
leq
lereng
leroy
les
lesbian
lesi
leslie
lesmana
lesotho
less
lesson
lessons
lestari
leste
lester
lesti
lesung
let
letak
letaknya
letjen
letkol
letnan
letter
letters
lettres
lettu
letusan
leukemia
leung
leuven
lev
levant
level
leverkusen
levi
levin
levine
levy
lewat
lewi
lewis
lex
lexicon
lexington
lexus
leyte
lez
lezat
lf
lg
lgbt
lh
lhok
lhokseumawe
li
lia
liam
lian
liang
liao
liaoning
liar
liat
lib
libanon
liber
liberal
liberalisasi
liberalisme
liberation
liberia
libertadores
libertarian
liberty
libraries
library
libur
liburan
libya
license
licik
licin
lida
lidah
lidya
lie
liechtenstein
liem
lies
lieutenant
life
lifestyle
lifetime
lift
liga
ligan
light
lightning
lights
ligue
lih
lihat
lihatlah
like
liku
likuidasi
likuiditas
lil
lila
lili
lilin
lille
lillian
lily
lim
lima
limas
limau
limbah
limbangan
limburg
limit
limited
limits
limo
limp
lin
lina
lincah
lincoln
lincolnshire
linda
linden
lindl
lindsay
lindung
line
linear
liner
lines
ling
lingga
linggarjati
lingkar
lingkaran
lingkungan
lingkungannya
lingkup
lingua
linguis
linguistic
linguistics
linguistik
lini
linier
link
linkin
links
linnaeus
lintah
lintang
lintas
lintasan
linud
linus
linux
linyphiidae
lio
lion
lionel
liong
lions
lip
lipa
lipat
lipatan
lipi
lipid
lippo
liputan
liquid
lira
lirik
lirikis
liriknya
liriomyza
lis
lisa
lisan
lisboa
lisbon
lisensi
lissodendoryx
list
listed
listen
listing
listrik
lists
lit
litbang
lite
liter
literal
literary
literasi
literatur
literature
lithium
lithuania
litium
little
littlefield
lituania
liturgi
liturgis
liu
liur
liv
live
liverpool
livery
lives
living
livius
lix
liz
liza
ljubljana
lk
lks
ll
lla
llc
ller
lloyd
lm
ln
lng
lo
loa
loan
lobby
lobi
lobster
lobus
local
location
lock
locke
lockheed
lodge
loeb
log
logam
logan
logaritma
logat
logic
logika
logis
logistics
logistik
logo
logos
loh
lohan
loi
loire
lois
loji
lok
loka
lokakarya
lokal
lokalisasi
lokasi
lokasinya
loket
loki
lokomotif
lokus
lola
lolita
lolos
lomba
lombard
lombardia
lombok
lompat
lompatan
lon
loncat
lonceng
london
lone
lonely
loneos
long
longer
longgar
longman
longsor
lonjakan
lonjong
lontar
lontara
lontong
look
looking
looney
loop
lopes
lopez
lor
lord
lorde
lords
lore
lorentz
lorenzo
lori
lorong
lorraine
los
losari
lose
loser
loss
lost
lot
lothar
lotte
lotus
lou
loud
louis
louisa
louise
louisiana
louisville
lounge
lourdes
louvre
lovato
love
loved
lovely
lover
lovers
loves
loving
low
lowe
lowell
lower
lowong
loyal
loyalis
loyalitas
loyola
lp
lpg
lps
lr
lrt
ls
lsi
lsm
lt
ltd
lte
lu
luang
luar
luarnya
luas
luasnya
lubang
lubis
lubuk
lubuklinggau
luc
luca
lucas
lucia
luciano
lucien
lucifer
lucius
luck
lucky
lucu
lucy
ludwig
lues
luffy
lufthansa
luftwaffe
lugu
luhak
luhur
lui
luigi
luis
luisa
luiz
luk
luka
lukanya
lukas
luke
lukis
lukisan
lukisannya
lukman
luksemburg
lulu
lulus
lulusan
lumajang
lumayan
lumba
lumban
lumbung
lumia
luminositas
lumping
lumpuh
lumpur
lumrah
lumut
lun
luna
lunak
lunar
lunas
lunatipula
luncur
luncurkan
lund
lundstrom
lung
luo
luoyang
lupa
lupin
lupus
luput
lurah
lurus
luth
luther
lutheran
luthfi
lutung
lutut
luv
luwu
luwuk
lux
luxembourg
luxury
luz
luzon
lv
lvaro
ly
lydia
lynch
lyndon
lynn
lynne
lynx
lyon
lyons
lyrics
m
ma
maa
maaf
maanyan
maar
maastricht
maatschappij
mabel
mabes
mabesad
mabuk
mac
macam
macan
macarthur
macau
macdonald
macedonia
macet
mach
machi
machimus
machine
machines
macht
macintosh
mack
mackay
mackenzie
macmillan
macos
mad
mada
madagascar
madagaskar
madam
madame
madang
madani
madara
made
madeira
madeleine
madhya
madinah
madison
madiun
madjid
madness
madonna
madras
madrasah
madrid
madu
madura
madya
mae
maeda
maestro
mafia
mag
magang
magazen
magazine
magdalena
magelang
magellan
magetan
maggie
maghrib
magi
magic
magical
magis
magister
magma
magna
magnesium
magnet
magnetic
magnetik
magnificent
magnitudo
magnum
magnus
magyar
mah
maha
mahabharata
mahakam
mahakarya
mahakuasa
mahal
mahaputera
mahar
maharaja
maharani
maharashtra
mahasiswa
mahasiswi
mahathir
mahatma
mahayana
mahdi
mahendra
maher
mahesa
mahesh
mahir
mahkamah
mahkota
mahluk
mahmoud
mahmud
mahou
mai
maia
maid
maiden
mail
maimonides
main
mainan
maine
mainkan
mainnya
mainstream
maintenance
mainz
maison
maja
majalah
majalengka
majapahit
majelis
majemuk
majene
majesty
majid
majikan
majikannya
majisuka
majlis
major
maju
mak
maka
makabe
makalah
makam
makamnya
makan
makanan
makanannya
makasar
makassar
makau
make
makedonia
maker
makes
makhluk
maki
makin
making
makka
makkah
maklumat
makmur
makna
maknanya
mako
makoto
makro
maksimal
maksimum
maksud
maksudnya
mal
mala
malabar
maladewa
malah
malahan
malai
malaikat
malaka
malam
malamnya
malang
malapetaka
malaria
malas
malawi
malay
malaya
malayalam
malaysia
malaysian
malayu
malcolm
male
maleficent
malhotra
mali
malik
maliki
malin
malinau
maling
malioboro
mall
mallorca
malmo
malo
malone
malta
malu
maluku
malware
mama
mamak
mamalia
maman
mamasa
mamberamo
mami
mamluk
mampu
mamuju
man
mana
manado
manaf
management
manager
managing
manajemen
manajer
manajerial
manakah
manakala
manapun
manasye
manatsu
mancanegara
manchester
manchu
manchukuo
manchuria
mancini
mancur
manda
mandai
mandailing
mandala
mandalay
mandar
mandarin
mandat
mandau
mandela
mandi
mandiri
mandor
mandy
mane
manfaat
manfaatnya
manfred
mang
manga
mangaka
mangalore
mangan
mangga
manggala
manggarai
manggis
manggung
mangkat
mangku
mangkubumi
mangkuk
mangkunegara
mangkunegaran
mangkurat
mango
mangora
mangrove
mangsa
mangsanya
manhattan
mani
mania
manifestasi
manifesto
manifold
manik
manila
manipulasi
manis
manisan
manja
mann
manna
manning
manoj
manokwari
manor
manota
mans
mansa
mansell
mansion
mansur
mansyur
manta
mantan
mantap
mantel
mantra
mantri
manu
manual
manuel
manufacturing
manufaktur
manunggal
manurung
manuscript
manuscripts
manusia
manusiawi
manuskrip
manuver
many
mao
maospati
map
mapan
maple
mapping
maps
mar
mara
marah
marak
maraknya
marannu
marapu
marathi
marathon
maraton
marbun
marc
marcel
marcell
marcello
marcelo
march
marche
marching
marcia
marco
marconi
marcos
marcus
mardi
mare
maret
marga
margaret
margarita
margasatwa
margin
margo
margot
marguerite
marhaen
marhum
mari
maria
mariah
mariam
marian
mariana
marianne
mariano
marie
mariko
marilah
marilyn
marin
marina
marine
marinir
marino
mario
marion
marisa
marissa
maritim
maritime
marius
marjorie
mark
marka
markah
markas
market
marketing
markets
markgraf
markis
marko
marks
markus
marlborough
marlon
marmer
marne
maroko
maron
maronit
maros
marquis
marriage
married
marry
mars
marseille
marsekal
marsh
marsha
marshal
marshall
marsma
mart
marta
martabak
martabat
martapura
martawijaya
marten
martha
marti
martial
martian
martin
martina
martinez
martini
martins
martinus
martir
marty
maru
marusu
marvel
marvin
marwan
marx
marxis
marxisme
mary
maryam
maryland
marzuki
mas
masa
masahiro
masak
masakan
masaki
masako
masalah
masalahnya
masam
masanya
masashi
masato
masayuki
masehi
masi
masif
masih
masing
masinis
masjid
masjidil
mask
maskapai
masker
maskot
maskulin
mason
masoret
masoretik
mass
massa
massachusetts
massacre
massal
massanya
massimo
master
masterchef
mastering
masters
masturbasi
masuda
masuk
masukan
masukkan
masuknya
masyarakat
masyarakatnya
masyhur
masyumi
mat
mata
matahari
matai
matan
matang
matanya
mataram
match
matches
mate
matematika
matematikawan
matematis
mater
materi
material
materialisme
materials
materiil
math
mathbb
mathbf
mathcal
mathematical
mathematics
mathfrak
mathias
mathieu
mathilde
mathrm
mati
matian
matilda
matinya
matius
matoa
matra
matraman
matriks
matrix
matsuda
matsui
matsumoto
matsumura
matsuri
matsushita
matt
matteo
matter
matters
matthew
matthews
matthias
mau
maud
maudy
maulana
maulid
maupun
maureen
maurice
mauritania
mauritius
mauro
maurya
mausoleum
maut
maverick
mawar
max
maxi
maxim
maximilian
maximum
maximus
maxwell
may
maya
mayang
mayasari
mayat
maybe
maybrat
mayer
mayjen
maynard
mayo
mayong
mayor
mayoritas
mayotte
mayu
mayumi
mayur
mazda
mazhab
mazmur
mb
mba
mbah
mbak
mbc
mbox
mbs
mbta
mc
mca
mccarthy
mccartney
mccoy
mcdonald
mcdonnell
mcfarland
mcgill
mcgraw
mckenzie
mckinley
mclaren
mclean
mcmahon
mcqueen
mcu
md
mdpl
mdtk
me
mead
mean
meaning
means
measures
meat
mebel
mecha
mechanical
mechanics
mecklenburg
med
medal
medali
medan
medang
media
median
mediasi
mediator
medical
medici
medicine
medieval
medik
medika
medina
medis
meditasi
meditation
mediterania
mediterranean
medium
medley
mee
meer
meera
meester
meet
meeting
meets
meg
mega
megah
megalitik
megalodon
megami
megan
megapiksel
megatron
megawati
megumi
mehmed
mehra
mehta
mei
meiji
mein
meiosis
meir
meitetsu
meja
mekah
mekanik
mekanika
mekanis
mekanisme
mekar
mekarsari
mekkah
mekong
meksiko
mel
melacak
melahirkan
melainkan
melaju
melaka
melaksanakan
melakukan
melakukannya
melaleuca
melalui
melamar
melambangkan
melambat
melampaui
melanagromyza
melancarkan
melanda
melanesia
melanggar
melangkah
melangsungkan
melanie
melanjutkan
melantai
melantik
melantunkan
melapisi
melapor
melaporkan
melarang
melarikan
melarutkan
melastomataceae
melati
melatih
melawan
melawannya
melawi
melayang
melayangkan
melayani
melayu
melbourne
melebar
melebarkan
melebihi
melebur
meledak
meledakkan
melejit
melek
melekat
meleleh
melemah
melemahkan
melempar
melemparkan
melengkapi
melengkung
melenyapkan
melepas
melepaskan
melesat
melestarikan
meletakkan
meletus
meletusnya
melewati
melewatinya
melewatkan
melibatkan
melihat
melihatnya
melimpah
melinda
melindungi
melindunginya
melingkar
melingkupi
melintang
melintas
melintasi
meliput
meliputi
melisensikan
melissa
melitus
mello
mellon
melly
melodi
melodrama
melody
meloloskan
melompat
melon
melonjak
melontarkan
meluap
meluas
meluaskan
meluasnya
melucuti
melukai
melukis
melukiskan
meluluskan
melumpuhkan
melunasi
meluncur
meluncurkan
melupakan
meluruh
melvin
mem
memaafkan
memacu
memadai
memadamkan
memadukan
memahami
memahkotai
memainkan
memainkannya
memajukan
memakai
memakainya
memakan
memakannya
memaksa
memaksakan
memaksanya
memaksimalkan
memalsukan
memalukan
memamerkan
memanah
memanas
memanaskan
memancarkan
memancing
memandang
memandangnya
memandu
memanen
memanfaatkan
memang
memanggil
memanggilnya
memangku
memangsa
memanipulasi
memanjang
memanjat
memantapkan
memantau
memantulkan
memaparkan
memasak
memasang
memasarkan
memasok
memastikan
memasukan
memasuki
memasukkan
memasukkannya
memata
mematahkan
mematikan
mematuhi
membaca
membacakan
membacanya
membagi
membagikan
membahas
membahayakan
membaik
membajak
membakar
membalap
membalas
membalaskan
membalikkan
membandingkan
membandingkannya
membanggakan
membangkitkan
membangun
membangunkan
membanjiri
membantah
membantai
membantu
membantunya
membaptis
membara
membasmi
membatalkan
membatasi
membawa
membawahi
membawakan
membawanya
membayangkan
membayar
membebani
membebaskan
membebaskannya
membedakan
membedakannya
membeku
membekukan
membela
membelah
membeli
membelinya
membelot
membenarkan
membenci
membendung
membengkak
membentang
membentuk
member
memberantas
memberdayakan
memberhentikan
memberi
memberikan
memberikannya
memberinya
memberitahu
memberitahukan
memberitahunya
memberitakan
memberkati
memberlakukan
memberontak
members
membersihkan
membesar
membesarkan
membiarkan
membiarkannya
membiayai
membicarakan
membidangi
membikin
membimbing
membina
membinasakan
membingungkan
membintangi
memblokir
membocorkan
memboikot
membolehkan
membombardir
membongkar
membosankan
membran
membuahkan
membuang
membuat
membuatkan
membuatnya
membubarkan
membujuk
membujuknya
membujur
membuka
membuktikan
membukukan
membungkus
membunuh
membunuhnya
memburu
memburuk
membusuk
membutuhkan
meme
memecah
memecahkan
memecat
memegang
memelihara
memeluk
memenangi
memenangkan
memenangkannya
memengaruhi
memenggal
memenjarakan
mementaskan
mementingkan
memenuhi
memerangi
memerankan
memeras
memerdekakan
memeriksa
memerintah
memerintahkan
memerlukan
memesan
memetakan
memetik
memfasilitasi
memfilmkan
memfokuskan
memicu
memihak
memikat
memikirkan
memikul
memilih
memilihnya
memiliki
memilikinya
memilki
memimpin
memindahkan
meminimalkan
meminjam
meminjamkan
meminjamkannya
meminta
memintanya
meminum
memisahkan
memo
memoar
memobilisasi
memodifikasi
memohon
memoir
memoirs
memompa
memonopoli
memorandum
memori
memorial
memories
memory
memotivasi
memotong
memotret
mempawah
mempekerjakan
mempelai
mempelajari
mempelopori
mempengaruhi
memperanakkan
memperbaharui
memperbaiki
memperbanyak
memperbarui
memperbesar
memperbolehkan
memperburuk
mempercayai
mempercayakan
mempercepat
memperdagangkan
memperdalam
memperdebatkan
memperebutkan
mempererat
mempergunakan
memperhatikan
memperhitungkan
memperingati
memperingatkan
memperjelas
memperjuangkan
memperkaya
memperkenalkan
memperkirakan
memperkosa
memperkuat
memperlakukan
memperlambat
memperlancar
memperlihatkan
memperluas
mempermudah
memperoleh
memperpanjang
mempersatukan
mempersembahkan
mempersiapkan
mempersulit
mempertahankan
mempertanyakan
mempertaruhkan
mempertemukan
mempertimbangkan
memphis
mempopulerkan
memposisikan
memposting
memprakarsai
mempraktikkan
memprediksi
mempresentasikan
memprioritaskan
memproduksi
memproduseri
memproklamasikan
memproklamirkan
mempromosikan
memproses
memprotes
memprovokasi
memproyeksikan
mempublikasikan
mempunyai
memuaskan
memuat
memudahkan
memudar
memuja
memuji
memukau
memukul
memulai
memuliakan
memulihkan
memuncak
memuncaki
memunculkan
memungkinkan
memungkinkannya
memungut
memusatkan
memusnahkan
memusuhi
memutar
memutus
memutuskan
men
mena
menaati
menabrak
menafsirkan
menahan
menaiki
menaikkan
menak
menakjubkan
menaklukan
menaklukkan
menakutkan
menamai
menamainya
menamakan
menamakannya
menamatkan
menambah
menambahkan
menampakkan
menampilkan
menampung
menanam
menanamkan
menandai
menandakan
menandatangani
menandingi
menang
menangani
menanggalkan
menanggapi
menanggapinya
menangguhkan
menanggulangi
menanggung
menangis
menangkal
menangkap
menangkapnya
menangkis
menanjak
menantang
menanti
menantikan
menantu
menantunya
menanyakan
menara
menargetkan
menari
menarik
menariknya
menaruh
menasihati
menata
menatap
menaungi
menawan
menawar
menawarkan
menayangkan
mencabut
mencair
mencakup
mencalonkan
mencampur
mencampurkan
mencanangkan
mencantumkan
mencapai
mencaplok
mencari
mencarinya
mencatat
mencatatkan
mencegah
mencegahnya
mencegat
mencela
menceraikan
mencerdaskan
menceritakan
mencerminkan
mencetak
mencetuskan
mencintai
mencintaimu
mencintainya
menciptakan
mencirikan
mencium
mencoba
mencolok
mencuat
mencuci
mencukupi
menculik
mencurahkan
mencuri
mencurigai
mencurigakan
mendadak
mendaftar
mendaftarkan
mendagri
mendahului
mendaki
mendalam
mendalami
mendamaikan
mendampingi
mendanai
mendapat
mendapati
mendapatkan
mendapatkannya
mendarat
mendaratkan
mendasar
mendasari
mendasarkan
mendatang
mendatangi
mendatangkan
mendatar
mendedikasikan
mendefinisikan
mendekat
mendekati
mendekatkan
mendeklarasikan
mendel
mendemonstrasikan
mendengar
mendengarkan
mendengarnya
menderita
mendes
mendesain
mendesak
mendeskripsikan
mendetail
mendeteksi
mendiami
mendiang
mendidih
mendidik
mendikbud
mendinginkan
mendirikan
mendiskusikan
mendistribusikan
mendjadi
mendoakan
mendokumentasikan
mendominasi
mendorong
mendorongnya
mendoza
menduduki
menduga
mendukung
mendukungnya
menebak
menebang
menebus
menegakkan
menegaskan
menegosiasikan
menegur
menekan
menekankan
menekuni
menelan
menelepon
meneliti
menelurkan
menelusuri
menemani
menemaninya
menembak
menembaki
menembakkan
menembus
menempati
menempatkan
menempatkannya
menempel
menempelkan
menempuh
menemui
menemukan
menemukannya
menenangkan
menendang
menendez
menengah
menengahnya
menenggelamkan
menentang
menentangnya
menentu
menentukan
menenun
menerangi
menerangkan
menerapkan
menerbangkan
menerbitkan
meneriakkan
menerima
menerimanya
menerjang
menerjemahkan
menerobos
menerus
meneruskan
menetap
menetapkan
menetas
menewaskan
meng
mengabadikan
mengabaikan
mengabarkan
mengabdi
mengabdikan
mengabulkan
mengaburkan
mengacaukan
mengacu
mengadakan
mengadaptasi
mengadili
mengadopsi
mengadu
mengagumi
mengagumkan
mengairi
mengaitkan
mengajak
mengajaknya
mengajar
mengajari
mengajarinya
mengajarkan
mengaji
mengajukan
mengakhiri
mengakibatkan
mengakomodasi
mengakses
mengaktifkan
mengaku
mengakui
mengakuinya
mengakuisisi
mengalah
mengalahkan
mengalahkannya
mengalami
mengalihkan
mengalir
mengalirkan
mengalokasikan
mengamalkan
mengamankan
mengamati
mengambang
mengambil
mengambilnya
mengampuni
mengamuk
menganalisis
mengancam
mengandalkan
mengandung
menganeksasi
menganggap
menganggapnya
menganggur
mengangkat
mengangkatnya
mengangkut
menganiaya
menganjurkan
mengantar
mengantarkan
mengantarkannya
mengantisipasi
mengantongi
menganugerahi
menganugerahkan
menganut
mengapa
mengapung
mengarah
mengarahkan
mengarang
mengartikan
mengarungi
mengasah
mengasihi
mengasingkan
mengasuh
mengasumsikan
mengatakan
mengatasi
mengatur
mengawal
mengawali
mengawasi
mengebom
mengebor
mengecam
mengecewakan
mengecil
mengecualikan
mengedarkan
mengedepankan
mengedit
mengeja
mengejar
mengejarnya
mengejek
mengejutkan
mengeksekusi
mengeksploitasi
mengeksplorasi
mengekspor
mengekspresikan
mengelilingi
mengeliminasi
mengelola
mengelompokkan
mengeluarkan
mengeluh
mengeluhkan
mengembalikan
mengembalikannya
mengemban
mengembang
mengembangkan
mengembara
mengemudi
mengemudikan
mengemukakan
mengenai
mengenakan
mengenal
mengenali
mengenalkan
mengenalnya
mengenang
mengendalikan
mengendap
mengendarai
mengenyam
mengepalai
mengepung
mengerahkan
mengeras
mengerikan
mengering
mengerjakan
mengerti
mengesahkan
mengesampingkan
mengesankan
mengetahui
mengetahuinya
mengetik
mengevakuasi
mengevaluasi
menggabungkan
menggagalkan
menggagas
menggalang
menggali
menggambar
menggambarkan
menggambarkannya
menggandakan
menggandeng
mengganggu
mengganti
menggantikan
menggantikannya
menggantinya
menggantung
menggantungkan
menggapai
menggarap
menggelar
menggeluti
menggembirakan
menggempur
menggerakkan
menggeser
menggigit
menggiring
menggoda
menggolongkan
menggubah
menggugat
menggulingkan
menggunakan
menggunakannya
mengguncang
menghabisi
menghabiskan
menghadang
menghadap
menghadapi
menghadiri
menghadirkan
menghafal
menghalangi
menghalau
menghambat
menghampiri
menghancurkan
menghancurkannya
menghantam
menghantarkan
menghantui
menghapus
menghapuskan
mengharapkan
menghargai
mengharuskan
menghasilkan
menghasut
menghemat
menghembuskan
menghendaki
menghentikan
menghentikannya
mengherankan
menghiasi
menghibur
menghidupi
menghidupkan
menghilang
menghilangkan
menghimpun
menghina
menghindar
menghindari
menghindarkan
menghirup
menghisap
menghitung
menghormati
menghormatinya
menghubungi
menghubungkan
menghubungkannya
menghukum
menghuni
mengibarkan
mengidap
mengidentifikasi
mengidentifikasikan
mengikat
mengikut
mengikuti
mengikutinya
mengikutsertakan
mengilhami
mengimbangi
mengimplementasikan
mengimpor
menginap
mengincar
mengindahkan
mengindikasikan
menginduksi
menginfeksi
menginformasikan
mengingat
mengingatkan
menginginkan
mengingkari
menginjak
menginspirasi
menginstruksikan
mengintegrasikan
menginvasi
menginvestasikan
mengira
mengirim
mengirimkan
mengirimkannya
mengirimnya
mengiringi
mengisahkan
mengisi
mengisolasi
mengisyaratkan
mengitari
mengizinkan
mengizinkannya
mengkaji
mengkhawatirkan
mengkhianati
mengkhususkan
mengkilap
mengklaim
mengklarifikasi
mengklasifikasikan
mengkombinasikan
mengkonfirmasi
mengkonsolidasikan
mengkonsumsi
mengkonversi
mengkoordinasikan
mengkritik
mengobarkan
mengobati
mengolah
mengoleksi
mengomentari
mengonfirmasi
mengonsumsi
mengontrak
mengontrol
mengoordinasikan
mengoperasikan
mengoptimalkan
mengorbankan
mengorbit
mengorganisasi
mengorganisir
mengosongkan
menguap
menguasai
menguat
menguatkan
mengubah
mengubahnya
mengubur
mengucap
mengucapkan
mengudara
menguji
mengukir
mengukuhkan
mengukur
mengulang
mengulangi
mengulas
mengumpulkan
mengumumkan
mengunakan
mengunci
mengundang
mengunduh
mengundurkan
mengunggah
mengungguli
mengungkap
mengungkapkan
mengungsi
mengunjungi
mengunjunginya
menguntungkan
mengupayakan
menguraikan
mengurangi
menguras
mengurung
mengurus
mengurusi
mengusahakan
mengusir
mengusulkan
mengusung
mengutamakan
mengutarakan
mengutip
mengutuk
mengutus
meniadakan
menikah
menikahi
menikahinya
menikahkan
menikmati
menilai
menimba
menimbang
menimbulkan
menimpa
menindaklanjuti
menindas
meninggal
meninggalkan
meninggalkannya
meninggalnya
meningitis
meningkat
meningkatkan
meningkatnya
meninjau
menipu
meniru
menirukan
menit
meniti
menitikberatkan
meniup
menjabarkan
menjabat
menjadi
menjadikan
menjadikannya
menjaga
menjahit
menjajah
menjalani
menjalankan
menjalar
menjalin
menjamin
menjamu
menjangkau
menjanjikan
menjarah
menjatuhkan
menjauh
menjauhi
menjauhkan
menjawab
menjebak
menjelajah
menjelajahi
menjelang
menjelaskan
menjelma
menjembatani
menjemput
menjorok
menjual
menjualnya
menjuarai
menjulang
menjuluki
menjumpai
menjunjung
menko
menobatkan
menolak
menolaknya
menolong
menolongnya
menonaktifkan
menonjol
menonjolkan
menonton
menopang
menorehkan
mensponsori
menstabilkan
menstruasi
mensyaratkan
mentah
mental
mentari
mentawai
mentega
menteng
menteri
menterinya
mentimun
mentor
mentransfer
menu
menua
menuai
menuangkan
menuduh
menuduhnya
menugaskan
menuju
menukar
menular
menulis
menuliskan
menulisnya
menumbangkan
menumbuhkan
menumpahkan
menumpang
menumpas
menumpuk
menunaikan
menunda
menundukkan
menunggang
menunggu
menunjang
menunjuk
menunjukan
menunjukkan
menuntaskan
menuntun
menuntut
menurun
menuruni
menurunkan
menurunnya
menurut
menuruti
menurutnya
menusuk
menutup
menutupi
menuturkan
menyabet
menyadari
menyadarkan
menyaingi
menyajikan
menyakiti
menyakitkan
menyaksikan
menyala
menyalahgunakan
menyalahkan
menyalakan
menyalin
menyalip
menyalurkan
menyamai
menyamakan
menyamar
menyambung
menyambut
menyampaikan
menyandang
menyangka
menyangkal
menyangkut
menyantap
menyanyi
menyanyikan
menyapa
menyapu
menyarankan
menyaring
menyasar
menyatakan
menyatu
menyatukan
menyayangi
menyebabkan
menyebabkannya
menyebar
menyebarkan
menyebarluaskan
menyeberang
menyeberangi
menyebut
menyebutkan
menyebutnya
menyederhanakan
menyediakan
menyedihkan
menyegel
menyeimbangkan
menyelam
menyelamatkan
menyelamatkannya
menyelaraskan
menyelenggarakan
menyelesaikan
menyelesaikannya
menyelidiki
menyelinap
menyeluruh
menyembah
menyembelih
menyembuhkan
menyembunyikan
menyempurnakan
menyenangkan
menyendiri
menyentuh
menyepakati
menyerah
menyerahkan
menyerahkannya
menyerang
menyerangnya
menyerap
menyerbu
menyeret
menyertai
menyertainya
menyertakan
menyerukan
menyerupai
menyesal
menyesali
menyesatkan
menyesuaikan
menyetujui
menyetujuinya
menyewa
menyiapkan
menyiarkan
menyiksa
menyimpan
menyimpang
menyimpannya
menyimpulkan
menyindir
menyinggung
menyingkirkan
menyiratkan
menyisakan
menyisihkan
menyita
menyokong
menyoroti
menyuarakan
menyucikan
menyuguhkan
menyukai
menyukainya
menyulitkan
menyumbang
menyumbangkan
menyunting
menyuplai
menyuruh
menyuruhnya
menyusui
menyusul
menyusun
menyusup
menyusuri
menyusut
menyutradarai
mer
mera
meracuni
meragukan
merah
merahasiakan
meraih
merajalela
merak
merakit
meramalkan
merambah
merambat
merampas
merampok
merancang
merangin
merangkak
merangkap
merangkul
merangkum
merangsang
merantau
meranti
merapi
merasa
merasakan
merata
meratifikasi
merauke
meraup
merawat
merayakan
merayu
merbabu
mercedes
mercer
merchant
mercia
merck
mercu
mercury
mercusuar
mercy
merdeka
merdu
mere
merealisasikan
merebak
merebut
mereda
meredakan
meredam
meredith
mereduksi
merefleksikan
mereformasi
merek
mereka
merekalah
merekam
merekomendasikan
merekonstruksi
merekrut
meremehkan
merencanakan
merendahkan
merenggut
merenungkan
merepresentasikan
meresmikan
merespon
merespons
merevisi
merger
meri
meriah
meriam
merica
meridian
merilis
merinci
merindukan
meringankan
merintis
merit
meriwayatkan
merk
merkel
merkuri
merkurius
merlin
mermaid
merobek
merokok
merombak
merosot
merpati
merr
merriam
merrill
merry
merta
mertua
mertuanya
meru
merubah
merugi
merugikan
merujuk
merumuskan
meruncing
merundingkan
meruntuhkan
merupakan
merusak
mes
mesa
mesias
mesin
mesinnya
mesir
mesiu
mesjid
meski
meskipun
mesoamerika
mesopotamia
mesra
message
messaging
messenger
messi
messiah
messier
messina
mesti
mestinya
mesuji
met
meta
metabolik
metabolisme
metabolit
metacritic
metafisika
metafora
metal
metalcore
metalik
metallica
metaloid
metalurgi
metana
metanol
mete
meteor
meteorit
meteorologi
meter
meterai
method
methodis
methodist
methods
metil
metode
metodis
metodologi
metrik
metro
metropolis
metropolitan
metrotv
metz
metzger
meunasah
mew
mewah
mewajibkan
mewakili
mewarisi
mewariskan
mewarnai
mewawancarai
mewujudkan
mexican
mexico
meyakini
meyakinkan
meyakinkannya
meyer
meyrick
mez
mezbah
mf
mg
mgm
mgr
mh
mhz
mi
mia
miami
miao
mic
michael
michaels
michel
michelangelo
michele
michelin
michelle
michigan
mick
mickey
miconia
micro
microcionidae
microsoft
microstylum
mid
middle
middlesbrough
middleton
midi
midland
midlands
midnight
midori
midun
midway
midwest
mie
mieszko
mifflin
miftahul
mig
migas
might
mighty
migran
migrasi
migration
miguel
miho
mihrab
mika
mikael
mike
mikha
mikhael
mikhail
miki
miko
mikoyan
mikro
mikrob
mikroba
mikrobiologi
mikrofon
mikronesia
mikroorganisme
mikroprosesor
mikroskop
mikroskopis
miku
mil
mila
milan
milano
mild
mile
milenial
milenium
miles
miley
miliar
miliaran
milik
miliki
milikku
miliknya
milimeter
milisi
militaire
militan
military
militer
militernya
milk
mill
millenium
millennium
miller
millidge
million
millionaire
mills
milo
milos
milton
milwaukee
milyar
mimbar
mimi
mimika
mimpi
mimpinya
min
mina
minahasa
minaj
minami
minamoto
minang
minangkabau
minas
minat
minatnya
minato
mind
mindanao
minds
mine
minecraft
minegishi
mineral
minerva
ming
minggu
mingguan
minggunya
minh
mini
miniatur
minim
minimal
minimnya
minimum
mining
miniseri
minister
ministry
minneapolis
minnesota
mino
minogue
minor
minoritas
minsk
mint
minta
minum
minuman
minus
minuscule
minute
minutes
minyak
mio
mipa
mir
mira
miracle
miracles
mirage
mirai
miranda
miri
miriam
miring
mirip
mirror
mirza
mis
misa
misaki
misal
misalkan
misalnya
mischa
mise
mishima
mishra
misi
misil
misinya
misionaris
miskin
miss
missile
missing
mission
missionary
missions
mississippi
missouri
mister
misteri
misterius
mistik
mistis
mit
mita
mitch
mitchell
mitigasi
mito
mitokondria
mitologi
mitologis
mitos
mitra
mitraliur
mitsubishi
mitsui
miura
mix
mixed
mixer
mixing
mixtape
miyagi
miyako
miyamoto
miyazaki
miyazawa
miyuki
mizan
mizuho
mizuki
mizwar
mj
mk
ml
mls
mm
mma
mn
mnc
mnctv
mnet
mnt
mo
moab
mob
mobil
mobile
mobilisasi
mobilitas
mobility
mobilnya
moch
mochtar
mod
moda
modal
mode
model
modeling
models
modem
modena
moderat
moderator
modern
modernis
modernisasi
modernisme
modi
modified
modifikasi
modul
modular
modulasi
module
modulus
modus
moe
moga
mogok
moh
mohamad
mohamed
mohammad
mohammed
mohan
mohd
mohon
mohr
moi
mojo
mojokerto
mol
mola
molar
moldavia
moldova
molecular
molekul
molekular
molekuler
molibdenum
molina
molly
molotov
moluska
mom
momen
moment
moments
momentum
momo
mon
mona
monaco
monako
monarki
monas
monastery
monastik
moncong
moncongloe
monday
monde
mondo
moneter
money
mong
mongol
mongolia
mongondow
monica
monitor
monitoring
monk
monkey
monkeys
monmouth
mono
monogatari
monoid
monoksida
monomer
monopoli
monorel
monroe
mons
monsieur
monster
monsters
mont
montana
monte
montenegro
monterrey
montfort
montgomery
month
monthly
montpellier
montre
montreal
montserrat
monty
monumen
monument
monumental
monuments
monyet
monza
moo
mood
moody
mook
moon
moonlight
moor
moore
mor
mora
moral
morales
moralitas
moran
moravia
more
moreno
morfem
morfisme
morfologi
morgan
morgenthau
mori
morioka
morison
morita
moritz
morley
mormon
morning
moro
morotai
morowali
morris
morrison
morse
mortir
morton
mos
mosaik
moscow
moses
moshe
mosi
moskow
moskwa
mosque
moss
most
mosul
mother
motif
motion
motivasi
moto
motogp
motor
motorik
motorola
motors
motorsport
motorsports
motto
mou
mount
mountain
mountains
mouse
mouth
moutong
move
movement
movements
movie
movies
moving
moyang
moyangnya
mozambik
mozart
mozilla
mp
mph
mpk
mpr
mprs
mpu
mr
mrna
mrs
mrt
ms
msc
msi
msn
msnbc
mt
mtr
mts
mtv
mu
mual
mualim
muara
muaro
muasal
muat
muatan
muawiyah
mubarak
much
muchtar
mud
muda
mudah
mudahnya
mudanya
mudi
mudik
mufakat
mufti
mughal
muh
muhamad
muhammad
muhammadiyah
muharram
muhyiddin
mui
mujahidin
mujizat
muka
mukanya
mukerji
mukherjee
mukhtar
mukim
mukjizat
mukmin
mukomuko
mukosa
muktamar
mukti
mula
muladi
mulai
mulailah
mulan
mulanya
mulawarman
mulia
muller
mulo
multi
multilateral
multimedia
multinasional
multipemain
multiple
multiply
multivision
muluk
mulus
mulut
mulutnya
mulya
mulyadi
mulyo
mulyono
mumbai
mumi
mumpuni
mun
muna
munafik
munas
muncul
muncullah
munculnya
mundo
mundur
mundurnya
mungkid
mungkin
munich
municipal
municipality
munir
munisipal
munisipalitas
muntah
muntilan
mur
mura
murad
murah
murakami
mural
murba
murder
murdoch
muri
muria
murid
muridnya
murka
murni
murphy
murray
murtad
murung
mus
musa
musafir
musala
musang
musashi
muse
museo
museum
museums
mushola
musholla
musi
musibah
music
musica
musical
musik
musikal
musiknya
musikus
musim
musiman
musimnya
musisi
musk
muslihat
muslim
muslimah
muslimin
muslims
musnah
muson
mussolini
must
mustafa
mustahil
mustang
mustika
mustofa
musuh
musuhnya
musume
musyawarah
mutakhir
mutan
mutasi
mutiara
mutlak
mutlaknya
mutu
mutual
muzik
mv
mvp
mw
mx
my
myanmar
mycale
mycetophila
mycetophilidae
mycomya
myers
myo
myrmarachne
myrtaceae
myrtales
myself
mysore
myspace
mysteries
mysterious
mystery
mystic
myth
mythicomyia
mythology
myths
myung
myxilla
n
na
naa
naar
nababan
nabati
nabawi
nabi
nabila
nabilah
nabire
nach
nacional
nacl
nad
nada
nadal
nadi
nadia
nadine
nadu
nadya
nafas
nafkah
nafsu
naga
nagai
nagan
nagano
nagar
nagara
nagarakretagama
nagari
nagasaki
nagisa
nagori
nagorno
nagoya
nah
nahdlatul
nai
naif
naik
naiknya
nainggolan
naipospos
nair
nairobi
najib
najis
nak
naka
nakagawa
nakajima
nakal
nakamura
nakanishi
nakano
naked
nakhoda
nakhon
nalar
naluri
nam
nama
namakan
namanya
namco
name
named
names
nami
namibia
namida
namun
nan
nana
nanang
nanas
nancy
nanda
nandi
nandini
nang
nanga
nanggroe
nangka
nani
nanjing
nanking
nano
nansen
nantes
nanti
nantinya
nao
naoki
naomi
napas
napitupulu
naples
napoleon
napoli
nara
narapidana
nararya
narasi
narasumber
naratif
narator
narayan
narita
narkoba
narkotika
narnia
naro
narrative
naru
naruto
nas
nasa
nasab
nasabah
nascar
nasdaq
nasdem
nash
nashville
nasi
nasib
nasibnya
nasihat
nasional
nasionalis
nasionalisasi
nasionalisme
nasionalnya
nasir
naskah
naskahnya
nasr
nasrani
nassau
nasser
nasution
nat
nata
natal
natalia
natalie
natalis
natasha
nate
nathan
nathaniel
nation
national
nationale
nationalism
nations
native
nato
natrium
natsir
natsu
natsuki
natsume
natsumi
natuna
natural
naturalis
nature
nauli
naungan
nauru
naval
navarra
navarro
naver
navigasi
navigation
navigator
navy
nawawi
naya
nazar
nazaret
nazareth
nazi
nazionale
nazir
nazisme
nb
nba
nbc
nc
ncaa
nchen
nchez
nct
nd
ndao
nde
ndez
nduga
ne
neal
near
neat
nebraska
nebukadnezar
nebula
nec
ned
nederland
nederlands
nederlandsch
nederlandse
nee
need
needham
needs
negara
negaranya
negarawan
negatif
negative
negeri
negerinya
negosiasi
negri
negro
negros
nehemia
nehru
neil
neill
nekat
nektar
nel
nelayan
nella
nelly
nelson
nemo
nen
nene
nenek
neneknya
neng
neo
neoempheria
neoklasik
neolitik
neolitikum
neolophonotus
neon
nepal
nepenthes
nephrotoma
neptunus
neraca
neraka
nero
nes
nest
nestle
nestor
nestorian
net
netanyahu
netflix
netherlands
netizen
neto
netral
netralitas
network
networks
neue
neumann
neuron
neutron
nevada
never
nevi
neville
nevis
new
newark
newcastle
newfoundland
newman
newport
news
newsletter
newspaper
newsweek
newton
next
nexus
nez
nf
nfc
nfl
ng
nga
ngabehi
ngada
ngaju
nganjuk
ngarai
ngawen
ngawi
ngc
nge
ngel
ngemplak
ngengat
ngetop
nggak
ngo
ngoko
ngurah
nguye
nguyen
nh
nha
nhk
nhl
ni
nia
niaga
nias
niat
niatnya
nic
nica
nice
nicea
nicholas
nichols
nicholson
nick
nickelodeon
nicki
nicky
nico
nicola
nicolas
nicole
nicolson
nie
niels
nielsen
niet
nietzsche
nieuw
nigel
niger
nigeria
night
nightmare
nights
nih
nihon
niigata
niis
nijhoff
nijmegen
nik
nikah
nikaragua
nike
nikea
nikel
niki
nikita
nikki
nikmat
niko
nikola
nikolai
nikolas
nikolaus
nikolay
nikotin
nil
nila
nilai
nilainya
nimfa
nin
nina
nine
nineteenth
ning
ningrat
nini
niniwe
ninja
nino
nintendo
nio
nipah
nippon
nir
nira
nirawak
nirbing
nirkabel
nirlaba
nirvana
nirwana
nis
nisa
nisan
niscaya
nishi
nissan
nita
nitrat
nitrogen
nixon
nj
nk
nkb
nkri
nl
nm
nmb
nme
no
noaa
noah
nobel
nobita
noble
nobody
nobunaga
noda
node
noe
noel
noer
nogizaka
noguchi
noh
noir
noise
nokia
nol
nolan
nomaden
nomenklatur
nomina
nominal
nominasi
nominated
nomination
nominee
nommensen
nomor
nomura
non
nona
nonaka
nonaktif
none
nonfiksi
nonlogam
nonstop
nonverbal
noor
nopember
nor
nora
norbert
nord
nordic
nordik
norfolk
nori
noriko
norma
normal
normalisasi
normalnya
norman
normandia
normatif
norodom
norris
norse
norte
north
northern
northrop
northumberland
northumbria
northwest
northwestern
norton
norway
norwegia
norwegian
norwich
nos
nose
nostalgia
not
nota
notaris
notasi
note
notes
nothing
notice
noto
notoc
notre
nottingham
nouveau
nouvelle
nov
nova
novak
novanto
novel
novelis
novelnya
november
novgorod
novi
novo
novum
now
nozomi
np
npr
npsn
nr
ns
nster
nsw
nt
ntb
nther
ntt
ntv
nu
nuansa
nube
nubia
nubuat
nubuatan
nuclear
nueva
nugini
nugraha
nugroho
nuh
nukleat
nukleotida
nukleus
nuklida
nuklir
number
numbers
numerik
numfor
nun
nuno
nunsiatur
nunsius
nunukan
nunung
nur
nurani
nurbaya
nurdin
nuremberg
nurhaliza
nuri
nurse
nurul
nusa
nusantara
nussbaum
nutrisi
nutrition
nv
nw
ny
nya
nyai
nyak
nyala
nyaman
nyamuk
nyanyi
nyanyian
nyaring
nyaris
nyata
nyatanya
nyawa
nyawanya
nyc
nyeri
nyi
nyoman
nyonya
nz
o
oak
oakland
oaks
oasis
ob
oba
obama
obat
obatan
obenberger
oberea
obereopsis
obesitas
obi
obituary
object
objek
objektif
oblast
obligasi
obor
obrolan
observasi
observations
observatorium
observatory
observer
obsesi
obyek
oc
occidental
occupation
ocean
oceania
och
oclc
oct
octavia
october
od
oda
odd
ode
oder
odessa
odin
odyssey
oe
oecd
oei
oey
of
ofc
ofensif
off
office
officer
official
offline
offset
often
og
ogan
oh
ohio
ohm
oi
oil
ois
oise
oita
oizumi
ojek
ojk
ok
oka
okada
okamoto
okayama
okezone
oki
okinawa
oklahoma
oknum
oksida
oksidasi
oksidatif
oksidator
oksigen
oktaf
oktavianus
oktober
oku
ol
ola
olaf
olah
olahan
olahraga
olahragawan
old
ole
oleg
oleh
olehnya
olga
oli
olimpiade
olive
oliveira
oliver
olivia
olivier
olok
olsen
olson
olympia
olympic
olympics
olympique
olympus
om
oma
oman
omar
ombak
ombudsman
omega
omiya
ommata
ommatius
omnibus
omong
ompu
on
once
ondel
onder
one
ones
ong
onger
ongkos
oni
onitis
online
only
onna
ono
ons
onsen
ontario
onthophagus
oo
oost
oostindische
op
opel
open
opening
opera
operasi
operasinya
operasional
operasionalnya
operating
operation
operations
operator
operatorname
opini
opinion
opium
oposisi
opposition
oprah
ops
opsi
opsional
opsir
optical
optik
optima
optimal
optimis
optimus
option
optis
opus
or
ora
oracle
oral
orang
orange
orangnya
orangtua
orangtuanya
orangutan
oranje
oranye
orb
orbit
orbital
orbiter
orbitnya
orbitrasi
orchard
orchestra
orchid
orchidaceae
orde
order
orders
ordinariat
ordinaris
ordinary
ordo
ordonansi
ore
oregon
org
organ
organel
organic
organik
organisasi
organisasinya
organisation
organisme
organization
organizations
ori
oricon
orient
oriental
orientalis
orientasi
orientation
origen
origenes
origin
original
originally
origins
orion
orisinal
orisinil
orkes
orkestra
orlando
orle
orleans
ormas
ornamen
orne
oro
orochimaru
orrell
ortega
orthodox
ortodoks
ortodoksi
ortografi
orton
os
osaka
osamu
osborne
oscar
oseania
oseanografi
oshima
osiris
osis
oskar
oslo
osman
osn
osprey
ossetia
ost
oswald
ot
ota
otak
otentik
other
others
otimes
otis
oto
otobiografi
otodidak
otoko
otomasi
otomatis
otomotif
otonom
otonomi
otoritas
otoriter
otot
ott
ottawa
otto
ottokar
ottoman
ou
ouest
our
out
outdoor
outer
outlet
outline
outlook
output
outside
outstanding
ouvrard
ov
ova
oval
ovarium
oven
over
overdosis
overseas
overture
overview
owen
owens
owl
own
owner
oxford
oxfordshire
oxyopes
oxyopidae
oxyrhynchus
oz
ozawa
ozon
p
pa
paban
pabandya
pabean
pablo
pabrik
pabrikan
pabriknya
pac
pacar
pacaran
pacarku
pacarnya
pace
pacific
pacitan
pack
package
packard
packet
pacu
pacuan
pad
pada
padahal
padaku
padalarang
padam
padamu
padanan
padang
padanya
padat
padatan
paddle
padepokan
padi
padilla
padjadjaran
padma
pado
padova
padri
paduan
paduka
padukone
padukuhan
pagan
paganisme
pagar
pagaruyung
page
pagelaran
pages
pagi
paginya
paglinawan
pagoda
pagu
paguyuban
paha
pahala
paham
pahang
pahat
pahatan
pahit
pahlavi
pahlawan
pai
pailit
pain
paine
painter
painting
paintings
pair
pajajaran
pajak
pajama
pajang
pak
pakai
pakaian
pakaiannya
pakan
pakar
pakatan
pakem
paket
pakis
pakistan
pakpak
paksa
paksaan
paksi
pakta
paku
pakualaman
pakuan
pakubuwana
pakubuwono
pal
pala
palabuhanratu
palace
paladium
palagan
palais
palang
palangka
palangkaraya
palapa
palas
palau
palawan
palawija
palazzo
pale
palearktik
palem
palembang
paleontologi
palermo
palestina
palestine
palestinian
palet
palgrave
pali
palimanan
paling
palm
palma
palme
palmer
palmerah
palo
paloh
palomar
palopo
palsu
palu
palung
pam
pama
paman
pamandanya
pamannya
pamekasan
pamela
pamen
pameran
pamflet
pamona
pamong
pamor
pamungkas
pan
panah
panahan
panama
panas
panasnya
panasonic
panca
pancaran
pancasila
panci
pancing
pancoran
pancur
pancuran
panda
pandai
pandan
pandang
pandangan
pandangannya
pandawa
pandeglang
pandemi
pandey
pandit
pandji
pandora
pandu
panduan
pane
panel
panembahan
panen
pang
pangan
pangandaran
pangasinan
pangdam
pangeran
panggabean
panggang
panggil
panggilan
panggilannya
panggul
panggung
panggungnya
pangkajene
pangkal
pangkalan
pangkalpinang
pangkat
pangkatnya
pangkep
pangkuan
panglima
pangsa
paniai
panic
panicum
panik
panitera
panitia
panjaitan
panjalu
panjang
panjangnya
panjat
panji
pankreas
panorama
pantai
pantainya
pantang
pantangan
pantas
pante
pantheon
panther
panti
pantulan
pantun
pantura
panutan
panwaslu
panyabungan
panzer
pao
paolo
papa
papan
paparan
paper
paperback
papers
papirus
paprika
papua
papyri
papyrus
par
para
parabola
parade
paradigma
paradise
paradoks
paragraf
paraguay
parah
parahyangan
parakan
paralel
paralimpiade
parallel
parameter
paramiliter
paramita
paramount
parang
paranormal
pararaton
paras
parasit
parasut
parazoa
parc
pardede
pare
parents
parepare
parfum
pari
pariaman
parigi
parikesit
paripurna
paris
parish
parit
pariwisata
park
parker
parkinson
parkir
parks
parlemen
parlementer
parliament
parliamentary
parma
parman
parodi
paroki
parpol
parsi
parsial
parsons
parsyah
part
partai
partainya
partement
parthia
partia
partial
parties
partikel
partikelir
partisan
partisi
partisipan
partisipasi
partner
partners
partnership
parts
party
paru
paruh
parung
parut
pas
pasa
pasadena
pasai
pasak
pasal
pasalnya
pasaman
pasang
pasangan
pasangannya
pasar
pasaran
pasaribu
pasarturi
pasca
pascal
pascaperang
pascasarjana
paser
pasgat
pasha
pashtun
pasi
pasien
pasif
pasifik
pasir
paska
paskah
paskhas
paskibra
paslon
paso
pasokan
paspor
pass
passage
passenger
passepartout
passing
passion
passport
past
pasta
pastel
pasteur
pasti
pastilah
pastinya
pastor
pastoral
pasukan
pasukannya
pasundan
pasuruan
pasya
pat
patah
patahan
patas
patch
patel
paten
patent
pater
path
pati
patih
patogen
patokan
patologi
patra
patri
patria
patriark
patriarkat
patricia
patrick
patriot
patriotik
patriotisme
patrol
patroli
patron
patterns
patterson
pattimura
patton
patty
patuh
patung
patungan
patut
pau
paud
pauh
paul
paula
pauli
pauline
paulo
paulus
paus
pausanias
pavel
pavia
pavilion
paviliun
paw
pawai
pawang
pax
pay
paya
payah
payakumbuh
payau
payne
pays
payudara
payung
paz
pb
pbb
pbs
pc
pcr
pd
pda
pdam
pdb
pdf
pdi
pdip
pdrb
pdt
pe
peabody
peace
peak
pearce
pearl
pearson
pebisnis
pecah
pecahan
pecahnya
pecandu
pecatur
pecel
pecinan
pecinta
peck
peckham
pedagang
pedal
pedalaman
pedang
pedangnya
pedas
pedesaan
pedoman
pedro
pedukuhan
peduli
peer
pegang
pegangan
pegas
pegasus
pegawai
pegawainya
peggy
pegiat
pegulat
pegunungan
pei
pejabat
pejalan
pejantan
pejuang
pek
peka
pekabaran
pekalongan
pekan
pekanbaru
pekarangan
pekat
pekerja
pekerjaan
pekerjaannya
pekerjanya
pekerti
peking
pekon
pekuburan
pela
pelabuhan
pelacak
pelacakan
pelacur
pelacuran
peladen
pelafalan
pelajar
pelajaran
pelajari
pelaksana
pelaksanaan
pelaksanaannya
pelaku
pelakunya
pelalawan
pelamar
pelampung
pelan
pelana
pelancong
pelanggan
pelanggannya
pelanggar
pelanggaran
pelangi
pelantikan
pelapis
pelapisan
pelapor
pelaporan
pelapukan
pelarangan
pelari
pelarian
pelarut
pelat
pelataran
pelatih
pelatihan
pelatuk
pelaut
pelawak
pelayan
pelayanan
pelayanannya
pelayaran
pelbagai
pele
pelebaran
peleburan
pelecehan
peledak
pelelangan
pelempar
pelengkap
pelepah
pelepasan
pelestarian
pelet
peletakan
peleton
peliharaan
pelindung
pelita
peloponnesos
pelopor
pelosok
peluang
peluit
pelukan
pelukis
pelumas
pelunasan
peluncur
peluncuran
peluncurannya
peluru
peluruhan
pemadam
pemadaman
pemahaman
pemahat
pemain
pemainnya
pemakai
pemakaian
pemakaiannya
pemakainya
pemakaman
pemakamannya
pemakan
pemaksaan
pemakzulan
pemalang
pemalsuan
pemalu
pemanah
pemanas
pemanasan
pemancar
pemancingan
pemandangan
pemandian
pemandu
pemanfaatan
pemanggilan
pemangku
pemangsa
pemanis
pemantau
pemantauan
pemasangan
pemasaran
pemasok
pemasukan
pemasyarakatan
pematang
pematangan
pematangsiantar
pematung
pembaca
pembacaan
pembacanya
pembagi
pembagian
pembaharuan
pembahasan
pembajak
pembajakan
pembakar
pembakaran
pembalap
pembalasan
pembalikan
pembangkang
pembangkit
pembangkitan
pembangun
pembangunan
pembangunannya
pembantaian
pembantu
pembaptis
pembaptisan
pembaruan
pembatalan
pembatas
pembatasan
pembawa
pembayaran
pembebasan
pembeda
pembedaan
pembedahan
pembekuan
pembela
pembelaan
pembelahan
pembelajaran
pembeli
pembelian
pembenahan
pembenaran
pembengkakan
pembentuk
pembentukan
pembentukannya
pemberangkatan
pemberani
pemberantasan
pemberdayaan
pemberhentian
pemberi
pemberian
pemberitaan
pemberitahuan
pemberkatan
pemberlakuan
pemberontak
pemberontakan
pembersih
pembersihan
pembesar
pembesaran
pembiakan
pembiayaan
pembicara
pembicaraan
pembimbing
pembina
pembinaan
pemblokiran
pembom
pemboman
pembongkaran
pembuahan
pembuangan
pembuat
pembuatan
pembuatannya
pembubaran
pembuka
pembukaan
pembukaannya
pembukanya
pembuktian
pembukuan
pembuluh
pembungkus
pembunuh
pembunuhan
pemburu
pembusukan
pemda
pemecah
pemecahan
pemecatan
pemegang
pemekaran
pemelihara
pemeliharaan
pemeluk
pemenang
pemenangnya
pementasan
pemenuhan
pemeran
pemerannya
pemerasan
pemerataan
pemerhati
pemerian
pemeriksa
pemeriksaan
pemerintah
pemerintahan
pemerintahannya
pemerkosaan
pemersatu
pemesanan
pemetaan
pemicu
pemikir
pemikiran
pemikirannya
pemilih
pemilihan
pemilihannya
pemilik
pemilikan
pemiliknya
pemilu
pemimpin
pemimpinnya
peminat
peminatan
pemindahan
pemindai
pemindaian
peminjaman
pemirsa
pemisah
pemisahan
pemkab
pemkot
pemodal
pemodelan
pemogokan
pemohon
pemotong
pemotongan
pemotretan
pemprov
pemrogram
pemrograman
pemrosesan
pemuatan
pemuda
pemudi
pemugaran
pemuja
pemujaan
pemuka
pemukim
pemukiman
pemukul
pemula
pemuliaan
pemulihan
pemungut
pemungutan
pemurnian
pemusatan
pemusik
pemusnahan
pemutakhiran
pemutar
pemutaran
pemutusan
pen
pena
penabur
penafsiran
penagihan
penahan
penahanan
penahbisan
penajam
penakluk
penaklukan
penalaran
penalti
penamaan
penambahan
penambang
penambangan
penampakan
penampang
penampil
penampilan
penampilannya
penampungan
penanaman
penanda
penandatangan
penandatanganan
penang
penanganan
penanggalan
penangguhan
penanggulangan
penanggung
penangkap
penangkapan
penangkaran
penantang
penari
penarik
penarikan
penasaran
penasehat
penasihat
penata
penataan
penataran
penatua
penawar
penawaran
penayangan
penayangannya
pencabutan
pencaharian
pencahayaan
pencairan
pencak
pencakar
pencalonan
pencalonannya
pencampuran
pencapaian
pencari
pencarian
pencatatan
pence
pencegahan
pencemaran
pencerahan
pencernaan
pencetak
pencetakan
pencetus
pencinta
pencipta
penciptaan
penciptanya
pencitraan
penciuman
pencobaan
pencucian
penculikan
pencuri
pencurian
pendaftar
pendaftaran
pendahulu
pendahuluan
pendahulunya
pendaki
pendakian
pendamaian
pendamping
pendampingan
pendanaan
pendapat
pendapatan
pendapatannya
pendapatnya
pendarahan
pendarat
pendaratan
pendataan
pendatang
pendayagunaan
pendayung
pendek
pendekar
pendekatan
pendeknya
pendengar
pendengaran
penderita
penderitaan
pendeta
pendiam
pendidik
pendidikan
pendidikannya
pendingin
pendinginan
pendiri
pendirian
pendiriannya
pendirinya
pendopo
pendorong
penduduk
pendudukan
penduduknya
pendukung
pendukungnya
penebangan
penebusan
penegak
penegakan
penegasan
penekanan
peneliti
penelitian
penelitiannya
penelope
penelusuran
penembak
penembakan
penempatan
penempatannya
penemu
penemuan
penemuannya
penentang
penentangan
penentu
penentuan
penerangan
penerapan
penerapannya
penerbang
penerbangan
penerbangannya
penerbit
penerbitan
penerima
penerimaan
penerjemah
penerjemahan
penerus
penerusnya
penetapan
penetrasi
peng
pengabdian
pengabdiannya
pengacara
pengadaan
pengadilan
pengaduan
pengairan
pengajar
pengajaran
pengajian
pengajuan
pengakuan
pengalaman
pengalamannya
pengalihan
pengaman
pengamanan
pengamat
pengamatan
pengambil
pengambilalihan
pengambilan
pengampunan
penganan
pengangguran
pengangkatan
pengangkatannya
pengangkut
pengangkutan
penganiayaan
pengantar
pengantin
penganugerahan
penganut
pengapalan
pengarah
pengarahan
pengarang
pengaruh
pengaruhnya
pengasih
pengasingan
pengasuh
pengasuhan
pengatur
pengaturan
pengawal
pengawalan
pengawalnya
pengawas
pengawasan
pengawet
pengawetan
pengebom
pengeboman
pengeboran
pengecekan
pengecer
pengecoran
pengecualian
pengejaran
pengelasan
pengelola
pengelolaan
pengelolaannya
pengelompokan
pengeluaran
pengemasan
pengembalian
pengembang
pengembangan
pengembangannya
pengembara
pengemis
pengemudi
pengenaan
pengenal
pengenalan
pengendali
pengendalian
pengendapan
pengendara
pengepungan
pengerahan
pengeras
pengerat
pengereman
pengeringan
pengerjaan
pengertian
pengesahan
pengetahuan
pengetahuannya
penggabungan
penggagas
penggalan
penggalangan
penggalian
penggambaran
pengganggu
pengganti
penggantian
penggantinya
penggarapan
penggemar
penggemarnya
penggembala
penggembalaan
penggerak
penggiat
penggilingan
penggolongan
penggugat
penggulingan
pengguna
penggunaan
penggunaannya
penggunanya
penghakiman
penghalang
penghambat
penghancur
penghancuran
penghantar
penghapusan
pengharapan
penghargaan
penghasil
penghasilan
penghematan
penghentian
penghibur
penghidupan
penghilangan
penghinaan
penghindaran
penghitungan
penghormatan
penghubung
penghujan
penghujung
penghukuman
penghulu
penghuni
penghuninya
pengibaran
pengidap
pengikat
pengikatan
pengiklan
pengikut
pengikutnya
penginapan
penginderaan
pengingat
penginjil
penginjilan
pengintai
pengintaian
pengiran
pengirim
pengiriman
pengiring
pengisi
pengisian
pengkajian
pengkhianat
pengkhianatan
pengkhotbah
pengkodean
penglihatan
pengobatan
pengolah
pengolahan
pengontrol
pengoperasian
pengorbanan
pengorganisasian
pengrajin
penguapan
penguasa
penguasaan
penguat
penguatan
pengubahan
penguburan
pengucapan
penguin
penguji
pengujian
pengukuhan
pengukur
pengukuran
pengulangan
pengulas
pengumpan
pengumpul
pengumpulan
pengumuman
pengundangan
pengundian
pengunduran
pengungkapan
pengungsi
pengungsian
pengunjuk
pengunjung
penguraian
pengurangan
pengurus
pengurusan
pengurutan
pengusaha
pengusahaan
pengusiran
penh
penikmat
penilaian
penimbunan
penindasan
peninggalan
peningkatan
peninjauan
peninsula
penipu
penipuan
penis
penistaan
penjabaran
penjabat
penjadwalan
penjaga
penjagaan
penjahat
penjahit
penjajah
penjajahan
penjamin
penjaminan
penjara
penjarahan
penjelajah
penjelajahan
penjelasan
penjelasannya
penjelmaan
penjual
penjualan
penjualannya
penjumlahan
penjuru
penn
pennsylvania
penny
penobatan
penolakan
penolong
penomoran
penonton
penontonnya
penopang
pensil
pensinyalan
pensiun
pensiunan
pensiunnya
pentagon
pentakosta
pentas
penting
pentingnya
pentium
penuaan
penugasan
penuh
penularan
penulis
penulisan
penulisannya
penulisnya
penumpang
penumpangnya
penumpasan
penumpukan
penundaan
penunggang
penunjang
penunjuk
penunjukan
penuntun
penuntut
penuntutan
penurunan
penutup
penutupan
penutupnya
penutur
penuturan
penuturnya
penyair
penyajian
penyakit
penyakitnya
penyalahgunaan
penyaliban
penyaluran
penyamaran
penyambung
penyambutan
penyampaian
penyandang
penyangga
penyangkalan
penyanyi
penyapu
penyaring
penyaringan
penyatuan
penyayang
penyebab
penyebabnya
penyebar
penyebaran
penyebarannya
penyeberangan
penyebutan
penyedap
penyederhanaan
penyedia
penyediaan
penyeimbang
penyelam
penyelamat
penyelamatan
penyelenggara
penyelenggaraan
penyelesaian
penyelidik
penyelidikan
penyelundupan
penyembah
penyembahan
penyembuhan
penyempurnaan
penyensoran
penyerahan
penyerang
penyerangan
penyerapan
penyerbuan
penyerbukan
penyergapan
penyertaan
penyesalan
penyesuaian
penyewa
penyewaan
penyiapan
penyiar
penyiaran
penyidik
penyidikan
penyihir
penyiksaan
penyimpan
penyimpanan
penyimpangan
penyintas
penyintesis
penyisihan
penyitaan
penyu
penyucian
penyulingan
penyuluhan
penyumbang
penyunting
penyuntingan
penyusun
penyusunan
penyusutan
penyutradaraan
penyutradaraannya
people
peoples
pepanthan
pepatah
pepaya
pepe
peperangan
pepohonan
pepper
peppers
pepsi
peptida
per
perabot
perabotan
peradaban
peradangan
peradilan
peraga
peragaan
peragawati
perah
perahu
peraih
perairan
perak
perakitan
peralatan
peralihan
peramal
peramban
perampasan
perampok
perampokan
peran
peranakan
peranan
peranannya
perancang
perancangan
perancis
perang
perangkap
perangkat
perangko
perangnya
perannya
perantara
perantaraan
perantau
perantauan
peranti
perapian
perasaan
perasaannya
peraturan
perawan
perawat
perawatan
perayaan
perbaikan
perbandingan
perbankan
perbara
perbatasan
perbedaan
perbedaannya
perbekalan
perbelanjaan
perbendaharaan
perbincangan
perbuatan
perbuatannya
perbudakan
perbukitan
perburuan
perburuhan
percabangan
percakapan
percampuran
percaya
percepatan
perceraian
percetakan
percikan
percintaan
percobaan
percontohan
percussion
percy
perda
perdagangan
perdamaian
perdana
perdanakusuma
perdananya
perdarahan
perdata
perdebatan
perdesaan
perdu
pereaksi
perebutan
peredam
peredaran
pereira
perekam
perekaman
perekat
perekonomian
perekrutan
perempat
perempatan
perempatfinal
perempuan
perempuannya
perenang
perencana
perencanaan
peresmian
peretas
perez
perfect
perfilman
performa
performance
performed
performing
pergantian
pergaulan
pergelangan
pergelaran
pergerakan
pergeseran
pergi
pergilah
pergolakan
perguruan
perhatian
perhatiannya
perhatikan
perhelatan
perhentian
perhiasan
perhimpunan
perhitungan
perhotelan
perhubungan
perhutani
peri
peribadatan
peribahasa
perihal
perikanan
perikatan
periklanan
perikop
perilaku
perilakunya
perilisan
perilisannya
perimbangan
perincian
perindustrian
peringatan
peringkat
perintah
perintahnya
perintis
period
periode
periodik
perisai
peristirahatan
peristiwa
periuk
perizinan
perjalanan
perjalanannya
perjamuan
perjanjian
perjoangan
perjodohan
perjuangan
perjuangannya
perjudian
perkakas
perkalian
perkamen
perkampungan
perkantoran
perkapalan
perkara
perkasa
perkataan
perkawinan
perkawinannya
perkebunan
perkelahian
perkemahan
perkembangan
perkembangannya
perkembangbiakan
perkenalan
perkeretaapian
perkins
perkiraan
perkosaan
perkotaan
perkuliahan
perkumpulan
perkusi
perlahan
perlakuan
perlawanan
perlengkapan
perlindungan
perlintasan
perlis
perlombaan
perlu
perluasan
perlunya
permai
permainan
permainannya
permaisuri
permana
permanen
permanent
permasalahan
permata
permen
permesinan
permesta
permias
permintaan
permintaannya
perminyakan
permohonan
permukaan
permukaannya
permukiman
permulaan
permusuhan
permusyawaratan
permutasi
pernafasan
pernah
pernapasan
perniagaan
pernik
pernikahan
pernikahanku
pernikahannya
pernyataan
pernyataannya
pero
perokok
peroksida
peroleh
perolehan
perombakan
perompak
peron
perorangan
perpaduan
perpajakan
perpanjangan
perpecahan
perpindahan
perpisahan
perpustakaan
perputaran
perrier
perrin
perry
pers
persada
persahabatan
persaingan
persalinan
persamaan
persatu
persatuan
persaudaraan
persawahan
persebaran
persebaya
persediaan
persegi
persekutuan
persela
perselingkuhan
perselisihan
persemakmuran
persembahan
persembunyian
persen
persengketaan
persenjataan
persentase
persentasi
perseorangan
persepsi
perserikatan
persero
perseroan
perseteruan
persetujuan
perseus
persia
persian
persiapan
persib
persiba
persidangan
persija
persik
persikabo
persilangan
persim
persimpangan
persinggahan
persinyalan
persipura
persis
persita
persoalan
person
persona
personal
personality
personel
personifikasi
personil
personnel
persons
perspective
perspectives
perspektif
persyaratan
pertahanan
pertahun
pertama
pertamanya
pertambahan
pertambangan
pertamina
pertanahan
pertanda
pertandingan
pertanggungjawaban
pertanian
pertanyaan
pertapa
pertapaan
pertarungan
pertelevisian
pertemanan
pertempuran
pertemuan
pertemuannya
pertengahan
pertengkaran
pertentangan
perth
pertiga
pertigaan
pertikaian
pertimbangan
pertiwi
pertobatan
pertokoan
pertolongan
pertuan
pertukaran
pertumbuhan
pertumbuhannya
pertumpahan
pertunangan
pertunjukan
pertunjukkan
peru
perubahan
perum
perumahan
perumnas
perumpamaan
perumusan
perundang
perundangan
perundingan
perunggu
perusahaan
perusahaannya
perusahan
perusak
perusakan
perut
perutnya
perwakilan
perwakilannya
perwalian
perwira
perwujudan
pes
pesaing
pesaingnya
pesan
pesanan
pesanggrahan
pesantren
pesat
pesatnya
pesawaran
pesawat
pesawatnya
pesepak
pesepakbola
peserta
pesiar
pesilat
pesisir
peso
pesona
pesta
pestisida
pesulap
pet
peta
petahana
petak
petaka
petaling
petang
petani
petarung
pete
petenis
peter
peterburg
peternak
peternakan
peterpan
peters
petersburg
peterson
peti
petik
petikan
petilasan
petinggi
petinju
petir
petisi
petit
petra
petro
petrokimia
petroleum
petronas
petrov
petrucci
petrus
petta
petty
petualang
petualangan
petugas
petunjuk
peugeot
peureulak
peusangan
pewaris
pewarisan
pewarna
pewarnaan
pewayangan
pez
peziarah
pfa
pfalz
pfeiffer
pg
pga
pgi
pgri
ph
pha
phane
phantom
phase
phd
phi
phil
philadelphia
phileas
philharmonic
philip
philipp
philippe
philippine
philippines
philips
phillip
phillips
philosophical
philosophy
phineas
phlegmariurus
phnom
pho
phoebe
phoenix
phone
photo
photograph
photographic
photographs
photography
photos
php
phra
phronia
phu
phyllis
physical
physics
phytomyza
pi
pia
piagam
piaget
piala
pialang
pianis
piano
piast
piatu
piazza
pic
picasso
piccolo
pick
pickup
picture
pictures
pidana
pidato
pidatonya
pidie
pidonia
pie
piece
pieces
piedmont
pier
pierce
piero
pierre
piet
pieter
pietro
pig
pigmen
pihak
pihaknya
pii
pijakan
pijar
pijat
pik
pikachu
pikatan
pike
pikir
pikiran
pikirannya
piksel
pil
pilar
pilatus
pilbup
pilgub
piliang
pilih
pilihan
pilihannya
pilkada
pilot
pilots
pilpres
pim
pimpin
pimpinan
pimpinannya
pin
pinang
pindad
pindah
pindahan
pine
ping
pinggang
pinggir
pinggiran
pinggul
pingsan
pinjam
pinjaman
pink
pinrang
pintar
pintas
pinto
pintu
pinus
pinyin
pio
pion
pioneer
pionir
pipa
piper
pipi
pipih
pipit
pippin
piquet
pir
piramida
pirang
pirate
pirates
pires
piring
piringan
pisa
pisah
pisang
pisau
pistol
piston
pit
pita
pitch
pitt
pittsburgh
pitu
pitung
pius
piutang
pixar
pixel
pizza
pj
pjs
pk
pkb
pki
pkj
pkk
pkr
pks
pkt
pl
pla
place
places
plain
plains
plak
plakat
plan
planck
plane
planet
planetary
planetisimal
planets
plankton
planned
planning
plans
plant
plants
plasma
plasmodium
plastic
plastik
plat
plata
plate
platform
platina
platinum
platipus
platnick
plato
plawad
play
playback
playboy
played
player
players
playing
playoff
plays
playstation
plaza
plc
please
pleistosen
pleno
plered
plinius
pln
plo
ploso
plot
plotarea
plotdata
plt
plta
pltn
pltu
plug
pluit
pluralisme
plus
plutarch
plutarkhos
pluto
plutonium
plymouth
pm
pmatrix
pmi
pmid
pmii
pmk
pmr
pn
pnb
pneumonia
png
pni
pnpm
pnri
pns
po
poaceae
poales
pob
poblacion
poci
pocket
pocong
pod
podcast
podium
poe
poem
poems
poet
poetry
poets
pogba
pohan
pohon
pohuwato
poin
point
points
poison
poitiers
pojok
poke
pokemon
poker
pokok
pokoknya
pol
pola
poland
polandia
polar
polarisasi
polda
pole
polemik
polen
polewali
poli
police
policies
policy
poliester
poligami
poligon
poliklinik
polimer
polimerase
polinesia
polinomial
polio
polis
polisakarida
polish
polisi
politbiro
politeknik
political
politics
politik
politiknya
politikus
politis
politisi
poll
polling
polly
polo
polong
polos
polres
polresta
polri
polsek
polski
polusi
polutan
poly
pom
pomerania
pommern
pompa
pompeii
pon
pond
pondasi
pondok
pong
poni
ponorogo
ponpes
ponsel
ponsonby
pont
pontianak
pony
pooja
pool
poole
poor
pop
pope
poppy
popular
popularitas
popularitasnya
popularity
populasi
populasinya
population
populer
por
pori
porifera
poris
porno
pornografi
porong
poros
porsche
porselen
porsi
port
porta
portabel
portable
portal
porte
porter
portland
portnoy
porto
portofolio
portrait
portraits
portsmouth
portugal
portugis
portuguese
pos
pose
poseidon
posisi
posisinya
positif
position
positive
poso
possible
post
poster
posterior
posting
postingan
postur
posyandu
pot
potensi
potensial
potential
potentilla
potong
potongan
potret
potsdam
potter
pound
pour
poverty
powell
power
powerful
powerplant
powers
powiat
poznan
pp
ppd
ppen
pph
ppi
ppk
ppki
ppm
ppn
ppp
pps
pr
pra
prabowo
prabu
prabumulih
practical
practice
practices
pradesh
praeger
prague
praha
prairie
praja
prajurit
prajuritnya
prakarsa
prakash
praktek
praktik
praktiknya
praktis
praktisi
prambanan
pramoedya
pramono
pramugari
pramuka
pranala
pranata
prancis
prangko
prasad
prasangka
prasarana
prasasti
prasejarah
prasetya
prasetyo
prasyarat
pratama
pratap
pratt
prayer
pre
precious
precure
predator
predikat
prediksi
preface
prefek
prefektur
preferensi
prefiks
prekuel
prekursor
prelatur
prelatus
preliminary
prelude
prem
preman
prematur
premi
premier
premiere
premis
premium
prentice
pres
presbiter
presbiterian
presbyterian
prescott
presence
present
presentasi
presentation
presented
presenter
presents
preservation
presiden
presidennya
presidensial
president
presidential
presidium
presipitasi
presisi
presley
press
pressure
prestasi
prestasinya
prestise
prestisius
preston
pretty
prevalensi
prevention
preview
pri
pria
priangan
pribadi
pribadinya
pribumi
price
pride
priest
priestley
prihatin
prima
primadona
primary
primata
prime
primer
primera
primetime
primitif
primordial
primus
prince
princess
princeton
principal
principe
principle
principles
pringsewu
prinsip
prinsipnya
print
printed
printer
printing
priok
prior
prioritas
priscilla
prism
prisma
prison
prisoner
privasi
privat
private
privatisasi
prix
priya
priyanka
prize
pro
probabilitas
probe
problem
problems
probolinggo
proceedings
process
processing
prodeskel
prodi
produce
produced
producer
producers
product
production
productions
products
produk
produknya
produksi
produksinya
produktif
produktivitas
produsen
produser
prof
profesi
profesinya
profesional
profesionalisme
profesionalnya
profesor
professional
professor
profil
profile
profit
progo
program
programme
programmer
programming
programnya
programs
progresif
progress
progressive
project
projects
projek
proklamasi
proletar
proletariat
proliferasi
prolog
promachus
prometheus
promise
promo
promosi
promotion
promotor
pronomina
proof
propaganda
propelan
proper
properti
properties
property
prophet
propinsi
proporsi
proporsional
proposal
proposed
proposisi
propulsi
prosa
prosedur
proses
prosesi
prosesnya
prosesor
prosopocera
prospek
prost
prostat
prostitusi
protagonis
protease
protection
protein
proteksi
protektorat
protes
protestan
proto
protocol
protokol
proton
prototipe
prototype
protozoa
proud
prov
provence
providence
provider
province
provincial
provinsi
provisional
proyek
proyeksi
proyektil
proyektor
prri
prunus
prusia
prussia
przemysł
ps
psapharochrus
pseudo
psi
psikiater
psikiatri
psikis
psikoanalisis
psikolog
psikologi
psikologis
psikotropika
psis
psk
psm
psms
psp
pss
pssi
psv
psycho
psychological
psychology
psychotria
pt
pte
pterelachisus
pterolophia
ptik
ptn
ptolemaik
ptolemaios
ptolemy
ptpn
pts
pu
puak
puan
puas
puasa
pub
pubertas
public
publication
publications
publik
publikasi
published
publisher
publishers
publishing
publisitas
publius
pucat
pucuk
puding
puerto
puger
puing
puisi
puisinya
puitis
puja
pujaan
pujangga
puji
pujian
pukul
pukulan
pula
pulalah
pulang
pulau
pulih
pulitzer
pullman
pulo
pulp
pulsa
pulsar
pulse
puluh
puluhan
pulung
puma
pun
punah
punca
puncak
puncaknya
punch
pundak
punden
punggawa
punggung
punggungnya
pungutan
punjab
punjabi
punk
punta
punya
pupil
pupuh
pupuk
pura
purabaya
purana
purba
purbakala
purbalingga
pure
puri
puritan
purn
purna
purnama
purnawirawan
purnomo
purple
purpose
pursuit
puru
purwa
purwakarta
purwanto
purwarupa
purwodadi
purwokerto
purworejo
purwosari
pus
pusaka
pusaran
pusat
pusatnya
push
pusing
puskesmas
puspa
puspita
pustaka
pustakawan
put
putar
putaran
putera
puteranya
puteri
puti
putih
putin
puting
putnam
putra
putranya
putri
putrinya
putu
putus
putusan
puyuh
puzzle
pv
pvt
pw
pwi
px
pyaar
pyo
pyongyang
pyotr
pyramid
pyre
pythagoras
python
q
qa
qadir
qaeda
qais
qantas
qanun
qasim
qatar
qf
qi
qian
qin
qing
qiu
qquad
qr
qs
qu
qua
quad
quake
quality
quan
quang
quantum
quarter
quarterly
quartet
qub
que
quebec
queen
queens
queensland
queer
quentin
quest
question
questions
quezon
qui
quick
quiet
quincy
quinn
quito
quiz
qumran
quo
quote
quoted
qur
quraisy
quran
r
ra
raad
rab
rabat
rabaul
rabbi
rabbit
rabi
rabies
rabu
race
racer
races
raceway
rachel
rachman
rachmat
racing
racun
rad
rada
radang
radar
raden
radha
radial
radiasi
radiator
radical
radikal
radio
radioaktif
radiohead
radioisotop
radiologi
raditya
radium
radius
radja
radon
rae
raf
rafael
rafale
raffi
raffles
rafi
raga
ragam
rage
ragi
ragu
ragunan
rah
raha
rahang
rahardjo
raharja
rahasia
rahayu
rahel
rahib
rahim
rahma
rahmah
rahman
rahmat
rahul
rahwana
rai
raid
raider
raiders
raih
raihan
raikkonen
rail
railroad
railway
railways
rain
rainbow
rainer
rais
raisa
raj
raja
rajab
rajagaluh
rajah
rajanya
rajasa
rajasthan
rajawali
rajesh
rajin
rajo
rajput
raju
rak
raka
rakai
rakit
rakitan
rakjat
rakryan
raksa
raksasa
rakyat
rakyatnya
ralf
rally
ralph
ram
rama
ramadan
ramadhan
ramah
ramai
ramalan
raman
ramayana
rambah
rambu
rambut
rambutan
rambutnya
ramen
rami
ramli
rammang
ramo
ramon
ramos
rampai
rampasan
ramping
rampung
ramsay
ramses
ramsey
ramuan
ran
rana
ranah
rancang
rancangan
rancangannya
ranch
rand
randall
randolph
random
randy
rang
range
ranger
rangers
rangga
rangka
rangkaian
rangkap
rangkasbitung
rangkuman
rangle
rangsang
rangsangan
rani
ranjang
ranjau
rank
ranking
rankings
rano
rantai
rantau
ranti
ranting
rao
raoul
rap
rapat
rape
raphael
rapi
rapid
rapids
rapinoe
rappang
rapper
rapuh
rara
rard
rare
ras
rasa
rasakan
rasanya
rashi
rashid
rasi
rasial
rasio
rasional
rasionalisme
rasis
rasisme
rasmussen
rasputin
rasta
rasul
rasulullah
rasuna
rasyid
rasyidin
rat
rata
ratapan
rate
rather
ratifikasi
ratih
rating
ratio
ration
ratna
ratu
ratulangi
ratus
ratusan
rau
raul
raven
ravenna
ravi
raw
rawa
rawamangun
rawan
rawas
rawat
rawit
ray
raya
rayap
rayeuk
raymond
rayon
raytheon
razak
razi
rb
rc
rca
rchb
rcti
rd
rdoba
re
rea
reaction
reactor
read
reader
readers
reading
ready
reagan
reagen
reaksi
reaktif
reaktor
real
realis
realisasi
realisme
realistis
realita
realitas
reality
really
rear
reason
rebana
rebecca
rebel
rebellion
rebo
reborn
rebound
rebus
rebusan
rebutan
rec
received
receiver
recent
receptus
recipe
recognition
reconnaissance
reconstruction
record
recorded
recording
recordings
records
recovery
rect
red
redaksi
redaktur
reddy
rede
redoks
reds
reduksi
redup
reed
reef
reel
rees
reese
reeves
ref
reference
references
referendum
referensi
reflections
refleks
refleksi
reform
reformasi
reformation
reformed
reformis
refrain
reg
regard
regarding
regazzoni
regency
regenerasi
regent
reggae
regia
regime
regiment
regina
reginald
region
regional
regions
register
registrasi
registry
regnum
regresi
regu
regular
regulasi
regulator
reguler
rehabilitasi
rei
reich
reichstag
reid
reign
reiko
reilly
reims
reina
reinhard
reinhold
reinkarnasi
reis
rejang
rejo
rejosari
rekam
rekaman
rekamannya
rekan
rekannya
rekapitulasi
rekayasa
rekening
rekha
reklamasi
rekomendasi
rekonsiliasi
rekonstruksi
rekor
rekreasi
reksa
rektor
rel
rela
relai
relaksasi
relasi
related
relatif
relating
relation
relations
relationship
relative
relativitas
relawan
relay
release
released
releases
relevan
relevansi
reli
relief
religi
religion
religions
religious
religius
relik
relikui
relokasi
relung
rem
remaco
remains
remaja
remajanya
remake
rembang
rembrandt
rembulan
remember
remi
remix
remote
rempah
remy
ren
rena
renai
renaisans
renaissance
renang
renault
rencana
rencananya
rendah
rendahnya
rendang
rendra
rendy
rene
rennes
reno
renovasi
rentan
rentang
rentetan
renungan
renyah
reog
reorganisasi
rep
repertoar
replika
replikasi
reply
report
reporter
reports
repositori
repository
representasi
representatif
representative
representatives
represi
reprint
reprinted
reproduksi
reptil
reptile
republic
republican
republik
republika
republikan
reputasi
reputasinya
request
requiem
required
rer
rerata
rerumputan
reruntuhan
res
rescue
research
resensi
resep
resepsi
reseptor
reserse
reservasi
reserve
reservoir
resesi
resi
residen
residence
resident
residu
resimen
resin
resistance
resistansi
resisten
resistensi
resistor
reskrim
resmi
resmikan
resminya
resolusi
resolution
resonansi
resor
resort
resorts
resource
resources
respect
respirasi
respon
responden
respons
response
responsibility
ressort
rest
restaurant
restoran
restorasi
restoration
restrukturisasi
restu
result
results
resurrection
retail
retak
retakan
retina
retno
retorika
retribusi
retrieved
retro
return
returns
reuben
reuni
reunifikasi
reunion
reuters
rev
revealed
revenge
reverse
review
reviews
revised
revisi
revision
revisited
revitalisasi
revival
revolusi
revolusioner
revolution
revolutionary
revolver
revue
rex
rey
reyes
reykjavi
reynolds
rez
reza
rezeki
rezim
reznov
rf
rfc
rg
rgb
rgen
rh
rhaphuma
rhapsody
rhea
rhein
rhine
rho
rhode
rhodes
rhodesia
rhododendron
rhoma
rhys
rhythm
ri
ria
riaa
riam
rian
riang
rias
riau
riba
ribbon
ribosom
ribu
ribuan
ribut
ric
rica
ricardo
ricci
ricciardo
rice
rich
richard
richards
richardson
richie
richmond
richter
rick
ricky
rico
rida
riddle
ride
rider
riders
ridge
ridho
riding
ridl
ridley
ridwan
rie
riemann
rif
riff
rifle
riga
right
rightarrow
rights
rihanna
riil
rika
riko
riley
rilis
rilisan
rilisnya
rim
rima
rimba
rin
rina
rinci
rincian
rindu
ring
ringan
ringgit
ringkas
ringkasan
ringo
rings
rini
rino
rinpoche
rintangan
rintisan
rinto
rio
riot
rip
ripper
riri
ris
risa
risalah
rise
riset
rishi
risiko
rising
risk
rita
ritchie
rite
ritel
ritme
ritter
ritual
ritus
rival
river
rivera
rivers
riverside
riwayat
riya
riyadh
riyadi
riyanto
riza
rizal
rizki
rizky
rj
rk
rl
rm
rms
rn
rna
rnberg
rnten
ro
roach
road
roadblock
rob
robbie
robbins
robby
robek
robert
roberto
roberts
robertson
robin
robinson
robo
roboh
robot
robotik
robotika
robusta
roc
roche
rochester
rock
rockefeller
rocker
rocket
rockets
rocks
rockwell
rocky
rod
roda
rodgers
rodney
rodri
rodrigo
rodrigues
rodriguez
roe
roger
rogers
rogue
roh
rohan
rohani
rohaniwan
rohis
rohit
roi
rok
rokan
roket
rokok
rol
roland
role
rolf
roll
roller
rollies
rolling
rollins
rolls
roly
rom
roma
romagna
romain
roman
romana
romance
romani
romania
romanian
romanisasi
romano
romanov
romans
romansa
romantic
romantik
romantis
romawi
rombongan
rome
romeo
romero
romo
romulus
ron
rona
ronald
ronaldo
ronda
ronde
rong
rongga
ronggeng
roni
ronnie
ronny
roof
rookie
room
rooney
roosevelt
root
roots
ropica
roque
roro
rory
ros
rosa
rosales
rosario
rosberg
rose
rosemary
rosen
rosenberg
roses
rosetta
rosh
roshan
rosie
roskov
ross
rossa
rossi
rosso
rotan
rotasi
rotation
rote
roth
rothschild
roti
rotor
rotten
rotterdam
rouen
rouge
rough
round
rousseau
route
router
routledge
rover
rovers
row
rowan
rowland
rowling
rowman
roy
royal
royale
royalti
royce
royong
rp
rpa
rpg
rpm
rquez
rr
rrez
rri
rrt
rs
rsi
rss
rsssf
rsu
rsud
rt
rte
rth
rttemberg
rtv
ru
ruam
ruang
ruangan
ruas
rubah
rubber
rubel
ruben
rubens
rubiaceae
rubiah
rubin
rubrik
ruby
rudal
rudd
rudi
rudini
rudolf
rudolph
rudy
rue
ruf
rufus
rugbi
rugby
rugi
rui
ruiz
rujak
rujukan
rukh
ruko
rukun
rule
rulers
rules
rum
rumah
rumahan
rumahnya
rumania
rumbai
rumbia
rumble
rumi
rumit
rumor
rumpun
rumput
rumus
rumusan
run
runcing
runduk
rune
runner
runners
running
runtuh
runtuhnya
runway
rupa
rupanya
rupert
rupiah
rural
rus
rusa
rusak
rusaknya
rusdi
rush
rusia
ruslan
rusli
russel
russell
russia
russian
russo
rustam
rusuk
rusyd
rut
rute
ruth
rutherford
rutin
rutinitas
ruu
rv
rw
rwanda
rx
ry
ryan
ryder
ryo
ryu
ryuga
ryukyu
rz
rzburg
s
sa
saa
saab
saad
saat
saatnya
saba
sabah
saban
sabana
sabang
sabar
sabat
sabbath
sabda
saber
sabha
sabit
sabotase
sabrina
sabtu
sabu
sabuk
sabun
sac
sachs
sachsen
sacra
sacramento
sacred
sad
sadar
sadarkan
saddam
sadikin
sadis
sado
sae
safari
safe
safety
safira
saga
sagan
sage
sagi
sagu
sah
sahabat
sahabatnya
sahaja
saham
sahamnya
sahara
sahid
sahih
sahli
sahu
sahur
sai
said
saif
saifuddin
saiful
saigon
sail
sailor
saing
saingan
saingannya
sains
saint
sainte
saintifik
saints
sainz
saitama
saito
saja
sajak
saji
sajian
saka
sakai
sakamoto
sake
sakhalin
saki
saking
sakit
sakitnya
sakral
sakramen
saksama
saksi
saksofon
sakti
saku
sakura
sakurai
sal
sala
salad
salah
salahuddin
salak
salam
salamander
salat
salatiga
salazar
saldo
sale
saleh
salem
salemba
salerno
sales
sali
salib
salih
salim
salinan
saling
salisbury
salju
sally
salma
salman
salmon
salo
salome
salomo
salomon
salon
salt
salticidae
saluran
salvador
salvatore
salvia
salzburg
sam
sama
samad
saman
samantha
samar
samaran
samaria
samarinda
samarkand
samba
sambal
sambas
sambil
sambung
sambungan
sambutan
same
samguk
sami
samin
sammy
samoa
samosir
sampah
sampai
sampaikan
sampailah
sampan
sampang
sampdoria
sampel
samping
sampingan
sampingnya
sampit
sample
sampling
sampoerna
sampul
samson
samsu
samsung
samudera
samudra
samuel
samurai
san
sana
sanad
sanak
sanalah
sanchez
sancho
sanctuary
sand
sandal
sandang
sandaran
sandera
sanders
sandi
sandiaga
sandiwara
sandra
sands
sandwich
sandy
sang
sanga
sangat
sangatlah
sangatta
sanger
sanggar
sanggau
sanggul
sanggup
sangha
sanghyang
sangihe
sangka
sangkar
sanherib
sani
sanitasi
sanjak
sanjay
sanjaya
sanksi
sankt
sano
sans
sansekerta
sanskerta
sanskrit
sant
santa
santai
santan
santana
santander
santang
santi
santiago
santo
santos
santosa
santoso
santri
santun
sanur
sanusi
sao
sap
sapa
sapaan
saparua
sapi
sapiens
sapphire
sapporo
sapta
sapu
saputra
sar
sara
saraf
saragih
sarah
sarajevo
saran
sarana
sarang
sarapan
saras
saraswati
sarat
sarawak
sardi
sardinia
sarekat
sargassum
sargon
sari
sarjana
sarolangun
saropogon
sars
sartono
sartre
sarung
sas
sasak
sasaki
sasana
sasaniyah
sasaran
sasha
sashihara
sasis
saskatchewan
sastra
sastrawan
sasuke
sat
satan
sate
satelit
satellite
satgas
sati
satir
sato
satoru
satoshi
satpam
satria
satrio
satsuma
satu
satuan
satunya
satupun
saturday
saturn
saturnus
satwa
satya
satyalancana
satyalencana
sauber
saud
saudagar
saudara
saudaranya
saudari
saudarinya
saudi
saul
saunders
saus
savage
savannah
save
saving
savoia
savoy
saw
sawa
sawah
sawahan
sawahlunto
sawang
sawangan
sawi
sawit
sawo
sawyer
saxe
saxon
saxony
say
saya
sayaka
sayang
sayangnya
sayap
sayapnya
sayembara
sayid
sayonara
says
sayur
sayuran
sayyid
sb
sbb
sbg
sbs
sbsn
sby
sc
scale
scalemajor
scan
scandal
scania
scar
scarabaeidae
scarabaeus
scarecrow
scarlet
scene
scenes
sch
schalke
scheckter
schengen
schleswig
schltr
schmidt
schneider
scho
scholar
scholarly
scholars
scholarship
school
schools
schro
schu
schuit
schulz
schumacher
schumi
schuster
schwartz
schwarz
sci
science
sciences
scientific
scientist
scientists
sciophila
scooby
scopula
score
scorsese
scotia
scotland
scott
scottish
scout
scr
scream
screen
screenplay
scribner
script
scripture
scroll
scrolls
sctv
scuderia
sculpture
sd
sda
sdk
sdm
sdn
sdr
sds
se
sea
seabad
seakan
seal
sean
seandainya
seantero
searah
search
sears
seas
season
seasons
seat
seattle
sebab
sebabnya
sebagai
sebagaimana
sebagainya
sebagi
sebagian
sebahagian
sebaik
sebaiknya
sebaliknya
sebanding
sebanyak
sebaran
sebastia
sebastian
sebatang
sebatas
sebelah
sebelahnya
sebelas
sebelum
sebelumnya
sebenarnya
sebentar
seberang
seberapa
seberat
sebesar
sebetulnya
sebidang
sebuah
sebulan
sebut
sebutan
sec
secara
secepat
secepatnya
second
secondary
seconds
secret
secretary
secrets
section
sections
sector
secukupnya
securities
security
sed
sedalam
sedan
sedang
sedangkan
sedap
sedarah
sedari
sedayu
sede
sedekah
sedemikian
sederajat
sederet
sederhana
sedia
sediaan
sedih
sedikit
sedikitnya
sedikitpun
sedimen
sedimentasi
sedunia
see
seed
seekor
seen
sega
segala
segalanya
segan
segar
segara
segaris
segel
segelintir
segenap
segera
segi
segitiga
segmen
segunda
seharga
sehari
seharusnya
sehat
sehelai
sehingga
sehubungan
sei
seibu
seifuku
seiji
seiko
seimbang
sein
seine
seinen
seiring
seishun
seismik
seiya
seiyu
seiyuu
sejahtera
sejajar
sejak
sejalan
sejarah
sejarahnya
sejarahwan
sejarawan
sejati
sejatinya
sejauh
sejawat
sejenak
sejenis
sejenisnya
sejong
sejuk
sejumlah
sejuta
sek
sekadar
sekadau
sekai
sekali
sekalian
sekaligus
sekalipun
sekar
sekarang
sekarat
sekat
sekedar
sekejap
sekelas
sekelasnya
sekeliling
sekelilingnya
sekelompok
sekembalinya
seketika
seki
sekian
sekilas
sekira
sekiranya
sekitar
sekitaran
sekitarnya
sekjen
sekoci
sekolah
sekolahan
sekolahnya
sekresi
sekretariat
sekretaris
seks
seksi
seksual
seksualitas
sekte
sektor
sekuat
sekuel
sekuelnya
sekuens
sekuler
sekumpulan
sekunder
sekurang
sekuritas
sekutu
sekutunya
sel
sela
selada
selagi
selai
selain
selaku
selalu
selam
selama
selamanya
selamat
selamatan
selambat
selancar
selandia
selang
selangkah
selangor
selanjutnya
selaput
selaras
selasa
selat
selatan
selatannya
selayaknya
selayang
selayar
seleb
selebar
selebaran
selebihnya
selebritas
selebriti
selebritis
select
selected
selection
seleksi
selektif
selembar
selena
selendang
selengkapnya
selenium
selepas
selera
selesai
selesainya
seleukia
seleukos
self
selim
selimut
selir
selisih
seljuk
seller
selling
selo
selokan
seluas
selubung
seluler
selulosa
seluma
seluncur
seluruh
seluruhnya
sem
semacam
semak
semakin
semalam
semangat
semangatnya
semanggi
semangka
semantik
semar
semarak
semarang
semasa
semata
sembah
sembahyang
sembarang
sembarangan
sembari
sembilan
sembiring
semboyan
sembuh
sembung
sembunyi
semburan
semen
semenanjung
semenjak
sementara
semeru
semesta
semester
semestinya
semi
semifinal
semifinalis
semikonduktor
seminar
seminari
seminary
seminggu
semiperairan
semisal
semit
semoga
sempalan
sempat
sempit
sempurna
semu
semua
semuanya
semula
semusim
semut
sen
sena
senam
senandung
senang
senantiasa
senapan
senapati
senar
senat
senate
senator
senayan
senbatsu
sendai
sendang
sendi
sendiri
sendirian
sendirinya
sendok
senecio
senegal
senegaranya
senen
seng
sengaja
sengatan
sengit
sengketa
sengoku
sengon
sengsara
seni
senilai
seniman
senin
seninya
senior
seniornya
senja
senjata
senjatanya
senna
seno
senopati
sensasi
sense
sensei
senshi
sensitif
sensitivitas
sensor
sensorik
sensus
sentai
sentani
sentimen
sentimental
sentimeter
sentinel
sento
sentosa
sentra
sentral
sentuh
sentuhan
sentul
senyawa
senyum
seo
seok
seol
seolah
seon
seong
seorang
seorangpun
seoul
sep
sepadan
sepak
sepakat
sepakbola
sepang
sepanjang
separatis
separuh
sepasang
sepatu
sepeda
sepekan
sepengetahuan
sepeninggal
sepenuh
sepenuhnya
seperangkat
seperempat
seperti
sepertiga
sepertinya
sepi
sepihak
sepotong
sept
september
septuaginta
sepucuk
sepuh
sepulang
sepuluh
sepupu
sepupunya
sepur
seputar
sequel
sequence
ser
sera
serabut
seragam
serah
serahkan
serai
seram
serambi
serang
serangan
serangannya
serangga
serangkai
serangkaian
serapan
serasi
serat
seratus
serawak
seraya
serayu
serba
serbaguna
serbia
serbu
serbuan
serbuk
serdadu
serdang
sereal
serealia
seremonial
serena
serentak
serge
sergei
sergey
sergio
seri
serial
seribu
serie
series
serigala
serikat
sering
seringkali
seringnya
serius
serixia
seroja
serpihan
serpong
serra
sersan
serse
serta
sertifikasi
sertifikat
sertijab
seru
seruan
serui
seruling
serum
serumpun
seruni
serupa
seruyan
server
service
services
serviks
servis
ses
sesaat
sesaji
sesak
sesama
sesampainya
sesar
sesat
sesekali
seseorang
sesepuh
sesi
sesium
sesko
seskoad
seskoal
sesosok
sespim
session
sessions
sesuai
sesuatu
sesudah
sesudahnya
sesungguhnya
set
seta
setahun
setan
setapak
setara
setebal
setelah
setelahnya
setelan
setempat
setengah
setengahnya
seterusnya
seth
setia
setiabudi
setiap
setiawan
setibanya
setidaknya
setim
setimnya
setinggi
setingkat
setir
setlist
seto
setoran
setting
settlement
setu
setuju
setya
seukuran
seul
seumur
seuneubok
seung
seusai
seutuhnya
seven
seventeen
seventeenth
seventh
several
severus
sevilla
seville
sewa
sewaan
sewaktu
sewenang
sewu
sex
sexual
sexy
seychelles
seymour
sezaman
sf
sg
sh
sha
shaanxi
shadily
shadow
shadows
shaft
shah
shahab
shahih
shake
shakespeare
shakti
shalat
shalih
shall
shalom
shan
shandong
shane
shang
shanghai
shangri
shani
shania
shankar
shannon
shanti
shanxi
shao
shaolin
shape
share
shared
sharif
sharing
shark
sharma
sharon
sharp
sharpe
shaun
shaw
shawn
she
shea
sheep
sheeran
sheet
sheffield
sheikh
sheila
shek
shekhar
shelby
sheldon
shell
shelley
shelter
shen
sheng
shenyang
shenzhen
shepard
shepherd
sheppard
sheridan
sheriff
sherlock
sherman
shetland
shetty
shevchenko
shi
shiba
shibata
shibuya
shield
shift
shiga
shigeru
shih
shihab
shik
shiki
shikoku
shilling
shim
shima
shimada
shimane
shimazaki
shimbun
shimin
shimizu
shin
shine
shinee
shingo
shinichi
shining
shinji
shinjuku
shinkansen
shinkenger
shinobu
shinoda
shinta
shinto
shiori
ship
shipping
ships
shire
shirley
shiro
shirt
shiva
shizuka
shizuoka
sho
shock
shoes
shogakukan
shogun
sholat
sholeh
shonan
shonen
shoot
shooting
shop
shopping
shore
shorea
short
shot
shoten
shou
shoujo
should
show
showa
showbiz
showcase
showing
shows
showtime
shrek
shri
shrine
shropshire
shu
shueisha
shui
shun
shuttle
shy
si
sia
siaga
siagian
siahaan
siak
sial
sialang
siam
sian
siang
sianida
siantar
siap
siapa
siapakah
siapapun
siar
siaran
siarannya
siasat
siau
siauw
siber
siberia
sibolga
sibuk
sic
sichuan
sid
sida
sidang
siddharth
side
sidempuan
sidenreng
sides
sidi
sidik
sidikalang
sidney
sido
sidoarjo
sidodadi
sidoharjo
sidomulyo
sidorejo
sidrap
sie
siege
siegel
siegfried
siemens
siena
sierra
sifat
sifatnya
sig
sight
sigi
sigismund
sigit
sigma
sigmund
sign
signal
signature
signifikan
signifikansi
signs
sih
sihanouk
sihir
sihombing
sijunjung
sik
sikabu
sikap
sikapnya
sikat
sikh
sikka
sikkim
siklik
siklon
siklus
sikorsky
siksa
siksaan
siku
sil
sila
silakan
silalahi
silam
silang
silas
silat
silaturahmi
silek
silence
silent
silentera
silesia
silicon
silih
silika
silikat
silikon
silinder
siliwangi
silk
silla
silo
siloam
silsilah
siluman
silva
silver
silverstone
silvia
sim
sima
simalungun
simanjuntak
simatupang
simbang
simbol
simbolik
simbolis
simbolisme
simbolon
simeon
simetri
simetris
simeulue
simfoni
similar
simmons
simo
simon
simone
simpan
simpanan
simpang
simpanse
simpati
simpatisan
simple
simplex
simposium
simpson
simpsons
simpul
sims
simulasi
simulation
simulator
simultan
sin
sina
sinaga
sinagoge
sinai
sinaiticus
sinar
sinatra
since
sinclair
sindang
sindangkasih
sindikat
sindiran
sindo
sindrom
sine
sinema
sinemart
sinematografer
sinematografi
sinergi
sinetron
sing
singa
singapore
singapura
singaraja
singasari
singel
singer
singers
singgah
singgasana
singgung
singh
singhasari
singing
singingi
singkarak
singkat
singkatan
singkatnya
singkawang
singkil
singkong
single
singles
singosari
sings
sinha
sinhala
sini
sinilah
sinis
sinjai
sinkronisasi
sino
sinode
sinonim
sinopsis
sint
sinta
sintaks
sintaksis
sintang
sintesis
sintetik
sintetis
sintren
sinus
sinyal
sio
sion
sip
sipil
sipirok
sipoholon
siprus
siput
sir
sira
sirah
sirait
siregar
siri
siria
sirih
sirip
sirius
sirkuit
sirkulasi
sirkus
siro
sirup
sis
sisa
sisanya
sisi
sisik
sisilia
sisinya
sisipan
sisir
siska
sistar
sistem
sistematika
sistematis
sistemik
sister
sisters
sistha
sistim
siswa
siswanya
siswi
sit
sita
site
sites
siti
sitkom
sitompul
sitoplasma
sitorus
sitrat
situ
situasi
situasinya
situation
situbondo
situlah
situmorang
situs
siu
siwa
six
sixth
size
sj
sjahrir
sk
ska
skadron
skala
skalar
skandal
skandinavia
skating
ske
skema
skenario
skenarionya
skep
skeptis
skeptisisme
sketch
sketsa
ski
skies
skill
skin
skinner
skip
skisma
skizofrenia
skk
skor
skotlandia
skrip
skripsi
sks
skt
skuad
skuadron
skuat
skull
skuter
sky
skyhawk
sl
slam
slamet
slang
slank
slate
slater
slave
slavery
slavia
slawi
slayer
sleep
sleeping
sleman
slide
slim
slip
slogan
slot
slovakia
slovenia
slow
slowakia
slta
sltp
sm
sma
smackdown
smak
small
sman
smansa
smart
smartphone
smash
smc
smea
smile
smith
smithsonian
smk
smkn
smoke
smp
smpn
sms
smtown
smu
sn
snake
snakes
snap
snape
sncf
snh
sniper
snow
snyder
so
soa
soal
soares
soba
soc
soccer
soccerway
sochi
social
socialism
socialist
socie
sociedad
societies
society
sociology
socorro
socrates
soda
sodium
sodom
soe
soebroto
soedirman
soegijapranata
soeharto
soekarno
soekarnoputri
soemitro
soeratin
soest
sofia
soft
software
sofyan
soho
soil
sok
soko
sokrates
sol
sola
solar
sold
soldier
soldiers
soleh
solid
solidaritas
solo
solois
solok
solomon
solonya
solusi
solution
solutions
som
soma
somalia
somaliland
somba
sombong
some
someone
somerset
something
somme
son
sonar
sonata
soneta
song
songket
songo
songs
songwriters
soni
sonia
sonic
sonny
sono
sons
sony
sonya
soo
sook
soon
sop
sopan
sophia
sophie
sophronica
sopir
soppeng
soprano
sora
sorak
soraya
sore
soreang
sorga
sorong
sorotan
sorry
sos
sosa
sosial
sosialis
sosialisasi
sosialisme
sosialita
sosialnya
sosio
sosiolog
sosiologi
sosiologis
sosis
sosok
soto
soul
souls
sound
sounds
soundtrack
sour
source
sources
sous
sousa
south
southampton
southeast
southern
southwest
souza
soviet
soyuz
sp
spa
space
spacetoon
spacewatch
spacex
spain
spam
spanduk
spanish
spanyol
spark
sparks
sparrow
sparta
spartak
spasi
spasial
spbu
spd
speak
speaker
speaking
spears
special
specialist
species
specific
specified
spectrum
speech
speed
speedway
spektakuler
spektroskopi
spektrum
spekulasi
spekulatif
spell
spelling
spence
spencer
sperma
spesial
spesialis
spesialisasi
spesiasi
spesies
spesifik
spesifikasi
spesimen
sphere
spice
spider
spiegel
spielberg
spies
spike
spin
spionase
spiral
spirit
spirits
spiritual
spiritualitas
spirogyra
split
spongebob
spongia
spons
sponsor
spontan
spora
sporadis
sport
sportbox
sporting
sports
spot
spotify
spotlight
spp
spread
spring
springer
springfield
springs
sprint
spurs
sputnik
spy
sq
sql
sqrt
squad
squadron
square
squarepants
squidward
sr
sragen
sri
srikandi
srimulat
sriwijaya
ss
ssb
sseldorf
st
sta
staatsblad
staatsspoorwegen
stabil
stabilisasi
stabilitas
stable
stad
stade
stadion
stadium
stadt
staf
staff
staffordshire
stafnya
stage
stai
stain
stalin
stalingrad
stamford
stan
stand
standar
standard
standardisasi
standards
standing
standl
stanford
stanisław
stanley
stanton
staples
star
starbucks
stardust
stark
starlight
starr
stars
starscream
starship
start
starter
starting
startup
starvision
stasi
stasiun
state
statement
staten
states
station
stations
statis
statistica
statistical
statistics
statistik
statistika
stats
statue
status
statusnya
statuta
stay
ste
steam
steel
steele
stefan
stefano
stefanus
stein
steiner
stella
stelletta
stem
stempel
stenopogon
step
stepa
stephan
stephanie
stephen
stephens
stephenson
steps
stereo
stereotip
steril
sterilisasi
sterling
stern
steroid
steve
steven
stevens
stevenson
stevie
stewart
sti
stick
stie
stigma
stik
stiker
stikes
still
stimulasi
stimulus
sting
stirling
stirner
stkip
stm
stmik
sto
stock
stockholm
stok
stoke
stone
stoner
stones
stoomtram
stop
storage
store
storia
stories
storm
story
str
strabo
straight
strain
straits
strand
strange
stranger
strangers
strasbourg
strata
strategi
strategic
strategies
strategis
strategy
stratifikasi
straus
strauss
strawberry
stream
streaming
street
streets
strength
streptomyces
stres
stress
strike
striker
string
strip
stroberi
stroke
stroll
strong
structural
structure
structures
struggle
struktur
struktural
strukturnya
sts
stt
stuart
student
students
studi
studien
studies
studinya
studio
studios
study
stuff
stupa
stuttgart
style
styles
su
sua
suaka
suami
suamiku
suaminya
suap
suar
suara
suaranya
suasana
suatu
sub
subang
subaru
subdistrik
subdit
subdivisi
subduksi
subfamili
subgenre
subgrup
subianto
subject
subjek
subjektif
subkelompok
submarine
subprefektur
subregnum
subroto
subset
subsidi
subsp
subspesies
substansi
substansial
substitusi
substrat
subtipe
subtropis
subuh
subulussalam
subunit
subur
suburban
subway
subyek
success
such
suci
sud
suda
sudah
sudan
sudarso
sudirman
sudiro
sudut
sue
suetonius
suez
suffolk
suffragan
sufi
sufiks
sufragan
sufyan
suga
sugar
sugeng
sugiarto
suharto
suhu
suhunya
sui
suicide
suikoden
suit
suite
sujud
suk
suka
sukabumi
sukacita
sukadana
sukai
sukajadi
sukajaya
sukamaju
sukamulya
sukapura
sukar
sukaraja
sukarela
sukarelawan
sukarno
sukasari
sukhoi
suki
sukma
sukoharjo
sukorejo
sukses
suksesi
suksesnya
suku
sukuk
sukun
sukunya
sul
sula
sulaiman
sulap
sulawesi
sule
suleiman
sulfat
sulfida
sulfur
sulih
suling
sulit
sulitnya
sullivan
sulsel
sultan
sultanah
sulteng
sulu
suluk
sulung
sulungnya
sulut
sum
suma
sumatera
sumatra
sumba
sumbangan
sumbangsih
sumbar
sumbawa
sumber
sumberdaya
sumberejo
sumbernya
sumbu
sumedang
sumenep
sumeria
sumire
sumitomo
summa
summarecon
summary
summer
summit
sumo
sumpah
sumpit
sumsel
sumsum
sumur
sumut
sun
sunan
sunat
sunda
sundance
sunday
sunderland
sung
sungai
sungainya
sungguh
sunil
sunnah
sunni
sunny
sunrise
suns
sunset
sunshine
sunter
suntik
suntikan
sunting
suntingan
sunyi
sup
supaya
super
superbike
superhero
superior
superioritas
superman
supermarket
supernatural
supernova
supersonik
superstar
supervisi
supervisor
supir
suplai
suplemen
suporter
supplement
supply
support
supporter
supporting
supra
supranational
supranatural
suprapto
supremasi
supreme
sur
sura
surabaya
surah
surakarta
suram
surat
suratnya
surau
surel
suresh
surf
surface
surga
surgawi
suri
suriah
suriname
suro
surplus
surprise
surrey
suru
suruh
surut
survei
survey
survival
survivor
surya
suryadi
suryani
suryo
sus
susah
susan
susanna
susanti
susanto
sushi
susi
susilo
suspensi
sussex
sustainable
suster
susu
susuhunan
susukan
susulan
susun
susunan
sutan
sutera
sutherland
sutomo
sutra
sutradara
sutrisno
sutta
sutton
suv
suzanne
suzhou
suzuka
suzuki
suzy
sv
sven
svg
sw
swa
swabia
swadaya
swalayan
swami
swan
swansea
swapraja
swara
swasembada
swasta
swatantra
swaziland
sweden
swedia
swedish
sweeney
sweet
swift
swing
swiss
switch
switzerland
sword
swt
sx
sy
sya
syafei
syafi
syafruddin
syah
syahadat
syahbandar
syahid
syahrir
syaiful
syaikh
syair
syam
syamsuddin
syamsul
syar
syarat
syari
syariah
syariat
syarief
syarif
syarifah
syarifuddin
syawal
sybra
sydney
syed
syeh
syeikh
syekh
syi
syiah
syiar
sykes
sylvester
sylvia
symbol
symbols
symphony
symposium
syndrome
synthesis
synthesizer
syracuse
syria
syrian
syrs
system
systematic
systems
systropus
syu
syuhada
syukur
syukuran
syuting
sz
sze
szlo
t
ta
taal
taat
tab
taba
tabah
tabalong
tabanan
tabel
tabi
tabib
tabir
table
tables
tablet
tabloid
tabrakan
tabu
tabung
tabungan
tabut
tac
tachi
tachibana
tacitus
tactical
tactics
tadah
tadi
tadinya
tadmur
tae
taek
taekwondo
tafsir
tafsiran
tag
tagalog
tagar
tagihan
tagore
tagulandang
tahan
tahanan
tahap
tahapan
tahbisan
taher
tahir
tahiti
tahta
tahtanya
tahu
tahun
tahunan
tahunnya
tai
taiga
taiji
tail
tainan
taipei
taiping
taira
taisho
taiwan
taiyou
taizong
taj
tajam
tajik
tajikistan
tajuk
tak
taka
takagi
takahashi
takahiro
takalar
takao
takashi
takayama
takayuki
takbenda
takdir
take
takeda
taken
takes
takeshi
takeuchi
takhayul
takhingga
takhta
takhtanya
taking
takkan
takluk
taklukan
takraw
taksa
taksi
takson
taksonomi
taktik
taktis
takumi
takut
takuya
tal
tala
talaga
talak
talang
talas
talaud
talbot
tale
talent
talenta
tales
tali
taliban
talium
talk
talking
talks
talkshow
tall
talladega
tallinn
tallo
talmud
talun
tam
tama
taman
tamansari
tamar
tamara
tamat
tamatan
tambah
tambahan
tambahkan
tambak
tambang
tambo
tambora
tambrauw
tambun
tambunan
tame
tameng
tamiang
tamil
tampa
tampak
tampaknya
tampan
tampil
tampilan
tampuk
tampung
tamtama
tamu
tamura
tan
tana
tanah
tanahnya
tanaka
tanakh
tanam
tanaman
tanasevitch
tanda
tandan
tandang
tandem
tanding
tandingan
tanduk
tanete
tang
tangah
tangan
tangani
tangannya
tangerang
tangga
tanggaku
tanggal
tanggamus
tangganya
tanggap
tanggapan
tangguh
tanggul
tanggung
tanggungan
tanggungjawab
tangisan
tangkai
tangkap
tangkapan
tangkas
tangki
tangkis
tango
tani
tania
tanimbar
tanjakan
tanjong
tanjung
tanjungbalai
tanjungkarang
tanjungpinang
tanjungpura
tanjungsari
tank
tanker
tanko
tanner
tanpa
tantangan
tante
tantra
tanur
tanya
tanzania
tao
taoisme
tap
tapa
tapak
tapal
tapanuli
tape
tapi
tapin
taqwa
tar
tara
taraf
tarakan
tarbiyah
tarekat
target
targetnya
tari
tarian
tarif
tarigan
tarik
tarikan
tarikh
tarim
taring
taro
taruhan
tarumanagara
taruna
tarung
tarutung
tarzan
tas
tasawuf
tasik
tasikmalaya
task
tasmania
taste
tasya
tat
tata
tatanan
tatang
tatap
tatar
tate
tatkala
tato
tatsuya
tau
taufik
taufiq
tauhid
taurat
taurus
tautan
tavakilian
tawa
tawanan
tawang
tawar
tawaran
tawarikh
tawon
tax
taxi
tay
tayang
tayangan
taylor
tb
tba
tbd
tbilisi
tbk
tbs
tc
tcp
td
te
tea
teacher
teachers
teaching
team
teams
tears
teaser
teater
teatrikal
teau
tebal
tebet
tebing
tebo
tebu
tebusan
tech
technical
technique
techniques
technische
techno
technologies
technology
ted
tedania
teddy
teduh
tee
teen
teenage
tegak
tegal
tegalan
tegalrejo
tegalsari
tegang
tegangan
tegar
tegas
teguh
teguran
teh
teheran
tehran
tek
teka
tekad
tekan
tekanan
teki
teknik
teknis
teknisi
teknologi
teks
tekstil
tekstual
tekstur
tektonik
tekun
tel
teladan
telaga
telah
telak
telanjang
telapak
tele
telecom
telecommunications
telefon
telegraf
telegram
telegraph
telekomunikasi
telenovela
telephone
telepon
telescope
teleskop
televisi
televisinya
television
telinga
telinganya
teliti
telkom
telkomsel
tell
telp
telugu
teluk
telur
telurnya
tema
teman
temanggung
temannya
temanya
tematik
tembaga
tembak
tembakan
tembakau
tembang
tembikar
tembok
tembus
tempat
tempatnya
tempe
tempel
temperatur
templar
templat
template
temple
tempo
temporal
temptation
tempuh
tempur
tempuran
tempurung
temu
temuan
temui
temukan
temurun
ten
tenaga
tenaganya
tenang
tenar
tencent
tenda
tendangan
tendean
tender
tenerife
teng
tengah
tengahnya
tenggara
tenggarong
tenggat
tenggelam
tenggelamnya
tengger
tenggorokan
tengkorak
tengku
tenis
tennessee
tennis
tenor
tenshi
tensor
tentang
tentangan
tentangnya
tentara
tentaranya
tenteram
tentu
tentulah
tentunya
tenun
teo
teolog
teologi
teologis
teorema
teoretis
teori
teorinya
teoritis
tepat
tepatnya
tepercaya
tephritidae
tephritis
tepi
tepian
tepuk
tepung
ter
tera
terakhir
terakhirnya
terakreditasi
terakumulasi
teramati
terampil
terancam
terang
terangan
terangkat
terapan
terapi
terapis
terapung
terarah
teras
terasa
terasing
teratai
teratas
teratur
terawal
terawat
terbaca
terbagi
terbaik
terbaiknya
terbakar
terbalik
terbang
terbangun
terbanyak
terbaring
terbaru
terbarukan
terbarunya
terbatas
terbatasnya
terbawa
terbawah
terbebas
terbelah
terbelakang
terbenam
terbengkalai
terbentang
terbentuk
terbentuklah
terbentuknya
terberat
terbesar
terbesarnya
terbiasa
terbilang
terbit
terbitan
terbitnya
terbuang
terbuat
terbuka
terbukti
terbunuh
terbunuhnya
terburu
terburuk
tercakup
tercampur
tercantum
tercapai
tercapainya
tercatat
tercela
tercemar
tercepat
tercermin
tercetak
tercinta
tercipta
terciptanya
terdaftar
terdahulu
terdakwa
terdalam
terdampak
terdampar
terdapat
terdefinisi
terdegradasi
terdekat
terdekatnya
terdengar
terdepan
terdesak
terdeteksi
terdidik
terdingin
terdiri
terdistribusi
terdorong
terduga
tere
tereduksi
tereliminasi
terencana
terence
terendah
terendam
terengganu
teresa
terestrial
terfavorit
terfokus
tergabung
tergambar
terganggu
tergantikan
tergantung
tergelincir
tergenang
tergesa
tergolong
tergugat
terhadap
terhadapnya
terhalang
terhambat
terhebat
terhenti
terhindar
terhingga
terhitung
terhormat
terhubung
terhutang
teri
teriakan
teridentifikasi
terigu
terik
terikat
terima
terindah
terinfeksi
teringat
terinspirasi
terintegrasi
terisi
terisolasi
teristimewa
teritori
teritorial
terj
terjadi
terjadilah
terjadinya
terjadwal
terjaga
terjal
terjalin
terjamin
terjangkau
terjangkit
terjatuh
terjauh
terjebak
terjemahan
terjemahannya
terjepit
terjerat
terjual
terjun
terkadang
terkait
terkalahkan
terkandung
terkaya
terkecil
terkecuali
terkejut
terkemuka
terkena
terkenal
terkenalnya
terkendali
terkesan
terkini
terkonfirmasi
terkonsentrasi
terkontaminasi
terkontrol
terkoordinasi
terkuat
terkubur
terkumpul
terkunci
terkurung
terlahir
terlaksana
terlalu
terlama
terlambat
terlampau
terlantar
terlarang
terlaris
terlarut
terlatih
terlebih
terlempar
terlepas
terlestarikan
terletak
terlibat
terlihat
terlindung
terlindungi
terluar
terluas
terluka
terlupakan
term
termahal
termaksud
termaktub
termal
termasuk
termasyhur
terminal
terminator
terminologi
terminus
termodinamika
termohon
termometer
terms
termuat
termuda
ternak
ternama
ternate
ternyata
terobosan
terobsesi
teroksidasi
terompet
terong
teropong
teror
terorganisasi
terorganisir
teroris
terorisme
terowongan
terpadat
terpadu
terpakai
terpaksa
terpanas
terpandang
terpanjang
terpapar
terpasang
terpecah
terpecahkan
terpelajar
terpelihara
terpencil
terpendek
terpengaruh
terpenting
terpenuhi
terperangkap
terperinci
terpesona
terpidana
terpikat
terpilih
terpilihnya
terpimpin
terpisah
terpisahkan
terpopuler
terpotong
terpuji
terpukul
terpuruk
terpusat
terputus
terra
terre
terrestrial
territories
territory
terror
terrorism
terry
tersambung
tersandung
tersangka
tersangkut
tersebar
tersebut
tersedia
tersedianya
terselesaikan
terselubung
tersembunyi
tersendiri
tersentuh
tersenyum
terserang
tersesat
tersibuk
tersier
tersimpan
tersinggung
tersingkir
tersirat
tersisa
tersisih
tersohor
terstruktur
tersukses
tersusun
tertabrak
tertahan
tertanam
tertanggal
tertangkap
tertarik
tertata
tertawa
tertekan
tertembak
tertentu
tertera
tertib
tertidur
tertimpa
tertindas
tertinggal
tertinggi
tertingginya
tertua
tertuang
tertuanya
tertular
tertulis
tertunda
tertutup
terukur
terulang
terumbu
terungkap
terurai
terurut
terus
terusan
terutama
terutang
terwujud
terwujudnya
tes
tesalonika
tesis
tesla
test
testament
testamentum
testing
testis
tetangga
tetangganya
tetap
tetapi
tetapkan
tetaplah
tetes
tetesan
tetsuya
tetua
teuku
teungku
teungoh
teutonik
tewas
tewasnya
tex
texas
[...]
