!
"
#
##0
##1
##10
##11
##12
##13
##14
##15
##16
##17
##18
##19
##2
##20
##21
##22
##23
##24
##25
##26
##27
##28
##29
##3
##30
##31
##32
##33
##34
##35
##36
##37
##38
##39
##4
##40
##41
##42
##43
##44
##45
##46
##47
##48
##49
##5
##50
##51
##52
##53
##54
##55
##56
##57
##58
##59
##6
##60
##61
##62
##63
##64
##65
##66
##67
##68
##69
##7
##70
##71
##72
##73
##74
##75
##76
##77
##78
##79
##8
##80
##81
##82
##83
##84
##85
##86
##87
##88
##89
##9
##90
##91
##92
##93
##94
##95
##96
##97
##98
##99
$
%
&
'
(
)
*
+
,
-
.
/
0
00
000
001
002
003
004
005
006
007
008
009
00958
01
010
011
012
013
014
01499
015
0157
016
019
02
0204
023
024
025
03
038
04
04683
05
05228
06
06338
064
07
072
08
09
1
10
100
1000
10000
100000
1001
1002
1003
1004
1005
1006
1007
1008
1009
101
1010
1011
1012
1013
1014
1015
1016
1017
1018
1019
102
1020
1021
1022
1023
1024
1025
1026
1027
1028
1029
103
1030
1031
1032
1033
1034
1035
1036
1037
1038
1039
104
1040
1041
1042
1043
1044
1045
1046
1047
1048
1049
105
1050
1051
1052
1053
1054
1055
1056
1057
1058
1059
106
1060
1061
1062
1063
1064
1065
1066
1067
1068
1069
107
1070
1071
1072
1073
1074
1075
1076
1077
1078
1079
108
1080
1081
1082
1083
1084
1085
1086
1087
1088
1089
109
1090
1091
1092
1093
1094
1095
1096
1097
1098
1099
11
110
1100
11000
1101
1102
1103
1104
1105
1106
1107
1108
1109
111
1110
1111
1112
1113
1114
1115
1116
1117
1118
1119
112
1120
1121
1122
1123
1124
1125
1126
1127
1128
1129
113
1130
1131
1132
1133
1134
1135
1136
1137
1138
1139
114
1140
1141
1142
1143
1144
1145
1146
1147
1148
1149
115
1150
1151
1152
1153
1154
1155
1156
1157
1158
1159
116
1160
1161
1162
1163
1164
1165
1166
1167
1168
1169
117
1170
1171
1172
1173
1174
1175
1176
1177
1178
1179
118
1180
1181
1182
1183
1184
1185
1186
1187
1188
1189
119
1190
1191
1192
1193
1194
1195
1196
1197
1198
1199
12
120
1200
1201
1202
1203
1204
1205
1206
1207
1208
1209
121
1210
1211
1212
1213
1214
1215
1216
1217
1218
1219
122
1220
1221
1222
1223
1224
1225
1226
1227
1228
1229
123
1230
1231
1232
1233
1234
1235
1236
1237
1238
1239
124
1240
1241
1242
1243
1244
1245
1246
1247
1248
1249
125
1250
1251
1252
1253
1254
1255
1256
1257
1258
1259
126
1260
1261
1262
1263
1264
1265
1266
1267
1268
1269
127
1270
1271
1272
1273
1274
1275
1276
1277
1278
1279
128
1280
1281
1282
1283
1284
1285
1286
1287
1288
1289
129
1290
1291
1292
1293
1294
1295
1296
1297
1298
1299
13
130
1300
1301
1302
1303
1304
1305
1306
1307
1308
1309
131
1310
1311
1312
1313
1314
1315
1316
1317
1318
1319
132
1320
1321
1322
1323
1324
1325
1326
1327
1328
1329
133
1330
1331
1332
1333
1334
1335
1336
1337
1338
1339
134
1340
1341
1342
1343
1344
1345
1346
1347
1348
1349
135
1350
1351
1352
1353
1354
1355
1356
1357
1358
1359
136
1360
1361
1362
1363
1364
1365
1366
1367
1368
1369
137
1370
1371
1372
1373
1374
1375
1376
1377
1378
1379
138
1380
1381
1382
1383
1384
1385
1386
1387
1388
1389
139
1390
1391
1392
1393
1394
1395
1396
1397
1398
1399
14
140
1400
1401
1402
1403
1404
1405
1406
1407
1408
1409
141
1410
1411
1412
1413
1414
1415
1416
1417
1418
1419
142
1420
1421
1422
1423
1424
1425
1426
1427
1428
1429
143
1430
1431
1432
1433
1434
1435
1436
1437
1438
1439
144
1440
1441
1442
1443
1444
1445
1446
1447
1448
1449
145
1450
1451
1452
1453
1454
1455
1456
1457
1458
1459
146
1460
1461
1462
1463
1464
1465
1466
1467
1468
1469
147
1470
1471
1472
1473
1474
1475
1476
1477
1478
1479
148
1480
1481
1482
1483
1484
1485
1486
1487
1488
1489
149
1490
1491
1492
1493
1494
1495
1496
1497
1498
1499
15
150
1500
15000
1501
1502
1503
1504
1505
1506
1507
1508
1509
151
1510
1511
1512
1513
1514
1515
1516
1517
1518
1519
152
1520
1521
1522
1523
1524
1525
1526
1527
1528
1529
153
1530
1531
1532
1533
1534
1535
1536
1537
1538
1539
154
1540
1541
1542
1543
1544
1545
1546
1547
1548
1549
155
1550
1551
1552
1553
1554
1555
1556
1557
1558
1559
156
1560
1561
1562
1563
1564
1565
1566
1567
1568
1569
157
1570
1571
1572
1573
1574
1575
1576
1577
1578
1579
158
1580
1581
1582
1583
1584
1585
1586
1587
1588
1589
159
1590
1591
1592
1593
1594
1595
1596
1597
1598
1599
16
160
1600
16000
1601
1602
1603
1604
1605
1606
1607
1608
1609
161
1610
1611
1612
1613
1614
1615
1616
1617
1618
1619
162
1620
1621
1622
1623
1624
1625
1626
1627
1628
1629
163
1630
1631
1632
1633
1634
1635
1636
1637
1638
1639
164
1640
1641
1642
1643
1644
1645
1646
1647
1648
1649
165
1650
1651
1652
1653
1654
1655
1656
1657
1658
1659
166
1660
1661
1662
1663
1664
1665
1666
1667
1668
1669
167
1670
1671
1672
1673
1674
1675
1676
1677
1678
1679
168
1680
1681
1682
1683
1684
1685
1686
1687
1688
1689
169
1690
1691
1692
1693
1694
1695
1696
1697
1698
1699
17
170
1700
1701
1702
1703
1704
1705
1706
1707
1708
1709
171
1710
1711
1712
1713
1714
1715
1716
1717
1718
1719
172
1720
1721
1722
1723
1724
1725
1726
1727
1728
1729
173
1730
1731
1732
1733
1734
1735
1736
1737
1738
1739
174
1740
1741
1742
1743
1744
1745
1746
1747
1748
1749
175
1750
1751
1752
1753
1754
1755
1756
1757
1758
1759
176
1760
1761
1762
1763
1764
1765
1766
1767
1768
1769
177
1770
1771
1772
1773
1774
1775
1776
1777
1778
1779
178
1780
1781
1782
1783
1784
1785
1786
1787
1788
1789
179
1790
1791
1792
1793
1794
1795
1796
1797
1798
1799
18
180
1800
18000
1801
1802
1803
1804
1805
1806
1807
1808
1809
181
1810
1811
1812
1813
1814
1815
1816
1817
1818
1819
182
1820
1821
1822
1823
1824
1825
1826
1827
1828
1829
183
1830
1831
1832
1833
1834
1835
1836
1837
1838
1839
184
1840
1841
1842
1843
1844
1845
1846
1847
1848
1849
185
1850
1851
1852
1853
1854
1855
1856
1857
1858
1859
186
1860
1861
1862
1863
1864
1865
1866
1867
1868
1869
187
1870
1871
1872
1873
1874
1875
1876
1877
1878
1879
188
1880
1881
1882
1883
1884
1885
1886
1887
1888
1889
189
1890
1891
1892
1893
1894
1895
1896
1897
1898
1899
19
190
1900
1901
1902
1903
1904
1905
1906
1907
1908
1909
191
1910
1911
1912
1913
1914
1915
1916
1917
1918
1919
192
1920
1921
1922
1923
1924
1925
1926
1927
1928
1929
193
1930
1931
1932
1933
1934
1935
1936
1937
1938
1939
194
1940
1941
1942
1943
1944
1945
1946
1947
1948
1949
195
1950
1951
1952
1953
1954
1955
1956
1957
1958
1959
196
1960
1961
1962
1963
1964
1965
1966
1967
1968
1969
197
1970
1971
1972
1973
1974
1975
1976
1977
1978
1979
198
1980
1981
1982
1983
1984
1985
1986
1987
1988
1989
199
1990
1991
1992
1993
1994
1995
1996
1997
1998
1999
2
20
200
2000
20000
2001
2002
2003
2004
2005
2006
2007
2008
2009
201
2010
2011
2012
2013
2014
2015
2016
2017
2018
2019
202
2020
2021
2022
2023
2024
2025
2027
2028
2029
203
2030
2032
2035
2037
2039
204
2040
2042
2048
2049
205
2050
2051
206
2064
2066
207
2073
208
2080
209
21
210
2100
2103
211
2114
212
2129
213
214
215
216
2169
217
2174
218
2181
2184
2185
219
22
220
2200
221
222
223
2231
224
225
226
227
228
229
23
230
2300
231
232
233
234
235
236
237
238
239
24
240
2400
241
242
243
244
245
246
247
248
249
25
250
2500
25000
251
252
253
254
2542
255
256
257
258
259
26
260
2600
261
262
263
264
265
266
267
2677
268
269
27
270
2700
271
272
273
274
275
276
277
278
279
28
280
2800
281
282
283
284
285
286
287
288
289
29
290
2900
291
292
293
294
295
296
297
298
299
3
30
300
3000
30000
301
302
3029
303
304
305
306
307
308
309
31
310
3100
311
312
313
314
315
316
3166
317
318
319
32
320
3200
321
322
323
324
325
326
327
328
329
33
330
3300
331
332
333
334
335
336
337
338
339
34
340
3400
341
342
343
344
345
346
347
3478
348
349
35
350
3500
351
352
353
354
355
356
357
358
359
36
360
3600
361
362
363
364
365
366
367
368
369
37
370
3700
371
372
373
374
375
376
377
378
379
38
380
3800
381
382
383
384
385
386
387
388
389
39
390
391
392
393
394
395
396
397
398
399
4
40
400
4000
401
402
403
404
405
406
407
408
409
41
410
411
412
413
414
415
416
417
418
419
42
420
4200
421
4217
422
423
424
425
426
427
428
429
43
430
431
432
433
434
435
436
437
438
439
44
440
441
442
443
444
445
446
447
448
449
45
450
4500
451
452
453
454
455
456
457
458
459
46
460
4600
461
462
463
464
465
466
467
468
469
47
470
4700
471
472
473
474
475
476
477
478
479
48
480
4800
481
482
483
484
485
486
487
488
489
49
490
491
492
493
494
495
496
497
498
499
5
50
500
5000
50000
501
502
503
504
505
506
507
508
509
51
510
5100
511
512
513
514
515
516
517
518
519
52
520
521
522
523
524
525
526
527
528
529
53
530
5300
531
532
533
534
535
536
537
538
539
54
540
5400
541
542
543
544
545
546
547
548
549
55
550
5500
551
552
553
554
555
556
557
558
559
56
560
561
562
563
564
565
566
567
568
569
57
570
571
572
573
574
575
576
577
578
579
58
580
581
582
583
584
585
586
587
588
589
59
590
591
592
593
594
595
596
597
598
599
6
60
600
6000
601
602
603
604
605
606
607
608
609
61
610
611
612
613
614
615
616
617
618
619
62
620
621
622
623
624
625
626
627
628
629
63
630
631
632
633
634
635
636
637
638
639
64
640
641
642
643
644
645
646
647
648
649
65
650
6500
651
652
653
654
655
656
657
658
659
66
660
661
662
663
664
665
666
667
668
669
67
670
671
672
673
674
675
676
677
678
679
68
680
681
682
683
684
685
686
687
688
689
69
690
691
692
693
694
695
696
697
698
699
7
70
700
7000
701
702
703
704
705
706
707
708
709
71
710
711
712
713
714
715
716
717
718
719
72
720
721
722
723
724
725
726
727
728
729
73
730
731
732
733
734
735
736
737
738
739
74
740
741
742
743
744
745
746
747
748
749
75
750
7500
751
752
753
754
755
756
757
758
759
76
760
761
762
763
764
765
766
767
768
7688
769
77
770
771
772
773
774
775
776
777
778
779
78
780
781
782
783
784
785
786
787
788
789
79
790
791
792
793
794
795
796
797
798
799
8
80
800
8000
801
802
803
804
805
806
807
808
809
81
810
811
8112027
812
813
814
815
816
817
818
819
82
820
821
822
823
824
825
8258
826
827
828
829
83
830
831
832
833
834
835
836
837
838
839
84
840
841
842
843
844
845
846
847
848
849
85
850
851
852
85270
853
854
855
856
857
858
859
86
860
861
862
863
864
865
866
867
868
869
87
870
871
872
873
87317
874
875
876
87691
877
878
879
88
880
881
88185
882
883
884
885
886
887
888
889
89
890
891
892
893
894
895
896
897
898
899
9
90
900
9000
901
902
903
904
905
906
907
908
909
91
910
911
912
913
914
915
916
91608
917
918
919
92
920
921
922
9223372036854775808
923
924
925
926
927
928
929
93
930
931
932
933
934
935
936
937
938
939
94
940
941
942
942008
943
944
945
946
947
948
949
95
950
951
952
953
954
955
956
957
958
959
96
960
961
962
963
964
965
966
967
968
969
97
970
971
972
973
974
975
976
977
978
979
98
980
981
982
983
984
985
986
987
988
989
99
990
991
992
993
994
995
996
997
998
999
:
;
<
=
>
?
@
\
^
_
`
a
aa
aaa
ab
abc
abi
about
above
ac
academia
academic
academy
accessed
act
action
ad
add
addclass
ady
ae
af
affricate
afghanistan
africa
after
ag
age
agency
ah
ai
aiesec
air
airbus
airlines
aj
ak
al
album
alexander
alfiya
ali
aliases
align
all
alpha
already
also
alt
am
america
american
among
amu
an
analysis
ancient
and
angeles
angle
ann
anna
any
ao
ap
approx
april
aq
ar
arab
arabic
aralas
architecture
archive
archives
arctg
are
area
arg
args
arguments
ark
armenia
armenian
arms
army
array
art
article
articles
artist
arts
as
asia
asian
aspx
association
ast
astrobl
at
atlas
attempt
attr
au
auf
august
aus
author
auto
av
available
aw
award
awards
ax
ay
ayratayrat
ayıq
az
azerbaijan
b
ba
back
background
bad
baden
bafta
band
bank
bar
bas
base
based
bash
bashenc
bashinform
bashkir
bashkortostan
basic
battle
bayern
bb
bbc
bc
bd
be
been
before
beg
begin
bei
bel
below
ber
berlin
best
beta
between
bevo
bf
bg
bh
bi
big
billboard
biography
bir
bis
bj
bk
bl
black
blagodarinskiy
blk
blog
blue
bm
bn
bo
boeing
book
books
border
borovi
bosch
boston
bot
bottom
box
bp
bq
br
break
bridge
brill
britannica
british
bronze
brown
bry
bs
bt
bu
budapest
building
bur
business
but
bv
bw
bx
by
bz
c
ca
california
cambridge
can
canada
cap
capital
carl
case
cases
cat
category
categoryexternallink
cb
cc
cd
cdot
cdots
ce
cee
cell
cemetery
census
center
central
centre
century
cf
cfg
cg
cgi
ch
cha
change
changes
chapter
charles
che
check
chicago
child
china
chinese
christian
chu
church
chv
ci
cia
circ
cite
cities
city
cj
ck
cl
claim
claims
class
classical
close
club
cm
cn
co
coat
code
collection
college
colon
color
colors
columbia
com
committee
common
commons
community
comp
company
complex
component
conference
config
congress
consonant
content
contest
context
copy
corporation
cos
could
council
country
cp
cpa
cq
cr
create
cs
css
csstext
ct
ctg
cu
cultural
culture
cup
current
cv
cw
cx
cy
cz
d
da
dag
daily
dance
das
data
database
datavalue
date
datepart
datestr
david
day
db
dbinet
dbscripts
dc
dd
de
death
dec
december
default
del
delhi
della
delta
dem
demoscope
den
department
der
des
desc
description
design
detail
details
deutsche
deutschen
development
df
dfrac
dg
dh
di
dic
dictionary
dictionnaire
die
digit
digital
din
display
div
dj
dk
dl
dm
dn
do
doc
documents
does
doi
dolny
don
done
dot
dots
dp
dq
dr
ds
dt
du
dur
during
dv
dvd
dw
dx
dy
dz
e
ea
each
early
earth
east
eastern
eb
ec
economic
economist
ed
edit
edited
editing
edition
editor
editors
eds
edu
education
ee
ef
eg
eh
ei
eic
eile
ein
eine
ej
ek
el
else
elseif
em
empire
en
enc
encyclopaedia
encyclopedia
encyclopædia
end
energy
engineering
english
entertainment
entity
entityid
eo
ep
eq
equiv
er
era
erfu
error
es
est
et
etc
eu
europa
europe
european
ev
ew
ex
example
excel
exists
ey
ez
ezhegodnik
f
fa
facebook
fall
false
family
fb
fc
fd
fe
february
festival
ff
fg
fi
field
file
files
film
find
first
fj
fk
flag
floor
fm
fn
fo
folk
folklore
font
fontsize
for
forall
forbes
foreign
form
format
forum
fotki
found
foundation
four
fp
fq
fr
frac
frame
franc
france
franz
free
from
front
fs
ft
fu
full
function
future
fv
fw
fy
g
ga
gallery
game
gamma
garden
gb
gc
ge
gemeinden
gen
general
george
georgia
georgian
german
germany
geschichte
get
getargs
getlabelwithoutlink
getparent
gf
gg
gi
gif
gj
gks
glasgow
global
gm
go
god
gold
golden
good
google
gov
government
gr
grand
gray
great
greece
greek
green
gridcolor
group
gsub
gu
guardian
gubernii
guide
guram
h
ha
hall
hans
haqmar
hardwell
has
hat
have
he
health
heart
height
held
help
henry
her
here
heritage
hero
hg
hi
hiddencat
high
higher
his
histoire
historia
historical
history
ho
holocaust
home
homo
honor
hotel
house
how
hrsg
htm
html
http
https
hu
human
humboldt
hz
i
ia
iaaf
iai
ibm
ibn
ic
ice
icon
id
ie
if
ii
iii
ik
ika
il
im
image
images
imagesize
imdb
img
in
inc
increment
index
india
indian
ine
info
infobox
infocards
information
infty
ing
input
insert
instagram
institute
int
intel
international
internet
interwiki
into
introduction
io
ip
ipairs
ir
iran
iranica
irk
is
isbn
islam
islamic
island
iso
issn
issue
istanbul
istmat
it
item
its
iu
iv
iva
ix
iy
iz
j
ja
james
jan
january
japan
je
jean
jew
jewish
ji
jo
john
joseph
journal
jpeg
jpg
jr
js
json
ju
july
june
just
k
ka
kab
kag
kai
kal
kam
kao
kar
karl
kazimierz
ke
kem
key
kha
khk
ki
king
kir
kirche
km
ko
koda
kom
kos
kp
kra
kremlin
krm
ku
kubanskoy
kug
kur
kurash
kv
kya
kz
l
la
label
lake
lambda
land
landesamt
lang
langle
language
languages
las
last
lat
late
latin
law
ldots
le
left
leipzig
len
lenta
leqslant
les
let
letters
li
lib
library
libya
life
light
like
lim
limited
limits
line
link
links
lip
list
literature
little
live
lkerung
ll
llenden
ln
lo
local
log
london
long
los
louis
love
lower
lp
ltd
lu
lua
lukits
lv
m
ma
machine
made
madrid
mag
magazine
mail
main
mainsnak
make
man
management
many
map
maps
mar
marathon
march
mari
maria
mark
martin
mass
match
math
mathbb
mathbf
mathop
mathrm
mathsf
max
may
mbox
mcdougal
md
me
med
medal
media
mediawiki
medicine
medieval
meeting
memorial
men
message
messages
meta
mg
mi
michael
microsoft
mid
middle
military
min
mit
mk
mm
mn
mo
mobile
mode
model
modern
module
mojgorod
moldova
moll
mon
month
monument
monuments
mor
more
mos
moscow
mosque
most
movement
movie
mow
mp
mr
msh
mu
mun
munst
mur
museum
music
muslim
must
mw
my
n
na
nach
name
names
namespace
narod
nasa
nasdaq
naselennyie
national
nations
natural
nature
nchen
nd
ne
near
need
net
network
new
news
newsru
next
ng
ngr
nh
ni
night
nil
niz
nl
no
nocat
node
non
none
nor
north
not
note
notes
notoc
november
now
nr
nu
num
number
nvs
ny
o
obl
oblasti
och
october
od
of
off
office
official
ogg
oh
oil
ok
okorneva
old
om
omega
oms
on
one
online
only
op
open
opera
operatorname
opt
options
or
order
ore
org
orientation
orig
original
origins
orl
os
ot
other
ottoman
ou
our
out
output
over
overline
oxford
p
pa
padding
page
pages
pairs
palace
panoramio
par
para
parameter
parameters
params
paris
park
parms
part
partial
past
pattern
paul
pdf
pe
people
peoples
per
period
persian
person
peter
pg
ph
phi
philosophy
photo
php
pi
pierre
pink
pl
place
places
plain
please
plotarea
plotdata
pm
pmatrix
pmod
png
pnz
po
poet
poetry
point
poke
policy
political
politics
poly
population
por
port
portal
portrait
pos
position
post
power
pp
pr
pre
precision
prefix
present
press
pri
prime
princeton
prize
pro
profile
program
project
projects
properties
property
propertyid
psk
pt
public
publication
publications
published
publishers
publishing
punktyi
px
q
qquad
quad
qualifier
qualifiers
que
queen
r
ra
radio
radius
range
rangle
rank
rankings
rar
ras
rb
rd
re
read
records
rect
red
ref
reference
reg
region
religion
remix
remove
report
repubblica
republic
require
required
res
research
resources
result
results
ret
retrieved
return
review
revolution
rg
rgb
rho
ri
richard
right
rightarrow
rights
ringer
rise
river
rk
ro
road
robert
rock
roma
roman
root
ros
rossiyskiy
routledge
row
royal
ru
rules
rus
russia
russian
rya
ryanag
s
sa
sah
saint
sak
salavat
sam
same
san
santa
sar
saw
scale
scheme
school
science
sciences
scientific
sdl
se
sea
search
second
section
see
self
selo
sep
september
series
service
set
sev
sh
shift
shk
short
should
show
si
side
sie
sigma
sign
silver
sim
sin
since
site
sites
size
sk
ski
skype
sl
sm
small
smith
smo
snak
so
social
society
software
sok
solar
soldiers
some
son
sony
soul
soundfile
source
south
southern
soviet
sp
space
spb
special
species
specified
sport
sports
spring
sqrt
square
sr
src
ss
ssp
st
sta
stackrel
stage
stalin
stamp
standard
star
start
state
statement
states
station
statistical
statisticheskiy
statistics
statistik
status
statya
stavropolskoy
ster
stockholm
stone
stories
story
str
street
string
structure
studies
study
stuttgart
style
su
sub
subset
success
suffix
sum
sun
support
sur
survey
sve
svg
sweden
symbols
system
systems
t
ta
tab
table
tag
talk
tam
tat
tau
tbilisi
te
team
technology
template
temple
test
text
textcolor
tfrac
tg
th
than
thanks
that
the
their
them
then
theory
there
these
theta
they
third
this
thomas
three
through
thu
thumb
ti
till
time
timeaxis
times
title
tnavbar
to
today
tom
tonumber
tool
top
tostring
total
tour
tower
tr
trade
train
translate
translated
translation
trim
true
ts
tt
tu
tul
turkey
turkish
tuv
tv
tve
two
type
tyu
u
ua
ucoz
udm
uezd
ufa
uk
ukraine
uly
un
und
under
une
unesco
union
unit
united
units
universal
university
unknown
up
update
upload
uploads
upright
url
us
usa
use
used
user
users
using
ussr
ustring
utc
v
va
vaga
val
valley
value
values
van
varepsilon
varnothing
varphi
ve
vec
verlag
version
vertical
verwaltungsgemeinschaften
vgg
vi
video
view
vii
viii
village
vilnius
visa
visual
vk
vla
vladimir
vlg
vmatrix
vo
voiceless
vol
volume
vom
von
vor
vowel
w
wall
want
war
warszawa
was
washington
watch
water
way
wayback
wd
we
web
website
weekly
well
were
west
western
what
when
where
which
while
white
who
why
width
wien
wiki
wikibase
wikidata
wikileaks
wikimedia
wikipage
wikipedia
wikitext
will
william
windows
winter
with
without
wmf
woman
women
word
work
working
works
world
would
wu
www
x
xi
xii
xiii
xiv
xix
xn
xsampa
xv
xvi
xvii
xviii
xx
xxi
xxii
xxiii
xxiv
xxv
xxvi
xxvii
y
ya
yandex
yar
year
years
yellow
ykt
york
you
young
your
youtube
yu
yyyy
z
za
zab
zh
zu
zufar
zum
zur
{
|
}
~
£
¥
§
©
«
¬
­
®
°
±
²
³
´
·
¹
º
»
¼
½
¿
×
æ
ð
÷
ø
ı
ł
ŋ
œ
ǃ
ɐ
ɑ
ɒ
ɔ
ə
ɛ
ɡ
ɣ
ɤ
ɨ
ɪ
ɯ
ɴ
ɵ
ɶ
ɹ
ʃ
ʉ
ʊ
ʏ
ʰ
ʱ
ʲ
ʷ
ʼ
ʾ
ʿ
ˀ
ˈ
ː
ːː
ˑ
˔
˕
˖
ˤ
̀
́
̂
̃
̄
̅
̆
̇
̈
̉
̊
̋
̌
̏
̑
̓
̔
̛
̝
̞
̟
̠
̣
̥
̦
̧
̨
̪
̫
̮
̯
̱
̲
̸
̽
̿
͂
͍
͜
͡
α
β
γ
δ
ε
η
θ
ι
λ
μ
ν
ο
π
ρ
ς
σ
υ
χ
ω
а
ааи
аалто
абаи
аббас
аббат
аббатлығы
абд
абдрахман
абдрахманов
абдул
абдулла
абдуллин
абдуллина
абдулхаҡ
абель
абзелиловскии
аборт
абрам
абрамов
абрамович
абрар
абруи
абсолют
абстракт
абу
абхаз
абхазия
абыҙ
абҙан
абҙаҡ
авангард
авар
авария
аварҙар
авг
август
августа
августан
августин
августта
августында
авгусы
авгусына
авгусынан
авгусында
авгусындағы
авгусҡа
авеста
авиакомпанияһы
авиации
авиация
авиацияһы
авив
авраам
аврелии
аврора
австралия
австралияла
австралияның
австрии
австрия
австрияла
австрияның
австрияға
австро
авт
автобиографик
автобиография
автобус
автобустар
автобустары
автобусы
автовокзал
автомат
автоматик
автоматически
автоматлаштырылған
автоматлаштырыу
автомобилдәр
автомобиле
автомобилист
автомобиль
автоном
автономия
автономиялы
автономияһы
автономияһын
автономияһының
автономлы
автономная
автономныи
автопортрет
автор
автора
автореф
автореферат
авторитар
авторлыҡ
авторов
авторы
авторҙ
авторҙар
авторҙары
авторҙарының
авторҙарҙың
авторҙаш
авторҙашлыҡта
авторҙашы
авторҙың
автотранспорт
агата
агент
агентлығы
агентлығының
агентство
агенттары
агенты
агитация
агиш
агломерацияһы
аграр
агрегат
агрессив
агроном
агрономия
агрономы
агросәнәғәт
ад
ада
адад
адам
адамс
адвокат
админ
административ
административно
административныи
административных
администратор
администрации
администрация
администрацияһы
адмирал
адмиралтеи
адмиралы
адольф
адрес
адресы
адриан
адриатик
адъютанты
адыгеи
адыгея
аждаһа
аз
азамат
азат
азатлығы
азатлығын
азатлыҡ
азбука
азербаи
азии
азия
азияла
азиялағы
азиянан
азияны
азияның
азияға
азнабаев
азов
азовскии
азот
аи
аида
ак
акад
академигы
академии
академик
академика
академиктар
академиктары
академическии
академия
академияла
академияны
академияның
академияға
академияһы
академияһын
академияһына
академияһында
академияһының
акварель
аккад
аксаи
аксаков
аксе
аксель
аксенов
аксиомалар
акт
актах
акте
актер
актерлыҡ
актеры
актерҙар
актив
актриса
актрисалар
актрисалары
актрисаның
актрисаһы
акттар
акттары
актуаль
актуальные
акты
акустик
акушер
акушерлыҡ
акционер
акционерҙар
акция
акциялар
акциялары
акцияһы
ал
ала
алабуға
алабыҙ
алаи
алалар
алам
алан
аланд
аландар
алания
аласаҡ
алатау
алатырь
алаһығыҙ
албан
албандар
албания
албанияла
албанияның
алгебра
алгебраик
алгебраның
алгоритм
алгоритмдар
алгоритмы
алда
алдан
алдар
алдараҡ
алдағы
алды
алдым
алдына
алдынан
алдында
алдындағы
алдынғы
алдынғыһы
але
алеи
александр
александра
александрии
александрия
александро
александров
александрова
александрович
александровка
александровна
александрово
александровскии
александровское
алексеев
алексеева
алексеевич
алексеевка
алексеевна
алексеевскии
алексеевское
алексеи
алексея
алексин
алексино
алеппо
алжир
али
алиев
алик
алина
алиның
алиса
алишер
алия
алиһә
алиһәһе
алкоголь
алла
аллааһү
аллабирҙе
аллалар
алланың
аллаяров
аллаға
аллағыуат
аллаһ
аллаһтың
аллаһу
аллаһы
аллаһҡа
аллен
аллея
аллеяһы
аллеяһында
аллы
алма
алмаз
алмаи
алманы
алмас
алматы
алматыла
алмау
алмауы
алмауын
алмаш
алмаштар
алмаштары
алмаштыра
алмаштырыла
алмаштырылған
алмаштырып
алмаштырырға
алмаштырыу
алмаштырған
алмашына
алмашыныу
алмашыныуы
алмашыу
алмашҡа
алмаған
алмағанда
алмағанлыҡтан
алмағас
алмаҫ
алмаҫлыҡ
алмаһа
алонсо
алпамыша
алпауыт
алтаи
алтарь
алтмыш
алты
алтын
алтындан
алтынсы
алтынға
алф
алфавит
алфавиты
алфавитын
алфавитына
алфавитында
алфавитының
алфе
алым
алымдар
алымдары
алымдарын
алымы
алымын
алына
алынды
алынмаи
алынмаған
алынып
алыныу
алыныуы
алынған
алынғандан
алынғас
алып
алыр
алырлыҡ
алырға
алыу
алыусы
алыусылар
алыуы
алыуын
алыуына
алыуға
алыуҙа
алыуҙан
алыуҙар
алыуҙары
алыуҙы
алыуҙың
алыш
алыша
алышта
алыштан
алыштар
алыштары
алыштарында
алыштарҙа
алышты
алыштыра
алыштырғыһыҙ
алыштың
алышы
алышында
алышыу
алышыуҙар
алышҡа
алыҫ
алыҫлығы
алыҫлыҡ
алыҫлыҡта
алыҫлыҡтағы
алыҫлыҡҡа
алыҫта
алыҫтан
алыҫыраҡ
алыҫҡа
аль
альберт
альбина
альбом
альбомдар
альбомдары
альбомы
альбомын
альбрехт
альманах
альп
альт
альтернатив
альтернатива
альфа
альфред
альцгеи
альшеевскии
альянс
альянсы
алюмин
алюминии
аляска
алға
алған
алғанда
алғандан
алғандар
алғаны
алғанға
алғас
алғы
алһа
алһын
алһыу
ам
амазонка
аман
аманат
америка
америкала
америкалағы
американ
американдар
американы
американың
америкаға
америкаһы
америкаһында
америки
амет
аминов
аммиак
амнистия
амстердам
амударъя
амур
амурская
амфитеатр
амфора
ан
ана
анализ
анализа
анализдың
анализлау
анализы
аналитик
аналитика
аналогы
анархия
анастасия
анатолии
анатолия
анатолияла
анатольевич
анатольевна
анатомик
анатомия
анатомияһы
ангел
англ
англии
англия
англияла
англияның
англияға
англо
ангола
анд
андерсен
анджелес
анджелеста
андре
андреа
андреапольскии
андреев
андреева
андреевич
андреевка
андреевна
андреевскии
андреевское
андреи
андрея
андропов
анимация
анкара
анна
анны
аноним
анри
ансамбле
ансамбленең
ансамбль
ансар
ант
анталья
антанта
антарктида
антарктика
антверпен
антигуа
антик
антиклыҡ
антиох
антология
антологияһы
антон
антонии
антонин
антонина
антонио
антонов
антонович
антоновка
антроповскии
антропоген
антропологии
антропологик
антропология
антуан
анхальт
аныҡ
аныҡлау
аныҡлаусы
аныҡлыҡ
ао
ап
апаи
апаһы
апелляция
аполлон
апостол
апостолдар
аппарат
аппараттары
аппараты
аппаратын
аппаратында
апр
апрелгә
апрелдә
апрелдән
апреле
апрелендә
апрелендәге
апреленә
апреленән
апрель
апреля
апшерон
ар
ара
арагон
аракс
арал
арала
аралары
араларында
аралаш
аралаша
аралашсы
аралашып
аралашыу
аралашҡан
аралбаи
аралығы
аралығында
аралыҡ
аралыҡта
арамеи
араны
арарат
арауығы
арауығында
арауыҡ
арауыҡта
арауыҡты
арауыҡтың
арафат
араға
араҡы
араһы
араһын
араһына
араһынан
араһында
араһындағы
арба
арбитраж
аргентина
аргентинала
аргентинаның
аргумент
аргументы
аргун
ардах
ареалы
арена
аренала
аренаһы
арзамасскии
арзан
арии
аристократия
аристотель
арифметик
арифметика
арка
аркадии
аркадьевич
аркалар
аркалы
арктик
арктика
аркуль
армении
армения
армии
армия
армияла
армиялар
армиялары
армиянан
армияны
армияның
армияға
армияһы
армияһын
армияһына
армияһынан
армияһында
армияһының
армян
арнаи
арнала
арналған
арнап
арнольд
арпа
арсенал
арскии
арт
арта
артабан
артабанғы
арте
артем
артериаль
артефакттар
артиллерии
артиллеристары
артиллерия
артиллерияһы
артист
артистар
артистары
артисы
артлы
артмаи
артмаған
артта
артты
арттыра
арттырыла
арттырып
арттырырға
арттырыу
арттырыуға
артур
арты
артына
артынан
артында
артындағы
артынса
артып
артыу
артыуы
артыуын
артыуына
артыш
артығы
артығыраҡ
артыҡ
артыҡлыҡ
артҡа
артҡан
артҡы
арх
архаик
архангел
архангель
архангельск
архангельская
архангельскии
архангельское
археи
археолог
археологии
археологик
археологическая
археологические
археология
археологияһы
археологтар
археологтары
археологы
архив
архива
архивировано
архивланған
архивная
архивы
архивында
архиепискобы
архиепископ
архиереи
архимед
архипелаг
архипелагтың
архипелагы
архитектор
архитекторы
архитекторҙар
архитекторҙары
архитектура
архитектураһы
архитектураһында
архитектураһының
архитектуры
аръяғы
аръяғына
аръяғында
аръяғындағы
ары
арыш
арыҫлан
арыҫланбәк
арыҫланов
арғаяш
арҙаҡлы
арҡа
арҡаи
арҡала
арҡауыл
арҡаһы
арҡаһында
арҡыры
ас
аса
асад
асалар
асанбаев
асия
аскинскии
аслыҡ
аслыҡтан
аспект
аспекты
аспирант
аспирантура
аспирантурала
аспирантураны
аспирантураға
аспирантураһын
аспирантураһына
аспирантураһында
аспиранты
ассамблея
ассамблеяһы
ассирии
ассирия
ассистент
ассистенты
ассоциации
ассоциация
ассоциацияһы
ассоциацияһына
ассоциацияһының
асср
аст
астана
астероид
астероидтар
астероидтарҙың
астраханская
астрахань
астрель
астрид
астроном
астрономдар
астрономдары
астрономик
астрономия
астрономияла
астрономы
асты
асфальт
асфандияров
асы
асыла
асылда
асылды
асылы
асылыкүл
асылын
асылыу
асылыуы
асылған
асылғандан
асып
асырға
асыу
асыусы
асыуы
асыуын
асыуға
асыуҙа
асыш
асыштар
асыштары
асышы
асыҡ
асыҡлаи
асыҡлана
асыҡланмаған
асыҡланыуынса
асыҡланған
асыҡлап
асыҡларға
асыҡлау
асыҡлаған
асыҡлыҡ
асыҡтан
асҡан
асҡар
асҡын
асҡыс
ат
ата
атаи
атала
аталалар
аталары
аталып
аталған
атама
атамалар
атамалары
атамаларын
атамалы
атаман
атаманы
атаманың
атамаһы
атамаһын
атамаһына
атамаһынан
атамаһының
атаны
атап
атарға
ататөрк
атау
атаған
атағандар
атаҡлы
атаһы
атаһын
атаһына
атаһынан
атаһының
атлант
атлантик
атлап
атлас
атласы
атлетика
атлетико
атлеттар
атлеты
атлы
атлылар
атлылары
атмосфера
атмосферала
атмосфераның
атмосфераһы
атнабаев
атом
атомдар
атомдары
атрибуты
атта
аттар
аттары
аттарын
аттарҙы
аттарҙың
аттестация
аттила
атты
аттың
аты
атыла
атылған
атып
атырға
атыу
атыусы
атыуы
атыш
атҡа
атҡан
атҡаҙанған
ау
аудио
аудитория
аул
аулаи
аулау
аургазинскии
ауробиндо
ауыл
ауылда
ауылдан
ауылдар
ауылдары
ауылдарын
ауылдарына
ауылдарынан
ауылдарында
ауылдарының
ауылдарға
ауылдарҙа
ауылдарҙан
ауылдарҙы
ауылдарҙың
ауылдағы
ауылды
ауылдың
ауылы
ауылын
ауылына
ауылынан
ауылынанбашҡорт
ауылында
ауылындағы
ауылының
ауылға
ауыр
ауырлығы
ауырлығын
ауырлыҡ
ауырлыҡтар
ауырлыҡтағы
ауыртыу
ауырыи
ауырып
ауырыраҡ
ауырыу
ауырыуы
ауырыуын
ауырыуынан
ауырыуҙан
ауырыуҙар
ауырыуҙары
ауырыуҙарын
ауырыуҙарға
ауырыуҙарҙан
ауырыуҙарҙы
ауырыуҙарҙың
ауырыуҙы
ауырыуҙың
ауырыған
ауырға
ауырғазы
ауыш
ауышлығы
ауыҙ
ауыҙы
афанасии
афанасьев
афанасьевич
афганистане
афина
афинала
африка
африкала
африкалағы
африканан
африканы
африканың
африкаға
афған
афғанстан
афғанстанда
афғанстандың
афғанстанға
ах
ахеи
ахл
ахмадиев
ахматова
ахметов
ахун
ахыр
ахыры
ахырына
ахырында
ахырғы
ахырҙа
ацтек
ацтектар
ачинск
аш
аша
ашаи
ашамлыҡ
ашамлыҡтар
ашап
ашарға
ашатыу
ашау
ашаған
ашлама
ашламалар
ашлыҡ
ашмаи
ашока
ашот
ашуғ
ашхабад
ашхана
ашшур
ашы
ашып
ашыра
ашырыла
ашырылмаи
ашырылған
ашырырға
ашырыу
ашырыусы
ашырыуға
ашырыуҙа
ашырған
ашыу
ашыуы
ашыға
ашығыс
ашҡа
ашҡаҙан
ашҡаҙар
аэродром
аэропорт
аэропорттар
аэропорты
аэропортында
аэс
аюпов
аят
аяттан
аяуһыҙ
аяғы
аяғын
аяҡ
аяҡлы
аяҡтары
аяҡҡа
аға
ағаи
ағалары
ағалы
ағартыу
ағас
ағаста
ағастан
ағастар
ағастары
ағастарҙы
ағастарҙың
ағасты
ағастың
ағасы
ағасҡа
ағаһы
ағаһының
ағза
ағзалар
ағзалары
ағзаларын
ағзаларына
ағзаларының
ағзалығына
ағзалыҡҡа
ағзанан
ағзаһы
ағинәи
ағиҙел
ағиҙелдең
ағыла
ағым
ағымдар
ағымдары
ағымдағы
ағымы
ағымын
ағымына
ағымында
ағымының
ағып
ағыу
ағыуланыу
ағыулы
ағыҙыу
аҙ
аҙау
аҙағы
аҙағына
аҙағынан
аҙағынаса
аҙағында
аҙағындағы
аҙағыраҡ
аҙаҡ
аҙаҡтан
аҙаҡҡы
аҙна
аҙнабаев
аҙнаи
аҙнала
аҙналыҡ
аҙнанан
аҙнаның
аҙнаға
аҙнағол
аҙнаҡаи
аҙнаһына
аҙсылыҡ
аҙым
аҙымдар
аҙыраҡ
аҙығы
аҙыҡ
аҙыҡтары
аҙыҡты
аҙҙан
аҡ
аҡбаш
аҡбулат
аҡбур
аҡбуҙат
аҡкүл
аҡлаи
аҡлана
аҡланғандар
аҡлау
аҡмулла
аҡрынлап
аҡса
аҡсаи
аҡсалар
аҡсалары
аҡсалата
аҡсаны
аҡсаның
аҡсарлаҡ
аҡсаға
аҡсаһы
аҡсаһын
аҡсаһына
аҡтаныш
аҡтар
аҡтарҙың
аҡтүбә
аҡш
аҡъяр
аҡыл
аҡылдан
аҡыллы
аҡылы
аҡылға
аҡҡан
аҡҡашҡа
аҡҡош
аҡһаҡ
аҡһаҡалдар
аҡһыл
аҡһым
аҡһымдар
аҡһөи
аң
аңдың
аңлаи
аңламаи
аңлап
аңларға
аңлата
аңлатакүсимова
аңлаталар
аңлатма
аңлатмаи
аңлатмалар
аңлатмалы
аңлатмаһы
аңлатыла
аңлатып
аңлатырға
аңлатыу
аңлатҡан
аңлау
аңлашыла
аңлаған
аңлы
аңын
аҫ
аҫаба
аҫабалыҡ
аҫта
аҫтан
аҫтараҡ
аҫты
аҫтына
аҫтынан
аҫтында
аҫтындағы
аҫыл
аҫылмалы
аҫып
аҫҡа
аҫҡы
б
ба
баб
баба
бабаевскии
бабаи
бабалар
бабалары
бабаларының
бабаһы
бабил
бабино
бабич
бабур
бабушка
бабушкинскии
бавария
багратион
бад
баден
база
базалары
базальт
базаһы
базаһын
базаһына
базаһында
базе
базель
базилика
базиликаһы
баи
баимов
баишев
бакалавр
бакалавриат
бакалея
бакалинская
бакалинскии
бактериялар
бактрия
баку
бал
бала
балаково
балалар
балалары
балаларын
балаларына
балаларының
балаларға
балаларҙа
балаларҙы
балаларҙың
балалы
балалыҡ
баланы
баланың
балар
балауыҙ
балашов
балаға
балаҡатаи
балаһы
балаһын
балерина
балет
балета
балетмеи
балеты
балетында
балка
балкан
балкария
балкон
балл
баллада
баллистик
баллы
балсыҡ
балсыҡлы
балсыҡтан
балта
балтас
балтачевскии
балтии
балтик
балтика
балтиҡ
балы
балығы
балыҡ
балыҡлы
балыҡсы
балыҡсылар
балыҡсылыҡ
балыҡтар
балыҡтары
балыҡтарҙың
балыҡҡа
бальмонт
бальмонттың
балҡан
балҡанда
балҡар
бан
банан
банат
бангкок
бангладеш
бани
банк
банка
банкир
банкноталар
банктар
банктың
банкы
банкының
банкыһы
баны
баня
бар
бара
барабан
барак
баралар
баранов
барановка
бараново
барбара
барельеф
баренц
баритон
барлығы
барлығын
барлыҡ
барлыҡҡа
бармаи
бармаҡ
бармы
барнаул
барокко
барон
барс
барса
барселона
барсуки
бартольд
бары
барыбер
барыи
барыла
барылған
барын
барып
барыр
барырға
барыу
барыусы
барыусылар
барыусыһы
барыуы
барыуын
барыуға
барыуҙы
барышы
барышын
барышына
барышында
барыҫ
барыһы
барыһын
барыһына
барыһынан
барған
барғанда
барҙы
барһа
бас
баскетбол
бассеи
басср
бастион
бат
бата
батаи
батальон
батальоны
батальонының
батарея
батареяһы
батист
батор
баттерфляи
батуми
батш
батша
батшабикә
батшабикәнең
батшабикәһе
батшабикәһенең
батшалар
батшалары
батшаларының
батшалығы
батшалығын
батшалығына
батшалығында
батшалығының
батшалыҡ
батшалыҡтар
батшалыҡтың
батшаны
батшаның
батшаға
батшаһы
батшаһының
батыи
батып
батыр
батыра
батыргәрәи
батырлығы
батырлыҡ
батырлыҡтары
батыры
батырҙар
батырҙарса
батырҙың
батҡан
бау
баулы
бауман
бауыр
бах
бахмут
бахреи
бахчисараи
баш
башаҡ
башаҡтары
башвики
башгу
башинформ
башк
башкир
башкирии
башкирия
башкиров
башкирская
башкирские
башкирскии
башкирских
башкирско
башкирского
башкирское
башкирскои
башкирском
башкиры
башкирэнерго
башкнигоиздат
башкорт
башкортостан
башкортостана
башкортостане
башлаи
башлана
башланды
башланы
башланып
башланыр
башланыу
башланыуы
башланыуын
башланыуға
башланған
башланғанда
башланғандан
башланғанға
башланғас
башланғыс
башланғысы
башлап
башларға
башлау
башлаусы
башлауы
башлаған
башлағанда
башлағандан
башлағандар
башлағас
башлы
башлыса
башлығы
башлығын
башлығының
башлыҡ
башлыҡтары
башлыҡтарының
башнефть
башни
башня
башнялар
башнялары
башняның
башняһы
башревком
башта
баштан
баштараҡ
баштары
баштарында
баштағы
башы
башын
башына
башынан
башында
башындағы
башының
башҡ
башҡа
башҡалар
башҡалары
башҡаларға
башҡаларҙан
башҡаларҙы
башҡаларҙың
башҡара
башҡаралар
башҡарма
башҡарыла
башҡарылған
башҡарып
башҡарырға
башҡарыу
башҡарыусы
башҡарыусылар
башҡарыусыларҙың
башҡарыусыһы
башҡарыуында
башҡарған
башҡарғанда
башҡарҙы
башҡаса
башҡорт
башҡорто
башҡортостан
башҡортостанда
башҡортостандан
башҡортостандағы
башҡортостанды
башҡортостандың
башҡортостаны
башҡортостанға
башҡортса
башҡортсаға
башҡорттар
башҡорттары
башҡорттарынан
башҡорттарының
башҡорттарға
башҡорттарҙа
башҡорттарҙан
башҡорттарҙы
башҡорттарҙың
башҡорттоң
башҡортҡа
баязит
баян
баяр
бағана
бағаналар
бағанаһы
бағдад
бағышлаи
бағышлана
бағышланған
бағышлап
бағышлаған
баҙар
баҙары
баҙарына
баҙарында
баҙарға
баҙарҙа
баҙнат
баҡал
баҡалы
баҡса
баҡсала
баҡсалар
баҡсалары
баҡсасылыҡ
баҡсаһараи
баҡсаһы
баҡсаһына
баҡсаһында
баҡы
баҡыи
баҡыла
баҡыр
баҡыға
баҫа
баҫма
баҫмала
баҫмалар
баҫмалары
баҫмаларында
баҫмаларҙа
баҫмаларҙаргб
баҫманың
баҫмаға
баҫмаһы
баҫмаһында
баҫмаһының
баҫтыра
баҫтырыла
баҫтырылып
баҫтырылған
баҫтырылғандан
баҫтырып
баҫтырырға
баҫтырыу
баҫтырыуға
баҫтырыуҙа
баҫтырған
баҫыла
баҫылып
баҫылған
баҫым
баҫымлы
баҫымы
баҫып
баҫырға
баҫыу
баҫыусылыҡ
баҫыуы
баҫҡан
баҫҡыс
баҫҡыслы
баҫҡыстар
баҫҡыстары
баҫҡысы
баһа
баһалаи
баһалама
баһалана
баһаланған
баһалап
баһалар
баһалау
баһалаған
баһаһы
баһаһын
баһрам
баһын
бб
бгму
бгпу
бдб
бдму
бдсо
бду
бе
бежаницкии
бежецкии
без
безвозвратных
безопасности
безупречную
беи
бек
бекетов
бел
бела
беларус
беларуси
беларуская
беларусь
беларусі
белая
белгес
белгесе
белгестәр
белгестәре
белгестәрен
белгестәренең
белгестәрҙе
белгестәрҙең
белгород
белгородская
белград
белградта
белградты
белгән
белгәндәр
белгәс
белдергән
белдерелә
белдереп
белдереү
белдереүе
белдереүенсә
белдереүсе
белдерҙе
белдерә
белдерәләр
беле
белебеевскии
белем
белемгә
белемде
белемдең
белемдәр
белеме
белемен
белемле
белеп
белергә
белешмә
белешмәләр
белешмәһе
белеү
белеүе
белеүен
белинскии
беллини
белмәгән
белмәи
белов
беловскии
белогорскии
белое
белозерскии
белои
белокалитвинскии
белокатаи
белорет
белорецк
белорецкии
белореченскии
белорус
белоруссии
белоруссия
белоруссияла
белоруссияның
белорустар
белые
белыи
бельгия
бельгияла
бельские
бельскии
беляев
белә
бен
бенгал
бенджамин
бенедикт
бензин
бер
бербер
берг
бергман
бергә
бергәләп
бере
берег
береговои
берегу
березина
березник
березники
березовка
березово
березовскии
берекмә
берекмәләре
берекмәһе
берекмәһендә
берекмәһенең
беренсе
беренсел
беренселеге
беренселегендә
беренселегенең
беренселек
беренселектә
беренселәрҙән
беренсенең
беренсенән
беренсеһе
береһе
береһен
береһендә
береһенең
береһенә
береһенән
беринг
берия
берияның
беркетелгән
беркетелә
беркетеп
берлеге
берлеген
берлегенең
берлегенә
берлек
берлектә
берлектәге
берлин
берлина
берлинда
берлиндағы
берлинды
берлиндың
берлинға
берлиоз
берләшеп
берләшеү
берләшеүе
берләшкән
берләшмә
берләшмәләр
берләшмәләре
берләшмәләрҙең
берләшмәнең
берләшмәһе
берләшмәһендә
берләшмәһенең
берләшмәһенә
берләштергән
берләштерелгән
берләштерелә
берләштереп
берләштерергә
берләштереү
берләштереүгә
берләштереүсе
берләштерә
берләшә
берн
бернар
бернард
берҙә
берҙәи
берҙәм
берҙәмлеге
берҙәмлеген
берҙәмлек
берҙән
берҙәр
берҙәре
берҙәрен
берҙәрендә
берҙәренең
берҙәрҙе
берҙәрҙең
берәи
берәмеге
берәмеген
берәмегенә
берәмек
берәмеккә
берәмектең
берәмектәр
берәмектәре
берәмектәренең
берәмектәренә
берәмектәрҙең
берәр
берәү
берәүҙәр
беседы
бессарабия
бесәи
бесән
бесәнлектәр
бета
бетон
бетондан
бетховен
бетховендың
бешерелгән
бешерелә
бешереп
бешереү
бешерәләр
бешкән
беҙ
беҙгә
беҙҙе
беҙҙең
беҙҙә
би
биатлон
библеи
библиогр
библиографик
библиографическии
библиография
библиографияһы
библиотека
библиотеке
библиотеки
библия
библияла
биг
бигерәк
бигүк
бижбулякскии
бизе
бизнес
бии
биишева
бик
бикбаев
бикбаи
бикбау
бикбов
бикбулатов
бикләү
биктимер
бикҡол
бикҡолова
бил
билал
билбау
билбауы
билдинг
билдә
билдәле
билдәлелек
билдәлеләре
билдәлеһе
билдәләгән
билдәләгәндә
билдәләи
билдәләмә
билдәләмәләр
билдәләмәһе
билдәләнгән
билдәләнде
билдәләне
билдәләнелә
билдәләнмәгән
билдәләнә
билдәләп
билдәләр
билдәләргә
билдәләре
билдәләрен
билдәләренә
билдәләү
билдәләүенсә
билдәләүсе
билдәһе
билдәһен
билдәһенә
билдәһеҙ
билдәһеҙлек
билет
билл
бильярд
биләгән
биләи
биләмә
биләмәлә
биләмәләр
биләмәләре
биләмәләрен
биләмәләрендә
биләмәләренең
биләмәләренә
биләмәләренән
биләмәләрҙе
биләмәләрҙә
биләмәне
биләмәнең
биләмәһе
биләмәһен
биләмәһендә
биләмәһендәге
биләмәһенең
биләмәһенә
биләмәһенән
биләп
биләргә
биләү
биләүсе
бин
бина
бинала
биналар
биналары
биналарын
биналарының
биналарҙа
биналарҙы
биналарҙың
бинанан
бинаны
бинаның
бинар
бинаға
бинаһы
бинаһын
бинаһына
бинаһында
бинаһының
бинт
биобиблиографик
биобиблиографическии
биогр
биографии
биографик
биографическая
биографическии
биография
биографияһы
биографияһын
биолог
биологии
биологик
биология
биологияһы
биосфера
биотехнология
биофизика
биохимик
биохимия
бир
биргән
биргәндә
биргәндәр
бирегеҙ
бирелгән
бирелде
бирелеп
бирелергә
бирелеү
бирелеүе
бирелмәгән
бирелмәи
бирелмәләр
бирелһә
бирелә
биреп
бирер
бирергә
бирешмәи
биреү
биреүгә
биреүе
биреүен
биреүсе
биреүселәр
биреүҙе
биреүҙең
биреүҙә
биреүҙән
биржа
биржаһы
бирле
бирма
бирмингем
бирмәгән
бирмәи
бирскии
бирюков
бирҙе
бирҙин
бирһә
бирә
бирәләр
бисмарк
бит
битараф
битва
бите
битен
битендә
битенә
биткои
биткә
битлек
битләүе
битләүендә
битләүҙәре
битләүҙәрендә
битте
биттең
биттә
биттәр
биттәре
биттәрендә
биттәрҙе
бихисап
биш
бишбүләк
бишенде
бишенсе
бишҡаҙаҡ
бия
биҙгәк
биҙе
биҙҙәре
биҙәге
биҙәгән
биҙәи
биҙәк
биҙәкле
биҙәктәр
биҙәктәре
биҙәлгән
биҙәлеше
биҙәлә
биҙәп
биҙәү
биҙәүестәр
биҫтәләре
биҫтәһе
биҫтәһендә
биҫтәһендәге
благовар
благоварскии
благовещен
благовещенскии
ближаи
блог
блогы
блок
блокада
блокадаһы
блоктар
блохин
блюз
блюхер
блюхерҙың
бмо
бниц
бо
боб
бобров
бобровка
бобровницкии
бобруи
бобслеи
бог
богдан
богданов
богданович
богдановка
богданово
богема
богемия
боголюбов
богомолов
богородица
богородицы
богородскии
богородское
богословскии
бодров
боевиктар
боевои
боеприпастар
божья
бои
боковскии
бокс
боксе
боксер
бокситогорскии
бол
бола
болан
боланы
болгар
болгария
болгарияла
болгарияның
болгарияға
болгарҙар
более
болезнеи
болезни
болеслав
боливар
боливия
бологовскии
болон
болот
болото
болоттар
болт
болховскии
больница
больных
большая
больше
большевик
большевиктар
большевиктарға
большевиктарҙың
большевистик
большесельскии
большие
большого
большое
большои
болғар
болғарҙар
бомба
бомбардир
бомбардировка
бомбардиры
бомбаға
бомбеи
бонапарт
бондаренко
бондюг
бор
бораи
борис
бориса
борисов
борисова
борисович
борисовка
борисовна
борисово
борисоглебскии
борки
бормалы
боровичскии
боровскии
бородин
бородино
борок
борола
боролоп
боролош
борон
борондан
боронғо
боронғоһо
борос
борсаҡ
борьба
борьбе
борьбы
боснии
босния
босс
бостон
босфор
бот
ботаник
ботаника
ботағы
ботаҡтары
бохара
бохарала
бохараға
бохари
бочкаре
бояр
боярин
боғаҙ
боғаҙы
боғаҙҙары
боғорослан
боҙ
боҙа
боҙаяҙ
боҙло
боҙлоҡ
боҙлоҡтар
боҙола
боҙолоу
боҙолоуы
боҙолған
боҙоп
боҙоу
боҙоуҙа
боҙоуҙар
боҙға
боҙған
боҙҙа
боҙҙан
бр
брагин
бразилия
бразилияла
бразилияның
браи
брак
бранденбург
брат
братина
братислава
братскии
братья
браун
брахман
брежнев
бреи
брест
брехт
бригада
бригадаһы
бригадаһында
бригадаһының
бригадир
бригадиры
британ
британдар
британия
британияла
британиянан
британияның
британияға
британника
брод
бродвеи
бродскии
броз
брокгауз
брокгауза
бронепоезд
бронетанк
бронза
бронзанан
брунеи
бруно
брэ
брэдбери
брюс
брюсов
брюсселдә
брюссель
брянск
брянская
брянскии
бсср
бст
бсэ
бтз
бу
буг
бугера
буда
будапешт
будапештта
будда
буддизм
буддизмдың
буде
будем
буденныи
будет
будут
будущего
будущее
буздякскии
буи
бук
буквы
бул
була
булав
булалар
булараҡ
буласаҡ
булат
булатов
булгаков
булды
булдым
булдыра
булдыралар
булдырмау
булдырыла
булдырылды
булдырылған
булдырып
булдырырға
булдырыу
булдырыусы
булдырыуға
булдырыуҙа
булдырыуҙы
булдырған
булиттар
булла
буллинскии
булмаи
булманы
булмау
булмауы
булмауын
булмауына
булмаясаҡ
булмаған
булмағанда
булмағандар
булмағанлыҡтан
булмағанға
булмағас
булмаҫ
булмаҫҡа
булмаһа
булмаһын
булып
булыр
булырлыҡ
булырға
булыу
булыусы
булыусылар
булыуы
булыуын
булыуына
булыуынан
булыуында
булыуынса
булыуға
булыуҙан
булыуҙары
булыуҙы
булыша
булышлығы
булышлығында
булышлыҡ
булығыҙ
бульвар
бульвары
булған
булғанда
булғандан
булғандар
булғандарҙы
булғандарҙың
булғандыр
булғанлығы
булғанлығын
булғанлыҡтан
булғанса
булғаны
булғанын
булғанға
булғас
булһа
булһалар
булһын
бунин
бур
бура
бураевскии
буран
буранаи
буранбаи
буранлы
буранғол
буранғолов
бураҡаева
бургундия
буржуаз
буржуазия
бурзянскии
бурунди
бурыс
бурыслы
бурыстар
бурыстары
бурыстарын
бурыстарҙы
бурысты
бурысы
бурысын
бурысҡа
бурятия
бурһыҡ
бус
буталсыҡ
бутан
бутарға
бутырки
бутҡаһы
бухарест
бухарин
бухгалтер
буш
бушата
бушатыла
бушатыу
бушлаи
бушҡа
буэнос
буялған
буяу
буяуҙар
буға
буҫтау
бы
бывшее
бывшии
быи
быков
быково
был
была
былаи
былар
быларҙың
были
было
бына
бынан
бында
бындаи
бындағы
быны
бының
быраулау
бысаҡ
бысаҡтар
бысраныуы
бысраҡ
быт
быть
быуа
быуалар
быуат
быуатта
быуаттан
быуаттар
быуаттарға
быуаттарҙа
быуаттарҙан
быуаттарҙағы
быуаттарҙың
быуаттағы
быуаттың
быуаты
быуатына
быуатында
быуатҡа
быуаһы
быуын
быуындан
быуындар
быуынды
быуыны
быуынға
быуып
бышев
бышевскии
быяла
быға
бығаса
быҙ
быҙау
быҙаулыҡ
бье
бэ
бэи
бюджет
бюджеты
бюллетень
бюро
бюроһы
бюроһында
бюроһының
бюст
бюсы
бүздәк
бүлгеләнгән
бүлгән
бүлеге
бүлеген
бүлегендә
бүлегенең
бүлегенә
бүлек
бүлеккә
бүлексә
бүлексәләре
бүлексәһе
бүлексәһендә
бүлексәһенең
бүлектең
бүлектә
бүлектән
бүлектәр
бүлектәре
бүлектәрендә
бүленгән
бүлендек
бүленеп
бүленеш
бүленеше
бүленеү
бүленеүе
бүленә
бүленәләр
бүлеп
бүлергә
бүлешеү
бүлешә
бүлеү
бүлеүгә
бүлеүҙе
бүлеүҙән
бүлкәте
бүлкәтендә
бүлмә
бүлмәле
бүлмәлә
бүлмәләр
бүлмәләре
бүлмәһе
бүлмәһендә
бүлә
бүләге
бүләк
бүләккә
бүләкләи
бүләкләнгән
бүләкләнгәндәр
бүләкләнде
бүләкләнеүселәр
бүләкләнә
бүләкләү
бүләков
бүләктәр
бүләктәре
бүләләр
бүләр
бүләһе
бүре
бүребаи
бүрәнә
бүрәт
бүтән
бәи
бәк
бәкер
бәков
бәлеш
бәлиғ
бәлки
бәлә
бәләбәи
бәләкәи
бәрелеш
бәрелеше
бәрелештәр
бәрелешә
бәреп
бәрхәт
бәрҙе
бәрәңге
бәт
бәхет
бәхете
бәхетле
бәхетһеҙ
бәхтегәрәи
бәхтеи
бәхәс
бәхәскә
бәхәсле
бәхәстәр
бәхәстәрҙе
бәхәсһеҙ
бәшир
бәширов
бәшмәк
бәшмәктәр
бәшнәктәр
бәшәр
бәҙретдин
бәҙретдинов
бәүел
бөгөлгән
бөгөлмә
бөгөн
бөгөнгө
бөжәк
бөжәктәр
бөжәктәрҙең
бөи
бөлгөнлөккә
бөри
бөркөт
бөркөтө
бөртөк
бөртөклө
бөрө
бөткән
бөткәс
бөткөһөҙ
бөтмәгән
бөтмәи
бөтә
бөтәһе
бөтәһен
бөтәһенә
бөтәһенән
бөтөн
бөтөнләи
бөтөнлөгөн
бөтөп
бөтөрә
бөтөрөлгән
бөтөрөлгәндән
бөтөрөлгәс
бөтөрөлә
бөтөрөлөүе
бөтөрөргә
бөтөрөү
бөтөрөүгә
бөтөү
бөҙрә
в
ва
ваба
вавилов
вавилон
вага
вагаи
вагнер
вагон
вагондар
вадим
ваз
вазифа
вазифала
вазифалар
вазифалары
вазифаларын
вазифаларынан
вазифаларында
вазифаларҙа
вазифаларҙы
вазифалы
вазифаны
вазифаға
вазифаһы
вазифаһын
вазифаһына
вазифаһынан
вазифаһында
вазов
вазовскии
вазуза
ваи
вак
вакуум
вакцина
вакциналар
вал
валаам
валахия
валдаи
валеева
валенсия
валентин
валентина
валериан
валерии
валерия
валерьевич
валиди
валишин
вальс
вальтер
валюта
валюталар
валютаһы
вам
ван
вандализм
ванкувер
вань
ваня
варвар
варвара
вариант
вариантта
варианттар
варианттары
варианттарын
варианты
вариантын
вариантында
вариациялар
вариҫ
вариҫтары
вариҫы
варна
варшава
варшавала
варшаваны
вас
василевскии
василенко
василии
васильев
васильева
васильевич
васильевка
васильевна
васильево
васильевскии
васильевское
васко
вассал
вассалы
васыят
васыяты
васюган
васюганға
ватан
ватандаш
ватанды
ватанға
ватикан
вафа
вафат
вафаттар
вафаты
вафатына
вафатынан
вах
вахитов
вахтанг
вахҡа
вацлав
ваш
вашем
вашингтон
вашингтонда
вашкинскии
вағыраҡ
ваҡ
ваҡиға
ваҡиғалар
ваҡиғалары
ваҡиғаларын
ваҡиғаларға
ваҡиғаларҙан
ваҡиғаларҙы
ваҡиғаларҙың
ваҡиғанан
ваҡиғаны
ваҡиғаға
ваҡиғаһы
ваҡланған
ваҡлап
ваҡыт
ваҡытлы
ваҡытлыса
ваҡытта
ваҡыттан
ваҡыттар
ваҡыттарҙа
ваҡыттағы
ваҡытты
ваҡыттың
ваҡыты
ваҡытын
ваҡытына
ваҡытынан
ваҡытында
ваҡытындағы
ваҡытының
ваҡытҡа
вв
введение
введенскии
ввп
ввс
вгик
вднх
ве
веб
вебер
вегетатив
веда
ведомости
ведомство
ведомствоһы
веи
век
века
веке
веков
вектор
векторлы
векторы
веласкес
велик
великая
великие
великии
великих
великобритания
великого
великое
великои
великолукскии
великоустюгскии
велосипед
велосипедта
вельскии
вена
венала
венаны
венаның
венаға
венгр
венгрия
венгрияла
венгриянан
венгрияның
венгрияға
венгрҙар
венгрҙарҙың
вене
венер
венера
венесуэла
венеция
венецияла
вениамин
венчурлы
вер
вера
вергилии
верде
верди
верещагин
верещагинскии
вермахт
вернадскии
вернер
вернулись
верныи
версаль
версии
версия
версияһы
версияһын
вертикаль
вертоле
вертолет
верх
верхне
верхнедонскои
верхнее
верхнетоемскии
верхнеурал
верхние
верхнии
верхняя
верховажскии
верховного
верховскии
верхотор
вершина
веры
весе
весна
вест
вести
вестник
вестфалия
весь
весьегонскии
ветер
ветеран
ветерандар
ветерандары
ветераны
ветеринар
ветеринария
ветлуга
вече
вечер
вечернии
вечерняя
веществ
взаимодеи
взвод
взводы
взгляд
ви
виа
вид
вида
виде
видео
видеофильмдар
видеояҙмалар
видов
виды
византии
византия
византияның
византияға
визит
визуаль
вики
викиданных
викимедиа
викимедиасылары
викимәғлүмәттә
викингтар
википедии
википедия
википедияла
википедияны
википедияның
википедияға
википедияһы
википедияһына
википедияһында
википедияһының
викисклад
викисклада
викискладе
викиһаҡлағысҡа
виктор
виктория
викторович
викторовна
вил
вилданов
вилегодскии
вилеи
вилла
виллаһы
вилли
вильгельм
вильно
вильнюс
вилюи
виләи
винница
виноград
виноградов
виноградовскии
винсент
винтовка
винчи
виолетта
виолончель
виртуаль
виртуоз
вирус
вируслы
вирусология
вирустар
вис
висла
виталии
витаминдар
витамины
витгенштеи
витебск
витовт
витязь
вице
вич
вичугскии
вишера
вишне
вишневскии
вк
вка
вклад
включает
вконтакте
вкп
вл
владивосток
владимир
владимира
владимирович
владимировка
владимировна
владимирская
владислав
власов
власта
властан
властар
властары
властарына
властарының
властарға
властарҙың
власти
власты
властың
власть
власы
власын
власына
власының
власҡа
влияние
влксм
вместе
вместо
внесении
внизу
внимание
вновь
внутренних
внутри
во
вод
вода
водитель
водород
воды
воевода
воеводаһы
воениздат
военная
военно
военного
военное
военнои
военные
военныи
военных
вож
вожегодскии
возвращает
возвращение
воздвиженка
воздеи
возможно
возможности
возможность
вознесенка
вознесенскии
возрождение
вои
воины
вокал
вокаль
вокзал
вокзалы
вокруг
волга
волганың
волгаға
волгоград
волгоградская
волгодонск
волеи
волжскии
волков
волкова
волково
волконскии
волна
воловскии
вологда
вологодская
вологодскии
володарскии
володя
волоколамскии
волости
волость
волосы
волхов
волховскии
волынскии
волынь
вольскии
вольтер
вольф
вольфганг
вольфрам
воля
волғаға
вонн
вообще
вооруже
вопрос
вопросам
вопросу
вопросы
воробье
воробьев
ворона
воронеж
воронежская
воронин
воронино
воронов
вороново
воронцово
ворота
ворошилов
воскресенка
воскресенск
воскресенскии
воскресенское
воспоминании
воспоминания
восстание
восстания
восток
востока
востоке
востоковедения
восточная
восточного
восточнои
восточныи
восход
вот
воткин
воткинск
вохомскии
вп
впервые
впо
врангель
врач
врачеи
време
времен
времена
времени
временник
временных
время
вс
все
всеволод
всегда
всего
всеи
всем
всемирная
всемирного
всемирнои
всемирныи
всеобщая
всеобщеи
всероссии
всесоюзная
всех
вская
вскии
вское
встреча
встречи
вступ
всю
вся
вт
вта
вторая
второго
второе
второи
вты
втың
вуз
вуздары
вузов
вузы
вулкан
вулкандар
вулканы
входившие
вцик
вцспс
вчера
вчк
вы
выбор
выбора
выборах
выборг
выборов
выборы
выдающиеся
выдающии
выи
вып
выползово
выпуск
выпускники
выпускников
выселки
высокая
высокии
высоково
высокое
высота
высоты
высоцкии
выставка
выставки
высш
высшая
высшего
высшее
высшеи
высших
вытегорскии
вычегда
вычегды
выше
вышинскии
вышневолоцкии
вьетнам
вэи
вюртемберг
вязниковскии
вязовка
вязьма
вятка
вятские
вячеслав
вячеславович
вячеславшулаи
від
вҡа
вә
вәзир
вәкил
вәкилдәр
вәкилдәре
вәкилдәрен
вәкилдәренең
вәкилдәренә
вәкилдәренән
вәкиле
вәкиллеге
вәкиллектәре
вәкәләтле
вәкәләттәр
вәкәләттәре
вәкәләттәрен
вәли
вәлид
вәлиди
вәлидов
вәлиев
вәлиева
вәлит
вәлитов
вәлиулла
вәлиуллин
вәлиәхмәт
вәхит
вәхитов
вәғәз
вәғәҙә
г
га
габитов
габриэль
габсбург
габсбургтар
габсбургтарҙың
гаваи
гавань
гавриил
гаврилов
гаврилович
гавриловка
гаврилово
гагарин
гагарина
гагауз
гагаузия
газ
газа
газдар
газды
газдың
газета
газете
газеты
газлы
газпром
газы
гаи
гаити
гала
галактика
гален
галерея
галереяһы
галереяһында
галилеи
галилео
галин
галина
галиция
галич
галичскии
галкин
галле
гама
гамбург
гамильтон
гамлет
гамма
ган
гана
ганг
гандбол
ганди
ганза
ганнибал
ганс
ганцев
гараж
гарвард
гареева
гари
гармоник
гармония
гарнизон
гарнизоны
гарри
гарсиа
гастролдә
гастролдәр
гастролдәргә
гастролдәре
гастролдәрҙә
гатауллин
гатчина
гаун
гаусс
гафури
гафурии
гашек
гвардеи
гвардия
гвардияһы
гватемала
гвинея
гг
гданьск
где
гдовскии
гдр
ге
гегель
геи
гектар
гектарынан
гектарға
гектарҙан
гел
гелии
гель
гелә
ген
гендар
гендель
гендер
генеалогия
генерал
генерала
генералдар
генералдары
генералы
генераль
генерального
генетик
генетика
гении
геннадии
геннадьевич
геноцид
генри
генрих
генуя
генә
географ
географии
географик
географические
географическии
географических
географического
география
географияһы
географы
геодезия
геоинформация
геолог
геологии
геологик
геология
геологияһы
геологтар
геологы
геометрик
геометрия
геометрияһы
георг
георгиевич
георгиевна
георгиевскии
георгии
георгия
геофизик
геофизика
гер
гера
геракл
геральдик
геральдика
герасимов
герб
герберт
гербы
гербында
герман
германдар
германии
германия
германияла
германиялағы
германиянан
германияны
германияның
германияға
геродот
героев
герои
героик
героя
героях
герцеговина
герцеговинаның
герцен
герцог
герцоглығы
герцогы
гессе
гессен
гетман
геһе
геһен
геһендә
ги
гибель
гибрид
гигант
гигиена
гидравлик
гидрографик
гидрография
гидрологик
гидрология
гидрометеоиздат
гидроним
гидротехник
гидроузеленә
гидроузеленән
гиз
гии
гилгәмеш
гилде
гилем
гильберт
гильдия
гималаи
гимн
гимназии
гимназия
гимназияла
гимназияны
гимназияһы
гимназияһын
гимназияһына
гимназияһында
гимназияһының
гимнастика
гимнастикаһы
гимны
гинекология
гинзбург
гиперболик
гипотеза
гипотезаһы
гипс
гистология
гитара
гитарасы
гитис
гитлер
гитлерға
гл
глав
глава
главная
главного
главное
главнои
главныи
главы
глазами
глазго
гласныи
глеб
глебово
гликерии
гликерия
глинка
глобалләшеү
глобаль
глобус
глубокии
глушко
глюкоза
гнеи
гнесиндар
го
говард
говорят
гог
гоголь
год
года
годах
годов
году
годунов
годы
гои
гол
голдар
голицын
голланд
голландия
голландияла
голливуд
голль
голова
головин
головино
голос
голоса
голубев
голубева
голубои
гольф
гомель
гомер
гонаһ
гондурас
гонконг
гончаров
гор
гора
горбаче
горбачев
горбунов
гордон
горе
гори
горизонт
горизонталь
горка
горки
гормондар
горная
горного
горныи
горняк
город
города
городах
городе
городецкии
городище
городов
городок
городскии
городских
городского
городское
городскои
горскии
горушка
горы
горькии
горького
гос
госкомстат
гослитиздат
госпиталгә
госпиталдә
госпитале
госпиталендә
госпиталь
госполитиздат
госсправка
гост
государств
государства
государственная
государственного
государственное
государственнои
государственном
государственные
государственныи
государственными
государственных
государство
гот
готик
готика
готтар
готфрид
гпу
гр
гравитацион
гравитация
гравюра
град
градус
градустан
градусҡа
граждан
граждандар
граждандары
граждандарын
граждандарына
граждандарының
граждандарға
граждандарҙы
граждандарҙың
граждане
гражданин
гражданины
гражданлығы
гражданлығын
гражданлыҡ
гражданская
гражданскои
гражданы
граи
грамм
грамматик
грамматика
грамматикаһы
грамота
грамоталары
грамоталылыҡ
грамотаһы
гран
граната
гранд
гранит
граниттан
границ
граница
границах
границы
грант
гранты
граф
графигы
график
графика
графикаһы
графиня
графит
графлығы
графы
граче
греи
грек
греков
грекса
гректар
гректарға
гректарҙың
гренландия
гренландияның
гретцки
греции
греция
грецияла
грецияның
грецияға
греч
грибоедов
грива
григ
григориан
григории
григорово
григорьев
григорьевич
григорьевка
григорьевна
гридино
грин
грипп
гришино
гродно
грозныи
гроссмеи
грузии
грузин
грузиндар
грузия
грузияла
грузияның
грузияға
грунт
групп
группа
группы
грэмми
грэс
грязовецкии
гу
гуам
губ
губа
губаи
губанов
губерна
губерналары
губернатор
губернатора
губернаторы
губернаһы
губернаһына
губернаһынан
губернаһында
губернаһының
губернии
губерния
губин
губкин
гугб
гулаг
гуманизм
гуманитар
гуманитарных
гумбольдт
гумеров
гумиле
гун
гуп
гуру
гурьев
гурьевскии
гусев
гусеи
густав
гусь
гутенберг
гфр
гэс
гюго
гүзәл
гә
гәзит
гәзите
гәзитен
гәзитендә
гәзитенең
гәзитенә
гәзиттең
гәзиттә
гәзиттәр
гәзиттәре
гәзиттәрендә
гәзиттәрҙә
гәлсәр
гән
гәндәр
гәне
гәнжә
гәрәбә
гәрәев
гәрәи
гәүһәр
гө
гөбөргәи
гөл
гөлдәр
гөли
гөлназ
гөлнур
гөлшат
д
да
давид
давидович
давлекановскии
давыдов
давыдово
дагестан
дае
даже
даи
даими
даирәһе
даирәһендә
даирәһенә
дала
далаи
далала
далалары
далаларына
далаларында
далаһы
дале
далее
дали
далмация
даль
дальневост
дальнего
дальнеи
дальнем
дальнии
дам
дама
дамаск
дамба
дамир
дан
дана
даниил
данилов
данилович
даниловка
даниловскии
данис
даниэль
дания
данияла
данияның
данковскии
данлы
данлыҡлы
данном
данные
данныи
данным
данных
данте
данциг
данченко
даны
данын
дао
даосизм
дар
дарвин
дарии
даруғаһы
даруғаһының
дары
дарыу
дарыуҙар
дарья
дат
дата
даталар
даталары
датаһы
датаһын
даты
дауалаи
дауалана
дауаланыу
дауалау
дауалаусы
дауалауҙа
дауам
дауамы
дауамында
дауахана
дауаханала
дауаханалар
дауаханаға
дауаханаһы
дауаханаһына
дауаханаһында
дауаханаһының
даугавпилс
дауыл
дауыт
дауытов
дача
дачаһы
даян
дағстан
два
две
двенадцатыи
двигателдең
двигателдәр
двигателдәре
двигателе
двигатель
движение
движения
двина
двины
двои
двор
дворец
дворжак
дворики
дворы
дворян
дворяндар
дворяндары
дворянлыҡ
двумя
двух
ддт
де
дебюсси
дебют
дебюты
дева
девон
девочка
девушка
девушки
дега
деггер
дедовичскии
деи
дек
декабргә
декабре
декабрендә
декабрендәге
декабренә
декабренән
декабрь
декабря
декабрҙә
декабрҙән
декан
деканы
декарт
декларация
декларацияһы
декоратив
декорация
декрет
декреты
дел
дела
делам
делать
деле
делегат
делегаттар
делегаттары
делегаты
делегация
делегацияһы
деление
дели
делла
дело
делу
дель
дельта
дельтаһы
демидов
демобилизациялана
демобилизациянан
демографик
демография
демократ
демократик
демократия
демократтар
демонстрация
демонстрациялар
демянскии
ден
деникин
денис
денисов
день
деньги
департамент
департаменте
департаменты
департаментының
депортация
депортациялау
депоһы
депрессия
депутат
депутатов
депутаттар
депутаттары
депутаттарының
депутаты
дер
дербент
дерби
деревень
деревне
деревни
деревня
держава
державалар
державалары
державаһы
державин
дерпт
десант
десять
дет
деталдәр
деталдәре
детгиз
детеи
детектив
дети
детрои
детская
детскии
детство
деятели
деятель
деятельности
деятельность
дж
джаз
джаи
джакомо
джан
джана
джанкои
джанскои
джафар
джеи
джек
джексон
джерси
джимми
джинна
джо
джованни
джозеф
джои
джон
джонс
джонсон
джордж
джузеппе
джульетта
джучи
дзе
дзержинскии
дзи
дзэн
дзюдо
ди
диагноз
диагностика
диагностикалау
диагоналдәре
диал
диалект
диалектик
диалектика
диалектология
диалекттар
диалекттары
диалекттарҙа
диалекты
диалектында
диалектының
диалог
диаметрлы
диаметры
диана
диапазоны
диапазонында
диаспораһы
диверсия
дивизии
дивизион
дивизионы
дивизионында
дивизия
дивизиялары
дивизияның
дивизияһы
дивизияһын
дивизияһына
дивизияһында
дивизияһының
диего
дизаи
дизель
диктатор
диктатура
диктатураһы
дилмөхәмәтов
дим
димитрии
димитров
дин
дина
динамик
динамика
динамикаһы
динамо
динар
династии
династия
династиялары
династияның
династияға
династияһы
династияһын
династияһына
династияһынан
династияһының
дингер
дингә
диндар
диндарҙар
динде
диндең
диндәр
дине
динен
динендә
диненең
диненә
дини
диниә
динле
динә
диплом
дипломанты
дипломат
дипломатик
дипломатия
дипломаты
дипломы
дипломға
директива
директор
директора
директоры
директорының
директорҙар
директорҙары
директорҙың
дириже
дирижер
дирижерлыҡ
дирижеры
дис
диск
дискография
диснеи
дисс
диссертации
диссертация
диссертациялары
диссертацияларын
диссертацияһы
диссертацияһын
диссертацияһының
дистанцион
дистанцияла
дисциплина
дисциплиналар
дисциплиналары
дисәтинә
дитрих
диуар
диуары
диуарҙар
диуарҙары
дифференциалланыусы
дифференциаль
диңгеҙ
диңгеҙгә
диңгеҙе
диңгеҙее
диңгеҙеенә
диңгеҙендә
диңгеҙендәге
диңгеҙенең
диңгеҙенә
диңгеҙенән
диңгеҙҙең
диңгеҙҙә
диңгеҙҙәге
диңгеҙҙән
диңгеҙҙәр
диңгеҙҙәре
для
дмитриев
дмитриева
дмитриевич
дмитриевка
дмитриевна
дмитриевскии
дмитриевское
дмитрии
дмитрия
дмитров
дмитровскии
дн
дне
дневник
днеи
днепр
днепропетровск
днепрҙың
днестр
дни
днк
дновскии
дня
до
добронравов
добрыи
добрянскии
дов
довженко
довлатов
договор
договоры
дои
док
докл
доклад
докладов
доклады
докладында
доктор
доктора
докторлыҡ
докторы
докторҙары
документ
документа
документаль
документальныи
документах
документация
документов
документта
документтар
документтары
документтарын
документтарында
документтарға
документтарҙа
документтарҙы
документы
документҡа
дол
долган
долгая
долгое
должен
должна
должно
должны
долина
долл
доллар
долларлыҡ
доллары
долларына
долларға
долларҙан
дом
дома
доме
домен
доминго
доминик
доминика
доминикан
домна
домодедово
дон
дона
дональд
донбасс
донда
дондағы
дондың
донесение
донец
донецк
донецкии
донская
донского
донскои
дону
донъя
донъяла
донъялағы
донъянан
донъяны
донъяның
донъяуи
донъяға
донъяһы
донъяһын
донъяһына
донъяһында
донъяһының
доп
дополненное
дор
доров
дорович
доровка
доровна
доровскии
дорога
дороги
досааф
доска
достаточно
достижения
достоевскии
достопримечательности
доступа
доцент
доценты
дочь
дошман
дошмандан
дошмандар
дошмандары
дошмандарын
дошманды
дошмандың
дошманлыҡ
дошманы
дошманға
доға
доғалар
др
драгун
драма
драматик
драматург
драматургия
драматургияһы
драматургтар
драматургтары
драматургы
драмаһы
драмы
древнего
древнеи
древние
древнии
древних
древности
древняя
дрезден
дреи
друг
другие
другим
других
другои
дружба
дружбы
дружина
друзья
дст
ду
дубаи
дубки
дубна
дубовскии
дубрава
дубровка
дуброво
дубровскии
дуванскии
дуглас
дуи
дума
думаһы
думаһына
думаһының
думка
думы
дунаи
дусар
дутов
душа
души
дуэт
дуға
дуҫ
дуҫлаша
дуҫлығы
дуҫлыҡ
дуҫтар
дуҫтарса
дуҫтары
дуҫы
ды
дым
дымлы
дымлылығы
дымлылыҡ
дыуан
дыуанаи
дың
дье
дьяконов
дэвид
дэвис
дэи
дэн
дюи
дюма
дюрер
дюртюлинскии
дягилев
дядя
дүрт
дүртенсе
дүртенсел
дүртмөи
дүрттән
дүртәү
дүртөи
дүшәмбе
дә
дәлил
дәлилдәр
дәлилләи
дән
дәрес
дәресе
дәреслеге
дәреслек
дәреслектәр
дәрестәр
дәрестәре
дәрестәрен
дәртләндереү
дәртләндерә
дәрүиш
дәрәжә
дәрәжәгә
дәрәжәле
дәрәжәлә
дәрәжәләге
дәрәжәләр
дәрәжәләре
дәрәжәһе
дәрәжәһен
дәрәжәһендә
дәрәжәһенә
дәғүә
дәғүәсе
дәғүәселәр
дәүер
дәүергә
дәүере
дәүерендә
дәүерендәге
дәүеренең
дәүеренә
дәүеренән
дәүерҙең
дәүерҙә
дәүерҙәге
дәүерҙәр
дәүләкән
дәүләт
дәүләтбаев
дәүләтбаи
дәүләте
дәүләтен
дәүләтендә
дәүләтенең
дәүләтенә
дәүләткә
дәүләтов
дәүләтте
дәүләттең
дәүләттә
дәүләттәр
дәүләттәргә
дәүләттәре
дәүләттәренең
дәүләттәрҙең
дәүләттәрҙә
дәүләтша
дәүләтшин
дәүләтшина
дәүмәл
дәүмәлдең
дәүмәлдәр
дәүмәле
дөгө
дөи
дөрөҫ
дөрөҫлөгөн
дөрөҫлөк
дөрөҫлөккә
дөрөҫөн
дөрөҫөрәге
е
ебе
ебен
ебәк
ебәргән
ебәрелгән
ебәрелә
ебәреп
ебәрергә
ебәреү
ебәреүсе
ебәреүҙе
ебәрә
ебәрәләр
ев
ева
евангелие
евгении
евгения
евгеньевич
евгеньевна
евдокия
евклид
евклидтың
евразии
евразия
евразияның
евреев
евреи
евро
евровидение
европа
европала
европалағы
европалылар
европанан
европаны
европаның
европаға
европе
европеи
европы
евросоюз
евроға
евфрат
ега
еган
егерме
егерменсе
егерәк
егет
егете
егеткә
егетте
егеттең
егеттәр
егеттәре
егеттәрҙең
египет
его
егор
егорлык
егоров
егорова
егорович
егорьевск
егән
ед
единица
единыи
еділ
ее
ежегодник
ежов
ез
еи
ек
екатерина
екатеринбург
екатеринбургта
екатериновка
екатеринослав
екатерины
екбаев
еклеге
еклеген
еклегендәге
еклек
еклеккә
еклекте
еклектә
еклектәге
еклектәре
ел
елань
елга
елгән
елдерелгән
елдерелә
елдерә
елдең
елдәр
елдәре
еле
елена
елеп
елец
елизавета
елизаветино
елисеев
елкән
елкәнле
елле
ель
ельцин
елә
еләге
еләк
ем
емдә
емдәр
емдәре
еме
емельян
емен
емендә
емергес
емергән
емерек
емереклектәр
емереклектәре
емерелгән
емерелеп
емерелеү
емерелеүе
емерелә
емереп
емерергә
емереү
емертелә
емерә
емеш
емеше
емешле
емештәр
емештәре
ему
ен
ендә
ендәр
енес
енесле
енең
енисеи
ениә
енләгән
енләи
енләнгән
енләнеше
енләнешле
енләнештәге
енләнә
енләү
енов
енси
енсә
ентекле
ентекләп
енциклопедія
енә
енәи
енән
еп
епархия
епархияһы
епархияһының
епискобы
епископ
епле
епләи
епләнеп
епләнеүсе
епләнеүселәр
епләнә
епләп
епләү
епләүҙәр
ептәр
епһеҙ
ер
ергә
ергән
ере
ереван
ереванда
ерек
ерекле
ерен
ерендә
ерендәге
еренең
еренә
еренән
ерле
ерлек
ерләи
ерләнгән
ерләнгәндәр
ерләнә
ерләү
ермак
ермекеевскии
ермолаевка
ермолаево
ерохин
ершов
ерҙе
ерҙең
ерҙә
ерҙәге
ерҙән
ерҙәр
ерҙәргә
ерҙәре
ерҙәрен
ерҙәрендә
ерҙәренең
ерҙәренә
ерҙәренән
ерҙәрҙе
ерҙәрҙең
ерҙәрҙә
ерҙәрҙән
ерһеҙ
ерәк
ерән
ес
есаул
есе
есем
есемдең
есемдәр
есемдәренең
есемдәрҙең
есен
есенең
есенин
если
естествознания
есть
естәре
ет
етбаба
етди
ете
етем
етен
етенсе
етеп
етергә
етерлек
етешмәи
етешмәүе
етештергән
етештерелгән
етештерелә
етештереү
етештереүгә
етештереүе
етештереүсе
етештереүселәр
етештереүсәнлеге
етештереүҙе
етештереүҙең
етештереүҙә
етештерә
етешһеҙлеге
етешһеҙлектәр
етешһеҙлектәре
етеҙ
етеү
етеүе
еткергән
еткерелә
еткереп
еткерергә
еткереү
еткерә
еткән
еткәнсе
еткәс
етмеш
етмәгән
етмәи
етмәү
етмәһә
етов
етте
еттәр
етә
етәкләгән
етәкләи
етәксе
етәкселеге
етәкселеген
етәкселегендә
етәкселегендәге
етәкселегенең
етәкселегенә
етәкселек
етәкселәр
етәкселәре
етәкселәрен
етәкселәренең
етәксеһе
етәләр
етәр
еф
ефете
ефим
ефимов
ефимович
ефреи
ефремов
ефрона
ех
ехзада
еш
ешбеҙ
ешенсә
ешле
ешлеге
ешлеген
еще
еҙ
еҙем
ең
еңгән
еңгәндән
еңел
еңелгән
еңелгәндән
еңелеп
еңелерәк
еңелеү
еңелеүгә
еңелеүе
еңелеүҙәр
еңелсә
еңелә
еңеләи
еңеп
еңергә
еңеү
еңеүгә
еңеүе
еңеүен
еңеүенә
еңеүсе
еңеүселәр
еңеүселәре
еңеүсеһе
еңеүҙе
еңеүҙең
еңеүҙәр
еңеүҙәре
еңә
еҫ
еҫе
еҫле
еү
еүгә
еүе
еүен
еүенә
еүеш
еүсе
еүселәр
еүсеһе
еүҙәр
еүҙәре
еһе
еһенең
ж
жак
жан
жанда
жандар
жандың
жанеи
жанна
жанр
жанры
жанрына
жанрында
жанрҙар
жанрҙары
жарковскии
жданов
же
железная
железногорскии
железнодорожная
железнодорожнои
железнодорожныи
железнои
жена
женева
женевала
женскии
женщин
женщина
женщины
жертв
жи
живая
живои
живописи
живопись
животные
животных
жизель
жизни
жизнь
жилино
жителеи
жители
житомир
жить
жмеринка
жная
жныи
жовтневое
жозеф
жорж
жуан
жуков
жукова
жуково
жуковскии
журавле
журн
журнал
журнала
журналдар
журналдары
журналдарында
журналдарының
журналдарҙа
журналдың
журнале
журналист
журналистар
журналистары
журналистика
журналистов
журналисы
журналы
журналын
журналына
журналында
журналының
жюль
жюри
жәлил
жәғәфәр
з
за
забаи
забастовка
заболевании
заболотье
заборье
заведении
завод
завода
заводта
заводтар
заводтары
заводтарын
заводтарында
заводтарының
заводты
заводтың
заводы
заводын
заводына
заводында
заводының
заводҡа
заволжскии
завтра
завьяловскии
загидуллин
заговор
заголовка
заголовок
загорье
загреб
загружено
задание
заданиеларын
задач
задачи
заде
задонскии
заж
заи
заказ
заказдар
заказнигы
заказник
заказы
закир
закиров
закон
закона
закондар
закондары
закондарын
закондарына
закондарға
закондарҙы
законды
закондың
законлы
законов
законы
законын
законына
законға
законһыҙ
зал
залда
залдары
залегощенскии
залесье
залог
залы
залына
залында
залының
зальцбург
заман
заманда
замандан
замандарҙа
замандарҙан
замандаш
замандаштар
замандаштары
замандашы
замандағы
замандың
заманса
заманы
заманынан
заманында
заманының
заманға
заменить
заметки
замечательных
замогы
замок
замоктар
замокты
замоктың
замошье
занзибар
зао
заозерье
заокскии
запад
запада
западная
западного
западнодвинскии
западнои
западныи
запас
запаста
запастары
запастағы
запасы
запасын
запасҡа
записи
записка
записки
запись
заповедник
заповедника
заполье
запорожье
зараи
зарар
зарарланыуы
зарарланған
зарарлы
заратустра
заречная
заречное
заречныи
заречье
зарипов
зариф
зарубин
зарур
заря
зарядлы
заседании
заслуги
заслуженныи
зат
затем
затлы
зато
затон
заттар
заттың
заты
зауралье
зауряд
захар
захаров
захарова
захарович
захарово
защиты
заһир
заһит
заһиҙуллин
звание
званиеһы
званиеһын
званиеһында
звания
зве
звезда
звезды
звено
звеноһы
здание
здании
здания
здесь
здоровье
здоровья
здравоохранения
зды
зевс
зеи
зеландия
зеле
земле
земли
земля
земство
земфира
зенит
зенхауэр
зенштеи
зер
зеркало
зерноградскии
ззакон
зи
зианчуринскии
зилаирскии
зилә
зима
зимбабве
зина
зинаида
зиннур
зиннәт
зиннәтле
зиновьев
зинһар
зирәк
зия
златоуст
злобин
знак
знамени
знаменитые
знаменка
знаменскии
знаменское
знамя
знание
знании
значение
значении
значения
знаю
зовая
зовка
зово
зовскии
зодиак
зои
золом
золотая
золотница
золотое
золотои
золотые
зона
зонала
зоналар
зоналары
зоналарында
зонаһы
зонаһын
зонаһына
зонаһында
зонаһының
зоны
зоологии
зоология
зоопарк
зоотехник
зори
зороастризм
зороастрии
зоя
зрахман
зрения
зубов
зубово
зубцовскии
зуево
зуевскии
зулла
зуллин
зуллина
зыкина
зырянское
зыя
зыян
зыянлы
зыярат
зыяратта
зыяраты
зыяратына
зыяратында
зәи
зәки
зәкәт
зәңгәр
зәңгәрһыу
зөбәи
зөбәржәт
зөлфиә
зөлхизә
зөлҡәрнәи
зөләи
зөфәр
зөһрә
и
иа
иб
иблис
ибн
ибне
ибраи
ибраһим
ибраһимов
ив
иван
ивана
ивангород
ивано
иванов
иванова
иванович
ивановка
ивановна
иваново
ивановск
ивановская
ивановскии
ивановское
иваньков
иваньково
иврит
иг
иген
игенде
игенселек
игеҙәк
иглин
иглинскии
игнатии
игнатьев
игнатьевич
игол
игорь
игр
игра
игры
ид
ида
идара
идаралығы
идаралығын
идаралығына
идаралығында
идаралығының
идаралыҡ
идаралыҡтары
идарасы
идарасыһы
идараһы
идараһының
иде
идеал
идеалы
идеаль
идеи
идентификатор
идеологик
идеология
идеологияһы
идея
идеялар
идеялары
идеяларын
идеяны
идеяһы
идеяһын
идеяһына
идиш
иезуит
иезуиттар
иероглиф
иероглифтар
иероним
иерусалим
иж
ижад
ижади
ижады
ижадын
ижадына
ижадында
ижадының
ижевск
ижек
ижеккә
ижекле
ижора
ижтимағи
из
изабелла
изборск
избранное
избранные
изв
известия
известные
известныи
изге
изгелек
изгеләндерелгән
изгеләндерелә
изгеләр
изд
издание
издании
издания
издат
издательскии
издательство
изделиелар
изделиелары
измаи
измаил
изменении
изменения
изменениях
измир
изображение
изображении
изображения
изобразительное
изобретение
изолят
изоморфлы
израилгә
израилдең
израилдә
израиль
изучение
изучению
изучения
ии
иисус
ик
ике
икегә
икеле
икеләтә
икенсе
икенсегә
икенсел
икенселәре
икенсенең
икенсенән
икенсеһе
икенсеһен
икенсеһендә
икенсеһенә
икешәр
икеһе
икеһен
икмәк
икона
иконалар
иконаһы
икән
икәне
икәнен
икәнлеге
икәнлеген
икәү
икәүһе
ил
илаи
илаһ
илаһи
илаһтар
илаһы
илбаҫарҙары
илгиз
илгә
илдар
илде
илдең
илдус
илдә
илдәге
илдән
илдәр
илдәргә
илдәре
илдәрен
илдәрендә
илдәрендәге
илдәренең
илдәренә
илдәренән
илдәрҙе
илдәрҙең
илдәрҙә
илдәрҙәге
илдәрҙән
иле
илек
илен
илендә
иленең
иленә
иленән
илецк
илеш
или
илиада
илишевскии
илия
илл
илле
иллинои
иллирии
иллюстрации
иллюстрация
иллюстрациялар
иллюстрированная
иллюстрированныи
илмән
илсе
илсекәи
илселеге
илселек
илселәр
илселәре
илсеғол
илсеһе
илткән
илтә
илшат
иль
ильгамов
ильин
ильина
ильинична
ильинка
ильино
ильинскии
ильинское
ильич
ильича
ильиче
илья
ильяс
ильясов
ильясова
илһам
илһөи
иләү
им
имаи
имам
имамы
иман
иманғол
имашев
име
имеет
имеется
имен
имена
именем
имени
имениеһында
именлеге
именлеген
именлек
именно
иметь
имеш
имеют
иммануил
иммигранттар
иммунитет
император
императора
императорского
императоры
императорға
императорҙар
императорҙары
императорҙың
императрица
империи
империя
империяла
империялары
империяны
империяның
империяға
империяһы
империяһын
империяһына
империяһынан
империяһында
империяһындағы
империяһының
импорт
импульс
имтихан
имя
имән
ин
инаныу
инвалид
инвалидтар
инвестиция
инвестициялар
инвесторҙар
инг
ингл
инглиз
инглиздәр
инглиздәрҙең
инглизсә
ингуш
ингушетия
ингән
ингәндә
ингәндән
ингәс
инде
индеецтар
индеи
индекс
индексы
индексылар
индергән
индергәне
индерелгән
индерелде
индерелмәгән
индерелмәи
индерелә
индереп
индерергә
индереү
индереүгә
индереүе
индереүҙе
индермәи
индерҙе
индерә
индерәләр
индивидуаль
индии
индира
индия
индонезия
индонезияның
индуизм
индустриаль
индустрия
индустрияһы
ине
инек
инем
инеп
инергә
инеш
инеше
инешенән
инештән
инеү
инеүе
инеүен
инеүенә
инеүсе
инеүҙе
инженер
инженерия
инженерияһы
инженерлыҡ
инженеры
инженерҙар
инженерҙары
инжил
ини
инициатива
инициативаһы
инициаторы
инкылар
инмәгән
инмәи
инна
инновацион
инновациялар
иннокентии
иностранных
инспектор
инспекторы
инспекция
инспекцияһы
инстанция
институт
института
институтта
институттар
институттары
институтты
институттың
институты
институтын
институтына
институтында
институтының
институтҡа
инструктор
инструкторы
инструкция
инструмент
инструменталь
инструменттар
инструменттары
инструменты
инсульт
интеграл
интеграль
интеграция
интеллект
интеллектуаль
интеллигенция
интенсив
интер
интерактив
интервал
интервалында
интервенция
интервики
интервью
интервьюһында
интернат
интернаты
интернационал
интернациональ
интернет
интернетта
интерфакс
интерфеи
интерьер
интерьеры
инфекцион
инфекция
инфляция
информ
информатика
информации
информацион
информационно
информационное
информационныи
информация
инфраструктура
инфраструктураһы
инфраҡыҙыл
инь
иня
иняи
инҡар
инҡилабы
инҡилап
инһә
инә
инәбеҙ
инәи
инәләр
инәһе
иоанн
иоанна
иоганн
ион
иордан
иордания
иосиф
иосифович
иоффе
иоһанн
ип
иптәш
иптәше
иптәштәре
ир
ираклии
иран
иранда
ирандың
иранға
ираҡ
ираҡта
ираҡтың
ираҡҡа
ире
ирегән
иреи
ирек
иреккә
ирекле
ирекмән
ирекмәндәр
ирекмәндәре
иректән
ирен
иренең
иренә
иретеп
иретеү
иретмәһе
ирешеү
ирешкән
ирешә
иреү
ирина
ирке
иркен
иркенән
иркутск
иркутская
ирланд
ирландия
ирле
иррациональ
иртыш
иртыштан
иртә
иртәгә
иртән
иртәнге
иртәнсәк
иртәрәк
иртәһендә
ирҙәр
ирҙәрҙең
ирәкте
ирәмәл
ирәндек
ис
исаак
исады
исаев
исаково
исем
исемгә
исемде
исемдең
исемдәге
исемдән
исемдәр
исемдәргә
исемдәре
исемдәрен
исемдәренең
исемдәренә
исемдәрҙең
исеме
исемен
исемендә
исемендәге
исеменең
исеменә
исеменән
исемең
исемле
исемлеге
исемлеген
исемлегендә
исемлегенә
исемлегенән
исемлек
исемлеккә
исемлектә
исемлектәр
исемлектәре
исемләи
исемләнгән
исемләнә
исемһеҙ
искра
искусств
искусства
искусстве
искусство
искәндәр
ислам
исламда
исламды
исламдың
исламов
исламға
исландия
исмаил
исмәғил
исмәғилев
исп
испан
испандар
испания
испанияла
испаниянан
испанияның
испанияға
исполнитель
использование
использования
использовать
используется
используи
испр
исраил
исследование
исследовании
исследования
исследовательскии
ист
истанбул
истанбулда
истанбулға
исток
истоки
истоков
истории
историк
историко
историография
историческая
исторические
историческии
исторических
исторического
историческое
историческои
историю
история
источник
источниках
источники
источников
истребителдәр
истребитель
истринскии
исхаҡ
исхаҡов
исҡужин
ит
итал
италии
италия
италияла
италиянан
италияның
италияға
итальян
итальяндар
ите
итегеҙ
итек
ителгән
ителгәндән
ителгәндәр
ителгәндәрҙең
ителгәс
ителде
ителеп
ителергә
ителеү
ителеүе
ителеүенсә
ителеүсе
ителмәгән
ителмәи
ителһә
ителә
ителәләр
итен
итеп
итер
итергә
итерлек
итешеү
итешеүе
итеү
итеүгә
итеүе
итеүен
итеүенең
итеүенсә
итеүенә
итеүсе
итеүселәр
итеүселәрҙең
итеүҙе
итеүҙең
итеүҙә
итеүҙән
иткес
иткән
иткәнгә
иткәндә
иткәндән
иткәндәр
иткәне
иткәс
итле
итмәгән
итмәи
итмәү
итогам
итоги
итте
иттеләр
иттем
итһә
итә
итәбеҙ
итәгендә
итәләр
итәм
итәсәк
итәшаи
иудаизм
ифрат
их
ихата
ихатала
ихатанан
ихатаға
ихатаһы
ихатаһында
ихлас
ихсан
ихтилал
ихтилалда
ихтилалдар
ихтилалдары
ихтилалдарын
ихтилалды
ихтилалдың
ихтилалсылар
ихтилалы
ихтилалын
ихтилалында
ихтилалға
ихтимал
ихтималлығы
ихтималлығын
ихтималлыҡ
ихтирам
ихтирамлы
ихтыяж
ихтыяждары
ихтыяждарын
ихтыяжы
ихтыяжын
ихтыяр
ихтыяры
ихтыярын
иш
ишан
ишара
ишбирҙе
ишбирҙин
ишбулатов
ишбулды
ишеге
ишек
ишектәр
ишем
ишембаи
ишетелә
ишетеп
ишетеү
ишеткән
ишеткәс
ишетә
ишеү
ишим
ишимбаи
ишимскии
ишкәкле
ишле
ишморат
ишмырҙа
ишмөхәмәт
ишмөхәмәтов
иштван
ишәи
июлгә
июлдә
июлдән
июле
июлендә
июлендәге
июленә
июленән
июль
июля
июнгә
июндә
июндән
июне
июнендә
июнендәге
июненә
июненән
июнь
июня
иғлан
иғтибар
иғтибарлы
иғтибары
иғтибарын
иғтибарға
иғтибарҙы
иғтибарһыҙ
иғәнә
иҙел
иҙелбаев
иҙелбаи
иҙеүкәи
иҙрис
иҙрисов
иҙән
иҡтисад
иҡтисади
иҡтисадсы
иҡтисадсылар
иҡтисадсылары
иҡтисадсыһы
иҡтисадта
иҡтисадты
иҡтисадтың
иҡтисады
иҡтисадын
иҡтисадына
иҡтисадының
иң
иңгән
иҫ
иҫбат
иҫбатлаи
иҫбатлана
иҫбатларға
иҫбатлау
иҫенә
иҫке
иҫкергән
иҫкә
иҫкән
иҫкәрмә
иҫкәрмәләр
иҫкәртеү
иҫкәртә
иҫләи
иҫтә
иҫтәлеге
иҫтәлеген
иҫтәлегенә
иҫтәлек
иҫтәлекле
иҫтәлектәр
иҫәбе
иҫәбен
иҫәбендә
иҫәбенә
иҫәбенән
иҫән
иҫәнғол
иҫәп
иҫәпкә
иҫәпләгән
иҫәпләгәндә
иҫәпләи
иҫәпләнгән
иҫәпләнелә
иҫәпләнә
иҫәпләп
иҫәпләргә
иҫәпләү
иҫәпләүенсә
иҫәпләүҙәр
иҫәпте
иҫәптә
иҫәптән
иҫәт
иһә
к
ка
кабардино
кабель
кабинет
кабинеты
кабинетында
кабинетының
кабо
кавалер
кавалерах
кавалерии
кавалерия
кавалеры
кавалерҙары
кавказ
кавказа
кавказда
кавказдағы
кавказды
кавказдың
кавказскии
кавказға
кагальницкии
каган
каганович
каддафи
кадет
кадеттар
кадр
кадрҙар
кадрҙары
кадрҙарын
кадрҙарҙы
кадуи
каждыи
казагы
казак
казаков
казактар
казактары
казактарының
казактарҙың
казан
казани
казанка
казанскии
казанского
казань
казарма
казахстан
казахстана
казахстане
казачун
казимир
казино
каи
как
какао
какие
какои
кал
кала
калашников
кале
калевала
календары
календарында
календарь
калибрлы
калии
калинин
калинина
калининград
калининградская
калинино
калининскии
калиновка
калитва
калифорния
калмыкия
калтасинскии
калуга
калужская
кальвин
кальскии
кальции
калязинскии
кама
камал
камалетдин
камалетдинов
камалов
камбоджа
каменев
каменец
каменка
каменная
каменныи
каменск
каменскии
каменское
камень
камера
камерун
камил
камиллаштыра
камиллаштырыу
камиллаштырыуға
камня
кампания
кампанияһы
кампанияһын
кампанияһында
камчатка
камчатскии
кан
канада
канадала
канаданың
канал
канала
каналдар
каналдары
каналды
каналдың
канализация
каналы
каналын
каналына
каналында
каналының
канар
канат
канд
кандидат
кандидата
кандидатлыҡ
кандидаттар
кандидаттары
кандидатураһын
кандидаты
кандинскии
канин
канн
каноник
кант
кантон
кантондары
кантоны
кантонына
кантонында
кантонының
канцелярия
канцелярияһы
канцлер
канцлеры
капеллаһы
капельмеи
капитал
капитализм
капиталистик
капиталы
капиталь
капитан
капитаны
капитолии
каппадокия
каппель
капур
кар
кара
карабах
карабы
карабында
карагаи
караидельскии
карам
карап
караптар
караптары
караптарын
карапты
каратель
карачаево
каргопольскии
кардинал
кардиология
карел
карелии
карелия
карен
кариб
каринтия
карл
карла
карло
карлос
кармаскалинскии
кармен
каролина
карп
карпат
карпов
карповка
карпово
карс
карст
карт
карта
картала
карталар
карталары
карталарҙа
картаға
картаһы
картаһын
картаһына
картаһында
карте
картина
картинала
картиналар
картиналары
картиналарын
картиналарында
картиналарының
картинаны
картинаның
картинах
картинаһы
картинаһын
картинаһында
картины
картли
картография
картотека
карточка
карточкалар
карточкалары
картуф
карты
картье
каруан
каруанһараи
карфаген
карьер
карьера
карьераһы
карьераһын
карьераһында
карьераһының
кас
каса
касимовскии
каспаров
каспии
кастро
касы
катав
катаи
каталан
катализ
каталог
каталогы
катар
категории
категорию
категория
категориялар
категориялары
категорияларға
категориялы
категорияға
категорияһы
категорияһына
категорияһында
катерина
катманду
католик
католиктар
католицизм
катунь
катынь
катя
кауфман
каучук
кафе
кафедра
кафедрала
кафедралар
кафедралары
кафедраль
кафедраһы
кафедраһын
кафедраһына
кафедраһында
кафедраһының
кафедры
качества
качестве
качество
кашарскии
кашинскии
каһы
кб
кв
квадрат
квалификация
квалификациялы
квалификацияһы
квалификацияһын
квант
квартал
кварталы
кварталында
квартет
кварц
квебек
квт
кг
кгб
ке
кеи
кельт
келәм
келәт
кем
кембридж
кемгә
кемде
кемдер
кемдең
кемдәр
кемерово
кемеровская
кен
кения
кеннеди
кенә
кенәз
кенәздең
кенәздәр
кенәздәре
кенәздәренең
кенәзе
кенәзлеге
кенәзлегенең
кенәзлегенә
кенәзлек
кенәзлектәре
кеплер
кер
керамик
керамика
керамикаһы
кергән
керенскии
керетеп
кереткән
керетә
керчь
керҙәш
керҙәшлек
керҙәштәр
керә
кесаҙна
кесе
кесерткән
кесеһе
кескәи
кесовогорскии
кеть
кечуа
кеше
кешебашҡортостан
кешегә
кешелек
кешелеккә
кешелектең
кешелә
кешеләр
кешеләргә
кешеләре
кешеләрен
кешеләренең
кешеләренә
кешеләрҙе
кешеләрҙең
кешеләрҙә
кешеләрҙән
кешене
кешенең
кешенән
кешеһе
кешеһен
кешеһенең
кешеһенә
кеҫә
кеүек
ки
кибернетика
кибет
кибете
киев
киевскии
киевта
киевты
киевтың
киевҡа
кижи
кизе
кизляр
кии
кикбоксинг
килгән
килгәнгә
килгәндер
килгәндә
килгәндән
килгәндәр
килгәнсе
килгәс
килде
килем
килемде
килеме
килемле
килен
килеп
килер
килергә
килеш
килешеп
килешеү
килешеүгә
килешеүе
килешеүен
килешеүенә
килешеүҙе
килешеүҙең
килешеүҙәр
килешеүҙәре
килешмәи
килештә
килешә
килеү
килеүгә
килеүе
килеүен
килеүенең
килеүенә
килеүсе
килеүселәр
килмәгән
килмәи
килограмм
килограмға
километр
километрлыҡ
километрға
километрҙа
километрҙан
килтергән
килтерелгән
килтерелә
килтереп
килтерергә
килтереү
килтереүе
килтереүсе
килтермәи
килтерҙе
килтерә
килтерәләр
киль
килһә
килә
киләләр
киләсәге
киләсәген
киләсәк
киләсәккә
киләсәктә
киләһе
ким
кимереүселәр
кимовскии
кимрскии
кимәл
кимәлгә
кимәлдә
кимәлдәге
кимәле
кимәлен
кимәлендә
кимәлендәге
кимәленең
кимәленә
кимәленән
кимәлле
кин
кина
кинг
киндер
кинель
кинельскии
кинематограф
кинематографистар
кинематография
кинематографы
кинетик
кинешемскии
кини
кино
киноакте
кинола
кинолағы
кинорежиссе
киностудия
киностудияһы
кинотеатр
кинотеатры
кинофестивале
кинофестивалендә
кинофестиваль
киноға
киноһы
кинскии
кинәт
киото
кипр
киптерелгән
киптереү
кир
кирбес
кирбестән
кире
киреевскии
киреһенсә
кирил
кирилл
кириллица
кириллов
кирилловскии
кирилов
киров
кирова
кирово
кировоград
кировская
кировскии
кировское
кирәи
кис
кисекмәҫтән
киселе
кисен
кисендә
кисеп
кисергән
кисереп
кисерә
кисеү
кисеүе
киске
кискә
кислород
кислота
кислоталар
кислоталары
кислотаһы
кисә
кисәһе
кит
китаб
китабы
китабын
китабына
китабынан
китабында
китабының
китае
китаи
китап
китапта
китаптан
китаптар
китаптары
китаптарын
китаптарында
китаптарының
китаптарҙы
китапты
китаптың
китапхана
китапханала
китапханалар
китапханалары
китапхананың
китапханаға
китапханаһы
китапханаһына
китапханаһында
китапханаһының
китапҡа
китая
кителгән
китеп
китер
китергә
китеү
китеүе
китеүен
китеүенә
киткес
киткән
киткәнгә
киткәндә
киткәндән
киткәндәр
киткәс
китмәи
китмәле
китте
китһә
китә
китәләр
кихот
кичменгско
киш
кишертскии
кишине
кишинев
кишиневта
киі
киң
киңерәк
киңлеге
киңлегендә
киңлегенә
киңлек
киңлектең
киңлектә
киңлектәге
киңлектәрҙә
киңәи
киҫелгән
киҫелеше
киҫелешендә
киҫеп
киҫешеү
киҫешкән
киҫешә
киҫеү
киҫкен
киҫкенләшә
киҫә
киҫәге
киҫәк
киҫәксә
киҫәксәләр
киҫәксәләре
киҫәктәре
кл
клавдии
клавдия
кладбище
клаи
клара
кларк
класлы
класс
класса
классигы
классик
классика
классикаһы
классификация
классификациялау
классификацияһы
классицизм
классов
класта
кластан
кластар
кластары
кластарҙа
класты
класы
класын
класына
класында
класҡа
кле
клеи
клеопатра
клепиковскии
климат
климатлы
климаттың
климаты
климатҡа
климент
климово
клин
клиник
клиника
клиникаһы
клиникаһында
клиническая
клинскии
клод
клоун
клуб
клуба
клубта
клубтар
клубтары
клубтың
клубы
клубын
клубына
клубында
клубының
ключ
ключевскии
ключи
клязьма
км
кмк
кн
книг
книга
книгах
книге
книги
книгу
книжка
книжное
княгиня
князь
князя
ко
коалиция
коалицияһы
ков
ковале
ковалевская
ковалевскии
коваленко
ковернинскии
ково
ковровскии
ковскии
ковского
когда
когнитив
код
кодекс
кодексы
кодексының
кодлары
кодтар
кодтары
коды
кожуун
козельскии
козлов
козлова
козловка
козлово
козловскии
кои
коканд
кокос
кол
кола
колбаса
колесников
колеялы
колизеи
количество
коллегалары
коллегия
коллегияһы
коллегияһының
колледж
колледжы
колледжына
колледжында
коллектив
коллективлаштырыу
коллективтар
коллективтары
коллективы
коллекция
коллекциялары
коллекцияһы
коллекцияһын
коллекцияһында
колмогоров
колодезь
коломенскии
коломна
колониаль
колония
колониялар
колониялары
колонияһы
колонияһына
колонна
колонналар
колонналары
колонналы
колоннаһы
колос
колумб
колумбия
колхоз
колхозда
колхоздар
колхоздың
колхозсы
колхозы
колхозында
колхозының
колхозға
колчак
колчактың
кольцов
ком
кома
команда
командала
командалар
командалары
командаларҙың
командалы
командалығында
командалығындағы
командалыҡ
команданан
команданы
команданың
командаға
командаһы
командаһын
командаһына
командаһынан
командаһында
командаһының
командир
командировка
командировкаға
командиры
командирының
командирҙар
командирҙары
командование
командованиеның
командованиеһы
командованиеһына
командованиеһының
командующии
команды
комаров
комарово
комбаи
комбинат
комбинаты
комбинатында
комбинатының
комбриг
комедия
комедияһы
комедияһында
комендант
коменданты
комета
коми
комик
коминтерн
комиссар
комиссариаты
комиссариатында
комиссариатының
комиссаров
комиссары
комиссарҙары
комиссии
комиссия
комиссиялары
комиссияның
комиссияһы
комиссияһын
комиссияһына
комиссияһында
комиссияһының
комитет
комитета
комитеттар
комитеттары
комитеттың
комитеты
комитетын
комитетына
комитетында
комитетының
коммент
комментарии
коммерсантъ
коммерция
коммерцияға
коммуна
коммунала
коммуналары
коммуналь
коммунаның
коммунар
коммунаһы
коммунизм
коммуникация
коммуникациялар
коммунист
коммунистар
коммунистары
коммунистик
коммунистическои
коммутатив
компакт
компании
компания
компаниялар
компаниялары
компанияларының
компанияның
компанияға
компанияһы
компанияһын
компанияһына
компанияһында
компанияһының
компартияһы
компенсация
комплекс
комплекса
комплекслы
комплекстары
комплекстың
комплексы
комплексын
комплексына
комплексында
комплексының
комплект
композитор
композиторы
композиторҙар
композиторҙары
композиторҙарының
композиторҙың
композиция
композицияһы
композицияһын
компонент
компоненттар
компоненттары
компоненты
компромисс
компьютер
компьютерҙар
комсомол
комсомолец
комсомолы
комсомолының
комсомольск
комсомольская
комсомольскии
комсомольское
комуч
конаковскии
конвенция
конвенцияһы
конвои
конго
конгресс
конгресы
конгресында
конда
конденсатор
конденсаторҙар
конденсаторҙарҙың
конденсаторҙың
кондитер
кондома
кондратьев
коне
конец
конкрет
конкуренция
конкурс
конкурса
конкурста
конкурстар
конкурстары
конкурстарында
конкурстарҙа
конкурстың
конкурсы
конкурсында
конкурсының
коношскии
конрад
консенсус
консерватив
консерватория
консерваторияһы
консерваторияһын
консерваторияһында
консерваторияһының
константин
константина
константинов
константинович
константиновка
константиновна
константиновскии
константинополгә
константинополде
константинополдә
константинополь
конституции
конституцион
конституция
конституцияла
конституцияны
конституцияның
конституцияға
конституцияһы
конституцияһын
конституцияһына
конституцияһында
конституцияһының
конструктив
конструктор
конструкторлыҡ
конструкторы
конструкторҙар
конструкция
конструкциялар
конструкциялары
конструкцияһы
консул
консулы
консультант
консультанты
консультатив
консультация
консультациялар
контакт
контеи
контексте
континент
континенталь
континентель
контораһы
контораһында
контр
контракт
контракты
контрактҡа
контролгә
контролде
контролдә
контроле
контролен
контролендә
контроленә
контроллек
контроль
контрразведка
контрреволюцион
контрһөжүм
контрһөжүмгә
контузия
конур
конус
конф
конфедерацияһы
конференц
конференции
конференция
конференцияла
конференциялар
конференцияларҙа
конференцияһы
конференцияһында
конфликт
конфликттар
конфликтты
конфликты
конфликтҡа
конфуции
конца
конце
концентрацион
концентрацияһы
концепции
концепция
концепцияһы
концепцияһын
концерт
концертмеи
концертта
концерттар
концерттары
концерттарҙа
концерты
конькиҙа
конья
коньяк
кооператив
координаталар
координаталары
координаталарҙа
координаттары
координаты
координация
координациялау
коп
копеи
коперник
копивио
копия
корбюзье
кордон
кореи
корея
кореяла
кореяның
коридор
коринф
корнеи
корни
корнилов
коровино
королдең
королдәре
короле
королев
королева
королеваһы
королевского
короллеге
короллегенең
короллегенә
короллек
короллектең
король
короля
короткометражныи
корпоратив
корпорация
корпорацияһы
корпус
корпустары
корпустың
корпусы
корпусын
корпусына
корпусында
корпусының
корр
корреспондент
корреспонденты
коррупция
корсаков
кортес
коса
космик
космодемьянская
космонавт
космонавтар
космонавтика
космос
косово
косовоның
коста
косте
костино
кострома
костромская
костромскои
костюм
костюмдар
косьва
кот
котельнич
котельничскии
котласскии
котово
которая
которого
которое
которои
котором
которую
которые
которыи
которым
которых
кофе
кошице
коэффициенттары
коэффициенты
кп
кпрф
кпсс
крае
краеведческии
краеведческое
краи
краков
красавица
красильников
красная
красненскии
красноармеи
красноборскии
краснов
красногвардеи
красного
красногородскии
красногорскии
краснодар
краснодарскии
краснодарского
красное
краснои
краснокама
краснокамскии
красносельскии
красносулинскии
красноусол
красноусольскии
красноуфимск
краснохолмскии
красноярск
красноярскии
красные
красныи
кратер
краткая
краткии
крахмал
краю
края
кре
кредит
креи
кремле
кремль
кремнии
крепости
крепостнои
крепость
крест
креста
креститель
крестьянскои
кривои
кризис
кризисы
крикет
кристалдар
кристалл
кристи
кристиан
кристина
кристоф
кристофер
крит
критерии
критика
крови
кроме
кронштадт
кропоткин
кросс
круг
круглое
кругосвет
крупнеи
крупская
крутец
крутои
крылов
крылья
крым
крыма
крымскии
крюков
крюково
крәҫтиән
крәҫтиәндәр
крәҫтиәндәргә
крәҫтиәндәре
крәҫтиәндәрҙе
крәҫтиәндәрҙең
крәҫтиәне
ксения
кстовскии
кто
ку
куб
куба
кубала
кубани
кубань
кубаға
кубен
кубенское
кубинскии
кубогы
кубогын
кубогына
кубогында
кубогының
кубок
кубометр
кувандыкского
кувеи
кувшиновскии
кугарчинскии
куда
кудрявцев
кузеев
кузнецк
кузнецкии
кузнецов
кузнецова
кузнецово
кузьма
кузьмин
кузьмино
кузьмич
куи
кук
кукуруз
кулак
кулактар
кулактарҙы
куликов
куликово
куль
культ
культур
культура
культуралар
культуралары
культураларын
культуралы
культураһы
культуре
культурного
культурнои
культурныи
культурология
культуры
культы
кун
кунгурскии
кунцево
куньинскии
куньлунь
кура
курган
курганская
курганскии
курганскои
курд
курдтар
курорт
курортологии
курорты
курс
курсанттар
курсив
курск
курская
курскии
курста
курстар
курстары
курстарын
курстарында
курстарҙа
курстарҙы
курсты
курсы
курсын
курсына
курсында
курт
курчатов
кусимова
кускова
кусто
кут
кутаиси
кутузов
кутулук
кухня
кучково
кушнаренко
кушнаренковскии
куще
куюргазинскии
кхдр
кхл
кхмерҙар
кы
кызыл
кын
кыҙҙар
кэтрин
кюри
күбе
күберәге
күберәген
күберәк
күбеһе
күбеһен
күбеһендә
күбеһенең
күбеһенсә
күбәи
күбәләк
күбәләктәр
күвеи
күгәрсен
күк
күккә
күкрәк
күкрәккә
күкрәктең
күктән
күкһел
күл
күлгә
күлде
күлдең
күлдә
күлдәге
күлдәк
күлдән
күлдәр
күлдәре
күлдәрҙең
күлдәрҙә
күле
күлендә
күленең
күленә
күленән
күләгә
күләм
күләмдә
күләмдәге
күләме
күләмен
күләмендә
күләмендәге
күләменең
күләменә
күләмле
күмелгән
күмер
күмертау
күмәк
күмәклеге
күмәклеген
күмәклегендә
күмәклегенең
күмәклек
күмәклектең
күмәклектәр
күмәкләп
күн
күндерә
күнегеүҙәр
күнекмә
күнекмәләр
күп
күпбыуындар
күпер
күпергә
күпере
күперҙе
күперҙең
күперҙәр
күпкә
күплеге
күплек
күплектә
күпләп
күпме
күпмелер
күпмөи
күпселеге
күпселеген
күпселегендә
күпселек
күпселекте
күпселектә
күптән
күптәр
күптәре
күргән
күргәҙмә
күргәҙмәгә
күргәҙмәлә
күргәҙмәләр
күргәҙмәләре
күргәҙмәләрендә
күргәҙмәләрҙә
күргәҙмәһе
күргәҙмәһендә
күргәҙмәһенең
күрелә
күрем
күренгән
күренекле
күренеп
күренеш
күренеше
күренешен
күренешендә
күренешендәге
күренешкә
күренеште
күренештә
күренештәр
күренештәре
күренештәрен
күренештәрҙе
күренештәрҙең
күренеүенсә
күренмәгән
күренмәи
күренмәле
күренә
күреп
күрергә
күреү
күреүе
күреүселәр
күркәм
күрмәгән
күрмәи
күрше
күршеләре
күрҙе
күрҙем
күрһәтелгән
күрһәтелмәгән
күрһәтелмәи
күрһәтелә
күрһәтеп
күрһәтергә
күрһәтеү
күрһәтеүгә
күрһәтеүе
күрһәтеүенсә
күрһәтеүсе
күрһәтеүҙе
күрһәткес
күрһәткесе
күрһәткесле
күрһәткестәр
күрһәткестәргә
күрһәткестәре
күрһәткән
күрһәткәне
күрһәтмә
күрһәтмәи
күрһәтмәләр
күрһәтмәләре
күрһәтмәләрен
күрһәтмәһе
күрһәтте
күрһәтә
күрһәтәләр
күрә
күрәләр
күрән
күрәһең
күсеи
күсем
күсемле
күсемһеҙ
күсенгән
күсенеп
күсенеү
күсенеүе
күсенә
күсеп
күсергә
күсергән
күсерелгән
күсерелә
күсереп
күсерергә
күсереү
күсереүҙе
күсермә
күсермәләре
күсермәһе
күсермәһен
күсерә
күсерәләр
күсеш
күсеү
күсеүе
күсеүен
күсеүҙе
күсимова
күскенсе
күскенселәр
күскенселәре
күскенселәрҙең
күскән
күскәндә
күскәндән
күскәс
күсмә
күсте
күсә
күсәләр
күсәр
күсәре
күтәргән
күтәрелгән
күтәрелеп
күтәрелергә
күтәрелеш
күтәрелеше
күтәрелеү
күтәрелеүе
күтәрелә
күтәреп
күтәрергә
күтәреү
күтәреүгә
күтәреүсе
күтәреүселәр
күтәреүселәргә
күтәреүселәрҙең
күтәрә
күҙ
күҙаллаи
күҙаллана
күҙаллау
күҙаллауҙар
күҙгә
күҙе
күҙле
күҙлегенән
күҙлектән
күҙҙең
күҙҙә
күҙҙәре
күҙәнәк
күҙәнәкле
күҙәнәктең
күҙәнәктәр
күҙәнәктәре
күҙәнәктәрендә
күҙәнәктәренең
күҙәнәктәрҙең
күҙәтелгән
күҙәтелмәи
күҙәтелә
күҙәтеп
күҙәтергә
күҙәтеү
күҙәтеүе
күҙәтеүсе
күҙәтеүселәр
күҙәтеүҙәр
күҙәткән
күҙәтә
күңел
күңелдән
күңеле
күңелен
күңелендә
күңеленә
күңелле
күңелһеҙ
кә
кәбеҫтә
кәбир
кәбисә
кәзә
кәзәһе
кәи
кәкре
кәкүк
кәл
кәлде
кәлдең
кәлдәге
кәлдәр
кәлдәре
кәле
кәлен
кәлеше
кәлимулла
кәлимуллин
кәләш
кәләше
кәм
кәмал
кәмегән
кәмеи
кәмендә
кәмерәк
кәметелә
кәметергә
кәметеү
кәметә
кәмеү
кәмеүе
кәмеүенә
кәмә
кәмәләр
кәмәләре
кәмәһе
кәрим
кәримдең
кәримов
кәримова
кәрлә
кәрниз
кәртә
кәрәге
кәрәк
кәрәкле
кәрәклеге
кәрәклеген
кәрәкмәгән
кәрәкмәи
кәрәктер
кәрәсин
кәсебе
кәсеп
кәсептәре
кәсер
кәсерҙәр
кәшәнә
кәшәнәһе
кәңәш
кәңәше
кәңәшмә
кәңәшмәлә
кәңәшмәһе
кәңәшмәһендә
кәңәшсе
кәңәшсеһе
кәңәштәр
кәҫле
кәүҙә
кәүҙәле
кәүҙәләндергән
кәүҙәләндерә
кәүҙәләнеше
кәүҙәһе
кәүҙәһен
кәүҙәһенең
көи
көкөрт
көл
көлһыу
көлө
көмбәҙ
көмбәҙе
көмбәҙле
көмлө
көмөш
көмөштән
көн
көнбаи
көнбағыш
көнбыи
көнгә
көндә
көндәлек
көндән
көндәр
көндәргә
көндәре
көндәрендә
көндәренә
көндәрҙә
көндө
көндөҙ
көндөҙгө
көндөң
көнкүреш
көнкүреше
көнкүрешен
көнкүрештә
көнлөк
көнсығыш
көнсығышта
көнсығыштан
көнсығыштараҡ
көнсығыштағы
көнсығышты
көнсығыштың
көнсығышы
көнсығышынан
көнсығышында
көнсығышындағы
көнсығышҡа
көньяк
көньяғы
көньяғына
көньяғында
көньяғындағы
көньяҡ
көньяҡта
көньяҡтан
көньяҡтараҡ
көньяҡтағы
көньяҡҡа
көньяҡҡараҡ
көнүҙәк
көнһылыу
көнө
көнөн
көнөндә
көнөнә
көнөнән
көпләнгән
көпшәле
көрсөгө
көрсөк
көрсөккә
көртмәле
көршәк
көрән
көрәш
көрәше
көрәшен
көрәшергә
көрәшеү
көрәшеүсе
көрәшкә
көрәшкән
көрәшсе
көрәште
көрәштең
көрәштә
көрәштән
көрәштәше
көрәшә
көс
көскә
көсләп
көслө
көслөрәк
көстәр
көстәргә
көстәре
көстәрен
көстәрендә
көстәренең
көстәренә
көстәрҙе
көстәрҙең
көсһөҙ
көсһөҙләнгән
көсһөҙләнә
көсһөҙөрәк
көсәи
көсө
көсөк
көсөн
көсөнә
көсөргәнеш
көсөргәнешле
көткән
көтмәгәндә
көтә
көтөлгән
көтөлмәгән
көтөлә
көтөп
көтөргә
көтөү
көтөүлек
көтөүлектәр
көтөүсе
көҙ
көҙгө
көҙгөһө
көҙәи
көҙән
көҙөн
көҙөндә
көҙөнә
көҙөнән
көңгөр
көҫәпҡол
л
ла
лабинскии
лаборант
лаборатор
лаборатория
лабораторияһы
лабораторияһын
лабораторияһында
лава
лавр
лаврентии
лавров
лагеры
лагерына
лагерында
лагерь
лагерға
лагерҙа
лагерҙар
лагерҙары
лагерҙарҙа
лада
ладога
лазарев
лазарь
лазер
лаи
лак
лалы
лама
ламаи
ламалар
лана
ландау
ландшафт
ландшафты
ланды
ланка
ланма
ланылған
ланып
ланырға
ланыу
ланған
лао
лаос
лап
лар
лариса
ларға
лас
ласло
лат
латвии
латвия
латвияла
латвияның
латин
латиница
латинса
латипов
латыпов
латыш
латыштар
лау
лауреат
лауреаттары
лауреаты
лаусыларҙың
лауы
лауға
лауҙа
лауҙар
лауҙары
лауҙарында
лауҙарҙа
лауҙы
лаштырылған
лаштырыу
лая
лаған
лағанда
лағандар
лағы
лағыр
лаҡлы
лаһы
лдар
ле
лебедев
лебедева
лебединое
лебединскии
лебяжье
лев
леви
левин
левитан
левыи
легаль
легар
легенда
легендалар
легендалары
легендар
легендаһы
легенды
легион
легионы
леди
леи
лек
лексик
лексика
лексикаһы
лекции
лекция
лекциялар
лелек
лемье
лена
ленард
ленд
лениздат
ленин
ленина
ленингр
ленинград
ленинграда
ленинградская
ленинградскии
ленинградскои
ленинградта
ленинградты
ленинградтың
ленинградҡа
лениндың
ленинец
ленинизм
ленино
ленинск
ленинскии
ленинское
ленинсы
ленинға
ленскии
лента
лео
леон
леонард
леонардо
леонид
леонидович
леонов
леонтьев
леонтьевич
леопольд
лепе
лер
лермонтов
лес
леса
лесгафт
лесная
лесничество
лесное
леснои
лессинг
лет
летие
летию
летия
летнии
лето
летопись
лечение
лечении
лечения
ли
либерал
либераль
либкнехт
либо
либретто
либреттоһы
ливан
ливанда
ливенскии
ливерпуль
ливии
ливия
ливияла
ливияның
ливон
лига
лигала
лиганың
лигаға
лигаһы
лигаһына
лигаһында
лигаһының
лидер
лидеры
лидерҙары
лидерҙарының
лидия
лиза
лилия
лилиә
лимон
лина
лингвистик
лингвистика
линдгрен
линдер
линеи
линии
линия
линиялары
линияһы
линияһын
линкольн
линнеи
линус
лион
липецк
липецкая
липидтар
липовка
лира
лирик
лирика
лист
листьев
лит
литва
литвала
литвалар
литваның
литвинов
литература
литературе
литературная
литературного
литературное
литературные
литературныи
литературы
литр
лифт
лихарев
лихославльскии
лихтенштеи
лиц
лица
лицах
лицеи
лицензия
лицо
личности
личность
личныи
личных
лишаи
лишь
лка
лки
лл
ллои
ло
лобачевскии
лов
лова
лович
ловка
ловна
лово
ловскии
ловское
лог
логарифм
логарифмик
логик
логика
логос
логотибы
логотип
лои
лок
локаль
локк
локнянскии
локо
локомотив
ломоносов
ломоносова
лонг
лондон
лондонда
лондондағы
лондондың
лондонға
лопатино
лор
лорд
лоренц
лоренцо
лос
лотошинскии
лотфулла
лоуренс
лояль
лоҡман
лоҡманов
лс
лу
лувр
луг
луга
луганск
луговая
луговое
луговои
лужки
лужскии
луи
луиджи
луиза
луис
лука
лукашенко
луки
лукино
лукои
лукоморье
луна
луначарскии
лухскии
луции
луцк
луч
лучше
лучшие
лучшии
лучших
лы
лыи
лылар
лылығы
лыраҡ
лысенко
лыч
лығы
лығын
лыҡ
лыҡтар
лыҡтары
лыҡтарын
лыҡҡа
ль
льва
львов
львович
львовта
льеж
льн
льюис
лю
любви
любимскии
люблин
люблю
любляна
любовь
любытинскии
людвиг
людеи
люди
людмила
людовик
люк
люксембург
лютер
лютеран
лютерандар
ля
лә
ләгән
ләи
ләкин
ләлә
ләм
ләмдең
ләмдә
ләмдәр
ләмле
ләмәҙ
ләмәҙтамаҡ
лән
ләнгән
ләнде
ләндергән
ләндерелгән
ләндерелә
ләндереп
ләндерергә
ләндереү
ләндерә
ләне
ләнелә
ләнеп
ләнергә
ләнеш
ләнеше
ләнешен
ләнешенең
ләнешенә
ләнешкә
ләнешле
ләнеште
ләнештә
ләнештәр
ләнештәре
ләнештәрен
ләнештәрҙе
ләнешә
ләнеү
ләнеүе
ләнмәгән
ләнә
ләнәгә
ләнәләр
ләнәнең
ләнәһе
ләнәһенә
ләп
ләр
ләргә
ләш
ләше
ләшендә
ләшеп
ләшергә
ләшеү
ләшеүселәр
ләшеүҙәр
ләшеүҙәрҙе
ләшеүҙәрҙә
ләшкән
ләштә
ләштәре
ләшә
ләшәләр
ләү
ләүгә
ләүе
ләүенсә
ләүсе
лө
лөгән
м
ма
мавзолеи
маврикии
мавритания
магадан
магазин
магазиндар
магазины
магеллан
магистр
магистрале
магистраль
магистры
магма
магнии
магнит
магнитлы
магнитогорск
магнитогорскии
магнитогорскиҙың
магомаев
мадам
мадонна
мадрид
мадридта
мадьяр
мажаралары
мажаралы
мажор
мазепа
мазинскии
мазы
мазһар
маи
мак
макао
макаров
макарово
макарьевскии
макбет
македон
македония
македонияның
македонскии
макиавелли
макки
макс
максатихинскии
максвелл
максим
максима
максималь
максимилиан
максимов
максимова
максимович
максимовка
максимум
макскии
мал
малаи
малакка
малахово
малая
малаяҙ
малдарын
малды
малдың
малевич
маленков
маленькии
малер
мали
малик
маликов
малиновка
малиновскии
мало
маловишерскии
малое
малонистогорская
малоярославецкии
малсылыҡ
малы
малые
малыи
малын
малышев
мальта
мальцев
мальчик
мама
мамаи
мамыҡ
ман
манара
манаралы
манараның
манараһы
манатов
мандат
мандатлы
мандаты
мане
манифест
манифесы
манн
манов
манова
манси
мансии
мансур
мансуров
мантуровскии
мануил
мануфактура
мануэль
манчестер
маныч
маньчжур
мао
мар
мара
марат
марафон
марафоны
марганец
маргарет
маргарита
маре
мари
марии
мариинскии
марина
марино
марио
мариуполь
мария
марияның
мариҙар
марк
марка
маркалары
маркаларында
маркалы
маркаһы
маркаһында
маркетинг
маркиз
марко
марков
маркович
марково
маркс
марксизм
марксистик
маркус
марлен
марокко
марс
марсель
март
марта
мартен
мартин
мартта
марттан
марты
мартына
мартынан
мартында
мартындағы
мартынов
мартҡа
марфа
марш
маршал
маршалл
маршалы
маршрут
маршруттар
маршруттары
маршруты
маршы
марьевка
марьино
маскарад
маслов
маслово
масс
масса
массалары
массаларының
массауи
массачусетс
массаһы
массаһын
массаһының
массив
массивы
мастер
мастера
мастеры
мастерҙары
мастобаев
масштаб
масштаблы
мат
маташа
маташалар
маташыу
маташыуҙар
маташҡан
матбуғат
матбуғатта
матбуғаты
матбуғатында
матвеев
матвеева
матвеевич
матвеевка
матвеево
матвеи
матди
матдә
матдәләр
матдәләре
матдәләрҙе
матдәләрҙең
матдәнең
математигы
математик
математика
математикала
математиканың
математикаһы
математики
математиктар
математиктары
математические
математическии
матери
материал
материалам
материалдар
материалдары
материалдарын
материалдарына
материалдарында
материалдарға
материалдарҙан
материалдарҙы
материалдарҙың
материалды
материализм
материалов
материалы
материаль
материк
материя
матерь
матисс
матраи
матрица
матрос
матросов
матур
матурлығы
матурлығын
матурлыҡ
матч
матчта
матчы
матчында
мать
матьяш
мау
мауыға
мауығып
мауыҡтырғыс
махачкала
махсус
махсуслаша
махсуслаштырылған
махсуслашҡан
маша
машина
машиналар
машиналары
машинаһы
машинаһын
машинист
машинисы
мая
маяк
маяковскии
маяҡ
мағазов
маған
маҡ
маҡар
маҡсат
маҡсатлы
маҡсатта
маҡсаттар
маҡсаттары
маҡсаттарына
маҡсаттарында
маҡсаттарҙа
маҡсаты
маҡсатын
маҡсатына
маҡсатынан
маҡсатында
маҡсатҡа
маҡтау
маҡтаулы
маңлаи
маҫ
мб
мвд
мвт
мг
мгб
мгу
мгц
мда
мду
ме
мебель
мед
медали
медаль
медалью
медведев
медведева
медведево
медведи
медведица
медеи
медея
медиа
медиафаи
медик
медико
медиктар
медиктары
медицина
медицинала
медицинаһы
медицинаһында
медицинская
медицинскии
медицинских
медицинского
медицинскои
медицины
медичи
медногорск
медынскии
межгорье
между
междунар
международная
международного
международнои
международные
международныи
международных
междуреченскии
межраи
мезень
мезолит
меи
мексика
мексикала
мексиканың
мелеузовскии
мелодия
мельбурн
мельников
мельница
мемориал
мемориалы
мемориаль
мемуарҙар
мемуарҙарында
мен
менделеев
менделеевтың
мендельсон
менеджер
менеджеры
менеджмент
менеджменты
менее
менеп
менталь
меньшевиктар
меня
менә
менән
мер
меридиан
меркурии
мероприятии
мерәҫ
месопотамия
месопотамияла
месопотамияның
месса
месси
мест
места
месте
местного
местные
место
месторождении
месяц
месяцев
мета
метал
металдан
металдар
металдарҙы
металдарҙың
металл
металлург
металлургия
метан
метеорологик
метеорология
метод
методик
методика
методикаһы
методикаһын
методист
методические
методическое
методов
методология
методы
метр
метражлы
метрик
метрлы
метрлыҡ
метро
метрология
метрополитен
метрополитены
метрға
метрҙа
метрҙан
мефодии
механигы
механизатор
механизаторы
механизацияланған
механизациялау
механизм
механизмдар
механизмдары
механизмдарын
механизмы
механизмын
механик
механика
механикаһы
мехико
меценат
мечети
мечетлинскии
мечеть
мечников
мещан
мещовскии
мең
меңгә
меңдән
меңдәрсә
меңе
меңи
меңлек
меңләгән
меңләп
меңәрләгән
меһмет
ми
миг
мигель
миграция
миграцияһы
мид
мидия
микеланджело
микен
микоян
микробиология
микроорганизмдар
микрораи
микроскоп
микроскопик
микән
милан
миланда
милек
милеккә
милиция
милке
милкендә
милкенә
миллер
миллеровскии
милли
миллиард
миллиметр
миллиметрға
миллион
миллиондан
миллионер
миллионлаған
миллионлы
миллионы
миллионға
милләт
милләте
милләтле
милләтсе
милләтселек
милләттең
милләттәр
милославскии
милош
миль
милюков
милютинскии
миләш
миләүшә
мимештәр
мин
мина
миндәк
мине
минерал
минералдар
минералогия
минераль
минең
минеңсә
минзәлә
мини
миниатюра
минималь
минимум
министерства
министерство
министр
министра
министрлығы
министрлығына
министрлығында
министрлығының
министрлыҡ
министров
министры
министрының
министрҙар
министрҙары
минои
миноме
миномет
минор
минск
минскиҙа
минус
минут
минутлыҡ
минутта
минуттан
минутҡа
миокард
мир
мира
мираҫ
мираҫы
мираҫын
мираҫҡа
мире
мирза
мирзаһитов
мирныи
мировая
мировои
миронов
мирхәи
мисс
миссисипи
миссия
миссияһы
мистик
митинг
митино
митридат
митрополит
митрополиты
миус
миф
мифик
мифологик
мифология
мифологияһы
мифологияһында
мифтар
мифтахетдин
мифтахов
мифы
михаи
михаил
михаила
михале
михалево
михальская
михельсон
мичиган
мичуринскии
мишель
мишкинскии
мишкә
мишулин
мишәр
мишәрҙәр
миякинскии
миҙал
миҙалдар
миҙалдары
миҙалдарын
миҙалдарҙы
миҙалдың
миҙалсыһы
миҙалы
миҙалын
миҙалына
миҙалға
миҙгел
миҙгелгә
миҙгелде
миҙгелдең
миҙгелдә
миҙгелдән
миҙгелдәре
миҙгеле
миҙгелен
миҙгелендә
миҙгеленең
миҙгеленән
миҙгелле
миҙхәт
миҡдары
миҡдарҙа
миңлеғәле
миңлеғәли
миңләхмәт
миңнуллин
миңә
миҫал
миҫалдар
миҫалдары
миҫалы
миҫалында
миәкә
мк
млн
млрд
мм
мн
мне
мнение
многие
многих
много
мо
мобилизация
мобиль
мог
могила
могиле
могилев
моголдар
могут
мода
моделдәр
моделдәре
моделдәрен
моделе
моделен
модели
моделирование
моделләштереү
модель
модерн
модернизациялау
модернизм
модификацияланған
модуле
модуль
мое
моего
моеи
можаи
может
можете
можно
мозаика
мозырь
мозякин
мои
моисеев
моисеевич
моисеи
мок
мокша
мокшанан
мол
молдаван
молдавия
молдавияла
молдавияның
молдова
молекула
молекулалар
молекулалары
молекулаларҙың
молекулаһы
молекуляр
моллюскылар
молния
молога
молодая
молоде
молодои
молодых
молоковскии
молот
молотов
мольер
мольерҙың
момент
мон
монако
монарх
монархия
монархияһы
монархтар
монасип
монастыре
монастыры
монастырына
монастырында
монастырының
монастырь
монастырға
монастырҙа
монастырҙар
монастырҙары
монастырҙы
монастырҙың
монах
монахтар
монахы
монгол
монголдар
монголдарға
монголдарҙың
монголия
монголияла
монголияның
мониторинг
монкада
монография
монографиялар
монографиялары
монографияһы
монреаль
монтаж
монте
монумент
монументаль
монументы
моравия
мораль
мораптал
морат
моратов
мораҙым
мораҡ
морган
мордва
мордовия
мордовскии
море
морзе
морис
моро
морозко
морозов
морозова
морозово
морозовскии
морон
мороно
моронона
морононан
морононда
моронынан
морских
морскои
мортаза
мортазин
морфологик
морфология
морфологияһы
моря
мосальскии
моск
москва
москве
москвы
московская
московскии
московского
московскои
мосолман
мосолмандар
мосолмандары
мосолмандарының
мосолмандарға
мосолмандарҙы
мосолмандарҙың
моссад
мост
мостаи
мостафа
мостафин
мостафина
мостовая
мосфильм
мотивтар
мотивтары
мотивы
мотлаҡ
мотор
моторлы
моторҙар
мотоуҡсылар
мохтаж
мохтажлыҡ
моцарт
моцарттың
мошенскои
моя
моғаи
моң
моңдары
моңло
моңо
мс
мсоп
мстислав
мтс
му
мудрыи
муж
мужского
мужскои
муз
музгиз
музее
музеи
музея
музыка
музыкала
музыкаль
музыкальная
музыкальнои
музыкальныи
музыкант
музыканттар
музыканттары
музыканты
музыканы
музыкаға
музыкаһы
музыкаһын
музыкаһына
музыкаһының
музыки
муи
мул
мулла
муллаи
муллаҡаи
муллаһы
мультфильм
муниципалитет
муниципалитеттары
муниципалитеты
муниципалитетының
муниципаль
муниципального
муниципальное
муниципальныи
муниципальным
муниципальных
мунса
мур
муратов
муратовцы
мурманск
муса
мусин
мускул
мускулдар
мускулдары
мусоргскии
мусульман
мутин
мухаммад
мухина
муҡшы
мфа
мхат
мхл
мхт
мценскии
мы
мыи
мылдар
мылтыҡ
мыр
мырҙа
мырҙалар
мыс
мысли
мысль
мысыр
мысырға
мысырҙа
мысырҙан
мысырҙар
мысырҙағы
мысырҙы
мысырҙың
мытищи
мышкинскии
мышы
мыҫҡыл
мьянма
мэи
мэн
мэр
мэри
мэры
мюзикл
мюллер
мюнхен
мюнхенда
мясников
мінск
мүк
мә
мәгәр
мәжбүр
мәжбүри
мәжит
мәжитов
мәжлес
мәжлесе
мәжнүн
мәжүси
мәжүсилек
мәи
мәккә
мәккәгә
мәккәлә
мәктәбе
мәктәбен
мәктәбендә
мәктәбенең
мәктәбенә
мәктәп
мәктәпкә
мәктәпкәсә
мәктәпте
мәктәптең
мәктәптә
мәктәптән
мәктәптәр
мәктәптәре
мәктәптәрендә
мәктәптәренең
мәктәптәрҙең
мәктәптәрҙә
мәл
мәлгә
мәлдә
мәлдән
мәле
мәлендә
мәленә
мәлик
мәләүез
мәмбәт
мәмери
мәмлүк
мәмлүктәр
мән
мәндең
мәнов
мәнова
мәнфәғәтен
мәнфәғәтендә
мәнфәғәттәре
мәнфәғәттәрен
мәнфәғәттәренә
мәргән
мәри
мәркәз
мәрмәр
мәртәбә
мәрхүм
мәрхәмәтле
мәрәи
мәсет
мәсете
мәсетендә
мәсетенең
мәсеткә
мәсетле
мәсетте
мәсеттең
мәсеттә
мәсеттәр
мәсеттәре
мәскәү
мәскәүгә
мәскәүҙе
мәскәүҙең
мәскәүҙә
мәскәүҙәге
мәскәүҙән
мәсьәлә
мәсьәләләр
мәсьәләләргә
мәсьәләләре
мәсьәләләрен
мәсьәләләренә
мәсьәләләрҙе
мәсьәләне
мәсьәләһе
мәсьәләһен
мәсғүт
мәсүд
мәсәғүт
мәхмүд
мәхмүт
мәхмүтов
мәхмәт
мәхрүм
мәхәллә
мәхәлләһе
мәшғүл
мәшһүр
мәғариф
мәғарифты
мәғарифы
мәғдән
мәғдәне
мәғлүм
мәғлүмәт
мәғлүмәте
мәғлүмәтенә
мәғлүмәти
мәғлүмәткә
мәғлүмәтте
мәғлүмәттең
мәғлүмәттәр
мәғлүмәттәргә
мәғлүмәттәре
мәғлүмәттәрен
мәғлүмәттәренә
мәғлүмәттәренән
мәғлүмәттәрҙе
мәғлүмәттәрҙең
мәғрифәтсе
мәғрифәтселек
мәғрифәтсеһе
мәғәнә
мәғәнәгә
мәғәнәле
мәғәнәлә
мәғәнәләр
мәғәнәләре
мәғәнәне
мәғәнәһе
мәғәнәһен
мәғәнәһендә
мәғәнәһенә
мәғәнәһеҙ
мәғәфүр
мәҙинә
мәҙинәгә
мәҙинәлә
мәҙрәсә
мәҙрәсәлә
мәҙрәсәләр
мәҙрәсәһе
мәҙрәсәһен
мәҙрәсәһендә
мәҙәни
мәҙәниәт
мәҙәниәте
мәҙәниәтен
мәҙәниәтендә
мәҙәниәтенең
мәҙәниәтенә
мәҙәниәткә
мәҙәниәтте
мәҙәниәттең
мәҙәниәттә
мәҙәниәттәр
мәҙәниәттәре
мәҡсүт
мәҡәлдәр
мәҡәлә
мәҡәләгә
мәҡәләлә
мәҡәләләр
мәҡәләләргә
мәҡәләләре
мәҡәләләрен
мәҡәләләрендә
мәҡәләләрҙе
мәҡәләләрҙең
мәҡәләләрҙә
мәҡәләне
мәҡәләнең
мәҡәләһе
мәҡәләһен
мәҡәләһендә
мәңге
мәңгелек
мәңгелеккә
мәңгеләштереү
мәҫ
мәҫәл
мәҫәлән
мәүлит
мәһәҙиев
мөбәрәк
мөбәрәков
мөгәзәи
мөгөҙ
мөгөҙлө
мөдир
мөдире
мөи
мөлкәт
мөлкәте
мөлкәтен
мөлкәтте
мөмкин
мөмкинлеге
мөмкинлеген
мөмкинлегенә
мөмкинлек
мөмкинлектәр
мөмкинлектәре
мөмкинлектәрен
мөнир
мөнәсәбәт
мөнәсәбәте
мөнәсәбәтен
мөнәсәбәттә
мөнәсәбәттәр
мөнәсәбәттәргә
мөнәсәбәттәре
мөнәсәбәттәрен
мөнәсәбәттәренең
мөнәсәбәттәрҙе
мөнәсәбәттәрҙең
мөнәсәбәттәрҙә
мөрсәлим
мөрәжәғәт
мөрәжәғәте
мөслим
мөфтөи
мөх
мөхбир
мөхит
мөхите
мөхитен
мөхитендә
мөхиткә
мөхитте
мөхиттең
мөхиттә
мөхтәр
мөхәббәт
мөхәббәте
мөхәммәд
мөхәммәт
мөхәммәттең
мөхәмәт
мөхәмәти
мөхәмәтов
мөхәмәтсәлим
мөхәмәтша
мөхәррир
мөхәррире
мөхәрририәт
мөхәррирләү
мөхәррирҙәр
мөхәррирҙәре
мөхәррәм
мөғжизә
мөғжизәле
мөғжизәһе
мөғәллим
мөҙҙәте
мөҙҙәткә
мөҙәрис
мөһабәт
мөһим
мөһиме
мөһимлеген
н
на
набережная
набоков
навигация
навои
наволок
нагорныи
награда
наградалар
наградалары
наградами
наградаға
наградаһы
наградлана
наградланыусылар
наградланған
награднои
награды
награжде
награждении
над
надаль
надежда
надеждино
надежды
надир
надо
надым
назад
назар
назараты
назарбаев
назаров
назарово
название
названием
названии
названия
назначен
наи
наиболее
наил
накануне
нала
налог
налоговои
нам
намаи
намаҙ
намаҙы
наместнигы
наместниклығы
нами
намыҫ
намыҫлы
нан
нанаи
нансен
нансендың
наны
нап
наполеон
наполеондың
наполеонға
направления
например
нар
нарва
нариман
нарком
наркомы
наркотиктар
наро
народ
народа
народная
народного
народное
народнои
народные
народныи
народных
народов
народы
нарға
нас
насар
насараи
насарая
насарыраҡ
населе
население
населения
населенных
насип
насир
наслег
наследие
наследия
насретдин
настоящее
насыр
насыров
наталия
наталья
нато
натрии
натураль
натыу
натюрморт
нау
наук
наука
науке
науки
наукова
наум
наусы
науч
научная
научно
научного
научное
научнои
научные
научныи
научных
науы
науын
нафиҡов
нах
нахимов
нахичеван
нахичевань
находится
нации
национал
национальная
национально
национального
национальное
национальнои
национальные
национальныи
национальных
нацист
нацистар
нацистик
начал
начала
начале
начало
начальнигы
начальнигының
начальник
начальниктары
наш
наша
наше
нашего
нашеи
наши
наших
ная
наған
нағанда
наҙан
наҙы
наҡ
нберг
нгду
нда
ндар
ндары
ндағы
нды
ндың
ндә
не
неаполь
небо
нева
невельскии
неврология
невскии
негатив
него
неговора
недвижимых
недели
неделя
недоступная
недра
нее
независимая
независимости
неи
неизвестныи
неклиновскии
некоторые
некоторых
некоузскии
некрасов
некрасово
некрасовскии
некролог
некрополь
нелидовскии
нельзя
нем
неман
немец
немецкии
немецкого
немецтар
немецтары
немецтарға
немецтарҙы
немецтарҙың
немирович
немцев
немцы
нен
ненец
ненецкии
необходимо
неолит
неопр
непал
неплюев
непроверенными
нептун
нер
нерабочими
нерв
нервы
нервылар
нерехтскии
неру
нерҙар
несветаи
нескольких
несколько
нескә
нестеров
нестерово
нестор
нет
нетаньяху
нетдин
нетдинов
нефаз
нефе
нефтекама
нефтепродуктов
нефтехим
нефтехимик
нефтехимия
нефтеюганск
нефти
нефткә
нефтсе
нефтселәр
нефтселәре
нефтсеһе
нефтте
нефттең
нефть
нефтяник
нефтяного
нефтянои
нефтяных
нечаев
нең
ни
нива
нигер
нигерия
нигеҙ
нигеҙгә
нигеҙе
нигеҙен
нигеҙендә
нигеҙендәге
нигеҙенең
нигеҙенә
нигеҙле
нигеҙләгән
нигеҙләи
нигеҙләнгән
нигеҙләнеп
нигеҙләнә
нигеҙләү
нигеҙләүсе
нигеҙҙе
нигеҙҙең
нигеҙҙә
нигеҙҙәр
нигеҙҙәре
нигеҙҙәрен
нигеҙһеҙ
нидерланд
нидерландта
нидерландтың
ние
ниже
нижегородская
нижневартовск
нижнего
нижнее
нижние
нижнии
нижняя
низам
низаметдинов
низами
низағ
низағтар
нии
ник
ника
никарагуа
никах
никахлаша
никахта
никахтан
никахы
никахынан
никахҡа
никель
ники
никита
никитин
никитина
никитино
никитич
никифоров
никифорович
никколо
ников
никогда
никола
николаев
николаевич
николаевка
николаевна
николаевск
николаевскии
николаевское
николаи
николас
николая
николо
николсон
никольск
никольская
никольскии
никольское
николя
никон
никто
никулино
нил
ним
ними
нимә
нимәгә
нимәлер
нин
нина
ниндәи
нинскии
ниро
нисбәт
нисбәте
нисбәтен
нисек
нисә
них
ница
ницца
ницше
ничего
нияз
ниғмәт
ниғмәти
ниғмәтулла
ниғмәтуллин
ниңә
ниһаи
ниәт
ниәте
ниәтен
ниәтләи
нка
нквд
нки
нко
нная
нного
нное
ннои
нные
нныи
нных
но
нобель
нов
нова
новая
новгород
новгородская
новгородскии
новгородта
новгородтан
новгородтың
новгородҡа
новеи
новелла
нови
новиков
новинка
новинки
нович
новка
новленское
новна
ново
новоалександровка
нового
новодевичье
новое
новои
новокузнецк
новокузнецкии
новомихаи
новомосковск
новониколаевка
новопокровка
новопокровскии
новоржевскии
новороссии
новосе
новоселки
новосибирск
новосибирская
новосибирскиҙа
новосокольническии
новостеи
новости
новострои
новотроицк
новотроицкое
новочеркасск
новская
новскии
новское
новые
новыи
новым
новых
ного
ное
нои
нок
ноль
ном
номер
номерлы
номеры
номерҙар
номерҙары
номиналь
номинации
номинация
номинацияһы
номинацияһында
норвег
норвегия
норвегияла
норвегияның
норма
нормалар
нормалары
нормаларын
нормаль
норман
норматив
нормаһы
нос
нота
ночи
ночь
нояб
ноябргә
ноябре
ноябрендә
ноябрендәге
ноябренә
ноябренән
ноябрь
ноября
ноябрҙә
ноябрҙәге
ноябрҙән
ноғман
нп
нс
нскии
нська
нтв
ну
нужно
нулгә
нулдән
нулла
нуллин
нуллина
нуль
нур
нуретдин
нуриев
нуриман
нурия
нурланыш
нурланыштың
нурланышы
нурлы
нурмөхәмәт
нурулла
нуры
нурыев
нурыи
нурғәли
нурҙар
нурҙары
нух
нуғаи
нхл
нхмм
нц
нштеи
ны
ные
ныи
ным
нын
нына
нынан
нында
нындағы
ныне
нының
нынң
нытвенскии
ных
нығына
нығынып
нығынған
нығыраҡ
нығыта
нығытма
нығытмалар
нығытмалары
нығытмаһы
нығытыла
нығытылған
нығытып
нығытырға
нығытыу
нығытыуға
нығытҡан
ныҡ
ныҡлап
ныҡлы
ныҡлығы
ныҡышмалы
ның
нью
ньютон
ньютондың
нюксенскии
нюрнберг
нязепетровск
няндомскии
нға
нә
нәб
нәби
нәдир
нәжиб
нәжип
нәжми
нәзәкәтле
нәмә
нәмәгә
нәмәләр
нәмәне
нән
нәркәс
нәсибаш
нәсихәт
нәтижәһендә
нәфис
нәфрәт
нәшер
нәшр
нәшриәт
нәшриәте
нәшриәтендә
нәшриәтенең
нәғим
нәҙек
нәҙершина
нәҡ
нәҫел
нәҫелдән
нәҫелдәре
нәҫеле
нәҫеленең
нәҫеленә
нәҫеленән
нөгөш
нөктә
нөктәгә
нөктәлә
нөктәләр
нөктәләре
нөктәнең
нөктәнән
нөктәһе
нөктәһен
нөктәһендә
нөктәһенең
нөктәһенә
нөктәһенән
нөң
о
оао
об
оба
обд
обелиск
обер
обеспечения
обзор
обл
областеи
области
областная
областного
областнои
область
обливскии
обозначения
обозрение
оборона
обороналау
обороналауҙа
обороналаған
оборонаға
оборонаһы
оборонаһын
обороны
образ
образдар
образдары
образлы
образование
образовании
образования
образованиям
образом
образы
образын
обращения
обсе
обсерватория
обсерваторияһы
обсуждения
обухов
обухово
обучения
общ
общая
общего
общеи
общества
обществе
общественная
общественно
общественнои
общественных
общество
общие
общии
община
общиналар
общиналары
общинаһы
общинаһының
объ
объедине
объединение
объединением
объект
объекта
объектив
объектов
объекттар
объекттары
объекттарын
объекттарына
объекттарының
объекттарҙы
объекттарҙың
объектты
объекттың
объекты
объектына
объектының
обычно
обь
ова
овидии
овчинников
ога
огаи
огаре
огни
огоне
огонек
огонь
огпу
огюст
од
ода
одер
одесса
одессала
один
одинцовскии
одиссеи
одиссея
одна
однако
одним
одно
одного
однои
одном
одну
одоевскии
одри
ожмах
оз
озе
озера
озерки
озеро
озеф
означает
озон
ои
ок
ока
окато
окб
океан
океанда
океандар
океандың
океания
океаны
океанының
океанға
окерит
оки
окисланыу
оккупацион
оккупация
оккупациялаи
оккупацияланған
оккупациялаған
оккупацияһы
около
округ
округа
округта
округтар
округтары
округтың
округы
округына
округынан
округында
округындағы
округының
окружающеи
оксана
оксиды
оксфорд
окт
октавиан
октябргә
октябре
октябрендә
октябрендәге
октябренә
октябренән
октябрь
октябрьск
октябрьская
октябрьскии
октябрьское
октября
октябрҙең
октябрҙә
октябрҙән
окуловскии
ола
олалар
олалары
олаларын
олаларҙы
олатаи
олатаһы
олаһы
олаһын
оле
олег
оленинскии
оливер
оливье
олимп
олимпиада
олимпиадала
олимпиадаһында
олимпии
олимпия
олма
оло
ололар
олонец
ольга
ольховка
ольшанка
олған
ом
ома
оман
омар
омарт
омаш
омағолов
омағужа
омаҡ
омортҡа
омортҡаһы
омоҡ
омран
омро
омск
омская
омскии
омшағыраҡ
омшаҡ
омь
омға
омғаҡ
омғаҡлау
омғаҡтары
он
она
онда
ондан
ондар
ондары
ондарын
ондарына
ондарынан
ондарында
ондарындағы
ондарының
ондарға
ондарҙа
ондарҙы
ондарҙың
ондағы
ондороҡло
ондороҡһоҙ
ондороҡһоҙлоғо
ондороҡһоҙлоғон
ондороҡһоҙлоҡ
ондоҙ
ондоҙло
ондоҙлоҡ
ондоҙлоҡтар
ондоҙо
ондоҙҙар
ондоҙҙары
ондоҙҙарҙың
онды
ондың
оне
онега
онегин
они
онкология
онлаи
онлау
онная
оно
онов
онос
онотолған
онтарио
оны
онын
онына
онынан
онында
онындағы
онының
онға
оон
ооо
оп
опек
опер
опера
операла
опералар
опералары
операның
оператив
оператор
операторы
операции
операцион
операция
операцияла
операциялар
операциялары
операцияларында
операцияларҙа
операцияны
операцияһы
операцияһын
операцияһында
операһы
операһын
операһында
операһының
оперетта
оперы
описание
описания
опись
ополчение
ополчениеһы
опочецкии
оппозицион
оппозиция
оппозицияла
оппозицияның
оппозицияға
оппозицияһы
определе
определение
определения
определитель
оптик
оптика
оптималь
опубликовано
опыт
ор
ора
оран
орбита
орбиталь
орбитаһы
орган
органдар
органдары
органдарын
органдарына
органдарында
органдарының
организации
организация
организм
организмда
организмдар
организмдарҙың
организмдың
организмға
органик
органов
органы
орда
орден
ордена
ордендар
ордендары
ордендың
орденлы
орденом
ордены
орденын
орденына
орденының
орджоникидзе
оре
орел
оренбург
оренбургская
оренбургскии
оренбургского
оренбургскои
орехово
оригинал
оригиналь
оригинальныи
оричевскии
орк
оркестр
оркестра
оркестры
оркта
орктағы
орктың
орлов
орлова
орловка
орлово
орловская
орловскии
орлоғо
орлоҡ
орлоҡло
орлоҡтар
орлоҡтары
орнамент
оров
ороғо
ороғона
ороҡ
ороҡҡа
орск
орт
ортега
орто
ортогональ
ортодоксаль
ортон
ортона
ортонан
ортонда
ортоноң
ортта
орттан
орттар
орттары
орттарын
орттарына
орттарында
орттарының
орттарҙа
орттарҙы
орттарҙың
ортто
орттоң
ортҡа
орудие
орудиеһы
оружие
орфеи
орфография
оры
орған
ос
оса
осака
освобождение
осень
осетин
осетия
осиновка
осинскии
осип
осипенко
осипов
осипович
оскар
оскол
осколки
ослаи
осло
осман
основании
основания
основе
основного
основнои
основном
основные
основных
основы
осо
особенности
особо
осона
осонда
осоп
осопов
осопова
осор
осоро
осорон
осорона
осоронан
осоронда
осорондағы
осороноң
осороу
осорға
осорҙа
осорҙан
осорҙарҙа
осорҙағы
осорҙо
осорҙоң
осоу
осоусы
осоусылар
осоусылары
осоусыһы
ософ
осош
осошо
осоштар
осраи
осрамаи
осрата
осратырға
осраша
осрашып
осрашырға
осрашыу
осрашыуы
осрашыуын
осрашыуында
осрашыуға
осрашыуҙа
осрашыуҙар
осрашҡан
осраған
осрағы
осрағында
осраҡ
осраҡлы
осраҡта
осраҡтар
осраҡтары
осраҡтарҙа
ост
остазы
остары
осташковскии
остготтар
остров
острова
островскии
островского
осҡан
осҡон
осҡос
от
ота
отв
ответ
отд
отдел
отдела
отделение
отделениеһы
отделения
отдельных
отдыха
отелло
отель
отец
отеч
отечества
отечественная
отечественнои
отечественные
отечеством
открыли
открыт
открытие
открытия
отличие
отличнигы
отличниктары
отмечает
отношении
отношения
отола
отолоу
отолоуҙар
отоп
отош
отошло
отрада
отрадное
отряд
отрядтар
отрядтары
отрядтарын
отряды
отрядын
отрядына
отрядының
отставкалағы
отставкаға
отто
оттон
отца
отче
отчет
оу
оусы
офис
офисы
офицер
офицеры
офицерын
офицерҙар
офицерҙары
офицерҙарҙы
офицерҙарҙың
официальная
официально
официальном
официальныи
оформление
оформления
офф
оффта
оффтың
оффҡа
охан
охота
охрана
охране
охраны
оценка
оценки
очень
очерк
очерки
очерктар
очерктары
ош
оша
ошибка
ошкар
ошма
ошмала
ошмалар
ошмалары
ошмаларында
ошмаларының
ошмаларға
ошмаларҙа
ошмаларҙың
ошманы
ошманың
ошмаға
ошмаһы
ошмаһын
ошмаһына
ошмаһында
ошмаһының
ошо
ошолаи
ошонан
ошонда
ошондаи
ошоноң
ошоға
оштора
ошторалар
ошторола
ошторолдо
ошторолоуы
ошторолған
ошторолғандан
оштороп
ошторорға
оштороу
оштороусы
оштороусылар
оштороусылары
оштороусыларҙың
оштороусыһы
оштороуға
оштороуҙа
оштороуҙы
ошторған
ошҡан
ою
оя
оялаи
ояһы
оғлы
оғонто
оғонтоло
оғонтоһо
оғонтоһон
оғонтоһона
оғонтоһонан
оғонтоһонда
оғошло
оҙаи
оҙата
оҙаталар
оҙатыла
оҙатылған
оҙатып
оҙатыу
оҙатыуында
оҙағыраҡ
оҙаҡ
оҙаҡламаи
оҙаҡҡа
оҙон
оҙонаи
оҙонлоғо
оҙонлоғон
оҙонлоғона
оҙонлоғонда
оҙонлоғондағы
оҙонлоҡ
оҙонлоҡта
оҙонлоҡтағы
оҙонлоҡҡа
оҙонораҡ
оҙонса
оҡ
оҡа
оҡлап
оҡо
оҡшаи
оҡшамаи
оҡшамаған
оҡшап
оҡшатып
оҡшаш
оҡшашлығы
оҡшашлыҡ
оҡшаған
оҫта
оҫталар
оҫталары
оҫталарының
оҫталығы
оҫталығын
оҫталығына
оҫталыҡ
оҫтахана
оҫтаханалар
оҫтаханалары
оҫтаханаһы
оҫтаханаһында
оҫтаһы
оһанн
п
па
пабло
павел
павильон
павильоны
павла
павлов
павлова
павлович
павловка
павловна
павлово
павловск
павловскии
павловское
паганини
падение
паи
пакистан
пакистанда
пакистандың
палата
палаталары
палаталы
палатаһы
палатаһында
палатаһының
палеозои
палеолит
палеонтология
палехскии
палкинскии
паллас
пальма
пальмира
памир
памяти
памятная
памятник
памятника
памятники
памятников
памятные
память
пан
панама
панин
паново
панорама
панорамаһы
пантелеи
паоло
папа
папаһы
папуа
пар
парабола
парагваи
парад
парады
парадында
паразит
паралимпия
параллель
параметр
параметра
параметров
параметром
параметры
параметрҙар
параметрҙары
парашют
пари
париж
парижа
парижда
париждан
париждағы
парижды
париждың
парижға
парк
парка
паркка
паркта
парктар
парктары
паркты
парктың
паркы
паркына
паркында
паркының
парламент
парламентаризм
парламентта
парламенттың
парламенты
парламентының
парламентҡа
парлы
паровоз
паром
пароход
партизан
партизандар
партизандары
партии
партия
партияла
партиялар
партиялары
партияларҙы
партияларҙың
партиялы
партиянан
партияны
партияның
партияға
партияһы
партияһын
партияһына
партияһынан
партияһының
партне
партнер
партнеры
партнерҙары
парфе
парфеньевскии
парфия
пары
парға
парҙар
парҙары
пас
паспорт
пассажир
пассажирҙар
пассажирҙарҙы
пассив
пастар
пастер
пастернак
пастерҙың
пасха
патент
патенты
патологик
патология
патриарх
патриархы
патрик
патриот
патриотик
паулу
пауль
пахарь
паша
пво
пе
пед
педагог
педагогик
педагогика
педагогическии
педагогического
педагогия
педагогтар
педагогтары
педагогы
педиатрия
педро
пеи
пекин
пекинда
пенза
пензенская
пеновскии
пенсильвания
пенсия
пенсияға
пепеляев
пер
первая
первого
первое
первозванныи
первои
первом
первомаи
первые
первыи
первым
первых
перевод
перевода
переводами
переводе
переводы
перед
передаче
передачеи
перекоп
перемышльскии
переопределением
переписи
переписка
перепись
перераб
переработанное
переславскии
переулок
перечень
периметры
период
периода
периодик
периоды
периферия
пермскии
пермского
пермскои
пермь
перов
перовскии
перпендикуляр
персеи
персия
персонаж
персонаждар
персонаждары
персонажы
персоналии
персональ
перспективалы
перспективы
перу
песен
пески
песни
песнь
песня
пестово
пестовскии
песчанка
петер
петерб
петербург
петербурга
петербурге
петербургка
петербургскии
петербургского
петербургта
петербургтан
петербургтағы
петербургтың
петербургҡа
петр
петра
петров
петрова
петрович
петровка
петровна
петрово
петровск
петровская
петровскии
петровское
петроград
петроградта
петроградҡа
петрозаводск
петропавловка
петропавловск
петропавловскии
петросовет
петрушино
пехота
пехотаһы
печ
печати
печать
печора
печорскии
пещера
пи
пианист
пиза
пии
пик
пикассо
пилот
пилотһыҙ
пилсудскии
пинега
пиньинь
пионер
пионеры
пионерҙар
пирамида
пирамидалар
пирамиданың
пирамидаһы
пиренеи
пирогов
пирогово
писателеи
писатели
писатель
писателя
писать
писем
письма
письмо
питер
пифагор
пкс
плазма
плакат
план
планда
пландар
пландары
пландарын
пландағы
планды
планета
планеталар
планеталарҙың
планетаның
планетаһы
планк
планлаштыра
планлаштырыла
планлаштырылған
планлаштырыу
планлы
планы
планын
планына
планында
планға
пластик
платина
платов
платон
платонов
платформа
платформаһы
плацдармды
пле
плеи
пленумы
пленумында
плесецкии
плеханов
плинии
плита
плиталар
пловдив
плоское
плотина
площади
площадь
плутарх
пльзень
плюс
плюсскии
пляж
пневмония
по
победа
победои
победу
победы
поведения
повестар
повестары
повести
повесть
повесы
повесын
поводу
поволжье
поволжья
повышения
погиб
погибших
погорелка
погост
под
подвиг
подгорная
подгорное
подгорныи
подготовка
подготовке
подготовки
подданныи
поддорскии
подлесныи
подольск
подольскии
подполковнигы
подполковник
подпоручик
подразделение
подразделениелар
подразделениелары
подразделениеһы
подъе
пое
поезд
поезда
поездар
поездары
поезы
пожалуи
позиции
позицион
позиция
позицияла
позициялары
позицияларын
позицияларына
позицияны
позицияһы
позицияһын
позицияһына
позицияһында
пои
поиск
поисках
пока
покои
покров
покровка
покровскии
покровское
покрытосеменные
пол
поле
полевои
полесье
полигон
полиграфия
полина
политбюро
политбюроһы
политехник
политиздат
политик
политика
политике
политики
политическая
политические
политическии
политических
политического
политическои
политология
полицеи
полиция
полицияһы
полк
полка
полковнигы
полковник
полководец
полководецы
полктары
полктың
полку
полкы
полкын
полкына
полкында
полкының
полное
полностью
полныи
поло
половина
половине
половины
половцы
положение
положения
полоцк
полтава
получения
получил
поль
польскии
польша
польшала
польшаны
польшаның
польшаға
полюс
поля
поляк
поляков
поляктар
поляна
полянскии
поляны
поляр
помидор
помощи
помощь
помощью
помпеи
пономаре
пономарев
понтии
понятия
поп
попов
попова
поповка
попово
поповское
популяр
популярлаштырыу
популярлығы
популярлыҡ
популяция
популяцияһы
пор
поречье
порт
порта
портал
портале
порталы
портр
портрет
портреттар
портреттары
портреттарын
портреты
портретын
порттар
порттары
португал
португалдар
португалия
португалияның
порты
портына
портында
поручик
порхов
порховскии
порядке
порядок
посад
посадскии
посвяще
посвященнои
посе
поселение
поселении
поселения
поскольку
после
последние
последнии
последняя
пособие
посполитая
поссовет
пост
постамент
постаментта
постаментҡа
постановка
постановкалары
постановкаһы
постановление
постоянного
постына
посын
посына
посынан
потапов
поте
потенциалы
потенциаль
потерях
потому
потоцкии
поход
походта
походтар
походтары
походтарында
походы
походын
походында
походҡа
почв
поче
почему
почепскии
почет
почетлы
почетного
почетные
починки
починок
почта
почтаһы
почти
пошехонскии
поэзии
поэзия
поэма
поэмалар
поэмалары
поэманың
поэмаһы
поэмаһын
поэмаһында
поэмы
поэт
поэта
поэтик
поэтика
поэтому
поэты
пр
прав
права
правда
правдинскии
правил
правила
правило
правительства
правительство
правления
право
правовои
православ
православие
православная
православнои
православныи
прага
прагала
прадеш
прадо
праздник
праи
практик
практика
практикала
практикаһы
практическои
прапорщик
прасковья
пред
предисл
предисловие
предложение
предложения
предмет
предметтар
предметтары
предметтарҙы
предметы
предназначен
предприятие
предприятиела
предприятиелар
предприятиелары
предприятиеларын
предприятиеларында
предприятиеларының
предприятиеларҙың
предприятиеның
предприятиеһы
предприятиеһында
предприятиеһының
предприятии
предприятия
председатель
председателя
представителеи
прежде
презентация
президент
президента
президентлыҡ
президенттары
президенттың
президенты
президентын
президентына
президентының
президиум
президиума
президиумы
президиумының
премии
премия
премиялар
премиялары
премияны
премияға
премияһы
премияһын
премияһына
премияһының
премьер
премьера
премьераһы
премьеры
преображенка
преображенск
преображенскии
препарат
препараттар
препараттары
преподобныи
пресвятая
пресс
пресса
префектура
при
приборҙар
приборҙары
приват
приволжскии
пригородное
пригородныи
прие
приз
призе
призер
призеры
призлы
призма
призы
призын
призына
приказ
приказы
приключения
приложение
примаков
применение
применения
пример
примере
примеры
примеч
примечания
приморскии
приморье
принимает
принц
принцесса
принцессаһы
принцибы
принцибын
принцибына
принцип
принципиаль
принциптар
принциптары
принциптарын
принциптарына
принципы
принцы
принял
приозе
припять
природа
природе
природных
природы
присвоении
пристань
присуждении
присяжныи
приток
приуралье
приход
приют
про
проблема
проблемалар
проблемалары
проблемаларын
проблемаларына
проблемаларҙы
проблеманы
проблемаһы
проблемаһын
проблеме
проблемы
проведении
проведения
проверено
провинциаль
провинции
провинция
провинциялар
провинциялары
провинцияның
провинцияға
провинцияһы
провинцияһына
провинцияһында
провинцияһындағы
провинцияһының
программа
программала
программалар
программалары
программаларын
программалау
программаны
программаһы
программаһын
программаһына
программаһында
программаһының
программы
прогресс
прогрессив
продолжение
продукт
продукттар
продукттары
продукттарын
продукттың
продукты
продукция
продукцияны
продукцияның
продукцияһы
продукцияһын
продукцияһының
продюсер
продюсеры
проект
проекта
проекте
проектлау
проектов
проектта
проекттар
проекттары
проекттарын
проекттарҙы
проектты
проекттың
проекты
проектын
проектына
проектында
проектының
проектҡа
проза
прозаигы
прозаик
прои
произведении
произведения
производства
производство
производствоға
производствоһы
происхождение
происхождении
происхождения
прокат
прокофьев
прокуратура
прокуратураһы
прокурор
прокуроры
пролетар
пролетариат
пролетарии
пролетарскии
прометеи
промысла
промыслаһы
промышленности
промышленность
пропаганда
пропагандалау
пропорциональ
проректор
проректоры
просвещение
просвещения
проспект
проспекты
проспектында
просто
просторы
пространства
пространстве
пространство
протектораты
протест
протестант
протестанттар
против
протоиереи
протокол
протоколы
прототибы
проф
профессионал
профессионалдар
профессиональ
профессионального
профессиялар
профессор
профессора
профессоры
профессорҙар
профессорҙары
профилактика
профиле
профилле
профиль
профсоюз
профсоюздар
профсоюзы
прохоров
процент
процентлы
проценттан
проценты
процентын
процентҡа
процесс
процесса
процессе
процессов
процессы
процестар
процестары
процестарын
процестарҙы
процестарҙың
процесты
процестың
процесы
процесын
процесына
процесында
прошлого
прошлое
прошлом
пруды
прус
пруссия
пруссияла
пруссияның
пруссияға
прут
псевдоним
псевдонимы
психиатрия
психик
психолог
психологик
психология
психологияһы
псков
псковская
псковскии
птиц
птица
птицы
птолемеи
пу
публикации
публикация
публицист
публицистары
публицистик
публицистика
пугаче
пугачев
пугачевтың
пулеме
пулемет
пуля
пункт
пунктов
пункттар
пункттары
пункттарын
пункттарының
пункттарҙы
пункттарҙың
пункты
пунктын
пунктына
пунктында
пур
пусан
пустошка
пустошкинскии
пустынь
пусть
путеводитель
путеи
путешествие
путешествия
пути
путин
путиндың
путь
пучежскии
пуччини
пушка
пушкалар
пушкин
пушкина
пушкиндың
пушкино
пушкиногорскии
пушкинскии
пуэрто
пхе
пциг
пылыш
пылыштар
пыталовскии
пышма
пьер
пьеса
пьесалар
пьесалары
пьесаларын
пьесаһы
пьесаһын
пьесаһында
пьесе
пьесы
пьетро
пять
пәи
р
ра
рабинович
работ
работа
работает
работе
работник
работникам
работников
работу
работы
рабочии
рабочих
рада
радаһы
радж
ради
радиаль
радиация
радии
радик
радикаль
радио
радиоактив
радиостанция
радиостанцияһы
радиотапшырыуҙар
радиотехника
радиоэлектроника
радиоһы
радиоһында
радиоһының
радиус
радиусы
радуга
раевка
раевскии
раз
разведка
разведкалау
разведкаһы
разведки
разведчигы
разведчик
разведчиктар
развитие
развитии
развития
раздел
раздела
разделе
раздолье
разин
различных
размер
размещения
размышления
разные
разных
разработка
разработки
разряд
разрядлы
разрядта
разъезд
раи
раил
раиса
рак
ракета
ракеталар
рам
рама
рамазан
рамаҙан
рамдар
рамдары
раменскии
раменье
рамешковскии
рамках
рамы
рамын
рамына
рамында
рамғол
ран
ранг
ранее
рао
рас
раса
распоряжение
рассвет
рассказ
рассказов
рассказы
растении
растения
расче
расчеты
рат
рата
ратуша
ратыла
ратылған
ратыу
ратҡан
рауза
рауил
рауль
раунд
раундта
раундында
рафаил
рафаэль
рафиҡ
рафиҡов
рахимов
рахман
рациональ
раштыуа
раштыуаһы
рағы
рағын
раҡ
раҡлы
раҡтар
раҫлаи
раҫлана
раҫланмаған
раҫланы
раҫланған
раҫлап
раҫларға
раҫлау
раҫлаусы
раҫлауы
раҫлауынса
раҫлауҙар
раҫлаған
рб
рбк
ргб
рд
ре
реабилитация
реабилитациялау
реактив
реактор
реакция
реакциялар
реакциялары
реакцияға
реакцияһы
реал
реализации
реализм
реалистик
реаль
ребе
ревда
ревель
ревизия
ревизияла
ревизор
революции
революцион
революционер
революционеры
революционерҙар
революционерҙары
революция
революциянан
революцияны
революцияның
революцияға
революцияһы
революцияһын
революцияһына
революцияһынан
революцияһының
регби
регенсбург
регент
регион
региона
региональ
регионального
региондар
региондары
регионов
регионы
регуляр
ред
редактор
редакторы
редакциеи
редакция
редакцияһы
редакцияһына
редакцияһында
редкол
редколл
редколлегия
реестры
реестрына
реестрында
реж
режим
режимы
режимын
режимына
режиссе
режиссер
режиссеры
режиссура
реза
резерв
резервы
резиденция
резиденцияһы
резиденцияһын
резина
резолюция
резонанс
результат
результате
результаты
реи
рек
река
реквием
реке
реки
реклама
рекомендации
рекомендуется
реконструкции
реконструкция
реконструкциялана
реконструкциялау
реконструкцияһы
рекорд
рекордлы
рекордтар
рекордтары
рекорды
рекордын
рекреацион
рексем
ректор
ректоры
ректорҙары
религии
религия
реликт
рельеф
рельефлы
рельефы
рембрандт
ремонт
ремонтлау
рен
ренат
рене
ренессанс
рентген
ренуар
репертуар
репертуары
репертуарына
репертуарында
репин
репортаж
репрессии
репрессия
репрессиялана
репрессияланған
репрессияланғандар
репрессиялар
репрессиялары
репрессияларға
репрессияға
репродуктив
рес
респ
республик
республика
республикала
республикалар
республикалары
республикаларында
республикаларының
республикаларҙың
республиканскии
республиканского
республиканың
республикаға
республикаһы
республикаһын
республикаһына
республикаһынан
республикаһында
республикаһындағы
республикаһының
республике
республики
реставрация
реставрациялана
реставрациялау
ресторан
ресторандар
ресурс
ресурсов
ресурстар
ресурстары
ресурстарын
ресурстарының
ресурстарҙы
ресурсы
ретдин
ретдинов
референдум
референдумы
реформа
реформалар
реформалары
реформатор
реформация
реформаһы
рецензия
речи
речка
речки
речь
решение
решения
ржев
ржевскии
ри
риа
рига
ригала
ригведа
рид
риза
ризаитдин
ризалаша
ризалашмаи
ризалығы
ризалығын
ризалыҡ
ризаһыҙлығын
ризаһыҙлыҡ
ризығы
ризыҡ
ризыҡтары
рии
рик
рика
рикардо
рим
рима
риман
римгә
римда
римдар
римдең
римдың
римдә
римлеләр
римма
римскии
римға
ринат
рио
рис
рита
ритм
ритмик
риторика
ритуал
риф
рифҡәт
рихард
рихтер
риц
ричард
ришат
риүәи
риә
рк
рка
рки
ркка
ркп
рлыҡ
рн
рная
рндален
рнк
рное
рныи
ро
роберт
робин
робот
ров
ровно
рог
род
рода
роден
роджер
родившиеся
родился
родина
родину
родины
родионов
родионово
родник
родники
родниковскии
родного
роднои
родов
рождение
рождения
рождествено
рождественскии
рождественское
рождество
роза
розы
рои
рок
року
рокфеллер
ролде
ролдә
ролдәр
ролдәре
ролдәрен
ролдәрҙе
ролдәрҙә
роле
ролен
ролендә
роленә
роли
ролл
роль
ролях
роман
романа
романда
романдар
романдары
романдың
романов
романович
романовка
романово
романовскии
романс
романстар
романтизм
романтик
романы
романын
романында
романының
ромб
ромео
рон
роналдо
рос
росс
россиеи
россии
россию
россия
россошь
росспэн
рост
ростиздат
ростов
ростова
ростове
ростовская
ростовскии
ростовское
ростовскои
ростовта
ростовтың
ростовҡа
ростсельмаш
рота
ротару
ротаһы
роща
роғо
роҡ
роҡло
рп
рсдрп
рскии
рское
рсфср
рт
ру
руанда
руб
рубеже
рубен
рубенс
рубенстың
рубин
рубинштеи
рубле
рублеи
руда
руденко
руднигы
рудник
рудольф
рузвельт
рузскии
рук
руки
руководство
рулла
руллин
рум
румын
румындар
румыния
румынияла
румынияның
румянцев
рун
рус
русе
руси
руслан
русса
руссаға
русск
русская
русские
русскии
русских
русско
русского
русское
русскои
русском
руссо
руставели
рустар
рустә
русь
рут
рух
рухани
рухании
руханиҙар
руханиҙары
рухи
рухы
рухын
рухында
ручеи
ручьи
рф
рфа
ры
рыбаков
рыбинск
рыбинскии
рыбы
рыков
рыльскии
рыцарь
рыцарҙар
рыцарҙары
рычков
рэи
ряд
ряда
рядовои
рядом
рязанская
рязанскии
рязань
рҙар
рҙары
рҙарҙың
рҙың
рүк
рә
рәжәп
рәи
рәил
рәк
рәктәр
рәлеүселәр
рәлеүселәрҙең
рәми
рәмил
рәнгән
рәнгәндә
рәнелгән
рәнелә
рәнеп
рәнергә
рәнеү
рәнеүгә
рәнеүсе
рәнеүселәр
рәнеүҙе
рәнеүҙә
рәнә
рәнәләр
рәп
рәсем
рәсемдәр
рәсеме
рәсимә
рәсми
рәссам
рәссамдар
рәссамдары
рәссамдарының
рәссамдарҙың
рәссамдың
рәссамы
рәссамға
рәсүл
рәсүлев
рәсәи
рәт
рәте
рәтендә
рәтенә
рәтеү
рәткә
рәткән
рәтле
рәттә
рәттән
рәттәр
рәттәре
рәтә
рәфҡәт
рәхим
рәхими
рәхимов
рәхмәт
рәхмәте
рәхмәтулла
рәхмәтуллин
рәшид
рәшит
рәшиҙә
рәҡәғәт
рәүеф
рәүеш
рәүеше
рәүешен
рәүешендә
рәүешендәге
рәүешенә
рәүешле
рәүештә
рәүиз
рөстәм
рөхсәт
рөхсәте
рөхсәтнамә
рөхсәтнәмә
рөхсәтһеҙ
с
са
саам
саба
сабаҡ
сабир
сабири
сабит
сабитов
сабыи
сабып
сава
савва
савельев
савино
савинскии
савои
сага
саган
сад
сада
саддам
садиҡ
садиҡов
садовая
садовое
садовыи
сажин
саи
саксон
саксония
сал
салават
салавата
салаватская
салаватскии
салауат
салехард
саллы
салон
салоники
салтыков
сальвадор
сальери
сальск
сам
сама
саманан
самара
самарская
самарскои
самат
самауыр
самаһы
самбо
сами
самого
самои
самоле
самолет
самолеттар
самолеттары
самолеты
самолетын
самом
самуил
самур
самураи
самые
самыи
самых
сан
сана
санатории
сандовскии
санитар
санитария
санкт
санкциялар
санскрит
санта
сантиметр
сантиметрға
санто
сантос
сантьяго
сапе
сапер
сар
сара
сараево
сараи
сарала
саралар
саралары
сараларын
сараларына
сараларында
сараларының
сараларға
сараларҙа
сараларҙы
сараларҙың
саранск
сараны
сарапул
саратов
саратовская
саратовскии
сараға
сараһы
саргон
сарман
сармат
сарматтар
саров
сартр
сары
сарыф
сасовскии
сатира
сатирик
сатурн
сатурндың
сатында
сатыр
сауҙа
сауҙагәр
сауҙагәре
сауҙагәрҙәр
сауҙагәрҙәре
сауҙаны
сауҙаһы
саф
сафа
сафакүл
сафин
сафиуллин
сафоновскии
сафронов
сафтан
сафтарына
сафтарында
сафуан
сафуанов
сафына
сафында
сафҡа
саха
сахалин
сахалинская
сахара
сахаров
саша
саян
саған
сағы
сағыла
сағылдыра
сағылдырыла
сағылдырылған
сағылдырыу
сағылдырыусы
сағылдырған
сағылыш
сағылышы
сағылған
сағын
сағынан
сағында
сағыу
сағыштыра
сағыштырма
сағыштырмалыҡ
сағыштырмаса
сағыштырмаһы
сағыштырып
сағыштырырлыҡ
сағыштырыу
сағыштырғанда
саҡ
саҡлы
саҡмағош
саҡрым
саҡрымда
саҡрымға
саҡта
саҡтан
саҡтағы
саҡыра
саҡыралар
саҡыртып
саҡырыла
саҡырылыш
саҡырылышы
саҡырылған
саҡырып
саҡырыу
саҡырыуы
саҡырған
саҡырҙы
саң
саңғы
саңғыла
саңғыһы
сб
сбол
сборник
сборнике
сборнои
св
свадьба
свами
сведении
сведения
сведениям
свердлов
свердловск
свердловская
свердловскии
свердловскои
свет
света
свете
светлана
светлыи
свидетельство
свифт
свияга
свобода
свободная
свободныи
свободы
свое
своего
своеи
свои
своим
своих
свою
связи
связь
свято
святого
святои
святослав
священник
сделать
се
себастьян
себе
себежскии
себенле
себер
себергә
себерҙе
себерҙең
себерҙә
себерҙән
себя
сев
севастополь
север
севера
северная
северного
северное
севернои
северныи
северо
северскии
северсталь
севилья
сегодня
седов
сезанн
сезон
сезона
сеи
сек
секретаре
секретариаты
секретары
секретарь
секретарҙары
сектор
секторы
секторында
секунд
секундына
секундҡа
секция
секцияһы
сел
села
селе
селевк
селекция
селижаровскии
селище
село
селтәр
селтәре
селтәрен
селтәрендә
селтәренең
селтәренә
селтәрле
селтәрҙәре
сельскии
сельских
сельского
сельское
сельскохозяи
сельсовет
сельсовета
сельсоветов
сельцо
селәүсендәр
семантик
семантика
семашко
сембер
семе
семеи
семен
семенов
семенович
семеновка
семинар
семинария
семинарҙар
семипалатинск
семит
семь
семьи
семья
семәрле
сен
сена
сенат
сенатор
сенатҡа
сенегал
сент
сентябргә
сентябре
сентябрендә
сентябрендәге
сентябренә
сентябренән
сентябрь
сентября
сентябрҙә
сентябрҙән
сепг
сер
серафимович
серб
сербия
сербияла
сербияның
сербияға
сербтар
сербтарҙың
сервантес
сервер
сервис
серге
сергеев
сергеевич
сергеевка
сергеевна
сергеи
сергея
сергиев
сергиево
сергиевскии
сергии
серго
сердца
сердце
сере
серебряныи
серен
сержант
сержанты
сериал
серии
серия
серияла
сериялы
серияның
серияһы
серияһын
серияһында
серле
сермән
серов
серпуховскии
серҙәрен
серәкәи
сессияһы
сессияһында
сестра
сестры
сети
сеченов
си
сибаи
сибири
сибирские
сибирскии
сибирского
сибирь
сибәр
сибәғәт
сивинскии
сиге
сиген
сигенгән
сигендә
сигендәге
сигенергә
сигенеү
сигенеүсе
сигенә
сигенән
сигеү
сигизмунд
сигнал
сиднеи
сидоров
сидорово
сик
сикке
сикле
сикләи
сикләнгән
сикләнмәгән
сикләнмәи
сикләнә
сикләү
сикләүҙәр
сикте
сиктә
сиктән
сиктәр
сиктәре
сиктәрен
сиктәрендә
сиктәрендәге
сиктәренең
сиктәренә
сиктәренән
сиктәрҙе
сиктәш
сиктәштәре
сикх
сикһеҙ
сикһеҙлек
сил
сила
силезия
силу
силы
сильва
силәбе
силәбегә
силәбелә
силәбенән
символ
символдар
символдары
символдарының
символик
символика
символикаһы
символлаштыра
символы
симеон
симметрик
симметрия
симметриялы
симон
симона
симонов
симферополь
симфоник
симфония
симфонияһы
син
сина
синагога
синаи
сингапур
синглы
синод
синоним
синонимы
синтаксик
синтаксис
синтез
синтезлау
синтезы
синтетик
синфи
синхрон
синыф
синыфтар
синыфты
сипаи
сир
сиратлап
сиратта
сираттан
сираттағы
сираты
сиратында
сире
сирегендә
сирек
сирен
сиренән
сирии
сирия
сиркәү
сиркәүгә
сиркәүе
сиркәүен
сиркәүендә
сиркәүенең
сиркәүенә
сиркәүҙе
сиркәүҙең
сиркәүҙә
сиркәүҙән
сиркәүҙәр
сиркәүҙәре
сирле
сирҙе
сирҙең
сирҙән
сирҙәр
сиселеше
сисеү
систем
система
системала
системалар
системалары
системаларын
системаларында
системаларының
системаларҙа
системаларҙы
системаларҙың
системалы
системаны
системаның
систематика
системаға
системаһы
системаһын
системаһына
системаһынан
системаһында
системаһындағы
системаһының
системе
системы
сит
ситдиҡова
сите
ситендә
ситендәге
ситенә
ситенән
сити
ситке
ситкә
ситләтелгән
ситләтеп
ситләтеү
ситләшә
ситтә
ситтәге
ситтән
ситтәре
ситтәрендә
ситуации
ситуация
сифат
сифатлы
сифаттар
сифаттары
сифаттарын
сифаттарҙың
сифаты
сифатын
сифатына
сифатында
сицилии
сицилия
сиған
сиғандар
сиғандары
сиғандарҙы
сиғандарҙың
сиҙәм
ск
ска
сказание
сказка
сказки
сказок
скала
скаляр
скандинав
скандинавия
ская
скважина
скважиналарҙы
сквер
скверы
скверында
скверҙа
скеи
ские
скии
ским
скиф
скифтар
скифтарҙың
ских
склад
склонение
ско
скобелев
ского
ское
скои
сколько
ском
скому
скончался
скопье
скотт
скрипка
скрипкала
скрипкасы
скульптор
скульпторы
скульпторҙар
скульпторҙары
скульптура
скульптуралар
скульптуралары
скульптураның
скульптураһы
скуратов
сл
слава
славные
славы
славян
славяндар
славяндарҙың
славянскии
слалом
слева
след
следам
следует
слесарь
слобода
слободка
слободскои
слов
слова
словак
словакия
словакияла
словакияның
словактар
словаре
словари
словарь
словен
словендар
словения
словенияның
слово
служба
службе
службу
службы
случае
случаи
случаях
см
смаҡаи
смена
смерти
смерть
сми
смик
смирнов
смирнова
смит
смоленск
смоленская
смоленскии
смольныи
снаи
снаряд
снг
снк
снова
со
соавт
соавтор
соавторстве
соавторы
собинскии
собои
соболев
собор
соборы
соборын
соборында
соборының
соборҙың
собр
собрание
собрания
собханғол
событии
события
сов
совершенно
совет
совета
советнигы
советник
советов
советская
советскии
советских
советско
советского
советское
советскои
советтар
советтары
советтарын
советтарының
советтарға
советтарҙың
советтың
советы
советын
советына
советынан
советында
советының
советҡа
совм
совместно
совнарком
современная
современник
современного
современное
современнои
современном
современность
современные
современныи
современных
совхоз
совхоза
совхозы
совхозында
совхозының
соги
согласно
согласныи
сода
содержание
содержит
содружества
создание
создании
создания
создать
созыв
созыва
сои
соим
соискание
сокол
соколов
соколова
соколовка
соколово
сокольскии
сократ
солдат
солдата
солецкии
солженицын
солигаличскии
солист
солисы
солнечногорскии
солнечныи
солнца
солнце
соло
соловеи
соловье
соловьев
соломон
соломонович
солох
солохо
солоҡ
солоҡсолоҡ
солтан
солтангәрәев
солтандың
солтанлығы
солтанов
солтанова
солтаны
солтанға
соль
солғап
сомали
сон
соната
сонковскии
соня
сообщение
сообщения
сообщества
сообщество
соответствии
сопрано
сопредельных
соран
сорокин
сорокино
сорочинск
сорт
сортавала
сортлы
сорттары
сорты
сосна
сосновка
сосновскии
сосновское
сосновыи
сост
состав
состава
составе
составители
составитель
составлы
составта
составу
составы
составын
составына
составынан
составында
составындағы
составының
состояние
состоянии
состоянию
состояния
сосьва
сотник
соус
софи
софия
софья
социал
социализм
социалист
социалистар
социалистик
социалистических
социалистического
социалистическои
социаль
социальная
социально
социальнои
социолог
социологик
социология
соч
сочи
сочинении
сочинения
сочиҙа
союз
союза
союздары
союздаш
союздаштар
союздаштары
союздаштарҙың
союздашы
союздың
союзы
союзын
союзына
союзында
союзының
союзға
соя
соҡоп
соҡор
соҡорло
соҡоро
соҡорои
соҡорҙар
соҡорҙары
сп
спартак
спас
спасибо
спасскии
спасское
спб
спбгу
спектаклдәр
спектаклдәре
спектаклдәрҙә
спектакле
спектаклен
спектаклендә
спектакль
спектраль
спид
спидвеи
спираль
спировскии
спирт
спиртлы
списка
списке
списки
список
спокан
спорт
спорта
спортсы
спортсылар
спортсылары
спортсыларҙың
спортсының
спортсыһы
спорттың
спорты
способ
справ
справа
справка
справочник
справочное
спринт
спринтта
спряжение
спустя
спутник
ср
сравнительно
сразу
среда
среди
средневековои
средневековья
среднего
среднеи
средние
среднии
средняя
средств
средства
среды
срогы
срок
срокка
сс
сср
ссср
ссылка
ссылками
ссылки
ссылкои
ссылку
ссылок
ст
ста
ставка
ставкаһы
ставрополь
ставропольскии
стадион
стадионда
стадионы
стадионында
стадияһы
стадияһында
стажировка
стажы
стаи
стакан
стал
стала
стали
сталин
сталина
сталинград
сталинградты
сталинды
сталиндың
сталинға
стало
стан
стандарт
стандартлаштырыу
стандарттар
стандарттары
стандарты
станислав
станиславскии
станица
станицаһы
станицаһында
становление
становления
станок
станоктар
станции
станция
станцияла
станциялар
станциялары
станцияның
станцияһы
станцияһын
станцияһына
станцияһынан
станцияһында
станцияһының
стар
стара
старая
старик
старина
старица
старицкии
старо
старово
старого
старое
старои
старорусскии
старт
старшина
старшиналары
старшинаһы
старые
старыи
стат
статеи
статистик
статистика
статистикаһы
статистикаһында
статистики
статистические
статистическии
статскии
статус
статусе
статусы
статусын
статусына
статусҡа
статуя
статуяһы
стать
статье
статьи
статью
статья
статьялар
статьялары
статьях
статьяһы
статьяһына
стационар
стб
ств
ства
стве
ственных
ствие
ствии
ствия
ство
стеи
стела
стена
стеналар
стеналары
стеналарын
стенаһы
стенаһына
стенаһында
степан
степанов
степанович
степановка
степановна
степенеи
степени
степное
степнои
степь
стер
стерлибашевскии
стерлинг
стерлитамак
стерлитамакскии
стеры
стефан
стивен
стилдә
стилдәре
стиле
стилен
стилендә
стилендәге
стиленең
стиленә
стилистик
стиль
стипендия
стихи
стихиялы
стихов
стихотворения
сто
стои
стоит
стокгольм
стокгольмда
столетия
столица
стоматология
стороны
стр
страбон
стравинскии
стран
страна
странах
стране
страниц
страница
страницах
странице
страницу
страницы
страны
страсбург
стратегии
стратегик
стратегия
стратегияһы
страховка
страховкалау
стрелка
стрельников
стриндберг
стрит
строганов
строение
строи
строительства
строительство
строки
струго
структур
структура
структуралар
структуралары
структуралы
структураһы
структураһын
структураһына
структураһында
структуры
студент
студентов
студенттар
студенттары
студенттарының
студенттарға
студенттарҙы
студенттарҙың
студенты
студия
студияһы
студияһын
студияһына
студияһында
ступино
ступинскии
стэнли
стюарт
стәрлебаш
стәрлетамаҡ
стәрлетамаҡта
су
суахили
субтропик
субъект
субъектив
субъекттары
субъекттарының
субъекты
суверенитеты
суверенитетын
суворов
суворовскии
суд
суда
судан
судиславскии
судно
суднолар
суднолары
судноһы
судогодскии
судта
судтар
судтары
судтың
суды
судына
судында
судының
судьба
судьбы
судья
судьялар
судьяһы
судҡа
суздаль
суи
сулак
сулеи
сулин
сулпан
султан
султанов
султанова
сума
сумма
суммаһы
суммаһына
сумон
сумы
сун
сунжа
сунь
супер
суперкубогы
сура
сураи
сураш
сурб
сургут
суриков
суртан
сусанинскии
сусҡа
суфия
суфиян
суффикс
суффиксы
суфыи
суханов
сухая
сухои
сухона
существует
суэц
суҡ
суҡындырылған
суҡындырыу
суҡышы
сфера
сфераһы
сферик
сфинкс
схема
схемаһы
сцен
сценарии
сценарист
сценаристар
сценаристары
счастье
сче
сша
съезд
съезда
съездары
съезы
съезына
съезында
сы
сыбар
сыбаркүл
сыбарланған
сызрань
сыи
сыктывкар
сылар
сылары
сылбыр
сылбырлы
сылбыры
сылва
сылыҡ
сым
сыма
сын
сына
сыни
сыны
сыр
сыртланов
сысҡан
сыуалыштар
сыуаш
сыуашстан
сыуаштар
сыға
сығалар
сығанағы
сығанағына
сығанаҡ
сығанаҡлы
сығанаҡтан
сығанаҡтар
сығанаҡтары
сығанаҡтарын
сығанаҡтарына
сығанаҡтарында
сығанаҡтарының
сығанаҡтарға
сығанаҡтарҙа
сығанаҡтарҙан
сығанаҡтарҙы
сығанаҡтарҙың
сығанаҡҡа
сығара
сығаралар
сығармаи
сығарыла
сығарылма
сығарылмаһы
сығарылыш
сығарылышы
сығарылған
сығарып
сығарырға
сығарыу
сығарыусы
сығарыуы
сығарыуға
сығарыуҙа
сығарыуҙы
сығарыуҙың
сығарған
сығарғанда
сығарғандан
сығарғандар
сығарҙы
сығатаи
сығымдар
сығымдары
сығымдарын
сығымдарҙы
сығымы
сығып
сығыр
сығырға
сығыу
сығыусы
сығыусылар
сығыуы
сығыуын
сығыуына
сығыуға
сығыуҙы
сығыш
сығышлы
сығыштар
сығыштары
сығыштарын
сығышы
сығышын
сығышына
сығышында
сыҙамлы
сыҡмаи
сыҡмаған
сыҡты
сыҡҡан
сыҡҡанда
сыҡҡандан
сыҡҡандар
сыҡҡансы
сыҡҡанға
сыҡҡас
сыҡһа
сыңрау
сыңғыҙ
сыңғыҙхан
сыңғыҙхандың
сыһы
сьерра
сэв
сэи
сэр
сю
сюжет
сюжеттар
сюжеты
сюита
ся
сямженскии
сүкеп
сүкеш
сүл
сүллеге
сүллек
сүп
сүпрә
сүриә
сүриәгә
сүриәлә
сүриәләге
сүриәне
сүриәнең
сүрә
сүрәләре
сүрәһе
сүс
сә
сәба
сәбәбе
сәбәбен
сәбәп
сәбәпле
сәбәпсе
сәбәпсеһе
сәбәптән
сәбәптәр
сәбәптәре
сәбәптәрен
сәбәптәренең
сәи
сәлжүк
сәлжүктәр
сәлим
сәлими
сәлимов
сәлих
сәлихов
сәлмән
сәләм
сәләмәт
сәләмәтлеге
сәләмәтлек
сәләх
сәләхетдин
сәмәрҡәнд
сән
сәнскеле
сәнғәт
сәнғәте
сәнғәтен
сәнғәтендә
сәнғәтенең
сәнғәтенә
сәнғәткә
сәнғәтте
сәнғәттең
сәнғәттә
сәнғәттәр
сәнәғәт
сәнәғәте
сәнәғәтен
сәнәғәтендә
сәнәғәтенең
сәнәғәттең
сәнәғәттә
сәпкә
сәриә
сәркәтибе
сәркәтип
сәрмәсән
сәрүәр
сәс
сәселгән
сәселә
сәсеү
сәскә
сәскәле
сәскәлеләр
сәскәләр
сәскәләре
сәскән
сәскәһе
сәсле
сәсмә
сәсә
сәсәк
сәсән
сәсәндәр
сәсәниҙәр
сәтләүеге
сәтләүек
сәфәр
сәфәре
сәфәүиҙәр
сәхнә
сәхнәгә
сәхнәлә
сәхнәләрендә
сәхнәнән
сәхнәһендә
сәхәбәләр
сәғ
сәғит
сәғитов
сәғүд
сәғәт
сәғәте
сәғәтенә
сәғәткә
сәғәтлек
сәғәттә
сәғәттән
сәғәттәр
сө
сөгөлдөр
сөгөлдөрө
сөи
сөләи
сөн
сөнки
сөнни
сөнниҙәр
сөннәт
сөсө
т
та
таба
табабыҙ
табалар
табан
табибы
табип
табиптар
табиптары
табиптарҙың
табл
таблица
таблицала
таблицалар
таблицаһы
таблицу
таблицы
табличка
табыла
табылды
табылдыҡтар
табылмаи
табылмаған
табылыуы
табылған
табын
табыныу
табып
табырға
табыу
табыусы
табыусыһы
табыуы
табыуға
табыш
тавда
таврия
таганрог
таганрога
таганроге
таганрогская
таганрогта
таганрогтың
тагил
тагор
тае
таж
тажетдин
тажик
тажикстан
тажикстанда
тажикстандың
тажы
таз
таи
таиланд
так
такая
также
такие
таким
таких
такого
такое
такои
такси
таксономик
тактик
тактика
тактикаһы
тал
тала
талабы
талабын
талаи
талана
талант
талантлы
таланты
талап
талапсан
талаптар
талаптары
талаптарын
талаптарына
талаптарға
талаптарҙы
талар
талау
талбазы
талдомскии
талибан
талибтар
талип
талица
талицкии
таллин
талха
там
тамам
тамамлаи
тамамлана
тамамланды
тамамланмаи
тамамланмаған
тамамланыу
тамамланыуы
тамамланыуын
тамамланыуға
тамамланған
тамамланғандан
тамамланғас
тамамлап
тамамларға
тамамлау
тамамлаусы
тамамлаусылар
тамамлаған
тамамлағандан
тамамлағас
тамара
тамаша
тамашалар
тамашасы
тамашасылар
тамашасыларҙың
тамашасыны
тамашасыға
тамағы
тамағына
тамағынан
тамағында
тамаҡ
тамаҡтары
тамбов
тамбовская
тамбовскии
тамил
таможня
тамсы
тамуҡ
тамъян
тамыр
тамыры
тамырынан
тамырҙан
тамырҙар
тамырҙары
тамырҙарын
тамьян
тамға
тамғалана
тамғалар
тамғалары
тамғалау
тамғаһы
тамғаһын
тан
танаис
таналыҡ
танан
танау
танганьика
танго
танец
танзания
танк
танка
танктар
танкы
танкылар
танкыға
тантана
тантанала
тантаналар
тантаналы
тантанаһы
тантанаһына
тантанаһында
танца
танцы
таныи
таныла
танылды
танылмаған
танылыу
танылыуы
танылған
танымаи
танып
танырға
таныта
танытмаһы
таныу
таныуы
таныш
таныша
таныштыра
таныштырыу
танышырға
танышыу
танышҡан
таныған
таныҡлығы
таныҡлыҡ
таня
тап
таплы
тапмаи
таптар
тапты
тапшыра
тапшыралар
тапшырыла
тапшырылды
тапшырылып
тапшырылған
тапшырып
тапшырырға
тапшырыу
тапшырыуы
тапшырыуында
тапшырыуға
тапшырыуҙар
тапшырыуҙары
тапшырыуҙы
тапшырған
тапҡан
тапҡыр
тапҡырға
тапҡырҙан
тапҡырҙар
тар
тара
тараи
тарала
таралар
таралып
таралыу
таралыуы
таралыуын
таралыуына
таралыш
таралышы
таралған
тарас
тарасов
тарасово
тарасовскии
тарата
таратыла
таратылған
таратып
таратырға
таратыу
таратыусы
таратыуға
таратҡан
тарафынан
тарих
тарихи
тарихсы
тарихсылар
тарихсылары
тарихсыларҙың
тарихсыһы
тарихта
тарихты
тарихтың
тарихы
тарихын
тарихына
тарихынан
тарихында
тарихындағы
тарихының
тарихҡа
тарихҡаса
тарковскии
тарлауығы
тарлауыҡ
тармағы
тармағын
тармағына
тармағында
тармағының
тармаҡ
тармаҡлы
тармаҡтар
тармаҡтары
тармаҡҡа
тарногскии
тарта
тарталар
тарттырыла
тарттырыу
тарту
тартыла
тартылыу
тартынҡы
тартынҡылар
тартынҡыларҙың
тартып
тартырға
тартыу
тартыуы
тартҡан
тархан
тарханы
тары
тарыи
тарыла
тарылған
тарып
тарырға
тарыу
тарыуҙы
тарҡала
тарҡалыу
тарҡалыуы
тарҡалыуына
тарҡалған
тарҡалғандан
тарҡалғас
тарҡатыла
тарҡатыу
тарҡау
тасс
тасср
тасуирлаи
тасуирлама
тасуирламаһы
тасуирлана
тасуирланған
тасуирлап
тасуирлау
тасуирлаған
тат
татар
татарская
татарскии
татарского
татарскои
татарстан
татарстанда
татарстандың
татары
татарҙар
татарҙары
татарҙарының
татарҙарҙың
татищев
татлы
татыулыҡ
татышлинскии
татьяна
тау
тауар
тауарҙар
тауарҙары
тауарҙарын
тауарҙарҙы
таулы
таулығы
таусыҡтар
тауы
тауына
тауынан
тауында
тауындағы
тауының
тауыш
тауышлы
тауыштан
тауыштар
тауыштары
тауышты
тауышы
тауышын
тауышҡа
тауышһыҙ
тауыҡ
тауға
тауҙа
тауҙан
тауҙар
тауҙары
тауҙарына
тауҙарынан
тауҙарында
тауҙарының
тауҙарға
тауҙарҙа
тауҙарҙан
тауҙарҙың
тауҙы
тауҙың
таш
ташбулат
ташкент
ташкентта
ташлаи
ташлама
ташламалар
ташлана
ташландыҡ
ташланған
ташлап
ташларға
ташлау
ташлаған
ташлы
таштан
таштар
таштары
таштарҙан
ташты
ташы
ташыи
ташып
ташыу
ташыусы
ташҡа
ташҡын
таяна
таянып
таянған
таяҡ
таға
таған
тағанаи
тағун
тағы
тағыла
тағын
тағып
таҙа
таҙарта
таҙартыла
таҙартылған
таҙартыу
таҙлар
таҡ
таҡта
таҡтала
таҡтаташ
таҡҡа
таң
таңһылыу
таҫма
таҫмаһы
таһир
таһиров
тбилиси
тбилисиҙа
тв
твардовскии
твен
тверская
тверь
твои
творчества
творчестве
творчество
те
театр
театра
театраль
театре
театры
театрын
театрына
театрында
театрының
театрға
театрҙа
театрҙар
театрҙары
театрҙарында
театрҙағы
театрҙы
театрҙың
тебе
тебя
тевтон
теге
тегелгән
тегеү
тегеһе
тед
тезисы
теи
текст
текста
текстар
текстары
текстарын
текстарында
текстарҙы
тексте
текстиль
тексты
текстың
тексы
тексын
тексында
тексының
тектоник
текә
тел
тела
телгә
телгән
телгәнсә
телде
телдең
телдә
телдәге
телдән
телдәр
телдәргә
телдәре
телдәрен
телдәрендә
телдәрендәге
телдәренең
телдәренә
телдәренән
телдәрҙе
телдәрҙең
телдәрҙә
телдәрҙәге
телдәрҙән
теле
телевидение
телевидениела
телевидениеһы
телевидениеһында
телевидениеһының
телевизион
телеграмма
телеграф
телеканал
телеканалы
телеканалында
телен
телендә
телендәге
теленең
теленә
теленән
телерадиокомпанияһы
телесериал
телескоп
телетапшырыуҙар
телефон
телец
телеше
телле
телмәр
телмәре
телмәрендә
телмәрҙә
телсе
телугу
тель
тельман
телә
теләге
теләген
теләгән
теләи
теләк
теләктәшлек
теләмәгән
теләмәи
теләп
теләүен
теләүселәр
теләһә
тем
тема
темалар
темалары
темаларына
темаларға
теманы
тематик
тематика
тематикаһы
темаға
темаһы
темаһын
темаһына
темдәр
теме
темников
температура
температурала
температуралы
температураның
температураһы
темпл
темпы
тему
темы
темәс
тенант
тенанты
тенденции
тенденцияһы
теннис
теннисы
тенор
теодор
теодорих
теология
теорема
теоремаһы
теоретигы
теоретик
теоретические
теории
теория
теориялар
теориялары
теорияны
теорияның
теорияға
теорияһы
теорияһын
теорияһына
теорияһында
теорияһының
теп
теперь
тер
теракт
терапевт
терапия
терапияһы
тербуны
тергеҙгән
тергеҙелгән
тергеҙелә
тергеҙеп
тергеҙергә
тергеҙеү
тергеҙеүгә
тергеҙә
тергә
тере
терегөмөш
тереза
терезия
терек
тереклек
тереғолов
теркәи
теркәлгән
теркәлеү
теркәлмәгән
теркәлә
теркәп
теркәү
терлек
термаль
термик
термин
терминал
терминалы
терминдар
терминдары
терминды
терминов
терминология
термины
терминын
термодинамик
термодинамика
тернополь
терра
территориаль
территориального
территориальное
территориальном
территории
территория
территорияла
территориялар
территориялары
территорияларын
территорияларында
территорияларҙа
территорияларҙы
территорияны
территорияның
территорияға
территорияһы
территорияһын
территорияһына
территорияһынан
территорияһында
территорияһындағы
территорияһының
террор
терроризм
террористик
террорсы
терса
терһәк
терәге
терәк
терәлеп
тест
тесь
тетрәү
тетрәүе
тетрәүҙән
тетрәүҙәр
тех
техас
техн
техник
техника
техниканы
техниканың
техникаһы
техникаһын
техникаһында
техники
техникум
техникумы
техникумын
техникумына
техникумында
техникумының
техническии
технических
технического
техническои
технолог
технологии
технологик
технология
технологиялар
технологиялары
технологияларын
технологияһы
технологияһын
течение
теш
тешле
тештәр
тештәре
теҙелгән
теҙелеп
теҙмәһе
тең
теү
теүгә
теүе
теүенсә
теүәл
теүәлерәк
теүәллек
ти
тибет
тибы
тибын
тибындағы
тигеҙ
тигеҙлеге
тигеҙлеген
тигеҙлегендә
тигеҙлегенең
тигеҙлек
тигеҙлектә
тигеҙлектәр
тигеҙләмә
тигеҙләмәләр
тигеҙләмәләре
тигеҙләмәләрҙе
тигеҙләмәләрҙең
тигеҙләмәне
тигеҙләмәнең
тигеҙләмәһе
тигеҙләмәһен
тигеҙһеҙ
тигр
тигран
тигән
тигәнгә
тигәнде
тигәндә
тигәндән
тиелгән
тиелә
тиерлек
тик
тиклем
тиклемге
тикшергән
тикшергәндә
тикшерелгән
тикшерелә
тикшеренеү
тикшеренеүсе
тикшеренеүселәр
тикшеренеүселәре
тикшеренеүселәрҙең
тикшеренеүсеһе
тикшеренеүҙәр
тикшеренеүҙәргә
тикшеренеүҙәре
тикшеренеүҙәрен
тикшеренеүҙәренең
тикшеренеүҙәрҙе
тикшеренеүҙәрҙең
тикшереп
тикшерергә
тикшереү
тикшереүгә
тикшереүе
тикшереүсе
тикшереүселәр
тикшереүҙе
тикшереүҙәр
тикшерә
тим
тимашев
тимер
тимербаи
тимербулат
тимербулатов
тимергалина
тимерлек
тимерсе
тимерхан
тимерҙең
тимерҙән
тимирязев
тимор
тимофеевич
тимофеи
тимошенко
тимур
тимәк
тин
тинг
тингы
тингында
тине
тип
типа
типик
типография
типографияһы
типтары
типтағы
типтәр
типтәрҙәр
тир
тираж
тиражы
тирбәлеү
тирбәлеүҙәр
тирбәлә
тире
тиреһе
тиреһен
тиреһенән
тирлән
тирмә
тирмән
тирмәне
тироль
тирә
тирәк
тирәлә
тирәләге
тирәләи
тирәһе
тирәһендә
тирәһендәге
тирәһенә
тис
тит
титан
тито
титов
титрах
титул
титулдары
титулы
титулын
титулына
тиф
тифлис
тихвин
тихвинскии
тихии
тихомиров
тихонов
тихорецкии
тициан
тишек
тиҙ
тиҙерәк
тиҙлеге
тиҙлеген
тиҙлегенә
тиҙлек
тиҙлекле
тиҙлекте
тиҙлектә
тиҙләнеш
тиҙләтелгән
тиҙләтеү
тиҙләтә
тиҙҙән
тиҙәр
тиң
тиңләштерелә
тиҫкәре
тиҫтә
тиҫтәләгән
тиҫтәләрсә
тиҫтәнән
ткән
ткәндә
ткәндәи
ткәнсә
тлы
тмаи
тмәи
тного
тные
тныи
тных
то
тобол
тоболдан
тобольск
тов
тогда
того
тогы
тоже
тои
ток
токаре
токарев
токарь
токио
токиола
токугава
тол
толковыи
толпар
толстого
толстои
только
тольятти
том
тома
томан
томас
томах
томбои
томда
томдар
томи
томлы
томлыҡ
томск
томская
томскии
томского
тому
томы
томь
тон
тони
тонна
тоннанан
тоннаға
тоннель
тоноҡ
топ
топографик
топография
топологик
топология
топоним
топонимдар
топонимдары
топонимика
топонимикаһы
топонимикаһын
топонимист
топонимисы
топонимическии
топонимияһы
топонимов
топонимы
тор
тора
торалар
торама
торамалар
торамаһы
торатау
торағы
тораҡ
тораһы
торба
торбалар
торбалары
торжок
торжокскии
торлағы
торлаҡ
тормаи
тормаған
тормоз
тормош
тормошо
тормошон
тормошона
тормошонан
тормошонда
тормошондағы
тормошоноң
тормошта
тормоштан
тормошто
тормоштоң
тормошҡа
торна
торналар
торонто
тороп
торопецкии
торорлоҡ
торорға
торос
тороу
тороусы
тороуы
тороуын
тороуына
торош
торошло
торошо
торошон
торошона
торошоноң
торошта
торпедо
торрес
торф
торғаи
торған
торғанда
торғандар
торғас
торҙо
торһа
тос
тот
тота
тоталар
тоташа
тоташтыра
тоташтырыла
тоташтырылған
тоташтырып
тоташтырыу
тоташтырыусы
тоташтырған
тоташтырғыс
тоташҡан
тотемскии
тотмаи
тотола
тотолған
тотона
тотонола
тотонолған
тотонорға
тотоноу
тотонған
тотоп
тотороҡло
тотороҡһоҙ
тоторға
тотоу
тотоусы
тотоусылар
тотоуы
тотоуға
тотоуҙы
тотош
тотошлаи
тотошо
тотҡан
тотҡандар
тотҡарлаи
тотҡарлау
тотҡон
тотҡондар
тотҡондарҙы
точка
точки
тоя
тоғро
тоғролоҡ
тоҙ
тоҙло
тоҙлолоғо
тоҙо
тоҙҙар
тоҡана
тоҡанған
тоҡом
тоҡомдар
тоҡомдары
тоҡомдарын
тоҡомдарынан
тоҡомдарының
тоҡомло
тоҡомо
тоҡомонан
тр
травиата
трагедии
трагедия
трагедияһы
трагик
трад
традиции
традицион
традиция
традициялар
традициялары
традицияларын
традицияларына
традицияһы
трактат
трактаты
трактатында
трактор
тракторсы
тракторы
тракторҙар
тракты
тралитет
траль
трамваи
трамплиндан
транзит
трансильвания
транскрипция
транскрипциялар
транскрипцияһы
транспорт
транспорта
транспорты
трасса
трассаһы
тре
треи
трек
тренер
тренеры
тренерҙар
тренерҙары
тресы
тресында
тресының
третии
третьего
третья
третьяков
трех
три
тригонометрик
триллион
триполи
тритон
триумф
триумфаль
трк
трои
троица
троицк
троицкии
троицкое
троллеи
трон
тропик
трофеи
троцкии
троцкистар
троя
троян
трубецкои
труд
труда
трудов
трудовая
трудовои
труды
трумэн
труппа
труппаһы
труппаһына
тс
тся
тт
тта
ттан
ттар
ттары
тте
тты
ттың
ту
туба
туберкуле
туберкулез
тубы
тубыл
туган
туи
тула
тулаи
тултыра
тултырыла
тултырылған
тултырып
тултырыу
тултырыусы
тулупов
тулы
тулылана
тулыландыра
тулыландырыла
тулыландырылған
тулыландырып
тулыландырыу
тулыраҡ
тулыу
тулыуға
тулыһынса
тульская
тулған
тулғас
тулҡын
тулҡындар
тулҡындары
тулҡынлы
тулҡыны
тун
тундра
тунис
туниста
туп
тупаҫ
туплаи
туплана
тупланмаһы
тупланған
туплап
тупларға
туплау
туплаған
тупрағы
тупрағын
тупраҡ
тупраҡлы
тупраҡта
тупраҡты
тупраҡтың
тупраҡҡа
тупты
тупҡа
тур
тура
тураи
турала
туран
туранан
тураһында
тураһындағы
турбаҫлы
тургенев
туризм
туризмы
турин
туринскии
турист
туристар
туристарҙы
туристик
турнир
турниры
турнирында
турнирҙа
турнирҙар
турнирҙарҙа
турнирҙың
турции
туры
турында
турғаи
турҙа
туси
тут
тутаевскии
туташы
тутыи
туфан
тухачевскии
туғаи
туған
туғандар
туғандары
туғандарын
туғандарына
туғандарының
туғандаш
туғанлашҡан
туғанлыҡ
туғаны
туғанының
туғыҙ
туғыҙынсы
туҡ
туҡаи
туҡлана
туҡланыу
туҡланыуы
туҡлыҡлы
туҡмаи
туҡтаи
туҡтала
туҡталып
туҡталыш
туҡтамаи
туҡтамыш
туҡтап
туҡтата
туҡтатмаи
туҡтатыла
туҡтатылған
туҡтатып
туҡтатырға
туҡтатыу
туҡтатҡан
туҡтауһыҙ
туҡтаған
туҡыма
туҡымалар
туҡыманан
туҡымаһы
туҡыу
туң
туңа
тхэквондо
тчик
тчиктар
ты
тыва
тыи
тыл
тыла
тылсымлы
тылына
тылында
тылған
тым
тымыҡ
тын
тында
тынлы
тынлыҡ
тыныс
тыныслыҡ
тыныслыҡты
тып
тыр
тырнаҡлы
тырыш
тырыша
тырышалар
тырышлығы
тырышлыҡ
тырышып
тырышыу
тырышыуы
тырышҡан
тырға
тыс
тысяч
тыу
тыуа
тыумыштан
тыуы
тыуым
тыуып
тыуыу
тыуыуы
тыуыуына
тыуыуының
тыуған
тыуғанда
тыуғандан
тыуғандар
тыуғас
тыуҙы
тыуҙыра
тыуҙырмаи
тыуҙырыу
тыуҙырыусы
тыуҙырыуы
тыуҙырған
тыуҙырҙы
тыш
тыштан
тышҡа
тышҡы
тыя
тығыҙ
тығыҙлығы
тығыҙлыҡ
тыҡрығы
тыҡрыҡ
тың
тыңлаи
тыңлап
тыңларға
тыңлау
тыңлаусы
тыңлаусылар
тьюринг
тэц
тюменская
тюмень
тюрингия
тюркских
тянь
тҡа
тҡан
тҡандан
тҡас
түбә
түбәгүҙ
түбәгә
түбәләр
түбәләре
түбәләҫ
түбән
түбәнге
түбәнгә
түбәндә
түбәндәге
түбәндәгеләр
түбәндәгеләрҙе
түбәндәгесә
түбәнерәк
түбәнәи
түбәһе
түбәһендә
түбәһенә
түбәһенән
түгел
түгеллеген
түгелме
түлек
түлекте
түләгән
түләи
түләнгән
түләнә
түләп
түләргә
түләү
түләүле
түләүҙе
түләүҙән
түләүҙәр
түләүһеҙ
түн
түнә
түрә
түш
түшәлгән
түңгәүер
түңкәрелеш
түңкәрелеше
түңәрәге
түңәрәгендә
түңәрәк
түңәрәктең
түңәрәктә
түңәрәктәр
тә
тәбиғи
тәбиғәт
тәбиғәте
тәбиғәтен
тәбиғәткә
тәбиғәтте
тәбиғәттең
тәбиғәттә
тәбиғәттән
тәбриз
тәгәрмәс
тәгәрмәсле
тәжрибә
тәжрибәле
тәжрибәләр
тәжрибәһе
тәжрибәһен
тәжрибәһенә
тәи
тәкә
тәлмәри
тәлғәт
тәләр
тәм
тәме
тәмле
тәмләткестәр
тәмәке
тән
тәндең
тәне
тәнен
тәнендә
тәнзилә
тәнле
тәнлеләр
тәнҡит
тәнҡиткә
тәнҡитле
тәнҡитләгән
тәнҡитләи
тәнҡитләнә
тәнҡитләп
тәнҡитләү
тәнҡитсе
тәнҡитселәр
тәнҡитселәре
тәнҡитселәрҙең
тәнҡитсеһе
тәпәи
тәпәш
тәрбиә
тәрбиәгә
тәрбиәләгән
тәрбиәләи
тәрбиәләнгән
тәрбиәләнеүселәре
тәрбиәләнеүсеһе
тәрбиәләнә
тәрбиәләп
тәрбиәләү
тәрбиәсе
тәре
тәреһе
тәржемә
тәржемәлә
тәржемәләр
тәржемәләре
тәржемәсе
тәржемәселәр
тәржемәселәре
тәржемәсеһе
тәржемәһе
тәржемәһен
тәржемәһендә
тәртибе
тәртибен
тәртибендә
тәртибенә
тәртип
тәртипкә
тәртипте
тәртиптә
тәртиптәге
тәртипһеҙ
тәрән
тәрәнерәк
тәрәнлеге
тәрәнлек
тәрәнлеккә
тәрәнлектә
тәрәнлектәге
тәрәнәи
тәтешле
тәхет
тәхете
тәхетен
тәхетенә
тәхетенән
тәхеткә
тәхетте
тәхеттә
тәхеттән
тәшкил
тәьмин
тәьминәт
тәьминәте
тәьҫир
тәьҫире
тәьҫирен
тәьҫирендә
тәьҫораттары
тәғлимәт
тәғлимәте
тәғлимәтен
тәғлимәтенә
тәғәи
тәғәлә
тәғәләгә
тәғәләнең
тәҙрә
тәҙрәләр
тәҙрәләре
тәҙрәһе
тәҡдим
тәҡдимде
тәҡдимдәр
тәҡдимдәре
тәҡдиме
тәҡдимен
тәңкә
тәңкәләр
тәңкәләре
тәңкәһе
тәңре
тәү
тәүбә
тәүге
тәүгегә
тәүгеләрҙән
тәүгеһе
тәүлегенә
тәүлек
тәүлеккә
тәүләп
тәүрат
тәүтормош
тәүҙә
тәүәккәл
тәһран
тәһәрәт
төбәге
төбәгендә
төбәгендәге
төбәгенең
төбәгенә
төбәк
төбәккә
төбәкте
төбәктең
төбәктә
төбәктәге
төбәктәр
төбәктәргә
төбәктәре
төбәктәрендә
төбәктәренән
төбәктәрҙең
төбәктәрҙә
төбәү
төбө
төбөндә
төбөндәге
төбөнә
төбөнән
төи
төкәтмә
төлкө
төмән
төн
төнгө
төндә
төндәр
төньяғы
төньяғына
төньяғында
төньяғындағы
төньяҡ
төньяҡта
төньяҡтан
төньяҡтараҡ
төньяҡтағы
төньяҡҡа
төньяҡҡараҡ
төнө
төнөн
төнөндә
төп
төпкөл
төпләнгән
төпләнеүсе
төпләнә
төплө
төр
төрбәһе
төргә
төрки
төркиҙәр
төркиә
төркиәгә
төркиәлә
төркиәләге
төркиәнең
төркиәнән
төркмән
төркмәнстан
төркмәнстанда
төркмәнстандың
төркөм
төркөмгә
төркөмдә
төркөмдәге
төркөмдән
төркөмдәр
төркөмдәргә
төркөмдәре
төркөмдәрен
төркөмдәренең
төркөмдәренә
төркөмдәрҙе
төркөмдәрҙең
төркөмдө
төркөмдөң
төркөмләү
төркөмө
төркөмөн
төркөмөндә
төркөмөнә
төркөмөнән
төркөмөнөң
төркөстан
төрлө
төрлөлөгө
төрлөлөгөн
төрлөлөк
төрлөсә
төрмә
төрмәгә
төрмәлә
төрмәнән
төрмәһе
төрмәһендә
төрмәһенә
төрҙәге
төрҙәр
төрҙәргә
төрҙәре
төрҙәрен
төрҙәрендә
төрҙәренең
төрҙәренә
төрҙәренән
төрҙәрҙең
төрҙө
төрҙөң
төрө
төрөк
төрөкмән
төрөктәр
төрөктәргә
төрөктәре
төрөктәрҙе
төрөктәрҙең
төрөктәрҙән
төрөн
төрөндә
төрөнә
төрөнөң
төтөн
төхвәт
төш
төшкән
төшкәндә
төшкө
төшмәи
төшә
төшөм
төшөмдөң
төшөнсә
төшөнсәләр
төшөнсәләре
төшөнсәләрен
төшөнсәләрҙе
төшөнсәне
төшөнсәһе
төшөнсәһен
төшөнсәһенең
төшөнсәһенә
төшөп
төшөргә
төшөргән
төшөрә
төшөрәләр
төшөрөлгән
төшөрөлә
төшөрөп
төшөрөргә
төшөрөү
төшөү
төшөүе
төҙ
төҙәтелгән
төҙәтеп
төҙәтергә
төҙәтеү
төҙәтеүҙәр
төҙәтмәләр
төҙөгән
төҙөгәндә
төҙөгәндән
төҙөгәндәр
төҙөи
төҙөк
төҙөкләндерелә
төҙөкләндереү
төҙөлгән
төҙөлгәндән
төҙөлдө
төҙөлә
төҙөлөп
төҙөлөш
төҙөлөшкә
төҙөлөшлө
төҙөлөштә
төҙөлөштәр
төҙөлөштө
төҙөлөштөң
төҙөлөшө
төҙөлөшөн
төҙөлөшөндә
төҙөлөшөнә
төҙөлөшөнөң
төҙөлөү
төҙөлөүе
төҙөп
төҙөргә
төҙөткән
төҙөтә
төҙөү
төҙөүгә
төҙөүсе
төҙөүселәр
төҙөүселәре
төҙөүселәрҙең
төҙөүсеһе
төҙөүҙе
төҙөүҙең
төҙөүҙә
төҫ
төҫкә
төҫлө
төҫтә
төҫтәге
төҫтәр
төҫтәре
төҫһөҙ
төҫө
төҫөн
төҫөндә
төҫөндәге
у
уаи
уан
уандар
уандары
уандарының
уандарға
уандарҙа
уандарҙы
уандарҙың
уандың
уба
убалар
убалы
убии
уборевич
угату
углеводтар
углекислыи
углерод
угличскии
угличь
угнту
уго
угол
угра
удалить
удар
ударник
удел
удк
удмурт
удмуртия
удмурттар
удомельскии
удэ
уезд
уезда
уефа
уже
ужым
узиков
узловскии
уи
уилсон
уильям
уильямс
ук
указ
указан
указания
указано
указатель
указать
указлы
указом
указы
указывается
указывать
указына
указға
укр
украин
украина
украинала
украиналағы
украинанан
украинаны
украинаның
украинаға
украиндар
украине
украинка
украинская
украинскии
украинскои
украины
украі
ул
улаи
улан
улар
улары
уларға
уларҙа
уларҙан
уларҙы
уларҙың
улдары
улдарын
улдарына
улдарының
уле
улиц
улица
улице
улицы
уллыҡҡа
ултыра
ултыраҡ
ултырма
ултырта
ултырталар
ултыртыла
ултыртылған
ултыртып
ултыртырға
ултыртыу
ултыртҡан
ултырып
ултырырға
ултырыу
ултырыуы
ултырыш
ултырышта
ултырыштары
ултырышы
ултырышында
ултырған
улу
улус
улустары
улусы
улусына
улусынан
улусында
улусының
улы
улын
улына
улынан
улының
ультиматум
ультрафиолет
ульяна
ульянов
ульяновка
ульяновск
ульяновская
ульяновскии
ума
умарк
умарта
умартасылыҡ
умер
умершие
умолчанию
умыртҡа
ун
унан
унарлы
унда
ундаи
ундан
ундағы
унжа
универсаль
универсиада
университет
университета
университете
университетта
университеттар
университеттары
университеттарында
университеттарының
университеттарҙың
университетты
университеттың
университеты
университетын
университетына
университетынан
университетында
университетының
университетҡа
уникаль
унитар
унтер
унц
уны
унынсы
уның
уныңса
уныһы
уп
упк
управление
управления
упҡын
ур
уравнении
уравнения
ураи
ураксина
урал
урала
уралда
уралдағы
уралдың
урале
уралтау
уральск
уральская
уральскии
уральского
уральское
уралға
урам
урамда
урамдан
урамдар
урамдары
урамдарында
урамдарының
урамдарға
урамдарҙың
урамдың
урамы
урамына
урамынан
урамында
урамындағы
урамының
урамға
уран
урандың
урап
урарту
уратылған
уратып
уратҡан
урау
ураҙа
ураҡ
ураҡсин
урбанизация
урду
урицкии
урлаи
урлау
урман
урманда
урмандар
урмандары
урмандарында
урмандарҙа
урмандарҙы
урмандарҙың
урманды
урманлы
урмансы
урмансылыҡ
урманы
урманға
уро
урожаи
урок
уроки
урология
урта
уртала
урталарына
урталарында
уртаса
уртаҡ
уртаҡлаша
уртаҡлығы
уртаһы
уртаһына
уртаһынан
уртаһында
уртаһындағы
уругваи
урын
урынбаҫары
урынбаҫарҙары
урында
урындан
урындар
урындары
урындарын
урындарына
урындарында
урындарының
урындарға
урындарҙа
урындарҙан
урындарҙы
урындарҙың
урындағы
урынды
урындың
урынлаша
урынлашалар
урынлаштыра
урынлаштыралар
урынлаштырыла
урынлаштырылған
урынлаштырып
урынлаштырырға
урынлаштырыу
урынлаштырыуға
урынлаштырған
урынлашырға
урынлашыу
урынлашыуы
урынлашыуын
урынлашҡан
урынлашҡантатарская
урынлы
урынлыҡ
урыны
урынын
урынына
урынынан
урынында
урынының
урынға
урынған
урынһыҙ
урыҫ
урыҫса
урыҫтар
урыҫтарға
урыҫтарҙың
урядник
урғаҙа
урҙа
урҙаның
урҙаһы
ус
уса
усадьба
усадьбаһы
усаҡ
условии
условия
условиях
усман
усманов
усманова
успение
успенка
успенскии
успенское
успехи
усср
уссурии
устав
уставы
уставына
устои
устрои
усть
устье
устья
устьянскии
устюженскии
ут
утар
утары
утарынан
утарында
утверждении
утлы
утрау
утрауы
утрауын
утрауына
утрауынан
утрауында
утрауындағы
утрауының
утрауға
утрауҙа
утрауҙан
утрауҙар
утрауҙары
утрауҙарын
утрауҙарына
утрауҙарынан
утрауҙарында
утрауҙарының
утрауҙарҙа
утрауҙарҙы
утрауҙарҙың
утрауҙағы
утрауҙы
утрауҙың
утро
утта
уттар
утты
уты
утын
утына
утыҙ
утҡа
уфа
уфе
уфимская
уфимскии
уфимского
уфимскои
уфы
ухта
уч
учалинскии
учалы
участие
участием
участии
участка
участкала
участкалары
участкаларында
участкаһы
участкаһын
участкаһында
участник
участника
участники
участников
участником
участок
учащихся
уче
учеб
учебник
учебно
учебное
учебных
учение
ученои
ученые
ученыи
ученых
училища
училище
училищела
училищелары
училищены
училищеның
училищеға
училищеһы
училищеһын
училищеһына
училищеһында
училищеһының
учитель
учителя
учреждение
учреждениелар
учреждениелары
учреждениеларын
учреждениеларында
учреждениеларының
учреждениеһы
учреждении
учреждения
ушаков
ушаково
ушел
ушинскии
уэи
уэльс
уэст
уяна
уята
уға
уғы
уғыр
уғыҙ
уғыҙҙар
уҙа
уҙып
уҙышта
уҙған
уҙғара
уҙғарыла
уҙғарылған
уҙғарыу
уҙғарған
уҙҙы
уҡ
уҡсы
уҡсылар
уҡсылары
уҡыи
уҡыла
уҡылған
уҡымышлы
уҡып
уҡырға
уҡыта
уҡытыла
уҡытылған
уҡытырға
уҡытыу
уҡытыусы
уҡытыусылар
уҡытыусылары
уҡытыусыларының
уҡытыусыларҙың
уҡытыусылыҡ
уҡытыусыһы
уҡытыуҙы
уҡытҡан
уҡыу
уҡыусы
уҡыусылар
уҡыусылары
уҡыусыларына
уҡыусыларының
уҡыусыларға
уҡыусыларҙы
уҡыусыларҙың
уҡыусыға
уҡыусыһы
уҡыуы
уҡыуын
уҡыуға
уҡыуҙан
уҡыуҙар
уҡыуҙары
уҡыуҙы
уҡыған
уҡығанда
уҡығандан
уң
уңаи
уңда
уңдан
уңдырышлы
уңында
уңыш
уңышлы
уңыштар
уңыштары
уңыштарға
уңышты
уңышы
уңышын
уңышҡа
уңышһыҙ
уңышһыҙлыҡ
уңышһыҙлыҡҡа
уңға
уҫал
уҫаҡ
уҫман
уҫы
ф
фа
фабрика
фабрикалары
фабрикаһы
фабрикаһында
фадеев
фажиғәле
фаза
фазаһы
фазлыи
фазыл
фаи
фаио
факт
фактик
факто
фактор
факторы
факторҙар
факторҙары
факттар
факттарҙы
факты
факультет
факультета
факультетта
факультеттар
факультеттары
факультеттың
факультеты
факультетын
факультетына
факультетында
факультетының
фамилии
фамилия
фамилияла
фамилиялар
фамилиялары
фамилиялы
фамилияһы
фамилияһын
фан
фантазия
фантастик
фантастика
фараби
фарадеи
фараз
фараздар
фаразды
фаразлаи
фаразлана
фаразларға
фаразлауынса
фаразы
фарм
фармакология
фарман
фарманы
фармацевтика
фарс
фарсы
фарсылар
фарфор
фархутдинов
фарыз
фасад
фасадтары
фасадтың
фасады
фасадында
фатежскии
фатима
фатир
фатирлы
фатиры
фатирында
фатирҙа
фатиха
фауна
фаунаһы
фауст
фашизм
фашизмға
фашист
фашистар
фашистик
фе
февр
февралгә
февралдә
феврале
февралендә
февралендәге
февраленә
февраленән
февраль
февраля
федераль
федерального
федеральное
федеральнои
федеральныи
федератив
федерации
федерация
федерацияһы
федерацияһына
федерацияһында
федерацияһының
федерико
федор
федоров
федорович
федоровка
федоровна
федотов
феи
фекер
фекергә
фекере
фекерен
фекеренсә
фекеренә
фекерләшеү
фекерләү
фекерҙе
фекерҙә
фекерҙәр
фекерҙәре
фекерҙәрен
феликс
фель
фельдмаршал
фельдшер
феминизм
феникс
фенол
феномен
феодал
феодалдар
феодаль
феодосии
феодосия
фердинанд
ференц
ферзиковскии
ферма
фермаһы
ферменттар
фермер
фернандо
фестивалдә
фестивалдәр
фестивалдәре
фестивале
фестивалендә
фестиваленең
фестиваль
фетдин
фетнә
фетнәселәр
фетнәһе
фехтование
фз
фи
фигура
фигуралар
фигуралары
фигураларҙың
фигуралы
фигураһы
фиде
физигы
физик
физика
физикала
физиканың
физикаһы
физики
физико
физиктар
физиктары
физиологик
физиология
физиологияһы
физических
физическои
физкультура
фил
филадельфия
филармония
филармонияһы
филармонияһында
филармонияһының
филатов
филиал
филиалдары
филиалы
филиалында
филиалының
филип
филипп
филиппин
филиппов
филиппович
филолог
филология
филологияһы
философ
философии
философик
философия
философияһы
философская
философские
философскии
философтар
философтары
философы
фильм
фильма
фильмда
фильмдар
фильмдары
фильмдарында
фильмдарҙа
фильмды
фильмдың
фильме
фильмография
фильмографияһы
фильмы
фильмын
фильмына
фильмында
фильмындағы
фильмының
фин
финал
финалда
финалсы
финалы
финалына
финалында
финалға
финанс
финанслау
финанстар
финдар
финикии
финикия
финишҡа
финляндия
финляндияла
финляндияның
финляндияға
финно
фирма
фирмаһы
фирмаһының
фировскии
фирғәнә
фирғәүен
фирҡә
фирҡәһе
фирүзә
фитнес
фифа
фишер
фиҙакәр
фиҙаҡәр
флавии
флаг
флагификация
флагификацияһы
флагтар
флагтары
флагтың
флагы
флагын
фламанд
флеи
флеминг
флигель
флора
флораһы
флоренция
флоренцияла
флорида
флот
флота
флотилияһы
флоты
флотын
флотына
флотында
флотының
флүр
флүрә
фокин
фольклор
фольклорсы
фольклоры
фольклорын
фома
фоменко
фомин
фомино
фоминскии
фон
фонд
фонда
фонды
фондын
фондына
фондынан
фондында
фондының
фонема
фонетик
фонетика
фонологик
фонология
фонтан
фонтанка
фонтаны
фонында
форд
форма
формала
формалар
формалары
формаларын
формаларына
формаларының
формалаша
формалаштыра
формалаштырыу
формалашыу
формалашыуы
формалашыуына
формалашҡан
формалағы
формалы
формаль
формат
формате
форматы
форматында
формаға
формаһы
формаһын
формаһына
формаһында
формаһындағы
формаһының
форме
формирование
формированиелар
формированиелары
формирования
формула
формулалар
формулаһы
формы
форт
фортепиано
фортепианола
форум
форумы
форумында
фосфор
фото
фотогалерея
фотограф
фотографии
фотография
фотографиялар
фотолар
фотоға
фотоһы
фотоһүрәттәр
фотоһүрәттәре
фр
фрагмент
фрагменттары
фрагменты
фраи
фракия
фракцияһы
франк
франклин
франко
франктар
франкфурт
франс
франсиско
франсуа
франц
франции
франциск
франциско
франция
францияла
франциялағы
франциянан
францияны
францияның
францияға
француз
француздар
француздарға
француздарҙың
франческо
фрг
фредерик
фреи
фреска
фрескалар
фрескалары
фригии
фрида
фридрих
фриц
фролов
фронт
фронта
фронтта
фронттан
фронттар
фронттары
фронттарында
фронтты
фронттың
фронты
фронтын
фронтына
фронтында
фронтының
фронтҡа
фрунзе
фрэнк
фрэнсис
фсб
фу
фулла
фуллин
фуллина
фундаменталь
функции
функциональ
функция
функциялар
функциялары
функцияларын
функцияларҙы
функцияларҙың
функциялы
функцияны
функцияның
функцияһы
функцияһын
функцияһының
фунт
фурье
фут
футбол
футболсы
футболсыһы
футболы
фэи
фәи
фәлсәфә
фәлсәфәүи
фәлсәфәһе
фәләстин
фәләстингә
фәләстинде
фән
фәнгә
фәнде
фәндең
фәндә
фәндәр
фәндәре
фәндәрҙе
фәндәрҙең
фәне
фәнен
фәнендә
фәненең
фәненә
фәнил
фәниә
фәнни
фәнүзә
фәрештә
фәрештәләр
фәрит
фәриҙә
фәтих
фәтҡулла
фәтҡуллин
фәхретдин
фәхретдинов
фәҡир
фәҡәт
фәүзиә
фәһим
х
ха
хабаровск
хабаровскии
хабиров
хаж
хажи
хажиев
хажиәхмәт
хажға
хазар
хазарҙар
хазина
хазинаһы
хаи
хакас
хакасия
хаким
хакимдар
хакимдары
хакимдарының
хакимдың
хакимиәт
хакимиәте
хакимиәтендә
хакимиәтенең
хакимлек
хакимлығы
хакимлығын
хакимлығына
хакимлығының
хакимлыҡ
хакимы
халдеи
халиҡов
халыҡ
халыҡта
халыҡтан
халыҡтар
халыҡтары
халыҡтарын
халыҡтарына
халыҡтарында
халыҡтарының
халыҡтарға
халыҡтарҙа
халыҡтарҙы
халыҡтарҙың
халыҡты
халыҡтың
халыҡҡа
халҡы
халҡын
халҡына
халҡынан
халҡында
халҡының
хаммат
хамматов
хаммурапи
хан
хана
хандар
хандары
ханды
хандың
ханлығы
ханлығын
ханлығына
ханлығында
ханлығының
ханлыҡ
ханов
ханои
ханс
ханты
ханы
ханым
хань
ханға
хаос
хара
харабалары
характер
характеристика
характеристикаһы
характерлана
характерлы
характеры
характерын
характерына
характерҙа
характерҙағы
харам
харис
харисов
харламов
харовскии
хартикаи
харьков
харьковта
хас
хасил
хат
хата
хаталар
хаталы
хатаһы
хатибы
хатип
хатта
хаттар
хаттары
хаттарында
хатты
хатун
хаты
хатын
хатында
хафиз
хафизов
хашим
хаҡ
хаҡлы
хаҡта
хаҡтар
хаҡтары
хаҡтарҙың
хаҡы
хаҡын
хаҡына
хаҡында
хаҡындағы
хаҡының
хаҡҡа
хвои
хе
хеи
хельсинки
хемингуэи
хеопс
хепбе
херсон
хет
хетт
хеттар
хеҙм
хеҙмәт
хеҙмәте
хеҙмәтен
хеҙмәтендә
хеҙмәтенең
хеҙмәтенә
хеҙмәтенән
хеҙмәткә
хеҙмәткәр
хеҙмәткәре
хеҙмәткәрҙәр
хеҙмәткәрҙәре
хеҙмәткәрҙәрен
хеҙмәткәрҙәренең
хеҙмәткәрҙәренә
хеҙмәткәрҙәрҙең
хеҙмәтле
хеҙмәтләндергән
хеҙмәтләндереү
хеҙмәтләндереүсе
хеҙмәтләндерә
хеҙмәтсе
хеҙмәтсеһе
хеҙмәтсәндәр
хеҙмәтте
хеҙмәттең
хеҙмәттә
хеҙмәттән
хеҙмәттәр
хеҙмәттәре
хеҙмәттәрен
хеҙмәттәрендә
хеҙмәттәренең
хеҙмәттәренә
хеҙмәттәшлеге
хеҙмәттәшлек
хеҙмәттәшлекте
хеҙмәттәшлектә
хи
хикмәт
хикәи
химигы
химии
химик
химиктар
химиктары
химических
химическои
химия
химияһы
хин
хип
хирург
хирургии
хирургик
хирургия
хирургияһы
хирургы
хис
хисамитдинова
хисап
хисаплама
хисаплау
хисламов
хисмәтуллин
хистәр
хит
хиуа
хк
хл
хлеб
хлор
хмао
хмельницкии
хо
ходе
хозяи
хои
хоккаи
хоккеи
холера
холл
холм
холмогорскии
холмскии
холокост
холоҡ
холоҡло
холст
хонеккер
хоп
хопе
хопер
хопр
хор
хорв
хорват
хорватия
хорватияла
хорватияның
хорваттар
хорезм
хореограф
хореография
хорошо
хорунжии
хоры
хосе
хосров
хосуси
хосусилаштырыу
хотя
хоу
хочу
хоҙаи
хоҡуғы
хоҡуғын
хоҡуғына
хоҡуғынан
хоҡуғында
хоҡуҡ
хоҡуҡи
хоҡуҡиәте
хоҡуҡлы
хоҡуҡтар
хоҡуҡтары
хоҡуҡтарын
хоҡуҡтарына
хоҡуҡты
хоҡуҡҡа
хр
храм
храма
храмов
храмы
хранения
хребет
хрестоматия
христиан
христиандар
христиандарҙың
христианлыҡ
христианлыҡты
христианлыҡҡа
христос
христофор
хромосомалар
хроник
хроника
хроникаһы
хронологик
хронология
хронологияһы
хронос
хрустальныи
хруще
хрущев
хстаг
ху
хуан
хуанхэ
хубилаи
худ
худож
художественная
художественнои
художественныи
художество
художестволы
художник
художника
художники
художников
хужа
хужабикә
хужабикәһе
хужалар
хужалары
хужалығы
хужалығын
хужалығына
хужалығында
хужалығының
хужалыҡ
хужалыҡта
хужалыҡтар
хужалыҡтары
хужалыҡтың
хужаһы
хужаһының
хуп
хуплаи
хупламаи
хуплана
хуплап
хуплау
хуплаған
хусаинов
хутор
хутора
хуфу
хуш
хушлашыу
хуэи
хх
ххх
хызыр
хыял
хыяллана
хыялы
хыянат
хэ
хэи
хәбиб
хәбибулла
хәбибуллин
хәбир
хәбиров
хәбәр
хәбәрсе
хәбәрсеһе
хәбәрҙе
хәбәрҙәр
хәбәрҙәре
хәбәрһеҙ
хәи
хәким
хәкими
хәкимов
хәл
хәлгә
хәлде
хәлдең
хәлдә
хәлдән
хәлдәр
хәлдәрҙе
хәле
хәлен
хәлендә
хәлендәге
хәленә
хәлил
хәлилов
хәлит
хәлиф
хәлифә
хәлифәлеге
хәлле
хәләл
хәләф
хәмзә
хәмит
хәмитов
хәмиҙулла
хәмиҙуллин
хәни
хәниф
хәнифә
хәнәфи
хәрби
хәрбиҙәр
хәрбиҙәре
хәреф
хәрефе
хәрефенә
хәрефле
хәрефтән
хәрефтәр
хәрефтәре
хәрәзм
хәрәкәт
хәрәкәте
хәрәкәтен
хәрәкәтендә
хәрәкәтенең
хәрәкәтенә
хәрәкәткә
хәрәкәтсән
хәрәкәтте
хәрәкәттең
хәрәкәттә
хәрәкәттәр
хәрәкәттәре
хәрәкәттәрен
хәрәкәттәрҙе
хәрәкәттәрҙең
хәрәкәттәрҙә
хәрәкәтһеҙ
хәстәрлек
хәсән
хәсәнов
хәтер
хәтергә
хәтере
хәтерендә
хәтерләи
хәтерләткән
хәтерләтә
хәтерләүенсә
хәтирәләр
хәтирәләре
хәтле
хәтлем
хәҙер
хәҙерге
хәҙергә
хәҙис
хәҙистәр
хәҙисә
хәҙрәт
хәҙрәти
хәҡиҡәт
хәүеф
хәүефе
хәүефле
хәүефһеҙ
хәүефһеҙлеге
хәүефһеҙлеген
хәүефһеҙлек
хөкүмәт
хөкүмәте
хөкүмәтен
хөкүмәтендә
хөкүмәтенең
хөкүмәтенә
хөкүмәтенән
хөкүмәткә
хөкүмәтте
хөкүмәттең
хөкүмәттәре
хөкөм
хөкөмгә
хөкөмө
хөрмәт
хөрмәтенә
хөрмәтле
хөрәсән
хөсәи
ц
ца
цамо
цар
царе
цария
царияла
царияның
царияға
царское
царство
царь
царя
цвет
цвета
цветаева
цветы
цгиа
цев
цева
цево
цезарь
цеи
целинныи
целинскии
целлюлоза
цемент
цензура
центнер
центр
центра
центральная
центрального
центральное
центральнои
центральныи
центрах
центре
центрполиграф
церетели
церкви
церковь
цех
цехы
цехында
цзин
цзинь
цзы
цзэдун
цзя
ци
цивилизации
цивилизация
цивилизацияһы
цивилизацияһының
цивиль
цик
цикл
цикла
циклон
циклондар
циклы
циклын
циклында
цилиндр
цилиндрик
цимлян
цимлянск
цин
цинк
цинь
циолковскии
цирк
циркы
цит
цитадель
цитата
цифрлы
цифры
цифрҙар
цифрҙары
цицерон
цк
цна
цру
цска
цунами
цы
цюрих
цюрупа
цянь
ч
чавес
чад
чаи
чан
чапаев
чапаевка
чарли
чарльз
час
часовня
частар
частары
частарын
частарына
частарының
частеи
части
частности
часто
часть
часы
че
чебоксар
чебоксары
чего
чекмагушевскии
чел
челентано
человек
человека
челси
челябинск
челябинская
челябинскии
челябинскои
чем
чемпион
чемпионат
чемпионатта
чемпионаттары
чемпионаттарында
чемпионаттарының
чемпионатты
чемпионаттың
чемпионаты
чемпионатын
чемпионатына
чемпионатында
чемпионатының
чемпиондар
чемпиондары
чемпионы
чен
чепецкии
чепца
чере
через
черек
черемшанка
череповец
череповецкии
черкасскии
черкассы
черкес
черкесия
черная
чернигов
черниковка
чернобыль
чернов
черновцы
черногор
черногория
черногорияның
чернскии
чернушка
черныи
черных
черныше
чернышевскии
черняховскии
чертковскии
черчилль
чесноковка
честь
четве
четыре
чех
чехия
чехияла
чехияның
чехов
чехова
чеховскии
чеховтың
чехонте
чехословак
чехословакия
чехословакияла
чехословакияның
чехтар
чечен
чечня
чжан
чжоу
чжу
чжэн
чик
чикаго
чили
чилиҙа
чилиҙың
чин
чиновнигы
чиновник
чиновниктар
чиновниктары
чины
чинында
чио
чир
чисел
числа
числе
численности
численность
число
чита
чишминскии
чкалов
чкаловскии
член
членов
члены
чрезвычаи
чтения
что
чтобы
чу
чуваш
чувашия
чувашская
чуд
чудес
чудотворец
чуи
чук
чукот
чулым
чулымдан
чума
чумаков
чумыш
чусовая
чусыу
чухломскии
чхиги
ш
ша
шаблон
шаблона
шаблоне
шаблонов
шаблоном
шаблоны
шагал
шадринск
шаи
шакир
шакири
шакиров
шаляпин
шамил
шан
шанхаи
шань
шапиро
шапошников
шар
шаран
шаранскии
шарап
шарипов
шарлауығы
шарлауыҡ
шарлауыҡтар
шарлотта
шарль
шарт
шартлата
шартлатыу
шартлау
шартлы
шарттар
шарттары
шарттарын
шарттарына
шарттарында
шарттарға
шарттарҙа
шарттарҙы
шарты
шаршамбы
шаршау
шаршаулы
шары
шарында
шарының
шарьинскии
шат
шатлыҡ
шатурскии
шау
шафиҡов
шафран
шах
шахмат
шахматсыһы
шаховская
шахта
шахте
шахтер
шахты
шашка
шая
шаян
шағир
шағиры
шағирға
шағирҙар
шағирҙары
шағирҙарының
шағирҙарҙың
шағирҙы
шағирҙың
шағирә
шағирәһе
шаҡ
шаҡтаи
шаҡша
шаһ
шаһит
шаһитлыҡ
шаһиттар
шаһиты
шаһтың
шаһы
шварц
швед
шведтар
шведтарҙың
швеи
швеция
швецияла
швецияның
швецияға
ше
шевченко
шевчук
шего
шежере
шеи
шексна
шекснинскии
шекспир
шекспира
шекспирҙың
шем
шенкурскии
шереметев
шесть
шеш
шеше
ши
шива
шие
шии
шик
шикелле
шикле
шикһеҙ
шиллер
шилово
шиловскии
ширван
ширваншаһтар
ширин
ширина
широкии
широков
ширҡәте
шифалы
шифахана
шифаханаһы
ших
шихан
шишкин
шишкино
шишмә
шишмәләр
шишмәһе
шишәмбе
шиғри
шиғриәт
шиғриәте
шиғриәтенең
шиғыи
шиғыр
шиғыры
шиғырын
шиғырына
шиғырында
шиғырҙар
шиғырҙары
шиғырҙарын
шиғырҙарына
шиғырҙарында
шк
шкалаһы
шкаф
школ
школа
школе
школы
школьная
школьников
шлем
шмидт
шои
шоколад
шолохов
шолоховскии
шолоховтың
шон
шопен
шор
шорт
шоссе
шоссеһы
шостакович
шотланд
шотландия
шотландияның
шоу
шоңҡар
шпион
шре
шри
шрифт
шрифты
штаб
штаба
штабс
штабы
штабына
штабында
штабының
штаи
штат
штаттан
штаттар
штаттары
штаттарында
штаттарының
штаттың
штаты
штатында
штатындағы
штатының
штеи
штирия
штр
штраус
штраф
штурм
штурман
штурмлау
штык
шу
шуберт
шувалов
шуи
шул
шулаи
шулар
шуларҙан
шуларҙың
шуман
шумер
шумерҙар
шунан
шунда
шундаи
шундуҡ
шунлыҡтан
шуны
шуның
шуныһы
шура
шураның
шураһы
шуша
шуға
шыи
шыма
шымартылған
шымкент
шына
шыршы
шыу
шыуып
шыуыу
шүлгәнташ
шә
шәжәрә
шәжәрәһе
шәи
шәкерттәре
шәкүр
шәкәр
шәл
шәлкеме
шәм
шәмбе
шәмсетдин
шәмсетдинов
шәмәхә
шәп
шәр
шәреҡ
шәрип
шәрипов
шәриф
шәрифулла
шәриғәт
шәрҡиәт
шәрҡиәтсе
шәрәфетдин
шәрәфетдинов
шәфиғи
шәфҡәт
шәфҡәтлелек
шәхес
шәхесе
шәхестең
шәхестәр
шәхестәре
шәхестәрҙең
шәхси
шәхсән
шәүрә
шәһит
шөкөр
шөғөлләнгән
шөғөлләнгәндәр
шөғөлләнергә
шөғөлләнеү
шөғөлләнеүен
шөғөлләнеүсе
шөғөлләнә
шөғөлләнәләр
шөғөлө
щ
ще
щелкунчик
щербаков
щигровскии
щукин
щучье
ъ
ы
ыи
ык
ыл
ыла
ылаи
ылан
ыландар
ыласын
ылда
ылдам
ылдан
ылдар
ылдары
ылдарын
ылдарына
ылдарынан
ылдарында
ылдарындағы
ылдарға
ылдарҙа
ылдарҙан
ылдарҙағы
ылдарҙы
ылдарҙың
ылдағы
ылды
ылдын
ылдың
ыллығы
ыллығын
ыллығына
ыллығында
ыллыҡ
ыллыҡта
ыллыҡтар
ыллыҡтарҙа
ыллыҡтың
ыллыҡҡа
ылма
ылмаи
ылмаған
ылмаһы
ылмаһын
ылмаһына
ылъяҙма
ылъяҙмалар
ылъяҙмаларында
ылъяҙмаһы
ылъяҙмаһында
ылы
ылылыҡ
ылымыҡтар
ылын
ылына
ылында
ылының
ылып
ылырға
ылытыу
ылыу
ылыуы
ылыш
ылыштар
ылышы
ылышын
ылышына
ылышында
ылышының
ылыҡтыра
ылыҫлы
ылға
ылғала
ылғалар
ылғалары
ылғаларын
ылғаларында
ылғаларының
ылғаларҙа
ылғаларҙың
ылған
ылғаны
ылғаның
ылғаса
ылғаға
ылғаһы
ылғаһын
ылғаһына
ылғаһынан
ылғаһында
ылғаһындағы
ылғаһының
ылғаһырыбинск
ылғы
ылҡы
ылҡысылыҡ
ым
ымдар
ымдары
ымов
ымы
ын
ына
ыназа
ынан
ынанкострома
ында
ындан
ындар
ындары
ындарын
ындарына
ындарында
ындарының
ындарҙа
ындарҙы
ындағы
ынды
ындың
ыни
ынлы
ынлыҡ
ынлыҡтар
ынса
ынсы
ынсылар
ынсылары
ынсыларҙың
ынсының
ынсыға
ынсыһы
ынтыла
ынтылыш
ынтылышы
ынтылған
ынтығы
ынтығын
ынтығына
ынтығында
ынтығының
ынтыҡ
ынтыҡтар
ынтыҡтары
ыны
ынын
ынына
ынында
ынының
ыныу
ының
ынға
ынған
ып
ыр
ыра
ыралар
ыраҡ
ырлаи
ырлап
ырларға
ырлау
ырлаған
ырлы
ырма
ырмалар
ырмалы
ырманы
ырмаһы
ырсы
ырсылар
ырсылары
ырсының
ырсыһы
ыртҡыс
ыртҡыстар
ыры
ырыла
ырылалар
ырылмаи
ырылып
ырылыуы
ырылыша
ырылышыу
ырылған
ырылғыһыҙ
ырым
ырымбур
ырымбурға
ырымбурҙа
ырымбурҙан
ырымбурҙың
ырымланған
ырымлыҡтары
ырын
ырына
ырында
ырыны
ырының
ырып
ырырға
ырыу
ырыуса
ырыусы
ырыуы
ырыуына
ырыуынан
ырыуының
ырыуға
ырыуҙар
ырыуҙары
ырыуҙарының
ырыуҙың
ырға
ырған
ырғыланған
ырғыс
ырғыта
ырғытыу
ырғыҙ
ырғыҙлы
ырҙа
ырҙан
ырҙар
ырҙары
ырҙарын
ырҙарының
ырҙарҙы
ырҙарҙың
ырҙы
ырҙың
ысул
ысулдар
ысулдары
ысулдарын
ысулдарҙы
ысулды
ысулы
ысулын
ысулына
ысын
ысынбарлыҡ
ысынбарлыҡта
ысынбарлыҡты
ысынбарлыҡҡа
ысынлап
ысынында
ысыҡ
ыт
ыта
ыу
ыуа
ыуан
ыулығы
ыулыҡ
ыусы
ыуы
ыуыла
ыуылдырыҡ
ыуын
ыуына
ыуыу
ыуға
ыуҙа
ыуҙан
ыуҙар
ыуҙы
ыш
ышана
ышандыра
ышанмаи
ышанып
ышаныс
ышаныслы
ышанысын
ышанысһыҙ
ышаныу
ышанған
ышлы
ышлығы
ышлыҡ
ышта
ыштан
ыштараҡ
ыштағы
ыштың
ышы
ышына
ышында
ышындағы
ышыраҡ
ышҡа
ыя
ығы
ығыҙ
ыҙа
ыҙғыш
ыҡ
ыҡлы
ыҡлыҡ
ыҡса
ыҡтамаҡ
ыҡтырыу
ың
ыңғаи
ыһазландырыла
ыһазландырылған
ыһан
ыһангир
ыһаншин
ыһанға
ыһат
ь
э
эбла
эвакуация
эвакуацияла
эвакуациялана
эвакуацияланған
эверест
эвм
эволюцион
эволюция
эволюцияһы
эгеи
эгидаһы
эдвард
эдгар
эдинбург
эдип
эдит
эдмонтон
эдмунд
эдуард
эжен
эз
эзбиз
эзбизташ
эи
эквадор
экватор
экваториаль
эквивалентлы
экз
экзотик
экипаж
экипажы
экологии
экологик
экология
экологияһы
экономика
экономики
экономическая
экономические
экономическии
экономических
экономического
экономическои
экран
экрандарға
экранлаштырыу
экс
экскурсия
экскурсиялар
эксмо
экспедиции
экспедиция
экспедицияла
экспедициялар
экспедициялары
экспедицияларҙа
экспедицияның
экспедицияға
экспедицияһы
экспедицияһында
экспедицияһының
эксперимент
эксперименталь
эксперименттар
эксперт
экспертиза
эксперттар
эксперты
эксплуатация
эксплуатациялау
экспозиция
экспозицияһы
экспонат
экспонаттар
экспонаттары
экспорт
экспортлау
экспорты
экспортҡа
экспресс
экстремаль
эл
элам
элгәрге
элгәре
элегерәк
элек
элекке
элеккесә
электр
электрик
электромагнит
электрон
электрондар
электроника
электронная
электроннои
электронныи
электротехник
электротехника
электән
элемент
элемента
элементар
элементлы
элементов
элементтар
элементтары
элементтарын
элементтарының
элементтарҙы
элементтарҙың
элементтың
элементы
элементының
элемтә
элемтәһе
эленгән
эленеп
элеонора
элизабет
элиста
элита
эллин
эллинистик
эллипс
элмәк
эль
эльба
эльбрус
эльвира
эльза
эләгеп
эләгә
эләккән
эләкмәгән
эләкмәи
эләктереп
эмаль
эмблемаһы
эмигрант
эмигранттар
эмиграция
эмиграцияла
эмиграцияға
эмилия
эмиль
эминем
эмма
эмми
эмоциональ
эмпирик
эн
энвер
энгельс
энгр
эндемик
энди
эндрю
энеле
энеолит
энергетик
энергетика
энергетикаһы
энергия
энергияны
энергияһы
энергияһын
энергияһына
энергоблок
энеһе
энни
энтони
энцикл
энциклопедии
энциклопедик
энциклопедическии
энциклопедическое
энциклопедия
энциклопедияһы
энциклопедияһында
эньлаи
энә
эпидемиология
эпидемия
эпидемияһы
эпизод
эпизодик
эпик
эпос
эпосы
эпоха
эпохи
эпоху
эр
эра
эраның
эраға
эргә
эргәһендә
эргәһендәге
эргәһенә
эргәһенән
эре
эремсек
эрзя
эрзянь
эрзә
эрик
эрих
эрмитаж
эрнест
эрнст
эрцгерцог
эс
эсе
эсемлек
эсемлектәр
эсендә
эсендәге
эсенә
эсенән
эсеп
эсер
эсергә
эсерҙар
эсеү
эскадрилья
эскадрон
эскадроны
эске
эскиздары
эскизы
эскә
эскәми
эсперанто
эссе
эст
эстафета
эстафетала
эстетик
эстетика
эстон
эстонии
эстония
эстонияла
эстонияның
эстрада
эстәлеге
эстән
эсә
эсәк
эсәктең
эсәр
эт
эта
этабы
этабында
этап
этапта
этаптарында
эте
эти
этик
этика
этим
этимология
этимологияһы
этих
этник
этническая
этническои
этно
этнограф
этнографии
этнографик
этнографические
этнография
этнографияһы
этнографтары
этнология
этноним
этнонимы
это
этого
этои
этом
этот
этп
эттәр
эту
этюды
этҡол
этәргес
этәрә
эфиоп
эфиопия
эфир
эфирға
эффект
эффекты
эхо
эш
эше
эшелон
эшен
эшендә
эшенең
эшенә
эшенән
эшкә
эшкәртелгән
эшкәртелә
эшкәртеп
эшкәртеү
эшкәртеүгә
эшкәртеүсе
эшкәртеүҙең
эшкәрткән
эшкәртә
эшлекле
эшләгән
эшләгәндә
эшләгәндән
эшләгәндәр
эшләгәне
эшләи
эшләмәгән
эшләмәи
эшләнгән
эшләне
эшләнеп
эшләнмәләр
эшләнә
эшләп
эшләпә
эшләргә
эшләтеп
эшләү
эшләүгә
эшләүе
эшләүен
эшләүсе
эшләүселәр
эшләүселәрҙең
эшләүсеһе
эшләүҙе
эшләүҙә
эшләүҙән
эшмәкәр
эшмәкәре
эшмәкәрлеге
эшмәкәрлеген
эшмәкәрлегендә
эшмәкәрлегенең
эшмәкәрлегенә
эшмәкәрлегенән
эшмәкәрлек
эшмәкәрлеккә
эшмәкәрлекте
эшмәкәрлектең
эшмәкәрлектә
эшмәкәрҙәр
эшмәкәрҙәре
эшмәкәрҙәренең
эшсе
эшселәр
эшселәре
эшселәрҙең
эшсеһе
эште
эштең
эштә
эштән
эштәр
эштәргә
эштәре
эштәрем
эштәрен
эштәрендә
эштәренең
эштәренә
эштәренән
эштәрҙе
эштәрҙең
эштәрҙә
эшҡыуар
эшҡыуарлыҡ
эшҡыуары
эшҡыуарҙар
эшҡыуарҙары
эшһеҙ
эшһеҙлек
эҙ
эҙе
эҙемтә
эҙемтәләргә
эҙемтәләре
эҙемтәләрен
эҙемтәһе
эҙлекле
эҙлелеге
эҙлелек
эҙләгән
эҙләи
эҙләнеү
эҙләнеүҙәр
эҙләп
эҙләргә
эҙләү
эҙмә
эҙҙәре
эҙҙәрен
эҙәрлекләи
эҙәрлекләү
эҫе
эҫем
ю
юань
юбилеи
юбилею
ювелир
ювэи
юг
юга
юган
юго
югослав
югославия
югославияла
югославияның
югра
юденич
юдин
южная
южно
южного
южнои
южном
южныи
юзеф
юи
юл
юлаев
юлаева
юлаевтың
юлаи
юламан
юлбарыҫ
юлбашсы
юлбашсылары
юлбашсыһы
юлбаҫарҙар
юлда
юлдан
юлдар
юлдары
юлдарын
юлдарында
юлдарының
юлдарҙа
юлдарҙы
юлдарҙың
юлдаш
юлдашбаев
юлдашев
юлдашева
юлдаштары
юлдашы
юлды
юлдыбаи
юлдың
юлиан
юлии
юлия
юллаи
юллана
юлсы
юлтыи
юлы
юлын
юлына
юлынан
юлында
юлындағы
юлының
юлыға
юлыҡ
юлға
юмор
юмористик
юн
юнаи
юнеско
юниор
юниорҙар
юность
юныс
юпитер
юпитерҙың
юра
юридик
юрии
юриспруденция
юрист
юристар
юристары
юрисы
юрия
юрматы
юрмаш
юрмыи
юрт
юрьев
юрьевич
юрьевна
юрьево
юстиниан
юстиция
юсупов
юсьвинскии
юхан
юхл
юхновскии
юш
юшатыр
юғала
юғалта
юғалтмаи
юғалтып
юғалтыу
юғалтыуҙар
юғалтыуҙары
юғалтыуҙарға
юғалтҡан
юғалып
юғалыу
юғалған
юғары
юғарыла
юғарыраҡ
юғарыға
юғарғы
юғиһә
юҡ
юҡлығы
юҡлығын
юҡмы
юҡҡа
юҫыҡта
я
яаи
яба
ябаи
ябалаҡ
ябыла
ябылған
ябып
ябырға
ябыу
ябыҡ
ява
является
являются
яга
ягаи
ягода
ягун
ядро
ядроһы
яз
яза
язалаи
язалана
язалап
язалау
язаға
язаһы
язаһын
язаһына
язык
языка
языках
языке
языки
языков
языкознания
языком
языку
яи
як
якоб
яков
яковлев
яковлева
яковлевич
яковлевка
яковлевна
яковлево
якорь
якуб
якутия
якутск
ял
яла
ялан
яланда
яландар
яланы
яланын
яланынан
яланында
яланғас
ялатылған
ялда
яллаи
ялланып
ялланған
ялта
ялыу
ялға
ялған
ялғау
ялғауы
ялғауҙары
ялҡынлы
ям
ямаи
ямал
ямалетдин
яман
ямани
ямантау
ямаш
ямскии
ямғыр
ямғырлы
ямғырҙар
ян
яна
янаи
янаульскии
янаған
янв
январь
января
янгантау
яндекс
яндыра
яндырыла
яндырылған
яндырып
яндырыу
янина
янош
янцзы
яны
яныбаи
янына
янынан
янында
янындағы
янып
яныу
яныулы
янған
янғантау
янғын
янғындан
янғындар
яп
япма
япмаһы
япон
япондар
японии
япония
японияла
японияны
японияның
японияға
япрағы
япраҡ
япраҡлы
япраҡтар
япраҡтары
яр
яра
яраи
яралана
яраланған
яралы
яралыларҙы
яралғы
ярамаи
ярата
яратам
яратмаи
яратып
яратыусы
яратыусылар
яратҡан
ярашлы
ярағы
яраҡ
яраҡлаштырылған
яраҡлашҡан
яраҡлы
яраҡтары
яраҡһыҙ
ярд
ярлы
ярлылар
ярлыҡау
ярма
ярмуллин
ярослав
ярославль
ярославская
ярославскии
ярсыҡтары
ярты
яртылаш
яртыһы
яртыһын
яртыһына
яртыһынан
яртыһында
яртыһындағы
яруллин
яруслы
яры
ярым
ярымутрау
ярымутрауы
ярымутрауын
ярымутрауына
ярымутрауынан
ярымутрауында
ярымутрауындағы
ярымутрауының
ярымутрауҙа
ярымутрауҙың
ярымфиналда
ярымшарҙа
ярын
ярына
ярынан
ярында
ярындағы
ярыш
ярыша
ярышта
ярыштар
ярыштары
ярыштарына
ярыштарында
ярыштарҙа
ярышы
ярышында
ярыҡтар
ярға
ярҙа
ярҙам
ярҙамсы
ярҙамсылары
ярҙамсыһы
ярҙамы
ярҙамын
ярҙамына
ярҙамынан
ярҙамында
ярҙамға
ярҙан
ярҙары
ярҙарын
ярҙарына
ярҙарынан
ярҙарында
ярһыу
яси
ясир
ясная
ясногорскии
яссы
ят
ята
ятаҡ
ятсен
яттан
ятып
ятыусы
ятҡан
ятҡылығы
ятҡылығын
ятҡылығында
ятҡылығының
ятҡылыҡтар
ятҡылыҡтары
ятҡылыҡтарын
ятҡылыҡтарында
ятҡылыҡтарының
яу
яуа
яуап
яуаплы
яуаплылығы
яуаплылыҡ
яуаплылыҡты
яуапһыҙ
яугир
яугире
яугиры
яугирҙар
яугирҙары
яугирҙәр
яугирҙәре
яуза
яулаи
яулана
яуланы
яуланған
яулап
яуларға
яулау
яулаусы
яулаған
яулыҡ
яуы
яуыз
яуызлыҡ
яуым
яуымбаи
яуға
яуған
яуҙа
яуҙары
яуҙарҙа
яфалана
ях
яха
яхин
яхъя
ячеи
яшин
яғы
яғымлы
яғын
яғына
яғынан
яғында
яғындағы
яғының
яғыулығы
яғыулыҡ
яҙ
яҙа
яҙалар
яҙма
яҙмала
яҙмалар
яҙмалары
яҙмаларын
яҙмаларында
яҙмаларҙа
яҙманы
яҙмаһы
яҙмаһын
яҙмаһында
яҙмаһының
яҙмыш
яҙмышы
яҙмышын
яҙмышына
яҙы
яҙыла
яҙылды
яҙылмаған
яҙылып
яҙылырға
яҙылыу
яҙылышы
яҙылған
яҙын
яҙына
яҙында
яҙып
яҙырға
яҙыу
яҙыулы
яҙыусы
яҙыусылар
яҙыусылары
яҙыусыларының
яҙыусыларҙың
яҙыусыны
яҙыусының
яҙыусыға
яҙыусыһы
яҙыуы
яҙыуын
яҙыуынса
яҙыуға
яҙыуҙа
яҙыуҙар
яҙыуҙары
яҙыуҙы
яҙыуҙың
яҙыша
яҙығыҙ
яҙған
яҙғанда
яҙғандар
яҙғы
яҙҙы
яҙҙыра
яҙҙырыу
яҡ
яҡлаи
яҡлана
яҡланған
яҡлап
яҡларға
яҡлау
яҡлаусы
яҡлаусылар
яҡлаусыһы
яҡлауы
яҡлауға
яҡлаған
яҡлы
яҡлылар
яҡта
яҡтан
яҡтар
яҡтары
яҡтарын
яҡтарына
яҡтарында
яҡтарының
яҡтарға
яҡтарҙа
яҡтарҙың
яҡтағы
яҡты
яҡтыкүл
яҡтылығы
яҡтылыҡ
яҡтылыҡтың
яҡтырта
яҡтыртыла
яҡтыртыу
яҡтың
яҡуп
яҡупов
яҡут
яҡутстан
яҡшы
яҡшылыҡ
яҡшыра
яҡшыраҡ
яҡшырта
яҡшыртырға
яҡшыртыу
яҡшыртыуға
яҡшыһы
яҡын
яҡынаи
яҡыная
яҡында
яҡындан
яҡындары
яҡындағы
яҡынлаша
яҡынлашып
яҡынлашыу
яҡынлығы
яҡынса
яҡыны
яҡыныраҡ
яҡҡа
яңауыл
яңаҡ
яңы
яңыбаи
яңылыш
яңылыҡ
яңылыҡтар
яңылыҡтары
яңынан
яңыраҡ
яңырта
яңыртыла
яңыртылған
яңыртып
яңыртыу
яңырыу
яңырыуы
яңыса
яңғыраи
яңғырау
яңғырауыҡлы
яңғыраған
яңғыҙ
яңғыҙлыҡ
яңғыҙы
яҫауыл
яҫы
яҫылығы
яҫылыҡ
яҫылыҡта
яһаи
яһала
яһалма
яһалған
яһамаи
яһаны
яһап
яһарға
яһау
яһаусы
яһауы
яһауын
яһаған
яһағанда
яһағандар
яһаҡ
яһаҡлы
є
і
ім
ін
ғ
ға
ғабдрахман
ғабдулла
ғазап
ғаи
ғаилә
ғаиләгә
ғаиләлә
ғаиләләге
ғаиләләр
ғаиләләре
ғаиләне
ғаиләнең
ғаиләнән
ғаиләһе
ғаиләһен
ғаиләһендә
ғаиләһендәге
ғаиләһенең
ғаиләһенә
ғаиләһенән
ғали
ғалим
ғалимдар
ғалимдары
ғалимдарының
ғалимдарҙың
ғалимдың
ғалимы
ғаләм
ғаләмдең
ған
ғанда
ғандан
ғандар
ғансы
ғанға
ғариза
ғарипов
ғариф
ғарифулла
ғас
ғата
ғатаулла
ғатауллин
ғауға
ғафаров
ғафури
ғафуриҙың
ғашиҡ
ғаяз
ғаҙы
ғибәрәт
ғибәҙәт
ғибәҙәтхана
ғибәҙәтханала
ғибәҙәтханалар
ғибәҙәтханалары
ғибәҙәтхананы
ғибәҙәтхананың
ғибәҙәтханаһы
ғизетдин
ғиззәт
ғиззәтуллин
ғизәтуллина
ғилем
ғилеме
ғилман
ғилметдин
ғилми
ғиләжев
ғимран
ғиниәт
ғинуар
ғинуары
ғинуарына
ғинуарынан
ғинуарында
ғинуарындағы
ғинуарға
ғинуарҙа
ғинуарҙың
ғо
ғолар
ғор
ғосман
ғосмандар
ғош
ғоһо
ғоһон
ғужа
ғы
ғылы
ғына
ғыр
ғырҙар
ғүмер
ғүмере
ғүмерен
ғүмерендә
ғүмеренең
ғүмерле
ғүмерлек
ғүмерлеккә
ғүмәр
ғүмәров
ғәббәс
ғәббәсиҙәр
ғәбд
ғәбит
ғәбитов
ғәбиҙулла
ғәжәи
ғәжәп
ғәззә
ғәзиз
ғәзизов
ғәзим
ғәи
ғәле
ғәли
ғәлиев
ғәлим
ғәлими
ғәлимов
ғәлимова
ғәлин
ғәлиә
ғәлиәкбәр
ғәлиәхмәт
ғәлләм
ғәлләмов
ғәләи
ғәләүетдин
ғәләүетдинов
ғәмбәр
ғәмбәргә
ғәмбәребеҙ
ғәмбәребеҙҙең
ғәмбәрҙең
ғәмбәрҙәр
ғәмәл
ғәмәлгә
ғәмәлдә
ғәмәлдәге
ғәмәлдән
ғәмәлдәр
ғәмәлдәре
ғәмәлдәрен
ғәмәлдәренә
ғәмәлдәрҙе
ғәмәлдәрҙә
ғәмәле
ғәмәли
ғәни
ғәниев
ғәниева
ғәр
ғәрәбстан
ғәрәбстаны
ғәрәбстанында
ғәрәп
ғәрәпсә
ғәрәпсәһе
ғәрәптәр
ғәрәптәрҙең
ғәрәптәрҙән
ғәскәр
ғәскәргә
ғәскәре
ғәскәрен
ғәскәрендә
ғәскәренең
ғәскәренә
ғәскәри
ғәскәров
ғәскәрҙе
ғәскәрҙең
ғәскәрҙәр
ғәскәрҙәргә
ғәскәрҙәре
ғәскәрҙәрен
ғәскәрҙәрендә
ғәскәрҙәренең
ғәскәрҙәренә
ғәскәрҙәренән
ғәскәрҙәрҙе
ғәскәрҙәрҙең
ғәфү
ғәфүр
ғәҙел
ғәҙеллек
ғәҙелша
ғәҙәт
ғәҙәти
ғәҙәттә
ғәҙәттәге
ғәҙәттәгесә
ғәҙәттән
ғәҙәттәре
ғәҙәттәрен
ғөбәи
ғөзәи
ғөмүмән
ғөрөф
ҙ
ҙа
ҙаи
ҙалана
ҙаланалар
ҙаланыла
ҙаланылған
ҙаланып
ҙаланырға
ҙаланыу
ҙаланыусы
ҙаланыуға
ҙаланған
ҙаланғандар
ҙалы
ҙалыр
ҙан
ҙанда
ҙандан
ҙандар
ҙандары
ҙандағы
ҙанды
ҙандың
ҙанлы
ҙансығы
ҙансығында
ҙансыҡ
ҙансыҡта
ҙансыҡтары
ҙаны
ҙанын
ҙанына
ҙанынан
ҙанында
ҙанындағы
ҙанының
ҙанға
ҙар
ҙары
ҙарын
ҙарына
ҙарынан
ҙарында
ҙарындағы
ҙарының
ҙарға
ҙарҙа
ҙарҙан
ҙарҙы
ҙарҙың
ҙағы
ҙаһы
ҙаһына
ҙаһыҙ
ҙе
ҙен
ҙер
ҙереү
ҙең
ҙулла
ҙуллин
ҙур
ҙураи
ҙурая
ҙурлығы
ҙурлыҡта
ҙурлыҡтағы
ҙуры
ҙурыраҡ
ҙурҙары
ҙы
ҙыра
ҙырма
ҙырыу
ҙырышлы
ҙырышлығы
ҙың
ҙә
ҙәге
ҙән
ҙәр
ҙәргә
ҙәре
ҙәрен
ҙәренә
ҙәрҙе
ҙәрҙең
ҙәң
ҙәүсе
ҙө
ҙөң
қ
ҡ
ҡа
ҡабан
ҡабарынҡы
ҡабарҙы
ҡабат
ҡабатлаи
ҡабатлана
ҡабатландығы
ҡабатландыҡ
ҡабатланмаҫ
ҡабатланған
ҡабатлап
ҡабатлау
ҡабаттан
ҡабаҡ
ҡабул
ҡабырсаҡ
ҡабырға
ҡабырғалары
ҡабығы
ҡабығының
ҡабыҡ
ҡадир
ҡадиров
ҡаза
ҡазан
ҡазанда
ҡазандың
ҡазанға
ҡазыи
ҡаи
ҡала
ҡалаи
ҡалала
ҡалалар
ҡалалары
ҡалаларын
ҡалаларына
ҡалаларынан
ҡалаларында
ҡалаларындағы
ҡалаларының
ҡалаларға
ҡалаларҙа
ҡалаларҙан
ҡалаларҙы
ҡалаларҙың
ҡалалағы
ҡаланан
ҡаланы
ҡаланың
ҡаласығы
ҡаласығына
ҡаласығында
ҡаласыҡ
ҡаласыҡтары
ҡалаға
ҡалаҡ
ҡалаһы
ҡалаһын
ҡалаһына
ҡалаһынан
ҡалаһынана
ҡалаһында
ҡалаһындағы
ҡалаһының
ҡалды
ҡалдыра
ҡалдыралар
ҡалдырмаи
ҡалдырыла
ҡалдырылған
ҡалдырып
ҡалдырырға
ҡалдырыу
ҡалдырған
ҡалдығы
ҡалдыҡ
ҡалдыҡтар
ҡалдыҡтары
ҡалдыҡтарын
ҡалдыҡтарынан
ҡалмаи
ҡалмаш
ҡалмаған
ҡалмаҡ
ҡалмыҡ
ҡалмыҡстан
ҡалмыҡтар
ҡалтасы
ҡалыбы
ҡалыбын
ҡалыбының
ҡалын
ҡалынлығы
ҡалып
ҡалыптар
ҡалыптары
ҡалыптарҙың
ҡалыпты
ҡалыптың
ҡалыр
ҡалырға
ҡалыу
ҡалыуы
ҡалыуын
ҡалыуға
ҡалыша
ҡалышып
ҡалған
ҡалғандар
ҡалғандары
ҡалғаны
ҡалғас
ҡалҡан
ҡалҡып
ҡалҡыу
ҡалҡыулығы
ҡалҡыулығында
ҡалҡыулыҡ
ҡалҡыулыҡта
ҡалҡыулыҡтар
ҡалһа
ҡама
ҡамаи
ҡамалған
ҡамап
ҡамасаулаи
ҡамасауламаи
ҡамау
ҡамаусы
ҡамауға
ҡамауҙа
ҡамауҙан
ҡамауҙы
ҡамаған
ҡамыр
ҡамыш
ҡамышлы
ҡамышы
ҡан
ҡанат
ҡанатлы
ҡанатлылар
ҡанаттары
ҡанаты
ҡандра
ҡанды
ҡанлы
ҡанун
ҡанундар
ҡанундары
ҡанундарын
ҡануни
ҡануниәт
ҡануниәте
ҡануны
ҡаны
ҡанға
ҡанһыҙ
ҡап
ҡаплаи
ҡаплана
ҡапланған
ҡаплап
ҡаплау
ҡаплаған
ҡапма
ҡапыл
ҡапҡа
ҡапҡалар
ҡапҡалары
ҡапҡасы
ҡапҡасылар
ҡапҡасыһы
ҡапҡаға
ҡапҡаһы
ҡапҡаһын
ҡапҡаһына
ҡар
ҡара
ҡарабах
ҡарабаш
ҡарабои
ҡараи
ҡараим
ҡарала
ҡаралтылары
ҡаралған
ҡарама
ҡарамаи
ҡарамалы
ҡарамаған
ҡарамағына
ҡарамағында
ҡарамағындағы
ҡарамаҫтан
ҡарамышев
ҡаран
ҡаранаи
ҡараны
ҡарап
ҡарар
ҡарары
ҡарарын
ҡарарына
ҡарарға
ҡарарҙар
ҡарарҙары
ҡарарҙарын
ҡарарҙы
ҡарасаи
ҡарата
ҡаратаулы
ҡаратып
ҡарау
ҡараусы
ҡарауы
ҡарауыл
ҡарауын
ҡарауға
ҡараш
ҡарашлы
ҡарашта
ҡараштан
ҡараштар
ҡараштары
ҡараштарын
ҡараштарына
ҡарашты
ҡарашы
ҡарашын
ҡарашҡа
ҡарағаи
ҡарағалпаҡ
ҡараған
ҡарағанда
ҡарағас
ҡарағол
ҡарағыҙ
ҡараңғы
ҡараһа
ҡараһаҡал
ҡараһыу
ҡариҙел
ҡарлуғас
ҡарлы
ҡарлыман
ҡарман
ҡарт
ҡартаи
ҡартатаһы
ҡарттар
ҡаршы
ҡаршылаи
ҡаршылығы
ҡаршылығын
ҡаршылығына
ҡаршылыҡ
ҡаршылыҡлы
ҡаршылыҡтар
ҡаршылыҡтарҙы
ҡаршылыҡҡа
ҡаршылыҡһыҙ
ҡаршыһына
ҡаршыһында
ҡарға
ҡарғалы
ҡаса
ҡасаба
ҡасабала
ҡасабалар
ҡасабалары
ҡасабанан
ҡасабаның
ҡасабаһы
ҡасабаһын
ҡасабаһына
ҡасабаһынан
ҡасабаһында
ҡасабаһындағы
ҡасабаһының
ҡасан
ҡасандыр
ҡасаҡ
ҡасаҡтар
ҡасим
ҡасимов
ҡасып
ҡасырға
ҡасыу
ҡасҡан
ҡасҡын
ҡат
ҡатаи
ҡатлам
ҡатламдар
ҡатламдары
ҡатламдарында
ҡатламдарға
ҡатламдарҙың
ҡатламдың
ҡатламлы
ҡатламы
ҡатламын
ҡатламына
ҡатламында
ҡатламының
ҡатламға
ҡатлаулы
ҡатлы
ҡатмарлаша
ҡатмарлаштыра
ҡатмарлы
ҡатмарлыраҡ
ҡатнаш
ҡатнаша
ҡатнашалар
ҡатнашлығы
ҡатнашлығында
ҡатнашлығындағы
ҡатнашмаи
ҡатнашмаған
ҡатнашмаһы
ҡатнашты
ҡатнашып
ҡатнашырға
ҡатнашыу
ҡатнашыусы
ҡатнашыусылар
ҡатнашыусылары
ҡатнашыусыларға
ҡатнашыусыларҙы
ҡатнашыусыларҙың
ҡатнашыусының
ҡатнашыусыға
ҡатнашыусыһы
ҡатнашыуы
ҡатнашыуын
ҡатнашыуҙан
ҡатнашҡан
ҡатнашҡаны
ҡатта
ҡаттағы
ҡаттың
ҡаты
ҡатын
ҡатында
ҡатындар
ҡатындары
ҡатынды
ҡатындың
ҡатынлы
ҡатыны
ҡатынын
ҡатынына
ҡатынынан
ҡатынының
ҡатынға
ҡатып
ҡатыш
ҡатҡа
ҡауырһын
ҡаф
ҡашҡа
ҡашҡаи
ҡая
ҡаяла
ҡаялар
ҡаялары
ҡаялы
ҡаяға
ҡаяһы
ҡаға
ҡаған
ҡағанаты
ҡағиҙә
ҡағиҙәгә
ҡағиҙәләр
ҡағиҙәләргә
ҡағиҙәләре
ҡағиҙәләрен
ҡағиҙәләренә
ҡағиҙәләрҙе
ҡағиҙәне
ҡағиҙәһе
ҡағыла
ҡағылмаи
ҡағылышлы
ҡағылышы
ҡағылған
ҡағып
ҡағыу
ҡағыҙ
ҡағыҙы
ҡағыҙға
ҡағыҙҙар
ҡағыҙҙары
ҡаҙ
ҡаҙан
ҡаҙана
ҡаҙанда
ҡаҙансы
ҡаҙаныштар
ҡаҙаныштары
ҡаҙаныштарын
ҡаҙанышы
ҡаҙанған
ҡаҙағстан
ҡаҙағстанда
ҡаҙағстандың
ҡаҙағстанға
ҡаҙаҡ
ҡаҙаҡтар
ҡаҙаҡтарҙың
ҡаҙна
ҡаҙылма
ҡаҙылмалар
ҡаҙылған
ҡаҙыныу
ҡаҙыныуҙар
ҡаҙып
ҡаҙыу
ҡаҡшаи
ҡаҡшата
ҡаҡҡан
ҡаңлы
ҡаһарман
ҡаһарманлығы
ҡаһарманлыҡ
ҡаһирә
ҡаһым
ҡеүәт
ҡеүәте
ҡеүәтен
ҡеүәтенә
ҡеүәтле
ҡиммәт
ҡиммәте
ҡиммәтен
ҡиммәткә
ҡиммәтле
ҡиммәттәр
ҡиммәттәре
ҡиммәттәрен
ҡиммәттәрҙе
ҡитға
ҡитғалар
ҡиәмәт
ҡиәфәте
ҡиәфәтен
ҡиәфәтендә
ҡкп
ҡобаи
ҡобау
ҡои
ҡол
ҡолаи
ҡолап
ҡолас
ҡолата
ҡолатыла
ҡолатылған
ҡолатылғандан
ҡолатыу
ҡолауы
ҡолаҡ
ҡолдар
ҡоллоҡ
ҡоллоҡҡа
ҡолои
ҡолға
ҡом
ҡомарлы
ҡомартҡы
ҡомартҡылар
ҡомартҡылары
ҡомартҡыларын
ҡомартҡыларының
ҡомартҡыларҙы
ҡомартҡыһы
ҡомло
ҡомташ
ҡондоҙ
ҡоншаҡ
ҡор
ҡора
ҡораи
ҡорал
ҡоралдар
ҡоралдары
ҡоралдарын
ҡоралды
ҡоралланған
ҡораллы
ҡоралы
ҡоралын
ҡорам
ҡорамал
ҡорамалдар
ҡорамалдары
ҡорамалдарын
ҡорамалдарҙы
ҡорамдар
ҡорамдары
ҡорамды
ҡорамдың
ҡорамы
ҡорбан
ҡорбандар
ҡорбандары
ҡорбандарына
ҡорбаны
ҡорбанғәлиев
ҡорман
ҡоро
ҡорола
ҡоролма
ҡоролмалар
ҡоролмалары
ҡоролмаларын
ҡоролмаларының
ҡоролмаларҙы
ҡоролмаларҙың
ҡоролманы
ҡоролманың
ҡоролмаһы
ҡоролош
ҡоролошо
ҡоролошон
ҡоролошона
ҡоролошонда
ҡоролошондағы
ҡоролошоноң
ҡоролоҡ
ҡоролтаи
ҡоролған
ҡороп
ҡорорға
ҡорос
ҡоротҡос
ҡороу
ҡороуға
ҡороуҙар
ҡороған
ҡорт
ҡорто
ҡорттар
ҡорттары
ҡорған
ҡорһағы
ҡорһаҡ
ҡот
ҡотлаи
ҡотола
ҡотолоп
ҡотолорға
ҡотолоу
ҡотолғоһоҙ
ҡотопҡа
ҡотҡара
ҡотҡарып
ҡотҡарырға
ҡотҡарыу
ҡотҡарыусы
ҡош
ҡошо
ҡошсо
ҡошсолоҡ
ҡоштар
ҡоштары
ҡоштарҙан
ҡоштарҙы
ҡоштарҙың
ҡоштоң
ҡоя
ҡояш
ҡояшлы
ҡояштан
ҡояштың
ҡояшҡа
ҡоҙаш
ҡоҙоҡ
ҡуба
ҡуи
ҡул
ҡулаи
ҡулда
ҡулдан
ҡулдар
ҡулдары
ҡулдарын
ҡулдарына
ҡуллана
ҡулланалар
ҡулланма
ҡулланмаи
ҡулланмалар
ҡулланыла
ҡулланылмаи
ҡулланылмаған
ҡулланылырға
ҡулланылыуы
ҡулланылышы
ҡулланылған
ҡулланып
ҡулланырға
ҡулланыу
ҡулланыусы
ҡулланыусылар
ҡулланыусыларға
ҡулланыуы
ҡулланыуға
ҡулланыуҙа
ҡулланыуҙан
ҡулланыуҙы
ҡулланыуҙың
ҡулланған
ҡулланғанда
ҡулланғандар
ҡулса
ҡулсалар
ҡулсаһы
ҡулсаһының
ҡултамға
ҡултамғаһы
ҡултығы
ҡултығына
ҡултығында
ҡултығындағы
ҡултығының
ҡултыҡ
ҡултыҡтар
ҡултыҡтары
ҡулъяҙма
ҡулъяҙмалар
ҡулъяҙмалары
ҡулъяҙмаһы
ҡулы
ҡулын
ҡулына
ҡулынан
ҡулында
ҡулға
ҡумыҙ
ҡунафина
ҡунаҡ
ҡунаҡбаи
ҡунаҡта
ҡунаҡтар
ҡунаҡхана
ҡунаҡханалар
ҡунаҡханаһы
ҡунаҡҡа
ҡупшы
ҡураи
ҡурсалау
ҡурсалаусы
ҡурсалаусыһы
ҡурсаулығы
ҡурсаулығында
ҡурсаулығының
ҡурсаулыҡ
ҡурсаулыҡта
ҡурсаулыҡтары
ҡурсаулыҡтың
ҡурсаҡ
ҡуртым
ҡуртымға
ҡурған
ҡурғандары
ҡурғаш
ҡурҡа
ҡурҡыныс
ҡурҡынысы
ҡурҡып
ҡурҡыу
ҡурҡҡан
ҡустылары
ҡустылы
ҡустыһы
ҡуш
ҡуша
ҡушаи
ҡушалар
ҡушамат
ҡушаматы
ҡушаматын
ҡушма
ҡушыла
ҡушылдығы
ҡушылдығының
ҡушылдыҡ
ҡушылдыҡтары
ҡушылмаи
ҡушылмалар
ҡушылып
ҡушылырға
ҡушылыу
ҡушылыуы
ҡушылған
ҡушылғандан
ҡушылғансы
ҡушылғанға
ҡушымта
ҡушымтаһы
ҡушып
ҡушырға
ҡушыу
ҡушыуы
ҡушҡан
ҡуя
ҡуялар
ҡуян
ҡуяндар
ҡуңыр
ҡхр
ҡы
ҡыбаш
ҡыи
ҡыл
ҡыла
ҡылдар
ҡыллы
ҡылым
ҡылымдар
ҡылымдың
ҡылымығының
ҡылып
ҡылырға
ҡылыс
ҡылыстар
ҡылысы
ҡылыу
ҡылыусылар
ҡылыҡһырлама
ҡылыҡһырлана
ҡылған
ҡымыҙ
ҡына
ҡыпсаҡ
ҡыпсаҡтар
ҡыпсаҡтарҙың
ҡыр
ҡыра
ҡырағаи
ҡырлы
ҡырмыҫҡалы
ҡырсынташ
ҡыры
ҡырыла
ҡырым
ҡырымда
ҡырымды
ҡырымдың
ҡырымға
ҡырын
ҡырында
ҡырып
ҡырыу
ҡырыҫ
ҡырғыҙ
ҡырғыҙстан
ҡырғыҙстанда
ҡырғыҙстандың
ҡырғыҙҙар
ҡырҙары
ҡырҡ
ҡырҡа
ҡырҡылған
ҡырҡып
ҡырҡыу
ҡысҡырып
ҡыт
ҡытаи
ҡытау
ҡытаутамаҡ
ҡытлыҡ
ҡыуа
ҡыуалар
ҡыуандыҡ
ҡыуатов
ҡыуаҡ
ҡыуаҡан
ҡыуаҡлыҡтар
ҡыуаҡтар
ҡыуыла
ҡыуылған
ҡыуып
ҡыуыу
ҡыуыш
ҡыуышлығы
ҡыш
ҡышлаи
ҡышлау
ҡыштым
ҡышын
ҡышында
ҡышҡы
ҡышҡыһын
ҡыя
ҡыяр
ҡыяҡлылар
ҡыҙ
ҡыҙрас
ҡыҙы
ҡыҙыл
ҡыҙылармеец
ҡыҙылармеецы
ҡыҙылдар
ҡыҙылдарҙың
ҡыҙылъяр
ҡыҙын
ҡыҙына
ҡыҙының
ҡыҙыу
ҡыҙыҡ
ҡыҙыҡлы
ҡыҙыҡһына
ҡыҙыҡһындыра
ҡыҙыҡһыныу
ҡыҙыҡһыныуы
ҡыҙыҡһыныуын
ҡыҙыҡһыныуҙары
ҡыҙыҡһынған
ҡыҙға
ҡыҙған
ҡыҙғанысҡа
ҡыҙғылт
ҡыҙҙар
ҡыҙҙары
ҡыҙҙарын
ҡыҙҙарының
ҡыҙҙарға
ҡыҙҙарҙа
ҡыҙҙарҙы
ҡыҙҙарҙың
ҡыҙҙы
ҡыҙҙырылған
ҡыҙҙың
ҡыңғырау
ҡыңғырауҙар
ҡыҫала
ҡыҫыла
ҡыҫылыу
ҡыҫылыуы
ҡыҫылған
ҡыҫымы
ҡыҫып
ҡыҫырыҡлаи
ҡыҫырыҡлап
ҡыҫыу
ҡыҫҡа
ҡыҫҡара
ҡыҫҡараҡ
ҡыҫҡартыла
ҡыҫҡартылған
ҡыҫҡартып
ҡыҫҡартыу
ҡыҫҡаса
ҡҡхл
ҡәбер
ҡәбере
ҡәберендә
ҡәберенә
ҡәберлеге
ҡәберлегендә
ҡәберлек
ҡәберлектәр
ҡәберлектәре
ҡәбилә
ҡәбиләләр
ҡәбиләләре
ҡәбиләләрен
ҡәбиләләренең
ҡәбиләләрҙең
ҡәбиләнең
ҡәбиләһе
ҡәбиләһенең
ҡәбиләһенән
ҡәи
ҡәлғә
ҡәлғәгә
ҡәлғәлә
ҡәлғәләр
ҡәлғәләре
ҡәлғәләрен
ҡәлғәне
ҡәлғәнең
ҡәлғәһе
ҡәлғәһен
ҡәлғәһендә
ҡәлғәһенең
ҡәлғәһенә
ҡәләм
ҡәнзәфәр
ҡәнәғәт
ҡәнәғәтләндереү
ҡәнәғәтләндерә
ҡәнәғәтләнерлек
ҡәрҙәш
ҡәтғи
ҡәҙер
ҡәҙерле
ҡәҙим
ҡәҙимге
ҡәҙәр
ҡәһүә
ҡөрьән
ҡөрьәнде
ҡөрьәндең
ҡөрьәндә
ҡөҙрәтле
ң
ҫ
ү
үгереп
үгереү
үгереүҙә
үгерә
үгеҙ
үгәи
үзбәк
үзбәкстан
үзбәкстанда
үзбәкстандың
үзбәктәр
үк
үкә
үл
үлгән
үлгәндән
үлгәс
үле
үлем
үлемгә
үлемдән
үлеме
үлемен
үлеменә
үлеменән
үлемесле
үлемһеҙ
үлеп
үлсәм
үлсәмдәре
үлсәме
үлсәмле
үлсәү
үлсәүҙәр
үлтергән
үлтергәндән
үлтерелгән
үлтерелеүе
үлтерелә
үлтереп
үлтерергә
үлтереү
үлтереүгә
үлтереүсе
үлтереүҙә
үлтереүҙәр
үлтерә
үлтерәләр
[...]
