!
"
#
##a
##aa
##ab
##ac
##ad
##ae
##af
##ag
##ah
##ai
##aj
##ak
##al
##am
##an
##ao
##ap
##aq
##ar
##as
##at
##au
##av
##aw
##ax
##ay
##az
##b
##ba
##bb
##bc
##bd
##be
##bf
##bg
##bh
##bi
##bj
##bk
##bl
##bm
##bn
##bo
##bp
##bq
##br
##bs
##bt
##bu
##bv
##bw
##bx
##by
##bz
##c
##ca
##cb
##cc
##cd
##ce
##cf
##cg
##ch
##ci
##cj
##ck
##cl
##cm
##cn
##co
##cp
##cq
##cr
##cs
##ct
##cu
##cv
##cw
##cx
##cy
##cz
##d
##da
##db
##dc
##dd
##de
##df
##dg
##dh
##di
##dj
##dk
##dl
##dm
##dn
##do
##dp
##dq
##dr
##ds
##dt
##du
##dv
##dw
##dx
##dy
##dz
##e
##ea
##eb
##ec
##ed
##ee
##ef
##eg
##eh
##ei
##ej
##ek
##el
##em
##en
##eo
##ep
##eq
##er
##es
##et
##eu
##ev
##ew
##ex
##ey
##ez
##f
##fa
##fb
##fc
##fd
##fe
##ff
##fg
##fh
##fi
##fj
##fk
##fl
##fm
##fn
##fo
##fp
##fq
##fr
##fs
##ft
##fu
##fv
##fw
##fx
##fy
##fz
##g
##ga
##gb
##gc
##gd
##ge
##gf
##gg
##gh
##gi
##gj
##gk
##gl
##gm
##gn
##go
##gp
##gq
##gr
##gs
##gt
##gu
##gv
##gw
##gx
##gy
##gz
##h
##ha
##hb
##hc
##hd
##he
##hf
##hg
##hh
##hi
##hj
##hk
##hl
##hm
##hn
##ho
##hp
##hq
##hr
##hs
##ht
##hu
##hv
##hw
##hx
##hy
##hz
##i
##ia
##ib
##ic
##id
##ie
##if
##ig
##ih
##ii
##ij
##ik
##il
##im
##in
##io
##ip
##iq
##ir
##is
##it
##iu
##iv
##iw
##ix
##iy
##iz
##j
##ja
##jb
##jc
##jd
##je
##jf
##jg
##jh
##ji
##jj
##jk
##jl
##jm
##jn
##jo
##jp
##jq
##jr
##js
##jt
##ju
##jv
##jw
##jx
##jy
##jz
##k
##ka
##kb
##kc
##kd
##ke
##kf
##kg
##kh
##ki
##kj
##kk
##kl
##km
##kn
##ko
##kp
##kq
##kr
##ks
##kt
##ku
##kv
##kw
##kx
##ky
##kz
##l
##la
##lb
##lc
##ld
##le
##lf
##lg
##lh
##li
##lj
##lk
##ll
##lm
##ln
##lo
##lp
##lq
##lr
##ls
##lt
##lu
##lv
##lw
##lx
##ly
##lz
##m
##ma
##mb
##mc
##md
##me
##mf
##mg
##mh
##mi
##mj
##mk
##ml
##mm
##mn
##mo
##mp
##mq
##mr
##ms
##mt
##mu
##mv
##mw
##mx
##my
##mz
##n
##na
##nb
##nc
##nd
##ne
##nf
##ng
##nh
##ni
##nj
##nk
##nl
##nm
##nn
##no
##np
##nq
##nr
##ns
##nt
##nu
##nv
##nw
##nx
##ny
##nz
##o
##oa
##ob
##oc
##od
##oe
##of
##og
##oh
##oi
##oj
##ok
##ol
##om
##on
##oo
##op
##oq
##or
##os
##ot
##ou
##ov
##ow
##ox
##oy
##oz
##p
##pa
##pb
##pc
##pd
##pe
##pf
##pg
##ph
##pi
##pj
##pk
##pl
##pm
##pn
##po
##pp
##pq
##pr
##ps
##pt
##pu
##pv
##pw
##px
##py
##pz
##q
##qa
##qb
##qc
##qd
##qe
##qf
##qg
##qh
##qi
##qj
##qk
##ql
##qm
##qn
##qo
##qp
##qq
##qr
##qs
##qt
##qu
##qv
##qw
##qx
##qy
##qz
##r
##ra
##rb
##rc
##rd
##re
##rf
##rg
##rh
##ri
##rj
##rk
##rl
##rm
##rn
##ro
##rp
##rq
##rr
##rs
##rt
##ru
##rv
##rw
##rx
##ry
##rz
##s
##sa
##sb
##sc
##sd
##se
##sf
##sg
##sh
##si
##sj
##sk
##sl
##sm
##sn
##so
##sp
##sq
##sr
##ss
##st
##su
##sv
##sw
##sx
##sy
##sz
##t
##ta
##tb
##tc
##td
##te
##tf
##tg
##th
##ti
##tj
##tk
##tl
##tm
##tn
##to
##tp
##tq
##tr
##ts
##tt
##tu
##tv
##tw
##tx
##ty
##tz
##u
##ua
##ub
##uc
##ud
##ue
##uf
##ug
##uh
##ui
##uj
##uk
##ul
##um
##un
##uo
##up
##uq
##ur
##us
##ut
##uu
##uv
##uw
##ux
##uy
##uz
##v
##va
##vb
##vc
##vd
##ve
##vf
##vg
##vh
##vi
##vj
##vk
##vl
##vm
##vn
##vo
##vp
##vq
##vr
##vs
##vt
##vu
##vv
##vw
##vx
##vy
##vz
##w
##wa
##wb
##wc
##wd
##we
##wf
##wg
##wh
##wi
##wj
##wk
##wl
##wm
##wn
##wo
##wp
##wq
##wr
##ws
##wt
##wu
##wv
##ww
##wx
##wy
##wz
##x
##xa
##xb
##xc
##xd
##xe
##xf
##xg
##xh
##xi
##xj
##xk
##xl
##xm
##xn
##xo
##xp
##xq
##xr
##xs
##xt
##xu
##xv
##xw
##xx
##xy
##xz
##y
##ya
##yb
##yc
##yd
##ye
##yf
##yg
##yh
##yi
##yj
##yk
##yl
##ym
##yn
##yo
##yp
##yq
##yr
##ys
##yt
##yu
##yv
##yw
##yx
##yy
##yz
##z
##za
##zb
##zc
##zd
##ze
##zf
##zg
##zh
##zi
##zj
##zk
##zl
##zm
##zn
##zo
##zp
##zq
##zr
##zs
##zt
##zu
##zv
##zw
##zx
##zy
##zz
$
%
&
'
(
)
*
+
,
-
.
/
0
00
000
001
002
003
0033
004
0040
005
00536
006
007
0074
008
009
00958
01
010
011
012
013
014
01499
015
0157
016
019
02
0204
022
023
024
02408
025
026
02843
02882
03
03091
03133
03157
03188
038
03815
04
04439
04683
04952
05
05228
053
05476
055
057
06
062
06338
064
068
06968
07
071
072
08
09
0a
0b
0c
0d
0e
0f
0g
0h
0i
0j
0k
0l
0m
0n
0o
0p
0q
0r
0s
0t
0u
0v
0w
0x
0y
0z
1
10
100
1000
10000
1001
1002
1007
101
1016
102
103
1038
104
1045
105
106
107
108
1080
1086
109
1093
1099
11
110
1100
111
1111
1112
112
113
114
115
116
117
118
119
1199
12
120
1200
1202
1204
121
122
123
124
1240
1241
125
1250
126
1260
127
128
129
13
130
1300
1301
131
132
1327
133
134
135
1350
1351
136
1365
137
1370
138
139
14
140
1400
141
142
1429
143
1430
144
1440
145
1453
146
1460
147
1470
1471
1478
148
1480
149
1490
1492
15
150
1500
1502
1503
1504
1505
1506
151
1510
1512
1515
1516
1517
1519
152
1520
1521
1524
1525
1526
1528
153
1530
1533
1534
1535
1536
1538
154
1540
1541
1542
1543
1547
155
1550
1552
1553
1554
1555
1556
1558
156
1561
1562
1563
1564
1569
157
1570
1572
1573
158
1580
1582
159
1590
1595
1596
1598
16
160
1600
1601
1603
1604
1605
1608
1609
161
1610
1611
1612
1613
1616
1617
1618
1619
162
1620
1628
1629
163
1630
1632
1635
164
1640
1641
1642
1643
1644
1645
1648
1649
165
1650
1654
1655
1656
166
1660
1661
1662
1663
1664
1665
1666
1667
167
1670
1672
168
1680
1681
1682
1683
1684
1689
169
1690
1695
1696
1697
1698
1699
17
170
1700
1701
1702
1703
1704
1705
1706
1707
1708
1709
171
1710
1711
1712
1713
1714
1715
1716
1717
1718
1719
172
1720
1721
1722
1723
1724
1725
1726
1727
1728
1729
173
1730
1731
1732
1733
1734
1735
1736
1737
1738
1739
174
1740
1741
1742
1743
1744
1745
1746
1747
1748
1749
175
1750
1751
1752
1753
1754
1755
1756
1757
1758
1759
176
1760
1761
1762
1763
1764
1765
1766
1767
1768
1769
177
1770
1771
1772
1773
1774
1775
1776
1777
1778
1779
178
1780
1781
1782
1783
1784
1785
1786
1787
1788
1789
179
1790
1791
1792
1793
1794
1795
1796
1797
1798
1799
18
180
1800
1801
1802
1803
1804
1805
1806
1807
1808
1809
181
1810
1811
1812
1813
1814
1815
1816
1817
1818
1819
182
1820
1821
1822
1823
1824
1825
1826
1827
1828
1829
183
1830
1831
1832
1833
1834
1835
1836
1837
1838
1839
184
1840
1841
1842
1843
1844
1845
1846
1847
1848
1849
185
1850
1851
1852
1853
1854
1855
1856
1857
1858
1859
186
1860
1861
1862
1863
1864
1865
1866
1867
1868
1869
187
1870
1871
1872
1873
1874
1875
1876
1877
1878
1879
188
1880
1881
1882
1883
1884
1885
1886
1887
1888
1889
189
1890
1891
1892
1893
1894
1895
1896
1897
1898
1899
19
190
1900
1901
1902
1903
1904
1905
1906
1907
1908
1909
191
1910
1911
1912
1913
1914
1915
1916
1917
1918
1919
192
1920
1921
1922
1923
1924
1925
1926
1927
1928
1929
193
1930
1931
1932
1933
1934
1935
1936
1937
1938
1939
194
1940
1941
1942
1943
1944
1945
1946
1947
1948
1949
195
1950
1951
1952
1953
1954
1955
1956
1957
1958
1959
196
1960
1961
1962
1963
1964
1965
1966
1967
1968
1969
197
1970
1971
1972
1973
1974
1975
1976
1977
1978
1979
198
1980
1981
1982
1983
1984
1985
1986
1987
1988
1989
199
1990
1991
1992
1993
1994
1995
1996
1997
1998
1999
1a
1b
1c
1d
1e
1f
1g
1h
1i
1j
1k
1l
1m
1n
1o
1p
1q
1r
1s
1t
1u
1v
1w
1x
1y
1z
2
20
200
2000
2001
2002
2003
2004
2005
2006
2007
2008
2009
201
2010
2011
2012
2013
2014
2015
2016
2017
2018
2019
202
2020
2021
2022
203
2030
204
205
206
207
208
209
21
210
211
212
213
214
215
216
217
218
219
22
220
2200
221
222
223
2231
224
225
226
227
228
229
23
230
231
232
233
234
235
236
237
238
239
24
240
241
242
243
244
245
246
247
248
249
25
250
2500
251
252
253
254
255
256
257
258
259
26
260
261
262
263
264
265
266
267
268
269
27
270
271
272
273
274
275
276
277
278
279
28
280
281
282
283
284
285
286
287
288
289
29
290
291
292
293
294
295
296
297
298
299
2a
2b
2c
2d
2e
2f
2g
2h
2i
2j
2k
2l
2m
2n
2o
2p
2q
2r
2s
2t
2u
2v
2w
2x
2y
2z
3
30
300
3000
301
302
303
303140
304
305
306
307
3075
308
309
31
310
311
312
313
314
315
316
3166
317
318
319
32
320
321
322
323
324
325
326
327
328
329
33
330
331
332
333
334
335
336
337
338
339
34
340
341
342
343
344
345
346
347
3478
348
349
35
350
3500
351
352
353
354
355
3554
356
357
358
359
36
360
361
362
363
364
365
366
367
368
369
37
370
371
372
373
374
375
376
377
378
379
38
380
381
382
383
384
385
386
387
388
389
39
390
391
392
3925
393
394
395
396
397
398
399
3a
3b
3c
3d
3e
3f
3g
3h
3i
3j
3k
3l
3m
3n
3o
3p
3q
3r
3s
3t
3u
3v
3w
3x
3y
3z
4
40
400
4000
401
402
403
404
405
406
407
408
409
41
410
411
412
413
414
415
416
417
418
419
42
420
421
4217
422
423
424
425
426
427
428
429
43
430
431
432
433
434
4344
435
436
437
438
439
44
440
441
442
443
444
445
446
4466
447
448
449
45
450
451
452
453
454
4545
455
456
457
458
459
46
460
461
462
463
464
465
466
467
468
469
47
470
471
472
473
474
475
476
477
478
479
48
480
481
482
483
484
485
486
487
488
489
49
490
491
492
493
494
495
496
497
498
499
4a
4b
4c
4d
4e
4f
4g
4h
4i
4j
4k
4l
4m
4n
4o
4p
4q
4r
4s
4t
4u
4v
4w
4x
4y
4z
5
50
500
5000
501
502
503
5032286
504
505
506
507
508
509
51
510
511
512
513
514
515
516
517
518
519
52
520
521
522
523
524
525
526
527
528
529
53
530
531
532
534
535
536
537
538
539
54
540
541
542
543
544
545
546
547
548
549
55
550
551
552
553
554
555
556
557
558
559
56
560
561
562
563
564
565
566
567
568
57
570
571
572
574
575
576
577
58
580
581
582
584
585
586
587
588
589
59
590
591
592
593
595
596
598
5a
5b
5c
5d
5e
5f
5g
5h
5i
5j
5k
5l
5m
5n
5o
5p
5q
5r
5s
5t
5u
5v
5w
5x
5y
5z
6
60
600
6000
601
602
603
604
605
606
607
608
6084
609
61
610
611
612
614
615
616
617
618
619
62
620
622
623
624
625
627
628
629
63
630
631
632
633
634
635
636
637
638
639
64
640
641
642
644
645
648
649
65
650
651
653
654
656
658
66
660
661
664
665
667
67
670
671
672
674
675
68
680
684
685
686044
686046
688
69
690
690155
691
692
693
696
699
6a
6b
6c
6d
6e
6f
6g
6h
6i
6j
6k
6l
6m
6n
6o
6p
6q
6r
6s
6t
6u
6v
6w
6x
6y
6z
7
70
700
7000
702
703
704
71
712
72
720
728
73
735
736
737
74
742
744
747
75
750
7501
752
757
76
760
766
768
7688
77
770
78
780
784
79
793756
7a
7b
7c
7d
7e
7f
7g
7h
7i
7j
7k
7l
7m
7n
7o
7p
7q
7r
7s
7t
7u
7v
7w
7x
7y
7z
8
80
800
8000
804
81
810
816
82
820
8243
8258
83
830
832
834
84
840
842
8459
85
850
85051
85120
85270
85859
86
860
861
862
863
864
868
87
870
87317
87444
87691
88
880
88185
89
896
8a
8b
8c
8d
8e
8f
8g
8h
8i
8j
8k
8l
8m
8n
8o
8p
8q
8r
8s
8t
8u
8v
8w
8x
8y
8z
9
90
900
907
91
911
91608
92
922
925
93
930
94
944
95
950
951
9524
9533
95382
96
960
9613
9614
963
966
97
975
978
98
980
98443
985
99
990
9965
999
9a
9b
9c
9d
9e
9f
9g
9h
9i
9j
9k
9l
9m
9n
9o
9p
9q
9r
9s
9t
9u
9v
9w
9x
9y
9z
:
;
<
=
>
?
@
[
[CLS]
[MASK]
[PAD]
[SEP]
[UNK]
\
]
^
_
`
a
a0
a1
a2
a3
a4
a5
a6
a7
a8
a9
aa
ab
abc
abi
about
abu
ac
academia
academic
academy
accessed
act
acta
action
ad
adam
administration
ae
af
affairs
afghanistan
africa
african
after
ag
against
age
agency
agriculture
ah
ai
air
airbus
airlines
airport
aj
ak
akademik
al
alan
albania
albanian
albert
album
aleph
alexander
alfred
ali
alice
all
alle
allen
alpha
alphabet
als
also
alyga
am
amazon
america
american
among
amsterdam
an
analysis
ancient
and
andre
andrew
angeles
angle
ankara
ann
anna
annual
anthony
antonio
ao
ap
api
apple
applied
apps
april
aq
ar
arab
arccos
archaeological
archaeology
archinform
architecture
archive
archives
arcsin
arctg
are
area
areas
armenia
armenian
armenians
army
around
art
arthur
article
articles
artist
artists
arts
as
asia
asian
asp
aspx
assembly
associated
association
astronomical
astronomy
at
atlas
atomic
au
auf
august
aus
ausgewahlten
australia
australian
austria
aut
author
authority
autogenerated
av
aw
award
awards
ax
ay
az
azerbaijan
azeri
azərbaycan
b
b0
b1
b2
b3
b4
b5
b6
b7
b8
b9
ba
back
bad
baden
band
bank
bar
barbara
barcelona
base
based
bash
bashenc
bashgazet
bashinform
bashkortostan
bashstat
basic
bayerischen
bayern
bb
bbc
bc
bd
be
been
before
begin
bei
berkeley
berlin
bernard
best
beta
between
bevolkerung
bf
bg
bh
bi
bibcode
bibliographisches
bibliotheque
big
billboard
bio
biographical
biography
biology
bir
bird
birds
bis
bitcoin
bj
bk
bl
black
blackwell
blk
blog
bloomberg
blue
bm
bn
bnf
bo
board
body
boeing
book
books
boston
bp
bq
br
bridge
brief
brill
britain
britannica
british
brockhaus
bromus
brown
bruce
bs
bt
bu
budapest
building
bul
bulletin
bureau
business
but
bv
bw
bx
by
bz
c
c0
c1
c2
c3
c4
c5
c6
c7
c8
c9
ca
california
cambridge
can
canada
canadian
capital
carl
carolina
case
cases
catalog
catalogue
caucasus
cb
cc
ccl
cd
cdot
cdots
ce
cedsci
celentano
cell
census
center
central
centre
centuries
century
ceske
cesky
cf
cg
ch
change
channel
chapter
charles
chart
chelstat
chemical
chemistry
chess
chicago
children
china
chinese
chris
christian
christopher
chronology
church
ci
cia
cinema
circ
cite
cities
city
civil
civilization
cj
ck
cl
class
classical
classification
climate
club
cm
cn
cnn
co
code
codes
cold
collection
college
collins
colon
color
columbia
com
commission
committee
common
community
companion
company
complete
component
computer
comune
con
conference
congress
connect
constitution
contemporary
content
control
coplen
corporation
cos
council
countries
country
county
court
cp
cq
cr
critical
cs
csu
ct
ctg
cu
cultural
culture
cup
current
cv
cw
cx
cy
cz
czech
d
d0
d1
d2
d3
d4
d5
d6
d7
d8
d9
da
daily
dance
daniel
dans
darwin
das
data
database
date
david
day
days
db
dc
dd
de
dead
death
december
default
del
delhi
della
delta
dem
democracy
demoscope
den
department
der
des
description
design
det
detail
details
deutsche
deutschen
deutschland
development
df
dfrac
dg
dh
di
dic
dictionary
dictionnaire
die
dies
digital
din
directory
dirk
discogs
discovery
disease
display
displaystyle
distribution
division
dj
dk
dl
dm
dmoz
dn
dna
do
doc
docs
documents
doi
don
donald
dots
dp
dq
dr
ds
dt
du
dublin
dur
during
dv
dvd
dw
dx
dy
dynasty
dz
e
e0
e1
e2
e3
e4
e5
e6
e7
e8
e9
ea
early
earth
east
eastern
eb
ec
economic
economics
economist
economy
ed
edinburgh
edited
edition
editions
editor
eds
edu
education
edward
ee
eesti
ef
eg
egypt
eh
ei
eic
eilerasciai
ein
eine
ej
ek
el
electronic
element
elements
elsevier
em
eminem
empire
en
enc
enciclopedia
enciklopedija
encyclopaedia
encyclopedia
encyclopædia
end
energy
eng
engineering
england
english
entertainment
environment
environmental
eo
ep
epic
eq
equations
equiv
er
era
erfullenden
eric
erich
ernst
es
espn
essays
est
estimates
et
ethnic
ethnologue
eu
europa
europe
european
ev
events
evidence
evolution
ew
ex
excel
ey
ez
f
f0
f1
f2
f3
f4
f5
f6
f7
f8
f9
fa
facebook
factbook
facts
falco
fall
false
family
famous
far
fb
fc
fd
fe
february
federal
federation
festival
ff
fg
fh
fi
fiction
fide
field
fifa
figshare
figures
file
files
film
final
financial
find
fire
first
five
fj
fk
fl
fm
fn
fo
food
football
for
forall
forbes
foreign
format
forum
fotki
found
foundation
four
fp
fq
fr
frac
france
francis
francois
frank
frankfurt
franklin
franz
free
freedom
french
friedrich
from
fs
ft
fu
full
func
fund
fur
future
fv
fw
fx
fy
fz
g
g0
g1
g2
g3
g4
g5
g6
g7
g8
g9
ga
gallery
game
games
gamma
gazeta
gazetteer
gb
gc
gd
ge
gemeinden
gemeindeverzeichnis
gender
general
genocide
geo
geographic
geography
geonames
geonet
georg
george
georgia
georgian
gera
german
germany
geschichte
get
gf
gg
gh
gi
gj
gk
gks
gl
glasgow
global
gm
gmbh
gn
gnd
go
god
gold
golden
good
google
goroda
gouv
gov
government
gp
gq
gr
grand
grave
great
greatest
greece
greek
green
greenwood
grin
group
groups
grove
gs
gt
gu
guardian
guide
gunter
gv
gw
gx
gy
gz
h
h0
h1
h2
h3
h4
h5
h6
h7
h8
h9
ha
had
hall
handbook
handbuch
hans
hardwell
harvard
has
hat
haus
have
hazu
hb
hc
hd
he
health
heart
helsinki
henry
her
heritage
hermann
hero
hf
hg
hh
hi
high
higher
hill
hindu
his
histoire
historia
historic
historical
history
hj
hk
hl
hm
hn
ho
hockey
hollywood
holocaust
home
homo
hopkins
house
how
hp
hq
hr
hrsg
hs
ht
htm
html
http
https
hu
human
hungary
hv
hw
hx
hy
hz
i
i0
i1
i2
i3
i4
i5
i6
i7
i8
i9
ia
iaaf
iana
iast
ib
ibm
ibn
ic
ica
ice
icon
id
identity
ie
iec
if
ig
ih
ii
iii
ij
ik
il
illustrated
im
images
imdb
img
impact
imperial
in
inc
independent
index
india
indian
indonesia
industry
ine
inet
info
information
infty
insee
instagram
institut
institute
int
intel
intelligence
international
internet
interview
into
introduction
io
ioc
ip
iq
ir
iran
iranian
iranica
iraq
is
isbn
islam
islamic
island
iso
israel
iss
issn
issue
istanbul
istat
istoriya
it
item
itemid
its
ittf
iu
iupac
iv
ivan
iw
ix
iy
iz
j
j0
j1
j2
j3
j4
j5
j6
j7
j8
j9
ja
jack
jackson
jakarta
james
jan
january
japan
japanese
jb
jc
jd
je
jean
jewish
jews
jf
jg
jh
ji
jj
jk
jl
jm
jn
jo
johann
john
johnson
jonathan
jones
jose
joseph
journal
jp
jpg
jq
jr
js
jsp
jt
ju
juan
july
june
jv
jw
jx
jy
jz
k
k0
k1
k2
k3
k4
k5
k6
k7
k8
k9
ka
karl
kazakhstan
kb
kc
kd
ke
key
kf
kg
kh
khan
ki
king
kingdom
kirche
kj
kk
kl
kloster
km
kn
knowledge
ko
kosovo
kp
kq
kr
krebs
kremlin
ks
kt
ku
kultur
kultura
kunst
kv
kw
kx
ky
kz
l
l0
l1
l2
l3
l4
l5
l6
l7
l8
l9
la
lake
lambda
land
landesamt
lang
language
languages
largest
las
last
late
latin
latvijas
launch
launches
law
lb
lc
ld
ldots
le
league
leben
lee
left
leiden
leipzig
lenta
leqslant
les
let
letters
lewis
lexikon
lf
lg
lh
li
lib
library
libris
lietuvos
life
light
like
lim
limited
limits
line
link
list
literary
literature
lito
little
live
lives
living
lj
ljubljana
lk
ll
lm
ln
lo
local
log
london
long
lookup
los
lost
louis
love
lp
lq
lr
ls
lt
ltd
lu
lukits
lundy
lv
lw
lx
ly
lyga
lz
m
m0
m1
m2
m3
m4
m5
m6
m7
m8
m9
ma
machine
macmillan
made
madrid
magazine
magyar
mai
mail
main
major
making
malta
man
management
many
map
maps
march
mare
maria
marie
marine
mark
market
mars
marshall
martin
mary
masklink
mass
master
math
mathbb
mathbf
mathematical
mathematics
mathrm
mathsf
max
may
mb
mc
mcdougal
mcdowell
md
me
med
medal
media
medical
medicine
medieval
member
members
memorial
memory
men
mercury
merkmalen
metro
mexico
mf
mg
mh
mi
miasta
michael
michel
michigan
microsoft
mid
middle
military
million
ministry
minor
mission
mit
mitglieder
mj
mk
ml
mm
mn
mo
mobile
mod
model
modern
moldova
molecular
moll
monde
montreal
monuments
moon
more
moscow
most
mountain
movement
movie
mp
mq
mr
ms
msh
mt
mtv
mu
muhammad
mun
munchen
murray
museum
music
muslim
mv
mw
mx
my
mz
n
n0
n1
n2
n3
n4
n5
n6
n7
n8
n9
na
nach
nacional
nadal
name
names
narod
naroda
nasa
nation
national
nationale
nations
natural
nature
nb
nbsp
nc
nd
ne
near
neq
net
network
neue
new
news
newsru
nf
ng
nh
ni
nicholas
night
nizami
nj
nk
nkp
nl
nm
nn
no
nobel
nobeliat
node
non
norman
north
northern
not
note
notes
nova
novel
november
novosti
now
np
nq
nr
ns
nsf
nt
nu
nuclear
num
number
nv
nw
nx
ny
nytimes
nz
o
o0
o1
o2
o3
o4
o5
o6
o7
o8
o9
oa
ob
obr
oc
ocean
och
ocimum
oclc
october
od
oe
of
off
office
official
og
oh
ohio
oi
oil
oj
ok
ol
old
olympic
om
omega
on
one
online
only
oo
op
open
opera
operatorname
oq
or
order
org
organization
oriental
orig
origin
original
origins
os
oscar
ot
other
ottoman
ou
oup
our
out
ov
over
overview
ow
ox
oxford
oy
oz
p
p0
p1
p2
p3
p4
p5
p6
p7
p8
p9
pa
pac
pacific
padleft
page
pages
palace
palgrave
pamyat
papers
par
para
param
paris
park
part
partial
party
past
paul
paulo
pb
pc
pd
pdf
pe
peace
peerage
penguin
people
peoples
per
period
persian
person
personen
persons
perspective
peter
pf
pg
ph
phi
philosophical
philosophy
photo
php
phys
physical
physics
pi
pierre
pj
pk
pl
place
places
planet
planetary
plant
plants
play
player
players
plus
pm
pmatrix
pmid
pn
png
po
poet
poetry
pokemon
policy
political
politics
politik
politisch
pop
popular
population
populations
por
port
portal
portrait
post
power
pp
pq
pr
practice
praha
present
president
presidents
press
prime
prince
princeton
print
prize
pro
problem
problems
proceedings
production
produkte
profile
program
project
province
ps
pt
pu
pub
public
publication
publications
published
publishers
publishing
pure
pv
pw
px
py
pz
q
q0
q1
q2
q3
q4
q5
q6
q7
q8
q9
qa
qb
qc
qd
qe
qf
qg
qh
qi
qj
qk
ql
qm
qn
qo
qp
qq
qquad
qr
qs
qt
qu
quad
quartal
que
queen
quot
qv
qw
qx
qy
qz
r
r0
r1
r2
r3
r4
r5
r6
r7
r8
r9
ra
radio
rafael
rangle
ranking
rankings
rar
ray
rb
rc
rd
re
read
real
record
records
red
ref
reference
references
regensburg
region
regional
regions
regnum
reich
relations
release
religion
religious
rep
report
reports
repubblica
republic
res
research
resources
results
retrieved
reuters
review
reviews
revolution
rf
rg
rh
rho
ri
richard
ridero
riga
right
rightarrow
rights
rio
ripe
rise
river
rj
rk
rkdartists
rl
rm
rn
ro
road
robert
rock
rom
roma
roman
romania
rome
rosstat
rostov
routledge
royal
rp
rq
rr
rs
rsssf
rt
ru
rules
rus
russia
russian
rv
rw
rx
rxi
ry
rz
s
s0
s1
s2
s3
s4
s5
s6
s7
s8
s9
sa
saint
san
santa
sao
saw
sb
sc
school
sci
science
sciences
scientific
scientists
scott
sd
sdl
se
sea
search
sec
second
section
security
see
selbstandigen
selected
september
series
server
service
services
set
sex
sf
sg
sh
shah
shakespeare
shk
short
show
shtml
si
simon
sin
since
sir
sister
site
sites
size
sj
sk
skype
sl
sm
small
smith
sn
snac
so
social
society
software
sok
solanum
solar
som
some
son
song
sons
sony
source
south
southern
soviet
sp
space
span
special
species
spokane
sport
sports
springer
sq
sqrt
sr
ss
ssp
st
stadt
stalin
stanbul
standard
stanford
star
stars
stat
state
states
statistical
statistics
statistik
statistikportal
status
statya
stephen
steven
stockholm
stone
stories
story
street
structure
stub
studies
study
stuttgart
style
su
sub
sultan
sum
summer
sun
sur
survey
sv
sw
sweden
swedish
sx
sy
sydney
syria
system
systems
sz
t
t0
t1
t2
t3
t4
t5
t6
t7
t8
t9
ta
tab
table
tables
tablesl
tarihi
taylor
tb
tbilisi
tc
td
te
team
technical
technology
telegraph
television
template
tennis
term
texas
text
tf
tg
th
than
that
the
theatre
their
theory
there
these
theta
they
third
this
thomas
thought
three
through
thuringen
thuringer
ti
tibet
till
time
times
title
tj
tk
tl
tm
tn
to
today
tom
tools
top
topic
toronto
total
tour
tourism
town
tp
tq
tr
trade
tradition
traduit
trans
translated
translatedate
translation
travel
true
ts
tt
tu
turk
turkey
turkic
turkish
turkiye
tv
tw
twitter
two
tx
txt
ty
type
tz
tzdb
u
u0
u1
u2
u3
u4
u5
u6
u7
u8
u9
ua
ub
uber
uc
ud
ue
uf
ufa
ug
uh
ui
uj
uk
ukraine
ul
um
un
und
under
une
unesco
union
united
universal
universitat
universities
university
unspecified
uo
up
uploads
uq
ur
ural
urban
url
us
usa
use
user
ut
utc
uu
uv
uw
ux
uy
uz
v
v0
v1
v2
v3
v4
v5
v6
v7
v8
v9
va
vaga
vald
valley
van
varepsilon
varnothing
varphi
vb
vc
vd
ve
vec
verlag
version
verwaltungsgemeinschaften
vf
vg
vh
vi
viaf
victor
victoria
video
vietnam
view
vii
viii
village
vilnius
visa
vj
vk
vl
vladimir
vm
vn
vo
vol
volume
vom
von
vp
vq
vr
vs
vt
vu
vv
vw
vx
vy
vz
w
w0
w1
w2
w3
w4
w5
w6
w7
w8
w9
wa
wall
walter
war
wars
warszawa
was
washington
watch
water
way
wayback
wb
wc
wcm
wd
we
weather
web
webcitation
weber
website
week
weekly
weights
were
west
western
wf
wg
wh
what
when
where
which
white
who
why
wi
wien
wiesbaden
wieser
wiki
wikileaks
wikimapia
wikipedia
wiley
wilhelm
will
william
williams
wilson
win
windows
winter
wissen
with
wj
wk
wl
wm
wmflabs
wn
wo
wolfgang
woman
women
work
works
world
wp
wps
wq
wr
ws
wt
wu
wv
ww
www
wx
wy
wz
x
x0
x1
x2
x3
x4
x5
x6
x7
x8
x9
xa
xb
xc
xd
xe
xf
xg
xh
xi
xii
xiii
xiv
xix
xj
xk
xl
xls
xlsx
xm
xml
xn
xo
xp
xq
xr
xs
xt
xu
xv
xvi
xvii
xviii
xw
xx
xxi
xxii
xxiii
xxiv
xxv
xxvi
xxvii
xy
xz
y
y0
y1
y2
y3
y4
y5
y6
y7
y8
y9
ya
yale
yandex
yb
yc
yd
ye
year
years
yf
yg
yh
yi
yj
yk
yl
ym
yn
yo
york
you
young
your
youtube
yp
yq
yr
ys
yt
yu
yv
yw
yx
yy
yz
z
z0
z1
z2
z3
z4
z5
z6
z7
z8
z9
za
zb
zc
zd
ze
zealand
zeitung
zf
zg
zh
zi
zj
zk
zl
zm
zn
zo
zone
zones
zp
zq
zr
zs
zt
zu
zum
zur
zv
zw
zx
zy
zz
{
|
}
~
£
¥
§
¨
©
«
¬
®
¯
°
±
²
³
´
·
¹
º
»
¼
½
¿
×
ß
æ
ð
÷
ø
þ
đ
ħ
ı
ł
ŋ
œ
ƣ
ǝ
ɐ
ɑ
ɒ
ɔ
ɕ
ə
ɛ
ɡ
ɣ
ɦ
ɨ
ɪ
ɫ
ɲ
ɴ
ɵ
ɹ
ɾ
ʁ
ʂ
ʃ
ʊ
ʌ
ʏ
ʑ
ʒ
ʔ
ʰ
ʱ
ʲ
ʷ
ʹ
ʻ
ʼ
ʾ
ʿ
ˈ
ˌ
ː
˙
α
β
γ
δ
ε
ζ
η
θ
ι
κ
λ
μ
ν
ξ
ο
π
ρ
ς
σ
τ
της
υ
φ
χ
ψ
ω
ϑ
ϕ
а
ааи
абаев
абаи
аббас
аббат
аббатлығы
абд
абдразаҡов
абдрахман
абдрахманов
абдул
абдулла
абдуллин
абдуллина
абдуллович
абдулхаҡ
абель
аблаи
аборт
абрам
абрамов
абрамович
абрар
абруи
абруилы
абруиы
абруиын
абсалямова
абсолют
абстракт
абу
абхаз
абхазия
абыҙ
абҙан
абҙаҡ
авангард
авар
авария
аварҙар
авг
август
августа
августин
августта
августында
авгусы
авгусына
авгусынан
авгусында
авгусындағы
авгусҡа
авиации
авиация
авиацияһы
авив
авраам
аврелии
аврора
австралия
австралияла
австралияның
австрии
австрииская
австрия
австрияла
австрияның
австрияға
австро
авт
автобиографик
автобиография
автобус
автобустар
автобустары
автобусы
автовокзал
автомат
автоматик
автоматлаштырылған
автоматлаштырыу
автомобилдәр
автомобилист
автомобиль
автоном
автономии
автономия
автономиялы
автономияһы
автономияһын
автономияһының
автономлы
автономного
автономнои
автор
автора
автореф
автореферат
авторитар
авторлыҡ
авторов
авторское
авторы
авторҙ
авторҙар
авторҙары
авторҙарының
авторҙарҙың
авторҙаш
авторҙашлыҡта
авторҙашы
авторҙың
автотранспорт
агата
агент
агентлығы
агентлығының
агентства
агентство
агентством
агенты
агитация
агиш
агломерацияһы
аграр
агрегат
агрессив
агроном
агрономия
агрономы
агросәнәғәт
ад
ада
адам
адвокат
административ
административно
административных
администрации
администрация
администрацияһы
адмирал
адмиралы
адольф
адрес
адресы
адриан
адриано
адриатик
адъютанты
адыгеи
аждаһа
азамат
азаматов
азат
азатлығы
азатлығын
азатлыҡ
азбука
азербаиджан
азербаиджана
азербаиджане
азербаиджанская
азербаиджанскии
азербаиджанского
азербаиджанскои
азии
азия
азияла
азиялағы
азиянан
азияны
азияның
азияға
азнабаев
азнагулов
азов
азот
аи
аибулат
аивазовскии
аигөл
аида
аилыҡ
аинур
аират
аирес
аирис
аиы
аиына
аиынан
аиында
аиының
аиыра
аиыралар
аиырма
аиырмалар
аиырмалы
аиырмалығы
аиырмаһы
аиырыла
аиырылалар
аиырылмаи
аиырылып
аиырылыша
аиырылған
аиырылғыһыҙ
аиырым
аиырып
аиырырға
аиырыу
аиырыуса
аиырыусы
аиыт
аиыу
аиыҡ
аиға
аиғыр
аиҙа
аиҙан
аиҙар
аиҙарында
аиҙарҙа
аиҙың
аиҡанлы
аиһылыу
ак
акад
академигы
академии
академик
академика
академиктар
академическии
академия
академияла
академияны
академияның
академияға
академияһы
академияһын
академияһына
академияһында
академияһының
академкнига
акварель
акимов
аккад
акманов
акмуллы
аксаков
аксакова
аксенов
аксиомалар
акт
актер
актерлыҡ
актеры
актерҙар
актерҙары
актерҙың
актив
актриса
актрисаның
актрисаһы
акттар
акттары
актуаль
актуальные
акты
акустик
акушер
акушерлыҡ
акционер
акционерҙар
акция
акциялар
акциялары
акцияһы
ал
ала
алабуға
алабыҙ
алалар
алам
алан
алания
аласаҡ
алатау
алатырь
алағуз
алағуян
алаһығыҙ
алб
албан
албандар
албания
албанияла
албанияның
алгебра
алгебраик
алгебраның
алгоритм
алгоритмы
алда
алдан
алдар
алдараҡ
алдағы
алды
алдылар
алдым
алдына
алдынан
алдында
алдындағы
алдынғы
алдынғыһы
алеи
александр
александра
александрия
александров
александрова
александрович
александровка
александровна
александровскии
александру
алексеев
алексеева
алексеевич
алексеевка
алексеевна
алексеи
алексея
ален
алена
алетеия
алехин
алжир
али
алиев
алиева
алик
алина
алиса
алишер
алиһә
алиһәһе
алкин
алкоголь
алла
аллааһү
аллабирҙе
аллалар
алланың
аллаяров
аллаға
аллағыуат
аллаһ
аллаһтан
аллаһтың
аллаһы
аллаһҡа
аллен
аллея
аллеяһы
аллеяһында
аллы
алма
алмаз
алмаи
алмаиым
алмаиынса
алмаиҙар
алманы
алмас
алматы
алматыла
алмау
алмауы
алмаш
алмаштыра
алмаштыралар
алмаштырыла
алмаштырылған
алмаштырып
алмаштырырға
алмаштырыу
алмаштырған
алмашына
алмашыныу
алмашыныуы
алмашыу
алмашҡа
алмаған
алмағанда
алмағас
алмаҫ
алмаҫлыҡ
алмаһа
алонсо
алпамыша
алпауыт
алтаи
алтарь
алтмыш
алты
алтын
алтынсы
алтынға
алф
алфавит
алфавиты
алфавитын
алфавитына
алфавитының
алферов
алым
алымдар
алымдары
алымдарын
алымы
алына
алынды
алынмаи
алынмаған
алынып
алыныуы
алынған
алынғандан
алынғас
алып
алыр
алырлыҡ
алырға
алыу
алыусы
алыусылар
алыуы
алыуын
алыуына
алыуға
алыуҙа
алыуҙан
алыуҙар
алыуҙары
алыуҙы
алыуҙың
алыш
алыша
алышта
алыштан
алыштар
алыштарҙа
алышты
алыштыра
алыштырғыһыҙ
алыштың
алышы
алышында
алышыу
алышҡа
алығыҙ
алыҫ
алыҫлығы
алыҫлыҡ
алыҫлыҡта
алыҫлыҡтағы
алыҫлыҡҡа
алыҫта
алыҫтан
алыҫыраҡ
алыҫҡа
аль
альберт
альбина
альбом
альбомы
альбомын
альбрехт
альманах
альп
альпина
альт
альтернатив
альфа
альфред
альцгеимер
альянс
алюмин
алюминии
алға
алған
алғанда
алғандан
алғандар
алғаны
алғанға
алғас
алғы
алһа
алһаң
алһын
алһыу
ам
аман
аманат
аманаты
амангилде
америка
америкала
америкалағы
американ
американдар
американың
америкаға
америкаһы
америки
амет
аминев
аминов
амир
аммиак
амнистия
амстердам
амударъя
амур
амуры
амфитеатр
ан
ана
анализ
анализа
анализдың
анализлау
анализы
аналитик
аналитика
аналитическии
аналогы
анархия
анастасия
анатолии
анатолия
анатольевич
анатольевна
анатомик
анатомия
анатомияһы
ангел
англ
англиискии
англииского
англииском
англия
англияла
англияның
англияға
ангола
анд
андерсен
анджелес
андре
андреа
андреев
андреева
андреевич
андреевка
андреевна
андреи
андрея
андрианов
андропов
ани
анимация
анкара
анна
анны
аноним
анри
ансамблдәре
ансамбле
ансамблен
ансамблендә
ансамбленең
ансамбленә
ансамбль
ансамбля
ансар
ант
антанта
антарктида
антик
антиох
античная
античнои
антология
антологияһы
антон
антонии
антонина
антонио
антонов
антонова
антонович
антропологии
антропологик
антропология
антропонимдан
антуан
анхальт
аныҡ
аныҡлыҡ
ао
ап
апаи
апаһы
аполлон
апостол
апостолдар
аппарат
аппараттары
аппараты
аппаратын
аппаратында
апр
апрелгә
апрелдә
апрелдән
апреле
апрелендә
апрелендәге
апреленә
апреленән
апрель
апреля
апшерон
ар
ара
арабских
арабского
аракс
арал
арала
аралары
араларында
аралаш
аралаша
аралашсы
аралашып
аралашыу
аралашҡан
аралбаева
аралбаи
аралығында
аралыҡ
аралыҡта
арам
араны
арарат
арауығы
арауығында
арауыҡ
арауыҡта
арауыҡты
арауыҡтың
арафат
араға
араҡы
араһы
араһын
араһына
араһынан
араһында
араһындағы
арба
арбитраж
аргентина
аргентинала
аргентинаның
аргументы
аргун
ареалы
арена
аренала
аренаһы
арзамас
арзан
арии
аристотель
арифметик
арифметика
арка
аркадии
аркадьевич
аркалар
аркалы
арктик
арктика
аркуль
армении
армения
армии
армия
армияла
армиялар
армиялары
армиянан
армияны
армияның
армияға
армияһы
армияһын
армияһына
армияһында
армияһының
армян
армянская
армянского
армянскои
арнаи
арнала
арналған
арнап
арнольд
арпа
арсеньев
арскии
арт
арта
артабан
артабанғы
артамонов
артеле
артем
артериаль
артиллерист
артиллерия
артиллерияһы
артист
артистар
артистары
артистка
артисткаһы
артистың
артисы
артлы
артмаи
артта
арттан
арттыра
арттырыла
арттырып
арттырырға
арттырыу
арттырыуға
артур
арты
артына
артынан
артында
артындағы
артынса
артып
артыу
артыуы
артыуына
артыш
артығыраҡ
артыҡ
артҡа
артҡан
артҡы
арх
архаик
архангел
архангель
архангельск
архангельскии
археолог
археологии
археологик
археологическая
археологические
археологическии
археология
археологияһы
археологтар
археологы
архив
архива
архивированная
архивировано
архивланған
архивная
архивов
архивы
архивында
архиепискобы
архиепископ
архиереи
архимандрит
архимед
архипелаг
архипелагы
архитектор
архитекторы
архитекторҙар
архитекторҙары
архитектура
архитектураһы
архитектураһында
архитектураһының
архитектурныи
архитектуры
аршин
аръяғы
аръяғына
аръяғында
аръяғындағы
аръяғының
ары
арыи
арыраҡ
арыу
арыш
арыҫлан
арыҫланбәк
арыҫланов
арғаяш
арғужа
арҙаҡлы
арҡа
арҡаиым
арҡала
арҡан
арҡауыл
арҡаһы
арҡаһында
арҡыры
ас
аса
асад
асалар
асанбаев
асеева
асия
аслыҡ
аслыҡтан
аспект
аспекты
аспирант
аспирантура
аспирантурала
аспирантураны
аспирантураға
аспирантураһын
аспирантураһына
аспирантураһында
аспиранты
ассамблея
ассамблеяһы
ассирии
ассирия
ассистент
ассистенты
ассоциации
ассоциация
ассоциацияһы
ассоциацияһына
ассоциацияһының
асср
аст
астана
астероид
астероидтар
астрель
астрид
астроном
астрономдар
астрономик
астрономия
астрономы
асты
асфальт
асфандияров
асфатуллин
асы
асыла
асылгужин
асылда
асылды
асылы
асылыкүл
асылын
асылып
асылыу
асылыуы
асылған
асылғандан
асылғас
асып
асырға
асыу
асыусы
асыуы
асыуға
асыуҙа
асыш
асыштар
асыштары
асышы
асыҡ
асыҡлаи
асыҡлана
асыҡланмаған
асыҡланыуынса
асыҡланған
асыҡлап
асыҡларға
асыҡлау
асыҡлаған
асыҡлыҡ
асыҡтан
асҡан
асҡар
асҡын
асҡыс
асҡысы
ат
ата
атаи
атаисал
атаиым
атаиҙар
атала
аталалар
аталары
аталып
аталған
атама
атамалар
атамалары
атамаларын
атамалы
атаман
атаманы
атаманың
атамаһы
атамаһын
атамаһына
атамаһынан
атамаһының
атаны
атап
атарға
ататөрк
атау
атаған
атағандар
атаҡлы
атаһы
атаһын
атаһына
атаһынан
атаһының
атд
атиетәр
атлант
атлантик
атлап
атлас
атласы
атлетика
атлеты
атлы
атлылар
атлылары
атмосфера
атмосфераның
атмосфераһы
атнабаев
атом
атта
аттар
аттары
аттарын
аттарҙы
аттарҙың
аттестация
аттила
атты
аттың
аты
атыла
атылып
атылған
атын
атып
атырға
атыу
атыусы
атыуы
атыш
атҡа
атҡан
атҡаҙанған
ау
ауданы
аудио
аудитория
аулы
ауыл
ауылда
ауылдан
ауылдар
ауылдары
ауылдарын
ауылдарына
ауылдарынан
ауылдарында
ауылдарының
ауылдарға
ауылдарҙа
ауылдарҙан
ауылдарҙы
ауылдарҙың
ауылдаштар
ауылдаштары
ауылдағы
ауылды
ауылдың
ауылы
ауылым
ауылын
ауылына
ауылынан
ауылында
ауылындағы
ауылының
ауылға
ауыр
ауырлығы
ауырлығын
ауырлыҡ
ауырлыҡтар
ауырлыҡтағы
ауыртыу
ауырыи
ауырып
ауырыраҡ
ауырыу
ауырыуы
ауырыуын
ауырыуынан
ауырыуға
ауырыуҙан
ауырыуҙар
ауырыуҙары
ауырыуҙарын
ауырыуҙарға
ауырыуҙарҙан
ауырыуҙарҙы
ауырыуҙарҙың
ауырыуҙы
ауырыуҙың
ауырыған
ауырғазы
ауыш
ауышлығы
ауыҙ
ауыҙы
афанасии
афанасьев
афанасьевич
афзал
афина
афинала
африка
африкала
африкалағы
африканан
африканың
африкаға
африки
аффиксы
афған
афғанстан
афғанстанда
афғанстандың
афғанстанға
ах
ахмадиев
ахматова
ахмет
ахметов
ахметшин
ахтямов
ахун
ахыр
ахыры
ахырына
ахырында
ахырғы
ахырҙа
ачинск
аш
аша
ашаи
ашаиҙар
ашамлыҡ
ашап
ашар
ашарға
ашатыу
ашау
ашаған
ашлама
ашламалар
ашлыҡ
ашмаи
ашока
ашот
ашты
ашуғ
ашхабад
ашхана
ашшур
ашы
ашып
ашыра
ашырыла
ашырылмаи
ашырылған
ашырырға
ашырыу
ашырыуға
ашырыуҙа
ашырған
ашыу
ашыуы
ашығыс
ашҡа
ашҡаҙан
ашҡаҙар
аэродром
аэропорт
аэропорта
аэропорты
аэс
аюпов
аят
аяттан
аяуһыҙ
аяғы
аяғын
аяғына
аяҙ
аяҡ
аяҡлы
аяҡтары
аяҡҡа
аға
ағаи
ағалары
ағалы
ағартыу
ағас
ағаста
ағастан
ағастар
ағастары
ағастарҙы
ағастарҙың
ағасты
ағастың
ағасы
ағасҡа
ағаһы
ағаһының
ағза
ағзалар
ағзалары
ағзаларын
ағзаларына
ағзаларының
ағзалығына
ағзаһы
ағиҙел
ағиҙелгә
ағиҙелдең
ағыла
ағым
ағымдар
ағымдары
ағымдағы
ағымлы
ағымы
ағымын
ағымына
ағымында
ағымындағы
ағымының
ағып
ағыу
ағыулы
ағыҙыу
аҙ
аҙау
аҙағы
аҙағына
аҙағынан
аҙағынаса
аҙағында
аҙағындағы
аҙағыраҡ
аҙаҡ
аҙаҡтан
аҙаҡҡы
аҙна
аҙнабаев
аҙнаи
аҙналин
аҙналыҡ
аҙнанан
аҙнаның
аҙнаға
аҙнағол
аҙнаҡаи
аҙнаһына
аҙсылыҡ
аҙым
аҙыраҡ
аҙығы
аҙыҡ
аҙыҡты
аҙҙан
аҡ
аҡа
аҡбаш
аҡбулат
аҡбур
аҡбуҙат
аҡкүл
аҡкүлде
аҡлана
аҡманов
аҡмулла
аҡрынлап
аҡса
аҡсаи
аҡсалар
аҡсалата
аҡсаны
аҡсаның
аҡсарлаҡ
аҡсаға
аҡсаһы
аҡсаһын
аҡсаһына
аҡтаныш
аҡтар
аҡтарҙың
аҡтау
аҡташ
аҡтүбә
аҡш
аҡъяр
аҡыл
аҡылдан
аҡыллы
аҡылы
аҡылға
аҡҡан
аҡҡош
аҡһаҡ
аҡһаҡал
аҡһаҡалдар
аҡһыл
аҡһым
аҡһымдар
аҡһөиәктәр
аң
аңлаи
аңлаиышлы
аңлап
аңларға
аңлата
аңлаталар
аңлатма
аңлатмаи
аңлатмалар
аңлатмалы
аңлатмаһы
аңлатыла
аңлатып
аңлатырға
аңлатыу
аңлатҡан
аңлау
аңлашыла
аңлаған
аңлы
аңын
аҫ
аҫаба
аҫабалыҡ
аҫрау
аҫта
аҫтан
аҫтараҡ
аҫты
аҫтына
аҫтынан
аҫтында
аҫтындағы
аҫыл
аҫылмалы
аҫылғужа
аҫып
аҫҡа
аҫҡар
аҫҡы
б
ба
баба
бабаи
бабалар
бабалары
бабаларының
бабаһы
бабил
бабич
бабсаҡ
бабур
бабушка
бавария
баварская
багаутдинов
багратион
багуманов
бад
баден
баженов
база
базалары
базальт
базаһы
базаһын
базаһына
базаһында
базе
базилика
базиликаһы
баи
баигилде
баикал
баиков
баиконур
баилар
баилығы
баилығын
баилыҡ
баилыҡтарын
баимакскии
баимаҡ
баимов
баимырҙа
баимөхәмәтов
баиназар
баиназаров
баирам
баирамдар
баирамдары
баирамы
баирамын
баирамына
баирамында
баирамғол
баирамғолов
баирағы
баирағын
баираҡ
баираҡлы
баирон
баитаҡ
баитаҡҡа
баишев
баиым
баиымов
баиыта
баиыш
баиыҡ
баиыҡтырыу
баиғаҙы
баиғужа
баиҙар
баиҙың
баиҡы
баиҡыбаш
бакалавр
бакалавриат
бакалея
бакалинская
бакиров
бактериаль
бактериялар
бактрия
баку
бал
бала
балаково
балалар
балалары
балаларын
балаларына
балаларының
балаларға
балаларҙа
балаларҙы
балаларҙың
балалы
балалыҡ
балан
баланы
баланың
балауыҙ
балашов
балаға
балаҡатаи
балаҫ
балаһы
балаһын
балды
балерина
балет
балета
балетмеистер
балетмеистеры
балеты
балетында
балка
балкан
балкон
балл
баллада
баллы
балсыҡ
балсыҡлы
балсыҡтан
балта
балтас
балтик
балтика
балтырған
балы
балығы
балыҡ
балыҡлы
балыҡсы
балыҡсылар
балыҡсылыҡ
балыҡтар
балыҡтары
балыҡтарҙың
балыҡтың
балыҡҡа
балғалаҡ
балҡан
балҡанда
балҡар
бан
банан
банат
бангкок
бангладеш
банк
банка
банкир
банктар
банктың
банкы
банкының
банкыһы
баныу
баня
бар
бара
барабан
барак
баралар
баранов
барановскии
барбара
бардымского
барельеф
баренц
баритон
барлығы
барлығын
барлыҡ
барлыҡҡа
бармаи
бармаҡ
бармы
барнаул
барокко
барон
барс
барса
барселона
барсуков
бартольд
бары
барыбер
барыи
барыла
барылған
барын
барып
барыр
барырға
барыу
барыусы
барыусыһы
барыуы
барыуын
барыуҙы
барышы
барышын
барышында
барыҫ
барыһы
барыһын
барыһына
барыһынан
барған
барғанда
барғандар
барҙа
барҙы
барһа
бас
баскаков
баскетбол
басов
бассеин
бассеина
бассеиндары
бассеиндың
бассеины
бассеинына
бассеинынан
бассеинында
бассеинының
бассеинынң
басср
бастион
бата
батаиск
батальон
батальоны
батальонында
батальонының
батарея
батареяһы
батист
батуми
батша
батшабикә
батшабикәһе
батшалар
батшалары
батшалығы
батшалығын
батшалығына
батшалығында
батшалығының
батшалыҡ
батшаны
батшаның
батшаға
батшаһы
батшаһының
батыи
батып
батыр
батыра
батыргәрәи
батырлығы
батырлыҡ
батырлыҡтары
батырша
батыршин
батыры
батырҙар
батырҙарса
батырҙың
батҡан
батҡаҡ
бау
баулы
бауман
бауыр
бах
бахмут
бахреин
баш
башаҡ
башаҡтары
башгу
башинформ
башк
башкир
башкирии
башкирия
башкиров
башкирская
башкирские
башкирскии
башкирских
башкирско
башкирского
башкирское
башкирскои
башкирском
башкиры
башкирэнерго
башкнигоиздат
башкорт
башкортостан
башкортостана
башкортостане
башкортостанстат
башлаи
башлаиҙар
башлана
башланды
башланы
башланып
башланыр
башланыу
башланыуы
башланыуға
башланған
башланғанда
башланғандан
башланғанға
башланғас
башланғыс
башланғысы
башлап
башларға
башлау
башлаусы
башлауы
башлаған
башлағанда
башлағандан
башлағандар
башлағас
башлаһа
башлы
башлыса
башлығы
башлығының
башлыҡ
башлыҡтары
башлыҡтарының
башмағым
башнефть
башни
башня
башнялар
башнялары
башняның
башняһы
башревком
башреспублика
башта
баштан
баштараҡ
баштары
баштарында
башташ
баштағы
башы
башын
башына
башынан
башында
башындағы
башының
башҡ
башҡа
башҡалар
башҡалары
башҡаларға
башҡаларҙан
башҡаларҙы
башҡаларҙың
башҡалаһы
башҡара
башҡаралар
башҡарма
башҡарыла
башҡарылған
башҡарып
башҡарырға
башҡарыу
башҡарыусы
башҡарыусылар
башҡарыусыларҙың
башҡарыусыһы
башҡарыуы
башҡарыуында
башҡарған
башҡарғанда
башҡарҙы
башҡаса
башҡорт
башҡорто
башҡортостан
башҡортостанда
башҡортостандан
башҡортостандағы
башҡортостанды
башҡортостандың
башҡортостаны
башҡортостанға
башҡортса
башҡортсаға
башҡорттар
башҡорттары
башҡорттарынан
башҡорттарының
башҡорттарға
башҡорттарҙа
башҡорттарҙан
башҡорттарҙы
башҡорттарҙың
башҡорттоң
башҡортҡа
баязит
баязитов
баян
баянов
баянсы
баяр
бағана
бағаналар
бағдад
бағышлаи
бағышлана
бағышланған
бағышлап
бағышлаған
баҙар
баҙары
баҙарына
баҙарында
баҙарға
баҙарҙа
баҙраҡ
баҙы
баҡал
баҡалы
баҡса
баҡсала
баҡсалар
баҡсалары
баҡсасылыҡ
баҡсаға
баҡсаһараи
баҡсаһы
баҡсаһына
баҡсаһында
баҡы
баҡыи
баҡыла
баҡыр
баҡыға
баҫа
баҫма
баҫмала
баҫмалар
баҫмалары
баҫмаларында
баҫмаларҙа
баҫманың
баҫмаға
баҫмаһы
баҫмаһында
баҫмаһының
баҫтыра
баҫтырыла
баҫтырылып
баҫтырылған
баҫтырып
баҫтырырға
баҫтырыу
баҫтырыуға
баҫтырыуҙа
баҫтырған
баҫыла
баҫылып
баҫылған
баҫым
баҫымлы
баҫымы
баҫып
баҫырға
баҫыу
баҫыусылыҡ
баҫыуы
баҫҡан
баҫҡыс
баҫҡыслы
баҫҡыстар
баҫҡыстары
баҫҡысы
баһа
баһалаи
баһалана
баһаланған
баһалап
баһалар
баһалау
баһауетдин
баһауетдинов
баһаһы
баһаһын
баһрам
бб
ббк
бгму
бгпу
бгу
бдб
бдму
бдсо
бду
бе
без
безвозвратных
безопасности
безопасность
беи
беибарыҫ
беиегерәк
беиеи
беиек
беиеклеге
беиеклегендәге
беиеклек
беиеклеккә
беиеклекте
беиеклектә
беиеклектәге
беиеклектәре
беиеш
беиеү
беиеүе
беиеүсе
беиеүсеһе
беиеүҙәр
беиеүҙәре
беиеүҙәрен
беиҙең
беиә
бек
бекетов
бел
бела
беларус
беларуси
беларуская
беларусь
беларусі
белая
белгес
белгесе
белгестәр
белгестәре
белгестәрен
белгестәренең
белгестәрҙе
белгестәрҙең
белгород
белград
белградта
белгән
белгәндәр
белгәс
белдергән
белдерелә
белдереп
белдереү
белдереүенсә
белдерҙе
белдерә
белдерәләр
белем
белемгә
белемде
белемдең
белемдәр
белеме
белемен
белемле
белеп
белергә
белешмә
белешмәһе
белеү
белеүе
белеүсе
белмәгән
белмәи
белмәҫ
белов
белова
белого
белое
белои
белор
белорет
белорецк
белорецкии
белорус
белоруссии
белоруссия
белоруссияла
белоруссияның
белорустар
белые
белыи
бельгия
бельгияла
бельские
бельскии
беляев
беляков
белә
беләләр
беләм
бен
бенгал
бенджамин
бенедикт
бензин
бер
берг
бергман
бергә
бергәләп
бере
берег
береговая
берегу
березин
березина
березники
березовая
березовка
березовскии
берекмә
берекмәләре
берекмәһе
берекмәһендә
берекмәһенең
беренсе
беренсел
беренселеге
беренселегендә
беренселегенең
беренселек
беренселәрҙән
беренсенең
беренсенән
беренсеһе
береһе
береһен
береһендә
береһенең
береһенә
береһенән
берия
беркетелгән
беркетелә
беркетеп
берлеге
берлеген
берлегенең
берлегенә
берлек
берлектә
берлектәге
берлин
берлина
берлинда
берлинды
берлинская
берлинға
берлиоз
берләшеп
берләшеү
берләшеүе
берләшкән
берләшмә
берләшмәләр
берләшмәләре
берләшмәләрҙең
берләшмәһе
берләшмәһендә
берләшмәһенең
берләшмәһенә
берләштергән
берләштерелгән
берләштерелә
берләштереп
берләштерергә
берләштереү
берләштереүгә
берләштереүсе
берләштерә
берләшә
берн
бернар
бернард
берҙә
берҙәи
берҙәм
берҙәмлеге
берҙәмлеген
берҙәмлек
берҙән
берҙәре
берҙәрендә
берәи
берәмеге
берәмеген
берәмегенә
берәмек
берәмеккә
берәмектәр
берәмектәре
берәмектәренең
берәмектәрҙең
берәр
берәү
берәүҙәр
беседа
беседы
бессарабия
бессмертныи
бесәи
бесәиҙәр
бесән
бесәнлектәр
бета
бетон
бетондан
бетховен
бешеп
бешерелгән
бешерелә
бешереп
бешерергә
бешереү
бешерәләр
бешкән
беҙ
беҙгә
беҙҙе
беҙҙең
беҙҙә
би
биатлон
биатлонсыһы
бибиков
библиогр
библиографик
библиографическии
библиография
библиотека
библиотеке
библиотеки
библиотечная
библия
биг
бигерәк
бизе
бизнес
бизнеса
биишева
биишевои
бик
бикбаев
бикбаи
бикбау
бикбов
бикбулат
бикбулатов
бикбулатова
бикмәт
бикмөхәмәт
биксурин
бикташ
бикташева
биктимер
биктимеров
бикҡол
бикҡолова
бил
билал
билбау
билбауы
билдә
билдәле
билдәлелек
билдәлеләре
билдәлеһе
билдәләгән
билдәләгәндә
билдәләи
билдәләиҙәр
билдәләмә
билдәләмәһе
билдәләнгән
билдәләнде
билдәләне
билдәләнелә
билдәләнмәгән
билдәләнә
билдәләп
билдәләр
билдәләргә
билдәләре
билдәләрен
билдәләренә
билдәләү
билдәләүенсә
билдәләүсе
билдәһе
билдәһен
билдәһенең
билдәһенә
билдәһеҙ
билет
билл
бильярд
биләгән
биләи
биләиҙәр
биләмә
биләмәлә
биләмәләр
биләмәләре
биләмәләрен
биләмәләрендә
биләмәләренең
биләмәләренә
биләмәләренән
биләмәләрҙе
биләмәләрҙә
биләмәһе
биләмәһен
биләмәһендә
биләмәһендәге
биләмәһенең
биләмәһенә
билән
биләп
биләү
биләүсе
бин
бина
бинала
биналар
биналары
биналарын
биналарының
биналарҙы
биналарҙың
бинанан
бинаны
бинаның
бинар
бинаға
бинаһы
бинаһын
бинаһына
бинаһында
бинаһының
бинт
биобиблиографик
биобиблиографическии
биогр
биографии
биографик
биографическая
биографические
биографическии
биография
биографияһы
биолог
биологии
биологик
биология
биологияһы
биосфера
биотехнология
биофизика
биохимик
биохимия
бир
биргән
биргәндә
биргәндәр
бирелгән
бирелде
бирелеп
бирелергә
бирелеү
бирелеүе
бирелмәи
бирелә
биреп
бирер
бирергә
бирешмәи
биреү
биреүгә
биреүе
биреүен
биреүсе
биреүҙе
биреүҙең
биреүҙә
биреүҙән
биржа
биржаһы
бирле
бирма
бирмингем
бирмәгән
бирмәи
бирюков
бирҙе
бирә
бирәләр
бисмарк
бит
битараф
битва
битвы
бите
битендә
битлек
битләүе
битләүендә
битләүҙәре
битләүҙәрендә
биттәр
биттәре
биттәрендә
бихисап
биш
бишбүләк
бишек
бишенде
бишенсе
бишҡаҙаҡ
бия
биҙгәк
биҙе
биҙҙәре
биҙәге
биҙәгән
биҙәи
биҙәк
биҙәкле
биҙәктәр
биҙәктәре
биҙәлгән
биҙәлеше
биҙәлә
биҙәп
биҙәү
биҙәүестәр
биҙәүсе
биҫтә
биҫтәләре
биҫтәһе
биҫтәһендә
биҫтәһендәге
благовар
благовещен
блог
блогы
блок
блокада
блоктар
блохин
блюз
блюхер
бмо
бо
бобров
бобровницкии
бобруиск
бобслеи
бог
богдан
богданов
богданович
богема
богемия
боголюбов
богомолов
богородица
богородицы
богословскии
бодров
боевои
боевые
боеприпастар
божья
бои
боиомға
боиондороҡло
боиондороҡһоҙ
боиондороҡһоҙлоғо
боиондороҡһоҙлоғон
боиондороҡһоҙлоҡ
боиора
боиороғо
боиороғона
боиороҡ
боиороҡҡа
боиҙаи
боковскии
бокс
боксер
бол
бола
болан
болг
болгар
болгарии
болгария
болгарияла
болгарияның
болгарияға
болгарҙар
более
болезнеи
болезни
болеслав
боливар
боливия
болон
болот
болото
болоттар
болт
боль
больных
большаков
большая
больше
большевик
большевиктар
большевиктарға
большевиктарҙың
большевистик
большие
большого
большое
большои
болғар
болғарҙар
бомба
бомбардир
бомбардировка
бомбардиры
бомбаға
бонапарт
бондаренко
бондюг
бор
бораи
борец
борис
бориса
борисов
борисова
борисович
борисовна
бормалы
бородин
бородино
борола
боролоп
боролош
борон
борондан
боронғо
бороп
борос
борсаҡ
борщ
борьба
борьбе
борьбы
боснии
босния
бостон
босфор
бот
ботаник
ботаника
ботаническии
ботағы
ботаҡ
ботаҡтары
бохара
бохарала
бохараға
бохари
бочкаревка
боғаҙ
боғаҙы
боғорослан
боҙ
боҙа
боҙаяҙ
боҙло
боҙлоҡ
боҙлоҡтар
боҙола
боҙолоу
боҙолоуы
боҙолған
боҙоп
боҙоу
боҙған
боҙҙа
боҙҙан
бр
брагин
бразилия
бразилияла
бразилияның
брак
бранденбург
брат
братислава
братья
браун
брежнев
брест
брехт
бригада
бригадаһы
бригадаһында
бригадаһының
бригадир
бригадиры
британ
британия
британияла
британиянан
британияның
британияға
британника
брод
бродскии
брокгауз
брокгауза
бронетанк
бронза
бронзанан
бруно
брэ
брэдбери
брюс
брюсселдә
брюссель
брянск
брәтәк
бсср
бст
бсэ
бтз
бу
буг
бугера
буда
будапешт
будапештта
будда
буддизм
буденныи
будет
будут
будущего
будущее
буи
буилап
буилы
буиы
буиын
буиына
буиынан
буиында
буиындағы
буиынса
буиының
буиға
буиҙары
буиҙарын
буиҙарына
буиҙарында
буиһона
буиһондора
буиһондорған
буиһонорға
буиһоноуындағы
буиһонған
бук
бул
була
булалар
булараҡ
буласаҡ
булат
булатов
булгаков
булгакова
булды
булдылар
булдым
булдыра
булдыралар
булдырмау
булдырыла
булдырылды
булдырылған
булдырып
булдырырға
булдырыу
булдырыусы
булдырыуға
булдырыуҙа
булдырыуҙы
булдырған
булмаи
булманы
булмау
булмауы
булмауын
булмауына
булмаған
булмағанда
булмағандар
булмағанлыҡтан
булмағас
булмаҫ
булмаҫҡа
булмаһа
булмаһын
булып
булыр
булырлыҡ
булырға
булыу
булыусы
булыусылар
булыуы
булыуын
булыуына
булыуынан
булыуында
булыуынса
булыуға
булыуҙан
булыуҙары
булыша
булышлығы
булышлыҡ
булығыҙ
бульвар
бульвары
булған
булғанда
булғандан
булғандар
булғандарҙы
булғандарҙың
булғандыр
булғанлығы
булғанлығын
булғанлыҡтан
булғанса
булғансы
булғаны
булғанын
булғанға
булғас
булһа
булһалар
булһын
бунин
бур
бура
буран
буранбаи
буранлы
буранғол
буранғолов
бураҡаева
буржуаз
буржуазия
бурлы
бурыс
бурыслы
бурыстар
бурыстары
бурыстарын
бурыстарҙы
бурысты
бурысы
бурысын
бурысҡа
бурһыҡ
буталсыҡ
бутан
бутарға
бутҡа
бутҡаһы
бухарест
бухарин
бухгалтер
буш
бушап
бушата
бушатыла
бушатыу
бушлаи
бушҡа
буэнос
буялған
буяу
буяуҙар
буға
буҙ
буҫтау
бы
бывшего
бывшии
быков
был
была
былаи
былар
быларҙың
были
было
бына
бынан
бында
бындаи
бындағы
быны
бының
быныһы
быраулау
быраулаусы
бысаҡ
бысраҡ
быт
быть
быуа
быуалар
быуат
быуатта
быуаттан
быуаттар
быуаттарға
быуаттарҙа
быуаттарҙан
быуаттарҙағы
быуаттарҙың
быуаттағы
быуаттың
быуаты
быуатына
быуатында
быуатҡа
быуаһы
быуын
быуындан
быуындар
быуынды
быуыны
быуынға
быуып
быяла
быға
бығаса
быҙау
быҙаулыҡ
бюджет
бюджеты
бюллетень
бюро
бюроһы
бюроһында
бюроһының
бюст
бюсы
бүздәк
бүлгеләнгән
бүлгән
бүлеге
бүлеген
бүлегендә
бүлегенең
бүлегенә
бүлек
бүлеккә
бүлексә
бүлексәләре
бүлексәһе
бүлексәһен
бүлексәһендә
бүлексәһенең
бүлектең
бүлектә
бүлектән
бүлектәр
бүлектәре
бүленгән
бүлендек
бүленеп
бүленеш
бүленеше
бүленеү
бүленеүе
бүленә
бүленәләр
бүлеп
бүлергә
бүлешеү
бүлешә
бүлеү
бүлкәте
бүлкәтендә
бүлмә
бүлмәле
бүлмәлә
бүлмәләр
бүлмәләре
бүлмәһе
бүлмәһендә
бүлә
бүләге
бүләк
бүләккә
бүләкләи
бүләкләнгән
бүләкләнде
бүләкләнеүсе
бүләкләнеүсенең
бүләкләнә
бүләкләү
бүләков
бүләктәр
бүләктәре
бүләләр
бүләр
бүләһе
бүре
бүребаи
бүрәнә
бүрәт
бүтән
бәиге
бәигеһе
бәиле
бәилелек
бәиләгән
бәиләи
бәиләиҙәр
бәиләнгән
бәиләнеш
бәиләнеше
бәиләнешен
бәиләнешкә
бәиләнешле
бәиләнеште
бәиләнештә
бәиләнештәр
бәиләнештәре
бәиләнештәрен
бәиләнештәрҙе
бәиләнмәгән
бәиләнә
бәиләп
бәиләргә
бәиләү
бәиләүсе
бәиһеҙ
бәиән
бәк
бәкер
бәлеш
бәлиғ
бәлки
бәлә
бәләбәи
бәләкәи
бәләкәиерәк
бәләкәиҙән
бәләкәс
бәрелеш
бәрелештәр
бәрелешә
бәреп
бәрхәт
бәрҙе
бәрәңге
бәхет
бәхете
бәхетле
бәхетһеҙ
бәхтегәрәи
бәхтизин
бәхәс
бәхәсле
бәхәстәр
бәхәсһеҙ
бәшир
бәширов
бәшмәк
бәшмәктәр
бәшнәктәр
бәшәр
бәҙретдин
бәҙретдинов
бәүел
бөгөлгән
бөгөлмә
бөгөн
бөгөнгәсә
бөгөнгө
бөжәк
бөжәктәр
бөжәктәрҙе
бөжәктәрҙең
бөиөк
бөиөр
бөлгөнлөккә
бөриән
бөркөт
бөркөтө
бөртөк
бөртөклө
бөрө
бөткән
бөткәндән
бөткәнсе
бөткәс
бөткөһөҙ
бөтмәгән
бөтмәи
бөттө
бөтә
бөтәһе
бөтәһен
бөтәһенә
бөтәһенән
бөтөн
бөтөнләи
бөтөнләигә
бөтөп
бөтөрә
бөтөрөлгән
бөтөрөлгәс
бөтөрөлә
бөтөрөлөүе
бөтөрөргә
бөтөрөү
бөтөрөүгә
бөтөү
бөҙрә
в
ва
вавилов
вавилон
вага
вагнер
вагон
вагондар
вадим
ваз
вазифа
вазифала
вазифалар
вазифаларын
вазифаларында
вазифаларҙа
вазифалы
вазифаны
вазифаға
вазифаһы
вазифаһын
вазифаһына
вазифаһынан
вазифаһында
вазуза
вак
вакуум
вакцина
вал
валаам
валахия
валдаи
валеев
валентин
валентина
валентинович
валериан
валерии
валерия
валерьевич
валиди
валишин
вальс
вальтер
валюта
валютаһы
вам
ван
ванкувер
ваня
варвара
вариант
вариантов
вариантта
варианттары
варианттарын
варианты
вариантын
вариантында
вариҫ
вариҫтары
вариҫы
варна
варшава
варшавала
варшаваны
вас
василевскии
василенко
василии
василия
василь
васильев
васильева
васильевич
васильевка
васильевна
васко
вассал
вассалы
васыят
васюган
васюганға
ватан
ватандаш
ватанды
ватанға
ватикан
вафа
вафат
вафаты
вафатына
вафатынан
вах
вахитов
вахтанг
вахҡа
вацлав
ваш
вашем
вашингтон
вашингтонда
вағыраҡ
ваҡ
ваҡиға
ваҡиғалар
ваҡиғалары
ваҡиғаларға
ваҡиғаларҙан
ваҡиғаларҙы
ваҡиғаларҙың
ваҡиғанан
ваҡиғаны
ваҡиғаға
ваҡиғаһы
ваҡланған
ваҡлап
ваҡыт
ваҡытлы
ваҡытлыса
ваҡытта
ваҡыттан
ваҡыттар
ваҡыттарында
ваҡыттарҙа
ваҡыттағы
ваҡытты
ваҡыттың
ваҡыты
ваҡытын
ваҡытына
ваҡытынан
ваҡытында
ваҡытындағы
ваҡытының
ваҡытҡа
вв
введение
введенскии
ввп
ввс
вгик
вднх
веб
вебер
вега
вегетатив
ведомости
ведомство
веимар
век
века
веках
веке
веков
вектор
векторлы
векторы
векторҙар
велик
великая
великие
великии
великих
великобритания
великого
великои
величества
велосипед
велосипедта
вена
венала
венаны
венаның
венаға
венг
венгр
венгрии
венгрия
венгрияла
венгрияның
венгрияға
венгрҙар
венгрҙарҙың
венер
венера
венесуэла
венеция
венецияла
вениамин
венчурлы
вера
верде
верди
вердиҙың
верещагин
вермахт
вернадскии
вернер
вернулись
верныи
версаль
версии
версия
версияһы
версияһын
вертикаль
вертолет
верхнеурал
верхнии
верхняя
верховного
верховныи
верхотор
вершины
веры
веселовскии
весна
вест
вести
вестник
вестфалия
весь
ветер
ветеран
ветерандар
ветерандары
ветеранов
ветераны
ветеринар
ветеринария
ветлана
ветлуга
вече
вечер
вечернии
вечерняя
вешенская
веществ
взаимодеиствия
взвод
взводы
взгляд
взятие
ви
вид
виде
видео
видные
видов
виды
византии
византия
византияның
византияға
визит
визуаль
вики
викикитапханала
викимилектә
википедия
википедияла
википедияһы
викискладе
викиһүҙлектә
виктор
виктория
викторович
викторовна
вил
вилдан
вилданов
вильгельм
вильнюс
виләиәте
виләиәтендә
винница
виноград
виноградов
виноградова
винсент
винтовка
винчи
виолетта
виолончель
виртуаль
виртуальныи
виртуоз
вирус
вируслы
вирусология
вирустар
вис
виска
висла
виталии
витамин
витаминдар
витамины
витгенштеин
витебск
витовт
витязь
вице
вич
вишера
вишневскии
вклад
включая
вконтакте
вкп
вл
владение
владивосток
владикавказ
владимир
владимира
владимирович
владимировна
владимирская
владислав
власов
властан
властар
властары
властарына
властарының
властарға
властарҙың
власти
власты
властың
власть
власы
власын
власына
власының
власҡа
влияние
влксм
вместе
вместо
внесении
внимание
вновь
внутренних
во
вов
вод
вода
водевиль
водителе
водитель
водном
водныи
водных
водород
водохранилище
воды
воевода
воеводаһы
воен
воениздат
военная
военно
военного
военное
военнои
военные
военныи
военных
вож
воз
возв
возвращение
возглавил
воздвиженка
возможно
возможности
вознесенка
вознесенскии
возникновение
возникновения
возраста
возрождение
возрождения
воин
воина
воине
воинскои
воину
воины
воиск
воиска
вокал
вокаль
вокзал
вокзалы
вокруг
волга
волганың
волгаға
волго
волгоград
волгодонск
волеибол
волков
волкова
волконскии
вологда
володин
волости
волость
волосы
волошинова
волхов
волынь
вольтер
вольф
вольфганг
воля
волғаға
вооруженных
вопрос
вопросам
вопросу
вопросы
воробьев
ворона
воронеж
воронин
воронов
воронцов
ворошилов
ворошиловград
воскресенск
воскресенскии
воспитание
воспитания
воспоминании
воспоминания
воспоминаниях
восстание
восстания
вост
восток
востока
востоке
востоковедение
востоковедения
восточная
восточного
восточнои
восточныи
восточных
восход
вот
воткин
воткинск
впервые
вперед
впн
впо
врангель
врач
врача
врачеи
врачы
времен
времена
времени
временник
временных
время
вручил
вс
все
всеволод
всегда
всего
всеи
всем
всеми
всемирная
всемирного
всемирнои
всемирныи
всеобщая
всеобщеи
всероссииская
всероссиискии
всероссииского
всероссиискои
всесоюзная
всех
встреча
встречи
вступ
вступительная
всю
вся
вт
вторая
второго
второе
второи
вуз
вуздары
вузов
вузы
вулкан
вулканы
входившие
вцик
вцспс
вчера
вчк
въ
вы
выбор
выбора
выборах
выборг
выборов
выборы
выдающиеся
выдающиися
выдающихся
вып
выпуск
выпуска
выпускники
выпускников
высота
высоцкии
выставка
выставки
выступление
выступления
высш
высшая
высшего
высшее
высшеи
высшие
высших
вычегда
вычегды
выше
вьетнам
вэи
вюртемберг
вятка
вятские
вячеслав
вячеславович
від
вә
вәзир
вәкил
вәкилдәр
вәкилдәре
вәкилдәрен
вәкилдәренең
вәкилдәренә
вәкилдәренән
вәкиле
вәкиллеге
вәкәләтле
вәкәләттәр
вәкәләттәре
вәкәләттәрен
вәли
вәлид
вәлиди
вәлидиҙең
вәлидов
вәлиев
вәлиева
вәлит
вәлитов
вәлиулла
вәлиуллин
вәлиәхмәт
вәхит
вәхитов
вәғәҙә
г
га
габитов
габриэль
габсбург
габсбургтар
габсбургтарҙың
гавань
гавриил
гаврилов
гаврилович
гаврюшкин
гагарин
гагарина
гагауз
гагаузия
газ
газа
газдар
газды
газдың
газета
газете
газеты
газлы
газпром
гаи
гаидн
гаинуллин
гаити
гала
галактика
галеева
гален
галерея
галереяһы
галереяһында
гали
галилеи
галин
галина
галиция
галкин
галле
гамбург
гамлет
гамма
гана
ганг
гандбол
ганди
ганнибал
ганс
ганцев
гараж
гарвард
гареев
гареева
гарипова
гармоник
гармония
гарнизон
гарнизоны
гарри
гарсиа
гастролдә
гастролдәр
гастролдәргә
гастролдәрҙә
гатиятуллин
гатчина
гаун
гаусс
гафури
гвардеиская
гвардия
гвардияһы
гвинея
гвоздикова
гг
гданьск
где
гдр
ге
гегель
геидар
геине
геитс
гектар
гектарынан
гектарға
гектарҙан
гел
ген
гендар
гендель
гендер
генеалогия
генерал
генерала
генералам
генералдар
генералы
генераль
генерального
генеральныи
генетик
генетика
гении
геннадии
геннадьевич
геноцид
генри
генрих
генуя
генә
геогр
географ
географии
географик
географические
географическии
географических
географического
географическое
география
географияһы
географы
геодезия
геоинформация
геолог
геологии
геологик
геология
геологияһы
геологтар
геологы
геометрик
геометрия
георг
георги
георгиевич
георгиевна
георгии
георгия
геофизик
геофизика
гера
геральдика
герасимов
герасимович
герб
герберт
гербы
гербында
герман
германии
германия
германияла
германиялағы
германиянан
германияны
германияның
германияға
геродот
героев
герои
героик
героини
героиы
героиының
героиҙар
героиҙары
героиҙарына
героиҙарының
героиҙарҙың
героиҙың
героя
героях
герцеговина
герцеговинаның
герцен
герцог
герцоглығы
герцогы
гессе
гессен
гете
гетман
ги
гибель
гигант
гигиена
гидравлик
гидравлика
гидрографик
гидрологик
гидрология
гидрометеоиздат
гидроним
гидротехник
гидроузеленә
гидроузеленән
гилгәмеш
гилем
гильберт
гильдия
гималаи
гимн
гимназии
гимназия
гимназияла
гимназияны
гимназияһы
гимназияһын
гимназияһына
гимназияһында
гимназияһының
гимнастика
гимны
гинекология
гинзбург
гиперболик
гипотеза
гипс
гистология
гитара
гитис
гитлер
гко
гл
глав
глава
главная
главного
главное
главнои
главныи
главным
главных
главы
гладков
глазами
глазго
глеб
гликерии
гликерия
глинка
глобалләшеү
глобаль
глобус
глушко
глюкоза
гнесиндар
го
говард
говорит
говорят
гог
гоголь
год
года
годах
годов
году
годунов
годы
гоия
гол
голдар
голицын
голланд
голландия
голливуд
голль
голова
головин
головная
голос
голоса
голубев
голубева
гольф
гомель
гомер
гонаһ
гондурас
гонконг
гончаров
гор
гора
горбачев
горбунов
гордеев
гордон
горе
гори
горизонт
горизонталь
горка
гормондар
горная
горно
горного
горныи
горных
горняк
город
города
городам
городах
городе
городище
городов
городская
городским
городских
городского
городскои
городу
горскии
горы
горькии
горькииҙың
горького
гос
госиздат
гослитиздат
госпиталгә
госпиталдә
госпиталендә
госпиталь
госполитиздат
госсправка
гост
государств
государства
государственная
государственного
государственное
государственнои
государственном
государственные
государственныи
государственными
государственных
государство
гот
готик
готика
готтар
готфрид
гпу
гр
гравитацион
гравитация
гравюра
град
градус
градустан
градусҡа
граждан
граждандар
граждандары
граждандарына
граждандарының
граждандарҙың
граждане
гражданин
гражданины
гражданлығы
гражданлығын
гражданлыҡ
гражданская
гражданского
гражданскои
гражданство
гражданы
грамм
грамматик
грамматика
грамматикаһы
грамота
грамоталары
грамоталылыҡ
грамотаһы
гран
гранат
граната
гранд
грани
гранит
граниттан
границ
границах
границы
грант
гранты
граф
графигы
график
графика
графикаһы
графиня
графлығы
графы
грац
грек
греков
грекса
гректар
гректарҙың
гренландия
грета
гретцки
греции
греция
грецияла
грецияның
грецияға
греч
гри
григориан
григории
григорович
григорьев
григорьевич
григорьевна
григорян
грин
грипп
гродно
грозныи
громов
гроссмеистер
груз
грузии
грузин
грузиндар
грузия
грузияла
грузияның
грунт
групп
группа
группы
грэс
гтрк
гу
гуам
гуашь
губанов
губерна
губерналары
губернатор
губернатора
губернаторы
губернаторының
губернаһы
губернаһына
губернаһынан
губернаһында
губернаһының
губернии
губерния
губин
губкин
гулаг
гуманизм
гуманитар
гуманитарные
гуманитарныи
гуманитарных
гумеров
гумерова
гумилев
гуп
гурьев
гусев
гусева
густав
густерин
гутенберг
гфр
гэс
гюго
гісторыі
гүзәл
гә
гәзит
гәзите
гәзитен
гәзитендә
гәзитенең
гәзитенә
гәзиттең
гәзиттә
гәзиттәр
гәзиттәре
гәзиттәрендә
гәзиттәрҙә
гәлсәр
гәнжә
гәрә
гәрәбә
гәрәев
гәрәи
гәүһәр
гө
гөл
гөлдәр
гөлиемеш
гөлназ
гөлнара
гөлнур
гөлнәзирә
гөлсөм
гөлфиә
гөлшат
д
да
давид
давидович
давлекановского
давыдов
давыдова
даже
даими
даирәһе
даирәһенә
дала
далаи
далала
далалары
далаларына
далаларында
далаһы
дали
далмация
даль
дальневост
дальнего
дальнем
дама
дамаск
дамир
дан
дана
даниил
данилов
данилович
данис
даниэль
дания
данияла
данияның
данлы
данлыҡлы
данные
данным
данных
данциг
данченко
даны
данын
дар
дарвин
дарии
даруғаһы
даруғаһының
дары
дарыу
дарыухана
дарыуҙар
дарья
дат
дата
датаһы
дату
даты
дауа
дауалаи
дауалана
дауаланырға
дауаланыу
дауалау
дауалаусы
дауалауҙа
дауам
дауамы
дауамында
дауахана
дауаханала
дауаханаға
дауаханаһы
дауаханаһына
дауаханаһында
дауаханаһының
даутов
дауыл
дауыт
дауытов
дача
дачаһы
даян
дағстан
два
двадцать
дважды
две
двенадцатыи
двигателдәр
двигателдәре
двигателе
двигатель
движение
движении
движения
двина
двины
двор
дворец
дворца
дворян
дворяндар
дворяндары
дворянлыҡ
двудольные
двумя
двух
ддт
де
дебют
дебюты
дева
девизы
девон
девушка
дегет
деиствие
деиствии
деиствия
дек
декабре
декабрендә
декабрендәге
декабренә
декабренән
декабрь
декабря
декабрҙә
декабрҙән
декадаһында
декан
деканы
декарт
декларация
декларацияһы
декоратив
декорация
декрет
декреты
дел
дела
делам
деле
делегат
делегаты
делегация
делегацияһы
деление
дели
дело
деловои
делу
дель
дельта
дементьев
демидов
демобилизациялана
демобилизацияланғандан
демобилизациянан
демографик
демократ
демократик
демократия
демократтар
демонстрация
демонстрациялар
демоскоп
деникин
денис
денисов
день
деньги
департамент
департаменты
департаментының
депортация
депоһы
депрессия
депутат
депутатов
депутаттар
депутаттары
депутаттарының
депутаты
дер
дербент
дерби
деревень
деревне
деревни
деревня
держава
державалар
державаһы
державин
державна
дерпт
десант
десять
деталдәр
деталдәре
детгиз
детеи
детектив
дети
детроит
детская
детскии
детства
детство
деятелеи
деятели
деятель
деятельности
деятельность
дж
джаз
джакомо
джафар
джеимс
джеин
джек
джексон
джерси
джимми
джо
джованни
джозеф
джон
джонс
джонсон
джордж
джузеппе
джульетта
дзержинскии
дзэн
дзюдо
ди
диагноз
диагностика
диагностикалау
диал
диалект
диалектик
диалектика
диалектология
диалекттар
диалекттары
диалекты
диалектында
диалектының
диалог
диаметрлы
диаметры
диана
диаспораһы
диван
диверсия
дивизии
дивизион
дивизионы
дивизионында
дивизия
дивизиялары
дивизияның
дивизияһы
дивизияһын
дивизияһына
дивизияһында
дивизияһының
дидро
диего
дизаин
дизаины
дизель
диктатор
диктатура
диктор
дилмөхәмәтов
дим
димитрии
дин
дина
динамик
динамика
динамикаһы
динамо
динар
династии
династия
династияның
династияһы
династияһын
династияһына
династияһынан
династияһының
дингә
диндар
динде
диндең
диндәр
дине
динен
динендә
диненең
диненә
дини
динислам
диниә
динле
динә
диплом
дипломанты
дипломат
дипломатик
дипломатия
дипломаты
дипломдан
дипломы
дипломын
дипломға
директор
директора
директоры
директорының
директорҙар
директорҙары
директорҙың
дирижер
дирижерлыҡ
дирижеры
дис
диск
диснеи
дисс
диссертации
диссертация
диссертациялары
диссертацияларын
диссертацияһы
диссертацияһын
диссертацияһының
дистанцион
дистанцияла
дисциплина
дисциплиналар
дисциплиналары
дисәтинә
дисәтинәгә
дитрих
диуар
диуары
диуарҙар
диуарҙары
дифференциаль
диңгеҙ
диңгеҙгә
диңгеҙе
диңгеҙее
диңгеҙеенә
диңгеҙендә
диңгеҙендәге
диңгеҙенең
диңгеҙенә
диңгеҙенән
диңгеҙҙең
диңгеҙҙә
диңгеҙҙәге
диңгеҙҙән
диңгеҙҙәр
диңгеҙҙәре
для
дмитриев
дмитриева
дмитриевич
дмитриевка
дмитриевна
дмитрии
дмитрия
дне
дневник
дневники
днеи
днем
днепр
днепропетровск
днепрҙың
днестр
дни
днк
дня
до
добронравов
довженко
довлатов
договор
договоры
дождь
док
докл
доклад
докладов
доклады
доктор
доктора
докторлыҡ
докторы
докторҙары
документ
документа
документаль
документальныи
документах
документов
документта
документтар
документтары
документтарын
документтарында
документтарҙа
документтарҙы
документы
документҡа
должен
должность
должны
долина
доллар
долларлыҡ
доллары
долларына
долларға
дом
дома
доме
домен
доминго
доминика
домна
дон
дона
дональд
донбасс
донда
дондағы
дондың
донесение
донесения
донец
донецк
донская
донского
донскои
дону
донъя
донъяла
донъялағы
донъянан
донъяны
донъяның
донъяуи
донъяға
донъяһы
донъяһын
донъяһына
донъяһында
донъяһының
донья
доп
дополненное
дорог
дорога
дороги
досааф
доска
достижения
достоевскии
достопримечательности
доступа
досье
доцент
доценты
дочь
дошман
дошмандан
дошмандар
дошмандары
дошманды
дошмандың
дошманы
дошманға
доға
доғалар
др
драгун
драма
драматик
драматург
драматургия
драматургияһы
драматургы
драмаһы
драмы
древнего
древнеи
древнеиших
древние
древнии
древних
древностеи
древности
древняя
дрезден
дроздов
дрофа
друг
друга
другие
другим
других
другои
дружба
дружбы
друзья
ду
дубна
дубровин
дума
думаһы
думаһына
думаһының
думбыра
думка
думы
дунаи
дуров
дусар
дутов
дух
духовная
душа
души
дуэт
дуға
дуҫ
дуҫлаша
дуҫлығы
дуҫлыҡ
дуҫтар
дуҫтарса
дуҫтары
дуҫы
ды
дым
дымлы
дымлылығы
дымлылыҡ
дыуан
дыуанаи
дың
дьяконов
дэвид
дэвис
дюма
дюрер
дүрт
дүртенсе
дүртенсел
дүртмөиөш
дүртмөиөшлө
дүртмөиөштөң
дүрттән
дүртәү
дүртөилө
дүшәмбе
дүңгәләк
дә
дәлил
дәлилдәр
дәлилләи
дән
дәрес
дәреслеге
дәреслек
дәреслектәр
дәрестәр
дәрестәре
дәрестәрен
дәрт
дәртле
дәртләндереү
дәрүиш
дәрәжә
дәрәжәгә
дәрәжәле
дәрәжәлә
дәрәжәләге
дәрәжәләре
дәрәжәһе
дәрәжәһен
дәрәжәһендә
дәрәжәһенә
дәғүә
дәғүәсе
дәғүәселәр
дәүер
дәүергә
дәүере
дәүерендә
дәүерендәге
дәүеренең
дәүеренә
дәүеренән
дәүерҙең
дәүерҙә
дәүерҙәге
дәүләкән
дәүләт
дәүләтбаев
дәүләтбаи
дәүләте
дәүләтен
дәүләтендә
дәүләтенең
дәүләтенә
дәүләткилдеев
дәүләткирәи
дәүләткә
дәүләтов
дәүләтте
дәүләттең
дәүләттә
дәүләттәр
дәүләттәре
дәүләттәренең
дәүләттәрҙең
дәүләттәрҙә
дәүләтша
дәүләтшин
дәүләтшина
дәүмәл
дәүмәлдәр
дәүмәле
дөгө
дөиә
дөиөм
дөиөмләштерелгән
дөиөмләштереү
дөрөҫ
дөрөҫлөк
дөрөҫлөккә
дөрөҫөн
дөрөҫөрәге
е
ебәк
ебәргән
ебәргәндәр
ебәрелгән
ебәрелә
ебәреп
ебәрергә
ебәреү
ебәреүсе
ебәреүҙе
ебәрҙе
ебәрә
ебәрәләр
ева
евангелие
евгении
евгения
евгеньевич
евгеньевна
евдокия
евклид
евклидтың
евразии
евразия
евразияның
евреев
евреи
евреиская
евреискои
евро
евровидение
европа
европала
европалағы
европалылар
европанан
европаны
европаның
европаға
европе
европеискии
европеискои
европы
евросоюз
евроға
евфрат
ега
еган
егерме
егерменсе
егет
егете
егеткә
егетте
егеттең
егеттәр
егеттәре
егеттәрҙең
египет
его
егор
егорлык
егоров
егорова
егорович
егрюл
егән
ед
единая
единиц
единица
единыи
еділ
ее
ежегодник
ежов
еи
еиән
еиәндәре
еиәне
еиәнсура
еиәнсәре
екатерина
екатеринбург
екатеринбургта
екатеринбургтан
екатеринбургҡа
екатеринослав
екатерины
ел
елга
елгә
елдәр
елдәре
елена
елец
елизавета
елисеев
елкәнле
елле
ель
ельцин
еләге
еләк
ем
емельян
емельянов
емергес
емергән
емерек
емереклектәре
емерелгән
емерелеп
емерелеүе
емерелә
емертелә
емерә
емеш
емеше
емешле
емештәр
емештәре
ему
ен
ендә
енес
енесле
еникеев
енисеи
енси
ентекле
ентекләп
енциклопедія
енәиәт
енәиәти
енәиәтселек
енәиәттәр
еп
епархии
епархия
епархияһы
епархияһына
епархияһының
епискобы
епископ
ер
ергә
ергән
ере
ереван
ереванда
ерек
ерекле
ерен
ерендә
ерендәге
еренең
еренә
еренән
ерле
ерләиҙәр
ерләнгән
ерләнә
ерләү
ермак
ермаков
ермолаевка
ермолаево
ерохин
ершов
ерҙе
ерҙең
ерҙә
ерҙәге
ерҙән
ерҙәр
ерҙәргә
ерҙәре
ерҙәрен
ерҙәрендә
ерҙәренең
ерҙәренә
ерҙәренән
ерҙәрҙе
ерҙәрҙең
ерҙәрҙә
ерҙәрҙән
ерһеҙ
ерән
ес
есаул
есем
есемдең
есемдәр
есемдәренең
есемдәрҙең
есенин
есенина
если
естествознания
есть
етди
ете
етем
етен
етенсе
етеп
етер
етергә
етерлек
етешмәи
етешмәүе
етештергән
етештерелгән
етештерелә
етештереү
етештереүгә
етештереүе
етештереүсе
етештереүселәр
етештереүсәнлеге
етештереүҙе
етештереүҙең
етештереүҙә
етештерә
етеҙ
етеү
етеүе
еткергән
еткерелә
еткереп
еткерергә
еткереү
еткерә
еткән
еткәнсе
еткәс
етмеш
етмәгән
етмәи
етмәү
етмәһә
етте
етә
етәкләгән
етәкләи
етәксе
етәкселеге
етәкселеген
етәкселегендә
етәкселегендәге
етәкселегенең
етәкселегенә
етәкселек
етәкселәр
етәкселәре
етәкселәрен
етәкселәренең
етәксеһе
етәләр
ефете
ефим
ефимов
ефимович
ефреитор
ефремов
ефрон
ефрона
ефрондың
еще
еҙ
еҙем
ең
еңгән
еңгәндән
еңел
еңелгән
еңелгәндән
еңелеп
еңелерәк
еңелеү
еңелеүгә
еңелеүе
еңелсә
еңелә
еңеп
еңергә
еңеү
еңеүгә
еңеүе
еңеүен
еңеүсе
еңеүселәр
еңеүселәре
еңеүсеһе
еңеүҙе
еңеүҙең
еңеүҙәр
еңә
еҫ
еҫе
еҫле
еүеш
ж
жак
жан
жанеиро
жанна
жанр
жанры
жанрына
жанрында
жанрҙар
жанрҙары
жданов
же
железная
железнодорожныи
железнои
железныи
жена
женева
женевала
женская
женскии
женщин
женщина
женщинах
женщины
жертв
жертвы
жзл
живая
живет
живои
живописи
живопись
животные
животных
жизель
жизни
жизнь
жил
жителеи
жители
житие
житомир
жить
жмеринка
жовтневое
жозеф
жорж
жуан
жуков
жукова
жуковскии
журавлев
журн
журнал
журнала
журналда
журналдар
журналдары
журналдарында
журналдарының
журналдарҙа
журналдың
журнале
журналист
журналистар
журналистары
журналистика
журналистики
журналистов
журналисы
журналы
журналын
журналына
журналында
журналының
жюль
жюри
жәлил
з
за
заболевании
заведении
завод
завода
заводта
заводтар
заводтары
заводтарын
заводтарында
заводтарының
заводты
заводтың
заводы
заводын
заводына
заводынан
заводында
заводының
заводҡа
завтра
загадки
загидуллин
заглавие
заговор
загородная
загреб
задание
заданиеларын
заданиеһын
задать
задач
задачи
заде
заинуллин
заицев
заицева
заказ
заказнигы
заказник
заказы
заки
закир
закиров
закирович
закон
закона
закондар
закондары
закондарын
закондарына
закондарҙы
законды
закондың
законлы
законов
законодательство
законы
законын
законына
законға
законһыҙ
зал
залда
залдары
зале
залы
залына
залында
зальцбург
заман
заманда
замандан
замандарҙа
замандарҙан
замандаштары
замандашы
замандағы
замандың
заманса
заманы
заманына
заманынан
заманында
заманының
заманға
заметки
замечательных
замогы
замок
замокты
замоктың
зао
зап
запад
запада
западная
западного
западнои
западныи
запас
запаста
запастары
запастағы
запасы
запасын
запасҡа
записи
записка
записки
запись
заповедник
заповедника
запорожье
зарар
зарарланған
зарарлы
зарегистрированных
заречная
зарипов
зариф
зарубежных
зарубин
зарур
заря
зарядлы
заседании
заслуги
заслуженныи
зат
затем
затлы
заттар
заты
зауралье
зауральские
зауралья
зауряд
захар
захаров
захарова
захарович
зачетта
зачетында
защита
защиты
заһир
заһит
заһиҙуллин
звание
званиеһы
званиеһын
званиеһында
звании
звания
звезд
звезда
звезды
звено
звеноһы
здание
здании
здания
здесь
здоровье
здоровья
здравоохранения
зевс
зеландия
зеленая
зеленыи
земель
земле
земли
землю
земля
земство
земфира
зенит
зеркало
зилә
зина
зинаида
зиннур
зиннуров
зиннәт
зиновьев
зирәк
зифа
златоуст
злобин
знак
знаки
знамени
знаменитые
знамя
знание
знании
значение
значении
значения
зодиак
золом
золотая
золотница
золото
золотои
золотые
зона
зонала
зоналар
зоналары
зоналарында
зонаһы
зонаһын
зонаһына
зонаһында
зонаһының
зоны
зоологии
зоология
зоопарк
зоопаркы
зоотехнигы
зоотехник
зори
зороастризм
зоя
зрения
зубов
зубцов
зуево
зыкина
зырянское
зыя
зыян
зыярат
зыяратта
зыяраты
зыяратына
зыяратында
зәи
зәинетдин
зәинулла
зәинуллин
зәинәб
зәитүн
зәитүнә
зәки
зәкир
зәкиә
зәкәриә
зәкәт
зәңгәр
зәңгәрһыу
зөбәиер
зөбәржәт
зөлфиә
зөлхизә
зөлҡәрнәи
зөләиха
зөфәр
зөһрә
и
иа
иб
иблис
ибн
ибрагимов
ибраи
ибраһим
ибраһимов
ив
ива
иван
ивана
ивангород
ивано
иванов
иванова
иванович
ивановича
ивановка
ивановна
иваново
ивановск
ивановскии
иваньков
иврит
иг
иген
игенде
игенсе
игенселек
игеҙәк
иглин
игнатенко
игнатии
игнатьев
игнатьевич
игол
игорь
игр
игра
игры
ид
ида
идара
идаралығы
идаралығын
идаралығына
идаралығында
идаралығының
идаралыҡ
идаралыҡтары
идаралыҡтың
идарасы
идарасыһы
идараһы
идараһының
идеал
идеаль
идеи
идентификатор
идеологик
идеология
идеологияһы
идет
идея
идеялар
идеялары
идеяларын
идеяны
идеяһы
идеяһын
идиш
иезуит
иезуиттар
иемен
иероглиф
иероглифтар
иерусалим
иж
ижад
ижади
ижады
ижадын
ижадына
ижадында
ижадының
ижадҡа
ижевск
ижек
ижекле
ижора
ижтимағи
из
изабелла
изборск
избран
избранное
избранные
изв
известия
известные
известныи
изге
изгелек
изгеләндерелгән
изгеләндерелә
изгеләр
изд
издание
издании
издания
издательские
издательскии
издательства
издательство
изделиелар
изделиелары
измаил
изменении
изменения
изменениями
изменениях
измир
изобразительного
изобразительное
изобретение
изолят
израилгә
израилдең
израилдә
израиль
израиля
изучение
изучению
изучения
ии
иисус
ииял
ик
ике
икегә
икеле
икеләтә
икенсе
икенсегә
икенсел
икенселәре
икенсенең
икенсенән
икенсеһе
икенсеһен
икенсеһендә
икенсеһенә
икешәр
икеһе
икмәге
икмәк
икмәкте
икона
иконалар
иконаһы
икән
икәне
икәнен
икәнлеге
икәнлеген
икәү
икәүһе
ил
илаи
илап
илаһ
илаһи
илбаҫарҙары
илбаҫарҙарынан
илгиз
илгә
илдар
илде
илдең
илдус
илдә
илдәге
илдән
илдәр
илдәргә
илдәре
илдәрен
илдәрендә
илдәрендәге
илдәренең
илдәренә
илдәренән
илдәрҙе
илдәрҙең
илдәрҙә
илдәрҙәге
илдәрҙән
иле
илебеҙ
илебеҙҙең
илек
илекәи
илен
илендә
иленең
иленә
иленән
илецк
илеш
или
илиада
илл
илле
иллюстрациялар
иллюстрированная
иллюстрированныи
илмән
илсе
илсекәи
илсекәие
илселеге
илселек
илселәр
илселәре
илсеғол
илсеһе
илткән
илтә
илшат
ильгамов
ильдар
ильин
ильина
ильинична
ильич
ильичев
илья
ильяс
ильясов
ильясова
илһам
иләү
им
имаи
имам
имамы
иман
иманғол
имашев
имеет
имен
имена
именем
имени
имение
имениеһында
именлеге
именлек
именник
именно
имеш
ими
иммигранттар
иммунитет
иммунология
император
императора
императорскии
императорского
императорскои
императоры
императорға
императорҙары
императорҙың
императрица
императрицы
империи
империя
империяның
империяһы
империяһын
империяһына
империяһынан
империяһында
империяһының
импорт
импровизатор
импульс
имтихан
имя
имән
ин
инан
инвалид
инвалидтар
инвалиды
инвестиция
инвестициялар
инг
ингл
инглиз
инглиздәр
инглизсә
ингушетия
ингән
ингәндә
ингәндән
ингәс
инде
индеецтар
индекс
индексы
индексылар
индергән
индергәне
индерелгән
индерелде
индерелмәгән
индерелә
индереп
индерергә
индереү
индереүгә
индереүҙе
индермәиенсә
индерҙе
индерә
индерәләр
индивидуаль
индии
индия
индонезия
индонезияның
индрик
индуизм
индустриаль
индустрия
индустрияһы
ине
инек
инем
инеп
инер
инергә
инеш
инеше
инешенән
инештән
инеү
инеүе
инеүен
инеүенә
инеүсе
инженер
инженерия
инженерияһы
инженерлыҡ
инженеры
инженерҙар
инженерҙары
инжил
инициатива
инициативаһы
инициаторы
иниәр
инмәгән
инмәи
инна
инновацион
инновациялар
иннокентии
иностранных
инспектор
инспекторы
инспекция
инспекцияһы
инстанция
институт
института
институте
институтта
институттар
институттары
институтты
институттың
институты
институтын
институтына
институтында
институтының
институтҡа
инструктор
инструкторы
инструкция
инструмент
инструменталь
инструменттар
инструменттары
инструменты
инсульт
интеграл
интеграль
интеграция
интеллект
интеллектуаль
интеллигенция
интенсив
интер
интерактив
интервенция
интервью
интервьюһында
интернат
интернаты
интернатында
интернационал
интернациональ
интернет
интернетта
интерфакс
интерьер
интерьеры
инфекция
инфляция
инфо
информ
информатика
информации
информацион
информационная
информационно
информационное
информационнои
информационные
информационныи
информация
информреклама
инфра
инфраструктура
инфраструктураһы
инфраҡыҙыл
иня
иняи
инҡар
инҡилабы
инҡилап
инһә
инә
инәбеҙ
инәи
инәләр
инәһе
ио
иоанн
иоанна
иога
иоганн
иозеф
иокерит
иола
иолалар
иолалары
иолаларын
иолаларҙы
иолаһы
иолаһын
иоль
иома
иомабаи
иомарт
иоматау
иомаш
иомағол
иомағолов
иомағужа
иомағужин
иомаҡ
иомортҡа
иомортҡаны
иомортҡаһы
иомоҡ
иомран
иомро
иомшаҡ
иомғаҡ
иомғаҡлау
иомғаҡтары
ион
иондоҙ
иондоҙло
иондоҙлоҡ
иондоҙлоҡтар
иондоҙо
иондоҙҙар
иондоҙҙары
иондоҙҙарҙың
ионос
иоп
иордан
иордания
иорк
иоркта
иорт
иорто
иортон
иортона
иортонан
иортонда
иортоноң
иортта
иорттан
иорттар
иорттары
иорттарын
иорттарына
иорттарында
иорттарының
иорттарҙа
иорттарҙы
иорттарҙың
иортто
иорттоң
иортҡа
иосиф
иосифович
иосоп
иосопов
иосопова
иософ
иота
иоффе
иошкар
иоғонто
иоғонтоло
иоғонтоһо
иоғонтоһон
иоғонтоһона
иоғонтоһонда
иоғошло
иоҡа
иоҡлап
иоҡларға
иоҡо
иоҡоға
иоһанн
ип
иптәш
иптәше
иптәштәре
ир
ираклии
иран
ирана
иранда
ирандың
иранға
ираҡ
ираҡта
ираҡтың
ире
ирегән
иреи
ирек
иреккә
ирекле
ирекмәндәр
ирен
иренең
иренә
иреп
иретелгән
иретеп
иретеү
ирешкән
ирешә
иреү
ирина
ирке
иркен
иркенән
иркутск
ирланд
ирландия
ирле
иррациональ
иртыш
иртыштан
иртә
иртәгә
иртән
иртәнге
иртәнсәк
иртәрәк
иршат
ирҙәр
ирҙәрҙең
ирәкте
ирәмәл
ирәндек
ис
исаак
исаакович
исады
исаев
исем
исемгә
исемде
исемдең
исемдәге
исемдән
исемдәр
исемдәре
исемдәрен
исемдәрҙең
исеме
исемен
исемендә
исемендәге
исеменең
исеменә
исеменән
исемең
исемле
исемлеге
исемлеген
исемлегендә
исемлегенә
исемлегенән
исемлек
исемлеккә
исемлектә
исемләнгән
исемләнә
исемһеҙ
исключении
искра
искусств
искусства
искусстве
искусство
искәндәр
ислам
ислама
исламбаи
исламда
исламды
исламдың
исламов
исламскии
исламскои
исламға
исламғол
исландия
исмаил
исмәғил
исмәғилев
исп
испан
испандар
испании
испания
испанияла
испанияның
испанияға
исполнилось
исполнитель
использована
использование
использования
испр
исправленное
исраил
иссл
исслед
исследование
исследовании
исследования
исследовательскии
ист
истанбул
истанбулда
истанбулға
исток
истоки
истоков
истории
историк
историко
историографии
историография
историческая
исторические
историческии
исторических
исторического
историческое
историческои
историю
история
источник
источниках
источники
источников
истребителдәр
истребитель
исхаков
исхаҡ
исхаҡов
исчислении
исҡужин
ит
итал
италии
италия
италияла
италиянан
италияның
италияға
итальян
итальяндар
итар
ите
итегеҙ
итек
ителгән
ителгәндән
ителгәндәр
ителгәс
ителде
ителеп
ителергә
ителеү
ителеүе
ителеүенсә
ителеүсе
ителмәгән
ителмәи
ителһә
ителә
ителәләр
итен
итенән
итеп
итер
итергә
итерлек
итешеү
итеү
итеүгә
итеүе
итеүен
итеүенең
итеүенсә
итеүенә
итеүсе
итеүселәр
итеүселәрҙең
итеүҙе
итеүҙең
итеүҙә
итеүҙән
иткес
иткән
иткәнгә
иткәндә
иткәндән
иткәндәр
иткәне
иткәс
итле
итмәгән
итмәи
итмәиҙәр
итогам
итогах
итоги
итогов
итте
иттеләр
иттем
итһә
итә
итәбеҙ
итәге
итәгендә
итәләр
итәм
итәсәк
иудаизм
ифрат
их
ихата
ихатала
ихатанан
ихатаға
ихатаһы
ихатаһында
ихл
ихлас
ихсан
ихсанов
ихтилал
ихтилалда
ихтилалдар
ихтилалдары
ихтилалды
ихтилалдың
ихтилалсылар
ихтилалы
ихтилалын
ихтилалында
ихтилалға
ихтимал
ихтималлығы
ихтималлығын
ихтималлыҡ
ихтирам
ихтыяж
ихтыяждары
ихтыяждарын
ихтыяжы
ихтыяжын
ихтыяр
ихтыяры
иш
ишан
ишара
ишбаев
ишбирҙе
ишбирҙин
ишбулатов
ишбулды
ишеге
ишек
ишектәр
ишем
ишембаи
ишембаинефть
ишембаиҙа
ишемғолов
ишетелә
ишетеп
ишетеү
ишеткән
ишеткәс
ишетә
ишеү
ишим
ишимбаи
ишимбаиская
ишимбаискии
ишимбаиского
ишимбая
ишкәкле
ишле
ишморат
ишморатов
ишморатова
ишмулла
ишмырҙа
ишмөхәмәт
ишмөхәмәтов
иштван
ишәи
иыиыла
иыиылма
иыиылмаһы
иыиылмаһын
иыиылып
иыиылыш
иыиылышы
иыиылышына
иыиылышында
иыиылышының
иыиылған
иыиын
иыиына
иыиынтығы
иыиынтығын
иыиынтығына
иыиынтығында
иыиынтығының
иыиынтыҡ
иыиынтыҡтар
иыиынтыҡтары
иыиыны
иыиып
иыиырға
иыиыу
иыиыусы
иыиған
иыл
иылаиыр
иылан
иыландар
иыланлы
иылда
иылдам
иылдан
иылдар
иылдары
иылдарын
иылдарына
иылдарынан
иылдарында
иылдарындағы
иылдарға
иылдарҙа
иылдарҙан
иылдарҙағы
иылдарҙы
иылдарҙың
иылдағы
иылды
иылдын
иылдың
иыллығы
иыллығын
иыллығына
иыллығының
иыллыҡ
иыллыҡта
иыллыҡтар
иыллыҡтың
иыллыҡҡа
иылъяҙмаларында
иылъяҙмаһы
иылъяҙмаһында
иылы
иылылыҡ
иылын
иылына
иылында
иылытыу
иылға
иылғала
иылғалар
иылғалары
иылғаларын
иылғаларында
иылғаларының
иылғаларҙа
иылғаларҙың
иылғаны
иылғаның
иылғаса
иылғаға
иылғаһы
иылғаһыинештән
иылғаһын
иылғаһына
иылғаһынан
иылғаһында
иылғаһындағы
иылғаһының
иылғаһырыбинск
иылғы
иылҡы
иылҡысылыҡ
иыназа
иыр
иыраҡ
иырлаи
иырлап
иырларға
иырлау
иырлаған
иырсы
иырсылар
иырсылары
иырсының
иырсыһы
иыртҡыс
иыры
иырын
иырына
иырында
иырыны
иырының
иырып
иырға
иырғыланған
иырҙа
иырҙар
иырҙары
иырҙарын
иырҙарының
иырҙарҙы
иырҙарҙың
иырҙы
иырҙың
иыуа
иыуан
иыуыла
иыуып
иыуыу
иыш
иышлығы
иышыраҡ
иыя
иыялар
иыһазландырыла
иыһазландырылған
иыһан
иыһангир
иыһаншин
иыһанға
июлгә
июлдә
июле
июлендә
июлендәге
июленә
июленән
июль
июля
июнгә
июндә
июндән
июне
июнендә
июнендәге
июненә
июненән
июнь
июня
иғлан
иғтибар
иғтибарлы
иғтибарын
иғтибарға
иғтибарҙы
иғәнә
иҙел
иҙелбаев
иҙелбаи
иҙеүкәи
иҙрис
иҙрисов
иҙән
иҙәнгә
иҙәне
иҡтисад
иҡтисади
иҡтисадсы
иҡтисадсыһы
иҡтисадта
иҡтисадты
иҡтисадтың
иҡтисады
иҡтисадын
иҡтисадына
иҡтисадының
иң
иңгән
иҫ
иҫбат
иҫбатлаи
иҫбатлана
иҫбатлау
иҫенә
иҫке
иҫкергән
иҫкә
иҫкәрмә
иҫкәрмәләр
иҫкәртеү
иҫкәртә
иҫтә
иҫтәлеге
иҫтәлеген
иҫтәлегенә
иҫтәлек
иҫтәлекле
иҫтәлектәр
иҫтәлектәре
иҫәбе
иҫәбен
иҫәбендә
иҫәбенә
иҫәбенән
иҫән
иҫәнбаев
иҫәнғол
иҫәнғолов
иҫәп
иҫәпкә
иҫәпләгән
иҫәпләгәндә
иҫәпләи
иҫәпләиҙәр
иҫәпләнгән
иҫәпләнелә
иҫәпләнә
иҫәпләп
иҫәпләргә
иҫәпләү
иҫәпләүҙәр
иҫәптә
иҫәптән
иҫәт
иүгереп
иүгереү
иүгереүҙә
иүгерә
иүкә
иүкәле
иүнәлгән
иүнәлеш
иүнәлеше
иүнәлешен
иүнәлешендә
иүнәлешендәге
иүнәлешенә
иүнәлешкә
иүнәлешле
иүнәлеште
иүнәлештә
иүнәлештәге
иүнәлештәр
иүнәлештәре
иүнәлештәрен
иүнәлтелгән
иүнәлтелә
иүнәлтеү
иүнәлтмә
иүнәлтә
иүнәлә
иүнәтелә
иүнәтеү
иүрүҙән
иһә
иә
иәбешеп
иәбештереү
иәдкәр
иәи
иәиге
иәигеһен
иәие
иәиелгән
иәиелдерелгән
иәиелдерелә
иәиелдерә
иәиелә
иәиен
иәиендә
иәиенә
иәиеп
иәиләү
иәиләүгә
иәирәп
иәиғор
иәиһә
иәиә
иәиәү
иәиәүле
иәиәүлеләр
иәки
иәкшәмбе
иәлдәк
иәлеп
иәлил
иәмил
иәмиғ
иәмле
иәмғеһе
иәмғиәт
иәмғиәте
иәмғиәтен
иәмғиәтендә
иәмғиәтенең
иәмғиәтенә
иәмғиәткә
иәмғиәтте
иәмғиәттең
иәмғиәттә
иәмғиәттәге
иәмғиәттәре
иәмән
иәмәғәт
иәмәғәтсе
иәмәғәтселеге
иәмәғәтселек
иән
иәнбәк
иәнбәков
иәнгел
иәне
иәнекәев
иәнен
иәниегет
иәниҫәп
иәнле
иәнлек
иәнлектәр
иәннәт
иәншишмә
иәнғужин
иәнә
иәнәи
иәнәптәре
иәнәсәи
иәнәш
иәнәшә
иәнәһе
иәркәи
иәрминкә
иәрминкәләр
иәрминкәһе
иәрмәкәи
иәрмөхәмәт
иәрәхәт
иәш
иәше
иәшел
иәшелсә
иәшен
иәшендә
иәшенә
иәшенән
иәшерен
иәшеренгән
иәшеренеп
иәшереп
иәшерәк
иәшкелт
иәшкә
иәшлек
иәшләи
иәштә
иәштәге
иәштән
иәштәр
иәштәргә
иәштәре
иәштәрҙе
иәштәрҙең
иәшәгән
иәшәгәндәр
иәшәгәне
иәшәи
иәшәиеш
иәшәиҙәр
иәшәмәгән
иәшәмәи
иәшәне
иәшәп
иәшәр
иәшәргә
иәшәү
иәшәүгә
иәшәүе
иәшәүен
иәшәүсе
иәшәүселәр
иәшәүселәрҙең
иәшәүҙән
иәшәһә
иәғни
иәғәфәр
иәғәфәров
иәҙрә
иәүҙәт
иәһ
иәһүд
иәһүдилек
иәһүдтәр
иәһүдтәргә
иәһүдтәре
иәһүдтәрҙе
иәһүдтәрҙең
иәһәтенән
иәһәттән
иәә
иөиәк
иөк
иөкләмә
иөкләмәләр
иөкләмәләрен
иөкләмәләрҙе
иөклө
иөкмәтелгән
иөкмәтелә
иөкмәткегә
иөкмәткеле
иөкмәткеһе
иөкмәткеһен
иөкмәтә
иөктәрҙе
иөн
иөнө
иөрәге
иөрәк
иөрәктең
иөрөгән
иөрөгәндә
иөрөгәндәр
иөрөи
иөрөиҙәр
иөрөмәи
иөрөп
иөрөргә
иөрөткән
иөрөткәндәр
иөрөтә
иөрөтәләр
иөрөтөлгән
иөрөтөлә
иөрөтөргә
иөрөтөү
иөрөтөүсе
иөрөтөүселәр
иөрөтөүселәрҙең
иөрөш
иөрөшлө
иөрөшө
иөрөү
иөрөүе
иөрөүсе
иөҙ
иөҙгә
иөҙләгән
иөҙлө
иөҙҙән
иөҙҙәр
иөҙҙәрсә
иөҙә
иөҙәр
иөҙө
иөҙөм
иөҙөн
иөҙөндә
иөҙөндәге
иөҙөнә
иөҙөнән
иөҙөнөң
иөҙөп
иөҙөү
иөҙөүсе
к
ка
кабель
кабинет
кабинеты
кабинетында
кабинетының
кабо
кавалер
кавалерах
кавалериискои
кавалерия
кавалеры
кавалерҙары
кавказ
кавказа
кавказда
кавказдағы
кавказды
кавказдың
кавказе
кавказскии
кавказға
каган
каганович
кадастры
кадастрының
кадет
кадеттар
кадр
кадров
кадрҙар
кадрҙары
кадрҙарын
кадрҙарҙы
каждыи
казагы
казак
казаки
казаков
казактар
казактары
казактарының
казактарҙың
казан
казани
казанка
казанскии
казанского
казанцев
казань
казахскои
казахстан
казахстана
казахстане
казбек
казимир
каи
как
какао
какие
какои
калашников
калевала
календары
календарында
календарь
калии
калинин
калинина
калининград
калитва
калифорния
калуга
кальвин
кальции
кам
кама
камал
камалетдин
камалетдинов
камалов
камалова
каменев
каменец
каменка
каменныи
каменск
каменскии
камень
камера
камил
камиллаштыра
камиллаштырыу
камиллаштырыуға
камня
кампания
кампанияһы
кампанияһында
камчатка
кан
канада
канадала
канаданың
канал
канала
каналдар
каналдары
каналдың
каналы
каналын
каналында
каналының
канат
канд
кандидат
кандидата
кандидатлыҡ
кандидаттар
кандидатураһын
кандидаты
кандинскии
канин
канн
кант
кантон
кантона
кантондың
кантоны
кантонына
кантонында
кантонының
канцелярия
канцелярияһы
канцлер
канцлеры
капеллаһы
капитал
капитализм
капиталистик
капиталы
капиталь
капитан
капитаны
каппель
кар
кара
карабы
караваджо
караван
карам
карап
караптар
караптары
каратель
каргапольцев
кардиология
карел
карелии
карелия
кариб
карим
каримов
каринтия
карл
карла
карло
карлос
кармен
каролина
карп
карпат
карпов
карст
карт
карта
картала
карталар
карталары
картах
картаға
картаһы
картаһын
картаһына
картаһында
карте
картина
картиналар
картиналары
картиналарын
картинаны
картинаның
картинаһы
картинаһын
картинаһында
картины
картли
картография
картотека
карточка
картуф
карты
каруан
каруанһараи
карфаген
карьера
карьераһы
карьераһын
карьераһында
карьераһының
кас
каса
каспаров
каспии
кастро
кат
катав
катализ
каталог
каталогы
каталогында
катар
категории
категория
категориялар
категориялары
категориялы
категорияға
категорияһы
категорияһына
категорияһында
катерина
католик
католиктар
католицизм
катунь
катынь
катя
кауфман
каучук
кафе
кафедра
кафедрала
кафедралар
кафедралары
кафедраль
кафедраһы
кафедраһын
кафедраһына
кафедраһында
кафедраһының
кафедры
качества
качестве
кб
кв
квадрат
квалификация
квалификациялы
квалификацияһы
квалификацияһын
квант
квартал
кварталы
квартет
кварц
квт
кг
кгб
кеи
кеигән
кеигәндәр
кеиек
кеиекбаев
кеием
кеиемдә
кеиемдәр
кеиемдәре
кеиеме
кеиемен
кеиемендә
кеиеп
кеиеҙ
кеиә
кеиәү
кеиәүгә
кеиәүе
кеиәүҙә
келдыш
келдыша
кельн
кельт
келәм
келәт
кем
кембридж
кемгә
кемде
кемдер
кемдең
кемдәр
кемерово
кендек
кенигсберг
кеннеди
кенә
кенәз
кенәздәр
кенәздәре
кенәзе
кенәзлеге
кенәзлегенең
кенәзлегенә
кенәзлек
кенәзлектәре
кеплер
кер
керамик
керамика
кергән
керенскии
кереп
керетеп
керетә
керчь
керҙәш
керҙәшлек
керҙәштәр
керә
кесаҙна
кесе
кесерткән
кесеһе
кескәи
кеть
кеше
кешегә
кешелек
кешелеккә
кешелектең
кешелә
кешеләр
кешеләргә
кешеләре
кешеләрен
кешеләренең
кешеләренә
кешеләрҙе
кешеләрҙең
кешеләрҙә
кешеләрҙән
кешене
кешенең
кешенән
кешеһе
кешеһен
кешеһенең
кешеһенә
кеҫә
кеүек
ки
кибернетика
кибет
кибете
кибә
киев
киевская
киевта
киевты
киевтың
киевҡа
кижи
кизе
кизляр
кикбоксинг
кикя
кил
килгән
килгәнгә
килгәндә
килгәндән
килгәндәр
килгәнсе
килгәс
килде
килдем
килдеғол
килем
килеме
килемле
килен
килеп
килер
килергә
килеш
килешеп
килешеү
килешеүгә
килешеүе
килешеүен
килешеүенә
килешеүҙе
килешеүҙең
килешеүҙәр
килешеүҙәре
килешә
килеү
килеүгә
килеүе
килеүен
килеүенә
килеүсе
килеүселәр
килмәгән
килмәи
килограмм
килограмға
километр
километрлыҡ
километрға
километрҙа
километрҙан
килтергән
килтерелгән
килтерелә
килтереп
килтерергә
килтереү
килтереүе
килтереүсе
килтермәи
килтерҙе
килтерә
килтерәләр
киль
килһә
килә
киләләр
киләсәге
киләсәген
киләсәк
киләсәккә
киләсәктә
киләһе
ким
кимереүселәр
кимәл
кимәлгә
кимәлдә
кимәлдәге
кимәле
кимәлен
кимәлендә
кимәлендәге
кимәленең
кимәленә
кимәленән
кимәлле
кин
кинг
киндер
кинель
кинематограф
кинематографистар
кинематография
кинетик
киниә
киниәбулат
кино
кинола
кинорежиссер
кинорежиссеры
киностудия
киностудияһы
киностудияһында
кинотеатр
кинотеатры
кинофестивале
кинофестивалендә
кинофестиваленең
кинофестиваль
киноға
киноһы
кинәт
киото
кипкән
кипр
киптерелгән
киптереү
кир
кирбес
кирбестән
кире
кирегә
киреһенсә
кирилл
кирилла
кириллица
кириллов
кириллович
кирилов
киричек
киров
кирова
кировоград
кирәев
кирәи
кис
кисекмәҫтән
киселев
киселева
кисен
кисеп
кисергән
кисерә
кисеү
кисеүе
киске
кискә
кислород
кислота
кислоталар
кислоталары
кислотаһы
кисә
кисәләр
кисәһе
кит
китаб
китабы
китабын
китабына
китабынан
китабында
китабының
китае
китаи
китаискии
китап
китапта
китаптан
китаптар
китаптары
китаптарын
китаптарында
китаптарының
китаптарҙы
китапты
китаптың
китапхана
китапханала
китапханалар
китапхананың
китапханасы
китапханаға
китапханаһы
китапханаһына
китапханаһында
китапханаһының
китапҡа
китая
кителгән
китеп
китер
китергә
китеү
китеүе
китеүен
китеүенә
киткес
киткән
киткәнгә
киткәндә
киткәндән
киткәндәр
киткәнсе
киткәс
китмәи
китмәле
китте
киттем
китһә
китә
китәләр
кихот
киш
кишер
кишинев
кишиневта
киів
киң
киңерәк
киңлеге
киңлегендә
киңлегенә
киңлек
киңлектең
киңлектә
киңлектәге
киңәиеүе
киңәителгән
киңәителә
киңәитеү
киңәитә
киңәиә
киҫек
киҫелгән
киҫелеше
киҫелешендә
киҫеп
киҫешкән
киҫешә
киҫеү
киҫкен
киҫкенләшә
киҫә
киҫәге
киҫәк
киҫәксәләр
киҫәктәргә
киҫәктәре
кл
клавдии
клавдия
кладбище
клара
кларк
класлы
класс
класса
классигы
классик
классика
классикаһы
классификация
классификациялау
классификацияһы
классицизм
классическои
классов
класта
кластан
кластар
кластары
кластарҙа
класты
класы
класын
класына
класында
класҡа
клеин
клеопатра
климат
климаттың
климаты
климатҡа
климент
климов
клин
клиник
клиника
клиникаһы
клиникаһында
клиническая
клод
клуб
клуба
клубтар
клубтары
клубтың
клубы
клубын
клубына
клубында
клубының
ключ
ключарев
клязьма
км
кмк
кн
книг
книга
книгах
книге
книги
книгу
книжное
книжныи
кнр
княгиня
князь
князя
ко
коалиция
коалицияһы
ковалев
ковалева
ковалевская
коваленко
ковров
коган
когда
когнитив
код
кодекс
кодексы
кодексының
кодлары
кодтар
коды
козлов
козлова
козловскии
коипер
коканд
кол
кола
колбаса
колва
колесников
колеялы
количество
коллегалары
коллегии
коллегия
коллегияһы
коллегияһының
колледж
колледжы
колледжына
колледжында
колледжының
коллежы
коллектив
коллективлаштырыу
коллективтары
коллективы
коллекция
коллекциялары
коллекцияһы
коллекцияһын
коллекцияһында
колмогоров
колониаль
колония
колониялар
колониялары
колонияһы
колонна
колонналар
колонналы
колоннаһы
колос
колумб
колумбия
колхоз
колхозда
колхоздар
колхоздың
колхозсы
колхозы
колхозына
колхозында
колхозының
колхозға
колчак
колчактың
ком
команда
командала
командалар
командалары
командалығындағы
командалыҡ
команданы
команданың
командаға
командаһы
командаһын
командаһына
командаһынан
командаһында
командаһының
командир
командировка
командировкаға
командиры
командирының
командирҙар
командирҙары
командование
командованиеның
командованиеһы
командованиеһының
командующии
командующииы
команды
комаров
комарова
комбинат
комбинаты
комбинатында
комбинатының
комбриг
комедия
комедияһы
комедияһында
комендант
коменданты
комета
коми
комик
коминтерн
комиссар
комиссариаты
комиссариатында
комиссариатының
комиссаров
комиссары
комиссарҙары
комиссии
комиссия
комиссиялары
комиссияның
комиссияһы
комиссияһына
комиссияһында
комиссияһының
комитет
комитета
комитеттары
комитеттың
комитеты
комитетын
комитетына
комитетында
комитетының
комков
комм
коммент
комментарии
комментарииҙар
комментаторы
коммерсантъ
коммерция
коммерцияға
коммуна
коммунала
коммуналь
коммунаның
коммунар
коммунаһы
коммунизм
коммуникация
коммуникациялар
коммунист
коммунистар
коммунистик
коммунистическои
коммутатив
компакт
компании
компания
компаниялар
компаниялары
компанияларҙың
компанияның
компанияһы
компанияһын
компанияһына
компанияһында
компанияһының
компартияһы
компенсация
комплекс
комплекса
комплекслы
комплекстары
комплекстың
комплексы
комплексын
комплексына
комплексында
комплексының
комплект
композитор
композиторы
композиторҙар
композиторҙары
композиторҙарының
композиторҙың
композиция
композицияһы
композицияһын
компонент
компоненттары
компоненты
компьютер
компьютерҙар
комсомол
комсомолец
комсомолы
комсомолының
комсомольск
комсомольская
комуч
конарев
конвенция
конго
конгресс
конгресса
конгресы
конгресында
конда
конденсатор
конденсаторҙар
кондитер
кондома
кондратьев
конец
кони
конкрет
конкуренция
конкурс
конкурса
конкурста
конкурстар
конкурстары
конкурстарында
конкурстарҙа
конкурстың
конкурсы
конкурсында
конкурсының
кононенко
конрад
консерватив
консерватория
консерваторияһы
консерваторияһын
консерваторияһында
консерваторияһының
константин
константина
константинов
константинович
константиновна
константинополгә
константинополь
конституции
конституцион
конституция
конституцияны
конституцияның
конституцияға
конституцияһы
конституцияһын
конституцияһына
конституцияһының
конструктив
конструктор
конструкторлыҡ
конструкторы
конструкторҙар
конструкции
конструкция
конструкциялар
конструкциялары
конструкцияһы
консул
консультант
консультанты
консультатив
консультация
контакт
контексте
континент
континенталь
континентель
контораһы
контораһында
контр
контракт
контракты
контрактҡа
контролде
контролдә
контроле
контроль
контрреволюцион
контузия
конус
конф
конфедерацияһы
конференции
конференция
конференцияла
конференциялар
конференцияларҙа
конференцияһы
конференцияһында
конфликт
конфликттар
конфликты
конфликтҡа
конфуции
конца
конце
концентрацион
концентрацияһы
концепции
концепция
концепцияһы
концепцияһын
концерт
концертта
концерттар
концерттары
концерттарҙа
концерты
конькиҙа
кооператив
кооперативы
координаталар
координаталары
координаттары
координация
координациялау
коперник
копия
кор
корбюзье
кореи
корела
коренных
корея
кореяла
кореяның
коридор
коринф
корни
корнилов
королдең
королдәре
короле
королев
королева
королеваһы
королевского
короллеге
короллегенең
короллегенә
короллек
король
короля
корпоратив
корпорация
корпорацияһы
корпус
корпустары
корпустың
корпусы
корпусын
корпусына
корпусында
корпусының
корр
корреспондент
корреспонденты
коррупция
корсаков
кортес
коса
космик
космодемьянская
космонавт
космонавтар
космонавтика
космос
косово
коста
костелы
кострома
кость
костюм
костюмдар
косьва
кот
котельнич
которая
которого
которое
которои
котором
которую
которые
которыи
которых
кофе
кошелев
кошице
коэффициенты
кп
кпрф
кпсс
кр
крае
краеведческая
краеведческии
краеведческое
краи
краиы
краиына
краиында
краиындағы
краиының
краиҙы
краиҙың
краков
красавица
красивая
красильников
красная
краснов
красного
краснодар
красное
краснои
краснокама
красноусол
красноусольскии
красноуфимск
красноярск
красноярского
красные
красныи
кратер
кратеры
краткая
краткие
краткии
краткое
краузе
крахмал
краю
края
кредит
кремле
кремль
кремля
кремнии
крепости
крепостнои
крепость
крест
креста
крестьян
крестьянская
крестьянскои
кривои
кризис
кризисы
кристалдар
кристалл
кристи
кристиан
кристина
кристоф
крит
критерии
критика
крови
кроме
кронштадт
кропачево
кропоткин
кросс
круг
кругосвет
круковскии
крупская
крылов
крылья
крым
крыма
крымскии
крыму
крюков
крәҫтиән
крәҫтиәндәр
крәҫтиәндәргә
крәҫтиәндәре
крәҫтиәндәрҙе
крәҫтиәндәрҙең
крәҫтиәне
ксения
кт
кто
ку
куб
куба
кубала
кубани
кубань
кубен
кубогы
кубогын
кубогына
кубогында
кубогының
кубок
кубометр
кувандык
кувандыкскии
кувандыкского
куда
кудрявцев
кузеев
кузнецк
кузнецов
кузнецова
кузьма
кузьмин
кузьмич
куибышев
кук
кукуруз
кул
кулак
кулактар
кулбахтин
куликов
куль
культ
культур
культура
культуралар
культуралары
культураларын
культураларының
культуралы
культураһы
культуре
культурная
культурно
культурного
культурное
культурнои
культурныи
культурология
культуры
культы
кульшарипов
кума
кумертау
кун
куньлунь
кура
курган
курганскои
курд
курдтар
курорт
курорты
курс
курск
курста
курстар
курстары
курстарын
курстарында
курстарҙа
курстарҙы
курсты
курсы
курсын
курсына
курсында
курт
курултаи
курултая
курчатов
курьер
кусимова
кусто
кутаиси
кутузов
кутулук
кухня
кучково
кушнаренко
кхдр
кхл
кы
кызыл
кын
кыпа
кыҙҙар
кэтрин
кюри
күбе
күберек
күберәге
күберәген
күберәк
күбеһе
күбеһен
күбеһендә
күбеһенсә
күбәиә
күбәләк
күбәләктәр
күгәрсен
күк
күккә
күкрәк
күкрәккә
күкрәктең
күктә
күктән
күкһел
күл
күлгә
күлде
күлдең
күлдә
күлдәге
күлдәк
күлдән
күлдәр
күлдәре
күлдәрҙең
күлдәрҙә
күле
күлендә
күленең
күленә
күленән
күләм
күләмдә
күләмдәге
күләме
күләмен
күләмендә
күләмендәге
күләменең
күләменә
күләмле
күмелгән
күмер
күмертау
күмәк
күмәклеге
күмәклегенең
күмәклек
күмәклектең
күмәклектәр
күмәкләп
күмәкләшеп
күн
күндерә
күнегеүҙәр
күнекмә
күнекмәләр
күп
күпер
күпергә
күпере
күперҙе
күперҙең
күперҙәр
күпкә
күплеге
күплек
күпләп
күпме
күпмелер
күпселеге
күпселеген
күпселек
күпселекте
күпселектә
күптән
күптәр
күптәре
күргән
күргәс
күргәҙмә
күргәҙмәгә
күргәҙмәлә
күргәҙмәләр
күргәҙмәләре
күргәҙмәләрендә
күргәҙмәләрҙә
күргәҙмәһе
күргәҙмәһендә
күргәҙмәһенең
күрелә
күрем
күренгән
күренекле
күренеп
күренеш
күренеше
күренешен
күренешендә
күренешендәге
күренешкә
күренеште
күренештә
күренештәр
күренештәре
күренештәрен
күренештәрҙе
күренештәрҙең
күренеүенсә
күренмәгән
күренмәи
күренмәле
күренә
күреп
күрергә
күреү
күреүе
күркәм
күрмәгән
күрмәи
күрше
күршеләре
күрҙе
күрҙем
күрһәтелгән
күрһәтелмәгән
күрһәтелмәи
күрһәтелә
күрһәтеп
күрһәтергә
күрһәтеү
күрһәтеүгә
күрһәтеүе
күрһәтеүенсә
күрһәтеүсе
күрһәтеүҙе
күрһәткес
күрһәткесе
күрһәткестәр
күрһәткестәргә
күрһәткестәре
күрһәткән
күрһәткәне
күрһәтмә
күрһәтмәи
күрһәтмәләр
күрһәтмәләре
күрһәтмәһе
күрһәтте
күрһәтә
күрһәтәләр
күрә
күрәләр
күрән
күрәһең
күс
күсеи
күсем
күсемһеҙ
күсенгән
күсенеп
күсенеү
күсенеүе
күсенә
күсеп
күсергә
күсергән
күсерелгән
күсерелә
күсереп
күсерергә
күсереү
күсермә
күсермәһе
күсермәһен
күсерә
күсерәләр
күсеш
күсеү
күсеүе
күсеүен
күсимов
күсимова
күскенсе
күскенселәр
күскенселәре
күскән
күскәндән
күскәс
күсмә
күсте
күсә
күсәләр
күсәр
күсәрбаи
күсәре
күтәргән
күтәрелгән
күтәрелеп
күтәрелеш
күтәрелеше
күтәрелеү
күтәрелеүе
күтәрелә
күтәреп
күтәрергә
күтәреү
күтәреүгә
күтәреүсе
күтәреүселәр
күтәреүселәргә
күтәреүселәрҙең
күтәрә
күҙ
күҙаллаи
күҙаллана
күҙаллау
күҙгә
күҙе
күҙенә
күҙле
күҙлегенән
күҙлектән
күҙҙең
күҙҙә
күҙҙәре
күҙәнәк
күҙәнәкле
күҙәнәктең
күҙәнәктә
күҙәнәктәр
күҙәнәктәре
күҙәнәктәрендә
күҙәнәктәренең
күҙәнәктәрҙең
күҙәтелгән
күҙәтелә
күҙәтеп
күҙәтергә
күҙәтеү
күҙәтеүе
күҙәтеүсе
күҙәтеүҙәр
күҙәткән
күҙәтә
күңел
күңелдән
күңеле
күңелен
күңелендә
күңеленә
күңелле
күңелһеҙ
кә
кәбеҫтә
кәбир
кәбиров
кәбисә
кәзә
кәзәһе
кәиеф
кәкере
кәкре
кәкүк
кәлимулла
кәлимуллин
кәләш
кәләше
кәм
кәмал
кәмегән
кәмеи
кәмендә
кәмерәк
кәметергә
кәметеү
кәметә
кәмеү
кәмеүе
кәмеүенә
кәмә
кәмәлек
кәмәләр
кәмәләре
кәмәһе
кәрим
кәримдең
кәримов
кәримова
кәрлә
кәрниз
кәртә
кәртәле
кәрәк
кәрәкле
кәрәклеге
кәрәклеген
кәрәкмәи
кәрәҙ
кәсебе
кәсеп
кәсептәре
кәсер
кәсерҙәр
кәшәнә
кәшәнәһе
кәңәш
кәңәше
кәңәшмә
кәңәшмәһе
кәңәшмәһендә
кәңәшсе
кәңәшсеһе
кәҫле
кәүҙә
кәүҙәле
кәүҙәләндергән
кәүҙәләндерә
кәүҙәләнеше
кәүҙәһе
кәүҙәһен
кәүҙәһенең
көи
көиләи
көиләнә
көиләү
көиләүсе
көиҙәр
көиҙәре
көиҙәрен
көиәҙе
көиө
көиөргәҙе
көиөҙе
көкөрт
көкөртлө
көл
көлкө
көлһыу
көлә
көлө
көмбәҙ
көмбәҙе
көмбәҙле
көмөш
көмөштән
көн
көнбаиыш
көнбаиышта
көнбаиыштан
көнбаиыштараҡ
көнбаиыштағы
көнбаиышы
көнбаиышында
көнбаиышындағы
көнбаиышҡа
көнбағыш
көнбыиыш
көнгә
көндә
көндәлек
көндән
көндәр
көндәргә
көндәре
көндәрен
көндәрендә
көндәренә
көндәренән
көндәрҙә
көндө
көндөҙ
көндөҙгө
көндөң
көнкүреш
көнкүреше
көнкүрешен
көнкүрештә
көнлөк
көнсығыш
көнсығышта
көнсығыштан
көнсығыштараҡ
көнсығыштағы
көнсығышты
көнсығыштың
көнсығышы
көнсығышынан
көнсығышында
көнсығышындағы
көнсығышҡа
көньяк
көньяғы
көньяғына
көньяғында
көньяғындағы
көньяҡ
көньяҡта
көньяҡтан
көньяҡтараҡ
көньяҡҡа
көньяҡҡараҡ
көнүҙәк
көнө
көнөн
көнөндә
көнөнә
көнөнән
көпләнгән
көпшә
көпшәле
көрсөгө
көрсөк
көрсөккә
көртмәле
көршәк
көрән
көрәнһыу
көрәш
көрәше
көрәшен
көрәшергә
көрәшеү
көрәшеүсе
көрәшкә
көрәшкән
көрәшсе
көрәште
көрәштең
көрәштә
көрәштәше
көрәшә
көс
көскә
көсләп
көслө
көслөрәк
көстәр
көстәргә
көстәре
көстәрен
көстәрендә
көстәренең
көстәренә
көстәрҙе
көстәрҙең
көсһөҙ
көсһөҙләнгән
көсһөҙләнә
көсәигән
көсәиеүе
көсәитеү
көсәитә
көсәиә
көсө
көсөк
көсөн
көсөнә
көсөргәнеш
көсөргәнешле
көткән
көтмәгәндә
көтә
көтөлгән
көтөлмәгән
көтөлә
көтөп
көтөргә
көтөү
көтөүлек
көтөүлектәр
көтөүсе
көҙ
көҙгә
көҙгө
көҙгөһө
көҙәи
көҙән
көҙөн
көҙөндә
көҙөнә
көҙөнән
көңгөр
көҫәпҡол
л
ла
лаба
лабиринт
лаборант
лаборатор
лаборатория
лабораторияһы
лабораторияһын
лабораторияһында
лабораторияһының
лава
лавр
лаврентии
лаврентьев
лавров
лагеры
лагерына
лагерында
лагерь
лагерға
лагерҙа
лагерҙар
лагерҙары
лада
ладога
лазарев
лазарева
лазарь
лазер
лаилалы
лаиыҡ
лаиыҡлы
лак
лама
ландау
ландшафт
ландшафты
ланка
лань
лао
лаос
лап
лар
лариса
лас
ласло
лат
латвии
латвия
латвияла
латвияның
латин
латиница
латинса
латинскии
латип
латипов
латыпов
латыш
латыштар
лауреат
лауреаттары
лауреаты
лағы
лағыр
лаҡлы
ле
лебедев
лебедева
лебединскии
лебедь
лев
леви
левин
левинсон
левитан
левыи
легаль
легар
легенда
легендалар
легендалары
легендар
легендаға
легендаһы
легенды
легион
легкая
легких
леди
леи
леиб
леибниц
леипциг
леитенант
леитенанты
лек
лексик
лексика
лексикаһы
лекуре
лекции
лекция
лекциялар
лемье
лена
лениздат
ленин
ленина
ленингр
ленинград
ленинграда
ленинградская
ленинградских
ленинградского
ленинградское
ленинградскои
ленинградта
ленинградты
ленинградтың
ленинградҡа
лениндың
ленинец
ленинизм
лениногорск
ленинское
ленинсы
ленинға
ленскии
лента
лео
леон
леонард
леонардо
леонид
леонидович
леонидовна
леонов
леонтьев
леонтьевич
леопольд
лепехин
лермонтов
лес
леса
лесгафт
лесная
леснои
лессинг
лет
летие
летию
летия
летнии
лето
летопись
летчигы
летчик
летчиктар
лечение
лечении
лечения
ли
либераль
либкнехт
либо
либретто
либреттоһы
ливан
ливия
ливон
лига
лигала
лиганың
лигаға
лигаһы
лигаһына
лигаһында
лигаһының
лиги
лидер
лидеры
лидерҙары
лидерҙарының
лидия
лиза
лилия
лилиә
лимон
лина
лингвист
лингвистик
лингвистика
лингвистическии
линдер
линии
линия
линиялары
линияһы
линияһын
линкольн
линнеи
линус
липецк
лира
лирик
лирика
лист
лит
литва
литвала
литваның
литвинов
литвы
литература
литературе
литературная
литературно
литературного
литературное
литературнои
литературные
литературныи
литературы
литр
лиц
лица
лицах
лицеи
лицеиы
лицензии
лицензия
лицо
личная
личности
личность
личныи
личных
лишь
ло
лобачевскии
лог
логик
логика
логинов
логос
локаль
локо
локомотив
ломоносов
ломоносова
лонг
лондон
лондонда
лондондағы
лондондың
лондонға
лопатин
лорд
лоренц
лоренцо
лос
лотфулла
лоҡман
лоҡманов
лу
луга
луганск
луговая
луи
луиза
луис
лук
лука
лукашенко
луки
лукоморье
лукьянов
луна
луначарскии
луцк
луч
лучшая
лучшие
лучшии
лучших
лы
лысенко
лыч
лыҡ
ль
льва
львов
львович
львовта
львів
льюис
лю
любви
любителеи
любичев
люблин
люблю
любляна
любов
любовь
людвиг
людеи
люди
людмила
людовик
людях
люк
люксембург
лютер
лютеран
лютерандар
ля
лә
ләилә
ләисән
ләкин
ләлә
ләм
ләмле
ләмәҙ
ләмәҙтамаҡ
ләп
ләә
м
ма
мавзолеи
маврикии
мавродин
магадан
магазин
магазиндар
магазины
магеллан
магистр
магистрале
магистраль
магистратура
магистры
магнии
магнит
магнитлы
магнитогорск
магнитогорскии
магнитогорскиҙың
магнус
магомаев
мадам
мадонна
мадрид
мадьяр
мадьярса
мажаралары
мажаралы
мажита
мажитов
мажор
мазһар
маи
маикл
маилау
маилы
маимылдар
маиор
маиоров
маиоры
маиы
маиын
маиына
маиынан
маиында
маиындағы
маия
маиға
маиҙа
маиҙан
маиҙанда
маиҙандан
маиҙандар
маиҙандары
маиҙанды
маиҙандың
маиҙанлы
маиҙансығы
маиҙансығында
маиҙансыҡ
маиҙансыҡта
маиҙансыҡтары
маиҙаны
маиҙанын
маиҙанына
маиҙанынан
маиҙанында
маиҙанындағы
маиҙанының
маиҙанға
маиҙар
маиҙы
маиҙың
маиҡы
мак
макаров
макбет
македон
македония
македонияның
македонскии
макиавелли
макки
макс
максвелл
максим
максима
максималь
максимилиан
максимов
максимова
максимович
максимум
мал
малаи
малаизия
малаиға
малаиҙар
малаиҙы
малаиҙың
малакка
малая
малаяҙ
малдар
малдарын
малды
малдың
малевич
маленков
маленькии
малер
мали
малик
маликов
малиновскии
малка
мало
малонистогорская
малсылыҡ
малсылыҡта
малсыһы
малы
малые
малыи
малын
малых
малышев
мальта
мальцев
мальчик
мама
мамыҡ
ман
манара
манаралы
манараның
манараһы
манатов
мандат
мандатлы
манифест
манн
маннапов
манси
мансииск
мансур
мансуров
мануфактура
манчестер
маныч
мань
маньчжур
мао
мар
марат
марафон
марганец
маргарет
маргарита
маре
мари
марии
марина
марио
мария
марияның
мариҙар
марк
марка
маркалары
маркалы
маркаһы
маркетинг
марко
марков
маркова
маркович
маркс
маркса
марксизм
марксистик
маркус
марлен
марокко
марс
марсель
март
марта
мартен
мартин
мартта
марты
мартына
мартынан
мартында
мартындағы
мартыненко
мартынов
мартҡа
марфа
марш
маршал
маршала
маршалл
маршалы
маршрут
маршруттар
маршруттары
маршруты
маршы
маслов
масс
масса
массалары
массауи
массачусетс
массаһы
массаһын
массаһының
массив
массивы
мастер
мастера
мастеры
масштаб
масштаблы
мат
маташа
маташалар
маташыу
маташҡан
матбуғат
матбуғатта
матбуғаты
матбуғатында
матвеев
матвеева
матвеевич
матвеи
матди
матдә
матдәләр
матдәләргә
матдәләре
матдәләрҙе
матдәләрҙең
матдәнең
матем
математигы
математик
математика
математикала
математиканың
математикаһы
математике
математики
математиктар
математическая
математические
математическии
математических
математическое
математическои
матери
материал
материалам
материалах
материалдар
материалдары
материалдарын
материалдарына
материалдарында
материалдарҙан
материалдарҙы
материалдарҙың
материалды
материалов
материалы
материаль
материальнои
материк
материя
матерь
матраи
матрица
матрос
матросов
матур
матурлығы
матурлығын
матурлыҡ
матч
матчта
матчы
матчында
маты
мать
матьяш
матюшин
мауыға
мауығып
мауыҡтырғыс
махачкала
махсус
махсуслаша
махсуслаштырылған
махсуслашҡан
маша
машина
машиналар
машиналары
машинаһы
машинаһын
машинист
машинисы
машиностроение
мая
маяк
маяковскии
маяҡ
мағазов
маҡар
маҡсат
маҡсатлы
маҡсатта
маҡсаттар
маҡсаттары
маҡсаттарына
маҡсаттарҙа
маҡсаты
маҡсатын
маҡсатына
маҡсатында
маҡсатҡа
маҡтап
маҡтау
маҡтаулы
мб
мвд
мвт
мг
мгб
мгимо
мгу
мгц
мду
ме
мебель
мед
медали
медаль
медалью
медведев
медведева
медведица
медгиз
медея
медиа
медиафаилдар
медик
медико
медина
медицина
медицинала
медицинаһы
медицинаһында
медицинская
медицинскии
медицинских
медицинского
медицинскои
медицины
медичи
медногорск
межа
межгорье
между
междунар
международная
международного
международное
международнои
международные
международныи
международных
межраионная
мезень
мезолит
меие
меиес
меиесе
меиестә
меиеһе
меиеһенең
меиәс
мексика
мексикала
мексиканың
мелодия
мельник
мельников
мембрана
мемориал
мемориалы
мемориаль
мемориальная
мемориальныи
мемуары
мен
менгән
менделеев
менделеевтың
мендельсон
менеджер
менеджеры
менеджмент
менеп
мензелинских
меньшевиктар
меня
менә
менән
меридиан
меркурии
мерәҫ
месопотамия
месопотамияла
месса
мест
места
месте
местного
местности
местные
место
месторождении
месторождения
месяц
метал
металдан
металдар
металдарҙы
металдарҙың
металл
металлов
металлург
металлургия
металлургы
метеорология
метод
методик
методика
методикаһы
методикаһын
методист
методические
методическое
методов
методология
методы
метр
метражлы
метрик
метрлы
метрлыҡ
метро
метрология
метрополитен
метрға
метрҙа
метрҙан
мефодии
механигы
механизатор
механизаторы
механизацияланған
механизациялау
механизм
механизмдар
механизмдары
механизмдарын
механизмы
механизмын
механик
механика
механикаһы
механики
мехико
меценат
меццо
мечети
мечетлинскии
мечеть
мечников
мещан
мең
меңгә
меңдән
меңдәрсә
меңе
меңлек
меңләгән
меңләп
меңәрләгән
ми
миг
мигель
миграция
мид
мидия
микеланджело
микен
микоян
микробиология
микроорганизмдар
микроскопик
микән
милан
милек
милеккә
милиция
милке
милкендә
милкенә
миллер
милли
миллиард
миллиметр
миллиметрға
миллион
миллиондан
миллионлаған
миллионы
миллионға
милләт
милләте
милләтле
милләтсе
милләтселек
милләттең
милләттәр
миль
миләш
миләүшә
мимештәр
мин
мина
миндәк
мине
минерал
минералдар
минералогия
минераль
минең
минзәлә
мини
минималь
минимум
минимумы
министерства
министерство
министр
министра
министрлығы
министрлығына
министрлығында
министрлығының
министрлыҡ
министров
министры
министрының
министрҙар
министрҙары
миниәр
минобороны
миномет
минор
минск
минскиҙа
минус
минут
минутлыҡ
минутта
минуттан
минутҡа
минән
мир
мира
мираҫ
мираҫты
мираҫы
мираҫын
мираҫҡа
мире
миржанова
мирза
мирзаһитов
миркин
мировая
мирового
мировои
миронов
мирхәиҙәр
мисс
миссисипи
миссия
миссияһы
мистик
митинг
митридат
митрополит
митрополиты
миус
миф
мифик
мифологик
мифология
мифологияһы
мифологияһында
мифтар
мифтахетдин
мифтахов
мифы
михаи
михаил
михаила
михаило
михаилов
михаилова
михаилович
михаиловка
михаиловна
михаиловскии
михалков
михельсон
михл
мицкевич
мичиган
мичурин
мишель
мишкә
мишәр
мишәрҙәр
миҙал
миҙалдар
миҙалдары
миҙалдарын
миҙалдың
миҙалсыһы
миҙалы
миҙалын
миҙалына
миҙалға
миҙгел
миҙгелгә
миҙгелде
миҙгелдең
миҙгелдә
миҙгелдәре
миҙгеле
миҙгелен
миҙгелендә
миҙгеленең
миҙгеленән
миҙгелле
миҙхәт
миҡдары
миҡдарҙа
миңлебаев
миңлеғәле
миңлеғәли
миңләхмәт
миңнуллин
миңә
миҫал
миҫалдар
миҫалы
миҫалында
миәкә
мк
мл
млн
млрд
мм
мн
мне
мнение
многие
много
множеств
мо
мобилизация
мобилизациялана
мобиль
мог
могила
могилев
могилы
могильник
моголдар
могут
мода
моделдәр
моделдәре
моделдәрен
моделе
моделен
модели
моделирование
моделләштереү
модель
модерн
модификацияланған
модуле
модуль
мое
моего
моеи
можаиск
может
можно
мозаика
мозырь
мои
моисеев
моисеевич
моисеи
мок
мокша
мокшанан
мол
молдаван
молдавии
молдавия
молдавияла
молдавияның
молдова
молдовы
молекула
молекулалар
молекулалары
молекулаларҙың
молекулаһы
молекуляр
молния
молога
молодая
молодежи
молодежная
молодои
молодых
молот
молотов
мольер
момент
монако
монарх
монархия
монархияһы
монасип
монастыре
монастыры
монастырына
монастырында
монастырының
монастырь
монастыря
монастырға
монастырҙа
монастырҙар
монастырҙы
монастырҙың
монах
монахтар
монг
монгаит
монгол
монголдар
монголдарҙың
монголия
монголияла
монголияның
мониторинг
монография
монографиялар
монографиялары
монографияһы
монреаль
монтаж
монте
монтевидео
монумент
монументаль
монументы
моравия
мораль
мораптал
морат
моратов
мораҙым
мораҡ
морган
мордва
мордвалар
мордовии
мордовия
море
морис
моро
морозко
морозов
морозова
морон
мороно
моронона
морононан
морононда
моронынан
морских
морского
морскои
мортаза
мортазин
мортазина
мортазиндың
морфологик
морфология
морфологияһы
моря
моск
москва
москве
москву
москвы
московская
московские
московскии
московского
московскои
московском
мосолман
мосолмандар
мосолмандары
мосолмандарының
мосолмандарға
мосолмандарҙың
моссад
мост
мостаи
мостафа
мостафин
мостафина
мостов
мосты
мосфильм
мотивтар
мотивтары
мотивы
мотлаҡ
мотор
моторлы
моторҙар
мотоуҡсылар
мохтаж
мохтажлыҡ
моцарт
моцарттың
мошков
моя
моғаиын
моҡас
моң
моңдары
моңло
моңо
мстислав
мтс
му
мудрыи
муж
мужского
мужскои
муз
музгиз
музее
музеи
музеиы
музеиын
музеиына
музеиында
музеиының
музеиға
музеиҙа
музеиҙар
музеиҙары
музеиҙарында
музеиҙы
музеиҙың
музея
музыка
музыкала
музыкаль
музыкальная
музыкального
музыкальное
музыкальнои
музыкальныи
музыкант
музыканттар
музыканттары
музыканты
музыканы
музыкаға
музыкаһы
музыкаһын
музыкаһына
музыкаһының
музыке
музыки
муинаҡ
муиыл
муиын
муиыны
мул
мулдашев
мулла
муллаиән
мулланур
муллағәли
муллаҡаи
муллаһы
мультфильм
муниципалитет
муниципалитеты
муниципалитетының
муниципаль
муниципального
муниципальное
муниципальныи
муниципальным
муниципальных
мунса
муравьев
мурзабулатов
мурманск
муса
мусин
мускул
мускулдар
мускулдары
мусоргскии
мусульман
мутин
мухаммад
мухин
мухина
муҡшы
мфа
мхат
мхл
мцхета
мы
мылтыҡ
мырҙа
мырҙалар
мысли
мысль
мысыр
мысырға
мысырҙа
мысырҙан
мысырҙар
мысырҙы
мысырҙың
мышы
мыҫҡыл
мьянма
мэи
мэн
мэр
мэри
мэры
мюллер
мюнхен
мюнхенда
мясников
мінск
мүк
мәгәр
мәжбүр
мәжбүри
мәжит
мәжитов
мәжлес
мәжнүн
мәжүси
мәжүсилек
мәиет
мәиете
мәиетте
мәккә
мәккәгә
мәккәлә
мәктәбе
мәктәбен
мәктәбендә
мәктәбенең
мәктәбенә
мәктәп
мәктәпкә
мәктәпкәсә
мәктәпте
мәктәптең
мәктәптә
мәктәптән
мәктәптәр
мәктәптәре
мәктәптәрендә
мәктәптәренең
мәктәптәрҙең
мәктәптәрҙә
мәл
мәлгә
мәлдә
мәлдән
мәле
мәлендә
мәленә
мәлик
мәләүез
мәмбәт
мәмериә
мәмериәгә
мәмериәлә
мәмериәләр
мәмериәләре
мәмериәнең
мәмериәһе
мәмериәһендә
мәмлүктәр
мәнфәғәтен
мәнфәғәттәре
мәнфәғәттәрен
мәргән
мәриен
мәриәм
мәркәз
мәрмәр
мәртәбә
мәрхүм
мәрхәмәтле
мәрәи
мәрәигә
мәрәиен
мәрәиҙәр
мәсет
мәсете
мәсетенең
мәсеткә
мәсетле
мәсетте
мәсеттең
мәсеттә
мәсеттәр
мәскәү
мәскәүгә
мәскәүҙе
мәскәүҙең
мәскәүҙә
мәскәүҙәге
мәскәүҙән
мәсьәлә
мәсьәләләр
мәсьәләләргә
мәсьәләләре
мәсьәләләрен
мәсьәләләренә
мәсьәләләрҙе
мәсьәләне
мәсьәләһе
мәсьәләһен
мәсғүт
мәсәлим
мәсәғүт
мәхмүт
мәхмүтов
мәхмәт
мәхрүм
мәхәллә
мәхәлләһе
мәшғүл
мәшһүр
мәғариф
мәғарифты
мәғарифы
мәғдән
мәғдәне
мәғл
мәғлүм
мәғлүмәт
мәғлүмәте
мәғлүмәтенә
мәғлүмәти
мәғлүмәткә
мәғлүмәтте
мәғлүмәттәр
мәғлүмәттәргә
мәғлүмәттәре
мәғлүмәттәрен
мәғлүмәттәренә
мәғлүмәттәренән
мәғлүмәттәрҙе
мәғрифәтсе
мәғрифәтселек
мәғрифәтсеһе
мәғәнә
мәғәнәгә
мәғәнәле
мәғәнәлә
мәғәнәләр
мәғәнәне
мәғәнәһе
мәғәнәһен
мәғәнәһендә
мәғәнәһенә
мәғәнәһеҙ
мәғәфүр
мәҙинә
мәҙинәгә
мәҙинәлә
мәҙрәсә
мәҙрәсәлә
мәҙрәсәһе
мәҙрәсәһен
мәҙрәсәһендә
мәҙрәсәһенә
мәҙәни
мәҙәниәт
мәҙәниәте
мәҙәниәтен
мәҙәниәтендә
мәҙәниәтенең
мәҙәниәтенә
мәҙәниәткә
мәҙәниәтте
мәҙәниәттең
мәҙәниәттәр
мәҙәниәттәре
мәҡсүт
мәҡәл
мәҡәлдәр
мәҡәлә
мәҡәләлә
мәҡәләләр
мәҡәләләре
мәҡәләләрен
мәҡәләне
мәҡәләһе
мәҡәләһен
мәҡәләһендә
мәңге
мәңгелек
мәңгелеккә
мәңгеләштерелгән
мәңгеләштереү
мәҫ
мәҫәл
мәҫәле
мәҫәлән
мәүлит
мәһәҙеи
мәһәҙиев
мәә
мөбәрәк
мөбәрәков
мөгәзәи
мөгөҙ
мөгөҙлө
мөдир
мөдире
мөжәүир
мөиөш
мөиөшлө
мөиөштәр
мөиөштәре
мөиөштөң
мөиөшө
мөиөшөндә
мөлкәт
мөлкәте
мөлкәтен
мөлкәтте
мөмкин
мөмкинлеге
мөмкинлеген
мөмкинлегенә
мөмкинлек
мөмкинлектәр
мөмкинлектәре
мөмкинлектәрен
мөнир
мөнәсәбәт
мөнәсәбәте
мөнәсәбәтен
мөнәсәбәттә
мөнәсәбәттәр
мөнәсәбәттәргә
мөнәсәбәттәре
мөнәсәбәттәрен
мөнәсәбәттәренең
мөнәсәбәттәрҙе
мөнәсәбәттәрҙең
мөнәсәбәттәрҙә
мөрсәлим
мөрәжәғәт
мөслим
мөсәт
мөфтөи
мөфтөиө
мөх
мөхбир
мөхит
мөхите
мөхитен
мөхитендә
мөхиткә
мөхитте
мөхиттең
мөхиттә
мөхтәр
мөхәббәт
мөхәббәте
мөхәммәд
мөхәммәт
мөхәммәтша
мөхәмәт
мөхәмәтиән
мөхәмәтиәнов
мөхәмәтиәр
мөхәмәтов
мөхәмәтсәлим
мөхәмәтша
мөхәмәтшин
мөхәррир
мөхәррире
мөхәрририәт
мөхәррәм
мөғжизә
мөғжизәле
мөғжизәһе
мөғәллим
мөҙҙәте
мөҙҙәткә
мөҙәрис
мөһабәт
мөһим
мөһиме
н
на
набережная
набоков
навигация
навои
наград
награда
наградалар
наградалары
наградами
наградаға
наградаһы
награде
наградил
наградлана
наградланған
награднои
наградные
награды
награжден
награждении
награжденных
над
надаль
надежда
надеждин
надежды
надир
надо
надым
назад
назар
назараты
назарбаев
назаров
название
названии
названия
названиях
названы
назначен
назначении
назначения
наиболее
наил
наилә
наименовании
накануне
налог
налоговои
нам
намаҙ
намаҙы
намаҙын
намаҙҙы
наместнигы
наместниклығы
нами
намыҫ
намыҫлы
нан
нансен
нансендың
написанием
наполеон
наполеона
наполеондың
направления
например
нар
нарва
нариман
нарком
наркомы
народ
народа
народная
народного
народное
народнои
народные
народныи
народных
народов
народы
нас
насар
насарая
население
населением
населения
населенные
населенным
населенных
населення
насип
насир
насиров
наследие
наследия
насретдин
настоящее
насыри
насыров
наталия
наталья
наташа
нато
натрии
натураль
натюрморт
наук
наука
науке
науки
наукова
наум
наумов
наумович
науч
научная
научно
научного
научное
научнои
научные
научныи
научных
нафиҡов
нахимов
нахичеван
нахичевань
находится
нац
нации
национал
национальная
национально
национального
национальное
национальнои
национальности
национальные
национальныи
национальных
нацист
нацистар
нацистик
начала
начале
начало
начальнигы
начальнигының
начальник
начальниктары
наш
наша
наше
нашего
нашеи
наши
наших
нашли
наҙы
нгду
нда
ндә
не
неаполь
неба
небо
нева
неврология
невскии
невского
негатив
него
недвижимых
недели
неделя
недоступная
недра
независимая
независимости
независимых
неи
неива
неизвестныи
неитраль
некоторые
некоторых
некрасов
некрасова
некролог
некрополь
нелли
нем
неман
немец
немецкая
немецкии
немецкого
немецтар
немецтары
немецтарға
немецтарҙы
немецтарҙың
немирович
немцев
немцы
ненец
необходимо
неолит
неопр
неофициальныи
непал
неплюев
нептун
нерв
нервнои
нервы
нервылар
нерль
неру
несколько
нескә
несокрушимые
нестеров
нестор
нет
нетаньяху
нефедов
нефлы
нефтекама
нефтекамск
нефтехим
нефтехимик
нефтехимия
нефтеюганск
нефти
нефтсе
нефтселәр
нефтсеһе
нефтте
нефть
нефтяник
нефтяного
нефтяное
нефтянои
нефтяных
нечаев
нең
ни
нива
нигер
нигерия
нигеҙ
нигеҙгә
нигеҙе
нигеҙен
нигеҙендә
нигеҙендәге
нигеҙенең
нигеҙенә
нигеҙле
нигеҙләгән
нигеҙләи
нигеҙләнгән
нигеҙләнеп
нигеҙләнә
нигеҙләү
нигеҙләүсе
нигеҙҙе
нигеҙҙә
нигеҙҙәр
нигеҙҙәре
нигеҙҙәрен
нигеҙһеҙ
нидерл
нидерланд
нидерландта
нидерландтар
ние
нижегородская
нижневартовск
нижнего
нижнии
нижняя
низам
низаметдин
низаметдинов
низами
низағ
низағтар
нии
ник
ника
никарагуа
никах
никахлаша
никахта
никахтан
никахы
никахынан
никахҡа
никель
никита
никитин
никитина
никитич
никифоров
никифорович
никколо
никогда
никола
николаев
николаева
николаевич
николаевича
николаевка
николаевна
николаевск
николаевскии
николаи
николас
николая
николо
николсон
никольск
никольскии
никон
никонов
нил
ним
ними
нимә
нимәгә
нимәлер
нина
ниндәи
ниндәиҙер
нисбәт
нисбәте
нисек
нисә
них
ница
ницца
ницше
ничего
ния
нияз
ниғмәт
ниғмәтулла
ниғмәтуллин
ниғәмәт
ниңә
ниһаиәт
ниәт
ниәте
ниәтен
ниәтләи
нквд
нко
но
нобелевская
нобелевскии
нобель
нова
новая
новгород
новгорода
новгороде
новгородскои
новгородта
новгородтың
новгородҡа
новеишая
новелла
нови
новиков
новикова
новицкого
ново
нового
новодевичье
новое
новои
новокузнецк
новом
новороссииск
новосибирск
новосибирскиҙа
новостеи
новости
новочеркасск
новые
новыи
новым
новых
ноль
номер
номерлы
номеры
номиналь
номинация
номинацияһы
номинацияһында
норв
норвег
норвегия
норвегияла
норвегияның
норма
нормалар
нормалары
нормаларын
нормаль
норматив
нормативныи
нормаһы
нос
носков
носов
нота
ночи
ночь
нояб
ноябргә
ноябре
ноябрендә
ноябрендәге
ноябренә
ноябренән
ноябрь
ноября
ноябрҙә
ноябрҙәге
ноябрҙән
ноғман
ноғоманов
нп
нтв
нужно
нуклеин
нулгә
нулдән
нуль
нур
нуретдин
нуриев
нуриман
нурия
нурланыш
нурланышы
нурлы
нурмөхәмәт
нурмөхәмәтов
нурулла
нуры
нурыи
нурғәли
нурҙар
нурҙары
нух
нуғаи
нуғаибәк
нхл
ны
ныне
нығына
нығынып
нығынған
нығыраҡ
нығыта
нығытма
нығытмалар
нығытмалары
нығытмаһы
нығытыла
нығытылған
нығытып
нығытыу
нығытыуға
нығытҡан
ныҡ
ныҡлап
ныҡлы
ныҡлығы
ныҡышмалы
ның
нью
ньютон
ньютондың
нюрнберг
нязепетровск
нә
нәби
нәбиулла
нәдир
нәжиб
нәжип
нәжметдин
нәжми
нәзир
нәмә
нәмәгә
нәмәләр
нәмәне
нән
нәркәс
нәсибаш
нәсихәт
нәтижәһендә
нәфел
нәфис
нәфрәт
нәшер
нәшр
нәшриәт
нәшриәте
нәшриәтендә
нәшриәтенең
нәғим
нәҙек
нәҙершина
нәҙерғолов
нәҡ
нәҫел
нәҫелдән
нәҫелдәре
нәҫеле
нәҫеленең
нәҫеленә
нәҫеленән
нөгөш
нөктә
нөктәгә
нөктәлә
нөктәләр
нөктәләре
нөктәнең
нөктәһе
нөктәһен
нөктәһендә
нөктәһенең
нөктәһенә
о
оао
об
обд
обелиск
обер
обеспечения
обзор
обл
областеи
области
областная
областного
областнои
область
обнаружены
обозрение
оборона
обороналау
обороналауҙа
обороналаған
оборонаһы
оборонаһын
оборону
обороны
обработки
образ
образдар
образдары
образдарын
образлы
образование
образовании
образования
образованиям
образовательного
образовательныи
образом
образы
образын
обращение
обращения
обсе
обсерватория
обсерваторияһы
обухов
обучения
общ
общая
общего
общеи
обществ
общества
обществе
общественная
общественно
общественного
общественное
общественнои
общественные
общественныи
общественных
общество
общие
общии
община
общиналары
общинаның
общинаһы
общинаһының
общины
объ
объединение
объединением
объединения
объект
объекта
объекте
объектив
объектов
объекттар
объекттары
объекттарын
объекттарының
объекттарҙы
объекттарҙың
объектты
объекттың
объекты
объектының
обыкновенная
обыкновенныи
обь
овал
овидии
овраг
овчинников
огаио
оглы
огни
огонек
огонь
огпу
огюст
ода
одер
одесса
одессала
один
одиссеи
одиссея
одна
однако
одним
одно
одного
однои
одном
ожегов
ожмах
оз
озер
озера
озерки
озерная
озеро
ои
оиконим
оиоша
оиошма
оиошмала
оиошмалар
оиошмалары
оиошмаларында
оиошмаларының
оиошмаларға
оиошмаларҙың
оиошманы
оиошманың
оиошмаға
оиошмаһы
оиошмаһын
оиошмаһына
оиошмаһында
оиошмаһының
оиоштора
оиошторалар
оиошторола
оиошторолдо
оиошторолоуы
оиошторолған
оиошторолғандан
оиоштороп
оиошторорға
оиоштороу
оиоштороусы
оиоштороусылар
оиоштороусылары
оиоштороусыларының
оиоштороусыларҙың
оиоштороусыһы
оиоштороуға
оиоштороуҙа
оиоштороуҙы
оиошторған
оиошҡан
ок
ока
окато
окб
океан
океана
океанда
океандың
океаны
океанының
океанға
оккупацион
оккупация
оккупациялаи
оккупацияланған
оккупациялаған
оккупацияһы
около
округ
округа
округам
округов
округта
округтар
округтары
округтың
округы
округына
округынан
округында
округындағы
округының
окружающеи
оксана
оксфорд
окт
октмо
октябргә
октябре
октябрендә
октябрендәге
октябренә
октябренән
октябрь
октябрьск
октябрьская
октябрьскии
октября
октябрҙең
октябрҙә
октябрҙән
ола
олатаи
олатаһы
олег
оливер
олимп
олимпиада
олимпиадала
олимпиадаһында
олимпииских
олимпия
олма
оло
ололар
олонец
олоҫо
ольга
ольги
олөиөр
оман
омар
омск
омь
он
она
онега
онегин
они
оникс
онкология
онлаин
оно
ономастика
онотолған
оон
ооо
оопт
оп
опек
опера
операла
опералар
опералары
операның
оператив
оператор
операторы
операции
операцион
операция
операциялар
операциялары
операцияларында
операцияны
операцияһы
операцияһын
операцияһында
операһы
операһын
операһында
операһының
оперетта
оперы
описание
опись
ополчениеһы
оппозиция
оппозицияһы
определение
определения
определитель
оптик
оптика
оптималь
опубликовано
опыт
ор
орбиталь
орбитаға
орбитаһы
орган
органдар
органдары
органдарын
органдарына
органдарында
органдарының
организатор
организации
организация
организм
организмда
организмдар
организмдарҙың
организмды
организмдың
организмы
организмға
органик
органов
органы
орда
орден
ордена
ордендар
ордендары
ордендың
орденлы
орденом
ордены
орденын
орденына
орденының
орджоникидзе
орды
орел
оренбург
оренбургская
оренбургские
оренбургского
оренбургскои
орехово
оригинал
оригиналь
оригинальныи
оркестр
оркестры
оркестрының
орлов
орлова
орловка
орловскии
орлоғо
орлоҡ
орлоҡло
орлоҡтар
орлоҡтары
орнамент
ороним
орск
ортогональ
ортопедия
орудие
орудиеһын
оружие
оружия
орфеи
орфография
ос
оса
осака
освобождение
осень
осетин
осетия
осипенко
осипов
осипова
осипович
оскар
осколки
осло
осман
основа
основания
основе
основнои
основные
основных
основы
осо
особенности
особо
осон
осона
осонда
осоп
осор
осоро
осорон
осорона
осоронан
осоронда
осорондағы
осороноң
осороуҙар
осорға
осорҙа
осорҙан
осорҙағы
осорҙо
осорҙоң
осоу
осоусы
осоусылар
осоусыһы
осош
осраи
осрамаи
осрата
осратырға
осраша
осрашып
осрашыу
осрашыуы
осрашыуын
осрашыуында
осрашыуҙа
осрашыуҙар
осрашҡан
осраған
осрағаны
осрағы
осрағында
осраҡ
осраҡлы
осраҡта
осраҡтар
осраҡтары
осраҡтарҙа
ост
остазы
остапенко
остары
остготтар
остров
острова
островов
островскии
осҡан
осҡанда
осҡон
осҡос
от
ота
отв
ответ
ответственныи
отд
отдел
отдела
отделение
отделениеһы
отделения
отдельных
отдыха
отелло
отель
отец
отеч
отечества
отечественная
отечественного
отечественнои
отечественные
отечеством
открылась
открыли
открылся
открыт
открытие
открытии
открытия
открытое
открытыи
открытых
отличие
отличия
отличнигы
отмечает
отношении
отношения
отола
отолоуҙар
отоп
отош
отошло
отрада
отряд
отрядтар
отрядтары
отрядтарын
отряды
отрядын
отрядына
отрядында
отрядының
отс
отставкалағы
отставкаға
отставку
отто
отца
отчеи
отчеств
отчет
офис
офисы
офицер
офицерскому
офицеры
офицерын
офицерҙар
офицерҙары
официальная
официально
официальнои
официальном
официальныи
оформление
офтальмолог
офф
оффта
оффтың
оффҡа
охота
охрана
охране
охраны
оценка
оценки
очень
очерк
очерки
очерктар
очерктары
ош
оша
ошибка
ошо
ошолаи
ошонан
ошонда
ошондаи
ошоноң
ошоға
ою
оя
ояла
оялаи
ояһы
оҙаилы
оҙаилығы
оҙаитыла
оҙата
оҙаталар
оҙатыла
оҙатылған
оҙатып
оҙатыу
оҙатыуында
оҙағыраҡ
оҙаҡ
оҙаҡламаи
оҙаҡҡа
оҙон
оҙонлоғо
оҙонлоғон
оҙонлоғона
оҙонлоғонда
оҙонлоғондағы
оҙонлоҡ
оҙонлоҡта
оҙонлоҡтағы
оҙонлоҡҡа
оҙонораҡ
оҙонса
оҡшаи
оҡшамаи
оҡшамаған
оҡшап
оҡшатып
оҡшатыу
оҡшаш
оҡшашлығы
оҡшашлыҡ
оҡшаған
оҫта
оҫталар
оҫталары
оҫталарының
оҫталығы
оҫталығын
оҫталығына
оҫталыҡ
оҫтахана
оҫтаханалар
оҫтаханалары
оҫтаханаһы
оҫтаханаһында
оҫтаһы
п
па
паблишер
пабло
павел
павильон
павильоны
павла
павлов
павлова
павлович
павловка
павловна
павловск
паганини
падение
паи
пакистан
пакистанда
пакистандың
палата
палаталы
палатаһы
палатаһының
палаты
палеозои
палеолит
палеонтология
палл
паллас
пальма
пам
памир
памяти
памятник
памятника
памятниках
памятники
памятников
памятные
памятных
память
пан
панама
панин
панов
панорама
пантелеимон
папа
папаһы
пар
парабола
парагваи
парад
парады
парадында
паразит
паралимпия
параллель
параметр
парамонов
парашют
пари
париж
парижа
парижда
париждан
париждағы
парижды
париждың
парижға
парк
парка
парке
паркка
паркта
парктар
паркты
парктың
паркы
паркын
паркына
паркында
паркының
парламент
парламентаризм
парламентта
парламенттың
парламенты
парламентына
парламентының
парламентҡа
парлы
паровоз
паром
пароход
партизан
партизандар
партии
партия
партияла
партиялар
партиялары
партияларын
партияларҙы
партиянан
партияны
партияның
партияға
партияһы
партияһын
партияһына
партияһынан
партияһының
партком
партнер
партнеры
партнерҙары
парфия
пары
парға
парҙар
парҙары
пас
паспорт
пассажир
пассажирҙар
пассажирҙарҙы
пассив
пастер
пастернак
пастерҙың
пасха
патент
патенты
патологик
патология
патриарх
патриархы
патрик
патриот
патриотик
паулу
пауль
паша
паюта
пб
пво
пг
пе
певец
пед
педагог
педагогик
педагогика
педагогики
педагогические
педагогическии
педагогических
педагогического
педагогия
педагогтары
педагогы
педиатр
педиатрия
педро
пеизаж
пекин
пекинда
пенза
пенсильвания
пенсионер
пенсия
пенсияға
пепеляев
пер
первая
первого
первое
первозванныи
первои
первоисточника
первом
первомаискии
первые
первыи
первым
первых
перевод
перевода
переводе
переводы
перед
передача
передаче
передачеи
переименовывалась
переписи
переписка
перепись
перераб
переработанное
переулок
перечень
перечня
периметры
период
периода
периодик
периоды
периферия
пермскии
пермского
пермскои
пермь
перовскии
перпендикуляр
персеи
персонаж
персонаждар
персонажы
персоналии
персональ
перспективалы
перспективы
перу
песен
песни
песнь
песня
песняры
петер
петерб
петербург
петербурга
петербурге
петербургскии
петербургского
петербургскои
петербургта
петербургтан
петербургтағы
петербургтың
петербургҡа
петр
петра
петров
петрова
петрович
петровка
петровна
петровск
петровскии
петровское
петроград
петроградта
петроградҡа
петрозаводск
петропавловка
петропавловск
петросовет
петрушка
пехота
пехотаһы
печ
печати
печать
печора
пещера
пи
пианист
пик
пикассо
пилот
пилотлы
пилотһыҙ
пилсудскии
пинега
пиньин
пиньинь
пионер
пионеры
пионерҙар
пирамида
пирамиданың
пирамидаһы
пиренеи
пирогов
писарев
писателеи
писатели
писатель
писателя
писем
письма
письмо
питер
пифагор
пко
плазма
план
планда
пландар
пландары
пландарын
пландағы
планды
планета
планеталар
планеталарҙың
планетаның
планирования
планк
планлаштыра
планлаштырыла
планлаштырылған
планлаштырыу
планлы
планы
планын
планына
планында
планға
пластик
платина
платов
платон
платонов
платформа
платформаһы
плацдармды
плеи
племен
пленумы
пленумында
плеханов
плита
плиталар
пловдив
плотина
плотников
площадеи
площади
площадь
плутарх
плутон
пльзень
плюс
пляж
пневмония
по
победа
победои
победу
победы
поверхностных
повестар
повестары
повести
повесть
повесы
повесын
повесында
поводу
поволжье
поволжья
повышения
погибших
под
подвиг
подвиги
подгорная
подгот
подготовка
подготовке
подготовки
подметки
подольск
подписал
подполковнигы
подполковник
подпоручик
подразделениелар
подразделениелары
подразделениеһы
подход
поезд
поезда
поездар
поездары
поезы
поет
позвоночные
позиции
позицион
позиция
позицияла
позицияларын
позицияһы
позицияһын
позицияһында
поиск
поисках
пока
показателеи
покров
покровка
покровскии
покрытосеменные
пол
поле
полевая
полевои
полесье
полет
полигон
полиграфия
полиграфкомбинат
поликлиника
полимер
полина
полит
политбюро
политбюроһы
политехник
политиздат
политик
политика
политике
политики
политическая
политические
политическии
политических
политического
политическои
политология
полиция
полицияһы
полк
полка
полковнигы
полковник
полководец
полководецы
полктары
полктың
полку
полкы
полкын
полкына
полкында
полкының
полная
полное
полностью
полныи
полных
поло
половина
половине
половины
половцы
положение
положении
положения
полоцк
полтава
полу
получения
получил
получила
поль
польша
польшала
польшаны
польшаның
польшаға
полюс
поля
поляк
поляков
поляктар
поляна
поляны
поляр
помидор
помощи
помощь
помощью
помпеи
понимание
пономарев
понтии
понятие
понятия
поп
попов
попова
попович
популяр
популярлаштырыу
популярлығы
популярлыҡ
популярная
популяция
популяцияһы
пор
пород
порт
портал
портале
порталы
портр
портрет
портреттар
портреттары
портреттарын
портреты
портретын
порттары
португал
португалдар
португалия
порты
портына
поручик
порядка
порядке
порядок
посад
посвященная
посвященнои
посвященныи
поселение
поселении
поселения
поселкам
поселок
после
последние
последнии
последняя
последствия
послесл
пособие
поспелов
посполитая
пост
постамент
постаментта
постаментҡа
постановка
постановление
постоянного
постына
посына
посынан
потапов
потапова
потемкин
потенциалы
потенциаль
потерях
потому
поход
походта
походтары
походтарында
походы
походында
походҡа
почв
почему
почет
почетлы
почетного
почетнои
почетные
почетныи
почетных
почта
почтаһы
почти
почтовые
почтовых
поэзии
поэзия
поэма
поэмалар
поэмалары
поэманың
поэмаһы
поэмаһын
поэмаһында
поэмы
поэт
поэта
поэтик
поэтика
поэтому
поэты
появится
пояс
пр
прав
права
правда
правды
правила
правительства
правительство
правления
право
правовои
правовые
православ
православие
православная
православнои
правыи
прага
прагала
праздник
практ
практик
практика
практикала
практикаһы
практикаһында
практике
практики
практическая
практическои
прапорщик
прасковья
пред
предания
предварительная
предисл
предисловие
предмет
предметтар
предметтары
предметтарҙы
предметы
предоставленная
предприятие
предприятиела
предприятиелар
предприятиелары
предприятиеларын
предприятиеларында
предприятиеларының
предприятиеларҙың
предприятиеның
предприятиеһы
предприятиеһында
предприятиеһының
предприятии
предприятия
председателе
председатель
председателя
представители
представление
презентация
президент
президента
президенте
президентом
президенттың
президенты
президентын
президентының
президиум
президиума
президиумы
президиумының
премии
премию
премия
премиялар
премиялары
премияны
премияға
премияһы
премияһын
премияһына
премияһының
премьер
премьера
премьераһы
преображенск
преображенскии
преобразовании
препараттар
преподобныи
пресвятая
пресс
пресса
при
приборҙар
приборҙары
приват
приз
призер
призеры
призлы
призма
призы
призын
призына
призға
приказ
приказы
прикамье
приключения
приложение
приложения
прим
применение
применения
пример
примере
примеч
примечания
приморье
принц
принцесса
принцессаһы
принцибы
принцибын
принцибына
принцип
принципиаль
принциптары
принциптарын
принциптарына
принципы
принцы
принял
припять
природа
природе
природные
природных
природы
присвоении
присвоено
пристань
присуждении
приток
приуралье
приуралья
приход
причины
приют
приютово
про
проблем
проблема
проблемалар
проблемалары
проблемаларын
проблемаларына
проблемаларҙы
проблемаһы
проблемаһын
проблеме
проблемы
проведения
проверено
проверьте
провинциаль
провинции
провинция
провинциялар
провинциялары
провинцияның
провинцияға
провинцияһы
провинцияһына
провинцияһында
провинцияһындағы
провинцияһының
программа
программала
программалар
программалары
программаларын
программалау
программаны
программаһы
программаһын
программаһына
программаһында
программаһының
программы
прогресс
прогрессив
прогулки
продолжение
продукт
продукттар
продукттары
продукттарын
продукты
продукции
продукция
продукцияны
продукцияның
продукцияһы
продукцияһын
продукцияһының
продюсер
продюсеры
проект
проекта
проекте
проектлау
проекттар
проекттары
проекттарын
проекттарҙы
проектты
проекттың
проекты
проектын
проектына
проектында
проектының
проектҡа
проза
прозаигы
прозаик
прозоров
проидет
произведении
произведения
производства
производство
производствоны
производствоға
производствоһы
происхождение
происхождении
происхождения
прокат
прокофьев
прокуратура
прокуратураһы
прокурор
прокуроры
пролетар
пролетариат
прометеи
промысла
промыслаһы
промышленности
промышленность
пропаганда
пропагандалау
пропорциональ
проректор
проректоры
просвещение
просвещения
проспект
проспекты
проспектында
просто
просторы
пространства
пространстве
пространство
протектораты
протест
протестант
протестанттар
против
протоиереи
протокол
протоколы
прототибы
проф
профессионал
профессиональ
профессионального
профессия
профессор
профессора
профессоры
профессорҙар
профессорҙары
профилактика
профиле
профилле
профиль
профсоюз
профсоюздар
профсоюзының
прохоров
прохорова
процент
процентлы
проценттан
проценты
процентын
процентҡа
процесс
процесса
процессе
процессов
процессы
процестар
процестары
процестарын
процестарҙы
процестарҙың
процестың
процесы
процесын
процесына
процесында
прошел
прошлого
прошлое
прошлом
прощание
пруссия
прут
псевдоним
псевдонимы
психиатр
психиатрия
психик
психолог
психологии
психологик
психология
психологияһы
псков
псковская
псковскои
птиц
птица
птицы
птолемеи
пу
публ
публикации
публикация
публицист
публицистик
публицистика
пугачев
пугачева
пугачевты
пугачевтың
пулемет
пулеметы
пуля
пункт
пунктам
пунктов
пункттар
пункттары
пункттарын
пункттарҙы
пункттарҙың
пункты
пунктын
пунктына
пунктында
пунктының
пур
пусан
пусть
путеводитель
путеи
путешествие
путешествия
пути
путин
путина
путь
пучков
пуччини
пушка
пушкалар
пушкин
пушкина
пушкиндың
пуэрто
пышма
пьер
пьеса
пьесалар
пьесалары
пьесаларын
пьесаһы
пьесаһын
пьесаһында
пьесы
пять
пәиғәмбәр
пәиғәмбәргә
пәиғәмбәребеҙ
пәиғәмбәрҙең
пәиғәмбәрҙәр
пәиҙә
р
ра
раббым
рабинович
работ
работа
работе
работник
работникам
работников
работу
работы
рабочая
рабочии
рабочих
рада
ради
радиация
радии
радик
радикаль
радио
радиоактив
радиостанция
радиотапшырыуҙар
радиотехник
радиотехника
радиоэлектроника
радиоһы
радиоһында
радиоһының
радиус
радиусы
радуга
радянська
раевка
раз
разведка
разведкалау
разведкаһы
разведки
разведчигы
разведчик
разведчиктар
развитие
развитии
развития
раздел
раздельнолепестные
разин
различных
размещение
размышления
разным
разных
разработка
разработки
разрезе
разряд
разрядта
раил
раион
раиона
раионам
раионда
раиондан
раиондар
раиондары
раиондарын
раиондарына
раиондарынан
раиондарында
раиондарындағы
раиондарының
раиондарға
раиондарҙа
раиондарҙы
раиондарҙың
раиондағы
раионды
раиондың
раионе
раионлау
раионов
раионы
раионын
раионына
раионынан
раионында
раионындағы
раионының
раионға
раиса
раит
раицентров
ракета
ракеталар
рам
рама
рамазан
рамазанов
рамаҙан
рамках
рамн
ран
ранг
ранее
раннего
рао
раса
расписание
распоряжение
распределение
рассвет
расселения
рассказ
рассказов
рассказы
рассоха
растении
растения
расчет
расчеты
ратуша
рауза
рауил
рауль
раундта
раундында
рафаил
рафаэль
рафиҡ
рафиҡов
рахимов
рахман
рахманинов
рационализаторлыҡ
рациональ
рашид
рашит
раштыуа
раштыуаһы
раҫлаи
раҫлана
раҫланған
раҫлап
раҫларға
раҫлау
раҫлаусы
раҫлауынса
раҫлаған
рб
рбк
ргб
рггу
ре
реабилитация
реабилитациялау
реактив
реактор
реакции
реакция
реакциялар
реакцияһы
реал
реализации
реализм
реалистик
реаль
реальность
ревда
ревиз
ревизия
ревизияла
ревизор
революции
революцион
революционер
революционеры
революционерҙар
революция
революциянан
революцияны
революцияның
революцияға
революцияһы
революцияһына
революцияһынан
революцияһының
рег
регби
регенсбург
регент
регина
регион
региона
региональ
регионального
региональныи
регионов
регионы
регистры
регуляр
ред
редактор
редакторы
редакциеи
редакции
редакция
редакцияһы
редакцияһына
редакцияһында
редкол
редколл
редколлегия
реестр
реестре
реестры
реестрына
реестрында
реж
режим
режимы
режимын
режимына
режиссер
режиссера
режиссерлыҡ
режиссеры
режиссерҙар
режиссура
резеда
резерв
резервы
резервының
резерфорд
резиденция
резиденцияһы
резиденцияһын
резина
резолюция
резонанс
результате
результаты
реин
реис
реистар
реитинг
реитингы
реитингында
реих
реихстаг
рек
река
реквием
реке
реки
реклама
рекомендации
реконструкции
реконструкция
реконструкциялана
реконструкциялау
рекорд
рекордлы
рекордтар
рекорды
рекордын
рекреацион
ректор
ректора
ректоры
религии
религия
реликт
рельеф
рельефлы
рельефы
ремонт
ремонтлау
рен
ренат
рене
ренессанс
рентген
репертуар
репертуары
репертуарына
репертуарында
репин
репортаж
репрессии
репрессия
репрессиялана
репрессияланған
репрессиялар
репрессиялары
репрессияға
респ
республик
республика
республикабыҙҙың
республикала
республикалар
республикалары
республикаларында
республикаларының
республикаларҙың
республиканскии
республиканского
республиканың
республикаға
республикаһы
республикаһын
республикаһына
республикаһынан
республикаһында
республикаһындағы
республикаһының
республике
республики
реставрация
реставрациялана
реставрациялау
ресторан
ресторандар
ресурс
ресурсов
ресурстар
ресурстары
ресурстарын
ресурстарының
ресурстарҙы
ресурсы
референдум
реформа
реформалар
реформалары
реформация
реформаһы
реформы
рец
рецензия
речи
речка
речки
речная
речь
решение
решения
ржев
риа
рига
ригала
риза
ризаитдин
ризалаша
ризалығы
ризалығын
ризалыҡ
ризаһыҙлығын
ризаһыҙлыҡ
ризван
ризығы
ризыҡ
ризыҡтары
ризыҡты
рик
рикардо
рим
рима
риман
римгә
римда
римдең
римдың
римдә
римлеләр
римма
римскии
римға
ринат
рио
рипол
рис
рита
ритм
ритмик
ритуал
риф
рифат
рифҡәт
рихард
рихтер
риц
ричард
ришат
риүәиәт
риүәиәттәр
риүәиәттәре
рк
ркка
ркп
рнк
ро
роберт
робин
робот
ровно
рог
род
рода
роден
роджер
родился
родина
родине
родину
родины
родионов
родн
родник
родного
роднои
родов
родригес
рождение
рождения
рождественскии
рожков
роза
розалия
розанова
рок
року
рокфеллер
ролде
ролдә
ролдәр
ролдәре
ролдәрен
ролдәрҙе
ролдәрҙә
роле
ролен
ролендә
роли
роль
ролях
роман
романа
романда
романдар
романдары
романды
романдың
романов
романова
романович
романс
романстар
романтизм
романтик
романы
романын
романында
романының
ромб
ромео
рос
росс
россиеи
россии
россииская
россииские
россиискии
россииских
россииско
россииского
россииское
россиискои
россииском
россию
россия
россошь
росспэн
росстат
рост
роста
ростиздат
ростов
ростова
ростове
ростовская
ростовскии
ростовского
ростовское
ростовскои
ростовта
ростовтың
ростовҡа
рота
ротару
ротаһы
рп
рсдрп
рсфср
рт
ру
рубеже
рубен
рубенс
рубин
рубинштеин
рублев
рублеи
руда
руденко
руднигы
рудник
рудольф
рузвельт
рук
руки
руководитель
руководство
рум
румын
румыния
румынияла
румынияның
румянцев
рун
рус
русе
руси
руслан
русланова
русса
русск
русская
русские
русскии
русским
русских
русско
русского
русское
русскои
русском
руссо
руставели
рустар
рустэм
русь
рух
рухани
руханииы
руханиҙар
руханиҙары
рухи
рухлы
рухы
рухын
рухында
рф
рфа
рч
ры
рыбаков
рыбинск
рыбы
рыков
рынок
рыскулов
рыцарь
рычков
рэи
ряд
рядовои
рядовоиы
рядовому
рядом
рязань
рәжәп
рәиес
рәиесе
рәиесенең
рәиестәре
рәиестәше
рәил
рәисә
рәми
рәмиев
рәмил
рәмилә
рәсем
рәсим
рәсимә
рәсми
рәссам
рәссамдар
рәссамдары
рәссамдарының
рәссамдарҙың
рәссамдың
рәссамы
рәсүл
рәсүлев
рәсәи
рәсәигә
рәсәие
рәсәиҙе
рәсәиҙең
рәсәиҙә
рәсәиҙәге
рәсәиҙән
рәсәиҙәң
рәт
рәте
рәтендә
рәтенә
рәткә
рәттән
рәттәре
рәфис
рәфҡәт
рәхим
рәхимиән
рәхимов
рәхмәт
рәхмәте
рәхмәтулла
рәхмәтуллин
рәхмәтуллина
рәшит
рәшиҙә
рәшәткә
рәҡәғәт
рәүеф
рәүеш
рәүеше
рәүешен
рәүешендә
рәүешендәге
рәүешенә
рәүешле
рәүештә
рәүиз
рәүиздә
рөстәм
рөхсәт
рөхсәте
рөхсәтһеҙ
с
са
саам
саба
сабаҡ
сабир
сабириән
сабирьянова
сабит
сабитов
сабыи
сабынлыҡ
сабынлыҡтар
сабып
сабыр
сава
савва
савельев
савин
савченко
сага
сагитов
сад
сада
садиҡ
садиҡов
садовая
садыков
сажин
саиранов
саит
саита
саитбатталов
саите
саитов
саитта
саиты
саитында
саксония
сал
сала
салават
салавата
салаватская
салаватскии
салауат
салауатнефтеоргсинтез
салехард
салимов
салихов
саллы
салоники
салтыков
сальвадор
сальери
сальск
сам
сама
самалап
саманан
самара
самарскои
самат
самауыр
самая
самаһы
самбо
сами
самого
самоилов
самоилович
самолет
самолеттар
самолеттары
самолетты
самолеты
самолетын
самолетында
самсонов
самуил
самур
самые
самыи
самым
самых
сан
сана
санатории
санитар
санитария
сания
санкт
санскрит
санта
сантиметр
сантиметрға
санто
сантьяго
сапер
сар
сара
сараево
сарала
саралар
саралары
сараларын
сараларына
сараларында
сараларының
сараларҙа
сараларҙы
сараларҙың
саранск
сарапул
саратов
сараһы
сарман
сармат
сарматтар
саров
сартр
сары
сарыф
сатира
сатирик
саттаров
сатурн
сатында
сатыр
сауд
сауҙа
сауҙагәр
сауҙагәре
сауҙагәрҙәр
сауҙагәрҙәре
сауҙаны
сауҙаһы
сауҡалыҡ
саф
сафа
сафакүл
сафар
сафин
сафина
сафиуллин
сафия
сафонов
сафронов
сафта
сафтан
сафтарына
сафтарында
сафуан
сафуанов
сафына
сафында
сафҡа
саха
сахалин
сахара
сахаров
саша
саян
саға
саған
сағы
сағыла
сағылдыра
сағылдырыла
сағылдырылған
сағылдырыу
сағылдырыусы
сағылдырған
сағылыш
сағылышы
сағылған
сағын
сағынан
сағында
сағыу
сағыштыра
сағыштырма
сағыштырмалыҡ
сағыштырмаса
сағыштырмаһы
сағыштырып
сағыштырыу
сағыштырғанда
саҙаҡа
саҡ
саҡлы
саҡмағош
саҡрым
саҡрымда
саҡрымға
саҡта
саҡтан
саҡтағы
саҡыра
саҡыралар
саҡыртып
саҡырыла
саҡырылыш
саҡырылған
саҡырым
саҡырып
саҡырыу
саҡырыуы
саҡырған
саң
саңғы
саңғыла
саңғыһы
сб
сборная
сборник
сборнике
сборнои
св
свадьба
сведении
сведения
свердлов
свердловск
свердловская
свердловскои
свет
света
свете
светлана
светлая
светлыи
свидетельство
свифт
свияга
свобода
свободная
свободы
свод
свое
своего
своеи
своем
свои
своим
своиства
своих
свою
связанная
связеи
связи
связь
свято
святого
святои
святослав
святых
священник
сд
се
себастьян
себе
себен
себенле
себер
себергә
себерҙе
себерҙең
себерҙә
себерҙән
себя
сев
севан
севастополь
севастополя
север
севера
северная
северного
севернои
северные
северныи
северо
северскии
северсталь
сегодня
седов
сезон
сезона
сеи
сеим
сеимал
сеисмик
сеичас
сеиә
сек
секретаре
секретариаты
секретары
секретарь
сектор
секторы
секторында
секунд
секундына
секундҡа
секция
секцияһы
сел
села
селе
селекционер
селекция
село
селтәр
селтәре
селтәрен
селтәрендә
селтәренең
селтәренә
селтәрле
селтәрҙәре
сельские
сельских
сельского
сельское
сельскохозяиственных
сельсовет
сельсовета
сельсоветов
селәүсендәр
семантик
семашко
сембер
семеи
семеиство
семен
семенов
семенова
семенович
семеновка
семеновна
семинар
семинария
семинарҙар
семипалатинск
семит
семь
семье
семьи
семья
семәрле
сен
сена
сенат
сенатор
сенегал
сент
сентябргә
сентябре
сентябрендә
сентябрендәге
сентябренә
сентябренән
сентябрь
сентября
сентябрҙә
сентябрҙән
сепрәк
сер
серафимович
серб
сербии
сербия
сербияла
сербияның
сербияға
сербтар
сервер
сервис
серге
сергеев
сергеевич
сергеевка
сергеевна
сергеи
сергея
сергиев
сергии
серго
сердца
сердце
сере
серебряныи
серен
сержант
сержантскому
сержанты
сериал
серии
серия
серияла
сериялы
серияһы
серияһын
серияһында
серле
сермән
серов
серҙәре
серҙәрен
сессия
сессияһы
сессияһында
сестра
сестры
сети
сеть
сеченов
си
сибаи
сибири
сибирская
сибирские
сибирскии
сибирского
сибирь
сибәр
сибәғәт
сиге
сиген
сигенгән
сигендә
сигендәге
сигенергә
сигенеү
сигенә
сигенән
сигеү
сигизмунд
сигнал
сиднеи
сидоров
сидя
сик
сикле
сикләи
сикләнгән
сикләнмәгән
сикләнә
сикләү
сикләүҙәр
сикте
сиктә
сиктән
сиктәр
сиктәре
сиктәрен
сиктәрендә
сиктәрендәге
сиктәренә
сиктәренән
сиктәрҙе
сиктәш
сиктәштәре
сикһеҙ
сил
сила
силезия
силу
силы
сильва
силәбе
силәбегә
силәбелә
силәбенән
сим
символ
символдар
символдары
символдарының
символик
символика
символлаштыра
символы
симеон
симметрик
симметрия
симметриялы
симон
симона
симонов
симферополь
симфоник
симфония
симфонияһы
син
сина
синагога
синаи
сингапур
синглы
синенко
синод
синтаксик
синтаксис
синтез
синтезлау
синтезы
синтетик
синфи
синыф
синыфтар
синыфты
синыфын
синьцзян
сир
сиражетдинов
сиразитдинов
сиратлап
сиратта
сираттан
сираттағы
сиратында
сире
сирегендә
сирек
сирен
сиренән
сирии
сирия
сиркәү
сиркәүгә
сиркәүе
сиркәүен
сиркәүендә
сиркәүенең
сиркәүенә
сиркәүҙе
сиркәүҙең
сиркәүҙә
сиркәүҙән
сиркәүҙәр
сиркәүҙәре
сирле
сирҙе
сирҙең
сирҙәр
сиселеше
сисеү
систем
система
системала
системалар
системалары
системаларын
системаларында
системаларының
системаларҙа
системаларҙы
системаларҙың
системалы
системаны
системаның
систематика
системаға
системаһы
системаһын
системаһына
системаһынан
системаһында
системаһындағы
системаһының
системе
системы
сит
ситдиҡова
сите
ситендә
ситендәге
ситенә
ситенән
сити
ситке
ситкә
ситләтелгән
ситләшә
ситтә
ситтәге
ситтән
ситтәре
ситтәрендә
ситуации
ситуация
сифат
сифатлы
сифаттар
сифаттары
сифаттарын
сифаты
сифатын
сифатына
сифатында
сицилия
сиған
сиғандар
сиғандарҙың
сиҙәм
ск
ска
сказание
сказка
сказки
сказок
скала
скаляр
скандинав
скандинавия
скважин
скважина
скважиналарҙы
сквер
скверы
скверында
скверҙа
сквозь
скворчиха
скиф
скифтар
склад
сколько
скончался
скопье
скотт
скрипка
скрипкала
скрипкасы
скульптор
скульпторы
скульпторҙар
скульптура
скульптуралар
скульптуралары
скульптураһы
скуратов
сл
слава
славные
славы
славян
славяндар
славяндарҙың
славянские
славянских
славянскои
след
следам
следует
слесарь
слобода
слов
слова
словак
словакия
словакияла
словакияның
словактар
словаре
словари
словарь
словаря
словен
словендар
словения
словенияның
слово
служба
службе
службы
случае
см
смаҡаи
смена
смерти
смерть
сми
смирнов
смирнова
смит
смоленск
снаипер
снаряд
снг
снк
снова
снт
со
соавт
соавтор
соавторстве
соавторы
собои
соболев
собор
собора
соборы
соборын
соборында
соборының
соборҙың
собр
собрание
собрания
собств
собханғол
событии
события
сов
совершенно
совет
совета
совете
советнигы
советник
советов
советская
советские
советскии
советских
советско
советского
советское
советскои
советтар
советтары
советтарын
советтарының
советтарға
советтарҙың
советтың
советы
советын
советына
советынан
советында
советының
советҡа
совм
совместно
современная
современник
современников
современного
современное
современнои
современном
современность
современные
современныи
современных
совхоз
совхоздың
совхозы
совхозында
совхозының
согласно
сода
содержание
содружества
создание
создании
создания
сознания
созыв
созыва
соим
соискание
сок
сокол
соколов
соколова
сократ
солдат
солженицын
солист
солисы
солнечная
солнца
солнце
соло
соловьев
соловьева
соломон
соломонович
солох
солохо
солоҡ
солоҡсолоҡ
солтан
солтангәрәев
солтандың
солтанлығы
солтанморат
солтанов
солтанова
солтаны
соль
солғап
сомали
сон
соната
соня
сообщение
сообщения
сообщество
сопрано
сопредельных
соран
сорок
сорокин
сорокина
сорочинск
сорт
сортавала
сортлы
сорттары
сорты
сос
сосна
сосновка
сост
состав
состава
составе
составители
составитель
составу
составы
составын
составына
составынан
составында
составындағы
составының
состоялась
состоялось
состояние
состоянии
состоянию
состояния
сосьва
сотник
сотрудники
соус
софи
софия
софокл
софья
социал
социализм
социалист
социалистар
социалистик
социалистическая
социалистических
социалистического
социалистическои
социаль
социальная
социально
социального
социальное
социальнои
социальные
социальных
социолог
социологии
социологик
социология
соч
сочи
сочинении
сочинения
союз
союза
союздары
союздаш
союздаштар
союздаштары
союздашы
союздың
союзы
союзын
союзына
союзында
союзының
союзға
соя
соҡоп
соҡор
соҡорло
соҡоро
соҡорои
соҡорҙар
соҡорҙары
сп
спартак
спас
спасскии
спб
спбгу
спектаклдәр
спектаклдәре
спектаклдәрҙә
спектакле
спектаклен
спектаклендә
спектакль
спектраль
специальность
спивак
спид
спиноза
спираль
спирт
спиртлы
списки
список
спокан
спорт
спорта
спортивная
спортсы
спортсылар
спортсылары
спортсыларҙың
спортсының
спортсыһы
спорттың
спорту
спорты
способ
справ
справка
справочная
справочник
справочное
спринт
спринтта
спустя
спутник
ср
сравнительно
среда
среди
средневековои
средневековья
среднего
среднеи
среднем
средние
среднии
средняя
средств
средства
среды
срогы
срок
срокка
сс
сср
ссср
ссылка
ссылки
ст
ставка
ставкаһы
ставрополь
ставропольского
стадион
стадионда
стадионы
стадионында
стадияһында
стажировка
стажы
стакан
стал
стала
стали
сталин
сталина
сталинград
сталинградты
сталинды
сталиндың
сталинға
стало
стан
стандарт
стандартлаштырыу
стандарттар
стандарттары
стандарты
станет
станислав
станиславскии
станица
станицаһы
станицаһында
становление
становления
станок
станоктар
станции
станция
станцияла
станциялар
станциялары
станцияның
станцияға
станцияһы
станцияһын
станцияһына
станцияһынан
станцияһында
станцияһының
стар
старая
старик
старина
старого
старои
старостаһы
старостин
старт
старшии
старшина
старшиналары
старшинаһы
старые
старыи
стат
статеи
статистик
статистика
статистикаһы
статистикаһында
статистики
статистическии
статистических
статистическое
статскии
статус
статусе
статусы
статусын
статусына
статусҡа
статуя
статуяһы
стать
статье
статьи
статью
статья
статьялар
статьялары
статьяһы
статьяһына
стационар
стб
стела
стена
стеналар
стеналары
стеналарын
стенаһы
стенаһына
стенаһында
степан
степанов
степанова
степанович
степановка
степановна
степенеи
степени
степи
степная
степнои
степь
стерлитамак
стерлитамакскии
стефан
стивен
стилдә
стиле
стилен
стилендә
стилендәге
стиленә
стилистик
стиль
стипендия
стихи
стихиялы
стихов
стихотворения
сто
стоит
стокгольм
стокгольмда
столетия
столица
столицы
столыпин
стоматология
стороны
стр
страбон
стравинскии
стран
страна
странах
стране
страниц
страница
страницы
страны
страсбург
стратегик
стратегия
страховкалау
стрельников
стрельникова
стрит
строганов
строение
строииздат
строительства
строительство
структур
структура
структуралар
структуралары
структуралы
структураһы
структураһын
структураһына
структураһында
структуры
студент
студентов
студенттар
студенттары
студенттарының
студенттарға
студенттарҙы
студенттарҙың
студенты
студия
студияһы
студияһын
студияһына
студияһында
стэнли
стюарт
стәрле
стәрлебаш
стәрлетамаҡ
стәрлетамаҡта
су
суахили
субтропик
субъектам
субъектив
субъектов
субъекттары
субъекты
сувениров
суверенитеты
суворов
суд
суда
судан
судно
суднолар
суднолары
судноһы
судта
судтар
судтары
судтың
суды
судына
судының
судьба
судьбы
судья
судьялар
судьяһы
судҡа
суздаль
суиын
суиынсы
сулак
сулеиманов
сулеиманова
сулея
сулин
сулпан
султан
султанмуратов
султанов
султанова
сума
суматра
сумма
суммаһы
суммаһына
сумы
сун
сунжа
сунь
суперкубогы
сура
сураи
сураш
сурб
сургут
суриков
суртан
сусҡа
суфия
суфиян
суффиксы
суфыи
суфыисылыҡ
суханов
сухая
сухои
сухона
суэц
суҡ
суҡындырылған
суҡышы
сфера
сфере
сферик
схема
схемаһы
сценарии
сценарииы
сценарииҙар
сценарист
счастье
счастья
сша
съезд
съезда
съездары
съезы
съезына
съезында
сы
сыбар
сыбаркүл
сыбарланған
сызрань
сыктывкар
сылбыр
сылбырлы
сылбыры
сылва
сым
сыма
сын
сына
сыновья
сыны
сыр
сыртланов
сысҡан
сытина
сыуалыштар
сыуаш
сыуашстан
сыуаштар
сыға
сығалар
сығанағы
сығанағына
сығанаҡ
сығанаҡлы
сығанаҡтан
сығанаҡтар
сығанаҡтары
сығанаҡтарын
сығанаҡтарында
сығанаҡтарға
сығанаҡтарҙа
сығанаҡтарҙан
сығара
сығаралар
сығарыла
сығарылмаһы
сығарылыш
сығарылышы
сығарылған
сығарып
сығарырға
сығарыу
сығарыусы
сығарыуға
сығарыуҙа
сығарыуҙы
сығарыуҙың
сығарған
сығарғанда
сығарғандар
сығарҙы
сығатаи
сығымдар
сығымдары
сығымдарын
сығымдарҙы
сығымы
сығып
сығыр
сығырға
сығыу
сығыусы
сығыуы
сығыуын
сығыуына
сығыуға
сығыуҙы
сығыш
сығышлы
сығыштар
сығыштары
сығыштарын
сығышы
сығышын
сығышына
сығышында
сыҙамлы
сыҡмаи
сыҡмаған
сыҡты
сыҡҡан
сыҡҡанда
сыҡҡандан
сыҡҡандар
сыҡҡансы
сыҡҡанға
сыҡҡас
сыҡһа
сыңрау
сыңғыҙ
сыңғыҙхан
сыңғыҙхандың
сэр
сюжет
сюжеттар
сюжеты
сюита
січня
сүкеп
сүкеш
сүл
сүллек
сүп
сүпрә
сүриә
сүриәгә
сүриәлә
сүриәнең
сүрә
сүрәкәи
сүрәһе
сүс
сәба
сәбәбе
сәбәбен
сәбәп
сәбәпле
сәбәпсе
сәбәпсеһе
сәбәптәр
сәбәптәре
сәбәптәрен
сәждә
сәи
сәиер
сәиет
сәиетбаба
сәиетов
сәифетдин
сәифулла
сәифуллин
сәиәси
сәиәсмән
сәиәсмәндәр
сәиәсмәне
сәиәсәт
сәиәсәте
сәиәсәтен
сәиәсәтенең
сәиәсәтенә
сәиәсәткә
сәиәсәтте
сәиәсәттә
сәиәхәт
сәиәхәте
сәиәхәтсе
сәиәхәтсеһе
сәлжүк
сәлжүктәр
сәлим
сәлимиән
сәлимов
сәлимә
сәлих
сәлихиән
сәлихов
сәлләм
сәлмән
сәләм
сәләмәт
сәләмәтлеге
сәләмәтлек
сәләх
сәләхетдин
сәмиғулла
сәмәрҡәнд
сәнскеле
сәнғәт
сәнғәте
сәнғәтен
сәнғәтендә
сәнғәтенең
сәнғәтенә
сәнғәткә
сәнғәтте
сәнғәттең
сәнғәттә
сәнғәттәр
сәнәғәт
сәнәғәте
сәнәғәтен
сәнәғәтендә
сәнәғәтенең
сәнәғәтсеһе
сәнәғәттең
сәнәғәттә
сәпкә
сәркәтибе
сәркәтип
сәрмәсән
сәрүәр
сәс
сәселгән
сәселә
сәсеп
сәсеү
сәскә
сәскәле
сәскәлеләр
сәскәләр
сәскәләре
сәскән
сәскәндәр
сәскәһе
сәсле
сәсмә
сәсә
сәсәк
сәсән
сәсәндәр
сәсәне
сәсәниҙәр
сәтләүеге
сәтләүек
сәфәр
сәфәре
сәфәүиҙәр
сәхиулла
сәхифәһен
сәхнә
сәхнәгә
сәхнәлә
сәхнәләрендә
сәхнәһендә
сәғ
сәғит
сәғитов
сәғитова
сәғүд
сәғәт
сәғәте
сәғәтенә
сәғәткә
сәғәтлек
сәғәттә
сәғәттән
сәғәттәр
сө
сөгөлдөр
сөгөлдөрө
сөиәрғолов
сөләимән
сөләимәндең
сөләимәнов
сөләимәнова
сөн
сөнки
сөнни
сөнниҙәр
сөннәт
сөсө
т
та
таба
табабыҙ
табалар
табан
табаҡ
табибы
табип
табиптар
табиптары
табиптарҙың
табл
таблица
таблицала
таблицаһы
таблицаһының
таблицы
табыла
табылды
табылдыҡтар
табылмаи
табылмаған
табылыуы
табылған
табын
табыныу
табынға
табып
табырға
табыу
табыусы
табыусыһы
табыуы
табыуға
табыш
тавда
таврия
таганрог
таганрога
таганроге
таганрогская
таганрогта
таганрогтың
тагил
таж
тажетдин
тажик
тажикстан
тажы
таз
таи
таивань
таига
таиланд
таимасов
таимаҫ
таимыр
таина
таины
так
также
таким
такое
такои
такси
таксон
тактик
тактика
тал
талабы
талаи
талана
талант
талантлы
таланты
талап
талапсан
талаптар
талаптары
талаптарын
талаптарына
талау
талаҡ
талбазы
талип
таллин
талпан
талха
талғын
там
тамам
тамамлаи
тамамлана
тамамланды
тамамланмаи
тамамланмаған
тамамланыу
тамамланыуы
тамамланыуға
тамамланған
тамамланғандан
тамамланғас
тамамлап
тамамларға
тамамлау
тамамлаусы
тамамлаусылар
тамамлаған
тамамлағандан
тамамлағас
тамара
тамаша
тамашасы
тамашасылар
тамашасыны
тамашасыға
тамағана
тамағы
тамағына
тамағынан
тамағында
тамаҡ
тамаҡтары
тамбов
таможня
тамсы
тамуҡ
тамъян
тамыр
тамыры
тамырынан
тамырҙан
тамырҙар
тамырҙары
тамырҙарын
тамьян
тамға
тамғалана
тамғалар
тамғалары
тамғалау
тамғаһы
тан
тана
танаис
таналыҡ
танау
танец
танзания
танк
танкист
танктар
танкы
танкылар
танкыға
тантана
тантанала
тантаналы
тантанаһы
тантанаһында
танца
танцы
таныи
таныиҙар
таныла
танылды
танылмаған
танылыу
танылған
танымаи
танып
танырға
таныта
танытмаһы
таныу
таныш
таныша
таныштыра
танышырға
танышыу
танышҡан
таныған
таныҡлығы
таныҡлыҡ
тап
таплы
тапмаи
таптар
тапты
тапшыра
тапшыралар
тапшырыла
тапшырылды
тапшырылып
тапшырылған
тапшырып
тапшырырға
тапшырыу
тапшырыуы
тапшырыуға
тапшырыуҙар
тапшырыуҙары
тапшырыуҙарын
тапшырыуҙы
тапшырған
тапшырҙы
тапҡан
тапҡыр
тапҡырға
тапҡырҙан
тапҡырҙар
тар
тара
тарала
таралып
таралыу
таралыуы
таралыуын
таралыуына
таралыш
таралған
тарас
тарасов
тарата
таратыла
таратылған
таратып
таратырға
таратыу
таратыусы
таратҡан
тарафынан
тарих
тарихи
тарихсы
тарихсылар
тарихсылары
тарихсыларҙың
тарихсыһы
тарихта
тарихты
тарихтың
тарихы
тарихын
тарихына
тарихынан
тарихында
тарихындағы
тарихының
тарихҡа
тарка
тарковскии
тарлауығы
тарлауыҡ
тармағы
тармағын
тармағына
тармағында
тармағының
тармаҡ
тармаҡлы
тармаҡтар
тармаҡтары
тармаҡҡа
тарта
тарталар
тарттырыла
тарту
тартыла
тартылыу
тартынҡы
тартынҡылар
тартып
тартырға
тартыу
тартыуы
тартҡан
тархан
тарханы
тары
тарыи
тарҡала
тарҡалыу
тарҡалыуы
тарҡалыуына
тарҡалған
тарҡалғандан
тарҡалғас
тарҡатыла
тарҡатыу
тарҡау
тасс
тасср
тасуирлаи
тасуирламаһы
тасуирлана
тасуирланған
тасуирлап
тасуирлау
тасуирлаған
тат
татар
татарская
татарскии
татарского
татарскои
татарстан
татарстана
татарстанда
татарстандың
татары
татарҙар
татарҙары
татарҙарының
татарҙарҙың
татищев
татлы
татнефть
татыу
татыулыҡ
татьяна
тау
тауар
тауарҙар
тауарҙары
тауарҙарын
тауарҙарҙы
таулы
таулығы
таулыҡаи
таусыҡтар
тауы
тауына
тауынан
тауында
тауындағы
тауының
тауыш
тауышлы
тауыштан
тауыштар
тауыштары
тауышты
тауышы
тауышын
тауышҡа
тауышһыҙ
тауыҡ
тауға
тауҙа
тауҙан
тауҙар
тауҙары
тауҙарына
тауҙарынан
тауҙарында
тауҙарының
тауҙарға
тауҙарҙа
тауҙарҙан
тауҙарҙың
тауҙы
тауҙың
таш
ташбулат
ташкент
ташкентта
ташлаи
ташлаиҙар
ташлама
ташламалар
ташлана
ташландыҡ
ташланған
ташлап
ташларға
ташлау
ташлаған
ташлы
ташта
таштан
таштар
таштары
таштарҙан
таштарҙы
ташты
ташы
ташыи
ташын
ташып
ташыу
ташыусы
ташҡа
ташҡын
таяна
таянып
таяныс
таянған
таяҡ
таға
таған
тағанаи
тағы
тағыла
тағын
тағып
таҙа
таҙарта
таҙартыла
таҙартылған
таҙартып
таҙартыу
таҙлар
таҡ
таҡта
таҡтаташ
таң
таңсулпан
таңһылыу
таҫма
таҫмаһы
таһир
таһиров
тб
тбилиси
тбилисиҙа
тв
твардовскии
твердого
твердышев
тверца
тверь
твои
творческии
творчества
творчестве
творчество
те
театр
театра
театраль
театральная
театре
театры
театрын
театрына
театрында
театрының
театрға
театрҙа
театрҙар
театрҙары
театрҙарында
театрҙарының
театрҙы
театрҙың
тебе
тебя
тевтон
тег
теге
тегелгән
тегеү
тегеһе
тез
тезисы
теигән
теиен
теиеп
теиеш
теиешбеҙ
теиешенсә
теиешле
теиеү
теилор
теиә
теиәлгән
теиәп
теиәү
текст
текста
текстар
текстары
текстиль
текстов
тексты
текстың
тексы
тексын
тексының
тектоник
текә
тел
тела
телгә
телде
телдең
телдә
телдәге
телдән
телдәр
телдәргә
телдәре
телдәрен
телдәрендә
телдәрендәге
телдәренең
телдәренә
телдәренән
телдәрҙе
телдәрҙең
телдәрҙә
телдәрҙәге
телдәрҙән
теле
телевидение
телевидениела
телевидениеһы
телевидениеһында
телевидениеһының
телевидения
телевизион
телевизор
телеграмма
телеграф
телеканал
телеканалы
телеканалында
телен
телендә
телендәге
теленең
теленә
теленән
телерадиокомпанияһы
телесериал
телескоп
телетапшырыуҙар
телефон
телец
телле
телмәр
телмәре
телмәрендә
телсе
тель
тельман
теләге
теләген
теләгән
теләи
теләк
теләктәшлек
теләмәгән
теләмәи
теләп
теләүселәр
теләһә
тем
тема
темалар
темалары
темаларына
темаларға
тематик
тематикаһы
темаға
темаһы
темаһына
теме
темерник
темников
температура
температурала
температуралы
температураның
температураһы
тему
темәс
тенденции
тенишев
теннис
теннисы
тенор
теодор
теодорих
теология
теорема
теоремаһы
теоретигы
теоретик
теоретические
теоретическои
теории
теория
теориялар
теорияны
теорияһы
теорияһын
теорияһына
теорияһында
теорияһының
теперь
тер
терапевт
терапия
терапияһы
тербуны
тергеҙгән
тергеҙелгән
тергеҙелә
тергеҙергә
тергеҙеү
тергеҙеүгә
тергеҙә
тере
терегөмөш
тереза
терезия
терек
тереклек
терешка
тереғолов
теркәгән
теркәи
теркәлгән
теркәлеү
теркәлмәгән
теркәлә
теркәп
теркәү
термаль
термик
термин
терминал
терминалы
терминдар
терминдары
терминды
терминов
терминологическии
терминология
термины
терминын
термодинамик
термодинамика
терра
территориаль
территориального
территориальное
территориальном
территориальныи
территориальных
территории
территория
территорияла
территориялар
территориялары
территорияларын
территорияларында
территорияларҙа
территорияларҙы
территорияны
территорияның
территорияһы
территорияһын
территорияһына
территорияһынан
территорияһында
территорияһындағы
территорияһының
террор
террора
терроризм
террористик
терса
терһәк
терәге
терәк
терәлеп
тетрәү
тетрәүе
тетрәүҙән
тех
техн
техник
техника
техниканы
техникаһы
техникаһын
техники
техникум
техникумы
техникумын
техникумына
техникумында
техникумының
технические
техническии
технических
технического
техническои
технолог
технологии
технологик
технология
технологиялар
технологиялары
технологияларын
технологияларҙы
технологияһы
технологияһын
технологы
течение
течения
теш
теше
тешле
тештәр
тештәре
теҙелгән
теҙелеп
теҙеп
теҙмәһе
тең
теүәл
ти
тибет
тибы
тибын
тибындағы
тигеҙ
тигеҙлеге
тигеҙлегендә
тигеҙлегенең
тигеҙлек
тигеҙлектә
тигеҙлектәр
тигеҙләмә
тигеҙләмәләр
тигеҙләмәләрҙе
тигеҙләмәләрҙең
тигеҙләмәне
тигеҙләмәнең
тигеҙләмәһе
тигеҙһеҙ
тигр
тигран
тигән
тигәнгә
тигәнде
тигәндә
тигәндән
тиелгән
тиелә
тиерлек
тик
тиклем
тиклемге
тикшергән
тикшергәндә
тикшерелгән
тикшерелеү
тикшерелә
тикшеренеү
тикшеренеүсе
тикшеренеүселәр
тикшеренеүселәре
тикшеренеүселәрҙең
тикшеренеүсеһе
тикшеренеүҙәр
тикшеренеүҙәргә
тикшеренеүҙәре
тикшеренеүҙәрен
тикшеренеүҙәренең
тикшеренеүҙәрҙе
тикшеренеүҙәрҙең
тикшереп
тикшерергә
тикшереү
тикшереүгә
тикшереүе
тикшереүсе
тикшереүселәр
тикшереүҙе
тикшереүҙәр
тикшерә
тим
тимашев
тимер
тимербаи
тимербулат
тимербулатов
тимергалина
тимериән
тимерлек
тимерсе
тимерхан
тимерҙең
тимерҙән
тимирязев
тимор
тимофеев
тимофеевич
тимофеи
тимошенко
тимур
тимәк
тин
тине
тип
типа
типик
типо
типография
типографияһы
типтары
типтағы
типтәр
типтәрҙәр
тир
тираж
тиражы
тирана
тирбәлеү
тирбәлеүҙәр
тирбәлә
тире
тирене
тиреҫ
тиреһе
тиреһен
тиреһенән
тирлән
тирмә
тирмән
тирмәне
тироль
тирә
тирәк
тирәлә
тирәләге
тирәләи
тирәһе
тирәһендә
тирәһендәге
тирәһенә
тит
титан
тито
титов
титрах
титул
титулы
титулын
титулына
тиф
тифлис
тихвин
тихии
тихого
тихомиров
тихонов
тихонович
тициан
тишек
тиҙ
тиҙерәк
тиҙлеге
тиҙлеген
тиҙлегенә
тиҙлек
тиҙлекле
тиҙлектә
тиҙләтелгән
тиҙләтә
тиҙҙән
тиҙәр
тиң
тиҫкәре
тиҫтә
тиҫтәгә
тиҫтәләгән
тиҫтәләрсә
тиҫтәнән
тиһәң
ткаченко
то
тобол
тоболдан
тобольск
тов
товарищество
тоган
тогда
того
тоже
тои
тоиола
тоиоп
тоиоу
тоиғолар
тоиғоһо
ток
токарев
токарь
токио
тол
толковыи
толпар
толстиков
толстого
толстои
толстоиҙың
только
тольятти
том
тома
томан
томас
томах
томаш
томда
томдар
томи
томлы
томлыҡ
томск
томскии
томского
тому
томы
томь
тон
тони
тонна
тоннанан
тоннаға
тоноҡ
топ
топографик
топография
топологик
топология
топоним
топонимдар
топонимдары
топонимика
топонимикаһын
топонимист
топонимисы
топонимическии
топонимов
топонимы
тор
тора
торалар
торама
торамалар
торамаһы
торатау
торағы
тораҡ
тораһы
торба
торбалар
торжок
торлағы
торлаҡ
тормаи
тормаған
тормош
тормошо
тормошон
тормошона
тормошонан
тормошонда
тормошондағы
тормошоноң
тормошта
тормоштан
тормошто
тормоштоң
тормошҡа
торна
торналар
торонто
тороп
торопов
торор
торорлоҡ
торорға
торос
тороу
тороусы
тороуы
тороуын
торош
торошло
торошо
торошон
торошона
торошоноң
торошта
торпедо
торрес
торф
торғаины
торған
торғанда
торғандар
торғас
торҙо
торһа
тос
тот
тота
тоталар
тоташа
тоташтыра
тоташтырыла
тоташтырылған
тоташтырып
тоташтырыу
тоташтырыусы
тоташтырған
тоташтырғыс
тоташҡан
тотола
тотолған
тотона
тотонола
тотонолған
тотонорға
тотоноу
тотонған
тотоп
тотороҡло
тотороҡһоҙ
тоторға
тотоу
тотоусы
тотоусылар
тотоуға
тотош
тотҡан
тотҡандар
тотҡарлаи
тотҡон
тотҡондар
тотҡондарҙы
точка
точки
тоя
тоғро
тоғролоҡ
тоҙ
тоҙло
тоҙлолоғо
тоҙо
тоҙҙар
тоҡ
тоҡана
тоҡанған
тоҡом
тоҡомдар
тоҡомдары
тоҡомдарын
тоҡомдарынан
тоҡомдарының
тоҡомло
тоҡомо
тоҡомонан
тоҫҡаусыһы
тр
травиата
трагедии
трагедия
трагедияһы
трагик
трад
традиции
традицион
традиция
традициялар
традициялары
традицияларын
традицияларына
традицияһы
трактат
трактаты
трактатында
трактор
тракторсы
тракторсыһы
тракты
трамваи
трамплиндан
транзит
трансильвания
транскрипциялар
транскрипцияһы
транспорт
транспорта
транспорты
трапеция
трасса
трассаһы
трек
тренер
тренеры
тренерҙар
тренерҙары
тресы
тресында
тресының
третии
третьего
третья
третьяков
третьяковская
трех
три
тригонометрик
триумф
троекуров
троиницкии
троица
троицк
троицкии
троллеибус
тропик
трофеи
трофи
троцкии
троцкистар
троя
труд
труда
трудов
трудовая
трудовои
труды
труппа
труппаһы
труппаһына
тт
ту
туберкулез
тубыл
тубә
туи
туимазы
туиы
туиына
тула
тулаиым
тултыра
тултырылған
тултырып
тултырыу
тулы
тулылана
тулыландыра
тулыландырыла
тулыландырылған
тулыландырып
тулыландырыу
тулыраҡ
тулыу
тулыуға
тулыһынса
тулған
тулғас
тулҡын
тулҡындар
тулҡындары
тулҡынлы
тулҡыны
тун
тундра
тунис
туп
тупаҫ
тупеев
туплаи
туплана
тупланмаһы
тупланып
тупланған
туплап
тупларға
туплау
туплаған
тупрағы
тупраҡ
тупраҡлы
тупраҡта
тупраҡты
тупраҡтың
тупраҡҡа
тупты
тупҡа
тур
тура
турала
туралған
туран
туранан
турап
тураһында
тураһындағы
турбаҫлы
тургенев
туризм
туризма
туризмы
турин
турист
туристар
туристарҙы
туристарҙың
туристик
туристическии
турнир
турниры
турнирында
турнирҙа
турнирҙарҙа
турнирҙың
турции
турция
туры
турында
турғаи
турғаиы
турҙа
туси
тут
туташтары
туташы
туфан
тухачевскии
туғаи
туғаиы
туған
туғандар
туғандары
туғандарын
туғандарына
туғандарының
туғандаш
туғанлыҡ
туғаны
туғанының
туғыҙ
туғыҙынсы
туҙан
туҡ
туҡаев
туҡаи
туҡлана
туҡланыу
туҡлыҡлы
туҡмаҡ
туҡтаи
туҡтала
туҡталып
туҡталыш
туҡтамаи
туҡтамыш
туҡтап
туҡтата
туҡтатыла
туҡтатылған
туҡтатып
туҡтатырға
туҡтатыу
туҡтатҡан
туҡтауһыҙ
туҡтаған
туҡыма
туҡымалар
туҡыманан
туҡымаһы
туҡыу
туҡһан
туң
туңа
ты
тыва
тыиыла
тыиылған
тыиыу
тыиған
тыл
тылсымлы
тылына
тылында
тымыҡ
тын
тынлы
тынлыҡ
тыныс
тыныслыҡ
тыныслыҡты
тырнаҡлы
тырыш
тырыша
тырышалар
тырышлығы
тырышлыҡ
тырышып
тырышыу
тырышыуы
тырышҡан
тыс
тысяч
тысячи
тыу
тыуа
тыумыштан
тыуым
тыуып
тыуыу
тыуыуы
тыуыуына
тыуыуының
тыуған
тыуғанда
тыуғандан
тыуғандар
тыуғас
тыуҙы
тыуҙыра
тыуҙырмаи
тыуҙырыу
тыуҙырыусы
тыуҙырған
тыш
тыштан
тышы
тышҡа
тышҡы
тыя
тығыҙ
тығыҙлығы
тыҡрығы
тыҡрығында
тыҡрыҡ
тың
тыңлаи
тыңлап
тыңларға
тыңлау
тыңлаусы
тыңлаусылар
тэц
тюлькин
тюмень
тюрингия
тюркские
тюркских
тянь
түбә
түбәгә
түбәләр
түбәләре
түбәләҫ
түбән
түбәнге
түбәнгә
түбәндә
түбәндәге
түбәндәгеләр
түбәндәгеләрҙе
түбәндәгесә
түбәндәрәк
түбәнерәк
түбәнәиеүе
түбәнәиә
түбәһе
түбәһендә
түбәһенә
түбәһенән
түгел
түгеллеген
түгелме
түлек
түлекте
түләгән
түләи
түләк
түләнгән
түләнә
түләп
түләргә
түләү
түләүле
түләүҙе
түләүҙән
түләүҙәр
түләүһеҙ
түрә
түш
түше
түшәлгән
түңгәүер
түңкәрелеш
түңкәрелеше
түңәрәге
түңәрәгендә
түңәрәк
түңәрәктәр
тә
тәбиғи
тәбиғәт
тәбиғәте
тәбиғәтен
тәбиғәткә
тәбиғәтле
тәбиғәтте
тәбиғәттең
тәбиғәттә
тәбиғәттән
тәбриз
тәгәрмәс
тәгәрмәсле
тәжрибә
тәжрибәле
тәжрибәләр
тәжрибәһе
тәжрибәһен
тәжрибәһенә
тәирүк
тәкә
тәлмәриен
тәлғәт
тәм
тәме
тәмле
тәмләткес
тәмләткестәр
тәмәке
тән
тәндең
тәне
тәнен
тәнзилә
тәнле
тәнлеләр
тәнҡит
тәнҡиткә
тәнҡитләи
тәнҡитләнә
тәнҡитләп
тәнҡитсе
тәнҡитселәр
тәнҡитсеһе
тәпәш
тәрбиә
тәрбиәгә
тәрбиәләгән
тәрбиәләи
тәрбиәләнгән
тәрбиәләнеүселәре
тәрбиәләнеүсеһе
тәрбиәләнә
тәрбиәләп
тәрбиәләү
тәрбиәсе
тәрбиәһе
тәре
тәреһе
тәрж
тәржемә
тәржемәлә
тәржемәләр
тәржемәләре
тәржемәсе
тәржемәсеһе
тәржемәһе
тәржемәһендә
тәртибе
тәртибен
тәртибендә
тәртибенең
тәртибенә
тәртип
тәртипкә
тәртипте
тәртиптә
тәртиптәге
тәрән
тәрәнерәк
тәрәнлеге
тәрәнлектә
тәрәнлектәге
тәтешле
тәхет
тәхете
тәхетен
тәхетенә
тәхеткә
тәхетте
тәхеттән
тәшкил
тәьмин
тәьминәт
тәьминәте
тәьҫир
тәьҫире
тәьҫирен
тәьҫирендә
тәғлимәт
тәғлимәте
тәғлимәтен
тәғәиен
тәғәиенләгән
тәғәиенләи
тәғәиенләиҙәр
тәғәиенләнгән
тәғәиенләнде
тәғәиенләнеше
тәғәиенләнешле
тәғәиенләнештәге
тәғәиенләнә
тәғәиенләү
тәғәлә
тәғәләгә
тәғәләнең
тәҙрә
тәҙрәләр
тәҙрәләре
тәҙрәһе
тәҡдим
тәҡдимде
тәҡдимдәр
тәҡдиме
тәҡдимен
тәңкә
тәңкәләр
тәңкәләре
тәңкәһе
тәңре
тәү
тәүбә
тәүге
тәүгеләрҙән
тәүгеһе
тәүлегенә
тәүлек
тәүлеккә
тәүләп
тәүрат
тәүтормош
тәүҙә
тәүәккәл
тәһран
тәһәрәт
төбәге
төбәгендә
төбәгендәге
төбәгенең
төбәгенә
төбәк
төбәккә
төбәкте
төбәктең
төбәктә
төбәктәге
төбәктәр
төбәктәре
төбәктәрендә
төбәктәренең
төбәктәренән
төбәктәрҙең
төбәктәрҙә
төбө
төбөн
төбөндә
төбөндәге
төбөнә
төбөнән
төилөгән
төиәге
төиәк
төиәләҫ
төклө
төкәтмә
төлкө
төмән
төн
төнгө
төндә
төндәр
төндө
төньяк
төньяғы
төньяғында
төньяғындағы
төньяҡ
төньяҡта
төньяҡтан
төньяҡтараҡ
төньяҡтағы
төньяҡҡа
төньяҡҡараҡ
төнө
төнөн
төнөндә
төп
төпкөл
төпләнгән
төпләнеп
төпләнеүсе
төпләнә
төплө
төпәев
төр
төрбәһе
төргә
төрки
төркиҙәр
төркиә
төркиәгә
төркиәлә
төркиәнең
төркиәнән
төркиәтсе
төркмән
төркмәнстан
төркмәнстанда
төркмәнстандың
төркөм
төркөмгә
төркөмдә
төркөмдәр
төркөмдәргә
төркөмдәре
төркөмдәрен
төркөмдәренең
төркөмдәренә
төркөмдәрҙең
төркөмдө
төркөмдөң
төркөмө
төркөмөн
төркөмөндә
төркөмөндәге
төркөмөнә
төркөмөнән
төркөмөнөң
төркөстан
төрлө
төрлөлөгө
төрлөлөгөн
төрлөлөк
төрлөсә
төрмә
төрмәгә
төрмәлә
төрмәнән
төрмәһе
төрмәһендә
төрмәһенә
төрҙә
төрҙәге
төрҙәр
төрҙәргә
төрҙәре
төрҙәрен
төрҙәрендә
төрҙәренең
төрҙәренә
төрҙәренән
төрҙәрҙең
төрҙө
төрҙөң
төрө
төрөк
төрөкмән
төрөктәр
төрөктәргә
төрөктәрҙең
төрөн
төрөндә
төрөндәге
төрөнә
төрөнөң
төрөп
төтөн
төхвәт
төхвәтуллин
төш
төшкән
төшкәндә
төшкәс
төшкө
төшмәи
төштө
төшһә
төшә
төшәләр
төшөм
төшөмдөң
төшөмө
төшөнсә
төшөнсәләр
төшөнсәләре
төшөнсәләрен
төшөнсәһе
төшөнсәһен
төшөнсәһенә
төшөп
төшөргә
төшөргән
төшөрмәләре
төшөрә
төшөрәләр
төшөрөлгән
төшөрөлә
төшөрөп
төшөрөргә
төшөрөү
төшөү
төшөүе
төҙ
төҙәтелгән
төҙәтеп
төҙәтеү
төҙәтеүҙәр
төҙәтмәләр
төҙөгән
төҙөгәндә
төҙөгәндән
төҙөгәндәр
төҙөи
төҙөиҙәр
төҙөк
төҙөкләндерелә
төҙөкләндереү
төҙөлгән
төҙөлгәндән
төҙөлгәс
төҙөлдө
төҙөлә
төҙөләсәк
төҙөлөп
төҙөлөш
төҙөлөшкә
төҙөлөшлө
төҙөлөштә
төҙөлөштәр
төҙөлөштө
төҙөлөштөң
төҙөлөшө
төҙөлөшөн
төҙөлөшөндә
төҙөлөшөнә
төҙөлөшөнөң
төҙөлөү
төҙөлөүе
төҙөп
төҙөргә
төҙөткән
төҙөтә
төҙөү
төҙөүгә
төҙөүсе
төҙөүселәр
төҙөүселәрҙең
төҙөүсеһе
төҙөүҙе
төҙөүҙең
төҙөүҙә
төҫ
төҫкә
төҫлө
төҫтә
төҫтәге
төҫтәр
төҫтәре
төҫө
төҫөн
төҫөндә
төҫөндәге
у
уба
убалар
убалы
убаһы
убииство
уборевич
уводь
угату
углеводтар
углекислыи
углерод
угличь
угнту
уго
угра
удар
ударнигы
удел
удк
удмурт
удмуртия
удмурттар
удэ
уезд
уезда
уефа
уже
ужым
узбекистана
узел
узелы
узиков
уи
уилаи
уилаиҙар
уилана
уиланма
уиланылған
уилап
уилаған
уилсон
уильям
уильямс
уинаи
уинаиҙар
уинала
уинап
уинарға
уинау
уинаусы
уинауы
уинаған
уинағанда
уиы
уиылдан
уиылып
уиылға
уиылған
уиым
уиымдары
уиын
уиында
уиындан
уиындар
уиындары
уиындарын
уиындарына
уиындарында
уиындарының
уиындарҙа
уиындарҙы
уиынды
уиындың
уиынсы
уиынсылар
уиынсылары
уиынсыларҙың
уиынсының
уиынсыға
уиынсыһы
уиыны
уиынын
уиынында
уиынға
уиып
уиғыр
уиғырҙар
уиҙырма
уиһыу
уиһыулығы
ук
указ
указан
указатель
указать
указлы
указом
указы
указына
указға
укр
украин
украина
украинала
украиналағы
украинанан
украинаны
украинаның
украинаға
украиндар
украине
украинская
украинскии
украинскои
украины
украіни
украінська
укроп
ул
улаи
улан
улар
улары
уларға
уларҙа
уларҙан
уларҙы
уларҙың
улдары
улдарын
улдарына
улдарының
улиц
улица
улице
улицы
уллыҡҡа
ултыра
ултыраҡ
ултырма
ултырмалары
ултырта
ултырталар
ултыртыла
ултыртылған
ултыртып
ултыртырға
ултыртыу
ултыртҡан
ултырып
ултырырға
ултырыу
ултырыуы
ултырыш
ултырышта
ултырышы
ултырышында
ултырған
улу
улус
улустары
улусы
улусына
улусынан
улусында
улусының
улы
улым
улын
улына
улынан
улының
ультрафиолет
ульяна
ульянов
ульяновск
умарта
умартасылыҡ
умение
умер
умыртҡа
ун
унан
унарлы
унда
ундаи
ундан
ундағы
ундрицов
унжа
универсаль
университет
университета
университете
университетов
университетта
университеттар
университеттары
университеттарының
университеттарҙың
университетты
университеттың
университеты
университетын
университетына
университетынан
университетында
университетының
университетҡа
уникаль
унитар
унтер
унц
уны
унынсы
уның
уныһы
уп
упк
упр
управление
управления
упҡын
ур
ура
уравнение
уравнении
уравнения
уразаи
ураксина
урал
урала
уралда
уралдағы
уралдың
урале
урало
уралтау
уралым
уральск
уральская
уральскии
уральского
уральское
уральскои
уралға
урам
урамда
урамдан
урамдар
урамдары
урамдарында
урамдарының
урамдарға
урамдарҙың
урамдың
урамы
урамын
урамына
урамынан
урамында
урамындағы
урамының
урамға
уран
урап
урарту
уратылған
уратып
уратҡан
урау
ураҙа
ураҡ
ураҡсин
урбанизация
урду
урлап
урлау
урман
урманда
урмандар
урмандары
урмандарында
урмандарҙа
урмандарҙы
урманды
урманлы
урмансы
урмансылыҡ
урманы
урманға
уро
урок
уроки
урология
урочище
урсс
урта
уртала
урталарына
урталарында
уртаса
уртаҡ
уртаҡлаша
уртаһы
уртаһына
уртаһынан
уртаһында
уртаһындағы
уругваи
урын
урынбаҫары
урынбаҫарҙары
урында
урындан
урындар
урындары
урындарын
урындарына
урындарында
урындарының
урындарға
урындарҙа
урындарҙан
урындарҙы
урындарҙың
урындағы
урынды
урындың
урынлаша
урынлашалар
урынлаштыра
урынлаштыралар
урынлаштырыла
урынлаштырылған
урынлаштырырға
урынлаштырыу
урынлаштырған
урынлашып
урынлашырға
урынлашыу
урынлашыуы
урынлашҡан
урынлашҡандар
урынлы
урынлыҡ
урыны
урынын
урынына
урынынан
урынында
урынға
урынған
урыҫ
урыҫса
урыҫтар
урыҫтарҙың
урядник
урғаҙа
урҙа
урҙаның
урҙаһы
ус
уса
усадьба
усадьбаһы
усаҡ
условии
условия
условиях
усман
усманов
усманова
успение
успенскии
успехи
усср
устав
уставы
уставына
установлении
устинов
устроистве
устроиство
усть
устье
устья
ут
утар
утары
утарынан
утарында
утарҙа
утверждение
утверждении
уткин
утлы
утрау
утрауы
утрауын
утрауына
утрауынан
утрауында
утрауындағы
утрауының
утрауға
утрауҙа
утрауҙар
утрауҙары
утрауҙарын
утрауҙарына
утрауҙарында
утрауҙарының
утрауҙарҙа
утрауҙарҙы
утрауҙы
утрауҙың
утро
утта
уттан
уттары
утты
уты
утын
утына
утыҙ
утҡа
уфа
уфе
уфим
уфимская
уфимские
уфимскии
уфимского
уфимскои
уфы
ухта
уч
учалы
участие
участием
участии
участка
участкала
участкалары
участкаһы
участкаһын
участкаһында
участники
участников
учащихся
учеб
учебник
учебно
учебное
учебные
учебных
учение
ученого
ученои
ученые
ученыи
ученых
учет
учетных
учетом
училища
училище
училищела
училищелары
училищены
училищеның
училищеға
училищеһы
училищеһын
училищеһына
училищеһында
училищеһының
учителеи
учитель
учителя
учреждение
учреждениелар
учреждениелары
учреждениеларында
учреждениеларының
учреждениеһы
учреждениеһының
учреждении
учреждения
ушаков
ушакова
ушел
ушинскии
уэин
уэльс
уяна
уята
уға
уғы
уғыр
уғыҙ
уғыҙҙар
уҙа
уҙып
уҙышта
уҙған
уҙғара
уҙғарыла
уҙғарылған
уҙғарған
уҡ
уҡсы
уҡсылар
уҡсылары
уҡыи
уҡыиҙар
уҡыла
уҡымышлы
уҡып
уҡырға
уҡыта
уҡытыла
уҡытырға
уҡытыу
уҡытыусы
уҡытыусылар
уҡытыусылары
уҡытыусыларының
уҡытыусыларҙың
уҡытыусылыҡ
уҡытыусыһы
уҡытыуға
уҡытыуҙы
уҡытҡан
уҡыу
уҡыусы
уҡыусылар
уҡыусылары
уҡыусыларына
уҡыусыларының
уҡыусыларға
уҡыусыларҙы
уҡыусыларҙың
уҡыусыға
уҡыусыһы
уҡыуы
уҡыуын
уҡыуға
уҡыуҙан
уҡыуҙар
уҡыуҙары
уҡыуҙы
уҡыған
уҡығанда
уҡығандан
уң
уңаилы
уңаиынан
уңаиһыҙ
уңдан
уңдырышлы
уңында
уңыш
уңышлы
уңыштар
уңыштары
уңыштарға
уңышты
уңышы
уңышын
уңышҡа
уңышһыҙ
уңышһыҙлыҡҡа
уңға
уңған
уҫал
уҫаҡ
уҫман
уҫы
ф
фа
фабрика
фабрикалары
фабрикаһы
фабрикаһында
фадеев
фажиғәле
фаза
фазлыи
фазыл
фаизова
фаил
фаиҙа
фаиҙалана
фаиҙаланалар
фаиҙаланыла
фаиҙаланылған
фаиҙаланып
фаиҙаланырға
фаиҙаланыу
фаиҙаланыуға
фаиҙаланған
фаиҙаланғандар
фаиҙалы
фаиҙаһы
фаиҙаһына
фаиҙаһыҙ
факел
факт
фактик
факто
фактор
фактория
факторы
факторҙар
факторҙары
факттар
факттарҙы
факты
факультет
факультета
факультетта
факультеттар
факультеттары
факультеттың
факультеты
факультетын
факультетына
факультетында
факультетының
фамилии
фамилия
фамилиялары
фамилияһы
фамилияһын
фан
фантазия
фантастик
фараз
фараздар
фаразлаи
фаразлана
фаразларға
фаразлауынса
фаразы
фармакология
фарман
фарманы
фармацевтика
фарс
фарсы
фарсылар
фарфор
фарыз
фасад
фасадтары
фасадтың
фасады
фасадында
фасадының
фасмер
фатима
фатир
фатирлы
фатиры
фатирында
фатирҙа
фатирҙар
фатих
фатиха
фауна
фаунаһы
фауст
фашизм
фашизмға
фашист
фашистар
фашистик
фгбоу
фгуп
февр
февралдә
феврале
февралендә
февралендәге
февраленә
февраленән
февраль
февраля
федераль
федеральная
федерального
федеральное
федеральнои
федеральныи
федеральным
федеральных
федератив
федерации
федерация
федерацияһы
федерацияһына
федерацияһында
федерацияһының
федерико
федор
федоров
федорова
федорович
федоровка
федоровна
федотов
фекер
фекергә
фекере
фекерен
фекеренсә
фекеренә
фекерләү
фекерҙе
фекерҙә
фекерҙәр
фекерҙәре
фекерҙәрен
феликс
фельдмаршал
фельдшер
феникс
феномен
феодал
феодаль
феодосии
феодосия
фердинанд
ференц
ферма
фермаһы
фермаһында
ферменттар
фермер
фернандо
фестивалдең
фестивалдә
фестивалдәр
фестивалдәре
фестивале
фестивалендә
фестиваленең
фестиваль
фетисов
фетнә
фехтование
фз
фи
фигура
фигуралар
фигуралары
фигураларҙың
фигуралы
фигураһы
фидан
фиде
физ
физигы
физик
физика
физиканың
физикаһы
физики
физико
физиологии
физиологик
физиология
физиологияһы
физиологы
физическая
физических
физическои
физкультура
физматлит
фил
филармония
филармонияһы
филармонияһында
филармонияһының
филатов
филиал
филиала
филиалдары
филиалы
филиалында
филиалының
филип
филипп
филиппин
филиппов
филиппович
филол
филолог
филологии
филологических
филология
филологияһы
философ
философии
философик
философия
философияһы
философская
философские
философскии
философы
фильм
фильма
фильмда
фильмдар
фильмдары
фильмдарында
фильмдарҙа
фильмды
фильмдың
фильме
фильмы
фильмын
фильмына
фильмында
фильмындағы
фильмының
фин
финал
финалда
финалы
финалына
финалында
финалға
финанс
финанслау
финанстар
финдар
финляндии
финляндия
финляндияла
финляндияның
финляндияға
финно
фирма
фирмаһы
фирмаһының
фирғәнә
фирғәүен
фирҙәүес
фирҡә
фирҡәһе
фирүзә
фифа
фишер
фиҙакәр
фиҙаҡәр
фк
фкз
флаг
флаге
флагы
флагын
флеита
флеминг
флигель
флора
флораһы
флоренция
флорид
флорида
флот
флота
флотилияһы
флоты
флотын
флотына
флотында
флотының
флүр
флүрә
фо
фокин
фольклор
фольклорсы
фольклоры
фольклорын
фома
фоменко
фомин
фон
фонд
фонда
фонды
фондын
фондына
фондынан
фондында
фондының
фонема
фонетик
фонетика
фонтан
фонтанка
фонтаны
фонында
форд
форма
формала
формалар
формалары
формаларын
формаларының
формалаша
формалаштыра
формалаштырыу
формалашыу
формалашыуы
формалашыуына
формалашҡан
формалағы
формалы
формаль
формате
форматында
формаға
формаһы
формаһын
формаһына
формаһында
формаһындағы
форме
формирование
формированиелары
формирования
формула
формулалар
формулаһы
формы
форт
фортепиано
фортепианола
форум
форумы
фосфор
фото
фотогалерея
фотограф
фотографии
фотография
фотографиялар
фотосинтез
фотоға
фотоһүрәттәр
фотоһүрәттәре
фр
фрагмент
фрагменттары
фрагменты
фракия
фракцияһы
фрам
франк
франклин
франко
франкфурт
франс
франсиско
франсуа
франц
франции
франциск
франциско
франция
францияла
франциялағы
франциянан
францияның
францияға
француз
француздар
француздарға
француздарҙың
французскии
франческо
фрг
фредерик
фреид
фреидзон
фрескалар
фрида
фридрих
фриц
фролов
фронт
фронта
фронте
фронтовик
фронтон
фронтта
фронттан
фронттарында
фронтты
фронттың
фронты
фронтына
фронтында
фронтының
фронтҡа
фрунзе
фрэнк
фрэнсис
фсб
фуат
фундаменталь
функции
функциональ
функция
функциялар
функциялары
функцияларын
функцияларҙы
функцияларҙың
функциялы
функцияны
функцияның
функцияһы
функцияһын
функцияһының
фунт
фурье
фут
футбол
футболсы
футболсыһы
фәиез
фәизи
фәизрахман
фәизулла
фәизуллин
фәизуллина
фәлсәфә
фәлсәфәүи
фәлсәфәһе
фәләстин
фән
фәнгә
фәнде
фәндең
фәндә
фәндәр
фәндәре
фәндәрҙе
фәндәрҙең
фәне
фәнен
фәнендә
фәненең
фәненә
фәнил
фәнис
фәниә
фәнни
фәнүзә
фәрештә
фәрештәләр
фәрзәнә
фәрит
фәриҙә
фәсхетдин
фәтих
фәттәх
фәтҡулла
фәтҡуллин
фәхретдин
фәхретдинов
фәҡир
фәҡәт
фәүзиә
фәһим
х
ха
хабаровск
хабиров
хаж
хажи
хажиев
хажиәхмәт
хажы
хажға
хазар
хазарҙар
хазина
хазинаһы
хаи
хаидеггер
хаиран
хаиретдинов
хаиуан
хаиуандар
хаиуандары
хаиуандарының
хаиуандарға
хаиуандарҙа
хаиуандарҙы
хаиуандарҙың
хакас
хаким
хакимдар
хакимдары
хакимдарының
хакимиәт
хакимиәте
хакимиәтендә
хакимиәтенең
хакимлек
хакимлығы
хакимлығын
хакимлығына
хакимлыҡ
хакимов
хакимы
халиков
халиҡов
халыҡ
халыҡсан
халыҡта
халыҡтан
халыҡтар
халыҡтары
халыҡтарын
халыҡтарына
халыҡтарында
халыҡтарының
халыҡтарға
халыҡтарҙа
халыҡтарҙы
халыҡтарҙың
халыҡты
халыҡтың
халыҡҡа
хальмер
халҡы
халҡыбыҙ
халҡыбыҙҙың
халҡым
халҡын
халҡына
халҡынан
халҡында
халҡының
хамидуллин
хамитов
хамитова
хаммат
хамматов
хаммурапи
хан
хана
хандары
ханды
хандың
ханлығы
ханлығын
ханлығына
ханлығында
ханлығының
ханлыҡ
ханов
ханс
ханты
ханы
ханым
хань
ханға
хара
харабалары
характер
характеристика
характеристикаһы
характеристики
характерлана
характерлы
характеры
характерын
характерҙа
характерҙағы
харам
харис
харисов
харламов
харьков
харьковта
хас
хасан
хасанов
хасил
хат
хата
хаталар
хаталы
хатаһы
хатибы
хатип
хатта
хаттар
хаттары
хатты
хатун
хаты
хатын
хатында
хафиз
хафизов
хашим
хаҡ
хаҡлы
хаҡта
хаҡтар
хаҡы
хаҡын
хаҡына
хаҡында
хаҡындағы
хаҡының
хаҡҡа
хельсинки
хемингуэи
хепберн
херсон
хет
хеҙм
хеҙмәт
хеҙмәте
хеҙмәтен
хеҙмәтендә
хеҙмәтенең
хеҙмәтенә
хеҙмәтенән
хеҙмәткә
хеҙмәткәр
хеҙмәткәре
хеҙмәткәрҙәр
хеҙмәткәрҙәре
хеҙмәткәрҙәрен
хеҙмәткәрҙәренең
хеҙмәткәрҙәренә
хеҙмәткәрҙәрҙең
хеҙмәтле
хеҙмәтләндергән
хеҙмәтләндереү
хеҙмәтләндереүсе
хеҙмәтләндерә
хеҙмәтсе
хеҙмәтсеһе
хеҙмәтсәндәр
хеҙмәтте
хеҙмәттең
хеҙмәттә
хеҙмәттән
хеҙмәттәр
хеҙмәттәре
хеҙмәттәрен
хеҙмәттәрендә
хеҙмәттәренең
хеҙмәттәренә
хеҙмәттәшлеге
хеҙмәттәшлек
хеҙмәттәшлекте
хикмәт
хикмәтле
хикәиә
хикәиәләр
хикәиәләре
хикәиәләрен
хикәиәләү
хикәиәне
хикәиәнең
хикәиәт
хикәиәһе
хикәиәһен
хикәиәһендә
химигы
химии
химик
химическая
химических
химия
химияһы
хип
хирург
хирургии
хирургик
хирургия
хирургияһы
хирургы
хис
хисаметдинова
хисамитдинова
хисап
хисаплау
хисматуллин
хисмәтуллин
хистәр
хистәрен
хит
хиуа
хк
хлеб
хлебников
хлевнюк
хлор
хмао
хмельницкии
хо
хозяиства
хозяиство
хоккеи
хоккеисы
хоккеисылары
хоккеисыһы
холера
холл
холм
холокост
холоҡ
хонеккер
хоп
хопер
хопр
хор
хорв
хорват
хорватия
хорватияла
хорватияның
хорваттар
хорезм
хореограф
хореография
хорошо
хорунжии
хоры
хосе
хосров
хосуси
хосусилаштырыу
хотя
хоу
хохлов
хочу
хоҙаи
хоҙаибирҙин
хоҡуғы
хоҡуғын
хоҡуғына
хоҡуғынан
хоҡуҡ
хоҡуҡи
хоҡуҡлы
хоҡуҡтар
хоҡуҡтары
хоҡуҡтарын
хоҡуҡты
хоҡуҡҡа
хр
храм
храма
храмов
храмы
хранения
хребет
хрестоматия
христиан
христиандар
христиандарҙың
христианлыҡ
христианлыҡты
христос
христофор
хромосомалар
хроник
хроника
хроники
хронологик
хронология
хронологияһы
хронос
хрущев
хуан
хуанхэ
хубилаи
худ
худож
художеств
художественная
художественного
художественнои
художественныи
художество
художестволы
художник
художника
художники
художников
худяков
хужа
хужабикә
хужабикәһе
хужалар
хужалары
хужалығы
хужалығын
хужалығына
хужалығында
хужалығының
хужалыҡ
хужалыҡта
хужалыҡтар
хужалыҡтары
хужалыҡтың
хужаһы
хужаһының
хуп
хуплаи
хупламаи
хуплана
хуплап
хуплау
хуплаған
хусаинов
хутор
хуш
хушлашыу
хх
хыял
хыяллана
хыялы
хыянат
хәбиб
хәбибрахман
хәбибулла
хәбибуллин
хәбир
хәбиров
хәбәр
хәбәрсе
хәбәрсеһе
хәбәрҙе
хәбәрҙәр
хәбәрҙәре
хәбәрһеҙ
хәи
хәибулла
хәибуллин
хәиер
хәиерле
хәиретдин
хәиретдинов
хәириә
хәирулла
хәируллин
хәиҙәр
хәким
хәкимиән
хәкимов
хәл
хәлгә
хәлде
хәлдең
хәлдә
хәлдән
хәлдәр
хәлдәрҙе
хәле
хәлен
хәлендә
хәлендәге
хәленә
хәлил
хәлилов
хәлим
хәлит
хәлиф
хәлифә
хәлифәлеге
хәлле
хәләл
хәләф
хәмзә
хәмит
хәмитов
хәмиҙулла
хәмиҙуллин
хәниф
хәнифә
хәнәфи
хәрби
хәрбиҙәр
хәрбиҙәре
хәреф
хәрефе
хәрефле
хәрефтәр
хәрефтәре
хәрәзм
хәрәкәт
хәрәкәте
хәрәкәтен
хәрәкәтендә
хәрәкәтенең
хәрәкәтенә
хәрәкәткә
хәрәкәтсән
хәрәкәтте
хәрәкәттең
хәрәкәттә
хәрәкәттәр
хәрәкәттәре
хәрәкәттәрен
хәрәкәттәрҙе
хәрәкәттәрҙә
хәрәкәтһеҙ
хәстәрлек
хәсән
хәсәнов
хәтер
хәтере
хәтерендә
хәтерләи
хәтерләткән
хәтерләтә
хәтерләүенсә
хәтерҙә
хәтирәләр
хәтирәләре
хәтле
хәтлем
хәҙер
хәҙерге
хәҙис
хәҙистәр
хәҙисә
хәҙрәт
хәҙрәти
хәҡиҡәт
хәүеф
хәүефе
хәүефле
хәүефһеҙ
хәүефһеҙлеге
хәүефһеҙлеген
хәүефһеҙлек
хөкүмәт
хөкүмәте
хөкүмәтен
хөкүмәтендә
хөкүмәтенең
хөкүмәтенә
хөкүмәткә
хөкүмәтте
хөкүмәттең
хөкүмәттәре
хөкөм
хөкөмгә
хөкөмө
хөрмәт
хөрмәтенә
хөрмәтле
хөрәсән
хөснөтдин
хөсәиен
хөсәиенов
хөсәиенова
ц
цамо
царское
царство
царь
царя
цвет
цветаева
цветаевои
цветы
цгиа
цезарь
целлюлоза
цемент
цензура
центнер
центр
центра
центральная
центрального
центральное
центральнои
центральныи
центрах
центре
центрполиграф
церемония
церетели
церкви
церковь
цех
цехы
цехында
цзинь
цзы
ци
цивилизации
цивилизация
цивилизацияһы
цивилизацияһының
цивиль
цик
цикл
цикла
циклон
циклондар
циклы
циклын
цилиндр
цимлян
цимлянск
цин
цинк
цинь
циолковскии
цирк
циркы
цит
цитадель
цитата
цифрлы
цифрҙар
цицерон
цк
цна
цру
цска
цунами
цюрих
цянь
ч
чавес
чад
чаика
чаиковскии
чаиковскииҙың
чаиковского
чан
чанышев
чапаев
чарли
чарльз
час
часовня
частар
частары
частарын
частарының
частеи
части
часть
часы
че
чебоксар
чебоксары
чего
чекмарев
чел
челеби
челентано
человек
человека
человечества
челябинск
челябинская
челябинскии
челябинского
челябинскои
челябинскстат
чем
чемпион
чемпионат
чемпионата
чемпионатта
чемпионаттары
чемпионаттарында
чемпионаттарының
чемпионаттың
чемпионаты
чемпионатын
чемпионатына
чемпионатында
чемпионатының
чемпиондар
чемпиондары
чемпионы
чепца
через
черек
череповец
черкассы
черкес
черная
чернигов
черниковка
чернобыль
чернов
черновцы
черного
черногория
черногорияның
чернушка
черные
черныи
черных
чернышев
чернышевскии
черчилль
чесноковка
честь
четыре
четырех
чех
чехия
чехияла
чехияның
чехов
чехова
чеховтың
чеховҡа
чехонте
чехословак
чехословакия
чехословакияла
чехословакияның
чехтар
чечен
чечня
чеш
чжан
чжоу
чжу
чжэн
чикаго
чили
чилиҙың
чиновнигы
чиновник
чиновниктар
чиновниктары
чины
чинында
чио
чир
чисел
чисельність
числа
числе
численности
численность
число
чита
чкалов
член
члена
членов
члены
чтения
что
чтобы
чу
чуваш
чувашская
чуд
чудес
чудо
чудотворец
чулым
чулымдан
чума
чумаков
чумыш
чусовая
чусыу
ш
шаблоне
шагал
шадринск
шаиба
шаибалар
шаибалы
шаибаһын
шаиморатов
шаимуратовцы
шаитан
шаихеев
шакир
шакириән
шакиров
шакуров
шаляпин
шамбы
шамил
шан
шанхаи
шань
шапиро
шапошников
шар
шаран
шарап
шарипов
шарлауығы
шарлауыҡ
шарлотта
шарль
шарт
шартлата
шартлау
шартлы
шарттар
шарттары
шарттарын
шарттарына
шарттарында
шарттарға
шарттарҙа
шарттарҙы
шарты
шаршамбы
шаршау
шаршаулы
шары
шарында
шарының
шат
шатлыҡ
шау
шафиҡ
шафиҡов
шафран
шах
шахмат
шахматсыһы
шахта
шахтер
шахты
шашка
шаян
шағир
шағиры
шағирҙар
шағирҙары
шағирҙарының
шағирҙарҙың
шағирҙың
шағирә
шағирәһе
шаҡ
шаҡтаи
шаҡша
шаһ
шаһиев
шаһит
шаһиттар
шаһиты
шаһтың
шаһы
шварц
швед
шведтар
швеицар
швеицария
швеицарияла
швеицарияның
швеицарияға
швеции
швеция
швецияла
швецияның
швецияға
шевченко
шевчук
шежере
шеих
шексна
шекснинск
шекспир
шекспира
шекспирҙың
шесть
шеш
шеше
ши
шик
шикелле
шикле
шикһеҙ
шиллер
ширван
ширин
широков
ширҡәте
шитова
шифалы
шифахана
шифаханаһы
шихан
шишкин
шишмә
шишмәләр
шишмәләре
шишмәһе
шишәмбе
шиғри
шиғриәт
шиғриәте
шиғриәтенең
шиғыи
шиғыиҙар
шиғыр
шиғыры
шиғырын
шиғырына
шиғырында
шиғырҙар
шиғырҙары
шиғырҙарын
шиғырҙарына
шиғырҙарында
шк
шкадов
шкалаһы
шкаф
школ
школа
школе
школы
школьная
школьников
шлем
шмидт
шоигу
шоколад
шолохов
шолохова
шолоховтың
шопен
шор
шорт
шоссе
шоссеһы
шостакович
шотланд
шотландия
шотландияның
шоу
шофер
шоңҡар
шпион
шредингер
шри
штаб
штаба
штабс
штабы
штабына
штабында
штабының
штат
штаттан
штаттар
штаттары
штаттарында
штаттарының
штаттың
штаты
штатында
штатындағы
штатының
штирия
штраус
штраф
штурм
штурман
штурманы
штурмлау
штык
шу
шуберт
шувалов
шул
шулаи
шулар
шуларҙан
шуларҙың
шуман
шумер
шумпетер
шунан
шунда
шундаи
шундуҡ
шунлыҡтан
шуны
шуның
шуныһы
шура
шураһы
шуша
шуға
шыиыҡ
шыиыҡлыҡ
шыиыҡса
шым
шыма
шымартылған
шымкент
шына
шырт
шыршы
шыуып
шыуыу
шүлгән
шүлгәнташ
шәжәрә
шәжәрәһе
шәжәрәһен
шәиех
шәиехзада
шәихетдин
шәихетдинов
шәиәхмәтов
шәкир
шәкүр
шәкүров
шәкәр
шәл
шәлкеме
шәм
шәмбе
шәмсетдин
шәмсетдинов
шәмәхә
шәп
шәр
шәреҡ
шәрип
шәрипов
шәрипова
шәриф
шәрифиән
шәрифулла
шәриғәт
шәрҡиәт
шәрҡиәтсе
шәрәфетдин
шәрәфетдинов
шәфҡәт
шәхес
шәхесе
шәхестең
шәхестәр
шәхестәре
шәхестәрҙең
шәхси
шәхсән
шәүрә
шәһит
шөкөр
шөғөлләнгән
шөғөлләнгәндәр
шөғөлләнергә
шөғөлләнеү
шөғөлләнеүсе
шөғөлләнә
шөғөлләнәләр
шөғөлө
шөңгәккүл
щ
щелкунчик
щербаков
щукин
щучье
ъ
ы
ыласын
ылымыҡтар
ылыҡтыра
ылыҫлы
ын
ына
ынан
ынанкострома
ында
ыниы
ынтыла
ынтылыш
ынтылышы
ынтылған
ының
ырымбур
ырымбурға
ырымбурҙа
ырымбурҙан
ырымбурҙың
ырыу
ырыуы
ырыуына
ырыуынан
ырыуының
ырыуға
ырыуҙар
ырыуҙары
ырыуҙарының
ырыуҙың
ырғыта
ырғытыу
ырғыҙ
ырғыҙлы
ысул
ысулдар
ысулдары
ысулдарын
ысулдарҙы
ысулы
ысулын
ысын
ысынбарлыҡ
ысынбарлыҡта
ысынбарлыҡты
ысынбарлыҡҡа
ысынлап
ысынында
ысыҡ
ыу
ыуылдырыҡ
ышана
ышанмаи
ышанып
ышаныс
ышаныслы
ышанысын
ышаныу
ышанған
ығы
ыҙа
ыҙғыш
ыҡ
ыҡтамаҡ
ың
ыңғаи
ыңғаиы
ь
э
эвакуация
эвакуацияла
эвакуациялана
эвакуацияланған
эверест
эвм
эволюцион
эволюция
эволюцияһы
эгеи
эгидаһы
эдвард
эдгар
эдинбург
эдип
эдмунд
эдуард
эжен
эзбиз
эзбизташ
эи
эие
эиек
эизенштеин
эилер
эинштеин
эифель
эиә
эиәлек
эиәләре
эиәләренең
эиәр
эиәреп
эиәрә
эиәһе
эквадор
экватор
экваториаль
эквивалентлы
экз
экипаж
экипажы
эклектика
эколог
экологии
экологик
экология
экологияһы
экономика
экономики
экономическая
экономические
экономическии
экономических
экономического
экономическое
экономическои
экономия
экран
экрандарға
экс
экскурсия
экскурсиялар
эксмо
экспедиции
экспедиция
экспедицияла
экспедициялар
экспедицияларҙа
экспедицияһы
экспедицияһында
экспедицияһының
эксперимент
эксперименталь
эксперименттар
эксперт
экспертиза
эксперттар
эксперты
эксплуатация
эксплуатациялау
экспозиция
экспозицияһы
экспонат
экспонаттар
экспонаттары
экспорт
экспортҡа
экспресс
экстремаль
эл
элам
элгәре
элегерәк
элек
элекке
элеккесә
электр
электрик
электрлаштырыу
электромагнит
электромеханик
электрон
электрондар
электроника
электронная
электронное
электроннои
электронныи
электротехник
электротехника
электән
элемент
элементар
элементлы
элементов
элементтар
элементтары
элементтарын
элементтарының
элементтарҙы
элементтарҙың
элементтың
элементы
элементының
элемтә
элемтәсеһе
элемтәһе
эленгән
эленеп
элеонора
элеп
элизабет
элиста
элита
эллин
эллипс
элм
элмәк
эль
эльба
эльбрус
эльвира
эльза
эльмира
эләгеп
эләгә
эләккән
эләкмәи
эләктереп
эмаль
эмблемаһы
эмигрант
эмиграция
эмиграцияла
эмиграцияға
эмилия
эмиль
эминем
эмма
эмоциональ
эмпирик
энвер
энгельс
эндемик
энди
эндрю
энеле
энеолит
энергетигы
энергетик
энергетика
энергетикаһы
энергия
энергияны
энергияһы
энергияһын
энеһе
энтони
энцикл
энциклопедии
энциклопедик
энциклопедическии
энциклопедическое
энциклопедия
энциклопедиясы
энциклопедияһы
энциклопедияһынан
энциклопедияһында
энцыклапедыя
энә
эпидемиология
эпидемия
эпидемияһы
эпизод
эпик
эпос
эпосы
эпосында
эпоха
эпохи
эпоху
эр
эра
эраның
эраға
эргә
эргәһендә
эргәһендәге
эргәһенә
эргәһенән
эре
эремсек
эрзя
эрзянь
эрзә
эрик
эрих
эрмитаж
эрнест
эрнст
эрцгерцог
эс
эсе
эсемлек
эсемлектәр
эсен
эсендә
эсендәге
эсенә
эсенән
эсеп
эсер
эсергә
эсерҙар
эсеү
эскадрилья
эскадрон
эскадроны
эске
эскиздары
эскә
эскән
эслек
эсперанто
эссе
эст
эстафета
эстафетала
эстетик
эстетика
эстон
эстонии
эстония
эстонияла
эстонияның
эстрада
эстән
эсә
эсәк
эсәр
эт
эта
этабы
этабында
этап
этапта
этапы
эте
эти
этик
этика
этимологическии
этимологияһы
этих
эткүл
этник
этническая
этническии
этническои
этно
этнограф
этнографии
этнографик
этнографические
этнографическии
этнографическое
этнография
этнографияһы
этнология
этноним
этнонимы
этнос
это
этого
этои
этом
этот
этп
эттәр
эту
этюды
этҡол
этәргес
этәрә
эфиопия
эфир
эфирға
эффект
эффективности
эффекты
эхо
эш
эше
эшелон
эшен
эшендә
эшенең
эшенә
эшенән
эшкә
эшкәртелгән
эшкәртелә
эшкәртеп
эшкәртеү
эшкәртеүгә
эшкәртеүсе
эшкәртеүҙе
эшкәртеүҙең
эшкәрткән
эшкәртә
эшлекле
эшләгән
эшләгәндә
эшләгәндән
эшләгәндәр
эшләгәне
эшләи
эшләиҙәр
эшләмәгән
эшләмәи
эшләнгән
эшләне
эшләнә
эшләп
эшләпә
эшләр
эшләргә
эшләтеп
эшләү
эшләүгә
эшләүе
эшләүен
эшләүсе
эшләүселәр
эшләүсеһе
эшләүҙе
эшләүҙә
эшләүҙән
эшмәкәр
эшмәкәре
эшмәкәрлеге
эшмәкәрлеген
эшмәкәрлегендә
эшмәкәрлегенең
эшмәкәрлегенә
эшмәкәрлегенән
эшмәкәрлек
эшмәкәрлеккә
эшмәкәрлекте
эшмәкәрлектең
эшмәкәрлектә
эшмәкәрҙәре
эшмәкәрҙәренең
эшсе
эшселәр
эшселәре
эшселәрҙең
эшсеһе
эште
эштең
эштә
эштән
эштәр
эштәргә
эштәре
эштәрен
эштәрендә
эштәренең
эштәренә
эштәренән
эштәрҙе
эштәрҙең
эштәрҙә
эшҡыуар
эшҡыуарлыҡ
эшҡыуарлыҡты
эшҡыуары
эшҡыуарҙар
эшһеҙ
эшһеҙлек
эҙ
эҙе
эҙемтәләре
эҙемтәләрен
эҙемтәһе
эҙлекле
эҙлелеге
эҙләгән
эҙләи
эҙләнеү
эҙләнеүҙәр
эҙләп
эҙләргә
эҙләү
эҙмә
эҙҙәре
эҙҙәрен
эҙәрлекләи
эҙәрлекләү
эҫе
эҫем
ю
юань
юбилеи
юбилеиная
юбилеиныи
юбилеиы
юбилеиын
юбилеиына
юбилею
ювелир
юг
юга
юган
юго
югослав
югославии
югославия
югославияның
югра
юденич
юдин
южная
южно
южного
южнои
южном
южныи
юзеф
юл
юлаев
юлаева
юлаевтың
юлаи
юламан
юлбарыҫ
юлбашсы
юлбашсылары
юлбашсыһы
юлда
юлдан
юлдар
юлдары
юлдарын
юлдарында
юлдарының
юлдарҙа
юлдарҙы
юлдарҙың
юлдаш
юлдашбаев
юлдашев
юлдаштары
юлдашы
юлды
юлдыбаи
юлдың
юлиан
юлии
юлия
юллаи
юллана
юллы
юлсы
юлсылар
юлтыи
юлы
юлын
юлына
юлынан
юлында
юлындағы
юлының
юлыға
юлыҡ
юлға
юмор
юмористик
юн
юнеско
юниор
юниорҙар
юнир
юность
юнусова
юныс
юнысова
юпитер
юра
юридик
юридическая
юридических
юрии
юриспруденция
юрист
юрисы
юрия
юрматы
юрмаш
юрмыи
юрьев
юрьевич
юрьевна
юстиниан
юстиции
юстиция
юсупов
юхл
юшатыр
юғала
юғалта
юғалтмаи
юғалтып
юғалтыу
юғалтыуҙар
юғалтыуҙары
юғалтҡан
юғалып
юғалыу
юғалған
юғары
юғарыла
юғарыраҡ
юғарыға
юғарғы
юғиһә
юҡ
юҡлығы
юҡмы
юҡҡа
юҫыҡта
я
яаи
яба
ябаи
ябаил
ябаилығы
ябаиыраҡ
ябалар
ябалаҡ
яблонскии
ябыла
ябылған
ябып
ябырға
ябыу
ябыҡ
ява
является
яга
ягода
ягун
ядро
ядроһы
яз
яза
язалана
язалап
язалау
язаға
язаһы
язаһын
язаһына
язык
языка
языками
языках
языке
языки
языков
языковои
языкознания
языком
языку
яи
яилап
яилаһы
яиыҡ
яиға
як
якоб
яков
яковлев
яковлева
яковлевич
яковлевна
якорь
якуб
якутск
ял
яла
ялан
яланда
яландар
яланы
яланын
яланынан
яланында
яланғас
ялатылған
ялда
ялланып
ялланған
ялпаҡ
ялта
ялыу
ялға
ялған
ялғау
ялғауы
ялҡау
ялҡын
ялҡынлы
ям
ямал
ямалетдин
ямалетдинов
яман
яманиылға
ямантау
ямаш
ямғыр
ямғырлы
ямғырҙар
ян
яна
янаи
янаған
янв
январь
января
яндекс
яндыра
яндырыла
яндырылған
яндырып
яндырыу
янина
янош
янцзы
яны
яныбаи
янына
янынан
янында
янындағы
янып
яныу
янған
янғантау
янғын
янғындан
яп
япаров
япма
япмаһы
япон
япондар
японии
япония
японияла
японияны
японияның
японияға
япрағы
япраҡ
япраҡлы
япраҡтар
япраҡтары
яр
яра
яраи
яраиһы
яралана
яраланып
яраланған
яралы
яралыларҙы
яралғы
ярамаи
ярата
яратам
яратмаи
яратып
яратыусы
яратыусылар
яратҡан
ярауаи
ярашлы
яраҡ
яраҡлаштырылған
яраҡлашҡан
яраҡлы
яраҡтары
яраҡһыҙ
ярлы
ярлылар
ярлыҡау
ярма
ярмаһы
ярмуллин
ярослав
ярослава
ярославль
ярсыҡтары
ярты
яртылаш
яртыһы
яртыһын
яртыһына
яртыһынан
яртыһында
яртыһындағы
яруллин
яруслы
яры
ярылып
ярым
ярымутрау
ярымутрауы
ярымутрауын
ярымутрауына
ярымутрауынан
ярымутрауында
ярымутрауының
ярымутрауҙа
ярымутрауҙың
ярымфиналда
ярымшарҙа
ярын
ярына
ярынан
ярында
ярындағы
ярының
ярып
ярыш
ярыша
ярышта
ярыштар
ярыштары
ярыштарында
ярыштарҙа
ярышы
ярышында
ярыҡ
ярыҡтар
ярға
ярҙа
ярҙам
ярҙамсы
ярҙамсылары
ярҙамсыһы
ярҙамы
ярҙамын
ярҙамына
ярҙамында
ярҙамға
ярҙан
ярҙары
ярҙарын
ярҙарына
ярҙарынан
ярҙарында
ярһыу
яси
яссы
ят
ята
ятаҡ
яттан
ятып
ятыусы
ятыуы
ятҡан
ятҡылығы
ятҡылығын
ятҡылығында
ятҡылығының
ятҡылыҡтары
ятҡылыҡтарын
ятҡылыҡтарында
ятҡылыҡтарының
яу
яуа
яуап
яуаплы
яуаплылығы
яуаплылыҡ
яуаплылыҡты
яугир
яугире
яугиры
яугирҙар
яугирҙары
яугирҙәр
яугирҙәре
яуза
яулаи
яулаиҙар
яулана
яуланы
яуланған
яулап
яуларға
яулау
яулаусы
яулаған
яулыҡ
яун
яуы
яуыз
яуызлыҡ
яуым
яуымбаи
яуын
яуға
яуған
яуҙа
яуҙарҙа
яфалана
ях
яха
яхин
яхъя
яшин
ящик
ящук
яғы
яғымлы
яғын
яғына
яғынан
яғында
яғындағы
яғының
яғыулыҡ
яҙ
яҙа
яҙалар
яҙма
яҙмала
яҙмалар
яҙмалары
яҙмаларын
яҙмаларында
яҙмаларҙа
яҙманы
яҙмаһы
яҙмаһын
яҙмаһында
яҙмыш
яҙмышы
яҙмышын
яҙмышына
яҙы
яҙыла
яҙылып
яҙылыу
яҙылышы
яҙылған
яҙын
яҙына
яҙында
яҙып
яҙырға
яҙыу
яҙыулы
яҙыусы
яҙыусылар
яҙыусылары
яҙыусыларының
яҙыусыларҙың
яҙыусының
яҙыусыға
яҙыусыһы
яҙыуы
яҙыуын
яҙыуынса
яҙыуға
яҙыуҙа
яҙыуҙар
яҙыуҙары
яҙыуҙы
яҙыуҙың
яҙған
яҙғанда
яҙғандар
яҙғы
яҙғыһын
яҙҙы
яҙҙыра
яҙҙырыу
яҡ
яҡлаи
яҡлана
яҡланған
яҡлап
яҡларға
яҡлау
яҡлаусы
яҡлаусыһы
яҡлауы
яҡлаған
яҡлы
яҡлылар
яҡта
яҡтан
яҡтар
яҡтары
яҡтарын
яҡтарына
яҡтарында
яҡтарының
яҡтарға
яҡтарҙа
яҡтарҙың
яҡташтары
яҡтағы
яҡты
яҡтыкүл
яҡтылығы
яҡтылыҡ
яҡтылыҡтың
яҡтырта
яҡтыртыла
яҡтыртыу
яҡтың
яҡуп
яҡупов
яҡут
яҡутстан
яҡшы
яҡшылап
яҡшылыҡ
яҡшыра
яҡшыраҡ
яҡшырта
яҡшыртыу
яҡшыртыуға
яҡшыһы
яҡын
яҡыная
яҡында
яҡындан
яҡындары
яҡындағы
яҡынлаша
яҡынса
яҡыны
яҡыныраҡ
яҡҡа
яңауыл
яңаҡ
яңы
яңыбаи
яңылыш
яңылыҡ
яңылыҡтар
яңынан
яңыраҡ
яңырта
яңыртыла
яңыртылған
яңыртып
яңыртыу
яңырыу
яңырыуы
яңыса
яңғыраи
яңғырау
яңғырауыҡлы
яңғыраған
яңғыҙ
яңғыҙлыҡ
яңғыҙы
яҫауыл
яҫы
яҫылығы
яҫылыҡ
яҫылыҡта
яһаи
яһаиҙар
яһала
яһалма
яһалған
яһамаи
яһаны
яһап
яһарға
яһау
яһаусы
яһауы
яһауын
яһаған
яһағанда
яһағандар
яһаҡ
яһаҡлы
ђ
є
і
ім
ін
історія
історіі
ј
љ
њ
ћ
џ
ѣ
ѳ
ґ
ғ
ға
ғабдрахман
ғабдрахманов
ғабдулла
ғазап
ғаилә
ғаиләгә
ғаиләлә
ғаиләләр
ғаиләләре
ғаиләне
ғаиләнең
ғаиләнән
ғаиләһе
ғаиләһен
ғаиләһендә
ғаиләһендәге
ғаиләһенең
ғаиләһенә
ғаиләһенән
ғаиса
ғаисин
ғали
ғалим
ғалимдар
ғалимдары
ғалимдарының
ғалимдарҙың
ғалимдың
ғалимы
ғаләм
ғаләмдең
ғариза
ғарипов
ғариф
ғарифулла
ғарифуллин
ғата
ғатаулла
ғатауллин
ғауға
ғафаров
ғафури
ғафуриҙың
ғашиҡ
ғаяз
ғаян
ғибат
ғибәрәт
ғибәҙәт
ғибәҙәтхана
ғибәҙәтханала
ғибәҙәтханалар
ғибәҙәтхананы
ғибәҙәтхананың
ғибәҙәтханаһы
ғизетдин
ғиззәт
ғиззәтуллин
ғилем
ғилеме
ғилман
ғилманов
ғилметдин
ғилми
ғиләжев
ғимран
ғиниәт
ғиниәтулла
ғинуар
ғинуары
ғинуарына
ғинуарынан
ғинуарында
ғинуарындағы
ғинуарға
ғинуарҙа
ғинуарҙың
ғирфан
ғирфанов
ғорур
ғорурлыҡ
ғосман
ғосмандар
ғы
ғына
ғүмер
ғүмере
ғүмерен
ғүмерендә
ғүмеренең
ғүмерле
ғүмерлек
ғүмерлеккә
ғүмәр
ғүмәров
ғүмәрова
ғәббәс
ғәббәсиҙәр
ғәбд
ғәбделхәи
ғәбит
ғәбитов
ғәбиҙулла
ғәбиҙуллин
ғәжәиеп
ғәжәп
ғәззә
ғәзиз
ғәзизов
ғәзим
ғәиебен
ғәиеп
ғәиепле
ғәиепләи
ғәиепләиҙәр
ғәиепләнеп
ғәиепләнеүселәр
ғәиепләнә
ғәиепләп
ғәиепләү
ғәиепһеҙ
ғәинан
ғәинетдин
ғәинетдинов
ғәинулла
ғәинуллин
ғәинә
ғәифулла
ғәишә
ғәиәт
ғәле
ғәли
ғәлиев
ғәлиева
ғәлим
ғәлимиән
ғәлимов
ғәлимова
ғәлимә
ғәлин
ғәлиулла
ғәлиә
ғәлиәбаныу
ғәлиәкбәр
ғәлиәскәр
ғәлиәхмәт
ғәлләм
ғәлләмов
ғәләиһи
ғәләиһис
ғәләиһиссәләм
ғәләүетдин
ғәләүетдинов
ғәмәл
ғәмәлгә
ғәмәлдә
ғәмәлдәге
ғәмәлдән
ғәмәлдәр
ғәмәлдәре
ғәмәлдәрен
ғәмәлдәрҙе
ғәмәле
ғәмәли
ғәни
ғәниев
ғәниева
ғәр
ғәрәбстан
ғәрәбстаны
ғәрәбстанында
ғәрәп
ғәрәпсә
ғәрәптәр
ғәрәптәрҙең
ғәрәптәрҙән
ғәскәр
ғәскәре
ғәскәрен
ғәскәрендә
ғәскәренең
ғәскәренә
ғәскәри
ғәскәров
ғәскәрҙең
ғәскәрҙәр
ғәскәрҙәре
ғәскәрҙәрен
ғәскәрҙәрендә
ғәскәрҙәренең
ғәскәрҙәренә
ғәскәрҙәренән
ғәскәрҙәрҙе
ғәскәрҙәрҙең
ғәфү
ғәфүр
ғәҙел
ғәҙелгәрәи
ғәҙеллек
ғәҙелша
ғәҙәт
ғәҙәте
ғәҙәти
ғәҙәттә
ғәҙәттәге
ғәҙәттәгесә
ғәҙәттән
ғәҙәттәре
ғәҙәттәрен
ғөбәи
ғөбәиҙулла
ғөбәиҙуллин
ғөмүмән
ғөрөф
ҕ
җ
ҙ
ҙа
ҙан
ҙағы
ҙе
ҙең
ҙур
ҙурая
ҙурлығы
ҙурлығында
ҙурлыҡта
ҙурлыҡтағы
ҙуры
ҙурыраҡ
ҙурҙары
ҙы
ҙың
ҙә
ҙән
қ
қазақ
ҡ
ҡа
ҡабан
ҡабарынҡы
ҡабарҙы
ҡабат
ҡабатлаи
ҡабатлана
ҡабатландығы
ҡабатландыҡ
ҡабатланмаҫ
ҡабатланған
ҡабатлап
ҡабатлау
ҡабаттан
ҡабаҡ
ҡабул
ҡабырсаҡ
ҡабырға
ҡабырғалары
ҡабығы
ҡабығында
ҡабығының
ҡабыҡ
ҡадир
ҡадиров
ҡаза
ҡазан
ҡазанда
ҡазандың
ҡазанға
ҡаи
ҡаималанған
ҡаимаҡ
ҡаинап
ҡаинар
ҡаинатып
ҡаинатыу
ҡаипан
ҡаита
ҡаиталар
ҡаитанан
ҡаитара
ҡаитаралар
ҡаитарыла
ҡаитарылған
ҡаитарып
ҡаитарырға
ҡаитарыу
ҡаитмаи
ҡаитты
ҡаитып
ҡаитыр
ҡаитырға
ҡаитыу
ҡаитыуы
ҡаитҡан
ҡаитҡандан
ҡаитҡас
ҡаиын
ҡаиынлыҡ
ҡаиыш
ҡаиғы
ҡаиғылы
ҡаиҙа
ҡаиҙалыр
ҡаиҙан
ҡаиһы
ҡаиһылары
ҡаиһыһы
ҡала
ҡалаи
ҡалала
ҡалалар
ҡалалары
ҡалаларын
ҡалаларына
ҡалаларынан
ҡалаларында
ҡалаларындағы
ҡалаларының
ҡалаларға
ҡалаларҙа
ҡалаларҙан
ҡалаларҙы
ҡалаларҙың
ҡалалағы
ҡаланан
ҡаланы
ҡаланың
ҡаласығы
ҡаласығына
ҡаласығында
ҡаласыҡ
ҡалаға
ҡалағы
ҡалаҡ
ҡалаһы
ҡалаһын
ҡалаһына
ҡалаһынан
ҡалаһынана
ҡалаһында
ҡалаһындағы
ҡалаһының
ҡалды
ҡалдыра
ҡалдыралар
ҡалдырмаи
ҡалдырыла
ҡалдырылған
ҡалдырып
ҡалдырырға
ҡалдырыу
ҡалдырған
ҡалдырҙы
ҡалдығы
ҡалдыҡ
ҡалдыҡтар
ҡалдыҡтары
ҡалдыҡтарын
ҡалдыҡтарынан
ҡалмаи
ҡалмаш
ҡалмаған
ҡалмаҡ
ҡалмаҡҡол
ҡалмыҡ
ҡалмыҡтар
ҡалтасы
ҡалын
ҡалынлығы
ҡалып
ҡалыр
ҡалырлыҡ
ҡалырға
ҡалыу
ҡалыуы
ҡалыуын
ҡалыша
ҡалышып
ҡалған
ҡалғандар
ҡалғандары
ҡалғаны
ҡалғас
ҡалҡ
ҡалҡа
ҡалҡан
ҡалҡып
ҡалҡыу
ҡалҡыулығы
ҡалҡыулығында
ҡалҡыулыҡ
ҡалҡыулыҡта
ҡалҡыулыҡтар
ҡалһа
ҡама
ҡамаи
ҡамалған
ҡамап
ҡамасаулаи
ҡамау
ҡамаусы
ҡамауға
ҡамауҙа
ҡамауҙан
ҡамыр
ҡамырҙан
ҡамырҙы
ҡамыш
ҡамышлы
ҡан
ҡанат
ҡанатлы
ҡанатлылар
ҡанаттары
ҡанаты
ҡанда
ҡандра
ҡанды
ҡанлы
ҡанун
ҡанундар
ҡанундары
ҡанундарын
ҡануни
ҡануниәт
ҡануниәте
ҡаны
ҡанға
ҡанһыҙ
ҡап
ҡаплаи
ҡаплана
ҡапланған
ҡаплап
ҡаплау
ҡаплаған
ҡапма
ҡапыл
ҡапҡа
ҡапҡалар
ҡапҡалары
ҡапҡасы
ҡапҡасыһы
ҡапҡаһы
ҡапҡаһына
ҡар
ҡара
ҡарабалыҡ
ҡарабах
ҡарабаш
ҡарабоиҙаи
ҡараи
ҡараиҙар
ҡаракүл
ҡарала
ҡаралтылары
ҡаралған
ҡарама
ҡарамаи
ҡарамалы
ҡарамаған
ҡарамағына
ҡарамағында
ҡарамағындағы
ҡарамаҫтан
ҡарамышев
ҡаран
ҡаранаи
ҡараны
ҡарап
ҡарар
ҡарары
ҡарарын
ҡарарына
ҡарарға
ҡарарҙар
ҡарарҙары
ҡарарҙарын
ҡарарҙы
ҡарасаи
ҡарата
ҡаратау
ҡаратаулы
ҡаратып
ҡарау
ҡараусы
ҡараусыһы
ҡарауы
ҡарауыл
ҡарауға
ҡараш
ҡарашлы
ҡарашта
ҡараштар
ҡараштары
ҡараштарын
ҡарашты
ҡарашы
ҡарашын
ҡарашҡа
ҡарағаи
ҡарағаилы
ҡарағалпаҡ
ҡараған
ҡарағанда
ҡарағандар
ҡарағас
ҡарағат
ҡарағол
ҡарағош
ҡарағыҙ
ҡараңғы
ҡараһаҡал
ҡараһаң
ҡараһыу
ҡариҙел
ҡарлуғас
ҡарлы
ҡарлыман
ҡарман
ҡарт
ҡартатаһы
ҡарткиҫәк
ҡарттар
ҡарттың
ҡаршы
ҡаршылаи
ҡаршылығы
ҡаршылыҡ
ҡаршылыҡлы
ҡаршылыҡтар
ҡаршылыҡтарҙы
ҡаршылыҡҡа
ҡаршылыҡһыҙ
ҡаршыһына
ҡаршыһында
ҡарыш
ҡарға
ҡарғалы
ҡаса
ҡасаба
ҡасабала
ҡасабалар
ҡасабалары
ҡасабанан
ҡасабаның
ҡасабаға
ҡасабаһы
ҡасабаһын
ҡасабаһына
ҡасабаһынан
ҡасабаһында
ҡасабаһындағы
ҡасабаһының
ҡасан
ҡасандыр
ҡасаҡ
ҡасаҡтар
ҡасим
ҡасимов
ҡасып
ҡасырға
ҡасыу
ҡасҡан
ҡасҡын
ҡат
ҡатаи
ҡатаиҙар
ҡатлам
ҡатламдар
ҡатламдары
ҡатламдарында
ҡатламдарҙың
ҡатламлы
ҡатламы
ҡатламын
ҡатламына
ҡатламында
ҡатламының
ҡатламға
ҡатлаулы
ҡатлы
ҡатмарлаша
ҡатмарлаштыра
ҡатмарлы
ҡатмарлыраҡ
ҡатнаш
ҡатнаша
ҡатнашалар
ҡатнашлығы
ҡатнашлығында
ҡатнашлығындағы
ҡатнашмаи
ҡатнашмаһы
ҡатнашты
ҡатнашып
ҡатнашырға
ҡатнашыу
ҡатнашыусы
ҡатнашыусылар
ҡатнашыусылары
ҡатнашыусыларға
ҡатнашыусыларҙы
ҡатнашыусыларҙың
ҡатнашыусыһы
ҡатнашыуы
ҡатнашыуын
ҡатнашыуҙан
ҡатнашҡан
ҡатнашҡаны
ҡатта
ҡаттағы
ҡаттың
ҡаты
ҡатылығы
ҡатын
ҡатында
ҡатындар
ҡатындары
ҡатынды
ҡатындың
ҡатынлы
ҡатыны
ҡатынын
ҡатынына
ҡатынынан
ҡатынының
ҡатынға
ҡатып
ҡатыш
ҡатыҡ
ҡатҡа
ҡауырһын
ҡауырһындары
ҡаф
ҡашҡа
ҡая
ҡаяла
ҡаялар
ҡаялы
ҡаяға
ҡаяһы
ҡаға
ҡаған
ҡағанаты
ҡағиҙә
ҡағиҙәләр
ҡағиҙәләре
ҡағиҙәләрен
ҡағиҙәләренә
ҡағиҙәһе
ҡағы
ҡағыла
ҡағылмаи
ҡағылышлы
ҡағылышы
ҡағылған
ҡағып
ҡағыу
ҡағыҙ
ҡағыҙы
ҡағыҙға
ҡағыҙҙар
ҡағыҙҙары
ҡаҙ
ҡаҙан
ҡаҙана
ҡаҙанда
ҡаҙансы
ҡаҙаныштар
ҡаҙаныштары
ҡаҙаныштарын
ҡаҙанышы
ҡаҙанға
ҡаҙанған
ҡаҙағстан
ҡаҙағстанда
ҡаҙағстандың
ҡаҙағстанға
ҡаҙаҡ
ҡаҙаҡтар
ҡаҙаҡтарҙың
ҡаҙна
ҡаҙы
ҡаҙылма
ҡаҙылмалар
ҡаҙылған
ҡаҙыныу
ҡаҙыныуҙар
ҡаҙып
ҡаҙыу
ҡаҡшаи
ҡаҡшата
ҡаҡҡан
ҡаңлы
ҡаһарман
ҡаһарманлығы
ҡаһарманлыҡ
ҡаһарманов
ҡаһирә
ҡаһым
ҡеүәт
ҡеүәте
ҡеүәтен
ҡеүәтле
ҡиммәт
ҡиммәте
ҡиммәтен
ҡиммәткә
ҡиммәтле
ҡиммәттәр
ҡиммәттәре
ҡиммәттәрен
ҡиммәттәрҙе
ҡитға
ҡиәмәт
ҡиәфәте
ҡиәфәтен
ҡиәфәтендә
ҡобаиырҙар
ҡобау
ҡоима
ҡоимаҡ
ҡоио
ҡоиола
ҡоиолған
ҡоиоп
ҡоиорға
ҡоиоу
ҡоиоусы
ҡоироғо
ҡоироҡ
ҡоироҡло
ҡоиған
ҡоиғансы
ҡоиғанға
ҡол
ҡола
ҡолаи
ҡолап
ҡолас
ҡолатыла
ҡолатылғандан
ҡолағы
ҡолаҡ
ҡолдар
ҡоллоҡ
ҡоллоҡҡа
ҡоло
ҡолои
ҡолғана
ҡолғона
ҡом
ҡомарлы
ҡомартҡы
ҡомартҡылар
ҡомартҡылары
ҡомартҡыларын
ҡомартҡыларының
ҡомартҡыларҙы
ҡомартҡыһы
ҡомло
ҡомо
ҡомташ
ҡондоҙ
ҡоншаҡ
ҡор
ҡора
ҡорал
ҡоралар
ҡоралдар
ҡоралдары
ҡоралдарын
ҡоралды
ҡоралланған
ҡораллы
ҡоралы
ҡоралын
ҡорам
ҡорама
ҡорамалдар
ҡорамалдары
ҡорамалдарын
ҡорамалдарҙы
ҡорамды
ҡорамдың
ҡорамы
ҡорбан
ҡорбандар
ҡорбандары
ҡорбандарын
ҡорбандарына
ҡорбаны
ҡорбанғәлиев
ҡорман
ҡоро
ҡорои
ҡорола
ҡоролма
ҡоролмалар
ҡоролмалары
ҡоролмаларын
ҡоролмаларының
ҡоролмаларҙы
ҡоролмаларҙың
ҡоролманы
ҡоролманың
ҡоролмаһы
ҡоролош
ҡоролошо
ҡоролошон
ҡоролошона
ҡоролошонда
ҡоролошондағы
ҡоролоҡ
ҡоролтаи
ҡоролтаиы
ҡоролтаиында
ҡоролтаиының
ҡоролтаиҙың
ҡоролған
ҡороп
ҡорорға
ҡорос
ҡорот
ҡоротҡос
ҡороу
ҡороуҙар
ҡороған
ҡорт
ҡорто
ҡортоноң
ҡорттар
ҡорттары
ҡорттарының
ҡорттарҙың
ҡорған
ҡорһағы
ҡорһаҡ
ҡот
ҡотдос
ҡотола
ҡотолоп
ҡотолорға
ҡотолоу
ҡотолғоһоҙ
ҡотопҡа
ҡотош
ҡотҡара
ҡотҡарып
ҡотҡарыу
ҡотҡарыусы
ҡош
ҡошо
ҡошсо
ҡошсолоҡ
ҡоштар
ҡоштары
ҡоштарҙы
ҡоштарҙың
ҡоштоң
ҡоя
ҡояш
ҡояшлы
ҡояштан
ҡояштың
ҡояшҡа
ҡоҙаш
ҡоҙоҡ
ҡуба
ҡудашев
ҡуи
ҡуимаи
ҡуимау
ҡуиы
ҡуиыла
ҡуиылды
ҡуиылған
ҡуиып
ҡуиыр
ҡуиырға
ҡуиыу
ҡуиыусы
ҡуиыуҙы
ҡуиған
ҡуиғандан
ҡуиғандар
ҡуиҙы
ҡул
ҡулаи
ҡулаилама
ҡулаиламалар
ҡулда
ҡулдан
ҡулдар
ҡулдары
ҡулдарын
ҡулдарына
ҡуллана
ҡулланалар
ҡулланма
ҡулланмаи
ҡулланыла
ҡулланылмаи
ҡулланылмаған
ҡулланылырға
ҡулланылыуы
ҡулланылған
ҡулланып
ҡулланырға
ҡулланыу
ҡулланыусы
ҡулланыусылар
ҡулланыуы
ҡулланыуға
ҡулланыуҙа
ҡулланыуҙан
ҡулланыуҙы
ҡулланыуҙың
ҡулланған
ҡулланғанда
ҡулланғандар
ҡулса
ҡулсалар
ҡулсаһы
ҡултамға
ҡултамғаһы
ҡултығы
ҡултығына
ҡултығында
ҡултығының
ҡултыҡ
ҡулъяҙма
ҡулъяҙмалар
ҡулъяҙмалары
ҡулъяҙмаһы
ҡулы
ҡулын
ҡулына
ҡулынан
ҡулында
ҡулға
ҡумыҙ
ҡунафин
ҡунафина
ҡунаҡ
ҡунаҡбаев
ҡунаҡбаи
ҡунаҡта
ҡунаҡтар
ҡунаҡхана
ҡунаҡханалар
ҡунаҡханаһы
ҡунаҡҡа
ҡупшы
ҡураи
ҡураисы
ҡураисылар
ҡураиҙа
ҡурсалау
ҡурсалаусы
ҡурсалаусыһы
ҡурсаулығы
ҡурсаулығында
ҡурсаулығының
ҡурсаулыҡ
ҡурсаулыҡта
ҡурсаулыҡтың
ҡурсаҡ
ҡуртым
ҡуртымға
ҡурған
ҡурғаны
ҡурғаш
ҡурғашлы
ҡурҡа
ҡурҡыныс
ҡурҡынысы
ҡурҡып
ҡурҡыу
ҡурҡҡан
ҡустылары
ҡустылы
ҡустыһы
ҡусҡар
ҡуш
ҡуша
ҡушаев
ҡушаи
ҡушалар
ҡушамат
ҡушаматлы
ҡушаматы
ҡушаматын
ҡушма
ҡушыла
ҡушылдығы
ҡушылдығының
ҡушылдыҡ
ҡушылдыҡтары
ҡушылмаи
ҡушылмалар
ҡушылып
ҡушылырға
ҡушылыу
ҡушылыуы
ҡушылыуынан
ҡушылған
ҡушылғандан
ҡушылғансы
ҡушылғанға
ҡушымта
ҡушымтаһы
ҡушып
ҡушырға
ҡушыу
ҡушыуы
ҡушҡан
ҡуя
ҡуялар
ҡуян
ҡуяндар
ҡуғанаҡ
ҡуңыр
ҡуҫа
ҡхр
ҡыи
ҡыирата
ҡыиратыла
ҡыиратыу
ҡыиын
ҡыиынлыҡ
ҡыиынлыҡтар
ҡыиыу
ҡыиыулығы
ҡыиыулыҡ
ҡыиығы
ҡыиыҡ
ҡыиыҡлы
ҡыиғы
ҡыл
ҡыла
ҡыллы
ҡылым
ҡылымдан
ҡылымдар
ҡылымдың
ҡылымығының
ҡылына
ҡылып
ҡылырға
ҡылыс
ҡылыссыһы
ҡылыстар
ҡылысы
ҡылыу
ҡылыусы
ҡылыусылар
ҡылыҡһырлана
ҡылған
ҡымыҙ
ҡына
ҡыпсаҡ
ҡыпсаҡтар
ҡыпсаҡтарҙың
ҡыр
ҡыра
ҡырағаи
ҡырлы
ҡырмыҫҡалы
ҡырсынташ
ҡыры
ҡырыла
ҡырым
ҡырымда
ҡырымды
ҡырымдың
ҡырымтат
ҡырымға
ҡырын
ҡырында
ҡырып
ҡырыу
ҡырыҫ
ҡырғыҙ
ҡырғыҙстан
ҡырғыҙстанда
ҡырғыҙҙар
ҡырҙары
ҡырҡ
ҡырҡа
ҡырҡылған
ҡырҡып
ҡырҡыу
ҡысҡыра
ҡысҡырып
ҡыт
ҡытаи
ҡытаиға
ҡытаиҙа
ҡытаиҙан
ҡытаиҙар
ҡытаиҙағы
ҡытаиҙы
ҡытаиҙың
ҡытау
ҡытаутамаҡ
ҡытлыҡ
ҡыуа
ҡыуандыҡ
ҡыуатов
ҡыуаҡ
ҡыуаҡан
ҡыуаҡлыҡтар
ҡыуаҡтар
ҡыуыла
ҡыуылған
ҡыуып
ҡыуыу
ҡыуыш
ҡыуышлығы
ҡыш
ҡышлаи
ҡышлау
ҡыштым
ҡышын
ҡышында
ҡышҡы
ҡышҡыһын
ҡыя
ҡыяр
ҡыҙ
ҡыҙрас
ҡыҙы
ҡыҙыл
ҡыҙылармеец
ҡыҙылармеецы
ҡыҙылдар
ҡыҙылдарҙың
ҡыҙылташ
ҡыҙылъяр
ҡыҙым
ҡыҙын
ҡыҙына
ҡыҙының
ҡыҙыу
ҡыҙыҡ
ҡыҙыҡлы
ҡыҙыҡһына
ҡыҙыҡһындыра
ҡыҙыҡһыныу
ҡыҙыҡһыныуы
ҡыҙыҡһыныуын
ҡыҙыҡһыныуҙары
ҡыҙыҡһынған
ҡыҙға
ҡыҙған
ҡыҙғанысҡа
ҡыҙғылт
ҡыҙҙар
ҡыҙҙары
ҡыҙҙарын
ҡыҙҙарының
ҡыҙҙарға
ҡыҙҙарҙы
ҡыҙҙарҙың
ҡыҙҙы
ҡыҙҙырылған
ҡыҙҙың
ҡыңғырау
ҡыңғырауҙар
ҡыҫала
ҡыҫыла
ҡыҫылыуы
ҡыҫылған
ҡыҫып
ҡыҫырыҡлап
ҡыҫҡа
ҡыҫҡара
ҡыҫҡараҡ
ҡыҫҡартыла
ҡыҫҡартылған
ҡыҫҡартып
ҡыҫҡартыу
ҡыҫҡаса
ҡҡхл
ҡәбер
ҡәбере
ҡәберендә
ҡәберенә
ҡәберлеге
ҡәберлегендә
ҡәберлек
ҡәберлектәр
ҡәберлектәре
ҡәбилә
ҡәбиләләр
ҡәбиләләре
ҡәбиләләрен
ҡәбиләләренең
ҡәбиләләрҙең
ҡәбиләһе
ҡәбиләһенең
ҡәиүм
ҡәлғә
ҡәлғәгә
ҡәлғәлә
ҡәлғәләр
ҡәлғәләре
ҡәлғәне
ҡәлғәнең
ҡәлғәһе
ҡәлғәһен
ҡәлғәһендә
ҡәлғәһенең
ҡәлғәһенә
ҡәләм
ҡәнзәфәр
ҡәнифә
ҡәнәғәт
ҡәнәғәтләндерә
ҡәрҙәш
ҡәтғи
ҡәҙер
ҡәҙерен
ҡәҙерле
ҡәҙим
ҡәҙимге
ҡәҙәр
ҡәһүә
ҡөрьән
ҡөрьәнде
ҡөрьәндең
ҡөрьәндә
ҡөҙрәтле
ң
ҥ
ҫ
ү
үгеҙ
үгәи
үзб
үзбәк
үзбәкстан
үзбәкстанда
үзбәкстандың
үзбәктәр
үк
үл
үлгән
үлгәндән
үлгәс
үле
үлем
үлемгә
үлемдән
үлеме
үлемен
үлеменә
үлеменән
үлемесле
үлемһеҙ
үлеп
үлер
үлсәм
үлсәмдәре
үлсәме
үлсәмле
үлсәү
үлсәүҙәр
үлтергән
үлтерелгән
үлтерелә
үлтереп
үлтерергә
үлтереү
үлтереүгә
үлтереүҙә
үлтерә
үлтерәләр
үлә
үлән
үләндәр
үләндәре
үләне
үләнле
үмәр
үпкә
үр
үрге
үрелгән
үренән
үрләтелә
үрмәксе
үрнәк
үрсеи
үрсем
үрсетеү
үрсеү
үрҙә
үрҙәге
үрҙәрәк
үс
үт
үтелгән
үтелә
үтенес
үтенесе
үтенесен
үтенә
үтеп
үтер
үтергә
үтеү
үтеүгә
үтеүе
үтеүсе
үтеүсән
үткер
үткән
үткәндә
үткәндән
үткәне
үткәргес
үткәргесе
үткәргестәр
үткәргән
үткәргәндә
үткәрелгән
үткәрелде
үткәрелмәи
үткәрелә
үткәреп
үткәрергә
үткәреү
үткәреүгә
үткәреүсе
үткәреүҙе
үткәреүҙә
үткәрмәи
үткәрә
үткәрәләр
үткәс
үтмәи
үтте
үтһә
үтә
үтәгән
үтәгәндә
үтәгәне
үтәи
үтәлгән
үтәлә
үтәләр
үтәп
үтәргә
үтәсәк
үтәш
үтәғол
үтәғолов
үтәү
үтәүгә
үтәүсе
үтәүҙә
үҙ
үҙаллы
үҙаллылыҡ
үҙатамаһы
үҙгәргән
үҙгәреп
үҙгәреш
үҙгәреше
үҙгәрештәр
үҙгәрештәргә
үҙгәрештәре
үҙгәрештәрҙе
үҙгәрешһеҙ
үҙгәреү
үҙгәреүе
үҙгәреүен
үҙгәреүенә
үҙгәреүсән
үҙгәреүсәнле
үҙгәрмәи
үҙгәртегеҙ
үҙгәртелгән
үҙгәртелә
үҙгәртеп
үҙгәртергә
үҙгәртеү
үҙгәртеүгә
үҙгәртеүҙәр
үҙгәрткән
үҙгәртә
үҙгәрә
үҙе
үҙебеҙ
үҙебеҙҙең
үҙегеҙ
үҙем
үҙемде
үҙемдең
үҙен
үҙендә
үҙенең
үҙенсә
үҙенсәлеге
үҙенсәлеген
үҙенсәлегенә
үҙенсәлек
[...]
