!
"
#
##0
##1
##10
##11
##12
##13
##14
##15
##16
##17
##18
##19
##2
##20
##21
##22
##23
##24
##25
##26
##27
##28
##29
##3
##30
##31
##32
##33
##34
##35
##36
##37
##38
##39
##4
##40
##41
##42
##43
##44
##45
##46
##47
##48
##49
##5
##50
##51
##52
##53
##54
##55
##56
##57
##58
##59
##6
##60
##61
##62
##63
##64
##65
##66
##67
##68
##69
##7
##70
##71
##72
##73
##74
##75
##76
##77
##78
##79
##8
##80
##81
##82
##83
##84
##85
##86
##87
##88
##89
##9
##90
##91
##92
##93
##94
##95
##96
##97
##98
##99
$
%
&
'
(
)
*
+
,
-
.
/
0
00
000
001
002
003
0033
004
0040
005
00536
006
007
0074
008
009
00958
01
010
011
012
013
014
01499
015
0157
016
017
019
02
0204
022
02294
023
024
02408
025
026
02843
02882
03
03091
031
03133
03157
03188
033
038
03815
04
04439
04683
04952
05
05228
053
05476
055
056
057
06
062
06338
064
068
06968
07
071
072
08
09
1
10
100
1000
10000
1001
1002
1005
1007
101
1016
102
1020
103
1038
104
1040
1045
105
106
107
1072
108
1080
1086
109
1093
1099
11
110
1100
111
1111
1112
112
1126
113
1130
114
115
1150
116
117
118
119
1199
12
120
1200
1202
1204
121
122
1220
123
1236
124
1240
1241
125
1250
126
1260
127
128
129
13
130
1300
1301
131
132
1320
1327
133
1330
134
135
1350
1351
136
1365
1368
137
1370
138
1380
1382
1389
139
1395
14
140
1400
1402
141
1410
142
1420
1428
1429
143
1430
144
1440
1444
145
1450
1453
146
1460
147
1470
1471
1475
1478
148
1480
1483
1485
149
1490
1492
1493
1494
1495
1497
15
150
1500
1502
1503
1504
1505
1506
1508
151
1510
1511
1512
1514
1515
1516
1517
1518
1519
152
1520
1521
1522
1524
1525
1526
1527
1528
1529
153
1530
1533
1534
1535
1536
1537
1538
154
1540
1541
1542
1543
1544
1545
1546
1547
1548
155
1550
1551
1552
1553
1554
1555
1556
1557
1558
1559
156
1560
1561
1562
1563
1564
1566
1569
157
1570
1571
1572
1573
1578
158
1580
1581
1582
1583
1584
1585
159
1590
1592
1595
1596
1598
1599
16
160
1600
1601
1602
1603
1604
1605
1606
1608
1609
161
1610
1611
1612
1613
1615
1616
1617
1618
1619
162
1620
1621
1623
1626
1627
1628
1629
163
1630
1632
1635
1637
1638
1639
164
1640
1641
1642
1643
1644
1645
1647
1648
1649
165
1650
1652
1653
1654
1655
1656
1657
1658
166
1660
1661
1662
1663
1664
1665
1666
1667
1669
167
1670
1671
1672
1675
1676
168
1680
1681
1682
1683
1684
1685
1686
1687
1688
1689
169
1690
1691
1693
1694
1695
1696
1697
1698
1699
17
170
1700
1701
1702
1703
1704
1705
1706
1707
1708
1709
171
1710
1711
1712
1713
1714
1715
1716
1717
1718
1719
172
1720
1721
1722
1723
1724
1725
1726
1727
1728
1729
173
1730
1731
1732
1733
1734
1735
1736
1737
1738
1739
174
1740
1741
1742
1743
1744
1745
1746
1747
1748
1749
175
1750
1751
1752
1753
1754
1755
1756
1757
1758
1759
176
1760
1761
1762
1763
1764
1765
1766
1767
1768
1769
177
1770
1771
1772
1773
1774
1775
1776
1777
1778
1779
178
1780
1781
1782
1783
1784
1785
1786
1787
1788
1789
179
1790
1791
1792
1793
1794
1795
1796
1797
1798
1799
18
180
1800
1801
1802
1803
1804
1805
1806
1807
1808
1809
181
1810
1811
1812
1813
1814
1815
1816
1817
1818
1819
182
1820
1821
1822
1823
1824
1825
1826
1827
1828
1829
183
1830
1831
1832
1833
1834
1835
1836
1837
1838
1839
184
1840
1841
1842
1843
1844
1845
1846
1847
1848
1849
185
1850
1851
1852
1853
1854
1855
1856
1857
1858
1859
186
1860
1861
1862
1863
1864
1865
1866
1867
1868
1869
187
1870
1871
1872
1873
1874
1875
1876
1877
1878
1879
188
1880
1881
1882
1883
1884
1885
1886
1887
1888
1889
189
1890
1891
1892
1893
1894
1895
1896
1897
1898
1899
19
190
1900
1901
1902
1903
1904
1905
1906
1907
1908
1909
191
1910
1911
1912
1913
1914
1915
1916
1917
1918
1919
192
1920
1921
1922
1923
1924
1925
1926
1927
1928
1929
193
1930
1931
1932
1933
1934
1935
1936
1937
1938
1939
194
1940
1941
1942
1943
1944
1945
1946
1947
1948
1949
195
1950
1951
1952
1953
1954
1955
1956
1957
1958
1959
196
1960
1961
1962
1963
1964
1965
1966
1967
1968
1969
197
1970
1971
1972
1973
1974
1975
1976
1977
1978
1979
198
1980
1981
1982
1983
1984
1985
1986
1987
1988
1989
199
1990
1991
1992
1993
1994
1995
1996
1997
1998
1999
2
20
200
2000
2001
2002
2003
2004
2005
2006
2007
2008
2009
201
2010
2011
2012
2013
2014
2015
2016
2017
2018
2019
202
2020
2021
2022
203
2030
204
205
206
207
208
209
21
210
2100
211
212
213
214
215
216
217
218
219
22
220
2200
221
222
223
2231
224
225
226
227
228
229
23
230
2307
231
232
233
234
235
236
237
238
239
24
240
241
242
243
244
245
246
247
248
249
25
250
2500
251
252
253
254
255
256
257
258
259
26
260
261
262
263
264
265
266
267
268
269
27
270
2700
271
272
273
274
275
276
277
278
279
28
280
281
282
283
284
285
286
287
288
289
29
290
291
292
293
294
295
296
297
298
299
3
30
300
3000
301
302
303
303140
304
305
306
307
3075
308
309
31
310
311
312
313
314
315
316
3166
317
318
319
32
320
3200
321
322
323
324
325
326
327
328
329
33
330
331
332
333
334
335
336
337
338
339
34
340
341
342
343
344
345
346
347
3478
348
349
35
350
3500
351
352
353
354
355
3554
356
357
358
359
36
360
361
362
363
364
365
366
367
368
369
37
370
371
372
373
374
375
376
377
378
379
38
380
381
382
383
384
385
386
387
388
389
39
390
391
392
3925
393
394
395
396
397
398
399
4
40
400
4000
401
402
403
404
405
406
407
408
409
41
410
411
412
413
414
415
416
417
418
419
42
420
421
4217
422
423
424
425
426
427
428
429
43
430
431
432
433
434
4344
435
436
437
438
439
44
440
441
442
443
444
445
446
4466
447
448
449
45
450
4500
451
452
453
454
4545
455
456
457
458
459
46
460
461
462
463
464
465
466
467
468
469
47
470
471
472
473
474
475
476
477
478
479
48
480
481
482
483
484
485
486
487
488
489
49
490
491
492
493
494
495
496
497
498
499
5
50
500
5000
501
502
503
5032286
504
505
506
507
508
509
51
510
511
512
513
514
515
516
517
518
519
52
520
521
522
523
524
525
526
527
528
529
53
530
531
532
533
534
535
536
537
538
539
54
540
541
542
543
544
545
546
547
548
549
55
550
551
552
553
554
555
556
557
558
559
56
560
561
562
563
564
565
566
567
568
569
57
570
571
572
573
574
575
576
577
578
58
580
581
582
583
584
585
586
587
588
589
59
590
591
592
593
595
596
597
598
6
60
600
6000
601
602
603
604
605
606
607
608
6084
609
61
610
611
612
613
614
615
616
617
618
619
62
620
622
623
624
625
626
627
628
629
63
630
631
632
633
634
635
636
637
638
639
64
640
641
642
643
644
645
648
649
65
650
651
652
653
654
656
658
659
66
660
661
664
665
666
667
669
67
670
671
672
674
675
676
679
68
680
684
685
686044
686046
687
688
69
690
690155
691
692
693
694
695
696
699
7
70
700
7000
701
702
703
704
705
71
710
711
712
717
718
72
720
722
725
728
73
730
732
735
736
737
74
740
742
743
744
747
75
750
7501
752
757
76
760
766
767
768
7688
77
770
776
777
78
780
784
79
792
793756
8
80
800
8000
804
808
81
810
814
816
82
820
8243
8258
83
830
831
832
834
84
840
842
8459
848
8493
85
850
85051
85120
85270
85859
86
860
861
862
863
864
868
87
870
87317
87444
875
87691
878
88
880
88185
89
890
894
896
9
90
900
907
91
911
912
91608
92
922
9221
925
928
93
930
94
944
95
950
951
9524
9533
95382
96
960
9613
9614
963
966
969
97
970
975
976
978
98
980
98443
985
99
990
9965
999
:
;
<
=
>
?
@
[
\
]
^
_
`
a
aa
aalborgevents
ab
abc
abi
about
abu
ac
academia
academic
academy
accessed
act
acta
action
ad
adam
adams
administration
ae
af
affairs
afghanistan
africa
african
after
ag
against
age
agency
ages
agriculture
ah
ai
aiesec
air
airbus
aires
airlines
airport
ais
akademik
al
alan
albania
albert
album
aleph
alexander
alfred
ali
alice
aligned
all
alle
allen
alma
alpha
alphabet
als
also
alyga
am
amazon
america
american
among
amsterdam
an
ana
analysis
ancient
and
andre
andrea
andrew
angeles
angle
ankara
ann
anna
anne
annual
anthony
anti
anton
antonio
ap
api
apple
applied
approx
apps
april
ar
arab
arabic
arccos
archaeological
archaeology
archinform
architecture
archive
archivedate
archives
archiveurl
arcsin
arctg
arctic
are
area
areas
argentina
armenia
armenian
armenians
army
arnold
around
ars
art
arthur
article
articles
artist
artists
arts
arxiv
as
asia
asian
asp
aspx
assembly
associated
association
astronomical
astronomy
at
atlas
atomic
au
auf
august
aus
ausgewa
australia
australian
austria
aut
author
authority
av
award
awards
ax
az
azerbaijan
azeri
azərbaycan
b
ba
back
bad
baden
bafta
balkan
band
bangladesh
bank
bar
barbara
barcelona
bas
base
based
bash
bashenc
bashgazet
bashinform
bashkortostan
bashstat
basic
basshunter
battle
bayerische
bayerischen
bayerisches
bayern
bb
bbc
bc
bd
bdl
be
bearman
beatles
beck
been
before
begin
bei
being
bell
ben
ber
berkeley
berlin
bernard
best
beta
between
bevo
beyond
bf
bg
bi
bibcode
bibliographisches
bibliothe
big
bill
billboard
bin
bio
biographical
biographie
biography
biology
bir
bird
birds
bis
bitcoin
bk
black
blackwell
blk
blog
bloomberg
blue
blundy
bnf
bo
board
body
boeing
book
books
boston
bosworth
br
brand
bridge
brief
brill
britain
britannica
british
brockhaus
bromus
brown
bruce
bu
budapest
buenos
building
bul
bulletin
bureau
business
but
by
byzantine
byzantium
bz
c
ca
california
cambridge
can
canada
canadian
cap
capital
carl
carolina
case
cases
cat
catalog
catalogue
caucasus
cbs
cc
ccl
cd
cdot
cdots
ce
cedsci
celentano
cell
census
center
central
centre
centuries
century
cf
cgi
ch
cha
change
channel
chapter
charles
chart
charts
che
chelstat
chemical
chemistry
chess
chicago
children
china
chinese
chris
christian
christopher
chronology
church
ci
cia
cinema
circ
cite
cities
city
civil
civilization
ck
cl
class
classical
classification
claude
climate
clio
club
cn
cnn
co
code
codes
cold
collection
college
collins
colon
color
columbia
com
commission
committee
common
commons
community
companion
company
comparative
complete
component
computer
comune
con
concise
conference
conflict
congress
connect
conquest
conservation
constitution
construction
contemporary
content
control
cook
cooperation
coplen
corporation
cos
council
countries
country
county
court
crisis
critical
cs
ctg
cu
cultura
cultural
culture
cup
current
cx
cz
czech
d
da
daily
dallas
dan
dance
daniel
dans
darwin
das
data
database
date
david
davos
day
days
db
dc
de
dead
death
december
deep
default
definition
del
delhi
della
delta
dem
democracy
demoscope
den
department
der
des
description
design
det
detail
details
deutsche
deutschen
deutschland
development
dfrac
di
dia
dic
dictionary
dictionnaire
did
die
dies
digital
din
directory
dirk
discogs
discovery
disease
display
displaystyle
distribution
dition
ditions
diversity
division
dj
dk
dmoz
dna
do
doc
docs
doctor
documents
doi
doid
don
donald
dots
douglas
down
download
dr
dream
ds
dt
du
dublin
dur
during
dvd
dx
dynasty
dz
e
early
earth
east
eastern
ec
ecological
economic
economics
economist
economy
ed
edgar
edinburgh
edited
edition
editor
editorial
eds
edu
education
edward
ee
eesti
ef
egypt
eic
eile
ein
eine
einer
ek
el
electronic
element
elements
elizabeth
elsevier
em
eminem
empire
en
enc
enciklopedija
encyclopaedia
encyclopedia
encyclopædia
end
energy
eng
engineering
england
english
enough
entertainment
entry
environment
environmental
epic
equations
equiv
er
era
erfu
eric
erich
ernst
es
eske
esky
espan
espn
essays
essential
est
estimates
estonia
et
ethnic
ethnologue
eu
europa
europe
european
events
evidence
evolution
ex
excel
exhibition
exists
express
f
fa
facebook
fact
factbook
facts
falco
fall
false
family
famous
far
fc
fe
february
federal
federation
festival
ff
fi
fiction
fide
field
fifa
figshare
figures
file
files
film
final
financial
find
finland
fire
first
five
fm
fo
food
football
for
forall
forbes
forces
foreign
format
formation
former
forum
fotki
found
foundation
four
fox
fr
fra
frac
framework
franc
france
francis
francisco
frank
frankfurt
franklin
franz
free
freedom
french
friedrich
from
ft
fu
full
func
fund
future
g
ga
gala
gallery
game
games
gamma
garden
gas
gazeta
gazetteer
ge
gemeinden
gemeindeverzeichnis
gemma
gender
gene
general
genetic
genocide
geo
geographic
geography
geological
geonames
geonet
georg
george
georgia
georgian
gera
german
germany
geschichte
get
gks
glasgow
global
globe
gmbh
gnd
go
god
gold
golden
good
google
gordon
goroda
gouv
gov
government
gr
grand
grave
great
greatest
greece
greek
green
greenwood
grin
gro
group
groups
grove
growth
gu
guardian
guide
gulf
gunter
h
ha
had
hall
hamburg
handbook
handbuch
hans
hardwell
harmattan
harry
harvard
has
hat
haus
have
haven
hazu
he
health
heart
heinrich
helsinki
henry
her
heritage
hermann
hero
heroes
hg
hi
high
higher
hill
hindu
his
histoire
historia
historic
historical
history
hl
hlten
ho
hockey
hollywood
holocaust
home
homo
honor
hopkins
hot
house
how
hr
hrsg
htm
html
http
https
hu
hudson
hugo
human
humboldt
hungarian
hungary
hz
i
ia
iaaf
iai
iana
iast
ibm
ibn
ic
ica
ice
icon
id
identity
iec
if
ii
iii
ik
il
illustrated
im
image
images
imdb
img
impact
imperial
in
ina
inc
income
independence
independent
index
india
indian
indo
indonesia
industrial
industry
ine
inet
inetnum
info
information
infty
insee
inside
instagram
institut
institute
institution
instituto
int
intel
intelligence
international
internet
interview
into
introduction
io
ioc
ip
ir
iran
iranian
iranica
iraq
is
isbn
islam
islamic
island
islands
iso
israel
iss
issn
issue
ist
istanbul
istat
istoriya
it
item
itemid
its
ittf
iupac
iv
ivan
iw
ix
iz
j
ja
jack
jackson
jakarta
james
jan
jane
january
japan
japanese
jazeera
je
jean
jewish
jews
ji
jn
jo
johann
john
johnson
jonathan
jones
jose
josef
joseph
journal
journey
jp
jpg
jr
js
json
jsonapi
ju
juan
july
june
jupiter
just
k
ka
karl
kazakhstan
ke
kennedy
kenneth
kesik
key
kh
khan
ki
killed
kim
king
kingdom
kings
kirche
klaus
klo
kloster
km
knowledge
known
ko
kommunen
kosovo
kp
krebs
kremlin
ks
ku
kultur
kultura
kunst
kv
kz
l
la
laboratory
lady
lake
lambda
land
landesamt
lang
langle
language
languages
largest
las
last
late
latin
latvijas
launch
launches
law
ldots
le
league
learning
leben
lee
left
legend
leiden
leipzig
lenta
leqslant
ler
les
let
letters
lewis
lexikon
lg
li
lib
liberty
library
libris
libya
libyan
lietuvos
life
light
like
lim
limited
limits
line
link
linnaeus
list
literary
literature
lito
litres
little
live
livejournal
lives
living
ljubljana
lkerung
ll
llenden
ller
ln
lo
local
localities
log
london
long
lookup
los
lost
louis
louise
love
lp
lt
ltd
ltu
lu
lua
lukits
lundy
lv
lycett
lyga
m
ma
machine
macmillan
made
madrid
magazine
magyar
mai
mail
main
major
making
malta
man
management
many
map
maps
marc
march
mare
mari
maria
marie
marine
mark
market
mars
marshall
martin
mary
mass
master
math
mathbb
mathbf
mathematical
mathematics
mathrm
mathsf
max
may
mayor
mbox
mcdougal
mcdowell
mcgraw
md
me
med
medal
media
medical
medicine
medieval
member
members
memorial
memory
men
mer
mercury
merkmalen
metro
metropolitan
mi
miasta
michael
michel
michigan
microsoft
mid
middle
military
miller
million
min
ministry
minor
mission
mit
mitglieder
mk
ml
mn
mo
mobile
mod
model
modern
moldova
molecular
moll
moma
mon
monde
monthly
monuments
moon
more
moscow
most
mountain
movement
movie
mp
mr
msh
msl
mt
mtv
mu
muhammad
mun
munzinger
murray
museum
music
muslim
mw
my
n
na
nach
nacional
nadal
name
names
narod
naroda
nas
nasa
nation
national
nationalbibliothek
nationale
nationalism
nations
nato
natural
nature
nbsp
nc
ncbiid
nchen
nd
ndigen
ne
near
neq
net
netherlands
network
neue
never
new
news
newsru
next
ng
nh
ni
nia
nicholas
nie
night
nkp
nl
no
nobel
nobeliat
node
non
norman
north
northern
norton
not
note
notes
nova
novel
november
novosti
now
nr
nsf
nu
nuclear
num
number
ny
nyc
nytimes
o
obr
ocean
och
ocimum
oclc
october
od
of
off
office
official
oficial
og
oh
ohio
oil
ois
old
olympic
om
omega
on
one
online
only
op
open
opera
operatorname
option
or
order
org
organization
oriental
orig
origin
original
origins
os
oscar
ot
other
otto
ottoman
ou
oup
our
out
over
overview
own
oxford
oy
p
pa
pac
pacific
padleft
page
pages
painting
pakistan
palace
palestine
palgrave
pamyat
pan
paper
papers
par
para
param
paris
park
part
partial
party
pas
past
paul
paulo
pdf
pe
peace
peerage
penguin
pennsylvania
people
peoples
per
performing
period
persia
persian
person
personen
persons
perspective
peter
pg
ph
phenotypes
phenotypeurlid
phi
philip
philosophical
philosophy
photo
php
phys
physical
physics
pi
pictures
pierre
pl
place
places
planet
planetary
planets
planning
plant
plants
play
player
players
plus
pm
pmatrix
pmid
png
po
poet
poetry
point
polar
policy
political
politics
politik
politisch
pop
popular
population
populations
por
port
portal
portrait
post
pour
poverty
power
pp
pr
practice
praha
pre
present
preservation
president
presidents
press
price
prime
prince
princess
princeton
print
prize
pro
problem
problems
proceedings
production
produkte
profile
program
programme
project
properties
province
pt
pu
pub
public
publication
publications
published
publishers
publishing
pure
px
q
qquad
qs
quad
quartal
que
queen
quot
quran
quranacademy
r
ra
radio
rafael
rangle
ranking
rankings
rar
ras
ray
rb
rd
re
read
real
record
records
red
ref
reference
references
reg
regensburg
region
regional
regions
regnum
reich
relations
release
religion
religious
remix
rep
report
reports
repubblica
republic
republiky
res
research
resources
results
retrieved
reuters
rev
review
reviews
revised
revolution
rg
rho
ri
ria
rich
richard
ridero
right
rightarrow
rights
ringer
rio
ripe
rise
river
rk
rkdartists
rkiye
ro
road
robert
rock
roger
rolling
rom
roma
roman
romania
rome
ronald
ros
rose
rosstat
rostov
routledge
royal
rs
rsl
rsssf
rt
ru
rule
rules
rus
russia
russian
rxi
s
sa
saint
samuel
san
santa
saw
says
school
schro
sci
science
sciences
scientific
scientists
scott
sdl
se
sea
search
sec
second
secret
section
security
see
seine
selbsta
selected
september
series
server
service
services
set
seven
sex
sh
shah
shakespeare
she
shk
short
show
shtml
si
sie
sigma
sil
sim
simon
sin
since
sir
sister
site
sites
size
sk
ska
ski
sky
skype
slk
sm
small
smith
snac
so
social
society
software
sok
solanum
solar
som
some
son
song
sons
sony
source
sources
south
southern
soviet
sp
space
span
spanish
special
species
spokane
sport
sports
spring
springer
sputnik
sqrt
sr
ss
ssp
st
sta
staatsbibliothek
stackrel
stadt
staff
stalin
stanbul
standard
stanford
stanley
star
stars
stat
state
states
statistical
statistics
statistik
statistikportal
status
statya
stephen
ster
sterreich
sterreichische
steven
stockholm
stone
stories
story
street
structure
stub
studies
study
stuttgart
style
su
sub
subset
sultan
sum
summary
summer
sun
sur
survey
sv
svenska
sveriges
sweden
swedish
sydney
syria
system
systems
t
ta
tab
table
tables
tablesl
tarihi
tau
taylor
tbilisi
te
team
technical
technology
telegraph
television
template
temple
ten
tennis
term
texas
text
texts
textstyle
tg
th
than
that
the
theatre
their
theory
there
these
theta
they
third
this
thomas
thought
three
through
thu
thuringen
ti
tibet
till
time
times
tiny
title
to
today
tom
tools
top
topic
toronto
total
tour
tourism
town
tr
trade
tradition
traduit
trans
translated
translatedate
translation
travel
true
ts
tt
tu
turkey
turkic
turkish
turks
turner
tv
twentieth
twitter
two
txt
type
tzdb
u
ua
ubc
ucoz
ud
ufa
uk
ukraine
um
un
una
und
under
une
unesco
union
unit
united
units
universal
universita
universities
university
unspecified
up
upload
uploads
ural
urban
url
us
usa
use
user
utc
v
va
vaga
vald
valley
van
var
varepsilon
varnothing
varphi
vatandash
ve
vec
venskabsbyer
verlag
version
verwaltungsgemeinschaften
vi
viaf
victor
victoria
video
vie
vietnam
view
vii
viii
village
vilnius
virginia
vis
visa
vision
visit
vk
vladimir
vo
vol
volume
vom
von
vs
w
wa
wales
wall
walter
war
warheroes
wars
warszawa
was
washington
watch
water
way
wayback
wb
wcm
we
weather
web
webcitation
webelements
weber
website
week
weekly
weights
well
were
west
western
what
whc
when
where
which
white
who
why
wi
wien
wiesbaden
wieser
wiki
wikileaks
wikimapia
wikipedia
wild
wiley
wilhelm
will
william
williams
wilson
win
windows
wins
winter
wissen
with
without
wmflabs
wo
wolfgang
woman
women
work
works
world
wp
wps
wu
www
x
xi
xii
xiii
xiv
xix
xls
xlsx
xml
xn
xv
xvi
xvii
xviii
xx
xxi
xxii
xxiii
xxiv
xxv
xxvi
xxvii
y
ya
yale
yandex
ye
year
years
york
you
young
your
youtube
yu
z
za
zealand
zeit
zeitung
zi
zone
zones
zu
zum
zur
{
|
}
~
¡
£
¥
§
¨
©
«
¬
­
®
¯
°
±
²
³
´
·
¹
º
»
¼
½
¿
×
æ
ð
÷
ø
ı
ł
ŋ
ǝ
ɑ
ɔ
ə
ɛ
ɡ
ɪ
ɴ
ɵ
ʃ
ʰ
ʱ
ʲ
ʷ
ʹ
ʻ
ʼ
ʾ
ʿ
ˈ
ˌ
ː
˙
̀
́
̂
̃
̄
̆
̇
̈
̉
̊
̋
̌
̑
̓
̔
̛
̞
̣
̥
̦
̧
̨
̪
̮
̯
̱
̲
̸
͂
͍
͡
α
β
γ
δ
ε
ζ
η
θ
ι
λ
μ
ν
ξ
ο
π
ρ
ς
σ
τ
της
υ
φ
χ
ψ
ω
ϑ
ϕ
а
ааи
аалто
абаев
абаи
аббас
аббат
аббатлығы
абд
абдразаҡов
абдрахман
абдрахманов
абдул
абдулла
абдуллин
абдуллина
абдуллович
абдулхаҡ
абель
аблаи
аборт
абрам
абрамов
абрамович
абрар
абруи
абсалямова
абсолют
абстракт
абу
абхаз
абхазия
абыҙ
абҙан
абҙаҡ
авангард
авар
авария
аварҙар
авг
август
августа
августан
августин
августта
августында
авгусы
авгусына
авгусынан
авгусында
авгусындағы
авгусҡа
авеста
авиакомпанияһы
авиации
авиация
авиацияһы
авив
авраам
аврелии
аврора
австралии
австралия
австралияла
австралияның
австрии
австрия
австрияла
австрияның
австрияға
австро
авт
автобиографик
автобиография
автобус
автобустар
автобустары
автобусы
автовокзал
автомат
автоматик
автоматика
автоматлаштырылған
автоматлаштырыу
автомобилдәр
автомобилист
автомобиль
автоном
автономии
автономия
автономиялы
автономияһы
автономияһын
автономияһының
автономлы
автономного
автономнои
автопортрет
автор
автора
автореф
автореферат
авторитар
авторлыҡ
авторов
авторское
авторы
авторҙ
авторҙар
авторҙары
авторҙарының
авторҙарҙың
авторҙаш
авторҙашлыҡта
авторҙашы
авторҙың
автотранспорт
агата
агеева
агент
агентлығы
агентлығының
агентлыҡ
агентства
агентство
агентством
агенты
агидель
агитация
агиш
агломерацияһы
аграр
агрегат
агрессив
агроном
агрономия
агрономы
агросәнәғәт
ад
ада
адам
адамс
адвокат
адлер
административ
административно
административных
администрации
администрация
администрацияһы
адмирал
адмиралтеи
адмиралы
адольф
адрес
адресы
адриан
адриано
адриатик
адъютанты
адыгеи
аждаһа
аз
азамат
азаматов
азат
азатлығы
азатлығын
азатлыҡ
азбука
азербаи
азиз
азии
азия
азияла
азиялағы
азиянан
азияны
азияның
азияға
азнабаев
азнагулов
азов
азот
азотлы
аи
аида
ак
акад
академигы
академии
академик
академика
академиктар
академическии
академия
академияла
академияны
академияның
академияға
академияһы
академияһын
академияһына
академияһында
академияһының
академкнига
акварель
акимов
акимова
аккад
акманов
акмуллы
акрополь
аксаи
аксаков
аксакова
аксе
аксель
аксенов
аксиомалар
акт
актах
акте
актер
актерлыҡ
актеры
актерҙар
актив
актриса
актрисаның
актрисаһы
акттар
акттары
актуаль
актуальные
акты
акустик
акушер
акушерлыҡ
акционер
акционерҙар
акция
акциялар
акциялары
акцияһы
ал
ала
алабалыҡ
алабуға
алабыҙ
алаи
алалар
алам
алама
алан
алания
аласаҡ
алатау
алатырь
алаш
алағуз
алағуян
алаҡаи
алаһығыҙ
алб
албан
албандар
албания
албанияла
албанияның
алгебра
алгебраик
алгебраның
алгоритм
алгоритмы
алда
алдан
алдар
алдараҡ
алдағы
алды
алдылар
алдым
алдына
алдынан
алдында
алдындағы
алдынғы
алдынғыһы
але
алеи
александр
александра
александрии
александрия
александро
александров
александрова
александрович
александровича
александровка
александровна
александровскии
александру
алексеев
алексеева
алексеевич
алексеевка
алексеевна
алексеи
алексея
алексии
ален
алеппо
алетеи
алжир
али
алиев
алиева
алик
алина
алиса
алишер
алия
алиһә
алиһәһе
алкин
алкоголизм
алкоголь
алла
аллааһү
аллабирҙе
аллалар
алланың
аллаяров
аллаға
аллағыуат
аллаһ
аллаһтан
аллаһтың
аллаһу
аллаһы
аллаһҡа
аллен
аллергия
аллея
аллеяһы
аллеяһында
аллы
алма
алмаз
алмаи
алманы
алманым
алмас
алматы
алматыла
алмау
алмауы
алмаш
алмаштары
алмаштыра
алмаштыралар
алмаштырыла
алмаштырылған
алмаштырып
алмаштырырға
алмаштырыу
алмаштырған
алмашына
алмашыныу
алмашыныуы
алмашыу
алмашҡа
алмаған
алмағанда
алмағас
алмаҫ
алмаҫлыҡ
алмаһа
алонсо
алпамыша
алпауыт
алтаи
алтарь
алтая
алтмыш
алты
алтын
алтынбаев
алтындан
алтынсы
алтынға
алф
алфавит
алфавиты
алфавитын
алфавитына
алфавитының
алфе
алым
алымдар
алымдары
алымдарын
алымы
алымын
алына
алынды
алынмаи
алынмаған
алынып
алыныуы
алынған
алынғандан
алынғандар
алынғас
алып
алыр
алырлыҡ
алырға
алыу
алыусы
алыусылар
алыуы
алыуын
алыуына
алыуға
алыуҙа
алыуҙан
алыуҙар
алыуҙары
алыуҙы
алыуҙың
алыш
алыша
алышта
алыштан
алыштар
алыштарында
алыштарҙа
алышты
алыштыра
алыштырғыһыҙ
алыштың
алышы
алышында
алышыу
алышҡа
алығыҙ
алыҫ
алыҫлығы
алыҫлыҡ
алыҫлыҡта
алыҫлыҡтағы
алыҫлыҡҡа
алыҫта
алыҫтан
алыҫтағы
алыҫыраҡ
алыҫҡа
аль
альберт
альбина
альбом
альбомы
альбомын
альбрехт
альманах
альп
альпина
альт
альтернатив
альтернатива
альфа
альфред
альцгеи
альянс
алюмин
алюминии
аляска
алға
алған
алғанда
алғандан
алғандар
алғаны
алғанға
алғас
алғы
алһа
алһаң
алһын
алһыу
ам
амазонка
аман
аманат
аманаты
амангилде
америка
америкала
америкалағы
американ
американдар
американы
американың
америкаға
америкаһы
америкаһында
америке
америки
амет
аминев
аминов
амир
аммиак
амнистия
ампер
амстердам
амударъя
амундсен
амур
амуры
амфитеатр
амфора
ан
ана
анализ
анализа
анализдың
анализлау
анализы
аналитик
аналитика
аналитическая
аналитическии
аналогы
анархия
анастасия
анатолии
анатолия
анатолияла
анатольевич
анатольевна
анатомик
анатомия
анатомияһы
ангел
англ
англии
англия
англияла
англияның
англияға
англо
ангола
анд
андерсен
анджелес
анджелеста
андре
андреа
андреев
андреева
андреевич
андреевка
андреевна
андреи
андрея
андрианов
андропов
ани
анимация
анисимов
аничков
анк
анкара
анна
анны
аноним
анри
ансамблдәре
ансамбле
ансамблен
ансамблендә
ансамбленең
ансамбленә
ансамбль
ансамбля
ансар
ант
анталья
антанта
антарктида
антарктика
антверпен
антигуа
антик
антиклыҡ
антиох
античная
античнои
антология
антологияһы
антон
антонии
антонин
антонина
антонио
антонов
антонова
антонович
антропоген
антропологии
антропологик
антропология
антропонимдан
антуан
анхальт
аныҡ
аныҡлыҡ
ао
ап
апаи
апалы
апартеид
апаһы
апелляция
аполлон
апостол
апостолдар
аппарат
аппараттары
аппараты
аппаратын
аппаратында
аппаратының
апр
апрелгә
апрелдә
апрелдән
апреле
апрелендә
апрелендәге
апреленә
апреленән
апрель
апреля
аптека
аптырап
апшерон
ар
ара
арабских
арабского
аравии
арагон
аракс
арал
арала
аралары
араларында
аралаш
аралаша
аралашсы
аралашып
аралашыу
аралашҡан
аралбаева
аралбаи
аралығында
аралыҡ
аралыҡта
арам
арамеи
араны
арарат
арауығы
арауығында
арауыҡ
арауыҡта
арауыҡтар
арауыҡты
арауыҡтың
арауыҡҡа
арафат
араға
араҡы
араһы
араһын
араһына
араһынан
араһында
араһындағы
арба
арбитраж
аргентина
аргентинала
аргентинаның
аргументы
аргун
ареалы
арена
аренала
аренаһы
арзамас
арзан
арии
аристократия
аристотель
арифметик
арифметика
арка
аркадии
аркадьевич
аркалар
аркалы
арктик
арктика
аркуль
армении
армения
армии
армия
армияла
армиялар
армиялары
армиянан
армияны
армияның
армияға
армияһы
армияһын
армияһына
армияһынан
армияһында
армияһының
армян
армянская
армянского
армянскои
арнаи
арнала
арналған
арнап
арнаған
арнольд
арпа
арсенал
арсении
арсеньев
арскии
арсланов
арт
арта
артабан
артабанғы
артамонов
арте
артеле
артем
артемьев
артериаль
артерияһы
артефакттар
артиллерии
артиллерист
артиллерия
артиллерияһы
артист
артистар
артистары
артистка
артисткаһы
артистың
артисы
артлы
артмаи
артмаған
артта
арттан
артты
арттыра
арттырыла
арттырып
арттырырға
арттырыу
арттырыуға
артур
арты
артына
артынан
артында
артындағы
артынса
артып
артыу
артыуы
артыуын
артыуына
артыш
артығы
артығыраҡ
артыҡ
артҡа
артҡан
артҡы
арх
архаик
архангел
архангель
архангельск
архангельскии
археи
археолог
археологии
археологик
археологическая
археологические
археологическии
археологических
археология
археологияһы
археологтар
археологы
архив
архива
архивированная
архивировано
архивланған
архивная
архивов
архивы
архивында
архиепискобы
архиепископ
архиереи
архимандрит
архимед
архипелаг
архипелагтың
архипелагы
архипова
архитектор
архитекторы
архитекторҙар
архитекторҙары
архитектура
архитектураһы
архитектураһында
архитектураһының
архитектуре
архитектурныи
архитектуры
аршин
аръяғы
аръяғына
аръяғында
аръяғындағы
аръяғының
ары
арыи
арыраҡ
арыу
арыш
арыҫлан
арыҫланбәк
арыҫланов
арғаяш
арғужа
арҙаҡлы
арҡа
арҡаи
арҡала
арҡан
арҡауыл
арҡаһы
арҡаһында
арҡыры
ас
аса
асад
асалар
асанбаев
асеева
асия
аслыҡ
аслыҡтан
аспект
аспекты
аспирант
аспирантура
аспирантурала
аспирантураны
аспирантураға
аспирантураһын
аспирантураһына
аспирантураһында
аспиранты
ассамблея
ассамблеяһы
ассирии
ассирия
ассистент
ассистенты
ассоциатив
ассоциации
ассоциация
ассоциацияһы
ассоциацияһына
ассоциацияһының
асср
аст
астана
астероид
астероидтар
астероиды
астрель
астрид
астроном
астрономдар
астрономик
астрономия
астрономы
астрофизика
асты
асфальт
асфандияров
асфатуллин
асы
асыла
асылгужин
асылда
асылды
асылы
асылыкүл
асылын
асылып
асылыу
асылыуы
асылған
асылғандан
асылғас
асып
асырға
асыу
асыусы
асыуы
асыуын
асыуға
асыуҙа
асыуҙы
асыш
асыштар
асыштары
асышы
асыҡ
асыҡлаи
асыҡлана
асыҡланмаған
асыҡланыуынса
асыҡланған
асыҡлап
асыҡларға
асыҡлау
асыҡлаған
асыҡлыҡ
асыҡтан
асҡан
асҡар
асҡын
асҡыс
асҡысы
ат
ата
атаи
атака
атакаға
атала
аталалар
аталар
аталары
аталып
аталыуы
аталған
атама
атамалар
атамалары
атамаларын
атамаларының
атамалы
атаман
атаманы
атаманың
атамаһы
атамаһын
атамаһына
атамаһынан
атамаһының
атаны
атап
атарға
ататөрк
атау
аташ
атаған
атағандар
атаҡлы
атаһы
атаһын
атаһына
атаһынан
атаһының
атд
ати
атлант
атлантик
атлап
атлас
атласы
атлет
атлетика
атлеты
атлы
атлылар
атлылары
атмосфера
атмосферала
атмосфераның
атмосфераһы
атнабаев
атом
атомдар
атомдары
атомдарҙың
атта
аттар
аттары
аттарын
аттарҙы
аттарҙың
аттестация
аттила
атты
аттың
аты
атыла
атылып
атылған
атым
атын
атып
атырау
атырға
атыу
атыусы
атыуы
атыуға
атыш
атҡа
атҡан
атҡаҙанған
ау
ауданы
аудио
аудитория
аулаи
аулау
аулы
ауробиндо
ауыл
ауылда
ауылдан
ауылдар
ауылдары
ауылдарын
ауылдарына
ауылдарынан
ауылдарында
ауылдарының
ауылдарға
ауылдарҙа
ауылдарҙан
ауылдарҙы
ауылдарҙың
ауылдаштар
ауылдаштары
ауылдағы
ауылды
ауылдың
ауылы
ауылым
ауылын
ауылына
ауылынан
ауылында
ауылындағы
ауылының
ауылға
ауыр
ауырлығы
ауырлығын
ауырлыҡ
ауырлыҡта
ауырлыҡтар
ауырлыҡтағы
ауыртыу
ауырыи
ауырып
ауырыраҡ
ауырыу
ауырыуы
ауырыуын
ауырыуына
ауырыуынан
ауырыуға
ауырыуҙан
ауырыуҙар
ауырыуҙары
ауырыуҙарын
ауырыуҙарға
ауырыуҙарҙан
ауырыуҙарҙы
ауырыуҙарҙың
ауырыуҙы
ауырыуҙың
ауырыған
ауырға
ауырғазы
ауыш
ауышлығы
ауыҙ
ауыҙы
ауыҙынан
афанасии
афанасьев
афанасьевич
афганистане
афзал
афина
афинала
африка
африкала
африкалағы
африканан
африканың
африкаға
африки
аффиксы
афған
афғанстан
афғанстанда
афғанстандың
афғанстанға
ах
ахеи
ахмадиев
ахматова
ахмет
ахметов
ахметшин
ахтямов
ахун
ахыр
ахыры
ахырына
ахырында
ахырғы
ахырҙа
ачинск
аш
аша
ашаи
ашамлыҡ
ашап
ашар
ашарға
ашатыу
ашау
ашаған
ашлама
ашламалар
ашлыҡ
ашмаи
ашнаҡсы
ашока
ашот
ашты
ашуғ
ашхабад
ашхана
ашшур
ашы
ашып
ашыра
ашырыла
ашырылмаи
ашырылған
ашырырға
ашырыу
ашырыусы
ашырыуға
ашырыуҙа
ашырған
ашыу
ашыуы
ашыға
ашығыс
ашҡа
ашҡаҙан
ашҡаҙар
аэродром
аэрокосмос
аэропорт
аэропорта
аэропорты
аэс
аюпов
аят
аяттан
аяттар
аяуһыҙ
аяғы
аяғын
аяғына
аяҙ
аяҡ
аяҡлы
аяҡтары
аяҡтарын
аяҡҡа
аға
ағаи
ағалары
ағалы
ағартыу
ағас
ағаста
ағастан
ағастар
ағастары
ағастарҙан
ағастарҙы
ағастарҙың
ағасты
ағастың
ағасы
ағасҡа
ағаһы
ағаһының
ағза
ағзалар
ағзалары
ағзаларын
ағзаларына
ағзаларының
ағзалығына
ағзалыҡҡа
ағзанан
ағзаһы
ағиҙел
ағиҙелгә
ағиҙелдең
ағыла
ағым
ағымдар
ағымдары
ағымдағы
ағымлы
ағымы
ағымын
ағымына
ағымында
ағымындағы
ағымының
ағып
ағыу
ағыуланыу
ағыулы
ағыҙыу
аҙ
аҙан
аҙау
аҙағы
аҙағына
аҙағынан
аҙағынаса
аҙағында
аҙағындағы
аҙағыраҡ
аҙаҡ
аҙаҡтан
аҙаҡҡы
аҙна
аҙнабаев
аҙнаи
аҙналин
аҙналыҡ
аҙнанан
аҙнаның
аҙнаға
аҙнағол
аҙнағолов
аҙнаҡаи
аҙнаһына
аҙсылыҡ
аҙым
аҙымдар
аҙыраҡ
аҙығы
аҙыҡ
аҙыҡтары
аҙыҡты
аҙҙан
аҡ
аҡа
аҡаи
аҡбаш
аҡбулат
аҡбур
аҡбуҙат
аҡкүл
аҡкүлде
аҡлаи
аҡлана
аҡлау
аҡманов
аҡмулла
аҡрын
аҡрынлап
аҡса
аҡсаи
аҡсалар
аҡсалата
аҡсаны
аҡсаның
аҡсарлаҡ
аҡсаға
аҡсаһы
аҡсаһын
аҡсаһына
аҡтаныш
аҡтар
аҡтарҙың
аҡтау
аҡташ
аҡтүбә
аҡш
аҡъяр
аҡыл
аҡылдан
аҡыллы
аҡылы
аҡылға
аҡҡан
аҡҡош
аҡһаҡ
аҡһаҡал
аҡһаҡалдар
аҡһыл
аҡһым
аҡһымдар
аҡһөи
аң
аңдың
аңлаи
аңламаи
аңлап
аңларға
аңлата
аңлаталар
аңлатма
аңлатмаи
аңлатмалар
аңлатмалы
аңлатмаһы
аңлатыла
аңлатып
аңлатырға
аңлатыу
аңлатыусы
аңлатҡан
аңлау
аңлашыла
аңлаған
аңлы
аңын
аңына
аҫ
аҫаба
аҫабалыҡ
аҫрау
аҫта
аҫтан
аҫтараҡ
аҫты
аҫтына
аҫтынан
аҫтында
аҫтындағы
аҫыл
аҫылмалы
аҫылғужа
аҫылғужин
аҫып
аҫҡа
аҫҡар
аҫҡы
б
ба
баб
баба
бабаи
бабалар
бабалары
бабаларының
бабаһы
бабил
бабич
бабсаҡ
бабур
бабушка
бавария
багаутдинов
багратион
багуманов
бад
баден
баженов
база
базалары
базальт
базаһы
базаһын
базаһына
базаһында
базе
базилика
базиликаһы
баи
баимов
баишев
бакалавр
бакалавриат
бакалея
бакалинская
бакиров
баксан
бактериаль
бактериялар
бактрия
баку
бал
бала
балаково
балалар
балалары
балаларын
балаларына
балаларының
балаларға
балаларҙа
балаларҙы
балаларҙың
балалы
балалыҡ
балан
баланс
баланы
баланың
балар
балауыҙ
балашов
балаға
балаҡатаи
балаҫ
балаһы
балаһын
балды
балерина
балет
балета
балетмеи
балеты
балетында
балка
балкан
балкон
балл
баллада
баллистик
баллы
балсыҡ
балсыҡлы
балсыҡтан
балта
балтас
балтии
балтик
балтика
балтиҡ
балтырған
балы
балығы
балыҡ
балыҡлы
балыҡсы
балыҡсылар
балыҡсылыҡ
балыҡтар
балыҡтары
балыҡтарҙың
балыҡты
балыҡтың
балыҡҡа
бальзак
бальмонт
бальмонттың
балғалаҡ
балҡан
балҡанда
балҡар
бан
банан
банат
бангкок
бангладеш
бани
банк
банка
банкир
банктар
банктың
банкы
банкының
банкыһы
баныу
баня
бар
бара
барабан
барабанов
барак
баралар
барам
баранов
барановскии
барбара
бардымского
барельеф
баренц
барии
баритон
барлығы
барлығын
барлыҡ
барлыҡҡа
бармаи
бармаҡ
бармаҡтары
бармы
барнаул
барокко
барон
барс
барса
барселона
барселонала
барсуков
бартольд
бары
барыбер
барыи
барыла
барылған
барын
барып
барыр
барырға
барыу
барыусы
барыусыһы
барыуы
барыуын
барыуға
барыуҙа
барыуҙы
барышлаи
барышы
барышын
барышына
барышында
барыҫ
барыһы
барыһын
барыһына
барыһынан
барған
барғанда
барғандар
барҙа
барҙы
барҙым
барһа
бас
басир
баскаков
баскетбол
басов
бассеи
басср
бастион
бат
бата
батаи
батальон
батальоны
батальонында
батальонының
батарея
батареяһы
батист
баттерфляи
батуми
батша
батшабикә
батшабикәһе
батшалар
батшалары
батшаларының
батшалығы
батшалығын
батшалығына
батшалығында
батшалығының
батшалыҡ
батшалыҡтар
батшалыҡтың
батшаны
батшаның
батшаға
батшаһы
батшаһының
батыи
батып
батыр
батыра
батыргәрәи
батырлығы
батырлығын
батырлыҡ
батырлыҡтары
батырша
батыршин
батыры
батырҙар
батырҙарса
батырҙың
батҡан
батҡаҡ
бау
баулы
бауман
бауыр
баффин
бах
бахмут
бахреи
баш
башаҡ
башаҡтары
башгу
башинформ
башк
башкир
башкирии
башкирия
башкиров
башкирская
башкирские
башкирскии
башкирских
башкирско
башкирского
башкирское
башкирскои
башкирском
башкиры
башкирэнерго
башкнигоиздат
башкорт
башкортостан
башкортостана
башкортостане
башкортостанстат
башлаи
башлана
башланды
башланы
башланылар
башланым
башланып
башланыр
башланыу
башланыуы
башланыуын
башланыуына
башланыуға
башланған
башланғанда
башланғандан
башланғанға
башланғас
башланғыс
башланғысы
башланғысында
башлап
башлар
башларға
башлау
башлаусы
башлауы
башлаған
башлағанда
башлағандан
башлағандар
башлағас
башлаһа
башлы
башлыса
башлығы
башлығына
башлығының
башлыҡ
башлыҡтары
башлыҡтарының
башмағым
башнефть
башни
башня
башнялар
башнялары
башняның
башняһы
башревком
башреспублика
башта
баштан
баштараҡ
баштары
баштарын
баштарында
башташ
баштағы
башы
башын
башына
башынан
башында
башындағы
башының
башҡ
башҡа
башҡалар
башҡалары
башҡаларға
башҡаларҙан
башҡаларҙы
башҡаларҙың
башҡара
башҡаралар
башҡарма
башҡарыла
башҡарылған
башҡарып
башҡарырға
башҡарыу
башҡарыусы
башҡарыусылар
башҡарыусыларҙың
башҡарыусыһы
башҡарыуы
башҡарыуында
башҡарған
башҡарғанда
башҡарҙы
башҡаса
башҡорт
башҡорто
башҡортостан
башҡортостанда
башҡортостандан
башҡортостандағы
башҡортостанды
башҡортостандың
башҡортостаны
башҡортостанға
башҡортса
башҡортсаға
башҡорттар
башҡорттары
башҡорттарынан
башҡорттарының
башҡорттарға
башҡорттарҙа
башҡорттарҙан
башҡорттарҙы
башҡорттарҙың
башҡорттоң
башҡортҡа
баязит
баязитов
баян
баянов
баянсы
баяр
бағана
бағаналар
бағанаһы
бағдад
бағышлаи
бағышлана
бағышланған
бағышлап
бағышлаған
баҙ
баҙар
баҙары
баҙарына
баҙарында
баҙарының
баҙарға
баҙарҙа
баҙнат
баҙраҡ
баҙы
баҡаи
баҡал
баҡалы
баҡса
баҡсала
баҡсалар
баҡсалары
баҡсасылыҡ
баҡсаға
баҡсаһараи
баҡсаһы
баҡсаһына
баҡсаһында
баҡы
баҡыи
баҡыла
баҡыр
баҡыға
баҫа
баҫалҡы
баҫма
баҫмала
баҫмалар
баҫмалары
баҫмаларында
баҫмаларҙа
баҫманың
баҫмаға
баҫмаһы
баҫмаһын
баҫмаһында
баҫмаһының
баҫтыра
баҫтырыла
баҫтырылып
баҫтырылған
баҫтырылғандан
баҫтырып
баҫтырырға
баҫтырыу
баҫтырыуға
баҫтырыуҙа
баҫтырған
баҫыла
баҫылып
баҫылған
баҫым
баҫымлы
баҫымы
баҫып
баҫырға
баҫыу
баҫыусылыҡ
баҫыуы
баҫыуҙар
баҫҡан
баҫҡыс
баҫҡыслы
баҫҡыстар
баҫҡыстары
баҫҡысы
баһа
баһадир
баһалаи
баһалама
баһалана
баһаланған
баһалап
баһалар
баһалау
баһалаған
баһауетдин
баһауетдинов
баһаһы
баһаһын
баһрам
баһын
бб
ббк
бгму
бгпу
бгу
бдб
бдму
бдсо
бду
бе
без
безвозвратных
безопасности
безопасность
беи
бек
бекетов
бел
бела
беларус
беларуси
беларуская
беларусь
беларусі
белая
белгес
белгесе
белгестәр
белгестәре
белгестәрен
белгестәренең
белгестәрҙе
белгестәрҙең
белгород
белград
белградта
белгән
белгәндәр
белгәс
белдергән
белдерелә
белдереп
белдереү
белдереүе
белдереүенсә
белдереүсе
белдерҙе
белдерә
белдерәләр
белем
белемгә
белемде
белемдең
белемдәр
белеме
белемен
белемле
беленә
белеп
белер
белергә
белешмә
белешмәһе
белеү
белеүе
белеүсе
белинскии
беллини
белмәгән
белмәи
белмәҫ
белов
белова
белого
белое
белои
белор
белорет
белорецк
белорецкии
белорус
белоруссии
белоруссия
белоруссияла
белоруссияның
белорустар
белоусов
белые
белыи
бельгия
бельгияла
бельские
бельскии
белэн
беляев
беляков
белә
беләләр
беләм
бен
бенгал
бенджамин
бенедикт
бензин
бенуа
бер
бербер
берг
бергман
бергә
бергәләп
бере
берег
берега
береговая
берегу
березин
березина
березники
березовка
березовскии
берекмә
берекмәләре
берекмәһе
берекмәһендә
берекмәһенең
беренсе
беренсел
беренселеге
беренселегендә
беренселегенең
беренселек
беренселектә
беренселәрҙән
беренсенең
беренсенән
беренсеһе
беренсеһендә
береһе
береһен
береһендә
береһенең
береһенә
береһенән
беринг
берия
беркетелгән
беркетелә
беркетеп
беркетеү
берлеге
берлеген
берлегенең
берлегенә
берлек
берлектә
берлектәге
берлин
берлина
берлинда
берлинды
берлиндың
берлинға
берлиоз
берләшеп
берләшеү
берләшеүе
берләшкән
берләшмә
берләшмәләр
берләшмәләре
берләшмәләренең
берләшмәләрҙең
берләшмәнең
берләшмәһе
берләшмәһен
берләшмәһендә
берләшмәһенең
берләшмәһенә
берләштергән
берләштерелгән
берләштерелә
берләштереп
берләштерергә
берләштереү
берләштереүгә
берләштереүсе
берләштерә
берләшә
берн
бернар
бернард
берсә
берҙе
берҙә
берҙәи
берҙәм
берҙәмлеге
берҙәмлеген
берҙәмлек
берҙән
берҙәр
берҙәре
берҙәрен
берҙәрендә
берҙәренең
берҙәрҙе
берҙәрҙең
берәи
берәмеге
берәмеген
берәмегенең
берәмегенә
берәмек
берәмеккә
берәмектең
берәмектәр
берәмектәре
берәмектәренең
берәмектәрҙе
берәмектәрҙең
берәр
берәү
берәүҙәр
беседа
беседы
бессарабия
бессмертныи
бесәи
бесән
бесәнлектәр
бет
бета
бетон
бетондан
бетховен
бетховендың
бешеп
бешерелгән
бешерелә
бешереп
бешерергә
бешереү
бешерәләр
бешкән
беҙ
беҙгә
беҙҙе
беҙҙең
беҙҙә
беҙҙән
би
биатлон
биатлонсыһы
бибиков
библеи
библиогр
библиографик
библиографическии
библиография
библиотека
библиотеке
библиотеки
библиотечная
библия
библияла
биг
бигерәк
бигерәктә
бизе
бизнес
бизнеса
бии
биишева
биишевои
бик
бикбаев
бикбаи
бикбау
бикбов
бикбулат
бикбулатов
бикбулатова
бикмәт
бикмөхәмәт
биксурин
бикташ
бикташева
биктимер
биктимеров
бикҡол
бикҡолова
бикә
бил
билал
билалов
билбау
билбауы
билдинг
билдә
билдәле
билдәлелек
билдәлеләре
билдәлеһе
билдәләгән
билдәләгәндә
билдәләи
билдәләмә
билдәләмәһе
билдәләнгән
билдәләнде
билдәләне
билдәләнелә
билдәләнмәгән
билдәләнә
билдәләп
билдәләр
билдәләргә
билдәләре
билдәләрен
билдәләренә
билдәләү
билдәләүенсә
билдәләүсе
билдәһе
билдәһен
билдәһенең
билдәһенә
билдәһеҙ
билет
билл
бильярд
биләгән
биләи
биләмә
биләмәгә
биләмәлә
биләмәләр
биләмәләре
биләмәләрен
биләмәләрендә
биләмәләренең
биләмәләренә
биләмәләренән
биләмәләрҙе
биләмәләрҙә
биләмәне
биләмәнең
биләмәһе
биләмәһен
биләмәһендә
биләмәһендәге
биләмәһенең
биләмәһенә
биләмәһенән
билән
биләп
биләргә
биләү
биләүсе
бин
бина
бинала
биналар
биналары
биналарын
биналарының
биналарҙа
биналарҙы
биналарҙың
бинанан
бинаны
бинаның
бинар
бинаға
бинаһы
бинаһын
бинаһына
бинаһында
бинаһының
бинт
биобиблиографик
биобиблиографическии
биогр
биографии
биографик
биографическая
биографические
биографическии
биография
биографияһы
биографияһын
биолог
биологии
биологик
биологические
биология
биологияһы
биосфера
биотехнология
биофизика
биохимик
биохимия
бир
биргән
биргәндә
биргәндәр
бирегеҙ
бирелгән
бирелде
бирелеп
бирелергә
бирелеү
бирелеүе
бирелмәгән
бирелмәи
бирелмәләр
бирелһә
бирелә
биреп
бирер
бирергә
бирешмәи
биреү
биреүгә
биреүе
биреүен
биреүсе
биреүҙе
биреүҙең
биреүҙә
биреүҙән
биржа
биржаһы
бирле
бирма
бирмингем
бирмәгән
бирмәи
биро
бирскии
бирюков
бирҙе
бирҙин
бирһә
бирә
бирәләр
бирәм
бисмарк
бит
битараф
битва
битвы
бите
битендә
биткои
битлек
битләүе
битләүендә
битләүҙәре
битләүҙәрендә
биттәр
биттәре
биттәрендә
бихисап
биш
бишбүләк
бишек
бишенде
бишенсе
бишкәк
бишҡаҙаҡ
бишҡураи
бия
биҙгәк
биҙе
биҙҙәре
биҙәге
биҙәгән
биҙәи
биҙәк
биҙәкле
биҙәктәр
биҙәктәре
биҙәлгән
биҙәлеше
биҙәлә
биҙәп
биҙәү
биҙәүестәр
биҙәүсе
биҫтә
биҫтәләре
биҫтәһе
биҫтәһендә
биҫтәһендәге
благовар
благовещен
блог
блогы
блок
блокада
блоктар
блохин
блюдо
блюз
блюхер
бмо
бниц
бо
бобров
бобровницкии
бобруи
бобслеи
бог
богдан
богданов
богданович
богема
богемия
боголюбов
богомолов
богородица
богородицы
богословскии
бодров
боевиктар
боевои
боевые
боеприпастар
божии
божья
бои
боков
боковскии
бокс
боксе
боксер
бол
бола
болан
боланы
болг
болгар
болгарии
болгария
болгарияла
болгарияның
болгарияға
болгарҙар
более
болезнеи
болезни
болеслав
боливар
боливия
болон
болондар
болондарҙа
болот
болото
болоттар
болт
болу
боль
больных
большаков
большая
больше
большевик
большевиктар
большевиктарға
большевиктарҙың
большевистик
большие
большого
большое
большои
болғар
болғарҙар
бомба
бомбардир
бомбардировка
бомбардиры
бомбаға
бомбеи
бонапарт
бондаренко
бондюг
бонн
бор
бораи
борец
борис
бориса
борисов
борисова
борисович
борисовна
борма
бормалы
бородин
бородино
борола
боролоп
боролош
борон
борондан
боронғо
боронғораҡ
боронғоһо
бороп
борос
борсаҡ
борт
борщ
борьба
борьбе
борьбы
боснии
босния
бостон
босфор
бот
ботаник
ботаника
ботаническии
ботағы
ботаҡ
ботаҡтары
боткин
бохара
бохарала
бохараға
бохари
бочкаре
бояр
боях
боғаҙ
боғаҙы
боғорослан
боҙ
боҙа
боҙаяҙ
боҙло
боҙлоҡ
боҙлоҡтар
боҙола
боҙолоу
боҙолоуы
боҙолған
боҙоп
боҙоу
боҙға
боҙған
боҙҙа
боҙҙан
бр
брагин
бразилия
бразилияла
бразилияның
браи
брак
бранденбург
брат
братина
братислава
братья
браун
брахман
брежнев
бреи
брест
брехт
бригада
бригадаһы
бригадаһына
бригадаһында
бригадаһының
бригадир
бригадиры
британ
британия
британияла
британиянан
британияның
британияға
британника
брод
бродвеи
бродскии
брокгауз
брокгауза
бронетанк
бронза
бронзанан
брунеи
бруно
брэ
брэдбери
брюс
брюсов
брюсселдә
брюссель
брянск
брәтәк
бсср
бст
бсэ
бтз
бу
буг
бугера
буда
будапешт
будапештта
будда
буддизм
буде
буденныи
будет
будур
будут
будущего
будущее
буи
бук
буклет
бул
була
булалар
булараҡ
буласаҡ
булат
булатов
булатова
булгаков
булгакова
булды
булдылар
булдым
булдыра
булдыралар
булдырмау
булдырыла
булдырылды
булдырылған
булдырып
булдырырға
булдырыу
булдырыусы
булдырыуға
булдырыуҙа
булдырыуҙы
булдырған
булиттар
булла
буллин
булмаи
булманы
булмау
булмауы
булмауын
булмауына
булмаясаҡ
булмаған
булмағанда
булмағандар
булмағанлыҡтан
булмағанға
булмағас
булмаҫ
булмаҫҡа
булмаһа
булмаһын
булып
булыр
булырлыҡ
булырға
булыу
булыусы
булыусылар
булыуы
булыуын
булыуына
булыуынан
булыуында
булыуынса
булыуға
булыуҙан
булыуҙары
булыуҙы
булыша
булышлығы
булышлығында
булышлыҡ
булығыҙ
бульвар
бульвары
булған
булғанда
булғандан
булғандар
булғандарға
булғандарҙы
булғандарҙың
булғандыр
булғанлығы
булғанлығын
булғанлыҡтан
булғанса
булғансы
булғаны
булғанын
булғанға
булғас
булһа
булһалар
булһын
бунин
бур
бура
буран
буранбаи
буранлы
бурансы
буранғол
буранғолов
бураҡаева
бургундия
буржуаз
буржуазия
буркина
бурыс
бурыслы
бурыстар
бурыстары
бурыстарын
бурыстарҙы
бурысты
бурысы
бурысын
бурысҡа
бурһыҡ
бус
бутаи
буталсыҡ
бутан
бутарға
бутҡа
бутҡаһы
бухарест
бухарин
бухгалтер
буш
бушап
бушата
бушатыла
бушатыу
бушлаи
бушҡа
буэнос
буялған
буяу
буяуҙар
буға
буҙ
буҫтау
бхутто
бы
бывшего
бывшии
быи
быков
быкова
был
была
былаи
былар
быларҙың
были
было
бына
бынан
бында
бындаи
бындағы
быны
бының
быныһы
быраулау
быраулаусы
бысаҡ
бысраныуы
бысраҡ
быт
быть
быуа
быуалар
быуат
быуатта
быуаттан
быуаттар
быуаттарында
быуаттарға
быуаттарҙа
быуаттарҙан
быуаттарҙағы
быуаттарҙың
быуаттағы
быуаттың
быуаты
быуатына
быуатында
быуатҡа
быуаһы
быуын
быуындан
быуындар
быуынды
быуыны
быуынға
быуып
бышев
быяла
быға
бығаса
быҙ
быҙау
быҙаулыҡ
бье
бэи
бюджет
бюджетное
бюджеты
бюллетень
бюро
бюроһы
бюроһында
бюроһының
бюст
бюсы
бүздәк
бүлгеләнгән
бүлгән
бүлеге
бүлеген
бүлегендә
бүлегенең
бүлегенә
бүлек
бүлеккә
бүлексә
бүлексәләре
бүлексәһе
бүлексәһен
бүлексәһендә
бүлексәһенең
бүлектең
бүлектә
бүлектән
бүлектәр
бүлектәре
бүлектәрендә
бүленгән
бүлендек
бүленеп
бүленеш
бүленеше
бүленеү
бүленеүе
бүленә
бүленәләр
бүлеп
бүлергә
бүлешеү
бүлешә
бүлеү
бүлеүҙе
бүлеүҙән
бүлкәт
бүлкәте
бүлкәтендә
бүлмә
бүлмәле
бүлмәлә
бүлмәләр
бүлмәләре
бүлмәһе
бүлмәһендә
бүлә
бүләге
бүләк
бүләккә
бүләкләи
бүләкләнгән
бүләкләнде
бүләкләнеүсе
бүләкләнеүсенең
бүләкләнә
бүләкләү
бүләков
бүләктәр
бүләктәре
бүләләр
бүләр
бүләһе
бүре
бүребаи
бүреләр
бүртә
бүрәнә
бүрәт
бүтән
бәи
бәк
бәкер
бәков
бәлеш
бәлиғ
бәлки
бәлә
бәләбәи
бәләкәи
бәләкәс
бәни
бәрелеш
бәрелеше
бәрелештәр
бәрелешә
бәреп
бәрхәт
бәрҙе
бәрәңге
бәт
бәхет
бәхете
бәхеткә
бәхетле
бәхетһеҙ
бәхтегәрәи
бәхтеи
бәхтизин
бәхтии
бәхәс
бәхәскә
бәхәсле
бәхәстәр
бәхәсһеҙ
бәшир
бәширов
бәшмәге
бәшмәк
бәшмәктәр
бәшнәктәр
бәшәр
бәҙер
бәҙретдин
бәҙретдинов
бәүел
бөгөлгән
бөгөлмә
бөгөн
бөгөнгәсә
бөгөнгө
бөжәк
бөжәктәр
бөжәктәрҙе
бөжәктәрҙең
бөи
бөлгөнлөккә
бөри
бөркөт
бөркөтө
бөртөк
бөртөклө
бөртөктәре
бөрө
бөткән
бөткәндән
бөткәнсе
бөткәс
бөткөһөҙ
бөтмәгән
бөтмәи
бөтмәҫ
бөттө
бөтә
бөтәһе
бөтәһен
бөтәһенә
бөтәһенән
бөтөн
бөтөнләи
бөтөнлөгөн
бөтөп
бөтөрә
бөтөрөлгән
бөтөрөлгәндән
бөтөрөлгәс
бөтөрөлә
бөтөрөлөүе
бөтөрөргә
бөтөрөү
бөтөрөүгә
бөтөрөүҙә
бөтөү
бөҙрә
в
ва
ваба
вавилов
вавилон
вага
вагнер
вагон
вагондар
вадим
важнеи
ваз
вазифа
вазифала
вазифалар
вазифаларын
вазифаларында
вазифаларҙа
вазифаларҙы
вазифалы
вазифаны
вазифаға
вазифаһы
вазифаһын
вазифаһына
вазифаһынан
вазифаһында
вазов
вазовскии
вазуза
ваи
вак
вакуум
вакцина
вал
валаам
валахия
валдаи
валеев
валентин
валентина
валентинович
валериан
валерии
валерия
валерьевич
валиди
валишин
вальс
вальтер
валют
валюта
валютаһы
вам
ван
ванкувер
вань
ваня
варвар
варвара
вариант
вариантов
вариантта
варианттар
варианттары
варианттарын
варианты
вариантын
вариантында
вариҫ
вариҫтары
вариҫтарына
вариҫы
варна
варшава
варшавала
варшаваны
вас
василевскии
василенко
василии
василия
василь
васильев
васильева
васильевич
васильевича
васильевка
васильевна
васко
вассал
вассалы
васыят
васыяты
васюган
васюганға
ватан
ватандаш
ватанды
ватанға
ватикан
вафа
вафат
вафаты
вафатына
вафатынан
вах
вахитов
вахтанг
вахҡа
вацлав
ваш
вашем
вашингтон
вашингтонда
вағыраҡ
ваҡ
ваҡиға
ваҡиғалар
ваҡиғалары
ваҡиғаларын
ваҡиғаларға
ваҡиғаларҙан
ваҡиғаларҙы
ваҡиғаларҙың
ваҡиғанан
ваҡиғаны
ваҡиғаның
ваҡиғаға
ваҡиғаһы
ваҡланған
ваҡлап
ваҡыт
ваҡытлы
ваҡытлыса
ваҡытта
ваҡыттан
ваҡыттар
ваҡыттарында
ваҡыттарҙа
ваҡыттағы
ваҡытты
ваҡыттың
ваҡыты
ваҡытын
ваҡытына
ваҡытынан
ваҡытында
ваҡытындағы
ваҡытының
ваҡытҡа
вв
введение
введенскии
ввп
ввс
вгик
вгтрк
вднх
вдоль
ве
веб
вебер
вега
вегетатив
ведомости
ведомство
ведомствоһы
веи
век
века
веках
веке
веков
вектор
векторлы
векторы
векторҙар
векторҙың
веласкес
велик
великая
великие
великии
великих
великобритании
великобритания
великого
великои
величества
велосипед
велосипедта
вена
венала
венаны
венаның
венаға
венг
венгр
венгрии
венгрия
венгрияла
венгриянан
венгрияның
венгрияға
венгрҙар
венгрҙарҙың
венедиктов
венер
венера
венесуэла
венеция
венецияла
венецияға
вениамин
венчурлы
вер
вера
вергилии
верде
верди
вердиҙың
верещагин
вермахт
вернадскии
вернер
вернулись
верныи
вероника
версаль
версии
версия
версияһы
версияһын
вертикаль
вертоле
вертолет
верхнеурал
верхнии
верхняя
верховного
верховныи
верхотор
вершины
веры
весе
веселовскии
весна
вест
вести
вестник
вестфалия
весь
ветер
ветеран
ветерандар
ветерандары
ветеранов
ветераны
ветеринар
ветеринария
ветлана
ветлуга
вече
вечер
вечера
вечернии
вечерняя
веществ
вещества
взаимодеи
взвод
взводы
взгляд
ви
вид
виде
видео
видные
видов
виды
византии
византия
византияның
византияға
визит
визуаль
вики
викикитапханала
викимилектә
викингтар
википедия
википедияла
википедияһы
викискладе
викиһүҙлектә
виктор
виктора
виктория
викторович
викторовна
вил
вилаи
вилдан
вилданов
вилеи
виллаһы
вильгельм
вильно
вильнюс
вильям
вильямс
виләи
винница
виноград
виноградов
виноградова
винсент
винтовка
винчи
виолетта
виолончель
виртуаль
виртуальныи
виртуоз
вирус
вируслы
вирусология
вирустар
вис
виска
висла
виталии
витальевич
витамин
витаминдар
витамины
витгенштеи
витебск
витовт
витязь
вице
вич
вишера
вишневскии
вишну
вка
вклад
включая
вконтакте
вкп
вл
влад
владение
владивосток
владикавказ
владимир
владимира
владимирович
владимировна
владимирская
владислав
власов
власта
властан
властар
властары
властарына
властарының
властарға
властарҙың
власти
власты
властың
власть
власы
власын
власына
власының
власҡа
влияние
влксм
вместе
вместо
внесении
внешнеи
внешняя
внимание
вновь
внутренних
во
вов
вод
вода
водевиль
водителе
водитель
водном
водныи
водных
водород
водохранилище
воды
воевода
воеводаһы
воен
воениздат
военная
военно
военного
военное
военнои
военные
военныи
военных
вож
воз
возвращение
возглавил
воздвиженка
воздеи
возможно
возможности
вознесенка
вознесенск
вознесенскии
возникновение
возникновения
возраста
возрождение
возрождения
вои
воинскои
воины
вокал
вокаль
вокзал
вокзалы
вокруг
волга
волганың
волгаға
волго
волгоград
волгодонск
волеи
волков
волкова
волконскии
волна
вологда
вологодскои
володин
володя
волости
волость
волосы
волошинова
волхов
волынскии
волынь
вольтер
вольф
вольфганг
вольфрам
воля
волғаға
вооруже
вопрос
вопросам
вопросу
вопросы
воробье
воробьев
ворон
ворона
воронеж
воронин
воронов
воронова
воронцов
ворота
ворошилов
ворошиловград
воскресенск
воскресенскии
воспитание
воспитания
воспоминании
воспоминания
воспоминаниях
восстание
восстания
вост
восток
востока
востоке
востоковедение
востоковедения
восточная
восточного
восточнои
восточныи
восточных
восход
вот
воткин
воткинск
впервые
впн
впо
врангель
врач
врача
врачеи
врачы
време
времен
времена
времени
временник
временных
время
вручил
вс
все
всеволод
всеволодович
всегда
всего
всеи
всем
всеми
всемирная
всемирного
всемирнои
всемирныи
всеобщая
всеобщеи
всероссии
всесоюзная
всех
вскии
встреча
встречи
вступ
вступительная
всю
вся
вт
вта
вторая
второго
второе
второи
втың
вуз
вуздары
вузов
вузы
вулкан
вулкандар
вулканы
входившие
вцик
вцспс
вчера
вчк
въ
вы
выбор
выбора
выборах
выборг
выборов
выборы
выдающиеся
выдающии
выдающихся
выи
вып
выпуск
выпуска
выпускники
выпускников
высота
высоцкии
высочаи
выставка
выставки
выступление
выступления
высш
высшая
высшего
высшее
высшеи
высшие
высших
вычегда
вычегды
выше
вышинскии
вышка
вышла
вьетнам
вэи
вюртемберг
вятка
вятские
вячеслав
вячеславович
від
вінниця
вҡа
вә
вәзир
вәкил
вәкилдәр
вәкилдәре
вәкилдәрен
вәкилдәренең
вәкилдәренә
вәкилдәренән
вәкиле
вәкиллеге
вәкиллектәре
вәкәләтле
вәкәләттәр
вәкәләттәре
вәкәләттәрен
вәли
вәлид
вәлиди
вәлидиҙең
вәлидов
вәлиев
вәлиева
вәлит
вәлитов
вәлиулла
вәлиуллин
вәлиәхмәт
вәлиәхмәтов
вәсилә
вәхит
вәхитов
вәғиз
вәғәз
вәғәҙә
г
га
габитов
габриэль
габсбург
габсбургтар
габсбургтарҙың
гаваи
гавань
гавриил
гаврилов
гаврилович
гаврюшкин
гагарин
гагарина
гагауз
гагаузия
газ
газа
газдар
газды
газдың
газета
газетаһы
газете
газеты
газлы
газпром
газы
гаи
гаити
гала
галактика
галеева
гален
галерея
галереяһы
галереяһында
гали
галилеи
галилео
галин
галина
галиция
галич
галкин
галле
гама
гамалея
гамбург
гамильтон
гамлет
гамма
ган
гана
ганг
гандбол
ганди
ганнибал
ганс
ганцев
гараж
гарвард
гареев
гареева
гарипова
гармоник
гармония
гармун
гарнизон
гарнизоны
гарри
гарсиа
гастролдә
гастролдәр
гастролдәргә
гастролдәрҙә
гатауллин
гатиятуллин
гатчина
гаун
гаусс
гафаров
гафури
гв
гвардеи
гвардия
гвардияһы
гватемала
гвинея
гвоздикова
гг
гданьск
где
гдр
ге
гегель
геи
гектар
гектарынан
гектарға
гектарҙан
гел
гелии
гелә
гемоглобин
ген
гендар
гендель
гендер
генеалогия
генерал
генерала
генералам
генералдар
генералы
генераль
генерального
генеральныи
генетик
генетика
гении
геннадии
геннадьевич
геноцид
генри
генрих
генуя
генә
геоботаника
геогр
географ
географии
географик
географические
географическии
географических
географического
географическое
география
географияһы
географы
геодезия
геоинформация
геолог
геологии
геологик
геология
геологияһы
геологтар
геологы
геометрии
геометрик
геометрия
георг
георги
георгиевич
георгиевна
георгии
георгия
геофизик
геофизика
геохимия
гер
гера
геракл
геральдик
геральдика
герасимов
герасимова
герасимович
герб
герберт
гербы
гербында
герман
германии
германия
германияла
германиялағы
германиянан
германияны
германияның
германияға
геродот
героев
герои
героик
героини
героя
героям
героях
герцеговина
герцеговинаның
герцен
герцог
герцоглығы
герцогы
гессе
гессен
гетман
геһе
геһен
геһендә
ги
гибель
гибралтар
гибрид
гигант
гигиена
гигиенаһы
гидравлик
гидравлика
гидрографик
гидрологик
гидрология
гидрометеоиздат
гидроним
гидротехник
гидроузеленә
гидроузеленән
гиз
гии
гилгәмеш
гилде
гилем
гильберт
гильдия
гималаи
гимн
гимназии
гимназия
гимназияла
гимназияны
гимназияһы
гимназияһын
гимназияһына
гимназияһында
гимназияһының
гимнастика
гимнастикаһы
гимны
гин
гинеколог
гинекология
гинзбург
гиперболик
гипотеза
гипотезаһы
гипс
гистология
гитара
гитарасы
гитис
гитлер
гитлерсыны
гитлерға
гко
гл
глав
глава
главная
главного
главное
главнои
главныи
главным
главных
главы
гладков
глаза
глазами
глазго
гласныи
глеб
гликерии
гликерия
глинка
глобалләшеү
глобаль
глобус
глушко
глюкоза
гнеи
гнесиндар
го
говард
говорит
говорят
гог
гоголь
год
года
годах
годов
году
годунов
годы
гои
гол
голдар
голицын
голланд
голландия
голландияла
голливуд
голль
голова
головин
головная
голод
голоморфлы
голос
голоса
голубев
голубева
голубои
гольф
гомель
гомер
гонаһ
гонаһлы
гондурас
гонконг
гончаров
гор
гора
горбаче
горбачев
горбунов
гордеев
гордон
гордость
горе
гори
горизонт
горизонталь
горизонты
горка
гормондар
горная
горно
горного
горныи
горных
горняк
город
города
городам
городах
городе
городище
городов
городок
городская
городские
городским
городских
городского
городскои
городу
горскии
горы
горькии
горького
гос
госиздат
гослитиздат
госпиталгә
госпиталдә
госпитале
госпиталендә
госпиталь
госполитиздат
госсправка
гост
государств
государства
государственная
государственного
государственное
государственнои
государственном
государственные
государственныи
государственным
государственными
государственных
государство
гот
готик
готика
готтар
готфрид
гпу
гр
грабарь
гравитацион
гравитация
гравюра
град
градус
градустан
градусҡа
граждан
граждандар
граждандары
граждандарын
граждандарына
граждандарының
граждандарға
граждандарҙы
граждандарҙың
граждане
гражданин
гражданины
гражданлығы
гражданлығын
гражданлыҡ
гражданская
гражданского
гражданскои
гражданство
гражданы
граи
грамм
грамматик
грамматика
грамматикаһы
грамота
грамоталары
грамоталылыҡ
грамотаһы
грамотои
гран
гранат
граната
гранд
грани
гранит
граниттан
границ
границах
границы
грант
гранты
граф
графигы
график
графика
графикаһы
графиня
графит
графлығы
графтың
графы
грац
граче
грвл
гре
гребнева
греи
грек
греков
грекса
гректар
гректарға
гректарҙың
гренландия
гренландияның
грета
гретцки
греции
греция
грецияла
грецияның
грецияға
греч
греческая
гри
грибоедов
гривна
григориан
григории
григорович
григорьев
григорьева
григорьевич
григорьевна
григорян
грин
грипп
гродно
грозныи
громов
громова
гроссмеи
груз
грузии
грузин
грузиндар
грузия
грузияла
грузияның
грузияға
грунт
групп
группа
группы
груша
грэс
гтрк
гу
гуам
гуашь
губаи
губанов
губерна
губерналары
губернатор
губернатора
губернаторы
губернаторының
губернаһы
губернаһына
губернаһынан
губернаһында
губернаһының
губернии
губерния
губин
губкин
гудков
гудкова
гулаг
гуляев
гуманизм
гуманитар
гуманитарные
гуманитарныи
гуманитарных
гумбольдт
гумеров
гумерова
гумиле
гумилев
гун
гуно
гуп
гурвич
гуревич
гуру
гурьев
гусев
гусева
гусеи
густав
густерин
гутенберг
гфр
гэс
гюго
гюи
гісторыі
гүзәл
гә
гәзит
гәзите
гәзитен
гәзитендә
гәзитенең
гәзитенә
гәзиттең
гәзиттә
гәзиттәр
гәзиттәре
гәзиттәрендә
гәзиттәрҙә
гәлсәр
гән
гәндәр
гәне
гәнжә
гәрә
гәрәбә
гәрәев
гәрәи
гәүһәр
гө
гөбөргәи
гөл
гөлдәр
гөли
гөлназ
гөлнара
гөлнур
гөлнәзирә
гөлсирә
гөлсөм
гөлфиә
гөлшат
д
да
давид
давидович
давлекановскии
давлекановского
давыдов
давыдова
даже
даи
даими
даирәһе
даирәһендә
даирәһенә
дала
далаи
далала
далалар
далалары
далаларына
далаларында
далаһы
дале
дали
далмация
даль
дальневост
дальнего
дальнеи
дальнем
дама
дамаск
дамба
дамир
дан
дана
даниил
данил
данилов
данилович
данис
даниэль
дания
данияла
данияның
данлаи
данлы
данлыҡлы
даннои
данные
данным
данных
данте
данциг
данченко
даны
данын
дао
дар
дара
дарвин
дарии
даруғаһы
даруғаһының
дары
дарыу
дарыухана
дарыуҙар
дарья
дат
дата
даталар
датаһы
датаһын
дату
даты
дауа
дауалаи
дауалана
дауаланырға
дауаланыу
дауалау
дауалаусы
дауалауҙа
дауалауҙың
дауам
дауамы
дауамында
дауахана
дауаханала
дауаханалар
дауаханаға
дауаханаһы
дауаханаһына
дауаханаһында
дауаханаһының
даугавпилс
даутов
дауыл
дауыт
дауытов
дача
дачаһы
даян
дағстан
два
двадцать
дважды
две
двенадцатыи
двигателдәр
двигателдәре
двигателе
двигатель
движение
движении
движения
двина
двины
двои
двор
дворец
дворжак
дворца
дворян
дворяндар
дворяндары
дворянлыҡ
двудольные
двумя
двух
ддт
де
дебюсси
дебют
дебюты
дева
девизы
девон
девочка
девушка
девушки
дега
деггер
дегет
деи
дек
декабргә
декабре
декабрендә
декабрендәге
декабренә
декабренән
декабрь
декабря
декабрҙә
декабрҙән
декадаһында
декан
деканы
декарт
декларация
декларацияһы
декоратив
декорация
декрет
декреты
дел
дела
делам
делать
деле
делегат
делегаты
делегация
делегацияһы
деление
дели
делла
дело
деловои
делу
дель
дельта
дельтаһы
дементьев
демидов
демобилизациялана
демобилизацияланғандан
демобилизациянан
демографик
демократ
демократик
демократия
демократтар
демонстрация
демонстрациялар
демоскоп
ден
деникин
денис
денисов
день
деньги
департамент
департамента
департаменты
департаментының
депортация
депоһы
депрессия
депутат
депутатов
депутаттар
депутаттары
депутаттарының
депутаты
дер
дербент
дерби
деревень
деревне
деревни
деревня
дерево
держава
державалар
державаһы
державин
державна
дерпт
десант
десять
дет
деталдәр
деталдәре
детгиз
детеи
детектив
дети
детрои
детская
детскии
детства
детство
детям
деятелеи
деятели
деятель
деятельности
деятельность
дж
джаз
джаи
джакомо
джами
джан
джана
джане
джанская
джанскии
джанского
джанскои
джафар
джеи
джек
джексон
джерси
джимми
джин
джинна
джо
джованни
джозеф
джои
джон
джонс
джонсон
джордж
джузеппе
джульетта
джучи
дзе
дзержинскии
дзи
дзон
дзэн
дзюдо
ди
диагноз
диагностика
диагностикалау
диал
диалект
диалектик
диалектика
диалектология
диалекттар
диалекттары
диалекттарҙа
диалекты
диалектында
диалектының
диалог
диаметрлы
диаметры
диана
диапазоны
диаспораһы
диван
диверсия
дивизии
дивизион
дивизионы
дивизионында
дивизия
дивизиялары
дивизияның
дивизияһы
дивизияһын
дивизияһына
дивизияһында
дивизияһының
дидро
диего
дизаи
дизель
диккенс
диктатор
диктатура
диктатураһы
диктор
дилмөхәмәтов
дим
димитрии
димитров
дин
дина
динамик
динамика
динамикаһы
динамо
динар
династии
династия
династияның
династияһы
династияһын
династияһына
династияһынан
династияһының
дингер
дингә
диндар
диндарҙар
динде
диндең
диндәр
дине
динен
динендә
диненең
диненә
дини
динис
динислам
диниә
динле
динә
диоген
диодор
диплом
дипломанты
дипломат
дипломатик
дипломатия
дипломаты
дипломдан
дипломы
дипломын
дипломға
директива
директор
директора
директоры
директорының
директорҙар
директорҙары
директорҙың
дириже
дирижер
дирижерлыҡ
дирижеры
дис
диск
диснеи
дисс
диссертации
диссертация
диссертациялары
диссертацияларын
диссертацияһы
диссертацияһын
диссертацияһының
дистанцион
дистанция
дистанцияла
дисциплина
дисциплиналар
дисциплиналары
дисәтинә
дисәтинәгә
дитрих
диуар
диуары
диуарҙар
диуарҙары
дифференциалланыусы
дифференциаль
диҡҡәт
диңгеҙ
диңгеҙгә
диңгеҙе
диңгеҙее
диңгеҙеенә
диңгеҙен
диңгеҙендә
диңгеҙендәге
диңгеҙенең
диңгеҙенә
диңгеҙенән
диңгеҙҙең
диңгеҙҙә
диңгеҙҙәге
диңгеҙҙән
диңгеҙҙәр
диңгеҙҙәре
для
дмитриев
дмитриева
дмитриевич
дмитриевка
дмитриевна
дмитрии
дмитрия
дн
дне
дневник
дневники
днеи
днепр
днепропетровск
днепрҙың
днестр
дни
днк
дня
до
добро
добронравов
дов
довженко
довлатов
договор
договора
договоры
дождь
дои
док
докл
доклад
докладов
доклады
докладында
доктор
доктора
докторлыҡ
докторы
докторҙары
документ
документа
документаль
документальная
документальныи
документах
документов
документта
документтар
документтары
документтарын
документтарында
документтарға
документтарҙа
документтарҙы
документы
документҡа
должен
должность
должны
долина
долл
доллар
долларлыҡ
доллары
долларына
долларға
долларҙан
дом
дома
доме
домен
доминго
доминик
доминика
доминикан
домна
домои
дон
дона
дональд
донбасс
донда
дондағы
дондың
донесение
донесения
донец
донецк
донская
донского
донскои
дону
донъя
донъяла
донъялағы
донъянан
донъяны
донъяның
донъяуи
донъяға
донъяһы
донъяһын
донъяһына
донъяһында
донъяһының
донья
доп
дополненное
дор
дореволюционнои
доров
дорович
доровка
доровна
дорог
дорога
дороги
досааф
доска
достижения
достоевскии
достопримечательности
доступа
досье
доцент
доценты
дочь
дошман
дошмандан
дошмандар
дошмандары
дошмандарын
дошманды
дошмандың
дошманлыҡ
дошманы
дошманға
доға
доғалар
доғаһы
др
драгун
драма
драматик
драматург
драматургия
драматургияһы
драматургы
драмаһы
драмаһында
драмы
древнего
древнеи
древние
древнии
древних
древностеи
древности
древняя
дрезден
дреи
дроздов
дрофа
друг
друга
другие
другим
других
другои
дружба
дружбы
дружина
дружинаһы
друзья
ду
дубаи
дубна
дубровин
дуглас
дуи
дума
думаһы
думаһына
думаһының
думбыра
думка
думы
дунаи
дуров
дусар
дутов
дух
духовная
духовнои
душа
душанбе
души
дуэт
дуға
дуҫ
дуҫлаша
дуҫлығы
дуҫлыҡ
дуҫтар
дуҫтарса
дуҫтары
дуҫы
ды
дым
дымлы
дымлылығы
дымлылыҡ
дыуан
дыуанаи
дың
дье
дьяконов
дэвид
дэвис
дэи
дэн
дюи
дюма
дюрер
дягилев
дядя
дүрт
дүртенсе
дүртенсел
дүртмөи
дүрттән
дүртәү
дүртөи
дүшәмбе
дүңгәләк
дә
дәлил
дәлилдәр
дәлилләи
дән
дәрес
дәреслеге
дәреслек
дәреслектәр
дәрестәр
дәрестәре
дәрестәрен
дәрт
дәртле
дәртләндереү
дәртләндерә
дәрүиш
дәрәжә
дәрәжәгә
дәрәжәле
дәрәжәлә
дәрәжәләге
дәрәжәләре
дәрәжәһе
дәрәжәһен
дәрәжәһендә
дәрәжәһенә
дәғүә
дәғүәсе
дәғүәселәр
дәүер
дәүергә
дәүере
дәүерендә
дәүерендәге
дәүеренең
дәүеренә
дәүеренән
дәүерҙең
дәүерҙә
дәүерҙәге
дәүләкән
дәүләт
дәүләтбаев
дәүләтбаи
дәүләтбирҙин
дәүләте
дәүләтен
дәүләтендә
дәүләтенең
дәүләтенә
дәүләткилдеев
дәүләткирәи
дәүләткә
дәүләтов
дәүләтте
дәүләттең
дәүләттә
дәүләттәр
дәүләттәргә
дәүләттәре
дәүләттәрендә
дәүләттәренең
дәүләттәрҙең
дәүләттәрҙә
дәүләтша
дәүләтшин
дәүләтшина
дәүмәл
дәүмәлдең
дәүмәлдәр
дәүмәле
дөгө
дөи
дөмәи
дөрөҫ
дөрөҫлөгө
дөрөҫлөгөн
дөрөҫлөк
дөрөҫлөккә
дөрөҫөн
дөрөҫөрәге
е
ебе
ебен
ебәк
ебәргән
ебәргәндәр
ебәрелгән
ебәрелә
ебәреп
ебәрергә
ебәреү
ебәреүсе
ебәреүҙе
ебәрҙе
ебәрә
ебәрәләр
ев
ева
евангелие
евгении
евгения
евгеньевич
евгеньевна
евдокия
евклид
евклидтың
евразии
евразия
евразияның
евреев
евреи
евро
евровидение
европа
европала
европалағы
европалылар
европанан
европаны
европаның
европаға
европе
европеи
европы
евросоюз
евроға
евфрат
ега
еган
еге
егерме
егерменсе
егерәк
егет
егете
егеткә
егетте
егеттең
егеттәр
егеттәре
егеттәрҙең
египет
его
егор
егорлык
егоров
егорова
егорович
егрюл
егән
ед
единая
единиц
единица
единыи
еділ
ее
ежегодник
ежов
ез
еи
ек
екатерина
екатеринбург
екатеринбургта
екатеринбургтан
екатеринбургҡа
екатеринослав
екатерины
екбаев
екбаи
еклеге
еклеген
еклегендә
еклегендәге
еклек
еклеккә
еклекте
еклектә
еклектәге
еклектәре
ел
елга
елгә
елгән
елдерелгән
елдерелә
елдерә
елдең
елдәр
елдәре
еле
елена
елены
елеп
елец
елизавета
елисеев
елкән
елкәнле
елле
ель
ельцин
елә
еләге
еләк
ем
емде
емдең
емдә
емдәр
емдәре
еме
емельян
емельянов
емен
емендә
еменә
емергес
емергән
емерек
емереклектәр
емереклектәре
емерелгән
емерелеп
емерелеү
емерелеүе
емерелә
емереп
емереү
емертелә
емерә
емеш
емеше
емешле
емештәр
емештәре
ему
ен
ендә
ендәр
ене
енес
енесле
енең
еникеев
енисеи
енләгән
енләи
енләнгән
енләнде
енләнеше
енләнешле
енләнештәге
енләнә
енләү
енов
енова
енси
енсә
ентекле
ентекләп
енциклопедія
енә
енәи
енән
еп
епархии
епархия
епархияһы
епархияһына
епархияһының
епискобы
епископ
епле
епләи
епләнеп
епләнеүселәр
епләнә
епләп
епләү
епләүҙәр
епов
ептәр
епһеҙ
ер
ергә
ергән
ере
ереван
ереванда
ерек
ерекле
ерем
ерен
ерендә
ерендәге
еренең
еренә
еренән
ерле
ерләи
ерләнгән
ерләнә
ерләү
ермак
ермаков
ермолаевка
ермолаево
еров
ершов
ерҙе
ерҙең
ерҙә
ерҙәге
ерҙән
ерҙәр
ерҙәргә
ерҙәре
ерҙәрен
ерҙәрендә
ерҙәренең
ерҙәренә
ерҙәренән
ерҙәрҙе
ерҙәрҙең
ерҙәрҙә
ерҙәрҙән
ерһеҙ
ерәк
ерән
ес
есаул
есе
есем
есемдең
есемдәр
есемдәренең
есемдәрҙең
есен
есенең
есенин
есенина
если
ессентуки
естествознания
есть
естә
естәре
естәше
ет
етбаба
етгәрәи
етди
ете
етем
етемдәр
етен
етенсе
етеп
етер
етергә
етерлек
етеш
етешмәи
етешмәүе
етештергән
етештерелгән
етештерелә
етештереү
етештереүгә
етештереүе
етештереүсе
етештереүселәр
етештереүсәнлеге
етештереүсәнлеген
етештереүҙе
етештереүҙең
етештереүҙә
етештерә
етешһеҙлеге
етешһеҙлектәре
етеҙ
етеү
етеүе
еткергән
еткерелә
еткереп
еткерергә
еткереү
еткерә
еткән
еткәнсе
еткәс
етмеш
етмәгән
етмәи
етмәү
етмәһә
етов
етте
еттәр
етһә
етә
етәкләгән
етәкләи
етәксе
етәкселеге
етәкселеген
етәкселегендә
етәкселегендәге
етәкселегенең
етәкселегенә
етәкселек
етәкселәр
етәкселәре
етәкселәрен
етәкселәренең
етәксеһе
етәләр
етәр
еф
ефете
ефим
ефимов
ефимович
ефреи
ефремов
ефрон
ефрона
ефрондың
ех
ехзада
еш
ешбеҙ
ешенсә
ешле
ешлеге
ешлеген
ештәр
еще
еҙ
еҙем
ең
еңгән
еңгәндән
еңел
еңелгән
еңелгәндән
еңелеп
еңелерәк
еңелеү
еңелеүгә
еңелеүе
еңелсә
еңелә
еңеләи
еңеп
еңергә
еңеү
еңеүгә
еңеүе
еңеүен
еңеүсе
еңеүселәр
еңеүселәре
еңеүсеһе
еңеүҙе
еңеүҙең
еңеүҙәр
еңеүҙәре
еңә
еҫ
еҫе
еҫле
еү
еүгә
еүе
еүен
еүенә
еүеш
еүсе
еүселәр
еүсеһе
еүҙәр
еүҙәре
еүҙәрен
еһе
еһенең
ж
жак
жан
жанда
жандар
жандың
жанеи
жанна
жанр
жанры
жанрына
жанрында
жанрҙар
жанрҙары
жданов
же
железная
железнодорожныи
железнои
железныи
жена
женева
женевала
женская
женскии
женщин
женщина
женщинах
женщины
жерар
жертв
жертвы
жзл
жи
живая
живе
живого
живои
живописи
живопись
животные
животных
жизель
жизни
жизнь
жил
жирмунскии
жителеи
жители
житие
житомир
жить
жмеринка
жная
жовтневое
жозеф
жорж
жуан
жуков
жукова
жуковскии
журавле
журавлев
журн
журнал
журнала
журналда
журналдар
журналдары
журналдарында
журналдарының
журналдарҙа
журналдың
журнале
журналист
журналистар
журналистары
журналистика
журналистики
журналистов
журналисы
журналы
журналын
журналына
журналында
журналының
жюль
жюри
жәлил
з
за
забаи
забастовка
заболевании
заведении
завод
завода
заводта
заводтар
заводтары
заводтарын
заводтарына
заводтарында
заводтарының
заводты
заводтың
заводы
заводын
заводына
заводынан
заводында
заводының
заводҡа
завтра
загадка
загадки
загидуллин
заглавие
заговор
загородная
загреб
задаваться
задае
задание
заданиеларын
заданиеһын
задать
задач
задача
задачи
заде
заж
заждар
заи
заказ
заказдар
заказнигы
заказник
заказы
заки
закир
закиров
закирович
закон
закона
закондар
закондары
закондарын
закондарына
закондарға
закондарҙы
законды
закондың
законлы
законов
законодательство
закономерности
законы
законын
законына
законында
законға
законһыҙ
зал
залда
залдары
зале
залесскии
залы
залына
залында
залының
зальцбург
заман
замана
заманда
замандан
замандарҙа
замандарҙан
замандаш
замандаштары
замандаштарының
замандашы
замандағы
замандың
заманса
заманы
заманына
заманынан
заманында
заманының
заманға
заметки
замечательных
замогы
замок
замокты
замоктың
замятин
занзибар
зао
зап
запад
запада
западе
западная
западного
западнои
западныи
западных
запас
запаста
запастары
запастағы
запасы
запасын
запасҡа
записи
записка
записки
запись
заповедник
заповедника
запорожье
зарар
зарарлаи
зарарланыуы
зарарланған
зарарлы
зарегистрированных
заречная
зарипов
зарипова
зариф
зарубежнои
зарубежных
зарубин
зарур
зарурлығы
заря
зарядлы
заседании
заседания
заслуги
заслуженныи
зат
затем
затлы
заттар
заттарҙың
заттың
заты
зауралье
зауральские
зауралья
зауряд
захар
захаров
захарова
захарович
зачетында
защита
защиту
защиты
заһир
заһит
заһиҙуллин
звание
званиеһы
званиеһын
званиеһында
звании
звания
зве
звезд
звезда
звезды
звено
звеноһы
здание
здании
здания
здесь
здоровье
здоровья
здравоохранения
здравствуи
зды
зе
зевс
зеи
зеландия
зеландияның
зеле
зеленая
земель
земле
земли
землю
земля
земство
земфира
зенит
зенштеи
зер
зеркало
зи
зигмунд
зилә
зима
зимбабве
зина
зинаида
зиннур
зиннуров
зиннәт
зиннәтле
зиновьев
зирәк
зифа
зия
златоуст
злобин
знак
знаки
знамени
знаменитые
знаменитых
знамя
знание
знании
знания
знать
значение
значении
значения
зо
зовая
зовка
зодиак
зои
золом
золота
золотая
золотница
золото
золотое
золотои
золотые
золушка
зона
зонала
зоналар
зоналары
зоналарында
зонаға
зонаһы
зонаһын
зонаһына
зонаһында
зонаһының
зонд
зоны
зоологии
зоология
зоопарк
зоопаркы
зоотехнигы
зоотехник
зори
зорин
зороастризм
зороастрии
зоя
зрахман
зрения
зубов
зубцов
зуево
зулла
зуллин
зуллина
зы
зыкина
зырянское
зыя
зыян
зыянлы
зыярат
зыяратта
зыяраты
зыяратына
зыяратында
зәи
зәки
зәкир
зәкиә
зәкәриә
зәкәт
зәғиф
зәңгәр
зәңгәрһыу
зөбәи
зөбәржәт
зөлфиә
зөлхизә
зөлҡәрнәи
зөләи
зөфәр
зөһрә
и
иа
иб
иблис
ибн
ибне
ибрагимов
ибраи
ибраһим
ибраһимов
ибсен
ив
ива
иван
ивана
ивангород
ивано
иванов
иванова
иванович
ивановича
ивановка
ивановна
иваново
ивановск
ивановскии
иваньков
иврит
иг
иген
игенде
игенсе
игенселек
игеҙәк
иглин
игль
игнатенко
игнатии
игнатьев
игнатьевич
игол
игоревич
игорь
игоря
игр
игра
игры
ид
ида
идара
идаралығы
идаралығын
идаралығына
идаралығында
идаралығының
идаралыҡ
идаралыҡтары
идаралыҡтың
идарасы
идарасыһы
идараһы
идараһының
иде
идеал
идеалы
идеаль
идеи
идентификатор
идентификациялау
идеологик
идеология
идеологияһы
идея
идеялар
идеялары
идеяларын
идеяны
идеяһы
идеяһын
идиш
иезуит
иезуиттар
иереи
иероглиф
иероглифтар
иероним
иерусалим
иж
ижад
ижади
ижады
ижадын
ижадына
ижадында
ижадының
ижадҡа
ижевск
ижек
ижеккә
ижекле
ижора
ижтимағи
из
изабелла
изборск
избран
избранное
избранные
изв
известия
известно
известные
известныи
известных
изге
изгелек
изгеләндерелгән
изгеләндерелә
изгеләндерә
изгеләр
изд
издание
издании
издания
издат
издатель
издательская
издательские
издательскии
издательства
издательство
изделиелар
изделиелары
измаи
измаил
изменении
изменения
изменениями
изменениях
измир
изобразительного
изобразительное
изобретение
изолят
израилгә
израилдең
израилдә
израиль
израиля
изучение
изучении
изучению
изучения
ии
иисус
ииял
ик
ике
икегә
икеле
икеләтә
икенсе
икенсегә
икенсел
икенселәр
икенселәре
икенсенең
икенсенән
икенсеһе
икенсеһен
икенсеһендә
икенсеһенә
икешәр
икеһе
икеһен
икеһенең
икмәге
икмәк
икмәкте
икона
иконалар
иконаһы
икән
икәне
икәнен
икәнлеге
икәнлеген
икәү
икәүһе
ил
илаи
илап
илаһ
илаһи
илаһы
илбаҫарҙары
илбаҫарҙарына
илбаҫарҙарынан
илгиз
илгә
илдар
илде
илдең
илдус
илдә
илдәге
илдән
илдәр
илдәргә
илдәре
илдәрен
илдәрендә
илдәрендәге
илдәренең
илдәренә
илдәренән
илдәрҙе
илдәрҙең
илдәрҙә
илдәрҙәге
илдәрҙән
иле
илебеҙ
илебеҙҙең
илек
илекәи
илен
илендә
иленең
иленә
иленән
илецк
илеш
или
илиада
илия
илл
илле
иллинои
иллирии
иллюстрация
иллюстрациялар
иллюстрированная
иллюстрированныи
илмән
илсе
илсекәи
илселеге
илселек
илселәр
илселәре
илсеғол
илсеһе
илткән
илтә
илшат
иль
ильгамов
ильдар
ильин
ильина
ильинична
ильич
ильича
ильиче
илья
ильяс
ильясов
ильясова
илһам
илһөи
иләү
им
имаи
имам
имамы
иман
иманғол
имашев
име
имеет
имеется
имен
имена
именем
имени
имение
имениеһы
имениеһында
именлеге
именлеген
именлек
именник
именно
имеш
имеҙеүселәр
ими
иммануил
иммигранттар
иммун
иммунитет
иммунология
имп
император
императора
императорскии
императорского
императорскои
императоры
императорға
императорҙар
императорҙары
императорҙың
императрица
императрицы
империи
империя
империяның
империяға
империяһы
империяһын
империяһына
империяһынан
империяһында
империяһындағы
империяһының
импорт
импровизатор
импульс
имре
имтихан
имтихандар
имя
имән
ин
инан
инвалид
инвалидтар
инвалиды
инвестиция
инвестициялар
инг
ингл
инглиз
инглиздәр
инглизсә
ингуш
ингушетия
ингән
ингәндә
ингәндән
ингәс
инде
индеецтар
индеи
индекс
индексы
индексылар
индергән
индергәне
индерелгән
индерелде
индерелмәгән
индерелә
индереп
индерергә
индереү
индереүгә
индереүе
индереүсе
индереүҙе
индермәи
индерҙе
индерә
индерәләр
индивидуаль
индии
индира
индия
индоевропеи
индонезии
индонезия
индонезияның
индрик
индуизм
индустриаль
индустрия
индустрияһы
ине
инек
инем
инеп
инер
инергә
инеш
инеше
инешенән
инештән
инеү
инеүгә
инеүе
инеүен
инеүенә
инеүсе
инженер
инженерия
инженерияһы
инженерлыҡ
инженеры
инженерҙар
инженерҙары
инжил
ини
инициатива
инициативаһы
инициаторы
инмәгән
инмәи
инна
инновацион
инновация
инновациялар
иннокентии
иностранная
иностраннои
иностранных
инспектор
инспекторы
инспекция
инспекцияһы
инстанция
институт
института
институте
институтта
институттар
институттары
институтты
институттың
институты
институтын
институтына
институтынан
институтында
институтының
институтҡа
инструктор
инструкторы
инструкция
инструмент
инструменталь
инструменттар
инструменттары
инструменты
инсульт
интеграл
интеграль
интеграция
интеллект
интеллектуаль
интеллигенция
интенсив
интер
интерактив
интервалында
интервенция
интервью
интервьюһында
интернат
интернаты
интернатында
интернационал
интернациональ
интернет
интернетта
интерфакс
интерфеи
интерьер
интерьеры
инфекцион
инфекция
инфляция
инфо
информ
информатика
информации
информацион
информационная
информационно
информационное
информационнои
информационные
информационныи
информация
информреклама
инфра
инфраструктура
инфраструктураһы
инфраҡыҙыл
инь
иня
иняи
инҡар
инҡилабы
инҡилап
инһә
инә
инәбеҙ
инәи
инәләр
инәһе
иоанн
иоанна
иоганн
ион
иордан
иордания
иосиф
иосифович
иоффе
иоһанн
ип
иптәш
иптәше
иптәштәре
ир
ираклии
иран
ирана
иранда
ирандың
иранға
ираҡ
ираҡта
ираҡтың
ире
ирегән
иреи
ирек
иреккә
ирекле
ирекмәндәр
иректән
ирен
иренең
иренә
иренән
иреп
иретелгән
иретеп
иретеү
иретмәһе
ирешеү
ирешкән
ирешә
иреү
ирина
ирке
иркен
иркенән
иркутск
ирланд
ирландия
ирле
иррациональ
иртыш
иртыштан
иртә
иртәгә
иртән
иртәнге
иртәнсәк
иртәрәк
иршат
ирҙәр
ирҙәрҙең
ирәкте
ирәмәл
ирәндек
ис
исаак
исаакович
исады
исаев
исем
исемгә
исемде
исемдең
исемдәге
исемдән
исемдәр
исемдәргә
исемдәре
исемдәрен
исемдәренең
исемдәрҙең
исеме
исемен
исемендә
исемендәге
исеменең
исеменә
исеменән
исемең
исемле
исемлеге
исемлеген
исемлегендә
исемлегенә
исемлегенән
исемлек
исемлеккә
исемлектә
исемләи
исемләнгән
исемләнә
исемһеҙ
исключении
искра
искусств
искусства
искусстве
искусство
искәндәр
искәндәриә
ислам
ислама
исламбаи
исламда
исламды
исламдың
исламов
исламскии
исламскои
исламға
исламғол
исландия
исмагилов
исмаил
исмәғил
исмәғилев
исмәғилева
исо
исп
испан
испандар
испании
испания
испанияла
испаниянан
испанияның
испанияға
исполнении
исполнилось
исполнитель
использована
использование
использованием
использования
испр
исправленное
исраил
иссл
исслед
исследование
исследовании
исследования
исследовательскии
ист
истанбул
истанбулда
истанбулға
истина
истины
исток
истоки
истоков
истории
историк
историко
историографии
историография
историческая
исторические
историческии
исторических
исторического
историческое
историческои
историческом
историю
история
источник
источниках
источники
источников
истребителдәр
истребитель
исхаков
исхаҡ
исхаҡов
исчислении
исҡужин
ит
итал
италии
италия
италияла
италиянан
италияның
италияға
итальян
итальяндар
итар
ите
итегеҙ
итек
ителгән
ителгәндән
ителгәндәр
ителгәс
ителде
ителеп
ителергә
ителеү
ителеүе
ителеүенсә
ителеүсе
ителмәгән
ителмәи
ителһә
ителә
ителәләр
итен
итенән
итеп
итер
итергә
итерлек
итешеү
итешеүе
итеү
итеүгә
итеүе
итеүен
итеүенең
итеүенсә
итеүенә
итеүсе
итеүселәр
итеүселәрҙең
итеүсеһе
итеүҙе
итеүҙең
итеүҙә
итеүҙән
иткес
иткән
иткәнгә
иткәндә
иткәндән
иткәндәр
иткәне
иткәс
итле
итмәгән
итмәи
итмәү
итогам
итогах
итоги
итогов
итте
иттеләр
иттем
итһә
итә
итәбеҙ
итәге
итәгендә
итәгенән
итәләр
итәм
итәсәк
иудаизм
ифрат
их
ихата
ихатала
ихаталар
ихатанан
ихатаға
ихатаһы
ихатаһында
ихлас
ихсан
ихсанов
ихтилал
ихтилалда
ихтилалдар
ихтилалдары
ихтилалдарын
ихтилалды
ихтилалдың
ихтилалсылар
ихтилалы
ихтилалын
ихтилалында
ихтилалға
ихтимал
ихтималлығы
ихтималлығын
ихтималлыҡ
ихтирам
ихтирамлы
ихтыяж
ихтыяждары
ихтыяждарын
ихтыяжы
ихтыяжын
ихтыяр
ихтыяры
ихтыярын
иш
ишан
ишара
ишбаев
ишбирҙе
ишбирҙин
ишбулатов
ишбулды
ише
ишеге
ишек
ишектәр
ишектәре
ишем
ишембаи
ишемғол
ишемғолов
ишетелә
ишетеп
ишетеү
ишеткән
ишеткәс
ишетә
ишеү
ишим
ишимбаи
ишимбая
ишкинин
ишкәкле
ишле
ишморат
ишморатов
ишморатова
ишмулла
ишмуратов
ишмырҙа
ишмырҙин
ишмөхәмәт
ишмөхәмәтов
иштван
иштуған
ишәи
ишәк
июлгә
июлдең
июлдә
июлдән
июле
июлендә
июлендәге
июленә
июленән
июль
июля
июнгә
июндә
июндән
июне
июнендә
июнендәге
июненә
июненән
июнь
июня
иғлан
иғтибар
иғтибарлы
иғтибары
иғтибарын
иғтибарға
иғтибарҙы
иғтибарһыҙ
иғәнә
иҙел
иҙелбаев
иҙелбаи
иҙеүкәи
иҙрис
иҙрисов
иҙән
иҙәнгә
иҙәне
иҡтисад
иҡтисади
иҡтисадсы
иҡтисадсыһы
иҡтисадта
иҡтисадты
иҡтисадтың
иҡтисады
иҡтисадын
иҡтисадына
иҡтисадында
иҡтисадының
иң
иңгән
иҫ
иҫбат
иҫбатлаи
иҫбатлана
иҫбатларға
иҫбатлау
иҫенә
иҫерек
иҫке
иҫкергән
иҫкесә
иҫкә
иҫкән
иҫкәрмә
иҫкәрмәләр
иҫкәртеү
иҫкәртә
иҫләи
иҫтә
иҫтәлеге
иҫтәлеген
иҫтәлегенә
иҫтәлек
иҫтәлекле
иҫтәлектәр
иҫтәлектәре
иҫәбе
иҫәбен
иҫәбендә
иҫәбенә
иҫәбенән
иҫән
иҫәнбаев
иҫәнбаи
иҫәнгилде
иҫәнғол
иҫәнғолов
иҫәп
иҫәпкә
иҫәпләгән
иҫәпләгәндә
иҫәпләи
иҫәпләнгән
иҫәпләнелә
иҫәпләнә
иҫәпләп
иҫәпләргә
иҫәпләү
иҫәпләүенсә
иҫәпләүҙәр
иҫәптә
иҫәптән
иҫәт
иһә
к
ка
кабель
кабинет
кабинеты
кабинетында
кабинетының
кабо
кавалер
кавалерах
кавалерии
кавалерия
кавалеры
кавалерҙары
кавказ
кавказа
кавказда
кавказдағы
кавказды
кавказдың
кавказе
кавказскии
кавказға
каган
каганович
кадастры
кадастрының
каддафи
кадет
кадеттар
кадр
кадров
кадрҙар
кадрҙары
кадрҙарын
кадрҙарҙы
каждыи
казагы
казак
казаки
казаков
казактар
казактары
казактарының
казактарҙың
казан
казани
казанка
казанская
казанскии
казанского
казанскои
казанцев
казань
казахскои
казахстан
казахстана
казахстане
казбек
казимир
казначеи
каи
как
какао
какие
какои
кал
кала
калашников
кале
калевала
календары
календарында
календарь
калии
калинин
калинина
калининград
калитва
калифорния
каллиграфия
кало
калуга
кальвин
кальции
кама
камаев
камал
камалетдин
камалетдинов
камалов
камалова
камбоджа
каменев
каменец
каменка
каменныи
каменск
каменскии
камень
камера
камерун
камил
камиллаштыра
камиллаштырыу
камиллаштырыуға
камиль
камни
камня
кампания
кампанияһы
кампанияһын
кампанияһында
камчатка
кан
канада
канадала
канаданың
канал
канала
каналдар
каналдары
каналды
каналдың
канализация
каналы
каналын
каналына
каналында
каналының
канар
канат
канд
кандидат
кандидата
кандидатлыҡ
кандидаттар
кандидаттары
кандидатураһын
кандидаты
кандинскии
канин
канн
кант
кантон
кантона
кантондан
кантондың
кантоны
кантонына
кантонында
кантонының
кантор
канцелярия
канцелярияһы
канцлер
канцлеры
капеллаһы
капельмеи
капитал
капитализм
капиталистик
капиталы
капиталь
капитан
капитаны
капитолии
каппадокия
каппель
капур
кар
кара
карабы
карабында
караваджо
караван
карагаи
карам
карамзин
карап
караптар
караптары
карателдәр
каратель
каргапольцев
кардинал
кардиология
карел
карелии
карелия
карен
кариб
карим
каримов
каринтия
карл
карла
карло
карлович
карлос
кармен
каролина
карп
карпат
карпенко
карпов
карс
карст
карт
карта
картала
карталар
карталары
карталарҙа
картах
картаға
картаһы
картаһын
картаһына
картаһында
карте
картина
картинала
картиналар
картиналары
картиналарын
картиналарында
картинаны
картинаның
картинах
картинаһы
картинаһын
картинаһында
картины
картли
картография
картотека
карточка
картуф
карты
картье
каруан
каруанһараи
карфаген
карьера
карьераһы
карьераһын
карьераһында
карьераһының
карьеры
кас
каса
каспаров
каспии
кастилия
кастро
кат
катав
катаев
катаи
каталан
катализ
каталог
каталоге
каталогы
каталогында
катар
катарина
катастрофа
категории
категория
категориялар
категориялары
категориялы
категорияға
категорияһы
категорияһына
категорияһында
катерина
католик
католиктар
католицизм
катунь
катынь
катя
каунас
кауфман
каучук
кафе
кафедра
кафедрала
кафедралар
кафедралары
кафедраль
кафедраһы
кафедраһын
кафедраһына
кафедраһында
кафедраһының
кафедры
качества
качестве
кашмир
каяани
каһы
кб
кв
квадрат
квалификация
квалификациялы
квалификацияһы
квалификацияһын
квант
квартал
кварталы
кварталында
квартет
кварц
квебек
квт
кг
кгб
ке
кеи
келдыш
келдыша
кельт
келәи
келәм
келәт
кем
кембридж
кемгә
кемде
кемдер
кемдең
кемдәр
кемерово
кен
кендек
кения
кеннеди
кенә
кенәз
кенәздең
кенәздәр
кенәздәре
кенәздәренең
кенәзе
кенәзлеге
кенәзлегендә
кенәзлегенең
кенәзлегенә
кенәзлек
кенәзлектәре
кеплер
кер
керамик
керамика
керамикаһы
кергән
керенскии
кереп
керетеп
кереткән
керетмәи
керетә
керчь
керҙәш
керҙәшлек
керҙәштәр
керә
кесаҙна
кесе
кесерткән
кесеһе
кескенә
кескәи
кеть
кечуа
кеше
кешегә
кешелек
кешелеккә
кешелектең
кешелә
кешеләр
кешеләргә
кешеләре
кешеләрен
кешеләренең
кешеләренә
кешеләренән
кешеләрҙе
кешеләрҙең
кешеләрҙә
кешеләрҙән
кешене
кешенең
кешенән
кешеһе
кешеһен
кешеһенең
кешеһенә
кеҫә
кеҫәртке
кеүек
ки
кибернетика
кибет
кибете
кибә
киев
киеве
киевская
киевскии
киевта
киевтан
киевты
киевтың
киевҡа
кижи
кизе
кизляр
кии
кикбоксинг
кикя
кил
килгән
килгәнгә
килгәндер
килгәндә
килгәндән
килгәндәр
килгәнен
килгәнсе
килгәс
килде
килдеи
килдем
килдеғол
килем
килеме
килемле
килен
килене
килеп
килер
килергә
килеш
килешеп
килешеү
килешеүгә
килешеүе
килешеүен
килешеүенә
килешеүҙе
килешеүҙең
килешеүҙәр
килешеүҙәре
килешмәи
килештә
килешә
килеү
килеүгә
килеүе
килеүен
килеүенең
килеүенә
килеүсе
килеүселәр
килеүселәрҙе
килмәгән
килмәи
килограмм
килограмға
километр
километрлыҡ
километрға
километрҙа
километрҙан
килтергән
килтерелгән
килтерелә
килтереп
килтерер
килтерергә
килтереү
килтереүе
килтереүсе
килтермәи
килтерҙе
килтерә
килтерәләр
киль
килһә
килә
киләләр
киләсәге
киләсәген
киләсәк
киләсәккә
киләсәктә
киләһе
ким
кимереүселәр
кимәл
кимәлгә
кимәлдә
кимәлдәге
кимәле
кимәлен
кимәлендә
кимәлендәге
кимәленең
кимәленә
кимәленән
кимәлле
кин
кина
кинг
киндер
кинель
кинематограф
кинематографистар
кинематография
кинетик
кини
кино
киноакте
кинола
кинорежиссе
киностудия
киностудияһы
киностудияһында
кинотеатр
кинотеатры
кинофестивале
кинофестивалендә
кинофестиваленең
кинофестиваль
киноға
киноһы
кинәт
киото
кипкән
кипр
киптерелгән
киптереү
кир
кирбес
кирбестән
кире
кирегә
киреһенсә
кирилл
кирилла
кириллица
кириллов
кириллова
кириллович
кирилов
киричек
киров
кирова
кировоград
кирәев
кирәи
кис
кисекмәҫтән
киселе
кисен
кисеп
кисергән
кисереп
кисерә
кисеү
кисеүе
киске
кискә
кислород
кислота
кислоталар
кислоталары
кислотаһы
кистәрен
кисә
кисәләр
кисәһе
кит
китаб
китабы
китабын
китабына
китабынан
китабында
китабының
китае
китаи
китап
китапта
китаптан
китаптар
китаптары
китаптарын
китаптарында
китаптарының
китаптарҙа
китаптарҙы
китаптарҙың
китапты
китаптың
китапхана
китапханала
китапханалар
китапхананың
китапханасы
китапханаға
китапханаһы
китапханаһына
китапханаһында
китапханаһының
китапҡа
китая
кителгән
китеп
китер
китергә
китеү
китеүе
китеүен
китеүенә
киткес
киткән
киткәнгә
киткәндә
киткәндән
киткәндәр
киткәнсе
киткәс
китмәи
китмәле
китте
киттем
китһә
китә
китәләр
кихот
киш
кишер
кишине
кишинев
кишиневта
киі
киң
киңерәк
киңлеге
киңлегендә
киңлегенә
киңлек
киңлектең
киңлектә
киңлектәге
киңлектәрҙә
киңәи
киҫек
киҫелгән
киҫелеше
киҫелешендә
киҫеп
киҫешкән
киҫешә
киҫеү
киҫкен
киҫкенләшә
киҫә
киҫәге
киҫәк
киҫәксә
киҫәксәләр
киҫәксәләре
киҫәксәләрҙең
киҫәктәргә
киҫәктәре
кл
клавдии
клавдия
кладбище
клаи
клара
кларк
класлы
класс
класса
классигы
классик
классика
классикаһы
классики
классификация
классификациялау
классификацияһы
классицизм
классическая
классическои
классов
классы
класта
кластан
кластар
кластары
кластарҙа
класты
класы
класын
класына
класында
класҡа
клеи
клеопатра
климат
климатик
климатлы
климаттың
климаты
климатҡа
климент
климов
клин
клиник
клиника
клиникаһы
клиникаһында
клиническая
клод
клоун
клуб
клуба
клубта
клубтар
клубтары
клубтың
клубы
клубын
клубына
клубында
клубының
ключ
клязьма
км
кмк
кн
книг
книга
книгах
книге
книги
книгу
книжка
книжное
книжныи
кнр
княгиня
князь
князя
ко
коалиция
коалицияһы
кобальт
ков
кова
ковале
ковалев
ковалевская
ковалевскии
коваленко
ковров
ковскии
ковского
коган
когда
когнитив
кого
код
кодекс
кодексы
кодексының
кодлары
кодтар
коды
кожевников
козлов
козлова
козловскии
кои
коканд
кокос
кол
кола
колбаса
колва
колесников
колесо
колеялы
колизеи
количество
коллегалары
коллегии
коллегия
коллегияһы
коллегияһының
колледж
колледжы
колледжын
колледжына
колледжында
колледжының
коллежы
коллектив
коллективлаштырыу
коллективтар
коллективтары
коллективы
коллекции
коллекция
коллекциялары
коллекцияһы
коллекцияһын
коллекцияһында
колмогоров
коломна
колониаль
колония
колониялар
колониялары
колонияһы
колонна
колонналар
колонналары
колонналы
колоннаһы
колос
колумб
колумбия
колхоз
колхозда
колхоздар
колхоздың
колхозсы
колхозсылар
колхозы
колхозына
колхозында
колхозының
колхозға
колчак
колчактың
колыма
кольцов
ком
кома
команда
командала
командалар
командалары
командаларының
командалығында
командалығындағы
командалыҡ
команданан
команданы
команданың
командаға
командаһы
командаһын
командаһына
командаһынан
командаһында
командаһының
командир
командировка
командировкаға
командиры
командирының
командирҙар
командирҙары
командование
командованиеның
командованиеһы
командованиеһының
командующии
команды
комаров
комарова
комбаи
комбинат
комбинаты
комбинатында
комбинатының
комбриг
комедия
комедияһы
комедияһында
комендант
коменданты
комета
коми
комик
коминтерн
комиссар
комиссариаты
комиссариатында
комиссариатының
комиссаров
комиссары
комиссарҙары
комиссии
комиссия
комиссиялары
комиссияның
комиссияһы
комиссияһын
комиссияһына
комиссияһында
комиссияһының
комитет
комитета
комитеттар
комитеттары
комитеттың
комитеты
комитетын
комитетына
комитетында
комитетының
комков
комм
коммент
комментарии
комментаторы
коммерсантъ
коммерция
коммерциялы
коммерцияға
коммуна
коммунала
коммуналь
коммунаның
коммунар
коммунаһы
коммунаһының
коммунизм
коммунизма
коммуникация
коммуникациялар
коммунист
коммунистар
коммунистары
коммунистик
коммунистическая
коммунистическои
коммутатив
компакт
компании
компания
компаниялар
компаниялары
компанияларының
компанияларҙың
компанияның
компанияға
компанияһы
компанияһын
компанияһына
компанияһында
компанияһының
компартияһы
компенсация
комплекс
комплекса
комплекслы
комплекстары
комплекстың
комплексы
комплексын
комплексына
комплексында
комплексының
комплект
композитор
композитора
композиторы
композиторҙар
композиторҙары
композиторҙарының
композиторҙарҙың
композиторҙың
композицион
композиция
композициялар
композицияһы
композицияһын
компонент
компоненттар
компоненттары
компоненты
компьютер
компьютерҙар
комрат
комсомол
комсомолец
комсомолы
комсомолының
комсомольск
комсомольская
комуч
кон
конарев
конвенция
конвенцияһы
конвои
конго
конгресс
конгресса
конгресы
конгресында
конда
конденсатор
конденсаторҙар
кондитер
кондома
кондратьев
конец
кони
коним
конкрет
конкуренция
конкурс
конкурса
конкурста
конкурстар
конкурстары
конкурстарында
конкурстарҙа
конкурстың
конкурсы
конкурсында
конкурсының
коновалов
кононенко
кононов
конрад
консерватив
консерватория
консерваторияһы
консерваторияһын
консерваторияһына
консерваторияһында
консерваторияһының
константин
константина
константинов
константинович
константиновна
константинополгә
константинополде
константинополдә
константинополь
конституции
конституцион
конституция
конституцияла
конституцияны
конституцияның
конституцияға
конституцияһы
конституцияһын
конституцияһына
конституцияһында
конституцияһының
конструктив
конструктор
конструкторлыҡ
конструкторы
конструкторҙар
конструкции
конструкция
конструкциялар
конструкциялары
конструкцияһы
консул
консулы
консультант
консультанты
консультатив
консультация
консультациялар
контакт
контеи
контексте
континент
континенталь
континентель
контораһы
контораһында
контр
контракт
контракты
контрактҡа
контролде
контролдә
контроле
контролендә
контроленә
контроллек
контроль
контрразведка
контрреволюцион
контрһөжүм
контузия
конур
конус
конф
конфедерацияһы
конференции
конференция
конференцияла
конференциялар
конференцияларҙа
конференцияһы
конференцияһында
конфликт
конфликттар
конфликты
конфликтҡа
конфуции
конца
конце
концентрацион
концентрацияһы
концепции
концепция
концепцияһы
концепцияһын
концерт
концертмеи
концертта
концерттар
концерттары
концерттарҙа
концерты
концертында
конькиҙа
конья
кооператив
кооперативы
координаталар
координаталары
координаттары
координация
координациялау
коп
копеи
копенгаген
коперник
копия
кор
корабль
коран
корбюзье
кореи
корела
коренных
корея
кореяла
кореяның
коридор
коринф
корнеи
корни
корнилов
королдең
королдәре
короле
королев
королева
королеваһы
королевского
короллеге
короллегенең
короллегенә
короллек
короллектең
король
короля
корпоратив
корпорация
корпорацияһы
корпус
корпустары
корпустың
корпусы
корпусын
корпусына
корпусында
корпусының
корр
корреспондент
корреспонденты
коррупция
корсаков
кортес
коряков
коса
космик
космодемьянская
космонавт
космонавтар
космонавтика
космос
косово
косовоның
коста
косте
кострома
костырченко
кость
костюм
костюмдар
косьва
кот
котельнич
которая
которого
которое
которои
котором
которую
которые
которыи
которым
которых
кофе
кошелев
кошице
коэффициенты
кп
кпрф
кпсс
кр
кравец
кравченко
крае
краеведение
краеведческая
краеведческии
краеведческое
краи
краков
краковта
красавица
красивая
красильников
красная
красноармеи
краснов
красногвардеи
красного
краснодар
краснодарского
красное
краснои
краснокама
красноусол
красноусольскии
красноуфимск
красноярск
красноярского
красные
красныи
кратер
кратеры
краткая
краткие
краткии
краткое
краузе
крахмал
краю
края
кре
кредит
креи
кремле
кремль
кремля
кремнии
крепости
крепостнои
крепость
крест
креста
креститель
крестьян
крестьянская
крестьянскои
кривои
кризис
кризисы
крик
крикет
крис
кристалдар
кристалл
кристаллик
кристи
кристиан
кристина
кристоф
кристофер
крит
критерии
критика
кришна
крови
кровь
крокодил
кроме
кронштадт
кропаче
кропоткин
кросс
кротов
круг
кругосвет
круковскии
крупнеи
крупская
крылов
крылья
крым
крыма
крымскии
крыму
крюков
крәҫтиән
крәҫтиәндәр
крәҫтиәндәргә
крәҫтиәндәре
крәҫтиәндәрҙе
крәҫтиәндәрҙең
крәҫтиәне
ксения
кт
кто
ку
куб
куба
кубала
кубани
кубань
кубаға
кубен
кубогы
кубогын
кубогына
кубогында
кубогының
кубок
кубометр
кувандык
кувандыкскии
кувандыкского
кувеи
куда
кудрявцев
кузеев
кузнецк
кузнецов
кузнецова
кузьма
кузьмин
кузьмина
кузьмич
куи
кук
кукуруз
кулак
кулактар
кулактарҙы
кулбахтин
куле
куликов
куль
культ
культур
культура
культуралар
культуралары
культураларын
культураларының
культуралы
культураһы
культуре
культурная
культурно
культурного
культурное
культурнои
культурные
культурныи
культурных
культурология
культуры
культы
кульшарипов
кума
кумертау
кумиры
кун
куньлунь
кура
курган
курганскои
курд
курдтар
курорт
курорты
курс
курса
курсанттар
курск
курста
курстар
курстары
курстарын
курстарына
курстарында
курстарҙа
курстарҙы
курсты
курсы
курсын
курсына
курсында
курт
курултаи
курултая
курчатов
курьер
кусимова
кусто
кутаиси
кутузов
кутулук
кухня
кучково
кушнаренко
кхдр
кхл
кхмерҙар
кы
кызыл
кын
кыпа
кыҙҙар
кэрролл
кэтрин
кюри
күбе
күберек
күберәге
күберәген
күберәк
күбеһе
күбеһен
күбеһендә
күбеһенең
күбеһенсә
күбәи
күбәләк
күбәләктәр
күвеи
күгәрсен
күгәрсендәр
күк
күккә
күкрәк
күкрәккә
күкрәктең
күктә
күктән
күкһел
күкәи
күл
күлгә
күлде
күлдең
күлдә
күлдәге
күлдәк
күлдән
күлдәр
күлдәре
күлдәрҙең
күлдәрҙә
күле
күлен
күлендә
күленең
күленә
күленән
күләгә
күләм
күләмдә
күләмдәге
күләме
күләмен
күләмендә
күләмендәге
күләменең
күләменә
күләмле
күмелгән
күмер
күмертау
күмәк
күмәклеге
күмәклеген
күмәклегендә
күмәклегенең
күмәклек
күмәклектең
күмәклектәр
күмәкләп
күмәкләшеп
күн
күндерә
күнегеүҙәр
күнекмә
күнекмәләр
күп
күпбыуын
күпбыуындар
күпбәи
күпер
күпергә
күпере
күперҙе
күперҙең
күперҙәр
күпкә
күплеге
күплек
күпләп
күпме
күпмелер
күпмөи
күпселеге
күпселеген
күпселегендә
күпселек
күпселекте
күпселектә
күптән
күптәр
күптәре
күргән
күргәндәр
күргәс
күргәҙмә
күргәҙмәгә
күргәҙмәлә
күргәҙмәләр
күргәҙмәләре
күргәҙмәләрендә
күргәҙмәләрҙә
күргәҙмәһе
күргәҙмәһен
күргәҙмәһендә
күргәҙмәһенең
күрелә
күрем
күренгән
күренекле
күренеп
күренеш
күренеше
күренешен
күренешендә
күренешендәге
күренешкә
күренеште
күренештең
күренештә
күренештәр
күренештәре
күренештәрен
күренештәрҙе
күренештәрҙең
күренеүенсә
күренмәгән
күренмәи
күренмәле
күренә
күреп
күрер
күрергә
күреү
күреүе
күреүсе
күреүселәр
күркәм
күрмәгән
күрмәи
күрпәс
күрше
күршеләре
күршеһе
күрҙе
күрҙем
күрһәтелгән
күрһәтелмәгән
күрһәтелмәи
күрһәтелә
күрһәтеп
күрһәтергә
күрһәтеү
күрһәтеүгә
күрһәтеүе
күрһәтеүенсә
күрһәтеүсе
күрһәтеүҙе
күрһәткес
күрһәткесе
күрһәткесле
күрһәткестәр
күрһәткестәргә
күрһәткестәре
күрһәткән
күрһәткәне
күрһәтмә
күрһәтмәи
күрһәтмәләр
күрһәтмәләре
күрһәтмәһе
күрһәтте
күрһәтә
күрһәтәләр
күрә
күрәләр
күрән
күрәһең
күс
күсеи
күсем
күсемһеҙ
күсенгән
күсенеп
күсенеү
күсенеүе
күсенә
күсенәләр
күсеп
күсергә
күсергән
күсерелгән
күсерелә
күсереп
күсерергә
күсереү
күсереүҙе
күсермә
күсермәләре
күсермәһе
күсермәһен
күсерә
күсерәләр
күсеш
күсеү
күсеүе
күсеүен
күсеүҙе
күсимов
күсимова
күскенсе
күскенселәр
күскенселәре
күскенселәрҙең
күскән
күскәндә
күскәндән
күскәс
күсмә
күсте
күсә
күсәләр
күсәр
күсәрбаи
күсәре
күтәргән
күтәрелгән
күтәрелеп
күтәрелергә
күтәрелеш
күтәрелеше
күтәрелеү
күтәрелеүе
күтәрелә
күтәреп
күтәрергә
күтәреү
күтәреүгә
күтәреүсе
күтәреүселәр
күтәреүселәргә
күтәреүселәрҙең
күтәрә
күҙ
күҙаллаи
күҙаллана
күҙаллау
күҙаллауҙар
күҙгә
күҙе
күҙен
күҙенә
күҙле
күҙлегенән
күҙлектән
күҙҙең
күҙҙә
күҙҙәр
күҙҙәре
күҙҙәрен
күҙәнәк
күҙәнәкле
күҙәнәктең
күҙәнәктә
күҙәнәктәр
күҙәнәктәре
күҙәнәктәрендә
күҙәнәктәренең
күҙәнәктәрҙең
күҙәтелгән
күҙәтелмәи
күҙәтелә
күҙәтеп
күҙәтергә
күҙәтеү
күҙәтеүе
күҙәтеүсе
күҙәтеүҙәр
күҙәткән
күҙәтә
күңел
күңелдән
күңеле
күңелен
күңелендә
күңеленә
күңелле
күңелһеҙ
кә
кәбеҫтә
кәбир
кәбиров
кәбисә
кәбән
кәзә
кәзәһе
кәи
кәкере
кәкре
кәкүк
кәл
кәлгә
кәлде
кәлдең
кәлдәге
кәлдәр
кәлдәре
кәле
кәлен
кәленең
кәлимулла
кәлимуллин
кәләш
кәләше
кәм
кәмал
кәмегән
кәмеи
кәмендә
кәмерәк
кәметелә
кәметергә
кәметеү
кәметеүгә
кәметә
кәмеү
кәмеүе
кәмеүенә
кәмә
кәмәлек
кәмәлә
кәмәләр
кәмәләре
кәмәһе
кәрим
кәримдең
кәримов
кәримова
кәрлә
кәрниз
кәртә
кәртәле
кәртәләп
кәрәк
кәрәкле
кәрәклеге
кәрәклеген
кәрәкмәгән
кәрәкмәи
кәрәсин
кәрәҙ
кәсебе
кәсеп
кәсептәре
кәсер
кәсерҙәр
кәшәнә
кәшәнәһе
кәңәш
кәңәше
кәңәшмә
кәңәшмәлә
кәңәшмәһе
кәңәшмәһендә
кәңәшсе
кәңәшсеһе
кәңәштәр
кәҫле
кәүҙә
кәүҙәле
кәүҙәләндергән
кәүҙәләндерә
кәүҙәләнеше
кәүҙәһе
кәүҙәһен
кәүҙәһенең
көи
көкөрт
көкөртлө
көл
көлкө
көлһыу
көлә
көлө
көлөп
көмбәҙ
көмбәҙе
көмбәҙле
көмлө
көмөш
көмөштән
көн
көнбаи
көнбағыш
көнбыи
көнгә
көндә
көндәлек
көндән
көндәр
көндәргә
көндәре
көндәрен
көндәрендә
көндәренә
көндәренән
көндәрҙә
көндө
көндөҙ
көндөҙгө
көндөң
көнкүреш
көнкүреше
көнкүрешен
көнкүрештә
көнлөк
көнсығыш
көнсығышта
көнсығыштан
көнсығыштараҡ
көнсығыштағы
көнсығышты
көнсығыштың
көнсығышы
көнсығышынан
көнсығышында
көнсығышындағы
көнсығышҡа
көньяк
көньяғы
көньяғына
көньяғында
көньяғындағы
көньяҡ
көньяҡта
көньяҡтан
көньяҡтараҡ
көньяҡтағы
көньяҡҡа
көньяҡҡараҡ
көнүҙәк
көнө
көнөн
көнөндә
көнөнә
көнөнән
көпләнгән
көпшә
көпшәле
көрсөгө
көрсөк
көрсөккә
көртмәле
көршәк
көрән
көрәнһыу
көрәш
көрәше
көрәшен
көрәшергә
көрәшеү
көрәшеүсе
көрәшкә
көрәшкән
көрәшсе
көрәште
көрәштең
көрәштә
көрәштән
көрәштәше
көрәшә
көс
көскә
көсләп
көслө
көслөрәк
көстәр
көстәргә
көстәре
көстәрен
көстәрендә
көстәренең
көстәренә
көстәрҙе
көстәрҙең
көсһөҙ
көсһөҙләнгән
көсһөҙләнә
көсәи
көсө
көсөк
көсөн
көсөнә
көсөргәнеш
көсөргәнешле
көткән
көтмәгәндә
көтә
көтәләр
көтөлгән
көтөлмәгән
көтөлә
көтөп
көтөргә
көтөү
көтөүлек
көтөүлектәр
көтөүсе
көҙ
көҙгә
көҙгө
көҙгөһө
көҙәи
көҙән
көҙөн
көҙөндә
көҙөнә
көҙөнән
көңгөр
көҫәпҡол
л
ла
лаба
лабиринт
лаборант
лаборатор
лаборатория
лабораторияһы
лабораторияһын
лабораторияһында
лабораторияһының
лава
лаваш
лавр
лаврентии
лаврентьев
лавров
лаврова
лагере
лагеры
лагерына
лагерында
лагерь
лагерға
лагерҙа
лагерҙар
лагерҙары
лада
ладога
лазарев
лазарева
лазарь
лазер
лаи
лак
лалы
лама
ламаи
ламалар
лана
ландау
ландшафт
ландшафты
ланды
ланка
ланма
ланылған
ланып
ланырға
ланыу
лань
ланған
лао
лаос
лап
лар
лариса
ларға
лас
ласло
лат
латвии
латвия
латвияла
латвияның
латин
латиница
латинса
латинскии
латип
латипов
латыпов
латыш
латыштар
лау
лауреат
лауреаттары
лауреаты
лаусылар
лаусыларҙың
лауы
лауға
лауҙа
лауҙар
лауҙары
лауҙарында
лауҙарҙа
лаштырылған
лаштырыу
лая
лаған
лағанда
лағандар
лағы
лағыр
лаҡлы
лаһы
лгу
лдар
ле
лебедев
лебедева
лебединое
лебединскии
лебедь
лев
леви
левин
левинсон
левитан
левыи
легаль
легар
легенда
легендалар
легендалары
легендар
легендаға
легендаһы
легенды
легион
леди
леи
лек
лексик
лексика
лексикаһы
лексикон
лектор
лекуре
лекции
лекция
лекциялар
лелек
лемье
лен
лена
ленд
лениздат
ленин
ленина
ленингр
ленинград
ленинграда
ленинградская
ленинградских
ленинградского
ленинградское
ленинградскои
ленинградта
ленинградтан
ленинградты
ленинградтың
ленинградҡа
лениндың
ленинец
ленинизм
лениногорск
ленинскии
ленинское
ленинсы
ленинға
ленскии
лента
лентапедияла
лео
леон
леонард
леонардо
леонид
леонидович
леонидовна
леонов
леонтьев
леонтьевич
леопольд
лепе
лер
лермонтов
лес
леса
лесгафт
лесная
леснои
лессинг
леся
лет
летие
летию
летия
летнии
лето
летописи
летопись
летчик
лечение
лечении
лечения
ли
либераль
либкнехт
либо
либретто
либреттоһы
ливан
ливанда
ливии
ливия
ливияла
ливияның
ливон
лига
лигала
лиганың
лигаға
лигаһы
лигаһына
лигаһында
лигаһының
лиги
лидер
лидеры
лидерҙары
лидерҙарының
лидия
лиза
лии
лилия
лилиә
лимон
лин
лина
лингвист
лингвистик
лингвистика
лингвистическии
линдер
линеи
линии
линия
линиялары
линияһы
линияһын
линияһында
линкольн
линнеи
линус
лион
липецк
лира
лирик
лирика
лист
листок
листьев
лит
литва
литвала
литвалар
литваның
литвинов
литвы
литература
литературе
литературная
литературно
литературного
литературное
литературнои
литературные
литературныи
литературы
литии
литр
лифт
лихтенштеи
лиц
лица
лицах
лицеи
лицензии
лицензия
лицо
личная
личности
личность
личныи
личных
лишаи
лишь
лия
лка
лкам
ллои
ло
лобачевскии
лов
лова
лович
ловка
ловна
лово
ловскии
лог
логарифм
логик
логика
логинов
логос
лозанна
лои
лок
локаль
локк
локо
локомотив
ломоносов
ломоносова
лонг
лондон
лондонда
лондондағы
лондондың
лондонға
лопатин
лор
лорд
лоренц
лоренцо
лос
лотос
лотфулла
лоуренс
лошади
лошадь
лоҡман
лоҡманов
лс
лу
луга
луганск
луговая
луи
луиджи
луиза
луис
лук
лука
лукашенко
луки
лукои
лукоморье
лукьянов
луна
луначарскии
луцк
луч
лучшая
лучше
лучшие
лучшии
лучших
лы
лылар
лылығы
лыраҡ
лысенко
лыч
лығы
лығын
лығына
лыҡ
лыҡтар
лыҡтары
лыҡтарын
лыҡты
лыҡҡа
ль
льва
львов
львович
львовна
львовта
львів
льеж
льн
льюис
лю
любви
любителеи
любичев
люблин
люблю
любляна
любов
любовь
людвиг
людеи
люди
людмила
людовик
людях
люк
люксембург
лютер
лютеран
лютерандар
ля
лә
ләгән
ләи
ләкин
ләлә
ләм
ләмдәр
ләмле
ләмәҙ
ләмәҙтамаҡ
лән
ләнгән
ләнде
ләндергән
ләндерелгән
ләндерелә
ләндереп
ләндерергә
ләндереү
ләндерә
ләне
ләнелә
ләнеп
ләнергә
ләнеш
ләнеше
ләнешен
ләнешенең
ләнешенә
ләнешкә
ләнешле
ләнеште
ләнештә
ләнештәр
ләнештәре
ләнештәрен
ләнештәрҙе
ләнешә
ләнеү
ләнеүе
ләнмәгән
ләнә
ләнәгә
ләнәләр
ләнәнең
ләнәһе
ләнәһенә
ләп
ләр
ләргә
ләш
ләше
ләшендә
ләшеп
ләшергә
ләшеү
ләшеүселәр
ләшеүҙәр
ләшеүҙәрҙе
ләшеүҙәрҙә
ләшкән
ләштә
ләштәре
ләшә
ләшәләр
ләү
ләүгә
ләүе
ләүенсә
ләүсе
ләүҙә
ләә
лө
лөгән
м
ма
мавзолеи
маврикии
мавродин
магадан
магазин
магазиндар
магазины
магеллан
магистр
магистрале
магистраль
магистратура
магистры
магма
магнии
магнит
магнитлы
магнитогорск
магнитогорскии
магнитогорскиҙың
магнус
магомаев
мадам
мадонна
мадрид
мадридта
мадьяр
мадьярса
мажаралары
мажаралы
мажита
мажитов
мажор
мазепа
мазы
мазһар
маи
мак
макао
макаренко
макаров
макарова
макбет
макграт
македон
македония
македонияның
македонскии
макиавелли
макки
макс
максвелл
максим
максима
максималь
максимилиан
максимов
максимова
максимович
максимовна
максимум
макскии
мал
малаи
малакка
маланған
малар
малахов
малая
малаяҙ
малдар
малдары
малдарын
малды
малдың
малевич
маленков
маленькии
малер
мали
малик
маликов
малиновскии
малка
мало
малои
малонистогорская
малсы
малсылыҡ
малсылыҡта
малсыһы
малы
малые
малыи
малын
малых
малышев
мальта
мальцев
мальчик
малға
мама
мамыҡ
ман
манапов
манара
манаралы
манараның
манараһы
манатов
манга
мандат
мандатлы
мане
манифест
манн
маннапов
манов
манова
манси
мансии
мансур
мансуров
мануфактура
мануэль
манчестер
маныч
мань
маньчжур
маньчжурия
мао
мар
мара
марат
марафон
марганец
маргарет
маргарита
маре
мари
марианна
марии
марина
марио
мариуполь
мария
марияның
мариҙар
марк
марка
маркалары
маркалы
маркаһы
маркетинг
маркиз
маркина
марко
марков
маркова
маркович
маркос
маркс
маркса
марксизм
марксистик
маркус
марлен
марокко
марс
марсель
март
марта
мартен
мартин
мартина
мартта
марты
мартына
мартынан
мартында
мартындағы
мартыненко
мартынов
мартҡа
марфа
марш
маршал
маршала
маршалл
маршалы
маршрут
маршруттар
маршруттары
маршруты
маршы
мас
маска
маскарад
маслов
масов
масс
масса
массалары
массаларының
массауи
массачусетс
массаһы
массаһын
массаһының
массив
массивтары
массивы
мастер
мастера
мастеры
масштаб
масштаблы
мат
маташа
маташалар
маташыу
маташҡан
матбуғат
матбуғатта
матбуғаты
матбуғатында
матвеев
матвеева
матвеевич
матвеи
матди
матдә
матдәләр
матдәләргә
матдәләре
матдәләрҙе
матдәләрҙең
матдәләрҙән
матдәнең
матем
математигы
математик
математика
математикала
математиканы
математиканың
математикаһы
математике
математики
математиктар
математическая
математические
математическии
математических
математического
математическое
математическои
матери
материал
материалам
материалах
материалдар
материалдары
материалдарын
материалдарына
материалдарында
материалдарҙан
материалдарҙы
материалдарҙың
материалды
материализм
материалов
материалы
материаль
материальнои
материк
материя
матерь
матисс
матраи
матрица
матрос
матросов
матур
матурлығы
матурлығын
матурлыҡ
матч
матчта
матчы
матчында
маты
мать
матьяш
матюшин
матәм
мау
мауыға
мауығып
мауыҡтырғыс
мауыҡҡан
мах
махачкала
махсус
махсуслаша
махсуслаштырылған
махсуслашҡан
маша
машина
машиналар
машиналары
машинаның
машинаһы
машинаһын
машинист
машинисы
машиностроение
машины
мая
маяк
маяковскии
маяҡ
мағазов
маған
мағы
маҡ
маҡар
маҡсат
маҡсатлы
маҡсатта
маҡсаттар
маҡсаттары
маҡсаттарына
маҡсаттарында
маҡсаттарға
маҡсаттарҙа
маҡсаты
маҡсатын
маҡсатына
маҡсатынан
маҡсатында
маҡсатҡа
маҡтап
маҡтау
маҡтаулы
маңлаи
маҫ
маһы
мб
мвд
мвт
мг
мгб
мгимо
мгу
мгц
мда
мду
ме
мебель
мед
медали
медаль
медалью
медведев
медведева
медведи
медведица
медгиз
медея
медиа
медиафаи
медик
медико
медина
медицина
медицинала
медицинаһы
медицинаһында
медицинская
медицинскии
медицинских
медицинского
медицинскои
медицины
медичи
медногорск
межа
межгорье
между
междунар
международная
международного
международное
международнои
международные
международныи
международным
международных
межраи
мезень
мезозои
мезолит
меи
мексика
мексикала
мексиканың
мелиорация
мелодия
мельбурн
мельник
мельников
мембрана
мемориал
мемориалы
мемориаль
мемориальная
мемориальныи
мемуары
мемуарҙар
мен
менгән
менделеев
менделеевтың
мендельсон
менеджер
менеджеры
менеджмент
менеджменты
менее
менеп
мензелинских
меньшевиктар
меня
менә
менән
мер
меридиан
меркет
меркурии
меры
мерәҫ
месопотамия
месопотамияла
месопотамияның
месса
месси
мест
места
местах
месте
местного
местности
местные
место
месторождении
месторождения
месяц
метал
металдан
металдар
металдарҙы
металдарҙың
металл
металлов
металлург
металлургия
металлургы
метан
метеорит
метеорологик
метеорология
метод
методик
методика
методикаһы
методикаһын
методист
методисы
методические
методическое
методов
методологик
методология
методтары
методы
метр
метражлы
метрик
метрлы
метрлыҡ
метро
метрология
метрополитен
метрополитены
метрға
метрҙа
метрҙан
мефодии
механигы
механизатор
механизаторы
механизацияланған
механизациялау
механизм
механизмдар
механизмдары
механизмдарын
механизмы
механизмын
механик
механика
механикаһы
механики
мехико
меценат
меццо
меч
меча
мечети
мечетлинскии
мечеть
мечников
мещан
мең
меңгә
меңдән
меңдәрсә
меңе
меңи
меңлек
меңләгән
меңләп
меңәр
меңәрләгән
меһмет
ми
миг
мигель
миграция
миграцияһы
мид
мидия
микеланджело
микен
миклухо
микоян
микробиология
микроорганизмдар
микрораи
микроскопик
микән
милан
миланда
милек
милеккә
милекте
милиция
милке
милкендә
милкенә
миллер
миллерово
милли
миллиард
миллиметр
миллиметрға
миллион
миллиондан
миллионлаған
миллионы
миллионға
милләт
милләте
милләтенән
милләтле
милләтсе
милләтселек
милләттең
милләттәр
милош
миль
миләди
миләш
миләүшә
мимештәр
мин
мина
миндәк
мине
минерал
минералдар
минералогия
минераль
минең
минзәлә
мини
минималь
минимум
минимумы
министерства
министерство
министр
министра
министрлығы
министрлығына
министрлығында
министрлығының
министрлыҡ
министров
министры
министрының
министрҙар
министрҙары
минобороны
минобрнауки
минои
миноме
миномет
минор
минск
минскиҙа
минус
минут
минутлыҡ
минутта
минуттан
минутҡа
минһаж
минән
миокард
мир
мира
мираҫ
мираҫты
мираҫы
мираҫын
мираҫына
мираҫҡа
мире
миржанова
мирза
мирзаһитов
миркин
мирныи
мировая
мирового
мировои
миронов
мирсәи
мирхәи
мисс
миссисипи
миссия
миссияһы
миссури
мистер
мистик
митинг
митридат
митрополит
митрополиты
миус
миф
мифик
мифологик
мифология
мифологияһы
мифологияһында
мифтар
мифтахетдин
мифтахов
мифы
михаи
михаил
михаила
михалков
михаэль
михельсон
мицкевич
мичиган
мичурин
мишель
мишкә
мишәр
мишәрҙәр
миҙал
миҙалдар
миҙалдары
миҙалдарын
миҙалдың
миҙалсыһы
миҙалы
миҙалын
миҙалына
миҙалға
миҙгел
миҙгелгә
миҙгелде
миҙгелдең
миҙгелдә
миҙгелдәре
миҙгеле
миҙгелен
миҙгелендә
миҙгеленең
миҙгеленә
миҙгеленән
миҙгелле
миҙхәт
миҡдары
миҡдарҙа
миңлебаев
миңлеғәле
миңлеғәли
миңләхмәт
миңнуллин
миңһылыу
миңә
миҫал
миҫалдар
миҫалдары
миҫалы
миҫалында
миәкә
мк
мл
млн
млрд
мм
мн
мне
мнение
многие
многих
много
множеств
мо
мобилизация
мобилизациялана
мобиль
мог
могила
могиле
могилев
могилы
могильник
моголдар
могут
мода
моделдәр
моделдәре
моделдәрен
моделе
моделен
модели
моделирование
моделләштереү
модель
модерн
модернизация
модернизациялау
модернизм
модификацияланған
модуле
модуль
мое
моего
моеи
можаи
может
можно
мозаика
мозырь
мои
моисеев
моисеевич
моисеи
мок
мокша
мокшанан
мол
молдаван
молдавии
молдавия
молдавияла
молдавияның
молдова
молдованың
молдовы
молекула
молекулалар
молекулалары
молекулаларҙың
молекулаһы
молекуляр
моллюскылар
молния
молога
молодая
молоде
молодежи
молодежная
молодои
молодых
молот
молотов
мольер
момент
мон
монако
монарх
монархия
монархияһы
монасип
монастыре
монастыры
монастырына
монастырында
монастырының
монастырь
монастыря
монастырға
монастырҙа
монастырҙар
монастырҙы
монастырҙың
монах
монахтар
монахы
монг
монгаи
монгол
монголдар
монголдарҙың
монголии
монголия
монголияла
монголияның
монд
моне
мониторинг
монов
монография
монографиялар
монографиялары
монографияһы
монреаль
монтаж
монте
монтевидео
монумент
монументаль
монументы
мопассан
моравия
мораль
мораптал
морат
моратов
мораҙым
мораҡ
морган
мордва
мордвалар
мордов
мордовии
мордовия
море
морзе
морис
моро
морозко
морозов
морозова
морон
мороно
моронона
морононан
морононда
моронынан
морских
морского
морскои
мортаза
мортазин
мортазина
мортазиндың
морфологик
морфология
морфологияһы
моря
моск
москва
москве
москву
москвы
московская
московские
московскии
московского
московскои
московском
мосолман
мосолмандар
мосолмандары
мосолмандарының
мосолмандарға
мосолмандарҙы
мосолмандарҙың
моссад
мост
мостаи
мостафа
мостафин
мостафина
мостов
мостовая
мосты
мосфильм
мотаһар
мотивтар
мотивтары
мотивы
мотлаҡ
мотор
моторлы
моторҙар
мотоуҡсылар
мохтаж
мохтажлыҡ
моцарт
моцарттың
мошков
моя
моғаи
моҡас
моң
моңдары
моңло
моңо
мс
мстислав
мтс
му
мудрыи
муж
мужского
мужскои
муз
муза
музгиз
музее
музеи
музея
музыка
музыкала
музыкаль
музыкальная
музыкального
музыкальное
музыкальнои
музыкальныи
музыкант
музыканттар
музыканттары
музыканты
музыканы
музыкаға
музыкаһы
музыкаһын
музыкаһына
музыкаһының
музыке
музыки
музыку
муи
мул
мулдашев
мулла
муллаи
мулланур
муллағәли
муллаҡаи
муллаһы
мультфильм
мумбаи
муниципалитет
муниципалитеты
муниципалитетының
муниципаль
муниципального
муниципальное
муниципальныи
муниципальным
муниципальных
мунса
мур
муратов
муратова
муратовцы
мурзабулатов
мурзин
мурманск
муса
мусин
мускул
мускулдар
мускулдары
мусоргскии
мусоргского
мусульман
мутин
мухамет
мухаммад
мухин
мухина
муҡшы
мфа
мхат
мхл
мцнмо
мцхета
мы
мыи
мылдар
мылтыҡ
мыр
мырҙа
мырҙалар
мырҙаҡаев
мырҙин
мысли
мысль
мысыр
мысырға
мысырҙа
мысырҙан
мысырҙар
мысырҙы
мысырҙың
мышы
мыҫҡыл
мьянма
мэи
мэн
мэр
мэри
мэры
мюллер
мюнхен
мюнхенда
мясников
мінск
мүк
мә
мәгәр
мәжбүр
мәжбүри
мәжит
мәжитов
мәжлес
мәжнүн
мәжүси
мәжүсилек
мәи
мәк
мәкерле
мәккә
мәккәгә
мәккәлә
мәккәнән
мәктәбе
мәктәбен
мәктәбендә
мәктәбенең
мәктәбенә
мәктәбенән
мәктәп
мәктәпкә
мәктәпкәсә
мәктәпте
мәктәптең
мәктәптә
мәктәптән
мәктәптәр
мәктәптәре
мәктәптәрендә
мәктәптәренең
мәктәптәрҙең
мәктәптәрҙә
мәл
мәлгә
мәлдә
мәлдән
мәле
мәлендә
мәленә
мәлик
мәләүез
мәмбәт
мәмери
мәмлүк
мәмлүктәр
мән
мәндең
мәнов
мәнова
мәнфәғәтен
мәнфәғәтендә
мәнфәғәттәре
мәнфәғәттәрен
мәнфәғәттәренә
мәргән
мәри
мәркәз
мәрмәр
мәрмәрҙән
мәртәбә
мәрхүм
мәрхүмдең
мәрхәмәтле
мәрхәмәтлек
мәрәи
мәсем
мәсет
мәсете
мәсетендә
мәсетенең
мәсеткә
мәсетле
мәсетте
мәсеттең
мәсеттә
мәсеттәр
мәскәү
мәскәүгә
мәскәүҙе
мәскәүҙең
мәскәүҙә
мәскәүҙәге
мәскәүҙән
мәсьәлә
мәсьәләләр
мәсьәләләргә
мәсьәләләре
мәсьәләләрен
мәсьәләләренә
мәсьәләләрҙе
мәсьәләне
мәсьәләһе
мәсьәләһен
мәсғүт
мәсүд
мәсәлим
мәсәғүт
мәхмүд
мәхмүт
мәхмүтов
мәхмәт
мәхрүм
мәхәллә
мәхәлләһе
мәшғүл
мәшһүр
мәғариф
мәғарифты
мәғарифы
мәғдән
мәғдәне
мәғл
мәғлүм
мәғлүмәт
мәғлүмәте
мәғлүмәтенә
мәғлүмәти
мәғлүмәткә
мәғлүмәтте
мәғлүмәттең
мәғлүмәттәр
мәғлүмәттәргә
мәғлүмәттәре
мәғлүмәттәрен
мәғлүмәттәренә
мәғлүмәттәренән
мәғлүмәттәрҙе
мәғрифәт
мәғрифәтсе
мәғрифәтселек
мәғрифәтсеһе
мәғәнә
мәғәнәгә
мәғәнәле
мәғәнәлә
мәғәнәләр
мәғәнәләре
мәғәнәне
мәғәнәһе
мәғәнәһен
мәғәнәһендә
мәғәнәһендәге
мәғәнәһенә
мәғәнәһеҙ
мәғәфүр
мәҙинә
мәҙинәгә
мәҙинәлә
мәҙрәсә
мәҙрәсәлә
мәҙрәсәһе
мәҙрәсәһен
мәҙрәсәһендә
мәҙрәсәһенә
мәҙәни
мәҙәниәт
мәҙәниәте
мәҙәниәтен
мәҙәниәтендә
мәҙәниәтенең
мәҙәниәтенә
мәҙәниәткә
мәҙәниәтте
мәҙәниәттең
мәҙәниәттәр
мәҙәниәттәре
мәҡсүт
мәҡсүтов
мәҡәл
мәҡәлдәр
мәҡәлә
мәҡәләлә
мәҡәләләр
мәҡәләләре
мәҡәләләрен
мәҡәләне
мәҡәләһе
мәҡәләһен
мәҡәләһендә
мәңге
мәңгегә
мәңгелек
мәңгелеккә
мәңгеләштерелгән
мәңгеләштереү
мәҫ
мәҫәл
мәҫәле
мәҫәлән
мәүлит
мәһәҙеи
мәһәҙиев
мәә
мөбәрәк
мөбәрәков
мөгәзәи
мөгөҙ
мөгөҙлө
мөдир
мөдире
мөжәүир
мөи
мөлкәт
мөлкәте
мөлкәтен
мөлкәтте
мөмкин
мөмкинлеге
мөмкинлеген
мөмкинлегенә
мөмкинлек
мөмкинлектәр
мөмкинлектәре
мөмкинлектәрен
мөнир
мөнәсәбәт
мөнәсәбәте
мөнәсәбәтен
мөнәсәбәттә
мөнәсәбәттәр
мөнәсәбәттәргә
мөнәсәбәттәре
мөнәсәбәттәрен
мөнәсәбәттәренең
мөнәсәбәттәренә
мөнәсәбәттәрҙе
мөнәсәбәттәрҙең
мөнәсәбәттәрҙә
мөрсәлим
мөрәжәғәт
мөрәжәғәте
мөслим
мөсәт
мөфтөи
мөх
мөхбир
мөхит
мөхите
мөхитен
мөхитендә
мөхиткә
мөхитте
мөхиттең
мөхиттә
мөхлис
мөхтәр
мөхәббәт
мөхәббәте
мөхәммәд
мөхәммәт
мөхәммәттең
мөхәммәтша
мөхәмәт
мөхәмәтдин
мөхәмәти
мөхәмәтов
мөхәмәтрәхим
мөхәмәтсәлим
мөхәмәтша
мөхәмәтшин
мөхәмәтғәле
мөхәмәтғәли
мөхәррир
мөхәррире
мөхәрририәт
мөхәррәм
мөғжизә
мөғжизәле
мөғжизәһе
мөғәллим
мөҙҙәте
мөҙҙәткә
мөҙәрис
мөһабәт
мөһим
мөһиме
мөһимлеген
н
на
наб
набережная
набоков
навигация
навои
нагаев
нагорная
наград
награда
наградалар
наградалары
наградами
наградаға
наградаһы
награде
наградил
наградлана
наградланған
награднои
наградные
награды
награжде
награждении
над
надаль
надежда
надеждин
надежды
надир
надо
надым
назад
назар
назараты
назарбаев
назаров
назвали
название
названием
названии
названия
названиях
названы
назначен
назначении
назначения
называли
называют
наи
наиболее
наил
наилә
наименовании
накануне
нала
налог
налоговои
нальчик
нам
намаи
намаҙ
намаҙы
намаҙын
намаҙҙы
наме
наместнигы
наместник
наместниклығы
нами
намыҫ
намыҫлы
нан
нанаи
нансен
нансендың
наны
наоборот
нап
написанием
наполеон
наполеона
наполеондың
наполеонға
направления
например
нар
нарва
нариман
нарком
наркомы
наркотиктар
народ
народа
народная
народного
народное
народнои
народном
народные
народныи
народных
народов
народы
нарға
нас
наса
насар
насараи
насарая
насарыраҡ
населе
население
населением
населения
населенные
населенных
населення
насип
насир
насиров
наследие
наследия
наследство
насос
насретдин
настоящее
насыр
насыри
насыров
наталия
наталья
наташа
натма
нато
натрии
натураль
натып
натырға
натыу
натюрморт
нау
наук
наука
науке
науки
наукова
наум
наумов
наумович
науруз
наурыҙ
наусы
науч
научная
научно
научного
научное
научнои
научные
научныи
научных
науы
науын
нафиҡов
нах
нахимов
нахичеван
нахичевань
находится
нац
нации
национал
национализациялана
национальная
национально
национального
национальное
национальнои
национальности
национальные
национальныи
национальных
нацист
нацистар
нацистик
нач
начал
начала
начале
начало
начальнигы
начальнигының
начальник
начальниктары
начинается
наш
наша
наше
нашего
нашеи
наши
наших
нашли
ная
наявного
наған
нағанда
наҙан
наҙы
наҡ
нберг
нгарка
нгду
нда
ндар
ндары
ндағы
нды
ндың
ндә
не
неаполь
неба
небо
нева
неверныи
неврология
невскии
невского
негатив
него
недвижимых
недели
неделя
недоступная
недра
независимая
независимости
независимость
независимых
неи
неизвестные
неизвестныи
некорректным
некоторые
некоторых
некрасов
некрасова
некролог
некрополь
нелли
нельзя
нем
неман
немец
немецкии
немецкого
немецкои
немецтар
немецтары
немецтарға
немецтарҙы
немецтарҙың
немирович
немцев
немцы
нен
ненец
необходимо
неолит
неопр
неофициальныи
непал
неплюев
нептун
нер
нерв
нервнои
нервы
нервылар
нерль
неру
неры
нерҙар
несколько
нескә
несокрушимые
нестеров
нестор
нет
нетаньяху
нетдин
нетдинов
нефаз
нефе
нефлы
нефтекама
нефтекамск
нефтехим
нефтехимик
нефтехимия
нефтеюганск
нефти
нефткә
нефтсе
нефтселәр
нефтсеһе
нефтте
нефттең
нефть
нефтяник
нефтяного
нефтяное
нефтянои
нефтяных
нечаев
нечаева
нең
ни
нива
нигер
нигерия
нигеҙ
нигеҙгә
нигеҙе
нигеҙен
нигеҙендә
нигеҙендәге
нигеҙенең
нигеҙенә
нигеҙле
нигеҙләгән
нигеҙләи
нигеҙләнгән
нигеҙләнеп
нигеҙләнә
нигеҙләү
нигеҙләүсе
нигеҙҙе
нигеҙҙең
нигеҙҙә
нигеҙҙәр
нигеҙҙәре
нигеҙҙәрен
нигеҙһеҙ
нидерл
нидерланд
нидерландта
нидерландтың
нидерланды
ние
нижегородская
нижегородскои
нижневартовск
нижнего
нижнии
низам
низаметдин
низаметдинов
низами
низағ
низағтар
нии
ник
ника
никарагуа
никах
никахлаша
никахта
никахтан
никахы
никахынан
никахҡа
никель
ники
никита
никитин
никитина
никитич
никифоров
никифорович
никколо
ников
никогда
никола
николаев
николаева
николаевич
николаевича
николаевка
николаевна
николаевск
николаевскии
николаи
николас
николая
николо
николсон
никольск
никольскии
никон
никонов
никулочкин
нил
нильс
ним
ними
нимә
нимәгә
нимәлер
нин
нина
ниндәи
ниро
нисбәт
нисбәте
нисек
нисектер
нисә
них
ница
ницкии
ницца
ницше
ничего
ния
нияз
ниғмәт
ниғмәти
ниғмәтулла
ниғмәтуллин
ниғәмәт
ниғәмәти
ниңә
ниһаи
ниәт
ниәте
ниәтен
ниәтләи
нка
нквд
нкин
нко
нная
нного
нное
ннои
нные
нныи
нным
нных
но
нобелевская
нобелевскии
нобель
нов
нова
новая
новгород
новгорода
новгороде
новгородскои
новгородта
новгородтың
новгородҡа
новеи
новелла
новеллалар
нови
новиков
новикова
новицкого
нович
новна
ново
нового
новодевичье
новое
новои
новокузнецк
новом
новороссии
новосибирск
новосибирскиҙа
новостеи
новости
новочеркасск
новую
новые
новыи
новым
новых
ногаи
ного
ное
нои
нок
ноль
ном
номер
номерлы
номеры
номерҙар
номерҙары
номиналь
номинации
номинация
номинацияһы
номинацияһында
норв
норвег
норвегия
норвегияла
норвегияның
норма
нормалар
нормалары
нормаларын
нормаль
норман
норматив
нормативныи
нормаһы
нос
носков
носов
нота
ночи
ночь
нояб
ноябргә
ноябре
ноябрендә
ноябрендәге
ноябренә
ноябренән
ноябрь
ноября
ноябрҙә
ноябрҙәге
ноябрҙән
ноғман
ноғоманов
нп
нс
нська
нськии
нт
нтв
ну
нужно
нуклеин
нулгә
нулдән
нулла
нуллин
нуллина
нуль
нур
нуретдин
нури
нуриев
нуриман
нурислам
нурия
нурланыш
нурланыштың
нурланышы
нурлы
нурмөхәмәт
нурмөхәмәтов
нурсолтан
нурулла
нуры
нурыи
нурғәле
нурғәли
нурҙар
нурҙары
нух
нуғаи
нхл
нц
нштеи
ны
ные
ныи
ным
нын
нына
нынан
нында
нындағы
ныне
нының
нынң
ных
нығына
нығынып
нығынған
нығыраҡ
нығыта
нығытма
нығытмалар
нығытмалары
нығытмаһы
нығытыла
нығытылған
нығытып
нығытырға
нығытыу
нығытыуға
нығытҡан
ныҡ
ныҡлап
ныҡлы
ныҡлығы
ныҡлыҡ
ныҡышмалы
ның
нью
ньютон
ньютондың
нюрнберг
нязепетровск
ні
нға
нә
нәб
нәби
нәбиулла
нәдир
нәжиб
нәжип
нәжметдин
нәжми
нәзир
нәзәкәтле
нәмә
нәмәгә
нәмәләр
нәмәләрҙе
нәмәне
нән
нәп
нәркәс
нәсибаш
нәсибулла
нәсимә
нәсихәт
нәтижәһендә
нәфел
нәфис
нәфрәт
нәшер
нәшр
нәшриәт
нәшриәте
нәшриәтендә
нәшриәтенең
нәғим
нәҙек
нәҙершина
нәҙерғолов
нәҡ
нәҫел
нәҫелгә
нәҫелдән
нәҫелдәре
нәҫеле
нәҫеленең
нәҫеленә
нәҫеленән
нәүбәттә
нөгөш
нөктә
нөктәгә
нөктәлә
нөктәләр
нөктәләре
нөктәнең
нөктәнән
нөктәһе
нөктәһен
нөктәһендә
нөктәһенең
нөктәһенә
нөктәһенән
нөсхәһе
о
оао
об
обд
обелиск
обер
обеспечение
обеспечения
обзор
обкома
обл
областеи
области
областная
областного
областнои
область
обнаружены
обозрение
обои
оборона
обороналау
обороналауҙа
обороналаған
оборонаға
оборонаһы
оборонаһын
оборону
обороны
обработки
образ
образдар
образдары
образдарын
образлы
образование
образовании
образованию
образования
образованиям
образовательного
образовательныи
образом
образы
образын
обращение
обращения
обсе
обсерватория
обсерваторияһы
обухов
обучения
общ
общая
общего
общеи
общероссии
обществ
общества
обществе
общественная
общественно
общественного
общественное
общественнои
общественные
общественныи
общественных
общество
общие
общии
община
общиналар
общиналары
общинаның
общинаһы
общинаһының
общины
объ
объедине
объединение
объединением
объединения
объект
объекта
объекте
объектив
объектов
объекттар
объекттары
объекттарын
объекттарына
объекттарының
объекттарға
объекттарҙы
объекттарҙың
объектты
объекттың
объекты
объектының
объявил
обыде
обыкновенная
обыкновенныи
обь
ова
овал
овидии
ович
овраг
овруч
овчинников
ога
огаи
огиз
оглы
огни
огоне
огонек
огонь
огпу
огюст
од
ода
одежда
одер
одесса
одессала
один
одиссеи
одиссея
одкб
одна
однако
одним
одно
одного
однои
одном
одри
ожегов
ожмах
оз
озе
озера
озерки
озеро
озеф
означает
озон
ои
ок
ока
окато
окб
океан
океана
океанда
океандар
океандың
океания
океаны
океанының
океанға
окерит
оки
окисланыу
оккупацион
оккупация
оккупациялаи
оккупацияланған
оккупациялаған
оккупацияһы
около
окрестности
округ
округа
округам
округов
округта
округтар
округтары
округтың
округы
округына
округынан
округында
округындағы
округының
округҡа
окружающеи
оксана
оксиды
оксфорд
окт
октавиан
октмо
октябргә
октябре
октябрендә
октябрендәге
октябренә
октябренән
октябрь
октябрьск
октябрьская
октябрьскии
октябрьскои
октября
октябрҙең
октябрҙә
октябрҙән
ола
олалар
олалары
олаларын
олаларына
олаларҙы
олатаи
олатаһы
олаға
олаһы
олаһын
оле
олег
олегович
оливер
олимп
олимпиада
олимпиадала
олимпиадаһында
олимпии
олимпия
олма
оло
олои
ололар
олонец
олоно
олораҡ
олоғаи
олоҫо
олуғ
оль
ольга
ольги
олған
оләсәи
олөи
ом
ома
омабаи
оман
омар
омарт
оматау
омаш
омағол
омағолов
омағужа
омағужин
омаҡ
омортҡа
омортҡалар
омортҡаны
омортҡаһы
омоҡ
омран
омро
омск
омшаҡ
омь
омға
омғаҡ
омғаҡлау
омғаҡтары
он
она
онам
онда
ондан
ондар
ондары
ондарын
ондарына
ондарынан
ондарында
ондарындағы
ондарының
ондарға
ондарҙа
ондарҙы
ондарҙың
ондағы
ондо
ондороҡло
ондороҡһоҙ
ондороҡһоҙлоғо
ондороҡһоҙлоғон
ондороҡһоҙлоҡ
ондоҙ
ондоҙло
ондоҙлоҡ
ондоҙлоҡтар
ондоҙо
ондоҙҙар
ондоҙҙары
ондоҙҙарҙың
ондоҙҙоң
онды
ондың
оне
онега
онегин
они
оникс
онкология
онлаи
онлау
онная
оно
онов
ономастика
онос
онотмаи
онотолған
онотоп
оны
онын
онына
онынан
онында
онындағы
онының
онға
оон
ооо
оопт
оп
опек
опер
опера
операла
опералар
опералары
операның
оператив
оператор
операторы
операции
операцион
операция
операцияла
операциялар
операциялары
операцияларында
операцияларҙа
операцияларҙы
операцияны
операцияһы
операцияһын
операцияһында
операһы
операһын
операһында
операһының
оперетта
оперы
описание
опись
ополчение
ополчениеһы
оппозицион
оппозиция
оппозицияла
оппозицияның
оппозицияһы
определение
определения
определитель
оптик
оптика
оптималь
опубликовано
опыт
опыта
ор
ора
оран
орбита
орбиталь
орбитаға
орбитаһы
орган
органдар
органдары
органдарын
органдарына
органдарында
органдарының
органдарҙың
организатор
организации
организация
организм
организмда
организмдар
организмдарҙың
организмды
организмдың
организмы
организмында
организмға
органик
органов
органы
орда
орден
ордена
ордендар
ордендары
ордендың
орденлы
орденов
орденом
ордены
орденын
орденына
орденының
орджоникидзе
ординатор
орды
оре
орел
оренбург
оренбургская
оренбургские
оренбургскии
оренбургского
оренбургскои
орехово
оригинал
оригиналь
оригинальныи
орк
оркестр
оркестра
оркестры
оркестрының
оркта
орктағы
орктың
орлов
орлова
орловка
орловскии
орлоғо
орлоҡ
орлоҡло
орлоҡсолоҡ
орлоҡтар
орлоҡтары
орнамент
оров
ороним
ороғо
ороғона
ороҡ
ороҡҡа
орск
орт
орто
ортогональ
ортон
ортона
ортонан
ортонда
ортоноң
ортопедия
ортта
орттан
орттар
орттары
орттарын
орттарына
орттарында
орттарының
орттарҙа
орттарҙы
орттарҙың
ортто
орттоң
ортҡа
орудие
орудиеһы
орудиеһын
оружие
оружия
орфеи
орфография
оры
орға
орған
ос
оса
осака
освобождение
осень
осетин
осетия
осип
осипенко
осипов
осипова
осипович
оскар
оскол
осколки
ослаи
осло
осман
основа
основании
основания
основе
основнои
основные
основных
основы
осо
особенности
особо
осон
осона
осонан
осонда
осоп
осопов
осопова
осор
осораи
осоро
осорон
осорона
осоронан
осоронда
осорондағы
осороноң
осороу
осороуҙар
осорға
осорҙа
осорҙан
осорҙарҙа
осорҙағы
осорҙо
осорҙоң
осоу
осоусы
осоусылар
осоусыһы
осоуҙар
ософ
осош
осошо
осоштар
осраи
осрамаи
осрата
осратырға
осраша
осрашып
осрашырға
осрашыу
осрашыуы
осрашыуын
осрашыуында
осрашыуға
осрашыуҙа
осрашыуҙар
осрашҡан
осраған
осрағаны
осрағы
осрағында
осраҡ
осраҡлы
осраҡта
осраҡтар
осраҡтары
осраҡтарҙа
ост
остазы
остапенко
остары
остготтар
остров
острова
островов
островскии
островского
осҡан
осҡанда
осҡон
осҡос
осһоҙ
от
ота
отв
ответ
ответственныи
отд
отдел
отдела
отделение
отделениеһы
отделения
отдельных
отдыха
отелло
отель
отец
отеч
отечества
отечественная
отечественного
отечественнои
отечественные
отечеством
открылась
открыли
открылся
открыт
открытие
открытии
открытия
открытое
открытыи
открытых
откуда
отличие
отличия
отличнигы
отмечает
относительности
отношение
отношении
отношения
отола
отолоуҙар
отоп
отоу
отош
отошло
отрада
отрасли
отряд
отрядтар
отрядтары
отрядтарын
отрядтарына
отряды
отрядын
отрядына
отрядында
отрядының
отс
отставкалағы
отставкаға
отставку
отто
оттон
отца
отче
отчеи
отчеств
отчет
отҡан
оу
оусы
оф
офис
офисы
офицер
офицерскому
офицеры
офицерын
офицерҙар
офицерҙары
офицерҙарҙы
официальная
официально
официальнои
официальном
официальныи
оформление
офтальмолог
офф
оффта
оффтың
оффҡа
охан
охота
охрана
охране
охраны
охраняемых
оценка
оценки
очень
очерк
очерки
очерктар
очерктары
ош
оша
ошибка
ошкар
ошма
ошмала
ошмалар
ошмалары
ошмаларына
ошмаларында
ошмаларының
ошмаларға
ошмаларҙа
ошмаларҙың
ошманы
ошманың
ошмаға
ошмаһы
ошмаһын
ошмаһына
ошмаһында
ошмаһының
ошо
ошолаи
ошонан
ошонда
ошондаи
ошоноң
ошоға
оштора
ошторалар
ошторола
ошторолдо
ошторолоуы
ошторолған
ошторолғандан
оштороп
ошторорға
оштороу
оштороусы
оштороусылар
оштороусылары
оштороусыларының
оштороусыларҙың
оштороусыһы
оштороуға
оштороуҙа
оштороуҙы
оштороуҙың
ошторған
ошҡан
ою
оя
ояла
оялаи
ояһы
оғлы
оғонто
оғонтоло
оғонтоһо
оғонтоһон
оғонтоһона
оғонтоһонан
оғонтоһонда
оғошло
оҙаи
оҙата
оҙаталар
оҙатыла
оҙатылған
оҙатып
оҙатыу
оҙатыуында
оҙағыраҡ
оҙаҡ
оҙаҡламаи
оҙаҡҡа
оҙон
оҙонаи
оҙонлоғо
оҙонлоғон
оҙонлоғона
оҙонлоғонда
оҙонлоғондағы
оҙонлоҡ
оҙонлоҡта
оҙонлоҡтағы
оҙонлоҡҡа
оҙонораҡ
оҙонса
оҡ
оҡа
оҡлаи
оҡлап
оҡларға
оҡо
оҡоға
оҡшаи
оҡшамаи
оҡшамаған
оҡшап
оҡшатып
оҡшатыу
оҡшаш
оҡшашлығы
оҡшашлыҡ
оҡшаған
оҫта
оҫталар
оҫталары
оҫталарының
оҫталығы
оҫталығын
оҫталығына
оҫталыҡ
оҫтахана
оҫтаханалар
оҫтаханалары
оҫтаханаһы
оҫтаханаһында
оҫтаһы
п
па
паблишер
пабло
павел
павильон
павильоны
павла
павленко
павлов
павлова
павлович
павловка
павловна
павловск
павлодар
павсании
паганини
падение
паи
пак
пакистан
пакистанда
пакистандың
пакт
палата
палаталары
палаталы
палатаһы
палатаһына
палатаһында
палатаһының
палаты
палеозои
палеолит
палеонтология
палестина
палл
паллас
пальма
пам
памир
памяти
памятная
памятник
памятника
памятниках
памятники
памятников
памятные
памятных
память
пан
панама
панин
панов
панорама
пантелеи
пантеон
паоло
папа
папаһы
папуа
пар
парабола
парагваи
парад
парады
парадында
паразит
паралимпии
паралимпия
параллель
параметр
параметрҙары
парамонов
парашют
пари
париж
парижа
парижда
париждан
париждағы
парижды
париждың
парижға
парк
парка
парке
паркка
паркта
парктар
паркты
парктың
паркы
паркын
паркына
паркында
паркының
парламент
парламентаризм
парламентта
парламенттың
парламенты
парламентына
парламентының
парламентҡа
парлашып
парлы
паровоз
паром
пароход
партизан
партизандар
партии
партия
партияла
партиялар
партиялары
партияларын
партияларҙы
партияларҙың
партиялы
партиянан
партияны
партияның
партияға
партияһы
партияһын
партияһына
партияһынан
партияһында
партияһының
партияһыҙ
партком
партне
партнеры
партнерҙары
парфия
пары
парға
парҙар
парҙары
пас
паспорт
пассажир
пассажирҙар
пассажирҙарҙы
пассив
пастер
пастернак
пастерҙың
пасха
патент
патенты
патологик
патология
патриарх
патриархы
патрик
патриот
патриотик
паулу
пауль
паша
паюта
пб
пво
пг
пгт
пдк
пе
певец
пед
педагог
педагоги
педагогик
педагогика
педагогики
педагогические
педагогическии
педагогических
педагогического
педагогия
педагогтар
педагогтары
педагогы
педиатр
педиатрия
педро
пеи
пекин
пекинда
пенза
пенсильвания
пенсионер
пенсия
пенсияға
пепеляев
пер
первая
первого
первое
первозванныи
первои
первоисточника
первом
первомаи
первые
первыи
первым
первых
перевод
перевода
переводе
переводчика
переводы
перед
передача
передаче
передачеи
переименовывалась
перельман
переписи
переписка
перепись
перераб
переработанное
переулок
перечень
перечня
периметры
период
периода
периодик
периоды
периферия
перми
пермскии
пермского
пермскои
пермь
перо
перовскии
перпендикуляр
персеи
персия
персонаж
персонаждар
персонаждары
персонажы
персоналии
персональ
перспективалы
перспективы
перу
песен
песни
песнь
песня
песняры
петер
петерб
петербург
петербурга
петербурге
петербургка
петербургская
петербургские
петербургскии
петербургского
петербургское
петербургскои
петербургта
петербургтан
петербургтағы
петербургтың
петербургҡа
петипа
петр
петра
петров
петрова
петрович
петровка
петровна
петровск
петровская
петровскии
петровское
петроград
петроградта
петроградҡа
петрозаводск
петропавловка
петропавловск
петросовет
петрушевскии
петрушка
пехота
пехотаһы
печ
печати
печатныи
печать
печора
пещера
пещеры
пи
пианист
пиза
пии
пик
пикассо
пиковая
пилот
пилотлы
пилотһыҙ
пилсудскии
пин
пинега
пиньин
пиньинь
пионер
пионеры
пионерҙар
пиотровскии
пирамида
пирамидалар
пирамиданың
пирамидаһы
пиреи
пиренеи
пирогов
писал
писарев
писателеи
писатели
писатель
писателя
писем
письма
письменности
письмо
питер
пифагор
пко
плазма
план
планда
пландар
пландары
пландарын
пландағы
планды
планета
планеталар
планеталарҙың
планетаның
планетарии
планеты
планирования
планк
планлаштыра
планлаштырыла
планлаштырылған
планлаштырыу
планлы
планы
планын
планына
планында
планға
пластик
пластинка
плата
платина
плато
платов
платон
платонов
платформа
платформаһы
плацдарм
плацдармды
пле
плеи
племена
племя
пленумы
пленумында
плеханов
плинии
плита
плиталар
плитаһы
пловдив
плотина
плотников
площадеи
площади
площадь
плутарх
плутон
пльзень
плюс
пляж
пневмония
по
победа
победители
победои
победу
победы
поверхности
поверхностных
повестар
повестары
повести
повесть
повесы
повесын
повесында
поводу
поволжье
поволжья
повышения
погиб
погибших
под
подвиг
подвиги
подгорная
подгот
подготовка
подготовке
подготовки
подданныи
поддубныи
подметки
подольск
подольскии
подписал
подполковнигы
подполковник
подпоручик
подразделение
подразделениелар
подразделениелары
подразделениеһы
подход
поезд
поезда
поездар
поездары
поезы
позвоночные
позиции
позицион
позиция
позицияла
позициялары
позицияларын
позицияларына
позицияны
позицияһы
позицияһын
позицияһында
пои
поиск
поисках
пока
показателеи
показатели
покои
поколения
покров
покровка
покровскии
покрытосеменные
пол
поле
полевая
полевои
полесье
полигон
полиграфия
полиграфкомбинат
поликлиника
поликлиникаһы
полимер
полина
полиомиелит
полит
политбюро
политбюроһы
политехник
политиздат
политик
политика
политике
политики
политическая
политические
политическии
политических
политического
политическое
политическои
политология
полицеи
полиция
полицияһы
полк
полка
полковнигы
полковник
полководец
полководецы
полкта
полктары
полктың
полку
полкы
полкын
полкына
полкында
полкының
полная
полное
полностью
полныи
полных
поло
половина
половине
половины
половцы
положение
положении
положения
полоцк
полтава
полу
получения
получил
получила
поль
польша
польшала
польшаны
польшаның
польшаға
полюс
поля
поляк
поляков
поляковка
поляктар
поляна
полянскии
поляны
поляр
помидор
помощи
помощь
помощью
помпеи
понимание
пономаре
пономарев
понтии
понятие
понятии
понятия
поощрении
поп
попечителлек
попов
попова
попович
популяр
популярлаштырыу
популярлығы
популярлыҡ
популярная
популяция
популяцияһы
пор
пород
порт
порта
портал
портале
порталы
портр
портрет
портреттар
портреттары
портреттарын
портреты
портретын
порттары
португал
португалдар
португалия
португалияның
порты
портына
портҡа
поручик
порхов
порядка
порядке
порядок
посад
посвящается
посвяще
посвященнои
посвященныи
посе
посев
поселение
поселении
поселения
поселок
поскольку
после
последнего
последнее
последние
последнии
последняя
последствия
послесл
пособие
поспелов
посполитая
пост
поста
постамент
постаментта
постаментҡа
постановка
постановкаһы
постановление
постоянного
постына
посы
посын
посына
посынан
потапов
потапова
поташ
поте
потенциал
потенциалы
потенциалын
потенциаль
потери
потерях
потомки
потому
поход
походта
походтар
походтары
походтарында
походы
походында
походҡа
почв
почвы
поче
почему
почет
почетлы
почетного
почетные
почетныи
почетных
почта
почтаһы
почти
почтовые
почтовых
поэзии
поэзия
поэма
поэмалар
поэмалары
поэманың
поэмаһы
поэмаһын
поэмаһында
поэмы
поэт
поэта
поэтик
поэтика
поэтов
поэтому
поэты
появится
пояс
пр
прав
права
правда
правды
правила
правительства
правительство
правления
право
правовое
правовои
правовые
православ
православие
православная
православнои
православныи
правосудия
правыи
прага
прагала
прадеш
праздник
праи
практ
практик
практика
практикала
практикаһы
практикаһын
практикаһына
практикаһында
практике
практики
практическая
практическои
прапорщик
прасковья
пред
предания
предварительная
предисл
предисловие
предмет
предметтар
предметтары
предметтарҙы
предметы
предоставленная
предприятие
предприятиела
предприятиелар
предприятиелары
предприятиеларын
предприятиеларында
предприятиеларының
предприятиеларҙың
предприятиеның
предприятиеһы
предприятиеһында
предприятиеһының
предприятии
предприятия
председателе
председатель
председателя
представителеи
представители
представление
представления
прежде
презентация
президент
президента
президенте
президентом
президенттың
президенты
президентын
президентына
президентының
президентҡа
президиум
президиума
президиумы
президиумының
премии
премию
премия
премиялар
премиялары
премияны
премияға
премияһы
премияһын
премияһына
премияһының
премьер
премьера
премьераһы
премьеры
преображенск
преображенскии
преобразовании
препарат
препараттар
препараттары
преподаватели
преподобныи
пресвятая
пресс
пресса
при
прибор
приборҙар
приборҙары
приват
приговор
прие
приз
призе
призер
призеры
призлы
призма
призы
призын
призына
призға
прии
приказ
приказы
прикамье
прикладная
прикладнои
приключения
приложение
приложения
прим
примаков
применение
применения
пример
примере
примеч
примечания
приморье
принт
принц
принцесса
принцессаһы
принцибы
принцибын
принцибына
принцип
принципиаль
принциптар
принциптары
принциптарын
принциптарына
принципы
принцы
принял
припять
природа
природе
природные
природныи
природных
природы
присвоении
присвоено
пристань
присуждении
присяжныи
приток
приуралье
приуралья
приход
причины
приют
приютово
про
проблем
проблема
проблемалар
проблемалары
проблемаларын
проблемаларына
проблемаларҙы
проблемалы
проблемаһы
проблемаһын
проблеме
проблемы
проведения
проверено
проверьте
провинциаль
провинции
провинция
провинциялар
провинциялары
провинцияның
провинцияға
провинцияһы
провинцияһына
провинцияһында
провинцияһындағы
провинцияһының
прогноз
программа
программала
программалар
программалары
программаларын
программалау
программаны
программаһы
программаһын
программаһына
программаһында
программаһының
программе
программы
прогресс
прогрессив
прогулки
продолжение
продукт
продуктов
продукттар
продукттары
продукттарын
продукттың
продукты
продукции
продукция
продукцияны
продукцияның
продукцияһы
продукцияһын
продукцияһының
продюсер
продюсеры
проект
проекта
проекте
проектлаи
проектлау
проектлаған
проектта
проекттар
проекттары
проекттарын
проекттарҙы
проектты
проекттың
проекты
проектын
проектына
проектында
проектының
проектҡа
проза
прозаигы
прозаик
прозоров
прои
произведении
произведения
производства
производство
производствоны
производствоға
производствоһы
производствоһын
происхождение
происхождении
происхождения
прокат
прокофьев
прокуратура
прокуратураһы
прокуратураһының
прокурор
прокуроры
пролетар
пролетариат
пролетарии
прометеи
промысла
промыслаһы
промышленности
промышленность
пропаганда
пропагандалау
пропорциональ
проректор
проректоры
пророка
просвещение
просвещения
проспект
проспекты
проспектында
просто
просторы
пространства
пространстве
пространство
протектораты
протест
протестант
протестанттар
против
протоиереи
протокол
протоколы
прототибы
проф
профессионал
профессионалдар
профессиональ
профессионального
профессия
профессор
профессора
профессоры
профессорҙар
профессорҙары
профилактика
профиле
профилле
профиль
профсоюз
профсоюздар
профсоюздарҙың
профсоюзы
профсоюзының
прохоров
процедура
процент
процентлы
проценттан
проценты
процентын
процентҡа
процесс
процесса
процессе
процессов
процессы
процессында
процестар
процестары
процестарын
процестарҙы
процестарҙың
процесты
процестың
процесы
процесын
процесына
процесында
процесының
прошел
прошла
прошлого
прошлое
прошлом
прощание
прус
прусс
пруссия
пруссияла
пруссияның
прут
прямои
псевдоним
псевдонимы
психиатр
психиатрия
психик
психолог
психологии
психологик
психология
психологияһы
псков
псковская
псковскои
птиц
птица
птицы
птолемеи
пу
публ
публикации
публикация
публицист
публицистик
публицистика
пугаче
пугачев
пугачева
пугачевтың
пулеме
пулемет
пуля
пункт
пунктам
пунктов
пункттар
пункттары
пункттарын
пункттарында
пункттарының
пункттарҙы
пункттарҙың
пункты
пунктын
пунктына
пунктында
пунктының
пур
пусан
пусть
путеводитель
путеи
путешествие
путешествия
пути
путин
путина
путиндың
путь
пучков
пуччини
пушка
пушкалар
пушкин
пушкина
пушкиндың
пуэрто
пциг
пылыш
пылыштар
пышма
пьер
пьеса
пьесалар
пьесалары
пьесаларын
пьесаһы
пьесаһын
пьесаһында
пьесы
пьетро
пяти
пять
пәи
р
ра
раббым
рабинович
работ
работа
работе
работник
работникам
работников
работу
работы
рабочая
рабочии
рабочих
рада
радаһы
ради
радиаль
радиация
радии
радик
радикаль
радио
радиоактив
радиостанция
радиостанцияһы
радиотапшырыуҙар
радиотехник
радиотехника
радиоэлектроника
радиоһы
радиоһында
радиоһының
радиус
радиусы
радуга
радянська
раевка
раевскии
раз
разведка
разведкалау
разведкаһы
разведки
разведчигы
разведчик
разведчиктар
развитие
развитии
развития
раздел
раздельнолепестные
разин
различных
размещение
размышления
разные
разным
разных
разработка
разработки
разрезе
разряд
разрядлы
разрядта
раи
раил
раиса
рак
ракета
ракеталар
рам
рама
рамазан
рамазанов
рамаяна
рамаҙан
рамдар
рамдары
рамдарҙа
рамды
рамках
рамн
рамы
рамын
рамына
рамында
рамға
рамғол
рамғолов
ран
ранг
ранее
раннего
ранов
рао
рас
раса
расписание
распоряжение
распределение
рассвет
расселения
рассказ
рассказал
рассказов
рассказы
рассоха
растении
растения
расче
расчет
расчеты
рат
рата
ратуша
ратыла
ратылған
ратыу
ратҡан
рауза
рауил
рауль
раундта
раундында
рафаил
рафаэль
рафиҡ
рафиҡов
рахимов
рахман
рахманинов
рахманғолов
рахматуллин
рационализаторлыҡ
рациональ
рашид
рашит
раштыуа
раштыуаһы
рағы
рағын
раҡ
раҡлы
раҡтар
раҫлаи
раҫлана
раҫланмаған
раҫланы
раҫланған
раҫлап
раҫларға
раҫлау
раҫлаусы
раҫлауы
раҫлауынса
раҫлауҙар
раҫлаған
рб
рбк
ргб
рггу
рд
ре
реабилитация
реабилитациялау
реактив
реактор
реакции
реакция
реакциялар
реакциялары
реакцияға
реакцияһы
реал
реализации
реализм
реалистик
реаль
реальность
ребе
ревда
ревиз
ревизия
ревизияла
ревизор
революции
революцион
революционер
революционеры
революционерҙар
революция
революциянан
революцияны
революцияның
революцияға
революцияһы
революцияһын
революцияһына
революцияһынан
революцияһының
рег
регби
регенсбург
регент
регенты
регина
регион
региона
региональ
регионального
региональнои
региональные
региональныи
регионе
регионов
регионы
регистры
регистрына
регуляр
ред
редактор
редакторы
редакциеи
редакции
редакция
редакцияһы
редакцияһына
редакцияһында
редкие
редкол
редколл
редколлегия
реестр
реестре
реестры
реестрына
реестрында
реж
режим
режима
режимы
режимын
режимына
режиссе
режиссер
режиссеры
режиссура
реза
резеда
резерв
резервтары
резервы
резервының
резерфорд
резиденция
резиденцияһы
резиденцияһын
резина
резолюция
резонанс
результате
результаты
реи
рек
река
реквием
реке
реки
реклама
рекомендации
реконструкции
реконструкция
реконструкциялана
реконструкцияланған
реконструкциялау
рекорд
рекордлы
рекордсыһы
рекордтар
рекорды
рекордын
рекреацион
ректор
ректора
ректоры
религии
религия
реликт
рельеф
рельефлы
рельефы
рембо
рембрандт
ремонт
ремонтлана
ремонтлау
рен
ренат
рене
ренессанс
рентген
ренуар
репертуар
репертуары
репертуарына
репертуарында
репин
репина
репортаж
репрессии
репрессия
репрессиялана
репрессияланған
репрессиялар
репрессиялары
репрессияларға
репрессияға
репродуктив
рес
респ
республик
республика
республикабыҙҙың
республикала
республикалар
республикалары
республикаларында
республикаларының
республикаларҙың
республиканская
республиканскии
республиканского
республиканың
республикаға
республикаһы
республикаһын
республикаһына
республикаһынан
республикаһында
республикаһындағы
республикаһының
республике
республики
реставрация
реставрациялана
реставрациялау
ресторан
ресторандар
рестораны
ресурс
ресурсов
ресурстар
ресурстары
ресурстарын
ресурстарының
ресурстарҙы
ресурсы
ретдин
ретдинов
референдум
реформа
реформалар
реформалары
реформатор
реформация
реформаһы
реформы
рец
рецензия
рецепт
речи
речка
речки
речная
речь
решение
решении
решения
ржев
ри
риа
рига
ригала
ригведа
риголетто
рид
риза
ризаитдин
ризалаша
ризалашмаи
ризалығы
ризалығын
ризалыҡ
ризаһыҙлығын
ризаһыҙлыҡ
ризван
ризығы
ризыҡ
ризыҡтар
ризыҡтары
ризыҡты
рии
рик
рика
рикардо
рим
рима
риман
римгә
римда
римдең
римдың
римдә
римлеләр
римма
римскии
римға
ринат
рио
рипол
рис
рита
ритм
ритмик
риторика
ритуал
риф
рифат
рифеи
рифҡәт
рихард
рихтер
риц
ричард
ришат
риүәи
риә
рк
ркка
ркп
рксм
рлыҡ
рн
рная
рнк
рныи
ро
роберт
роберто
робин
робот
ров
ровно
рог
рогаче
род
рода
роден
роджер
родился
родина
родине
родину
родины
родионов
родник
родного
роднои
родов
родригес
рождение
рождения
рождественскии
рожков
роза
розалия
розанова
розенберг
рои
рок
року
рокфеллер
ролде
ролдә
ролдәр
ролдәре
ролдәрен
ролдәрҙе
ролдәрҙә
роле
ролен
ролендә
роленә
роли
роль
ролях
ром
роман
романа
романда
романдар
романдары
романды
романдың
романов
романова
романович
романс
романстар
романтизм
романтик
романы
романын
романында
романының
ромб
ромео
рон
рона
рос
роскартография
росс
россиеи
россии
россини
россию
россия
россошь
росспэн
росстат
рост
роста
ростиздат
ростов
ростова
ростове
ростовская
ростовскии
ростовского
ростовское
ростовскои
ростовта
ростовтың
ростовҡа
ростсельмаш
рота
ротару
ротаһы
ротмистр
роща
роғо
роғоноң
роҡ
роҡло
рп
рпц
рр
рсдрп
рсфср
рт
ру
рубеже
рубен
рубенс
рубин
рубинштеи
рубле
рублеи
руда
руденко
руднигы
рудник
рудольф
рузвельт
рук
руки
руководитель
руководство
руководством
рукописи
рулла
руллин
руллина
рум
руми
румын
румындар
румыния
румынияла
румынияның
румянцев
рун
руниверс
рус
русе
руси
руслан
русланова
русса
русск
русская
русские
русскии
русским
русских
русско
русского
русское
русскои
русском
руссо
руставели
рустар
рустэм
рустә
русь
рут
рух
рухани
рухании
руханиҙар
руханиҙары
рухи
рухлы
рухы
рухын
рухында
ручеи
рф
рфа
ры
рыбаков
рыбинск
рыбы
рыжов
рыков
рынок
рыскулов
рыцарь
рыцарҙар
рыцарҙары
рычков
рэд
рэи
рэп
ряд
рядовои
рядовому
рядом
рязань
рҙар
рҙары
рҙарҙың
рҙың
рүк
рә
рәжәп
рәи
рәил
рәк
рәктәр
рәлеүселәр
рәлеүселәрҙең
рәми
рәмиев
рәмил
рәмилә
рәнгән
рәнгәндә
рәнелгән
рәнелә
рәнеп
рәнергә
рәнеү
рәнеүгә
рәнеүсе
рәнеүселәр
рәнеүҙе
рәнеүҙә
рәни
рәнә
рәнәләр
рәп
рәсем
рәсемдәр
рәсеме
рәсим
рәсимә
рәсми
рәссам
рәссамдар
рәссамдары
рәссамдарының
рәссамдарҙың
рәссамдың
рәссамы
рәссамға
рәсүл
рәсүлев
рәсәи
рәт
рәте
рәтендә
рәтенә
рәтеп
рәтеү
рәткә
рәткән
рәтле
рәттә
рәттән
рәттәре
рәтә
рәфил
рәфис
рәфҡәт
рәхим
рәхими
рәхимов
рәхмәт
рәхмәте
рәхмәтулла
рәхмәтуллин
рәхмәтуллина
рәхәт
рәшид
рәшит
рәшиҙә
рәшәткә
рәшәткәләр
рәҡәғәт
рәүеф
рәүеш
рәүеше
рәүешен
рәүешендә
рәүешендәге
рәүешенә
рәүешле
рәүештә
рәүиз
рәүиздә
рөстәм
рөхсәт
рөхсәте
рөхсәтһеҙ
с
са
саам
саба
сабата
сабаҡ
сабир
сабири
сабирьянова
сабит
сабитов
сабыи
сабынлыҡ
сабынлыҡтар
сабып
сабыр
сава
савва
савельев
савин
савои
савченко
сага
сагитов
сад
сада
садиҡ
садиҡов
садовая
садыков
сажин
саи
саид
саитбатталов
сак
сакмар
саксон
саксония
сал
сала
салават
салавата
салаватская
салаватскии
салат
салауат
салауатнефтеоргсинтез
салауаттың
салехард
салимов
салихов
саллы
салон
салоники
салтыков
салыу
сальвадор
сальери
сальск
сам
сама
самалап
саманан
самара
самарскии
самарскои
самат
самауыр
самая
самаһы
самбо
сами
самого
самое
самои
самоле
самолет
самолеттар
самолеттары
самолеты
самолетын
самом
самоуправления
самсонов
самуил
самур
самураи
самые
самыи
самым
самых
сан
сана
санатории
санитар
санитария
сания
санкт
санскрит
санта
сантиметр
сантиметрға
санто
сантьяго
сапе
сапер
сапҡан
сар
сара
сараево
сараи
сарала
саралар
саралары
сараларын
сараларына
сараларында
сараларының
сараларҙа
сараларҙы
сараларҙың
саранск
сарапул
саратов
сараһы
сараһын
саргон
сарман
сармат
сарматтар
саров
сартр
сары
сарыф
сатира
сатирик
саттаров
сатурн
сатурндың
сатында
сатыр
сауд
сауҙа
сауҙагәр
сауҙагәре
сауҙагәрҙәр
сауҙагәрҙәре
сауҙаны
сауҙаһы
сауҡалыҡ
саф
сафа
сафакүл
сафар
сафаров
сафин
сафина
сафиулла
сафиуллин
сафия
сафонов
сафронов
сафта
сафтан
сафтарына
сафтарында
сафуан
сафуанов
сафына
сафында
сафҡа
саха
сахалин
сахара
сахаров
сахих
саша
сая
саян
саға
саған
сағы
сағыла
сағылдыра
сағылдырыла
сағылдырылған
сағылдырыу
сағылдырыусы
сағылдырған
сағылыш
сағылышы
сағылышын
сағылған
сағын
сағынан
сағында
сағыу
сағыштыра
сағыштырма
сағыштырмалыҡ
сағыштырмаса
сағыштырмаһы
сағыштырып
сағыштырырлыҡ
сағыштырыу
сағыштырғанда
саҙаҡа
саҡ
саҡлы
саҡмағош
саҡмағошнефть
саҡрым
саҡрымда
саҡрымға
саҡта
саҡтан
саҡтар
саҡтарҙа
саҡтағы
саҡыра
саҡыралар
саҡыртып
саҡырыла
саҡырылыш
саҡырылған
саҡырым
саҡырып
саҡырыу
саҡырыуы
саҡырған
саң
саңғы
саңғыла
саңғыһы
сб
сбол
сборная
сборник
сборнике
сборнои
св
свадьба
сваи
свами
сведении
сведения
сведениям
свердлов
свердловск
свердловская
свердловскои
свет
света
свете
светлана
светлая
светлыи
свидетельство
свифт
свияга
свобода
свободная
свободы
свод
свое
своего
своеи
свои
своим
своими
своих
свою
связанная
связеи
связи
связь
свято
святого
святои
святослав
святых
священник
сд
сделать
се
себастьян
себе
себен
себенле
себер
себергә
себерҙе
себерҙең
себерҙә
себерҙән
себя
сев
севан
севастополь
севастополя
север
севера
северная
северного
севернои
северные
северныи
северо
северскии
северсталь
севилья
сегодня
седов
сезанн
сезон
сезона
сеи
сек
секретаре
секретариат
секретариаты
секретары
секретарь
сектор
секторы
секторында
секунд
секундына
секундҡа
секция
секцияһы
сел
села
селе
селекционер
селекция
село
селтәр
селтәре
селтәрен
селтәрендә
селтәренең
селтәренә
селтәрле
селтәрҙәре
сельская
сельские
сельских
сельского
сельское
сельскохозяи
сельсовет
сельсовета
сельсоветов
селәүсендәр
сем
семантик
семантика
семашко
сембер
семе
семеи
семен
семенов
семенова
семенович
семеновна
семинар
семинария
семинарияһы
семинарҙар
семипалатинск
семит
семь
семье
семьи
семья
семәрле
сен
сена
сенат
сенатор
сенегал
сент
сентябргә
сентябре
сентябрендә
сентябрендәге
сентябренә
сентябренән
сентябрь
сентября
сентябрҙә
сентябрҙән
сепг
сепрәк
сер
серафим
серафимович
серб
сербии
сербия
сербияла
сербияның
сербияға
сербтар
сербтарҙың
сервер
сервис
серге
сергеев
сергеевич
сергеевка
сергеевна
сергеи
сергея
сергиев
сергии
серго
сердца
сердце
сере
серебряныи
середине
середины
серен
сержант
сержантскому
сержанты
сериал
сериалында
серии
серия
серияла
сериялы
серияһы
серияһын
серияһынан
серияһында
серле
сермән
серов
серҙәре
серҙәрен
серәкәи
сессия
сессияһы
сессияһында
сестра
сети
сеть
сеченов
си
сибаи
сибири
сибирская
сибирские
сибирскии
сибирского
сибирское
сибирь
сибәр
сибәғәт
сиге
сигелгән
сиген
сигенгән
сигендә
сигендәге
сигенергә
сигенеү
сигенә
сигенән
сигеү
сигизмунд
сигнал
сиднеи
сидоров
сидя
сик
сикке
сикле
сикләи
сикләнгән
сикләнмәгән
сикләнмәи
сикләнә
сикләү
сикләүҙәр
сикте
сиктә
сиктән
сиктәр
сиктәре
сиктәрен
сиктәрендә
сиктәрендәге
сиктәренең
сиктәренә
сиктәренән
сиктәрҙе
сиктәш
сиктәштәре
сикһеҙ
сикһеҙлек
сил
сила
силезия
силу
силы
сильва
силәбе
силәбегә
силәбелә
силәбенән
сим
символ
символдар
символдары
символдарының
символик
символика
символлаштыра
символы
символына
симеон
симметрик
симметрия
симметриялы
симон
симона
симонов
симферополь
симфоник
симфония
симфонияһы
син
сина
синагога
синаи
сингапур
синглы
синенко
синод
синоним
синонимы
синтаксик
синтаксис
синтез
синтезлау
синтезы
синтетик
синфи
синхрон
синыф
синыфтар
синыфты
синыфын
синьцзян
сипаи
сир
сиражетдинов
сиразитдинов
сират
сиратлап
сиратта
сираттан
сираттағы
сираты
сиратында
сире
сирегендә
сирек
сирен
сиренән
сирии
сирия
сиркәү
сиркәүгә
сиркәүе
сиркәүен
сиркәүендә
сиркәүенең
сиркәүенә
сиркәүҙе
сиркәүҙең
сиркәүҙә
сиркәүҙән
сиркәүҙәр
сиркәүҙәре
сирле
сирҙе
сирҙең
сирҙән
сирҙәр
сирҙәрҙе
сиселеше
сисеү
систем
система
системала
системалар
системалары
системаларын
системаларында
системаларының
системаларҙа
системаларҙы
системаларҙың
системалы
системаны
системаның
систематика
системаға
системаһы
системаһын
системаһына
системаһынан
системаһында
системаһындағы
системаһының
системе
системы
сит
ситдиҡова
сите
ситендә
ситендәге
ситенә
ситенән
сити
ситке
ситкә
ситләтелгән
ситләтеп
ситләшә
ситтә
ситтәге
ситтән
ситтәре
ситтәрендә
ситуации
ситуация
сифат
сифатлы
сифаттар
сифаттары
сифаттарын
сифаттарға
сифаты
сифатын
сифатына
сифатында
сицилии
сицилия
сиған
сиғандар
сиғандарҙың
сиҙәм
ск
ска
сказание
сказка
сказки
сказок
скала
скаляр
скандинав
скандинавия
ская
скважин
скважина
скважиналарҙы
сквер
скверы
скверында
скверҙа
сквозь
скворчиха
скеи
ские
скии
ским
скиф
скифтар
ских
склад
ско
скобелев
ского
ское
скои
сколько
ском
скому
скончалась
скончался
скопье
скотт
скрипка
скрипкала
скрипкасы
скульптор
скульпторы
скульпторҙар
скульптура
скульптуралар
скульптуралары
скульптураның
скульптураһы
скуратов
скую
сл
слава
славные
славы
славян
славяндар
славяндарҙың
славяне
славянские
славянских
славянскои
след
следам
следует
слесарь
слобода
слов
слова
словак
словакия
словакияла
словакияның
словактар
словаре
словари
словарь
словаря
словен
словендар
словения
словенияның
слово
служба
службе
службы
случае
случаи
см
смаҡаи
смена
смерти
смерть
сми
смик
смирнов
смирнова
смит
смоленск
смольныи
смысл
снаи
снаряд
снг
снк
снова
снт
со
соавт
соавтор
соавторстве
соавторы
собака
собои
соболев
собор
собора
соборы
соборын
соборында
соборының
соборҙың
собр
собрание
собрании
собрания
собств
собственных
собханғол
событии
события
сов
совершенно
совет
совета
совете
советнигы
советник
советов
советская
советские
советскии
советских
советско
советского
советское
советскои
советском
советтар
советтары
советтарын
советтарының
советтарға
советтарҙың
советтың
советы
советын
советына
советынан
советында
советының
советҡа
совм
совместно
совнарком
современная
современник
современников
современного
современное
современнои
современном
современность
современные
современныи
современных
совхоз
совхозда
совхоздың
совхозы
совхозында
совхозының
согласно
соглашение
сода
содержание
содружества
соединении
создание
создании
создания
сознания
созыв
созыва
сои
соим
соискание
сок
сокол
соколов
соколова
сократ
сокровища
сол
солдат
солдаты
солженицын
солист
солисы
солнечная
солнца
солнце
соло
соловеи
соловье
соловьев
соломон
соломонович
солох
солохо
солоҡ
солоҡсолоҡ
солтан
солтанбәк
солтангәрәев
солтандың
солтанлығы
солтанморат
солтанов
солтанова
солтаны
солтанға
соль
солғап
сомали
сон
соната
сонет
соня
сообщение
сообщения
сообщество
сопрано
сопредельных
соран
сорок
сорокин
сорокина
сорочинск
сорт
сортавала
сортлы
сорттары
сорты
сос
сосна
сосновка
сост
состав
состава
составе
составители
составитель
составлы
составта
составу
составы
составын
составына
составынан
составында
составындағы
составының
состоялась
состоялось
состояние
состоянии
состоянию
состояния
сосьва
сотник
сотрудники
соус
софи
софии
софия
софокл
софья
сохранения
соц
социал
социализм
социализма
социалист
социалистар
социалистик
социалистическая
социалистических
социалистического
социалистическои
социаль
социальная
социально
социального
социальное
социальнои
социальные
социальных
социолог
социологии
социологик
социология
соч
сочи
сочинении
сочинения
союз
союза
союздары
союздаш
союздаштар
союздаштары
союздаштарҙың
союздашы
союздың
союзы
союзын
союзына
союзында
союзының
союзға
соя
соҡоп
соҡор
соҡорло
соҡоро
соҡорои
соҡорҙар
соҡорҙары
сп
спартак
спас
спасскии
спб
спбгу
спектаклдәр
спектаклдәре
спектаклдәрендә
спектаклдәрҙә
спектакле
спектаклен
спектаклендә
спектакль
спектр
спектраль
спец
специальности
специальность
специальныи
спивак
спид
спидвеи
спиноза
спираль
спирт
спиртлы
списка
списки
список
спокан
спорт
спорта
спортивная
спортсы
спортсылар
спортсылары
спортсыларҙың
спортсының
спортсыһы
спорттың
спорту
спорты
способ
справ
справка
справочная
справочник
справочно
справочное
спринт
спринтта
спустя
спутник
ср
сравнительно
сред
среда
среде
среди
средневековои
средневековье
средневековья
среднего
среднеи
среднем
средние
среднии
средних
средняя
средств
средства
среды
срогы
срок
срокка
сс
сср
ссср
ссылка
ссылки
ст
ста
ставка
ставкаһы
ставрополь
ставропольского
стадион
стадионда
стадионы
стадионында
стадияһында
стажировка
стажы
стакан
стал
стала
стали
сталин
сталина
сталинград
сталинградты
сталинды
сталиндың
сталинға
стало
стан
стандарт
стандартлаштырыу
стандарттар
стандарттары
стандарты
станет
станислав
станиславскии
станица
станицаһы
станицаһында
становление
становления
станок
станоктар
станции
станция
станцияла
станциялар
станциялары
станцияның
станцияға
станцияһы
станцияһын
станцияһына
станцияһынан
станцияһында
станцияһының
станы
стар
стара
старая
стареи
старик
старина
старого
старои
старостаһы
старостин
старт
старшии
старшина
старшиналары
старшинаһы
старые
старыи
стат
статеи
статистик
статистика
статистикаһы
статистикаһында
статистики
статистическии
статистических
статистическое
статскии
статус
статусе
статуслы
статусы
статусын
статусына
статусында
статусҡа
статуя
статуяһы
стать
статье
статьи
статью
статья
статьялар
статьялары
статьяһы
статьяһына
статьяһында
стационар
стб
ств
ства
стве
ственного
ственнои
ственных
ствие
ствии
ствия
ство
сте
стеи
стела
стена
стенала
стеналар
стеналары
стеналарын
стеналарында
стенаһы
стенаһына
стенаһында
степан
степанов
степанова
степанович
степановка
степановна
степенеи
степени
степи
степная
степнои
степь
стер
стереотип
стерлинг
стерлитамак
стерлитамакскии
стеры
стефан
стив
стивен
стилдә
стиле
стилен
стилендә
стилендәге
стиленең
стиленә
стилистик
стилләштерелгән
стиль
стипендиаты
стипендия
стихи
стихиялы
стихов
стихотворения
сто
стои
стоит
стокгольм
стокгольмда
столетия
столица
столицы
столыпин
стоматология
стороне
сторону
стороны
стр
страбон
стравинскии
стран
страна
странах
стране
страниц
страница
страницы
страны
страсбург
страсти
стратегии
стратегик
стратегия
страх
страховка
страховкалау
стрельников
стрельникова
стриндберг
стрит
строганов
строение
строи
строительства
строительство
структур
структура
структуралар
структуралары
структуралы
структураһы
структураһын
структураһына
структураһында
структуры
студент
студентов
студенттар
студенттары
студенттарының
студенттарға
студенттарҙы
студенттарҙың
студенты
студия
студияһы
студияһын
студияһына
студияһында
стэнли
стюарт
стәрле
стәрлебаш
стәрлетамаҡ
стәрлетамаҡта
стәрлетамаҡтағы
стәрлетамаҡҡа
су
суахили
субтропик
субъект
субъектам
субъектив
субъектов
субъекттары
субъекты
субэкваториаль
сувениров
суверенитеты
суверенитетын
суворов
суд
суда
судан
судно
суднолар
суднолары
судноһы
судта
судтар
судтары
судтың
суды
судына
судында
судының
судьба
судьбы
судья
судьялар
судьяһы
судҡа
суздаль
суи
сулак
сулеи
сулея
сулин
сулпан
султан
султанмуратов
султанов
султанова
сума
суматра
сумма
суммаһы
суммаһына
сумы
сумған
сун
сунжа
сунь
суперкубогы
сура
сураи
сураш
сурб
сургут
суриков
сурина
суртан
сусҡа
суфия
суфиян
суффиксы
суфыи
суханов
сухая
сухои
сухона
существования
существует
суэц
суҡ
суҡындырылған
суҡындырыу
суҡышы
сфера
сфераһы
сфере
сферик
сфинкс
схема
схемаһы
схемы
сценарии
сценарист
счастье
счастья
сче
сша
съезд
съезда
съездары
съезы
съезына
съезында
съезының
сы
сыбар
сыбаркүл
сыбарланған
сыбыҡ
сызрань
сыи
сыктывкар
сылар
сылары
сылбыр
сылбырлы
сылбыры
сылва
сылыҡ
сым
сыма
сын
сына
сыни
сыновья
сыны
сыпҡаи
сыр
сыртланов
сысҡан
сытина
сыуалыштар
сыуаш
сыуашстан
сыуаштар
сыуаҡ
сыға
сығалар
сығанағы
сығанағына
сығанаҡ
сығанаҡлы
сығанаҡтан
сығанаҡтар
сығанаҡтары
сығанаҡтарын
сығанаҡтарына
сығанаҡтарында
сығанаҡтарға
сығанаҡтарҙа
сығанаҡтарҙан
сығара
сығаралар
сығармаи
сығарыла
сығарылды
сығарылма
сығарылмаһы
сығарылыш
сығарылышы
сығарылған
сығарып
сығарырға
сығарыу
сығарыусы
сығарыуға
сығарыуҙа
сығарыуҙы
сығарыуҙың
сығарған
сығарғанда
сығарғандан
сығарғандар
сығарҙы
сығатаи
сығымдар
сығымдары
сығымдарын
сығымдарҙы
сығымы
сығып
сығыр
сығырға
сығыу
сығыусы
сығыуы
сығыуын
сығыуына
сығыуға
сығыуҙы
сығыш
сығышлы
сығыштар
сығыштары
сығыштарын
сығышы
сығышын
сығышына
сығышында
сыҙамлы
сыҡмаи
сыҡмаған
сыҡты
сыҡтым
сыҡҡан
сыҡҡанда
сыҡҡандан
сыҡҡандар
сыҡҡандыр
сыҡҡансы
сыҡҡанға
сыҡҡас
сыҡһа
сыңрау
сыңғыҙ
сыңғыҙхан
сыңғыҙхандың
сыһы
сьерра
сэв
сэи
сэр
сюжет
сюжеттар
сюжеты
сюита
сюр
ся
сятко
січня
сүкеп
сүкеш
сүл
сүллек
сүп
сүпрә
сүриә
сүриәгә
сүриәлә
сүриәләге
сүриәне
сүриәнең
сүрә
сүрәкәи
сүрәһе
сүс
сә
сәба
сәбәбе
сәбәбен
сәбәп
сәбәпле
сәбәпсе
сәбәпсеһе
сәбәптән
сәбәптәр
сәбәптәре
сәбәптәрен
сәбәптәренең
сәждә
сәи
сәлжүк
сәлжүктәр
сәлим
сәлимгәрәи
сәлими
сәлимов
сәлимә
сәлих
сәлихи
сәлихов
сәлләм
сәлмән
сәлмәнов
сәләм
сәләмәт
сәләмәтлеге
сәләмәтлек
сәләх
сәләхетдин
сәмиғулла
сәмәрҡәнд
сән
сәнскеле
сәнғәт
сәнғәте
сәнғәтен
сәнғәтендә
сәнғәтенең
сәнғәтенә
сәнғәткә
сәнғәтте
сәнғәттең
сәнғәттә
сәнғәттәр
сәнәғәт
сәнәғәте
сәнәғәтен
сәнәғәтендә
сәнәғәтенең
сәнәғәтсеһе
сәнәғәттең
сәнәғәттә
сәпкә
сәриә
сәркәтибе
сәркәтип
сәрмәсән
сәрүәр
сәс
сәселгән
сәселә
сәсеп
сәсеү
сәскә
сәскәле
сәскәлеләр
сәскәләр
сәскәләре
сәскән
сәскәндәр
сәскәһе
сәсле
сәсмә
сәсә
сәсәк
сәсән
сәсәндәр
сәсәне
сәсәниҙәр
сәтләүеге
сәтләүек
сәфәр
сәфәре
сәфәров
сәфәүиҙәр
сәхи
сәхиулла
сәхифәһен
сәхнә
сәхнәгә
сәхнәлә
сәхнәләрендә
сәхнәнән
сәхнәһе
сәхнәһендә
сәхәбәләр
сәғ
сәғит
сәғитов
сәғитова
сәғүд
сәғәт
сәғәте
сәғәтенә
сәғәткә
сәғәтлек
сәғәттә
сәғәттән
сәғәттәр
сө
сөгөлдөр
сөгөлдөрө
сөи
сөләи
сөн
сөнки
сөнни
сөнниҙәр
сөннәт
сөсө
т
та
таба
табабыҙ
табалар
табан
табаҡ
табибы
табип
табиптар
табиптары
табиптарҙың
табл
таблица
таблицала
таблицаһы
таблицаһының
таблицы
табличка
табыла
табылды
табылдыҡтар
табылмаи
табылмаған
табылыуы
табылған
табын
табыныу
табынға
табынған
табып
табырға
табыу
табыусы
табыусыһы
табыуы
табыуға
табыш
табышы
тавда
таврия
таганрог
таганрога
таганроге
таганрогская
таганрогта
таганрогтың
тагил
тагор
таж
тажетдин
тажик
тажикстан
тажы
таз
таи
таиланд
так
также
такие
таким
такое
такои
такси
таксон
тактик
тактика
тал
тала
талабы
талаи
талана
талант
талантлы
таланты
талантын
талап
талапсан
талаптар
талаптары
талаптарын
талаптарына
талаптарға
талар
талау
талаш
талаҡ
талбазы
талибан
талибтар
талип
таллин
талпан
талха
талғын
там
тамам
тамамлаи
тамамлана
тамамланды
тамамланмаи
тамамланмаған
тамамланып
тамамланыу
тамамланыуы
тамамланыуға
тамамланған
тамамланғандан
тамамланғас
тамамлап
тамамларға
тамамлау
тамамлаусы
тамамлаусылар
тамамлаған
тамамлағандан
тамамлағас
тамара
тамаша
тамашалар
тамашасы
тамашасылар
тамашасыларҙың
тамашасыны
тамашасыға
тамағана
тамағы
тамағына
тамағынан
тамағында
тамаҡ
тамаҡтары
тамбов
тамил
таможня
тамсы
тамуҡ
тамъян
тамыр
тамыры
тамырынан
тамырҙан
тамырҙар
тамырҙары
тамырҙарын
тамьян
тамға
тамғалана
тамғалар
тамғалары
тамғалау
тамғаһы
тан
тана
танаис
таналыҡ
танан
танау
танго
танец
танзания
танк
танка
танкист
танктар
танкы
танкылар
танкыға
тантана
тантанала
тантаналар
тантаналы
тантанаһы
тантанаһында
танца
танцы
таныи
таныла
танылды
танылмаған
танылыу
танылған
танымаи
танып
танырға
таныта
танытмаһы
таныу
таныуы
таныш
таныша
таныштыра
танышырға
танышыу
танышҡан
таныған
таныҡлығы
таныҡлыҡ
тап
таплы
тапмаи
таптар
тапты
тапшыра
тапшыралар
тапшырыла
тапшырылды
тапшырылып
тапшырылған
тапшырып
тапшырырға
тапшырыу
тапшырыуы
тапшырыуға
тапшырыуҙар
тапшырыуҙары
тапшырыуҙарын
тапшырыуҙы
тапшырған
тапшырҙы
тапҡан
тапҡандар
тапҡыр
тапҡырға
тапҡырҙан
тапҡырҙар
тар
тара
тараи
тарала
таралар
таралып
таралыу
таралыуы
таралыуын
таралыуына
таралыш
таралған
тарас
тарасов
тарата
таратыла
таратылған
таратып
таратырға
таратыу
таратыусы
таратыуға
таратҡан
тарафынан
тарих
тарихи
тарихсы
тарихсылар
тарихсылары
тарихсыларҙың
тарихсыһы
тарихта
тарихты
тарихтың
тарихы
тарихын
тарихына
тарихынан
тарихында
тарихындағы
тарихының
тарихҡа
тарка
тарковскии
тарлауығы
тарлауыҡ
тармағы
тармағын
тармағына
тармағында
тармағының
тармаҡ
тармаҡлы
тармаҡтар
тармаҡтары
тармаҡтарында
тармаҡҡа
тарта
тарталар
тарттырыла
тарттырылған
тарттырыу
тарту
тартыла
тартылыу
тартым
тартынҡы
тартынҡылар
тартынҡыларҙың
тартып
тартырға
тартыу
тартыуы
тартҡан
тархан
тарханы
тары
тарыи
тарыла
тарылған
тарып
тарырға
тарыу
тарыуҙы
тарған
тарҡала
тарҡалыу
тарҡалыуы
тарҡалыуына
тарҡалған
тарҡалғандан
тарҡалғас
тарҡатыла
тарҡатыу
тарҡау
тасс
тасср
тасуирлаи
тасуирлама
тасуирламаһы
тасуирлана
тасуирланған
тасуирлап
тасуирлау
тасуирлаған
тат
татар
татарса
татарская
татарскии
татарского
татарскои
татарстан
татарстана
татарстанда
татарстандың
татары
татарҙар
татарҙары
татарҙарының
татарҙарҙың
татищев
татлы
татнефть
татыу
татыулыҡ
татьяна
тау
тауар
тауарҙар
тауарҙары
тауарҙарын
тауарҙарҙы
таулы
таулығы
таулыҡаи
таусыҡтар
тауы
тауына
тауынан
тауында
тауындағы
тауының
тауыш
тауышлы
тауыштан
тауыштар
тауыштары
тауышты
тауышы
тауышын
тауышҡа
тауышһыҙ
тауыҡ
тауға
тауҙа
тауҙан
тауҙар
тауҙары
тауҙарына
тауҙарынан
тауҙарында
тауҙарының
тауҙарға
тауҙарҙа
тауҙарҙан
тауҙарҙың
тауҙы
тауҙың
таш
ташбулат
ташкент
ташкентта
ташлаи
ташлама
ташламалар
ташлана
ташландыҡ
ташланған
ташлап
ташларға
ташлау
ташлаған
ташлы
ташта
таштан
таштар
таштары
таштарҙан
таштарҙы
ташты
таштың
ташы
ташыи
ташын
ташып
ташыу
ташыусы
ташҡа
ташҡын
таяна
таянып
таяныс
таянған
таяғы
таяҡ
таға
таған
тағанаи
тағы
тағыла
тағын
тағып
таҙа
таҙарта
таҙартыла
таҙартылған
таҙартып
таҙартыу
таҙлар
таҡ
таҡта
таҡтала
таҡтаташ
таҡҡа
таң
таңсулпан
таңһылыу
таҫма
таҫманың
таҫмаһы
таһир
таһиров
таһирова
тб
тбилиси
тбилисиҙа
тв
твардовскии
тве
твердышев
тверскои
тверца
тверь
твои
творческии
творчества
творчестве
творчество
те
театр
театра
театраль
театральная
театре
театры
театрын
театрына
театрында
театрының
театрға
театрҙа
театрҙар
театрҙары
театрҙарында
театрҙарының
театрҙы
театрҙың
тебе
тебя
тевтон
тег
теге
тегелгән
тегенсе
тегеү
тегеһе
тед
тез
тезисы
теи
тек
текст
текста
текстар
текстары
текстарында
текстарҙы
текстиль
текстов
тексты
текстың
тексы
тексын
тексында
тексының
тектоник
текә
тел
тела
телгә
телгән
телгәнсә
телде
телдең
телдә
телдәге
телдән
телдәр
телдәргә
телдәре
телдәрен
телдәрендә
телдәрендәге
телдәренең
телдәренә
телдәренән
телдәрҙе
телдәрҙең
телдәрҙә
телдәрҙәге
телдәрҙән
теле
телевидение
телевидениела
телевидениеһы
телевидениеһында
телевидениеһының
телевидения
телевизион
телевизор
телеграмма
телеграф
телеканал
телеканалы
телеканалында
телен
телендә
телендәге
теленең
теленә
теленән
телерадиокомпанияһы
телерадиокомпанияһының
телесериал
телескоп
телетапшырыуҙар
телефильм
телефон
телец
телеше
телле
телмәр
телмәре
телмәрендә
телмәрҙә
тело
телсе
тель
тельман
телһеҙ
телә
теләге
теләген
теләгенә
теләгән
теләи
теләк
теләктәр
теләктәшлек
теләмәгән
теләмәи
теләп
теләүселәр
теләһә
тем
тема
темалар
темалары
темаларына
темаларға
тематик
тематикаһы
темаға
темаһы
темаһына
темдәр
теме
темерник
темников
температура
температурала
температуралы
температураның
температураһы
темпл
тему
темы
темәс
тенант
тенанты
тенденции
тенденцияһы
тени
тенишев
теннис
теннисы
тенор
теодор
теодорих
теология
теорема
теоремаһы
теоретигы
теоретик
теоретические
теоретическои
теории
теория
теориялар
теориялары
теорияны
теорияға
теорияһы
теорияһын
теорияһына
теорияһында
теорияһының
теп
теперь
тер
теракт
терапевт
терапия
терапияһы
тербуны
тергеҙгән
тергеҙелгән
тергеҙелә
тергеҙеп
тергеҙергә
тергеҙеү
тергеҙеүгә
тергеҙеүҙә
тергеҙә
тергә
тере
терегөмөш
тереза
терезия
терек
тереклек
тереғолов
теркәгән
теркәи
теркәлгән
теркәлеү
теркәлмәгән
теркәлә
теркәп
теркәү
терлек
термаль
термик
термин
терминал
терминалы
терминдар
терминдары
терминды
терминов
терминологическии
терминология
термины
терминын
термодинамик
термодинамика
термоядро
тернополь
терра
территориаль
территориального
территориальное
территориальном
территориальныи
территориальных
территории
территория
территорияла
территориялар
территориялары
территорияларын
территорияларында
территорияларҙа
территорияларҙы
территорияны
территорияның
территорияға
территорияһы
территорияһын
территорияһына
территорияһынан
территорияһында
территорияһындағы
территорияһының
террор
террора
терроризм
террористик
терса
терһең
терһәк
терәге
терәк
терәлеп
тест
тетрәү
тетрәүе
тетрәүҙән
тех
техас
техн
техник
техника
техниканы
техниканың
техникаһы
техникаһын
техникаһында
техникаһының
техники
техникум
техникумы
техникумын
техникумына
техникумында
техникумының
технические
техническии
технических
технического
техническои
технолог
технологии
технологик
технология
технологиялар
технологиялары
технологияларын
технологияларҙы
технологияһы
технологияһын
технологы
теча
течение
течения
теш
теше
тешле
тештәр
тештәре
теҙелгән
теҙелеп
теҙеп
теҙмәһе
тең
теү
теүгә
теүе
теүенсә
теүәл
теүәллек
ти
тибет
тибы
тибын
тибына
тибындағы
тигеҙ
тигеҙлеге
тигеҙлегендә
тигеҙлегенең
тигеҙлек
тигеҙлектә
тигеҙлектәр
тигеҙләмә
тигеҙләмәләр
тигеҙләмәләре
тигеҙләмәләрҙе
тигеҙләмәләрҙең
тигеҙләмәне
тигеҙләмәнең
тигеҙләмәһе
тигеҙһеҙ
тигеҙһеҙлек
тигр
тигран
тигән
тигәнгә
тигәнде
тигәндә
тигәндән
тигәндәр
тигәне
тиелгән
тиелә
тиерлек
тик
тиклем
тиклемге
тикшергән
тикшергәндә
тикшерелгән
тикшерелеү
тикшерелә
тикшеренеү
тикшеренеүсе
тикшеренеүселәр
тикшеренеүселәре
тикшеренеүселәрҙең
тикшеренеүсеһе
тикшеренеүҙәр
тикшеренеүҙәргә
тикшеренеүҙәре
тикшеренеүҙәрен
тикшеренеүҙәренең
тикшеренеүҙәрҙе
тикшеренеүҙәрҙең
тикшереп
тикшерергә
тикшереү
тикшереүгә
тикшереүе
тикшереүсе
тикшереүселәр
тикшереүҙе
тикшереүҙә
тикшереүҙәр
тикшерә
тиле
тим
тимашев
тимер
тимербаи
тимербулат
тимербулатов
тимергалина
тимери
тимерлек
тимерсе
тимерхан
тимерҙең
тимерҙән
тимирязев
тимор
тимофеев
тимофеевич
тимофеи
тимошенко
тимур
тимәк
тин
тинг
тингы
тингында
тине
тип
типа
типик
типо
типография
типографияһы
типтары
типтағы
типтәр
типтәрҙәр
тир
тираж
тиражы
тирана
тирбәлеү
тирбәлеүҙәр
тирбәлә
тире
тирене
тиреҫ
тиреһе
тиреһен
тиреһенән
тирлән
тирмә
тирмән
тирмәне
тироль
тирә
тирәк
тирәкле
тирәлә
тирәләге
тирәләи
тирәһе
тирәһендә
тирәһендәге
тирәһенә
тис
тит
титан
тито
титов
титрах
титул
титулы
титулын
титулына
тиф
тифлис
тихая
тихвин
тихии
тихого
тихомиров
тихонов
тихонович
тициан
тишеге
тишек
тишектәр
тиҙ
тиҙерәк
тиҙлеге
тиҙлеген
тиҙлегенә
тиҙлек
тиҙлекле
тиҙлектә
тиҙләнеш
тиҙләтелгән
тиҙләтеү
тиҙләтә
тиҙҙән
тиҙәр
тиң
тиңләштерелә
тиҫкәре
тиҫтә
тиҫтәгә
тиҫтәләгән
тиҫтәләрсә
тиҫтәнән
тиһәң
ткаченко
ткән
ткәндә
ткәндәи
ткәнсә
тлы
тмаи
тмәи
тного
тные
тныи
тных
то
тобол
тоболдан
тобольск
тов
товарищество
тоган
тогда
того
тогы
тоже
тои
ток
токаи
токарев
токарь
токио
токиола
токугава
тол
толковыи
толпар
толстиков
толстого
толстои
только
тольятти
том
тома
томан
томас
томах
томаш
томбои
томда
томдар
томи
томлы
томлыҡ
томск
томскии
томского
тому
томы
томь
тон
тони
тонна
тоннанан
тоннаға
тоноҡ
тоо
топ
топографик
топографическая
топография
топологик
топология
топоним
топонимдар
топонимдары
топонимик
топонимика
топонимикаһын
топонимист
топонимисы
топонимическии
топонимов
топонимы
тор
тора
торалар
торама
торамалар
торамаһы
торатау
торағы
тораҡ
тораһы
торба
торбалар
торбалары
торжок
торлағы
торлаҡ
тормаи
тормаған
тормош
тормошо
тормошон
тормошона
тормошонан
тормошонда
тормошондағы
тормошоноң
тормошсан
тормошта
тормоштан
тормошто
тормоштоң
тормошҡа
торна
торналар
торонто
тороп
торопов
торор
торорлоҡ
торорға
торос
тороу
тороусы
тороуы
тороуын
тороуға
торош
торошло
торошо
торошон
торошона
торошонда
торошоноң
торошта
торпедо
торрес
торф
торғаи
торған
торғанда
торғандар
торғаны
торғас
торҙо
торһа
тос
тот
тота
тоталар
тоташ
тоташа
тоташтыра
тоташтырыла
тоташтырылған
тоташтырып
тоташтырыу
тоташтырыусы
тоташтырған
тоташтырғыс
тоташҡан
тотмаи
тотола
тотолған
тотона
тотонола
тотонолған
тотонорға
тотоноу
тотонған
тотоп
тотороҡло
тотороҡһоҙ
тоторға
тотоу
тотоусы
тотоусылар
тотоуы
тотоуға
тотоуҙы
тотош
тотошлаи
тотошо
тотьма
тотҡан
тотҡандар
тотҡарлаи
тотҡон
тотҡондар
тотҡондарҙы
точка
точки
тоя
тояҡ
тоғро
тоғролоҡ
тоҙ
тоҙло
тоҙлолоғо
тоҙо
тоҙҙар
тоҙҙары
тоҡ
тоҡана
тоҡанған
тоҡом
тоҡомдар
тоҡомдары
тоҡомдарын
тоҡомдарынан
тоҡомдарының
тоҡомло
тоҡомо
тоҡомонан
тоҡомсолоҡ
тоҫҡаусыһы
тр
травиата
травматология
трагедии
трагедия
трагедияһы
трагик
трад
традиции
традицион
традиция
традициялар
традициялары
традицияларын
традицияларына
традицияһы
траи
трактат
трактаты
трактатында
трактор
тракторсы
тракторсылар
тракторсыһы
тракторҙар
тракты
тралитет
траль
трамваи
трамплиндан
транзит
трансильвания
транскрипция
транскрипциялар
транскрипцияһы
транспорт
транспорта
транспорты
трапеция
трасса
трассаһы
тре
треи
трек
тренер
тренером
тренеры
тренерҙар
тренерҙары
трест
тресы
тресында
тресының
третии
третье
третьего
третья
третьяков
третьяковская
трех
три
трибунал
тригонометрик
триллион
трилогия
триполи
триумф
триумфаль
троекуров
трои
троица
троицк
троицкии
троллеи
трон
тропик
трофеи
трофи
трофимов
троцкии
троцкистар
троя
трубецкои
труд
труда
трудов
трудовая
трудовои
труды
труппа
труппаһы
труппаһына
труппаһында
тс
тся
тт
тта
ттар
ттары
тте
тты
ттың
ту
туба
туберкуле
туберкулез
тубы
тубыл
туи
тула
тулаи
тултыра
тултырылған
тултырып
тултырыу
тултырыусы
тулы
тулылана
тулыландыра
тулыландырыла
тулыландырылған
тулыландырып
тулыландырыу
тулыраҡ
тулыу
тулыуға
тулыһынса
тулған
тулғанда
тулғас
тулҡын
тулҡындар
тулҡындары
тулҡынлы
тулҡыны
тун
тундра
тунис
туп
тупаҫ
тупеев
туплаи
туплана
тупланмаһы
тупланып
тупланған
туплап
тупларға
туплау
туплаған
тупрағы
тупраҡ
тупраҡлы
тупраҡта
тупраҡты
тупраҡтың
тупраҡҡа
тупты
тупҡа
тур
тура
тураи
турала
туралған
туран
туранан
турап
тураһында
тураһындағы
турбаҫлы
тургенев
турецкои
туризм
туризма
туризмы
турин
турист
туристар
туристарҙы
туристарҙың
туристик
туристическии
турнир
турниры
турнирында
турнирҙа
турнирҙар
турнирҙарҙа
турнирҙың
турции
турция
туры
турында
турғаи
турҙа
туси
тут
туташтары
туташы
туфан
тухачевскии
туғаи
туған
туғандар
туғандары
туғандарын
туғандарына
туғандарының
туғандаш
туғанлашҡан
туғанлыҡ
туғаны
туғанының
туғыҙ
туғыҙынсы
туҙан
туҙған
туҡ
туҡаев
туҡаи
туҡлана
туҡланалар
туҡланыу
туҡланыуы
туҡлыҡлы
туҡмаи
туҡмаҡ
туҡтаи
туҡтала
туҡталып
туҡталыш
туҡталышы
туҡтамаи
туҡтамыш
туҡтап
туҡтата
туҡтатмаи
туҡтатыла
туҡтатылған
туҡтатып
туҡтатырға
туҡтатыу
туҡтатҡан
туҡтауһыҙ
туҡтаған
туҡыма
туҡымалар
туҡыманан
туҡымаһы
туҡыу
туҡһан
туң
туңа
туңмаи
туңған
тчигы
тчик
тчиктар
ты
тыва
тыи
тыл
тыла
тылсымлы
тылына
тылында
тылған
тым
тымыҡ
тын
тынан
тында
тындағы
тынлы
тынлыҡ
тыныс
тыныслыҡ
тыныслыҡты
тынғыһыҙ
тып
тыр
тырнаҡлы
тырыш
тырыша
тырышалар
тырышлығы
тырышлыҡ
тырышып
тырышыу
тырышыуы
тырышҡан
тырға
тыс
тысяч
тысячи
тыу
тыуа
тыуар
тыумыштан
тыуы
тыуым
тыуып
тыуыу
тыуыуы
тыуыуына
тыуыуының
тыуған
тыуғанда
тыуғандан
тыуғандар
тыуғас
тыуҙы
тыуҙыра
тыуҙырмаи
тыуҙырыу
тыуҙырыусы
тыуҙырған
тыуҙырҙы
тыуһа
тыш
тышта
тыштан
тышы
тышҡа
тышҡы
тыя
тығыҙ
тығыҙлығы
тыҡрығы
тыҡрығында
тыҡрыҡ
тың
тыңлаи
тыңлап
тыңларға
тыңлау
тыңлаусы
тыңлаусылар
тыңлаусыһы
тэц
тюлькин
тюмень
тюрингия
тюркские
тюркских
тюркского
тянь
тҡа
тҡан
тҡанда
тҡандан
тҡас
түбә
түбәгә
түбәле
түбәләр
түбәләре
түбәләҫ
түбән
түбәнге
түбәнгә
түбәндә
түбәндәге
түбәндәгеләр
түбәндәгеләрҙе
түбәндәгесә
түбәндәрәк
түбәне
түбәнерәк
түбәнәи
түбәһе
түбәһендә
түбәһенә
түбәһенән
түгел
түгеллеген
түгелме
түлек
түлекте
түләгән
түләи
түләк
түләнгән
түләнә
түләп
түләргә
түләү
түләүле
түләүҙе
түләүҙән
түләүҙәр
түләүһеҙ
түн
түнә
түрә
түш
түше
түшәлгән
түңгәүер
түңкәрелеш
түңкәрелеше
түңәрәге
түңәрәгендә
түңәрәгенә
түңәрәк
түңәрәктең
түңәрәктә
түңәрәктәр
тә
тәбиғи
тәбиғәт
тәбиғәте
тәбиғәтен
тәбиғәтенә
тәбиғәткә
тәбиғәтле
тәбиғәтте
тәбиғәттең
тәбиғәттә
тәбиғәттән
тәбриз
тәгәрмәс
тәгәрмәсе
тәгәрмәсле
тәжрибә
тәжрибәле
тәжрибәләр
тәжрибәһе
тәжрибәһен
тәжрибәһенә
тәи
тәк
тәкә
тәлмәри
тәлғәт
тәләр
тәм
тәме
тәмен
тәмле
тәмләткес
тәмләткестәр
тәмәке
тән
тәндең
тәне
тәнен
тәнендә
тәненең
тәнзилә
тәнле
тәнлеләр
тәнҡит
тәнҡиткә
тәнҡитле
тәнҡитләгән
тәнҡитләи
тәнҡитләнә
тәнҡитләп
тәнҡитсе
тәнҡитселәр
тәнҡитселәрҙең
тәнҡитсеһе
тәпәи
тәпәш
тәрбиә
тәрбиәгә
тәрбиәле
тәрбиәләгән
тәрбиәләи
тәрбиәләнгән
тәрбиәләнеүселәре
тәрбиәләнеүсеһе
тәрбиәләнә
тәрбиәләп
тәрбиәләү
тәрбиәләүгә
тәрбиәсе
тәрбиәсеһе
тәрбиәүи
тәрбиәһе
тәре
тәреһе
тәрж
тәржемә
тәржемәлә
тәржемәләр
тәржемәләре
тәржемәсе
тәржемәселәр
тәржемәсеһе
тәржемәһе
тәржемәһен
тәржемәһендә
тәртибе
тәртибен
тәртибендә
тәртибенең
тәртибенә
тәртип
тәртипкә
тәртипте
тәртиптә
тәртиптәге
тәртипһеҙ
тәрән
тәрәнерәк
тәрәнлеге
тәрәнлек
тәрәнлектә
тәрәнлектәге
тәрәнәи
тәтешле
тәфтиш
тәхет
тәхете
тәхетен
тәхетенә
тәхетенән
тәхеткә
тәхетте
тәхеттән
тәшкил
тәьмин
тәьминәт
тәьминәте
тәьҫир
тәьҫире
тәьҫирен
тәьҫирендә
тәьҫиренә
тәьҫораттары
тәғлимәт
тәғлимәте
тәғлимәтен
тәғлимәтенә
тәғәи
тәғәлә
тәғәләгә
тәғәләнең
тәҙрә
тәҙрәләр
тәҙрәләре
тәҙрәһе
тәҡдим
тәҡдимде
тәҡдимдәр
тәҡдимдәре
тәҡдиме
тәҡдимен
тәҡүә
тәңкә
тәңкәләр
тәңкәләре
тәңкәһе
тәңре
тәү
тәүбә
тәүге
тәүгеләрҙән
тәүгеһе
тәүлегенә
тәүлек
тәүлеккә
тәүләп
тәүрат
тәүтормош
тәүҙә
тәүҙәрәк
тәүәккәл
тәһран
тәһәрәт
төбәге
төбәгендә
төбәгендәге
төбәгенең
төбәгенә
төбәк
төбәккә
төбәкте
төбәктең
төбәктә
төбәктәге
төбәктәр
төбәктәргә
төбәктәре
төбәктәрендә
төбәктәренең
төбәктәренән
төбәктәрҙең
төбәктәрҙә
төбө
төбөн
төбөндә
төбөндәге
төбөнә
төбөнән
төи
төклө
төкәтмә
төлкө
төмән
төн
төнгә
төнгө
төндә
төндәр
төндө
төньяк
төньяғы
төньяғына
төньяғында
төньяғындағы
төньяҡ
төньяҡта
төньяҡтан
төньяҡтараҡ
төньяҡтағы
төньяҡҡа
төньяҡҡараҡ
төнө
төнөн
төнөндә
төп
төпкөл
төпләнгән
төпләнеп
төпләнеүсе
төпләнеүсенең
төпләнә
төплө
төпәев
төр
төрбәһе
төргә
төрки
төркиҙәр
төркиә
төркиәгә
төркиәлә
төркиәләге
төркиәнең
төркиәнән
төркиәтсе
төркмән
төркмәндәр
төркмәнстан
төркмәнстанда
төркмәнстандың
төркөм
төркөмгә
төркөмдә
төркөмдән
төркөмдәр
төркөмдәргә
төркөмдәре
төркөмдәрен
төркөмдәренең
төркөмдәренә
төркөмдәрҙе
төркөмдәрҙең
төркөмдө
төркөмдөң
төркөмө
төркөмөн
төркөмөндә
төркөмөндәге
төркөмөнә
төркөмөнән
төркөмөнөң
төркөстан
төрлө
төрлөлөгө
төрлөлөгөн
төрлөлөк
төрлөсә
төрмә
төрмәгә
төрмәлә
төрмәнән
төрмәһе
төрмәһендә
төрмәһенә
төрҙә
төрҙәге
төрҙәр
төрҙәргә
төрҙәре
төрҙәрен
төрҙәрендә
төрҙәренең
төрҙәренә
төрҙәренән
төрҙәрҙең
төрҙө
төрҙөң
төрө
төрөк
төрөкмән
төрөктәр
төрөктәргә
төрөктәре
төрөктәрҙе
төрөктәрҙең
төрөктәрҙән
төрөн
төрөндә
төрөндәге
төрөнә
төрөнөң
төрөп
төтөн
төхвәт
төхвәтуллин
төхфәт
төш
төшкән
төшкәндә
төшкәс
төшкө
төшмәи
төштө
төшһә
төшә
төшәләр
төшөм
төшөмдөң
төшөмө
төшөнсә
төшөнсәләр
төшөнсәләре
төшөнсәләрен
төшөнсәләрҙе
төшөнсәне
төшөнсәһе
төшөнсәһен
төшөнсәһенең
төшөнсәһенә
төшөп
төшөргә
төшөргән
төшөрмәләре
төшөрә
төшөрәләр
төшөрөлгән
төшөрөлә
төшөрөп
төшөрөргә
төшөрөү
төшөү
төшөүе
төҙ
төҙәтелгән
төҙәтеп
төҙәтеү
төҙәтеүҙәр
төҙәтмәләр
төҙөгән
төҙөгәндә
төҙөгәндән
төҙөгәндәр
төҙөи
төҙөк
төҙөкләндерелә
төҙөкләндереү
төҙөлгән
төҙөлгәндән
төҙөлгәс
төҙөлдө
төҙөлә
төҙөләсәк
төҙөлөп
төҙөлөш
төҙөлөшкә
төҙөлөшлө
төҙөлөштә
төҙөлөштәр
төҙөлөштө
төҙөлөштөң
төҙөлөшө
төҙөлөшөн
төҙөлөшөндә
төҙөлөшөнә
төҙөлөшөнөң
төҙөлөү
төҙөлөүе
төҙөп
төҙөргә
төҙөткән
төҙөтә
төҙөү
төҙөүгә
төҙөүсе
төҙөүселәр
төҙөүселәре
төҙөүселәрҙең
төҙөүсеһе
төҙөүҙе
төҙөүҙең
төҙөүҙә
төҫ
төҫкә
төҫлө
төҫтә
төҫтәге
төҫтәр
төҫтәре
төҫһөҙ
төҫө
төҫөн
төҫөндә
төҫөндәге
төҫөнә
у
уаи
уан
уандар
уандары
уандарының
уандарға
уандарҙа
уандарҙан
уандарҙы
уандарҙың
уандың
уба
убалар
убалы
убаһы
убии
уборевич
уводь
угату
углеводтар
углекислыи
углерод
угличь
угнту
уго
угол
угра
удар
ударнигы
удел
удк
удмурт
удмуртия
удмурттар
удэ
уезд
уезда
уефа
уже
ужым
узбекистан
узбекистана
узел
узелы
узиков
уи
уилсон
уильям
уильямс
ук
указ
указан
указатель
указать
указлы
указом
указы
указына
указға
укр
украин
украина
украинала
украиналағы
украинанан
украинаны
украинаның
украинаға
украиндар
украине
украинка
украинская
украинскии
украинскои
украины
украі
укроп
ул
улаи
улан
улар
улары
уларға
уларҙа
уларҙан
уларҙы
уларҙың
улдары
улдарын
улдарына
улдарының
уле
улиц
улица
улице
улицы
уллыҡҡа
ултыра
ултыралар
ултырағы
ултыраҡ
ултырма
ултырмалары
ултырта
ултырталар
ултыртыла
ултыртылған
ултыртып
ултыртырға
ултыртыу
ултыртҡан
ултырып
ултырырға
ултырыу
ултырыуы
ултырыш
ултырышта
ултырыштары
ултырышы
ултырышында
ултырған
ултырғанда
улу
улус
улустары
улустың
улусы
улусына
улусынан
улусында
улусының
улы
улым
улын
улына
улынан
улының
ультрафиолет
ульяна
ульянов
ульяновск
ум
ума
умарк
умарта
умартасылыҡ
умение
умер
умырзая
умыртҡа
ун
унан
унарлы
унда
ундаи
ундан
ундағы
ундрицов
унжа
универсаль
университет
университета
университете
университетов
университетта
университеттар
университеттары
университеттарында
университеттарының
университеттарҙың
университетты
университеттың
университеты
университетын
университетына
университетынан
университетында
университетының
университетҡа
уникаль
унитар
унтер
унц
уны
унынсы
уның
уныңса
уныһы
уолтер
уп
упа
упк
упр
управление
управлении
управления
управляющии
упҡын
ур
ура
уравнение
уравнении
уравнения
уразаи
ураи
ураксин
ураксина
урал
урала
уралда
уралдағы
уралдың
урале
урало
уралсиб
уралтау
уралым
уральск
уральская
уральскии
уральского
уральское
уральскои
уралға
урам
урамда
урамдан
урамдар
урамдары
урамдарында
урамдарының
урамдарға
урамдарҙың
урамдың
урамы
урамын
урамына
урамынан
урамында
урамындағы
урамының
урамға
уран
урандың
урап
урарту
уратылған
уратып
уратҡан
урау
ураҙа
ураҡ
ураҡсин
урбанизация
урду
урлаи
урлап
урлау
урман
урманда
урмандар
урмандары
урмандарында
урмандарҙа
урмандарҙы
урмандарҙың
урманды
урмандың
урманлы
урмансы
урмансылыҡ
урманы
урманға
уро
урожаи
урок
уроки
урология
урочище
урсс
урта
уртала
урталарына
урталарында
урталағы
уртаса
уртаҡ
уртаҡлаша
уртаҡлығы
уртаһы
уртаһына
уртаһынан
уртаһында
уртаһындағы
уругваи
урын
урынбаҫары
урынбаҫарҙары
урында
урындан
урындар
урындары
урындарын
урындарына
урындарында
урындарының
урындарға
урындарҙа
урындарҙан
урындарҙы
урындарҙың
урындағы
урынды
урындың
урынлаша
урынлашалар
урынлаштыра
урынлаштыралар
урынлаштырыла
урынлаштырылған
урынлаштырып
урынлаштырырға
урынлаштырыу
урынлаштырыуға
урынлаштырған
урынлашып
урынлашырға
урынлашыу
урынлашыуы
урынлашыуын
урынлашыуына
урынлашҡан
урынлашҡандар
урынлы
урынлыҡ
урыны
урынын
урынына
урынынан
урынында
урынындағы
урынының
урынға
урынған
урыҫ
урыҫса
урыҫтар
урыҫтарҙың
урядник
урғаҙа
урғылып
урҙа
урҙаның
урҙаһы
ус
уса
усадьба
усадьбаһы
усағы
усаҡ
условии
условия
условиях
усман
усманов
усманова
успение
успенскии
успехи
усср
уссурии
устав
уставы
уставына
установлении
устинов
устои
устрои
усть
устье
устья
ут
утар
утары
утарынан
утарында
утарҙа
утверждение
утверждении
уткин
утлы
утрау
утрауы
утрауын
утрауына
утрауынан
утрауында
утрауындағы
утрауының
утрауға
утрауҙа
утрауҙан
утрауҙар
утрауҙары
утрауҙарын
утрауҙарына
утрауҙарынан
утрауҙарында
утрауҙарының
утрауҙарҙа
утрауҙарҙы
утрауҙарҙың
утрауҙы
утрауҙың
утро
утта
уттан
уттар
уттары
утты
уты
утын
утына
утыҙ
утҡа
уфа
уфе
уфим
уфимская
уфимские
уфимскии
уфимского
уфимскои
уфы
ухта
уч
учалы
участие
участием
участии
участка
участкала
участкалары
участкаларында
участкаһы
участкаһын
участкаһында
участники
участников
учащихся
уче
учеб
учебник
учебники
учебно
учебное
учебные
учебных
учение
учении
ученого
ученои
ученые
ученыи
ученых
училища
училище
училищела
училищелары
училищены
училищеның
училищеға
училищеһы
училищеһын
училищеһына
училищеһында
училищеһының
учителеи
учитель
учителя
учреждение
учреждениелар
учреждениелары
учреждениеларын
учреждениеларында
учреждениеларының
учреждениеһы
учреждениеһының
учреждении
учреждения
ушаков
ушакова
уше
ушел
ушинскии
ушла
уэи
уэльс
уэст
уяна
уята
уға
уғата
уғы
уғыр
уғыҙ
уғыҙҙар
уҙа
уҙып
уҙышта
уҙған
уҙғара
уҙғарыла
уҙғарылған
уҙғарған
уҙҙы
уҡ
уҡсы
уҡсылар
уҡсылары
уҡсыһы
уҡыи
уҡыла
уҡылған
уҡымышлы
уҡып
уҡыр
уҡырға
уҡыта
уҡытыла
уҡытылған
уҡытырға
уҡытыу
уҡытыусы
уҡытыусылар
уҡытыусылары
уҡытыусыларының
уҡытыусыларҙың
уҡытыусылыҡ
уҡытыусыһы
уҡытыуға
уҡытыуҙы
уҡытҡан
уҡыу
уҡыусы
уҡыусылар
уҡыусылары
уҡыусыларын
уҡыусыларына
уҡыусыларының
уҡыусыларға
уҡыусыларҙы
уҡыусыларҙың
уҡыусыға
уҡыусыһы
уҡыуы
уҡыуын
уҡыуға
уҡыуҙан
уҡыуҙар
уҡыуҙары
уҡыуҙы
уҡыған
уҡығанда
уҡығандан
уң
уңаи
уңда
уңдан
уңдырышлы
уңында
уңыш
уңышлы
уңыштар
уңыштары
уңыштарға
уңышты
уңышы
уңышын
уңышҡа
уңышһыҙ
уңышһыҙлыҡҡа
уңға
уңған
уҫал
уҫаҡ
уҫман
уҫы
уҫылы
ф
фа
фабрика
фабрикалары
фабрикаһы
фабрикаһында
фадеев
фажиғәле
фаза
фазаһы
фазлыи
фазулла
фазыл
фаи
фаизова
фак
факел
факт
фактик
факто
фактов
фактор
фактория
факторы
факторҙар
факторҙары
факттар
факттарҙы
факты
факультет
факультета
факультетта
факультеттар
факультеттары
факультеттың
факультеты
факультетын
факультетына
факультетында
факультетының
фамилии
фамилия
фамилиялары
фамилиялы
фамилияһы
фамилияһын
фан
фантазия
фантастик
фантастика
фараби
фарадеи
фараз
фараздар
фаразды
фаразлаи
фаразлана
фаразларға
фаразлауынса
фаразы
фарм
фармакология
фарман
фарманы
фармацевтика
фарс
фарсы
фарсылар
фарфор
фарыз
фасад
фасадтары
фасадтың
фасады
фасадына
фасадында
фасадының
фасмер
фатима
фатир
фатирлы
фатиры
фатирында
фатирға
фатирҙа
фатирҙар
фатих
фатиха
фауна
фаунаһы
фауст
фашизм
фашизмға
фашист
фашистар
фашистик
фгбоу
фгуп
фе
февр
февралгә
февралдә
феврале
февралендә
февралендәге
февраленә
февраленән
февраль
февраля
федераль
федеральная
федерального
федеральное
федеральнои
федеральныи
федеральным
федеральных
федератив
федерации
федерация
федерацияһы
федерацияһына
федерацияһында
федерацияһының
федерико
федор
федоров
федорович
федоровка
федоровна
федотов
феи
фекер
фекергә
фекере
фекерен
фекеренсә
фекеренә
фекерләү
фекерҙе
фекерҙә
фекерҙәр
фекерҙәре
фекерҙәрен
феликс
фель
фельдмаршал
фельдшер
феникс
фенина
фенол
феномен
феодал
феодалдар
феодаль
феодосии
феодосия
фердинанд
ференц
ферма
фермаһы
фермаһында
ферменттар
фермер
фернандо
фестивалдең
фестивалдә
фестивалдәр
фестивалдәре
фестивалдәрҙә
фестивале
фестивален
фестивалендә
фестиваленең
фестиваль
фестиваля
фетдин
фетисов
фетнә
фехтование
фз
фи
фигура
фигуралар
фигуралары
фигураларҙың
фигуралы
фигураһы
фидан
фиде
фидель
физ
физигы
физик
физика
физикала
физиканың
физикаһы
физике
физики
физико
физиолог
физиологии
физиологик
физиология
физиологияһы
физиологы
физическая
физических
физическои
физкультура
физматлит
фил
филадельфия
филармония
филармонияһы
филармонияһында
филармонияһының
филатов
филиал
филиала
филиалдары
филиалы
филиалында
филиалының
филип
филипп
филиппин
филиппов
филиппович
филол
филолог
филологии
филологических
филология
филологияһы
философ
философии
философик
философия
философияһы
философская
философские
философскии
философы
фильм
фильма
фильмда
фильмдар
фильмдары
фильмдарын
фильмдарында
фильмдарҙа
фильмды
фильмдың
фильме
фильмов
фильмы
фильмын
фильмына
фильмында
фильмындағы
фильмының
фин
финал
финалда
финалы
финалына
финалында
финалға
финанс
финанслаи
финанслау
финанстар
финансы
финдар
финикии
финикия
финляндии
финляндия
финляндияла
финляндияның
финляндияға
финно
фирма
фирмаһы
фирмаһының
фирғәнә
фирғәүен
фирҙәүес
фирҡә
фирҡәһе
фирүзә
фитнес
фифа
фишер
фиҙакәр
фиҙаҡәр
фк
фкз
флавии
флаг
флаге
флагтың
флагы
флагын
флеи
флеминг
флигель
флинт
флора
флораһы
флоренция
флоренцияла
флорид
флорида
флот
флота
флотилияһы
флоты
флотын
флотына
флотында
флотының
флүзә
флүр
флүрә
фнс
фо
фобос
фои
фокин
фольклор
фольклорсы
фольклоры
фольклорын
фольклорында
фома
фоменко
фомин
фон
фонд
фонда
фонды
фондын
фондына
фондынан
фондында
фондының
фонема
фонетик
фонетика
фонтан
фонтанка
фонтаны
фонында
форд
форма
формала
формалар
формалары
формаларын
формаларының
формалаша
формалаштыра
формалаштырыу
формалашыу
формалашыуы
формалашыуына
формалашҡан
формалағы
формалы
формаль
формате
форматында
формаға
формаһы
формаһын
формаһына
формаһында
формаһындағы
форме
формирование
формированиелары
формирования
формула
формулалар
формулаһы
формы
форт
фортепиано
фортепианола
форум
форумы
фосфор
фото
фотогалерея
фотограф
фотографии
фотография
фотографиялар
фотокүсермәһе
фотосинтез
фотоға
фотоһүрәттәр
фотоһүрәттәре
фр
фрагмент
фрагменттары
фрагменты
фраи
фракия
фракция
фракцияһы
фрам
франк
франклин
франко
франктар
франкфурт
франс
франсиско
франсуа
франц
франции
франциск
франциско
франция
францияла
франциялағы
франциянан
францияның
францияға
француз
француздар
француздарға
француздарҙың
французскии
франческо
фрг
фредерик
фреи
фреска
фрескалар
фрескалары
фригии
фрида
фридрих
фриз
фриц
фролов
фролова
фронт
фронта
фронте
фронтовик
фронтон
фронтта
фронттан
фронттары
фронттарында
фронтты
фронттың
фронты
фронтына
фронтында
фронтының
фронтҡа
фрунзе
фрэнк
фрэнсис
фсб
фу
фуат
фулла
фуллин
фуллина
фундаменталь
функции
функциональ
функция
функциялар
функциялары
функцияларын
функцияларҙы
функцияларҙың
функциялы
функцияны
функцияның
функцияһы
функцияһын
функцияһының
фунт
фураж
фурье
фут
футбол
футболсы
футболсыһы
футболы
фэи
фәи
фәлсәфә
фәлсәфәүи
фәлсәфәһе
фәлән
фәләстин
фәләстинде
фән
фәнгә
фәнде
фәндең
фәндә
фәндәр
фәндәре
фәндәрҙе
фәндәрҙең
фәне
фәнен
фәнендә
фәненең
фәненә
фәнил
фәнис
фәниә
фәнни
фәнүзә
фәрештә
фәрештәләр
фәрзәнә
фәрит
фәриҙә
фәрүәз
фәсхетдин
фәтих
фәттәх
фәтхи
фәтҡулла
фәтҡуллин
фәхретдин
фәхретдинов
фәҡир
фәҡәт
фәүзиә
фәһим
х
ха
хабаровск
хабиров
хаж
хажи
хажиев
хажиәхмәт
хажы
хажға
хазар
хазарҙар
хазина
хазинаһы
хаи
хакас
хаким
хакимдар
хакимдары
хакимдарының
хакимдың
хакимиәт
хакимиәте
хакимиәтендә
хакимиәтенең
хакимиәтенә
хакимлек
хакимлығы
хакимлығын
хакимлығына
хакимлығының
хакимлыҡ
хакимов
хакимы
халдеи
халиков
халиҡ
халиҡов
халыҡ
халыҡсан
халыҡта
халыҡтан
халыҡтар
халыҡтары
халыҡтарын
халыҡтарына
халыҡтарында
халыҡтарының
халыҡтарға
халыҡтарҙа
халыҡтарҙы
халыҡтарҙың
халыҡты
халыҡтың
халыҡҡа
хальмер
халҡы
халҡыбыҙ
халҡыбыҙҙың
халҡым
халҡын
халҡына
халҡынан
халҡында
халҡының
хамас
хамидуллин
хамитов
хамитова
хаммат
хамматов
хаммурапи
хан
хана
хандар
хандары
ханды
хандың
ханлығы
ханлығын
ханлығына
ханлығында
ханлығының
ханлыҡ
ханов
ханс
ханство
ханты
ханы
ханым
хань
ханға
хаос
хара
харабалары
характер
характеристика
характеристикаһы
характеристики
характерлана
характерлы
характеры
характерын
характерҙа
характерҙағы
харам
харбин
харис
харисов
харитон
харламов
хартикаи
харьков
харьковта
хас
хасан
хасанов
хасил
хат
хата
хаталар
хаталы
хатаһы
хатибы
хатип
хатта
хаттар
хаттары
хаттарында
хатты
хатун
хаты
хатын
хатында
хафиз
хафизов
хачатурян
хашим
хаҡ
хаҡлы
хаҡта
хаҡтар
хаҡтары
хаҡтарҙың
хаҡы
хаҡын
хаҡына
хаҡында
хаҡындағы
хаҡының
хаҡҡа
хе
хеев
хеи
хельсинки
хемингуэи
хепбе
херсон
хет
хетдин
хетдинов
хетт
хеҙм
хеҙмәт
хеҙмәте
хеҙмәтен
хеҙмәтендә
хеҙмәтенең
хеҙмәтенә
хеҙмәтенән
хеҙмәткә
хеҙмәткәр
хеҙмәткәре
хеҙмәткәрҙәр
хеҙмәткәрҙәре
хеҙмәткәрҙәрен
хеҙмәткәрҙәренең
хеҙмәткәрҙәренә
хеҙмәткәрҙәрҙең
хеҙмәтле
хеҙмәтләндергән
хеҙмәтләндереү
хеҙмәтләндереүсе
хеҙмәтләндерә
хеҙмәтсе
хеҙмәтсеһе
хеҙмәтсәндәр
хеҙмәтсәндәре
хеҙмәтте
хеҙмәттең
хеҙмәттә
хеҙмәттән
хеҙмәттәр
хеҙмәттәре
хеҙмәттәрен
хеҙмәттәрендә
хеҙмәттәренең
хеҙмәттәренә
хеҙмәттәшлеге
хеҙмәттәшлек
хеҙмәттәшлекте
хеҙмәттәшлектә
хи
хикмәт
хикмәтле
хикәи
химигы
химии
химик
химическая
химических
химическои
химия
химияһы
хин
хинди
хип
хирург
хирургии
хирургик
хирургия
хирургияһы
хирургы
хис
хисаметдин
хисаметдинова
хисамитдинова
хисап
хисаплама
хисаплау
хисламов
хисле
хисматуллин
хисмәтулла
хисмәтуллин
хистәр
хистәрен
хит
хиуа
хк
хл
хлеб
хлебников
хлевнюк
хлор
хмао
хмельницкии
хо
ход
ходе
хозяи
хозяин
хои
хоккаи
хоккеи
холера
холл
холокост
холоҡ
холоҡло
хонеккер
хоп
хопе
хопер
хопр
хор
хорв
хорват
хорватия
хорватияла
хорватияның
хорваттар
хорезм
хореограф
хореографик
хореография
хормеи
хорошо
хорунжии
хоры
хосе
хосров
хосуси
хосусилаштырыу
хотя
хоу
хохлов
хочу
хоҙаи
хоҡуғы
хоҡуғын
хоҡуғына
хоҡуғынан
хоҡуғында
хоҡуҡ
хоҡуҡи
хоҡуҡлы
хоҡуҡтар
хоҡуҡтары
хоҡуҡтарын
хоҡуҡты
хоҡуҡҡа
храм
храма
храмов
храмы
хранения
хребет
хрестоматия
христиан
христиандар
христиандарҙың
христианлыҡ
христианлыҡты
христианлыҡҡа
христос
христофор
хромосома
хромосомалар
хроник
хроника
хроникаһы
хроники
хронологик
хронология
хронологияһы
хронос
хруще
хрущев
хстаг
ху
хуан
хуанхэ
хубилаи
худ
худаи
худож
художеств
художественная
художественного
художественнои
художественные
художественныи
художество
художестволы
художник
художника
художники
художников
худяков
хужа
хужабикә
хужабикәһе
хужалар
хужалары
хужалығы
хужалығын
хужалығына
хужалығында
хужалығының
хужалыҡ
хужалыҡта
хужалыҡтар
хужалыҡтары
хужалыҡтың
хужаһы
хужаһының
хуп
хуплаи
хупламаи
хуплана
хуплап
хуплау
хуплаған
хусаинов
хутор
хуш
хушлашыу
хх
хызыр
хыял
хыяллана
хыялы
хыянат
хэ
хэи
хәбиб
хәбибрахман
хәбибулла
хәбибуллин
хәбир
хәбиров
хәбәр
хәбәрсе
хәбәрсеһе
хәбәрҙе
хәбәрҙәр
хәбәрҙәре
хәбәрһеҙ
хәи
хәким
хәкими
хәкимов
хәл
хәлгә
хәлде
хәлдең
хәлдә
хәлдән
хәлдәр
хәлдәрҙе
хәле
хәлен
хәлендә
хәлендәге
хәленә
хәлил
хәлилов
хәлим
хәлит
хәлиф
хәлифә
хәлифәлеге
хәлле
хәләл
хәләф
хәмзин
хәмзә
хәмит
хәмитов
хәмиҙулла
хәмиҙуллин
хәни
хәниф
хәнифә
хәнәфи
хәрби
хәрбиҙәр
хәрбиҙәре
хәреф
хәрефе
хәрефле
хәрефтән
хәрефтәр
хәрефтәре
хәрәзм
хәрәкәт
хәрәкәте
хәрәкәтен
хәрәкәтендә
хәрәкәтенең
хәрәкәтенә
хәрәкәткә
хәрәкәтсән
хәрәкәтте
хәрәкәттең
хәрәкәттә
хәрәкәттәр
хәрәкәттәре
хәрәкәттәрен
хәрәкәттәрҙе
хәрәкәттәрҙең
хәрәкәттәрҙә
хәрәкәтһеҙ
хәстәрлек
хәсән
хәсәнов
хәтер
хәтергә
хәтере
хәтерендә
хәтерләи
хәтерләткән
хәтерләтә
хәтерләүенсә
хәтерҙә
хәтирәләр
хәтирәләре
хәтирәләрендә
хәтле
хәтлем
хәтәр
хәҙер
хәҙерге
хәҙис
хәҙистәр
хәҙисә
хәҙрәт
хәҙрәти
хәҡиҡәт
хәүеф
хәүефе
хәүефле
хәүефһеҙ
хәүефһеҙлеге
хәүефһеҙлеген
хәүефһеҙлек
хөкүмәт
хөкүмәте
хөкүмәтен
хөкүмәтендә
хөкүмәтенең
хөкүмәтенә
хөкүмәтенән
хөкүмәткә
хөкүмәтте
хөкүмәттең
хөкүмәттәре
хөкөм
хөкөмгә
хөкөмө
хөрмә
хөрмәт
хөрмәтенә
хөрмәтле
хөрәсән
хөснөтдин
хөсәи
ц
ца
цамо
цар
царе
цария
царияла
царияның
царияға
царское
царства
царство
царь
царя
цв
цвет
цветаева
цветаевои
цветков
цветы
цгиа
цев
цева
цезарь
цеи
целлюлоза
цемент
цензура
центнер
центр
центра
центральная
центрального
центральное
центральнои
центральныи
центрах
центре
центров
центрполиграф
церемония
церетели
церкви
церковно
церковь
цех
цехы
цехында
цзинь
цзы
цзэдун
цзя
ци
цивилизации
цивилизация
цивилизацияһы
цивилизацияһының
цивиль
цик
цикл
цикла
циклдары
циклон
циклондар
циклы
циклын
циклында
цилиндр
цимлян
цимлянск
цин
цинк
цинь
циолковскии
цирк
циркы
цит
цитадель
цитата
цитрус
цифрлы
цифры
цифрҙар
цифрҙары
цицерон
цк
цна
цоколь
цру
цска
цунами
цы
цыган
цюи
цюрих
цюрупа
цянь
ч
ча
чавес
чад
чаи
чан
чанышев
чапаев
чаплин
чарли
чарльз
час
часов
часовня
часовняһы
частар
частары
частарын
частарына
частарында
частарының
частеи
части
частично
частности
часто
часть
частях
часы
че
чебоксар
чебоксары
чего
чекмаре
чел
челеби
челентано
человек
человека
человечества
челябинск
челябинская
челябинскии
челябинского
челябинскои
челябинскстат
чем
чемпион
чемпионат
чемпионата
чемпионатта
чемпионаттары
чемпионаттарында
чемпионаттарының
чемпионатты
чемпионаттың
чемпионаты
чемпионатын
чемпионатына
чемпионатында
чемпионатының
чемпиондар
чемпиондары
чемпионы
чен
чепца
чере
через
черек
череповец
черкассы
черкес
черная
чернигов
черниковка
чернобыль
чернов
черновцы
черногор
черногория
черногорияның
чернушка
черныи
черных
черныше
чернышев
чернышевскии
чернявскии
черток
черчилль
чесноковка
честь
четве
четыре
чех
чехия
чехияла
чехияның
чехов
чехова
чеховтың
чеховҡа
чехонте
чехословак
чехословакия
чехословакияла
чехословакияның
чехтар
чечен
чечня
чеш
чжан
чжоу
чжу
чжэн
чик
чикаго
чили
чилилағы
чилиҙа
чилиҙың
чин
чиновнигы
чиновник
чиновниктар
чиновниктары
чины
чинында
чио
чир
чиркеи
чисел
чисельність
числа
числе
численности
численность
число
чистаи
чистяков
чита
читать
чк
чкалов
чл
член
члена
членов
члены
чм
чрезвычаи
чтения
что
чтобы
чу
чуваш
чувашская
чувашскои
чуд
чудес
чудо
чудотворец
чуи
чук
чукот
чулым
чулымдан
чума
чумаков
чумыш
чусовая
чусыу
ш
ша
шаблоне
шаблонов
шагал
шадринск
шаи
шакир
шакири
шакиров
шакуров
шаляпин
шамбы
шамил
шан
шанхаи
шань
шапиро
шапошников
шар
шаран
шарап
шарипов
шарлауығы
шарлауыҡ
шарлауыҡтар
шарлотта
шарль
шарт
шартлата
шартлатыу
шартлатҡыс
шартлау
шартлы
шарттар
шарттары
шарттарын
шарттарына
шарттарында
шарттарының
шарттарға
шарттарҙа
шарттарҙы
шарты
шаршамбы
шаршау
шаршаулы
шары
шарында
шарының
шат
шатланып
шатлыҡ
шау
шафиҡ
шафиҡов
шафран
шах
шахмат
шахматсыһы
шахта
шахте
шахтер
шахты
шашка
шая
шаян
шағир
шағиры
шағирға
шағирҙар
шағирҙары
шағирҙарының
шағирҙарҙың
шағирҙың
шағирә
шағирәһе
шаҡ
шаҡтаи
шаҡша
шаһ
шаһиев
шаһит
шаһитлыҡ
шаһиттар
шаһиты
шаһиәхмәт
шаһтың
шаһы
шварц
швед
шведтар
швеи
швеции
швеция
швецияла
швецияның
швецияға
ше
шевченко
шевчук
шего
шедевры
шее
шежере
шеи
шексна
шекснинск
шекспир
шекспира
шекспирҙың
шем
шереметев
шесть
шеш
шеше
ши
шива
шие
шии
шик
шикелле
шикле
шикһеҙ
шиллер
ширван
ширин
широков
ширҡәте
шитова
шифалы
шифахана
шифаханаһы
ших
шихан
шишкин
шишмә
шишмәләр
шишмәләре
шишмәнең
шишмәһе
шишәмбе
шиғри
шиғриәт
шиғриәте
шиғриәтендә
шиғриәтенең
шиғыи
шиғыр
шиғыры
шиғырын
шиғырына
шиғырында
шиғырҙар
шиғырҙары
шиғырҙарын
шиғырҙарына
шиғырҙарында
шиғырҙарының
шк
шкадов
шкалаһы
шкаф
школ
школа
школе
школы
школьная
школьников
шлем
шмидт
шои
шоколад
шолохов
шолохова
шолоховтың
шон
шопен
шор
шорт
шоссе
шоссеһы
шостакович
шотланд
шотландия
шотландияның
шоу
шофер
шоңҡар
шпион
шре
шри
шрифт
шрифты
штаб
штаба
штабс
штабы
штабына
штабында
штабының
штадт
штаи
штат
штаттан
штаттар
штаттары
штаттарында
штаттарының
штаттағы
штаттың
штаты
штатында
штатындағы
штатының
штеи
штирия
штраус
штраф
штурм
штурман
штурманы
штурмлау
штурмлауҙа
штык
шу
шуберт
шувалов
шуи
шул
шулаи
шулар
шуларҙан
шуларҙың
шуман
шумер
шумилов
шумпетер
шунан
шунда
шундаи
шундуҡ
шунлыҡтан
шуны
шуның
шуныһы
шура
шураһы
шураһының
шуша
шуға
шыи
шым
шыма
шымартылған
шымкент
шына
шырт
шыршы
шыу
шыуып
шыуыу
шүлгән
шүлгәнташ
шә
шәжәрә
шәжәрәһе
шәжәрәһен
шәи
шәкерте
шәкир
шәкүр
шәкүров
шәкәр
шәл
шәлкеме
шәм
шәмбе
шәмсетдин
шәмсетдинов
шәмәхә
шәп
шәр
шәреҡ
шәрип
шәрипов
шәрипова
шәриф
шәрифи
шәрифулла
шәрифә
шәриғәт
шәрҡиәт
шәрҡиәтсе
шәрәфетдин
шәрәфетдинов
шәфҡәт
шәхес
шәхесе
шәхестең
шәхестәр
шәхестәре
шәхестәрҙең
шәхси
шәхсән
шәүрә
шәһит
шөкөр
шөғәи
шөғөлләнгән
шөғөлләнгәндәр
шөғөлләнеп
шөғөлләнергә
шөғөлләнеү
шөғөлләнеүен
шөғөлләнеүсе
шөғөлләнә
шөғөлләнәләр
шөғөлө
шөңгәккүл
щ
ще
щелкунчик
щербаков
щукин
щучье
ъ
ы
ыбыҙ
ыи
ыл
ыла
ылаи
ылан
ыландар
ыланлы
ыласын
ылда
ылдам
ылдан
ылдар
ылдары
ылдарын
ылдарына
ылдарынан
ылдарында
ылдарындағы
ылдарға
ылдарҙа
ылдарҙан
ылдарҙағы
ылдарҙы
ылдарҙың
ылдағы
ылды
ылдын
ылдың
ыллығы
ыллығын
ыллығына
ыллығында
ыллығының
ыллыҡ
ыллыҡта
ыллыҡтар
ыллыҡтарҙа
ыллыҡтың
ыллыҡҡа
ылма
ылмаи
ылмаған
ылмаһы
ылмаһын
ылмаһына
ылъяҙмалар
ылъяҙмаларында
ылъяҙмаларҙа
ылъяҙмаһы
ылъяҙмаһында
ылы
ылылыҡ
ылымыҡтар
ылын
ылына
ылынан
ылында
ылып
ылырға
ылытыу
ылыу
ылыуы
ылыш
ылыштар
ылышы
ылышын
ылышына
ылышында
ылышының
ылыға
ылыҡтыра
ылыҫлы
ылға
ылғала
ылғалар
ылғалары
ылғаларын
ылғаларында
ылғаларының
ылғаларҙа
ылғаларҙың
ылған
ылғанан
ылғаны
ылғаның
ылғаса
ылғаға
ылғаһы
ылғаһыинештән
ылғаһын
ылғаһына
ылғаһынан
ылғаһында
ылғаһындағы
ылғаһының
ылғаһырыбинск
ылғы
ылҡы
ылҡысылыҡ
ым
ымдар
ымдары
ымды
ымдың
ымов
ымы
ын
ына
ыназа
ынан
ынанкострома
ында
ындан
ындар
ындары
ындарын
ындарына
ындарында
ындарының
ындарҙа
ындарҙы
ындағы
ынды
ындың
ыни
ынлы
ынлыҡ
ынлыҡтар
ынса
ынсы
ынсылар
ынсылары
ынсыларҙың
ынсының
ынсыға
ынсыһы
ынтыла
ынтылыш
ынтылышы
ынтылышын
ынтылған
ынтығы
ынтығын
ынтығына
ынтығында
ынтығының
ынтыҡ
ынтыҡтар
ынтыҡтары
ынтыҡтарында
ынтыҡтарҙа
ынтыҡҡа
ыны
ынын
ынына
ынында
ынының
ыныу
ының
ынға
ынған
ып
ыр
ыра
ыралар
ыраҡ
ырлаи
ырлап
ырларға
ырлау
ырлаған
ырлы
ырма
ырмалар
ырмалы
ырмалығы
ырманы
ырмаһы
ырсы
ырсылар
ырсылары
ырсының
ырсыһы
ыртылған
ыртҡыс
ыртҡыстар
ыры
ырыла
ырылалар
ырылмаи
ырылып
ырылыуы
ырылыша
ырылышыу
ырылған
ырылғыһыҙ
ырым
ырымбур
ырымбурға
ырымбурҙа
ырымбурҙан
ырымбурҙың
ырымланған
ырын
ырына
ырында
ырыны
ырының
ырып
ырырға
ырыу
ырыуса
ырыусы
ырыуы
ырыуына
ырыуынан
ырыуының
ырыуға
ырыуҙар
ырыуҙары
ырыуҙарының
ырыуҙың
ырға
ырған
ырғыланған
ырғыс
ырғыта
ырғытыу
ырғыҙ
ырғыҙлы
ырҙа
ырҙан
ырҙар
ырҙары
ырҙарын
ырҙарының
ырҙарҙы
ырҙарҙың
ырҙы
ырҙың
ысул
ысулдар
ысулдары
ысулдарын
ысулдарҙы
ысулды
ысулы
ысулын
ысулына
ысын
ысынбарлыҡ
ысынбарлыҡта
ысынбарлыҡты
ысынбарлыҡҡа
ысынлап
ысынында
ысыҡ
ыт
ыта
ыу
ыуа
ыуан
ыулығы
ыулыҡ
ыусы
ыуы
ыуыла
ыуылдырыҡ
ыуын
ыуына
ыуып
ыуыу
ыуға
ыуҙа
ыуҙан
ыуҙар
ыуҙы
ыуҙың
ыш
ышана
ышанам
ышандыра
ышанмаи
ышанып
ышаныс
ышаныслы
ышанысын
ышанысһыҙ
ышаныу
ышанған
ышев
ышлы
ышлығы
ышлыҡ
ышта
ыштан
ыштараҡ
ыштағы
ыштың
ышы
ышына
ышында
ышындағы
ышыраҡ
ышҡа
ыя
ыялар
ыға
ығаи
ығы
ығыҙ
ыҙа
ыҙғыш
ыҡ
ыҡбаев
ыҡлы
ыҡлыҡ
ыҡса
ыҡтамаҡ
ыҡтары
ыҡтырыу
ыҡтың
ың
ыңғаи
ыҫмала
ыһаздар
ыһаздары
ыһазландырыла
ыһазландырылған
ыһан
ыһангир
ыһаншин
ыһанға
ыһат
ь
э
эвакуация
эвакуацияла
эвакуациялана
эвакуацияланған
эвенк
эверест
эвм
эволюции
эволюцион
эволюция
эволюцияһы
эгеи
эгидаһы
эд
эдвард
эдгар
эдинбург
эдип
эдит
эдмунд
эдуард
эжен
эзбиз
эзбизташ
эзбизташтан
эи
эквадор
экватор
экваториаль
эквивалентлы
экз
экзотик
экипаж
экипажы
эклектика
эколог
экологии
экологик
экология
экологияһы
экономика
экономики
экономист
экономическая
экономические
экономическии
экономических
экономического
экономическое
экономическои
экономия
экран
экрандарға
экс
экскурсия
экскурсиялар
эксмо
экспедиции
экспедиция
экспедицияла
экспедициялар
экспедицияларҙа
экспедицияға
экспедицияһы
экспедицияһында
экспедицияһының
эксперимент
эксперименталь
эксперименттар
эксперт
экспертиза
эксперттар
эксперты
эксплуатация
эксплуатациялау
экспозиция
экспозицияһы
экспонат
экспонаттар
экспонаттары
экспорт
экспорты
экспортҡа
экспресс
экстремаль
эл
элам
элгәрге
элгәре
элегерәк
элек
элекке
элеккесә
электр
электрик
электрлаштырылған
электрлаштырыу
электромагнит
электромеханик
электрон
электрондар
электроника
электронная
электронное
электроннои
электронныи
электротехник
электротехника
электән
элемент
элементар
элементлы
элементов
элементтар
элементтары
элементтарын
элементтарының
элементтарҙы
элементтарҙың
элементтың
элементы
элементының
элемтә
элемтәсеһе
элемтәһе
эленгән
эленеп
элеонора
элеп
элизабет
элиста
элита
элиталы
эллин
эллинистик
эллипс
элм
элмәк
эль
эльба
эльбрус
эльвира
эльза
эльмира
эләгеп
эләгә
эләккән
эләкмәи
эләктереп
эмаль
эмблемаһы
эмигрант
эмиграция
эмиграцияла
эмиграцияға
эмилия
эмиль
эминем
эмма
эмоциональ
эмпирик
энвер
энгель
энгельс
энгр
эндемик
энди
эндрю
энеле
энеолит
энергетигы
энергетик
энергетика
энергетикаһы
энергия
энергияны
энергияның
энергияһы
энергияһын
энеһе
энтони
энцикл
энциклопедии
энциклопедик
энциклопедическии
энциклопедическое
энциклопедия
энциклопедиясы
энциклопедияһы
энциклопедияһынан
энциклопедияһында
энцыклапедыя
энә
эпидемиология
эпидемия
эпидемияһы
эпизод
эпизодик
эпик
эпос
эпосы
эпосын
эпосында
эпоха
эпохи
эпоху
эр
эра
эраның
эраға
эргә
эргәлә
эргәһендә
эргәһендәге
эргәһенә
эргәһенән
эре
эремсек
эрзя
эрзянь
эрзә
эрик
эрих
эрмитаж
эрнест
эрнст
эрозия
эрцгерцог
эс
эсе
эсемлек
эсемлектәр
эсен
эсендә
эсендәге
эсенә
эсенән
эсеп
эсер
эсергә
эсерҙар
эсеү
эскадрилья
эскадрон
эскадроны
эске
эскиздары
эскизы
эскә
эскәми
эскән
эслек
эсперанто
эссе
эссен
эст
эстафета
эстафетала
эстетик
эстетика
эстон
эстондар
эстонии
эстония
эстонияла
эстонияның
эстрада
эстәлеге
эстән
эсә
эсәк
эсәктең
эсәр
эт
эта
этабы
этабында
этап
этапта
этаптарында
этапы
эте
эти
этик
этика
этим
этимологическии
этимология
этимологияһы
этих
эткүл
этник
этническая
этническии
этническои
этно
этнограф
этнографии
этнографик
этнографические
этнографическии
этнографическое
этнография
этнографияһы
этнографы
этнологии
этнология
этноним
этнонимы
этнос
это
этого
этои
этом
этот
этп
эттәр
эту
этюды
этҡол
этәргес
этәрә
эфиопия
эфир
эфирға
эффект
эффектив
эффективности
эффекты
эхо
эш
эше
эшелон
эшен
эшендә
эшенең
эшенә
эшенән
эшкә
эшкәртелгән
эшкәртелмәгән
эшкәртелә
эшкәртеп
эшкәртеү
эшкәртеүгә
эшкәртеүсе
эшкәртеүҙе
эшкәртеүҙең
эшкәрткән
эшкәртә
эшлекле
эшләгән
эшләгәндә
эшләгәндән
эшләгәндәр
эшләгәне
эшләи
эшләмәгән
эшләмәи
эшләнгән
эшләне
эшләнеп
эшләнмәләр
эшләнә
эшләп
эшләпә
эшләр
эшләргә
эшләтеп
эшләү
эшләүгә
эшләүе
эшләүен
эшләүсе
эшләүселәр
эшләүселәрҙең
эшләүсеһе
эшләүҙе
эшләүҙә
эшләүҙән
эшмәкәр
эшмәкәре
эшмәкәрлеге
эшмәкәрлеген
эшмәкәрлегендә
эшмәкәрлегенең
эшмәкәрлегенә
эшмәкәрлегенән
эшмәкәрлек
эшмәкәрлеккә
эшмәкәрлекте
эшмәкәрлектең
эшмәкәрлектә
эшмәкәрҙәре
эшмәкәрҙәренең
эшсе
эшселәр
эшселәре
эшселәренең
эшселәрҙең
эшсеһе
эште
эштең
эштә
эштән
эштәр
эштәргә
эштәре
эштәрен
эштәрендә
эштәренең
эштәренә
эштәренән
эштәрҙе
эштәрҙең
эштәрҙә
эшҡыуар
эшҡыуарлыҡ
эшҡыуарлыҡты
эшҡыуары
эшҡыуарҙар
эшһеҙ
эшһеҙлек
эҙ
эҙе
эҙемтә
эҙемтәләре
эҙемтәләрен
эҙемтәһе
эҙлекле
эҙлелеге
эҙлелек
эҙләгән
эҙләи
эҙләнеү
эҙләнеүҙәр
эҙләп
эҙләргә
эҙләү
эҙмә
эҙҙәре
эҙҙәрен
эҙәрлекләи
эҙәрлекләү
эҫе
эҫем
ю
юань
юбилеи
юбилею
ювелир
ювэи
юг
юга
юган
юго
югослав
югославии
югославия
югославияла
югославияның
югра
юденич
юдин
южная
южно
южного
южнои
южном
южныи
юзеф
юи
юл
юлаев
юлаева
юлаевтың
юлаи
юламан
юлбарыҫ
юлбашсы
юлбашсылары
юлбашсыһы
юлбаҫарҙар
юлда
юлдан
юлдар
юлдары
юлдарын
юлдарында
юлдарының
юлдарҙа
юлдарҙы
юлдарҙың
юлдаш
юлдашбаев
юлдашев
юлдаштары
юлдашы
юлды
юлдыбаи
юлдың
юлиан
юлии
юлия
юллаи
юллана
юллы
юлмөхәмәтов
юлсы
юлсылар
юлтыи
юлы
юлын
юлына
юлынан
юлында
юлындағы
юлының
юлыға
юлыҡ
юлға
юмор
юмористик
юн
юнаи
юнеско
юниор
юниорҙар
юнир
юность
юнусова
юныс
юнысова
юпитер
юра
юридик
юридическая
юридическии
юридических
юрии
юриспруденция
юрист
юрисы
юрия
юрматы
юрмаш
юрмыи
юрьев
юрьевич
юрьевна
юстиниан
юстиции
юстиция
юсупов
ютазы
юхан
юхл
юшатыр
юғала
юғалта
юғалтмаи
юғалтмаған
юғалтылған
юғалтып
юғалтыу
юғалтыуҙар
юғалтыуҙары
юғалтыуҙарға
юғалтҡан
юғалып
юғалыу
юғалған
юғары
юғарыла
юғарыраҡ
юғарыға
юғарғы
юғиһә
юҡ
юҡлығы
юҡмы
юҡҡа
юҫыҡта
я
яаи
яба
ябаи
ябалар
ябалаҡ
яблонскии
ябраил
ябыла
ябылған
ябып
ябырға
ябыу
ябыҡ
ява
является
яга
ягаи
ягафарова
ягода
ягун
ядро
ядроһы
яз
яза
язалаи
язалана
язалап
язаларға
язалау
язаға
язаһы
язаһын
язаһына
язык
языка
языками
языках
языке
языки
языков
языковои
языкознание
языкознания
языком
языку
яи
як
якоб
яков
яковлев
яковлева
яковлевич
яковлевна
якорь
якуб
якутия
якутск
ял
яла
ялан
яланда
яландар
яланды
яландың
яланы
яланын
яланына
яланынан
яланында
яланға
яланғас
ялатылған
ялда
яллаи
ялланып
ялланған
ялпаҡ
ялсығол
ялта
ялтыр
ялтырап
ялыу
ялға
ялған
ялғау
ялғауы
ялғауҙары
ялҡау
ялҡын
ялҡынлы
ям
ямаи
ямал
ямалетдин
ямалетдинов
яман
ямани
ямантау
ямаш
ямғыр
ямғырлы
ямғырҙар
ян
яна
янаи
янар
янаған
янв
январь
января
янг
яндекс
яндыра
яндырыла
яндырылған
яндырып
яндырыу
янина
янка
яновскии
янош
янцзы
яны
яныбаи
янына
янынан
янында
янындағы
янып
яныу
яныулы
янған
янғантау
янғын
янғындан
янғындар
янһары
яп
япаров
япма
япмаһы
япон
япондар
японии
япония
японияла
японияны
японияның
японияға
японскои
яппаров
япрағы
япраҡ
япраҡлы
япраҡтар
япраҡтары
япраҡтарын
яр
яра
яраи
яралана
яраланып
яраланған
яралы
яралыларҙы
яралғы
ярамаи
ярата
яратам
яратмаи
яратып
яратыусы
яратыусылар
яратҡан
ярауаи
ярашлы
ярағы
яраҡ
яраҡлаштырылған
яраҡлашҡан
яраҡлы
яраҡтары
яраҡһыҙ
ярлы
ярлылар
ярлылыҡ
ярлыҡау
ярма
ярмаһы
ярмуллин
ярослав
ярослава
ярославль
ярсыҡтары
ярты
яртылаш
яртыһы
яртыһын
яртыһына
яртыһынан
яртыһында
яртыһындағы
яруллин
яруслы
яры
ярылып
ярым
ярымдан
ярымутрау
ярымутрауы
ярымутрауын
ярымутрауына
ярымутрауынан
ярымутрауында
ярымутрауындағы
ярымутрауының
ярымутрауҙа
ярымутрауҙың
ярымфиналда
ярымшарҙа
ярымшарҙың
ярын
ярына
ярынан
ярында
ярындағы
ярының
ярып
ярыу
ярыш
ярыша
ярышта
ярыштар
ярыштары
ярыштарында
ярыштарҙа
ярышы
ярышында
ярыҡ
ярыҡтар
ярға
ярҙа
ярҙам
ярҙамсы
ярҙамсылары
ярҙамсыһы
ярҙамы
ярҙамын
ярҙамына
ярҙамынан
ярҙамында
ярҙамға
ярҙан
ярҙары
ярҙарын
ярҙарына
ярҙарынан
ярҙарында
ярһыу
яси
яссы
ят
ята
ятаҡ
ятсен
яттан
ятып
ятыусы
ятыуы
ятҡан
ятҡылығы
ятҡылығын
ятҡылығында
ятҡылығының
ятҡылыҡтар
ятҡылыҡтары
ятҡылыҡтарын
ятҡылыҡтарына
ятҡылыҡтарында
ятҡылыҡтарының
яу
яуа
яуап
яуаплы
яуаплылығы
яуаплылыҡ
яуаплылыҡты
яуапһыҙ
яугир
яугире
яугиры
яугирҙар
яугирҙары
яугирҙарҙың
яугирҙәр
яугирҙәре
яуза
яулаи
яулана
яуланы
яуланған
яулап
яуларға
яулау
яулаусы
яулаған
яулыҡ
яун
яуы
яуыз
яуызлыҡ
яуым
яуымбаи
яуын
яуға
яуған
яуҙа
яуҙары
яуҙарҙа
яфа
яфалана
яфаланған
ях
яха
яхин
яхъя
яхья
ячеи
яшин
ящик
ящук
яға
яғы
яғымлы
яғын
яғына
яғынан
яғында
яғындағы
яғының
яғып
яғыулығы
яғыулыҡ
яҙ
яҙа
яҙалар
яҙма
яҙмала
яҙмалар
яҙмалары
яҙмаларын
яҙмаларында
яҙмаларҙа
яҙманы
яҙмаһы
яҙмаһын
яҙмаһында
яҙмаһының
яҙмыш
яҙмышы
яҙмышын
яҙмышына
яҙы
яҙыла
яҙылды
яҙылмаған
яҙылып
яҙылыу
яҙылышы
яҙылған
яҙын
яҙына
яҙында
яҙып
яҙырға
яҙыу
яҙыулы
яҙыусы
яҙыусылар
яҙыусылары
яҙыусыларының
яҙыусыларҙың
яҙыусының
яҙыусыға
яҙыусыһы
яҙыуы
яҙыуын
яҙыуынса
яҙыуға
яҙыуҙа
яҙыуҙар
яҙыуҙары
яҙыуҙы
яҙыуҙың
яҙыша
яҙған
яҙғанда
яҙғандар
яҙғы
яҙғыһын
яҙҙы
яҙҙыра
яҙҙырыу
яҡ
яҡлаи
яҡлана
яҡланған
яҡлап
яҡларға
яҡлау
яҡлаусы
яҡлаусыһы
яҡлауы
яҡлауға
яҡлаған
яҡлағандан
яҡлы
яҡлылар
яҡта
яҡтан
яҡтар
яҡтары
яҡтарын
яҡтарына
яҡтарынан
яҡтарында
яҡтарының
яҡтарға
яҡтарҙа
яҡтарҙың
яҡташтары
яҡтағы
яҡты
яҡтыкүл
яҡтылығы
яҡтылыҡ
яҡтылыҡтың
яҡтырта
яҡтыртыла
яҡтыртыу
яҡтың
яҡуп
яҡупов
яҡут
яҡутстан
яҡшы
яҡшылап
яҡшылыҡ
яҡшыра
яҡшыраҡ
яҡшырта
яҡшыртырға
яҡшыртыу
яҡшыртыуға
яҡшыһы
яҡын
яҡынаи
яҡыная
яҡында
яҡындан
яҡындары
яҡындағы
яҡынлаша
яҡынлашыу
яҡынлығы
яҡынса
яҡыны
яҡыныраҡ
яҡҡа
яңауыл
яңаҡ
яңы
яңыбаи
яңылыш
яңылыҡ
яңылыҡтар
яңынан
яңыраҡ
яңырта
яңыртыла
яңыртылған
яңыртып
яңыртыу
яңырыу
яңырыуы
яңыса
яңғыраи
яңғырау
яңғырауыҡлы
[...]
