!
"
#
##0
##1
##10
##11
##12
##13
##14
##15
##16
##17
##18
##19
##2
##20
##21
##22
##23
##24
##25
##26
##27
##28
##29
##3
##30
##31
##32
##33
##34
##35
##36
##37
##38
##39
##4
##40
##41
##42
##43
##44
##45
##46
##47
##48
##49
##5
##50
##51
##52
##53
##54
##55
##56
##57
##58
##59
##6
##60
##61
##62
##63
##64
##65
##66
##67
##68
##69
##7
##70
##71
##72
##73
##74
##75
##76
##77
##78
##79
##8
##80
##81
##82
##83
##84
##85
##86
##87
##88
##89
##9
##90
##91
##92
##93
##94
##95
##96
##97
##98
##99
$
%
&
'
(
)
*
+
,
-
.
/
0
00
000
0000
00005
001
002
003
004
005
0050
006
007
008
009
01
0108
011
013
014
015
016
017
018
019
02
020
021
022
023
024
025
026
027
028
029
03
030
0300
031
032
033
034
035
036
037
0378
038
039
04
040
0400
041
042
043
044
045
046
047
048
0494
05
050
052
053
054
055
057
058
06
061
0615
062
063
064
066
067
068
069
07
070
071
072
073
074
0748
075
077
079
08
080
082
083
084
085
086
087
088
09
090
091
092
093
095
097
098
099
1
10
100
1000
1001
1002
101
1010
102
1020
1024
1025
1026
103
1039
104
1044
105
1050
1052366
1052580
1058
106
107
108
1080
10833048
109
10918
1097
11
110
1100
1101
1102
111
11170892
112
1125
1126
113
114
115
116
117
117589
118
1189
119
12
120
1200
121
1215
122
1226
123
124
125
126
1265
127
128
1280
1287
129
1296
13
130
1301
131
132
1327
133
134
1341
135
1354
1356
136
137
1377
138
1387
139
1396
14
140
1400
141
1412
142
143
1431
1438
144
1440
145
1452
1454
1459
146
147
1476
148
1480
1486
1488
149
1492
1498
1499
15
150
1500
1502
1504
1505
1506
1509
151
1510
1514
1517
1519
152
1520
1521
1522
1524
1528
153
1535
1538
1539
154
1540
1543
15444
1546
1547
155
1550
1551
1554
1556
1559
156
1560
1562
1564
1565
1567
1568
157
1570
1571
1572
1573
1575
1576
1577
1579
158
1580
1581
1582
1583
1584
1587
1588
159
1590
1591
1593
1595
1596
1597
16
160
1600
1601
1602
1605
1606
1607
1608
1609
161
1610
1611
1616
162
1620
1621
1622
1624
1625
1629
163
1631
1633
1635
1637
1638
1639
164
1640
1641
1642
1643
1646
1647
1649
165
1650
1651
1653
1655
1656
1658
1659
166
1660
1661
1662
1665
1668
1669
167
1675
1678
168
1680
1683
1684
1685
1687
1688
1689
169
1690
1691
1692
1693
1694
1699
17
170
1700
1701
1702
1704
1707
1709
171
1710
1715
1717
1719
172
1720
1721
1724
1726
1727
1729
173
1732
1733
1735
1738
1739
174
1740
1743
1745
1746
1747
1748
1749
175
1750
1753
1754
1755
1756
1757
1758
1759
176
1760
1761
1762
1763
1764
1765
1766
1767
1768
1769
177
1770
1771
1772
1773
1774
1775
1776
1777
1778
1779
178
1780
1781
1782
1783
1784
1785
1786
1787
1788
1789
179
1790
1791
1792
1793
1794
1795
1796
1797
1798
1799
18
180
1800
1801
1802
1803
1804
1805
1806
1807
1808
1809
181
1810
1811
1812
1813
1814
1815
1816
1817
1818
1819
182
1820
1821
1822
1823
1824
1825
1826
1827
1828
1829
183
1830
1831
1832
1833
1834
1835
1836
1837
1838
1839
184
1840
1841
1842
1843
1844
1845
1846
1847
1848
1849
185
1850
1851
1852
1853
1854
1855
1856
1857
1858
1859
186
1860
1861
1862
1863
1864
1865
1866
1867
1868
1869
187
1870
1871
1872
1873
1874
1875
1876
1877
1878
1879
188
1880
1881
1882
1883
1884
1885
1886
1887
1888
1889
189
1890
1891
1892
1893
1894
1895
1896
1897
1898
1899
19
190
1900
1901
1902
1903
1904
1905
1906
1907
1908
1909
191
1910
1911
1912
1913
1914
1915
1916
1917
1918
1919
192
1920
1921
1922
1923
1924
1925
1926
1927
1928
1929
193
1930
1931
1932
1933
1934
1935
1936
1937
1938
1939
194
1940
1941
1942
1943
1944
1945
1946
1947
1948
1949
195
1950
1951
1952
1953
1954
1955
1956
1957
1958
1959
196
1960
1961
1962
1963
1964
1965
1966
1967
1968
1969
197
1970
1971
1972
1973
1974
1975
1976
1977
1978
1979
198
1980
1981
1982
1983
1984
1985
1986
1987
1988
1989
199
1990
1991
1992
1993
1994
1995
1996
1997
1998
1999
2
20
200
2000
2001
2002
2003
2004
2005
2006
2007
2008
2009
201
2010
2011
2012
2013
2014
2015
2016
2017
2018
2019
202
2020
2021
2022
203
204
2045
205
206
207
208
209
21
210
2100
211
212
213
2134
214
215
216
217
218
219
22
220
221
222
223
224
225
226
227
228
229
23
230
231
232
233
234
235
236
237
238
239
24
240
241
242
2421
243
244
245
246
247
248
249
25
250
2500
251
252
253
254
255
256
257
258
259
26
260
2600
261
262
263
264
265
266
267
268
269
27
270
271
272
273
274
275
276
277
278
279
28
280
281
282
283
284
285
286
287
2872
288
289
29
290
291
292
293
294
295
296
297
298
299
3
30
300
3000
301
302
303
304
305
306
307
308
309
31
310
311
312
313
314
315
316
3166
317
318
319
32
320
321
322
323
324
325
326
327
328
329
33
330
331
332
333
334
335
336
337
338
339
34
340
341
342
343
344
345
346
347
348
349
35
350
351
352
353
354
355
356
357
358
359
36
360
361
362
363
364
365
366
367
368
369
37
370
371
372
373
374
375
376
377
378
379
38
380
3800
381
382
383
384
385
386
387
388
389
39
390
391
393
394
395
396
397
398
399
4
40
400
4000
401
402
403
404
405
4051
406
407
408
409
41
410
411
412
413
414
415
416
417
418
419
42
420
421
422
423
424
425
426
427
428
429
43
430
431
432
433
434
435
436
437
438
439
4392
44
440
441
442
443
444
446
447
448
449
45
450
451
452
453
454
455
456
457
458
459
46
460
461
462
463
464
465
466
467
468
469
47
470
471
472
473
474
475
476
477
478
479
48
480
481
482
483
484
485
486
488
489
49
490
491
492
493
494
495
496
497
498
499
5
50
500
501
502
503
504
505
506
507
508
509
51
510
511
512
513
514
515
517
518
519
52
520
521
522
52248
523
524
525
526
527
528
529
53
530
531
532
533
534
535
537
538
539
54
540
541
542
543
544
545
546
547
548
549
55
550
551
552
553
554
555
556
557
558
559
56
560
561
562
563
564
565
566
567
568
569
57
570
571
572
573
574
575
576
577
579
58
580
581
582
583
584
585
586
587
588
58883
59
590
591
592
593
594
595
596
597
598
599
6
60
600
601
602
603
604
605
606
607
608
609
61
610
611
612
613
614
615
616
617
618
619
62
620
621
622
623
624
625
626
627
628
629
63
630
631
632
633
634
635
636
637
638
639
64
640
641
642
643
644
645
646
647
648
649
65
650
651
652
653
654
655
656
657
658
659
66
660
661
663
664
665
666
667
668
669
67
670
671
672
673
674
675
676
677
678
679
68
680
681
682
683
684
685
686
687
688
69
690
691
692
693
694
695
696
697
698
699
7
70
700
7000
701
704
705
706
707
708
71
710
711
712
713
714
7148
715
716
717
718
719
72
720
721
722
723
724
725
726
727
728
729
73
730
7304
731
732
733
734
735
7354
736
737
738
739
74
740
741
742
743
744
745
747
748
749
75
750
751
752
753
755
756
757
758
759
76
760
761
762
764
765
766
767
768
769
77
770
771
772
773
774
776
778
779
78
780
781
782
783
784
785
786
7867
787
788
789
79
791
7913
792
793
794
796
797
798
799
8
80
800
801
802
803
804
805
8053
8058
806
807
808
809
81
810
811
812
816
817
818
819
82
820
821
822
8228
823
824
826
827
828
829
83
830
831
832
834
835
836
837
838
839
84
840
841
842
843
844
846
847
8478
848
849
85
850
851
854
855
856
857
858
859
86
860
86068
861
862
863
864
865
866
867
869
86941
87
870
871
87135
873
876
877
878
87975
88
880
881
882
883
884
885
887
888
889
89
890
891
892
893
894
895
896
897
898
89815
899
9
90
900
9000
9001
902
903
905
907
908
909
91
910
911
912
913
914
915
916
918
919
92
920
922
923
924
925
925577
926
927
928
929
93
930
931
932
933
935
936
937
938
939
94
941
943
945
947
948
94881
949
95
950
951
953
954
955
958
959
96
960
961
962
963
964
965
966
967
968
969
97
970
971
972
974
975
976
977
978
979
98
980
981
982
983
984
985
986
987
988
989
99
990
991
992
993
994
995
996
997
998
999
:
;
<
=
>
?
@
\
^
_
`
a
aa
aab
aac
aagpang
aaiu
aalen
aampong
aar
aaral
aarau
aargau
aaron
ab
aba
ababa
ababalu
abac
abaca
abacan
abacus
abad
abaga
abagat
abajo
abak
abakada
abakanowicz
abala
abalakov
abalos
abalu
abalung
abante
abanto
abarangay
abarca
abasa
abashidze
abashiri
abatyawan
abau
abay
abaya
abayan
abb
abba
abbe
abbeville
abbey
abbot
abbott
abbreviated
abc
abdank
abdel
abdomen
abdominal
abdon
abdul
abdulaziz
abdullah
abe
abegondo
abel
abellana
abeng
abergement
abhoynagar
abias
abiayan
abibitasa
abigail
abingdoni
abiogenesis
abita
abitasa
abiu
abkhazia
ablan
ablanca
ablanque
ablas
able
ablon
abo
abode
aboga
abogacia
abogado
abogadu
abogasya
abomination
abong
abonu
aborlan
abortion
abortions
about
above
abra
abraham
abrams
abramson
abramyan
abrera
abril
abroad
abrus
abruzzo
abs
abscess
absorption
abstr
abstract
abu
abuburi
abucay
abucayan
abueva
abugadu
abugasya
abugidas
abulug
abunda
abung
aburi
abut
abuyog
ac
acacia
acacias
acad
acade
academia
academic
academico
academics
academicu
academicung
academiku
academy
acadian
acalypha
acanthaceae
acaquit
acarina
accademia
accelerators
accent
accents
acceptance
access
accessdate
accessed
accessory
accident
accidental
accidents
accommodation
according
account
accountancy
accountant
accountants
accounting
accounts
accra
accreditation
accredited
accrediting
accuracy
accurate
ace
acebutolol
aceh
acerola
ach
achebe
achieved
achievement
achievements
achiever
achievers
achille
aciculatus
acid
acidic
acidu
acidung
ackee
acker
ackeret
ackermann
ackerson
acknowledged
aclc
acle
acorn
acosta
acoustic
acq
acquired
acres
acronym
acronyms
across
acs
act
acta
actibu
actibung
acting
actinidia
action
actions
activated
active
actividad
activist
activista
activists
activities
activity
activu
acton
actor
actors
actress
actresses
actual
actually
acuna
acung
acup
acute
acutifolia
ad
ada
adair
adam
adamian
adams
adamson
adan
adaptation
adapted
adaptive
add
added
adding
addis
addison
addition
additional
addonizio
address
addresses
addua
ade
adela
adelaide
adele
adelson
ademuz
adh
adige
adigeni
adilabad
adios
adipose
adjacent
adjara
adjective
adjectives
adle
adleman
adler
admin
administered
administrabung
administraciun
administrador
administrasiun
administrasyun
administratibu
administratibung
administration
administrative
administrator
administrators
admiral
admiralty
admission
admistratibung
admitted
admixture
adobe
adolf
adonidia
adoptees
adora
adrada
adrenal
adrenaline
adrenergic
adria
adrian
adriatic
adua
aduampulu
aduan
aduang
aduangpulung
adult
adultery
adults
advance
advanced
advancement
advances
advantage
adventist
adventista
adventure
adventurer
adventures
advertisement
advertiser
advertising
advice
adviser
advisor
advisory
advocacy
advocate
advocates
adwa
adwan
adwang
adygea
ae
aegean
aerial
aero
aerobic
aerobie
aerodynamics
aerolift
aeronautical
aeronautics
aeroplane
aerosmith
aerospace
aesthetics
aeta
af
affair
affairs
affect
affected
affects
affiliate
affiliates
afghan
afghanistan
afi
afp
afrancia
africa
african
afrikaans
afro
after
aftermath
afternoon
ag
aga
agad
agadagad
agagawa
again
against
agama
agamit
agan
agana
agape
agapito
agartala
agassi
agatha
agawa
agay
agdangan
age
aged
agencia
agencies
agency
agenda
agent
agenti
agents
ager
ageratum
ages
agglomeration
aggression
agham
agiang
agila
agiripalli
agiu
agiung
agkas
aglipay
agnan
agnieszka
agno
agnostics
ago
agoncillo
agoo
agos
agosta
agosto
agostu
agoura
agpang
agra
agrarian
agre
agreed
agreement
agresion
agresiong
agri
agricultura
agricultural
agriculture
agrigento
agrikultu
agrikultura
agroekolohi
agroforestry
agronomy
agta
agtaka
aguada
aguak
aguas
aguedo
aguiang
aguila
aguilar
aguiluz
aguinaldo
aguinaldu
aguirre
aguman
agumang
agus
agusan
agusdaya
agustin
agustino
agustus
agutaya
agya
agyang
agyu
agyung
ah
aha
ahan
ahaz
ahead
ahensia
ahensiang
ahensyang
ahenti
ahigal
ahim
ahmad
ahmed
ahmedabad
ahmednagar
ai
aia
aichi
aid
aida
aide
aided
aids
aiguafreda
aigues
ailee
aileen
aim
aimed
aims
ain
aini
aintidian
aintindian
aintindiyan
ainu
air
aira
airborne
aircraft
aire
aired
aires
airfield
airing
airline
airlines
airplay
airport
airports
airtel
airways
ais
aise
aisip
aisne
ait
aita
aiti
aitn
aitu
aiwasan
aix
aizawl
ajaria
ajax
ajmer
ajo
ajos
ajul
ajuntament
ajuy
ak
aka
akademia
akademiang
akademiko
akademikong
akademiku
akademya
akademyang
akakasabi
akakit
akalaban
akamtan
akatumbukan
akbar
akbung
akbungan
akhalkalaki
akhaltsikhe
aki
akikilala
akilala
akilalang
akin
aking
akira
akit
akita
akkap
aklan
aklasan
aklat
aklatan
aklis
akmulan
ako
akola
akrotiri
aksidenti
aksion
aksyon
aktibidad
aktibismu
aktibista
aktibistang
aktibu
aktibung
aktor
aktres
aku
akua
akuang
akukwa
akukwang
akulkul
akumaizer
akumpletu
akung
akwa
akwang
al
ala
alabama
alabang
alabat
alabel
alaga
alagad
alagang
alagpusan
alain
alaior
alak
alako
alal
alala
alalan
alalang
alam
alamada
alamat
alameda
alamillo
alaminos
alamo
alamos
alan
alang
alangalang
alangan
alangilan
alangkurienting
alano
alapap
alarawan
alarco
alaro
alas
alaska
alat
alata
alava
alay
alaya
alayu
alba
albacete
albaida
albalate
albania
albanian
albano
albany
albay
albe
alben
albero
albert
alberta
alberto
albor
albrecht
albright
albuera
albugan
albugang
album
albums
albuquerque
alburquerque
alca
alcala
alcalali
alcalate
alcalde
alcaldes
alcaldi
alcantara
alcaraz
alchemical
alchemy
alcocer
alcohol
alcolea
alcor
alcover
alcoy
alcu
alcudia
alcus
aldea
aldealengua
aldeanueva
aldeaseca
aldehuela
alderney
aldo
aldong
aldrich
aldrin
aldus
ale
alec
alegre
alegri
alegria
alejandrino
alejandro
alejo
aleman
alemania
alemanya
aleosan
alessandria
alessandro
alex
alexander
alexandra
alexandre
alexandria
alfonso
alfoz
alfred
alfredo
alga
algae
algaida
algar
algeciras
algeria
algerian
algorithm
algorithms
alha
alho
ali
aliaga
alialiwang
alian
aliansa
alicante
alice
alicia
alien
alienation
aligarh
alighieri
align
alignbars
alikabuk
alilan
alilem
alimba
alimbaua
alimbawa
alimbawang
alimodian
alimurung
aling
alingongo
alino
alipan
alis
alison
alisyan
alit
alitagtag
aliua
aliuang
alive
aliwa
aliwaliwang
aliwang
aliwapa
aliwapang
aliya
aljarafe
alkalde
alkaldi
alkaline
alkus
all
allacapan
allah
allahabad
allan
allande
allangigan
allariz
alleged
allele
allen
aller
allergic
allergy
alley
alliance
allied
allier
allin
allium
allmusic
allow
allowed
allows
alloy
alma
almacen
almagro
almanac
almansa
almanza
almario
almas
almaty
almaza
almazan
almeida
almendras
almeri
almeria
almodo
almoguera
almonacid
almond
almonds
almost
alo
aloe
alog
aloguinsan
aloha
alone
along
alongside
alonso
alonzo
aloran
aloysius
alpabetu
alpabetung
alpes
alpha
alphabet
alphabetic
alphabetical
alphabets
alphonse
alpine
alpinia
alps
already
alsa
alsace
alsatian
also
alsos
alt
alta
altai
altaic
altarejos
altavas
altavista
altay
alterkop
alternate
alternatibu
alternatibung
alternating
alternative
although
altissima
altitude
altkirch
alto
altorf
altos
alu
alua
aluagi
aluban
alubijid
aluk
aluminium
aluminum
alumni
alumnus
alun
aluntian
aluntiang
aluntyan
aluntyang
alupay
alus
alustante
alutas
alva
alvarez
alvaro
alvendia
alveolar
alveoli
alvin
alviz
alwa
alwang
alwar
always
alwp
alyadu
alzado
alzadon
am
ama
amable
amacc
amadeo
amadeus
amado
amador
amaga
amalgamated
amalia
amamana
amana
amanda
amang
amano
amante
amanu
amanuan
amanung
amanwan
amapola
amar
amaranth
amaravati
amarkantak
amarna
amata
amateur
amatzyah
amaya
amazing
amazon
amb
amba
ambag
ambaguio
ambala
ambassador
ambassadors
ambe
amber
ambidextrous
ambitions
ambrolauri
ambronay
ambrosia
ambulong
ambun
ame
amel
amen
amenasa
amendi
america
american
americana
americanang
americano
americanong
americans
americanu
americanung
americas
amerika
amerikana
amerikanang
amerikang
amerikanu
amerikanung
amerkanu
amerkanung
ames
amherst
ami
amianan
amieva
amiga
amigos
amin
amine
amino
amir
amlan
amlat
amman
ammonia
amnesty
amo
amon
among
amongst
amont
amontay
amor
amorebieta
amount
amoy
amp
ampalaya
ampang
ampanganan
amparo
ampatuan
amphibia
amphibian
amphibians
ampng
ampo
ampolias
ampon
ampong
ampuero
ampulla
ampunan
amputee
amputees
amr
amravati
amreli
amritsar
amrmc
amsberg
amsterdam
amtrak
amu
amulung
amun
amunan
amundsen
amur
amusement
amway
amy
amygdala
amylase
an
ana
anabaptist
anac
anacardiaceae
anacardium
anacleto
anadromous
anahaw
anahawan
anaheim
anak
anakpa
analects
analog
analysis
analyst
analysts
analytical
analyzed
anam
anan
anand
anang
anantapur
anao
anapog
anas
anasi
anastasiades
anatoly
anatomia
anatomical
anatomist
anatomy
anatta
anc
ancestor
ancestral
ancestry
anchor
anchorage
ancient
ancillary
ancona
and
anda
andaluci
andalucia
andalusia
andaluz
andaman
andamanese
andel
anderson
andes
andhra
andlau
andora
andorra
andrada
andratx
andre
andrea
andreas
andrei
andres
andrew
andrews
andro
androgens
android
andy
anecdotes
aneju
anemia
anemone
anethum
aneura
aneurysm
ang
anga
angadanan
angan
angang
angara
angas
angat
angel
angela
angeles
angeli
angelica
angelicum
angelina
angelita
angelito
angelo
angels
angga
angganan
angganang
anggang
anggulu
anghel
angie
angilan
angin
angina
angiosperm
angjel
angkaki
angkor
angle
anglican
anglicans
angling
anglo
angloinfo
angola
angono
angoule
angoustrine
anguilla
anguillara
anguo
angustias
angustifolia
anhalt
anhui
ani
ania
aniamal
aniang
anib
aniban
anibong
anibongan
aniceto
anicia
anido
anievas
aniki
aniking
anilao
animal
animalia
animals
animated
animation
animations
animator
anime
anini
anis
anislag
anislagan
anison
anita
anitap
anito
aniyang
anjar
anjo
ankara
anling
anmen
ann
anna
annals
annapolis
anne
annelid
annelida
annex
annibale
annie
anniversary
annona
annonaceae
annonay
annotated
annotations
announced
announcer
announcers
announces
announcing
annual
annually
ano
anodontostoma
anoia
anoling
anon
anonang
anos
anosmia
another
anqing
anquela
ans
ansar
anselmo
anshan
anson
answer
answers
ant
antagan
antarctic
antarctica
antas
antbase
antelope
antenna
antequera
anterior
anthem
anthemis
anthology
anthony
anthropologic
anthropology
anti
antibes
antibiotic
antibody
antigua
antilles
antimo
antimong
antimony
antimung
antimurin
anting
antioch
antioxidant
antipas
antipodes
antipolo
antipsychotic
antique
antiquities
antiquity
anto
antoine
antolohia
anton
antoni
antonino
antonio
ants
anu
anuling
anunciacion
anuppur
anura
anvil
any
anya
anyang
anymore
anyone
anything
anyu
anyung
anywhere
anzures
ao
aoi
aomori
aon
aorta
aortic
aosta
aoste
aoyama
ap
apa
apad
apagkamalian
apagkatiwalan
apagumasdan
apaintun
apakit
apalit
apalto
apalual
apanayun
apang
apangan
apanigaralan
apansin
apansinan
apapalual
apapangan
apapansinan
aparri
apart
apartheid
apartment
apasala
apaslagan
apat
apatuknang
apaya
apayao
apec
apelidung
apex
aphid
api
apiaceae
apialas
apical
apigampa
apikasundu
apin
apis
apisabi
apl
aplaya
apng
apo
apocalypse
apocrine
apolinario
apollo
apon
apopulasyun
apostol
apostolate
apostolic
apostoliku
apostolikung
app
apparatus
apparently
apparitions
appeal
appeals
appearance
appearances
appeared
appears
appendix
apple
applegate
applet
appleton
application
applications
applied
appointed
appointment
appreciation
approach
approaches
appropriate
appropriations
approval
approx
approximately
apr
apremont
apricot
aprika
aprikanu
april
apruba
apsalan
apsang
apt
aptas
apu
apulia
apulu
apulung
apung
apusan
aqua
aquaculture
aquarium
aquatic
aque
aqueduct
aqueous
aquila
aquinas
aquinian
aquino
aquit
aquitaine
ar
ara
arab
arabia
arabian
arabic
arabo
arabs
arabu
araceli
arachis
arachnid
arado
arago
aragon
aragona
aragonese
arakan
arakap
aral
aralan
aramaic
aramayona
aramdam
aran
arana
aranas
aranda
arandia
arandilla
aranese
araneta
arang
aranga
aranguren
arap
arapan
arapat
araria
aras
arashi
araullo
arauzo
araw
arayat
arboretum
arc
arcachon
arcade
arcadia
arceo
arch
archaea
archaean
archaebacteria
archaeoastronomy
archaeological
archaeology
archaic
archangelica
archbishop
archbishops
archdiocesan
archdiocese
archea
archeology
archer
archers
archie
archimedes
archipelago
archipelagoes
architect
architects
architectu
architectural
architecture
archival
archive
archived
archives
archivo
arco
arcos
arcot
arctic
arde
ardea
ardeche
ardenne
ardennes
are
area
areas
areca
arecaceae
arellano
arena
arenan
arenas
areng
areni
arenys
ares
areti
arevalillo
arevalo
arezzo
argan
argand
argao
argele
argenc
argentina
argentine
argentona
argi
argon
arguably
argument
argumentu
ari
aria
arian
ariana
ariany
arias
arid
arie
ariel
arihiya
arija
aring
aringay
arista
aristorenas
aristotle
aritao
arizona
arkansas
arkhangelsk
arkidiosesis
arkitektu
arkitektung
arkitektura
arkitekturang
arle
arlene
arles
arlington
arm
arma
armada
armadu
armadung
arman
armando
armas
armed
armenia
armenian
armenians
armin
armm
armonisan
armor
armorica
armour
arms
armstrong
armun
army
arnaldo
arnedo
arnel
arno
arnold
arnoux
arnuero
aroroy
around
arpanet
arpes
arpitan
arquitectu
arquitectung
arquitectura
arrah
arrangement
arratia
arratzu
arraya
arredondo
arrest
arrhythmia
arrhythmias
arriba
arrival
arrived
arromanches
arrondissement
arrondissements
arrow
arroyo
arroyomolinos
arrozal
arrubia
ars
arsenal
arsenic
arsenio
arsobispo
arsobispu
arsubispu
art
arta
artacho
arte
arteche
artefact
arteixo
artemio
artemisia
arterial
arteries
arteriole
artery
artes
arthritis
arthropod
arthropoda
arthur
arti
artibai
article
articles
articulo
articulu
articulung
artifacts
artificial
artikulo
artikulu
artikulung
artikulus
artillery
artipisial
artist
artista
artistang
artistic
artists
artlets
artocarpus
arts
artsource
artur
arturo
artwork
aruba
arunachal
arung
aruppukottai
arvind
aryan
arzobispo
arzu
as
asa
asabi
asahan
asahi
asahil
asaihl
asakup
asalgan
asali
asalikut
asan
asanan
asang
asap
asasabi
asasinasyun
asawa
asawang
asbuk
ascension
ascii
ascoli
ascomycete
ascospore
ascus
aseaccu
asean
aseru
asesina
asexual
asf
ash
ashby
ashdod
ashikari
ashita
ashley
ashmolean
ashok
ashoknagar
ashtamichira
ashton
asi
asia
asian
asiana
asiang
asianu
asias
asiatic
asican
aside
asidu
asifabad
asigan
asikan
asin
asinan
asingan
asipulo
asis
aske
asked
askeng
asks
aslag
aslagan
aslagang
aslam
aslgan
aslum
asna
asnang
asneng
asnie
asnong
aso
asociacio
ason
asosia
asp
aspak
asparagales
aspect
aspects
asper
aspetu
aspetung
aspindza
aspx
asque
assad
assam
assamese
assange
assassinated
assassination
assault
assembly
assemblyman
assessing
assessment
assessor
asset
assets
assigned
assimilation
assisi
assistance
assistant
assisted
asso
assoc
associate
associated
associates
association
associations
assumpta
assumption
assurance
assyrian
astana
asteraceae
asterix
asteroid
asthma
asti
astig
astillero
astorga
astra
astrakhan
astro
astrologer
astrology
astronaut
astronauts
astronomer
astronomers
astronomia
astronomical
astronomiya
astronomy
asturian
asturiana
asturias
asturies
asu
asugi
asuk
asul
asulat
asuncio
asuncion
asung
aswang
asya
asylum
asystasia
at
ata
atabay
ataki
atalaya
atandanan
atanggap
ataqui
atari
atatandanan
atbu
atdu
ate
ateneo
atenolol
ath
atheists
athens
athlete
athletes
athletic
athletics
ati
atian
atienza
atilu
atimonan
atin
ating
atipolo
atiu
atiyu
atlanta
atlantic
atlantique
atlantiques
atlas
atleta
atletang
atlu
atlumpulu
atlung
atlwp
atme
atmo
atmosfera
atmospera
atmosperang
atmosphere
atmospheric
atmu
atni
ato
atok
atoll
atom
atomic
atomo
atoms
atong
atop
atp
atrial
atricapilla
atrium
atsaka
atsi
atsing
atsu
atta
attack
attacks
attendance
attendances
attendant
attention
attigny
attorney
attracted
attraction
attractions
attractiveness
attributed
attuned
atty
atuklas
atuklasan
atulayan
atut
atyan
atyu
au
aubagne
auban
aube
aubergine
auburn
auckland
aude
audenaerde
audience
audio
audiobook
audiovisual
auditorium
auditory
audiung
auenheim
auf
aug
auge
augsburg
august
augusta
auguste
augustine
augustinian
augusto
auk
aula
aun
aung
aunor
aur
aura
aurangabad
aurangzeb
aurantium
aurel
aurelio
aurora
aurore
aus
ausan
ausang
aussen
austin
australasia
australia
australian
australis
austria
austrian
austrianung
austro
austronesian
austronesiu
austung
authentic
author
authored
authoring
authorities
authority
authorized
authors
auto
autobiography
autoimmune
automated
automatic
automotive
autonomic
autonomous
autonomy
autor
autoridad
autres
autumn
auve
auvergne
aux
auxerre
auxiliary
available
avalon
avanc
avant
avc
ave
avec
avelino
avellino
avenue
average
averrhoa
avery
aves
avex
aveyron
avi
avian
aviara
aviation
aviators
avid
avignon
avila
avile
aviles
avinyo
avionics
aviv
avn
avocado
avolsheim
awa
awadh
awak
awan
awang
award
awarded
awardee
awardees
awards
awareness
away
awayan
awitan
awrey
awsan
awsang
awstronesyu
awtor
awtoridad
axe
axel
axillary
axis
axle
axon
ay
aya
ayabut
ayala
ayalben
ayalilan
ayalkus
ayambag
ayan
ayari
ayasahan
ayasawa
ayayabut
ayguate
ayng
ayni
ayodhya
ayon
ayta
ayu
ayun
ayungon
ayuntamiento
ayup
ayupan
ayuquitan
ayurveda
ayus
ayusan
az
azaba
azad
azamgarh
azawad
azawagh
azerbaijan
azerbaijani
azerbaijansee
azeri
azeris
azimuth
azores
aztec
azuaga
azucena
azul
azur
azərbaycan
b
ba
baabda
baabdat
baalbek
baao
baas
baath
baay
baba
babae
babag
babagwa
babagwang
babai
babaing
babalik
babalita
baban
babandian
babangalan
babanggitan
babanten
babao
babasan
babatngon
babatyon
babawal
babawasan
babayi
babaying
babel
babi
babie
babing
babo
babong
baboon
babu
babuyan
baby
babye
babyeng
babylon
bac
bacabac
bacacay
bacani
bacao
bacarra
bacayawan
baccalaureate
baccuit
bach
bachao
bachelet
bachelor
bachir
back
background
backs
baclaran
baclayan
baclayon
bacnotan
baco
bacolod
bacolor
bacon
bacong
bacoor
bacsil
bacteria
bacterial
bacterium
bacuag
bacuit
baculud
bacungan
bad
badajoz
badak
badam
baden
badian
badiang
badiangan
badiangon
badilla
badoc
bae
baer
baerendorf
bafta
bag
baga
bagabag
bagac
bagacay
bagakay
bagamanoc
bagan
baganga
bagbag
bagbaguin
bage
bageng
bages
baggao
baghdad
baghdati
bagia
bagiang
baging
bagnols
bago
bagoaingud
bagong
bagtic
bagting
bagu
bagua
baguc
bague
baguer
baguio
bagulin
bagumbayan
bagya
bagyang
bagyu
baha
bahadur
bahah
bahamas
bahamondi
baharampur
bahasa
bahay
bahi
bahia
bahr
bahraich
bahrain
bai
baidbid
baile
bailey
bailiwick
baing
bains
baintau
bairan
bais
bait
baix
baixa
baiyin
baja
bajo
baka
bakal
bakas
bakasiunan
bakat
baker
bakersfield
baking
bakit
bakong
baku
bakud
bakugaiden
bakuhatsu
bakun
bakung
bal
bala
balabac
balabag
balabagan
balag
balagan
balagbag
balaghat
balagtas
balagtasin
balaguier
balak
balakan
balaku
balamban
balamu
balanac
balance
balancing
balang
balanga
balangiga
balangir
balangkas
balangkayan
balansi
balante
balao
balaoan
balaring
balas
balasan
balasenas
balasore
balat
balatan
balatung
balawe
balaya
balayan
balayong
balbalan
balbiki
balboa
balbronn
baldomero
baldwinian
bale
balear
baleares
balearic
balears
balen
baleng
baleno
baler
balete
balhae
bali
balian
baliangao
balibago
balibul
balic
baligtad
baliguian
balik
balikan
balikbalik
balikdan
balilang
balili
balilihan
balimbing
balimbingan
balindong
balingasag
balingoan
balintad
balintang
balintawak
balita
balitang
balite
baliuag
baliw
baliwag
baljorashi
balkan
ball
ballabhgarh
ballade
ballads
ballesteros
ballet
ballia
ballon
balloon
balls
balocawe
baloch
balochi
balochistan
balogo
baloi
balok
balong
balrampur
baltang
baltazar
baltic
baltik
baltimore
balu
baluarte
baluarti
baluat
balubad
balud
balugbug
balugo
baluk
baluktut
balung
balungao
baluno
baluran
balut
baluyut
bam
bamba
bamban
bambang
bamboo
bameng
ban
bana
banaba
banahao
banahaw
banal
banana
bananas
banao
banaoang
banaran
banaras
banate
banaue
banaw
banawa
banawang
banayad
banaybanay
banayoyo
banban
banbanan
banca
bancal
banchi
bancu
band
banda
bandang
bandar
banday
banded
bandera
banderang
bandi
bandila
banding
bandleaders
bands
bandwidth
baneng
bang
banga
bangaan
bangad
bangal
bangalan
bangalore
bangan
banganapalle
bangar
bangbang
bangcal
bangco
bangka
bangkal
bangkang
bangkanita
bangkeru
bangkok
bangku
bangkusay
bangla
bangladesh
bangladeshi
banglu
bangon
bangsa
bangsamoro
bangsang
bangued
bangui
bangus
bani
banilad
banisilan
bank
bankanita
banke
banking
banknotes
banku
banlasan
banlik
banlung
banna
bannari
bannawag
banner
bano
banog
banos
bansa
bansag
bansalan
bansang
bansud
banswara
banta
bantam
bantamweight
bantay
bantayan
bante
banteay
banten
bantigue
bantilan
bantog
bantolinao
banton
bantug
banu
banua
banuang
banuyo
banville
banwa
banwahan
banwang
banyaga
banyagang
banyalbufar
banyoles
bao
baoding
bapa
bapang
bapor
baptist
baptiste
baptists
bapu
bar
bara
baracbac
barack
barajas
baraku
baran
barang
barangay
barangays
baranggay
barangge
barangka
barangobong
baraoas
baras
barasanan
barat
baratack
barayong
barbadillo
barbados
barbara
barbary
barbaza
barbell
barbera
barbie
barbra
barcelona
barco
barden
bardhaman
bardi
bardot
bareilly
bareli
barena
barents
bareyo
bargain
bari
barikir
baril
barilan
barili
barilis
baripada
barira
barit
bariu
barjac
bark
barka
barletta
barley
barlig
barmer
barmin
barmm
barnes
barnett
barobo
baroda
barom
baron
baroness
barong
barongis
barons
baroque
barotac
baroy
barr
barra
barraca
barrameda
barramundi
barrasa
barrera
barrett
barretto
barrier
barrio
barrion
barrios
barriu
barroga
barros
barrueta
barry
bart
bartending
barter
barthelemy
bartini
bartleby
bartoli
bartolome
barugo
barugohay
barurao
barwani
baryanting
baryo
baryu
baryung
bas
basa
basac
basak
basan
basara
basay
bascaran
basco
base
baseball
based
basel
basella
basescu
basey
bashar
bashir
bashkirs
bashkortostan
basho
basi
basiao
basic
basics
basidiocarp
basidiomycete
basidiospore
basil
basilan
basilar
basilica
basilicata
basilicum
basilio
basilisa
basin
basing
basis
basista
basket
basketball
baskinta
basku
basophil
basque
bass
bassas
basse
bassist
basta
bastide
basu
basud
basultu
basultung
basura
basurang
basyang
bat
bata
bataan
batac
batad
batal
batan
batanes
batang
batangan
batangas
bataraza
batas
batasan
batasang
batayan
batch
batchelor
bateria
bates
bath
bati
batia
baticang
batikan
batis
batman
bato
baton
batong
batroun
bats
battambang
battery
battistero
battle
battlefield
battles
batu
batuan
batubalani
batug
batuigas
batuin
batumi
batung
batwin
bau
bauan
bauang
bauer
baugen
bauhinia
bauko
baumgartner
baung
baungon
bautista
baux
bavaria
bavarian
baviera
bawal
bawan
bawang
bawasan
bawat
bay
baya
bayabao
bayabas
bayad
bayag
bayambang
bayan
bayanan
bayang
bayani
bayanihan
bayaning
bayao
bayaran
bayat
bayawan
baybay
baybayin
bayer
bayern
bayeux
bayog
bayombong
bayong
bayreuth
bayu
bayugan
bayung
bazaar
bbc
bbs
bc
bce
bcfest
bd
be
beach
beaches
beacon
beaked
beal
beam
bean
beans
bear
bearing
bears
beas
beast
beat
beaten
beatified
beatles
beato
beaucaire
beaulieu
beaumont
beautiful
beauty
beaux
bebe
bec
became
because
becerril
beck
becker
beckham
become
becomes
becoming
bed
beda
bedans
beddeng
bedia
bediones
bedroom
bee
beed
been
beer
bees
beethoven
beetle
beetles
before
began
begawan
begin
beginners
beginning
begins
begun
behavior
behavioral
behind
bei
beijing
being
beings
beinti
beirut
beit
beitan
beiteddine
bekaa
bel
belarmino
belarus
belarusian
belarusians
belcastel
belen
belfort
belgaum
belgian
belgica
belgium
belgorod
belgrade
belief
believe
believes
believing
belikdan
belison
belita
belize
belknap
bell
bella
bellagio
bellary
belle
belley
bello
bells
belluno
belmont
belmonte
belmopan
beloved
below
belpuig
belt
beltran
beluan
belwan
ben
benares
benavente
benavides
benazir
bench
bend
beneath
benedetto
benedict
benedictine
benedicto
benefit
benefits
benelux
benerabling
benes
benevento
benevolent
benfeld
beng
bengal
bengalensis
bengali
bengaluru
bengbu
bengi
benging
bengisan
bengu
benguet
benica
benicia
benidoleig
benigembla
benign
benigno
benin
benissa
benit
benitez
benito
benjamin
bennett
benny
benquerencia
bent
benton
benz
beqaa
ber
bercianos
berdi
berenguer
berg
bergamo
bergan
bergantin
bergmann
bergondo
beri
beril
bering
berkeley
berkman
berlandieri
berlanga
berlin
berliner
bermudez
bernabe
bernadette
bernal
bernard
bernardino
bernardo
bernhardt
bernie
bernoulli
bernuy
beroun
berre
berries
berrocal
berry
bers
bersion
bersiong
bersu
bersyon
bersyong
bert
bertamira
besanc
besao
beses
beside
besides
besis
bessie
bessin
bessler
best
bestowed
bestseller
bestselling
beta
betamax
betanzos
betaxolol
beterinaryu
beth
bethlehem
betis
better
between
beverage
beverly
beyaran
beyond
bezos
bgy
bha
bhadrachalam
bhagalpur
bhainsa
bhandara
bharat
bharatpur
bharuch
bhati
bhattiprolu
bhavani
bhavnagar
bhikkhu
bhilai
bhiwani
bhojpuri
bhopal
bhubaneswar
bhuj
bhusawal
bhutan
bhutto
bi
bia
biahi
biak
bianca
bias
biasa
biasang
biasong
bibi
bibie
bibilangan
bibili
bibilug
bibilugan
bibisita
bibitasan
bible
biblia
biblical
bibliographic
bibliography
bibliotheca
bibliya
bibye
bical
bicarbonate
biceps
bicicleta
biclat
bicol
bicolano
bicutan
bicycle
bid
bida
bidang
bidar
bidyograpiya
bie
biella
bien
bieng
bienvenido
biernis
bierzo
bietnam
big
biga
bigaa
bigain
bigbiga
bigbugan
biggest
bighorn
bigla
biglaan
biglang
bignay
bigo
bigsak
bigsu
bigu
bigung
bih
bihar
bihari
bihira
bikaner
bike
biklat
bikol
bikola
biktima
bil
bila
bilaglag
bilalag
bilang
bilangan
bilangbilangan
bilar
bilaspur
bilateral
bilateria
bilbao
bile
bili
bilibid
bilimbi
biling
bilingual
biliran
biliranisland
bilirubin
bilis
bilisan
biliun
biliwang
bill
billboard
billed
billiard
billiards
billion
billionaires
bills
billy
bilucao
bilug
bilungan
bilyar
bilyun
bilyung
bimenes
bimmanga
bimodal
bin
bina
binahian
binalay
binalayan
binalbagan
binalik
binalonan
binalut
binang
binangal
binangonan
binary
binawal
binawi
binay
binayu
bindoy
bing
bingawan
bingen
binggitan
bingut
binh
bini
binibining
binidayan
binie
binili
bining
binissalem
binit
binite
binmaley
bino
binogawan
binomial
binomio
binondo
binongto
binotu
bint
bintang
binuangan
binutil
binyagang
binyamin
binye
binzhou
bio
biochemical
biochemistry
biodiesel
biodiversity
bioenergy
biofuel
biogeography
biographical
biographie
biographies
biography
bioki
biol
biologia
biological
biologist
biologists
biology
biologypages
biolohia
biomass
biomatch
biomedical
bionic
biopic
bioquartz
biorhythm
biorhythmics
biorhythms
biosphere
biota
biotechnology
bipolar
bird
birdlife
birds
birhen
biri
birkha
birmania
birth
birthday
birthplace
births
birtud
biru
bisa
bisang
bisaya
biscay
bischheim
bischoffsheim
bischwiller
bise
biseru
biserung
bisexual
bishop
bishops
bishoujo
bisikleta
bisita
bisitang
bisitas
bislig
bismarck
bisni
bissau
bista
bistaman
bisturi
bisu
biswal
bit
bitamina
bitaog
bitasa
bitasang
bitaugan
bite
bitin
bitis
bitmap
bito
bitoon
bitrate
bits
bitschwiller
bitstream
bitsuwelas
bitter
bittorrent
bituin
bituka
bitukang
bitulok
bivona
bixa
biyabas
biye
biz
bizkaia
bkerke
black
blackberries
blackberry
blackbird
blackcurrant
blackcurrants
blacked
blackmail
blacksmith
blackwell
bladder
blade
blaesheim
blah
blair
blaise
blake
blanc
blanca
blanchflower
blanco
blandino
blas
blastula
blaye
blazemonger
blazer
bleeker
blessed
blessings
blest
bleu
blica
blige
blind
bliss
bloch
block
blockading
blocker
blockers
blocks
blog
bloggers
blogs
blogspot
bloki
blood
bloom
bloomberg
bloomington
blossom
blount
blu
blue
blueberries
blueberry
blues
bluetooth
blumentritt
blunt
blvd
bmg
bmj
bmp
bo
boa
boac
boadella
boadilla
boal
boar
board
boards
boardwalk
boat
boath
boats
bob
bobby
bobon
bobongan
boboy
boca
bocaue
bocboc
bock
bodh
bodhgaya
bodies
body
boedo
boeing
bogo
bogota
bogtong
bogus
bogy
bohai
bohe
bohemia
bohemian
bohol
bohr
boi
boimorto
boiro
bois
boise
bok
bokal
bokalista
bokaro
bokma
boko
bokod
boksing
boku
bokunopagewomekureba
bokura
bol
bola
bolan
bolang
bolaoen
bold
boleslav
boli
bolinao
boliney
bolisong
bolivarian
bolivia
bolivian
boljoon
bolo
bolod
bologna
boloh
bolt
bolton
bolzano
bom
bomb
bomba
bombay
bomber
bombing
bombo
bombon
bombs
bomis
bon
bonaire
bonakal
bonaparte
bonaventure
bonbon
bonbonon
bond
bone
bones
bong
bonga
bongabon
bongabong
bongaigaon
bongalon
bongao
bongbong
bongbongan
bongdo
bongo
bonifacio
bonn
bonnin
bono
bonok
bons
bontoc
bontod
bonus
booba
boogie
book
booker
books
booksurge
bool
boola
boom
boost
booth
booy
boqueixo
boqueragarzon
bor
boracay
borbon
borchardt
bordeaux
border
bordering
borders
borei
borenstein
borges
borgnine
boring
boris
borj
borja
borjomi
born
borne
borneo
bornert
borocot
borongan
borough
boroughs
borromeo
bosch
bosco
boscong
bosconian
boses
bosis
bosnia
bosnian
bosporus
bosque
boston
bosyo
bot
botania
botanic
botanical
botanist
botanistang
botanists
botany
botbot
both
bothe
boti
botoc
botolan
botos
botswana
bottom
botu
bouazizi
bouches
bouchrieh
bouken
boukenger
boulder
boulenger
boulevard
boundaries
boundary
bounty
bourbon
bourbonnais
bourg
bourges
bourgogne
bourj
bourne
boutros
bouvet
bouxwiller
bouyon
bouzid
bow
bowel
bowie
bowl
bowling
box
boxer
boxing
boxingeru
boy
boyd
boyhood
boyog
boys
bozhou
bozouls
bpi
br
bra
brace
brad
bradley
brady
bragg
brahmaputra
brain
brainstorm
bram
bran
branch
branches
brand
brandenburg
branding
brando
brandon
brandy
braschi
brasi
brasil
brasilia
brass
brassicaceae
bratislava
braulio
braun
braves
bravo
braza
brazil
brazilanang
brazilian
brazzaville
bre
bread
breadfruit
break
breakfast
breaking
breaks
breakthrough
breakwater
breast
breasts
breath
breathing
breed
breeding
breeds
breisach
breizh
bremen
bren
brenda
brent
brescia
bresse
brest
bretagne
bretan
bretania
breton
brett
bretteville
brgy
brian
brick
bricqueville
bride
bridge
bridgeport
bridges
bridget
brie
brief
briefly
brien
brigadier
briggs
bright
brigida
brigido
brigitte
brill
brillanne
brillante
brillantes
brindisi
bring
bringing
brings
brio
brisach
brisbane
bristol
brit
britain
britania
britaniang
britanico
britannica
britanya
british
brittany
bro
broad
broadband
broadcast
broadcaster
broadcasters
broadcasting
broadcasts
broadway
brod
brodie
broken
bronchi
bronchiole
bronchitis
bronchus
bronx
bronze
brooke
brooklyn
brooks
bros
brother
brotherhood
brothers
brought
brown
browne
browning
brownish
browser
browsers
bru
brubeck
bruce
bruche
bruegel
brueghel
bruins
brumath
brummana
brunei
bruno
brunswick
brush
brussels
bryan
bryansk
bryant
bryophyte
brythonic
bs
bsa
bsat
bsba
bsc
bsce
bsche
bse
bsece
bsed
bsee
bsharri
bshrm
bsie
bsme
bsmie
bsnl
bteghrine
bu
bua
buac
buadi
buadiposo
buak
bual
bualan
buan
buaya
buayaan
buayan
bubbling
bubog
bubong
bubuan
bubug
bubugnus
bubukal
bubuklat
bubulus
bubungan
bubut
bubuu
bucal
bucalan
bucana
bucao
bucay
buchanan
bucharest
buchheit
buck
bucloc
bucud
bud
buddha
buddhism
buddhismu
buddhist
buddhists
budding
bude
budget
budismu
budista
budistang
budlasan
budni
budweis
budyong
bued
buelna
buena
buenaflor
buenasuerte
buenaventura
buenavista
buencamino
buenlag
bueno
buenos
buffalo
buffer
bug
bugallon
bugang
bugas
bugasong
bugey
bugguide
bugho
bugnay
bugs
bugsuk
bugsukan
bugsy
bugtong
bugtung
buguey
buguias
buhangin
buhatan
buhay
buhi
buho
bui
build
builder
building
buildings
builds
built
buisan
buison
buitrago
bukal
bukana
bukas
bukid
bukidnon
buklat
buklo
buklud
buknul
buku
bukud
bukul
bula
bulac
bulaca
bulacan
bulag
bulaga
bulak
bulakin
bulaklak
bulaklakan
bulala
bulalacao
bulalang
bulan
bulanao
bulandshahr
bulandu
bulang
bulao
bulati
bulating
bulawan
bulb
bulba
bulbul
bulbulala
buldana
buldit
buldon
bule
bulgaria
bulgarian
buli
bulig
bulihan
buliran
bulkan
bulkang
bull
bulldog
bulletin
bullones
bulo
bulod
bulol
bulsa
bulu
buluan
bulubundkin
bulubundu
bulubundukin
bulugan
bulung
bulungan
bulusan
bulutung
bulwagan
bulwang
bumbaran
bumilug
bun
bunacan
bunawan
bunay
bundelkhand
bundesla
bundesland
bundle
bundok
bunduc
bunduk
bundukan
bundukin
buneg
bung
bunga
bungahan
bungang
bungo
bungro
bungsu
bungu
bunkasha
bunny
bunsen
bunsuran
buntay
buntong
buntuk
buntukbalen
bunyola
buo
buong
burabod
buracan
burak
burauen
burdeos
bureau
burgess
burgin
burgo
burgos
burguillos
burgundy
burhan
burhanpur
buri
burial
burials
burias
buring
burke
burlington
burma
burman
burmese
burn
burnay
burning
burns
burnt
buro
burol
burrows
burt
burton
buru
buruanga
burundi
burung
burungburung
buryat
bus
busal
busan
busay
busbus
buses
bush
business
businesses
businessman
businesspeople
businessweek
busni
buso
bust
bustamante
bustan
busters
bustillo
bustos
busturia
busturialdea
busuanga
buswang
busy
but
butao
butch
butig
butil
butler
buto
buton
butong
butte
butter
butterflies
butterfly
button
butu
butuan
butubut
butul
butz
buu
buug
buung
buwis
buxar
buyei
buyo
buyog
buyon
buzz
bw
bwak
bwis
by
byasang
bye
byeng
bypass
byron
byte
bytes
byzantine
c
ca
caapi
cab
caba
cabacungan
cabadbaran
cabadiangan
cabagan
cabalagnan
cabalaoangan
cabalian
cabalitian
caballa
caballero
caballeros
caban
cabana
cabanas
cabanatuan
cabanbanan
cabang
cabangahan
cabangan
cabangaran
cabangcalan
cabanglasan
cabanillas
cabarasan
cabaritan
cabariwan
cabaroan
cabarroguis
cabaruan
cabasagan
cabasaran
cabatacan
cabatang
cabatuan
cabawan
cabay
cabayo
cabayugan
cabbage
cabcaban
cabecera
cabeza
cabezas
cabezo
cabiao
cabiasnan
cabibihan
cabilang
cabinda
cabinet
cabisera
cable
cabog
cabong
cabourg
cabra
cabral
cabrales
cabranes
cabrera
cabucgayan
cabud
cabue
cabugao
cabul
cabulalaan
cabulihan
cabuloan
cabuluan
cabunga
cabungaan
cabungahan
cabusao
cabuyao
cacao
cacarong
caceres
cachar
cacu
caculangan
cacung
cadacad
cadanglaan
cadaque
cadaruhan
cadayonan
cadets
cadillac
cadingilan
cadiz
cadre
cadulawan
caen
caesalpinioideae
caesar
cafe
cag
cagamutan
cagawasan
cagay
cagayan
cagayancillo
cagdianao
cagliari
cagmanaba
cagsiay
cagwait
cahayag
cai
caibat
caibiran
caigangan
cailangan
cain
caingin
cainta
cairo
caixa
cajidiocan
cajigas
cal
cala
calabanga
calabarzon
calabas
calabasa
calabria
calabura
calaca
caladua
calagyuang
calais
calam
calamagui
calamba
calamondin
calan
calanasan
calanogas
calantas
calao
calaoagan
calaocan
calapan
calapangan
calape
calas
calasiao
calatagan
calatrava
calauag
calauan
calautan
calavera
calaveras
calawag
calayaan
calayan
calayugan
calbayog
calbiga
calcium
calcula
calculator
calculators
calculus
calcutta
caledonia
caledonian
calendar
calendariu
calendariung
calero
calgary
cali
calicut
calidad
calif
california
calilung
calinan
calinaoan
calinog
calintaan
calipayan
caliphate
call
callaguip
callao
called
calling
calls
calma
calo
calog
calolbon
caloocan
calp
calsadahay
caltanissetta
caluang
calube
calubian
calumbaya
calumpang
calumpit
calunasan
calupa
calutan
caluya
calvados
calvario
calvet
calvia
calvin
calzada
calzadilla
cam
camachile
camagong
camalaniugan
camalen
camalig
camaligan
camambugan
camanci
camandag
camanga
camangaan
camansi
camara
camarao
camargo
camargue
camarin
camarines
camasi
camatis
camaya
camba
cambay
cambe
cambodia
cambodian
cambodians
cambrai
cambre
cambrian
cambridge
came
camel
camelina
camellia
cameo
camera
camerino
camero
cameron
cameroon
cami
camias
camiguin
camiling
camille
camillus
camilo
camino
caminos
camins
camotes
camp
campaign
campaigns
campana
campania
campbell
campillo
campillos
campin
campo
campobasso
campong
campoo
campos
camposanto
camps
campus
campuses
camus
can
cana
canaan
canacung
canada
canadian
canadiens
canal
canals
canaman
canan
canara
canaria
canary
canaway
canberra
cancer
cancerous
canciller
canda
candaba
candabong
candamo
candawe
candelaria
candidate
candidates
candido
candiis
candijay
candle
candon
candoni
candy
cane
canet
cang
cangas
canglap
cangzhou
canh
canibongan
canibungan
canillas
canine
caningag
caniogan
canipaan
canis
canita
canitang
canlaon
canlas
canna
cannes
canon
canovas
canta
cantabria
cantabrian
cantal
canterbury
cantilan
canton
cantonese
cantonment
cantons
cantoria
cantos
canuto
canvas
canyon
cao
caoayan
cap
capabilities
capable
capacity
capacuan
capalonga
capampan
capampangan
capas
capatad
cape
capela
capelle
capilan
capilla
capillary
capita
capital
capitalism
capitalist
capitalists
capitals
capitan
capitanes
capitol
capitolio
capitoliu
capitolyu
capiz
capnu
capoocan
capra
capricorn
capsicum
capsule
captain
captive
captor
capture
captured
capul
caputatan
car
cara
carabao
carabatan
caracas
caracol
carafoli
caraga
carambola
caramoan
caramoran
caras
carasi
caravan
caravia
carballo
carbine
carbohydrate
carbohydrates
carbon
carboxypeptidase
carcar
carcinoma
carculan
card
carden
cardiac
cardinal
cardinals
cardiology
cardiovascular
cardona
care
career
carelang
careng
carera
carerang
caretaker
caretang
careting
carey
cargo
cari
caribbean
carica
caricom
caridad
carig
carigara
carin
carinan
caring
carl
carla
carles
carleton
carlito
carlo
carlos
carlota
carlsbad
carlsen
carmack
carmay
carmel
carmeli
carmelita
carmelite
carmelo
carmen
carmencita
carmina
carmo
carmona
carnatic
carnegie
carnival
carnivore
carnivorous
carnota
carol
carolina
caroline
carolus
carolyn
carousel
carpenter
carpio
carral
carranglan
carranza
carrara
carrascal
carrascosa
carre
carren
carreon
carrie
carried
carriedo
carrier
carriers
carrio
carroll
carry
carson
cartagena
carte
carteolol
carter
cartes
carthamus
cartier
cartilage
cartographers
cartoon
cartoons
carvajal
carvedilol
carver
cas
casa
casandig
casar
casas
casay
case
caserta
cases
cash
cashew
casiguran
casilagan
casile
casili
casillas
casimiro
casino
casinos
caso
caspar
caspian
cass
cassini
cast
castan
castanea
castaneda
caste
castejo
castell
castellana
castellanos
castellar
castelldefels
castello
castells
castellvi
castila
castilang
castilblanco
castile
castiliu
castilla
castilleja
castillejo
castillejos
castillo
castillu
castle
castles
castor
castres
castrillo
castro
castronovo
castropol
casu
casuarina
casuco
casul
casulatan
cat
catacutan
catadman
catagbacan
cataingan
catalan
catalana
catalina
catalog
catalogo
catalogue
catalogues
catalonia
catalunya
catalysis
catalyst
catalyze
catanauan
catanduanes
catandunganon
catania
catanzaro
catappa
catarman
catbalogan
catch
catechism
catecholamines
catechu
catedral
cateel
categoria
categoriang
categories
category
catfish
cathay
cathedral
catherine
catholic
catholicism
catholicismu
catholicos
catholics
catholicu
catholicung
caticlan
caticugan
catigbian
catkins
catmon
cato
catolica
catolico
catolicong
catolicu
catolicung
catoogan
cattle
cattolica
catubig
catungan
catv
cauayan
caucaso
caucasus
caudal
caudete
caudie
caught
cauldron
cauran
cause
caused
causes
causeway
causing
causwagan
cauvain
cava
cavalry
cave
caves
cavinti
cavite
cavity
cavy
cawa
cawag
cawani
cawayan
cawayanan
cawayanin
cawilan
cawit
caya
cayabacan
cayabe
cayanacan
cayang
cayenne
cayetano
caza
cba
cbc
cbe
cbn
cbs
cc
cck
cd
cdc
cdma
cdot
ce
cea
ceap
ceasefire
ceb
cebri
cebu
cebuano
cebuanu
cecilia
cecilio
cecille
cecum
cedar
cedars
cedeira
cedro
cee
ceferino
cefet
celebes
celebrated
celebrating
celebration
celebrities
celebrity
celestial
celia
celiac
celine
celiprolol
cell
cellar
cellars
celled
cellphone
cells
cellular
cellulose
celosia
celso
celtic
celts
celula
cement
cemeteries
cemetery
cenon
censorship
census
cent
centauri
centenary
centenera
centennial
center
centers
centipede
centipedes
central
centralise
centre
centro
centru
centrung
centuries
century
ceo
cepeda
ceramic
cerca
cerceda
cerdon
cereal
cereals
cerebellum
ceremony
ceres
cerezo
cerrada
cerrato
cerrito
cerro
cerros
certain
certificaciun
certificate
certification
certified
cervantes
cervera
cesa
cesar
cesena
cesto
cesuras
ceu
ceuta
ceylon
ceyze
cezanne
cf
cfa
cfc
cfm
cgi
ch
cha
chaco
chacon
chacunda
chad
chadwick
chai
chain
chains
chair
chairman
chairmen
chairperson
chalamont
chalaronne
challenge
challenges
chalukya
cham
chamarajanagara
chamber
chamberlain
chameleon
chamoli
chamorro
champ
champagne
champaign
champaran
champawat
champion
champions
championship
championships
chan
chance
chancellor
chandi
chandigarh
chandler
chandra
chandragiri
chandrapur
chanel
chang
changde
change
changed
changes
changing
changsha
changshu
changzhou
chanidae
channa
channel
chant
chantal
chao
chaohu
chaos
chaotic
chaozhou
chap
chapel
chapelle
chaplin
chapra
chapter
chapters
character
characteristic
characteristics
characterizing
characters
charbel
charente
charentes
charge
charitable
charito
charity
charkhari
charkhi
charles
charleston
charleville
charlie
charlotte
charms
charon
chart
charted
charter
chartered
charts
chase
chat
chateau
chatenay
chatillon
chats
chatto
chau
chavacano
chavez
chavit
che
chebrolu
chechen
check
checklist
ched
chee
cheer
cheerleading
cheese
chef
chefs
chelan
chelsea
chelyabinsk
chem
chemical
chemicals
chemist
chemistry
chemists
chemnitz
chen
chengde
chengdu
chennai
chennur
chenopodium
chenzhou
cher
cherla
chernobyl
cherokee
cherries
cherry
chesapeake
chess
chest
chester
chestnut
chestnuts
cheung
chevalier
chevaliers
chey
chhapra
chhatarpur
chhattisgarh
chhattisgarhi
chhindwara
chhnang
chi
chiang
chiaramonti
chiasm
chiatura
chiba
chibi
chica
chicago
chick
chicken
chickens
chico
chief
chiefly
chiefs
chien
chiesa
chiesetta
chieti
chikmagalur
chikyu
child
childhood
childish
children
chile
chilean
chili
chilli
chiloensis
chimpanzee
chin
china
chinadaily
chinatown
chinchwad
chinensis
chinese
ching
chino
chiongbian
chiplun
chirocentrus
chiroptera
chita
chitin
chito
chitose
chitradurga
chitrakoot
chittoor
chiu
chive
chives
chizhou
chlorophyll
chloroplast
chlorurus
cho
chocolate
choi
choice
choir
chokhatauri
cholecystokinin
cholesterol
chona
chong
chongqing
choose
chopra
choral
chorale
chordata
chordate
chordates
choreographer
chorus
chosen
chou
choueir
choujin
chris
christ
christensen
christian
christianity
christians
christianu
christie
christina
christine
christmas
christoph
christopher
chromosome
chromosomes
chronic
chronicle
chronicles
chronobiology
chronology
chrysanthemum
chs
chsische
chstv
chu
chua
chubu
chuck
chugoku
chukotka
chum
chung
churachandpur
church
churches
churchill
churruca
churu
chuvash
chuvashia
chuzhou
chyme
ci
cia
ciara
cicero
cicm
cidob
cie
ciel
cielo
ciencia
cienciang
cientifico
cierva
cieza
cija
cilantro
cilia
cillorigo
cimarron
cin
cinca
cincinnati
cinderella
cine
cinema
cinnabar
cio
ciotat
circa
circadian
circle
circuit
circuits
circulares
circulation
circulatory
circumflex
circus
ciriaco
cirrhosis
cita
citadel
citation
cited
cities
citing
citizen
citizens
citizenship
citral
citratus
citrifolia
citronella
citrus
city
cityhood
citymayors
cityscape
cityvatican
ciudad
ciutadella
civic
civico
civicu
civil
civiles
civilian
civilians
civilisasiun
civilization
civilizations
cj
cl
cla
cladistics
claim
claimed
claims
clair
claire
clam
clamp
clamping
clan
clara
claremont
clarence
clarendon
clarifies
clarin
clarissa
clark
clarke
claro
clash
clasi
clasicu
clasicung
clasing
class
classes
classic
classical
classics
classification
classified
classifieds
classify
classroom
claude
claudio
claudius
claus
claver
claveri
claveria
clay
cle
clean
cleaner
cleaning
clear
clearinghouse
clearwater
cleavage
clegg
clement
clemente
clergy
clergyman
clerk
clermont
cleveland
clezio
click
client
clienti
clifford
clima
climate
climates
climatic
climbing
clin
clinic
clinica
clinical
clinton
clip
clips
clive
clock
clockwise
clope
close
closed
closely
closer
closest
closing
clothes
clothing
clotting
cloud
clouds
club
clubs
clupeidae
cluse
clusiaceae
clyde
cm
cmc
cmd
cms
cn
cnn
cns
cntry
cnu
co
coa
coach
coagulation
coal
coalicion
coalition
coan
coanda
coast
coastal
coastline
coat
coats
cobar
coc
coca
coccyx
cochi
cochin
coching
cochlea
cockpit
cocoa
coconut
cocos
cod
code
codec
codecs
codes
codiku
coding
codorniu
codradu
coe
coed
coelho
coelom
coexisting
cognac
cognate
cognitive
cogon
cogongrass
cohen
coho
coimbatore
coin
coins
coiro
coix
cojuangco
col
cola
colbert
cold
cole
coleccion
colegio
colegiu
colegiung
colehiu
coleoptera
coligny
colin
colindres
coliseum
coll
collaborate
collaborating
collaboration
collaborative
collaborators
collado
collage
collapsed
collect
collected
collectie
collection
collections
collective
collectively
collectivity
collector
collectorate
collectors
collectvity
college
colleges
collegiate
colleville
collins
collinsii
colloidal
colmar
colmenar
colo
coloane
cologne
coloma
colombes
colombia
colombie
colombo
colon
colonel
colonia
colonial
colonialism
colonies
colonization
colony
color
colorado
colorectal
colored
colors
colour
colours
colt
columban
columbia
columbian
columbio
columbus
column
columnist
columnista
columnists
columns
colunga
colusa
com
comaerca
comarca
comarcal
comarcas
comarques
combat
combattler
combination
combined
combustion
comcast
come
comedian
comedians
comedianti
comedy
comelec
comercio
comerciu
comes
comet
comic
comics
comillas
coming
comma
command
commander
commanders
commando
commandos
comme
commemorating
commemorative
commencement
comment
commentary
commentator
commentators
comments
commerce
commercial
commercially
commercials
commersiyu
commission
commissioned
commissioner
commissioners
committed
committee
commodity
common
commonly
commons
commonwealth
communal
communaute
commune
communes
communicate
communication
communications
communicator
communicators
communidad
communion
communis
communism
communist
communista
communists
communities
community
como
comoros
compact
compan
compania
companies
companion
company
comparative
compared
comparing
comparison
compass
compatibility
compatible
competition
competitive
competitiveness
competitors
compilation
compilations
compiled
complete
completely
completion
complex
complexity
complicadu
complicasyun
complications
component
components
composed
composer
composers
composite
composition
compositions
compostela
compound
compounds
comprehensive
compress
compressed
compression
compton
compuserve
computation
computational
computer
computers
computing
comte
comune
comuni
comunicacion
comunidad
comunion
con
conamor
concejo
concejos
concello
concentrate
concentration
concepcio
concepcion
concept
conception
concepts
conceptual
concerned
concerning
concerns
concert
concerto
concerts
concha
concierto
concio
concise
conclave
concluded
concord
concordances
concordia
concrete
concurrently
condado
conde
condemn
condition
conditioning
conditions
condor
conduct
conducted
conducting
conduction
conductivity
conductor
cone
conejo
confederasyun
confederate
confederation
conference
conferences
confidence
confidential
configuration
confinement
confirmation
conflent
conflict
confraternity
confucian
confucianism
confucius
confusa
confuse
confused
confusion
cong
congenital
congestion
congestive
conghua
congo
congosto
congothe
congregation
congresista
congreso
congress
congressional
congressman
congressmen
congressu
congresswoman
congresu
conifer
conjugation
conn
connect
connecticut
connecting
connection
connections
connective
conner
connie
connor
conqueror
conques
conquest
conquistador
conrad
conscience
consciousness
consecutive
conseil
consejal
consejo
consell
consensus
conservancy
conservation
conservative
conservatory
considered
considering
considers
consiensyang
consisted
consisting
consolacio
consolacion
console
consonant
consonants
consortium
conspiracy
const
constabulary
constant
constantine
constantinescu
constantino
constantinople
constantly
constants
constellation
constituencies
constituency
constituent
constitution
constitutional
constricta
constructed
construction
consuelo
consul
consulates
consultancy
consultant
consultants
consultation
consultative
consulting
consumed
consumer
consumers
consumption
consunji
contact
contagion
contai
contain
container
containing
contains
contamination
contemplacion
contemplative
contemporary
content
contest
context
conti
continent
continental
continenti
continents
continue
continued
continues
continuing
continuous
contra
contract
contracted
contractions
contracts
contrast
contrata
contributed
contribution
contributions
contributor
control
controlled
controversial
controversy
convenience
convenient
convent
convention
conventions
convento
convergence
conversation
conversion
convert
converts
convict
convicted
conyzoides
coo
cook
cookbook
cooke
cooking
cool
coolidge
coonoor
coope
cooper
cooperation
cooperative
cooperatives
coordinates
coordinating
coordination
coordinator
copa
copaifera
cope
copenhagen
copernicus
copia
copies
copley
copper
coptic
copy
copying
copyright
cora
coral
corazo
corazon
corbera
corbicula
corbiculidae
corbin
corbusier
corcubio
corcuera
cord
cordero
cordillera
cordilleran
cordilleras
cordo
cordoba
cordon
cordons
cordova
cordyline
core
corella
coria
coriander
coristanco
cormatan
corn
cornea
corneja
cornelio
cornell
corner
cornish
cornwall
cornwallis
coro
coromandel
coron
corona
coronary
corp
corporacion
corporasiun
corporate
corporation
corporations
corps
corpus
corpuz
corral
corrales
corre
correa
correct
correctly
corregidor
correlation
correspondence
correspondents
corresponding
corridor
corro
corse
corsica
corsican
corsicans
corte
cortes
cortex
cortez
corti
cortina
corun
coruna
corupcion
corvera
cory
corypha
cosenza
cosine
cosme
cosmetology
cosmic
cosmopolitan
cosmos
cost
costa
costas
cotabato
cotai
cottages
cottere
cotton
coucal
could
council
councillors
councilor
councils
counsel
counseling
count
counter
counties
countries
country
countryside
county
coup
couple
course
courses
court
courtesy
courthouse
courts
cousins
couvertoirade
cove
cover
coverage
covered
covering
covers
cow
cowboy
cox
cp
cpa
crack
cracked
cradle
craft
craig
crame
cranberries
cranberry
crane
crash
crater
crawford
crazy
crc
cream
create
created
creating
creation
creative
creativity
creators
creatures
credit
credited
credits
creek
cremona
crenata
creole
crescent
crespo
cretaceous
crete
creus
creuse
crew
crews
crf
cri
crick
cricket
cricketer
crickets
cries
crime
crimen
crimes
criminal
criminology
cris
crisis
crisostomo
crisp
crispa
crispus
crissot
crissotan
cristianismo
cristiano
cristianong
cristianu
cristianung
cristina
cristo
cristobal
criteria
critic
critical
criticism
critics
criticu
critique
croatia
croatian
croats
crocodile
croix
cronin
crop
crops
cross
crosscut
crosses
crossing
crossings
crossroads
crotone
crow
crowd
crowds
crowe
crown
crowned
crows
crs
crude
cruise
cruiser
crus
crusade
crusader
crusades
crush
crust
crustacean
crustaceans
cruz
cry
crying
cryptography
cs
csc
csez
csj
css
csu
ct
cu
cuadradu
cualta
cuarenta
cuartero
cuartu
cuatro
cuatru
cuba
cuban
cubao
cubay
cube
cubillas
cubillo
cubism
cubo
cubs
cucamonga
cucumber
cucurbitaceae
cuddalore
cuddapah
cudillero
cue
cuenca
cuervo
cuesta
cueva
cuevas
cueza
cuisine
culaba
culang
culasi
culasian
cule
culinary
culing
culion
culleredo
cultivar
cultivars
cultivated
cultivating
cultivation
cultura
cultural
culturalcenter
culturang
culture
cultures
cum
cumabie
cumbres
cumings
cummings
cummins
cumpania
cumpaniang
cumpanya
cumpara
cumpitencia
cumpletung
cumprenni
cunanan
cundiman
cuneo
cuneta
cung
cup
cupang
cupertino
cuppy
curac
curcas
cure
curie
curienti
curiosity
curitiba
curl
currants
currency
current
currently
currents
curriculum
currimao
curry
cursu
cursung
curt
curtin
curtis
curuzealegui
curva
curvada
cusano
custard
custer
customs
cut
cutcutan
cuttack
cutting
cutud
cuya
cuyapo
cuyo
cuyugan
cv
cy
cyanobacteria
cyber
cyclades
cycle
cycles
cycling
cycliophora
cyclist
cyclists
cyclopedia
cylinder
cylindrica
cymbopogon
cynthia
cyperaceae
cyperus
cypress
cypriot
cyprus
cyprussee
cyrillic
cystic
cyte
cytoplasm
cytotoxic
cz
czech
czechia
czk
czo
d
da
daan
daanbantayan
daang
daanlungsod
daba
daboy
dacal
dacera
dacite
dacu
dadagdagan
dadala
dadalan
dadalanan
dadaldakan
dadayu
daddy
dade
dadiangas
dado
dadong
dadra
dadri
daek
daet
dafeng
daga
dagami
dagat
dagatan
dagdag
dagdagan
dagestan
dagger
dagis
dagisan
dagiti
dagneux
dagohoy
daguioman
dagul
dagupan
dahican
dahil
dahilig
dahod
dai
daig
daigdig
daikessen
daily
daimler
dainik
daiquiri
dairy
daisy
daitetsujin
daito
daja
dak
daka
dakal
dakala
dakalpa
dakbayan
dake
dakeng
dakila
dakit
daklat
dako
dakota
dakpan
daku
dakula
dal
dala
dalaga
dalagang
dalaguete
dalai
dalakit
dalam
dalama
dalampasigan
dalan
dalanan
dalandan
dalang
dalas
dalawa
dalawang
dalayap
dale
dalena
dalera
daleraya
dalerayan
daleryan
dali
dalian
dalig
daligan
dalipuga
dalisay
dalise
dalit
daliwawat
dallas
dalman
dalo
dalton
daltonganj
dalum
dalumdum
dalumpinas
dalupan
dalurong
daly
dam
damage
damalusay
daman
damascus
dambach
dambang
damdaman
dame
dames
damian
damla
dammang
damoh
dampalan
dampas
dampol
dampong
damulag
damulog
dan
dana
danac
danao
danawan
dancalan
dance
dancing
dane
daneng
danes
dang
dangaioh
dangal
dangalan
dangan
dangcagan
dangcalan
danger
dangerous
danggut
dangka
danglas
dani
danica
daniel
danielle
danilo
danish
danlagan
dannenberg
danny
dano
dans
dansalan
dante
danube
danum
danuman
danup
danville
danyang
dao
daoiz
dap
dapa
dapat
dapdap
daphne
dapitan
dapot
daptan
dapu
daqing
daquila
daquilang
dar
dara
daraga
daragdagan
daragul
daragus
darakal
darake
darakpan
darala
daralan
daralanan
daralung
daram
daramdaman
daramuangan
darapat
daraptan
daras
darasan
daratang
darbhanga
dardanelles
dardarat
dare
dareng
dargah
dari
daring
darjeeling
dark
darkness
darling
darmstadt
darna
daro
dartmouth
darussalam
darwin
das
dasan
dash
dasmarin
dasnan
dasol
data
databank
database
databases
datag
datagan
datal
datang
date
dateformat
dates
dati
datia
dating
datos
datta
datu
datura
dau
daughter
daughters
dauin
dauis
daum
daun
daung
daungan
dav
davanagere
davangere
davao
davaotoday
dave
davenport
david
davide
davidson
davis
davy
dawis
dawn
dawson
daxing
day
daya
dayalektu
dayang
dayap
dayat
dayatan
dayatmalat
daycare
daychounieh
dayrit
days
daytime
dayu
dayuan
dayung
db
dba
dc
dct
dd
dds
de
dead
deadly
deafness
deal
dealbata
deals
dean
dear
death
deaths
debate
debaters
deblocking
debosyon
debt
debussy
debut
dec
decada
decadang
decade
decades
decana
decanu
decathlon
deccan
deceased
december
decided
deciduous
deciembre
deciembri
decimal
decision
decisions
deck
decker
declaration
declarations
declared
decline
decoding
decommissioned
decoration
decree
decurrens
dedicated
dedication
dee
deen
deep
deer
default
defeated
defence
defend
defenders
defending
defensa
defense
defensor
defined
defines
definition
definitions
definitive
defunct
degan
degeneration
degli
degradation
degree
degrees
degulan
dehesa
dehradun
dei
deir
deit
dekabreak
dekada
dekadang
dekap
dekaranger
deklarasyon
del
dela
delanan
delano
delas
delaware
delay
delayed
delegadu
delegate
delfin
delgado
delgadu
delhi
delia
delicate
delicious
delight
delikadu
delivered
delivery
dell
della
delle
delon
delos
delpower
dels
delta
demain
demand
demetrio
demg
demise
democracy
democrat
democratic
democrats
demografi
demografia
demographic
demographics
demographicu
demography
demograpiku
demokra
demokrasya
demokratiku
demokratikung
demonstration
demonyms
den
dena
denasan
deng
dengfeng
deni
denies
dening
denis
denise
denmark
dennis
dense
densetsu
density
dent
dental
dentata
dentista
dentistry
denver
deoghar
departamentu
departamentung
department
departmental
departments
depat
depatan
dependencies
dependency
dependent
dependi
depending
depends
depensa
depicting
depiction
depinisyon
deposition
depositu
depot
depression
dept
depth
deputies
deputy
der
deramas
derby
derechu
derechung
deregulated
derek
deretsu
deretsung
derivation
derived
dero
des
desai
desarolia
descartes
descendant
descendants
descending
descent
describe
described
describes
describing
description
descriptions
desember
desert
desi
desiertu
design
designated
designed
designer
designers
designing
designs
desire
desisyun
desk
desktop
desmond
desperadas
despite
despujol
destination
destinations
destiny
destroyed
desyertu
deta
detail
detailed
details
detalia
detalle
detalyadung
detalye
detang
detecting
detective
detektib
determining
deti
deting
detritus
detroit
deus
deuterostome
deutsch
deutsche
deutschen
deutsches
deutschland
deux
dev
devagiri
devanagari
devasthanams
develop
developed
developer
developers
developing
development
developmental
devi
device
devices
devil
devonian
devos
devoted
devotional
devotions
devout
dew
dewana
dewas
dezhou
dhabi
dhaka
dham
dhammatalks
dhanbad
dhar
dharampur
dharamsala
dharwad
dhekelia
dhi
dhour
dhule
dhvtsu
di
dia
diabetease
diabetes
diabetic
diacritic
diacritical
diacritics
diadi
diagnosed
diagnosis
diagnostic
diagram
dialect
dialects
dialectu
dialectung
dialektu
dialektung
dialogo
dialogue
dialysis
diamanti
diameter
diamond
diana
diane
diaphragm
diaries
diariu
diariung
diary
dias
diaspora
diastole
diaz
dib
dibati
dibdib
dibision
dibisyon
dibrugarh
dibs
dicamay
diccionario
dice
diciembre
diciembri
dick
dickson
dictionaries
dictionary
did
didilig
didinan
didn
die
died
dieffenbach
diego
diehl
dien
dieppe
dies
diesel
diet
dietary
dieter
dietetics
dietrich
difference
differences
different
differential
differentiate
diffun
diffusion
dig
diga
digdag
digdagan
digest
digestion
digestive
digital
digitization
digitized
digne
digos
digs
digsu
dikaryotic
dikil
diksionariu
dikut
dila
dilag
dilang
dilanua
dilanuang
dilanwa
dilanwang
dilasag
dilausan
dilemma
diles
dilg
dili
dilikadu
diliman
dilimbayan
diling
dill
dilo
dilong
dimane
dimaporo
dimasalang
dimasangkay
dimataling
dimaya
dimayon
dimdam
dimension
dimensional
dimiao
dimla
dimut
din
dina
dinagat
dinagul
dinaig
dinalan
dinalungan
dinalupihan
dinan
dinapigue
dinas
dinat
dinatang
dinayu
dindigul
dindo
dine
dineklara
ding
dingalan
dingding
dingle
dingras
dingxi
dingzhou
dinh
dininan
dining
diniseniu
dinisenyu
dinosaur
dintang
dinugpa
dinukit
dio
diocese
diode
diomedes
dion
dionisio
dios
diosa
diosang
diosdado
diosesis
diot
dioxide
dipaculao
diperensya
diplahan
diploid
diploidy
diploma
diplomacy
diplomatic
diplomatically
diplomaticu
diplomatiku
diplomats
diplotricha
dipolog
dipper
diputacio
diputado
diputadu
direccion
direct
directed
directing
direction
directional
directions
director
directorate
directorial
directors
directory
direksiun
direksyon
direksyun
direktor
diretsu
diretsung
dirinan
diris
dirita
diritak
dirk
dis
disambiguation
disan
disappearances
disappearing
disaster
disasters
disbarred
disc
disciplinary
disco
discographies
discography
discogs
discourse
discover
discovered
discoveries
discovery
discrete
discrimination
discs
discurso
discuss
discusses
discussing
discussion
discussions
disease
diseases
diseniu
diseniung
disenyu
disenyung
disguise
dish
disiembri
disipulus
disk
diskograpiya
diskograpiyang
diskriminasiong
disks
diskusyun
disnan
disney
disorder
disorders
dispatch
display
dispur
dispute
disputed
disregarded
disruptive
dissertation
dissolution
dissolved
dist
distal
distance
distances
distansya
distansyang
distiliador
distinct
distinction
distinguish
distinguished
distributed
distribution
distributions
district
districts
districtu
distrito
distritu
distritung
disyembre
disyembri
disyertu
dit
dita
ditak
ditions
dito
ditsaan
ditucalan
diu
diuresis
diuretic
diuretics
divas
dive
diverse
diversity
divide
divided
divilacan
divine
diving
divinity
division
divisional
divisions
divisoria
divx
diwa
diwan
diwang
diwata
diwatang
dixie
dixieland
dixon
diya
diyalektu
diyos
diz
dizon
dj
django
djibouti
djokovic
djoser
dl
dlsp
dlsu
dmia
dn
dna
dneg
dng
do
doab
dobbs
doble
dobli
dobling
dobol
dobr
doc
doctor
doctoral
doctorate
doctors
doctrine
document
documentary
documentation
documents
documentu
dodecanese
dodge
dodgers
dodro
does
dog
dogri
dogs
doha
doing
dokei
doktor
doktora
dokumental
dokumentung
dollar
dolly
dolny
dolores
dolphy
dolyar
dom
domain
domains
domalandan
domaz
dombes
dombivali
dombivli
dome
domenico
domes
domestic
domesticated
domestication
domesticus
domiciano
domina
dominador
dominanti
dominanting
dominated
dominey
dominggu
domingo
domingu
dominic
dominica
dominican
dominicanu
dominion
dominique
domoit
dompierre
don
dona
donald
donasiun
donate
donatello
donato
donboscowest
done
doneztebe
dong
dongguan
dongtai
dongting
dongying
donna
donsol
doo
doodle
doom
door
doors
dop
doping
dopt
dora
dorab
dorado
doraemons
dorchester
dordogne
doreen
dormitoriu
dornakal
dornier
doroteo
dorothy
dorsal
dortmund
dos
dosarul
dosi
dossenheim
dossier
dost
dostoevsky
dot
dots
double
doubleday
doubles
doubs
doubutsu
doug
douglas
dove
dover
doves
down
downfall
download
downloadable
downloaded
downloads
downs
downtown
dphe
dpr
dprk
dr
dra
dracula
drafting
dragon
dragonair
dragons
drainage
drais
drake
drama
dramang
dramatic
dramatists
dramaturgo
dramaturgu
dravidian
drawing
drawings
dream
dreaming
dreams
dresden
drew
dreyfuss
dreyse
drift
drill
drilling
drink
drinks
drive
driven
driver
drivers
driving
drm
dro
droga
drop
dropped
drops
drought
drouse
drug
drugs
drulingen
drum
drummer
drums
drupe
druze
dry
ds
dsc
dscf
dst
dt
dte
dtirol
du
dua
dual
duale
duangan
dubai
dublin
duc
ducale
duchess
duchy
ducie
duck
ducks
duct
ducts
duda
dudurut
dudurutan
dudusug
due
duen
duero
duet
dugo
dugpa
dugu
duhat
dui
dujali
duke
dukkha
dula
dulaan
dulag
dulang
dulangan
dulao
dulapan
dulce
dulcis
dulo
dulong
dulu
dulum
dumaguete
dumagus
dumalag
dumalan
dumalinao
dumalneg
dumalondong
duman
dumangas
dumanjug
dumaran
dumarao
dumating
dumayu
dumbbell
dumbri
dumingag
duminggu
duminggung
dumlog
dummies
dumont
dumurut
duncan
dune
dunes
dung
dungawan
dungeon
dungon
dungus
dunhuang
dunk
duo
duodenal
duodenojejunal
duodenum
duomo
dupax
duplas
duque
duran
durangaldea
durango
duranguesado
durer
durg
durga
durgapur
durham
durian
during
durio
durugpa
durun
durut
dusa
dutch
duterte
duties
dutton
dutung
duval
duyan
duye
dvaraka
dvd
dvina
dwaraka
dwarf
dwarka
dwec
dwgv
dwhr
dwht
dwhy
dwid
dwight
dwivedi
dwkt
dwon
dwrv
dwtj
dwtl
dyes
dyesebel
dynamic
dynamical
dynamics
dynasties
dynastinae
dynasty
dysrhythmia
dz
dzab
dzll
dzrh
dzxl
e
ea
eac
each
eacit
eagle
eagles
ear
eardrum
earist
earl
earle
earlier
earliest
early
earned
earth
earthquake
earthquakes
earthworm
easily
east
easter
eastern
easy
eat
eaters
eating
eaton
eau
eb
eban
ebert
ebmeier
ebola
ebolusion
ebolusyon
ebolusyun
ebook
ebre
ebreyu
ebro
ebu
ebun
ebus
ec
ecclesiastical
ecdysis
ecdysozoa
ecg
echague
echinochloa
echinoderm
echinodermata
ecija
eclipse
eco
ecole
ecologia
ecological
ecology
economia
economic
economics
economist
economista
economists
economy
ecoregions
ecosystem
ecosystems
ecstasies
ectasia
ecuador
ed
eda
edad
edcel
eddie
edebe
edema
eden
edgar
edgardo
edge
edible
edilberto
edinburgh
edirne
edision
edison
edit
editable
edited
edith
editing
edition
editions
editor
editorial
editors
edmund
edna
edo
edouard
eds
edsa
edu
eduard
eduardo
educ
educac
educacion
educated
education
educational
educator
educators
edukador
edukasiun
edukasyon
edukasyun
edward
edwardian
edwards
edwin
ee
eel
effect
effective
effects
efficiency
efficient
efforts
effusion
efloras
efren
egana
eganagana
eganaganan
eganaganang
egg
eggplant
eggs
eglise
ego
egret
egui
egypt
egyptian
eh
ehe
ehemplu
ehime
ehiptu
ei
eid
eidgah
eien
eight
eighty
eigo
eiji
ein
eine
einstein
eisenach
eisenhower
either
ejercito
ejiptu
ek
eka
ekamaragula
eke
eko
ekonomi
ekonomia
ekonomiku
ekonomista
ekonomiya
ekonomya
eksaktu
eksaktung
eksarkado
eksena
eksenang
eksistensia
eksperimentu
eksperimentung
ekspresiong
ekstremung
ektarea
ektaria
eku
ekumeniku
el
ela
elaine
elastic
elbe
elbow
elder
eleanor
elected
election
elections
electoral
electorate
electric
electrical
electrically
electricity
electrocardiogram
electron
electronic
electronics
electrotachyscope
eleksyon
elektrisidad
element
elementaria
elementary
elementarya
elements
elementu
elementung
elena
elephant
elevation
eleven
eleventh
elgu
eli
elia
elias
elie
eligio
elilan
elimination
elinor
eliodoro
eliseo
elite
elites
elizabeth
elkin
elliot
elliott
ellis
ellroy
ellwangen
elmundo
elo
elorza
elpidio
els
elsa
elsass
elsaß
elsbett
else
elsevier
elsie
elvillar
elvis
elwell
em
ema
email
emanalacarang
emaslag
emba
embahador
embarcadero
embassy
embed
emblem
emblema
embolism
embroidery
embryo
embryology
embryophyte
eme
emedicine
emerald
emergence
emergencies
emergency
emerging
emeritus
emerlinda
emerson
emeryville
emigrants
emil
emile
emilia
emiliano
emilio
eminem
eminent
emirate
emirates
emma
emmanuel
emmett
emmy
emo
emokapampangan
emory
emosional
emotional
emotions
emperador
emperiu
emperor
emperors
emphasis
emphysema
empira
empire
empleadu
empleadung
empleyu
employees
employers
employment
emporda
empty
emt
emu
en
ena
enaman
enamels
enamibuclat
enana
encarta
encartaciones
encina
encinas
enclave
encode
encoded
encoder
encoding
encounters
encyclicals
encyclopaedia
encyclopedia
encyclopedias
encyclopedic
encyclopædia
end
endangered
ended
endemic
ending
endings
endless
endocrine
endocrinology
endoderm
endogenous
endolymph
endorser
ends
ene
energia
energy
enerhia
enerhiya
enerhiyang
enero
eneru
enfant
eng
engage
engine
engineer
engineering
engineers
engines
engl
england
english
engr
enhanced
enkarterriak
enlightenment
enmedio
enna
eno
enough
enping
enrico
enrile
enrique
enriquez
ensemble
ensenada
enshi
enshrinees
ensign
ensigns
ensiklopedia
ensure
ent
enta
entablado
entabladu
ente
enter
enterprise
enterprises
entertainment
entire
entirety
entities
entitled
entity
entomological
entomology
entorhinal
entrada
entrambasaguas
entrance
entre
entrepreneur
entrepreneurial
entrepreneurship
entrez
entries
entropy
entry
environment
environmental
environments
environs
envoy
enza
enzyme
enzymes
eo
eonavian
eortc
eosin
eosinophil
epa
epangkaraniwan
epektibu
epektu
epektung
epic
epifania
epifanio
epigenetic
epiku
epinephrine
episcopal
episkopal
episode
episodes
episodiu
epithelial
epithelium
eps
equal
equality
equation
equations
equator
equatoria
equatorial
equilibrium
equinox
equinoxes
equipment
equisetifolia
equivalent
er
era
eran
erap
ere
eresma
ergonomics
erhard
eriberto
eric
ericson
ericsson
erik
eritrea
erlangen
erlinda
ermaniku
ermita
ermua
ernakulam
ernest
ernesto
ernie
ernst
ero
erode
eroplanu
erpat
errez
errol
error
ers
erstein
eruplanu
eruption
erwin
erythrocyte
erythrocytes
es
esa
escalante
escaldes
escape
escocia
escolar
escorca
escudero
escuela
escuelang
esculenta
esensialismu
esgle
esguerra
eska
eske
eskri
eskritu
eskualdeak
eskuela
eskuelang
eskultor
eskwela
eskwelang
esky
esmarch
esmeralda
eso
esofago
esophageal
esophagus
espa
espada
espan
espania
espaniang
espaniol
espanola
espanya
espanyol
espasiu
especially
espeling
esperanza
espesial
espesyal
espesyalista
espi
espina
espino
espinosa
espiritu
espiritual
espn
esporles
esq
esrilangka
essay
essayist
essayists
essays
essen
essence
essential
essentials
essex
essonne
est
esta
established
establishment
establishments
estaca
estadi
estadistica
estado
estados
estadu
estadung
estadus
estancia
estandar
estandardisasion
estasion
estasiong
estate
este
esteban
estelito
estellencs
estepa
ester
esther
esti
estiano
estilu
estilung
estimate
estimated
estimates
estino
estonia
estonian
estorne
estrada
estrella
estrogen
estuary
estudianti
estudianting
estudyante
estudyong
et
eta
etah
etala
etang
etat
etawah
etc
etchings
ete
etext
eth
ethanol
ethernet
ethical
ethics
ethiopia
ethiopian
ethnic
ethnicity
ethnobotanist
ethnologist
ethnologue
etiketa
etna
etniku
etnikung
etnisidad
eto
eton
etv
etymologies
etymology
eu
eubacteria
eugen
eugene
eugenio
euilly
eukaryota
eukaryote
eukaryotes
eukaryotic
eula
eulalia
euler
eulogio
eun
euphorbiaceae
eurasia
eurasian
eurasianet
eure
eureka
euro
europa
europaea
europang
europas
europe
european
europeans
europeo
europeong
europeu
eus
euse
eusebio
euskadi
eustaquio
eva
evaluation
evangelical
evangelina
evangeline
evangelista
evangelization
evans
eve
evelyn
even
evenimentul
evening
event
events
eventually
ever
everest
everett
evergreen
every
everybody
everyone
everything
everywhere
evgeny
evidence
evil
evo
evolution
evolutionary
evolve
evolved
ex
exactly
exam
examination
example
examples
excavation
excavations
excellence
excellent
except
exception
exceptions
excerpt
exchange
exciting
exclave
exclaves
exclude
excluded
exclusive
exclusively
exclusives
exclusivity
excommunication
excretion
excursion
executed
executive
executives
exequiel
exercise
exercises
exeter
exhibit
exhibition
exhibitions
exif
exile
exiles
exist
existed
existence
exists
exit
exo
exocrine
exoskeleton
exotic
expanded
expanding
expansion
expat
expatriate
expatriates
expats
expected
expedition
experience
experienced
experiment
experimental
experiments
expert
experts
expertu
expiration
explain
explained
explaining
explains
explanation
exploration
explorations
explore
explorer
explorers
exploring
explosion
expo
exponential
export
exported
exports
expos
exposition
exposure
express
expressed
expression
expressway
extended
extension
extensions
extensive
extent
external
extinct
extinction
extra
extract
extracts
extrajudicial
extraordinary
extrasolar
extrasomatic
extremadura
extreme
extremity
extremophiles
ey
eya
eye
eyebrow
eyed
eyes
eyre
eyu
ez
ezhou
ezkerraldea
f
fa
fabaceae
faber
fabian
fabrica
fabricante
fabrication
fac
face
facebook
faced
faces
facial
facilidad
facilities
facility
fact
factbook
facto
factor
factors
factory
facts
factsheet
faculty
fagaceae
failed
failure
fair
faire
fairfield
fairness
faith
faizabad
fajardo
fakhreddine
falcons
falkland
fall
falla
fallas
fallen
falling
fallingrain
fallingwater
fallopian
falls
false
famagusta
famas
fame
familia
familiang
families
famille
family
famous
famy
fan
fancheng
fanclub
fans
fansite
fantastic
fantasy
fao
fap
faq
far
fargo
farid
faridabad
faridkot
faringe
farm
farmer
farmers
farming
farms
farnesiana
faroe
farrukhabad
fashion
fast
fastest
fasting
fat
fate
fatehgarh
fatehpur
father
fathers
fatima
fats
fatty
fault
faulty
fauna
faust
faustino
fausto
favor
favreau
fawkes
fax
fayard
fbi
fc
fcgi
fda
fdr
fe
fear
feast
feather
feati
feature
featured
features
featuring
feb
febrero
febreru
february
fecal
feced
fecture
fectures
federacio
federal
federalismu
federalny
federasyun
federated
federation
federative
federer
federico
fee
feed
feedback
feeding
feel
feelings
feels
fees
feet
felanitx
felices
feliciano
felimon
felipe
felis
felix
fell
fellow
fellows
fellowship
fely
female
feminine
feminist
feminists
fene
fer
ferdinand
feria
fermi
fermin
fermo
fern
ferna
fernan
fernandes
fernandez
fernandino
fernando
ferran
ferrand
ferrara
ferrat
ferreira
ferrer
ferrol
ferrolterra
ferry
fertile
fertility
fertilization
fertilize
fertilizer
fest
festival
festivals
fetal
fetus
feu
fever
few
feynman
ff
ffmpeg
fgc
fh
fi
fiat
fiba
fiber
fibra
fibres
fibrosis
fick
fiction
fictional
fictions
ficus
fide
fidel
fidelity
field
fields
fiesta
fiestang
fifa
fifth
fifty
fig
fight
fighter
fighting
figs
figueres
figure
figures
fiji
fiku
fikung
file
filed
filename
files
filesize
filipi
filipina
filipinang
filipinas
filipino
filipinong
filipinos
filipinu
filipinung
fillmore
film
filmmaker
filmography
films
filmsunting
filomena
filosofia
filosofo
filosofong
filpinas
filter
fin
final
finale
finalist
finals
finance
financial
financing
finch
find
finder
finding
finds
fine
finiste
finite
finland
finlandia
finned
finnish
fiona
fire
firearm
firearms
firefly
firefox
fireman
firenze
fires
firm
firozabad
first
fiscal
fischer
fischler
fish
fishbase
fisher
fisheries
fishery
fishes
fishing
fission
fistula
fit
fitmart
fitness
fitzgerald
five
fixation
fixed
fl
flag
flagellum
flags
flagship
flame
flanders
flapper
flash
flat
flatwater
flatworm
flax
fleet
fleming
flemish
flesh
flexion
flexure
flickr
fliess
flight
flights
flintstones
float
floating
floetry
flood
floor
flor
flora
floral
florence
florencia
florendo
florentina
florentino
flores
florida
floridablanca
floss
flour
flow
flower
flowering
flowers
flu
fluctuation
fluid
fluminea
flushing
flute
fluvial
flv
fly
flyers
flying
fm
fo
focus
focused
focuses
fog
foggia
foliage
folio
folk
folklore
follen
follicle
follow
followed
following
follows
fonseca
font
fontainebleau
fontpe
fonts
fontvieille
foochow
food
foods
fool
foot
footage
football
footballer
footballers
foothills
footnote
footnotes
footsteps
for
forage
forbes
forbesii
forbidden
force
forced
forces
ford
fore
forearm
forecast
foregut
foreign
foreigners
forest
forestry
forests
forever
foreword
forez
forget
forgotten
forli
form
formal
formally
format
formation
formats
formed
formentera
former
formerly
formicidae
formosa
forms
formula
fornalutx
fornier
forsk
fort
fortich
fortress
forts
fortuna
fortunato
fortune
fortunes
forum
forums
forward
fos
foshan
fossa
fossil
fossilization
foster
foto
fotografi
fou
fouad
found
foundation
foundations
founded
founder
founders
founding
fountain
four
fourteen
fourth
fourze
fowler
fox
foy
foz
fr
fractal
fractals
frades
fragmentation
fragmented
fragments
frame
framed
frameless
framework
framing
framingham
fran
franc
franca
france
frances
francesca
francesco
franche
franchise
francia
francine
francis
franciscan
franciscans
franciscanu
francisci
francisco
franco
francois
franconia
francophonie
frank
frankfurt
frankie
franklin
franks
franses
frantis
franz
franzen
fraser
fraternity
frau
fraunhofer
fray
fre
fred
freddie
frederick
fredericton
free
freedom
freely
freeman
freeport
freestyle
freeware
freeway
freguesia
freiburg
freiherr
fremantle
fremont
fremontonline
french
frenulum
frequency
frequently
fresh
freshwater
fresneda
fresno
freud
frey
friar
friars
frida
friday
frideric
fried
friedrich
friend
friendly
friends
friendship
friendster
frigate
fritz
friuli
frobel
frog
from
front
frontera
frontier
frontline
frosinone
frs
fructose
fruit
fruiting
fruits
frustration
fruticosa
fry
fsc
ft
ftz
fu
fuad
fuel
fuente
fuentes
fuentiduen
fuerte
fuerteventura
fuerza
fuerzang
fugu
fuji
fujian
fujitsu
fukui
fukuoka
fukushi
fukushima
fulbright
fulcrum
full
fuller
fulltext
fully
fumay
fun
function
functionality
fund
funda
fundacio
fundaciun
fundado
fundador
fundamental
fundamentals
funded
fundy
funeral
fungi
fungus
funston
fuquan
fur
furniture
further
furthermore
fusion
futari
futbolista
futbolistang
futuna
future
fuyang
fuzhou
g
ga
gaang
gabaldon
gabay
gabby
gabi
gabineti
gabon
gabonese
gabriel
gabriela
gabun
gabut
gad
gaddang
gadia
gadongan
gadungan
gaertn
gaga
gagalang
gagalangan
gagale
gagalo
gagalong
gagambul
gagami
gagamit
gagamita
gagamitan
gagana
gaganang
gagato
gagawa
gagawan
gagawang
gagra
gahlot
gaia
gain
gaindu
gaindung
gained
gainza
gaisano
gajanan
gajulamandyam
gakeen
gakkyuu
gal
gala
galac
galal
galame
galang
galanga
galangal
galangang
galaxia
galaxy
gale
galera
galeria
gales
gali
galicia
galician
galiegu
galileans
galilei
galileo
galimuyod
galing
gall
gallardo
gallbladder
gallego
gallegos
galleria
galleries
gallery
gallo
gallus
galman
galo
galudgud
galugud
galumbang
galura
galus
galut
gama
gamat
gamay
gambia
gamble
gamboa
gambulan
game
games
gamete
gametes
gametophyte
gamit
gamitan
gamitang
gamma
gamu
gamuton
gan
gana
ganang
ganap
ganassi
ganbare
ganda
gandara
gandhi
gandhinagar
gang
ganga
gangadhara
ganganagar
gangavaram
ganges
gangetic
gangetica
gangnam
gango
gangtok
ganjam
gansu
ganta
gantimpala
ganzhou
gao
gaobeidian
gaoming
gaoyou
gaozhou
gap
gapan
gapas
gapasan
gara
garal
garalita
garalitang
garang
garanto
garbo
garchitorena
garci
garcia
garcinia
gard
garde
garden
gardening
gardens
gardiner
gardner
gareta
gareth
garfield
garganta
gari
garing
garita
garland
garlic
garlit
garments
garonne
garraf
garreta
garrett
garrido
garrison
garry
gary
gas
gasak
gasan
gascon
gascony
gases
gasgas
gasi
gasolina
gaspar
gasteiz
gastero
gaston
gastric
gastrin
gastrointestinal
gastrula
gastus
gata
gatas
gatchaman
gate
gates
gateway
gatos
gatpanapun
gattai
gattaran
gauan
gauhati
gaulle
gaurav
gautam
gautama
gauthier
gava
gavan
gave
gawa
gawad
gawan
gawang
gawi
gay
gaya
gaza
gazeteer
gazette
gazetteer
gazin
gazing
gazza
gb
gc
gd
gdala
gdan
gdi
gdp
ge
geagea
gear
gees
gekiranger
gel
gelingan
gelug
gem
gemayel
gen
genapan
gender
gene
genealogy
geneeskd
genera
general
generalitat
generally
generals
generasiun
generated
generation
generations
generator
generic
generis
generoso
genes
genetic
genetically
genetics
geneva
genga
genic
geniculate
genius
genki
genoa
genocide
genome
genomes
genomics
genova
genre
gensan
genshi
gentle
gentlemen
genuine
genus
geo
geocaching
geocities
geocoding
geodesy
geodetic
geoff
geoffrey
geografia
geograpfia
geographer
geographers
geographic
geographical
geography
geograpiya
geohive
geologia
geologic
geological
geology
geometry
geophysical
geopolitical
geopolitics
georg
george
georges
georgetown
georgia
georgian
georgians
georgy
geothermal
ger
gera
gerais
gerald
gerang
gerard
gerardo
gerhard
gerilya
germ
germain
germaine
german
germanic
germans
germany
germline
germplasm
gernot
gerona
geronimo
gerry
gers
geschichte
gestational
get
getafe
gets
getter
getting
getty
gewa
gewang
gg
gge
gh
gha
ghana
ghanaian
ghat
ghats
ghaziabad
ghazipur
ghent
ghost
ghosts
gi
gia
giacomin
giang
giant
giants
gibb
gibbs
gibraltar
gibran
gica
gif
gifford
gift
gifu
gigapan
gigaquit
gigmoto
gijo
gikan
gil
gilagid
gilas
gilbert
giles
gilid
gill
gilles
gillespie
gilroy
gin
gina
ginamit
ginanap
ginatilan
ginawa
ginawang
ging
ginga
ginger
gingoog
ginintuan
ginising
ginmaku
gino
ginto
gintu
gintung
ginu
ginulis
ginung
gio
gioachino
gion
gional
giovanni
giporlos
gir
giraffe
giralda
girl
girlicious
girls
girona
gironde
gis
gisanan
gitagum
gitarista
giulia
giuseppe
give
given
gives
giving
giya
gizzard
gje
gkas
glacier
glaciers
glad
gladwell
glan
glance
gland
glands
glaring
glasgow
glass
glee
gleick
glen
glendale
glenn
gles
glieber
glimpses
glise
glo
global
globe
glomeromycota
glomerulus
gloria
gloriang
glorioso
glorious
glory
glossary
glottal
gloucester
glucagon
glucopyranose
glucose
gluten
glycation
glycemic
glycerol
glycogen
glynn
gm
gma
gmanews
gmbh
gmina
gnu
go
goa
goal
goals
goat
goats
gobernador
gobernadorcillo
gobernadorcillos
gobernadores
gobi
gobierno
gobiernu
gobiernung
goby
gobyernu
gobyernung
god
godam
godannar
godavari
goddess
godfrey
godi
godin
godman
godod
gods
godwin
goemon
goenka
goes
goethe
gogh
gogon
going
goiter
goiz
gokai
gokaiger
goku
gol
gold
golden
goldstein
golf
golfer
golfers
golfworld
golion
goma
gomera
gomez
gon
gondia
gone
gong
gongyi
gonin
gonza
gonzaga
gonzales
gonzalez
gonzalo
good
goodbye
goods
goodwill
google
goose
gorakhpur
goran
gordon
gore
gorge
gorges
gori
gorilla
gorio
gorizia
gormaz
gosei
goseiger
gospel
got
gotha
gothic
goto
gottlieb
gou
gougou
gould
gourmet
gov
governador
governance
governed
governing
government
governmental
governments
governor
governorate
governorates
governors
govt
gowapper
goya
goza
gozo
gozon
gp
gpp
gprs
gps
gpsr
gr
grabadu
grabi
grabing
grace
gracia
graciano
grade
graded
grades
grado
gradu
graduadu
graduate
graduates
graduating
graduation
gradung
gradwadu
graf
graff
graham
grain
grains
gram
grama
gramatica
grammar
grammy
gramophone
gramu
gran
granada
granadilla
grand
grandas
grande
grandfather
grandiosu
grandmaster
grandmasters
grandson
granite
granja
grant
granted
granting
grants
granule
granules
granulocyte
grape
grapefruit
grapes
graphic
graphical
graphics
graphite
grass
grasses
grasshopper
grasya
grave
graveolens
graves
gravida
gravitation
gravity
gray
grayscale
grayson
gre
great
greater
greatest
grecia
greco
gredos
greece
greek
greeks
green
greene
greenfacts
greenhills
greenhouse
greenland
greenwood
greg
gregg
greggii
gregoria
gregorian
gregorio
gregory
grenoble
grew
grey
gridcolor
grief
griego
griegong
griegu
griegung
griesheim
grieve
griffith
grigory
grin
grinnell
grip
griyegu
gross
grosseto
grottes
ground
group
groups
grove
grover
grow
growers
growing
grown
growth
große
gru
grupo
grupu
grupung
gruyter
gryllotalpa
gs
gsilbi
gsm
gu
gua
guadalajara
guadalquivir
guadalupe
guadeloupe
guadiana
guagua
guam
guangdong
guangxi
guangzhou
guanzon
guarani
guaranteed
guard
guardia
guardian
guaren
guatemala
guatemalan
guava
guba
gubat
gubatan
gubernador
gubiernu
gubiernung
gubyernu
gubyernung
gudivada
gue
guera
guerang
guerilla
guernsey
guerra
guerrang
guerre
guerrero
guerrilla
guerrilliang
guest
gueua
guevara
guevarra
guewa
guez
guggenheim
guglielmo
gugrupu
gugulis
gugupitan
gui
guia
guiam
guiana
guiao
guibuangan
guidance
guide
guidebook
guided
guidelines
guides
guido
guiguinto
guihulngan
guijo
guila
guild
guilford
guilig
guillaume
guillermo
guilopa
guilt
guilty
guimaras
guimba
guimbal
guimod
guin
guinayangan
guindapunan
guindulman
guindulungan
guinea
guinhawa
guinness
guinobatan
guinoo
guinsiliban
guinto
guintu
guintung
guinu
guinung
guipos
guipu
guisa
guiset
guisguis
guitar
guitara
guitarist
guitarista
guitars
guiuan
guiwan
guiwanon
guiyang
guizhou
gujarat
gujarati
gulang
gulbarga
gule
guleng
gulf
gulis
gulod
gulu
gulung
gulungan
gulut
gum
gumaca
gumamela
gumamit
gumana
gumanang
gumander
gumbel
gumla
gummi
gumulis
gun
guna
gunma
gunpowder
guns
gunting
guntur
gupta
gurgaon
guria
guriezo
gurramkonda
gurrea
guru
gurudwara
gus
gusali
gusaling
gusing
gustatory
gustav
gustave
gustavo
gusto
gut
gutalac
gutenberg
guti
gutie
gutierrez
guts
guwahati
guy
guyana
guyslugger
guyud
guzma
guzman
gwalarn
gwalior
gwanghwamun
gwyneth
gymnasium
gymnosperm
gynecol
gynecology
gynecomastia
gyrocompass
h
ha
haas
habana
habang
habitat
habitats
habsburg
hache
hacienda
hack
had
hadji
hae
hagonoy
hague
haguenau
haguimit
hai
haikou
haiku
hail
hailin
haimen
hainan
hair
haiti
haj
hak
hakka
hakodate
halalan
halata
halayhayin
haldia
haldwani
hale
haleang
half
halfbeak
halfbeaks
halik
hall
hallam
halle
halley
hallucination
halo
halobacteria
halos
halus
hama
hamburg
hamilton
hamirpur
hamish
hamlet
hammana
hammer
hammett
hammoud
hampshire
hampton
hamtic
han
hana
hancinema
hand
handan
handbook
handbuch
handed
handel
handheld
handle
handled
handling
hands
handscrew
handsome
hanford
hangang
hanggan
hanggang
hangtod
hangul
hangzhou
haninozuka
hanja
hanna
hannah
hanoi
hanopol
hanover
hans
hanseatic
hansen
hantu
hanuman
hanumangarh
hanyu
haploid
hapon
hapones
happened
happening
happenings
happiness
happy
hara
haram
harana
harbin
harbor
harbour
harcourt
hard
harda
hardback
hardcourt
hardcover
hardin
harding
hardware
hardy
hare
hari
haridwar
hariri
harlock
harmonization
harmony
haro
harold
harper
harpercollins
harpers
harris
harrisburg
harrison
harry
harsawa
hart
hartford
hartmut
haru
harvard
harvest
harvey
haryana
has
hasan
hasbaya
hashemite
hashire
hassan
hastinapur
hastings
hat
hate
hathras
hau
hauenstein
haus
hauser
haut
haute
hautes
hauts
havana
have
haveli
haven
having
havre
hawai
hawaii
hawaiian
hawi
hawk
hawks
hay
hayabusa
hayat
hayes
hayop
hayskul
hayward
hazan
hazas
hcg
hd
hdi
hdtv
he
head
headed
header
headline
headlines
headquarters
heads
healing
health
healthcare
healthy
heaps
hear
heard
hearing
hearings
heart
heartbreak
hearts
heather
heaven
heavy
hebe
hebei
hebi
hebreo
hebrew
hectaria
hector
hedge
hedgehog
hedin
hee
hefei
hegang
heidelberg
height
heights
heihe
heilongjiang
heinemann
heinrich
heinz
heisenberg
heiwa
hejian
hela
held
helen
helena
helicopter
helicotrema
helium
helix
hell
hellenic
hellenistic
hello
helms
helmut
help
helper
helping
helsinki
heme
hemings
hemiramphidae
hemiramphus
hemisphere
hemoglobin
hemp
hen
henan
henares
henderson
heneral
henerasiun
henerasyun
heneru
hengshui
hengyang
henri
henry
henshin
henson
hentschel
heografi
heograpia
heograpicu
heograpikal
heon
heong
hepatic
hepatitis
hepatocellular
hepatocytes
hepatology
hepatopancreatic
her
herald
herarkiya
herb
herbal
herbert
herbs
hercegovina
herculaneum
hercules
herder
here
hereditary
herencia
herguijuela
heritable
heritage
herm
hermandad
hermann
hermit
hermosa
herna
hernan
hernand
hernandez
hernando
hernani
hero
heroes
heron
herpes
herpetology
herpy
herrera
herreri
herreros
herring
herself
hertzfeld
herzegovina
heshan
hesperia
hesse
hesu
hesus
het
heterophylla
heterophyllus
heterotroph
heterozygote
heubach
heubacher
hewlett
hexadactyla
heyuan
hezbollah
heze
hezuo
hg
hi
hibiscus
hickory
hidalgo
hidden
hide
hideo
hie
hierarchy
hierro
higashisonogi
high
higher
highest
highlands
highlights
highly
highschool
highsmith
highway
highways
higuchi
higuera
hija
hiking
hilario
hilary
hilig
hiligaynon
hiligueino
hilingon
hill
hillary
hills
hilongos
hilton
hiluctogan
him
himachal
himagsikang
himalaya
himalayan
himalayas
himamaylan
himself
hinabangan
hinalean
hinatuan
hindang
hindi
hindu
hinduism
hinduismu
hindus
hines
hingyon
hinigaran
hino
hinoba
hinojosa
hinunangan
hinundayan
hip
hirado
hiram
hiroki
hiroshima
his
hisar
hispania
hispanic
hispaniola
hispida
hist
histo
histoire
histology
historia
historiador
historian
historians
historic
historical
historically
histories
historiograpiya
history
historylink
hit
hita
hitchcock
hitler
hito
hitori
hitotsu
hits
hiv
hizb
hizballah
hizbullah
hizon
hl
hlavni
hler
hm
hnu
ho
hoa
hoang
hobby
hockey
hodder
hoe
hoero
hoffman
hog
hohhot
hohoemiwoageyou
hoi
hokkaido
hoku
hokuriku
hokusai
holanda
holandes
hold
holders
holding
holdings
holds
hole
holiday
holidays
holiness
holland
hollande
hollister
hollow
holly
hollywood
holmes
holocaust
holstein
holt
holy
home
homecoming
homeland
homeostasis
homepage
homer
homes
homeschooled
homestead
hometown
homobono
homozygous
hon
honasan
honda
honduras
honey
hong
hongkong
honneur
honolulu
honor
honorable
honorary
honored
honorees
honorio
honors
honour
honrubia
honshu
hontiveros
honto
hooghly
hoon
hoover
hop
hope
hoped
hopkins
hopman
horace
horacio
horan
horatio
horcajo
horizon
horizontal
hormone
hormones
horn
horoscopes
horror
horse
horseshoe
horta
horticultural
horticulture
hoshi
hoshiarpur
hosni
hospital
hospitalet
hospitality
hospitals
host
hosted
hosting
hosts
hot
hotel
hotels
hotspot
hou
hougan
houghton
hound
hour
hours
house
housekeeping
houses
housing
houston
hovannes
hoverfly
how
howard
howe
however
howrah
howstuffworks
hoyo
hoyos
hoz
hp
hq
hr
hradec
hrm
hrsg
hrv
hs
hsien
hsu
htc
htm
html
http
https
hu
hua
huai
huaian
huaibei
huaihua
huainan
huang
huanggang
huangshan
huangshi
huaxi
hub
hubbard
hubei
hubel
hubert
hubli
hudson
hudyong
hue
huelva
huerta
huesca
huffington
huge
hugh
hughes
hugo
hugpa
huguenot
hui
huichang
huizhou
huk
hukbalahap
hukbu
hukum
hula
huli
hull
hulo
hulog
hulyo
hulyu
hum
human
humanidades
humanists
humanitarian
humanitarians
humanities
humanity
humans
humboldt
humerus
humid
humor
humorist
hump
hunan
hunchback
hundred
hundreds
hungarian
hungary
hungduan
hunt
hunter
hunters
hunting
huntsville
hunyo
hunyu
huolu
hurricane
hurry
hurst
hurtado
husain
husband
hush
husk
hussain
hussein
hustisya
huwit
huxley
huye
huygens
huzhou
hwang
hyakujuu
hybrid
hyderabad
hydra
hydraulic
hydroelectric
hydrogen
hydronephrosis
hydrophobic
hydrothermal
hye
hymenoptera
hyo
hyouga
hyperglycemia
hyperion
hypermutation
hypertension
hypha
hyphae
hypoglycemia
hypothalamus
hypothesis
hyun
hz
i
ia
iabt
iagcas
iain
ial
ian
iast
iatin
iau
iay
iba
ibaan
ibaba
ibabang
ibabao
ibajay
ibalik
ibaloi
ibanag
ibang
ibaraki
ibarra
ibarrola
ibat
ibatan
ibayo
ibayu
ibc
ibe
iberian
ibero
ibf
ibid
ibidem
ibie
ibig
ibili
ibinibigay
ibiza
ibm
ibn
ibo
ibor
ibpa
ibpang
ibrahim
ibrahimpatnam
ibridu
ibubu
ibulalag
ibulus
iburi
ibusni
ibye
ic
ica
ical
icang
icarnegie
icc
ice
iceberg
icebreaker
iceland
icelandic
ichiro
ichthyology
icon
icua
id
idad
idagdag
idaho
idala
idayu
idea
ideas
identification
identified
identify
identities
identity
ideolohi
ideya
ideyang
idle
idol
idols
idtig
idurut
ie
iec
ieee
ier
iest
if
ifas
ifcu
ifla
ifugao
ig
iga
igang
igbangcal
igbaras
igbo
igit
iglesia
iglesias
iglesya
ign
ignacia
ignacio
igorot
igot
igpa
iguig
igun
igutan
ii
iics
iii
iing
iis
iisa
iit
ik
ika
ikang
ikasulung
ikata
ikatamu
ikatlung
ikaw
ikawani
ikayu
ike
iki
iking
ikit
iksamin
ikua
ikuang
ikuldas
ikulio
ikumpara
ikuzo
ikwa
ikwang
il
ila
ilagan
ilako
ilan
ilang
ilapin
ilaping
ilarawan
ilaud
ilawod
ilaya
ilayang
ildefonso
ile
ileanu
ilera
ileum
ileus
iley
ili
iliad
ilian
iligan
iligeinu
iligtas
ilihan
ilikas
iling
ilista
ill
illas
ille
illegal
illes
illinois
illness
illnesses
illu
illustrador
illustrated
illustration
illustrations
illustrator
ilo
ilocano
ilocanos
ilocanu
iloco
ilocos
ilog
iloilo
iloka
ilokano
ilokanu
iloko
ilonggo
ilonggu
ilub
ilucanu
ilug
ilukanu
iluko
ilutu
ilya
ilyich
im
ima
image
imagery
images
imagesize
imagination
imaging
imahe
imalan
imam
imang
imbentor
imbentu
imbes
imdb
imelda
imereti
img
imi
immaculate
immigrant
immigrants
immigration
immortal
immune
immunity
immunological
immunology
imno
imnong
imnu
imnung
impact
impairment
impart
impasug
impeach
impeached
impeachment
impeksiun
impeksyon
impeksyun
impennis
imperata
imperia
imperial
imperio
imperiu
imperiung
imperyu
imperyung
implantation
implement
implementation
implementations
implemented
implications
impluwensiya
impluwensiyang
impluwensya
impluwensyan
impormasiun
impormasyon
impormasyun
import
importance
important
importanting
imported
impossible
impressionism
impressionist
impressions
imprisoned
improve
improved
improvement
impulse
imt
imus
in
ina
inaasahang
inabaknon
inabanga
inabasan
inabe
inactive
inagkat
inakmul
inalad
inaladan
inalal
inalilan
inalili
inalis
inalkus
inaluk
inambag
inampang
inampun
inapruban
inaptas
inari
inasawa
inaswa
inatsa
inaua
inauguracion
inaugural
inauguration
inaus
inawa
inawus
inay
inayawan
inayus
inazuma
inazuman
inc
inca
inch
incheon
inches
incidence
incident
incidents
include
included
includes
including
income
incorporate
incorporated
increase
increases
increment
ind
inda
indam
indanan
indang
indangan
indat
inday
independence
independensya
independent
independienting
inderal
index
india
indian
indiana
indianapolis
indians
indianu
indias
indibidual
indibidwal
indica
indicasyun
indicator
indicators
indictment
indicum
indicus
indie
indies
indigenous
indigo
indiku
indio
indira
individual
individuals
indo
indochina
indoeuropeyu
indonesia
indonesian
indoor
indore
indre
indu
induced
inductees
induismu
indung
indus
industria
industrial
industrialisadu
industrialisadung
industrialist
industriang
industries
industriya
industriyang
industry
indy
indycar
ine
inertial
ines
inestabilidad
inf
infamy
infant
infanta
infantado
infantry
infantryman
infarction
infe
infection
infectious
inferior
inferiorly
infinite
inflammation
inflammatory
inflorescence
influence
influencia
influential
influenza
info
infoplease
informa
informacio
informacion
informaciun
informatics
information
informations
informative
informed
infos
infotech
infrared
infrastructure
infrequently
ing
ingatan
inge
ingenieria
ingestion
inggles
inghenieri
ingkayang
ingkung
inglaterra
ingles
inglis
ingredients
ingud
ingushetia
ingyang
inhabitants
inheritance
inherited
inhibitor
inhibitors
inhinyeru
ini
inia
iniang
inieru
iniesta
inimbentu
ining
initao
initial
initiative
injuries
injury
inland
inmalog
inmobiliaria
inn
inner
innings
innocent
innovation
innovations
innovative
inocencio
inochi
inopacan
inorganisa
inq
inquirer
inquiry
inscription
insect
insecta
insecticide
insects
insectu
insee
insektu
inside
insider
insight
insik
inskipp
inspirasiun
inspirasyun
inspiration
inspired
instagram
instance
instant
instead
institucion
institusion
institusiun
institut
institute
institutes
institution
institutional
institutions
instituto
instruction
instructional
instructor
instrument
instrumentation
instruments
instrumentu
instrumentung
insular
insulations
insulin
insurance
int
inte
integral
integraph
integrated
integration
integumentary
intellectual
intelligence
intelligent
intended
intension
intensity
intensive
intentung
inter
interaction
interactive
interchange
intercontinental
intercostal
interdisciplinary
interes
interest
interesting
interests
interface
intergovernmental
interhigh
interim
interior
interisland
interlevel
intermediate
intermission
internacional
internal
internasional
internasiunal
internasyonal
internasyunal
international
internationale
internationally
internet
interpretation
interpreting
interrupted
interstate
interstellar
interval
interview
interviewed
interviews
intestine
intindian
into
intramuros
intratext
intresadu
intrinsic
introduce
introduced
introduction
introductions
introductory
intsik
inudaran
inulat
inuli
inuman
inumpisan
inutus
invaders
invasion
invasive
invention
inventions
inventor
inventors
inventory
invertebrate
invertebrates
invest
investigating
investigation
investigative
investment
investments
investors
invincible
invisible
invite
involved
involvement
involving
inwonertal
inya
inyad
inyang
inyeru
inyo
inyong
ioannes
ion
ionian
iowa
ip
ipa
ipabalu
ipaglualu
ipakit
ipalto
ipamingwa
ipan
ipanalangin
ipaq
ipas
ipasiag
ipcc
iphone
ipil
ipinanganak
ipisali
ipl
iprage
ipt
ipus
ira
iran
iranian
iraq
iraqi
iraya
ireland
irene
iria
irian
iriga
irigoyen
iris
irish
irkutsk
irn
iro
iron
irong
irosin
irradiate
irregular
irri
irrigation
irrintzi
irrn
iru
irug
irun
irvine
irving
is
isa
isaac
isabang
isabel
isabela
isabella
isabelo
isabgol
isadya
isagupa
isamut
isan
isang
isarog
isbn
ischemia
ischemic
isda
ise
isernia
ishi
ishihara
ishikari
ishikawa
isic
isidoro
isidro
isik
isimpan
isip
isipan
isko
iskolar
isla
islam
islamabad
islamic
islamist
island
islanders
islands
islang
islas
isle
isles
islet
islets
ismael
isn
iso
isola
isolated
isotope
isp
ispiritual
ispiritwal
isplika
isplikan
isponga
israel
israeli
issn
issue
issued
issues
istanbul
istasiun
istasyun
istasyung
istat
istatua
istatwa
isti
istilong
istilu
istilung
istituto
istoria
istorikung
istorya
istruktura
istrukturang
istung
isulan
isulat
isulung
isumbung
isundu
isyu
isyung
it
ita
itaas
itaguyud
italia
italian
italiana
italianang
italiano
italians
italianu
italianung
italianvisits
italics
italy
italya
italyanu
itan
itanam
itang
itas
itatag
itawis
itbayat
ite
items
ithaca
iti
itikdo
itim
iting
itis
ito
itogon
itou
its
itself
itsura
itsurang
itu
itubud
ituki
itulid
itung
ituring
ituru
iucn
iupac
iv
ivan
ivana
ivanovo
ivatan
ivisan
ivoire
ivor
ivory
ivy
iwate
ix
iya
iyabe
iyalis
iyan
iyang
iyapi
iyapin
iyaping
iyas
iyengar
iyo
iyong
iz
izieu
izquierdo
j
ja
jabal
jabalpur
jabonga
jaca
jacinta
jacinto
jack
jackets
jackfruit
jackie
jackson
jacob
jacobs
jacqueline
jacques
jacqui
jade
jadraque
jae
jaen
jaena
jagdish
jagna
jagraon
jagst
jagtial
jahn
jaime
jain
jaipur
jaisalmer
jakarta
jake
jakob
jal
jala
jalajala
jalan
jalandhar
jalgaon
jalisco
jalo
jam
jamahiriya
jamaica
jamaican
jamaicensis
jamboree
jamby
james
jamindan
jammu
jamnagar
jamshedpur
jan
janagdong
jane
janeiro
janelle
janet
janine
janiuay
jansen
janssen
januari
january
janus
japan
japanese
japitan
japon
japonic
japoy
jar
jara
jarama
jardin
jaro
jaroslav
jasaan
jasmin
jasmine
jason
jaspe
jat
jatropha
jaume
java
javakheti
javanese
javanica
javi
javier
jaw
jawf
jaws
jay
jaya
jaycees
jays
jazeera
jazz
jb
jbeil
jc
jdeideh
je
jean
jeane
jed
jeddah
jeeg
jeep
jeepney
jeff
jefferson
jeffrey
jehol
jejomar
jejunum
jelac
jelacc
jeldres
jellyfish
jena
jencks
jenkins
jenner
jennifer
jennings
jenny
jensen
jepson
jeremiah
jeremy
jerez
jerome
jerry
jersey
jerusalem
jerzy
jes
jespersen
jess
jesse
jessica
jesu
jesucristo
jesuit
jesuita
jesuits
jesus
jet
jetafe
jeux
jewel
jewish
jews
jezzine
jf
jfinex
jhabua
jhalawar
jhansi
jharkhand
jhunjhunu
ji
jia
jiabong
jiamusi
jiangdu
jianghan
jiangmen
jiangsu
jiangxi
jiangyan
jiangyin
jiaozuo
jiaxing
jiayuguan
jibril
jic
jie
jieyang
jihad
jihadist
jikenbo
jikuu
jilin
jill
jim
jima
jimalalud
jimenez
jimmy
jin
jinan
jinchang
jingco
jinggoy
jingjiang
jingle
jingmen
jingzhou
jinhua
jining
jinjiang
jintan
jinzhou
jipapad
jishou
jitterbugs
jiujiang
jiuquan
jixi
jiyuan
jk
jkimball
jo
joan
joanne
joaqui
joaquin
job
jobi
jobs
jockey
jodhpur
jodi
joe
joel
joey
johann
johannes
johannesburg
john
johnny
johns
johnson
johnston
johor
join
joined
joint
jojo
joker
jolie
jolo
jomalig
jon
jonas
jonathan
jones
jong
jonglei
jonquera
joo
jordan
jordanian
jorge
jorhat
jose
josef
josefa
josefina
josep
joseph
josephine
josh
joshua
josie
jots
jouls
jour
journal
journalese
journalism
journalist
journalists
journals
journey
journeys
jovellar
jovice
jovito
joy
joya
joyce
joyeuse
joyeux
jp
jpeg
jpg
jpia
jr
jrc
jsp
jstor
jsw
ju
juan
juana
juanico
juanita
juanito
juba
juban
jubasan
jubilee
judah
judaism
judd
judge
judges
judgment
judicial
judiciary
judio
judith
judy
juice
jukebox
jukum
jul
jules
juli
julia
julian
julianne
julie
julien
juliet
julio
julita
juliu
julius
julugan
july
jumblatt
jumper
jun
junagadh
junagarh
junction
june
juneau
jung
jungle
jungo
juni
junio
junior
juniper
juniu
juniville
junk
jupiter
jura
jurado
jurisdiction
jurong
jury
just
justice
justices
justicia
justification
justify
justin
justina
justine
justo
juvenile
jy
k
ka
kaarian
kaba
kabacan
kabait
kabalduga
kabaldugan
kabalen
kabalenan
kabaligtaran
kabalitan
kabaluan
kaban
kabanalan
kabang
kabangal
kabankalan
kabas
kabasalan
kabayan
kabayangnan
kabayu
kabayung
kabbon
kabiasnan
kabiasnang
kabiayan
kabilang
kabilian
kabilugan
kabilyan
kabinete
kabineti
kabisayan
kabisera
kabitisan
kabladugan
kabra
kabud
kabug
kabugao
kabukasan
kabuklat
kabuktut
kabul
kabulasan
kabulusan
kabundukan
kabundukang
kabunsuan
kabuntalan
kaburian
kaburyan
kabutihan
kabyasnan
kabyasnang
kabyayan
kachchh
kachi
kacu
kacung
kadaba
kadala
kadalasan
kadane
kadaneng
kadapa
kadayatan
kadayatmalatan
kadi
kadinala
kadinalan
kadinalang
kadingilan
kadish
kadisha
kadua
kaduang
kadwa
kadwang
kaen
kaette
kaev
kafka
kafr
kafra
kagalang
kagalangan
kagamitan
kagawa
kagawasan
kagay
kagayake
kage
kagestar
kagiwan
kagoshima
kagubatan
kaguluan
kagulutan
kagulwan
kahapon
kahayag
kahayagan
kahit
kahlil
kahlo
kahn
kahoy
kahun
kai
kaiba
kaibat
kaifeng
kaila
kailan
kailangan
kailangang
kaili
kailing
kainan
kaingin
kaiping
kaiser
kaiserslautern
kaisipan
kaizoku
kajimaseyo
kaka
kakaba
kakabit
kakablas
kakagli
kakalat
kakaluguran
kakaluluan
kakambal
kakampi
kakanan
kakapal
kakarera
kakataskatasan
kakatni
kakatning
kakawani
kakawaning
kakawe
kakdug
kakete
kakeuan
kakewan
kakheti
kaki
kakilub
kakilubkiluban
kakinada
kaklasi
kako
kaku
kakulangan
kakumpitensia
kakumpul
kakung
kakuyug
kal
kala
kalaban
kalabas
kalabaw
kalabing
kalabingpitung
kalabingsiam
kalabingsyam
kalabingwalung
kalabug
kaladua
kaladuang
kaladwa
kalagyu
kalahasti
kalakal
kalakalan
kalalangan
kalalangang
kalam
kalamansi
kalamansig
kalamidad
kalamkari
kalamnan
kalamunding
kalang
kalanganan
kalanse
kalapad
kalapit
kalat
kalaut
kalaw
kalawag
kalawakan
kalawi
kalawit
kalayaan
kalayan
kalbag
kaleldo
kalele
kalesa
kalgaretang
kali
kalibe
kalibo
kalibudatan
kalibudatang
kalibudataran
kalibudatarang
kalibudtan
kalibudtang
kalibudtaran
kalibudtarang
kalibutaran
kalibutarang
kalibutnan
kalidad
kaligtasan
kalihim
kalijim
kalikasan
kalilangan
kalima
kalimang
kalimantan
kalinangan
kalinangang
kalinga
kalingalan
kaliningrad
kalinisan
kalintaw
kalipat
kaliskis
kaliu
kaliwas
kaliweti
kallur
kalma
kalmang
kalookan
kalpetta
kalu
kalual
kaluga
kalugkug
kaluguran
kalugus
kalulu
kalulung
kalupa
kalupang
kalupitan
kalutasan
kalwa
kalyan
kalyus
kama
kamag
kamaganak
kamal
kamalapur
kamalapuram
kamalayan
kamalig
kamangyang
kamara
kamaru
kamatayan
kamate
kamatis
kamaung
kamay
kambal
kambe
kambing
kambubulag
kamen
kami
kamiagata
kamikawa
kamikaze
kaming
kaministilan
kampanya
kampanyang
kampeon
kampeonato
kampong
kampot
kampung
kamuti
kan
kana
kanaan
kanada
kanagawa
kanaku
kanakung
kanam
kanan
kananga
kanawan
kanazawa
kanchi
kanchipuram
kandadung
kandadunggabun
kandal
kandidatu
kandidatung
kandidatura
kandila
kandis
kandla
kane
kang
kangazha
kangkung
kangra
kani
kanian
kanini
kaninu
kanipakam
kanita
kanitang
kaniti
kaniting
kanji
kankana
kankanaey
kanlaon
kanluran
kanlurang
kannada
kannauj
kannur
kanpur
kansai
kansas
kanser
kanta
kantang
kantidad
kanto
kantu
kanu
kanuan
kanung
kanwan
kanya
kanyakumari
kanyan
kanyang
kao
kaoh
kaohsiung
kapabalwan
kapad
kapadurutan
kapadurutnan
kapag
kapaglunusan
kapagmasusian
kapagnasan
kapai
kapainawan
kapaintulutan
kapait
kapakayan
kapakibatan
kapal
kapalaran
kapaldanan
kapali
kapaliarian
kapaligiran
kapalong
kapalsintan
kapalyaryan
kapamahalan
kapamahalang
kapami
kapamilata
kapamilatan
kapamiltan
kapamilya
kapamiraitnan
kapampa
kapampangan
kapampangang
kapampangans
kapamu
kapanakawanan
kapanalig
kapanamdaman
kapanandaman
kapanatagan
kapanaun
kapanaunan
kapanayan
kapangan
kapanibalan
kapanintunan
kapaniwalan
kapansanan
kapansin
kapansinpansin
kapante
kapanteng
kapanualan
kapanumanan
kapanutulan
kapanwalan
kapara
kaparalanan
kaparang
kapareha
kapareu
kaparis
kaparusan
kapasnawan
kapasyan
kapat
kapatad
kapatagan
kapatawaran
kapatulugan
kapaya
kapayapan
kape
kapibabatan
kapigaganakan
kapikakunuan
kapilan
kapilinang
kapirasu
kapirasung
kapisanan
kapitan
kapitna
kapitnang
kapitolyu
kapitu
kapitung
kaplas
kapmilatan
kapoor
kappa
kapsa
kapulu
kapuluan
kapuluang
kapulungan
kapulungang
kapulwan
kapulwang
kapun
kapunan
kapurian
kapuso
kaputian
kara
karabakh
karachi
karadagan
karag
karagdagan
karagdagang
karagul
karaikal
karaikudi
karakal
karake
karaklan
karakter
karakterisa
karakum
karampatan
karamsad
karanasan
karangalan
karaniwan
karaniwang
karapatan
karapatdapat
kararasan
karas
karatang
karayatmalatan
karayu
karayum
karbon
kardashian
kare
karel
karela
karelan
karelang
kareli
karen
kareng
kareni
karening
karera
karerang
kareristang
kareta
karetang
kareti
kareting
kari
karibal
karim
karimla
karimlan
karimnagar
karin
karinan
karing
karjat
karl
karlheinz
karlovy
karlsruhe
karnal
karnataka
karne
karng
karni
karomatan
karon
karpinteru
karsel
karst
kartli
karu
karulun
karur
karwar
karyogamy
kas
kasagid
kasakit
kasakitan
kasal
kasalanan
kasalesa
kasalesalayan
kasalesayan
kasalpantayan
kasalpantayanan
kasalugnsungan
kasalukuyan
kasalukuyang
kasalungsu
kasalungsungan
kasalungsungang
kasama
kasampat
kasanayan
kasangkanan
kasangkapan
kasangkapang
kasanting
kasantingan
kasapi
kasaplalan
kasapni
kasapning
kasapunggul
kasarian
kasarinlan
kasaup
kasaupan
kaschka
kasebian
kasebyan
kaseng
kasepu
kashi
kashmir
kasi
kasiam
kasibu
kasibul
kasikan
kasikatan
kasindagul
kasing
kasingkabaldugan
kasiping
kasiran
kaskup
kaspi
kassel
kastanias
kastila
kastilang
kasu
kasuglung
kasulatan
kasulatang
kasumangid
kasunduan
kasung
kasusug
kasuyuan
kasyam
kata
kataastaasan
katabas
kataeb
kataimikan
katakutan
katalan
katalaruan
katalarwan
katalindikingan
katamtaman
katang
katanggap
katangian
katapatan
katapusan
katarungan
katas
katasan
katatagan
katatalakaran
katataulian
katatawlyan
katau
kataung
katawan
kataya
katayang
kate
katedral
kategoria
kategoriang
kategoriya
kategorya
kategoryang
kateri
katherine
kathleen
kathmandu
kathryn
kathy
katibayan
katimawan
katimawang
katinig
katipunan
katlu
katlung
katni
katning
kato
katolika
katoliko
katolikong
katoliku
katolikung
katolisismu
katrina
katua
katuglung
katuki
katulid
katuliran
katulirang
katumbas
katunayan
katungkulan
katuparan
katutu
katutuan
katutubu
katutubung
katutwan
katwa
katzer
kau
kauangis
kaufman
kaugalian
kaugalyan
kaugnayan
kaugne
kaulaga
kaulagan
kauli
kaumpurnah
kauran
kaurian
kauryan
kauswagan
kautusan
kavaratti
kaveri
kawa
kawad
kawal
kawalu
kawalung
kawangis
kawani
kawaning
kawata
kawatasan
kawayan
kawing
kawit
kay
kaya
kayabangan
kayabe
kayabeng
kayagape
kayagnan
kayagum
kayalan
kayalang
kayalili
kayamanan
kayan
kayanacan
kayanakan
kayang
kayangganan
kayanib
kayantabe
kayapa
kayapan
kayapang
kayarap
kayari
kayarian
kayaryan
kayatulan
kayawig
kaybat
kayi
kaylangan
kaylangang
kayli
kayling
kayng
kaysersberg
kayu
kayumu
kayung
kayuryan
kazakh
kazakhs
kazakhstan
kaze
kazimierz
kazoe
kb
kbe
kbs
kc
kcc
kcrw
ke
kea
keang
kebabainan
kebaitan
kebaluan
kebalwan
kebaytan
kedah
kee
keeling
keen
keep
keeping
kegan
kegiwan
keiji
keith
keka
kekaba
kekami
kekaming
kekang
kekatamu
kekatamung
kekatang
kekayu
kekayung
kekeng
kekong
kelambatan
kelis
keliwan
keller
kelly
kelualan
kemal
kematayan
kematen
kematyan
kemerovo
kemikal
ken
kena
keng
keni
kening
kennedy
kennel
kenneth
kenny
kentucky
kenu
kenuman
kenya
kenyan
kept
keragu
keragulan
keragulang
keraklan
kerala
kerang
kern
kernphysik
kerr
kesa
ket
keta
ketang
ketapang
ketasan
ketauan
ketawan
ketchikan
keti
keting
ketungin
keugalian
kevin
kew
kewani
key
keya
keyang
keyboard
keyboards
keyhole
keynote
keys
kft
kg
kh
kha
khabarovsk
khakassia
khalifah
khalil
khambat
khambhat
khammam
khan
khandriga
khandwa
khanh
khanty
kharagauli
kharagpur
khargone
khashuri
khasi
khatm
khayya
khayyam
khe
kheda
khiev
khmau
khmer
kho
khon
khoni
khoo
khopoli
khum
khz
ki
kialdan
kiamba
kiangan
kibawe
kiblawan
kibungan
kibyol
kicked
kidapawan
kidney
kids
kie
kiel
kien
kiev
kign
kikansha
kikiak
kikiakan
kikilalanan
kikimut
kikitid
kiko
kikuchi
kil
kila
kilala
kilalanan
kilalang
kilaten
kildap
kile
kilgour
kilikili
kiling
kilkulan
kill
killed
killer
killing
killings
kilometers
kilometres
kilometro
kilometru
kilual
kilub
kiluban
kilumetru
kilung
kilusan
kiluwal
kilwal
kim
kimi
kimigasaikou
kimura
kimut
kimutan
kin
kinabalu
kinabie
kinabye
kinagunan
kinang
kinangua
kinangwa
kinanua
kinanwa
kinaray
kinawani
kinayap
kind
kindergarten
kinetics
king
kingas
kingcomarca
kingdom
kingdome
kingdoms
kingfisher
kings
kingston
kinh
kini
kinilala
kinimut
kinki
kinmen
kinoguitan
kinshasa
kinua
kinudta
kinuldas
kinumpirma
kinwa
kipping
kiran
kirchhoff
kirghizia
kiri
kiribati
kirishitan
kirk
kirov
kisaming
kiss
kissinger
kit
kita
kitamatsuura
kitang
kitaotao
kitcharao
kitchen
kitkut
kiyaran
kkk
kkpk
kl
kla
klasi
klasikal
klasikong
klasiku
klasikung
klasing
klasingbalen
klasipikasiun
klasipikasyun
klatovy
klaus
klebanov
kli
klima
klimang
klimt
klinika
klru
klug
km
knee
knesset
kng
knife
knight
knighthoods
knights
knives
knockout
knopf
know
knowledge
knowles
known
knox
ko
koalisyon
kobe
koc
koch
kochersberg
kochi
koda
kodansha
kodiku
kodradu
koduru
koehler
koenig
koenigii
koete
koh
kohima
koi
kok
koko
kokoro
kokrajhar
kola
kolambugan
kolar
kolas
kolehiu
kolehiyo
kolehiyu
kolehiyung
koleksyon
kolhapur
koli
kolkata
kollam
kolombia
kolonial
kolonialismu
kolonya
kolonyal
kolonyang
komanggi
kombinasiun
kombinasyun
komedianti
komedya
komedyanti
komentarista
komersiu
komersyal
kometa
kometang
komi
komiks
komisyon
komite
kommersant
komonwelt
komori
kompanyang
kompanyi
kompilasyon
kompletung
komplikadu
komplikadung
komplikasyun
kompositor
kompuestu
komunidad
komunikasyun
komunista
kon
konark
kondadu
kondadung
konduru
kong
konggu
kongregasyon
kongreso
kongresu
konin
konkan
konkani
konosi
konovalov
konrad
konsehal
konseho
konsekuensia
konseptu
konsidera
konstantinopla
konstitusyon
konstitusyonal
kontekstu
kontinenti
konting
kontra
kontribusyon
kontrobersia
kontrobersya
kontrobersyal
kontrol
koontz
koop
kooperati
koponan
koponang
kopya
korba
kordiliera
kore
korea
korean
koreans
koreanu
koreanung
koreathe
koro
korona
koronadal
koronel
koror
korpuskulos
korte
korti
korupsyon
kosciol
koseidon
kosovo
kosta
kostroma
kot
kota
kotaba
kotdwara
kothagudem
kothakota
kotsi
kotsing
kottayam
koukou
koul
kourtney
kouza
kov
kovai
kovilpatti
kovitz
kowloon
koya
kozhikode
kr
kra
kragi
krai
kraj
kraje
krakatau
krakatoa
kramnik
krasnodar
krasnoyarsk
kratie
kratt
krebs
kreditasi
kreis
kreise
kreisfreie
kremlin
kreusch
kreuznach
kri
krimen
kris
krishna
krishnagiri
krisis
kristia
kristianismu
kristianismung
kristin
kristina
kristine
kristiyanu
kristo
kristu
kristyanu
kritiko
kritiku
kritikung
kro
krobyus
krokis
krong
krung
krus
ku
kuadradu
kuala
kualta
kuanan
kuartu
kuartung
kuayan
kudaradu
kudarat
kudradu
kudta
kuentu
kukua
kukuanan
kukuang
kukulang
kukulate
kukunan
kukuyaran
kukwa
kukwang
kula
kulaman
kulang
kulapung
kulas
kulasi
kulasihan
kulayu
kuldas
kule
kuleng
kuleshov
kuliat
kulintang
kulinyawan
kulitan
kulkul
kulpahar
kultur
kultura
kulturang
kulu
kulul
kulumparit
kulungan
kulurut
kulyawan
kum
kuma
kumabye
kumabyeng
kumalarang
kumamoto
kuman
kumander
kumang
kumar
kumi
kumit
kumpania
kumpaniang
kumpanya
kumpanyang
kumpara
kumparing
kumpe
kumpletu
kumpletung
kumpul
kumulang
kumunista
kun
kunan
kundilat
kundiman
kundisyun
kune
kunehu
kuneksyun
kung
kuni
kunimi
kunming
kunshan
kunst
kunsthistorisches
kunwar
kuomintang
kup
kupala
kupang
kuppam
kura
kurap
kurd
kurdish
kurdistan
kurds
kurgan
kurienti
kurikulum
kuril
kurnool
kuro
kurot
kursk
kursong
kursu
kursung
kurt
kurucz
kurus
kuryenti
kusa
kushinagar
kushiro
kushner
kut
kuta
kutah
kutaisi
kutang
kutch
kuting
kutkutan
kutnan
kutsiliu
kutsiliung
kutsilyu
kutte
kuwait
kuwento
kuwentung
kuyaran
kuyug
kvashnin
kvb
kvemo
kwadradu
kwan
kwartu
kwayan
kweba
kwento
kwentu
kwentung
kwf
kwon
ky
kyang
kyo
kyoto
kyou
kyouryuu
kyrgyz
kyrgyzstan
kyu
kyung
kyushu
kyuujotai
kz
l
la
laak
laalwigan
lab
labak
labakid
laban
labana
labanan
labandera
labang
labangan
labas
labason
labaud
labe
label
labem
labi
labia
labial
labimpitung
labinab
labing
labingaduang
labinganam
labingapat
labingatlung
labinglimang
labingmetung
labingpitung
labingsiam
labingsyam
labingwalung
labis
labney
labnig
labo
labor
laboratories
laboratoriu
laboratory
laboratoryu
labour
labrador
labs
labu
labuad
labuan
labugan
labut
labute
labwad
lacando
lachambre
lack
lacking
lacks
lacryma
lacsamana
lacson
lactase
lacteal
lacuanan
lacuas
lacub
lacy
ladakh
ladderized
ladies
ladino
ladislao
lady
laen
laewn
lafayette
lafi
lag
laga
lagad
laganap
laganas
lagangilang
lagao
lagari
lagaring
lagasan
lagawe
lagayan
lage
lagerstroemia
lagi
laging
lagiu
lagiung
lagman
lago
lagonglong
lagonoy
lagoon
lagos
lagpas
lagpus
lague
laguinbanua
laguindingan
laguiu
laguna
lagundi
lagyu
lagyung
lagyupop
lahar
lahat
lahi
lahing
lahore
lahoud
lai
laid
laiko
lainez
lainsunting
laiwu
laji
lak
laka
lakabalen
lakad
lakan
lakanabalen
lakanablen
lakanbaeln
lakanbalen
lakanbaleng
lakandula
lakaran
lakas
lakay
lakdan
lake
lakes
lakeshore
lakeside
lakewood
laki
laking
lako
lakshadweep
laktong
lakuan
lakuas
lal
lala
lalaban
lalabanan
lalabas
lalabasan
lalage
lalagen
lalageng
lalagpas
lalagpus
lalaiwgan
lalakad
lalake
lalaki
lalaking
lalako
lalalangan
lalalwigan
lalam
lalamlabuad
lalande
lalang
lalangi
lalangut
lalapad
lalapit
lalapitan
lalarawa
lalarawan
lalasawan
lalati
lalawaigan
lalawi
lalawigan
lalawigang
lalawigna
lalbag
lalbug
lalic
lalitpur
lalon
lalong
lalto
laltong
lalu
lalung
lalunglaluna
lalwigan
lam
lama
laman
lamang
lamao
lamarck
lamas
lambac
lambak
lambakin
lambal
lambat
lambatan
lambayong
lambi
lambunao
lames
lamesa
lamiaceae
lamidan
lamin
laminusa
lamitan
lamo
lamp
lampedusa
lampoon
lampung
lamu
lamut
lan
lanao
lanas
lanawan
lancaster
lance
lancers
lancet
lanchkhuti
land
landecker
landes
landfill
landing
landkreise
landline
landlocked
landmark
landmarks
lands
landsat
landscape
landscapes
lane
lang
langa
langan
langerhans
langfang
langi
langiden
langis
langit
langka
lango
langon
langtad
language
languages
langub
langue
languedoc
langutan
languyan
lanham
lani
lanipao
lanipga
lanka
lankan
lanna
lansing
lantapan
lantawan
lantern
lantoy
lanuza
lanzarote
lanzhou
lao
laoac
laoag
laoang
laon
laos
lap
lapa
lapacan
lapad
lape
lapeer
laperian
lapid
lapinig
lapit
lapitan
lapitpit
lapog
lapolapo
laptop
lapu
lapus
lapuyan
lapuz
lara
larang
larangan
larap
larauan
larawan
laray
larena
largabista
large
largentie
larger
largest
larran
larranaga
larrazabal
larry
larsen
laru
larung
larva
larvae
larynx
las
lasa
lasallian
lasam
lasang
lasawan
laser
lasetas
lasip
laslasong
lassen
lasserre
last
lasting
lasun
lat
latan
late
later
lateral
lateran
latest
lati
latiktik
latin
latina
lating
latinized
latino
latitude
latium
latog
latter
latuan
latur
latvia
latvian
latyshev
laua
laud
laude
laue
lauen
laug
laughed
laughter
laum
laun
launch
launched
launching
lauo
laur
laura
laureado
laureadu
laureadung
laureano
laureate
laureates
lauredu
laurel
laurence
laurent
laureta
laureus
lauro
laurus
laus
laut
lauta
lauterbourg
lava
lavandula
lavender
lavezares
laviana
law
lawa
lawaan
lawan
lawe
lawen
lawi
lawigan
lawis
lawiwi
lawlor
lawn
lawo
lawrence
laws
lawu
lawyer
lawyers
laxa
laxamana
laxenaire
lay
laya
layag
layang
layer
layered
layout
layug
layun
laza
lazaro
lazatin
lazi
lazio
lb
lcd
lcs
ldo
ldp
le
lea
lead
leader
leaders
leadership
leading
leads
leaf
leafs
league
leagues
leak
leandro
leap
learn
learning
least
leather
leave
leaves
leaving
lebadura
lebak
lebanan
lebanese
lebanon
lebel
lecce
lecco
lech
lechkhumi
leco
lecture
lectures
lecumberri
led
ledesma
lee
lefebvre
left
leg
legacy
legal
leganes
legarda
legaspi
legazpi
legend
legendary
legends
legge
legion
legislation
legislative
legislators
legislature
legleg
leguan
legume
legumes
legwan
leh
lehislatura
leibniz
leiden
leif
leila
leiognathus
leipzig
leisure
leiyang
lejos
leko
leksikografu
lelang
lelangan
lele
lellis
lemaitre
lemery
lemon
lemongrass
len
lena
leng
lengshuijiang
length
lengthy
lengua
leningrad
lennon
lens
lenten
lenti
leo
leon
leona
leonard
leonardo
leone
leonor
leopold
leopoldina
leparan
leper
lepidoptera
lepitan
leprosa
leptospirosis
leron
leroy
les
lesbian
leslie
lesotho
less
lesser
lessing
lesson
lessons
lestat
leste
let
leticia
letra
letran
letrang
letranista
letratu
letratung
letter
letters
lettres
leu
leukemia
leukocyte
leukopenia
leung
leuven
lev
levant
level
levels
lever
leverage
levin
leviste
levy
lewis
lexington
leyi
leying
leyte
lez
lezo
lf
lg
lgbt
lgn
lgu
lhasa
lhp
lhuyd
li
lia
lian
liang
lianga
liangan
lianxin
lianyuan
lianyungang
lianzhou
liaocheng
liaoning
liargo
lias
lib
libacao
libagon
liban
libanaises
libangan
libas
libato
libay
libayan
libe
liberal
liberalism
liberation
liberator
liberec
liberia
libertad
libertarian
liberte
liberty
libingan
libis
libjo
libmanan
libnan
libo
libod
libon
libona
liboron
libpng
libra
librarianship
libraries
library
libri
libring
libro
libru
librung
libsong
libtong
libu
libudtad
libung
libungan
libut
libutad
libutadalbugan
libutan
libuton
libya
libyan
lica
licab
lice
license
licensed
licensing
liceo
lichauco
lichtenstein
lico
licuan
lidlidda
lidong
lie
liechtenstein
lied
lies
lieutenant
life
lifestyle
lifetime
liga
ligament
ligang
ligao
ligas
ligaya
light
lighthouse
lightning
lights
ligligan
ligpusan
ligtas
ligtong
ligue
liguria
ligurian
ligyuan
lihim
lijim
lik
likas
like
likely
likidu
likidung
likuan
likud
likwan
lila
lilia
lilibut
lilienthal
lilikas
liling
lilipat
lilisya
liliw
liloan
lilod
liloy
lily
lim
lima
limahong
limamawan
limampulu
limampulung
liman
limang
limasawa
limay
limb
limba
limbag
limbagan
limbo
limbug
limbuhan
limbun
limes
limestone
limit
limitadu
limited
limjuco
limlingan
limon
limousin
lin
lina
linaban
linabas
linabo
linabuan
linage
linakad
linalang
linamon
linao
linapacan
linapit
linarawan
linares
linasa
linawan
linawe
lincoln
lincolnshire
lind
linda
linden
lindero
lindo
lindongan
line
lineage
linear
linedata
linegrey
liner
lines
ling
lingad
lingala
lingap
lingayen
lingguistika
lingguistiku
lingguistikung
lingig
linglingay
lingsat
lingua
linguist
linguistic
linguistics
linh
linia
liniang
linikas
linimbag
linipat
linisan
linista
link
linked
links
linn
linnaean
linnaeus
linne
linnean
lino
linosa
linta
linto
lintong
linual
linub
linugos
linuk
linukluk
linus
linuslus
linux
linwal
linxia
linya
linyi
linzhou
lion
lionel
liong
liongson
lions
lip
lipa
lipaktung
lipase
lipat
lipata
lipay
lipetsk
lipi
lipid
lipids
lipit
lipot
lipunan
liquid
lira
liriku
lirikung
liryo
lis
lisa
lisbon
lisensia
lisensya
lishui
lisian
lisieux
lising
lissamphibia
list
lista
listaan
listahan
listed
listen
listening
listing
listings
lists
lisuban
lisyan
lit
lita
litani
lite
litera
literacy
literal
literally
literary
literatu
literatura
literaturang
literature
lithics
lithuania
lithuanian
litid
litisan
lito
litratu
litru
little
liturgy
liu
liupanshui
live
lived
livelihood
liver
livermore
liverpool
lives
livestock
living
livorno
livre
liwa
liwan
liwanag
liwang
liwas
liwayway
lix
liyang
liza
lizardo
ljubljana
ll
llamas
llanera
llano
llanos
llar
llc
lleida
ller
llerena
lli
llo
llobregat
lloredo
llorenc
llorente
lloret
lloyd
llucmajor
llwyd
lm
lmp
ln
lo
load
loanwords
loay
lobaton
lobe
lobed
lobo
loboc
lobos
lobu
lobung
loca
local
localisation
localization
locally
locals
located
locating
location
locations
lock
loco
locomotive
locsin
locso
locus
lodi
lofon
log
logic
logistics
logo
logu
loi
loir
loire
loiret
lois
lok
lokal
lokasyun
lola
loli
lollipops
lolo
loma
lombardy
lomboy
lombut
lompnieu
lon
lonchura
london
londres
lonely
lonesome
long
longer
longest
longganiza
longhai
longitude
longman
longos
longtime
longyan
lonoy
lons
loob
looc
look
lookan
looked
looking
looks
loon
looney
loop
lop
lope
lopez
lophotrochozoa
loqueb
lor
lora
lord
lordi
lords
lore
loren
lorenz
lorenzo
lores
loreto
lorna
lorraine
los
losa
loss
lossless
lossy
lost
lot
loting
lots
lottery
lotus
lou
loud
loudi
louie
louis
louise
louisiana
lourdes
lourenc
louvre
love
loved
lovelier
lovell
lovely
lover
lovers
loves
loving
low
lowe
lower
lowland
loyola
loze
lozoya
lpg
lrt
ls
lt
ltd
lte
lto
lu
lua
lual
lualas
lualhati
luan
luat
lub
luba
luban
lubang
lubao
lubas
lubelski
lubenas
lubid
lubigan
lublin
lubna
lubo
lubong
lubuagan
lubus
lubusan
lubusang
luc
luca
lucas
lucasfilm
lucban
lucca
lucena
luces
lucia
luciano
lucing
lucio
lucius
lucknow
lucky
lucob
lud
ludhiana
ludwig
lufeng
lug
lugait
lugal
lugar
lugo
lugud
lugus
luhung
luid
luigi
luis
luisa
luisiana
luka
lukay
luke
lukib
luklak
lukluk
luklukan
luksemburgu
lulanan
lullaby
lulto
lulu
lulual
lulub
luluban
lulukan
lululut
lulut
lulwal
lulwat
luma
lumaban
lumad
lumang
lumangbayan
lumapit
lumba
lumbac
lumbaca
lumbacaingud
lumban
lumbang
lumbangan
lumbar
lumbat
lumbatan
lumbayanague
lumbayao
lumbia
lumbog
lumbug
lumen
lumpur
lumual
lumuat
lumut
lumwal
lumwat
lun
luna
lunang
lunar
lunas
lundag
luneta
lung
lungib
lungs
lungsod
lungsodaan
lungsud
lungub
lunsud
lunto
luntong
lunus
luo
luohe
luoyang
lupa
lupain
lupang
lupao
lupi
lupin
lupisak
lupo
lupon
lupung
lupus
luquan
lushan
lushun
lusong
lustre
lusuban
lusuk
lusung
luta
lutao
lutayan
luther
lutheran
lutu
lutucan
lutung
luuk
luxembourg
luya
luyang
luyo
luz
luzaga
luzo
luzon
luzong
luzurriaga
ly
lyce
lyceum
lydia
lymph
lymphatic
lymphocyte
lynch
lynn
lynne
lyon
lyonnais
lyricist
lyrics
lysosome
lzw
m
ma
maalaala
maamlat
maarten
maas
maasim
maasin
mababa
mababaldug
mababaligo
mababalu
mababang
mababangal
mababanggit
mababawas
mababo
mababong
mabagal
mabagut
mabalacat
mabalas
mabaldug
mabalu
mabandi
mabanglu
mabanglung
mabasa
mabasang
mabato
mabatu
mabatung
mabawas
mabayat
mabi
mabibie
mabibieng
mabibilang
mabibye
mabibyeng
mabie
mabieng
mabilang
mabilis
mabilo
mabilug
mabinay
mabini
mabisa
mabitac
mabolo
mabugtu
mabuhay
mabuktut
mabulas
mabuluk
mabunao
mabunduk
mabunga
maburi
mabwak
mabyasa
mabye
mabyeng
mac
maca
macabebe
macabie
macabulos
macadar
macalag
macalelon
macalibre
macalino
macalong
macalva
macamulat
macan
macanyan
macao
macapagal
macapanpan
macapinlac
macaraeg
macaraig
macario
macarthur
macasing
macatiman
macatua
macau
macayanac
maccrohon
macedonia
macerata
machado
machilipatnam
machine
machinery
machines
macintosh
mack
mackay
mackey
mackinnon
macmillan
maco
maconacon
macopa
macquarie
macrohon
macromolecule
macrophage
mactan
macudta
mad
mada
madagascar
madalag
madali
madalum
madalumdum
madamba
madame
madaming
madanapalle
madanding
madanum
madaya
maddela
made
madeira
madera
madgaon
madhya
madi
madinah
madison
madness
madonna
madras
madre
madreng
madrid
madridejos
madrigal
madron
madurai
madutung
mae
maed
maestra
maestrat
maestre
maestro
maestu
mag
maga
magadan
magadha
magagambul
magagamit
magagamita
magagawa
magahis
magalang
magaling
magallanes
magallon
magalona
magamit
magamitan
maganda
magandang
maganoy
magaral
magarao
magasin
magaspang
magat
magatas
magawa
magawang
magazine
magba
magbaba
magbabo
magbalik
magbante
magbawas
magbisita
magbotu
magbunga
magcalas
magdagdag
magdala
magdalang
magdalena
magdatun
magdeburg
magdependi
magdesisyun
magdili
magdilidiling
magdisenyu
magdiwang
magdusa
magellan
maghreb
magi
magic
magical
magician
magigisan
magin
maging
magiranger
magisan
magkalub
magkanta
magkantang
magkasa
magkasakit
magkulang
magkulta
maglabit
maglakad
maglakbe
maglako
maglakong
maglakuan
maglakwan
maglalang
maglaman
maglambat
maglaoi
maglarawan
maglaso
maglasong
maglatag
maglimbag
maglua
maglualu
magluat
maglupang
magluyun
maglwat
magma
magmana
magmasid
magmayabang
magmula
magmunikala
magna
magnetic
magneticu
magnetized
magnolia
magnoliales
magnum
magnus
magobra
magobrang
magpa
magpaintulut
magpalakad
magpalto
magpalual
magpalwal
magparagul
magparakal
magparla
magparlang
magpasia
magpasikan
magpasu
magpatas
magpatubung
magpaulu
magpayaus
magpet
magprotesta
magregla
magsadia
magsadya
magsakripisyu
magsalita
magsalitang
magsama
magsane
magsarili
magsariling
magsaya
magsaysay
magsilbi
magsilbing
magsimpan
magsingal
magtagumpe
magtanggol
magtinda
magtubung
magtuloy
magugpo
maguindanao
maguindanaon
maguing
magulu
magulung
magumasid
magumpisa
magumpisang
magwakas
maha
mahaba
mahabaleshwar
mahabang
mahabharata
mahad
mahadevpur
mahal
mahama
mahanay
mahaplag
maharaj
maharaja
maharashtra
maharishi
maharlika
mahatao
mahatma
mahayag
mahayahay
mahbubnagar
mahe
mahilig
mahinda
mahinog
mahistradu
mahmoud
mahoba
mahotsav
mahou
mai
maibug
maigang
maiggit
maigit
maigo
maigpit
maiguit
mail
mailing
maimbung
maimpis
maimpluwensiyang
main
maina
mainang
maine
maingat
mainit
mainland
mainly
mainpluwensiyang
mainstream
maintained
maintenance
maintun
mainz
maior
mairie
mais
maison
maissemy
maitum
maiz
maize
majapahit
majayjay
majesty
majistrado
majlis
major
majorana
majorca
majority
majors
maka
makaaliwa
makaapektu
makaatsat
makaba
makababo
makababong
makabage
makabakud
makabalangkas
makabaldugan
makabaldugang
makabalen
makabalibul
makabaluktut
makabalut
makabang
makabante
makabara
makabasi
makabawas
makabayu
makabayung
makabebe
makabilad
makabili
makabuklat
makabukud
makabusni
makabye
makadake
makadanas
makagawa
makagawang
makagising
makagiu
makagrupu
makagupit
makagyung
makaing
makakalat
makakambil
makakampi
makakandadung
makakawani
makakawaning
makakimut
makakit
makakorba
makakulung
makakurus
makakuta
makakutkut
makakwani
makaladlad
makalalam
makalangan
makalapit
makalarawan
makalaso
makalasun
makalaut
makalawe
makalele
makaleleng
makalibutad
makalimbag
makalista
makalto
makaltong
makalual
makalub
makalugal
makalukluk
makalulan
makalunus
makalupung
makalwal
makamate
makanano
makananu
makananung
makanian
makanyan
makanyanman
makapadurut
makapag
makapagaral
makapagmulala
makapagmulalang
makapagobra
makapagparakal
makapagsalita
makapainawa
makapakit
makapal
makapalibut
makapaligid
makapalual
makapalub
makapamili
makapanaun
makaparikil
makapasipit
makapatomba
makapatungkul
makapekat
makapetsa
makapun
makaragdag
makaramdam
makarehistru
makarikil
makarok
makasabit
makasadya
makasakdal
makasake
makasakup
makasalanan
makasalesalayan
makasalesayan
makasalesayang
makasalikut
makasamasan
makasane
makasapin
makasara
makasarang
makasarili
makasariling
makasaup
makasentru
makasepu
makasiksik
makasimpan
makasinup
makasiping
makasipit
makasira
makasirang
makasuglung
makasukul
makasulapo
makasulat
makasulud
makata
makatadua
makataduang
makatadwa
makatagan
makatagkil
makatagulaling
makataid
makatakap
makatakut
makatala
makatalakad
makatalan
makatalima
makatanam
makatanggap
makatapat
makatas
makatatak
makatatlu
makatayid
makati
makatikdo
makatipun
makato
makatua
makatud
makatuglung
makatuki
makatuking
makatuklu
makatuknang
makatulang
makatuldu
makatulid
makatumpak
makatungge
makaturu
makatutuk
makaugne
makaugneng
makaulung
makayabe
makayagpang
makayagum
makayakit
makayaliwa
makayaliwang
makayapektu
makayarap
makayatsat
makdake
make
makedonia
makelatan
maker
makers
makes
maki
makiabe
makiagum
makibalu
makibandi
makibat
makibirung
makigawa
makikatni
makikatning
makikilala
makikilalang
makilaban
makilala
makiling
makilingchallenge
makimayigit
makina
makinabang
makinang
making
makinis
makintab
makipag
makipamuk
makipate
makiramdam
makisabi
makisabing
makisandata
makisanmetung
makislap
makitid
makiugnayan
makkah
mako
makopa
makudta
makudtang
makuhari
makukua
makukulayan
makukwa
makule
makuleng
makuyad
makwa
makwaltang
makyabe
mal
mala
malaamlat
malabab
malabag
malabago
malabang
malabar
malabo
malabon
malabundukin
malabung
malabuyoc
malacan
malacas
malaga
malagad
malagasy
malagu
malagua
malaguang
malaguintu
malagung
malagwa
malagwang
malaise
malakal
malakanyang
malakas
malaki
malaking
malalag
malalakuan
malalam
malalaso
malale
malam
malaman
malamarine
malambat
malambing
malambut
malamig
malamote
malan
malang
malangas
malangi
malanging
malapad
malaparan
malapatan
malapit
malapulu
malare
malaria
malasia
malasin
malasing
malasiqui
malaso
malat
malate
malati
malatiktik
malating
malaus
malaut
malawak
malawi
malay
malaya
malayalam
malayan
malaybalay
malayo
malayopolinesiu
malaysia
malaysian
malba
malbago
malbog
malcampo
malcolm
malda
maldang
maldives
maldonado
male
maleparan
malesia
mali
malia
maliap
maliari
maliaring
malibago
maliban
malibcong
malibong
malibu
malidong
malig
maligamgam
maligaya
maligayang
malignant
malik
maliksi
maliliari
malilipot
malilyari
malilyaring
malimono
malimpec
malin
malinamnam
malinao
maling
malingao
malingin
malingon
malinis
malino
malinong
malis
malisangan
malisbong
malit
malita
malitbog
maliwa
maliwalas
maliwanag
mall
mallapur
mallari
malle
mallen
mallet
mallig
mallorca
malls
mallus
malo
malobago
malolos
malou
malpartida
malta
maltase
maltese
malu
maluat
malugud
maluid
maluka
maluku
malulut
malume
malunggay
malungon
malungun
maluso
malutu
malutung
malvaceae
malvar
malvinas
malvino
malwa
malwat
malyap
malyari
malyaring
mama
mamacalulu
mamag
mamagkanu
mamagse
mamagus
mamahala
mamakbung
mamako
mamala
mamalakad
mamali
mamalimaling
mamalipi
mamalis
mamaliwa
mamamate
mamangan
mamantini
mamantinian
mamapektu
mamarap
mamaril
mamasa
mamasapano
mamasdan
mamaswe
mamaus
mamayad
mamayun
mambajao
mambog
mamburao
mambusao
mame
mamera
mamerto
mamialung
mamie
mamilatan
mamili
mamiligru
mamiling
mamingwa
mamintu
mamisali
mamisaling
mammal
mammalia
mammalian
mammals
mammary
mamnoon
mamuhunan
mamulaklak
mamulang
mamulayi
mamulut
mamun
mamunga
mamungang
mamuntukan
mamupul
mamuska
mamutput
mamutut
mamyalung
mamye
mamyeng
man
mana
manabanabang
manabo
manabu
manabusu
manacor
managal
managed
management
manager
managers
managing
managkat
manahan
manakit
manalakad
manalakaran
manalang
manalas
manalbe
manalig
manalili
manaliling
manalis
manaliwa
manaliwang
manalkus
manalo
manaloto
manama
manambag
manambong
manamun
mananabung
mananaman
mananao
manangis
manansala
manaoag
manaol
manapla
manarang
manasan
manasic
manasik
manatili
manatiling
manaul
manawa
manay
manaya
manayang
mancha
manche
mancherial
manchester
manchu
manchuria
mandakap
mandal
mandals
mandaluyong
mandan
mandaon
mandarin
mandate
mandatila
mandaue
mandela
mandi
mandible
mandir
mandsaur
manenaya
maneneng
manenerak
manfred
mang
manga
mangababang
mangabaldugan
mangabaldugang
mangabayat
mangabilug
mangadi
mangagaspang
mangailangan
mangakaba
mangakabang
mangakapal
mangakuyad
mangalagad
mangalagiri
mangalakal
mangalalam
mangalambut
mangalap
mangalapad
mangalapit
mangalati
mangalatiktik
mangalating
mangaldan
mangalindan
mangalore
mangalutung
mangamanu
mangamanung
mangamate
mangampanya
mangan
manganak
mangandingay
manganese
mangapali
mangapaling
mangapinung
mangaplas
mangaputing
mangaragul
mangaragula
mangarayung
mangarimlang
mangasakit
mangasanting
mangasias
mangasikan
mangasiwa
mangasu
mangasung
mangasya
mangasyas
mangatapang
mangatarem
mangatas
mangatua
mangatuang
mangatuling
mangaulagang
mangawa
mangawang
mangayao
mangaylangan
mangaylangang
mangebun
mangga
manggahan
manggalang
manggang
manggas
mangi
mangibili
mangifera
mangilala
mangisnawa
mangisnawang
mangituglung
mango
mangostana
mangosteen
mangu
mangudadatu
mangulkul
mangutang
mangyan
manhattan
mani
mania
maniabing
maniabt
maniad
maniago
maniagu
maniakup
maniaman
maniampagang
maniangkang
maniawad
manibala
manibalang
manibat
manibatan
manifestation
manifesto
manigaral
manigobra
manikua
manikuang
manikwa
manikwang
manila
manilatimes
manimbentu
manimuna
manimunang
manimunu
manimunung
maningas
maningat
maningning
manintun
manipun
manipur
manipuri
manito
manitoba
maniu
maniwala
maniwalang
manjuyod
mankayan
mankind
manlapaz
mann
mannheim
manning
manny
mano
manobo
manohar
manoharlal
manolo
manopera
manpei
manresa
manrique
mans
mansalay
mansanas
mansasa
mansfield
mansi
mansion
manta
mantalongon
manthani
manticao
mantinian
mantova
manu
manual
manubul
manuel
manufacturer
manufacturers
manufacturing
manuguru
manuk
manukan
manuknangan
manula
manulu
manungay
manungge
manungkulan
manuscript
manuscripts
manuskritu
many
manyad
manyakup
manyalikut
manyaman
manyampaga
manyampagang
manyanga
manyawad
manych
manyi
manyira
manyu
manyupil
manz
manzanares
manzanas
manzano
mao
maoming
map
mapa
mapait
mapakli
mapalad
mapali
mapaliaring
mapaling
mapalyari
mapalyaring
mapamakalulu
mapanas
mapandan
mapang
mapanganib
mapantao
mapanula
mapanyakup
mapapangan
mapatlud
mapda
mapeh
mapia
mapiang
mapilan
mapilang
mapino
mapinu
mapinung
mapipitna
maplandia
maplas
maple
mapping
mapquest
maps
mapu
mapua
mapun
mapupus
mapusa
maputi
maputing
maputla
maputlang
maputut
mapyang
maqui
maquinang
maquiramdam
mar
mara
marabut
marada
maragondon
maragul
maragula
maragusan
marakal
marakalan
maralas
maralumdum
maramag
maramdam
marami
maraming
maran
maranao
maranat
maranatha
marang
marangal
marangle
marangleng
marantao
maranum
maranun
maranup
marapat
mararapat
maras
maratha
marathas
marathi
marathon
marathwada
maratun
maravilla
marawi
marayag
marayu
marayung
marayuput
marbel
marble
marburg
marc
marca
marcel
marcela
marcelino
marcella
marcelo
march
marcha
marche
marching
marciano
marcilla
marco
marconi
marcos
marcus
mardika
mare
maresme
maret
marga
margaay
margao
margaret
margaretta
margarita
margie
margin
marginal
margins
margosatubig
marguerite
mari
maria
mariah
marian
mariana
marianas
mariang
mariano
maribojoc
maricel
maricopa
marie
mariel
marigondon
marihatag
marijuana
marikina
marikit
marilag
marilao
marilou
marilyn
marimla
marimlang
marin
marina
marinat
marinduque
marine
mariners
marines
marino
mario
mariology
marion
marionette
maripipi
mariposa
marissa
marist
marites
maritime
maritimes
mariveles
marjayoun
marjeyoun
marjoram
marjorie
mark
marka
markang
marked
marker
market
marketing
marketplace
markets
markina
marks
markt
marlas
marlene
marlon
marmara
marmol
marmoutier
marne
marogong
marok
maronite
maronites
marque
marquesado
marquez
marquis
marriage
married
mars
marseille
marsh
marshal
marshall
marshals
marso
marsu
marta
martes
martha
marti
martial
martian
martigues
martiliu
martiliung
martin
martina
martinez
martinique
martinis
martins
martir
martires
martorell
marty
martyr
martyrs
maru
marungay
marunggas
marutung
marv
marvel
marvin
mary
maryknoll
maryland
maryo
marysville
marzo
marzu
mas
masa
masabal
masabing
masagana
masaganang
masaguli
masakit
masakup
masala
masalang
masalese
masaleseng
masalilung
masaling
masalingku
masalusung
masampat
masang
masanting
masantol
masao
masaplalang
masasabi
masasabing
masasaklo
masasalamin
masasali
masaya
masayang
masbate
mascardo
masdan
maselan
masi
masiadu
masiadung
masias
masicanan
masigasig
masigla
masikan
masikanan
masikap
masikip
masiksik
masilbi
masinloc
masinup
masipag
masipit
masipsip
masira
masisipsip
masisira
masiu
masjid
mask
maski
maskilon
maskup
masla
maslag
maslam
maslog
mason
maspak
mass
massa
massachusetts
massacre
massif
massimo
massive
mast
master
mastering
masterpiece
masterpieces
masters
mastitis
mastura
masu
masubing
masuerti
masukal
masuksuk
masulung
masusing
masusukad
masusuyu
masyadu
masyadung
masyas
mat
mata
mataas
matab
mataba
matabang
matag
matagumpe
matagumpeng
matajimic
matalab
matalam
matalas
matalik
matalimunduk
matalo
matalom
matampay
matanao
matanda
matandang
matanggal
matanog
matapang
matapat
mataram
matas
matatag
matatagpuan
matatanggap
mataung
match
matches
mate
matematica
matematika
matematiku
maten
matenacang
matenakan
mateo
mater
matera
material
materialis
materials
materiel
materyal
math
mathematica
mathematical
mathematician
mathematicians
mathematics
mathematicu
mathura
mati
matias
matibe
matibeng
matigik
matilus
matimbang
matin
matindi
matinding
mating
matinik
matisse
matitipun
matn
matni
matning
matnog
maton
matras
matris
matrix
mats
matsue
matsura
matsuyama
matter
matters
matthew
matua
matuang
matudtud
matuguinao
matula
matulid
matuling
matuliranan
matulungin
matungao
matunud
maturan
matwa
matwang
mau
mauban
maugat
maui
maul
maulaga
maulagang
mauli
mauling
maulingalabugan
maulingalbugan
maulingalbugang
maulingaslagan
maulingaslagang
maulingaslgan
maulu
maunlad
mauran
maureen
maureillas
maurice
mauricio
mauritania
mauritius
mauro
maus
mausang
mausoleum
mausta
maustang
mauswagon
mavericks
mawab
mawala
mawawala
mawawalang
mawawi
mawli
mawling
max
maxi
maxima
maximo
maximum
may
maya
mayabang
mayakayan
mayakit
mayaktangan
mayalaga
mayalagang
mayalamat
mayaman
mayamot
mayan
mayana
mayantoc
mayao
mayap
mayari
mayaus
mayaya
mayayagkas
mayayakit
mayayakua
mayayapis
mayayari
mayayaus
maybato
maybunga
maydolong
mayen
mayenne
maygit
mayigit
maynila
mayo
mayon
mayor
mayores
mayorga
mayori
mayoria
mayors
mayorya
mayotte
mayoyao
mayr
mays
mayu
mayubung
mayumu
mayumung
mayupayang
mayurbhanj
mayyaus
maze
mazes
mazinger
mazinkaiser
mazzarello
mb
mba
mbc
mbit
mbox
mc
mca
mcafee
mccarter
mccartney
mccarver
mcdonald
mcduffie
mcenroe
mcgill
mcgraw
mcguire
mckay
mckinley
mcleodganj
mcm
mcmeekin
md
mdc
me
mea
meakua
mealkus
mean
meanchey
meangu
meanguabie
meangubie
meaning
meanings
means
meant
meanwhile
meas
measured
measurement
measures
measuring
meat
meaus
mebalu
mebalung
mebangal
mebanggit
mebaril
mebating
mebatubalani
mebawas
mebie
mebigu
mebilang
mebiniag
mebinyag
mebisa
mebite
mebuktut
mebulus
mebuo
mebuu
mebye
mecad
mecca
mechander
mechanical
mechanics
mechanism
mechanisms
mecklenburg
meco
med
medak
medal
medalia
medaliang
medalists
medalla
medalya
medalyang
medellin
media
medial
median
mediang
medianoche
mediartrix
mediawiki
medical
medicina
medicinal
medicine
medicines
medieval
medikal
medina
medio
medisina
meditation
meditations
mediterranean
mediterraneo
mediu
medium
medius
medizinal
medline
medlineplus
medukit
medulla
medyu
meenachil
meerut
meet
meeting
meetings
meets
meg
mega
megachiroptera
megafauna
megalithic
megaloman
megambul
megamit
meganap
megaral
megawa
megawang
megdesign
meghalaya
megi
meging
megisan
meglalang
megobra
megretiru
meguing
megumpisa
megumpisang
mehmed
mehta
meier
meiji
meimbentu
meiosis
meiospore
meizhou
meka
mekaba
mekad
mekagawa
mekaisip
mekaligtas
mekalis
mekalub
mekamate
mekapaglalang
mekapate
mekapisali
mekapun
mekasali
mekasaup
mekasulat
mekata
mekatadwa
mekatalima
mekatanggap
mekatapat
mekatapilan
mekatatlu
mekatuklas
mekayari
mekeni
meki
mekiabe
mekiasawa
mekibat
mekikwan
mekilaban
mekilala
mekilalang
mekintal
mekipagkasundu
meko
mekong
mekua
mekulkul
mekulung
mekumpirma
mekwa
mel
mela
melabung
melakuan
melalang
melambat
melanesia
melanesian
melanie
melasak
melaso
melasong
melaus
melbourne
melchiorre
melekh
melgar
melilla
melimbag
melinda
melissa
mellitus
mellon
melo
melodies
melody
melon
melongena
melos
melvin
melyari
memakbung
memalen
memaltuk
memaryu
member
members
membership
membrane
membranes
meme
memialung
memie
memintura
memiye
memoir
memoirists
memoirs
memorable
memorandum
memoria
memorial
memorials
memoriam
memories
memory
memuklat
memulayi
memun
memunga
memuntukan
memusni
memyalung
memye
men
mena
menabu
menakit
menakitan
menalakad
menalbe
menalili
menaliwa
menalkus
menambag
menangis
menasa
menatili
menatiling
mendel
mendenhall
mendes
mendez
mendiola
mendocino
mendoza
meneses
meng
mengailangan
mengaku
mengalabas
mengalabasan
mengalasak
mengalugi
mengamate
mengampanya
mengan
mengapalyari
mengapaunang
mengapaurung
mengapilitan
mengari
mengasira
mengasugat
mengatagan
mengaturan
mengawala
mengi
mengising
mengulkul
meni
meniambut
menibala
menibat
menibatan
menigaral
menigobra
menikua
menikuang
menikwa
menikwang
menila
menilang
menimbentu
menimuna
menimunang
menimunu
menlo
menorca
mensahi
mensahing
menstrual
ment
mental
mentha
mention
mentioned
mentor
menuknangan
menuling
menungkulan
menyad
menyambut
meordina
meow
mepansin
mepilatan
mepili
mepiling
mepilit
mepilitan
mepirma
mepitna
meplanu
meps
mepuksa
mepupus
meputungan
meputut
mer
meragul
merakal
merakap
meramdam
merapat
mercado
mercadu
merced
mercedes
merchant
mercury
mere
merehistru
merged
merger
merida
meridian
merimla
merindades
merit
meritak
merkadu
merrellii
merriam
merrillii
merritt
merry
merville
mes
mesa
mesabat
mesabi
mesabing
mesagip
mesakit
mesakup
mesali
mesambitla
mesambitlang
mesambut
mesanting
mesenteric
mesias
mesikan
mesilab
mesintang
mesipsip
mesira
meso
mesoamerica
mesoderm
mesoplodon
message
messages
messe
messenger
messi
messina
mestisung
mestizo
mestra
mestru
mesugat
mesukul
mesulat
mesuri
mesuring
met
meta
metabolic
metaboliku
metabolism
metabolismu
metabolize
metadata
metal
metals
metalworking
metamorphosis
metanggap
metaphor
metaphors
metastasis
metatag
mete
metel
meteng
meteor
meteorology
meter
meters
method
methodist
methods
methylation
metng
meto
metohia
metoprolol
metres
metro
metrobank
metropolis
metropolita
metropolitan
metros
metru
mets
metsamor
metta
metua
metuklas
metun
metung
metunggue
metz
meurthe
meuse
meutng
mewala
mewalang
mexican
mexicanu
mexicanung
mexico
meximieux
meyagtal
meyakit
meyakua
meyakwa
meyalal
meyalili
meyalkus
meyambut
meyandam
meyari
meyaring
meyatulan
meyaus
meycauayan
meyer
meyiku
meyna
meyung
mez
mezieres
mezzo
mfa
mg
mga
mgalating
mgm
mhnt
mhped
mi
mia
miabe
miag
miagao
miagnan
miagum
mialal
mialilan
mialis
mialiwa
mialiwang
miami
miao
miayalal
miayaliwa
miayaliwang
mibaba
mibababa
mibabage
mibabageng
mibabait
mibabalik
mibabawasan
mibabo
mibage
mibagsak
mibait
mibalangkas
mibaligtad
mibalik
mibalita
mibalitang
mibangun
mibansagan
mibantug
mibasi
mibata
mibawal
mibawi
mibayaran
mibayit
mibayu
mibayung
mibibili
mibie
mibili
mibilugan
mibubugnus
mibubulalag
mibubusni
mibuklat
mibulaglag
mibulalag
mibusni
mibuu
mibye
mica
micalaman
michael
michaels
michel
michelangelo
michelle
michi
michigan
michoacan
mickelson
mickey
micro
microbat
microbiology
microchiroptera
microfossil
microlepis
micrometer
micronesia
microphage
microphone
micropolitan
microscope
microscopic
microscopy
microsoft
microstates
microvilli
mid
midadala
midadayu
midagdag
midake
midala
midayu
middle
middleton
mideast
midi
midinan
midisenyu
midistinu
midnight
midsalip
midsayap
midtimbang
midtown
midwest
midwestern
midwifery
mie
miembru
miembrung
mifflin
mig
migalsa
migbalik
migbayu
migbili
migbotu
migbotung
migbunga
migdala
migdatun
migdeclara
migdeklara
migdimitir
migdisenyu
might
mightier
mighty
migising
migit
miglakbe
miglakwan
miglalang
miglambat
miglayag
miglual
migluat
miglwat
migmula
migmunikala
migpaindalan
migpakamate
migpakilala
migpalista
migpalual
migpirma
migraduate
migraine
migration
migretiru
migsalita
migsane
migsarili
migserbisyu
migsilbi
migsilbing
migtagumpe
migtagumpeng
miguel
miguit
migumpisa
migumpisang
migwakas
miha
mijares
mika
mikabit
mikaka
mikakalat
mikakamaganak
mikakapatad
mikakaprublema
mikakasundu
mikakawani
mikakawaning
mikalabkab
mikalat
mikamaganak
mikana
mikandayu
mikanlapit
mikapamansag
mikapatad
mikarakal
mikaranggung
mikasakit
mikasal
mikasala
mikasundu
mikasupling
mikatagun
mikawa
mikawani
mikayabe
mikayntindi
mike
mikhail
mikhaylovich
miki
mikiabe
mikibandi
mikit
mikita
mikrobius
mikrobyu
miku
mikutkut
mikyabe
mil
mila
milaban
milabas
milabasan
milablab
miladlad
milagro
milagros
milagrosa
milagyuan
milako
milalaban
milalako
milalang
milalapit
milalu
milan
milang
milano
milaor
milarawan
milaya
milayi
mile
milele
miles
milia
miliari
milibing
miligtas
milikas
milimbag
milimetru
milipat
milisya
militanting
militar
military
militia
miliun
miliung
milk
milkfish
milky
mill
milla
millard
millennium
miller
millfy
millie
millimetru
million
millionaire
millions
mills
milpitas
milton
milual
milub
miluban
milukluk
milulupa
milulupang
milulupung
milupung
milwaukee
milya
milyari
milyaring
milyun
milyung
mim
mimar
mimaropa
mime
mimi
mimin
mimina
miminum
mimiral
mimisip
mimosa
mimosoideae
mimua
mimunikala
min
mina
minako
minalabac
minalili
minalin
minalis
minaliwa
minalkus
minambag
minami
minamimatsuura
minamitorishima
minanawa
minang
minanga
minarets
minas
minasensu
minaus
minawa
mind
minda
mindanao
mindano
mindatila
mindoro
mindoru
minds
mine
minecraft
mineral
minerva
mines
ming
mingatbang
minglanilla
minh
mini
miniaklung
miniature
minidv
minie
minimal
mining
miniseries
minisip
minister
ministerio
ministers
ministries
ministro
ministru
ministrung
ministry
minke
minkowski
minneapolis
minnesota
minnillo
minor
minorca
minority
minorya
minoryang
minsan
minsk
mint
minta
mintis
mints
minukiat
minuli
minum
minuna
minunang
minurung
minute
minutemen
minutes
minutu
minutus
minyabut
minyad
minyambut
minye
mipaala
mipabustan
mipagdibati
mipagiu
mipagkalub
mipaglibe
mipagyu
mipaintulutan
mipakilala
mipaku
mipala
mipalad
mipalage
mipalagiu
mipalaguan
mipalagyu
mipalagyuan
mipalgyu
mipaltutu
mipalwal
mipamana
mipamansag
mipamansagan
mipamintuan
mipante
mipaparis
mipapasar
miparangalan
miparusan
mipasa
mipasar
mipase
mipasiag
mipatunayan
mipatupad
mipda
mipisali
mipmu
mipnu
mipulung
mipunta
miputungan
miquelon
mir
mira
mirabueno
miracle
miracles
mirador
miragdag
miragdagan
mirage
miragsa
mirai
miramar
miranda
miraragdagan
miraras
miras
mirasan
miratang
miriam
mirinan
mirror
mirzapur
misa
misabi
misalbag
misali
misaling
misamasan
misamis
misamut
misan
misane
misangkanan
misanib
misanmetung
misaplala
misapwak
misara
misasabi
misasagana
misasalbag
misasalubung
misasalungat
misasamut
misasanib
misasanmetung
misaup
miscellaneous
mise
misesepu
mishima
mishra
misimpan
misinup
misionariu
misionariung
misionerung
misisiping
misiun
misl
mismong
mismu
mismung
misna
misnang
mispak
miss
missile
missing
mission
missionaries
missionary
missions
mississippi
missoula
missouri
mist
mister
misteryu
mistralian
mistula
misubli
misuglung
misulat
misulung
misundu
misuse
misusulat
misusumangid
misusundu
misyon
misyun
mit
mita
mitabi
mitagan
mitaglus
mitagurian
mitakpan
mitala
mitalaga
mitalakad
mitanam
mitas
mitata
mitatag
mitatagan
mitatagkil
mitatak
mitatakpan
mitatanam
mitatas
mitch
mitchell
mitda
mite
mites
mitikdo
mitikdong
mitimawa
mitipun
mititikdo
mititipun
mitmu
mitmung
mitochondria
mitochondrial
mitolohiya
mitosis
mitral
mitsukuni
mituglung
mituki
mitukian
mituklip
mituknang
mituldu
mitulduan
mituldung
mituran
mituring
mituru
miturung
mitutuglung
mitutukan
mitutuking
mitutulak
mitutuldu
mitutulid
mitutumpak
mituturing
mituturu
miugne
miulat
miwale
miwawangis
mix
mixed
miyabe
miyagapeng
miyagi
miyagnan
miyalal
miyalilan
miyalis
miyaliwang
miyampang
miyanib
miyapag
miyapsa
miyapse
miyapseng
miyarap
miyari
miyaring
miyasawa
miyatulan
miyayabe
miyayalal
miyayalilan
miyayalis
miyayaliwa
miyayaliwang
miyayaluang
miyayalwang
miyayampang
miyayapektwan
miyazaki
miyembru
miyumpisan
miyuyugne
mizoram
mizrahi
mizuho
mizuki
mjpeg
mkhare
ml
mla
mladen
mlb
mlis
mlqu
mm
mmda
mmhg
mmol
mn
mnemonic
mng
mnla
mo
moalboal
mobile
mobilsunting
mobo
mobula
mochizuki
mock
mode
model
modelling
modelo
models
modelu
modelung
modem
modems
modena
moder
moderate
modern
modernist
modernu
modernung
modesto
modoc
module
moero
moffett
moga
mogpog
mohali
mohamed
mohammad
mohammed
mohawk
mohon
mohtarma
moines
moises
mojave
mojon
mol
mola
molar
molars
molave
mold
moldavia
moldavian
moldova
moldovans
moldovasee
mole
molecular
molecule
molecules
moli
molina
molinos
molins
molise
mollusca
molobolo
molopolo
molsheim
molto
moluccas
mom
moment
momentong
moments
momentum
mon
monaco
monaku
monarch
monarchies
monarchs
monarchy
monasterio
monasteriu
monasteriung
monastery
monastisismu
monbon
moncada
monday
mondo
mondol
mondragon
monera
monetary
money
mong
monggol
mongha
monghi
mongkol
mongkut
mongol
mongolia
mongolian
mongols
monica
monico
monitor
monitoring
monje
monk
monkayo
monkeys
monnet
mono
monoamine
monocyte
monogatari
monoglyceride
monographs
monophyletic
monosaccharide
monotypic
monreal
monroe
monroy
monsoon
monster
mont
montalba
montalban
montan
montana
montay
monte
monteagudo
montealegre
montecchio
monteiro
montejo
montemayor
montenegro
monterey
montero
monterrey
monterrubio
montes
montessori
monteverde
montevideo
montevista
montgomery
month
monthieux
monthly
months
montilla
montpelier
montre
montreal
monts
montserrat
monument
monumento
monuments
monumentu
monumentung
monza
monzo
monzon
moo
moon
moonlight
moons
moore
mor
moraceae
moradabad
moral
moraleja
morales
moralidad
moran
morar
morato
moravia
moravian
morbihan
mordovians
mordvins
more
morel
morena
moreno
morera
moresby
morgan
mori
morinda
moringa
moriones
mormon
mormugao
morning
moro
morocborocan
moroccan
morocco
morong
morphology
morris
morrison
morsi
mortality
mortes
morton
moru
mosaic
moscow
moselle
moses
mosque
mosquito
mosquitoes
moss
most
mostly
mota
moth
mother
moths
motion
motiong
motivational
motor
motorcycle
motors
motto
motu
mount
mountain
mountaineering
mountains
mounts
mouse
mouth
mouton
move
moved
movement
movements
movie
movies
moving
moy
moya
mozambique
mozart
mozilla
mp
mpa
mpeg
mph
mps
mr
mrc
mrs
ms
msd
msdn
msgr
msie
msk
msn
msu
mt
mtianeti
mtskheta
mtv
mu
mua
mubarak
much
mucilage
mucosa
mucosal
mucous
mud
muda
mudan
mudanjiang
mudigonda
muebles
mueblis
muelie
mueller
muga
mughal
mugwort
muhammad
muhlach
mukashi
mukha
mukherjee
mukiat
mula
mulajan
mulan
mulanay
mulawin
mulberry
mulhouse
muli
muling
mullin
mulondo
multi
multicellular
multichannel
multilingual
multilingualism
multimedia
multinational
multiple
multipurpose
multiversity
muman
mumbai
mumuang
mumuli
mumuna
mumunang
mumunta
mumuran
mumurung
mumusbung
mun
muna
munag
munai
munaman
munang
muncipal
mundi
mundo
mung
mungialdea
munia
munich
municipal
municipales
municipalidad
municipalities
municipality
municipio
municipios
munie
munikala
munikalang
munisipalidad
munshiram
munster
munta
munti
munting
muntingia
muntinlupa
munye
mupin
mura
mural
muralla
murcia
murder
murdered
muriel
murillo
murin
muring
murmansk
muroran
muros
murray
murraya
murry
murshidabad
murut
musa
muscat
muscle
muscles
muscular
muse
museo
museu
museum
museums
mushroom
mushrooms
music
musica
musical
musicang
musician
musicians
musika
musikang
musikeru
musikerung
musix
muslim
muslims
mussoorie
must
mustafa
mustang
muta
mutabilis
mutation
mutations
muteki
muteking
muti
mutia
mutiny
mutya
mutyang
muzaffarnagar
muzaffarpur
muzon
mvp
mw
my
mya
myanmar
myayaliwa
myayaliwang
myayalwang
mycelium
mycological
mycologist
mydukur
mye
myeng
myocardial
myocardium
myrmecology
myrna
myrtle
myself
mysore
myspace
mysterious
mystery
mystic
mystics
myth
mythology
myths
myung
n
na
naawan
naba
nabaloy
nabas
nabatieh
nabatiyeh
nabua
nabundas
nabunturan
nac
nacatamu
nacional
nacionalista
nacu
nad
nadal
nadiad
nadine
nadph
nadu
nag
naga
nagaland
nagano
nagapattinam
nagar
nagarakretagama
nagaram
nagari
nagasaki
nagato
nagbacalan
nagbibigay
nagbibiyaya
nagbukel
nagcarlan
nagercoil
nagiging
naging
nagkakaisa
nagkaron
nagmamalabis
nagorno
nagoya
nagpapataw
nagpur
nagrebcan
nagsabaran
nagsasaad
nagtipunan
nagtupacan
naguilian
nahalikan
nahar
nahuatl
nai
naia
naic
nainital
nairobi
najran
nak
naka
nakama
nakapag
nakar
nakasubaybay
nakhichevan
nakhon
naku
nakua
nakung
nala
nalanda
nalang
nalasin
nalgonda
nalook
nalsian
nalu
nalvo
nalwa
nam
nama
naman
namang
namayan
nambaran
name
named
namely
names
namibia
naming
namnama
nampicuan
namu
namuhay
namung
namur
nan
nana
nanan
nanchang
nancy
nanded
nandemo
nandin
nandisena
nandurbar
nane
nang
nangalisan
nangan
nangka
naning
nanjing
nano
nanoethics
nanometer
nanotech
nanotechnology
nanping
nansei
nantong
nanu
nanuman
nanumang
nanung
nanupata
nanutang
nanyang
napa
napin
naples
napo
napole
napoleon
napoli
napun
nara
naranja
narcea
narciso
narin
narita
naro
narra
narrative
narrator
narros
narsinghpur
narsisismu
narsisismung
narsisista
naru
naruhito
narvacan
nas
nasa
nasal
nashik
nashville
nasik
nasional
nasipit
nasl
nasrallah
nassau
nasugbu
nasyonalista
nasyonalistang
nasyun
nat
natal
natale
nath
nathalia
nathaniel
nati
natin
nation
national
nationale
nationalism
nationalist
nationalists
nationality
nationally
nations
native
natividad
nato
natonin
natriuretic
natsukashi
natunuan
naturae
natural
naturalesa
naturalesang
naturalis
naturalised
naturalism
naturalist
naturalista
naturalized
naturally
nature
naty
naujan
nauru
nautical
nava
naval
navalmoral
navantia
navares
navarra
navarre
navarredonda
navarro
navas
navi
navia
navigation
navigational
navigator
navitas
navotas
navsari
navstar
navy
nawabs
nawaz
naya
nayon
nayun
nazaire
nazareno
nazareth
nazi
nazionale
nazo
nałe
nb
nba
nbc
nc
ncaa
ncara
ncbi
ncc
ncca
nchen
nchez
ncia
ncipe
nclc
ncr
nd
ndara
nder
ndez
ndi
ndiga
ndo
ndu
ne
nea
neal
neapolitan
near
nearby
nearest
nearly
nebivolol
nebraska
neck
nectar
ned
need
needed
needle
needles
needs
neemuch
negapatam
negara
negative
negeri
neglected
negligible
negocianti
negociu
negosianti
negosianting
negosiu
negosiung
negosyanti
negosyanting
negosyu
negosyung
negotiations
negotiator
negra
negrensi
negros
nei
neiger
neighborhood
neighborhoods
neighbourhood
neighbourhoods
neil
neing
nela
nellore
nelly
nelson
nelumbo
neman
nematoda
nematomorpha
nemertea
nemesio
nemu
nemuro
nen
nene
neneng
nenets
neng
neni
nenita
neo
neocurtilla
neolithic
nepal
nepali
nephritis
nephrology
nephropathy
nephrotic
nepomuceno
neppuu
neptune
ner
nerbioi
neri
nero
nerv
nerve
nerves
nervio
nervios
nerviosa
nervous
nes
ness
nest
nestor
net
netanyahu
netherlands
netrando
netscape
network
networking
networks
neu
neubrandenburg
neuf
neuflize
neuilly
neurologist
neuron
neuroscience
neutral
neutron
neutronic
neutrophil
neuville
nevada
never
nevers
nevis
new
newark
newbery
newburgh
newcomers
newest
newfoundland
newhaven
newland
newly
newman
newport
news
newscaster
newsgroup
newsid
newsletter
newspaper
newspapers
newsreel
newsweekly
newtobakersfield
newton
next
nexus
nez
nfl
ng
nga
ngacung
ngai
ngaku
ngakung
ngamu
ngan
ngana
nganak
nganang
ngang
nganing
ngara
ngarang
ngayon
ngbarangay
ngel
ngeles
ngeni
ngening
nghe
nghi
ngi
ngilinan
ngjia
ngo
ngsha
ngu
ngua
ngungut
ngunit
nguye
nguyen
ngzho
nh
nha
nhat
nhk
nhl
nho
ni
nia
niali
niang
nias
nibaliw
nibat
nibba
nibel
nic
nicanor
nicaragua
niccolo
nicdao
nice
nicholas
nichols
nick
nickname
nico
nicobar
nicola
nicolas
nicole
nicolson
nicos
nido
nie
niebla
niederentzen
niel
niels
niemeyer
nieto
nieva
nieves
nig
niger
nigeria
nigerian
night
nightingale
nightlife
nights
nightshade
nign
nih
niha
niigata
niing
nijsten
nikbag
nikki
nikola
nikolaus
niku
nila
nile
niles
nilgiri
nilgiris
nilo
nimar
nin
nine
ning
ningain
ningbo
ningde
ningdenmark
ningnew
ningning
ningnorway
ningsaint
ningsaudi
ningten
ningthe
ningxia
ninh
nini
nining
ninja
nino
ninotsminda
ninoy
nintendo
ninu
ninuman
ninumang
ninung
nio
niog
nipa
nipple
nippon
nirmal
nis
nisei
nishikado
nishisonogi
nist
nita
nitang
nite
niti
niting
nito
nitrogen
nittele
niugan
nixon
niya
niyang
nizamabad
nizhny
nj
nl
nlm
nm
nmyl
nng
no
noaa
nobel
nobela
nobelang
nobelista
nobelistang
nobelprize
nobenta
nobiembre
nobiembri
nobilis
nobility
noble
nobody
nobyembre
nobyembri
noche
nocturnal
node
nodes
noel
nogales
noida
noise
nokarin
nokia
noma
nomas
nomenclature
nominasyon
nominasyun
nominated
nomination
nominees
nomiru
non
none
nonfiction
nong
nongan
noni
nonlinear
nonoc
nonok
nonong
nonprofit
nonsectarian
nonviolence
noon
nor
nora
noradrenaline
norala
nord
norden
nordic
norepinephrine
norfolk
norm
norma
normal
normally
norman
normandie
normandy
norodom
norse
norte
norteng
north
northeast
northeastern
northeasterner
northeasterners
northern
northwest
northwestern
norti
norton
noruegu
norway
norwegian
norzagaray
nos
nosed
nossa
not
nota
notable
notably
notation
note
notebook
notebooks
noted
notes
nothing
notoc
notre
nou
noun
nouns
nour
nov
nova
novak
novales
novaliches
novara
novaya
novel
novela
novelang
noveleta
novelist
novelista
novelists
novello
novels
november
novgorod
novial
noviembre
noviembri
novo
novosibirsk
novy
now
noxc
noynoy
npr
nps
npsl
nrdc
ns
nsf
nsky
nster
nsw
nt
ntara
nther
ntis
ntv
nu
nua
nuan
nubian
nucelic
nucifera
nuclear
nucleic
nucleotide
nucleus
nuclides
nues
nuestra
nueva
nuevavizcaya
nuevo
nug
nukarin
nukluan
nula
nuling
numa
numan
numancia
numang
number
numbered
numbers
numero
numerous
numerung
nun
nunavut
nune
nung
nunge
nuns
nunu
nunungan
nuoro
nup
nupata
nupedia
nuremberg
nurieux
nurse
nurses
nursing
nus
nusa
nut
nutr
nutrition
nutritional
nuts
nuwan
nuya
nw
nwt
ny
nya
nyang
nyc
nynorsk
nyu
nzho
o
oahu
oak
oakland
oakley
oaks
oaqui
oar
oas
oasis
ob
obama
obando
obat
obe
obernai
obesity
obihiro
obispo
obispu
obituaries
obituary
object
objectives
objects
oblast
oblation
obligacion
obligation
obo
obong
obra
obrang
observation
observational
observations
observatory
observer
obsidian
obsolete
obstetrics
obstruction
obstructive
obvious
oc
oca
ocampo
ocampu
occasion
occasionally
occidental
occidentale
occidente
occitan
occupation
occupational
occupied
occur
occurred
occurrence
occurs
ocean
oceana
oceania
oceanian
oceanic
oceanographer
oceanographic
oceanography
oceans
och
ochando
ocimum
oclc
ocstandard
oct
octavio
october
octopus
octubre
octubri
od
odd
oddi
ode
odeillo
odell
odin
odiong
odiongan
odor
odorant
odore
odyssey
oeno
oesophagus
oeste
of
off
offensive
offer
offered
offering
offers
offical
office
officer
officers
offices
official
officially
officials
officier
officiers
officinalis
offset
offshore
oficial
oficialis
ofisial
often
og
oga
ogan
ogden
ogg
ographique
ogsimer
oh
ohio
oi
oic
oil
oiler
oils
oilseed
oini
oira
ois
oise
oita
oitang
ojeda
ojo
ojos
ok
okashina
okayama
okb
okc
okinawa
okinawan
okinotorishima
oklahoma
okresy
okrug
oktober
oktubre
oktubri
ol
ola
olandes
olango
olav
olbia
olby
old
oldenburg
older
oldest
ole
olea
oleg
oleifera
olfaction
olfactory
oligosaccharide
olimpio
oliva
olivares
olivenc
oliventino
olivenza
oliver
olivia
olmeda
olmo
olo
olomouc
olongapo
olutanga
olympia
olympiad
olympian
olympic
olympics
olympique
omaha
oman
omar
omega
omisidiu
omsk
on
onan
once
oncology
oncorhynchus
one
oneng
ones
ong
ongan
ongoing
ongpin
oni
onion
onitsha
online
only
onor
onra
ontario
onthisday
onwards
onychophora
onza
oo
ooo
ootacamund
ooty
op
opao
open
opened
opening
opens
openstreetmap
opera
operacion
operasyon
operate
operated
operates
operating
operation
operational
operations
operative
operator
operators
ophelia
opinion
opisial
opisina
opisinang
opisyal
opisyales
opisyalis
opler
opm
opol
opold
opong
oposisyun
opoul
opponents
opportunities
opportunity
opposed
opposing
opposite
opposition
oppus
optic
optical
opticks
option
options
opus
or
ora
oral
orang
orange
oranges
orani
oras
oratorio
oratory
orbit
orbital
orbits
orchestra
orchha
orchid
orden
order
orders
ordinal
ordinance
ordinary
ordo
ordonez
ordre
ore
oregano
oregon
orellana
oren
orenburg
oreni
orense
oreta
org
organ
organelle
organic
organisa
organisadung
organisasyun
organisation
organisations
organisms
organismu
organismung
organization
organizations
organized
organizer
organs
organu
organung
ori
orient
oriental
orientales
orientalism
orientation
oriente
oriented
origanum
origin
original
originally
originating
origins
orihinal
oring
orioles
orion
orissa
oristano
orita
oriya
orlando
orle
orleans
ormoc
ornamental
orne
ornex
ornithology
ornu
oro
oroquieta
oros
orosa
oroville
orozko
ortega
ortela
ortelanu
orthodox
orthographies
orthography
orthologous
orthoptera
ortigas
ortiz
ortodoksia
ortodoksu
ortogra
ortografi
ortograpiya
ortograpiyang
oryol
oryza
oryzivora
os
osa
osaka
osamu
osasco
osb
osborne
oscar
osce
oscos
osena
oshima
osias
oslo
oslob
osmen
osmena
osorio
ospital
ossetia
ossetians
ossicle
ostalbkreis
ostwald
oswestry
ot
ota
otakebi
otaru
oteiza
otel
oteros
otf
othe
other
others
otis
otoko
oton
otonomiya
otsu
ottawa
otto
ottoman
ou
oude
oudezijds
ouest
oup
our
ourense
ours
out
outcome
outdoor
outer
outline
outlook
outside
outskirts
outstanding
ov
ova
ovadia
oval
ovarian
ovaries
ovary
ovata
over
overall
overdominance
overhead
overlap
overload
overseas
overview
overviews
oviedo
ovoviviparous
owen
owl
own
owned
owner
owners
ox
oxalidaceae
oxford
oxidase
oxide
oxnard
oxycoccus
oxygen
oxyurichthys
oy
oya
oyan
oyni
oyonnax
oyster
oyta
oz
ozamis
ozamiz
ozurgeti
p
pa
paa
paano
paaralan
paascu
pababa
pabaknal
pabalan
pabalat
pabalik
pabanua
pabanwa
pabaya
pabayat
pabigla
pabilis
pabilug
pablasa
pablasang
pablo
pabor
pabrika
pabrikang
pabulan
paburen
pabustan
pacac
pacamalang
pace
pacheco
pacia
paciano
pacific
pacifica
pacifico
pacifists
pacita
pack
package
packard
packets
pacman
paco
pacquiao
pacu
pacuan
pacucoa
padada
padalan
padang
padayu
paddaya
pader
paderne
padidu
padilla
padma
padova
padre
padres
padu
padua
padurut
padurutan
padurutnan
paelia
paella
paete
paez
pag
pagadian
pagagawan
pagal
pagalamatan
pagalongan
pagalungan
pagan
paganan
pagaralan
pagatin
pagatpat
pagawan
pagayawan
pagbatayan
pagbilao
pagbuo
pagdating
page
pageant
pages
paget
pagitan
pagkabiayan
pagkabie
pagkakaisa
pagkalub
pagkamalian
pagkamalyan
pagkarinan
pagkit
paglahi
paglalawe
paglalaweng
paglas
paglasong
paglat
paglaum
pagluwas
pagmaragul
pagmasdan
pagmasusian
pagmasusyan
pagmayabang
pagnasan
pago
pagobra
pagoda
pagos
pagpate
pagsa
pagsabangan
pagsangahan
pagsanghan
pagsanjan
pagsayan
pagsilebran
pagsisti
pagsubok
pagudpud
paguinakit
pagulung
pagulut
pagumasdan
pahayagan
pahayagang
pahiwatig
pahor
pai
paid
paigoay
pain
painawa
pains
paint
painted
painter
painters
painting
paintings
paintulut
paintulutan
paintulutang
paintunan
paintungulan
painuman
pair
paired
pait
paitan
paiwan
pajares
pajo
pak
paka
pakaba
pakabang
pakakalale
pakakalulu
pakakalulung
pakakutkut
pakala
pakalaso
pakalupung
pakamalan
pakanan
pakapun
pakasakab
pakatalakad
pakatuki
pakatuknang
pakdu
pake
pakera
paki
pakiapusan
pakibalak
pakibaluan
pakibalwan
pakibat
pakibatan
pakiduang
pakil
pakilawe
pakinabang
pakipaten
pakiramdam
pakisabi
pakistan
pakistani
pakit
pakiyanti
pakpak
paksa
paksang
paktura
paku
pakwan
pal
pala
palabas
palabungan
palace
palaces
palacio
palaciong
palacios
palaciu
palad
palage
palageng
palague
palagyu
palailag
palakad
palakul
palalam
palalda
palale
palamaner
palambutan
palamu
palanan
palanas
palanca
palancia
palang
palao
palapad
palapag
palasan
palasiu
palasyu
palatandanan
palatinate
palau
palauig
palawan
palayan
palayo
palayong
palazzo
paldas
pale
palec
palem
palencia
palengke
palengki
palenki
paleolithic
paleontologist
palermo
palestine
palestinesee
palestinian
palestino
palestinu
palette
palgrave
pali
palian
palibhasa
paligi
paligid
paligue
palikpik
palili
palimbang
palimpatan
palimpsest
palina
paling
palipi
paliping
palisades
palm
palma
palmang
palmas
palme
palmer
palmera
palms
palnadu
palo
palomares
palompon
paloncha
palos
palsintan
paltrow
palual
paluan
palub
palud
palun
palungpung
paluwal
palwal
palyul
pam
pama
pamag
pamaga
pamagaklas
pamagalsa
pamagaral
pamagat
pamagbaba
pamagbakuna
pamagbalik
pamagbante
pamagbasa
pamagbawal
pamagbawas
pamagbayu
pamagbayung
pamagbiahi
pamagbilang
pamagbinyag
pamagbisita
pamagbista
pamagbotu
pamagbotung
pamagbulus
pamagdala
pamagdalaga
pamagdalan
pamagdatang
pamagdimitir
pamagdirek
pamagdisenyu
pamaghiganti
pamagi
pamagkalag
pamagkamali
pamagkanta
pamagkontrol
pamagkulang
pamagkulta
pamagkumpara
pamaglabag
pamaglaban
pamaglage
pamaglakad
pamaglakbe
pamaglako
pamaglakong
pamaglalang
pamaglapad
pamaglarawan
pamaglaso
pamaglawu
pamaglayag
pamaglibang
pamaglibe
pamaglibeng
pamaglikas
pamaglimbag
pamaglinis
pamaglipat
pamaglitis
pamaglual
pamaglualu
pamaglub
pamagluid
pamaglulan
pamaglundag
pamaglupi
pamagluslus
pamaglusub
pamaglutu
pamaglutung
pamaglwal
pamagmalasakit
pamagmalun
pamagmana
pamagmantini
pamagmasusi
pamagmina
pamagmula
pamagmulang
pamagobra
pamagpakamate
pamagpakimut
pamagpalakad
pamagpalto
pamagpalual
pamagpalwal
pamagpalya
pamagparagul
pamagpasikan
pamagpatubu
pamagpilit
pamagplanu
pamagpondu
pamagpursigi
pamagpursiging
pamagregla
pamagretiru
pamagsadia
pamagsalita
pamagsalitang
pamagsane
pamagsaneng
pamagsarili
pamagsiasat
pamagsilbi
pamagsilbing
pamagsimpan
pamagsulit
pamagsyasat
pamagta
pamagtaksil
pamagtas
pamagumasid
pamagumpisa
pamakamate
pamakbung
pamakiabe
pamakibage
pamakilaban
pamakinabang
pamakiramdam
pamakisabi
pamakitalamitam
pamakiugnayan
pamakyabe
pamalak
pamalas
pamalenan
pamalian
pamalsinta
pamamahala
pamamakbung
pamamalakad
pamamalita
pamamamgan
pamamangal
pamamangan
pamamasa
pamamatawad
pamamate
pamamatlawe
pamamatyawan
pamamau
pamamayad
pamamgopya
pamamie
pamamilang
pamamili
pamamiling
pamamingua
pamamingwa
pamamintura
pamaminturang
pamamisali
pamamomba
pamamuklat
pamamuli
pamamuntukan
pamamupul
pamamutut
pamamyalung
pamamye
pamamyeng
paman
pamana
pamanabusu
pamanagin
pamanagus
pamanakit
pamanaklas
pamanakmul
pamanakut
pamanalakad
pamanalan
pamanalili
pamanaliling
pamanalipit
pamanalis
pamanaliwa
pamanaliwang
pamanalkus
pamanalsa
pamanalto
pamanaluki
pamananam
pamananaman
pamanandanan
pamanang
pamananggap
pamanapsal
pamanarap
pamanasan
pamanasik
pamanataki
pamanatili
pamanatul
pamanaus
pamanayun
pamanayus
pamandagdag
pamandagul
pamandalan
pamandukit
pamandurut
pamang
pamangabyayan
pamangagli
pamangailangan
pamangalag
pamangalakal
pamangalang
pamangalap
pamangalbag
pamangalo
pamangaluku
pamangambil
pamangambul
pamangamit
pamangan
pamanganak
pamanganyaya
pamangarcula
pamangasiwa
pamangawa
pamangawang
pamangawani
pamangaylangan
pamanggamit
pamangikwan
pamangilala
pamangimut
pamangising
pamangisnawa
pamangisnawang
pamangopya
pamangua
pamanguenta
pamanguldas
pamangulis
pamangulkul
pamangupit
pamangutang
pamani
pamaniakup
pamanialake
pamaniali
pamanialiksik
pamanialugsug
pamaniamasan
pamaniambut
pamanibala
pamanibalang
pamanibayu
pamanigaral
pamanigobra
pamanigtig
pamanikdo
pamanimbentu
pamanimuna
pamaningat
pamanintindi
pamanintun
pamanipun
pamaniral
pamanisip
pamaniukad
pamaniulat
pamaniuyu
pamaniuyung
pamanlasa
pamanlusub
pamanopera
pamanos
pamansag
pamantasan
pamanubu
pamanuklas
pamanuknangan
pamanukyat
pamanula
pamanuldu
pamanulid
pamanulu
pamanulung
pamanungkulan
pamanuru
pamanurung
pamanusga
pamanyabat
pamanyad
pamanyagip
pamanyakmal
pamanyakup
pamanyalapi
pamanyalat
pamanyali
pamanyaliksik
pamanyalita
pamanyalugsug
pamanyamasan
pamanyambut
pamanyane
pamanyatang
pamanyaup
pamanyese
pamanyiksik
pamanyilab
pamanyimpan
pamanyingut
pamanyinup
pamanyipsip
pamanyira
pamanyubuk
pamanyugud
pamanyuka
pamanyukad
pamanyulagpo
pamanyulat
pamanyulung
pamanyundu
pamanyuri
pamanyuyu
pamanyuyung
pamaralan
pamasan
pamasku
pamatutuanan
pamayapan
pambabai
pambangsa
pambangsang
pambansa
pambansang
pambuhan
pambujan
pambuk
pami
pamiabe
pamialiwa
pamianib
pamibabo
pamibage
pamibalangkas
pamibandi
pamibangal
pamibayu
pamibiebie
pamibuklud
pamibulaglag
pamibulalag
pamibule
pamibuu
pamibyebye
pamiisip
pamikakamaganak
pamikakapatad
pamikakatawan
pamikalat
pamikasundu
pamikasundung
pamikatagun
pamikatagung
pamikatawan
pamikawani
pamikilala
pamikilalang
pamikit
pamikuyad
pamilaban
pamilarawan
pamilia
pamiliang
pamilibe
pamilibeng
pamiligligan
pamilihan
pamilupa
pamilya
pamilyang
pamimalemale
pamingwa
paminsan
paminta
pamintuan
pamipagaral
pamipahayag
pamipairal
pamipakilala
pamipalague
pamipalakad
pamipaliari
pamipalino
pamipalual
pamipalyari
pamipamuk
pamipante
pamiparakal
pamipasala
pamipasikan
pamipasulung
pamipate
pamipatune
pamipaulagang
pamipekat
pamipitna
pamipulayi
pamirake
pamirakeng
pamirapat
pamirasu
pamirungut
pamisabi
pamisali
pamisamut
pamisan
pamisanga
pamisanib
pamisanmetung
pamisantmetung
pamisaplala
pamisaup
pamisip
pamisuglung
pamisulat
pamisulatmap
pamisulung
pamita
pamitagun
pamitalamitam
pamitatag
pamitau
pamitikdo
pamitinduk
pamitipun
pamituglung
pamitugma
pamituki
pamitukituki
pamitukituking
pamituknang
pamituldu
pamituru
pamiturung
pamiugnayan
pamiugne
pamiyabe
pamiyaliwa
pamiyaliwang
pamiyampang
pamiyanib
pamiyanti
pamiyawig
pamiyutus
pampalasa
pampang
pampanga
pampangan
pampango
pampasanting
pamphlet
pampillon
pamplona
pampublico
pampulitica
pampulitika
pamu
pamuklat
pamulug
pamung
pamuntu
pamuntuk
pamunutk
pamutut
pamyalita
pamye
pan
pana
panabo
panadtaran
panagalan
panaguimpan
panahon
panaji
panakit
panakitan
panalala
panalalang
panalan
panalili
panama
panamao
panamdam
panamdaman
panangab
panaon
panareda
panas
panatilian
panatilyan
panau
panaun
panaung
panawung
panay
panayan
panayi
panaytayan
panchayat
panchkula
pancreas
pancreatic
pancreatitis
pandacan
pandag
pandagdag
pandak
pandami
pandan
pandanan
pandanon
panday
pandayan
pandi
pandit
pandiwa
pane
panel
panenayan
paneng
paner
pang
panga
pangabage
pangabagsak
pangabait
pangabaknal
pangabalangkas
pangabalansi
pangabanggit
pangabangsa
pangabara
pangabawas
pangabayit
pangabigla
pangabilad
pangabili
pangabinyag
pangabuklat
pangabuktut
pangabulag
pangabye
pangadake
pangadi
pangadua
pangaduan
pangaduang
pangaduangpulu
pangagawa
pangaguman
pangakabus
pangakalat
pangakit
pangako
pangaku
pangal
pangalabas
pangalako
pangalalang
pangalan
pangalimbag
pangalukluk
pangamat
pangamate
pangan
panganak
panganam
pangane
panganib
panganiban
pangantucan
panganuran
pangao
pangapakat
pangapalya
pangapalyari
pangapalyaring
pangapamuntuk
pangapat
pangapate
pangaputung
pangarakal
pangarap
pangaras
pangasakit
pangasalbag
pangasalikut
pangasamasan
pangasambut
pangasikat
pangasiksik
pangasinan
pangasinense
pangasintang
pangasira
pangasisik
pangasubli
pangasukul
pangasulat
pangataba
pangataid
pangatas
pangatatag
pangatau
pangatawanan
pangatibag
pangatikdo
pangatimawa
pangatipun
pangatlu
pangatlung
pangatuklas
pangawala
pangawang
pangayabe
pangayagkas
pangayalal
pangayari
pangayatrasu
pangbalen
pangbangsa
pangbangsang
pangcabang
pangcultura
pangdan
pangdarakal
pangdayatmalat
pangdilidili
panggao
panggasinensi
panghalip
pangi
pangian
pangil
pangilagan
pangilinan
pangiling
pangimut
panginternational
panginuan
pangisnawa
pangkabang
pangkabiayan
pangkabilugan
pangkabilugang
pangkabulasan
pangkabyayan
pangkaisipan
pangkalakal
pangkaleldo
pangkalibudtan
pangkalinangan
pangkapaligiran
pangkapamahalan
pangkapanibalan
pangkaraniwan
pangkaratunan
pangkasalesayan
pangkasulatan
pangkat
pangkayanakan
pangketawan
pangkilual
pangkilub
pangkilwal
pangkultura
pangkusina
panglaban
panglabuad
panglabwad
panglalaking
panglalawigan
panglao
panglegal
panglibutad
panglima
panglimang
pangliteratura
panglocal
panglual
panglub
panglupung
panglwal
pangmalambatan
pangmalda
pangmaldang
pangmaluatan
pangmaluatang
pangmarakal
pangmarakalan
pangmatas
pangmetung
pangnegosyu
pangngalan
pangpamuntuk
pangpang
pangpitung
pangrelihiun
pangrelihyun
pangsira
pangsiyam
pangtanaman
pangule
panguleng
pangulu
pangulung
pangulungalbugan
pangulungalbugang
pangulungaslagan
pangulungaslagang
pangulungaslgan
pangunakan
pangupit
pangutaran
pangyatu
pangyatung
pangyayare
paniatang
paniaup
panibalan
panibatan
panicoideae
panig
panigaralan
panigobran
paniki
panimanman
panimunan
paninap
paninapan
paninasan
paningayan
panintindi
panintunan
panipagaral
panipat
paniqui
panistis
panitan
paniu
paniulat
paniulung
paniwala
paniwalan
paniwalang
panjim
pankaj
panlaban
panlalawe
panlalawigan
panlasa
panlilio
panluwas
panlwal
panmetung
panna
panorama
panoramas
panoramic
panoramio
panrelihiun
pansamantala
pansamantalang
pansarili
pansariling
pansin
pansinan
pansing
pansol
pantabangan
pantad
pantalan
pantaleon
pantao
pantaon
pantar
pantas
pantau
pantay
pante
pantelebisyon
pantelleria
panteng
pantepante
panther
panthera
pantihan
pantoc
pantukan
pantunan
panualan
panuan
panugali
panukulan
panulu
panulung
panvel
panwalan
panyaguan
panyalat
panyambut
panyangkap
panyatang
panyaup
panyipit
panyukad
panyulat
panyulung
pao
paoay
paolo
paombong
papa
papabor
papacy
papakan
papakit
papakuyad
papal
papalakad
papaliari
papalto
papalual
papaluan
papalub
papalwal
papalwan
papalyari
papan
papang
paparla
papasiag
papasku
papaten
papauntang
papaya
papel
paper
paperback
papers
papil
papilionoidea
papilla
paprika
papstgeschichte
papua
papulasyun
papulayi
papunta
papuntang
papyrus
paquito
par
para
paracale
paracelis
paracels
paracrine
parada
parade
paradise
paradoxplace
paraguay
paragulan
paragus
parai
paraiso
parakalan
parakanta
paralan
paralang
paralegal
parallel
paraluman
paralympic
paralympics
paramecium
parameter
paran
paranaque
paranas
parang
parangal
paranum
paraphyletic
paras
parasan
parasanon
parasite
parasitiku
parasitology
parasyte
parathyroid
parati
paratong
parayu
parc
parcieux
pardo
pardons
pardubice
pare
paredes
paref
parehu
parent
parental
parentheses
parents
pareu
pareung
parganas
pari
parian
paridi
paril
parilla
parina
paring
paris
parish
parishes
parisukad
parity
park
parke
parker
parkia
parkinson
parks
parlamento
parlamentong
parlamentu
parle
parliament
parliamentary
parliamentu
parma
parnaso
parnasu
paro
parochial
parocya
parokia
parokya
parque
parres
parry
parses
part
partamentu
parte
partement
parthenogenesis
parti
partial
participants
participating
participation
particle
particles
particular
particularly
partida
partido
partidong
partidu
partidung
parties
partii
partikular
parting
partly
partner
partners
partnership
parts
party
parubcan
parugang
parul
parula
paruminggu
parusa
parusang
parusparus
parvovirus
pas
pasacao
pasadena
pasalamat
pasalangsang
pasalikut
pasari
pasay
pasbul
pascal
pascual
pascucci
pashto
pasi
pasiag
pasiba
pasibayu
pasibayung
pasig
pasikanan
pasikna
pasiknangan
pasil
pasilidad
pasion
pasipiku
paskil
pasku
paso
pasong
pass
passage
passau
passed
passenger
passerine
passes
passi
passion
passive
passport
passy
past
pasta
pastime
pastor
pastoral
pastrana
pastul
pastulan
pasu
pasukob
pasulung
pasuquin
pat
pata
patac
patad
patadon
patag
patagan
patakaran
pataksil
patalastas
patalindiking
pataling
patan
patar
patas
patatas
patch
patdan
pate
patel
paten
patent
patents
paterna
paterno
pateros
path
pathak
pathankot
pathe
pathogen
pathology
pathway
pathways
pati
patiala
patie
patient
patienti
patients
patigtig
patikdo
patikdong
patikul
pating
patingapun
patinig
patio
patna
patnanungan
patnongon
patoc
patong
patpat
patria
patriarca
patriarch
patriarchate
patriarchs
patriarka
patricia
patricio
patrick
patrimonio
patrocinio
patrol
patron
patrona
patrun
patse
pattern
patterns
patterson
patty
patuag
patugut
patuknangan
patulu
patune
patungkul
paturanan
patutu
patutuan
patye
patyu
pau
paud
paul
paula
pauli
paulian
paulina
pauline
paulino
paulo
paulus
paunta
pav
pavi
pavia
pavilion
pawa
pawaga
pawal
pawana
pawas
pax
pay
paya
payabon
payak
payao
payapa
payat
payo
payocpoc
payong
pays
payul
payung
payungan
payungpayungan
paz
pb
pba
pbn
pbs
pbt
pc
pccba
pci
pda
pdf
pdfs
pdp
pe
pea
peabody
peace
peaceful
peak
peaked
peam
peanut
peanuts
pearl
pearse
pearson
peas
peasant
peasants
peat
pebrero
pebreru
peca
pecas
pecatalas
pectoral
pectoris
pectus
peddathippasamudram
pederal
pedha
pedraza
pedregal
pedro
pedrosillo
pedroso
peen
peer
pegaralan
pegasus
pego
pegumpisan
pei
peitgen
peka
pekaalbugan
pekaaslagan
pekabantug
pekabayu
pekabayung
pekadakal
pekaditak
pekakatawan
pekakilala
pekakilalang
pekakilwal
pekakonosi
pekalabuad
pekalumang
pekamababa
pekamababang
pekamabayat
pekamabilis
pekamagaling
pekamakabang
pekamakualtang
pekamalambat
pekamalapad
pekamalapit
pekamalati
pekamalating
pekamaleparan
pekamaluat
pekamaluid
pekamapyang
pekamaragul
pekamaragula
pekamarakal
pekamaralas
pekamaranun
pekamargul
pekamaritak
pekamasanting
pekamasikan
pekamatagumpe
pekamatagumpeng
pekamatas
pekamatenakan
pekamatua
pekamatuang
pekamatwang
pekamaulaga
pekamaulagang
pekamauli
pekamauling
pekamayap
pekaminuna
pekamumuna
pekamumunang
pekapangulu
pekapangulung
pekapulu
pekapun
pekapusad
pekaragul
pekasepu
pekasikat
pekasimpling
pekat
pekataniag
pekayanak
pekilagiu
pekilagyu
peking
pekisabi
pelabas
pelaez
pelagie
pelagyu
pelagyuan
pelayo
pelayos
pele
pelicula
peliculang
peligru
pelikula
pelikulang
pelitan
peliz
pelvis
pemalaguan
pemalagyuan
pemate
pembroke
pemingwa
pemuntukan
pen
pena
penakitan
penamdaman
penandit
penang
pendant
pendatun
pendergrass
penditen
pendulum
penede
pengaku
pengan
penganak
pengari
pengaring
penguin
penguins
penh
penibalan
penibatan
penigaralan
penigobran
penimunan
peninsula
peninsular
penis
penn
pennsylvania
pense
pension
pentru
penza
people
peoples
pep
pepa
pepabalu
pepaburen
pepadala
pepaintulutan
pepairal
pepaitas
pepakan
pepakasalan
pepakilala
pepakintab
pepakit
pepakuyad
pepalage
pepalagyu
pepalagyuan
pepalanging
pepalto
pepalual
pepalub
pepalwal
pepalyari
pepamunikala
peparagul
peparala
peparangalan
pepasiag
pepasikan
pepasikat
pepasiuala
pepatalakad
pepatunud
pepatupad
pepawaga
pepayaus
pepe
pepper
peppers
peptide
peqmnhs
pequen
pequot
per
pera
peraleda
peralejos
perales
peralta
perang
percent
perception
perceptions
perch
perciformes
percussion
percy
peregrina
peregrinasiun
perennial
perez
perfect
perfecta
perfecto
performance
performances
performer
performers
performing
peria
periampullary
periferia
perilymph
perineum
period
periodic
periodicity
periodismu
periodista
periods
peripatric
peripheral
peristalsis
peritoneal
peritoneum
perkins
perla
perlas
perm
permanent
permanenti
permanenting
pero
perpendicular
perpetual
perrier
perry
persecution
persia
persian
persistent
person
persona
personal
personalidad
personalities
personality
personang
personnel
persons
perspective
perspectives
perth
peru
perugia
peruvian
perverting
perwisyu
peryodista
pesaro
pescadores
pescara
peso
pesos
pest
pesticide
pests
pesus
pet
petal
petaluma
pete
peter
petersburg
peterson
petiole
petite
petr
petra
petri
petrified
petroleum
petron
petronilo
pets
petsa
petsang
peuple
pez
pf
pfeiffer
pflanzen
pg
pga
ph
phagocytosis
phalange
phan
phantom
pharaohs
pharma
pharmaceutical
pharmacology
pharmacy
pharyngeal
pharynx
phase
phases
phd
phelps
pheng
phenomena
phenomenon
phenotypic
pheromone
phi
phil
philadelphia
philanthropist
philanthropists
philatlas
philemon
philharmonic
philip
philipp
philippe
philippine
philippines
philips
phillip
phillips
philodemus
philosopher
philosophers
philosophiae
philosophical
philosophy
philosopu
phils
phinma
phitsanulok
phnom
phnum
pho
phoenician
phoenix
phone
phones
phonetics
phong
phonology
photo
photogallery
photoglobe
photograph
photographed
photographer
photographers
photographic
photographs
photography
photon
photos
photosynthesis
photosynthetic
photosystem
php
phragmites
phrase
phrases
phu
phyla
phylogenetic
phylogenetics
phylogeny
phylum
physical
physician
physicians
physicist
physicists
physics
physiological
physiology
pi
pia
piabe
piaben
piabeng
piacenza
piagapo
pialben
pialiwa
pialung
pialungan
piang
pianista
pianistang
pianists
piano
piape
pias
piat
piazza
pibale
pibalebale
pibalic
pibandian
pibandyan
pibangal
pibuklud
pic
picardie
picardy
picas
picasso
pice
piceno
pick
picked
pickle
pickover
pico
picong
picos
pictorial
picture
pictures
picudta
pidala
piddig
pidigan
pidong
pidudurutan
pidung
pie
piece
pieces
piedmont
piemonte
pieng
pier
pierce
piercing
piero
pierre
piesa
piesang
piesta
piestang
pieter
pietro
pig
pigaganakan
pigampa
pigilan
pigkalub
pigkalubanan
pigkawayan
pigmasusian
pigment
pigmulan
pignasan
pigs
pii
pikabaluan
pikabalwan
pikakasunduan
pikawani
pikeg
pikit
piksyon
piku
pikuanan
pikudta
pikudtang
pikukuanan
pikukwanan
pikung
pikuwanan
pikwanan
pila
pilak
pilan
pilang
pilapil
pilar
pilatan
pilato
pilawen
pileru
pilgrim
pilgrimage
pilgrims
pili
pilidu
pililla
pilinan
pilipinas
pilipino
pilipinu
pilit
pilitan
pilmi
pilmihan
pilming
pilmograpiya
pilon
piloncitos
pilosopiya
pilosopiyang
pilot
pilots
pilotu
pilsen
piluban
pilubluban
piluluban
pilwalan
pimentel
pimpri
pin
pinabacdao
pinag
pinagbayanan
pinagbuklod
pinagdaanan
pinaglabanan
pinak
pinal
pinamalayan
pinamihagan
pinamungahan
pinanari
pinandit
pinar
pinares
pinas
pinatu
pinatubo
pinatubu
pinay
pindang
pindangan
pindolol
pindolonan
pinduan
pine
pineal
pineapple
pineapples
pineda
ping
pingalip
pingdingshan
pinggan
pingliang
pinguinus
pingul
pinili
pinilit
pinilla
pininta
pinintura
pininturang
pinirma
pinitna
pink
pinna
pinnate
pinneberg
pino
pinocawan
pinoy
pins
pinsinan
pinta
pintalan
pinter
pintig
pintor
pintuyan
pinu
pinukpuk
pinuno
pinunu
pinuri
pinutut
pinya
pinyambut
pinyin
pio
pioneer
pioneers
pipa
pipagaralan
pipagaralang
pipagobran
pipamilinan
pipanasan
pipanganan
pipangisnawan
pipanyalwan
pipapaten
pipasyalan
pipe
pipeline
piper
pipi
pipilinan
pipilitan
pipilo
pipinu
pipipaten
pipitnan
pipti
pipumpunan
pipunan
pipunpunan
pipuntalan
piqueras
pira
pirake
pirasu
pirasung
pirat
pirata
piratang
pirate
pirates
pirene
pires
piriform
pirinan
piro
piruya
pisa
pisabian
pisabyan
pisak
pisalapian
pisalapyan
pisali
pisamban
pisambang
pisamut
pisan
pisanmetung
pisasabian
pisasabiang
pisasabyan
pisasabyang
pisasali
pisasamban
pisiag
pisical
pisikal
pisngi
pisni
piso
pisong
pistoia
pistol
pistorius
pisu
pisuerga
pisulagpon
pita
pitak
pitaklan
pitatamnan
pitcairn
pitch
pitches
pithecellobium
pitig
pitik
pitipun
pitna
pitnan
pitogo
pitong
pitpit
pitt
pittsburg
pittsburgh
pitu
pituitary
pituknangan
pitumpulu
pitung
piu
pius
pivot
pixar
pixel
pixies
piyabe
piyaben
piyabeng
piyabeyabe
piyagum
piyanti
piyayabe
pizarro
pizhou
pk
pkk
pl
pla
place
placenames
placenta
placer
placerville
places
plain
plains
plais
plaka
plan
plana
planas
planck
plane
planes
planet
planeta
planetang
planetary
planetoid
planets
plankton
planned
planner
planning
plans
plant
planta
plantae
plantago
plantains
plantang
plantarum
plantation
plantes
planting
plants
planu
planung
planza
plaque
plaridel
plasencia
plasma
plasters
plastic
plataporma
plate
plateau
platelet
platform
platt
platyhelminthes
platyzoa
play
playa
playback
played
player
players
playhouse
playing
playmobil
playoff
playoffs
plays
playstation
playwright
playwrights
plaza
plazas
pldt
pleasant
pleasanton
pleasantville
please
pleasure
plebiscite
plenipotentiary
pleshette
pleura
pleural
plicae
pliers
pliny
plot
plotarea
plotdata
plough
plug
plugin
plum
pluma
plumb
plunder
plural
plus
pluto
plymouth
plzen
pm
pma
pmi
pmma
pmpc
pna
pneumonia
png
pns
pnt
po
poaceae
pob
pobla
poblacio
poblacion
pobra
pocket
poctol
pod
podcast
podkast
pods
poe
poem
poema
poems
poesia
poesiang
poesya
poesyang
poet
poeta
poetang
poetry
poets
poinsettia
point
points
poisoning
poisonous
poitou
poker
pol
pola
polaco
polanco
poland
polandball
polangi
polangui
polar
polaris
polavieja
pole
poles
poli
policarpo
police
policies
policy
polilio
polillo
polish
polisiya
politehnica
politica
political
politically
politicang
politician
politicians
politico
politicong
politics
politicu
politicung
politika
politikal
politiku
politikung
polk
poll
pollen
pollination
pollinators
pollution
polo
polomolok
polong
polonia
polski
poltavchenko
polyester
polymath
polymer
polymorphonuclear
polynesia
polynesian
polypeptide
polytechnic
pomegranate
pomelo
pomerania
pomona
ponce
poncio
ponda
pondicherry
pondol
pondu
pondung
pong
ponhea
poniente
ponies
ponong
ponot
pont
pontevedra
ponti
pontifical
ponyfish
pooc
pook
pool
poole
pools
poona
poor
pop
pope
popes
popest
popieluszko
popiełuszko
poplasiun
poprotektan
pops
populaciu
popular
popularity
popularly
populasion
populasiun
populasyon
populasyun
populated
population
populations
populaysun
por
porac
porbandar
porcientu
pordenone
porifera
porma
pormal
pormang
poro
porres
porsche
porsientu
porsyentu
port
porta
portable
portal
portals
portbou
porte
portfolio
portilla
portion
portions
portland
porto
portrait
portraits
portraying
ports
portugal
portuges
portugue
portugues
portuguesa
portuguese
posadas
posibilidad
posibling
posisyun
position
positioning
positions
positive
posse
possession
possible
possibly
post
postal
postcards
poster
posterior
posteriorly
postgraduate
posthumous
posthumously
postigo
postmodern
postmodernism
postprandial
posts
postscript
postseason
pot
pota
potang
potato
potatoes
potential
potenza
poti
potia
potol
potomac
potot
pototan
potsdam
potter
potus
pound
pour
poveda
poverty
powder
powell
power
powered
powerful
powers
pozo
pozorrubio
pozuelo
pozzorubio
pp
ppp
ppx
pr
pra
practical
practice
practices
practicum
practitioners
pradesh
prado
prados
praeger
prague
praha
prairie
praise
praising
prakasam
prakashan
praktika
praktis
pramoedya
pranab
prangkisang
pranses
pransiya
pransya
prasad
prasat
prat
pratapgarh
prato
prats
praxedes
prayagraj
prayer
prayers
praying
prc
pre
preachers
preah
preap
precatorius
precession
precintu
preciosa
precious
precise
precision
prediction
predictions
predominantly
predominates
prefectural
prefecture
prefectures
preferences
preferred
prefix
pregnancy
prehistoric
prehistory
preliminary
premier
premiere
premiers
premyu
prentice
prenza
prep
preparation
preparatory
prepared
prepektura
pres
presbyterian
preschool
prescott
presence
presencia
presensia
present
presentacion
presentation
presented
presenter
presently
presents
preservation
preserve
preserved
presidency
president
presidente
presidenti
presidential
presidents
presidio
presley
press
pressure
prestel
preston
presung
presyu
pretoria
prevallet
prevent
preventing
prevention
preventive
previous
previously
prey
pri
priamus
pribadu
pribadung
price
prices
pride
pridnestrovian
pridnestrovie
priest
priestley
priests
prieta
prieto
prima
primarily
primary
primate
prime
primer
primera
primerang
primeru
primerung
primetime
primicias
primitive
primo
primorsky
prince
princely
princes
princesa
princess
princeton
principa
principado
principal
principalidad
principality
principe
principi
principia
principiu
principle
principles
prinsesa
prinsi
prinsipe
prinsipiu
prinsipyung
print
printed
printing
printmakers
prints
prinza
prion
prior
prioress
priority
prisiun
prison
prisoner
prisoners
prisons
prisyun
privadu
privadung
private
prix
prize
prizes
pro
probability
probable
probe
probinsiya
probinsiyang
probinsya
problem
problema
problemang
problems
proc
proce
procedures
proceedings
proceso
process
processes
processing
processions
procesu
proclaimed
proclamation
proddatur
prodigy
produce
produced
producer
producers
produces
producing
product
productcd
production
productions
productivity
products
productu
productung
produksiun
produksyon
produktu
produktung
prodyuser
prof
profesion
profesional
profesor
professional
professionals
professions
professor
professors
profile
profiles
profit
progesterone
program
programa
programang
programmable
programme
programmer
programmers
programming
programs
progran
progresista
progreso
progress
progressive
progressives
project
projected
projection
projections
projector
projects
prokaryota
prokaryote
prolactin
prometheus
prominence
prominent
promise
promised
promo
promosyonal
promote
promoted
promotes
promoting
promotion
promotional
pronounced
pronouncing
pronunciation
propaganda
propagandist
propagandista
proper
properties
property
propesion
propesional
propesor
propesyonal
propeta
prophet
prophets
prophylaxis
proponenti
proposal
proposed
propranolol
proprietary
prosa
prosang
prose
prosecutor
prosesu
prosesung
prospects
prosperidad
prosperity
prospero
prostate
protabase
protect
protected
protection
protectorate
protein
proteina
proteins
proteksyon
protektan
protest
protesta
protestang
protestant
protestanti
protestanting
protestantismu
protestants
protests
protina
protinang
protist
protista
protocol
protocols
proton
protostome
prototype
protozoa
proud
prove
provenc
provence
provide
provided
providence
providencia
provider
providers
provides
providing
province
provinces
provincia
provincial
provision
provisional
proxima
proxy
proyectu
proyectung
proyekto
proyektu
proyektung
prublema
prublemang
prunet
pruning
prunus
prussia
prussian
prutas
prypiat
pseudocoelom
pseudogene
pseudonymous
pseudonyms
psidium
psikologuia
pskov
psy
psyche
psychedelic
psychiatric
psychiatry
psychol
psychological
psychologist
psychology
psyllium
pt
pte
pterocarpus
ptolemy
pu
pualas
pub
puberty
public
publication
publications
publicly
publicu
publicung
publika
publiku
publikung
publique
publish
published
publisher
publishers
publishing
publisidad
pubmed
puc
pudoc
pudong
pudtol
puducherry
pue
puebla
pueblito
pueblo
pueblos
puente
puera
puersa
puersang
puerta
puerto
puestu
puestung
pueyo
pug
pugad
puglia
pugo
puhunan
puig
pukan
puki
pula
pulang
pulangbato
pulayi
pulbus
pulcherrima
pulgada
pulgar
pulgas
puli
pulilan
pulis
pulisia
pulitica
pulitika
pulitikal
pulitiku
pulitikung
pulitzer
pullout
pulmonary
pulmunya
pulo
pulong
pulot
pulp
pulse
pulu
pulung
pulupandan
pulutan
pump
pumpkin
pumpkins
pun
puna
punalur
punbatas
punch
punctuated
pundador
pundasiun
pundasyun
pundits
pundutung
pune
pung
pungabun
punganur
punggul
pungul
punjab
punjabi
punk
punla
punlakanbalen
puno
punod
punong
punongbayan
punsalan
punta
puntalan
puntod
puntu
puntuk
puntus
punud
punung
puok
pup
pupa
puppet
puppy
pupul
pupulayan
pupulayi
pupulaying
pupunta
pupuntalan
pupupulan
pupuri
pupurian
pupututan
pura
puram
purchasing
purdue
pure
purely
puri
purian
purifying
purisima
purmeru
purmerung
puro
purok
purple
purpose
purposes
purpurea
pursuit
puru
puruk
purung
purus
pus
pusa
pusad
pushkar
pusisiun
pusisyun
pusit
puso
pustak
pusu
pusung
put
putat
puthalapattu
puti
putian
putin
puting
putnam
putol
putong
putra
putrajaya
puttur
putung
putut
pututan
puwersa
puy
puyang
puyat
puzzle
puławy
pvt
pw
pwersa
pwersang
pwestu
pwestung
pwu
px
pyalung
pycnonotus
pyesa
pygmy
pyloric
pylorus
pyongyang
pyotr
pyramid
pyramids
pyre
pyrenees
pyroclastic
q
qaa
qadaa
qaeda
qamar
qanso
qatar
qc
qi
qiannan
qin
qing
qingdao
qinghai
qingyang
qingyuan
qingzhen
qinhuangdao
qiqihar
qitaihe
qld
qn
qng
qrs
qt
qtv
qu
qua
quadrangle
quail
quake
quakers
qualcomm
quality
quan
quang
quantum
quanzhou
quarry
quarter
quarterfinal
quarterly
quartet
quartets
quartz
que
quea
queang
quebec
queca
quecami
quecatamu
quechua
queen
queens
queensland
quen
queng
queni
quening
quentin
queraclan
quere
queruben
querubin
query
quesada
quest
question
questions
queta
quetang
queti
queting
quetuang
queya
queyang
quezo
quezon
qui
quiambao
quiapo
quiason
quiboloy
quibuloy
quick
quickfacts
quickly
quicksilver
quicktime
quid
quiet
quiling
quilo
quilon
quinapondan
quincy
quing
quinoa
quintana
quintet
quintets
quintin
quinto
quirino
quisqualis
quitang
quito
quivering
quixote
quiz
quizon
qumran
quo
quotations
quote
quoted
quotes
quy
quzhou
r
ra
rabbi
rabella
rabies
rabin
rables
rac
race
raceme
racer
races
racha
rachel
racing
rada
radapan
radar
radcliffe
radial
radiamoda
radiation
radio
radioactive
radioactivity
radiologic
radiometric
radiu
radyo
radyu
rae
raebareli
rafael
raffy
rafi
rafic
rafiq
raft
ragan
ragat
ragay
rags
ragul
ragusa
rahman
rai
raichur
raid
raigad
raigarh
raiguer
rail
railroad
railway
railways
rain
rainbow
rainfed
rainforest
rainier
raintree
raion
raipur
raised
raisen
raj
raja
rajah
rajahmundry
rajal
rajampeta
rajapaksa
rajasthan
rajgarh
rajiv
rajkot
rajnandgaon
rajput
rakal
rake
raklan
raku
ral
ralan
rale
raleigh
rally
ralph
ram
rama
ramachandrapuram
ramain
ramakrishna
ramanathapuram
ramanujan
ramapuram
rambla
ramciel
rameswaram
ramil
ramirez
ramnad
ramo
ramon
ramona
ramos
rampa
rampling
rampur
ramsay
ran
rana
ranao
ranch
ranchi
rancho
rand
randall
random
randy
rang
range
rangers
ranges
ranggu
ranggung
rangku
ranh
ranikhet
ranillo
rank
ranked
ranking
rankings
ranks
ranku
rankung
rao
raois
rap
rape
raphael
rapid
rapids
rapota
rapper
rappers
rappler
rapu
rare
rarest
ras
rashid
rasmussen
rat
ratanakiri
ratangarh
ratchathani
ratcheting
rate
rates
rathaus
rather
rating
ratings
ration
ratlam
ratna
ratnagiri
ratner
rau
raul
rault
rave
raven
ravenna
ravi
raw
rawis
ray
raya
rayalaseema
raymond
raymundo
razon
rbara
rbigo
rc
rca
rcal
rcena
rcn
rd
rdenas
rdoba
rdva
re
rea
reach
reached
reaches
reaching
reaction
reactions
reactor
read
readable
reader
readers
reading
readings
ready
reagan
reaksion
reaksyon
real
realaudio
reales
realism
realist
reality
really
realmedia
realnetworks
reang
reap
rear
reason
reasons
rebecca
rebel
rebeldi
rebelding
rebellion
rebels
rebirth
rebisiong
rebollar
rebolusiona
rebolusyon
rebolusyonaryung
rebolusyong
rebucon
recall
receive
received
receiver
receivers
receiving
recent
recently
reception
receptor
receptors
rechlin
recipe
recipes
recipient
recipients
reciprocal
reclaimed
recognition
recognize
recognized
recoletos
recollect
recombination
recommendation
recommended
reconciliation
reconquista
reconsidered
reconstruction
record
recordable
recorded
recorder
recording
recordings
records
recounts
recovery
recreation
recreational
recto
rector
rectum
recuerdong
recycling
red
redding
reddy
rediff
redirects
redlands
redmanizers
reds
reduced
reducing
reduction
redwood
reed
reef
rees
ref
refer
referee
reference
referenced
references
referendum
referred
referring
refers
refineries
refinery
refining
reflected
reflections
reflex
reform
reforma
reformang
reformation
reforms
refractories
refrain
refrigeration
refugee
refugees
refused
regala
regalu
regarded
regarding
regency
regensburg
regent
regents
reggio
regierungsbezirke
regime
regiment
regina
reginald
regine
regio
region
regional
regionale
regionally
regione
regions
regis
register
registration
registry
regla
regordane
regueras
regular
regulasion
regulation
regulatory
rehabilitation
rehenti
rehenting
rehimen
rehion
rehiyon
rehiyonal
rei
reich
reid
reign
reigned
reimann
reina
reincarnation
rejido
rekord
relasion
relasional
relasiong
relasyon
related
relates
relating
relation
relational
relations
relationship
relationships
relative
relatives
relativity
relax
relay
release
released
releases
releasing
reliance
relief
religion
religions
religious
relihion
relihiosu
relihiosung
relihiun
relihiyun
relihyon
relihyosu
relihyosung
relihyun
reliyon
relo
relocation
relong
reluctant
remainder
remained
remaining
remains
remarkable
remarks
rembrandt
remedios
remember
remembered
remembering
remembers
remembrance
remigio
remittance
remix
remixes
remote
rems
ren
renaissance
renal
renamed
renato
rendered
rene
renewal
reng
reni
renigunta
renin
rening
renovated
renowned
rent
rental
rentals
rep
repalle
replace
replaced
replacement
replacing
replenishment
replicating
reporma
repormang
report
reported
reportedly
reporter
reporters
reporting
reports
repository
representantes
representanti
representati
representation
representations
representative
representatives
represented
representing
repression
reprint
reprinted
reproduction
reproductive
reptile
repu
republic
republica
republican
republicans
republicargentina
republickyrgyzstan
republics
republicthe
republika
republikang
republished
reputasyun
reputation
request
requests
requiferos
required
requirements
rer
res
resch
rescue
research
researcher
researchers
reserva
reservation
reservations
reserve
reservoir
residence
resident
residenti
residential
residenting
residents
resignation
resin
resistance
resistant
resistensya
resolusiun
resolution
resolutions
resort
resorts
resource
resources
respect
respective
respectively
respiration
respiratory
respondi
responsabli
response
responses
responsibilidad
responsibility
responsible
respublika
rest
restall
restaurant
restaurants
rested
resting
restoran
restoration
restoring
result
resulta
resulting
results
resurhenting
resurreccion
resurrection
ret
reta
retang
reti
reticulata
retina
reting
retiradung
retirement
retiru
retortillo
retrieve
retrieved
return
returned
returning
retz
reuter
reuters
rev
revealed
reveals
revenge
revenue
revenues
reverse
reversible
review
reviewed
reviews
revilla
revised
revision
revista
revitalization
revive
revolt
revolucion
revolucionario
revolution
revolutionariu
revolutionary
revue
rewa
rewritable
rex
rey
reyes
reykjavi
reyna
reynaldo
reynang
reynato
reynolds
rez
rezende
rf
rfc
rg
rgb
rhee
rhein
rhin
rhine
rhineland
rhinoceros
rhizome
rho
rhode
rhodes
rhs
rhyming
rhythm
rhythms
ri
ria
riaa
rialto
riat
riau
riba
ribas
ribbon
ribeira
ribera
ric
rica
ricafort
rican
ricardo
ricarte
ricci
rice
rich
richard
richards
richardson
riches
richmond
richter
ricinus
rick
ricky
rico
rida
ride
rider
riders
rides
ridge
riego
riehl
riel
rieng
riera
rieti
rieu
rieure
riff
rifle
rifles
rifli
riga
right
rights
rignat
rijksmuseum
rijn
rilis
rillos
rim
rima
rimas
rimbaud
rime
rimini
rimos
rin
rinco
rinconada
rinehart
ring
ringo
rings
rio
riofri
rioja
rioni
rios
rioseco
riots
rip
ripe
ripken
riquewihr
rise
rishikesh
rising
risk
risks
rita
rite
rites
ritual
riu
riung
rival
rivalry
rivas
river
rivera
riverfront
rivero
rivers
riverside
riviera
riyad
riyadh
rizal
rizaluna
rizhao
rizzo
rizzoli
rj
rjtv
rk
rlos
rm
rmb
rmn
rn
rna
rng
rniga
ro
road
roadmap
roadrunner
roads
roald
robb
robby
robert
roberta
roberto
roberts
robicheaux
robin
robinson
robinsons
robledillo
robledo
robles
robo
robocon
robonation
robot
robots
robredo
robust
roc
roces
roche
rochefort
rochelle
rochester
rock
rockapampangan
rockband
rockbat
rockefeller
rocker
rocket
rockies
rocks
rocky
roco
rod
roda
rodel
rodent
rodeo
roderick
rodney
rodolfo
rodri
rodrigo
rodrigues
rodriguez
rody
roelofs
rogationist
rogelio
roger
rogers
rogombe
rogongon
rogue
rohilkhand
roi
roig
rojas
rokycany
roland
rolando
roldan
role
roles
rolie
roll
roller
rolling
rolly
rom
roma
romae
romagna
romain
roman
romana
romance
romances
romanesque
romani
romania
romanian
romanisation
romanization
romanized
romano
romans
romanse
romansi
romantic
romanu
romanung
romay
rombang
romblon
rome
romeo
romero
romeu
romualdez
romulo
romy
ron
ronald
ronautique
ronda
rong
ronnie
ronquillo
roof
room
rooms
roosevelt
root
roots
roozen
roque
ros
rosa
rosaceae
rosal
rosales
rosalie
rosalind
rosalinda
rosang
rosanna
rosarian
rosario
rosary
rosas
rosberg
rose
roseller
rosenthal
roses
rosetta
rosheim
rosicrucians
rosita
ross
rossi
rossini
rostock
rostov
rotaract
rotary
rotation
rotc
rote
roth
rotten
rotundus
rouen
rouge
rough
rouhani
round
roundworm
rourkela
roussillon
route
routes
routledge
rover
rovigo
row
rowan
rowdies
rowena
rowhani
rowing
rowsize
roxanne
roxas
roy
royal
royale
royals
royalty
rozas
rp
rquez
rrez
rrna
rs
rss
rt
rttemberg
rtu
ru
rubber
ruben
rubia
rubio
ruby
rudolf
rudolph
rudy
rue
rueda
ruelle
rufa
ruffa
ruficollis
rufino
rufo
rugby
rugo
rugu
rugung
ruhr
ruin
ruins
ruiny
ruiz
rule
rulers
rules
rulfo
ruling
rum
ruminant
rumors
run
runner
runners
running
runoff
runs
runway
rupert
rural
rus
rush
rushdie
rushed
rusia
ruso
russ
russell
russia
russian
russians
rustavi
rustom
rusya
rut
ruta
rutaceae
rutan
rutang
ruth
rutherford
ruy
rw
rwanda
ry
ryan
ryazan
ryu
ryukyu
ryukyuan
ryuu
rzburg
s
sa
saad
saan
saar
saarc
saarland
saavedra
saba
sabadu
sabagal
sabah
saban
sabang
sabangan
sabani
sabarmati
sabat
sabatan
sabazia
sabha
sabi
sabian
sabina
sabing
sabla
sablan
sablang
sablay
sablayan
sabo
sabres
sabtang
sabun
sabungan
sabyan
sabyang
sac
saca
saccharum
sachkhere
sachsen
sacramento
sacramentu
sacred
sacrifice
sacro
sacrum
sacs
sacsac
sactung
sada
sadanga
saddle
sadia
sadiang
sadsaran
sadya
sadyang
saelices
saen
safari
safe
safety
safflower
safonov
sag
saga
sagada
sagana
sagar
sagasa
sagase
sagay
sagbayan
sage
sagebrush
sages
sagin
saginaw
sagipan
sagisag
sagittal
sagka
sagkal
sagn
sagot
sagrada
sagu
saguan
saguday
sagudsud
sagudsuran
saguiaran
saguing
saguisag
saguiwa
saguli
sagun
sahajanand
sahara
saharan
saharanpur
sahib
sahrawi
sai
saiai
said
saida
saigon
saikai
sail
sailing
saillagouse
sailors
saingsing
saint
sainte
saintes
saints
saipan
saitama
saiyang
saka
sakali
sakaling
sakay
sakdal
sakdalan
sake
saken
sakha
sakhalin
saki
sakit
saklo
sakmalan
sakor
saksi
saktu
saktung
saku
sakup
sakupan
sakura
sakuragi
sakurut
sakusen
sakyud
sal
sala
salaban
salad
salamague
salaman
salamanca
salamander
salamankeru
salamat
salamin
salang
salansan
salapi
salapungan
salary
salas
salat
salay
salazar
salcedo
saldan
sale
saleh
salem
salerno
sales
salese
[...]
