!
"
#
##0
##1
##10
##11
##12
##13
##14
##15
##16
##17
##18
##19
##2
##20
##21
##22
##23
##24
##25
##26
##27
##28
##29
##3
##30
##31
##32
##33
##34
##35
##36
##37
##38
##39
##4
##40
##41
##42
##43
##44
##45
##46
##47
##48
##49
##5
##50
##51
##52
##53
##54
##55
##56
##57
##58
##59
##6
##60
##61
##62
##63
##64
##65
##66
##67
##68
##69
##7
##70
##71
##72
##73
##74
##75
##76
##77
##78
##79
##8
##80
##81
##82
##83
##84
##85
##86
##87
##88
##89
##9
##90
##91
##92
##93
##94
##95
##96
##97
##98
##99
$
%
&
'
(
)
*
+
,
-
.
/
0
00
000
001
002
003
004
005
007
01
02
03
031
04
05
06
061
07
08
09
1
10
100
1000
10000
101
1011
1016
102
103
104
105
1050
1054
106
1066
107
1075
108
1080
1089
109
1099
11
110
1100
1102
111
112
113
114
1141
115
1150
116
117
118
1180
1185
1189
119
1198
12
120
1200
1204
121
122
1220
123
1235
124
1240
1241
1242
125
1250
126
1260
127
1270
128
1280
129
1290
13
130
1300
1301
131
132
1322
1328
133
1330
1331
1334
134
1340
1342
1345
1346
1348
135
1350
1358
136
1360
137
1371
1377
1378
138
1380
1382
1385
1386
1387
1389
139
1391
1394
1399
14
140
1400
1404
1409
141
1410
1415
1416
142
1420
143
1430
1435
1437
144
1440
1444
1448
145
1450
1451
1453
1456
1458
1459
146
1460
1461
1463
1464
1465
1466
1468
1469
147
1470
1471
1474
1475
1477
1478
148
1480
1481
1482
1483
1485
1486
149
1490
1492
1493
1494
1495
1496
1498
1499
15
150
1500
1501
1502
1503
1504
1505
1506
1507
1508
1509
151
1510
1512
1513
1514
1515
1516
1517
1519
152
1520
1521
1522
1523
1524
1525
1526
1527
1528
1529
153
1530
1531
1532
1533
1534
1535
1536
1537
1538
154
1540
1541
1542
1543
1545
1546
1547
1548
155
1550
1551
1552
1553
1555
1556
1557
1558
1559
156
1560
1561
1562
1563
1564
1565
1566
1567
1568
1569
157
1570
1571
1572
1573
1574
1575
1576
1577
1578
1579
158
1580
1584
1585
1587
1588
1589
159
1590
1591
1592
1593
1595
1596
1597
1598
1599
16
160
1600
1601
1602
1603
1604
1605
1606
1607
1608
1609
161
1610
1611
1612
1613
1614
1615
1616
1617
1618
1619
162
1620
1621
1622
1623
1624
1625
1626
1627
1628
1629
163
1630
1631
1632
1633
1635
1637
1638
1639
164
1640
1641
1642
1643
1644
1645
1646
1647
1648
1649
165
1650
1651
1652
1653
1654
1655
1656
1657
1658
1659
166
1660
1661
1662
1663
1664
1665
1666
1667
1668
1669
167
1670
1671
1672
1673
1674
1675
1676
1678
1679
168
1680
1681
1682
1683
1684
1685
1686
1687
1688
1689
169
1690
1691
1693
1694
1695
1696
1697
1698
1699
17
170
1700
1701
1702
1703
1704
1705
1706
1707
1708
1709
171
1710
1711
1712
1713
1714
1715
1716
1717
1718
1719
172
1720
1721
1722
1723
1724
1725
1726
1727
1728
1729
173
1730
1731
1732
1733
1734
1735
1736
1737
1738
1739
174
1740
1741
1742
1743
1744
1745
1746
1747
1748
1749
175
1750
1751
1752
1753
1754
1755
1756
1757
1758
1759
176
1760
1761
1762
1763
1764
1765
1766
1767
1768
1769
177
1770
1771
1772
1773
1774
1775
1776
1777
1778
1779
178
1780
1781
1782
1783
1784
1785
1786
1787
1788
1789
179
1790
1791
1792
1793
1794
1795
1796
1797
1798
1799
18
180
1800
1801
1802
1803
1804
1805
1806
1807
1808
1809
181
1810
1811
1812
1813
1814
1815
1816
1817
1818
1819
182
1820
1821
1822
1823
1824
1825
1826
1827
1828
1829
183
1830
1831
1832
1833
1834
1835
1836
1837
1838
1839
184
1840
1841
1842
1843
1844
1845
1846
1847
1848
1849
185
1850
1851
1852
1853
1854
1855
1856
1857
1858
1859
186
1860
1861
1862
1863
1864
1865
1866
1867
1868
1869
187
1870
1871
1872
1873
1874
1875
1876
1877
1878
1879
188
1880
1881
1882
1883
1884
1885
1886
1887
1888
1889
189
1890
1891
1892
1893
1894
1895
1896
1897
1898
1899
19
190
1900
1901
1902
1903
1904
1905
1906
1907
1908
1909
191
1910
1911
1912
1913
1914
1915
1916
1917
1918
1919
192
1920
1921
1922
1923
1924
1925
1926
1927
1928
1929
193
1930
1931
1932
1933
1934
1935
1936
1937
1938
1939
194
1940
1941
1942
1943
1944
1945
1946
1947
1948
1949
195
1950
1951
1952
1953
1954
1955
1956
1957
1958
1959
196
1960
1961
1962
1963
1964
1965
1966
1967
1968
1969
197
1970
1971
1972
1973
1974
1975
1976
1977
1978
1979
198
1980
1981
1982
1983
1984
1985
1986
1987
1988
1989
199
1990
1991
1992
1993
1994
1995
1996
1997
1998
1999
2
20
200
2000
2001
2002
2003
2004
2005
2006
2007
2008
2009
201
2010
2011
2012
2013
2014
2015
2016
2017
2018
2019
202
2020
2021
2022
2023
203
204
205
206
207
208
209
21
210
211
212
213
214
215
216
217
218
219
22
220
2200
221
222
223
224
225
226
227
228
229
23
230
2300
231
232
233
234
235
236
237
238
239
24
240
2400
241
242
243
244
245
246
247
248
249
25
250
2500
251
252
253
254
255
256
257
258
259
26
260
2600
261
262
263
264
265
266
267
268
269
27
270
271
272
273
274
275
276
277
278
279
28
280
281
282
283
284
285
286
287
288
289
29
290
291
292
293
294
295
296
297
298
299
3
30
300
3000
301
302
303
304
305
306
307
308
309
31
310
311
312
313
314
315
316
317
318
319
32
320
321
322
323
324
325
326
327
328
329
33
330
331
332
333
334
335
336
337
338
339
34
340
341
342
343
344
345
346
347
348
349
35
350
3500
351
352
353
354
355
356
357
358
359
36
360
361
362
363
364
365
366
367
368
369
37
370
371
372
373
374
375
376
377
378
379
38
380
381
382
383
384
385
386
387
388
389
39
390
391
392
393
394
395
396
397
398
399
4
40
400
4000
401
402
403
404
405
406
407
408
409
41
410
411
412
413
414
415
416
417
418
419
42
420
421
422
423
424
425
426
427
428
429
43
430
431
432
433
434
435
436
437
438
439
44
440
441
442
443
445
447
448
449
45
450
4500
451
452
453
454
455
456
457
458
4589
459
46
460
461
462
464
465
466
467
47
470
471
472
473
474
475
476
478
479
48
480
481
482
483
484
485
486
489
49
490
491
492
493
494
495
496
497
498
499
5
50
500
5000
501
502
503
505
506
507
509
51
510
511
512
513
515
517
518
52
520
521
522
523
524
525
526
527
529
53
530
532
533
534
535
536
538
539
54
540
55
550
5500
551
555
556
56
560
565
568
57
570
575
576
58
580
581
585
587
589
59
590
597
6
60
600
6000
601
602
604
605
61
610
612
618
62
620
625
626
627
63
630
631
639
64
640
641
642
645
65
650
6500
66
660
661
666
667
67
670
675
68
680
69
690
7
70
700
7000
705
707
71
710
711
717
72
720
727
73
730
737
74
740
747
75
750
757
76
760
767
77
770
777
78
780
787
79
796
8
80
800
8000
802
81
810
815
82
820
83
830
84
840
85
850
86
860
87
870
879
88
880
89
890
9
90
900
9000
91
910
911
92
925
93
94
95
950
953
96
960
97
970
978
98
980
99
997
999
:
;
<
=
>
?
@
\
^
_
`
a
aa
aaron
aarona
ab
aba
abac
abata
abba
abbey
abbott
abc
abd
abdul
abdullah
abe
abeceda
abecede
abecedi
abecedni
abel
aberacija
abih
aboridz
about
above
abraham
abrahama
abrahamu
abramovic
abrams
abraxas
abs
abu
abutilon
ac
aca
acacia
acade
academia
academic
academy
acalypha
acantholimon
access
accessed
account
ace
acer
achillea
aci
acianthera
acid
acima
aconitum
act
acta
action
ad
ada
adalbert
adam
adama
adamic
adams
adans
adaptacija
adaptacije
adaptaciji
adaptaciju
adaptirani
ade
adele
aden
adha
adi
adiantum
adima
adin
adis
adler
administracija
administracije
administraciju
administration
administrativna
administrativne
administrativni
administrativnih
administrativno
administrator
admiral
admirala
adolf
adolfa
adresa
adrese
adresi
adresu
adria
adrian
adriana
adriatic
adski
adskog
adu
advance
advanced
adventure
adventures
adz
ae
aechmea
aek
aero
aerodinamic
aerodrom
aerodroma
aerodromu
aerosmith
aerospace
af
afc
afera
afere
aferu
affairs
afganistan
afganistana
afganistanu
afl
afric
africa
african
africi
afrika
afrike
afriku
afroameric
afroamerikanci
afrodita
after
ag
aga
again
against
agardh
agathe
agave
age
agenata
agencija
agencije
agenciji
agenciju
agency
agent
agenta
agenti
agentica
ageratina
ages
agic
agm
agnes
agostino
agresija
agresije
agresiji
agresiju
agresora
agrostis
aguilera
ah
aha
ahemenidsko
ahist
ahisti
ahl
ahmad
ahmadinez
ahmed
ahovska
ahovske
ahovski
ahu
ahura
ai
aid
aida
aids
aikida
aikido
aim
ain
air
airbus
aircraft
aires
airesu
airlines
airplay
airport
airways
airy
ais
aise
aiton
aj
aja
ajan
ajax
ajaxa
ajde
aje
ajem
ajen
ajena
ajene
ajeni
ajenih
ajenim
ajeno
ajenog
ajenom
ajeva
ajeve
ajevi
ajevima
aji
ajima
ajka
ajkama
ajke
ajki
ajkovski
ajna
ajne
ajni
ajnic
ajnih
ajnija
ajnije
ajniji
ajnijih
ajnijim
ajniju
ajnim
ajno
ajnog
ajnom
ajnost
ajnosti
ajnu
ajte
aju
ajuc
ak
aka
akademici
akademija
akademije
akademiji
akademiju
akademik
akademika
akademska
akademske
akademski
akademskih
akademsko
akademskog
akanje
akata
akavski
akavsko
akavskog
akcija
akcijama
akcije
akciji
akcijom
akcijske
akcijski
akciju
ake
aki
akinja
ako
akom
akovca
akovcu
akovec
akronim
aks
akt
akta
akte
akti
aktivan
aktivira
aktivirao
aktivist
aktivista
aktivisti
aktivistica
aktivizam
aktivna
aktivne
aktivni
aktivnih
aktivnim
aktivno
aktivnog
aktivnom
aktivnos
aktivnost
aktivnosti
aktivnostima
aktivnu
aktom
aktualna
aktualne
aktualni
aktualnim
aku
akumulatora
akustic
akutna
akutni
al
ala
alabama
alabami
alah
alain
alan
alana
alapic
alat
alata
alate
alati
alatima
alatni
alb
alba
albanaca
albanci
albanija
albanije
albaniji
albaniju
albanska
albanske
albanski
albanskih
albanskog
albanskom
albe
albert
alberta
alberti
alberto
albrecht
albu
album
albuma
albume
albumi
albumima
albumom
albums
albumu
albus
alchemilla
alderw
aldo
ale
alec
alejandro
aleksa
aleksandar
aleksander
aleksandr
aleksandra
aleksandrija
aleksandrije
aleksandriji
aleksandrijski
aleksandrom
aleksandru
aleksej
aleksic
aleksije
alen
ales
alessandro
alex
alexa
alexander
alexandera
alexandra
alexandre
alexis
alfa
alfabet
alfons
alfonsa
alfonso
alfred
alfreda
alfredo
alga
algaebase
alge
algi
algonquian
algoritam
algoritma
ali
alias
aliases
alic
alica
alice
alicia
alien
align
alija
alije
alim
alio
alisa
alison
aliti
alive
alj
aljaska
aljaske
alje
aljka
aljmas
aljos
alju
alka
alkemic
alkohol
alkohola
alkoholic
alkoholna
alkoholom
alkoholu
all
alla
allah
allan
allegro
allen
alliance
allison
allium
allmusic
allophylus
alma
almanah
almeida
alo
aloe
alojz
alojzija
alojzije
alom
alone
alonsa
alonso
alos
alosne
alost
alosti
alpa
alpama
alpe
alpha
alpina
alpinia
alpinum
alpska
alpski
alpskom
als
also
alsophila
alt
alta
alter
alternativa
alternative
alternativna
alternativne
alternativni
alternativno
alternativnog
alto
alu
aludira
aluminij
aluminija
aluzija
always
alz
am
ama
amac
amaca
amadeus
aman
amanda
amandman
amandmana
amar
amater
amatera
amaterska
amaterski
amauropelta
amazon
amazonas
amazone
ambalaz
ambicije
ambroz
amca
amcima
amcu
ame
amen
americ
america
american
americana
americi
amerika
amerikanac
amerikanaca
amerikanci
amerike
ameriku
ames
amfiteatar
ami
amiga
amija
amije
amiju
amino
aminokiselina
aminokiseline
amir
amnesty
amo
amon
among
amonijak
amonijaka
amor
amore
amorphophallus
amos
amour
amplituda
amplitude
ams
amsterdam
amsterdamu
amun
amx
amy
an
ana
anac
anali
analitic
analiza
analize
analizi
analizira
analizom
analizu
analogni
analogno
analysis
anamnezi
anarhistic
anatoliji
anatomija
anatomije
anc
anci
ancient
and
anda
anders
andersen
anderson
andersson
andor
andora
andre
andrea
andreas
andrej
andreja
andrew
andrews
andric
andrija
andrijas
andrije
andriji
andriju
andro
android
andromeda
andronik
andy
ane
aneksije
anemija
ang
angaz
angel
angela
angeles
angelesa
angelesu
angelica
angelina
angelo
angels
angie
anglo
angola
angole
angustifolia
ani
anic
anica
anice
anici
anicu
anih
anik
anika
anim
anima
animacija
animacije
animal
animals
animation
animator
anime
animea
animirana
animirane
animirani
animiranih
animiranog
animiranoj
anin
anina
anita
anj
anja
anje
anjem
anjima
anju
anka
anke
ankete
anketi
ann
anna
annales
anne
annie
anno
annual
ano
anoda
anode
anog
anoga
anoj
anom
anopheles
anorganskih
anost
anosti
another
anovic
anr
anra
anrova
anrovi
anrovima
anru
ans
ansa
ansambl
ansambla
anse
anska
anske
anski
anskih
anskim
ansko
anskog
anskoga
anskoj
anskom
ansku
ansone
anstava
anstva
anstvena
anstveni
anstvima
anstvo
anstvom
anstvu
ansu
ant
antante
antarktic
ante
antena
antene
anthology
anthony
anthurium
anti
antibiotika
antic
antici
antifas
antika
antike
antikomunistic
antila
antin
antioh
antiohije
antitijela
anto
antoine
antolic
antologija
antologije
antologiji
antologiju
antom
anton
antona
antoni
antonia
antonija
antonije
antonio
antropolog
antropologija
antropolos
antu
antun
antuna
antunovac
antunovic
antunu
antwerpen
anu
any
anz
anđela
anđele
anđeli
anđelima
anđelko
anđeo
ao
ap
apa
apac
apache
aparat
aparata
aparati
apc
apd
ape
apel
aphelandra
aplikacija
aplikacije
apljina
apljini
apne
apnu
apogeju
apollo
apolon
apolona
apostol
apostola
apostoli
apostolska
apostolske
apostolski
apostolskim
apostolskog
app
apple
approach
april
aprile
apsida
apside
apsidom
apsolutizma
apsolutna
apsolutne
apsolutni
apsolutno
apsolutnu
apsorbira
apsorbiraju
apsorpcija
apsorpcije
apstraktne
apstraktni
aq
aquarius
ar
ara
arabija
arabije
arabiji
arac
arago
aragona
aragonije
aragonski
aragorn
aram
arama
aran
arana
arani
aranje
aranz
arao
arap
arapa
arape
arapi
arapovic
arapska
arapske
arapski
arapskih
arapskim
arapsko
arapskog
arapskom
aras
aravajuc
arawakan
arbih
arbitraz
arboretum
arc
arch
archaeological
archaeology
archer
archigymnasii
architecture
archive
archives
arci
are
area
arem
arena
arenaria
arenas
arene
arengrad
areni
arenice
arenja
arenje
arenu
arevic
arg
argentina
argentine
argentini
argentinska
argentinske
argentinski
argentinu
argon
argumenata
argument
argumente
argumenti
argumentum
arh
arhaic
arheolog
arheologa
arheologija
arheologije
arheologiju
arheolos
arheolozi
arhitekata
arhitekt
arhitekta
arhitekti
arhitektonska
arhitektonske
arhitektonski
arhitektonskih
arhitektonsko
arhitektonskog
arhitektonskom
arhitektura
arhitekture
arhitekturi
arhitekturom
arhitekturu
arhiv
arhiva
arhive
arhivi
arhivima
arhivirano
arhivski
arhivu
arhiđakon
ari
aria
aric
arica
ariel
arija
arije
arima
aris
arisaema
aristofan
aristokracije
aristolochia
aristotel
aritmetic
arizona
arizoni
arka
arkansas
arkas
arke
arki
arko
arkom
arktic
arku
arm
armenaca
armenci
armenija
armenije
armeniji
armeniju
armenska
armenske
armenski
armenskog
armija
armije
armiji
armijom
armiju
arms
armstrong
army
arn
arna
arne
arnica
arnold
arobna
arobni
arobnica
arobnjac
arobnjaci
arobnjak
arobnjaka
arolija
arolije
arom
aromatic
aron
around
arpadovic
ars
arsen
arsena
arsenal
arsenala
arsenalu
arska
arske
arski
arskih
arskim
arsko
arskog
arskoj
arskom
arsku
arstva
arstvo
arstvom
arstvu
art
arta
artakserksa
artakserkso
arte
artemisia
arteria
arterija
arterije
arthur
arthura
article
articles
artist
artists
arts
artur
aru
arulja
arulje
arvensis
arz
arđi
as
asa
asak
asclepias
ash
asha
ashley
asi
asia
asian
asija
asimetric
asirci
asirije
asirski
asis
asistencija
asistencije
asistenciju
asistent
asistenta
asistirao
ask
asna
asne
asni
asnic
asnici
asnicima
asnih
asnik
asnika
asnike
asnim
asno
asnog
asnom
asnu
asocijacija
asocijacije
asopis
asopisa
asopise
asopisi
asopisima
asopisu
asp
asparagus
aspekata
aspekt
aspekta
aspekte
aspekti
aspektima
asplenium
aspx
associated
association
ast
asta
aste
astec
aster
asteroid
asteroida
asteroidi
asti
astih
astim
astme
asto
astog
astom
aston
astragalus
astronaut
astronauta
astronauti
astronom
astronoma
astronomi
astronomija
astronomije
astronomiji
astronomiju
astronomska
astronomske
astronomski
astronomskih
astronomy
astu
asu
at
ata
atari
ate
ateisti
ateizam
atelj
atelja
atelje
atelji
atena
atene
ateni
atenjani
atenski
atentat
atentata
atentatu
atenu
athapaskan
athletic
athyrium
ati
atic
atlanta
atlanti
atlantic
atlantika
atlantiku
atlantski
atlantskog
atlantskom
atlas
atlasa
atle
atletic
atletici
atletika
atletski
atmosfera
atmosfere
atmosferi
atmosferske
atmosferski
atmosferskog
atmosferu
atol
atom
atoma
atome
atomi
atomima
atomska
atomske
atomski
atomskih
atomskim
atomskog
atomskoj
atomsku
atomu
ator
atora
atoru
atp
atque
atrakcija
atrakcije
atribut
atributa
atributi
atta
attack
atu
au
aubl
audi
audicije
audiciji
audiciju
audio
audrey
auf
aug
august
augusta
auguste
augustin
augustina
auke
aurora
aus
auschwitz
ausf
austin
australia
australian
australija
australije
australiji
australiju
australis
australopithecus
australska
australske
australski
australskih
australskog
australskom
austria
austrija
austrijanci
austrije
austriji
austrijom
austrijska
austrijske
austrijski
austrijskih
austrijskim
austrijsko
austrijskog
austrijskoj
austrijskom
austrijsku
austriju
austro
austronezijski
austrougarska
austrougarske
austrougarski
aut
auta
autentic
author
authority
authors
auto
autobiografija
autobus
autobusa
autobusi
autocesta
autoceste
autohtona
autohtone
autohtoni
autohtonih
automat
automata
automatska
automatske
automatski
automatskim
automatsko
automatskog
automobil
automobila
automobile
automobili
automobilima
automobilistic
automobilizam
automobilom
automobilska
automobilske
automobilu
autonomas
autonomija
autonomije
autonomiju
autonomna
autonomne
autonomni
autonomnih
autonomnoj
autoportret
autor
autora
autore
autori
autorica
autorice
autorima
autoritet
autoriteta
autorska
autorske
autorski
autorskih
autorskim
autorsko
autorstvo
autoru
aux
av
ava
avaju
avajuc
avala
avalanche
avale
avali
avalo
avam
avama
avamo
avan
avana
avane
avani
avanja
avanje
avanjem
avanju
avantura
avanture
avanturistic
avao
avara
avari
avas
avatelj
avatelja
avatelje
avatelji
avateljima
avati
ave
avenija
avenue
aves
avi
aviation
avina
avine
avinom
avinu
avio
avion
aviona
avione
avioni
avionima
avionom
avionu
aviv
avljana
avljani
avljanima
avljanin
avljanstva
avljanstvo
avljanstvu
avna
avne
avni
avnih
avnik
avnim
avno
avnog
avnoga
avnoj
avnom
avnosti
avnu
avo
avom
avril
avs
avskog
avu
aw
award
awards
away
ax
axel
ay
az
azerbajdz
azerski
azija
azije
aziji
azijska
azijske
azijski
azijskih
azijskim
azijskog
azijskom
aziju
azil
azo
b
ba
baba
babe
babel
babic
babilon
babilona
babilonije
babilonski
babilonu
babina
babonic
baby
bac
baca
bacac
bacaju
bacali
bacanja
bacanje
bacanju
baccalieri
bach
baci
bacila
bacili
bacio
baciti
back
background
bacon
bad
baden
badnjak
badric
bafta
bag
bahia
bahrein
bahreina
bailey
baill
baja
bajic
bajka
bajke
baka
bakar
bakaric
bake
baker
bakic
baklje
bakovic
bakra
bakru
bakterija
bakterije
baku
bakuu
bal
bala
balada
balade
balas
baldwin
bale
balet
baleta
bali
balic
balistic
balkan
balkana
balkans
balkanske
balkanski
balkanskih
balkanskim
balkanskog
balkanskom
balkanu
balkon
balkona
ball
balon
balona
bals
baltazar
baltic
baltimore
bama
bambusa
ban
bana
banaka
banana
banane
banat
banata
banatu
banci
band
banda
bande
bandi
bandic
bandu
bane
bang
banglades
bani
bania
banic
banica
banja
banjaluc
banje
banjoj
banjoluc
banju
bank
banka
bankama
bankar
banke
banks
banku
banom
banova
banovac
banovci
banovi
banovic
banovina
banovine
banovini
banovinu
banska
banske
banski
banskoj
bansku
bantu
banu
bao
bapska
baptiste
baqarah
bar
bara
barac
barakovic
baranja
baranje
baranji
baranjska
baranjske
baranjski
baranjskoj
baranjsku
baranju
barb
barbados
barbara
barbare
barbaric
barbarossa
barbie
barbus
barc
barcelona
barcelone
barceloni
barcelonu
bare
barem
bari
baric
barijera
barijere
barijeru
baris
bariton
barjak
barker
barneby
barnes
barney
barok
baroka
barokna
barokne
barokni
baroknih
baroknog
baroknom
baron
barrett
barry
bars
bartol
barton
baru
barun
baruna
barunica
barunice
barut
baruta
bas
basa
basananthe
base
baseball
based
basel
baselu
basic
basie
basist
basista
basket
basketball
baski
baskiji
baskijske
baskijski
baskijskog
baskijskom
bass
bat
bata
bataljon
bataljona
bataljun
bataljuna
baterija
baterije
bates
bati
batina
batman
batmana
batoric
battista
battle
batus
bauer
bauhaus
bavarska
bavarske
bavarski
bavarskog
bavarskoj
bave
bavi
bavila
bavili
bavilo
bavio
baviti
bavljenje
bay
baya
bayer
bayern
bayerna
baz
baza
bazama
baze
bazen
bazena
bazeni
bazenima
bazenu
bazi
bazic
bazilici
bazilije
bazilika
bazilike
baziliku
bazira
baziran
bazirana
bazom
bazu
bazzania
bb
bbc
bc
bd
bdm
bdp
bdsm
be
beach
bean
bear
bears
beast
beat
beatles
beatlesa
beatrice
beautiful
beauty
beauv
beaver
beba
bebe
bebic
bec
because
becc
beck
becker
bedekovc
bedekovic
bedem
bedema
bee
been
beer
beethoven
before
beg
bega
begic
begin
begonia
begova
begovic
behind
bei
being
bejzbol
bek
beka
beketinci
bel
bela
belan
bele
beletristika
belgija
belgije
belgiji
belgijska
belgijske
belgijski
belgijskog
belgiju
beli
believe
belis
belize
belje
bell
bella
bellatrix
belle
belo
belom
below
beludz
belupa
belupo
ben
bena
benc
bend
benda
bender
bene
benedict
benedikt
benedikta
benediktinci
benediktinski
benes
benfica
beni
benic
benica
benici
benicima
benih
benik
benika
benike
benim
benin
benito
benjamin
benjamina
benkovac
benkovca
bennett
benny
beno
benog
benoist
benoj
benom
benson
benth
bentley
benu
benz
benzin
benzina
benzinski
beograd
beograda
beogradska
beogradske
beogradski
beogradskog
beogradskoj
beogradskom
beogradu
ber
berberis
berenikinoj
berg
berger
bergman
berislav
berislavic
berkeley
berlin
berlina
berlinski
berlinskog
berlinskom
berlinu
bern
bernard
bernarda
bernardin
bernardina
bernardo
bernhard
berry
bert
bertrand
bes
beskonac
beskrajno
beskraljez
beskuc
besplatan
besplatna
besplatne
besplatni
besplatno
bespomoc
best
bet
beta
beth
betlehem
beton
betona
better
betty
betula
between
beverly
beyonce
beyond
bez
bezboz
bezbriz
bezbroj
bezdan
bezgres
bezgrjes
beznac
bezokvira
bezuspjes
bezvuc
bf
bg
bh
bi
bible
biblija
biblije
bibliji
biblijska
biblijske
biblijski
biblijskih
bibliju
bibliografija
biblioteci
biblioteka
biblioteke
bic
bici
bicikl
biciklist
biciklistic
biciklizam
bicolor
bidens
bieb
big
bih
bihac
bihi
bijac
bijah
bijahu
bijas
bijasmo
bije
bijeg
bijega
bijegu
bijel
bijela
bijelaca
bijelci
bijele
bijeli
bijelih
bijelim
bijeljina
bijelo
bijelog
bijeloga
bijeloj
bijelom
bijelu
bijes
bijesa
bijesan
bijesni
bijesno
bik
bika
bikini
bikova
bil
bila
bilandz
bilbao
bile
bilec
bili
bilic
bilja
biljaka
bilje
biljes
biljesku
biljez
biljka
biljkama
biljke
biljku
biljna
biljne
biljni
biljnih
biljnim
biljnog
biljoz
bill
billa
billboard
billboardove
billie
billy
bilo
bilogorska
bilogorske
bilogorskoj
bilten
bima
bin
bina
bine
bing
bio
biogoriva
biograd
biogradu
biografija
biografije
biografiju
biografski
biography
biokemic
biokovo
biolog
biologija
biologije
biologiji
biologiju
biology
biolos
biolozi
biomasa
biomase
biosfere
bip
bir
bira
birac
biraju
birali
biran
birani
birao
birati
bird
birds
birmingham
birth
bis
biser
bisera
biseri
biserka
bishop
biskup
biskupa
biskupe
biskupi
biskupija
biskupije
biskupiji
biskupiju
biskupima
biskupom
biskupska
biskupske
biskupski
biskupu
bismarck
bismo
bisnode
bista
biste
bistra
bistrica
bistrici
bit
bita
bitak
bitaka
bitan
bitange
bitci
biti
bitka
bitkama
bitke
bitki
bitkom
bitku
bitna
bitne
bitni
bitnih
bitnim
bitno
bitnu
biva
bivaju
bivs
biz
bizant
bizanta
bizantom
bizantska
bizantske
bizantski
bizantskih
bizantskim
bizantsko
bizantskog
bizantskom
bizantu
bizovac
bjelanc
bjelokosti
bjelorusija
bjelorusije
bjelorusiji
bjeloruska
bjeloruski
bjelovar
bjelovara
bjelovarski
bjelovarsko
bjelovaru
bjes
bjez
bjo
bk
bl
bla
black
blackburn
blackmore
blackwell
blade
blag
blaga
blagajnama
blagajnik
blagdan
blagdana
blagdane
blagdani
blage
blagi
blagim
blago
blagom
blagoslov
blagoslova
blagoslovi
blagoslovio
blagoslovljen
blagoslovljena
blagostanja
blagostanje
blair
blake
blanc
blanca
blanco
blanka
blas
blast
blata
blato
blatu
blaz
bleeker
bleiburs
blek
blijed
blijeda
blijedo
blind
blink
bliska
bliske
bliski
bliskih
bliskim
blisko
bliskog
bliskoistoc
bliskoj
bliskom
blisku
bliz
blizak
blizanac
blizanaca
blizanci
blizina
blizine
blizini
blizinu
blizu
bljes
bljesak
bloch
block
blog
blogspot
blok
bloka
blokada
blokade
blokadu
blokira
blokova
blokovi
bloku
blood
bloody
bloom
blu
blue
blues
bluesa
blume
bm
bmp
bmw
bo
boa
board
bob
boba
boban
bobby
bobic
bobo
bobota
bobovac
bobu
boc
boca
boce
bochum
bocu
bod
boda
bodez
bodlje
bodom
bodova
bodove
bodovi
body
boeing
bog
boga
bogart
bogat
bogata
bogatas
bogate
bogati
bogatih
bogatiji
bogatim
bogato
bogatog
bogatoj
bogatom
bogatstva
bogatstvo
bogatstvom
bogatstvu
bogatu
bogdan
bogdana
bogdanovci
bogdanovic
boginja
boginje
bogme
bogom
bogorodica
bogorodice
bogos
bogoslovnom
bogoslovska
bogosluz
bogova
bogove
bogovi
bogovic
bogovima
bogu
bogzna
boiss
boj
boja
bojala
bojali
bojama
bojan
bojana
bojanje
bojao
bojati
boje
bojec
bojenje
boji
bojila
bojilo
bojim
bojis
bojna
bojne
bojni
bojnih
bojnik
bojnika
bojnim
bojnog
bojnom
bojnu
bojom
bojte
boju
bok
boka
boke
boki
bokovima
boks
boksac
boksu
boku
bol
bola
bolan
bold
boles
bolesna
bolesne
bolesnici
bolesnik
bolesnika
bolesnike
bolest
bolestan
bolesti
bolestima
boleyn
boli
bolic
bolid
bolida
bolidu
bolivija
bolivije
boliviji
bolja
bolje
boljeg
boljem
boljezni
bolji
boljih
boljim
boljs
bolju
bolle
bolnic
bolnica
bolnicama
bolnice
bolnici
bolnicu
bolno
bologna
bologne
bologni
bolova
bolt
bolton
boluje
bolus
bom
bomba
bombama
bombarder
bombardera
bombarderi
bombardiranja
bombardiranje
bombardiranju
bombas
bombe
bombi
bombu
bon
bona
bonac
bonaparte
bonaventura
bond
bonda
bondu
bone
bones
bonn
bonnie
bono
bonpl
bonus
boogie
book
books
boom
boone
bor
bora
borac
boraca
boravak
borave
boravi
boravila
boravili
boravio
boravis
boraviti
boravka
borba
borbama
borbe
borbena
borbene
borbeni
borbenih
borbenim
borbeno
borbenog
borbenu
borbi
borbom
borbu
borc
borca
borci
borcima
bordeaux
border
bore
borec
borhidi
bori
boric
borila
borilac
borile
borili
borinci
borio
boris
borisa
borislav
boriti
born
borna
bornm
boro
boros
borova
borovo
borussia
bos
bosanc
bosanska
bosanske
bosanski
bosanskih
bosanskim
bosansko
bosanskog
bosanskoga
bosanskohercegovac
bosanskoj
bosanskom
bosansku
bosch
bosco
bosna
bosne
bosni
bosnia
bosnom
bosnu
boss
boston
bostona
bostonu
bot
botanic
bottas
bottasa
bottom
boulenger
bourbon
bovao
bow
bowie
bowl
bowla
bowling
box
boy
boyce
boys
boz
bozanic
bp
br
bra
brac
brad
brada
brade
bradley
bradu
braga
brain
brajkovic
brak
braka
brakova
brakove
brakovi
braku
bralic
bram
brana
brand
brandegee
brandenburg
brando
brandon
brandt
brane
branec
brani
branic
branila
branili
branimir
branimira
branio
branislav
branitelj
branitelja
branitelje
branitelji
braniteljima
braniti
branka
branko
brankovic
branu
bras
brasil
brat
brata
brate
bratic
bratislava
bratislave
bratislavi
bratom
bratovs
bratstva
bratstvo
bratu
bratulic
braun
brave
bravo
brazil
brazila
brazilska
brazilske
brazilski
brazilskih
brazilskog
brazilskoj
brazilu
brc
brda
brdima
brdo
brdski
brdu
break
breg
bregovic
brekalo
bremek
bremen
brendan
brenner
bres
brest
brestovac
brett
brez
breza
brezik
brezje
breznica
brezovica
brian
briana
bridge
brief
brien
briga
brigada
brigade
brigadi
brigadir
brigadom
brigadu
brige
briggs
bright
brigu
brijac
brijeg
brijega
brijegu
brijest
brine
bring
brinu
brinula
brinuo
brinuti
bris
brisanje
bristol
brit
britain
britanac
britanaca
britanci
britancima
britanija
britanije
britaniji
britanijom
britaniju
britannica
britanska
britanske
britanski
britanskih
britanskim
britansko
britanskog
britanskoj
britanskom
britansku
british
britney
britton
briz
brizi
brkati
brkic
brlic
brno
broadway
broc
brock
brod
broda
brodogradilis
brodogradnja
brodogradnje
brodoloma
brodom
brodova
brodove
brodovi
brodovima
brodovlje
brodske
brodski
brodskih
brodsko
brodskog
brodu
broj
broja
brojac
brojc
broje
brojem
brojeva
brojeve
brojevi
brojevima
broji
brojila
brojka
brojke
brojku
brojna
brojne
brojni
brojnih
brojnim
brojno
brojnost
brojnosti
broju
broken
bromus
bronc
bronca
bronce
bronci
broncu
bronze
brooklyn
brooks
bros
broth
brother
brothers
brown
browna
browne
browser
broz
broza
brozovic
brs
brtve
brtvljenje
bru
bruce
brucea
brullo
bruna
bruno
brunswick
brus
brutalno
bruto
bruxelles
bruxellesa
bruxellesu
bryan
bryant
brz
brza
brze
brzi
brzih
brzim
brzina
brzinama
brzine
brzini
brzinom
brzinu
brzo
brzog
brzom
brzu
bs
bsk
bu
buba
bubanj
bubnja
bubnjar
bubnjara
bubnjeva
bubnjeve
bubnjevi
bubnjevima
bubrega
bubrez
buc
buch
buck
buckley
buconjic
bud
buda
budak
budapest
buddy
bude
budem
budemo
budes
budete
budi
budim
budimir
budimpes
budimu
budis
budisavljevic
budistic
budite
budizam
budizma
budu
buduc
budva
budz
buena
buenos
buffalo
bug
bugara
bugari
bugarska
bugarske
bugarski
bugarskih
bugarsko
bugarskog
bugarskoj
bugarskom
bugarsku
bugojna
bugojno
bugojnu
building
buka
buke
bukovac
bukovica
buku
bukures
bukva
bukve
bulbophyllum
bulic
buljan
bull
bulletin
bullsa
bullsi
bulom
bun
buna
bunar
bunara
bundesliga
bundesligas
bundeslige
bundesligi
bune
bunge
buni
bunic
bunjevac
bunjevaca
bunjevci
bunker
bunu
buovac
bupleurum
bura
bure
bureau
burgundije
buric
burke
burkina
burma
burn
burning
burns
burret
burton
burtt
burz
burza
burze
burzi
bus
bush
busha
business
busovac
buster
but
butch
butler
butterfly
buz
buzet
buđenja
buđenje
by
bye
byng
byrne
byron
c
ca
cabrera
cafe
cage
cagney
cak
calamagrostis
calamus
calanthe
calceolaria
calcio
caldero
calendar
california
call
called
calvin
cambridge
cambridgeu
came
cameo
cameron
camille
camp
campaign
campanula
campbell
campeonato
campo
campos
camus
can
cana
canada
canadian
canal
cancer
candy
canis
cannesu
cantrell
canyon
cao
cap
cape
capital
capitol
captain
car
cara
caravaggio
card
care
carem
carev
careva
careve
carevi
carevic
carex
carey
cargo
carica
carice
carigrad
carigrada
carigradski
carigradu
carina
carine
caritas
carl
carla
carlo
carlos
carlosa
carlu
carmela
carmen
carnegie
carol
carolina
caroline
carolyn
carpenter
carr
carrie
carrier
carroll
cars
carska
carske
carski
carskih
carskim
carsko
carskog
carskoj
carskom
carsku
carson
carstva
carstvo
carstvom
carstvu
carter
cartier
caru
casa
case
casey
cash
casha
casino
cass
cassini
castillo
casting
castle
castro
castrum
cat
catalog
catalogue
category
cathedral
catherine
catholic
cav
cave
cavtat
cazin
cb
cbf
cbs
cc
cca
cctld
cd
cdot
cdu
ce
cecil
cedar
cedevita
ceha
celebration
celes
celestin
celje
cell
celtic
celticsa
celticsi
celuloza
celuloze
cem
cement
cementa
cementita
census
centar
centara
centaura
centaurea
center
centimetara
centimetra
centra
central
centrale
centralistic
centralna
centralne
centralni
centralnih
centralno
centralnog
centralnoj
centralnom
centre
centri
centrifugalne
centrima
centro
centrom
centru
century
cenzure
ceremonija
ceremonije
ceremoniji
ceres
ceric
cerna
cerro
certifikacije
certifikaciju
certifikat
cesar
cesare
cesarec
cesta
cestama
ceste
cesti
cestom
cestovna
cestovne
cestovni
cestovnom
cestu
cetina
cetine
cetingrad
cetinic
cetinje
cetinju
cetinski
cezar
cezara
cf
cff
cg
cgi
ch
cha
chad
challenge
challenger
cham
chamaecrista
chamber
chamberlain
chambers
champion
champions
championship
championships
chan
chance
chandler
chang
change
channel
chao
chaos
chaplin
chapman
chapter
chara
charles
charlesa
charlie
charlieja
charlotte
charlton
chart
chase
che
checklist
chelsea
chelseaja
chemical
chemistry
chen
cheng
chenopodium
cher
cherokee
chess
chester
cheyenne
chi
chicaga
chicago
chicagu
chico
chief
child
children
chile
chin
china
chinese
ching
chinook
chippewa
chlamydomonas
chlorophytum
cho
chodat
choice
chr
chris
chrisa
christ
christenh
christi
christian
christiana
christianity
christie
christina
christine
christmas
christoph
christopher
christophera
chronicle
chronicles
chu
chuck
chun
church
churchill
ci
cia
cibona
cibone
cic
ciceron
cid
cigareta
cigarete
cigle
cijela
cijele
cijeli
cijelih
cijelim
cijelo
cijelog
cijeloga
cijeloj
cijelom
cijelosti
cijelu
cijena
cijenama
cijene
cijeni
cijenio
cijenjen
cijenjena
cijenjeni
cijenu
cijev
cijevi
cijevima
cik
ciklic
ciklona
ciklone
ciklus
ciklusa
ciklusu
cilindar
cilindara
cilindra
cilindric
cilindru
cilj
cilja
ciljem
ciljeva
ciljeve
ciljevi
ciljevima
cilju
cima
cincinnati
cinema
cinic
cink
cinka
cinkov
cinnamomum
cio
cipar
cipela
cipele
cipra
cipru
circ
circle
circus
cirkus
cirsium
cista
cisterna
cisterne
cit
citat
citata
citati
cities
citira
citirano
citta
city
cityja
cityju
ciudad
civil
civila
civile
civili
civilima
civilizacija
civilizacije
civilizaciju
civilization
civilna
civilne
civilni
civilnih
civilnim
civilno
civilnog
civilnom
civilnu
cj
cjelina
cjeline
cjelini
cjelinu
cjelokupna
cjelokupne
cjelokupni
cjelokupno
cjelokupnog
cjelokupnu
cjelovitost
cjelovitosti
cjepiva
cjepivo
cjevc
cjevovod
cjevovoda
ck
cl
clade
clair
claire
clanak
clanci
clara
clarence
clark
clarka
clarke
clarkson
clash
class
classic
classical
classics
claude
claudia
claudio
clay
clayton
cle
clematis
clement
cleome
cleveland
cliff
climate
clinopodium
clinton
clio
clooney
close
cloud
club
clube
clusia
clyde
cm
cms
cn
cnc
cnn
co
coa
coahuiltecan
coast
cobain
coca
code
codex
coelorinchus
coen
cogn
cohen
col
cola
colchicum
cold
cole
coli
colin
collection
college
collins
colonia
color
colorado
colors
colts
columbia
columbus
columnea
com
comb
combat
combretum
come
comes
comic
comics
coming
command
commission
committee
commodore
common
commons
commonwealtha
communis
community
como
companion
company
complete
complex
compton
computer
comte
comune
con
conan
concept
concert
concorde
concordia
conference
conflict
congress
connecticut
connie
connor
conrad
conservation
constance
construction
conte
contemporary
content
continental
contra
control
conus
convolvulus
cook
cool
cooper
copa
cope
copel
coppa
cordia
core
cornelius
cornell
corner
corona
corporation
corpus
corrosion
corte
cos
cosparova
coss
cost
costa
cotoneaster
could
council
count
country
county
coupe
course
court
courtney
cov
cover
coverdale
covid
cowan
cowboys
cox
cp
cr
craig
crane
crash
crassula
craven
crawford
crazy
cream
creation
cree
creek
creeka
creeku
crepis
cres
cresa
cresu
cret
cretaceous
crijeva
crijevo
crikvenica
crikvenici
crime
criminal
crisis
cristiano
cristo
critical
crkava
crkva
crkvama
crkve
crkvena
crkvene
crkveni
crkvenih
crkvenim
crkveno
crkvenog
crkvenoj
crkvenom
crkvenu
crkvi
crkvica
crkvice
crkvom
crkvu
crn
crna
crnac
crnaca
crnc
crnci
crne
crni
crnih
crnim
crnkovic
crno
crnog
crnoga
crnogoraca
crnogorci
crnogoric
crnogorska
crnogorske
crnogorski
crnogorskih
crnogorsko
crnogorskog
crnogorskoj
crnogorskom
crnoj
crnojevic
crnom
crnu
cro
croat
croata
croatia
croatiae
croatian
croatica
croatie
crocus
crofutsal
crosby
cross
croton
crow
crowley
crown
crpke
crta
crtac
crtama
crtani
crtanja
crtanje
crte
crtez
crti
crtic
crtice
crtu
cruise
cruz
crv
crva
crven
crvena
crvene
crveni
crvenih
crvenilo
crvenim
crveno
crvenog
crvenoj
crvenom
crvenu
crvotoc
cry
crystal
cs
csa
csi
cska
css
ct
cu
cuatrec
cullen
cultural
culture
culturenet
cum
cunn
cup
cupa
cuphea
cura
cure
curie
current
curry
curtis
cuscuta
cut
cv
cvate
cvetkovic
cvf
cvijec
cvijet
cvijeta
cvit
cvitanovic
cvjeta
cvjetova
cvjetovi
cvjetovima
cvrc
cx
cyathea
cynanchum
cyperus
cyphostemma
cyrus
cz
d
da
dac
dade
dadne
dado
dados
dadu
dag
dah
daha
dahlst
dai
daily
daisy
daj
daje
dajem
dajte
daju
dajuc
dakako
dakle
dakota
dal
dala
dalbergia
dale
dalea
daleka
daleke
daleki
daleko
dalekog
dalekoj
dalekom
dalekosez
dali
dalibor
dalic
dalj
dalja
dalje
dalji
daljina
daljine
daljini
daljinsko
daljinu
daljnja
daljnje
daljnjeg
daljnjem
daljnji
daljnjih
daljnjim
daljnju
dallas
dalmacija
dalmacije
dalmaciji
dalmacijom
dalmaciju
dalmatia
dalmatiae
dalmatinac
dalmatinska
dalmatinske
dalmatinski
dalmatinskih
dalmatinskim
dalmatinsko
dalmatinskog
dalmatinskoj
dalmatinskom
dalmatinsku
dalo
dam
dama
damask
damaska
damasku
dame
damir
damira
damjanovic
damon
dan
dana
danak
danas
danc
dance
danci
dancing
dane
dangerous
dani
danic
danica
danice
daniel
daniela
daniels
danih
danijel
danijela
danila
danilo
danima
danju
danka
danko
danny
dano
danog
danom
dans
danska
danske
danski
danskog
danskoj
danskom
dansku
dante
danu
dao
dapac
daphne
dar
dara
darda
darez
darija
darije
dario
dark
darkness
darko
darova
darovao
darove
darovi
darovima
darth
daruje
daruvar
daruvara
darwin
das
dasci
daske
dassault
dat
data
database
databaseu
date
dati
datira
datiraju
datoteka
datoteke
datum
datuma
datumi
davala
davali
davalo
davanja
davanje
davao
davati
dave
david
davida
davidom
davidov
davidova
davidson
davidu
davies
davis
davne
davnina
davnine
davno
davor
davora
davorin
davs
davy
dawkins
dawn
dawson
day
days
daytonskog
daz
db
dc
dd
ddr
de
dea
dead
deal
dean
death
debate
debbie
debela
debele
debeli
debelim
debelo
debelog
debeo
debi
debiju
debitantski
debitantskog
debitira
debitirala
debitirao
debla
debljina
debljine
deborah
dec
december
decne
dedic
dee
deep
deer
def
default
defence
defense
deficit
definicija
definicije
definiciji
definiciju
definira
definiraju
definiran
definirana
definirane
definirani
definiranje
definirano
definirao
definirati
definitivno
deformacija
deformacije
degli
dei
dejan
dekan
dekana
dekanat
dekanata
deklaracija
deklaracije
deklaraciji
deklaraciju
deklinacija
dekoracija
dekoracije
dekret
dekretom
del
dela
delaware
delegacija
delegacije
delegat
delegata
delegati
delfin
delhi
delic
dell
della
delle
delnice
delo
delphinium
delta
delte
delti
deluxe
dem
demetra
demetrije
demo
democracy
demografija
demografske
demografski
demokracija
demokracije
demokraciji
demokraciju
demokrata
demokrati
demokratska
demokratske
demokratski
demokratskih
demokratskim
demokratskog
demokratskoj
demokratskom
demokratsku
demokrs
demon
demona
demoni
demonstracija
demonstracije
den
dendrobium
denis
denise
dennis
denver
deo
departman
departmana
departmanu
department
deportacije
deportivo
depp
depresija
depresije
depresiju
der
dera
derbi
derby
dere
derek
deri
derivati
derventa
dervis
des
desc
description
desert
deset
deseta
desetak
desetaka
desete
deseti
desetina
desetine
desetinu
desetke
desetljec
desetog
desetogodis
desetom
desf
design
desmond
desna
desne
desni
desnic
desnica
desnice
desnicu
desno
desnog
desnoj
desnom
desnu
despot
despota
destilacijom
destinacija
destinacije
destiny
destruction
desv
det
detaillierte
details
detalj
detalja
detaljan
detalje
detalji
detaljima
detaljne
detaljnije
detaljno
detektiv
detektiva
detektor
detektora
detroit
deus
deutsch
deutsche
deutschen
deutschland
deva
deve
devedeset
devedesetih
development
devet
deveta
devete
deveti
devetnaest
deveto
devetog
devetom
devi
devil
devin
dez
dfb
dha
dhk
di
diamond
diana
diane
dianthus
dic
dick
dickinson
dictionary
did
dida
dido
die
diego
dielektric
diels
dies
diesel
dietrich
different
difuzije
digao
digimon
digimona
digital
digitalna
digitalne
digitalni
digitalnih
digitalnim
digitalno
digitalnog
digitalnom
digitaria
digla
digli
digne
dignu
dijabetes
dijabetesa
dijagnostic
dijagnosticiran
dijagnoza
dijagnoze
dijagnozu
dijagram
dijagrama
dijalekata
dijalekt
dijalekta
dijalekti
dijalektima
dijalektom
dijalektu
dijalog
dijaloga
dijamanata
dijamant
dijana
dijaspore
dijaspori
dijela
dijele
dijeli
dijelila
dijelili
dijelimo
dijelio
dijeliti
dijeljenja
dijeljenje
dijelom
dijelova
dijelove
dijelovi
dijelovima
dijelu
dijete
dika
diktator
diktatora
diktatura
diktature
dil
dila
dilj
diljem
dim
dima
dimenzija
dimenzijama
dimenzije
dimenziju
dimitrija
dimitrije
dimitrijevic
dimnjak
dimnjaka
din
dina
dinama
dinamic
dinamika
dinamike
dinamiku
dinamo
dinamom
dinamu
dinar
dinara
dinare
dinastic
dinastija
dinastije
dinastiji
dinastijom
dinastiju
dine
dinko
dino
dinosaur
dinosaura
dinosauri
dinosaurs
dinska
dinske
dinski
dinskoj
dinu
dio
dioba
diode
dioklecijan
dioksid
dioksida
dion
dionic
dionica
dionicama
dionice
dionici
dioscorea
dipl
diplazium
diploma
diplomacija
diplomacije
diplomat
diplomata
diplomati
diplomatska
diplomatske
diplomatski
diplomatskih
diplomatskim
diplome
diplomira
diplomirala
diplomirani
diplomirao
diplomski
diplomu
dira
dire
direct
director
directory
direkcija
direktan
direktna
direktni
direktno
direktor
direktora
direktorica
direktorom
dirigent
dirigenti
dirty
dis
disanja
disanje
disc
disciplina
disciplinama
discipline
disciplini
disciplinu
disco
discogs
discovery
disease
disertacija
disertaciju
disk
diska
diskografija
diskografska
diskografske
diskografskom
diskografsku
diskova
diskriminacija
diskriminacije
disku
disney
display
distribucija
distribucije
distribuciji
distribucijskog
distribuciju
distribution
district
distrikt
distrikta
distrikti
distriktu
div
diva
divan
divio
divisio
division
divizija
divizije
diviziji
divizijom
diviziju
divkovic
divlja
divljac
divlje
divljeg
divlji
divljih
divljim
divljini
divna
divno
divova
divovi
divovski
dixon
diz
dizajn
dizajna
dizajner
dizajnera
dizajneri
dizajniran
dizajnirana
dizajnirani
dizajnirao
dizajnom
dizajnu
dizala
dizalica
dizalice
dizanja
dizanje
dizdar
dizel
dizelski
dj
djec
djeca
djece
djeci
djeco
djecom
djecu
djed
djeda
djela
djelatnici
djelatnik
djelatnika
djelatnos
djelatnost
djelatnosti
djelatnostima
djelic
djelima
djelo
djelokrug
djelokruga
djelom
djelomic
djelomice
djelovala
djelovale
djelovali
djelovalo
djelovanja
djelovanje
djelovanjem
djelovanju
djelovao
djelovati
djelu
djeluje
djeluju
djelujuc
djeteta
djetetom
djetetu
djetinjstva
djetinjstvo
djetinjstvu
djevic
djevica
djevice
djevici
djevicu
djevojac
djevojaka
djevojc
djevojci
djevojka
djevojkama
djevojke
djevojkom
djevojku
dk
dl
dlaka
dlake
dlaku
dlan
dlanu
dm
dmitrij
dn
dna
dne
dnevna
dnevne
dnevni
dnevnih
dnevnik
dnevnika
dnevniku
dnevnim
dnevno
dnevnog
dnevnoj
dnevnom
dni
dnk
dno
dns
dnu
do
dob
doba
dobar
dobara
dobavljac
dobi
dobije
dobijemo
dobiju
dobila
dobile
dobili
dobilo
dobio
dobit
dobitak
dobiti
dobitnica
dobitnice
dobitnici
dobitnik
dobitnika
dobiva
dobivaju
dobivala
dobivali
dobivalo
dobivamo
dobivanja
dobivanje
dobivao
dobivati
dobiven
dobivena
dobivene
dobiveni
dobivenih
dobivs
doboj
dobojskoj
dobra
dobre
dobri
dobric
dobrih
dobrim
dobrima
dobro
dobrobit
dobrobiti
dobroc
dobrodos
dobrog
dobroj
dobrom
dobrota
dobrote
dobroti
dobrotvorne
dobrovoljac
dobrovoljaca
dobrovoljno
dobru
dobu
doc
docent
doctor
documentation
documents
doda
dodaci
dodacima
dodaje
dodaju
dodajuc
dodala
dodali
dodan
dodana
dodane
dodani
dodano
dodao
dodatak
dodataka
dodati
dodatke
dodatkom
dodatna
dodatne
dodatni
dodatnih
dodatnim
dodatno
dodatnog
dodatnu
dodavanja
dodavanje
dodavanjem
dodig
dodijeli
dodijelila
dodijelio
dodijeliti
dodijeljen
dodijeljena
dodijeljene
dodijeljeno
dodir
dodira
dodirne
dodiru
dodje
dodjela
dodjele
dodjeli
dodjeljuje
dodjeljuju
dodjelu
dodus
does
dog
dogan
događa
događaj
događaja
događaje
događajem
događaji
događajima
događaju
događalo
događanja
događanjima
dogg
dogodi
dogodila
dogodile
dogodili
dogodilo
dogodio
dogoditi
dogovor
dogovora
dogovore
dogovoren
dogovoreno
dogovorili
dogovorio
dogovoriti
dogovorom
dogovoru
dogs
dohodak
dohotka
doi
doigravanja
doigravanje
doigravanju
doista
dojam
dojde
dojenc
dojenja
dojenje
dojke
dojo
dok
dokaz
dokaza
dokazala
dokazali
dokazana
dokazano
dokazao
dokazati
dokaze
dokazi
dokazima
dokazivanje
dokazuje
dokazuju
dokle
doktor
doktora
doktorat
doktorica
doktorirala
doktorirao
doktorski
doktorsku
doktrina
doktrine
doktrinu
dokumenata
dokument
dokumenta
dokumentacija
dokumentacije
dokumentacijski
dokumentaciju
dokumentarac
dokumentarna
dokumentarne
dokumentarni
dokumentarnih
dokumentarnog
dokumentarnom
dokumente
dokumenti
dokumentima
dokumentu
dol
dolac
dolar
dolara
dolaska
dolaskom
dolasku
dolazak
dolaze
dolazec
dolazi
dolazila
dolazile
dolazili
dolazilo
dolazim
dolazio
dolaziti
dole
dolenjskoj
dolet
doli
dolina
dolinama
doline
dolini
dolinom
dolinu
dolje
dolores
dolu
dom
doma
domac
domagoj
domain
dome
domena
domene
domeni
domenico
domenom
domet
dometa
domin
dominacija
dominacije
dominaciju
dominantan
dominantna
dominantne
dominantni
dominantno
domine
domingo
domini
dominic
dominik
dominika
dominikanac
dominikanci
dominikanska
dominikanske
dominikanski
dominira
dominiraju
dominirala
dominirali
dominirao
domino
domis
domobrana
domobranska
domobranske
domobranski
domobranstva
domobranstvo
domoljubne
domom
domorodac
domorodaca
domova
domove
domovima
domovina
domovine
domovini
domovinske
domovinski
domovinskog
domovinskoga
domovinskom
domovinu
domu
don
dona
donacija
donacije
donald
donat
done
donedavno
donekle
donese
donesen
donesena
donesene
dong
donijela
donijele
donijeli
donijelo
donijet
donijeti
donio
donirao
donja
donje
donjeg
donjem
donji
donjih
donjim
donjoj
donjoposavskoj
donju
donna
donos
donose
donosi
donosili
donosio
donositelj
donositi
doo
doom
door
dop
dopisni
dopisnik
dopredsjednik
doprinijela
doprinijeli
doprinio
doprinos
doprinosa
doprinose
doprinosi
doprvaci
doprvak
dopuna
dopunjavao
dopunjeno
dopus
dopusti
dopustila
dopustili
dopustio
dopustiti
dora
dore
dori
dorica
doris
dorothy
dortmund
doruc
dos
dosad
dosada
dosadas
dosadno
dosec
doseg
dosega
dosegao
dosegla
dosegne
dosegnuo
dosegnuti
doselili
doselio
doseljavaju
doseljavanja
doseljavanje
doseljenici
doseljenika
dosez
doskora
dosljedno
doslovce
doslovno
dospio
dospjela
dospjeli
dosta
dostavljeno
dosti
dostic
dostigao
dostigla
dostignuc
dostiz
dostojan
dostojanstva
dostojanstvo
dostojno
dostupan
dostupna
dostupne
dostupni
dostupnih
dostupnim
dostupno
dostupnost
dostupnosti
dot
dotad
dotada
dotadas
dotakne
dotic
doticaj
dotle
dotok
double
doug
douglas
douglasa
douglass
dous
dovede
doveden
dovedena
dovedeni
dovela
dovele
doveli
dovelo
doveo
dover
dovesti
dovijeka
dovod
dovode
dovodi
dovoljan
dovoljna
dovoljne
dovoljno
dovoljnu
dovođenje
dovrs
down
download
doyle
doz
doza
dozama
doze
doznao
doznati
dozu
dozvola
dozvole
dozvoli
dozvolio
dozvoljava
dozvoljen
dozvoljena
dozvoljeno
dozvolu
dođe
dođi
dođite
dođoh
dođos
dođu
dp
dr
dra
drac
dracaena
draco
draft
drafta
draftu
drag
draga
dragan
dragana
draganic
drage
dragi
dragic
dragica
dragim
dragis
drago
dragog
dragojevic
dragon
dragovic
dragovoljac
dragovoljaca
dragovoljno
dragu
dragutin
dragutina
drake
drakula
drama
dramama
dramatic
dramatici
dramaturg
drame
drami
dramska
dramske
dramski
dramskih
dramsko
dramskog
dramskoj
dramskom
dramsku
dramu
dransf
dras
drastic
drava
drave
dravi
dravu
draz
dre
dream
dreams
drenaz
drenova
drenovci
dres
dresden
dresu
drevna
drevne
drevni
drevnih
drevnim
drevnog
drevnoj
drevnom
drew
drez
drijeb
drijenc
drine
drini
drinovci
drinu
drive
driver
drnis
droga
drogama
droge
drogom
drogu
drop
drosera
drs
drug
druga
drugac
drugamo
drugdje
druge
drugi
drugih
drugim
drugima
drugo
drugog
drugoga
drugoj
drugoligas
drugom
drugome
drugomu
drugoplasirani
drugoplasiranog
drugova
drugovi
drugovima
drugu
drukc
drum
drums
drus
druz
drva
drvar
drvca
drvec
drvena
drvene
drveni
drvenih
drvenim
drvenjac
drvenog
drvenu
drveta
drvetu
drvna
drvne
drvo
drvu
dryopteris
drypetes
drz
ds
dso
dss
dt
du
dub
dubica
dubina
dubinama
dubine
dubini
dubinom
dubinu
dublin
dublinu
dublje
dublji
dubok
duboka
duboke
duboki
dubokih
dubokim
duboko
dubokog
dubokoj
dubokom
duboku
dubrava
dubrave
dubravi
dubravka
dubravko
dubrovac
dubrovc
dubrovnik
dubrovnika
dubrovniku
duc
ducke
due
duet
duetu
dug
duga
dugac
duge
dugi
dugih
dugim
dugme
dugo
dugog
dugogodis
dugoj
dugom
dugometraz
dugopolje
dugoroc
dugotrajna
dugotrajne
dugotrajno
dugotrajnog
dugova
dugove
dugovjec
dugu
duguje
duh
duha
duhan
duhana
duhom
duhova
duhove
duhovi
duhovima
duhovna
duhovne
duhovni
duhovnih
duhovnim
duhovno
duhovnog
duhovnom
duhovnost
duhovnosti
duhovnu
duhu
dujam
duje
dujma
dujmic
dujmovic
duka
dukat
dukata
duke
dukljanina
duklje
dulic
dulje
dulji
duljina
duljinama
duljine
duljini
duljinom
duljinu
dum
dumbledore
dumbledorea
dumort
dunav
dunava
dunavu
duncan
dunja
dunn
duo
dupina
duplanc
dur
duran
during
duru
dus
dust
dutch
duvalius
dux
duz
dv
dva
dvadeset
dvadesetak
dvadesetih
dvadesetog
dvaju
dvama
dvanaest
dvanaesti
dvaput
dvd
dvije
dviju
dvjema
dvjesta
dvoboj
dvoboja
dvoboju
dvogodis
dvojac
dvojbe
dvoje
dvojezic
dvojica
dvojice
dvojici
dvojicom
dvojicu
dvojna
dvokruz
dvonoz
dvor
dvora
dvorac
dvoraca
dvorana
dvoranama
dvorane
dvorani
dvoranskom
dvoranu
dvorca
dvorci
dvorcu
dvore
dvori
dvorima
dvoris
dvornik
dvorska
dvorske
dvorski
dvorskog
dvoru
dvostruka
dvostruke
dvostruki
dvostrukih
dvostrukim
dvostruko
dvostrukog
dvostrukom
dvostruku
dwight
dworkin
dx
dy
dyer
dylan
dz
dzs
e
ea
eagle
eagles
earl
early
earth
east
eastern
eastwood
easy
eb
ebel
ebert
ebinger
ebu
ec
ecclesia
ecclesie
echeveria
echinops
echo
eci
ecima
eckl
economic
economics
economy
ed
eda
eddie
ede
eden
edgar
edge
edi
edinburgh
edinburghu
edip
edit
edited
edith
edition
editor
edmund
edo
edom
eds
edu
eduard
eduarda
eduardo
education
edukacija
edukacije
edukaciju
edvard
edvarda
edward
edwarda
edwards
edwin
ee
eez
ef
efa
efekata
efekt
efekta
efekte
efekti
efektima
effect
effects
efikasnost
efikasnosti
efom
efraim
eg
ega
ege
egi
egipat
egipatska
egipatske
egipatski
egipatskih
egipatskim
egipatsko
egipatskog
egipatskoj
egipatskom
egipc
egipta
egiptom
egiptu
ego
egodis
egovic
egrad
egradu
egrt
egu
egypt
egzilu
egzistencije
egzotic
eh
eha
ehf
ehoslovac
ehov
ei
eight
ein
eine
einstein
eintracht
eius
ej
eja
ejh
ek
eka
ekaj
ekaju
ekajuc
ekala
ekali
ekalo
ekam
ekanja
ekao
ekati
ekic
ekipa
ekipe
ekipi
ekipno
ekipom
ekipu
ekivala
ekivali
ekivalo
ekivana
ekivane
ekivani
ekivanja
ekivanju
ekivano
ekivanog
ekivao
ekivati
ekliptike
ekman
eko
ekologija
ekologije
ekolos
ekonomic
ekonomija
ekonomije
ekonomiji
ekonomiju
ekonomist
ekonomisti
ekonomska
ekonomske
ekonomski
ekonomskih
ekonomskim
ekonomsko
ekonomskog
ekonomskoj
ekonomskom
ekonomsku
ekosustava
ekovic
ekran
ekrana
ekranu
ekscentric
ekskluzivno
ekspanzija
ekspanzije
ekspedicija
ekspedicije
ekspediciji
ekspediciju
eksperimenata
eksperiment
eksperimenta
eksperimentalne
eksperimentalni
eksperimentalno
eksperimente
eksperimenti
eksplicitno
eksploatacija
eksploatacije
eksplozija
eksplozije
eksploziji
eksploziju
eksploziv
eksploziva
ekspresionistic
ekspresionizam
ekspresionizma
ekstremne
ekstremni
ekstremnim
ekstremno
eku
ekuje
ekuju
ekujuc
ekumenski
ekvador
ekvadora
ekvadoru
ekvator
ekvatora
ekvatoru
ekvivalent
ekvivalentna
el
ela
elaphoglossum
elastic
ele
eleanor
elec
electric
electro
electronic
elegans
elektra
elektrana
elektranama
elektrane
elektrani
elektric
elektricitet
elektriciteta
elektro
elektroda
elektrode
elektrolit
elektrolita
elektroluc
elektromagneta
elektromagnetske
elektromagnetski
elektromagnetskih
elektromagnetsko
elektromagnetskog
elektromotor
elektron
elektrona
elektrone
elektroni
elektronic
elektronika
elektronike
elektronima
elektronska
elektronske
elektronski
elektronskih
elektronskim
elektronskog
elektrotehnic
elektrotehnike
elemenata
element
elementa
elementarne
elementarnih
elemente
elementi
elementima
elena
eleven
eli
elias
elic
elici
eligas
elija
elije
eliji
eliju
elik
elika
elim
elima
elimir
elimo
elio
elipse
eliptic
elis
elisabeth
elita
elite
elizabeta
elizabete
elizabeth
elizabetu
elj
elja
eljama
eljan
elje
eljela
eljeli
eljem
eljene
eljeni
eljenih
eljeza
eljezna
eljezne
eljezni
eljeznic
eljeznica
eljeznice
eljeznici
eljeznicom
eljeznih
eljeznim
eljezno
eljeznog
eljeznom
eljezo
eljezom
elji
eljka
eljko
eljna
eljne
eljni
eljno
eljom
elju
eljust
eljusti
elle
ellen
elliot
elliott
ellis
elmer
elnici
elnik
elnika
elnikom
elniku
elno
elo
elom
elsa
else
elu
eluc
eluca
eludac
elvira
elvis
elymus
em
ema
emanuel
embargo
emerald
emerik
emeritus
emerson
emi
emigracija
emigracije
emigraciji
emigranata
emigrant
emigrirao
emil
emilia
emilio
emily
emina
eminac
emir
emirata
emisija
emisijama
emisije
emisiji
emisiju
emitira
emitiraju
emitirala
emitiran
emitirana
emitirane
emitiranja
emitiranje
emitiranjem
emitirao
emitirati
emma
emmanuel
emmy
emmyja
emo
emocija
emocije
emocionalno
emperor
empire
emu
en
ena
enama
enamjenski
enciklika
enciklike
enciklopedija
enciklopedije
enciklopediji
enciklopedijski
encyclopaedia
encyclopedia
encyclopædia
end
endem
endemic
endemska
endemske
endl
ene
enemy
energetika
energetike
energetska
energetske
energetski
energetskih
energetsku
energic
energija
energije
energiji
energijom
energiju
energy
enevi
eng
engel
engelm
engels
engic
engine
engineering
engl
england
engleska
engleske
engleski
engleskih
engleskim
englesko
engleskog
engleskoga
engleskoj
engleskom
englesku
engleza
englezi
english
eni
enic
enica
enice
enici
enicima
enicom
enicu
enidba
enidbe
enih
enija
enije
eniji
enijih
enijim
enik
enika
enike
enikom
eniku
enim
enima
enio
enis
eniti
enito
enja
enjaci
enjak
enjaka
enje
enjem
enjen
enjer
enjera
enjeri
enjering
enjerstva
enjerstvo
enjima
enju
enka
enke
enki
enklave
enko
enlightenment
eno
enoa
enog
enoga
enoj
enom
enos
enost
enosti
enough
enrico
enrique
enska
enske
enski
enskih
enskim
ensko
enskog
enskoj
enskom
ensku
enstva
enstvo
enterprise
entertainment
entitet
entiteta
entry
enu
enver
environment
environmental
enzim
enzima
enzimi
enzo
eo
ep
epa
eparhija
eparhije
epc
epi
epic
epidemija
epidemije
epilobium
epin
epinski
epira
episcopus
episkop
episkopa
episode
epitet
epizoda
epizodama
epizode
epizodi
epizodu
eplasirani
epling
epoha
epohe
eprihvac
epsilon
epski
epu
equus
er
era
eragrostis
eras
erbedz
erceg
erdedi
erdo
erdut
ere
erectus
eredivisie
eri
eric
erica
erich
ericsson
eridan
erif
erigeron
erik
erima
erin
eriocaulon
eriogonum
eritreje
erjavic
erka
erke
erkom
erku
erna
erne
ernest
ernestinovo
erni
ernja
ernje
ernjeg
ernjem
ernji
ernjim
ernst
ero
erom
eros
erozija
erozije
ers
ersa
ersi
eru
erupcija
erupcije
erwin
eryngium
erythroxylum
es
esa
esad
esb
esej
eseja
eseje
eseji
esejist
esejisti
eseju
esi
eskadrila
eskadrile
eskadron
eslav
esma
esnaest
esnaestina
espan
esperanto
espn
essays
essex
est
esta
estalo
estalost
estalosti
este
esteban
estera
esteri
estero
estetski
esti
estic
estica
esticama
estice
esticu
estih
estim
esto
estog
estogodis
estoj
estok
estoka
estoke
estoki
estokih
estoko
estom
estonija
estonije
estoniji
estonska
estonske
estonski
estosijec
estranac
estruka
estruke
estruki
estruko
estu
et
eta
etak
etaka
etalis
etama
etanola
etao
etapa
etape
etati
etaz
etc
etci
etcima
ete
eter
eteric
eternal
ethan
ethiopia
ethnic
ethnologue
eti
etic
etika
etike
etiku
etimologic
etimologija
etimolos
etin
etinjac
etiopija
etiopije
etiopiji
etiopiju
etiopske
etiopski
etiri
etiriju
etirima
etka
etke
etki
etkom
etku
etna
etne
etni
etnic
etnica
etnici
etnicima
etnih
etnik
etnika
etnike
etnim
etno
etnog
etnografija
etnografski
etnoj
etnolos
etnom
etnu
eto
etom
etrdeset
etrdesetak
etrnaest
etrus
etu
etva
etve
etvero
etverogodis
etvorica
etvorice
etvornih
etvrt
etvrta
etvrtak
etvrte
etvrtfinala
etvrtfinale
etvrtfinalu
etvrti
etvrtina
etvrtine
etvrtini
etvrtinu
etvrto
etvrtog
etvrtoj
etvrtom
etvrtu
etvrtzavrs
eu
eucalyptus
eufrat
eufrata
euge
eugen
eugena
eugene
euharistije
euonymus
euphorbia
euphrasia
eura
euro
eurobasket
eurocup
euroleague
eurolige
euroligi
euronymous
europa
europe
european
europi
europljana
europljani
europom
europska
europske
europski
europskih
europskim
europsko
europskog
europskoj
europskom
europsku
europu
eurosongu
eurovizije
euroviziji
eurovizijski
eurozone
euru
ev
eva
evac
evaca
evakuaciju
evan
evana
evangelic
evanje
evans
evanđelista
evanđelja
evanđelje
evanđelju
evc
evca
evci
evcima
evcu
eve
evec
even
event
eventualno
ever
everton
every
everybody
everything
evi
evic
evica
evice
evici
evidence
evih
evika
evil
evim
evima
evina
evinama
evine
evini
evinu
evke
evki
evljen
evljenje
evna
evne
evni
evnica
evnici
evnih
evnik
evnika
evnim
evno
evnog
evnoga
evnoj
evnom
evnos
evnost
evnosti
evnu
evo
evog
evoj
evolucija
evolucije
evoluciji
evolucijska
evoluciju
evolution
evom
evropa
evrope
evs
evske
evski
evu
ex
example
exit
experience
explorer
express
extended
extra
eye
eyed
eyes
ez
ezav
ezava
ezdeset
ezdesetih
f
fa
fabijan
fabio
face
facebook
facebooku
faces
factbook
facto
factor
factory
facts
fair
faith
faktor
faktora
faktori
fakultet
fakulteta
fakulteti
fakultetima
fakultetu
fala
falco
falcon
fali
fall
falling
fallingrain
falls
false
fame
familia
families
family
famous
fan
fang
fanny
fantastic
fantastika
fantastike
fantasy
fantazija
fantazije
fantom
far
faraon
faraona
faraonu
farizeji
farkas
farma
farme
farmer
farmi
farmu
fas
fasada
fasade
faso
fast
fat
fate
father
fauna
faune
faust
favorit
favorita
faz
faza
fazama
faze
fazi
fazni
fazu
fbi
fbih
fc
fcd
fe
fear
feat
featuring
february
fed
federacija
federacije
federaciji
federaciju
federal
federalna
federalne
federalni
federalnih
federation
federativne
federer
federico
fedor
feel
feeling
feldmars
feliks
felipe
felix
feljton
female
feministic
feminizam
fender
fenerbahc
fenic
feniks
feniksa
fenomen
fenomena
fenzl
fer
feral
ferdinand
ferdinanda
ferdinandu
ferdo
ferenc
ferguson
feric
ferita
fern
ferna
fernald
fernanda
fernando
ferrari
ferrarija
ferrariju
ferreira
fes
fest
festival
festivala
festivali
festivalima
festivalu
festuca
fet
fetus
fetusa
feudalne
feudalni
fever
ff
ffzg
fi
fia
fiat
fiba
fiction
ficus
fide
fidz
field
fifa
fifth
fight
fighting
figura
figurama
figure
figuru
fiktivni
fil
file
files
filharmonije
filip
filipa
filipina
filipini
filipinima
filipinski
filipovic
filippo
filistinaca
filistinci
filius
film
filma
filmas
filmografija
filmom
filmova
filmove
filmovi
filmovima
films
filmska
filmske
filmski
filmskih
filmskim
filmskog
filmskoj
filmskom
filmsku
filmu
filolog
filologiju
filolos
filozof
filozofa
filozofi
filozofija
filozofije
filozofiji
filozofiju
filozofska
filozofske
filozofski
filozofskih
filozofskim
filozofsko
filozofskog
filozofskom
filtar
fin
fina
final
finala
finale
finalist
finalisti
finalnoj
finalu
financial
financija
financije
financijska
financijske
financijski
financijskih
financijskim
financijsko
financijskog
financijskom
financijsku
financira
financirala
financiranja
financiranje
financirao
financirati
finci
find
fine
fini
fininfo
finn
fino
finoc
finska
finske
finski
finskog
finskoj
finskom
finsku
fire
firenca
firence
firenci
firered
first
fis
fisch
fischer
fish
fishbase
fisher
fitzgerald
fiume
five
fizic
fizici
fizika
fizikalna
fizikalne
fizikalni
fizikalnih
fizikalno
fizike
fiziku
fiziologija
fiziologiju
fiziolos
fjodor
fk
fl
flag
flames
flash
flauta
flautu
flavije
fleksibilnost
fletcher
flickr
flight
floor
flora
flore
florence
flores
florida
floride
floridi
flota
flote
floti
flotom
flotu
flower
floyd
fluid
fluida
fly
flying
fm
fn
fnrj
fo
foc
focus
foi
fojnic
fojnica
fojnice
fojnici
fokus
fokusira
folia
folk
folklor
folklora
folklorna
folklorne
fond
fonda
fondacija
fondova
fonetic
fonolos
font
fontana
fontane
fontsize
food
fool
foot
football
for
forbes
force
forces
ford
forda
foreign
forenzic
forest
forever
forinti
forma
formacija
formacije
formaciji
formaciju
formalna
formalne
formalni
formalno
format
formata
formation
formatu
forme
former
formi
formira
formiraju
formirala
formirali
formiran
formirana
formirane
formiranja
formiranje
formiranju
formirano
formirao
formirati
formu
formula
formule
formuli
formulirao
formulom
formulu
forssk
forst
fort
fortifikacije
fortuna
fortune
forum
foruma
forumu
fosfat
fosfata
fosfor
fosfora
fosil
fosila
fosili
fosilna
fosilni
fosilnih
foslie
fossilworks
foster
foto
fotoelektric
fotograf
fotografa
fotografi
fotografija
fotografijama
fotografije
fotografiji
fotografijom
fotografiju
fotografski
foton
fotona
fotonaponski
fotonaponskih
found
foundation
four
fourth
fowler
fox
fr
fra
frac
fragmenata
fragment
fragmenti
frakcija
frakcije
fraktura
frame
fran
frana
franac
franaka
franc
franca
france
frances
francesca
francesco
francetic
franch
franci
francis
francisa
francisca
francisco
franciscu
franck
franco
francois
francuska
francuske
francuski
francuskih
francuskim
francusko
francuskog
francuskoga
francuskoj
francuskom
francusku
francuz
francuza
francuze
francuzi
francuzima
frane
franges
franic
franje
franjevac
franjevaca
franjevce
franjevci
franjevcima
franji
franjo
franjom
franju
frank
franka
frankfurt
frankfurtu
franklin
franko
frankopan
frankopana
frankopani
frankovic
frano
frans
frantis
franz
franza
fraser
fratar
fratri
fraza
fraze
fre
fred
freddie
freddy
frederick
fredrik
free
freedom
freeman
fregata
fregate
freiburg
freiherr
frekvencija
frekvencijama
frekvencije
frekvenciji
frekvencijom
frekvenciju
french
fresaka
freska
freskama
freske
freud
fridrik
fridrika
friedman
friedrich
friedricha
friend
friends
fritsch
fritz
fro
frodo
from
frommert
front
fronta
fronte
fronti
frontier
frontmen
frontu
frost
frozen
frullania
frus
fsb
ft
ftp
fu
fuc
fuchs
fudbalski
full
fuller
fun
fund
funeral
funk
funkcija
funkcijama
funkcije
funkciji
funkcijom
funkciju
funkcionalna
funkcionalne
funkcionalno
funkcionira
funkcioniraju
funkcioniranja
funkcioniranje
funkcionirati
funta
funti
fusion
futsal
future
futuristic
fuz
fuzija
fuzije
fzs
g
ga
gabi
gabon
gabric
gabriel
gabriela
gabriele
gabrijel
gabrijela
gac
gacko
gaertn
gaga
gagea
gagnep
gaius
gaj
gaja
gal
gala
galaksija
galaksije
galaksiji
galaktic
galaktika
galaktike
galatasaray
galaxy
gale
galeb
galeba
galerija
galerije
galeriji
galeriju
gali
galic
galicije
galiciji
galija
galije
galiji
galilei
galileo
galium
gallery
galovic
gama
gamble
game
games
gamma
gamulin
gana
gandalf
gandhi
gane
gang
gani
gao
garay
garaz
garci
garcia
garcinia
garda
garde
garden
gardijska
gardijske
gardner
gares
garfield
garnizon
garnizona
gary
gas
gasi
gaston
gat
gata
gate
gates
gaulle
gavella
gavran
gavrilovic
gay
gaye
gaz
gaza
gazda
gaze
gazi
gađanja
gađanje
gb
gbp
gde
gdi
gdje
ge
gear
geiger
gej
gel
gemini
gen
gena
genboj
gender
gene
generacija
generacijama
generacije
generaciji
generaciju
general
generala
generale
generali
generalic
generalima
generalni
generalno
generalnog
generalom
generals
generalu
generation
generator
generatora
generatori
generic
generira
genesis
genetic
genetika
genetske
genetski
geni
genij
genitiv
genocid
genocida
genocide
genom
genoma
genova
genpj
gentiana
gentianella
genus
geo
geoadria
geodetski
geoffrey
geograf
geografi
geografija
geografije
geografiji
geografiju
geografska
geografske
geografski
geografskih
geografskim
geografsko
geografskog
geografskom
geographic
geographical
geography
geologija
geolos
geometrija
geometrije
geometrijske
geometrijski
geometrijskih
geometrijskim
geomorfolos
geopolitic
georg
georga
george
georgea
georges
georgetown
georgia
georgian
georgij
georgija
georgije
geotermalna
geotermalne
ger
gerald
geranium
gerard
gerhard
germain
german
germani
germanski
germanskih
germany
gers
geschichte
gesellschaft
geslo
gesta
get
gets
gggg
gha
ghost
ghz
gi
giacomo
giant
giants
giba
gibaju
gibanja
gibanje
gibanjem
gibanju
gibarac
gibb
gibbs
gibonni
gibraltar
gibson
gif
giga
gigi
gil
gilbert
gilg
gill
gillan
gimme
gimnastic
gimnastika
gimnazija
gimnazije
gimnaziji
gimnaziju
gine
ginny
giorgio
giovanni
giovannija
girl
girls
gis
gita
gitara
gitare
gitari
gitarist
gitarista
gitaristi
gitaristic
gitaristom
gitaru
giulio
giuseppe
giuseppea
give
given
gizdic
gjuro
gk
gl
glad
gladak
gladan
gladi
gladiolus
glagol
glagola
glagoli
glagoljas
glagoljice
glamoc
glas
glasa
glasac
glasanje
glase
glasgow
glasi
glasila
glasilo
glasina
glasine
glasio
glasnici
glasnik
glasnika
glasniku
glasno
glasnoc
glasnogovornik
glasom
glasonos
glasova
glasovalo
glasovanja
glasovanje
glasovanjem
glasovanju
glasovati
glasove
glasovi
glasovima
glasovir
glasovira
glasoviti
glass
glasu
glatka
glatke
glatko
glaukom
glava
glavama
glavas
glave
glavi
glavic
glavica
glavice
glavine
glavna
glavne
glavni
glavnih
glavnim
glavnina
glavninu
glavno
glavnog
glavnoga
glavnoj
glavnom
glavnu
glavobolja
glavobolje
glavoc
glavom
glavu
glazba
glazbala
glazbalo
glazbe
glazbena
glazbene
glazbeni
glazbenica
glazbenici
glazbenicima
glazbenih
glazbenik
glazbenika
glazbenike
glazbenim
glazbeno
glazbenog
glazbenoj
glazbenom
glazbenu
glazbi
glazbom
glazbu
glađu
gle
gleason
gleda
gledaj
gledajte
gledaju
gledajuc
gledala
gledali
gledalis
gledalo
gledam
gledamo
gledanja
gledanje
gledano
gledanost
gledanosti
gledao
gledas
gledatelja
gledatelje
gledatelji
gledateljima
gledati
glede
gledis
glen
glenn
glez
gliese
glina
gline
glini
gljiva
gljive
global
globalna
globalne
globalni
globalno
globalnog
globe
globus
globusa
glonass
gloria
glory
glosaru
glover
gluhih
glukoza
glukoze
gluma
glumac
glumaca
glumca
glumce
glumcem
glumci
glumcima
glume
glumec
glumi
glumica
glumice
glumicom
glumicu
glumila
glumili
glumio
glumis
glumiti
glumom
glumu
gm
gmazova
gmbh
gnaphalium
gnijez
gnijezda
gnijezde
gnijezdi
gnijezdo
gnijezdu
gnjev
gnjeva
gnk
gnojiva
gnu
go
goal
god
godi
godina
godinama
godine
godini
godinom
godinu
godis
gods
goebbels
goes
goethe
gogh
going
gojko
gol
gola
gold
goldblatt
golden
goldenb
goldstein
gole
golem
golema
goleme
golemi
golemu
golf
goli
golim
golman
golo
golom
golova
golovi
golu
golub
golubic
gomila
gomile
gomilica
gomilici
gomilu
gonc
gone
gong
gonic
gonna
gonza
gonzalez
good
goodbye
google
gora
goran
gorana
goranska
goranske
goranskoj
goraz
gorbac
gorc
gordan
gordana
gordon
gore
gorenja
gorenje
gorenjskoj
gori
goric
gorica
gorice
gorici
gorila
goriva
gorivo
gorivom
gorja
gorjanski
gorje
gorju
gorka
gorke
gorki
gorko
gornja
gornje
gornjeg
gornjem
gornji
gornjih
gornjim
gornjoj
gornju
gorom
gors
gorska
gorske
gorski
gorskog
gorskom
goru
goruc
gorus
gos
gospa
gospe
gospel
gospi
gospic
gospina
gospod
gospoda
gospodar
gospodara
gospodare
gospodari
gospodarima
gospodarom
gospodarska
gospodarske
gospodarski
gospodarskih
gospodarskim
gospodarsko
gospodarskog
gospodarskoj
gospodarskom
gospodarsku
gospodarstva
gospodarstvo
gospodarstvu
gospodaru
gospode
gospodi
gospodic
gospodin
gospodina
gospodine
gospodinom
gospodinu
gospodnja
gospodnje
gospodnjega
gospodnji
gospodo
gospodom
gospodov
gospodova
gospodove
gospodovim
gospodovo
gospodovoj
gospodovu
gospodstvo
gospodu
gospoja
gospoje
gospođa
gospođe
gospođi
gospođica
gospođice
gospođo
gospu
gost
gosta
goste
gosti
gostiju
gostima
gostovala
gostovali
gostovanja
gostovanje
gostovao
gostuje
gostujuc
got
gota
gothic
goti
gotic
gotike
gotov
gotova
gotovac
gotovina
gotovo
gottfried
gould
gov
govaerts
goveda
govedo
government
govor
govora
govoras
govore
govorec
govori
govorila
govorili
govorilo
govorim
govorima
govorimo
govorio
govoris
govorit
govorite
govoriti
govornici
govornik
govornika
govornog
govornom
govorom
govoru
gozbu
gp
gps
gr
gra
grab
graba
grabar
grabez
grabovac
grac
grace
gracilis
grad
grada
gradac
gradas
grade
gradec
gradi
gradic
gradila
gradili
gradilis
gradina
gradine
gradini
gradio
gradis
graditelj
graditelja
graditelji
graditeljska
graditeljstva
graditeljstvo
graditi
gradiva
gradivo
gradnja
gradnje
gradnji
gradnjom
gradnju
gradom
gradonac
gradova
gradove
gradovi
gradovima
gradska
gradske
gradski
gradskih
gradskim
gradsko
gradskog
gradskoj
gradskom
gradsku
gradu
graf
grafic
grafika
grafike
grafiku
grafit
grafita
grafova
grah
graham
grahovo
gram
grama
gramatic
gramatika
gramatike
gramatiku
grammy
gran
grana
granama
granata
granate
granc
grand
grande
grandiflora
grane
granger
grani
granic
granica
granicama
granice
granici
granicom
granicu
grant
granu
gras
grass
grave
graves
gravitacija
gravitacije
gravitacijska
gravitacijske
gravitacijski
gravitacijsko
gravitacijskog
gravitacijskom
gray
graz
grazu
građa
građana
građane
građani
građanima
građanin
građanina
građanska
građanske
građanski
građanskih
građanskim
građansko
građanskog
građanskom
građansku
građanstva
građe
građen
građena
građene
građeni
građevina
građevinama
građevinarstvo
građevinarstvu
građevine
građevinske
građevinski
građevinskih
građevinskog
građevinu
građi
građu
grb
grba
grbom
grbovi
grbu
grc
grci
grcima
gre
great
greatest
greben
grebena
grebeni
greda
grede
greece
greek
green
greene
greenwood
greg
gregor
gregorijanskom
gregory
grenland
grenlanda
gres
greuter
grey
grga
grgec
grgic
grgo
grgur
grgura
gric
grid
gridu
griff
griffin
grijac
grijanja
grijanje
grijanjem
grije
grijeh
grijeha
grijehe
grijehu
grijes
grimaldi
grimes
grimm
grin
gripe
gris
griseb
griz
grjes
grk
grka
grke
grkokatolic
grla
grlic
grlo
grlu
grm
grmlja
grmlje
grmova
gro
grob
groba
groblja
groblje
groblju
grobnic
grobnica
grobnice
grobnici
grobnicu
grobova
grobovi
grobovima
grobu
grof
grofa
grofica
grofice
grofom
grofova
grofovi
grofovija
grofovije
grofu
grom
groma
groove
gros
gross
grosso
ground
group
grove
groz
grozd
grozni
groznica
groznice
grozno
gru
gruba
grube
grubis
grubo
gruda
grudama
grude
grudi
grudima
grupa
grupacija
grupacije
grupama
grupe
grupi
grupna
grupne
grupno
grupom
grupu
grus
gruz
gruzija
gruzije
gruziji
gruzijska
gruzijske
gruzijski
gruzijskog
gruziju
gs
gt
gta
gu
guadalupe
guarani
guardian
gube
gubec
gubi
gubici
gubio
gubitak
gubitaka
gubitci
gubiti
gubitka
gubitke
gubitkom
guc
gudac
guerra
guez
guide
guido
guillaume
guillaumin
guitar
gulf
guma
gumama
gume
gun
gundulic
gunja
guns
gunter
gura
gus
gusar
gusara
gusari
gusjenice
guske
gusle
gusta
gustav
gustava
gustave
guste
gusti
gustim
gusto
gustoc
gustom
gutenberg
guverner
guvernera
guy
guz
gvajana
gvardijan
gvatemale
gvineja
gvineje
gvineji
gvoz
gw
gwh
gy
gymnothorax
gyo
gđa
h
ha
haag
haagu
haas
habsburg
habsburgovaca
habsburgovci
habsburs
hac
hack
had
hada
hadz
hagen
haglund
hahn
haiku
haiti
hajde
hajdemo
hajduc
hajduk
hajduka
hajdukom
hajduku
hal
hala
hale
halen
half
halilovic
haljina
haljine
haljini
haljinu
hall
halle
halo
ham
hamburg
hamburgu
hamilton
hamiltona
hamlet
hammer
hammond
hampshire
han
hana
hand
handball
handbook
hands
handz
hanibal
hank
hanks
hanna
hannah
hannover
hans
hansa
hansen
hanz
haplochromis
happy
hara
harac
harambas
haramija
harbor
hard
hardcore
hardy
hare
hari
haris
harley
harmonic
harmonije
harmonika
harms
harold
harper
harris
harrison
harry
harryja
harryju
hart
hartley
hartmut
harv
harvard
harvey
has
hasan
hasanbegovic
hat
hate
hattori
haubica
haubice
hausskn
havaji
havajima
havajski
havana
have
haven
haw
hawaii
hawaiian
hawk
hay
hayata
hayes
hazu
hb
hbk
hbo
hc
hcl
hd
hdlu
hds
hdz
he
head
health
heart
hearts
heat
heaven
heavens
heavy
heb
hebr
hebrang
hebrejske
hebrejski
hebrejskog
hebrejskom
hec
hedgehog
hegedus
heidegger
heidelberg
height
heiligenkreuz
heinrich
heinz
hej
hektara
heldr
helen
helena
helene
helenistic
helichrysum
heliconia
helij
helija
helikopter
helikoptera
helikoptere
helikopteri
hell
hello
helmut
help
helsinki
helsinkiju
helsins
hemisferi
hemsl
henderson
hendrix
hendrixa
henri
henrik
henrika
henriku
henry
henryja
hep
hepatitis
hepatitisa
hepburn
her
hera
heracleum
heraklo
herald
heraldic
herb
herbert
herceg
hercega
hercegbosanskoj
hercegbosna
hercegovac
hercegovina
hercegovine
hercegovini
hercegovinom
hercegovinu
hercules
here
heritage
herkulu
herman
hermann
hermanna
hermes
hermetic
hermiona
herna
hero
herod
herodot
heroes
heroina
heroj
heroja
heroji
herschel
herzegovina
herzog
hes
hey
heydrich
hf
hi
hibbertia
hibiscus
hibrid
hibridni
hic
hidalgo
hidden
hidraulic
hidrodinamic
hidroelektrana
hidroelektrane
hidrolos
hidz
hieracium
hierarchy
hieron
high
highway
hijerarhija
hijerarhije
hijerarhiji
hil
hill
hilla
hilliard
hills
hilton
him
himmler
himna
himne
himni
himnu
hina
hindu
hinduistic
hinduizam
hip
hipertenzije
hipoteza
hipoteze
hipotezu
his
hispanoamerikanaca
histoire
historia
historic
historical
historicistic
historicizma
historija
historijski
historiju
historiografija
historiografiji
history
hit
hita
hitac
hitchc
hitchcock
hitler
hitlera
hitleru
hitna
hitne
hitno
hitnu
hitova
hitove
hitovi
hitovima
hitro
hits
hiv
hk
hkd
hkl
hkpd
hks
hkud
hkv
hl
hlac
hladan
hladi
hladna
hladne
hladni
hladnih
hladnije
hladnim
hladno
hladnoc
hladnog
hladnom
hlapic
hlađenja
hlađenje
hlađenjem
hm
hmnl
hms
hn
hnd
hnk
hnl
hns
ho
hoc
hochst
hockey
hod
hoda
hodanje
hodao
hodati
hodge
hodi
hodnik
hodnika
hodniku
hodoc
hodu
hodz
hoffm
hoffman
hoffmann
hogwarts
hogwartsa
hogwartsu
hojkic
hokej
hokeja
hokejas
hokeju
hold
holden
holding
hole
holiday
holland
holly
hollywood
hollywoodu
holmes
holocaust
holokaust
holokausta
holstein
holt
holttum
holub
holy
home
homer
homo
homoseksualac
homoseksualaca
homoseksualci
homoseksualne
homoseksualnih
homoseksualnost
homoseksualnosti
honda
honduras
honey
hong
honor
hoo
hood
hook
hop
hope
hopkins
hor
hora
horasan
horde
horizont
horizonta
hormon
hormona
hormoni
horn
horor
horror
horse
horva
horvat
horvata
horvatic
hos
hospital
host
hot
hotel
hotela
hoteli
hotelu
hour
hours
house
houston
how
howard
howe
hoya
hp
hpd
hr
hrabar
hrabri
hrabro
hrabrost
hrabrosti
hram
hrama
hramova
hramove
hramovi
hramovima
hramu
hrana
hrane
hrani
hranio
hraniti
hranom
hranu
hras
hrast
hrasta
hrc
hrcak
hrer
hrera
hrgovic
hribar
hrid
hridi
hrl
hrm
hrs
hrsg
hrsport
hrsvijet
hrt
hrus
hrv
hrvac
hrvanje
hrvat
hrvata
hrvate
hrvati
hrvatica
hrvatima
hrvatinic
hrvatska
hrvatske
hrvatski
hrvatskih
hrvatskim
hrvatsko
hrvatskog
hrvatskoga
hrvatskoj
hrvatskom
hrvatskome
hrvatskomu
hrvatsku
hrvatstva
hrvatstvo
hrvoja
hrvoje
hrz
hs
hsls
hsp
hss
hsu
hsv
ht
htio
htjede
htjedos
htjela
htjele
htjeli
htjelo
htjeti
htm
html
http
https
htv
hu
hua
huang
hub
hubb
hubble
hubert
huda
hudson
huga
hugh
hughes
hugo
huljic
hull
hum
huma
humac
human
humanist
humanistic
humanitarna
humanitarne
humanitarni
humanitarnih
humanitarnim
humbert
humboldt
humor
humora
humoristic
humu
huna
hung
hungarian
hungary
huni
hunt
hunter
hurley
hurt
hus
husein
husrev
hutch
huwa
huygens
hv
hvala
hvale
hvali
hvalili
hvalio
hvaliti
hvaljen
hvalospjev
hvalu
hvar
hvara
hvarska
hvaru
hvata
hvataju
hvatanje
hvatis
hvl
hvo
hvs
hymenophyllum
hypericum
hz
i
ia
iaaf
iako
ian
iana
iata
ib
iba
ibenc
ibenik
ibenika
ibeniku
ibenska
ibenske
ibenski
ibensko
ibenskog
iberije
ibm
ibn
ibrahim
ic
ica
icama
icao
ice
ich
ici
icom
icty
icu
id
ida
idaho
idar
ide
ideal
ideala
idealan
idealna
idealni
idealno
idealnog
ideja
idejama
ideje
ideji
idejni
idejno
idejom
ideju
idem
idemo
identic
identificira
identificiraju
identificirao
identificirati
identifikacija
identifikacije
identifikacijskim
identifikaciju
identitet
identiteta
identitetu
identity
ideologija
ideologije
ideologiju
ideolos
ides
idf
idh
idha
idi
idite
idol
idola
idole
idoli
idolima
idov
idova
idove
idovi
idovima
idovska
idovske
idovski
idovskih
idovskim
idovsko
idovskog
idovskoj
idovskom
idovsku
ids
idu
iduc
ie
ieee
if
ifra
ig
iga
igara
igla
igle
igledno
iglic
iglica
iglice
igmund
igmunda
ign
ignacija
ignacije
ignacio
ignjat
igor
igora
igra
igrac
igraju
igrajuc
igrala
igrale
igrali
igralis
igralo
igrama
igran
igrana
igrane
igrani
igranja
igranje
igrano
igranog
igrao
igrati
igre
igri
igrom
igru
ih
ihf
ii
iii
ij
ija
ijas
ije
ijeg
ijem
iji
ijih
ijim
ijoj
ijom
iju
ik
ika
ikad
ikada
ikakva
ikakve
ikakvih
ikakvog
ikas
ike
ikko
ikom
ikona
ikone
ikov
il
ila
ilac
ilama
ilavost
ile
ilea
ileanski
ilegalne
ilegalno
ileu
ilex
ili
ilic
ilica
ilice
ilidz
ilija
ilijas
ilije
ilinois
ilinoisu
ilira
iliri
ilirik
ilirska
ilirske
ilirski
ilirskih
ilirsko
ilirskog
ilis
iliti
iljac
iljak
iljaka
iljic
iljin
iljka
iljke
illa
illinois
illustrated
ilo
iloc
ilok
iloku
ilovac
ilu
ilustracija
ilustracije
ilustrator
ilustrira
ilustrirao
iluzija
iluzije
im
ima
imade
imadu
image
images
imaju
imajuc
imala
imale
imali
imalo
imam
imama
imamo
imanja
imanje
imanju
imao
imas
imat
imate
imati
imax
imbenici
imbenicima
imbenik
imbenika
imdb
ime
imena
imendani
imenica
imenice
imenima
imenom
imenovala
imenovan
imenovana
imenovani
imenovanja
imenovanje
imenovanju
imenovao
imenovati
imenu
imenuje
imetak
img
imi
imic
imidz
imigranata
imir
imira
imo
imom
imotski
imotskog
imotskom
imovic
imovina
imovine
imovinom
imovinu
impact
impanze
impatiens
imperial
imperija
implicira
impresioniran
impuls
impulsa
imra
imu
imuc
imun
imuna
imunitet
imunolos
imunovic
in
ina
inac
inaca
inacionalni
inak
inaka
inama
inc
inca
incertae
inci
incidenata
incident
incidenta
incima
increment
ind
inda
indeks
indeksa
independence
independent
index
indexi
indi
india
indian
indiana
indianapolis
indians
indie
indigo
indija
indijanaca
indijance
indijanci
indijancima
indijanska
indijanski
indijanskih
indijansko
indije
indiji
indijska
indijske
indijski
indijskih
indijskog
indijskoj
indijskom
indiju
indirektno
individualna
individualne
individualni
individualnih
individualno
indo
indonezija
indonezije
indoneziji
industrial
industries
industrija
industrijalizacije
industrije
industriji
industrijska
industrijske
industrijski
industrijskih
industrijskim
industrijsko
industrijskog
industrijskoj
industrijskom
industrijsku
industriju
industry
ine
inec
ined
inercije
ines
infekcija
infekcije
inflacije
influence
info
infookviri
informacija
informacijama
informacije
informacijske
informacijski
informacijskih
informaciju
informatic
informatike
information
informativna
informativni
informiranja
informiranje
infracrveno
infracrvenom
infrastruktura
infrastrukture
infrastrukturu
infty
ing
inga
ingrid
inhibitori
ini
inic
inicijativa
inicijative
inicijativu
inicijator
inicirao
inih
inila
inile
inili
inilo
inim
inima
inimo
inio
inis
init
inite
initelj
initelja
initelji
initi
inj
inja
injava
injavaju
injavali
inje
injen
injena
injene
injeni
injenica
injenicama
injenice
injenici
injenicom
injenicu
injenih
injenja
injenje
injeno
inju
ink
inka
inke
inklinacija
inkom
inkovit
inkovita
inkovite
inkoviti
inkovitije
inkovitiji
inkovito
inkovitost
inkovitosti
inku
inn
inna
inner
innsbrucku
ino
inocent
inog
inoj
inom
inova
inovacija
inovacije
inovci
inovi
inovic
inovnici
inovnik
inovnika
inozemne
inozemni
inozemnih
inozemnim
inozemstva
inozemstvo
inozemstvu
inside
inska
inske
inski
inskih
inskim
insko
inskog
inskoj
inskom
insku
inspektor
inspiracija
inspiraciju
inspiriran
inspirirana
instagram
instalacija
instalacije
instalirana
instava
institucija
institucijama
institucije
institut
instituta
institute
institution
instituto
institutu
instrukcije
instruktor
instrumenata
instrument
instrumenta
instrumental
instrumentalna
instrumentalne
instrumentalni
instrumente
instrumenti
instrumentima
instva
instvo
instvu
int
integracija
integracije
integraciju
integrirani
integritet
integriteta
intel
intelektualac
intelektualaca
intelektualci
intelektualne
intelektualni
intelektualno
intelektualnog
inteligencija
inteligencije
inteligenciju
inteligentan
intelligence
intenzitet
intenziteta
intenzivna
intenzivne
intenzivno
intenzivnog
inter
intera
interakcija
interakcije
interakciju
interes
interesa
interese
interesi
interesima
interesne
interesu
interijer
interijera
interkontinentalni
intermedia
internacional
internacionalni
international
internationale
internazionale
internet
interneta
internetska
internetske
internetski
internetskih
internetskim
internetskoj
internetu
interpretacija
interpretacije
interpretaciji
interpretaciju
intertoto
interval
intervala
intervalima
intervalu
intervencija
intervencije
intervencijom
intervenciju
interview
intervju
intervjua
intervjue
intervjui
intervjuu
into
introduction
inu
invalida
invaliditetom
invazija
invazije
invaziji
invaziju
inventar
invention
investicija
investicije
inz
inzistira
inzistiranje
inzistirao
io
ion
iona
ionako
ione
ioni
ionica
ionice
ionizacije
ionizirajuc
ionski
ios
iowa
ip
ipa
ipac
ipak
iphone
ipka
ipke
ipki
ipomoea
ir
ira
irac
irak
iraka
iraku
irala
irali
iran
irana
irani
iranica
iranje
iranom
iranska
iranske
iranski
iranskih
iranskim
iransko
iranskog
iranskoj
iranskom
iranu
irao
irati
irb
ire
irec
ireg
ireland
irem
iren
irena
irene
ireni
irenih
ireniji
irenja
irenje
irenjem
irenju
ireno
irenu
iri
irija
iril
irila
irile
irili
irilic
irilica
irilice
irilo
irim
irina
irinama
irine
irini
irinom
irinu
irio
iris
irish
iriti
iro
iroj
irok
iroka
iroke
iroki
irokih
irokim
iroko
irokog
irokoj
irokom
iroku
irom
iron
ironic
irska
irske
irski
irskih
irskog
irskoj
irskom
irsku
iru
iruje
irving
irwin
is
isa
isaac
isabel
isbn
iseljavanja
iseljavanje
iseljenic
iseljenika
iseljenis
iser
ishod
ishoda
ishodis
ishrana
isjec
iskapanja
iskaz
iskaza
iskazao
iskazati
iskaznica
iskaznice
iskaznicu
iskazuje
iskljuc
iskoc
iskopavanja
iskoris
iskoristi
iskoristila
iskoristili
iskoristio
iskoristiti
iskoristivost
iskra
iskrcao
iskrcavanja
iskrcavanje
iskre
iskreno
iskus
iskusni
iskustava
iskustva
iskustvima
iskustvo
iskustvom
iskustvu
isla
islam
islama
islamic
islamska
islamske
islamski
islamskih
islamskim
islamskog
islamskoj
islamskom
islamu
island
islanda
islands
islandski
islandu
isle
ismail
iso
isoetes
ispada
ispadaju
ispadanja
ispadanje
ispala
ispali
ispao
isparavanja
isparavanje
ispas
ispis
ispisana
ispit
ispita
ispitanika
ispitati
ispite
ispitivanja
ispitivanje
ispitivanju
ispitivati
ispituje
isplac
isplati
ispoc
ispod
isporuc
isporuka
isporuke
ispostavilo
ispovijedi
isprac
isprava
ispravan
isprave
ispravi
ispraviti
ispravljac
ispravno
ispravnost
ispraz
ispred
ispric
ispruz
isprva
ispuni
ispunila
ispunio
ispuniti
ispunjava
ispunjavaju
ispunjen
ispunjena
ispunjene
ispunjeni
ispunjenje
ispunjeno
ispupc
ispus
israel
iss
issn
issue
issues
ist
ista
istac
istakao
istaknula
istaknuli
istaknuo
istaknut
istaknuta
istaknute
istaknuti
istaknutih
istaknutim
istaknuto
istanbul
istanbula
istanbulu
istarska
istarske
istarski
istarskih
istarskog
istarskoj
iste
isteka
istekao
isti
istic
isticala
isticali
isticanje
isticao
istih
istilis
istim
istima
istina
istine
istini
istinita
istinito
istinom
istinski
istinu
istiti
istjec
isto
istoc
istodobno
istog
istoga
istoimena
istoimene
istoimeni
istoimenim
istoimeno
istoimenog
istoimenoj
istoimenom
istoimenu
istoj
istok
istoka
istoku
istom
istome
istomis
istorija
istosmjerne
istospolne
istospolni
istospolnih
istovremeno
istra
istraga
istrage
istragu
istrapedia
istraz
istrc
istre
istri
istria
istros
istru
istu
istva
isus
isusa
isuse
isusom
isusov
isusova
isusovac
isusovaca
isusovci
isusove
isusovo
isusovu
isusu
it
ita
itac
itaj
itaju
itajuc
itak
itala
itali
italia
italian
italiana
italija
italije
italiji
italijom
italiju
italy
itanja
itanje
itanju
itao
itaonica
itaonice
itarica
itarice
itatelja
itatelji
itati
itav
itava
itave
itavi
itavim
itavo
itavog
itavoj
itavom
itavu
itd
ite
itekako
itelj
itelja
itelje
iteljem
itelji
iteljica
iteljice
iteljima
iteljsku
iteljstvo
itelju
item
itemid
itf
iti
itih
itije
itim
itka
itko
itluk
ito
itog
itom
itost
itosti
its
itu
ituje
ituju
itunes
iu
iucn
ius
iv
iva
ivac
ivaca
ivaju
ivala
ivale
ivali
ivalo
ivan
ivana
ivanc
ivane
ivanec
ivani
ivanic
ivanis
ivanja
ivanje
ivanjem
ivanjima
ivanju
ivanka
ivankovic
ivankovo
ivanom
ivanov
ivanova
ivanovac
ivanovci
ivanovic
ivanovo
ivanu
ivao
ivas
ivati
ivc
ivca
ivci
ive
ivec
ivekovic
ivez
ivi
ivic
ivica
ivice
ivici
ivicu
ivih
ivim
ivimo
ivinice
ivio
ivjela
ivjele
ivjeli
ivjelih
ivjelo
ivjet
ivjeti
ivka
ivko
ivkovic
ivljaj
ivljava
ivljavaju
ivljavanja
ivljavanje
ivljavao
ivljenja
ivljenje
ivo
ivog
ivoga
ivoj
ivom
ivost
ivosti
ivot
ivota
ivote
ivoti
ivotima
ivotinja
ivotinjama
ivotinje
ivotinjske
ivotinjski
ivotinjskih
ivotinjskim
ivotinjskog
ivotinju
ivotna
ivotne
ivotni
ivotnih
ivotnim
ivotno
ivotnog
ivotnoj
ivotnom
ivotnu
ivotom
ivotopis
ivotopisi
ivotu
ivs
ivu
ivuc
ix
ixora
iz
iza
izabela
izabere
izabire
izabrala
izabrali
izabran
izabrana
izabrane
izabrani
izabranih
izabrano
izabrao
izabrati
izac
izaija
izak
izaka
izam
izas
izaslanici
izaslanik
izaslanika
izaslanstva
izaslanstvo
izaziva
izazivaju
izazov
izazova
izazove
izazvala
izazvali
izazvalo
izazvane
izazvao
izazvati
izađe
izbac
izbaci
izbacila
izbacili
izbacio
izbaciti
izbacivanja
izbacivanje
izbacuje
izbacuju
izbavi
izbic
izbija
izbijaju
izbijanja
izbijanje
izbijanjem
izbijanju
izbila
izbili
izbio
izbjec
izbjegao
izbjegava
izbjegavaju
izbjegavanja
izbjegavanje
izbjegavati
izbjegla
izbjegli
izbjeglic
izbjeglica
izbjeglicama
izbjeglice
izbjeglis
izbjeglo
izbjegne
izboc
izbor
izbora
izbore
izbori
izborila
izborili
izborima
izborio
izboriti
izborna
izborne
izborni
izbornici
izbornih
izbornik
izbornika
izbornim
izborno
izbornog
izbornoj
izbornom
izbornu
izborom
izboru
izd
izdaje
izdaju
izdala
izdaleka
izdali
izdan
izdana
izdanak
izdane
izdani
izdanja
izdanje
izdanjima
izdanju
izdano
izdao
izdas
izdati
izdavac
izdavanja
izdavanje
izdavanjem
izdavao
izdavas
izdavati
izdiz
izdrz
izduz
izdvaja
izdvajaju
izdvajanje
izdvajanjem
izdvojena
izdvojeno
izdvojiti
ize
izetbegovic
izgara
izgaranja
izgaranje
izgaranjem
izgled
izgleda
izgledaju
izgledala
izgledalo
izgledao
izgledati
izgledom
izgledu
izgorio
izgorjela
izgovara
izgovaraju
izgovor
izgovora
izgovori
izgovorio
izgovorom
izgradi
izgradila
izgradili
izgradio
izgraditi
izgradnja
izgradnje
izgradnji
izgradnjom
izgradnju
izgrađen
izgrađena
izgrađene
izgrađeni
izgrađenih
izgrađeno
izgrađuje
izgube
izgubi
izgubila
izgubile
izgubili
izgubilo
izgubio
izgubiti
izgubivs
izgubljen
izgubljena
izgubljene
izgubljeni
izgubljenih
izgubljeno
izgubljenog
izic
izidor
izis
iziđe
izjas
izjasnilo
izjava
izjavama
izjave
izjavi
izjavila
izjavili
izjavio
izjavivs
izjavljuje
izjavom
izjavu
izjednac
izl
izlaganja
izlaganje
izlagao
izlaska
izlaskom
izlasku
izlaz
izlaza
izlazak
izlaze
izlazi
izlazila
izlazile
izlazio
izlaziti
izlazna
izlazne
izlazni
izlazu
izlet
izletis
izlijec
izloz
izluc
izma
izme
izmedju
između
izmic
izmijenio
izmijeniti
izmijenjen
izmijenjena
izmijes
izmis
izmislio
izmjena
izmjenama
izmjene
izmjenic
izmjenjivac
izmjenjuju
izmjenu
izmjerena
izmjeri
izmjeriti
izmuc
iznad
iznenada
iznenadio
iznenadne
iznenadno
iznenađen
iznenađenja
iznenađenje
iznenađujuc
iznijeli
iznijeti
izniman
iznimka
iznimke
iznimkom
iznimku
iznimne
iznimno
iznio
iznos
iznosa
iznose
iznosi
iznosila
iznosili
iznosio
iznositi
iznosu
iznova
iznutra
izobilju
izoblic
izobrazbu
izolacija
izolacije
izolaciju
izoliran
izolirana
izolirane
izolirani
izopac
izopc
izotop
izotopa
izotopi
izrac
izrada
izradbu
izrade
izradi
izradila
izradili
izradio
izraditi
izradom
izradu
izrael
izraela
izraelci
izraele
izraeliti
izraelom
izraelov
izraelova
izraelove
izraelovi
izraelovih
izraelovim
izraelovog
izraelovu
izraelska
izraelske
izraelski
izraelskih
izraelsko
izraelskog
izraelu
izrastao
izravan
izravna
izravne
izravni
izravnih
izravnim
izravno
izravnog
izravnom
izravnu
izraz
izraza
izraze
izrazi
izrazila
izrazili
izrazima
izrazio
izraziti
izrazito
izrazom
izrazu
izrađen
izrađena
izrađene
izrađeni
izrađenih
izrađeno
izrađivali
izrađivao
izrađivati
izrađuje
izrađuju
izrec
izreka
izrekao
izreke
izric
izrijekom
izruc
izuc
izum
izuma
izumi
izumio
izumiranja
izumiranje
izumitelj
izumrla
izumrle
izumrli
izumro
izuzetak
izuzetan
izuzetkom
izuzetne
izuzetno
izuzev
izuzevs
izv
izvadi
izvan
izvana
izvanbrac
izvangalaktic
izvanredan
izvanredna
izvanredne
izvanredni
izvanrednih
izvanrednim
izvanredno
izvanrednog
izvanrednom
izvanrednu
izvedba
izvedbama
izvedbe
izvedbi
izvedbom
izvedbu
izvede
izveden
izvedena
izvedene
izvedeni
izvedeno
izvela
izveli
izveo
izvesti
izvidnic
izvijestio
izvire
izviđac
izviđanje
izvjes
izvjesno
izvlac
izvode
izvodec
izvodi
izvodila
izvodili
izvodio
izvoditi
izvolite
izvor
izvora
izvore
izvori
izvorima
izvoris
izvorna
izvorne
izvorni
izvornih
izvornik
izvornika
izvorniku
izvornim
izvorno
izvornog
izvornoj
izvornom
izvornu
izvorom
izvoru
izvoz
izvoza
izvozi
izvozna
izvozni
izvođac
izvođenja
izvođenje
izvođenjem
izvođenju
izvrs
izvrsna
izvrsne
izvrsno
izvrstan
izvuc
izvukao
izzy
j
ja
jablanica
jabuc
jabuka
jabuke
jac
jaci
jack
jacka
jackie
jackson
jacksona
jacob
jacobs
jacq
jacqueline
jacques
jacquesa
jad
jada
jade
jadran
jadrana
jadranka
jadranska
jadranske
jadranski
jadransko
jadranskog
jadranskoj
jadranskom
jadranu
jagelovic
jagic
jagoda
jagode
jagodnjak
jaguar
jahac
jahve
jaja
jajac
jajas
jajca
jajce
jajcu
jaje
jajeta
jajima
jak
jaka
jake
jaki
jakih
jakim
jako
jakob
jakog
jakom
jakost
jakosti
jakov
jakova
jakovljev
jakovljeva
jakovljevic
jakovu
jaks
jaku
jals
jam
jama
jamac
jamajc
jamajka
jamajke
jamc
jame
james
jamesa
jamesom
jamesu
jami
jamie
jamstvo
jamu
jan
jana
janc
jane
janeiro
janeiru
janet
janez
janice
janjatovic
janje
janjic
janka
janko
jankovci
jankovic
january
jao
jaoh
jap
japan
japana
japanci
japanese
japanska
japanske
japanski
japanskih
japanskim
japansko
japanskog
japanskoj
japanskom
japansku
japanu
japonica
jar
jarak
jaram
jarbola
jarda
jardi
jarmina
jaroslav
jaruga
jas
jasan
jasen
jasenovac
jasenovca
jasenovcu
jaslice
jasmin
jasmina
jasna
jasne
jasni
jasnije
jasnim
jasno
jasnoc
jasnu
jason
jastrebarsko
jata
jato
java
jave
javi
javier
javila
javio
javiti
javlja
javljaju
javljati
javna
javne
javni
javnih
javnim
javno
javnog
javnoga
javnoj
javnom
javnos
javnost
javnosti
javnu
javor
javora
jay
jaz
jazavica
jazu
jazz
jazza
je
jean
jeana
jeanne
jec
jeda
jedan
jedanaest
jedanaesterac
jedanaesteraca
jedanaesterca
jedanaesti
jedanput
jede
jedi
jedija
jedina
jedine
jedini
jedinic
jedinica
jedinicama
jedinice
jedinici
jedinicom
jedinicu
jedinim
jedinke
jedinki
jedino
jedinog
jedinom
jedinstva
jedinstven
jedinstvena
jedinstvene
jedinstveni
jedinstvenih
jedinstvenim
jedinstveno
jedinstvenog
jedinstvenoj
jedinstvenom
jedinstvenu
jedinstvo
jedinstvu
jedinu
jedna
jednadz
jednak
jednaka
jednake
jednaki
jednakih
jednakim
jednako
jednakog
jednakom
jednakost
jednakosti
jednaku
jedne
jedni
jednih
jednim
jednine
jedno
jednobrodna
jednog
jednoga
jednoglasno
jednogodis
jednoj
jednolic
jednoliko
jednom
jednome
jednostavan
jednostavna
jednostavne
jednostavni
jednostavnih
jednostavnije
jednostavniji
jednostavnim
jednostavno
jednostavnog
jednostavnom
jednostavnost
jednostavnosti
jednostavnu
jednostrano
jednostrukom
jednoznac
jednu
jedra
jedrenje
jedrilic
jedro
jedu
jedva
jeff
jefferson
jeffrey
jeftinije
jeftiniji
jeg
jega
jeku
jela
jelac
jelavic
jelc
jele
jelen
jelena
jelene
jeleni
jeli
jelic
jelica
jelisavac
jelo
jels
jelsa
jem
jemen
jemena
jemenu
jenk
jenkins
jennifer
jenny
jens
jensen
jeo
jer
jere
jeremija
jeremy
jerko
jerkovic
jeronim
jeronima
jerry
jersey
jerusalem
jerusalemu
jeruzalem
jeruzalema
jeruzalemski
jeruzalemu
jes
jesam
jesen
jeseni
jesenice
jesenski
jesenskog
jesi
jesmo
jesse
jessica
jest
jeste
jesti
jestiva
jestive
jestivo
jesu
jesus
jet
jetra
jetre
jetri
jevgenij
jewish
jez
jezera
jezerima
jezero
jezerom
jezeru
jezgara
jezgra
jezgrama
jezgre
jezgri
jezgrom
jezgru
jezic
jezici
jezicima
jezik
jezika
jezike
jezikom
jezikoslovac
jezikoslovci
jezikoslovlje
jeziku
ji
jih
jill
jim
jima
jime
jimi
jimmy
jin
jis
jlz
jna
jns
jo
joa
joab
joachim
joakim
joan
job
joe
joea
joel
joey
johan
johann
johanna
johannes
johanss
johansson
john
johna
johnny
johnnyja
johnom
johns
johnson
johnsona
johnst
johnston
johnu
joint
joj
joker
jom
jon
jona
jonas
jonatan
jonathan
jones
jonesa
jong
jonjic
jonski
jordan
jordana
jordanu
jorge
jos
jose
josef
joseph
josepha
josh
joshua
josip
josipa
josipom
josipovac
josipovic
josipu
joso
journal
journey
jovan
jovana
jovanovic
jovi
jovic
joy
joyce
joz
joze
jozo
jp
jpeg
jpg
jpl
jr
jrm
js
jstor
ju
juan
juana
jubilej
juc
juda
judaizam
judas
judd
jude
judeje
judi
judita
judith
judo
judu
judy
jug
juga
jugo
jugoistoc
jugoistok
jugoistoka
jugoistoku
jugokomunistic
jugoslaveni
jugoslavenska
jugoslavenske
jugoslavenski
jugoslavenskih
jugoslavenskim
jugoslavensko
jugoslavenskog
jugoslavenskoj
jugoslavenskom
jugoslavensku
jugoslavija
jugoslavije
jugoslaviji
jugoslavijom
jugoslaviju
jugoton
jugozapad
jugozapada
jugozapadne
jugozapadni
jugozapadno
jugozapadnog
jugozapadnoj
jugozapadnom
jugozapadu
jugu
juha
jukic
jules
julia
julian
julie
julija
julijana
julije
julin
julio
julius
july
jump
jun
junac
junaci
junacima
junak
junaka
junake
junaku
junas
june
jung
jungle
junior
juniora
juniore
juniori
juniorski
juniorskom
juniperus
juno
jupiter
jupitera
jupiterove
jur
jura
juraj
jurc
jure
juri
juric
jurica
jurij
jurinea
juris
jurja
jurjevac
jurjevic
jurju
jurkovic
jus
juss
just
justice
justicia
justify
justin
justina
justinijan
jutarnji
jutarnjim
jutra
jutro
jutros
juventus
juventusa
juz
jz
k
ka
kabale
kabel
kabela
kabina
kabine
kabinet
kabineta
kabini
kac
kaciga
kacige
kad
kada
kadar
kades
kadeti
kadgod
kadra
kadrova
kads
kadz
kafaru
kafic
kafka
kai
kairo
kairu
kaiser
kaj
kajak
kajkavske
kajkavski
kajkavsko
kaju
kak
kakanj
kakav
kako
kakva
kakve
kakvi
kakvih
kakvim
kakvo
kakvoc
kakvog
kakvoj
kakvom
kakvu
kal
kala
kalac
kalamarko
kalcij
kalcija
kalcijev
kale
kalendar
kalendara
kalendarski
kalendaru
kalez
kali
kalibra
kalif
kalifa
kalifornija
kalifornije
kaliforniji
kalifornijskom
kaliforniju
kalij
kalija
kalijev
kalinic
kalnik
kaloc
kalogjera
kam
kama
kamanje
kamate
kambodz
kamc
kamen
kamena
kamene
kameni
kamenica
kamenih
kamenim
kamenja
kamenjar
kamenje
kamenjem
kameno
kamenog
kamenom
kamenu
kamera
kamerama
kamere
kamerom
kameru
kamerun
kameruna
kamerunu
kami
kamilo
kamion
kamiona
kamo
kamoli
kamov
kamp
kampa
kampanja
kampanje
kampanji
kampanju
kampu
kan
kana
kanaan
kanada
kanade
kanadi
kanadska
kanadske
kanadski
kanadskih
kanadskog
kanadskoj
kanadskom
kanadu
kanal
kanala
kanale
kanali
kanalima
kanalom
kanalu
kanat
kanata
kancelar
kancelara
kanda
kandidat
kandidata
kandidate
kandidati
kandidaturu
kandidirao
kandz
kane
kani
kaniz
kanje
kanjon
kanjona
kano
kanon
kanonik
kanonika
kanonskog
kansas
kant
kantautor
kanton
kantona
kantonalna
kantonu
kanu
kao
kaos
kaosa
kaotic
kap
kapa
kapacitet
kapaciteta
kapaciteti
kapacitetom
kape
kapela
kapelan
kapelana
kapele
kapeli
kapelica
kapelice
kapelicu
kapelu
kapetan
kapetana
kapetane
kapetani
kapetanica
kapetanija
kapetanije
kapetanom
kapetanu
kapi
kapital
kapitala
kapitalistic
kapitalizam
kapitalizma
kapitulacije
kapljica
kapljice
kapom
kapsula
kaptol
kaptola
kaptolu
kapu
kaput
kar
kara
karac
karaca
karadz
karakter
karaktera
karakteristic
karakteristika
karakteristikama
karakteristike
karakterizira
karakteriziraju
karakteru
karaman
karas
karata
karate
karaula
karavan
karađorđevic
karbonat
karbonata
karca
karce
karci
karcima
karcinom
karcinoma
kardinal
kardinala
kardinali
kardinalom
kare
karel
karen
kari
kariba
karibima
karic
karijera
karijere
karijeri
karijerom
karijeru
karika
karl
karla
karlo
karlom
karlovac
karlovca
karlovcima
karlovcu
karlovic
karlu
karmelic
karneval
karolina
karoline
karolini
karolins
karpata
karta
kartama
kartas
kartaz
karte
karti
kartica
kartice
karticu
karting
kartograf
kartografi
kartografija
karton
kartona
kartu
kas
kasije
kasne
kasni
kasnih
kasnija
kasnije
kasnijeg
kasnijem
kasniji
kasnijih
kasnijim
kasnijoj
kasnim
kasno
kasnoantic
kasnog
kasnoj
kasnom
kaspijskog
kasta
kastav
kaste
kasti
kastilje
kasto
kat
kata
katalinic
katalizator
katalizatora
katalog
kataloga
katalogu
katalonije
katalonski
katalos
katar
katara
katarina
katarine
katarini
katarinom
katarinu
katastrofa
katastrofe
katastrofu
kate
katedra
katedrala
katedrale
katedrali
katedralu
katedre
katedri
kategorija
kategorijama
kategorije
kategoriji
kategoriju
katekizam
katharine
katherine
kathleen
kati
katic
katie
katkad
katkada
kato
katoda
katode
katolic
katolici
katolicima
katolik
katolika
katolike
katova
katu
katy
kauc
kava
kavana
kave
kavkaz
kavkaza
kavkazu
kavu
kay
kaz
kazahstan
kazahstana
kazahstanu
kazalis
kazaljke
kazan
kazao
kazati
kazimir
kazna
kazne
kaznena
kaznene
kazneni
kaznenih
kaznenim
kazneno
kaznenog
kaznenom
kazni
kaznio
kaznit
kazniti
kaznom
kaznu
kazuje
kb
kbc
kc
kckz
kd
ke
keanu
keaton
kec
keep
keglevic
keith
keller
kelly
kelti
keltski
kemal
kemic
kemija
kemije
kemiji
kemijska
kemijske
kemijski
kemijskih
kemijskim
kemijsko
kemijskog
kemijskoj
kemijskom
kemijsku
kemiju
kemikalija
kemikalije
ken
kenija
kenije
keniji
kennedy
kenneth
kenny
kent
kentucky
kepler
ker
keramic
keramika
keramike
kerempuh
kern
keros
kers
kes
kessler
kevin
kevina
key
kf
kg
kgb
kha
khalifa
khan
khl
khuen
ki
kic
kid
kids
kiel
kih
kijev
kijeva
kijevske
kijevu
kiklop
kill
killer
killing
killip
kilograma
kilometar
kilometara
kilometra
kim
kima
kimi
kin
kina
kind
kine
kinematografije
kineska
kineske
kineski
kineskih
kineskim
kinesko
kineskog
kineskoj
kineskom
kinesku
kinetic
kineza
kinezi
king
kinga
kingdom
kings
kingston
kini
kinima
kinja
kinje
kino
kinom
kinu
kiowa
kip
kipa
kipar
kipara
kipari
kiparstva
kiparstvo
kipova
kipovi
kir
kira
kirgistan
kirk
kirschner
kirurg
kirurgije
kirurs
kis
kisela
kiselina
kiselinama
kiseline
kiselinom
kiselinu
kiseljak
kisic
kisik
kisika
kisikom
kiss
kit
kita
kitam
kitarovic
kitova
kitovi
kj
kk
kladus
klaic
klan
klana
klanac
klanca
klanja
klanjaju
klanjanje
klanjati
klanova
klapa
klape
klara
klaric
klarica
klarinet
klas
klasa
klase
klasi
klasic
klasicistic
klasicizma
klasificira
klasificiraju
klasificiran
klasificirano
klasifikacija
klasifikacije
klasifikaciji
klasifikaciju
klasika
klasje
klasu
klaudija
klaudije
klaus
klavijatura
klavijature
klavijaturist
klavir
klavira
klec
klee
klein
klek
klement
klementa
kler
klera
kletva
klic
klijent
klijenta
klijes
klikne
klima
klimatske
klimatski
klimatskih
klimatskim
klime
klimi
klimom
klimu
klin
klina
klinc
klinic
klinici
klinika
klinike
klip
klipa
klis
klisa
klix
klizac
klizanja
klizanje
kljakovic
kljes
kljuc
kljun
kljuna
kljunom
klobuc
klobuk
klokoc
klor
klora
klorid
klorida
klos
klotzsch
klovic
klub
kluba
klubom
klubova
klubove
klubovi
klubovima
klubu
klupe
klupi
klupska
klupske
klupski
klupsko
klupskog
klupskoj
klupu
km
kmetova
kmetovi
kn
kneginja
knez
kneza
knezom
knezova
knezovi
knezovic
knezovima
knezu
knicksa
knight
knights
knin
knina
kninska
kninske
kninskoj
kninu
knj
knjaz
knjiga
knjigama
knjige
knjigom
knjigu
knjiz
knjizi
know
knowledge
known
knut
knuth
ko
koalicija
koalicije
koaliciji
koaliciju
koautor
kobe
koc
koch
kocka
kocke
kod
koda
kodeks
kodeksa
koeficijent
kog
koga
kogorac
koidz
koj
koja
koje
kojeg
kojega
kojem
kojemu
koji
kojih
kojim
kojima
kojoj
kojom
koju
kokain
kokaina
kokos
kol
kola
kolac
kolama
kolar
kolaric
kolas
kolaz
kole
koledz
kolega
kolegama
kolege
kolegij
kolegija
kolegom
kolegu
kolekcija
kolekcije
kolekciju
kolektiv
kolektivno
kolektora
kolere
kolesterola
koli
koliba
kolibe
kolic
kolica
kolicima
kolika
koliki
koliko
kolima
kolinda
koljaka
koljena
koljenima
koljeno
koljkas
koljke
kolo
kolodvor
kolodvora
kolodvoru
kolokvijalno
kolom
koloman
kolona
kolone
kolonija
kolonijalne
kolonijalnih
kolonijalnog
kolonijama
kolonije
koloniji
koloniju
kolonista
kolonisti
kolonizacija
kolonizacije
kolosijeka
kolovanja
kolovanje
kolovao
kolovoz
kolovoza
kolovozu
kolska
kolske
kolski
kolskih
kolskim
kolsko
kolskog
kolskoj
kolskom
kolsku
kolstva
kolstvo
kolu
kolumbija
kolumbije
kolumbiji
kolumbijski
kolumbo
kolumne
kolumnist
kom
koma
komad
komada
komade
komadi
komadic
komadu
komande
kombinacija
kombinacije
kombinaciji
kombinacijom
kombinaciju
kombinira
kombiniraju
kombinirana
kombinirani
kome
komedija
komedije
komediji
komediju
komentar
komentara
komentare
komentari
komentarima
komentator
komentira
komentirao
komercijalna
komercijalne
komercijalni
komercijalnih
komercijalnim
komercijalno
komercijalnog
komesar
komesara
komet
kometa
kometi
komi
komic
komisija
komisije
komisiji
komisiju
komitet
komiteta
komiz
komletinci
komnen
komnena
komora
komore
komori
komorni
komoru
kompanija
kompanije
kompaniji
kompaniju
komparativnu
kompas
kompilacija
kompilacije
kompilaciji
kompilacijski
kompilaciju
kompleks
kompleksa
kompleksne
kompleksni
kompleksu
komplet
kompletan
kompletna
kompletne
kompletno
kompletnu
komplikacija
komplikacije
komponenata
komponenta
komponente
komponenti
komponentu
kompozicija
kompozicije
kompoziciju
kompozitor
kompresor
kompresora
kompromis
koms
komu
komuna
komunalnog
komune
komunicirati
komunikacija
komunikacije
komunikaciji
komunikacijske
komunikacijski
komunikacijskih
komunikaciju
komunist
komunista
komunisti
komunistic
komunistima
komunizam
komunizma
kon
konac
konavle
konc
konca
koncem
koncentracija
koncentracije
koncentraciji
koncentracijski
koncentraciju
koncentric
koncentrirana
koncepcija
koncepcije
koncepciju
koncept
koncepta
koncepti
konceptu
konceptualni
koncerata
koncert
koncerta
koncerte
koncerti
koncertima
koncertna
koncertne
koncertni
koncertnim
koncertom
koncertu
koncil
koncila
koncu
kondenzacijom
kondenzator
kondenzatora
kondenzira
konfederacija
konfederacije
konfederaciji
konfederaciju
konferencija
konferencije
konferenciji
konferenciju
konfiguracija
konfiguracije
konfiguraciji
konfiguraciju
kong
konga
kongo
kongoanski
kongregacija
kongregacije
kongres
kongresa
kongresu
kongu
konj
konja
konjanic
konjanici
konjanik
konjanika
konjanis
konje
konji
konjic
konjica
konjice
konjicu
konjima
konjski
konjskih
konju
konjus
konkretne
konkretno
konkurencija
konkurencije
konkurenciji
konkurenciju
konobar
konobarica
konrad
konsenzus
konstanta
konstantan
konstante
konstantin
konstantina
konstantna
konstantno
konstantnom
konstruiran
konstruirao
konstrukcija
konstrukcije
konstrukciji
konstrukcijom
konstrukcijski
konstrukciju
konstruktor
konstruktora
konstruktori
kontakata
kontakt
kontakta
kontakte
kontaktirao
kontaktne
kontaktu
kontejnera
kontekst
konteksta
kontekstno
kontekstu
kontinenata
kontinent
kontinenta
kontinentalna
kontinentalne
kontinentalni
kontinentalnoj
kontinentalnom
kontinentima
kontinentska
kontinentu
kontinuirani
kontinuirano
kontinuitet
kontinuiteta
kontinuitetu
kontra
kontrabas
kontrast
kontrastu
kontrola
kontrole
kontroli
kontrolira
kontroliraju
kontrolirala
kontrolirali
kontrolirao
kontrolirati
kontrolne
kontrolni
kontrolom
kontrolu
kontroverze
kontroverzna
konvencija
konvencije
konvenciji
konvenciju
konvencionalne
konvoj
konvoja
konzervacija
konzervacije
konzervativna
konzervativne
konzervativni
konzervatora
konzervatoriju
konzervatorsko
konzerviranje
konzistorij
konzola
konzole
konzul
konzula
koordinacije
koordinaciju
koordinata
koordinatama
koordinate
koordinatni
koordinator
kopa
kopac
kopc
kopenhagen
kopenhagenu
koper
kopija
kopije
kopiju
koplja
koplje
kopljem
kopna
kopnena
kopnene
kopneni
kopnenih
kopnenim
kopno
kopnom
kopnu
koprek
koprivnic
koprivnica
koprivnice
koprivnici
koprodukciji
kor
kora
korac
koraci
koracima
korak
koraka
korake
korakom
koraku
koraljni
korana
korc
kordic
korduna
kore
korea
koreja
koreje
koreji
korejski
korejskog
koreju
kori
koric
koridor
koridora
korijen
korijena
korijene
korijeni
korijenima
korijenje
korijenu
korinc
koris
korisna
korisne
korisni
korisnic
korisnici
korisnicima
korisnik
korisnika
korisnike
korisniku
korisno
korisnog
korisnost
korisnosti
korist
koristan
koriste
koristec
koristi
koristila
koristile
koristili
koristilo
koristimo
koristio
koristite
koristiti
korita
korito
kormilara
kormilo
kornelije
kornjac
koro
korona
koronavirus
koronavirusa
koros
korozija
korozije
koroziju
korporacija
korporacije
korpus
korpusa
korpusom
korpusu
koru
korupcija
korupcije
korupciju
korus
korvin
korvina
kos
kosa
kosac
kose
kosi
kosim
kositar
kositra
kosmos
koso
kosom
kosor
kosova
kosovo
kosovski
kosovu
kost
kosta
kostajnica
kostarika
kostarike
kostelic
kosterm
kosti
kostic
kostiju
kostim
kostima
kostur
kostura
kosu
kot
kota
kotac
kotao
kotar
kotara
kotari
kotaru
kote
koti
kotla
kotlina
kotline
kotlini
kotor
kotora
kotorska
kotorske
kotorskoj
kotoru
kotromanic
kotska
kotske
kotski
kotskog
kotskoj
kotskom
kotsku
kov
kova
kovac
kovanica
kovanice
kovanje
kovc
kovci
kove
kovi
kovic
kovima
kovina
kovine
kovo
koz
koza
kozac
kozaci
kozarac
koze
kozmetic
kozmic
kozmodroma
kp
kpa
kph
kpj
kr
kra
krac
krade
kraenzl
kraft
kragujevac
kraj
kraja
krajac
krajem
krajeva
krajeve
krajevi
krajevima
krajina
krajine
krajini
krajinu
krajis
krajnja
krajnje
krajnjeg
krajnjem
krajnji
krajnjih
krajolik
krajolika
kraju
krak
kraka
krakova
krakovi
krakovu
kralj
kralja
kraljem
kraljes
kraljev
kraljeva
kraljeve
kraljevi
kraljevic
kraljevima
kraljevina
kraljevinah
kraljevine
kraljevini
kraljevinom
kraljevinu
kraljevo
kraljevoj
kraljevska
kraljevske
kraljevski
kraljevskih
kraljevskim
kraljevsko
kraljevskog
kraljevskoj
kraljevskom
kraljevsku
kraljevstava
kraljevstva
kraljevstvo
kraljevstvom
kraljevstvu
kraljevu
kraljez
kraljic
kraljica
kraljice
kraljici
kraljicom
kraljicu
kralju
kramer
kranj
kranjc
kranjske
krapina
krapine
krapini
krapinsko
kras
krasi
krasna
krasno
kratak
krater
kratera
krateri
kratica
kratice
kratka
kratke
kratki
kratkih
kratkim
kratko
kratkog
kratkoj
kratkom
kratkometraz
kratkoroc
kratkotrajne
kratkotrajno
kratku
krause
krauss
krava
krave
krađa
krađe
krc
kreativne
kreativni
kreativnost
kreativnosti
kreator
krec
krede
kredit
kredita
kreirao
krene
krenu
krenula
krenule
krenuli
krenulo
krenuo
krenuti
kreolski
kres
kretala
kretanja
kretanje
kretanju
kretao
kretati
krete
kreti
kretnje
krevet
kreveta
krevetu
krhotine
kric
krije
krijumc
krik
krila
krilima
krilni
krilnog
krilo
krilom
krilu
krim
krima
kriminal
kriminala
kriminalac
kriminalistic
krimski
krimu
krinja
kris
krist
krista
kristal
kristala
kristali
kristalic
kristalna
kristalne
kristalni
kristalnih
kristalnu
kriste
kristian
kristijan
kristina
kristofor
kristom
kristov
kristova
kristove
kristovo
kristovu
kristu
kriterij
kriterija
kriterije
kriteriji
kriterijima
kritic
kritici
kritika
kritikama
kritike
kritiku
kritizira
kritizirali
kritiziran
kritizirao
kriv
kriva
krivac
krive
krivi
krivic
krivim
krivnja
krivnje
krivnju
krivo
krivulja
krivulje
kriz
kriza
krize
krizi
krizu
krk
krka
krke
krku
krlez
krlj
krmi
krmpotic
krn
krnjak
kroatien
krojac
krokodil
krokodila
krom
kroma
kromosom
kromosoma
kronic
kronici
kronika
kronike
kronologija
kronolos
kros
krov
krova
krovis
krovna
krovom
krovovima
krovu
kroz
krs
krst
krstarec
krstarenja
krstarica
krstarice
krstas
krste
krstic
krstionica
krstitelj
krstitelja
krsto
krstulovic
krug
kruga
krugom
krugova
krugove
krugovi
krugovima
krugu
kruh
kruha
kruhom
krumpir
krumpira
kruna
krune
kruni
krunica
krunice
krunicu
krunidba
krunidbe
kruno
krunom
krunoslav
krunu
krupa
krupne
krus
kruta
krute
kruti
krutih
kruto
kruz
krv
krvarenja
krvarenje
krvava
krvave
krvavi
krvavih
krvavo
krvi
krvlju
krvna
krvne
krvni
krvnih
krvnim
krvnog
krvoprolic
krvotok
krz
krzna
krzno
krznom
ks
ksaver
ksenija
kserkso
kt
kta
ku
kuba
kubanski
kube
kubi
kubic
kubrick
kuc
kuca
kud
kuda
kuga
kuge
kugla
kuglac
kuglacki
kuglanje
kuglasti
kugle
kugli
kuglic
kuglica
kuglice
kuglu
kuh
kuha
kuhanje
kuhar
kuharic
kuhinja
kuhinje
kuhinji
kuhinju
kuhn
kuje
kujundz
kuk
kuka
kukaca
kukavic
kukavica
kukce
kukci
kukcima
kukuljevic
kukuruz
kukuruza
kula
kulama
kule
kulenovic
kuli
kulina
kulminaciju
kult
kulta
kultni
kultura
kulturama
kulture
kulturi
kulturna
kulturne
kulturni
kulturnih
kulturnim
kulturno
kulturnog
kulturnoj
kulturnom
kulturnu
kulturolos
kulturom
kulturu
kulu
kum
kuma
kume
kumic
kumordinar
kumu
kuna
kune
kung
kunic
kunskoj
kunst
kunstman
kunth
kuntum
kuntze
kunze
kup
kupa
kupac
kupaca
kupalis
kupanje
kupca
kupci
kupcima
kupe
kupi
kupila
kupili
kupio
kupiti
kupke
kupnje
kupnju
kupola
kupole
kupoli
kupolom
kupolu
kupova
kupovati
kupovi
kupres
kupu
kupuje
kupuju
kur
kuran
kurana
kurda
kurdi
kurdski
kurija
kurije
kurs
kurt
kurtovic
kurz
kus
kustos
kut
kuta
kutija
kutije
kutiju
kutina
kutna
kutne
kutni
kutom
kutova
kutovi
kutovima
kutu
kuvajt
kuz
kv
kvadrat
kvadrata
kvadratic
kvadratnih
kvalificirala
kvalificirali
kvalificirao
kvalificirati
kvalifikacija
kvalifikacijama
kvalifikacije
kvalifikacijskoj
kvaliteta
kvalitetan
kvalitete
kvaliteti
kvalitetne
kvalitetnih
kvalitetno
kvalitetnog
kvalitetom
kvalitetu
kvantna
kvantne
kvantni
kvantnoj
kvar
kvara
kvark
kvarkova
kvarner
kvarnera
kvart
kvartet
kvaternik
kvaternika
kviz
kw
kwh
ky
kyle
kylie
kz
l
la
laban
label
labill
labin
laboratorij
laboratorija
laboratoriju
laboratory
labrador
labud
laburistic
lac
laca
lackovic
lad
lada
ladhi
ladimirevci
ladislav
ladislava
lado
lady
lag
lagan
lagani
lagano
lager
lago
laguna
lagune
lahu
lahum
laika
lak
laka
lakat
lakata
lake
lakersa
lakerse
lakersi
lakes
laki
lakih
lakim
lako
lakoc
lakog
lakova
lakovi
laks
lakta
laku
lakum
lalic
lam
lama
lamb
lambda
lambert
lamborghini
lamu
lan
lana
lanac
lanaca
lanak
lanaka
lanc
lanca
lancaster
lance
lancem
lanci
lancima
lancu
land
lane
lang
lange
language
languages
lani
lanica
lanicama
lanice
lanicom
lanis
lanka
lanke
lankom
lanku
lanom
lanova
lanove
lanovi
lanovima
lansera
lansiran
lansirana
lansiranja
lansiranje
lansiranju
lansirao
lanstva
lanstvo
lanstvu
lanu
lao
laos
laosa
laosu
lapac
lara
large
larin
larry
lars
larsen
larus
las
laser
lasera
laserska
laserski
lasic
laslovo
last
lastavica
lastovo
lat
late
later
latifolia
latin
latina
latinic
latinica
latinicom
latino
latinoameric
latinoamerikanaca
latinska
latinske
latinski
latinskih
latinskim
latinsko
latinskog
latinskoga
latinskoj
latinskom
latvija
latvije
latviji
latvijski
laudato
laura
lauren
laurence
laurent
laurie
laus
lausanne
lav
lava
lave
lavigne
lavova
lavovi
lavu
law
lawrence
lawson
lay
layer
laz
lazar
lazara
lazarevic
laze
lazic
lazio
lađa
lađe
lađu
lb
lcd
ld
le
lea
lead
leafgreen
league
learning
leave
leben
lebron
lec
leclerc
led
leda
ledeb
ledena
ledene
ledeni
ledenih
ledenjac
ledenjaci
ledenjak
ledenjaka
ledeno
ledenog
leder
ledom
ledu
lee
leeds
leeja
left
legacy
legalno
legend
legenda
legendama
legendarni
legendarnog
legende
legendi
legends
legendu
legija
legije
legla
leglo
legura
legure
lehm
leicester
leigh
leipzig
leipzigu
leistungsdaten
lejeunea
lekenik
leko
leksic
leksikograf
leksikografski
leksikografskog
leksikon
leksikona
leksikonu
lektor
lem
leme
lemes
lemljenje
len
lena
lenjin
lenjingrad
lennon
leo
leon
leona
leonard
leonarda
leonardo
leone
leonea
leopard
leoparda
leopold
leopolda
lepidium
lepoglavi
leptir
leptira
leroy
les
lesbian
leslie
less
lester
let
leta
letac
lete
letec
letenja
letenje
leti
letica
letio
letjelica
letjelice
letjelicu
letjeti
letna
leto
letova
letove
letovi
letovima
letter
letters
letu
level
levi
leviti
levy
lewis
lewisa
lex
lexikon
lez
lezbijke
leđa
leđima
leđno
lgbt
li
lia
liam
liang
libanon
libanona
libanonu
liber
liberala
liberalna
liberalne
liberalni
liberalnih
libertas
liberty
libija
libije
libiji
library
libreto
libri
lic
lica
lice
licem
licence
licencu
lici
licima
licu
lider
lidija
lie
liede
lies
life
liga
ligama
ligas
lige
light
lightning
lights
ligi
ligu
ligue
lih
lihtens
lijec
lijek
lijeka
lijekova
lijekove
lijekovi
lijekovima
lijep
lijepa
lijepe
lijepi
lijepih
lijepim
lijepo
lijepog
lijepom
lijepu
lijes
lijev
lijeva
lijevanje
lijevanog
lijeve
lijevi
lijevo
lijevog
lijevoj
lijevom
lijevu
lijezda
lijezde
lik
lika
like
likom
likova
likove
likovi
likovima
likovna
likovne
likovni
likovnih
likovnim
likovno
likovnog
likovnoj
likovnu
liku
likvidacije
lil
lila
lilium
lille
lily
lim
lima
limi
limited
limonium
limova
lin
lina
linaria
lincoln
linda
lindau
lindb
linden
lindl
lindsay
line
linearna
linearne
linearno
lines
ling
lingua
lingvistic
linija
linijama
linije
liniji
linijom
linijski
liniju
link
linnaeus
lino
linum
linux
linz
lio
lion
lionel
lions
lip
lipa
lipanj
lipe
lipik
lipnja
lipnju
lipo
lipos
lipovac
lipovljani
lips
lira
lirika
lirike
lirske
lis
lisa
lisabon
lisabona
lisabonu
lisac
lisic
lisica
lisice
lisinski
lisinskog
list
lista
listama
liste
listi
listic
listom
listopad
listopada
listopadu
listova
listove
listovi
listovima
listu
lit
litara
litavske
litavski
literatura
literature
literaturi
literaturu
lithocarpus
litice
litij
litre
little
liturgija
liturgije
liturgiji
liturgijske
liturgijski
litva
litve
litvi
liu
liv
livada
livadama
livade
livana
live
liverpool
liverpoola
lives
living
livius
livna
livno
livnu
lix
liz
liza
lj
lja
ljaju
ljajuc
ljala
ljali
ljanja
ljanje
ljanju
ljao
ljati
ljava
ljavanja
ljavanje
lje
ljec
ljekovita
ljekovito
ljen
ljena
ljene
ljeni
ljenja
ljenje
ljenju
ljeno
ljenog
ljenom
ljepila
ljepota
ljepote
ljepoti
ljepotica
ljepotom
ljepotu
ljeps
ljerka
ljes
ljestve
ljestvica
ljestvicama
ljestvice
ljestvici
ljestvicu
ljeta
ljeti
ljetima
ljetna
ljetne
ljetni
ljetnih
ljetnikovac
ljetnim
ljetno
ljetnog
ljetnom
ljeto
ljetopis
ljetopisa
ljetu
ljevak
ljevic
ljevica
ljevice
ljiljan
ljiljana
ljiv
ljiva
ljivaca
ljivci
ljive
ljivi
ljivim
ljivo
ljivos
ljivost
ljivosti
lju
ljuba
ljubav
ljubavi
ljubavlju
ljubavna
ljubavne
ljubavni
ljubavnica
ljubavnici
ljubavnih
ljubavnik
ljubavnika
ljubavnu
ljubazno
ljube
ljubi
ljubic
ljubica
ljubim
ljubimac
ljubio
ljubis
ljubitelj
ljubitelja
ljubiti
ljubljana
ljubljane
ljubljani
ljubljeni
ljubo
ljubomir
ljubomoran
ljubus
ljude
ljudevit
ljudevita
ljudi
ljudima
ljudska
ljudske
ljudski
ljudskih
ljudskim
ljudsko
ljudskog
ljudskoga
ljudskoj
ljudskom
ljudsku
ljudstva
ljungberg
ljus
ljuska
ljuskama
ljuske
ljut
ljuta
ljute
ljuti
ljutito
ljuto
ljuveni
lk
ll
lla
lladhi
ller
lloyd
lm
ln
lna
lnu
lo
lobelia
local
locke
lockea
lockheed
loco
lodge
log
loga
logan
logic
logika
logike
logistic
logo
logodis
logor
logora
logoras
logore
logori
logorima
logoru
logos
logotip
loire
lois
lokacija
lokacijama
lokacije
lokaciji
lokaciju
lokalitet
lokaliteta
lokaliteti
lokalitetima
lokalitetu
lokalna
lokalne
lokalni
lokalnih
lokalnim
lokalno
lokalnog
lokalnoj
lokalnom
lokalnu
loki
lokomotiva
lokomotive
lokomotivu
lokve
lola
lom
loma
lomac
lomi
lonac
lonc
london
londona
londonski
londonskog
londonskom
londonu
lonely
long
lonicera
look
looking
lopatica
lopatice
lopez
lopov
lopova
lopta
lopte
lopti
loptica
loptom
loptu
lord
lorda
lords
loredan
lorenzo
lori
lorkovic
lorraine
los
lost
losti
lot
lotus
lou
loud
louis
louisa
louise
louisiana
louisu
lour
louvre
lov
lova
lovac
lovaca
lovas
lovc
lovca
lovce
lovci
love
lover
lovi
lovili
loving
lovis
loviti
lovom
lovor
lovran
lovre
lovrec
lovrenc
lovrenovic
lovric
lovro
lovu
low
lowe
lower
lowry
loz
loza
lozar
loze
lozi
lozu
lp
lr
lt
ltd
lu
lubanja
lubanje
lubanju
luburic
luc
luca
lucas
luce
luci
lucia
lucic
lucija
lucije
lucius
lucky
lucy
lud
luda
ludbreg
ludbres
lude
ludi
ludila
ludilo
ludina
ludo
ludost
ludovik
ludovika
ludvig
ludwig
ludwiga
luer
luftwaffe
lug
lui
luigi
luis
luisa
luj
luja
lujo
luk
luka
lukac
lukama
lukas
lukavac
luke
luki
lukic
lukom
lukova
lukovi
lukovic
lukovima
luks
luksemburg
luksemburga
luksemburs
luku
lulu
lumen
luna
lunu
lupin
lupus
lus
luta
lutaka
luther
luthera
lutka
lutke
luz
lv
ly
lynch
lynn
lynx
lynyrd
lyon
lyona
lyonu
lzmk
m
ma
maassoumi
mac
macan
macbeth
macbr
maccabi
macdonald
macedonia
mach
machine
mack
mackenzie
macmillan
macro
mad
mada
madagaskar
madagaskara
madagaskaru
madame
made
madeleine
madison
madonna
madonne
madonnin
madre
madrid
madrida
madridskog
madridu
madz
maestral
maestro
mafijas
mag
magarac
magarca
magazin
magazina
magazine
magazinu
magdalena
magdalene
maggie
magic
magija
magije
magiju
magistar
magistra
magistrirao
magla
magle
maglica
maglice
maglu
magna
magnet
magneta
magnetic
magnetizam
magnetska
magnetske
magnetski
magnetskih
magnetskim
magnetsko
magnetskog
magnetskoga
magnetskom
magnezij
magnezija
magnituda
magnitude
magnolia
magnum
magnus
maguire
magyar
mah
maha
mahal
mahala
mahler
mahmud
mahnic
mahom
mahovina
mahunarki
mai
maiden
mail
main
maine
mainstream
mainz
maire
maj
maja
majc
majci
majer
majica
majice
majka
majke
majki
majko
majkom
majku
majmun
majmuna
majmuni
majnaric
majni
major
majora
majstor
majstora
majstori
majur
mak
makar
makarska
makarske
makarskoj
make
makedonaca
makedonci
makedonija
makedonije
makedoniji
makedoniju
makedonska
makedonske
makedonski
makedonskih
makedonsko
makedonskog
makedonskom
making
makino
maknuti
maksi
maksim
maksimalna
maksimalne
maksimalni
maksimalno
maksimalnom
maksimalnu
maksimilijan
maksimilijana
maksimir
maksimiru
maksimum
maksimuma
mal
mala
malajski
malajsko
malarije
malcolm
male
malen
malena
malene
maleni
malenih
malenim
maleno
malenom
males
malezija
malezije
maleziji
malformacije
malfoy
malgas
mali
malih
malik
malim
malis
malko
malmo
malo
malobrojni
malog
maloga
maloj
malom
malone
malonogometna
malonogometni
malta
malte
maltes
malti
malu
mama
mamic
mammillaria
mamutica
man
mana
management
manager
manastir
manastira
manastiru
manchester
manchesteru
mandat
mandata
mandatu
mande
mandic
mandolina
mandz
mane
manfred
manga
mangan
mangana
manhattan
manhattanu
mani
manifest
manifestacija
manifestacijama
manifestacije
manifestaciji
manifestaciju
manifestira
manipulacije
manja
manjak
manje
manjeg
manjem
manji
manjih
manjim
manjina
manjinama
manjine
manjini
manjinske
manjinskih
manjinu
manjka
manjoj
manjom
manju
mann
manna
manning
manom
mans
mansa
manu
manual
manuel
manuela
many
mao
map
mapa
mape
maps
mar
mara
maraka
maras
marathon
maraton
maratona
marc
marca
marcel
marcello
march
marco
marcos
marcus
mardos
marduk
mare
maretic
margaret
margareta
margarete
margarita
mari
maria
mariana
marianne
maribor
mariboru
maric
marica
marice
marie
marija
marijan
marijana
marijanci
marije
mariji
marijin
marijina
marijino
marijo
marijom
mariju
marilyn
marin
marina
marinaca
marinci
marine
mariner
marinko
marinkovic
marino
marinovic
marinu
mario
marion
maris
marjan
marjanovic
mark
marka
marke
market
marketing
marketinga
marketins
marki
markiz
markl
marko
markom
markovac
markovic
marksistic
marksizam
marku
markus
marlene
maro
maroevic
marof
maroje
maroka
marokanski
maroko
maroku
marovic
marriage
mars
marsa
marsdenia
marseille
marseillea
marseilleu
marshall
marsonia
marsu
mart
marta
martha
marti
martic
martin
martina
martinac
martinci
martinez
martini
martinic
martinom
martinovic
martinu
marty
maru
marulic
marus
marvel
marvin
marx
marxa
mary
maryland
mas
masa
masakr
masakra
masama
masaz
mase
maseni
masi
masiv
masiva
masivni
mask
maska
maske
masku
maslac
maslin
maslina
masline
masne
masnih
masno
masnoc
masom
mason
masona
masoni
masovna
masovne
masovni
masovnih
masovnim
masovno
masovnog
masovnu
mass
massachusetts
massachusettsu
massacre
massimo
mast
master
mastering
masters
masti
masu
mat
mata
matanovic
match
mate
matej
mateja
mateju
matematic
matematici
matematika
matematike
matematiku
mateo
mater
matere
material
materials
materija
materijal
materijala
materijale
materijali
materijalima
materijalna
materijalne
materijalni
materijalnih
materijalnim
materijalno
materijalnu
materijalom
materijalu
materije
materinski
maternice
mates
mathbb
mathbf
mathias
mathrm
mati
matic
matica
matice
matici
matija
matijas
matije
matijevic
matilda
matko
matkovic
mato
matos
matrica
matrice
matrix
matt
matteo
matter
matthew
matthias
mature
maturirao
mauna
maurice
mauzolej
mauzoleja
mavro
max
maxa
maxf
maxi
maxim
maximilian
maximus
maxon
maxwell
may
maya
mayer
mayhem
mayo
maz
maziva
mazz
mađ
mađara
mađari
mađarima
mađarska
mađarske
mađarski
mađarskih
mađarskim
mađarsko
mađarskog
mađarskoj
mađarskom
mađarsku
mb
mbox
mc
mccarthy
mccartney
mccoy
mcdonald
mcgraw
mclaren
mcnally
md
me
mea
meadow
mec
mece
mecena
med
meda
medal
medalja
medalje
medaljom
medalju
media
medic
medical
medici
medicina
medicine
medicini
medicinska
medicinske
medicinski
medicinskih
medicinskim
medicinsko
medicinskog
medicinskom
medicinsku
medicinu
medieval
medij
medija
medije
mediji
medijima
medijska
medijske
medijski
medijskih
medijsko
medijskog
medijsku
mediju
medina
mediteran
mediterana
mediteranska
mediteranske
mediteranskih
mediteranskim
mediteranu
medium
medju
medjutim
medresa
medu
medves
medvjed
medvjeda
medvjedi
medvjedic
medvjedu
medz
meet
meeting
mega
megadeth
mehanic
mehanici
mehanika
mehanike
mehaniku
mehanizam
mehanizama
mehanizma
mehanizme
mehanizmi
mehanizmom
mehmed
mehmeda
meisn
meka
meke
meki
meko
meks
meksic
meksika
meksiko
meksiku
mekus
mel
melaleuca
melanie
melankolic
melbourne
melbourneu
melfi
melissa
melita
melodic
melodija
melodije
melodiju
melody
members
membrana
membrane
membranu
memoari
memorandum
memorial
memoriam
memorija
memorijal
memorijalni
memorije
memoriju
memory
memphis
men
menadz
menart
mendes
mendoza
mene
meni
meningitis
ment
menta
mentalna
mentalne
mentalno
mentor
mentora
mer
mercedes
mercury
meri
meridijan
meridijana
merkel
merkovic
merkur
merkura
merlin
merr
mes
mesa
mesic
mesija
meso
mesom
mesoz
message
messi
messier
mesto
mestu
met
meta
metabolic
metabolizam
metabolizma
metacritic
metafizic
metafora
metak
metaka
metal
metala
metalac
metale
metali
metalima
metallica
metalna
metalne
metalni
metalnih
metalnim
metalnog
metalnom
metalom
metalu
metalurgija
metalurs
metan
metana
metar
metara
mete
meteor
meteora
meteorita
meteorologija
meteorolos
meti
metil
metka
metkovic
metoda
metodama
metode
metodi
metodic
metodom
metodu
metra
metric
metro
metroa
metropolis
metropolit
metropolitan
metru
mett
metu
metzgeria
meu
mev
mexico
mey
meyer
mez
mezona
mezopotamije
mezopotamiji
međa
međimurja
međimurje
međimurju
međimurska
međimurske
međimurskoj
među
međudjelovanja
međudjelovanje
međudrz
međugorje
međumrez
međunarodna
međunarodne
međunarodni
međunarodnih
međunarodnim
međunarodno
međunarodnog
međunarodnoga
međunarodnoj
međunarodnom
međunarodnu
međuopc
međusobna
međusobne
međusobni
međusobnih
međusobnim
međusobno
međusobnog
međusobnoj
međusobnom
međusobnu
međutim
međuvremenu
međuz
međuzemlja
mf
mg
mgm
mh
mhe
mhz
mi
mia
miami
miamiju
mic
mica
michael
michaela
michaelom
michel
michelang
michelangelo
michele
michelle
michigan
michiganu
michx
mick
mickel
mickey
miconia
microsoft
mid
middle
midnight
mie
mig
mighty
migracija
migracije
miguel
miha
mihael
mihaela
mihail
mihaila
mihailo
mihailovic
mihajla
mihajlo
mihajlovic
mihalic
mihaljevic
mihanovic
miho
miholjac
mihovil
mihovila
mijat
mijatovic
mije
mijenja
mijenjaju
mijenjajuc
mijenjala
mijenjali
mijenjan
mijenjanja
mijenjanje
mijenjao
mijenjati
mijes
mijo
mika
mikael
mikanovci
mike
mikea
miki
mikic
miklo
mikovic
mikro
mikrofon
mikroorganizama
mikroorganizmi
mikroprocesor
mikroregiji
mikroskop
mikroskopa
miks
miksani
miksanje
mikulic
mil
mila
milan
milana
milano
milanom
milanovic
milanu
milas
mile
milena
miles
miletic
mili
milic
milica
milicija
milicije
milijarda
milijarde
milijardi
milijardu
milijun
milijuna
milijunas
milijune
milijuni
milimetara
military
milivoj
milja
milje
miljenko
milka
mill
mille
millennium
miller
million
mills
milo
milorad
milos
milosrdnica
milosrđa
milosrđe
milost
milosti
milostinju
milostiva
milovan
milton
milutin
milwaukee
mimi
mimo
mimosa
min
mina
minas
mind
mine
mineral
minerala
minerali
mineralna
mineralne
mineralnih
minerva
ming
mini
minijatura
minimalna
minimalne
minimalni
minimalno
minimalnu
minimum
ministar
ministara
ministarstva
ministarstvo
ministarstvu
ministra
ministri
ministrica
ministrom
ministru
minnesota
minobacac
minogue
minor
minsk
minu
minus
minuta
minutaz
minute
minutes
minuti
minutu
mio
mioc
miodrag
mios
miq
mir
mira
mirage
miran
miranda
miraz
mire
mirela
miri
miris
mirisa
mirisom
mirjana
mirka
mirko
mirkovci
mirkovic
mirna
mirne
mirni
mirnim
mirno
mirnom
mirnu
miro
mirogoj
mirogoju
mirom
miroslav
miroslava
mirovanja
mirovine
mirovini
mirovinu
mirovne
mirovni
mirovnih
mirovnim
mirovnog
mirovnoj
mirror
miru
miruje
mirza
mis
misa
misal
misala
misao
mise
misi
misija
misijama
misije
misiji
misiju
misionar
misionara
misionari
mislav
misle
mislec
misli
mislila
mislili
mislilo
mislim
mislima
mislimo
mislio
mislis
mislite
misliti
miss
mission
mississippi
missouri
mista
mister
misterij
misterija
misterije
mistic
misto
misty
misu
mit
mita
mitch
mitchell
mitologija
mitologije
mitologiji
mitolos
mitova
mitovi
mitovima
mitropolit
mitrovic
mitrovica
mitrovici
mitsubishi
mitt
mitu
mix
mj
mjedi
mjehur
mjehura
mjehuric
mjenjac
mjera
mjerama
mjere
mjerenja
mjerenje
mjerenjem
mjerenjima
mjerenju
mjeri
mjerila
mjerilo
mjeriti
mjerna
mjerne
mjerni
mjernih
mjeru
mjes
mjesec
mjeseca
mjesece
mjeseci
mjesecima
mjesecu
mjesna
mjesne
mjesni
mjesnih
mjesnim
mjesno
mjesnog
mjesnoj
mjesnom
mjesta
mjestima
mjestimic
mjesto
mjestom
mjestu
mjuzikl
mjuzikla
mjuziklu
mk
ml
mlad
mlada
mlade
mladen
mladena
mladenac
mladez
mladi
mladic
mladih
mladim
mladima
mlado
mladog
mladoga
mladoj
mladom
mlados
mladost
mladosti
mladu
mladunaca
mladunc
mladunci
mlaka
mlaz
mlazni
mlađa
mlađe
mlađeg
mlađi
mlađih
mlađim
mlađu
mlec
mlecima
mletac
mletaka
mlijec
mlijeka
mlijeko
mlin
mlina
mlini
mlinova
mlivonc
mljet
mljetu
mljevenje
mm
mma
mmf
mn
mnk
mno
mnoga
mnoge
mnogi
mnogih
mnogim
mnogima
mnogo
mnogobrojne
mnogobrojni
mnogobrojnih
mnogobrojnim
mnogoc
mnom
mnos
mnoz
mo
moab
moaba
mobile
mobilizaciju
mobilne
mobilni
mobilnih
moc
mod
moda
mode
model
modela
modele
modeli
modelima
modeliranje
modelom
modelu
moderan
modern
moderna
moderne
moderni
modernih
modernim
modernistic
modernizacija
modernizacije
modernizaciju
moderno
modernog
modernoj
modernom
modernu
modi
modificirana
modificirani
modifikacija
modifikacije
modni
modra
modre
modri
modric
modrus
modu
modul
modula
module
moench
mog
moga
mogao
mogas
mogla
mogle
mogli
moglo
mogu
moguc
mogus
mohac
mohamed
mohammed
mohorovic
mohovo
moj
moja
moje
mojeg
mojega
mojem
mojemu
moji
mojih
mojim
mojo
mojoj
mojom
mojsija
mojsije
mojsiju
moju
mokos
mokrac
mokro
mol
mola
molba
molbe
molbu
moldavija
moldavije
moldaviji
moldenke
mole
molec
molekula
molekulama
molekularna
molekularne
molekule
molekuli
molekulu
moli
molila
molili
molim
molimo
molina
molio
molis
molite
moliti
molitva
molitvama
molitve
molitvenik
molitvi
molitvom
molitvu
molly
molu
mom
momak
momaka
momc
momci
momenata
moment
momenta
momenti
mon
mona
monaco
monaka
monako
monaku
monarh
monarha
monarhija
monarhije
monarhiji
monarhiju
monas
monde
mondo
mone
money
mongola
mongoli
mongolija
mongolije
mongoliji
mongolski
moni
monica
monika
monitor
mono
monografija
monografije
monografiju
monoksid
monopol
monos
monotipski
monroe
mons
monsanto
monster
mont
montana
montaz
monte
montenegro
montevideo
montevideu
montgomery
montiran
montpellier
montre
montreal
montrealu
monumentalni
monzi
moo
moody
moon
moore
mor
mora
moraju
moral
morala
morale
morales
morali
moralna
moralne
moralni
moralnih
moralnim
moralno
moralnog
moralnu
moralo
moram
moramo
moran
morao
moras
morat
morate
morati
moravska
moravske
more
morem
moreno
morfologija
morfolos
morgan
morh
mori
morima
mornar
mornara
mornari
mornaric
mornarica
mornarice
mornarici
mornaricu
morning
moro
morris
morrison
morse
morska
morske
morski
morskih
morskim
morsko
morskog
morskoj
morskom
morsku
mort
morton
moru
mos
moscow
moses
moskovski
moskovskog
moskovskom
moskva
moskve
moskvi
moskvu
moslavac
moslavina
mosor
moss
most
mosta
mostar
mostara
mostarski
mostarsko
mostaru
mostom
mostova
mostovi
mostu
mother
motic
motion
motiv
motiva
motivacija
motive
motivi
motivima
motivom
moto
motociklistic
motor
motora
motore
motori
motorima
motorna
motorni
motornih
motornim
motorom
motors
motorsport
motoru
mount
mountain
mountains
move
movement
movie
movies
moz
mozaik
mozaika
mozak
mozambik
mozambika
mozambiku
mozart
mozarta
moze
mozga
mozgu
mp
mpa
mpeg
mph
mr
mrac
mraclin
mrak
mraka
mraku
mramor
mramora
mramorni
mraz
mrez
mrkonjic
mrlja
mrlje
mrs
mrtav
mrtva
mrtvac
mrtvaca
mrtve
mrtvi
mrtvih
mrtvim
mrtvo
mrtvog
mrtvu
mrz
mrzi
mrzio
ms
msgr
msv
mt
mtv
mu
muc
much
mudar
mudrac
mudraca
mudri
mudro
mudros
mudrost
mudrosti
mudz
muell
muftija
muha
muhamed
muhameda
muhammad
muhe
muka
muke
mukom
muku
mulja
multi
multiple
mun
mundi
municije
munja
munje
mup
mura
murat
murata
murder
mure
muri
murphy
murray
mursa
mus
musa
muse
museo
museum
music
musica
musical
musik
muslim
musliman
muslimana
muslimane
muslimani
muslimanima
muslimanska
muslimanske
muslimanski
muslimanskih
muslimanskim
muslimansko
muslimanskog
muslimanskom
mussolini
mussolinija
must
mustafa
mustaine
mustang
mutacija
mutacije
muz
muzej
muzeja
muzeji
muzejima
muzejske
muzejski
muzeju
muzic
muzika
muzikas
muzike
mvp
mw
mwh
my
myers
myspace
mystery
mz
n
na
nabave
nabaviti
nabavu
nabijene
nabijenih
naboj
naboja
nac
nach
nacija
nacije
naciju
nacion
nacional
nacionalista
nacionalisti
nacionalistic
nacionalizam
nacionalizma
nacionalna
nacionalne
nacionalni
nacionalnih
nacionalnim
nacionalno
nacionalnog
nacionalnoga
nacionalnoj
nacionalnom
nacionalnosti
nacionalnu
nacionalsocijalistic
nacista
nacisti
nacistic
nacistima
nacizma
nacrt
nacrta
nacrte
nacrtima
nacrtu
nad
nada
nadahnuc
nadahnut
nadajuc
nadala
nadaleko
nadali
nadalje
nadam
nadao
nadasve
nadbiskup
nadbiskupa
nadbiskupi
nadbiskupija
nadbiskupije
nadbiskupiji
nadbiskupom
nadbiskupu
nade
nadgledao
nadgrobni
nadi
nadilazi
nadimak
nadimkom
nadir
nadjac
nadlez
nadmas
nadmoc
nadmorska
nadmorske
nadmorskim
nadmorskoj
nadnevak
nadogradnja
nadogradnje
nadoknaditi
nadolazec
nadom
nadomak
nadovezuje
nadrealistic
nadred
nadu
nadvojvoda
nadvojvode
nadz
nadzirati
nadzire
nadzor
nadzora
nadzorni
nadzornik
nadzornog
nadzorom
nadzvuc
nafta
nafte
naftna
naftne
naftni
naftnih
naftu
naga
nagađanja
nagib
nagiba
naglas
naglasak
naglasio
naglasiti
naglaskom
nagle
nagli
naglim
naglo
naglog
nagnuta
nagodbe
nagovara
nagovjes
nagovor
nagovorio
nagovoriti
nagrada
nagradama
nagrade
nagradi
nagradio
nagradom
nagradu
nagrađen
nagrađena
nagrađeni
nagy
nah
nahic
nahija
nahije
nailazi
naime
nais
naizgled
naizmjence
naizmjenic
naiđe
naj
najam
najava
najave
najavila
najavili
najavio
najavljen
najavljena
najavljeno
najavljuje
najavni
najbliz
najbogatiji
najbogatijih
najbolja
najbolje
najboljeg
najboljega
najboljem
najbolji
najboljih
najboljim
najboljom
najbolju
najbrojnija
najbrojniji
najbrz
najc
najdraz
najdugovjec
najduz
najednom
najgore
najgori
najgus
najistaknutiji
najistaknutijih
najistoc
najjac
najjednostavniji
najjuz
najkasnije
najkorisnijeg
najkrac
najlaks
najljeps
najlos
najmanja
najmanje
najmanji
najmanjih
najmanju
najmlađa
najmlađe
najmlađi
najmoc
najniz
najnovija
najnovije
najnoviji
najnovijim
najoc
najpopularnija
najpopularnije
najpopularniji
najpopularnijih
najposjec
najposlije
najpoznatija
najpoznatije
najpoznatiji
najpoznatijih
najpoznatijim
najprestiz
najprije
najprodavaniji
najprodavanijih
najranije
najraniji
najranijih
najras
najrazlic
najs
najsiromas
najsnaz
najstarija
najstarije
najstarijeg
najstariji
najstarijih
najstarijim
najtez
najuc
najuspjes
najutjecajnijih
najuz
najvaz
najvec
najvis
najvjerojatnije
najz
najzad
najzasluz
najznac
nakai
nakana
nakic
nakit
nakita
naklada
nakladi
nakladni
nakladnic
nakladnik
nakladu
nakloni
naklonost
naknada
naknade
naknadnim
naknadno
naknadu
nakon
nakratko
nakupine
nalaz
nalaza
nalaze
nalazi
nalazila
nalazile
nalazili
nalazilo
nalazima
nalazimo
nalazio
nalazis
nalaziti
nalic
nalijepljena
nalik
nalikuje
nalikuju
nalog
nalogu
naloz
nam
nama
namaz
namaza
name
namec
names
nametnuo
nametnuti
nami
namibija
namijenjen
namijenjena
namijenjene
namijenjeni
namijenjenih
namijenjeno
namirnica
namirnice
namjena
namjene
namjeni
namjenu
namjera
namjerava
namjeravali
namjeravao
namjere
namjeri
namjerno
namjerom
namjeru
namjes
namjesnik
namjesnika
namjesnis
nan
nana
nancy
nanijeti
nanio
nano
nanos
nanosi
nanovo
naobrazbu
naoc
naoko
naokolo
naomi
naopako
naoruz
napad
napada
napadac
napadaja
napadaju
napadali
napadao
napadati
napade
napadi
napadima
napadne
napadnu
napadnut
napadnuta
napadom
napadu
napaja
napajanja
napajanje
napala
napale
napali
napao
napasti
napetost
napetosti
napis
napisa
napisala
napisali
napisan
napisana
napisane
napisani
napisano
napisao
napisati
napitak
naplac
napokon
napola
napoleon
napoleona
napoleonova
napoleonove
napoli
napolje
napomena
napomene
napomenuo
napomenuti
napominje
napon
napona
naponom
naponu
napor
napora
napore
napori
naporima
napose
naposljetku
naprama
naprava
naprave
napravi
napravila
napravili
napravio
napraviti
napravljen
napravljena
napravljene
napravljeni
napravljenih
napravljeno
napredak
napredna
napredne
napredni
napredovala
napredovali
napredovanja
napredovanje
napredovao
napredovati
napreduje
napretka
napretku
naprezanja
naprezanje
naprijed
naprimjer
naprosto
naprotiv
napuc
napulj
napulja
napuljski
napuljskog
napulju
napuni
napunio
napus
napuste
napusti
napustila
napustile
napustili
napustilo
napustio
napustiti
naputak
nara
naranc
naras
narasla
narastao
naraste
narasti
narav
naravi
naravno
naredba
naredbe
naredbi
naredbom
naredbu
naredi
naredio
naredne
narednih
narednik
narednim
naređenju
naređeno
naređuje
narjec
naroc
narod
naroda
narode
narodi
narodima
narodna
narodne
narodni
narodnih
narodnim
narodno
narodnog
narodnoga
narodnoj
narodnom
narodnooslobodilac
narodnosti
narodnu
narodom
narodu
narona
naruc
narudz
narus
naruto
nas
nasa
naselili
naselio
naselja
naseljava
naseljavaju
naseljavali
naseljavanja
naseljavanje
naselje
naseljem
naseljen
naseljena
naseljene
naseljeni
naseljenih
naseljenim
naseljeno
naseljenog
naseljenost
naseljenosti
naseljima
naselju
naseobina
nash
nashville
nasilja
nasilje
nasiljem
nasilju
nasilne
nasilno
nasilnog
nasip
nasipa
naskoro
naslaga
naslage
naslijedila
naslijedio
naslijediti
naslijeđa
naslijeđe
naslikao
nasljedio
nasljedna
nasljedni
nasljednica
nasljednici
nasljednicima
nasljednik
nasljednika
nasljednikom
nasljedstva
nasljedstvo
nasljeđa
nasljeđe
nasljeđivanja
nasljeđivanje
nasljeđuje
naslonjac
naslov
naslova
naslove
naslovi
naslovima
naslovna
naslovni
naslovnica
naslovnice
naslovnici
naslovnicu
naslovnoj
naslovnu
naslovom
naslovu
nasluc
naslutiti
nasmija
nasmije
nasmijes
naspram
nassau
nastajanja
nastajanje
nastaje
nastaju
nastala
nastale
nastali
nastalih
nastalo
nastalog
nastambe
nastanak
nastane
nastanili
nastanio
nastanjen
nastanjena
nastanjeni
nastanjenih
nastanjeno
nastanjivali
nastanjuje
nastanjuju
nastanka
nastankom
nastanku
nastao
nastati
nastava
nastavak
nastavaka
nastavci
nastavcima
nastave
nastavi
nastavila
nastavile
nastavili
nastavilo
nastavio
nastaviti
nastavka
nastavkom
nastavku
nastavlja
nastavljaju
nastavljajuc
nastavljen
nastavljena
nastavljeno
nastavni
nastavnik
nastavnika
nastavno
nastavnog
nastavu
nastojala
nastojali
nastojanja
nastojanje
nastojanjima
nastojanju
nastojao
nastojati
nastoje
nastojec
nastoji
nastup
nastupa
nastupaju
nastupajuc
nastupala
nastupali
nastupao
nastupati
nastupe
nastupi
nastupila
nastupile
nastupili
nastupilo
nastupima
nastupio
nastupiti
nastupom
nastupu
nasumic
nasuprot
nat
natalie
natas
nate
nathan
nation
national
nationale
nations
native
natjec
natjecala
natjecali
natjecalo
natjecanja
natjecanje
natjecanjima
natjecanju
natjecao
natjecatelj
natjecatelja
natjecatelji
natjecateljski
natjecati
natjerala
natjerao
natjerati
nato
natpis
natpisa
natpisi
natpisima
natpisom
natpisu
natporuc
natrag
natrij
natrija
natrijev
natrijeva
natuknica
natural
naturalistic
nature
nauc
naudin
nauk
nauka
nauke
nauku
naum
nauru
naus
nautic
naval
navale
navali
navare
navec
naveden
navedena
navedene
navedeni
navedenih
navedenim
navedeno
navedenog
navedenoj
navedenom
navedenu
navela
naveli
navelo
naveo
navesti
navigacijski
navigaciju
navijac
navijes
navika
navike
navjes
navode
navodec
navodi
navodima
navodne
navodni
navodnjavanja
navodnjavanje
navodno
navodnog
navoj
navoja
navođenje
navrata
navrs
navy
naz
nazad
nazareta
nazionale
naziv
naziva
nazivaju
nazivajuc
nazivala
nazivali
nazivalo
nazivamo
nazivan
nazivana
nazivani
nazivao
nazivati
nazive
nazivi
nazivima
nazivlja
nazivlje
nazivom
nazivu
naznac
naznake
nazoc
nazor
nazora
nazove
nazva
nazvala
nazvali
nazvan
nazvana
nazvane
nazvani
nazvano
nazvanog
nazvanom
nazvanu
nazvao
nazvati
nazvavs
nađe
nađen
nađena
nađene
nađeni
nađeno
nađoh
nađos
nađu
nb
nba
nbc
nc
ncaa
nchen
nchena
nchenu
nchez
nd
nde
ndez
ndh
ne
nea
neal
near
neba
nebesa
nebesima
nebeska
nebeske
nebeski
nebeskih
nebeskim
nebesko
nebeskog
nebeskoj
nebeskom
nebesku
nebi
nebo
neboder
nebodera
neboderi
nebojs
nebom
nebraska
nebraski
nebu
nec
neck
ned
neda
nedac
nedaleko
nedavna
nedavno
nedelis
nedelja
nedic
nedjelja
nedjelje
nedjeljko
nedjeljom
nedjelju
nedostaci
nedostajalo
nedostaje
nedostaju
nedostatak
nedostataka
nedostatka
nedostatke
nedostatkom
nedostatku
nedovoljno
nedovrs
nedugo
neduz
nedvojbeno
nedz
need
nees
neg
negativan
negativna
negativne
negativni
negativnih
negativnim
negativno
negativnog
negativnom
negativnu
negdas
negdje
nego
negoli
negoslavci
negro
nehotice
nehrđajuc
neil
neill
neizbjez
neizmjerno
neizravno
nejasan
nejasna
nejasno
nejednadz
nejednakosti
nek
neka
nekad
nekada
nekadas
nekakav
nekako
nekakva
nekakve
neke
neki
nekih
nekim
nekima
neklasificirani
neko
nekoc
nekog
nekoga
nekoj
nekolicina
nekolicine
nekolicini
nekolicinu
nekoliko
nekom
nekome
nekretnina
nekretnine
nekropola
nekropole
nekrs
neku
nel
nela
nelly
nelson
nema
nemaju
nemam
nemamo
nemanja
nemanjic
nemas
nemate
nematerijalna
nematerijalne
nemilo
nemilosrdno
nemilost
nemir
nemira
nemiri
nemo
nemoc
nemoguc
nemoj
nemojte
nen
nena
nenad
nenadano
nenaoruz
nenaseljeni
neno
neo
neobic
neobjas
neoc
neodluc
neodrz
neogotic
neogranic
neoklasic
neoklasicistic
neolitic
neolitika
neon
neophodno
neopredijeljeni
neos
neovisan
neovisna
neovisne
neovisni
neovisnih
neovisno
neovisnost
neovisnosti
neovisnu
neovlas
nepal
nepalu
nepeta
nepodnos
nepokoj
nepokoreni
nepokretno
nepomic
nepos
neposlus
neposredne
neposredni
neposrednim
neposredno
neposrednoj
neposrednom
nepostojanje
nepostojec
nepotpisano
nepotpun
nepotpuna
nepotrebno
nepovjerenje
nepoz
nepoznat
nepoznata
nepoznate
nepoznati
nepoznatih
nepoznatim
nepoznato
nepoznatog
nepoznatom
nepravda
nepravde
nepravdu
nepravedno
nepravilna
nepravilne
nepravilni
nepravilno
nepravilnog
nepravilnosti
neprekidno
neprestano
neprijatelj
neprijatelja
neprijatelje
neprijateljem
neprijatelji
neprijateljima
neprijateljska
neprijateljske
neprijateljski
neprijateljskih
neprijateljskim
neprijateljskog
neprijateljstva
neprijateljstvo
neprijatelju
nepristupac
neprofitna
neptun
neptuna
ner
nera
nerazjas
nered
nereda
neredi
neretva
neretvanska
neretvanske
neretvanskoj
neretve
neretvi
neretvu
nerijes
nerijetko
nervus
nes
nesavrs
nesebic
nesiguran
nesigurnosti
neslaganja
nesluz
nesmetano
nesom
nespecific
nespecificiran
nespecificirana
nespecificirani
nespecificiranim
nesrec
nesretan
nesretna
nesretni
nestabilnosti
nestaje
nestaju
nestala
nestale
nestali
nestalih
nestalo
nestanak
nestane
nestanka
nestao
nestas
nestati
nestor
nesuglasica
nesuglasice
nesumnjivo
nesvjesno
nesvrstanih
net
netko
neto
netoc
netom
network
neuc
neucha
neue
neugodan
neugodno
neum
neumorno
neuobic
neurolos
neurona
neuspjeh
neuspjeha
neuspjehom
neuspjelog
neuspjes
neustras
neutralna
neutralne
neutralni
neutralnost
neutrina
neutrino
neutron
neutrona
neutrone
neutroni
nevada
nevaz
neven
nevenka
never
nevesinje
neville
nevinost
nevjerojatno
nevjesta
nevladine
nevolja
nevolje
nevolji
nevoljko
nevolju
new
newcastle
newman
news
newton
newtonov
next
nez
nezadovoljan
nezadovoljni
nezadovoljstva
nezadovoljstvo
nezakonito
nezaposlenost
nezaposlenosti
nezavisna
nezavisne
nezavisni
nezavisnih
nezavisno
nezavisnoj
nezavisnost
nezavisnosti
nezavisnu
nezavrs
nezgoda
nezgode
nezgodi
neznatno
nfc
nfl
ng
nga
ngc
nguyen
nh
nhl
ni
nia
nic
nica
nicama
nice
nicholas
nichols
nicholson
nici
nicima
nick
nickelodeon
nicky
nico
nicola
nicolas
nicole
nicom
nicu
nie
nielsen
nietzsche
nigdje
nigel
niger
nigerija
nigerije
nigeriji
nigersko
night
nigra
nih
nija
nijanse
nije
nijec
nijedan
nijedna
nijedne
nijedno
nijednog
nijednom
nijednu
nijeg
nijem
nijemac
nijemaca
nijemca
nijemce
nijemci
nijemcima
nijemi
nijesam
nijesi
nijeste
nijesu
niji
nijih
nijim
nijom
niju
nik
nika
nikad
nikada
nikakav
nikako
nikakva
nikakve
nikakvi
nikakvih
nikakvo
nikakvog
nikakvu
nikal
nikaragva
nikaragve
nikaragvi
nike
niki
nikica
nikita
nikla
niko
nikog
nikoga
nikola
nikolaj
nikolaja
nikolajevic
nikole
nikoli
nikolic
nikolina
nikolom
nikolu
nikom
nikome
nikomu
niks
niku
nil
nila
nim
nima
nimalo
nimfe
nin
nina
nine
ninja
nino
nintendo
ninu
nio
nipos
niro
nirvana
nis
nisa
nisam
nisi
niska
niske
niski
niskih
niskim
nisko
niskog
niskoj
niskom
nisku
nismo
nissan
niste
nisu
nit
niti
nitko
nives
nivo
nivoa
nivou
nixon
niz
niza
nizak
nizina
nizine
nizini
nizom
nizozemci
nizozemska
nizozemske
nizozemski
nizozemskih
nizozemskim
nizozemskog
nizozemskoj
nizozemskom
nizozemsku
nizu
nizvodno
nj
nja
njac
njaci
njacima
njak
njaka
njake
njakinja
njakom
njaku
njama
njan
njava
njavaju
njavanja
njavanje
njavao
nje
njeg
njega
njege
njegos
njegov
njegova
njegove
njegovi
njegovih
njegovim
njegovo
njegovog
njegovoga
njegovoj
njegovom
njegovu
njegu
njeguje
njem
njemac
njemu
njen
njena
njene
njeni
njenih
njenim
njenja
njenje
njenjem
njeno
njenog
njenoj
njenom
njenu
njevka
njez
njezin
njezina
njezine
njezini
njezinih
njezinim
njezino
njezinog
njezinoj
njezinom
njezinu
nji
njic
njica
njice
njici
njicu
njih
njihov
njihova
njihove
njihovi
njihovih
njihovim
njihovo
njihovog
njihovoj
njihovom
njihovu
njim
njima
njime
njiva
njive
njoj
njom
njome
njost
njosti
nju
njujors
njus
nk
nkvd
nl
nlb
nlo
nm
nn
no
noa
noafric
noameric
nob
nobel
nobelova
nobelovac
nobelove
nobelovu
nobis
nobody
noc
noe
noel
nog
noga
nogama
noge
nogom
nogomet
nogometa
nogometas
nogometna
nogometne
nogometni
nogometnih
nogometnim
nogometno
nogometnog
nogometnoj
nogometnom
nogometnu
nogometom
nogometu
nogu
noir
noise
noj
nolan
nom
nomadi
nomadski
nome
nominacija
nominacije
nominaciju
nominalno
nominiran
nominirana
nominirani
non
none
nonjemac
nop
nor
nora
nord
nordijska
nordijske
norfolk
norma
normalan
normalna
normalne
normalni
normalnih
normalnim
normalno
normalnog
normalnom
norman
normana
normani
norme
normi
normu
norris
norrl
norte
north
northern
norton
norves
nos
nosa
nosac
nose
nosec
nosi
nosila
nosilac
nosile
nosili
nosilo
nosim
nosio
nosioci
nosis
nositelj
nositelja
nositelji
nositi
nosivost
nosivosti
noslavenske
noslavenskih
nosnici
nosnicima
nosnik
nosnika
nosom
nost
nosteria
nosti
nostima
nostra
nostri
nosu
not
nota
note
notes
nothing
notoc
notranjsko
notranjskoj
notre
notø
nouveau
nov
nova
novac
novaca
novak
novaka
novakovic
novc
novca
novce
novcem
novcu
nove
novela
novele
november
novgorod
novi
novicijat
novigrad
novih
novija
novije
novijeg
noviji
novijih
novijim
novijoj
novim
novina
novinama
novinar
novinara
novinare
novinari
novinarima
novinarka
novinarstva
novinarstvo
novinarstvu
novine
novinska
novinske
novinski
novj
novkovic
novo
novog
novoga
novogodis
novoj
novom
novome
novoosnovane
novorođenc
novos
novosel
novost
novosti
novotvorina
novotvorine
novozelandski
novska
novu
now
noz
nozi
np
npr
nr
nrbih
ns
nsbbz
nsdap
nsk
nszi
nszz
nt
nther
nu
nuclear
nude
nudi
nudio
nuevo
nuklearna
nuklearne
nuklearni
nuklearnih
nuklearnim
nuklearno
nuklearnog
nuklearnoj
nuklearnom
nuklearnu
nukleotida
nula
nule
nuli
nultoc
number
numeric
nun
nuncij
nus
nuspojave
nussbaum
nut
nutt
nuz
ny
nya
nyi
nz
o
oa
oak
oakland
oaza
ob
oba
obadva
obaju
obala
obalama
obale
obali
obalna
obalne
obalni
obalnih
obalnim
obalnog
obalnom
obalom
obalu
obama
obaranja
obaveza
obaveze
obavezno
obavi
obavijes
obavijest
obavijesti
obavijestio
obavijestiti
obavio
obaviti
obavjes
obavlja
obavljaju
obavljala
obavljali
obavljanja
obavljanje
obavljanju
obavljao
obavljati
obavljen
obavljena
obavljeno
obc
obe
obec
obes
obi
obic
obiju
obilaska
obilazak
obilazi
obilazio
obilic
obilja
obilje
obiljez
obilno
obiluje
obis
obitava
obitavaju
obitelj
obitelji
obiteljima
obiteljska
obiteljske
obiteljski
obiteljskih
obiteljskim
obiteljsko
obiteljskog
obiteljskoj
obiteljskom
obiteljsku
objas
objasni
objasnio
objasniti
objava
objave
objavi
objavila
objavile
objavili
objavilo
objavio
objaviti
objavljen
objavljena
objavljene
objavljeni
objavljenih
objavljenim
objavljeno
objavljenog
objavljenoj
objavljenom
objavljivanja
objavljivanje
objavljivanjem
objavljivao
objavljivati
objavljuje
objavljuju
objavom
objavu
obje
object
objects
objed
objedinjuje
objekata
objekt
objekta
objekte
objekti
objektima
objektiv
objektiva
objektivno
objektom
objektu
objema
objes
oblac
oblaci
oblacima
oblak
oblaka
oblake
oblaku
oblast
oblasti
oblastima
oblic
oblici
oblicima
oblik
oblika
oblike
oblikom
oblikovala
oblikovan
oblikovana
oblikovane
oblikovani
oblikovanja
oblikovanje
oblikovanju
oblikovao
oblikovati
obliku
oblikuje
oblikuju
obliz
obljetnica
obljetnice
obljetnici
obljetnicu
obloge
obloz
obnas
obnavlja
obnavljaju
obnavljanje
obnova
obnove
obnovi
obnovila
obnovili
obnovio
obnoviti
obnovljen
obnovljena
obnovljene
obnovljeni
obnovljeno
obnovljive
obnovljivi
obnovljivih
obnovom
obnovu
obodu
obogac
oboje
obojen
obojena
obojene
obojeni
obojenih
obojica
obolio
oboljelih
oboljenja
oboren
obori
oborina
oborine
oborio
oboriti
oboz
obrac
obrada
obradak
obrade
obradi
obradio
obraditi
obradom
obradovic
obradu
obrambena
obrambene
obrambeni
obrambenih
obrambenim
obrambenog
obrambenu
obrana
obrane
obrani
obranila
obranili
obranio
obraniti
obranom
obranu
obrati
obratio
obratiti
obratka
obratno
obraz
obraza
obrazac
obrazloz
obrazovanja
obrazovanje
obrazovanju
obrazovna
obrazovne
obrazovni
obrazovnih
obrazovnog
obrađena
obrađene
obrađeni
obrađivati
obrađuje
obrađuju
obred
obreda
obrede
obredi
obredima
obredu
obrenovic
obris
obriz
obrnuto
obroka
obronaka
obroncima
obrovac
obrt
obrta
obrtnic
obrtnici
obrtnika
obruc
obrus
observatory
observer
obuc
obuci
obuhvac
obuhvatila
obuhvatiti
obujam
obujma
obujmu
obuka
obuke
obuku
obveza
obvezan
obvezao
obveze
obvezni
obvezno
obvezu
obvezuje
obvezujuc
obzir
obzira
obzirom
obzor
obzora
obzoru
oc
oca
occidentalis
ocean
oceana
oceanija
oceanije
oceaniji
oceanima
oceanu
ocem
oci
ocijenio
ocjena
ocjene
ocjenjivac
ocjenjuje
ocjenu
oclc
ocotea
october
ocu
od
oda
odabir
odabira
odabire
odabirom
odabiru
odabrala
odabrali
odabran
odabrana
odabrane
odabrani
odabranih
odabrao
odabrati
odaje
odaju
odakle
odan
odani
odanost
odanosti
odao
odas
odatle
odavde
odavna
odavno
odbac
odbaci
odbacila
odbacili
odbacio
odbaciti
odbacivanje
odbacuje
odbacuju
odbija
odbijaju
odbijali
odbijanja
odbijanje
odbijao
odbije
odbijen
odbijena
odbijeni
odbila
odbile
odbili
odbio
odbiti
odbojci
odbojka
odbojkas
odbor
odbora
odbori
odboru
odcjepljenje
ode
odgoj
odgoja
odgojen
odgojno
odgoju
odgovara
odgovaraju
odgovarajuc
odgovarala
odgovaralo
odgovarao
odgovarati
odgovor
odgovora
odgovoran
odgovore
odgovori
odgovorila
odgovorili
odgovorio
odgovoris
odgovoriti
odgovorna
odgovorne
odgovorni
odgovornih
odgovornim
odgovorno
odgovornost
odgovornosti
odgođen
odgođena
odgođeno
odigrala
odigrale
odigrali
odigran
odigrana
odigrane
odigranih
odigrano
odigranoj
odigrao
odigrati
odigrava
odigravs
odijela
odijelo
odijelu
odis
odisej
odiseja
odjec
odjednom
odjek
odjeka
odjel
odjela
odjeli
odjeljak
odjeljenja
odjelu
odjeven
odjevena
odjeveni
odlagalis
odlaganje
odlaska
odlaskom
odlasku
odlaz
odlazak
odlaze
odlazi
odlazili
odlazio
odlic
odlika
odlike
odlikovan
odlikovanja
odlikovanje
odlikovao
odlikuje
odlikuju
odlomak
odloz
odluc
odluci
odluka
odlukama
odluke
odlukom
odluku
odmah
odmaralis
odmazde
odmic
odmor
odmora
odmori
odmoris
odn
odnese
odnijela
odnijeli
odnijeti
odnio
odnos
odnosa
odnose
odnosi
odnosila
odnosilo
odnosima
odnosio
odnositi
odnosno
odnosom
odnosu
odobrava
odobravanje
odobren
odobrena
odobrenja
odobrenje
odobrila
odobrio
odobriti
odora
odore
odos
odozdo
odozgo
odra
odradio
odrasla
odrasle
odrasli
odraslih
odrastao
odraz
odrazilo
odrec
odred
odreda
odredba
odredbama
odredbe
odredbi
odredi
odredila
odredili
odredio
odredis
odrediti
odrednica
odrednice
odrekao
određen
određena
određene
određeni
određenih
određenim
određenje
određeno
određenog
određenoj
određenom
određenu
određivanja
određivanje
određivanju
određuje
određuju
odric
odrjes
odrz
ods
odsada
odselio
odsjec
odsjek
odsjeka
odsjeku
odsluz
odstupanja
odstupanje
odstupio
odsutan
odsutnost
odsutnosti
odsvirao
odu
oduprijeti
odus
odustajanja
odustajanje
odustaje
odustala
odustali
odustalo
odustao
odustati
oduvijek
oduz
oduzeo
oduzet
oduzeta
oduzeti
oduzima
oduzimanje
oduzimanjem
odvaja
odvajaju
odvajanja
odvajanje
odvajanjem
odvaz
odvec
odvede
odveden
odvedeni
odvela
odveli
odveo
odvesti
odvezao
odvija
odvijaju
odvijala
odvijalo
odvijao
odvijati
odvis
odvjetnic
odvjetnik
odvjetnika
odvjetnis
odvode
odvodi
odvojen
odvojena
odvojene
odvojeni
odvojenih
odvojenim
odvojeno
odvojila
odvojili
odvojio
odvojiti
odvozio
odvrac
odvrati
odvuc
odz
oenothera
oess
of
ofenziva
ofenzive
ofenzivi
ofenzivu
off
office
official
officinalis
oficira
ofk
og
oganj
oglas
oglasi
ogleda
ogledala
ogledalo
ogledi
ognjen
ognjis
ogorc
ograda
ograde
ogradu
ogranak
ogranaka
ogranci
ogranic
ogranka
ogrlicom
ogroman
ogromna
ogromne
ogromni
ogromnih
ogromnim
ogromno
ogromnog
ogromnu
ogrtac
ogulin
ogulina
oh
ohashi
ohio
ohr
ohwi
oi
oil
ois
oj
ojac
ok
oka
okac
okaca
okadija
okadinci
okc
okci
okic
okidac
oklahoma
oklahomi
oklop
oklopa
oklopna
oklopne
oklopni
oklopnih
oklopno
oklopnog
oklopom
okna
okno
oko
okolada
okolade
okolica
okolice
okolici
okolicom
okolicu
okolina
okoline
okolini
okolinom
okolinu
okolis
okolna
okolne
okolni
okolnih
okolnim
okolnog
okolnosti
okolnostima
okolo
okom
okomita
okomite
okomiti
okomitim
okomito
okomitom
okonc
okosnica
okosnicu
okrec
okrene
okrenu
okrenula
okrenuli
okrenuo
okrenut
okrenuta
okrenute
okrenuti
okretaja
okretanja
okretanje
okretati
okretni
okriljem
okrs
okrug
okruga
okrugla
okrugle
okrugli
okrugu
okrunio
okrunjen
okrutno
okruz
okruzi
okruzima
oksid
oksida
oksidacija
oksidacije
oksidacijom
oksidi
oksidira
oksidni
oktavijan
oktobarske
oku
okuc
okupacija
okupacije
okupaciji
okupacijom
okupacijske
okupaciju
okupatora
okupila
okupili
okupilo
okupio
okupirala
okupirale
okupirali
okupirana
okupiranih
okupiranim
okupirao
okupiti
okuplja
okupljaju
okupljali
okupljanja
okupljanje
okupljeni
okupljenih
okupu
okus
okusa
okvir
okvira
okvire
okviri
okvirima
okviru
ol
ola
olaks
old
ole
oleg
olga
olic
olimp
olimpija
olimpijade
olimpijadi
olimpijska
olimpijske
olimpijski
olimpijskih
olimpijskim
olimpijsko
olimpijskog
olimpijskom
olimpijsku
oliv
oliveira
oliver
olivera
olivia
olivier
olova
olovni
olovo
olsen
olta
oltar
oltara
oltari
oltarne
oltarom
oltaru
oluja
oluje
oluji
oluju
olympia
olympiakos
olympic
olympics
olympique
om
omalovaz
oman
omang
omar
omega
omeks
omer
ometa
omeđen
omiljen
omiljena
omiljeni
omiljeno
omis
omjer
omjera
omjerom
omjeru
omladinac
omladine
omladinske
omladinski
omladinskom
omnia
omnibus
omoguc
omot
omota
omotac
omotu
omraz
on
ona
onaj
onako
onamo
once
oncidium
onda
ondas
ondje
one
onec
onemoguc
oni
onih
onim
onima
online
only
ono
onog
onoga
onoj
onoliko
onom
onomastica
onome
onomu
onosma
ontario
onu
op
opac
opada
opadanja
opadanje
opao
opasan
opasna
opasne
opasni
opasnih
opasnim
opasno
opasnost
opasnosti
opat
opata
opatija
opatije
opatiji
opatiju
opatovac
opaz
opazi
opazio
opaziti
opc
opcija
opcije
opciju
opeka
opeke
opeklina
opekline
open
opena
openu
opera
operacija
operacijama
operacije
operaciji
operacijom
operacijski
operacijskog
operaciju
operation
operativna
operativne
operativni
operativnih
operativno
operativnog
operativnoj
operativnu
operator
operatora
operatorname
opere
operi
operna
operne
operni
operu
opet
opis
opisa
opisala
opisali
opisan
opisana
opisane
opisani
opisano
opisao
opisati
opisi
opisivanje
opisu
opisuje
opisuju
opisujuc
opljac
oplodnje
oponas
oporavak
oporavio
oporavka
oporba
oporbe
oporuci
oporuka
oporuke
opozicija
opozicije
opras
oprati
opravdanje
opravdano
opravdati
opravdava
oprec
oprema
opreme
opremi
opremljen
opremljena
opremljene
opremljeni
opremom
opremu
oprez
oprezno
opros
oprost
oprosti
oprostio
oprostite
oprostiti
opruga
opruge
opruz
ops
opsada
opsade
opsadi
opsadom
opsadu
opseg
opsega
opsegu
opservatorij
opsez
opsjednut
opskrba
opskrbe
opskrbljuje
opskrbu
opsluz
opstanak
opstanka
opstati
opterec
optic
optika
optike
optimistic
option
optuz
opunomoc
opus
opusa
opustos
opusu
or
ora
orah
oraha
orahovica
orange
oranje
orao
oras
oratorij
orba
orbit
orbita
orbite
orbiti
orbitna
orbitu
orchestra
orden
ordenom
order
ordo
ore
orebic
oregon
oregonu
ores
orfej
orfeo
org
organ
organa
organe
organi
organima
organisation
organizacija
organizacijama
organizacije
organizaciji
organizacijom
organizacijske
organizacijski
organizacijskog
organizaciju
organizam
organizama
organization
organizator
organizatora
organizatori
organizira
organiziraju
organizirala
organizirali
organiziran
organizirana
organizirane
organizirani
organiziranih
organiziranja
organiziranje
organiziranju
organizirano
organiziranog
organizirao
organizirati
organizma
organizme
organizmi
organizmima
organizmu
organska
organske
organski
organskih
organskim
organskog
orgazam
orgulja
orguljas
orgulje
ori
oric
oriental
orientalis
orientation
origin
original
originala
originalna
originalne
originalni
originalnih
originalnim
originalno
originalnog
originalnoj
originalnom
originalnu
originalu
origins
orijent
orijenta
orijentacija
orijentacije
orijentaciji
orijentaciju
orijentiran
orijentirana
orijentirane
orijentirani
orinoco
orion
orkan
orkestar
orkestra
orkestrom
orkestru
orla
orlando
orle
orleans
orleansu
orlic
orlova
orlovac
orlovi
orlovic
ormar
ormara
ornithogalum
ornitolos
oro
orobanche
ors
ortiz
oruz
oruđa
oruđe
os
osa
osaka
osam
osamdeset
osamdesetih
osamnaest
osamostaljenja
oscar
oscara
oscilacije
ose
oseke
osi
osic
osigura
osiguraju
osigurala
osigurali
osiguralo
osiguran
osigurana
osiguranja
osiguranje
osiguranju
osigurao
osigurati
osigurava
osiguravaju
osiguravajuc
osiguravanje
osijek
osijeka
osijeku
osim
osiromas
osjec
osjet
osjeti
osjetila
osjetilo
osjetio
osjetiti
osjetljiv
osjetljiva
osjetljive
osjetljivi
osjetljivost
osjetljivosti
oskar
oslabio
oslanja
oslanjaju
oslanjajuc
oslanjao
oslikana
oslikao
oslo
oslobađa
oslobađaju
oslobađajuc
oslobađanja
oslobađanje
oslobađanju
oslobodi
oslobodila
oslobodilac
oslobodile
oslobodili
oslobodio
osloboditi
oslobođen
oslobođena
oslobođeni
oslobođenja
oslobođenje
oslobođenju
oslobođeno
oslonac
oslu
osma
osman
osmana
osmanlija
osmanlijama
osmanlije
osmanska
osmanske
osmanski
osmanskih
osmanskim
osmansko
osmanskog
osmanskom
osmansku
osme
osmero
osmi
osmijeh
osmina
osmine
osmini
osminu
osmis
osmislio
osmo
osmog
osmogodis
osmom
osnaz
osniva
osnivac
osnivaju
osnivanja
osnivanje
osnivanjem
osnivanju
osnivati
osnova
osnovala
osnovale
osnovali
osnovalo
osnovama
osnovan
osnovana
osnovane
osnovani
osnovano
osnovanog
osnovao
osnovati
osnove
osnovi
osnovna
osnovne
osnovni
osnovnih
osnovnim
osnovno
osnovnog
osnovnoj
osnovnom
osnovnos
osnovnu
osnovu
osnuje
osnutak
osnutka
osnutku
osoba
osobama
osobe
osobi
osobina
osobinama
osobine
osobit
osobite
osobito
osobitosti
osobitu
osoblja
osoblje
osobna
osobne
osobni
osobnih
osobnim
osobno
osobnog
osobnoj
osobnom
osobnost
osobnosti
osobnu
osobom
osobu
osovina
osovine
osovini
osrh
osta
ostaci
ostacima
ostade
ostados
ostaje
ostaju
ostakovic
ostala
ostale
ostali
ostalih
ostalim
ostalima
ostalo
ostalog
ostaloga
ostalom
ostalu
ostanak
ostane
ostani
ostanu
ostao
ostat
ostatak
ostataka
ostatci
ostatcima
ostati
ostatka
ostatke
ostatkom
ostatku
ostave
ostavi
ostavila
ostavili
ostavilo
ostavio
ostaviti
ostavivs
ostavke
ostavku
ostavlja
ostavljaju
ostavljajuc
ostavljen
ostavs
ostojic
ostvaren
ostvarena
ostvareni
ostvarenja
ostvarenje
ostvarenju
ostvareno
ostvari
ostvarila
ostvarili
ostvarilo
ostvario
ostvariti
ostvarivanja
ostvarivanje
ostvarivanju
ostvarivati
ostvarivs
ostvaruje
ostvaruju
osuda
osude
osudi
osudila
osudili
osudio
osudu
osumnjic
osus
osuđen
osuđena
osuđeni
osuđuje
osvaja
osvajac
osvajaju
osvajali
osvajanja
osvajanje
osvajanjem
osvajanjima
osvajanju
osvajao
osvec
osveta
osvete
osveti
osvetio
osvetiti
osvetnici
osvetu
osvit
osvjedoc
osvjetljenje
osvjez
osvojen
osvojena
osvojene
osvojeni
osvojenih
osvojenim
osvojeno
osvoji
osvojila
osvojile
osvojili
osvojilo
osvojio
osvojiti
osvojivs
osvrt
ot
ota
otac
otaca
otad
otada
otadz
otajstva
otajstvo
otapa
otapala
otapalima
otapanjem
oteli
oteo
oteti
otez
other
otic
otide
otima
otis
otisak
otiđe
otkad
otkako
otkaz
otkazan
otkazana
otkazao
otkljuc
otklon
otkric
otkrije
otkriju
otkrila
otkrili
otkrilo
otkrio
otkriti
otkriva
otkrivac
otkrivaju
otkrivanja
otkrivanje
otkrivanju
otkriven
otkrivena
otkrivene
otkriveni
otkriveno
otkud
otkuda
otkup
otkupio
otkupitelja
otkupiti
otme
otmic
otmica
otmice
oto
otoc
otoci
otocima
otok
otoka
otokar
otoke
otokom
otoku
otomanskog
oton
otona
otopina
otopinama
otopine
otopini
otopinu
otopljene
otpad
otpada
otpadne
otpadnih
otpjevala
otpjevao
otpoc
otpor
otpora
otporan
otporna
otporne
otporni
otpornost
otpornosti
otporom
otporu
otprije
otprilike
otpus
otpusti
otpustio
otputovao
otrc
otrov
otrova
otrovan
otrovna
otrovne
otrovni
otrovnih
otrovnim
otta
ottawa
otto
otud
otuda
otvara
otvaraju
otvaranja
otvaranje
otvaranjem
otvaranju
otvor
otvora
otvore
otvoren
otvorena
otvorene
otvoreni
otvorenih
otvorenim
otvorenja
otvorenje
otvoreno
otvorenog
otvorenom
otvorenu
otvori
otvorila
otvorili
otvorilo
otvorio
otvoriti
ou
our
out
ov
ova
ovaca
ovagovic
ovaj
ovakav
ovako
ovakva
ovakve
ovakvi
ovakvih
ovakvim
ovakvo
ovakvog
ovakvu
ovamo
ovan
ovani
ovc
ovca
ovce
ovci
ovdas
ovdi
ovdje
ove
ovec
over
overrightarrow
overview
ovi
ovic
ovidije
ovih
ovik
ovim
ovima
ovime
ovisan
ovise
ovisi
ovisna
ovisno
ovisnost
ovisnosti
ovita
ovite
oviti
ovitih
ovitim
ovito
ovjec
ovjek
ovjeka
ovjekom
ovjekov
ovjekova
ovjekove
ovjeku
ovjes
ovk
ovlas
ovlasti
ovlastima
ovna
ovo
ovog
ovoga
ovogodis
ovoj
ovojnica
ovojnice
ovom
ovome
ovomu
ovu
owen
own
oxalis
oxford
oxfordu
oxytropis
oz
ozalj
ozbiljan
ozbiljna
ozbiljne
ozbiljni
ozbiljnih
ozbiljnije
ozbiljnim
ozbiljno
ozbiljnu
ozlijedio
ozlijeđen
ozlijeđena
ozlijeđeno
ozlja
ozljeda
ozljedama
ozljede
ozljedu
oznac
oznaka
oznakama
oznake
oznakom
oznaku
ozon
ozona
ozrac
ozren
p
pa
pablo
pac
pace
pacific
pacifika
pacifiku
pacijenata
pacijent
pacijenta
pacijenti
pack
packers
pad
pada
padaju
padajuc
padala
padalina
padaline
padati
pade
padez
padina
padinama
padine
padini
padne
padnu
padom
pados
padova
padovanskog
padove
padovi
padu
pag
paga
page
pages
pagu
pai
paice
pain
painting
pak
paka
pakao
paket
paketa
pakiranje
pakistan
pakistana
pakistanu
pakla
pakleni
paklu
pako
pakrac
pakraca
pakracu
pakt
pakta
pal
pala
palac
palace
palais
palatin
palazzo
palc
palca
pale
paleolitika
paleolog
palermo
palestina
palestine
palestini
palestinu
paleta
palez
pali
palic
palicom
palicourea
palim
paljbe
paljbom
paljbu
paljenja
paljenje
pall
palm
palma
palme
palmer
palmi
palo
palube
palubi
palustris
pamc
pamet
pametan
pameti
pametna
pametni
pametno
pamte
pamti
pamuc
pamuk
pamuka
pan
panama
paname
panameric
panathinaikos
panc
panda
pandan
pandemije
pandz
panel
panela
panero
panic
panicum
panika
panj
panjolaca
panjolci
panjolska
panjolske
panjolski
panjolskih
panjolskim
panjolsko
panjolskog
panjolskoj
panjolskom
panjolsku
panonije
panoniju
panonske
panorama
panther
panzer
panzerkampfwagen
pao
paok
paola
paolo
papa
pape
paper
papers
papi
papic
papin
papinska
papinske
papinski
papinsko
papinskog
papinskom
papir
papira
papire
papiri
papiru
papom
paprati
papu
papua
papuc
papue
papui
papuk
par
para
parabolic
parac
parada
parade
paradise
paradoks
paradz
paraga
paragraf
paragvaj
paragvaja
paragvaju
paralele
paralelna
paralelne
paralelni
paralelnih
paralelno
parametar
parametara
parametra
parametre
parametri
parametrima
paramount
parana
paravojne
paravojnih
parc
pardosa
pare
parenja
parenje
pari
paric
paris
pariz
pariza
parizu
park
parka
parker
parketu
parkiralis
parkom
parkova
parkovi
parkovima
parks
parku
parlament
parlamenta
parlamentarna
parlamentarne
parlamentarni
parlamentarnih
parlamentarnim
parlamentu
parliament
parma
parme
parna
parne
parni
parnih
parnim
parnog
parodija
parom
parova
parove
parovi
parovima
parr
pars
parsons
part
parta
parte
partial
partija
partije
partiji
partiju
partizan
partizana
partizane
partizani
partizanima
partizanska
partizanske
partizanski
partizanskih
partizanskim
partizanskog
partner
partnera
partneri
partnerima
partnerom
partnerstva
partnerstvo
partnerstvu
party
paru
parviflora
pas
pasa
pascal
pascher
pashe
pasivni
pasivno
pasmina
pasmine
pass
passiflora
passifloraceae
passion
past
paste
pasti
pastir
pastira
pastiri
pastor
pastoralni
pat
patac
pate
patent
patentirao
pater
pati
patio
patka
patke
patnje
patnju
patolos
patria
patricia
patricija
patrick
patrijarh
patrijarha
patrijars
patrik
patrika
patsy
patti
patton
patuljak
patuljaka
patuljasti
patuljci
pau
pauc
pauci
pauk
pauka
paul
paula
pauli
paulie
paullinia
paulo
paulom
paulu
pauze
pav
pavao
pavel
pavelic
pavic
paviljon
paviljona
pavkovic
pavla
pavle
pavletic
pavlic
pavlinovic
pavlov
pavlova
pavlovic
pavlu
pavo
pax
payne
pays
paz
pazi
pazin
pazinu
pazite
paziti
pb
pbs
pc
pd
pdf
pdp
pe
peace
peak
pearl
pearson
pec
peck
pedagog
pedagogije
pedagos
pedagozi
pedeset
pedesetak
pedesetih
pedicularis
pedra
pedro
peer
pegazu
peggy
pehar
pejac
pejzaz
peking
pekingu
pelargonium
pele
peljes
pen
penelope
penguin
penjac
penje
penn
pennsylvania
pennsylvaniji
penny
penstemon
people
peoples
pepela
pepeo
peperomia
per
pera
peraja
peraje
peras
perast
perasta
perc
percepcije
pere
pereira
perez
perfect
performance
performans
performansa
performanse
performansi
peric
perica
periferiji
perigeju
perihel
period
perioda
periodic
periodom
periodu
peris
perivoj
perja
perje
perjem
perkins
perkovic
pero
perom
perovic
perrier
perry
pers
persepolis
persia
persian
persicaria
personal
perspective
perspectives
perspektiva
perspektive
perspektivu
peru
perua
peruanski
peruc
perus
peruu
perz
perzej
perzija
perzijanaca
perzijanci
perzije
perziji
perzijska
perzijske
perzijski
perzijskih
perzijskim
perzijsko
perzijskog
perzijskom
perzijsku
perziju
pes
pet
peta
petak
petar
pete
peter
petera
peterburg
peterburgu
petero
peters
peterson
peti
petit
petka
petkom
petkovic
petlja
petlje
petlovac
petnaest
petnaestak
peto
petog
petogodis
petoj
petom
petorci
petorica
petorku
petra
petrac
petranovic
petre
petri
petric
petrijevci
petrinja
petrinje
petrinji
petro
petrogradu
petrom
petrov
petrova
petrovac
petrovaradinu
petrovci
petrovic
petrovo
petru
petrucci
petrus
petu
peugeot
pez
pfa
pg
pgp
ph
phantom
phi
phil
phila
philadelphia
philadelphiji
philip
philipp
philippe
phillip
phillips
philodendron
philosophy
phlegmariurus
phoenix
phone
photo
photography
photos
php
phyllanthus
physical
physics
pi
pia
piano
piazza
pic
pica
picard
picasso
pice
pici
pick
picture
pictures
pidz
pie
piece
pierce
piero
pierre
pierrea
pietra
pietro
pigmenata
pigment
pigmenta
pigmenti
pigmentima
pija
pijan
pijani
pijanist
pije
pijesak
pijeska
pijeskom
pijesku
piju
pijun
pik
piksela
pila
pilar
pilat
pile
pilea
pilg
pili
pilic
pilja
piljama
pilje
pilji
pilju
pilosella
pilot
pilota
piloti
pima
pin
pine
ping
pingvini
pink
pinus
pinyin
pio
pioneer
pionir
pionira
pioniri
piper
pir
piramida
piramide
pirata
pirati
piro
pis
pisa
pisac
pisaca
pisala
pisali
pisalo
pisama
pisan
pisana
pisane
pisani
pisanih
pisanim
pisanja
pisanje
pisanjem
pisanju
pisano
pisanom
pisao
pisar
pisati
pisca
pisce
pisci
piscima
piscu
pisma
pismeno
pismenost
pismenosti
pismima
pismo
pismohrani
pismom
pismu
piste
pit
pita
pitaj
pitaju
pitala
pitali
pitam
pitanja
pitanje
pitanjem
pitanjima
pitanju
pitao
pitas
pitati
pitcairnia
piti
pitke
pitomac
pitt
pittosporum
pittsburgh
piva
pivo
pivovara
pjega
pjege
pjes
pjesama
pjesma
pjesmama
pjesme
pjesmi
pjesmom
pjesmu
pjesni
pjesnic
pjesnici
pjesnik
pjesnika
pjesnike
pjesnikinja
pjesniku
pjesnis
pjeva
pjevac
pjevajte
pjevaju
pjevajuc
pjevala
pjevali
pjevanja
pjevanje
pjevanjem
pjevanju
pjevao
pjevati
pk
pl
plac
place
plakala
plakat
plakata
plakati
plaketa
plam
plamen
plamena
plamenom
plamenu
plan
plana
planch
planck
plane
planet
planeta
planete
planeti
planetima
planetoida
planetu
planina
planinama
planinar
planinarski
planinarsko
planinarskog
planine
planini
planinska
planinske
planinski
planinskih
planinskim
planinsko
planinskog
planinskom
planinu
planira
planiraju
planirali
planiran
planirana
planirane
planirani
planiranja
planiranje
planiranju
planirano
planirao
plankton
planom
planova
planove
planovi
planovima
plant
plantago
plantaz
plants
planu
plas
plasirala
plasirali
plasirao
plasirati
plasman
plasmana
plasmani
plasmodium
plastic
plastika
plastike
plata
plate
plateau
platforma
platformama
platforme
platformi
platformu
plati
platinasti
platinastu
platinum
platio
platiti
platna
platno
platnu
plato
platoa
platon
platou
plav
plava
plave
plavi
plavih
plavim
plavo
plavog
plavoj
plavom
plavu
plavus
play
player
playstation
plaz
plaza
plazma
plazme
plazmi
please
plec
pleistocena
pleme
plemena
plemenima
plemenita
plemenitas
plemenite
plemeniti
plemenitih
plemenom
plemenske
plemenski
plemenskih
plemenu
plemic
plemkinja
plemstva
plemstvo
plemstvu
plenkovic
ples
plesa
plesac
plesati
plesne
plesni
plesova
plesovi
plesu
pletera
pleternica
plic
plijen
plijena
plijenom
plime
plin
plina
plinije
plinom
plinova
plinove
plinovi
plinovima
plinoviti
plinska
plinske
plinski
plinskih
plinu
plitkim
plitko
plitvic
pliva
plivac
plivanja
plivanje
plivanju
pljac
pljes
pljesecka
pljevlja
ploc
plod
ploda
plodan
plodna
plodne
plodno
plodnost
plodnosti
plodom
plodova
plodove
plodovi
plodovima
ploha
plohe
plohu
plomin
plos
plotdata
plove
plovi
plovidba
plovidbe
plovidbi
plovidbu
plovila
plovio
plovna
pluc
plug
plur
plus
pluta
plutajuc
plutarh
pluto
pluton
plutona
plutonij
plymouth
pm
pmf
pmid
pneumatski
png
po
poa
pobac
pobijedi
pobijedila
pobijedili
pobijedio
pobijediti
pobijedivs
pobijeni
pobijenih
pobijeno
pobili
pobio
pobiti
pobjec
pobjeda
pobjedama
pobjede
pobjedi
pobjednic
pobjednica
pobjednice
pobjednici
pobjednik
pobjednika
pobjednikom
pobjedom
pobjedu
pobjegao
pobjegla
pobjegli
pobjegne
pobjegnu
pobjez
pobjeđuje
pobjeđuju
pobliz
poboc
poboljs
poboz
pobuna
pobune
pobuni
pobunili
pobunio
pobunjeni
pobunjenic
pobunjenici
pobunjenicima
pobunjenih
pobunjenika
pobunu
poc
pod
poda
podaci
podacima
podalje
podanici
podanika
podatak
podataka
podatci
podatcima
podatka
podatke
podban
podc
podes
podgajci
podgorac
podgorica
podgorici
podgorski
podgrađe
podic
podigao
podigla
podigli
podigne
podignut
podignuta
podignute
podignuti
podignuto
podijeli
podijelila
podijelili
podijelio
podijeliti
podijeljen
podijeljena
podijeljene
podijeljeni
podijeljenih
podijeljeno
podiz
podizanja
podizanje
podizanjem
podizanju
podjednako
podjela
podjele
podjeli
podjeljena
podjelom
podjelu
podlech
podlijez
podloga
podloge
podlogu
podloz
podlozi
podmars
podmazivanje
podmornic
podmornica
podmornice
podmrs
podne
podnese
podneva
podnijela
podnijeti
podnio
podno
podnos
podnose
podnosi
podnositi
podnoz
podosta
podravac
podravina
podravine
podravka
podravska
podravske
podravski
podravskoj
podraz
podrazred
podrazumijeva
podrazumijevaju
podred
podređeni
podrijetla
podrijetlo
podrijetlom
podrijetlu
podrs
podruc
podrucja
podrum
podrumu
podruz
podrz
podsaveza
podsavezna
podserije
podsjec
podsjetnik
podskup
podskupina
podskupine
podskupini
podskupinu
podtribus
podu
poduc
podudara
podudaraju
podunavlja
podunavlju
podunavskih
podupirali
podupirao
podupire
podupiru
poduzec
poduzeli
poduzeo
poduzeti
poduzetnic
poduzetnici
poduzetnik
poduzetnika
poduzetnis
poduzima
podvodni
podvozje
podvrgnut
podvrgnuti
podvrsta
podvrste
podz
podzemlja
podzemlje
podzemna
podzemne
podzemni
podzemnih
podzemnim
poe
poema
poeme
poen
poena
poepp
poetic
poezija
poezije
poeziji
poeziju
pogac
pogana
pogani
pogađa
pogiba
pogibije
poginula
poginule
poginuli
poginulih
poginulim
poginulo
poginuo
poglavar
poglavara
poglavari
poglavarstva
poglavarstvo
poglavica
poglavice
poglavito
poglavlja
poglavlje
poglavlju
pogled
pogleda
pogledaj
pogledajte
pogledao
pogledati
poglede
pogledi
pogledima
pogledom
pogledu
pogoci
pogodak
pogodaka
pogodan
pogodci
pogodi
pogodila
pogodio
pogoditi
pogodna
pogodne
pogodni
pogodno
pogodnosti
pogon
pogona
pogone
pogoni
pogonima
pogonom
pogonska
pogonske
pogonski
pogonskim
pogonskog
pogonu
pogors
pogotka
pogotkom
pogotovo
pogođen
pogođena
pogranic
pogreb
pogres
pogrijes
pogubi
pogubiti
pogubljen
pogubljenja
pogubljenje
pohađa
pohađaju
pohađala
pohađao
pohađati
pohod
pohoda
pohode
pohodi
pohodima
pohodu
pohrane
pohranjuje
pohranu
pohvala
pohvale
pohvalio
poimence
poimenic
point
poir
poirot
poistovjec
poj
pojac
pojam
pojas
pojasa
pojasom
pojasu
pojava
pojavama
pojave
pojavi
pojavila
pojavile
pojavili
pojavilo
pojavio
pojaviti
pojavljivanja
pojavljivanje
pojavljivao
pojavljivati
pojavljuje
pojavljuju
pojavom
pojavu
pojede
pojedina
pojedinac
pojedinaca
pojedinca
pojedince
pojedinci
pojedincima
pojedine
pojedini
pojedinih
pojedinim
pojedinog
pojedinom
pojedinosti
pojeo
pojesti
pojma
pojmom
pojmova
pojmove
pojmovi
pojmu
pok
pokal
pokaz
pokaza
pokazala
pokazale
pokazali
pokazalo
pokazao
pokazat
pokazatelj
pokazatelji
pokazati
pokazivac
pokazivala
pokazivali
pokazivao
pokazivati
pokazuje
pokazuju
pokazujuc
poke
pokemon
poker
poklapa
pokli
poklon
poklone
pokloni
poklonio
pokloniti
poklopac
pokoj
pokoja
pokojni
pokojnika
pokojnog
pokolj
pokolja
pokolju
pokop
pokopan
pokopana
pokopani
pokori
pokorili
pokorio
pokoriti
pokraj
pokrajina
pokrajinama
pokrajine
pokrajini
pokrajinom
pokrajinski
pokrajinskog
pokrajinu
pokrec
pokrene
pokrenula
pokrenule
pokrenuli
pokrenulo
pokrenuo
pokrenut
pokrenuta
pokrenuti
pokret
pokreta
pokretac
pokretan
pokretanja
pokretanje
pokretanju
pokretao
pokretati
pokrete
pokreti
pokretima
pokretljivost
pokretljivosti
pokretna
pokretne
pokretni
pokretnih
pokretnim
pokretom
pokretu
pokriti
pokriva
pokrivac
pokrivaju
pokrivala
pokriven
pokrivena
pokriveni
pokriveno
pokrov
pokrovitelj
pokroviteljstvom
pokrs
pokuc
pokus
pokusa
pokuse
pokusi
pokusima
pol
pola
polac
polaganja
polaganje
polagano
polako
polarizacija
polarna
polarne
polarni
polarnim
polaz
polaze
polazec
polazi
polazio
polazis
pole
polemic
polemika
polemike
polet
poleti
poletio
poli
polic
policajac
policajaca
policajca
policajci
police
policija
policije
policiji
policijom
policijska
policijske
policijski
policijskih
policijskim
policijskog
policijskoj
policijsku
policiju
policy
poligon
polijetanja
polimera
polimeri
polinezijski
polis
politic
political
politici
politics
politika
politike
politikom
politiku
polj
polja
poljaci
poljak
poljaka
poljana
poljane
poljani
polje
poljem
poljic
poljica
poljima
poljodjelstvo
poljoprivreda
poljoprivrede
poljoprivredi
poljoprivredna
poljoprivredne
poljoprivredni
poljoprivrednih
poljoprivrednim
poljoprivredno
poljoprivrednog
poljoprivrednu
poljoprivredom
poljoprivredu
poljska
poljske
poljski
poljskih
poljskim
poljsko
poljskog
poljskoj
poljskom
poljsku
polju
poljubac
poljubi
poljudu
polk
poll
polo
polova
polovica
polovice
polovici
polovicom
polovicu
polovima
polovina
polovine
polovini
polovinu
poloz
polu
polubrat
polubrata
poluc
polufinala
polufinale
polufinalu
poluga
poluge
polukruz
polumjer
polumjera
polumjesec
poluotok
poluotoka
poluotoku
poluraspada
polutke
polutki
poluvodic
poluvremena
poluvremenu
poluzavrs
polygala
polygonum
polystichum
pomagac
pomagala
pomagali
pomaganje
pomagao
pomagati
pomak
pomaka
pomaknuti
pomalo
pomaz
pomet
pomic
pomicanja
pomicanje
pomicati
pomijes
pomirenja
pomirenje
pomiriti
pomis
pomisao
pomisli
pomislio
pomisliti
pomno
pomnoz
pomoc
pomogao
pomogla
pomogli
pomoglo
pomogne
pomognu
pomorac
pomoraca
pomorci
pomorska
pomorske
pomorski
pomorskih
pomorskim
pomorsko
pomorskog
pomorskoj
pomorskom
pomorsku
pomorstva
pomorstvo
pomozi
pompeja
pomrc
pomurju
ponad
ponajprije
ponajvis
ponas
ponavlja
ponavljaju
ponavljajuc
ponavljanja
ponavljanje
ponedjeljak
ponegdje
ponekad
ponekada
poneki
pones
ponijeti
ponio
ponis
poniz
ponoc
ponor
ponora
ponos
ponosa
ponosan
ponosno
ponosom
ponovi
ponovio
ponoviti
ponovna
ponovne
ponovni
ponovnim
ponovno
ponovnog
ponovnom
ponovnu
ponovo
pont
ponte
pontifikata
ponuda
ponude
ponudi
ponudila
ponudili
ponudio
ponuditi
ponudu
ponuđen
ponuđena
ponuđeno
pool
pop
popa
pope
popela
popeo
popis
popisa
popisano
popisi
popisima
popisom
popisu
popiva
poplava
poplave
poploc
popodne
popov
popovac
popovic
poprac
popravak
popravi
popravio
popraviti
poprec
poprilic
poprima
poprimiti
popris
poprsje
populacija
populacije
populaciji
populacijom
populaciju
popular
popularan
popularizirao
popularna
popularne
popularni
popularnih
popularnim
popularno
popularnog
popularnoj
popularnom
popularnost
popularnosti
popularnu
population
populus
popus
poput
por
porac
poradi
porasla
porast
porasta
porastao
poraste
porastom
porastu
poratnih
poraz
poraza
poraze
porazi
porazila
porazili
porazio
poraziti
porazom
porazu
porcupine
porec
pored
poredak
poredane
poredani
poremec
poretka
poretku
porez
poreza
poreze
porezi
porezne
porezni
porfirogenet
poric
porijekla
porijeklo
porijeklom
porijeklu
porin
porina
porinut
porjec
porno
porod
poroda
porodi
porodic
porodica
porodicama
porodice
porodici
porodicu
porođaja
porsche
port
porta
portal
portala
portalu
portas
porte
porter
portland
portnoy
porto
portoriko
portova
portovi
portovima
portrait
portret
portreta
portrete
portreti
portska
portske
portski
portskih
portskim
portsko
portskog
portskom
portsmouth
portu
portugal
portugala
portugalci
portugalska
portugalske
portugalski
portugalskog
portugalskom
portugalu
poruc
poruka
poruke
porukom
poruku
porus
pos
posada
posade
posadi
posadom
posadu
posao
posavac
posavina
posavinasport
posavine
posavini
posavska
posavske
posavski
posavskoj
poseban
posebice
posebna
posebne
posebni
posebnih
posebnim
posebno
posebnog
posebnoj
posebnom
posebnost
posebnosti
posebnu
posejdon
position
posjec
posjed
posjeda
posjede
posjedi
posjedima
posjedovala
posjedovali
posjedovanje
posjedovao
posjedovati
posjedu
posjeduje
posjeduju
posjet
posjeta
posjete
posjeti
posjetila
posjetili
posjetilo
posjetio
posjetitelja
posjetitelje
posjetitelji
posjetiteljima
posjetiti
posjetu
posla
poslala
poslali
poslan
poslana
poslani
poslanica
poslanice
poslanici
poslanik
poslanika
poslano
poslao
poslas
poslati
posle
poslije
poslijediplomski
poslijepodne
poslijeratni
posljedic
posljedica
posljedicama
posljedice
posljedicu
posljednja
posljednje
posljednjeg
posljednjem
posljednji
posljednjih
posljednjim
posljednjoj
posljednju
posljetku
poslom
poslova
poslovanja
poslovanje
poslovanju
poslove
poslovi
poslovima
poslovna
poslovne
poslovni
poslovnih
poslovnim
poslovno
poslovnog
poslovnom
poslovnu
poslu
posluje
poslus
posluz
posmic
posmrtni
posmrtno
pospjes
posrednik
posrednika
posredno
posredovanje
posredstvom
post
posta
postade
postaja
postajala
postajali
postajama
postajao
postaje
postaji
postaju
postajuc
postala
postale
postali
postalo
postanak
postane
postanka
postanku
postanu
postao
postat
postati
postav
postava
postave
postavi
postavila
postavili
postavilo
postavio
postaviti
postavke
postavlja
postavljaju
postavljanja
postavljanje
postavljanjem
postavljanju
postavljao
postavljati
postavljen
postavljena
postavljene
postavljeni
postavljenih
postavljenim
postavljeno
postavs
postavu
postelje
postelji
postelju
postepeno
poster
postic
postigao
postigavs
postigla
postigle
postigli
postiglo
postigne
postignuc
postignut
postignuta
postignuti
postignutih
postignuto
postira
postiz
postizanja
postizanje
postizanju
postizao
posto
postojala
postojale
postojali
postojalo
postojanja
postojanje
postojanju
postojanost
postojanosti
postojao
postojati
postoje
postojec
postoji
postolja
postolje
postolju
postotak
postotku
postrojba
postrojbama
postrojbe
postrojbi
postrojbu
postrojenja
postrojenje
postrojenjima
postumno
postupa
postupak
postupaka
postupanja
postupanje
postupati
postupci
postupcima
postupio
postupiti
postupka
postupke
postupkom
postupku
postupno
posuda
posudama
posudba
posudbe
posudbi
posudbu
posude
posudi
posudio
posudu
posus
posuđa
posuđe
posuđen
posuđuje
posve
posvec
posveta
posvete
posveti
posvetila
posvetili
posvetio
posvetiti
posvjedoc
posvuda
pot
potajno
potaknula
potaknulo
potaknuo
potaknut
potaknuti
potamogeton
potc
potekao
potekla
potencijal
potencijala
potencijalna
potencijalne
potencijalni
potencijalnih
potencijalno
potencijalnu
potentilla
potes
potez
poteza
poteze
potezi
potezima
potezom
potezu
pothvat
pothvata
potic
poticaj
poticala
poticanja
poticanje
poticao
poticati
potisak
potiska
potiskuje
potisnuti
potjec
potjera
potjeru
potkraj
potlac
potoc
potoci
potocima
potok
potoka
potoku
potom
potomak
potomaka
potomci
potomcima
potomka
potomke
potomstva
potomstvo
potonja
potonje
potonji
potonuo
potopljen
potpis
potpisa
potpisala
potpisale
potpisali
potpisan
potpisana
potpisani
potpisao
potpisati
potpisivanja
potpisivanje
potpisivanjem
potpisom
potpisuje
potpisuju
potpora
potpore
potpori
potporodica
potporodice
potporodicu
potporu
potpredsjednik
potpredsjednika
potpukovnik
potpukovnika
potpun
potpuna
potpune
potpuni
potpunim
potpuno
potpunog
potpunoj
potpunom
potpunosti
potpunu
potraga
potrage
potragu
potrajala
potrajalo
potrajao
potrajati
potraz
potrazi
potrc
potreba
potrebama
potreban
potrebe
potrebi
potrebna
potrebne
potrebni
potrebnih
potrebnim
potrebno
potrebnog
potrebnu
potrebu
potreps
potres
potresa
potresi
potresu
potros
potter
pottera
potteru
potuc
potukao
potvrda
potvrde
potvrdi
potvrdila
potvrdili
potvrdilo
potvrdio
potvrditi
potvrdu
potvrđen
potvrđena
potvrđeni
potvrđeno
potvrđuje
potvrđuju
pouc
pour
pouzdan
pouzdani
pouzdano
pouzdanost
pouzdanosti
povec
povede
poveli
povelja
povelje
povelji
poveljom
povelju
poveo
povesti
povez
povezan
povezana
povezane
povezani
povezanih
povezanim
povezano
povezanost
povezanosti
povezao
povezati
povezice
povezivala
povezivanja
povezivanje
povezivao
poveznica
poveznice
poveznicu
povezuje
povezuju
povijes
povijesna
povijesne
povijesni
povijesnih
povijesnim
povijesno
povijesnog
povijesnoj
povijesnom
povijesnu
povijest
povijesti
povika
povis
povjerava
povjerena
povjerenik
povjerenika
povjerenja
povjerenje
povjereno
povjerenstva
povjerenstvo
povjerio
povjesnic
povlac
povlas
povlastica
povlastice
povod
povoda
povodom
povodu
povoljan
povoljne
povoljnim
povoljno
povorka
povorke
povrac
povrat
povratak
povrati
povratio
povratiti
povratka
povratkom
povratku
povratna
povratne
povratni
povratnic
povrc
povreda
povrede
povremene
povremeni
povremenim
povremeno
povrh
povrs
povuc
povukao
povukla
povukle
povukli
povuku
powell
power
poz
pozadina
pozadine
pozadini
pozadinski
pozadinu
pozdrav
pozdravi
pozdravio
pozdravlja
pozicija
pozicijama
pozicije
poziciji
poziciju
pozitivan
pozitivna
pozitivne
pozitivni
pozitivnih
pozitivnim
pozitivno
pozitivnog
pozitivnom
pozitivnu
poziv
poziva
pozivaju
pozivajuc
pozivali
pozivanje
pozivao
pozive
pozivni
pozivom
pozivu
pozlac
pozna
poznaje
poznajem
poznajemo
poznaju
poznam
poznat
poznata
poznate
poznati
poznatih
poznatija
poznatije
poznatiji
poznatijih
poznatim
poznato
poznatog
poznatoj
poznatom
poznatu
poznavali
poznavanja
poznavanje
poznavanju
poznavao
poznavati
pozoris
pozornica
pozornice
pozornici
pozornicu
pozornost
pozornosti
pozove
pozva
pozvala
pozvali
pozvan
pozvana
pozvani
pozvao
pozvati
pođe
pođi
pođos
pp
ppd
pr
pra
prac
practice
pradesh
prado
prag
praga
pragmatic
pragu
prah
praha
prahu
prain
praksa
prakse
praksi
praksu
praktic
prakticira
prakticiraju
prama
pramc
pranje
prapovijesna
prapovijesne
prapovijesni
prapovijest
prapovijesti
pras
praska
prate
pratec
prati
pratila
pratili
pratilo
pratio
pratiti
pratnja
pratnje
pratnji
pratnjom
pratnju
pratt
prava
pravac
pravaca
pravas
pravca
pravcem
pravci
pravcima
pravcu
pravda
pravde
pravdi
pravdu
prave
pravedan
pravedni
pravednik
pravednika
pravedno
pravednost
pravednosti
pravi
pravic
pravice
pravih
pravila
pravilan
pravilima
pravilne
pravilnik
pravilnim
pravilno
pravilo
pravilu
pravim
pravima
pravio
praviti
pravna
pravne
pravni
pravnici
pravnih
pravnik
pravnika
pravnim
pravno
pravnog
pravnoj
pravnom
pravnu
pravo
pravocrtno
pravog
pravoga
pravoj
pravokutne
pravokutni
pravokutnog
pravom
pravomoc
pravopis
pravopisa
pravopisu
pravoslavaca
pravoslavci
pravoslavlje
pravoslavna
pravoslavne
pravoslavni
pravoslavnih
pravoslavnim
pravoslavnog
pravoslavnoj
pravoslavnu
pravosuđa
pravosuđe
pravu
prayer
praz
prazan
prazna
prazne
prazni
praznici
praznih
praznik
praznika
praznina
praznine
prazno
praznog
prc
pre
prebac
prebacio
prebaciti
prebacivanje
prebacuje
prebivalis
prec
preci
precision
precizan
precizne
preciznije
precizno
preciznost
preciznosti
pred
preda
predade
predaja
predaje
predaji
predaju
predak
predaka
predala
predali
predan
predana
predani
predao
predati
predavac
predavala
predavanja
predavanje
predavanjima
predavao
predavati
preddiplomski
predgovor
predgrađa
predgrađe
predgrađima
predgrađu
predgrupa
predio
predjela
predjele
predjelima
predjelu
predlagao
predlaz
predlos
predloz
predmet
predmeta
predmete
predmeti
predmetima
predmetom
predmetu
prednja
prednjac
prednje
prednjeg
prednjem
prednji
prednjih
prednjim
prednjoj
prednost
prednosti
predoc
predodz
predrag
predragocjena
predrasuda
predrasude
predromanic
preds
predsjedao
predsjedatelj
predsjedavajuc
predsjedavao
predsjednic
predsjednica
predsjednice
predsjednici
predsjednik
predsjednika
predsjednikom
predsjedniku
predsjednis
predstava
predstavama
predstave
predstavi
predstavila
predstavili
predstavio
predstaviti
predstavlja
predstavljaju
predstavljajuc
predstavljala
predstavljale
predstavljali
predstavljalo
predstavljanja
predstavljanje
predstavljao
predstavljati
predstavljen
predstavljena
predstavljeni
predstavnic
predstavnica
predstavnici
predstavnicima
predstavnik
predstavnika
predstavnike
predstavnis
predstavu
predstojec
predstojnik
predstojnika
preduvjet
predvec
predvidio
predvidjeti
predviđa
predviđanja
predviđanje
predviđao
predviđen
predviđena
predviđene
predviđeni
predviđeno
predvodi
predvodili
predvodio
predvodnik
predvorje
predvođena
predvođene
predvođeni
predvođenih
predznak
prefekt
prefektura
prefekture
prefekturi
preferira
prefiks
pregled
pregleda
pregledu
pregovarac
pregovora
pregovore
pregovori
pregovorima
pregrada
pregrade
prehrambena
prehrambene
prehrambenih
prehrana
prehrane
prehrani
prehranu
preimenovan
preimenovana
preimenovao
preinac
preinake
prekasno
prekid
prekida
prekidac
prekidaju
prekidima
prekidu
prekine
prekinula
prekinuli
prekinuo
prekinut
prekinuta
prekinuti
prekinuto
preko
prekomorske
prekorac
prekretnica
prekretnicu
prekriva
prekrivaju
prekriven
prekrivena
prekrivene
prekriveni
prekriveno
prekriz
prekrs
prelaska
prelaskom
prelasku
prelazak
prelaze
prelazi
prelaziti
prelog
prem
prema
premalo
premas
premda
premier
premijer
premijera
premijere
premijeri
premijerno
premijerom
premijeru
preminula
preminuo
premio
premjes
premjestio
premoc
premos
prenese
prenesen
prenesena
preneseni
preneseno
prenijeli
prenijeti
prenio
prenoc
prenos
prenose
prenosi
prenosila
prenosio
prenositi
preobrac
preobraz
preokret
preopterec
preostala
preostale
preostali
preostalih
preostalim
preostalo
preplas
preponama
preporod
preporoda
preporuc
preporuka
preporuke
preporuku
prepozna
prepoznaje
prepoznaju
prepoznali
prepoznao
prepoznat
prepoznati
prepoznatljiv
prepoznatljiva
prepoznatljivi
prepoznatljivih
prepoznavanje
prepreka
prepreke
prepreku
prepric
prepun
prepus
prepustio
prepustiti
prerada
prerade
preradovic
preradu
prerano
prerasla
prerastao
prerus
pres
preselila
preselili
preselio
preseliti
preseljena
preseljeni
preseljenja
preseljenje
present
president
presjec
presjek
presjeka
presjeku
preskoc
presl
presley
preslicu
presretac
press
pressure
prestaje
prestaju
prestala
prestale
prestali
prestalo
prestanak
prestane
prestanka
prestao
prestati
prestiz
prestras
presuda
presudan
presude
presudi
presudio
presudno
presudom
presudu
presus
presvete
presveto
presvetog
presvetom
pretec
pretekao
pretez
prethodi
prethodila
prethodna
prethodne
prethodni
prethodnici
prethodnih
prethodnik
prethodnika
prethodnim
prethodno
prethodnog
prethodnoj
prethodnom
prethodnu
pretisak
pretjerano
pretka
pretkolo
pretpostavio
pretpostaviti
pretpostavka
pretpostavke
pretpostavki
pretpostavku
pretpostavlja
pretpostavljaju
pretpostavljalo
pretraga
pretrage
pretraz
pretrpio
pretrpjela
pretrpjeli
pretty
pretuc
pretvara
pretvarac
pretvaraju
pretvarajuc
pretvaranje
pretvorba
pretvorbe
pretvorbu
pretvoren
pretvorena
pretvori
pretvorila
pretvorili
pretvorio
pretvoriti
preuzela
preuzele
preuzeli
preuzeo
preuzet
preuzeta
preuzeti
preuzeto
preuzima
preuzimaju
preuzimanja
preuzimanje
preuzimanju
preuzme
prev
prevario
preveden
prevedena
prevedene
prevedeno
prevela
prevelika
prevelike
prevencija
prevenciju
preventivno
preveo
prevesti
previranja
previs
prevlac
prevladava
prevladavaju
prevladavajuc
prevlaka
prevlake
prevlast
prevlasti
prevode
prevodi
prevodio
prevoditelj
prevoditelja
prevoditelji
prevoditeljica
prevozi
prevođenja
prevođenje
prez
prezentacija
prezentacije
prezime
prezimena
prezimenom
prezire
pređe
pri
pribic
pribliz
pribor
pric
prica
price
prid
pridaje
pride
pridjev
pridjeva
pridjevi
pridobiti
pridonijela
pridonijeli
pridonijelo
pridonijeti
pridonio
pridonose
pridonosi
pridos
pridruz
pridrz
priest
prigodi
prigodom
prigodu
prigovora
prigus
prihod
prihoda
prihode
prihodi
prihodima
prihvac
prihvat
prihvate
prihvati
prihvatila
prihvatili
prihvatilo
prihvatio
prihvatiti
prijam
prijas
prijatelj
prijatelja
prijatelje
prijateljem
prijatelji
prijateljica
prijateljice
prijateljima
prijateljske
prijateljski
prijateljskih
prijateljskim
prijateljskoj
prijateljskom
prijateljstva
prijateljstvo
prijateljstvu
prijatelju
prijava
prijave
prijavio
prijaviti
prijavu
prije
prijec
prijedlog
prijedloga
prijedloge
prijedlogu
prijedlozi
prijedor
prijeko
prijelaz
prijelaza
prijelazi
prijelazni
prijelaznog
prijelaznom
prijelazu
prijem
prijenos
prijenosa
prijenosni
prijenosnika
prijenosom
prijenosu
prijepis
prijestol
prijestolja
prijestolje
prijestolju
prijestolnica
prijestolnice
prijestolnici
prijestolnicom
prijestolnicu
prijestolonasljednik
prijestolonasljednika
prijestupnoj
prijete
prijetec
prijeti
prijetila
prijetio
prijetnja
prijetnjama
prijetnje
prijetnji
prijetnjom
prijetnju
prijevara
prijevare
prijevaru
prijevod
prijevoda
prijevodi
prijevodima
prijevodu
prijevoj
prijevoja
prijevoz
prijevoza
prijevoznik
prijevozu
prijeđe
prikaz
prikaza
prikazali
prikazan
prikazana
prikazane
prikazani
prikazano
prikazao
prikazati
prikaze
prikazi
prikazima
prikazivala
prikazivali
prikazivan
prikazivanja
prikazivanje
prikazivao
prikazivati
prikazom
prikazu
prikazuje
prikazuju
prikazujuc
prikladan
prikladna
prikladne
prikladni
prikladno
prikljuc
priko
prikupio
prikupiti
prikuplja
prikupljaju
prikupljanja
prikupljanje
prikupljanju
prikupljenih
prilagodba
prilagodbe
prilagodbu
prilagodio
prilagoditi
prilagođava
prilagođen
prilagođena
prilagođene
prilagođeni
prilaz
prilazi
prilic
prilici
prilika
prilikama
prilike
prilikom
priliku
prilog
priloga
priloge
priloz
prilozi
prilozima
prim
prima
primaju
primali
primanja
primanje
primao
primarna
primarne
primarni
primarnih
primarno
primarnog
primat
primata
primati
prime
primera
primi
primijec
primijenio
primijeniti
primijenjen
primijenjena
primijenjene
primijenjenih
primijenjenu
primijeti
primijetili
primijetio
primijetiti
primila
primili
primio
primirja
primirje
primis
primiti
primitivni
primjec
primjedbe
primjena
primjene
primjeni
primjenjivati
primjenjuje
primjenjuju
primjenom
primjenu
primjer
primjera
primjerak
primjeraka
primjerci
primjere
primjereno
primjeri
primjerice
primjerima
primjerka
primjerom
primjeru
primjesa
primjese
primljen
primljena
primljeni
primljenih
primorac
primoran
primorja
primorje
primorju
primorska
primorske
primorski
primorsko
primos
princ
princa
prince
princess
princeton
princeza
princeze
princezu
princip
principa
principe
principi
principima
principu
princu
prinos
prinose
prinosi
print
priopc
prior
prioritet
prioriteta
pripada
pripadaju
pripadajuc
pripadala
pripadale
pripadali
pripadalo
pripadao
pripadnici
pripadnicima
pripadnik
pripadnika
pripadnike
pripadnost
pripadnosti
pripajanje
pripala
pripalo
pripao
pripasti
pripisati
pripisuje
pripisuju
pripojen
pripojena
pripojeno
pripovijeda
pripovijedao
pripovijest
pripovijesti
pripovijetke
pripovjedac
pripravi
priprema
pripremaju
pripremali
pripremama
pripremanje
pripremao
pripremati
pripreme
pripremi
pripremili
pripremio
pripremiti
pripremu
prir
priras
priredbe
priredbi
priredila
priredili
priredio
priređuje
priroda
prirode
prirodi
prirodna
prirodne
prirodni
prirodnih
prirodnim
prirodno
prirodnog
prirodnoj
prirodnom
prirodnu
prirodom
prirodoslovac
prirodoslovni
prirodoslovno
prirodu
prirođena
prirođene
priruc
pris
prisege
prisegu
prisili
prisilili
prisilio
prisiliti
prisiljava
prisiljen
prisiljena
prisiljeni
prisilni
prisilno
prisilnog
prisjec
priskoc
prislus
prispodoba
pristaje
pristala
pristali
pristalica
pristalice
pristanak
pristane
pristanis
pristanka
pristao
pristas
pristati
pristiz
pristup
pristupa
pristupac
pristupanju
pristupi
pristupila
pristupili
pristupilo
pristupio
pristupiti
pristupljeno
pristupom
pristupu
prisustva
prisustvo
prisustvovali
prisustvovao
prisutan
prisutna
prisutne
prisutni
prisutnih
prisutno
prisutnost
prisutnosti
pritis
pritisak
pritisaka
pritiscima
pritiska
pritiskom
pritoci
pritok
pritoka
pritoke
pritom
prituz
pritvor
pritvoru
prius
private
privatizacije
privatna
privatne
privatni
privatnih
privatnim
privatno
privatnog
privatnoj
privatnom
privatnu
prividna
prividno
privilegija
privilegije
privlac
privlaka
privreda
privrede
privredni
privremena
privremene
privremeni
privremenim
privremeno
privremenog
privremenom
privremenu
privrz
privuc
privukao
privukla
prix
priz
prize
prizemlje
prizemlju
prizna
priznaje
priznaju
priznala
priznale
priznali
priznanja
priznanje
priznanjem
priznanju
priznao
priznat
priznata
priznate
priznati
priznatih
priznato
priznavanje
priznavao
prizor
prizora
prizore
prizori
prizorima
priđe
prkovci
prljavo
prnjavor
pro
proba
probavni
probavnog
probe
probija
probijanja
probijanje
probijanjem
probila
probili
probio
probiti
problem
problema
problematic
probleme
problemi
problemima
problemom
problemu
probni
proboj
proboja
probudi
probudio
probuditi
probus
proc
procedura
procedure
proceedings
proces
procesa
procese
procesi
procesija
procesima
procesom
procesor
procesora
process
procesu
procijenio
procijeniti
procijenjena
procijenjeno
procjena
procjenama
procjene
procjeni
procjenjuje
procjenjuju
procjenu
procvat
procvata
proda
prodaja
prodaje
prodaji
prodajom
prodaju
prodala
prodali
prodan
prodana
prodani
prodanih
prodano
prodao
prodati
prodavac
prodavali
prodavao
prodavati
prodire
prodiru
prodor
prodora
prodrijeti
producenata
producent
producenta
producenti
producentica
producentima
producentom
producira
producirala
producirali
produciranje
producirao
producirati
production
productions
produkata
produkcija
produkcije
produkciji
produkcijom
produkcijski
produkciju
produkt
produkti
produljenje
produz
prof
profana
profesionalna
profesionalne
profesionalni
profesionalnih
profesionalnim
profesionalno
profesionalnog
profesionalnom
profesionalnu
profesor
profesora
profesori
profesorica
profesorom
professional
professor
profil
profila
profile
profilu
profit
profita
proglas
proglasi
proglasila
proglasile
proglasili
proglasilo
proglasio
proglasiti
prognan
prognanika
prognoza
prognoze
progon
progona
progone
progoni
progonima
progonstva
progonstvo
progovori
program
programa
programe
programi
programima
programiranja
programiranje
programom
programska
programske
programski
programskih
programskog
programu
progresivni
progresivnog
progress
proizas
proizlaze
proizlazi
proizvede
proizveden
proizvedena
proizvedene
proizvedeni
proizvedenih
proizvedeno
proizvela
proizveo
proizvesti
proizvod
proizvoda
proizvode
proizvodi
proizvodila
proizvodili
proizvodima
proizvodio
proizvoditi
proizvodna
proizvodne
proizvodni
proizvodnih
proizvodnja
proizvodnje
proizvodnji
proizvodnjom
proizvodnju
proizvođac
project
projekata
projekcija
projekcije
projekt
projekta
projektant
projekte
projekti
projektil
projektila
projektile
projektili
projektilima
projektima
projektiran
projektiranje
projektirao
projektom
projektu
proklet
prokleta
prokleti
prokletstvo
prolaska
prolaskom
prolasku
prolaz
prolaza
prolazak
prolaze
prolazec
prolazi
prolazila
prolazili
prolazio
prolaziti
prolazom
prolazu
proleksis
proleter
proleterske
proljec
proljetna
proljetne
proljetni
proljetnog
proljev
prolog
promaknuc
promaknut
promas
promatra
promatrac
promatraju
promatrajuc
promatramo
promatranja
promatranje
promatranjem
promatrao
promatrati
promet
prometa
prometej
prometna
prometne
prometni
prometnica
prometnice
prometnih
prometno
prometnoj
prometnu
prometom
prometu
prometuje
promic
promicanja
promicanje
promicanju
promicao
promicati
promidz
promijene
promijeni
promijenila
promijenile
promijenili
promijenilo
promijenio
promijeniti
promijenjen
promijenjena
promijenjeno
promis
promjena
promjenama
promjene
promjeni
promjenom
promjenu
promjer
promjera
promjerom
promjeru
promo
promocija
promocije
promociji
promociju
promotivni
promovira
promoviran
promovirao
promovirati
pronac
pronalaska
pronalaz
pronalazak
pronalaze
pronalazi
pronas
pronađe
pronađen
pronađena
pronađene
pronađeni
pronađenih
pronađeno
pronađu
propada
propadanja
propadanje
propaganda
propagande
propagandu
propala
propali
propao
propast
propasti
propelera
propis
propisa
propisana
propisane
propisano
propisao
propise
propisi
propisima
propisuje
proporcionalna
proporcionalno
propovijed
propovijedao
propovijedi
propovjednik
propus
propustio
propustiti
prorac
proroc
proroci
prorocima
prorok
proroka
proroke
proroku
pros
prosinac
prosinca
prosincu
prosjak
prosjec
prosjek
prosjeka
prosjekom
prosjeku
proslava
proslave
proslavi
proslavila
proslavio
proslavu
prost
prostate
prosti
prostirala
prostire
prostiru
prostitutke
prostor
prostora
prostore
prostori
prostorija
prostorijama
prostorije
prostoriji
prostoriju
prostorima
prostorna
prostorne
prostorni
prostornih
prostorno
prostornog
prostorom
prostoru
prostrana
prosvjed
prosvjeda
prosvjede
prosvjedi
prosvjedima
prosvjednika
prosvjeta
prosvjete
prosvjetiteljstva
prosvjetni
prosvjetno
protagonist
protagonista
protection
protein
proteina
proteini
proteklih
protektorat
protektorata
protest
protesta
protestanata
protestanti
protestantizam
protestantska
protestantske
protestantski
protez
protezala
proti
protic
protiv
protive
protivi
protivila
protivili
protivio
protivljenja
protivljenje
protivnic
protivnici
protivnicima
protivnik
protivnika
protivnike
protivniku
protivno
protivnom
protjec
protjerali
protjeran
protjerani
protjerano
protjerao
protjerivanja
protjerivanje
proto
protoc
protok
protoka
protokol
protokola
proton
protona
protoni
prototip
prototipa
protu
protumac
protunapad
protupapa
protupodmornic
proturjec
protuzrac
prouc
prouzroc
provala
provale
provali
provalili
provedba
provedbe
provedbi
provedbu
provede
proveden
provedena
provedene
provedenih
provedeno
provela
proveli
proveo
provesti
provincija
provincijal
provincijama
provincije
provinciji
provinciju
provjere
provjeriti
provjeru
provlac
provode
provodi
provodila
provodili
provodio
provoditi
provođenja
provođenje
provođenju
provrta
proz
proza
proze
prozi
prozor
prozora
prozore
prozori
prozorima
prozoru
prozrac
prozu
prozvali
prozvan
prozvana
prozvao
prođe
prođu
prpic
prs
prsa
prsi
prsima
prsni
prsno
prst
prsta
prste
prsten
prstena
prstenom
prstenova
prstenovi
prstenu
prsti
prstiju
prstima
prstom
pruga
prugama
pruge
prugom
prugu
prunus
pruska
pruske
pruski
pruskog
pruskoj
pruskom
prusku
pruz
pruzi
prva
prvaci
prvacima
prvak
prvaka
prvake
prvakinja
prvakinje
prvakom
prve
prvenstava
prvenstva
prvenstvenih
prvenstveno
prvenstvima
prvenstvo
prvenstvu
prvi
prvih
prvijenac
prvim
prvima
prvo
prvobitni
prvobitno
prvog
prvoga
prvoj
prvoligas
prvom
prvome
prvotna
prvotne
prvotni
prvotno
prvu
prz
ps
psa
psalam
psalmi
pse
psec
pseudo
pseudonim
pseudonimom
psg
psi
psihic
psihijatar
psihoaktivne
psihodelic
psiholog
psihologija
psihologije
psihologiji
psihologiju
psiholos
psihotropne
psihotropnih
psima
psv
psychology
psychotria
pt
pteris
pterostylis
ptic
ptica
pticama
ptice
pticu
ptolemej
ptolomej
pu
pub
puberteta
pubescens
public
publication
publications
publici
publicist
publicisti
publicistic
publicistika
publika
publikacija
publikacijama
publikacije
publike
publikom
publiku
published
publisher
publishers
publishing
puc
puca
pucaju
pucali
pucanja
pucanje
pucao
pucati
puebla
pueblo
puerto
puhac
puk
puka
puklo
pukom
pukotina
pukotine
pukovnija
pukovnije
pukovniji
pukovniju
pukovnik
pukovnika
puku
pula
pule
puli
puljic
puls
pulska
pulske
pulski
pulu
pumpa
pumpe
pumpi
pun
puna
pune
puni
punih
punim
punitovac
punjac
punjenja
punjenje
punk
punka
puno
punog
punoj
punom
punopravni
punta
punu
pupc
pure
purple
purpura
pus
push
pussy
pusta
puste
pusti
pustili
pustinja
pustinje
pustinji
pustinjska
pustinju
pustio
pustite
pustiti
pustolovina
pustolovine
pustolovni
pustos
put
puta
putanja
putanje
putanji
putanju
putem
puteva
puteve
putevi
putevima
puti
putin
putna
putnic
putnici
putnicima
putnik
putnika
putnike
putopis
putopisac
putopisi
putova
putovala
putovali
putovanja
putovanje
putovanjima
putovanju
putovao
putovati
putove
putovi
putovima
putovnica
putovnice
putovnicu
putu
putuje
putuju
putujuc
puya
puz
pv
px
python
pz
pzo
q
qa
qad
qi
qin
qing
qquad
qu
qua
quad
quam
quarterbacka
quarterly
que
quebec
queen
queens
queensland
queer
quentin
quercus
quest
question
qui
quinn
qul
quo
quod
r
ra
rab
raba
rabbi
rabe
rabec
rabi
rabila
rabili
rabin
rabio
rabiti
rabu
rac
race
rachel
racing
rad
rada
radar
radara
radarom
radarski
rade
radec
radi
radic
radija
radijacije
radijalno
radije
radijska
radijske
radijski
radijskih
radijskim
radiju
radijus
radikalna
radikalne
radikalni
radikalno
radila
radile
radili
radilo
radim
radimo
radio
radioaktivni
radioaktivnih
radioaktivnog
radioaktivnost
radioaktivnosti
radiohead
radionica
radionicama
radionice
radionici
radionicu
radiotelevizija
radiotelevizije
radis
raditi
radivoja
radlk
radna
radne
radni
radnic
radnici
radnicima
radnih
radnik
radnika
radnike
radnim
radnja
radnje
radnji
radnjom
radnju
radno
radnog
radnoj
radnom
radnu
rado
radom
radomir
radonjic
rados
radoslav
radosno
radost
radosti
radova
radovan
radove
radovi
radovic
radovima
radu
raduje
radula
raf
rafael
rafaela
ragbi
ragbiju
rage
raguz
rah
rai
raikkonen
rail
rain
rainbow
rainer
raj
raja
rajc
rajevo
rajic
rajko
rajna
rajne
rajni
rajon
rajona
raju
rak
raka
raketa
raketama
rakete
raketna
raketne
raketni
raketnih
raketnog
raketom
raketu
rakije
rakova
rakovi
rakovica
rally
ralph
ram
rama
rame
ramena
ramenima
ramenu
rami
ramo
ramone
ramones
ramos
rams
ramu
ran
rana
ranc
rand
randall
random
randy
rane
rang
ranga
range
ranger
rangers
rangu
rani
ranih
ranija
ranije
ranijeg
raniji
ranijih
ranijim
ranim
ranjavanja
ranjen
ranjena
ranjeni
ranjenih
ranjenika
ranjeno
ranko
rankovic
rano
ranog
ranoj
ranokrs
ranom
ranu
ranunculus
rap
rapid
ras
rasa
rase
rashladni
rasi
rasistic
raskida
raskinuo
raskol
raskola
raskos
raskriz
rasla
raslinja
raslo
rasne
raspad
raspada
raspadaju
raspadanja
raspadom
raspadu
raspala
raspao
raspec
raspelo
raspodjela
raspodjele
raspodjeli
raspodjelu
raspolaganje
raspolaganju
raspolaz
raspoloz
raspon
raspona
rasponom
rasponu
raspored
rasporeda
rasporedom
rasporedu
raspoređen
raspoređena
raspoređene
raspoređeni
raspoređenih
rasprava
raspravama
rasprave
raspravi
raspravlja
raspravljali
raspravljalo
raspravljati
raspravu
rasprostranjen
rasprostranjena
rasprostranjene
rasprostranjenost
rasprostranjenosti
rasprs
raspus
raspustio
rast
rasta
rastali
rastao
rastaviti
raste
rasti
rastom
rastu
rastuc
rasu
rasvjeta
rasvjete
rasvjetu
rat
rata
ration
ratis
ratkajevih
ratko
ratna
ratne
ratni
ratnic
ratnici
ratnih
ratnik
ratnika
ratnim
ratno
ratnog
ratnoj
ratnom
ratnu
ratom
ratova
ratovali
ratovanja
ratovanje
ratovanju
ratovao
ratove
ratovi
ratovima
ratu
rau
ravan
raven
ravenna
ravlic
ravna
ravnatelj
ravnatelja
ravnateljem
ravnateljica
ravne
ravni
ravnic
ravnica
ravnicama
ravnice
ravnici
ravnicu
ravnih
ravnim
ravnina
ravnine
ravnini
ravninu
ravno
ravnodus
ravnog
ravnoj
ravnom
ravnomjerno
ravnopravno
ravnopravnost
ravnopravnosti
ravnotez
raw
ray
raya
raymond
raymonda
raz
razarac
razaranja
razaranje
razbija
razbijanje
razbio
razbiti
razbojnika
razbolio
razdoblja
razdoblje
razdobljem
razdobljima
razdoblju
razdraz
razdvaja
razdvajaju
razdvajanja
razdvajanje
razdvojba
razglednica
razgovara
razgovaraju
razgovarala
razgovarali
razgovarao
razgovarati
razgovor
razgovora
razgovore
razgovori
razgovorima
razgovoru
razgranic
razigravac
razigravanje
razina
razinama
razine
razini
razinom
razinu
razis
razjas
razlaz
razlic
razlici
razlika
razlikama
razlike
razlikom
razlikovala
razlikovali
razlikovanje
razlikovao
razlikovati
razliku
razlikuje
razlikujemo
razlikuju
razlog
razloga
razloge
razlogom
razloz
razlozi
razlozima
razluc
razmacima
razmak
razmaka
razmaku
razmatra
razmatranja
razmatranje
razmis
razmjena
razmjene
razmjeni
razmjenu
razmjera
razmjere
razmjerima
razmjerna
razmjerno
razmjes
razmnoz
razna
razne
razni
raznih
raznim
raznolika
raznolike
raznolikost
raznolikosti
razoc
razoren
razorili
razoruz
razradio
razred
razreda
razrede
razredu
razrijes
razrjes
razrus
razum
razuma
razumije
razumijem
razumijevanja
razumijevanje
razumijevanju
razumiju
razumio
razumjeli
razumjeti
razveli
razvija
razvijaju
razvijala
razvijali
razvijanja
razvijanje
razvijanju
razvijao
razvijati
razvije
razvijen
razvijena
razvijene
razvijeni
razvijenih
razvijenim
razvijeno
razvijenom
razvijenu
razviju
razvila
razvile
razvili
razvilo
razvio
razvitak
razviti
razvitka
razvitku
razvlac
razvod
razvoda
razvoj
razvoja
razvojem
razvojna
razvojne
razvojni
razvojnih
razvoju
razvrstavanju
rađa
rađaju
rađanja
rađanje
rađen
rađena
rb
rbih
rc
rca
rchb
rd
rda
re
rea
read
reader
reading
ready
reagan
reagira
reagiraju
reagirao
reagirati
reakcija
reakcijama
reakcije
reakciji
reakcijom
reakciju
reaktor
reaktora
reaktori
reaktoru
real
reala
realistic
reality
realizacija
realizacije
realizaciji
realizaciju
realizam
realiziran
realizirao
realizma
really
realna
realne
realni
realnih
realno
realnom
realnost
realnosti
realnu
rebecca
rebra
rec
recco
recenzent
recenzija
recenzije
recenziji
recept
receptora
receptore
rech
reci
recimo
reciproc
recite
record
recording
recordings
records
recordsa
recordsom
red
reda
redak
redaka
redakcija
redakcije
redatelj
redatelja
redateljem
redatelji
redateljica
redni
redom
redoslijed
redoslijedu
redova
redove
redovi
redovima
redovita
redovite
redoviti
redovito
redovitog
redovne
redovni
redovnic
redovnica
redovnice
redovnici
redovnik
redovnika
redovno
redovnog
redu
redukcija
redukcije
redukcijom
redz
reed
reeves
referenca
reference
referendum
referenduma
referendumu
refleks
refleksija
refleksije
reflektira
reflektor
reflektora
reforma
reformacija
reformacije
reformama
reforme
reformi
reformu
regan
regata
regel
regent
regenta
reggae
regija
regijama
regije
regiji
regijom
regiju
regina
region
regional
regionalna
regionalne
regionalni
regionalnih
regionalnim
regionalno
regionalnog
regionalnoj
regionalnom
regionalnu
regis
registar
registra
registracijska
registracijske
registraciju
registriran
registrirana
registrirani
registriranih
registrirano
regni
regulacija
regulacije
regulaciju
regularna
regularne
regularni
regularnih
regularnog
regularnom
regulator
regulira
rehabilitaciju
rehder
reich
reicha
reid
reintegracije
reis
reizdanje
rejting
reka
rekao
rekavs
rekla
reklama
reklame
rekli
rekne
rekoh
rekom
rekonstrukcija
rekonstrukcije
rekonstrukciju
rekord
rekorda
rekorde
rekorder
rekordi
rekordnih
rekos
rekreaciju
rektor
rektora
relacija
relaciji
related
relations
relativistic
relativna
relativne
relativno
relativnosti
relativnu
release
reli
religija
religijama
religije
religiji
religijom
religijska
religijske
religijski
religijskih
religiju
religion
religions
religious
religiozne
religiozni
reliju
relikvija
relikvije
relja
reljef
reljefa
reljefi
reljefima
reljefni
reljefu
rem
remake
rembrandt
remek
remember
remen
remena
remenice
remi
remiks
remix
ren
renaissance
renata
renato
renault
rendgenske
rendgenskih
rendgensko
rendic
rene
renesansa
renesanse
renesansna
renesansne
renesansni
reorganizacije
rep
repa
repe
reper
repera
repertoar
repertoara
replika
repom
report
reportaz
reporter
represija
represije
reprezentacija
reprezentacije
reprezentaciji
reprezentacijom
reprezentaciju
reprezentativac
reprezentativaca
reprezentativca
reprezentativci
reprezentativna
reprezentativne
reprezentativni
reprodukcije
reprodukciju
repu
repubblica
republic
republici
republika
republikama
republikanske
republike
republikom
republiku
repus
reputaciju
required
rer
res
resa
research
reserve
resident
resources
restauracija
restauracije
restauratora
restauriranje
restoran
restorana
restoranu
restoration
results
resursa
resurse
resursi
resursima
retka
retkovci
[...]
