!
"
#
##0
##1
##10
##11
##12
##13
##14
##15
##16
##17
##18
##19
##2
##20
##21
##22
##23
##24
##25
##26
##27
##28
##29
##3
##30
##31
##32
##33
##34
##35
##36
##37
##38
##39
##4
##40
##41
##42
##43
##44
##45
##46
##47
##48
##49
##5
##50
##51
##52
##53
##54
##55
##56
##57
##58
##59
##6
##60
##61
##62
##63
##64
##65
##66
##67
##68
##69
##7
##70
##71
##72
##73
##74
##75
##76
##77
##78
##79
##8
##80
##81
##82
##83
##84
##85
##86
##87
##88
##89
##9
##90
##91
##92
##93
##94
##95
##96
##97
##98
##99
$
%
&
'
(
)
*
+
,
-
.
/
0
00
000
001
002
003
004
006
007
008
01
014
016
02
022
03
03149777329222
04
047693
05
06
060
065
07
075
08
09
1
10
100
1000
10000
100000
101
102
102000
1023000
102398
1025
1025000
103
104
1045
105
1050
106
106000
1066
107
1071
1077
108
109
11
110
1100
11000
111
112
113
11300
114
115
116
116523
117
118
118616
1187
1189
119
119000
1192
12
120
1200
12000
120000
121
1210
121000
1213
122
122000
1225
123
123000
1239
124
1241
1244
125
126
12600
127
1278
128
1282
129
12900
1296
13
130
1300
13000
130000
1306
131
131000
132
1321
133
1333
1337
134
1340
1343
1346
135
1356
1358
136
1369
137
1370
13700
137000
1372
138
1380
1389
139
1395
1396
1397
1397000
14
140
1400
14000
140000
141
1410
1411
1412
1415
1417
142
142000
1428
1429
143
1430
1431
1435
1438
144
1444
1446
1447
145
145000
1452
1453
1458
146
147
148
1480
1482
1485
1489
149
1492
1493
1494
1498
1499
15
150
1500
15000
150000
1501
1502
1506
1508
151
151000
1513
1514
1517
1519
152
1520
1521
1522
1523
1525
1527
1529
153
1531
1532
1534
1535
1536
154
1541
1542
1543
1546
1547
155
1550
1552
1553
1554
1557
1558
156
1562
1563
1564
1565
1569
157
1570
157000
1571
1572
1573
1576
1578
158
1580
1581
1582
1583
1585
1586
1588
159
1590
1591
1592
1594
1595
1596
1597
1598
1599
16
160
1600
1601
1602
1603
1604
1605
1606
1607
1609
161
1610
161000
1612
1613
1614
1615
1616
1617
1618
162
1620
162000
1621
1623
1624
1625
1626
1627
1628
163
1632
1634
1635
1636
1637
1638
1639
164
1640
164000
1641
1642
1644
1646
1648
165
1650
16500
1651
1652
1654
1655
1656
1658
1659
166
1660
1661
1663
1664
1665
1666
1667
1668
167
1670
1672
1675
1676
168
16800
1681
1683
1685
1688
1689
169
1690
1695
1697
1698
1699
17
170
1700
1701
1703
1704
1706
1707
1708
171
1710
1711
1712
1713
1714
1716
1717
1718
1719
172
1720
1721
1722
1723
1724
1725
1726
1727
1728
1729
173
1730
1736
1739
174
1740
174000
1741
1742
1743
1744
1745
1746
1748
1749
175
1750
1752
1753
1755
1756
1757
1758
176
1760
1762
1763
1764
1765
1767
1768
1769
177
1770
1772
1773
1774
1775
1776
1777
1778
1779
178
1780
1781
1782
1783
1784
1785
1786
1787
1788
1789
179
1790
179000
1791
1792
1793
1794
1795
1796
1797
1798
1799
18
180
1800
1801
1802
1803
1804
1805
1806
1807
1808
1809
181
1810
1811
1812
1813
1814
1815
1816
1817
1818
1819
182
1820
1821
1822
1823
1824
1825
1826
1827
1828
1829
183
1830
183000
1831
1832
1833
1834
1835
1836
1837
1838
1839
184
1840
1841
1842
1843
1844
1845
1846
1847
1848
1849
185
1850
1851
1852
1853
1854
1855
1856
1857
1858
1859
186
1860
1861
1862
1863
1864
1865
1866
1867
1868
1869
187
1870
1871
1872
1873
1874
1875
1876
1877
1878
1879
188
1880
1881
1882
1883
1884
1885
1886
1887
1888
1889
189
1890
1891
1892
1893
1894
1895
1896
1897
1898
1899
19
190
1900
19000
1901
1902
1903
1904
1905
1906
1907
1908
1909
191
1910
1911
1912
1913
1914
1915
1916
1917
1918
1919
192
1920
19200
1921
1922
1923
1924
1925
1926
1927
1928
1929
193
1930
1931
1932
1933
1934
1935
1936
1937
1938
1939
194
1940
194000
1941
1942
1943
1944
1945
1946
1947
1948
1949
195
1950
195000
1951
1952
1953
1954
1955
1956
1957
1958
1959
196
1960
1961
1962
1963
1964
1965
1966
1967
1968
1969
197
1970
1971
1972
1973
1974
1975
1976
1977
1978
1979
198
1980
198000
1981
1982
1983
1984
1985
1986
1987
1988
1989
199
1990
1991
1992
1993
1994
1995
1996
1997
1998
1999
2
20
200
2000
20000
200000
2001
2002
2003
2004
2005
2006
2007
2008
2009
201
2010
2011
2012
2013
2014
2015
2016
2017
2018
2019
202
2020
20200
2021
2022
2023
203
2030
204
205
206
207
208
209
209000
21
210
2100
21000
211
211000
212
213
214
214000
215
215000
216
217
219
219000
22
220
2200
22000
221
222
222000
223
224
225
226
226000
227
228
229
23
230
2300
231
231000
232
232000
233
234
235
236000
237
238
239
239000
24
240
2400
24000
240000
241
242
243
244
245
246
247
248
2481
249
25
250
2500
25000
250000
251
252
253
254
255
256
257
258
259
26
260
261
262
262000
263
264
265
266
267
268
269
27
270
27000
271
272
273
273000
274
275
276000
278
279
28
280
2800
280000
286000
287000
289
29
290
290000
291
293000
294
295
296
297
298
299
3
30
300
3000
301
303
304
305
306
307
308
309
31
310
31000
311
312
312000
313
313000
3133
314
315
316
316000
3166
317
317700
318
319
319000
32
320
32000
321
322
322000
323
324
325
326
326400
327
327000
328
329
33
330
3300
330000
331
331000
332
333
334
335
336
337
338
339
34
340
342000
343
344
345
346
34600
347
348
348000
35
350
3500
35000
351
351600
352
353
353000
354
355
356
357
358
359
36
360
361
363
364
365
366
37
370
371
372
375
378
38
380
384
385
3850
388
39
390
398000
3984
399
4
40
400
4000
40000
400000
403
407000
41
410
412
415
42
420000
421
423
425
426
426000
428000
43
430
4300
43000
44
440
4400
44000
441
45
450
456
458
46
465
466
469
47
4700
47000
478
479419
48
4800
486
488
49
4974
498
5
50
500
5000
500000
502000
5025
5033
505000
5058
506
5068
508
509
51
5100
510000
5152
51617284504452
517775
52
52000
5204
521
52300
53
530
5300
53049
531
535
536
539
54
540
5400
542
55
5500
5527
555
559
56
5600
5642
568
57
570
576000
577
578
579000
58
58000
581
58337
5851582170
586
5895
59
590
591
594
5947
599
6
60
600
6000
60000
61
610
612
62
620
63
6300
63000
631
638
639
639000
64
6400
65
650
650700
658
66
662
67
670
6700
671
678
678436
68
684
686
69
692
696
699
7
70
700
7000
70000
70425
707
71
716
72
720
72000
722
73
730
737
738
74
744
747
748
75
750
7500
76
760
767
77
7700
7737
78
79
792
794
8
80
800
8000
802
804
81
810
8112027
82
820
826
83
84
842
844
85
854
857
859
86
860
86000
8601
863
866
867
87
875
88
88199
885
886
89
9
90
900
9000
91
911
916
92
92661
93
930
933645
933945
9372819895
94
95
95696
958
96
960
962
966
968
97
972
976
978
979
98
98085
99
992
999
:
;
<
=
>
?
@
\
^
_
`
a
aa
aaa
ab
abab
abbey
abe
abkhazia
able
ablo
ablon
ablona
ablonas
ablono
about
above
abs
ac
academic
academy
access
accessdate
account
accounts
achieved
achievements
acid
acinonyx
across
act
action
active
activist
activities
actors
ad
adansonia
add
added
adding
addition
additional
additions
address
adf
admin
administrateur
administration
administrator
administratori
administrators
admins
adobe
advanced
ady
ae
aerial
aero
af
affect
affected
affecting
africa
afrikaans
afrikaanse
after
afterwards
ag
again
against
agilis
ago
agra
agreement
agriocnemis
ah
ahead
ai
air
airbus
airport
ais
ak
aka
ako
al
alaska
alba
albarraci
alemania
alexander
alfabe
algeria
ali
alias
aliases
align
all
alligator
allows
allpravo
allpropertyclaims
allsnaks
almost
alom
along
alpha
alphabet
already
als
also
alt
altaica
alternative
although
altocumulus
altostratus
am
amanita
amazon
ambox
ame
america
american
amf
amharic
amiens
amirobot
amk
amnesty
among
amount
amour
amphiprion
amsterdam
amu
an
analysis
anarchism
anarchists
anatomy
anchusa
and
anda
andes
andoza
ang
angeles
angelo
angels
angkor
animated
animation
ankara
anne
announced
announcement
announcements
annuit
another
anser
answer
antarctica
anthophora
any
anyone
anything
ao
aoc
ap
apis
apollo
apologize
appeal
appearance
appeared
appendimpl
appendmainsnaks
appendqualifiers
appendsnaks
apple
applicable
applied
appreciate
approaching
appropriate
approvals
approved
approximate
april
aq
aqah
aquila
ar
ara
arabic
aralam
aramaic
ararauna
arc
architecture
archive
archivedate
archives
archiveurl
arctica
ardea
are
area
areas
aren
arena
arg
args
argsi
ark
armenia
armenian
arms
army
around
arp
arr
arrange
array
arrogant
art
arte
artes
article
articles
arts
arvense
arxiv
arz
as
asia
asian
ask
asked
asks
aspx
asrows
assembly
assigned
associate
association
ast
asturias
at
atatu
athene
athens
atlas
atlites
atmosphere
attacus
attend
attended
attention
attica
attr
au
audi
audio
audios
auf
august
augusto
aurelia
aurora
ausbausprache
australia
australian
austria
autant
author
auto
autocollapse
autofill
automatic
automatically
av
ava
available
average
aw
awards
awareness
ax
axis
ay
ayuntamiento
az
azf
azərbaycan
b
ba
back
background
backward
bahasa
baird
baker
bal
balkar
ban
band
bangkok
bank
banner
baptism
baptist
bar
barbara
barcelona
barnhart
bars
bartz
bas
basa
base
based
bashstat
basic
basilica
bat
bath
battle
bay
bayerische
bb
bbc
bbf
bc
bd
be
beach
beans
beatles
because
become
bee
been
beethoven
before
begin
beginning
begun
behalf
behind
bei
beijing
beim
being
bel
belfast
bell
belle
below
ben
bengal
bengali
benny
benz
ber
berkut
berli
berlin
berliner
bernhardt
best
beta
betafeatures
betriebe
better
between
bf
bg
bgd
bh
bhatta
bi
bibcode
bible
bibliographic
bicolor
bicornis
big
bigger
biggrin
bild
billboard
bipm
bir
bisaltide
bit
bitstream
bj
bk
bka
bl
bla
black
blank
blaue
bleu
block
blocked
blocker
blog
bloomberg
blue
bm
bmw
bn
bne
bnf
bo
boat
boeing
bog
bokma
boletus
bolivia
bolshe
bolshoi
book
bookmark
books
boolean
border
borealis
born
bos
bosna
bosnia
boston
bot
bota
both
bots
bottom
boulevard
bouron
box
bp
bpol
bpy
bq
br
brasil
brazil
brazilian
break
bregman
bresson
bridge
bring
britain
britannica
british
broken
brooklyn
brown
browser
bry
bryce
bs
bsd
bt
bu
budapest
budelberger
bufo
bug
buginese
bugs
building
built
buldern
bundesarchiv
bundeskriminalamt
bundespolizei
bundestag
bur
burdwan
bureau
burg
business
but
butterfly
button
buttonlabel
buttons
buzau
bv
bw
bx
bxor
by
bz
bzxs
c
ca
cabinet
cached
cadre
caenorhabditis
calendar
calendario
california
californicum
called
callparserfunction
camboya
cambridge
came
camera
camii
camp
campaign
campo
can
canada
canny
canyon
capital
capitol
cappadocia
capra
captcha
caption
caracal
card
cards
cariama
carla
casa
casco
case
caseta
castillo
castle
cat
catala
catalana
cate
catedral
categori
categoria
categorie
categories
category
caterpillar
cathedral
catherine
catopsilia
cats
caucasus
caused
causes
causeway
cb
cbk
cc
cd
cdcd
ce
ceb
cee
ceiling
celeron
cell
cello
census
center
centered
central
centralnotice
centre
centro
century
cerca
ceriagrion
cervus
cf
cg
cgi
ch
cha
challenge
chamaeleo
chamber
chan
change
changed
changes
changing
channel
character
characters
charles
charts
che
cheatsheet
check
checktype
cheetah
chegem
chi
chicago
chile
china
chinese
chis
chm
choice
choices
choose
choosing
chopin
chr
christ
christian
christmas
chrome
chromium
chronicle
chs
chu
church
chv
ci
cia
ciam
cid
ciencias
cilindros
cinerea
circle
circumstance
circumstances
cirrocumulus
cirrostratus
cirrus
cis
cisl
citakan
citation
citations
cite
cithakan
cities
citoid
city
ciudad
civil
ck
cke
ckoerner
cl
claim
claims
claimspropertyid
class
classic
classical
classification
cle
clear
click
clicked
clicking
closed
closeup
clytia
cm
cme
cn
cnt
co
coa
coat
code
codepoint
coeptis
coffee
colegial
collaboration
collapsed
collapsible
colleagues
college
color
columbia
column
columns
com
combine
combined
come
coming
command
commas
comment
comments
common
commons
commonwealth
communicate
communication
communications
communion
communities
community
compact
company
competition
complete
completely
complex
composite
computer
computerhotline
comunidad
con
concat
concerns
concise
confederate
conference
conflict
conflicts
congratulations
conjunction
connect
connected
consideration
consistent
conspicillatus
constitution
consultation
contact
contain
contains
content
contents
contest
context
continent
continue
contribute
contributions
contributors
control
controlled
convert
cookie
coord
copy
copyto
core
cornuta
coromandelianum
corp
corporation
correct
corvus
cos
cot
could
council
country
county
course
cover
cpa
cq
cquote
cr
crater
create
created
creating
creative
creator
cree
crematorium
crh
crisis
cristata
cristatus
croacia
croatian
croc
crop
cropped
cross
crosses
cruz
crystal
crystals
cs
csb
css
ct
cu
cube
cucurbita
cultural
culture
cumhuriyet
cumulus
cunicularia
cup
curitiba
current
currententity
currentindex
currently
currier
cursor
custom
customize
customizing
cv
cw
cx
cy
cycle
cyrillic
cz
czech
d
da
dactylorhiza
dag
daily
dal
dall
dam
dame
damselfly
dan
danaus
dansk
danube
dark
darkoneko
das
data
database
datalength
datavalue
date
datum
david
davis
day
days
db
dbinet
dbscripts
dbt
dc
dd
ddddff
ddf
de
dead
deadline
dear
death
dec
december
decimal
decimalmark
decimalposition
deckenfresken
decrease
dect
deep
deepcopy
deepwater
default
defaultvalue
defense
define
definition
deg
dei
del
delete
deleted
delhi
delias
delivered
delivery
della
dem
democracy
demoscope
den
deploy
deployed
deployment
deprecated
depression
der
derek
des
describe
described
describing
description
descriptions
desde
desert
design
designed
designs
desired
desktop
destination
desyatka
detail
details
detroit
deutsch
deutsche
deutschen
deutschland
develop
developed
developer
developers
development
device
devices
devil
df
dferg
dh
di
dia
dialog
diceros
dict
dictionary
did
die
dies
diff
difference
different
diffs
digit
digital
digits
diliff
dinamik
diputacio
diq
dir
direction
directions
directly
disabled
disambiguation
disaster
discovery
discussion
discussions
display
displayed
district
diwan
dj
dms
dns
do
doc
document
documentarchiv
documentation
does
doesn
doi
dok
dokum
dokumentacija
dokumentation
dolphin
dom
domain
dome
domestica
domesticus
domov
don
done
dong
donu
dore
dornier
doteli
double
dow
down
dozen
dq
drag
drop
dropdown
dropped
dryas
drz
dsb
dsc
dsl
dsz
dt
du
dubai
dublin
dubrovnik
due
duisburg
dunes
dunkirk
during
dusk
dust
dutch
dv
dw
dynasty
dz
e
each
eagle
early
earth
easier
easily
east
eastern
easy
eb
ec
echium
economic
economics
economy
econstats
ecuador
ed
eden
edison
edit
edited
editing
editintro
edition
editor
editors
edits
edu
eduardogobi
education
educational
edward
edwardsbot
edwin
edłoga
edłoha
ee
eea
eesti
ef
efef
effect
egretta
egy
egypte
eiffel
either
el
elaphus
elbrus
electric
electrolytic
elegans
element
elements
elitre
else
elseif
elymnias
em
email
embankment
embassy
embedded
emijrp
empire
emporte
empty
en
ena
enable
enabled
enables
enabling
enclosed
encourage
encyclopaedia
encyclopedia
encyclopædia
end
endeavour
eng
engineer
england
english
entente
entity
entityid
entrance
entre
environment
environments
eo
eps
er
era
erithacus
erp
error
errors
eruption
es
esculentus
espan
esperanto
est
estado
estados
estonia
et
etc
eternal
ethnic
etosha
etymology
eu
eucharis
eula
euro
eurocopter
europe
european
even
evening
event
eventually
ever
every
everyone
example
examples
except
exe
exercise
existent
existing
expand
expanded
expandspecialsqualifiers
experience
exploration
explorer
express
extension
external
eye
f
fa
facade
face
facebook
facilitating
fact
factbook
factors
factory
faint
fair
falls
false
family
familycolor
far
farm
faro
fascio
faster
fastest
favorite
fb
fd
fe
feature
features
feb
february
federation
feedback
feeding
feel
feels
feet
felipe
felis
female
feminism
ferguson
ferruginea
festival
few
ff
ffffff
fi
fiat
ficha
fifa
figaro
file
files
fill
filled
final
finalized
financial
find
finished
fire
firefox
firenze
firma
first
fiu
fiume
five
fix
fixed
fixing
fizika
fj
flag
flagged
flaggen
flagicon
flags
flash
flesh
flickr
flight
float
floor
flow
flower
flowers
floyd
flu
fly
fm
fmt
fn
fo
focus
focused
fog
folk
folklore
follow
following
font
foods
footer
footnotes
for
forbes
forbidden
force
ford
forecast
foreign
form
formal
format
formatdatavalue
formatentityid
formation
formatproperty
formatpropertydefault
formatrefs
formatsnak
formatstatement
formatstatementdefault
formatted
formattedclaims
formattedstatement
formatter
formatting
former
forms
formula
formulæ
forrester
fort
fortress
forum
forward
foto
found
foundation
fountain
four
fox
fr
fra
frac
fradre
frame
frameless
framework
franc
france
francisco
francois
frankfurt
franzo
fratercula
frecce
frederic
frederick
free
freedom
french
frequently
frhdkazan
friday
from
front
fruit
fu
full
fulva
fun
function
functionality
functions
functiontocall
fundraiser
fur
future
fuzzy
fy
g
ga
galaxy
galego
galeopsis
galicia
galleries
gallery
galuzzi
gan
garden
gardens
garzetta
gas
gate
gathering
gazette
gd
gdansk
ge
gelaltar
gender
general
generic
geneva
genus
geo
geografia
geographical
geoloc
george
georgia
georgian
ger
german
germany
geschichte
get
getentityobject
getparent
getsingle
getsourcingcircumstances
getting
getuserfunction
gez
gg
gharakhanyan
gi
giant
gif
gina
giraffe
giraffes
girl
give
given
gj
gje
gks
gl
glacier
global
globally
globe
glossary
gmbh
gn
gnd
gnu
go
goal
goals
god
gogh
going
golden
golesta
good
google
gora
gorie
gov
government
gp
gr
grace
gradually
grammar
gran
grand
grande
grant
graphische
graphs
grateful
grave
gray
grc
great
greece
greek
green
grenzpolizei
grfc
grin
ground
group
grouping
groupmark
groupminlength
grouponlyintegerpart
groups
growth
grunniens
gs
gsg
gsm
gsub
gu
guard
guerra
gui
guide
gustave
gv
gyps
h
ha
habstat
hackathon
had
hair
hak
hakasstat
hakenkreuzflagge
hakka
halan
halantul
half
haliaeetus
hall
haltern
hamburger
han
hand
handelsflagge
handling
happens
happy
har
harbor
harta
harvard
has
hash
haspreferred
hassan
haus
have
having
hcard
hdr
he
head
headed
hear
heart
heaven
hebrew
hec
hecale
heckler
hedwig
held
heliconius
hello
help
helped
helpful
helps
helsinki
hemerocallis
henry
her
herbert
hercegovina
here
heritage
herzegovina
hh
hhrm
hi
hidalgo
hidden
hiddencat
high
higher
highlight
highlighted
highlighting
hill
him
his
histo
historic
historical
histories
history
hitler
hmas
hms
ho
hobgood
holiness
hollywood
holmes
holocaust
holy
home
homo
hong
honor
hope
hopes
horizon
hornet
horse
hotel
hour
hours
house
houston
how
hp
hq
hr
hringer
hrono
hrsg
hrung
hsb
hst
ht
htm
html
http
https
hu
huasca
hubble
huge
humbly
hungarian
hy
hyemalis
hypermnestra
høgnorsk
i
ia
iana
ibm
ic
icann
ice
iceberg
iceland
icon
icons
id
idea
ideas
idioma
ie
if
ig
iglesia
iguana
ii
iii
ije
ik
il
ilada
iliff
illinois
illustrated
iltever
im
image
images
imdb
img
impact
imperial
implemented
important
imported
impression
improve
improved
improvement
improvements
improving
in
ina
inc
include
includemetatable
includes
including
increase
increased
inde
indeks
index
india
indian
indiana
individual
individuals
indonesia
info
infoboks
infobox
infoboxes
infokas
infopolje
inform
information
informed
informkesto
ing
inglaterra
ini
initial
initially
initiative
inline
inmarsat
innenraum
input
insert
inserted
inserter
inserting
inside
inspector
instead
institut
institute
institution
instructions
int
integer
integrated
intel
intended
inter
interactions
interdisciplinarna
interested
interface
interior
interlanguage
international
internet
interwiki
into
introduction
invisible
invite
invited
invoke
involved
io
ip
ipairs
iprage
ira
iran
iraq
iris
irk
iron
is
isa
isbn
isbns
isdn
isfaha
isla
islamic
island
islandia
islas
iso
israel
iss
issn
issue
issues
isswww
ist
istambul
istanbul
istituto
istmat
it
italia
italian
italiano
italy
item
items
itis
its
iulia
iv
iva
ivan
ives
iwiki
ix
iz
j
ja
jackie
jackiebot
jae
james
jan
janak
january
janusz
japan
japanese
japone
jardi
javascript
je
jean
jefferson
jerusalem
jesus
jew
jewish
jews
jezik
ji
jimmy
jo
joan
johann
johannes
john
johnson
join
jon
jonathan
jones
jordan
joseph
journal
jp
jpeg
jpg
jr
js
juan
jubatus
jukoff
juliette
july
jump
june
junonia
just
justified
juvenile
jv
jyothis
k
ka
kaa
kab
kadavoor
kaeng
kag
kaganer
kai
kaiyr
kal
kam
kao
kapital
kar
karac
karachay
karim
karl
karta
karte
kartposisjon
kartposition
katego
kategooria
kategori
kategoria
kategorie
kategorija
kategorio
kategoriyalari
kathmandu
kauja
kazakh
kbd
kde
keep
keilas
kem
kemalist
kendi
kew
key
keyboard
kg
kha
khan
khk
ki
kiev
kieve
kievica
killed
kind
king
kingdom
kingfisher
kir
kirche
kirchspiel
kirik
kirill
kk
kl
km
kn
know
knowledge
ko
kocatepe
koch
koda
kom
kompanija
kong
koord
korean
kortpositioner
kos
kra
krachan
krc
kremlin
kreuz
krl
krm
kro
krzyz
ks
ksh
ku
kug
kur
kuwait
kv
kw
ky
kya
kyoto
l
la
label
labeled
lacerta
lacroix
lad
lady
lago
lagoon
lake
lama
land
landing
landscape
lang
language
languages
langue
lanzarote
large
larger
larus
las
last
lastrecord
lat
late
later
latex
latin
latina
latvies
launch
law
lb
lbe
lc
le
lea
lead
learn
learned
learning
leave
leaves
led
left
leiden
len
length
lenta
les
less
let
lets
letter
letters
leucocephalus
lez
lg
li
liberian
liberty
library
libraryutil
license
lietuviu
life
liga
light
lighthouse
lightning
like
likely
lilium
lima
limitdouble
limited
limits
line
lingua
linguistics
lingvo
link
linked
linking
links
linn
linux
lip
liquidthreads
lisboa
list
lists
listtotext
literature
little
living
lj
lka
ll
lloyd
lmen
lmo
ln
lo
loa
loadcachesafe
loaddata
loaded
loading
loadsafe
loc
local
localizzazione
located
location
locmap
locomotive
lodo
loes
logged
logo
lokacijska
lokajski
lokalizacyjna
lon
london
londres
long
longer
longitude
look
looking
looks
lord
los
lotterie
louis
love
loveless
loves
low
lower
loz
lro
lt
ltd
ltg
lticos
lu
lua
lublin
luc
luca
ludovicianus
luokka
luxembourg
lv
lvm
m
ma
maackii
mac
macao
macedonia
macedonian
machaon
machine
machines
made
madinah
mag
magic
magyar
mahal
mahdi
mail
mailing
maimboeuf
main
mainly
mainsnak
major
make
makes
making
mal
malbork
male
mall
malline
mallnitz
malqar
malva
man
manchu
mange
manhattan
manual
manx
many
map
mapa
mapframe
maplandia
mapo
mappa
maps
mar
march
mare
margarita
margin
mari
maria
marie
marina
marino
maritime
mark
marked
market
marks
marlene
mars
marseillaise
mart
martagon
martin
martyrs
marx
marxism
mary
masonry
mass
massmessage
master
match
math
mathematics
mavosti
maxim
maxnumber
may
maybe
mays
mazda
mc
mcdonald
mdcclxxyi
mdf
me
meaningful
media
mediawiki
medium
meeting
meetings
melanoleucos
melk
members
memorial
memory
men
menschen
menu
menus
meon
mercedes
message
messages
messerschmitt
mesures
met
meta
metropolitan
mexicano
mexico
mezquita
mg
mhnt
mhr
mi
michael
microsoft
middle
midi
mig
might
mike
mila
military
milky
million
mimar
min
mingrelian
minh
minsk
mint
minutes
miserables
missing
mission
mit
mk
ml
mm
mn
mo
mobile
mode
model
modelo
modern
modes
modifying
modis
modul
module
mohndruck
mojgorod
mona
monasterio
monastery
monday
money
mongolian
monkey
monobook
montenegro
month
months
monto
montreal
monument
mor
more
morocco
morris
mort
mos
moscow
moskau
mosque
most
mount
mountain
mountains
move
moved
movement
moving
mow
mozart
mozilla
mp
mr
mrj
ms
mt
mu
much
muhammad
mult
multi
multilingual
multiple
munich
munst
mur
muscaria
musee
museo
museum
music
must
mustang
mv
mw
mwl
my
mycalesis
myrtillus
myv
mzmcbride
n
na
nacional
namaquensis
name
names
namespace
namibia
namibian
nan
nap
nara
narod
nasa
nat
nation
national
nations
nato
natural
nature
navbar
navbox
navigation
nayikayam
ncbi
nchen
nd
ndefaultlanguage
nds
ne
near
nebula
necessary
nederlands
neditors
need
needed
needing
needs
needsgrouping
nem
neopithecops
neorthacris
nes
nest
net
network
neuschwanstein
nevada
nevsky
new
newer
newly
news
newsletter
newspaper
newsru
newsweek
next
nez
ng
ngc
ngr
nh
ni
nich
nicholas
nick
nico
night
nigrum
nih
nihongo
nil
nimbostratus
nin
nist
niz
nj
nl
nlm
nm
nn
nnnnnn
no
nobel
nocat
node
nodyn
noeditsection
nolinks
nomenclature
nominate
non
none
noon
nor
noravank
nord
norge
normal
norsk
north
norway
not
notable
note
notification
notify
notoc
notre
nov
novalue
november
novus
now
nowrap
npage
nr
ns
nsf
nster
nu
nuestra
num
number
numberofloops
numbers
numeric
numpage
numrecord
nuremberg
nv
nvolume
nvs
nw
ny
nyc
nynorsk
o
object
obl
oblast
observatory
oc
ocampo
ocean
oceanus
ocellaris
oct
october
odd
of
off
offer
offered
office
official
oficial
often
ogg
oh
oil
ok
ol
old
older
oldug
oliv
olson
olympiastadion
om
omega
omnibox
omra
oms
on
once
one
ones
online
only
ooui
opec
opel
open
opened
opening
opera
operated
operation
operator
opinion
oporto
opportunities
opportunity
opt
option
optional
options
or
ora
order
ordo
ore
org
organize
organized
organizing
ori
orientalis
orig
original
orl
orthetrum
orto
os
osaka
osprey
other
others
otherwise
our
out
outcome
outdated
outside
over
overlay
overview
own
owner
oxford
oxysepalum
p
pa
pacific
pad
padding
pagden
page
pages
painted
pairs
palace
palacio
palais
pale
palustris
pam
pan
pano
panorama
panoramic
pantheon
panthera
paper
papilio
par
para
parameter
parameters
params
parana
paris
park
parlament
parliament
parque
part
participants
participate
participated
participating
particular
particularly
pass
past
patrono
pattern
paul
pcall
pdf
pdt
pe
peahoone
peak
pedro
peking
pelecanus
pencil
peninsula
people
per
percentage
perepis
perevoznik
performance
person
personal
peru
peter
petersburg
petit
petre
phabricator
phalacrocorax
phase
pheucticus
phi
philosophy
phoenicopterus
photo
photography
photos
php
phrase
pi
piazza
piece
pieris
ping
pinging
pink
pittsburgh
pl
place
placedata
placedatanumrecord
placeeee
placehash
placename
places
plain
plan
planned
planning
plans
plantilla
plantilya
plate
player
plaza
please
plexippus
pluribus
pm
pmid
pn
png
pnz
po
poids
point
pol
poland
polar
police
policy
polish
political
politics
polixenes
polizei
polonia
polska
polski
polyommatus
polytes
pont
ponte
pontic
pop
popular
populatesourcedataimpl
population
por
porta
portal
porte
porto
portrait
portugal
portugue
portuguese
positiekaart
position
positionskarte
positive
possible
post
posted
poster
posting
postradali
power
pozicionit
poznan
pp
ppelberg
pr
pra
prague
pre
predefinic
predloga
predloz
preference
preferences
preferids
preferred
prefix
prefsection
preload
presentation
presentations
president
press
presumably
previously
pri
prince
princeton
principal
priorities
prismas
prizes
pro
probably
problem
problems
process
produce
product
production
productivity
program
progress
project
projects
propaganda
properties
property
propertyid
proportion
proposal
proposals
proposed
protest
provide
provided
providing
ps
psk
pt
public
publication
publications
publish
published
publisher
publishing
pubmed
pudelek
puente
puerto
purbo
purpose
put
puzzle
px
py
pygmaea
pyrenaica
python
pywikipedia
q
qarac
qing
qnnn
qtl
qu
qualifier
qualifierpropertyid
qualifiers
quarter
quarzwerke
que
queen
question
questions
qui
quick
quo
quotation
quotations
quote
qırımtatar
r
ra
rabas
radio
radom
railway
raised
ralfr
rally
rammstein
ran
range
rank
ranking
rankings
rather
rault
ray
rayfield
rays
razı
rb
rd
re
reach
read
readers
reading
ready
real
really
received
receiving
recent
recently
recognize
recommended
record
records
rect
red
redesigned
redirect
redirected
redirection
reduce
reduced
ref
reference
references
refreshed
reg
regardless
regards
regelung
region
regiondata
regions
registered
regnbogen
reich
reichsgesetzblatt
reichstag
reign
reine
related
relations
relatively
release
released
releases
relevant
reliable
remaining
remains
remember
remove
removed
rendered
renderreferenceimpl
rendersource
renessaince
reo
replaced
reply
report
reports
republic
republikein
request
requested
requests
require
required
requiredrank
requirements
res
research
reserves
resolution
resources
rest
restored
result
resultlist
resultproperty
results
reticulata
retouched
retrieved
return
returns
reverting
review
reviews
revolution
rfc
rhb
rho
ri
ria
rica
rich
richard
rico
right
rights
riksma
rio
riot
risk
river
rk
rkc
rkiye
rm
rmf
ro
roa
road
robert
robot
rock
rocks
rody
roi
rolling
roma
rome
romeo
ronney
room
roppe
roquebrun
ros
rose
rosino
rosstat
rostov
routledge
rover
row
rows
royal
rr
rs
ru
rubecula
rue
ruhr
ruhrkampf
ruins
rule
rules
rumani
run
runa
running
rus
russia
russian
russland
rv
rve
rw
rya
rzeczpospolita
s
sa
sablon
sacrament
safari
sah
saint
sak
sakha
sala
salisbury
salt
salvation
sam
samafomot
same
samuel
san
sand
sandbox
sankt
sans
sant
santa
santiago
santo
sar
sarah
satellite
saturday
sauer
saules
save
saw
say
says
sc
scale
scene
schloss
scholarships
school
schuster
science
sciences
scn
sco
screen
screens
screenshot
script
sculpture
sd
se
sea
seal
seamless
search
searchbuttonlabel
sebastian
sec
seclorum
second
section
sections
sector
security
see
seen
seite
select
selectclaims
selected
selecting
selection
self
selo
selva
sen
separate
separated
separator
sept
september
serbo
series
service
services
session
set
setting
settings
sev
seven
several
sewing
sf
sg
sh
shablono
shakespeare
shanghai
shaped
share
shared
sheet
sherlock
shift
shl
short
shortcut
shortcuts
shorter
should
show
showcase
showed
showing
shown
shows
shr
shuttle
si
sicilya
side
siege
sierra
sig
sign
significant
significantly
silent
silver
silvestris
simi
similar
simon
simple
simpler
sin
sinan
since
sinensis
single
sinners
siprage
sister
site
sitelink
situo
six
size
sizes
sjabloon
sk
skabelon
ski
skin
sky
skyline
sl
sla
slapped
slightly
slovari
slovenia
sm
small
smartphone
smartphones
smg
smo
sms
sn
snak
snakpropertyid
snaks
snaktype
snið
snow
so
social
society
socket
sofia
soft
software
solar
soleil
solid
solo
some
someone
something
sometimes
somevalue
son
sonnenaufgang
sons
soon
sorbus
soro
sorry
soul
sound
source
sourcedata
sourceid
sources
south
southern
soviet
sp
space
spain
spanish
sparseconcat
spb
speak
special
specified
speed
spiral
spirit
spisok
spra
sprache
spread
spring
sq
square
sr
src
sreebot
ss
sse
ssp
st
sta
stable
stadium
staff
stage
stamineum
stamp
stampa
stand
standard
standarte
stanford
star
start
started
starting
state
statement
states
station
statistical
statistics
statue
status
stave
stavstat
stay
ste
stefan
steinway
stenophyllum
step
stewards
stg
stica
stift
stiftskirche
still
stock
stone
stored
stories
story
stq
str
strange
strategic
stratocumulus
stratus
strauss
street
strike
string
struc
structure
sts
studied
studies
study
stunde
style
styling
su
sub
submission
submissions
submit
subscribe
subscription
subway
succeed
successful
such
suggested
suicide
sukhoi
sukhum
sul
sum
summary
sun
sunflower
sung
sunrise
sunset
suomi
super
superjet
superstar
support
supported
supporting
sur
sure
survey
survival
suðurland
sv
svaneti
sve
svenska
svg
svk
sw
sweden
swedish
switch
switching
sydney
symbol
symbols
syntax
system
systems
sythen
szablon
szl
t
ta
tab
table
tableau
tables
tabletostr
tablets
tablevalue
tabs
tag
tags
tahukah
tailandia
tailed
taiping
take
takes
taking
talk
tallin
tam
tamil
tanzania
tap
taras
target
tarn
tas
task
taskforce
tasks
tat
tatar
tau
taxobox
taylor
td
te
teach
team
teatr
tech
technical
tehera
tek
tel
tele
telecommunications
telephon
telephone
telescope
tell
templat
template
templatedata
templates
templatestyles
temple
templo
temprow
tenerife
term
terms
terror
tersloch
teruel
test
tested
testing
text
tf
tg
tgv
th
thai
thames
than
thank
thanks
that
thattu
the
thea
theater
theatre
their
thekkady
them
theme
then
there
these
they
thijs
things
think
thinking
third
this
tho
thomas
thompson
those
though
thought
thoughts
thread
three
through
throwerror
thumb
thumbnail
ti
ticket
tie
tierpark
tiger
tigrinya
tigris
till
time
timeline
times
title
tk
tl
tld
tlh
tmp
tn
tnavbar
to
toboolean
toc
tocright
today
todo
together
toggle
tokipona
tom
tomb
tonumber
tool
toolbar
tools
tooltip
toompea
top
topic
topographic
toppdoma
toronto
torre
tostring
total
tour
tower
town
tr
trade
tradition
train
tram
transition
translatable
translate
translated
translatewiki
translathon
translating
translation
translations
translator
translators
travel
tre
treaty
tree
trg
triage
trial
triangle
tricolori
trim
triple
trithemis
tron
true
trust
try
trying
ts
tsarskoe
tsp
tt
tte
ttweig
tu
tuesdays
tul
turkey
turkish
turn
tuv
tv
tve
tw
twentieth
twilight
twitter
two
txantiloi
txikibot
ty
type
types
typing
tyu
u
ua
udi
udm
ufige
ug
uid
uk
ukraine
uly
um
un
unable
unasur
und
under
undernasjonale
understand
understanding
undulata
une
unicode
unidos
union
united
univ
universita
universities
university
unknown
unsubscribe
until
unu
unum
up
upcoming
update
updated
updates
upl
upload
uploading
uploads
upon
upper
upright
uprising
ur
urdu
url
us
usa
usd
use
used
useful
user
username
users
uses
using
uss
ustring
usually
utc
uz
v
va
vaccinium
vahe
val
valencia
valenciana
valign
valley
vals
valuable
value
valuetofind
valuetoparse
van
var
varepsilon
various
vcard
vdqs
ve
vec
vector
vega
veidne
venezuela
venice
vent
vera
veratrum
verlag
verordnung
versailles
version
versions
vertical
very
vespa
vestfirðir
veto
vgg
vi
via
viatour
vicipe
victoria
video
videos
vie
viejo
vienna
vietaskarte
vietnam
view
vii
viii
vikipede
vikipedi
vikipedija
vikipediya
vikipeedia
villa
ville
vincent
vinci
viquipe
virginia
viride
viru
visible
visste
vista
vistas
visual
visualeditor
visualeditordid
visually
vla
vlg
vls
vo
voice
vol
volcanes
volkovbot
volume
volunteer
volunteers
vom
von
vor
vorla
vorlage
vote
voting
vpn
vro
vs
vu
vulgaris
vw
w
wa
walk
walker
wall
walther
want
wants
war
warrakkk
wars
warsaw
warszawa
was
washing
washington
wat
watch
watching
watchlist
water
way
ways
wb
wcm
wdprops
we
web
webkit
website
wednesday
week
weekly
weeks
weight
welcome
well
welt
weltkrieg
went
were
werkzeughalle
west
westdeutsche
western
what
whatamidoing
when
whenever
where
whether
which
whichever
while
white
who
whom
why
wicipedia
wide
wider
width
wien
wiki
wikibase
wikibooks
wikidata
wikigap
wikimania
wikimedia
wikipe
wikipedia
wikipedialang
wikipedians
wikipedias
wikipediasister
wikipedie
wikipedija
wikipedy
wikis
wikispecies
wikitext
wikiversity
wikivoyage
wikivoyages
wild
will
william
willing
windows
winners
winter
wish
wishlist
with
within
without
wmde
wmf
wmru
wo
woman
women
word
words
work
workboard
worked
workflow
working
worklist
works
world
worldwide
would
wp
wps
wright
write
writing
written
wrong
ws
wuu
wvdial
ww
www
x
xal
xi
xico
xii
xiii
xiv
xix
xls
xmf
xn
xv
xvi
xvii
xviii
xx
xxi
xxii
xxviii
y
ya
yandex
yar
ye
year
years
yellow
yes
yevromaydan
yi
yo
york
yosemite
you
young
your
yourself
youtube
yu
yue
yurik
z
za
zab
zalmora
zam
zaman
zamek
zaragoza
ze
zea
zeppelin
zero
zh
zhuang
zhurnalistov
zip
zivile
zm
zoo
zu
zur
{
|
}
~
¥
©
«
­
®
°
±
²
³
µ
¶
·
»
¼
¿
×
ß
æ
ð
÷
ø
þ
đ
ı
ın
ł
łukasz
œ
ſ
ǝ
ʾ
ʿ
ˈ
ˌ
ː
̀
́
̂
̃
̄
̆
̇
̈
̉
̊
̋
̌
̍
̓
̔
̛
̣
̥
̦
̧
̨
̱
͂
α
β
γ
δ
ε
ες
ζ
η
θ
ι
κ
κατηγορι
λ
λη
μ
με
ν
ξ
ο
π
παιδει
προ
ρ
ς
σ
τ
τυπο
υ
φ
χ
ψ
ω
а
аар
аахны
аб
абаза
абазалыла
абазалыланы
абазашта
абаи
аббас
аббасидле
аббатлыкъны
аббревиатура
абдаллах
абджад
абдулькадыр
абдулькъадыр
абдуррахман
абдуссалам
абеба
абель
аберден
абзац
абзацла
або
абогъа
абонентге
абонентни
аборигенлени
абрахам
абрек
абсолют
абу
абхаз
абхазия
абхазскии
абш
абштанд
абыраи
абыраҟдырга
абычар
абычарла
абычарладан
абычарланы
абычарларыны
абычары
авангард
авангардны
авар
авария
аварлыла
август
августа
августда
августну
августу
августунда
августундан
августуну
августха
авгутда
авеню
аверс
авиабаза
авиакомпанияны
авианосец
авианосецни
авиацион
авиация
авиациягъа
авиацияны
авиашоуда
авив
авивден
авиньонда
авияция
авраам
аврелии
аврил
аврора
австралии
австралия
австралиягъа
австралияда
австралиядан
австралияны
австралиячы
австрии
австрия
австриягъа
австрияда
австрияны
австриячы
австриячыланы
австронез
австронезия
автобус
автобусла
автобусланы
автомат
автоматически
автомобилле
автомобиль
автоном
автономия
автономияда
автономияны
автономиясын
автономно
автономныи
автопортрети
автор
автора
авторгъа
авторитар
авторла
авторланы
авторлары
авторлукъ
авторну
авторов
автору
авторуду
автоулоуну
ага
агар
агван
агглютинация
агеи
агенствону
агентлери
агентство
агитация
агломерация
агломерацияла
агломерацияны
аграр
агрессив
агрессия
агрессиягъа
агрессиялы
агульяс
агъа
агъады
агъадыла
агъач
агъачдан
агъачлы
агъачны
агъачы
агъачын
агъачына
агъыб
агъым
агъымгъа
агъымды
агъымла
агъымлагъа
агъымланы
агъымлары
агъымларын
агъымларыны
агъымны
агъымы
агъымына
агъымында
агъымыны
ад
адабият
адабиятда
адабиятдан
адабиятды
адабиятны
адабиятха
адабиятчы
адабияты
адаи
адалманы
адам
адамга
адамгъа
адамдан
адамдардын
адамды
адамла
адамлагъа
адамлада
адамладан
адамладыла
адамланы
адамлары
адамларын
адамларыны
адамны
адамы
адвокат
адвокаттар
адвокаттардын
адвокаттын
адди
аддис
адеб
аден
адет
адетге
адетде
адетле
адетлеге
адетледе
адетлени
адетни
аджалны
адил
адиллик
адилликни
адиль
административ
административнои
администратор
администратори
администраторла
администраторланы
администрации
администрация
администрацияны
администрациясы
администрациясын
администрациясына
администрациясыны
адмирал
адмиралы
адольф
адрес
адреса
адресде
адреси
адреснои
адресную
адресов
адрианополь
адриатика
адуагъа
адуаны
адыг
адыге
адыгеи
адыгея
адыгеяны
адыгэ
ажымлы
ажымсыз
аз
азаб
азаи
азамат
азарова
азаровну
азарт
азат
азатлагъандан
азатлагъанды
азатлагъандыла
азатлаи
азатланнганды
азатланыу
азатланыуну
азатланыуу
азатлау
азатлыгъы
азатлыгъын
азатлыкъ
азатлыкъгъа
азатлыкъларын
азатлыкъны
азау
азая
азаяды
азаядыла
азбар
аздан
азды
азербаи
азии
азимутальная
азия
азиягъа
азияда
азиядагъы
азиядан
азиялы
азияны
азиячыла
азлыгъы
азлыкъ
азлыкъланы
азовского
азовское
азот
азрет
азчылыкъ
азчылыкъдыла
азчылыкъланы
азы
азыкъ
азыкъда
азыкъла
азыкъланы
азыкъны
азыракъ
аи
аидс
аиро
ак
академии
академик
академия
академияда
академиялы
академиялыкъ
академияны
академиясы
акбаев
акбар
акваторияларында
акваториясына
акихито
аккад
аккра
аккумуляция
акрет
акробатика
акротири
аксель
акт
актды
акте
актер
актив
активистле
активистлени
активлери
активлиги
активістів
актла
актланы
актлы
актны
актриса
актха
акты
актына
акула
акционер
акция
акциягъа
акцияла
акциялагъа
акцияланы
акциялары
акцияларына
акцияларыны
акцияны
акцію
акція
акш
акъ
акъбаи
акъгъан
акъдыла
акъл
акъла
акълагъа
акъланы
акъмежгит
акъсюек
акъсюеклени
акътамакъ
акъыл
акъылгъа
акъылда
акъылларына
акъыллы
акъылман
акъылманла
акъылманлары
акъылны
акъылы
акъылыма
акъыртын
акъыртыныракъ
акъырын
ал
ала
алабама
алагир
алагъа
алада
аладан
алады
аладыла
алаи
алакнанда
алалмагъандыла
алалмаи
алам
аламат
аламда
аламеи
аламнар
аламны
алан
аланд
алания
аланла
аланлагъа
аланланы
аланлы
аланны
аланы
аланыда
аланья
алардын
аласы
аласында
алат
алача
алаша
алашады
алашалыкъ
алашалыкъгъа
алашалыкъда
алашалыкъдан
алашалыкъла
алашалыкъны
албан
албания
албаниягъа
албанияны
албанлыла
албу
алгоритм
алгъа
алгъада
алгъадан
алгъан
алгъандан
алгъанды
алгъандыла
алгъанла
алгъанлары
алгъаны
алгъанындан
алгъаракъ
алгъаракъда
алгъы
алгъын
алгъынгы
алгъында
алгъыннгы
алгъынча
алгъынчы
алгъышлаи
алда
алдан
алданмазгъа
алдауукъ
алды
алдырыу
але
алеи
алекс
александр
александра
александргъа
александрия
александрны
александрович
алексеи
ален
алеут
алжир
алжира
алжирге
алжирде
алжирни
али
алии
алим
алимле
алимледен
алимлени
алимни
алиф
алкмар
алкоголгъа
алкоголь
алкогольсуз
алкъын
аллаи
алларына
алларында
аллах
аллахдан
аллахны
аллахха
аллахы
алленштаи
аллеясы
аллы
аллыб
аллын
аллына
аллында
аллындагъы
аллындан
аллынданда
аллювии
алма
алмагъанлаи
алмазгъа
алмаи
алмала
алмаладан
алманы
алмашады
алмашадыла
алмашдырылгъанды
алмашдырыу
алмере
алны
алса
алсанг
алтаи
алтмыш
алты
алтын
алтыннга
алтынны
алтынчы
алфавит
алфавитге
алфавитде
алфавитден
алфавити
алфавитле
алфавитлеге
алфавитледе
алфавитлени
алфавитлери
алфавитни
алфавитов
алчы
алчылары
алчыларыны
алчылыгъы
алчылыкъ
алчысы
алыб
алыгъыз
алынады
алынадыла
алынган
алынмагъандыла
алыннган
алыннгандан
алыннганды
алыннгандыла
алыннганла
алыннганы
алынса
алыныб
алыныргъа
алыныуу
алыр
алыргъа
алырын
алыу
алыугъа
алыуда
алыулары
алыуну
алыуу
аль
альбаррасин
альберт
альберта
альбертни
альберто
альбинос
альбом
альбому
альбомун
альбрехт
альгамбра
альмагро
альманах
альманахлары
альп
альпала
альпии
альпинизмни
альпинист
альпинистле
альпла
альплада
альпланы
альтернатива
альтернативная
альтернативному
альтернативныи
альтинг
альфа
альфонсо
альфред
альцгеи
альянс
аляви
алявии
аляска
аляскада
алясканы
амадеи
амазон
амазония
амазонка
амазонканы
амал
амалда
амалла
амалланы
амаллары
амалларын
амалларына
амалларыны
амалны
амалы
амалын
аман
аманат
аманлыгъы
аманлыгъына
аманлыкъ
аманлыкъгъа
аманлыкъла
аманлыкъланы
аманлыкъны
аманнга
амеде
америка
америкагъа
америкада
америкадагъы
америкадан
америкаланы
америкалык
американ
американлы
американлыла
американлылагъа
американлыланы
американы
америке
амеркан
амерсфорт
ами
амин
амк
амма
аммиак
амнистия
амортизатор
амортизация
ампер
амстел
амстердам
амстердамгъа
амстердамда
амстердамны
амундсен
амундсенни
амур
амфибияла
амхар
амьен
амьенде
ан
ана
анадан
аналары
анализ
аналогичен
аналогия
аналыкъны
анам
анархизм
анархизма
анархизмни
анархист
анархистле
анархистлени
анархия
анархо
анасы
анасына
анасыны
анатолии
анатолия
анатомия
анатомиясы
анга
ангела
ангилья
ангкор
англ
англии
англикан
англичан
англовики
ангола
анголада
ангы
ангылаб
ангылагъанды
ангылагъандыла
ангылаи
ангылам
ангыламагъан
ангыламаи
ангыламгъа
ангыламда
ангыламла
ангыламланы
ангыламны
ангыламы
ангыланады
ангыланмагъан
ангыланнганды
ангыларгъа
ангыларыны
ангылатады
ангылатхан
ангылатханды
ангылатылады
ангылатыргъа
ангылатыу
ангылатыула
ангылатыуну
ангылатыуу
ангылау
ангылаугъа
ангылауда
ангылауну
ангылашмазлыкъла
ангылашыннганды
ангыны
анд
анда
андагъы
андалусия
андаман
андан
анданда
андерсон
анджелес
анджелесде
анджелесни
андла
андланы
андорра
андре
андреи
андхра
анжуи
анимация
анимациялы
анкара
анкарада
анна
аннам
аннга
аннексия
анны
аноним
анри
ансамблны
ансар
ансы
ансын
ант
антакртидада
антанас
антанта
антантагъа
антантаны
антарктида
антарктидагъа
антарктидада
антарктиданы
антарктиды
антарктика
антарктикалыкъ
антверпенни
анте
анти
антибиотикле
антигуа
антик
антика
антиклик
антикоминтерн
антиль
антифашист
антициклон
антлантика
антланы
антны
антология
антологиясы
антон
антонии
антонио
антонович
антропогеография
антропология
антуан
аншлюс
аншлюсну
аны
аныда
аныктоо
анын
ао
апартеид
апартеидге
апартеидни
апелляция
апельсин
апеннин
апиян
апиянны
аполлон
аполлонну
аппа
аппаланы
аппаны
аппарат
аппаратла
аппаратланы
аппаратны
аппаратха
аппараты
аппеляция
апрелге
апрелде
апрелден
апрели
апрелинде
апрелинден
апрелине
апрелини
апрелни
апрель
апрельде
апреля
апсуа
ар
ара
араб
араби
арабика
арабица
арабия
арабияны
араблыла
араблылагъа
араблыланы
арабскии
арабского
арабча
арагонскии
арагъатермилген
арада
аракет
аракеттер
аралары
араларын
араларында
арален
аралы
аралыгъы
аралыгъыды
аралыгъын
аралыгъына
аралыгъында
аралыгъындан
аралыгъыны
аралыкъ
аралыкъгъа
аралыкъда
аралыкъды
аралыкъла
аралыкълагъа
аралыкълада
аралыкъладан
аралыкъланы
аралыкълары
аралыкълы
аралыкъны
аралыкъчы
аралырнда
арамеи
арарат
арасы
арасын
арасына
арасынд
арасында
арасындагъы
арасындады
арасындан
арауканла
арафат
арафур
арачы
арба
арбаз
арбазгъа
арбазны
арбазы
арбазына
арбазында
арбитр
аргентин
аргентина
аргентинада
аргентинаны
аргентинлиле
аргентинлилени
аргументы
арден
арденнледе
ареал
арена
арестге
аризона
аризонанын
арии
аристотель
ариу
ариулагъандыла
ариулаи
ариуланады
ариуланнганды
ариуларгъа
ариулау
ариулаучу
ариулугъу
ариулукъ
арифметика
ариэль
арк
арка
арканзас
аркны
арктиакада
арктика
арктикалыкъ
арктиканы
аркъа
аркъадан
аркъала
аркъаланы
аркъаны
арлингтон
арманьякла
армения
армии
армия
армстронг
ароматлы
ароматы
арпа
арсеньев
арт
артда
артдан
артиллерия
артиллерияны
артиллериясы
артиллериячы
артист
артисти
артур
артха
арты
артыгъы
артыкъ
артыкълы
артыкълыкъ
артыкъны
артыкъсыз
артыкъсызда
артына
артында
арун
арх
архаик
архангельск
археи
археология
археологиялыкъ
архив
архивирования
архиепископ
архимед
архипелаг
архипелагда
архипелагла
архипелаглары
архипелагны
архипелагы
архитектор
архитекторгъа
архитекторла
архитекторланы
архитекторну
архитектору
архитектура
архитектурагъа
архитектурада
архитектураны
архитектурасы
архитектурасыны
архыз
ары
арысын
ас
асаити
асан
асеан
аскер
аскерге
аскерде
аскерден
аскери
аскерин
аскеринде
аскерини
аскерле
аскерлеге
аскерледа
аскерледен
аскерлени
аскерлери
аскерлерин
аскерлеринде
аскерлеринден
аскерлерине
аскерлерини
аскерни
аскерчи
аскерчиле
аскерчилеге
аскерчилени
аскерчилери
аскерчини
аскерчиси
аскерчисин
аслам
асламды
асламдыла
асламлыкъ
асламы
асламысы
асламысыеы
асламысын
асламысына
асламысында
асламысыны
аслан
асланла
асмакъ
асмакъгъа
асмакъны
асоціаціі
аспект
аспирант
ассам
ассамблеи
ассамблея
ассамблеяны
ассамблеясы
ассамблеясында
ассамблеясыны
ассирии
ассириялыла
ассоциация
ассоциациясы
ассоциациясына
ассоцияция
ассоцияцияны
асср
аст
астанада
астероид
астероидле
астероидлеге
астероидлени
астероидни
астория
астрахань
астрель
астрология
астронавт
астронавтла
астроном
астрономия
астрономияны
астрофизика
астурии
асуан
асыб
асылгъан
асылгъанды
асыры
асыу
ат
ата
атаб
атагъан
атагъанды
атагъандыла
атада
атады
атадыла
атаи
атака
атакагъа
атакама
атаканы
аталгъан
аталгъанды
аталыб
аталыу
атам
атаны
атаргъа
атарыкъ
атасы
атасына
атасыны
ататюрк
ататюркню
ататюркчюлюк
атдан
атды
атеистле
атк
атла
атлаб
атлагъа
атлаи
атлам
атламгъа
атламда
атламдан
атламла
атланнганды
атлантик
атлантика
атлантикагъа
атлантикада
атлантикадан
атлантиканы
атлантис
атланы
атлары
атларын
атларына
атларында
атларыны
атларыча
атлас
атлаууч
атлетикадан
атлы
атлыла
атмосфера
атмосферагъа
атмосферада
атмосфераны
атмосферасында
атны
атолл
атоллада
атоллда
атом
атомла
атрибутом
атрибуту
атс
аттар
аттика
атха
атхан
атханды
атхандыла
аты
атыб
атыбла
атыда
атыды
атылады
атылгъан
атылгъанды
атылтылгъанды
атылтыу
атылыб
атылыу
атылыула
атылыуну
атылыуу
атылыучу
атын
атына
атында
атындан
атыны
атыу
атыугъа
атыуда
атыудан
атыуну
атыш
атышыу
ау
ауаз
ауазгъа
ауазла
ауазланы
ауазларыны
ауазны
ауазы
ауазын
ауангысы
аугсбург
аугусто
аугъанды
аудурургъа
ауетли
ауетлик
аула
аулада
ауну
ауругъан
ауруи
ауруу
ауруула
аурууланы
аурууу
аусбау
аууз
аууздан
ауузу
ауузуна
ауузунда
ауур
ауурду
ауурлугъу
ауурлугъун
ауурлугъуну
ауурлукъ
ауурлукъгъа
ауурлукъланы
ауурлукъну
аууш
ауушады
ауушдурады
ауушдургъан
ауушдургъандыла
ауушдурулады
ауушдурулгъанды
ауушдурургъа
ауушдуруу
ауушдурууну
ауушдурууу
ауушну
ауушунады
ауушунуулары
ауушуу
ауушханды
аушигер
афган
афганистан
афганистанда
афганистаннга
афганистанны
афенди
аферим
афин
афина
афинаны
афинле
афинледе
афинлени
афиша
афишасы
афон
африка
африкаанс
африкаансда
африкаансны
африкагъа
африкада
африкадагъа
африкадагъы
африкадады
африкадан
африкан
африканерлени
африканизация
африканлыла
африканлылагъа
африканлыланы
африканы
африкачы
афро
аффиксле
афшары
ахия
ахияны
ахк
ахль
ахмад
ахмадабад
ахмадия
ахмат
ахмед
ахменидлени
ахмет
ахыр
ахырат
ахыргъы
ахыры
ахырын
ахырына
ахырында
ахырындан
ацтекле
ацтеклени
ача
ачады
ачадыла
ачаргъа
ачдан
ачлыкъ
ачлыкъда
ачлыкъдан
ачлыкъны
ачха
ачхагъа
ачхады
ачхала
ачхалада
ачхаланы
ачхан
ачханды
ачхандыла
ачханы
ачхасы
ачхасына
ачхыч
ачы
ачыб
ачыкъ
ачыкъбогъаз
ачыкъдан
ачыкъла
ачыкълагъан
ачыкълагъанды
ачыкълагъандыпротестующие
ачыкъладан
ачыкълаи
ачыкъланнган
ачыкъланнганды
ачыкъланы
ачыкъларгъа
ачыкълау
ачыкълауу
ачыкълаууна
ачыла
ачылады
ачыладыла
ачылгъан
ачылгъанды
ачылгъандыла
ачылмагъан
ачылмаи
ачылыу
ачылыуланы
ачылыуу
ачысы
ачытхы
ачыу
ачыуланы
ачыуланыб
ачыуну
ачыучу
аш
ашаб
ашаблон
ашагъан
ашаи
ашам
ашамау
ашаргъа
ашарыкъ
ашарыкъда
ашарыкъны
ашау
ашауу
ашкеназла
ашуи
ашхабад
ашхам
ашхамда
ашхы
ашхылыкъны
ашхын
ашыгъыш
ашыкъмаи
ашырадыла
ашыргъанды
ашыргъандыла
ашыргъанма
ашырыб
ашырылгъанды
ашырыргъа
аъыртын
аэродромланы
аэропорт
аэропортну
аэропорту
аэропортуду
аэростатла
аэростаты
аягъы
аягъын
аягъына
аягъында
аягъындан
аягъыны
аязы
аякъ
аякъланыу
аякъланыуну
аякълары
аякъларында
аяусуз
аҥа
б
ба
баб
бабалары
бабаны
бабас
бабушну
бавар
бавария
баварияда
баварияны
багатар
багдад
багдади
багдадны
багиратхи
багратион
багратионну
багуш
багъа
багъадыла
багъала
багъаланы
багъалары
багъаларын
багъаларыны
багъалы
багъалыгъы
багъалыды
багъалыкъланы
багъаны
багъасы
багъасын
багъасыны
багъыр
багъыу
багытталган
бад
бадахос
баден
баджарады
баджарадыла
баджараыу
баджаргъан
баджарылады
баджарылгъан
баджарылгъанды
баджарыр
баджарыргъа
баджарыу
баджарыугъа
баджарыуда
баджарыуну
баджарыучу
база
базагъа
базала
базаланы
базальт
базаны
базар
базарда
базасы
базасын
базилика
базиликасы
базман
базовому
баи
бак
баккара
бактерияла
баку
бакуда
бакуфу
бал
бала
балаларын
балансы
баласы
балеар
балет
балетини
балетни
бали
балии
балкан
балканла
балканлагъа
балканлада
балканланы
балканская
балкария
балкарские
балкарскии
балкарского
балкарскои
балкарском
балладала
баллады
баллдан
баллистика
балта
балтада
балтии
балтика
балтиморгъа
балыкъ
бальбоа
бальфурну
бамбара
бамум
бангкок
бангладеш
бангладешде
банк
банка
банкла
банкланы
банкнота
банкнотадагъы
банкнотала
банкноталада
банкноталаны
банкнотаны
банкны
банкова
банкы
банкына
банкыны
баннер
баннерная
баннернои
банту
бантуланы
бантустан
бантустанда
бантустанлагъа
бантустанлада
бантустанланы
банф
банчек
бар
бара
барады
барадыла
бараи
барак
баралмаи
барас
баратьери
барбадос
барбаросса
барбуда
баргъа
баргъан
баргъанды
баргъандыла
баргъанлары
баргъаны
баргъанын
баргъанына
баргъанында
бард
барда
бардхаман
барды
бардыла
бардырады
бардырадыла
бардыргъа
бардыргъадыла
бардыргъан
бардыргъанды
бардыргъандыла
бардыргъанлагъа
бардыры
бардырыгъа
бардырылады
бардырыладыла
бардырылгъан
бардырылгъанды
бардырылгъандыла
бардырыллыгъын
бардырылыргъа
бардырыр
бардырыргъа
бардырыу
бардырыуну
бардырыуу
бардырыуун
бардырыууну
баренц
баренцни
барклаи
барлыкъ
барлыкъды
бармагъаны
бармаи
бармакъ
бармыды
барнаул
барокко
баррикада
баррикадала
баррикадаланы
баррьентос
барс
барса
барселона
барселонадан
бартель
бары
барыб
барыгъыз
барыда
барына
барыргъа
барырча
барысы
барысыда
барысын
барысынада
барысында
барыуу
барыуунда
барьер
бас
басады
басаргъа
басаса
басдырылгъанды
баскетбол
баскланы
баскскии
басма
басмагъа
басмада
басмадан
басмалагъанды
басмалаи
басмаланады
басмаланадыла
басмаланнган
басмаланнганды
басмаланнгандыла
басмаланнганы
басмаланыб
басмаланып
басмаланыууна
басмаларгъа
басмалау
басмалауду
басмалауну
басманы
басмасы
басмасында
басри
басса
бассеи
бассны
басхан
басханды
басханны
басыб
басыгъыз
басылгъан
басым
басымда
басымны
басымы
басымына
басымыны
басын
басыннган
басыннганы
басыу
бат
бата
батав
батады
баталпашинск
баталпашинская
батальон
батальону
батдырады
батдыргъанды
батдырылады
батдырылгъан
батдырылгъанды
батерст
батист
батмаз
баттута
батхан
батханды
батча
батчаева
батчаланы
батыи
батыр
батырлыкъ
батыуу
баунки
бауур
баффинни
бахреи
бахчасараи
бахчисараи
бачама
бачамасы
бачха
бачхада
бачханы
баш
башалаи
башда
башды
башка
башкортостан
башкъурт
башкъуртлула
башкъуртлыла
башла
башлаб
башлагъан
башлагъанды
башлагъандыла
башлагъаны
башлагъанында
башлаи
башламчылыгъы
башланады
башланадыла
башланнгады
башланнган
башланнганды
башланнгандыла
башланнганлаи
башланнганы
башланнганын
башланнганындан
башланнгыч
башланса
башланыб
башланыргъа
башланырына
башланыуу
башланыуун
башланыууна
башланыууну
башлап
башлар
башларгъа
башлары
башларын
башларына
башларында
башлатады
башлатханды
башлауу
башлы
башлыгъы
башлыгъын
башлыкъ
башлыкъны
башны
башоюмлары
башха
башхагъа
башхадан
башхады
башхала
башхалагъа
башхалада
башхаладан
башхаладыла
башхаланы
башхалары
башхалыгъы
башхалыгъыда
башхалыкъ
башхалыкъгъа
башхалыкъланы
башхалыкълары
башханы
башхасы
башхача
башчы
башчыгъа
башчыды
башчыла
башчыланы
башчылары
башчыларына
башчыларыны
башчылыгъанда
башчылыгъы
башчылыгъын
башчылыгъына
башчылыгъында
башчылыкъ
башчылыкъгъа
башчылыкъда
башчылыкълары
башчылыкъны
башчыны
башчысны
башчысы
башчысыды
башчысын
башчысына
башчысыны
башы
башын
башына
башында
башындагъы
башындан
башыны
баэ
баям
баямлаб
баямлагъан
баямлагъандан
баямлагъанды
баямлагъандыла
баямлагъаны
баямлаи
баямланады
баямланадыла
баямланмагъан
баямланнган
баямланнгандан
баямланнганды
баямланнгандыла
баямланнганында
баямлау
бге
бден
бджыллыкъ
бдю
бдюле
бе
бегендге
бегиген
бегигенди
бегигендиле
бегии
бегим
бегимге
бегими
бегимин
бегимине
бегимле
бегимлери
бегимни
бегиракъ
бегирек
бегитген
бегитгенди
бегитгендиле
бегитеди
бегитедиле
бегитиб
бегитилген
бегитилгенди
бегитилгендиле
бегитиледи
бегитир
бегитирге
бегитиу
бегитиуге
бегитиуде
бегитиудю
бегиую
беж
беженцев
без
безгек
безенги
безик
безопасности
безрамки
безстроковии
беи
бек
бел
бела
беларусь
белая
белгелеген
белги
белгиге
белгиди
белгии
белгиле
белгилеб
белгилеге
белгилеген
белгилегенди
белгилегендиле
белгилеи
белгилемеи
белгиленеди
белгиленедиле
белгилени
белгилениб
белгиленибдиле
белгилениую
белгиленмегенди
белгиленмесе
белгиленнген
белгиленнгенди
белгиленнгендиле
белгилер
белгилерге
белгилери
белгилерине
белгилерини
белгилеу
белгилеуде
белгилеую
белгили
белгилиди
белгилидиле
белгиликни
белгилилери
белгилиси
белгилүү
белгини
белгиси
белгисиди
белгисиз
белгисин
белгород
белград
белградда
белградны
белек
белекле
белекни
бели
белигилиди
белиз
белинде
белини
белл
беллинсгаузенни
беллни
беловеж
белокреницкии
белорус
белоруссия
белоруссияда
белоруссияны
белорусскии
белорусь
белосток
белоусов
белфаст
бельгии
бельгия
бельгиягъа
бельгияда
бельгияны
бельфор
белюмлеге
белюмю
бен
бенг
бенгал
бенгалия
бенгалияны
бенгальскии
бенде
бенджамин
бензилпенициллин
бензин
бензинни
бенин
бенито
беннигсен
беннигсенни
бентам
бер
бербер
берг
берген
бергенди
бергендиле
бергени
бергенме
бергман
бердиртеди
бере
берег
береди
бередиле
березовскии
береллик
берет
берже
бери
бериб
берилгеди
берилген
берилгенден
берилгенди
берилгендиле
берилгенча
бериледи
бериледиле
берилиб
берилиуню
берилмегенди
берилмеи
берилсе
беринг
берингни
берир
берирге
берирча
бериу
бериуде
бериудю
бериуню
бериучю
бериую
бериуюню
беркли
берклиде
беркут
беркута
беркутну
беркутчула
берлик
берлин
берлина
берлинде
берлиндеги
берлинден
берлиннге
берлинни
бермегенди
бермеи
бермуд
берн
бернадотха
бернар
бернард
бернеге
бернерс
бернина
бернсаи
берсе
берселе
бертран
берүү
бесленеи
бессарабия
бессарабияны
бет
бета
бетге
бетде
бетдеги
бетджан
бетджанла
бетджанланы
бетджанларын
бете
бети
бетигизде
бетин
бетинги
бетинде
бетине
бетле
бетлеге
бетледе
бетледен
бетлени
бетлери
бетлерин
бетлеринде
бетлерине
бетли
бетлиди
бетлилеге
бетни
бетон
бетховен
бетховена
бетховенни
беш
бешджюзню
бешиги
бешик
бешинчи
бешиси
бешминглик
бештау
би
библ
библиографических
библиография
библиотека
библиотеканы
библиотекасы
библиотекасыны
библиотеки
библиотечка
библия
библияны
биг
бигль
биджиланы
биз
бизге
бизда
бизде
бизнес
бизнесмен
бизнесни
бизни
бизнича
бии
бикини
биксберг
билал
билген
билгенди
билгендиле
билгенлерин
билгенлеринде
билги
билгиле
билгилеге
билгилени
билгилерине
билдим
билдинг
билдирген
билдиргенди
билдиргендиле
билдиргенине
билдиргенлерине
билдиргеннге
билдирди
билдиреди
билдиредиле
билдириб
билдирилгенди
билдирирге
билдириу
билдириуле
биле
биледи
биледиле
билеме
билемисе
билемисиз
билетле
билиб
билим
билимге
билимин
билимле
билимлени
билимлерин
билимни
билинмеген
билиннген
билирге
биллем
билль
билмеген
билмеи
бильярд
билялны
биографическии
биография
биографиясы
биология
биологиялы
биологиялыкъ
биологияны
биосфера
биосфераны
биохимия
бип
бир
бираз
бирге
биргелеи
биргелерине
биргеме
биргесине
бирда
бирде
бирден
бирджыллыкъ
бирди
бирем
бирер
биржа
бири
биригиб
биригиу
биригиуге
биригиуде
биригиуден
биригиуле
биригиулени
биригиуню
биригиую
биригиуюдю
биригиуюне
биригиуюню
бирида
бириди
биридиле
бирикген
бирикдирген
бирикдиреди
бирикмеген
бирикмеле
бирим
биримге
биримде
биримди
бирими
биримиди
биримле
биримлеге
биримледен
биримлени
биримлери
биримни
бирин
биринде
биринден
бирине
бирини
биринчи
биринчиде
биринчиден
биринчиле
биринчини
биринчиси
бириси
бирле
бирледе
бирленнген
бирлери
бирлерин
бирлеринден
бирлерине
бирлерини
бирлешген
бирлешгенден
бирлешгенди
бирлешгендиле
бирлешгенинден
бирлешдирген
бирлешдиргенди
бирлешдиреди
бирлешдириб
бирлешдириуде
бирлешдириуню
бирлешеди
бирлешедиле
бирлешиб
бирлешиниуле
бирлешир
бирлеширге
бирлешиу
бирлешиуню
бирлешиуу
бирлешиую
бирлешлик
бирли
бирлиги
бирлигин
бирлигинден
бирлигине
бирлигини
бирлик
бирликге
бирликде
бирликден
бирликлеге
бирликлени
бирликлерин
бирликни
бирликчи
бирликчиле
бирликчилени
бирма
бирмада
бирманы
бирмингем
бирни
бирок
бирси
бируни
бирча
бирчады
бирчаракъ
бирчаракъды
бисау
бисмарк
бисмаркны
битва
битген
битгенди
битдириледи
битеди
битеу
битеудуния
битим
битимле
битимли
биттирланы
биттирова
бич
бия
биягъы
биягъынлаи
бкп
бкъб
бла
блада
бламы
блаунт
бле
блениу
блерио
ближаи
ближнем
близько
блика
блогу
блок
блока
блокада
блокадагъа
блокаданы
блокадасы
блокадасын
блокда
блокла
блокну
блэк
блэкджек
блю
блюгю
блюз
блюк
блюкдеди
бмо
бнеи
бниц
бо
боб
бовени
богемия
богота
богъаз
богъазгъа
богъазда
богъаздагъы
богъаздан
богъазды
богъазла
богъазлада
богъазладан
богъазланы
богъазлары
богъазларыны
богъазны
богъазы
богъазына
богъазында
богъазыны
боден
бодуркъусу
боз
бои
бокова
бол
бола
болады
боладыда
боладыла
болалла
болаллыкъ
болалмагъанды
болалмаи
болама
боласа
болг
болгар
болгарии
болгария
болгарияда
болгариядан
болгарияны
болгарскии
болгарча
болгаънды
болгон
болгъа
болгъады
болгъадыла
болгъан
болгъандан
болгъанды
болгъандыда
болгъандыла
болгъанла
болгъанлаи
болгъанланы
болгъанлары
болгъанларын
болгъанларына
болгъанлыкъгъа
болгъанма
болгъаннга
болгъанны
болгъаны
болгъаныды
болгъанын
болгъанына
болгъанында
болгъанындан
болгъаныны
болгъунчу
болгьанды
болдадыла
болджал
болджалгъа
болджалда
болджалдан
болджаллары
болджаллы
болджалны
болджалсыз
болджалы
болджалын
болду
более
боливар
боливия
боливиягъа
боливияда
боливияны
боливиячы
болид
болидлени
болидни
боллугъу
боллугъун
боллугъуна
боллугъуну
боллукъ
боллукъбуз
боллукъду
боллукъдула
боллукъларына
боллукъма
боллукъмуду
боллукъну
боллукъсуз
болмагъан
болмагъанды
болмагъандыла
болмагъанлагъа
болмагъанлары
болмагъанлыкъгъа
болмагъанны
болмагъаны
болмагъаныды
болмагъанын
болмаз
болмазгъа
болмазла
болмазлыгъын
болмаи
болмаса
болмасада
болмау
болмауду
болмауу
болса
болсада
болсала
болсун
болсунла
болу
болуб
болугъуз
болум
болумгъа
болумда
болумдан
болумлары
болумларын
болумну
болуму
болумун
болумуну
болуп
болур
болургъа
болурду
болурла
болурма
болурму
болурун
болурча
болуу
болуугъа
болуудан
болууду
болуула
болуулагъа
болуулада
болууладан
болууланы
болуулары
болууларын
болууну
болууу
болуууду
болууун
болуууна
болуучанды
болуучандыла
болуучу
болушады
болушалмаи
болушда
болушлугъу
болушлукъ
болушлукъгъа
болушлукълары
болушлукъну
болушлукъчу
болушургъа
болушуу
болушууну
болушхан
болушханды
болушхандыла
больница
больницала
большая
больше
большевик
большевикле
большинстве
большинство
большого
большои
бомабалаб
бомба
бомбалаб
бомбалагъанды
бомбалагъандыла
бомбалаи
бомбаланы
бомбаланыуу
бомбалау
бомбалаудан
бомбалауладан
бомбалауну
бомбалаучу
бомбаны
бомбасы
бомбеи
бонапарт
бонапартны
бонино
бонн
бонопарт
боран
бордо
борегар
борис
борист
борнео
бортунда
борч
борчланадыла
борчланнганды
борчланы
борчланыуланы
борчлары
борчларын
борчлу
борчлуду
борчну
борчу
борчха
борьба
босна
боснаны
боснии
босния
босниячы
бостон
босфор
бот
бота
ботаник
ботаника
боташланы
ботсвана
боу
боуи
боулинг
бофортну
бош
бошаб
бошагъан
бошагъандан
бошагъанды
бошагъандыла
бошадым
бошаи
бошалады
бошаладыла
бошалгъан
бошалгъандан
бошалгъанды
бошалгъандыла
бошалгъандында
бошалгъанын
бошалгъанына
бошалгъынчы
бошалмагъан
бошалмаи
бошалыб
бошалырына
бошалыу
бошалыуу
бошамагъанды
бошаялмаи
бошду
бошланадыла
бошуракъ
боюн
боюнча
боюнчукъда
боюнчукъну
боялгъан
бояу
бояулу
бояулула
бояулулагъа
бояуу
браганса
браззавилде
бразил
бразилиа
бразилия
бразилияда
бразилиядан
бразилияны
бразилиячы
браи
бранденбург
брансуик
братислава
браузер
браузера
браузере
браузерни
браузеров
браун
брахмапутраны
брахми
брежнев
брежневни
бреннер
брест
брестде
брестни
бретань
бреттон
бри
бригада
бригаданы
бригадасы
бригадачы
бригата
бригиттенау
бридж
бриск
бристоль
брит
британ
британия
британиягъа
британияда
британиядагъы
британиядан
британияны
британияныкъы
британлыла
британлылагъа
британлыланы
британника
бродве
бродвеи
бронетанка
бруклин
брукс
брунеи
брусилов
брчко
брюс
брюсселни
брюссель
брянск
бсср
бсэ
бу
буатк
бублиль
буг
бугенвиль
бугъаргъа
бугъои
бугъуб
буда
будаи
будапешт
будапештде
будапештни
будда
буддизм
буддист
буддистле
буде
будем
будет
буду
будут
будущем
буз
бузады
бузадыла
бузар
бузгъан
бузгъанды
бузгъандыла
буздан
бузла
бузлада
бузлаи
бузлама
бузланы
бузлауукъ
бузлауукъла
бузлаучу
бузну
бузуб
бузулады
бузуу
бузууну
буи
буклет
букмол
букмолну
буковина
буковинаны
буксгевден
буксмол
букъдургъандыла
букъу
букъуну
бул
булгар
булласы
буллгъа
булут
булутда
булутду
булутла
булутладыла
булутланы
булутну
бульвар
бундестаг
бундестагны
буну
бур
бура
бурады
бурадыла
бурбонланы
бургъандыла
буржуа
буржуаз
буржуазия
буржуазияны
буркина
бурла
буртеке
буруб
бурулады
буруладыла
бурулгъан
бурулгъанды
бурулуб
бурулуу
бурулууу
бурулуууну
бурун
бурунгу
бурунда
бурундан
бурунди
бурундини
буруннгу
буруннгугрек
бурургъа
буруу
бурууда
бурху
бурят
бурятия
бус
бусагъат
бусагъатда
бусагъатдагъа
бусагъатдагъы
бусагъатдада
бусагъатха
бусла
бусланы
бусну
буссе
бутагъы
бутагъына
бутагъыны
бутакъ
бутакъгъа
бутакъла
бутакълары
бутакъны
бутан
бутанны
буу
бууазлыкъ
буула
бууун
бууунну
бууунундан
бухара
бухарест
бухгалтерияда
бухенвальд
бухенвальдны
бухта
бухтада
бухтадагъы
бухтаны
буш
бушуу
буэна
буэнос
бчюлюк
бчюлюкню
български
бы
быжылдау
быз
бызынгы
быи
был
была
былагъа
быладыла
былаи
быланы
были
быллаи
было
быргъы
быргъыла
быргъыланы
быргъыны
быстрого
быть
бышлакъ
бьюкенен
бэи
бю
бюгюн
бюгюнлюкде
бюгюннге
бюгюннгю
бюджет
бюджети
бюджетлени
бюджетни
бюллетень
бюрек
бюро
бюрократ
бюрократия
бюрократла
бюросу
бюросуну
бюртюк
бюртюкле
бюртюклени
бюсту
бюсю
бюсюда
бюсюн
бюсюнде
бюсюне
бюсюню
бюте
бютеу
бютеудуния
бютеулеи
бютеулюк
бютеулюклерини
бютеумиллет
бютеуроссия
бютеусоюз
бютеухалкъ
бютеую
в
ва
вавилон
вавилондагъы
вавилоннга
вавилончула
вагиф
вагон
вадим
ваза
ваи
вакуумда
вакууму
валенсия
валерии
валетта
валлетта
валлии
вальдивия
вальтер
валюта
валютагъа
валютада
валютады
валюталаны
валюталарыны
валютаны
валютасын
вам
ван
вангъа
ванкувер
ванны
вануату
ваны
вань
вара
варанаси
варанг
вариант
вариантда
вариантла
вариантлары
вариантларын
вариантны
вариантов
вариантха
варианты
вариантыды
вариантында
варшава
варшавагъа
варшавада
варшаваны
вас
василии
васко
вассал
ват
ватикан
ватиканны
ватсон
ватт
вафа
вацлав
ваш
вашего
вашем
вашингтон
вашингтонда
вашингтондан
вашингтоннга
вашингтонну
вашталтыме
вв
вверху
ввести
ввода
вводе
ввп
вд
вдр
ве
веб
вебер
вегетация
ведомости
веи
век
века
веке
веков
вектор
векторну
вектору
векторуну
вел
веле
великая
великобритании
великобритания
великои
веллингтон
вен
вена
венагъа
венада
венадагъы
венаны
веначы
венгерскии
венгрия
венера
венераны
венесуэла
венесуэланы
венециан
венеция
венецияда
венкни
вепс
вер
вера
вергилии
верде
вердини
вермахт
вермахтны
вернер
версаль
версальны
версии
версия
версиягъа
версияланы
версияны
версиясы
версиясына
версиясыны
версиях
вертикал
вертоле
вертолет
верхнего
верхнеи
верхнелужицкии
верховного
вершин
вес
весна
вест
веста
вести
вестминстер
вестник
вестро
вестфалия
весь
вето
ветону
вече
вещество
вже
взгляд
взять
ви
виадук
виадукну
виборг
вивели
вид
вида
виде
виден
видео
видеогъа
видеола
видеосу
видеотрансляцияны
виза
визала
византии
византия
византияда
византиядан
византияны
визуал
визуальным
вии
вик
вики
викибилгиледе
викибилгиледен
викибилгилени
викиге
викиданных
викиде
викидеча
викикитаб
викикод
викикоде
викимарафоне
викимедиа
викимедианы
викимедия
викинг
викингле
викинглени
википеди
википедии
википедию
википедия
википедиягъа
википедияда
википедияны
википедија
викисе
викисклад
викискладха
викитюрлюле
виктор
виктория
вила
вилеи
вилла
виллем
вильгельм
вильгельмни
вилькицкии
вильно
вильнону
вильнюс
вильнюсда
вильсон
вильям
винг
виндзор
винни
винница
винсент
винт
винчи
винчини
виргин
виргиния
виргинияда
виргинияны
вирджиния
виртуал
виру
вирус
вирусла
висконсин
висла
висланы
висни
високос
вист
виталии
витаминле
витим
витимскии
витраж
витус
вифлеем
вифлеемде
вифлеемни
вицде
вице
виши
вишист
вкладка
вкладке
вкладки
вкладку
вкладок
включает
включая
вкп
влада
владеет
владение
владивосток
владикавказ
владикавказда
владимир
владимирни
владислав
влак
влаклан
влакым
влакын
власт
властда
властдан
власти
властла
властлагъа
властланы
властлары
властларына
властларындан
властларыны
властны
властха
власты
властын
властыны
власть
влево
вместе
вместо
внешнии
внизу
внимание
вну
внутренних
внутренняя
внутри
во
вовсе
водка
водное
водород
водородну
воевода
воеводина
воеводинада
воеводствону
воениздат
военная
военно
военных
возвращает
возможен
возможно
возможности
возможность
возникает
возраст
вои
вокал
вокзал
вокзаллада
вокруг
волга
волгоград
волеи
вологда
волонте
волоф
волофал
волхов
волынь
вольт
вольфганг
вопрос
вопросы
воронеж
ворошиловск
воспользоваться
воспоминания
восток
востока
востоке
восточная
восточнои
восточныи
восточных
вояджер
вп
впервые
вправо
вр
враду
врач
вредоносного
време
времен
времени
временник
время
всадник
все
всегда
всего
всеи
всем
всеобщая
всероссии
всесоюзная
всесоюзнои
всеукраі
всех
вспомогательные
вставить
вставки
вська
всю
вт
второго
второе
второи
ву
вуазен
вуд
вудро
вуи
вулкан
вулкандан
вулканизм
вулканла
вулканланы
вулканны
вуцвк
вцик
въстание
вы
выбор
выборг
выбрать
выведен
вывода
выводить
выводятся
выглядит
вызван
вызов
вызова
вызывает
вызываются
вымирание
вып
выполнения
выпуск
выпускники
выравнивания
выскажите
высказать
высокии
высоты
высоцкии
вычислении
вычислить
вьетконг
вьетлени
вьетнам
вьетнамгъа
вьетнамда
вьетнамны
вюртемберг
вязьма
вячеслав
від
відбулися
відповідальність
відставку
відсіч
вікна
вікіпедія
вікіпэдыя
г
га
гаага
гаагада
габа
габон
габонну
габриэль
габсбург
габсбургланы
габули
гаваи
гаванда
гаваныны
гавань
гаврила
гаврило
гагарин
гагауз
гагаузлула
гагаузлуланы
газ
газаны
газдан
газет
газета
газетге
газетде
газетди
газетле
газетледе
газетлени
газетлеринде
газетни
газеты
газла
газлы
газны
газт
гаи
гаити
гаитини
гаккылы
гал
галактика
галактикала
галактиканы
галапагос
галерея
галереяны
галилеи
галилео
галилеяда
галисии
галисия
галиция
галицияны
галлапагос
галлиполи
гальмудуг
гама
гамаль
гамбия
гамбург
гамбургда
гамбургер
гаметала
гамильтон
ган
гана
ганг
ганга
гангны
гангут
гандбол
ганди
гандини
ганновер
ганс
гара
гараланы
гарант
гарантия
гарантияла
гарвард
гарвардны
гардош
гардошну
гарлем
гармония
гарнизон
гарнизонла
гарнизонланы
гарнизоннга
гарнизонну
гарнизону
гарри
гарсия
гаспринскии
гаспыралы
гаспыралыгъа
гаспыралыны
гауптштурмфюрери
гаусс
гая
гвадалахарада
гваделупа
гвард
гвардия
гвардияны
гвардиячы
гватемал
гватемала
гватемаланы
гвиана
гвиананы
гвинеи
гвинея
гвинеяда
гвинеяны
гг
ггц
гданьск
где
гдр
ге
геббельс
гебридле
гевара
гевараны
гегемония
геи
геклен
гектар
гелии
гельголанд
ген
геналогическое
генарал
генди
гендиле
гендилесюжет
генерал
генералы
генеральнои
генерация
генетика
гени
генине
генлерин
генри
генрих
генрихни
гентни
географ
географических
география
географиягъа
географиялы
географиялыкъ
географияны
географиясы
геолог
геология
геологиясы
геолокализация
геометрия
геополитика
георг
георгии
гепард
гер
геральдика
геральдикада
герб
гербде
герберт
герби
гербин
гербле
гербни
герге
гереги
герегин
герегинде
герегиндеги
герегине
герек
герекге
герекде
герекни
герии
геринг
герлерини
герман
германии
германия
германиягъа
германияда
германиядан
германияны
германияныкъы
гермафродитизм
геродот
герои
герох
герцеговина
герцеговинаны
герцог
герцогиня
герцоглукъ
герцоглукъну
герцогну
герцоговина
герцогу
герцшпрунг
гершвин
гершель
гессен
гестапону
гет
гетеи
гети
гетле
гетлени
гетлери
гетман
гетто
геттогъа
геттода
геттодан
геттолагъа
геттону
геурге
геуюрге
ги
гибралтар
гибрид
гидрография
гидродинамикасында
гидрология
гидрологиясы
гидротермала
гидроэлектростанция
гилберт
гилбертни
гилгит
гильотина
гималаи
гимн
гимназия
гимназияда
гимни
гимниди
гимнле
гимнлери
гимнни
гиназ
гинденбург
гинджи
гинджини
гинзбург
гипотетик
гирло
гитара
гитлер
гитлерге
гитлерден
гитлерни
гитлерчи
гитлерчиле
гитче
гитчеди
гитчелигинде
гитчерек
гиюр
гиюрню
гия
гкчп
гл
глава
главного
главнокомандующии
главную
главныи
глаголица
глазго
глобал
глобализация
глобализацияны
глобус
глоссарии
глостер
гляи
гминасыны
го
говорит
гог
гогенцоллернлени
год
года
годах
годов
году
годунов
годы
годым
гои
гокка
гоккада
гоккаланы
гоккалары
гоккаларыны
гоккалы
гокканы
гоккасы
голан
голда
голданы
голланд
голландия
голландиягъа
голландияда
голландиядан
голландияны
голландлы
голландлыла
голландлылагъа
голливуд
голливудда
голливудну
голль
голоса
гольф
гольштеи
гомер
гомес
гон
гонда
гондвана
гондурас
гондурасны
гонконг
гонконгну
гонну
гор
гора
горбаче
горд
гордин
горень
горец
гори
горизонтал
горизонтну
горизонту
гормонла
горн
горныи
город
города
городам
городище
городов
городских
гору
горы
горькии
гос
гост
гостиница
государств
государства
государственного
государственное
государственнои
государственном
государственныи
государство
гот
готика
готланд
гото
готфрид
гр
гравитация
градус
градусах
градусда
градусдан
градусду
градусу
градусха
граждан
гражданин
гражданини
гражданинни
гражданла
гражданлагъа
гражданланы
гражданлары
гражданларына
гражданларыны
гражданлыгъы
гражданлыгъын
гражданлыкъ
гражданлыкъгъа
гражданлыкъдан
гражданлыкъны
гражданлыкъсыз
гражданская
гражданство
гражданы
грамм
грамматика
грамматиканы
грамматикасы
грамотность
гранадада
гранаданы
гранд
гранде
границы
грант
грантны
грантха
граф
графиги
график
графика
графлыкъ
графство
грац
греи
грек
грекле
греклени
греклиле
грекоидлени
грекча
гренада
грендланд
гренлан
гренланд
гренландия
гренландияда
гренландияны
гренландскии
греции
греция
грециягъа
грецияда
грециядан
грецияны
греческии
гри
гривна
григориан
григории
григориополь
григорьев
грин
гринвич
грипп
гродно
грозныи
громадське
гронинген
гропиус
грудня
грузинскии
групи
группа
группагъа
группаны
группасына
группои
грушевскии
гуадалканал
гуаи
гуам
гуандун
гуано
гуанчжоу
гуаякиль
губен
губернатор
губернатору
губернии
губернияланы
губернияны
губернские
губернія
губертусбург
гудериан
гудерианны
гудзон
гудзонну
гуз
гулаг
гум
гуманитар
гуманитарии
гумбольдт
гумиле
гун
гунат
гунатны
гуннла
гупта
гур
гурион
гусеи
густав
гутенберг
гуш
гфр
гъ
гъа
гъакълагъан
гъакълаи
гъакъланады
гъакъланнган
гъакъланнганды
гъакълау
гъакълауу
гъакълы
гъамбар
гъамбарны
гъан
гъанды
гъандыла
гъанма
гъаны
гъанын
гъат
гъатда
гъатны
гъаты
гъур
гъурлула
гъы
гъыч
гъычла
гъычланы
гъычсыз
гыбы
гыбыау
гыи
гын
гына
гынат
гырджын
гыт
гыч
гэндзи
гэри
гэс
гюго
гюз
гюзтюб
гюи
гюл
гюлистан
гюллени
гюлню
гюлхании
гюнде
гюрбеджи
гюрге
гюрдж
гюрджю
гюрджюде
гюрджюден
гюрджюлюле
гюрджюню
гюрджюча
гюрчюн
гютдю
гюу
д
да
давид
давидни
даву
давуну
давысы
дагестане
дагъан
дагъы
дагъыда
дагъыстан
дагъыстанда
дагъыстанны
дагы
дады
дае
дажуну
даи
дакар
дакка
дакота
дал
далаи
даллас
далмацияны
даль
далянь
далі
дам
дамаск
дамба
дан
дана
данда
дандагъы
дандагъылагъа
дандан
дане
дани
даниэль
дания
даниягъа
данияда
даниялы
данияны
даниячы
данла
данлары
даннга
данного
данном
данны
данные
данныи
данных
данте
дантон
дантонну
дану
данциг
даны
данына
данында
данындан
даныны
дані
дар
дараджа
дараджагъа
дараджада
дараджадан
дараджаланы
дараджалары
дараджаларын
дараджалы
дараджаны
дараджасы
дараджасын
дараджасына
дараджасында
дараджасындан
дараджасыны
даражадагы
дарвин
дарджилинг
дарии
даркави
даркавии
даркавия
дарлан
дарман
дарт
дары
дас
дасыз
дат
дата
датадан
датала
даталаны
датасы
датасына
даты
дау
даула
даулаб
даулагъанды
даулагъандыла
даулаи
дауланы
дауларыкъды
дауларын
даулаш
даулашыу
даулу
даулуду
дауну
даусуз
дауу
дауун
дауур
дауурбаз
дауут
дахау
дахауда
дахауну
дахо
два
двал
две
двел
движение
движению
движения
движок
дворян
дворянствону
двумя
двух
де
деб
деберц
деблети
дебюту
девальвация
деванагари
девизи
девон
деген
дегенден
дегенди
дегендиле
дегенле
дегеннге
дегенни
дегенча
деги
дегиде
дегиле
дегиледен
дегилениу
дегилери
дегилерини
дегини
дегиси
дегисинде
дегоев
дедиле
дежне
деи
декабргъа
декабрда
декабрдан
декабрны
декабрына
декабрында
декабрындан
декабрыны
декабрь
декабрьда
декабря
декада
декаданы
декадасыны
деке
декларация
декларациягъа
декларацияда
декларацияны
декларациясы
декларациясын
декларациясына
декларациясында
деколонизация
деколонизацияны
деколонизациясы
декрет
декретге
декрети
дел
делавэр
делает
делано
делать
делегация
дели
дело
делфт
дель
дельта
дельтаны
дельтасы
дельтасында
дельтасыны
дельфин
демаркация
демеи
демек
демеклик
деменгили
демидова
демилитаризация
демография
демократ
демократия
демократияды
демократияны
демократла
демократланы
демонстрация
демонстрациягъа
демонстрацияла
демонстрацияны
демоскоп
демулен
ден
денверде
дене
день
деп
департамент
департамента
департаментни
депортациясы
депортациясыны
депрессия
депрессияны
депутат
депутатдан
депутатла
депутатланы
депутатлары
депутатларыны
депутатндан
депутаты
дер
дерге
держава
дери
дерида
дериди
дерс
дерсле
дерслери
дерслеринде
дерслик
дерт
десант
десантла
десантны
десантчыла
десанты
десек
десем
десенг
десятичнои
десятичном
дет
детектив
детрои
детская
деу
дефанс
дефис
дефтеринде
дециметрге
деч
деятели
деятельности
дж
джабады
джабадыла
джабар
джабаргъа
джабхан
джабханды
джабыкъ
джабылады
джабыладыла
джабылгъан
джабылгъанды
джабылгъандыла
джабылыб
джабылыбды
джабыу
джабыуну
джабыусузду
джабыуу
джава
джавахарлал
джавахишвили
джаггард
джагъа
джагъагъа
джагъада
джагъала
джагъалагъа
джагъалада
джагъаланы
джагъалары
джагъаларын
джагъаларына
джагъаларында
джагъаларындан
джагъаларыны
джагъалы
джагъаны
джагъасы
джагъасын
джагъасына
джагъасында
джагъасындагъы
джагъасындан
джагъасыны
джагъачы
джагъы
джагъын
джаз
джаза
джазады
джазадыла
джазаи
джазаллыкъ
джазама
джазар
джазаргъа
джазаса
джазгъа
джазгъан
джазгъанды
джазгъандыла
джазгъанларыгъызгъа
джазгъанма
джазгъанны
джазгъанса
джазгъанынгы
джазгъы
джазда
джаздым
джаздыргъанды
джазма
джазмагъа
джазмада
джазмадан
джазмады
джазмала
джазмалада
джазмалары
джазмалы
джазманы
джазмасы
джазны
джазсала
джазсам
джазсанг
джазуланы
джазыб
джазыгъыз
джазылады
джазыладыла
джазылгъан
джазылгъанды
джазылгъандыла
джазылгъаны
джазылгъанын
джазылмагъан
джазылмагъанды
джазылса
джазылсала
джазылыб
джазылыбды
джазылыныргъа
джазылыргъа
джазылырча
джазылырын
джазылыуу
джазына
джазында
джазыу
джазыуда
джазыула
джазыулары
джазыулу
джазыуну
джазыуу
джазыуун
джазыуунда
джазыучу
джазыучула
джазыучуланы
джазыучуларыны
джазыучуну
джазышыуну
джаи
джакарта
джакомо
джакъ
джакълаб
джакълагъан
джакълагъанды
джакълагъандыла
джакълаи
джакъланнган
джакъланнганды
джакъланнгандыла
джакълар
джакъларгъа
джакъларын
джакъларыны
джакълау
джакълауну
джакълаучу
джакълы
джакълыгъын
джакълыкъ
джакъны
джакъсыз
джакъчы
джакъчылары
джакъчысы
джакъчысыны
джал
джаланда
джалгъаб
джалгъан
джалгъау
джалдан
джаллада
джалы
джамагъат
джамагъатда
джамагъатдан
джамагъатды
джамагъатла
джамагъатлада
джамагъатланы
джамагъатлары
джамагъатны
джамагъатха
джамагъатыны
джамму
джан
джана
джанакъаи
джанашиа
джангур
джангурдан
джангурла
джангурланы
джангурлу
джангурну
джангы
джангыдан
джангыз
джангылыб
джангылыкъ
джангылыкъла
джангылыкълары
джангыртдым
джангыртыб
джангыртылады
джангыртылгъан
джангыртыр
джангыртыу
джангыртыуну
джанда
джандан
джандаш
джандашланы
джандашлары
джандашларын
джандашларыны
джандашы
джандет
джанибеков
джанландырыу
джанлары
джанлы
джанлыла
джанлыланы
джанмаи
джаннган
джаннгы
джанны
джанскии
джанского
джансыз
джаны
джанын
джанына
джанында
джанындагъы
джанындан
джаныны
джаныуар
джаныуарла
джаныуарладан
джаныуарланы
джаныуну
джаныучу
джара
джарагъан
джарагъанды
джараи
джаралы
джаралыланы
джарамаи
джаратады
джаратадыла
джаратхан
джаратханды
джаратыб
джаратыкъ
джаратыкъла
джаратылады
джаратылгъан
джаратылгъанды
джаратылгъанлары
джаратылыуу
джаратылыууна
джаратылыууну
джаратыргъа
джаратыуда
джаратыучу
джараулу
джараусуз
джараусузгъа
джарашады
джарашдырады
джарашдырадыла
джарашдыргъан
джарашдыргъанды
джарашдыргъандыла
джарашдыргъанла
джарашдырыб
джарашдырылады
джарашдырылгъан
джарашдырыр
джарашдырыу
джарашыб
джарашыу
джарлы
джарлыды
джарлыдыла
джарсыгъан
джарсыу
джарты
джартысы
джары
джарыгъан
джарыгъы
джарыгъында
джарыкъ
джарыкълау
джарыкълаучу
джарыкълыгъы
джарыкълыкъ
джарыкълыкъны
джарыкъны
джарым
джарымаи
джарымда
джарымке
джарымны
джарымтоб
джарымтобда
джарымтобла
джарымтобну
джарымтобуду
джарымтобха
джарымы
джарымын
джарымында
джарымындан
джасакъ
джасакъды
джасакълагъан
джасакълагъанды
джасакълагъандыла
джасакълаи
джасакъланады
джасакъланнганды
джасакъланнгандыла
джасакълау
джасакълауну
джасакъны
джасалгъан
джасалгъанды
джассы
джассытаулукъла
джатагъы
джатагъын
джатагъында
джатагъыны
джатады
джатакъла
джатакълары
джатакъны
джатдаи
джатхан
джау
джауады
джаугъа
джаугъанды
джаудан
джауланы
джаулары
джауларын
джауларына
джаулукъ
джауну
джауу
джауум
джауумла
джауумланы
джауумну
джаш
джашаб
джашагъа
джашагъан
джашагъанды
джашагъандыла
джашагъанла
джашагъанлагъа
джашагъанладан
джашагъанланы
джашагъаны
джашаи
джашамагъан
джашамаи
джашар
джашаргъа
джашау
джашаугъа
джашауда
джашауларын
джашауларында
джашауларыны
джашауну
джашауу
джашауун
джашаууна
джашауунда
джашаууну
джашил
джашлаи
джашлары
джашнагъан
джашнаи
джашчыкъ
джашы
джашын
джашына
джашыракъ
джашыртын
джаыи
джаядыла
джаякъ
джаякъланнган
джаякълаулада
джаякълы
джаяргъа
джаяу
дждангы
дждж
дже
джеб
джебель
джегута
джез
джеи
джексон
джексонну
джел
джелле
джеллени
джелли
джелни
джемиши
джемишлери
дженг
дженге
дженгеди
дженги
дженгиб
дженгил
дженгилгенди
дженгилгенинден
дженгилиуден
дженгилиую
дженгле
дженглеге
дженгнге
дженин
джениннге
джер
джерге
джерде
джердеги
джерден
джерди
джери
джериди
джерин
джеринде
джеринден
джерине
джерини
джерларасы
джерларасында
джерле
джерлеарасы
джерлеге
джерледе
джерледен
джерлени
джерлери
джерлериди
джерлерин
джерлеринде
джерлеринден
джерлерине
джерлерини
джерлешген
джерлешгенди
джерлешгендиле
джерлешиб
джерлешим
джерлешимди
джерлешимле
джерлешимледе
джерлешимлени
джерлешимлери
джерлешимни
джерлешиу
джерли
джерни
джерси
джерсиз
джертюбю
джерчикде
джерчилик
джерчиликни
джесир
джесирге
джесирден
джесирле
джесирлеу
джесирликге
джесирликни
джетген
джетгенден
джетгенди
джетгендиле
джетгенин
джетгинчи
джетдир
джетдирмеи
джете
джетеги
джетегиди
джетегин
джетеди
джетедиле
джетек
джетекле
джетеклени
джетеклери
джетер
джетерге
джетерикди
джетерича
джетерли
джети
джетиб
джетиджыллыкъ
джетинчи
джетиу
джетишим
джетишимге
джетишими
джетишимин
джетишимине
джетишимле
джетишимлеге
джетишимлери
джетишимлерин
джетишимли
джетишимсиз
джетишимсизлиги
джетишимсизлик
джетишмегенди
джетмеген
джетмегендиле
джетмегени
джетмезлигин
джетмеи
джетмиш
джетсе
джефферсон
джефферсонну
джиб
джибге
джибек
джибер
джиберген
джибергенди
джибергендиле
джибергенлеи
джибере
джибереди
джибередиле
джибериб
джиберилген
джиберилгенди
джиберилгендиле
джибериледи
джибериледиле
джиберир
джиберирге
джибериу
джибериуле
джибериулени
джибериуню
джибитилген
джибути
джигит
джигити
джигитликни
джилек
джилекни
джилтин
джим
джимми
джин
джити
джитиси
джихад
джо
джоан
джованни
джоджора
джозеф
джои
джокъ
джокъду
джокъдула
джокълугъу
джокъну
джол
джолгъа
джолда
джолду
джолла
джоллада
джолланы
джоллары
джолларын
джолларыны
джолну
джолоучу
джолоучула
джолоучулугъу
джолоучулугъуну
джолоучулукъ
джолоучулукъгъа
джолоучулукъда
джолоучулукъла
джолоучулукъну
джолу
джолукъдуруу
джолун
джолуна
джолунда
джолуну
джолчукъ
джомакъ
джон
джонг
джонс
джонсну
джонсон
джонсону
джонстон
джоппу
джоппуда
джоппусу
джоралаб
джораланнган
джораланыб
джордж
джорджия
джорджтаун
джортууулла
джоругъу
джоругъуна
джорукъ
джорукъгъа
джорукъда
джорукъла
джорукълагъа
джорукъланы
джорукълары
джорукъларын
джорукъларына
джорукъларыны
джорукъну
джоуль
джохар
джошуа
джоюлгъан
джоюлгъанды
джоюлууу
джоюм
джоюмла
джоюмлагъа
джоюмларыны
джоюму
джугъуучу
джуздуз
джузеппе
джукъ
джукъа
джукъгъа
джукъда
джукълаб
джукъланмаи
джулдуз
джулдузла
джулдузлагъа
джулдузлада
джулдузланы
джулдузлары
джулдузну
джулдузу
джулдузуду
джулия
джульетта
джума
джумуш
джумушакъ
джумушакълатыучу
джумушну
джумушчу
джур
джурт
джуртда
джуртларына
джуртну
джурту
джуртум
джуртуна
джуртха
джутулгъан
джууа
джууаб
джууаблы
джууаблыды
джууаблылыкъ
джууаблылыкъны
джууабха
джууады
джууадыла
джууала
джуукъ
джуууб
джууугъуракъды
джууукъ
джууукъда
джууукъду
джууукълаша
джууукълашады
джууукълашадыла
джууукълашхан
джууукълашханда
джууукълашхандыла
джууукълашыб
джууукълугъу
джууулады
джыгъылгъан
джыи
джыл
джыла
джылада
джылаи
джылан
джыланла
джылатыучу
джылгъа
джылгъы
джылда
джылдагъы
джылдан
джылды
джылла
джыллагъа
джыллада
джылладагъы
джылладан
джылланы
джыллары
джылларым
джылларын
джылларына
джылларында
джылларыны
джыллы
джыллыгъы
джыллыгъын
джыллыгъына
джыллыкъ
джыллыкъда
джыллыкъны
джылны
джылтырауукъ
джылы
джылыды
джылын
джылына
джылында
джылыны
джылыныу
джылыныуу
джылыу
джылыуну
джылыуу
джынгы
джыр
джыргъа
джырла
джырлагъан
джырлаи
джырланадыла
джырланмагъан
джырланы
джырлары
джырларын
джырлау
джырлаучу
джырны
джыртыб
джырчы
джырчыланы
джырчыны
джырчысы
джыры
джырылмагъан
джырылыбды
джырымса
джырын
джыяды
джыядыла
джыяр
джыяргъа
джюз
джюзген
джюзгенди
джюзден
джюзджыллыкъ
джюзджыллыкъда
джюзджыллыкъны
джюзеди
джюзерге
джюзерча
джюзерчадыла
джюзле
джюзню
джюзюб
джюзюм
джюзюнде
джюзюню
джюзюуге
джюзюуде
джюзюуюнден
джюи
джюк
джюклеген
джюклени
джюклерге
джюн
джюнню
джюреги
джюрегимде
джюрегин
джюрегинги
джюрегине
джюрек
джюрекге
джюрекден
джюрекле
джюреклерин
джюрекни
джюрюб
джюрюген
джюрюгенди
джюрюгендиле
джюрюи
джюрюмеи
джюрюр
джюрюрге
джюрютген
джюрютгенди
джюрютгендиле
джюрютгени
джюрютгенле
джюрютеди
джюрютедиле
джюрютмеи
джюрютюб
джюрютюлген
джюрютюлюб
джюрютюр
джюрютюрге
джюрютюу
джюрютюуде
джюрютюуню
джюрюу
джюрюуге
джюрюуден
джюрюудю
джюрюулери
джюрюуню
джюрюую
джюрюш
джюрюшге
джюрюшде
джюрюшден
джюрюшлери
джюрюшлерин
джюрюшню
джюрюшю
джюрюшюн
джюрюшюнде
джюрюшюню
дзаи
дзе
дзеркало
дзи
дзяржау
ди
диабет
диаграммасы
диаграммасында
диалект
диалектге
диалектде
диалектден
диалекти
диалектика
диалектин
диалектинде
диалектини
диалектле
диалектлеге
диалектледе
диалектлени
диалектлери
диалектлеринде
диалектлерине
диалектни
диаметри
диапазон
диаспора
диаспорада
диаспорала
диаспораны
дивизия
дивизиялары
дивизияны
дивизиясы
дигамма
диграф
диграфла
диего
дизаи
дизель
диктатор
диктаторгъа
диктаторда
диктаторла
диктаторланы
диктаторну
диктатура
диктатураланы
диктатурасы
дил
диле
дин
дина
динамо
династия
династиягъа
династиядан
династияны
династиясын
дингер
дингил
динде
динден
динди
дини
динин
динине
динле
динледен
динлени
динлери
диннге
динни
динозаврла
дипломат
дипломатия
дипломатиялыкъ
дипломатла
дипломатлыкъ
дипломла
директива
директор
директора
директория
директорияны
директорланы
директорну
директору
дирекция
дириже
диск
дискавери
дискни
дискриминация
дискриминацияны
диснеи
диспетчер
дитрих
дифтонг
дифтонглада
длинг
длину
для
дм
дмитриевич
дмитрии
днеи
днепр
днепрни
днестр
дни
дня
до
добавить
добавлять
добавляются
добавьте
добавят
добра
доброты
договор
дои
докембрии
доклад
доктор
докторант
доктору
доктринасы
документ
документа
документальное
документации
документацию
документация
документге
документде
документи
документле
документледе
документлени
документли
документов
документтерди
документы
долгота
долготу
долень
должен
должна
должно
должны
долл
доллар
долларгъа
долларла
долларлыкъ
долларны
доллары
долли
доломит
дольфус
дом
домбровскии
домен
домени
домениди
доменле
доменлени
доменлери
доменнге
доменни
доминантлы
доминикан
доминион
доминионла
доминионланы
доминионлары
домино
доммаи
дому
дон
дональд
донауканал
донбасс
донгхои
дондагъы
донецк
донецкде
донну
дону
дополнительного
дополнительные
дополнительныи
допускает
дор
дорбун
дорбунда
доров
дорович
дороги
дортмунд
достае
достаточно
достоевскии
достопримечательности
достояние
доступа
доступна
доступных
доу
доцент
др
драгои
дракон
дракула
драма
драматург
драматургия
драматургну
древнеанглии
древневосточныи
древнегреческии
древнеи
древние
дрезден
дрезденнге
дреи
друг
друга
другие
другим
другими
других
другое
другои
другом
дружба
друри
дрю
дсао
дсо
ду
дуаи
дуалист
дубаи
дублин
дублинде
дубль
дубоссар
дубровник
дугасын
дуглас
дуда
дуи
дула
дума
думагъа
думаны
дунаи
дуния
дуниягъа
дунияда
дуниядан
дунияланы
дуниялыкъ
дунияны
дуниясы
дуниясыны
дуппур
дуппурда
дуппурлада
дуппурланы
дуппурлу
духовно
души
дуэль
ды
дыккылыгъы
дыл
дыла
дылаоппозиция
дыр
дырамаш
дыргъан
дыргъанды
дырылгъанды
дырылыуу
дых
дье
дэвид
дэвис
дэвисни
дю
дювалны
дюгер
дюгерни
дюле
дюльмен
дюнкерк
дюнкеркден
дүи
е
еаб
еб
евгении
евгеньевич
евклид
евразия
евразияны
евреи
евро
еврогъа
еврозонагъа
еврозонаны
евроинтеграция
евроинтеграциячы
евролукъ
евромаи
еврону
европа
европагъа
европада
европадагъа
европадагъы
европадан
европалы
европаны
европарламентни
европачы
европачыла
европачыладан
европачыланы
европеи
европеоид
европорт
европы
европышто
его
егорова
единица
единицу
единицы
единои
ее
ежи
еи
екатерина
екатеринаны
екатеринбург
еленаны
елизавета
елизаветаны
еллоустоун
елмеи
ель
ельцин
ельцинни
емен
емни
ему
ен
енисеи
епархияны
епископ
ер
ерба
ерверк
ереван
ересеи
ермолова
ес
есенинни
есиюки
если
есть
ет
ефремов
еш
ешыште
еще
еҥ
ж
жазылгъан
жазыучуларыны
жаи
жак
жако
жалпы
жамауат
жан
жана
жангы
жангыз
жанеи
жанна
жаннаны
жаннере
жаннерени
жанны
жанр
жанргъа
жанрда
жанрла
жанрланы
жанрны
жаны
жанына
жап
жапыште
жаракат
жаралы
жарыкълыкъ
жашагъан
жашаи
жашау
жашауну
жашауу
жашы
жвал
жвания
же
желание
жем
жемаи
женгери
женева
женевада
жер
жерар
жерде
жерден
жермен
жерни
жертв
жетеди
жзл
живе
живои
жизни
жизнь
жилетлери
життя
жозеф
жол
жолу
жолун
жорж
жуан
жуков
жуковха
жулдуз
жулдузла
жулдузладан
жулдузланы
журнал
журнала
журналда
журналды
журналист
журналисти
журналистика
журналистиканы
журналистле
журналистлеге
журналистлени
журналистлери
журналистлерини
журналла
журналлада
журналны
журналістів
жуукъ
жууукъ
жыи
жыл
жылгъа
жылда
жылдан
жылны
жылы
жым
жүз
жөнгө
жөнүндө
з
за
забаи
забгпу
заведениелерини
заведенияла
заведениялада
заведенияланы
заведенияларыны
завершить
зависимости
завод
заводда
заводдан
заводла
заводну
заводу
загвар
заглавие
заголовка
заголовками
заголовки
заголовков
заголовком
заголовку
заголовок
заготовка
загребни
загружать
загрузке
загрузки
загрузку
загрузок
задавать
задае
задан
задана
задания
заданного
заданныи
задано
задать
задач
задают
задеи
заж
зажы
заи
закарпатье
закии
закладки
закладок
закликала
закон
закондан
законкъураучу
законла
законлагъа
законланы
законлары
законларын
законларына
законларында
законларыны
законлу
законнга
законну
законодательные
законсуз
закону
законуду
законун
законуна
закончыгъарыу
закончыгъарыучу
зал
залии
залим
залны
залы
залыны
зальцбург
зам
заман
заманда
замандагъы
замандан
заманды
заманла
заманлагъа
заманлада
заманладан
заманланы
заманлары
заманларында
заманларындан
заманнга
заманны
заманы
заманым
заманына
заманында
заманындагъы
заманындан
заманыны
замбия
замдуу
замды
замдын
заменять
заметки
замсыз
занзибар
занстад
запад
западного
западныи
записи
записки
записывается
записываются
заповедник
заповедникде
заповедникни
заполь
запрос
запуска
запятои
заработало
зарагиж
заран
заранлы
заранны
зарауат
зарауатлыкъ
зарфчыла
зат
затда
затдан
затды
затем
затла
затлагъа
затлада
затладан
затланы
затлары
затларыны
затлыкъ
затны
затха
затыгъызны
заусгартен
захаров
захватили
захопив
заявканы
заявки
заявлении
зве
зге
зде
зден
зденланы
здесь
здочка
здравствуи
здю
зе
зебрала
зеги
зеелов
зеи
зек
зекни
зеланд
зеландия
зеландиягъа
зеландияда
зеландияны
зеленчук
зелов
земле
земли
земля
земное
зен
зенде
зенден
зени
зенинде
зенинделист
зенине
зенини
зенит
зенле
зенлеге
зенледе
зенлеринде
зеннге
зенни
зенхауэр
зенштеи
зер
зерни
зетчи
зигмунд
зимбабве
зимбабведе
зия
зияда
зияны
зиярат
зле
зледен
злени
злери
злерин
злерине
злеу
злеуле
злеуню
злеуюнде
злотыи
злуканы
злуки
злю
злюгю
злюк
злюкде
злюкледе
злюкню
зм
знак
знака
знаков
знаменская
знамя
знании
знания
значение
значении
значению
значения
значениями
зню
золотои
зона
зонагъа
зонада
зонала
зоналагъа
зоналада
зоналадыла
зоналаны
зоналарында
зоналарыны
зонаны
зонасы
зонасында
зонасындады
зонд
зоология
зоопарк
зоопаркда
зоопаркында
зоопланктонну
зор
зорлагъанды
зорлаи
зорлау
зорлу
зорлукъ
зороастризм
зорунлу
зрителя
зугул
зулмулукъ
зулу
зупинкою
зыгыт
зыкина
зытчыу
зю
зюдерманландскии
зюи
зюме
зюн
зюнде
зюне
зюу
зюуге
зюуде
зюуден
зюудю
зюуле
зюуледе
зюулени
зюулери
зюулеринде
зюулю
зюуню
зюусюз
зюую
зюуюн
зюуюнде
зюуюне
и
иб
ибер
иберии
ибилис
ибн
ибп
ибрагимни
ибрахим
иван
иванны
ивано
иванова
иванович
иванэ
ивар
иводзиманы
ивр
иврит
ивритде
ивуар
иги
игиге
игиди
игилеге
игилиги
игилик
игирек
игиси
игнорируются
игорь
игра
игуана
ид
идеал
идеалында
идеальные
идентификатор
идентификатора
идеографиялыкъ
идеология
идеологиягъа
идеологияды
идеологияла
идеологияланы
идеологиялыкъ
идеологияны
идеологиясы
идея
идеяла
идеяланы
идеялары
идеяларын
идеяны
идеясы
иджазаны
иди
идина
идиш
идишде
идн
идо
ие
иеди
иедиле
иезуитлени
иелери
иелиги
иелигинде
иелик
иеликге
иеликлени
иеликлери
иеликлерин
иеликлерини
иеликни
иена
иенаны
иени
иерархию
иеремия
иероглиф
иероглифика
иероглифле
иероглифледе
иероглифлени
иероглифни
иерусалим
иерусалимде
иерусалимни
иеси
иесине
иесини
иехуди
ижара
ижевск
из
изараиль
избежать
избранное
известия
известные
изд
издание
издания
изданные
издательство
изи
излеб
излеген
излегенди
излегендиле
излегени
излегениди
излегенин
излегенине
излегенле
излегенлени
излеи
излем
излемеген
излемегенди
излемегенин
излемеи
излеми
излемин
излемине
излемле
излемлеге
излемлени
излемлери
излемлерин
излемлерине
излемни
изленеди
излерге
излесе
излеу
излеулери
излеуню
излеучю
измаи
измаил
изменен
изменение
изменении
изменения
изменить
изначально
изображена
изображение
изображением
изображении
изображения
израилге
израилде
израилден
израилни
израилчи
израилчиле
израиль
израильни
израильчиле
израильчилеге
изреель
изучить
ии
иисус
ик
икге
икде
икден
икди
икдиле
иклеге
иклени
иклиги
иклигине
иклиде
иклик
икликге
икликде
икликден
икликле
икликледе
икликледиле
икликлени
икликлери
икликни
икон
иктаж
икымше
илгенди
или
илии
илипин
илипинле
илипинни
илиую
илич
илишкиле
илишкилеге
илишкиледе
илишкилени
илишкилери
илишкилерин
илишкилерини
илишкиси
илл
иллада
иллинои
иллюстрацияла
иллюстрациясы
илмегендиле
илмезлигине
илмезликге
илмезликлерини
илму
илмугъа
илмуда
илмуду
илмула
илмуладан
илмуланы
илмулу
илмуну
илмуу
илмууланы
илмууну
иль
ильич
ильменит
илья
им
имам
имамат
имде
имеет
имеется
имена
имени
именно
именнои
именование
именованные
иметь
ими
имлик
иммануил
иммигрант
иммигрантла
иммигрантланы
иммиграциясы
иммунитет
иммунитети
имни
император
императоргъа
императордан
императорлукъ
императорну
императору
императрица
императрицасы
империализм
империи
империя
империягъа
империяда
империядан
империяла
империялагъа
империяланы
империяларыны
империялыкъ
империяны
империясы
империячы
импорт
имприяны
имя
ин
инарал
иначе
инвалидлик
инвестицияла
инг
ингил
ингилиз
ингилизге
ингилизде
ингилизден
ингилизли
ингилизлиле
ингилизлилеге
ингилизлилени
ингилизни
ингилизча
ингир
ингирге
ингирги
ингиргиде
ингирде
ингиринде
ингирине
ингичге
ингл
инглиз
ингмар
ингури
ингуш
ингушетия
инд
индге
инде
индевор
индеи
индекс
индекса
индексге
индекси
индексине
индекслерини
индексни
инден
инджик
индиана
индии
индира
индия
индиягъа
индияда
индиядагъы
индиядан
индиялы
индияны
индни
индо
индоевропа
индоевропалы
индокъытаи
индонезии
индонезия
индонезияда
индонезияны
индостан
индуизм
индуист
индус
индусла
индустриал
индустрия
индустриягъа
индустрияда
индустриял
индустрияны
ине
инженер
инжич
ини
инициативаны
инициативасы
инкварт
инклени
инкогнито
инкубаторда
инкубатордан
инна
ино
иногда
иностранном
иноязычное
иноязычнои
иноязычную
инсан
инсанла
инсанланы
инсанлары
инсанны
инспектору
инспекциясы
инстанции
институт
институтда
институтла
институтланы
институтларыны
институтну
институту
институтуну
институтха
инструкция
инструмент
инструментал
инструментле
инструменты
инсульт
интеграция
интеллектуал
интеллигенцияны
интервенция
интервики
интервикини
интервью
интерес
интересле
интереслени
интереслери
интереслерин
интереслерине
интереслерини
интересли
интерлингва
интернационал
интернационалны
интернет
интернета
интернетге
интернетде
интернетден
интернете
интернетим
интернетни
интерфеи
интерьери
инфаркты
инфекция
инфинитив
инфляция
инфляцияны
инфо
инфокутија
информатика
информации
информацион
информационная
информационныи
информацию
информация
информацияны
информациясына
инфракъызыл
инфраструктура
инфраструктурасы
инцидент
инцидентни
иоанн
иоанна
иоганн
ион
ионика
иония
иордан
иордания
иорданиягъа
иорданияда
иорданияны
иорданны
иосиф
иосифни
иоффе
ип
ир
ира
ирак
иракга
иракда
иракны
иран
иранда
ираннга
иранны
иргенди
ирди
ири
иридии
ирина
иркутск
ирланд
ирландия
ирландиягъа
ирландияда
ирландиядан
ирландияны
ирландлыла
ирлик
ирон
ирсиндиреди
иртыш
ис
иса
исаак
исаны
исключением
искусств
искусства
искусство
искусстволаны
искусствону
исл
ислам
исламгъа
исламда
исламны
исламчы
исланд
исландия
исландияда
исландияны
исландскии
исмаил
исмаилни
исмаилны
исоба
исп
испан
испания
испаниягъа
испанияда
испаниядан
испанияны
испанлы
испанлыла
испанча
исполнительнои
использована
использование
использовании
использованию
использования
использовано
использовать
использоваться
используемые
используемыи
использует
используется
используи
используются
использующих
используя
исраэль
исса
исси
иссилик
исследование
иссык
ист
истанбул
историзма
истории
историко
историческая
исторические
историческии
исторического
историческои
история
источник
источника
источниках
источнике
источники
источников
истрия
истрияны
исфахан
ит
итал
италии
италия
италиягъа
италияда
италиядагъы
италиядан
италиян
италияны
итальян
итальяна
итальянлыла
итальянлыладан
итальянлыланы
итальянча
итил
итилни
итиль
итле
итни
ито
итоги
итогов
иудеи
иудеягъа
иудеяны
иучю
их
ицхак
ич
ичген
ичгиле
ичеги
ичегиси
ичегичилиле
ичер
ичи
ичилген
ичин
ичинде
ичиндеги
ичиндегин
ичиндеда
ичинден
ичине
ичини
ичиу
ички
ичкиди
ичкиле
ичлеринде
иш
ишбирлик
ишбирликни
ишге
ишде
ишден
ишек
ишеклиди
ишексиз
ишексизда
иши
ишин
ишинде
ишине
ишини
ишле
ишлеб
ишлеге
ишлеген
ишлегенди
ишлегендиле
ишлегени
ишлегенин
ишлегенле
ишлегенлени
ишледе
ишледен
ишлеи
ишлемди
ишлемеген
ишлемегенди
ишлемез
ишлемеи
ишлемлени
ишлемни
ишленеди
ишленедиле
ишлени
ишлениб
ишлениую
ишленнген
ишленнгенди
ишленнгендиле
ишлер
ишлерге
ишлери
ишлерибизни
ишлерин
ишлеринде
ишлеринден
ишлерине
ишлерини
ишлерча
ишлетген
ишлеу
ишлеуде
ишлеудю
ишлеулерин
ишлеуню
ишлеую
ишлеуюне
ишлеуюню
ишни
ишсизлик
ишчи
ишчиле
ишчилени
ишчилери
иын
июлда
июлдан
июлну
июлуна
июлунда
июлундан
июль
июлюнда
июлюндан
июля
июнда
июндан
июннга
июнну
июнуна
июнунда
июнундан
июнуну
июнь
июнюнда
июня
ияи
к
ка
кабардино
кабинети
кабинетинде
кабинетини
кабинетни
кабміном
кабо
кабрал
кабрильо
кабыл
кавалерист
кавалерия
кавалериясы
кавасени
кавказ
кавказа
кавказгъа
кавказда
кавказдагъы
кавказдан
кавказе
кавказны
кавказская
кавказские
кавказскии
кавказскои
каганата
кагиева
кадавур
кадет
каджар
кадрилья
кадрла
кадьяк
каенг
каждои
каждыи
казань
казахскии
казахстан
казбек
казиев
казимир
казначеи
каи
каир
каирде
как
какаону
какие
какои
какушланы
кал
калабрия
калахари
кале
каледония
календар
календарь
календаря
калени
калимантан
калинин
калининград
калифорнии
калифорния
калифорнияда
калифорнияны
каллиграфия
калмыкия
калмыцкои
калория
калуганы
калык
калып
калькутта
кальмар
калья
каляндар
кам
кама
камбоджа
камбоджаны
камео
камера
камерала
камераларына
камерун
камерунда
камерунну
камиль
кампании
кампания
кампанияны
камчатка
камчатскии
канада
канадагъа
канадагъы
канадада
канадалы
канаданы
канадачыла
канал
канала
канализация
каналла
каналланы
каналны
каналы
канар
канат
кандаи
кандидат
кандидатла
кандидатланы
кандидаты
кандидатыды
канзас
канн
каннада
каносса
кант
кантинону
кантон
кантонскии
канцелярия
канцлер
канцлерге
канцлери
канцлерни
каны
каньон
каньонла
кап
капелла
капелласыны
капиева
капингамаранги
капитал
капиталдан
капитализм
капитализмге
капитализмни
капиталист
капиталны
капиталы
капиталым
капитан
капитаны
капитолии
капитуляция
капитуляциягъа
капитуляцияны
капитуляциясы
капитуляциясындан
капитуляциясыны
капп
кар
карабастан
карабах
карабаха
карабахского
караваин
караева
каракозов
карама
карамболь
карачае
карачаево
карачаевск
карачаевскои
карачаи
карачая
карачи
караңыз
карбон
кардарларга
кардарлардын
кардинал
карел
карелия
карелияда
карельскии
кариб
карл
карла
карлгъа
карлдан
карлны
карлос
карнеги
каролин
каролина
каролинаны
карпат
карпатланы
карс
карт
карта
картада
картала
карталаны
карталары
картаны
картасы
картасын
картасында
карте
картер
картинасы
картинка
картинкои
картка
картла
картографланы
карточка
карточках
карточке
карточки
карточкои
картха
картчыкъла
картчыкъланы
картчыкъны
карты
картье
карфаген
карфагенни
карце
каршы
каршылык
карьерасын
касвел
касим
каска
каскалары
касканы
каспар
каспии
кастилия
кастро
кастрону
кат
катакана
каталан
каталог
каталония
каталонияны
катар
катары
катастрофа
катастрофасы
категории
категорисем
категорию
категория
категориягъа
категорияда
категориядагъы
категорияла
категорияланы
категориялара
категориялары
категорияны
категориясы
категорија
категорія
катерле
католик
католикле
католикледиле
католиклени
католиклик
катрен
катрина
катушкасы
катэгорыя
катэгорыі
катюша
кауумун
каучуклу
кафе
кафедра
кафедрал
кафедраны
кафедрасыны
кации
качестве
кашмир
кашмири
кашмирни
кашубскии
кбухр
кв
квадрат
кваи
квалификациясы
квант
квантун
квартал
квебек
квебекни
кведрула
квинтич
квт
кг
кга
кгб
кге
кде
кдрде
ке
кеб
кебген
кебдирилген
кебдириу
кебиб
кебиу
кебиуню
кебюсю
кевин
кегеи
кеи
кел
келген
келгенбиз
келгенди
келгендиле
келгени
келгенин
келгенинде
келгенине
келгенле
келгенлени
келди
келе
келеди
келедиле
келечи
келечиле
келечилеге
келечилени
келечилери
келечилерин
келечилерине
келечилерини
келечилиги
келечилигини
келечилик
келечиликле
келечиликлери
келечиликлерин
келечиликлерини
келечиликни
келечиси
келечисиди
келечисини
келиб
келигиз
келин
келир
келирге
келирини
келиулери
келиуу
келиую
келиуюдю
келиуюне
келишген
келишгенди
келишгендиле
келише
келишеди
келишедиле
келишиб
келишим
келишимге
келишимле
келиширге
келишиу
келишиуге
келишиудю
келишиуле
келишиулеге
келишиулени
келишиулери
келишиуню
келишиую
келишиуюне
келишмеген
келишмеи
келлик
келликде
келликдиле
келлогну
келмеген
келмеи
келсе
келтирген
келтиргенди
келтиргендиле
келтиргени
келтиреди
келтиредиле
келтириб
келтирилген
келтирилгенди
келтирилгенледен
келтириледи
келтирирге
келтириу
келтириудю
келтирмеи
келша
кельвин
кельвиннге
кельвинни
кельт
кем
кемал
кемализм
кемализмни
кемалны
кембридж
кеме
кемеге
кемеде
кемеден
кемеди
кемеле
кемелеге
кемеледе
кемеледен
кемелени
кемелери
кемелерине
кемелерини
кемени
кемерово
кемеси
кемечиликге
кемизлиги
кемириб
кенг
кенгергенди
кенгергени
кенгереди
кенгериу
кенгериую
кенгериуюне
кенгертгенди
кенгертирге
кенгертиу
кенгертиудю
кенгеш
кенгешге
кенгеши
кенгешинде
кенгешине
кенгешини
кенгешиу
кенгешиуле
кенгешни
кенгирек
кенглиги
кенглигине
кенглик
кенгликге
кенгликде
кенгликледе
кенгликлени
кенгликлеринде
кенгликни
кенде
кения
кенияны
кенле
кенледен
кеннеди
кеннедини
кенни
кентукки
кентуккиден
кеп
кер
керала
кергелен
кергюзтеди
кере
кереге
керегин
кередиле
керек
керекбиз
керекди
керекдиле
керекле
кереклени
кереклерине
керекли
кереклисин
кереклисине
керекни
керексе
керексиз
кери
кериуан
керич
керкме
кермадек
кермен
керменни
керти
кертида
кертилигин
кертилик
кертиликде
кертиси
керчь
керюрге
кесамат
кесаматда
кесаматдан
кесаматды
кесаматла
кесаматлагъа
кесаматланы
кесаматлары
кесаматны
кесаматха
кесаматы
кесаматына
кесгендиле
кесгин
кесеги
кесегиди
кесегин
кесегинде
кесегинден
кесегине
кесегини
кеседи
кесек
кесекге
кесекден
кесекле
кесеклеге
кесекледен
кесеклени
кесеклери
кесеклеридиле
кесеклерин
кесеклеринде
кесеклеринден
кесеклерини
кесекни
кеселеккеле
кесематха
кесерге
кеси
кесиб
кесибизни
кесигиз
кесигизни
кесида
кесик
кесилген
кесилгени
кесилиб
кесим
кесимда
кесими
кесин
кесинг
кесинги
кесинде
кесинден
кесине
кесини
кесиники
кесип
кесиптер
кесиу
кесиучу
кесича
кескин
кеслери
кеслерида
кеслерин
кеслеринден
кеслерине
кеслерини
кеслерича
кетген
кетгенден
кетгенди
кетгендиле
кетгинчи
кете
кетеди
кетедиле
кетен
кетерге
кетериб
кетерин
кетерирге
кетериу
кетиб
кетиую
кетмеи
кефе
кеч
кече
кечеги
кечегиде
кечеде
кечеле
кечени
кечеси
кечесинде
кечесине
кечет
кечетлени
кечирек
кечиу
кечмеклик
кечуа
кечывалвел
кешене
кешенеси
кешм
кеңеш
ки
киа
кибик
кибикле
кидо
кие
киев
киевге
киевде
киевдеги
киеве
киевни
кии
кикакуи
кикер
килии
килиманджаро
килограмм
километр
километрге
километрден
километрди
километрине
километрлик
километрни
киль
ким
кимге
кимгеда
кимда
кимит
киммоти
кимни
кинг
кинематограф
кинематография
кинематографны
кинематографы
кинли
кино
киноактриса
киногъа
кинода
кинону
кинорежиссе
кинотеатр
кинотеатрлагъа
кинотеатры
кинофестиваль
киншаса
кипарис
кипр
киприотла
кипрни
кипрыште
кир
кирген
киргенден
киргенди
киргендиле
киргени
киргенинден
киргенле
киргенлени
киргизгенди
киргизеди
киргизедиле
киргизиб
киргизии
киргизилген
киргизилгенди
киргизилгендиле
киргизирге
киргизиргендиле
киргизиу
киргизиуге
киргизиуню
киргизия
киргизстан
киргизтгенди
киргинчи
киреди
киредиле
кирелмеи
киренаиканы
кирет
кириб
кирибати
кирибатини
киригиз
кирилица
кирилл
кириллица
кириллицагъа
кириллицада
кириллицадагъы
кириллицаны
кирир
кирирге
кириу
кириулери
кириуню
кириуу
кириую
кириуюн
кириуюню
кириченко
кириш
кирленнген
кирли
кирмеген
кирмегенди
кирмеи
киров
кирсе
кирсиз
кирүүсүн
кислород
кислородну
кислота
кит
кита
китаб
китабда
китабдан
китабла
китаблада
китабланы
китаблары
китабларында
китабны
китабха
китабы
китабын
китабына
китабында
китаи
китап
киткъауумлула
кито
китс
кичи
киши
кишиге
кишида
кишине
кишини
киштик
киштикле
кия
києва
києві
киі
ккал
кл
кла
клавдии
клаи
клан
кланны
кларк
класс
классда
классик
классика
классификация
классификациягъа
классификациялары
классификацияны
классификациясы
классификациясыны
классла
классланы
класслары
класслы
классны
классха
классы
клерк
клетка
клеткаланы
климат
климатда
климатды
климатларын
климатлы
климатны
климатология
климатха
климаты
климатына
климатындан
климатыны
климент
клингспор
клингспорну
клиника
клиса
клисада
клисадан
клисады
клисала
клисалада
клисаланы
клисаны
клисасы
клисасында
клисасыны
клод
клон
клуб
клубланы
клуни
клухор
кляи
км
кмда
кмдазахват
кму
кн
книга
книге
книги
книжное
кнопка
кнопку
кнорринг
кнр
кню
ко
коалиция
коалициягъа
коалицияны
ков
ковалев
коваль
ковентри
ковскии
когда
код
кода
кодекси
коджатепе
кодировка
кодлары
кодом
коду
кодун
коз
козидон
кои
кокла
коклаште
кокос
коктеи
кокымшо
кол
колд
колдонулган
колдонууга
колизеи
количество
колишня
коллеги
коллегиялы
колледж
колледжи
колледжни
коллектив
коллективизациясы
колониал
колониализм
колониалыкъ
колонизаторла
колонизация
колонизациягъа
колонизацияны
колонизациясы
колонизациясына
колонистле
колонистлеге
колония
колониягъа
колонияда
колониял
колонияла
колониялагъа
колониялада
колонияладан
колонияланы
колониялары
колонияларын
колонияларына
колонияларында
колонияларындан
колонияларыны
колониялы
колониялыкъ
колонияны
колониясы
колониясын
колонна
колоннагъа
колонналары
колорадо
колорадону
колумб
колумбарии
колумбия
колумбияда
колумбияны
колумбну
колхида
кольск
команда
командала
командалары
командалыкъ
команданы
командасыны
командири
командирле
командиров
командор
комбинат
комбинация
комедия
комедиясы
комендант
коми
комикс
комиссарларыны
комиссары
комиссарыны
комиссии
комиссия
комиссияла
комиссиясы
комиссиясыны
комитет
комитета
комитетге
комитети
комитетини
комитетни
комицияла
комментарии
коммерсантъ
коммерция
коммерциялы
коммерциялыкъ
коммерциялыкъсыз
коммуна
коммунал
коммунаны
коммунизм
коммунизмге
коммунизмни
коммуникацияла
коммуникациялагъа
коммуникацияланы
коммуникацияларын
коммуникациям
коммунист
коммунистле
коммунистлени
коммутатор
коммутаторла
комор
компании
компания
компаниягъа
компаниядан
компанияла
компанияланы
компанияны
компаниясы
компаниясыны
компаньону
компенсация
комплекс
комплекси
комплексни
композитор
композиторла
композиторланы
композиция
компонент
компонентден
компонентле
компонентом
компромисс
компьютер
комсомолец
комсомольская
кон
конан
конвеи
конвент
конвентге
конвентни
конвенция
конвенциягъа
конвенцияны
конвертация
конвертерни
конг
конгломерат
конго
конгону
конгресс
конгрессге
конгрессде
конгресси
конгрессинде
конгрессини
конгрессни
конделлни
конденсатор
конев
конец
конкистадор
конкистадорла
конкретнои
конкурент
конкуренти
конкуренция
конкурс
конкурса
конкурсда
конкурсе
конкурсы
коннектикут
конрад
консенсуслу
консерватив
консерватизм
консерватизмни
консерваторла
консоль
консонант
константин
константинов
константинова
константинополну
константинополь
конститутция
конституции
конституцион
конституция
конституциягъа
конституцияда
конституцияла
конституциялы
конституциялыкъ
конституцияны
конституциясы
конституциясын
конституциясына
конституциясында
конституциясыны
консул
консулла
консулланы
консуллукъ
консультант
консультация
контакт
контеи
контекст
контекстге
контингент
континент
континентал
континентге
континентде
континентден
континентди
континентле
континентледе
континентледен
континентлени
континентлик
континентни
континетде
континетлеге
контр
контра
контракт
контрактха
контраст
контратака
контратакасы
контрибуция
контролгъа
контролда
контролну
контролун
контролуна
контроль
контрольда
контрреволюция
контруруу
контрурууну
конурбация
конфедератив
конфедератла
конфедерация
конфедерациягъа
конфедерацияны
конференции
конференция
конференциягъа
конференцияда
конференцияны
конференциясы
конференциясында
конференциясыны
конфискация
конфликт
конфликтах
конфликтди
конфликтле
конфликтлени
конфликтни
конфронтациялы
конца
концевич
концевични
концентрацион
концентрация
концепция
концепциягъа
концепцияны
концепциясы
концернни
концерти
концлагерде
кончинка
координат
координатами
координатах
координатла
координаты
координацион
координация
коп
копенгаген
копенгагенде
копенгагенни
копилефт
копирования
копия
копиясы
коппа
копра
копт
коралл
корбин
корбюзье
корбюзьени
кордова
корее
кореи
кореист
корея
кореягъа
кореяда
кореяны
коридор
коринф
корнелии
корну
королгъа
королева
королеваны
королевасы
королевство
королевствогъа
королевствода
королевстволары
королевствону
королевствосу
королевствосуну
королла
короллукъ
королну
королу
король
королю
корона
коронаны
коронация
коронациясы
корпорация
корпорацияны
корпус
корпусла
корпусну
корпусу
корпусуну
корпусха
корректно
корректного
корректнои
коррупция
кортес
корчинскии
коряк
кос
коса
космонавт
космонавтика
космонавтиканы
космонавтики
космонавтла
космос
космосдан
космосха
косова
косово
косовону
коста
костюм
костюшко
костюшкону
кот
котбус
котировать
котлетли
котовскии
которая
которого
которое
которои
котором
которую
которые
которыи
которых
коулун
кофе
кофеге
кофени
кох
кочевье
кочкаров
коччанте
коштеш
коштуницаны
коэн
кп
кпелле
кпсс
крабла
кравчук
краи
краина
краков
краковда
красин
красная
краснодар
краснодарскии
красноярск
красныи
кратер
краткая
краткии
краткое
кратон
кратонла
крахы
крачан
краю
края
краі
кредит
кредитле
кредитлени
кредитни
креи
крематории
кремлде
кремль
креол
кри
криббедж
кризис
кризисге
кризисден
кризисни
крик
крикет
криминал
криптовалюта
криптоиудеи
кристал
кристалл
кристалланы
кристаллары
кристаллы
кристиан
кристоф
кристофер
крит
критге
критиги
крк
крок
крокет
кромвеллни
кроме
крона
кропоткин
круговая
крузо
крупнеи
крус
крым
крыма
крымскотатарскии
крымшамхалов
кс
ксенофобия
ксенофобияны
кстати
ксюл
ксюлдюм
кто
ку
куала
куан
куб
куба
кубада
кубаны
кубань
куббеси
кубик
кубина
кублу
кувеи
кувинск
кугу
кугыжаныш
кугыт
куда
кузе
кузнецов
куи
кук
кукну
кула
кули
кулиев
кулиева
кулина
культура
культурагъа
культурада
культурадан
культурала
культураланы
культуралары
культураларыны
культуралы
культуралыкъ
культураны
культурасы
культурасыны
культуры
кум
кунг
кунце
кунья
купер
купол
куполу
купюра
купюраны
кура
куратор
курган
курджиново
курдистан
курил
курляндия
курорт
курортда
куросио
курс
курса
курсив
курсивное
курск
курсларын
курсну
курсу
курсун
курсуну
курт
куртатин
курувну
курык
курымын
курымышто
куско
кутузов
куцкеп
кучма
кушит
кують
кхдр
кхи
кхмер
кхонд
кхондла
кч
кчр
кшити
кшкъа
кшо
къ
къа
къаб
къабагъы
къабакъ
къабакъла
къабан
къабарты
къабартылыла
къабатлы
къабугъу
къабукъ
къабукъну
къабыл
къабыргъа
къабыргъала
къабыргъалары
къабыргъаларына
къабыргъаларында
къабыргъаларындан
къабыргъаны
къабыргъасы
къабыргъасында
къабырлагъа
къабырлада
къабырланы
къабырларында
къабыры
къагъанлыкъ
къагъыи
къагъыт
къагъытда
къагъытла
къагъытлада
къагъытланы
къагъытны
къагъытха
къадар
къадарыны
къаджар
къаджарланы
къадирия
къаз
къазакъ
къазакъла
къазакълары
къазакълыла
къазакъстан
къазакъстанда
къазакъстанны
къазан
къазанны
къазауат
къазауатда
къазауатдан
къазауатды
къазауатла
къазауатлагъа
къазауатлада
къазауатланы
къазауатлары
къазауатны
къазауатсыз
къазауатха
къазауатчыланы
къазауаты
къазауатын
къазауатына
къазауатыны
къазаут
къазаутны
къазаутха
къазах
къазахлыла
къазахстан
къазахстанда
къазахстаннга
къазахстанны
къазуат
къазуатла
къазуатны
къазыб
къазылгъанды
къазыу
къазыула
къаи
къала
къалабалыкъ
къалагъа
къалада
къаладан
къалады
къаладыла
къалаи
къалакъ
къалала
къалалары
къалаларыны
къалама
къаламны
къаланнганды
къаланы
къаласы
къаласында
къаласыны
къалау
къалгъан
къалгъанды
къалгъандыла
къалгъанла
къалгъанланы
къалгъанлары
къалгъанларын
къалгъанны
къалгъаны
къалгъаныны
къалды
къалдым
къалкъан
къалкъанында
къалкъыб
къаллаи
къаллыкъды
къалмагъанды
къалмаи
къалпакъ
къалса
къалтур
къалыб
къалын
къалынлыгъы
къалынлыгъыны
къалыргъа
къалыу
къалыуу
къалыучандыла
къаматхан
къамиш
къамишни
къамыжакъ
къан
къанатла
къанатлары
къанатлы
къанатлыла
къанатлыланы
къанга
къандагъаи
къанлы
къаннга
къанны
къансыз
къаплан
къар
къара
къараб
къарабах
къарабахны
къарагъан
къарагъанда
къарагъанды
къарагъандыла
къарагъыз
къарада
къарадым
къараи
къаракъалпакълыла
къаракъалпакъстан
къарала
къаралагъа
къаралады
къараладыла
къараланы
къаралгъанды
къаралгъандыла
къаралдым
къаралмаи
къаралса
къарам
къарамаи
къарамланы
къарамлары
къарамларын
къарамларына
къарамларыны
къарамы
къарангы
къарангыда
къарар
къараргъа
къарарма
къарасакъ
къарасанг
къаратау
къаратаулу
къаратауны
къаратенгиз
къаратон
къарау
къарауларыны
къарауул
къараучу
къараучуланы
къарачаи
къаргъа
къарда
къарданик
къарл
къарла
къарлны
къарнаш
къарнашла
къарнашланы
къарнашлыкъ
къарнашы
къарнашым
къарнашындан
къарны
къарт
къартланы
къарчаи
къаршчы
къаршчыгъа
къаршчыла
къаршчыланнгандан
къаршчыланы
къаршчыланыу
къаршчыланыугъа
къаршчыланыуларын
къаршчыланыуну
къаршчыланыуун
къаршчылыкъ
къаршчылыкъгъа
къаршчылыкъны
къаршчысында
къаршы
къарын
къарыу
къарыулары
къарыуларын
къарыулу
къарыуну
къарыусуз
къарыусузду
къарыусузланнганды
къарыусузлугъу
къарыусузлугъундан
къарыуу
къарыуун
къарыууну
къасбот
къат
къатапа
къатды
къатла
къатлагъа
къатлада
къатларына
къатларында
къатлы
къатха
къатхан
къаты
къатылыгъы
къатылыкълары
къатын
къатына
къатында
къатындагъа
къатындагъы
къатындады
къатындан
къатыны
къатынын
къатыш
къатышады
къатышадыла
къатышдан
къатышды
къатышдырадыла
къатышмазгъа
къатышмазын
къатышмаи
къатышны
къатышууну
къатышхан
къатышханды
къатышхандыла
къатышханла
къатышханладан
къатышы
къатышыб
къатышыргъа
къатышыу
къатышыуу
къатышыууну
къаугъа
къаугъагъа
къаугъада
къаугъала
къаугъаланы
къаугъаны
къауму
къауум
къауумгъа
къауумда
къауумдан
къауумду
къауумла
къауумлагъа
къауумладан
къауумланы
къауумлары
къауумларын
къауумларындан
къауумну
къаууму
къауумун
къауумуна
къауумунда
къауумуну
къаушатады
къаушатадыла
къаушатхан
къаушатханды
къаушатхандыла
къаушатыб
къаушатылады
къаушатыладыла
къаушатылгъандан
къаушатылгъандыла
къаушатылыб
къаушатыр
къаушатыргъа
къаушатыу
къаф
къач
къачады
къачадыла
къачан
къачаргъа
къачда
къачлы
къачлыла
къачны
къачха
къачхан
къачханды
къачхандыла
къачхы
къачхынчы
къачхынчыла
къачхынчыланы
къачыб
къачына
къачында
къачыу
къачыулары
къачыуну
къашха
къашхатау
къая
къаяда
къаяла
къаялада
къаялы
къаяны
къкъхак
къобан
къобанла
къобанлагъа
къобанладан
къобанланы
къобанлары
къобаннга
къобанны
къобаны
къобугъа
къобулагъа
къобуу
къобуугъа
къобханы
къоз
къозгъалгъан
къозгъалгъанла
къозгъалгъанланы
къозгъалыу
къозгъалыугъа
къозгъалыудан
къозгъалыуду
къозгъалыула
къозгъалыулагъа
къозгъалыулада
къозгъалыуланы
къозгъалыулары
къозгъалыуну
къозгъалыуу
къозгъалыуундан
къои
къол
къолаи
къолан
къолгъа
къолда
къолдан
къолла
къолларына
къолларында
къолу
къолуна
къолунда
къолундады
къолундан
къонакъ
къонакъбаи
къонакъгъа
къонгур
къонгурау
къоннганды
къонуучу
къоратады
къоратадыла
къоратханды
къоратхандыла
къоратыб
къоратылады
къоратыладыла
къоратылгъан
къоратылгъандан
къоратылгъанды
къоратылгъандыла
къоратылыб
къоратылыуу
къоратыр
къоратыргъа
къоратыу
къоратыуну
къоргъашин
къоркъгъан
къоркъгъанды
къоркъмагъан
къоркъмаи
къоркъуб
къоркъутханды
къоркъуу
къоркъууда
къоркъуудан
къоркъуула
къоркъуулу
къоркъууну
къоркъуусуз
къоркъуусузлугъу
къоркъуусузлугъун
къоркъуусузлугъуну
къоркъуусузлукъ
къоркъуусузлукъну
къоркъууу
къоруу
къоруулаи
къорууларгъа
къоруулау
къоруулаугъа
къоруулауда
къоруулауну
къоруулауун
къорууну
къочхарланы
къош
къоша
къошабыз
къошады
къошадыла
къошаи
къошакъ
къошакъгъа
къошакълары
къошар
къошаргъа
къошдум
къошмаи
къошуб
къошугъуз
къошула
къошулады
къошуладыла
къошулгъан
къошулгъанды
къошулгъандыла
къошулгъанла
къошулгъанлагъа
къошулгъанланы
къошулгъаны
къошулгъанындан
къошулгъунчу
къошуллукъ
къошулмагъан
къошулмагъанды
къошулмазгъа
къошулмаи
къошулмалары
къошулмаса
къошулмау
къошулмауу
къошулса
къошулуб
къошулуннганды
къошулур
къошулургъа
къошулурун
къошулуу
къошулуулары
къошулууларына
къошулууну
къошулууу
къошулуууну
къошулуучу
къошулуучула
къошуу
къошхан
къошхандан
къошханды
къошхандыла
къошханма
къошханын
къоюб
къоюгъуз
къоюу
къояды
къоядыла
къояи
къоян
къояргъа
кърал
къралгъа
къралда
къралдагъы
къралдада
къралдан
къралды
къралла
къраллагъа
къраллада
къралладада
къралладан
къралланы
къраллары
къралларын
къралларына
къралларында
къралларындан
къралларыны
къраллы
къраллыгъын
къраллыкъ
къраллыкъланы
къраллыкълары
къраллыкъны
къралны
къралчылыкъ
къралы
къралын
къралына
къралында
къралыны
кърым
кърымда
кърымны
кърымтатар
кърымтатарлыла
кърымчакълыла
кърымшаухал
кърымшаухалланы
къудар
къударлыла
къуджур
къудору
къуи
къул
къулакъ
къулдан
къулии
къулла
къуллагъа
къулланы
къуллугъу
къуллугъун
къуллугъуну
къуллукъ
къуллукъгъа
къуллукъда
къуллукъдан
къуллукъла
къуллукълагъа
къуллукълада
къуллукъланы
къуллукъларыны
къуллукъну
къуллукъчу
къуллукъчуду
къуллукъчула
къуллукъчулагъа
къуллукъчуланы
къуллукъчулары
къуллукъчусу
къулну
къум
къумач
къумда
къумлу
къумукъ
къумукълула
къумурсхала
къумуш
къундуз
къура
къураб
къурагъан
къурагъанды
къурагъандыла
къурагъанла
къурагъанладан
къурагъанларын
къурагъанын
къурагъыз
къурадыла
къурадым
къураи
къурала
къуралады
къураладыла
къуралгъан
къуралгъандан
къуралгъанды
къуралгъандыла
къуралгъанла
къуралгъанлары
къуралгъаннга
къуралгъаны
къуралгъанын
къуралгъанындан
къуралгъаныны
къуралгъынчы
къураллыкъ
къураллыкъды
къуралыб
къуралып
къуралыр
къуралыргъа
къуралырын
къуралыу
къуралыулары
къуралыуну
къуралыуу
къуралыуун
къуралыууна
къуралыуунда
къуралыуундан
къуралыууну
къуралыучанды
къуралыш
къуралышда
къуралышды
къуралышла
къуралышлада
къуралышладыла
къуралышланы
къуралышларына
къуралышларыны
къуралышны
къуралышха
къуралышы
къуралышыды
къурамлары
къурамлы
къурамы
къурамын
къурамына
къурамында
къурамындан
къуран
къуранны
къурап
къурар
къураргъа
къурау
къураугъа
къурауда
къурауну
къурауу
къураууну
къураучу
къурбан
къургъагъыракъ
къургъакъ
къургъакъда
къургъан
къургъанды
къургъандыла
къурлагъанды
къурман
къурманланы
къурманларына
къурманларыны
къурманы
къурт
къуртну
къуртхаланы
къуру
къуруб
къуругъан
къуругъанды
къуругъандыла
къуругъаны
къуруи
къурулады
къурулгъан
къурулгъанды
къурулгъандыла
къурулуб
къурулуш
къурулушда
къурулушла
къурулушланы
къурулушну
къурулушу
къурулушун
къурулушуна
къурулушуну
къурулушха
къурулушчу
къурургъа
къурутады
къурутадыла
къурутуб
къурутулады
къурутулгъанды
къурутулгъандыла
къурутуу
къурутууду
къурутууну
къурутуучу
къурутхан
къурутханды
къурутхандыла
къуруу
къурууну
къурч
къуршалаб
къуршалагъанды
къуршалагъандыла
къуршалаи
къуршаланады
къуршаланнган
къуршаланыб
къуршаланыудан
къуршаланыуу
къуршалау
къуршалаудан
къуршоугъа
къуршоулаб
къуршоулаи
къуршоуланнган
къуршоуланыб
къуршоуланыуу
къуршоуларгъа
къусады
къусууу
къусханы
къусханыны
къутулады
къутулгъан
къутулуу
къутхаргъанды
къутхарылгъанды
къутхарыр
къутхарыргъа
къутхарыу
къутхарыуну
къутхарыучу
къуу
къууандыргъан
къууанч
къууанчы
къууаныб
къууат
къууатны
къууурулгъан
къууурулгъаннга
къуууруу
къуш
къушну
къуюладыла
къхр
къыбла
къыблагъа
къыблада
къыбыл
къыбыла
къыбылагъа
къыбылада
къыбыладагъы
къыбыладан
къыбыладжагъалы
къыбыланы
къыбыларакъ
къыбыласы
къыбыласына
къыбыласында
къыбылачы
къыбылачыла
къыбылачыланы
къыз
къызады
къызгъаныу
къызла
къызлары
къызны
къызчыкъ
къызы
къызыл
къызылсман
къызылсыман
къызыу
къызыуда
къызыуланнганды
къыи
къыл
къылчыкълы
къылыкъ
къылыу
къылыч
къымылдагъан
къымылдатыучуну
къымылдау
къымылдауланы
къымылдауну
къынгыр
къыпчакъ
къыпчакъла
къырал
къыралда
къыргъан
къыргъыз
къыргъызлыла
къыргъызстан
къыргъызстанда
къыргъызстанны
къыркъ
къырыкъ
къырыкъладан
къырыкъладыла
къырыкъланы
къырыу
къыстаб
къыстагъанды
къыстагъандыла
къыстагъандыланевідомі
къыстаи
къысталады
къысталгъанды
къыстаргъа
къыстау
къыстаугъа
къысх
къысха
къысхартылгъан
къысхартылгъаны
къысхасы
къысхасыча
къысыб
къысыкъ
къысыкълыгъы
къысыкълыдыла
къысымлыгъы
къыт
къытаи
къыш
къышда
къышны
къышха
къышхы
къышхыда
къышы
къышында
къэбэрдеи
кызмат
кызыл
кызытсе
кыи
кылдалтше
кылмыш
кырвемаа
кышкар
кэмпбел
кюеди
кюи
кюкюрт
кюлхара
кюмюш
кюмюшге
кюн
кюнбатыш
кюнбатышда
кюнбатышдагъы
кюнбатышдан
кюнбатышны
кюнбатышха
кюнбатышында
кюнбатышындагъы
кюнбатышыны
кюнде
кюнден
кюндю
кюндюз
кюндюш
кюнле
кюнлеге
кюнледе
кюнледен
кюнлени
кюнлери
кюнлерини
кюнлю
кюнлюк
кюннге
кюнню
кюнорта
кюнортагъа
кюнчгъыш
кюнчыгъыш
кюнчыгъышда
кюнчыгъышдагъы
кюнчыгъышдан
кюнчыгъышны
кюнчыгъышха
кюнчыгъышы
кюнчыгъышына
кюнчыгъышында
кюнчыгъышындагъы
кюню
кюнюдю
кюнюн
кюнюнде
кюнюне
кюрек
кюренли
кюреш
кюрешге
кюрешген
кюрешгенди
кюрешгендиле
кюрешгенлени
кюрешгенлери
кюрешгенме
кюрешде
кюрешеди
кюрешедиле
кюреши
кюрешиб
кюрешигиз
кюрешир
кюреширге
кюреширик
кюрешиу
кюрешиуге
кюрешиулери
кюрешиуню
кюрешмегендиле
кюрешни
кюрешселе
кюрешселеда
кюрешчи
кюри
кюрк
кюрт
кюстрин
кюсю
кюч
кючге
кючден
кючле
кючлеб
кючлеге
кючлеген
кючлегенден
кючлегенди
кючлегендиле
кючлегени
кючлегенинден
кючлегенлерин
кючледе
кючледен
кючлеи
кючлендиреди
кючлендирилген
кючлендирилгенле
кючлендирир
кючлендирирге
кючленеди
кючлени
кючлениую
кючленнген
кючленнгенди
кючленнгендиле
кючлер
кючлерге
кючлери
кючлерин
кючлерини
кючлеу
кючлеуню
кючлеую
кючлю
кючлюден
кючню
кючсюнеди
кючыгъыш
кючю
кючюбюз
кючюда
кючюк
кючюн
кя
кяхта
кількість
көбөи
көп
көптөгөн
л
ла
лаб
лаборатория
лабрадор
лава
лавала
лавин
лавина
лавразия
лаврентии
лагер
лагерге
лагерде
лагерле
лагерлеге
лагерлени
лагерни
лагерь
лагос
лагуна
лагъа
лагъан
лагъанды
лагъандыла
лагъыз
лада
ладино
ладога
лады
ладыла
лазар
лазаревич
лазер
лаи
лаик
лаиклик
лак
лаккадив
лакросс
лам
лама
ламалары
ламла
ламланы
ламлары
ламлы
ламлыды
ламлыдыла
ламны
лампаны
ламы
ламын
лан
ланады
ланадыла
ланд
ландсхут
ландшафт
ланини
ланка
ланкада
ланма
ланмагъан
ланмаи
ланнган
ланнганды
ланнгандыла
ланнганлагъа
ланнганы
ланнсмол
лансароте
ланскнехт
ланч
ланы
ланыб
ланыбды
ланыбдыла
ланыргъа
ланыу
ланыуу
ланыучу
ланыштуу
лаос
лаосну
лап
лаптевлени
лар
ларгсчы
ларгъа
ларри
лары
ларын
ларыны
лас
лат
латвии
латвия
латвияда
латвияны
латеран
латерит
латин
латинистле
латиница
латиницагъа
латиницада
латиницаны
латинским
латинча
латрунну
латыш
лау
лауда
лаудан
лаула
лаулагъа
лаулада
лауладан
лауланы
лаулары
лауну
лауреатлары
лауреаты
лауу
лаучу
лаучуланы
лафаи
лахемаа
лаш
лаште
лг
лге
лгеге
лгеде
лгедеги
лгеден
лгеди
лгеле
лгелеге
лгеледе
лгеледен
лгелени
лгелери
лгелерин
лгелеринде
лгелериндеди
лген
лгенден
лгенди
лгендиле
лгени
лгенинден
лгенле
лгенлени
лгеси
лгесиди
лгесинде
лгесиндеди
лгесине
лгесини
лгъан
лде
лден
лдю
ле
леб
лебедев
лев
леваи
левандовскии
леви
левого
левои
легал
легаспи
леге
легенда
легенди
легендиле
легенды
леги
легиди
легин
легион
легионланы
легионну
легко
леде
леден
леди
ледиле
ледим
ледокол
леи
лек
лекге
лекди
лекле
леклени
леклери
леклерин
леклеринде
леклерине
леклерини
лекни
лексика
лексикалыкъ
лексикасы
лексингтон
лектын
лекции
лекция
лекцияла
лелистад
лелюшенко
лемэрни
лен
лена
ленд
ленеди
лени
ленин
ленинград
ленинградны
ленинградха
ленинни
ленинское
ленмезге
леннген
лентала
ленц
лео
леон
леонард
леонардо
леоне
леонеде
леонени
леонид
леопард
лер
лерге
лери
лерин
леринде
лерине
лерини
лернер
лесото
лестокну
лет
летию
леу
леуге
леуден
леуле
леуледе
леулю
леусюз
леучю
леую
лешген
лешгенди
лешгендиле
лешгени
лешгенле
лешгенлени
лешдиргенди
лешеди
лешедиле
леширге
лешиу
лешиуде
лешиулени
лешиуню
лз
ли
либерал
либерализациясы
либерализм
либерализмни
либералла
либералланы
либерия
либерияда
либерияны
либо
либреттосу
ливан
ливанда
ливерпуль
ливии
ливингстон
ливия
ливиягъа
ливияда
ливияны
ливон
ливонияны
лига
лиганы
лигасы
лигасына
лигасындан
лигасыны
лигатура
лиге
лиги
лигурия
лидери
лиеш
лиз
лиза
лии
лик
ликге
ликде
ликлени
ликни
лиле
лилеге
лилени
лилияны
лима
лимада
лиманы
лимбургскии
лимон
лин
лингвист
лингвистика
лингвистиканы
лингвистлени
линеи
лини
линия
линияланы
линиясында
линкольн
линкольнну
линкор
линкорну
линнеи
линус
лион
лионну
липецк
лирика
лиссабон
лиссабоннга
лист
листок
листопада
литва
литвагъа
литвада
литваны
литвачы
литература
литературада
литератураны
литературная
литературныи
литературы
литке
литовскии
литосфера
литр
литрни
лихтенштеи
лиц
лицеи
лицензии
лицензия
лицензияла
лицензияны
личные
лише
лишь
лияш
лла
лле
ллеге
лледа
ллени
ллери
ллерин
ллерине
ллои
ллю
лме
лмегенди
лмеде
лмесинде
лмесине
лмлыдыла
лну
лны
лню
ло
лов
лович
ловскии
логика
логографиялыкъ
логотип
логотипи
лодзь
лозунгла
лок
локал
локализация
локда
локду
локк
лола
лома
ломбардияны
ломбер
ломоносов
ломоносовну
лон
лонг
лондон
лондонда
лондондагъы
лондондан
лондоннга
лондонну
лонну
лор
лорд
лордкипанидзе
лордланы
лорду
лос
лосось
лотарингияны
лоу
лох
лоялист
лтюрген
лтюргенди
лтюргендиле
лтюреди
лтюредиле
лтюрюб
лтюрюлген
лтюрюлгенди
лтюрюлгендиле
лтюрюледи
лтюрюлюу
лтюрюлюую
лтюрюрге
лтюрюу
лтюрюуледен
лтюрюуню
лтюрюую
лу
лувр
луганск
луи
луизиана
луизианада
луизиананы
луис
лука
лукъ
лукъну
лумпур
луна
луначарскии
лусон
луценко
луции
луцкда
лчелегенди
лчеленеди
лчелеу
лчелеуню
лчелеучю
лчем
лчемге
лчемде
лчеми
лчемин
лчемине
лчемини
лчемле
лчемлени
лчемлери
лчемлерине
лчемли
лчемни
лы
лыгъы
лыгъын
лыгъыны
лыжа
лыкъ
лыкъда
лыкъла
лыкъланы
лыкълары
лыкъларын
лыкъларыны
лыкъны
лыла
лыладыла
лыланы
лылыкъны
ль
львов
львова
львовда
львовну
львовчу
львові
льн
льюис
лэи
лю
люб
любая
любви
люблин
люблю
любое
любои
любом
любую
люге
люгю
люгюз
людвиг
людеи
люди
людовик
людовикге
людовикни
людю
люк
люксембург
люксембургга
люксембургну
люлени
люм
люмге
люмде
люмден
люме
люмле
люмлеге
люмлени
люмлери
люмлеринде
люмлерине
люмлерини
люмлю
люмню
люмсюз
люмьер
люмю
люмюдю
люмюн
люмюнде
люмюнден
люмюне
люмюню
люнеди
люнедиле
люннген
люннгенди
люннгени
люню
люнюб
люнюу
люнюую
люнюуюню
люр
люрге
люсия
лютвиц
лютер
ля
лябатда
лякалізацыи
ляльвер
лівии
м
ма
маас
маастрихт
мабович
мавр
маврикии
мавритания
мавританияда
магадан
магал
магас
магдалена
магеллан
магелланны
магистр
магия
магнии
магнус
магомет
магометни
магрибни
магъадан
магъаданла
магъаданладан
магъаданланы
магъаданны
магъана
магъанагъа
магъанада
магъаналаны
магъаналары
магъаналарын
магъаналы
магъаналыды
магъананы
магъанасы
магъанасыз
магъанасын
магъанасына
магъанасыны
магъанды
магъандыла
магъанлы
мадагаскар
мадагаскарда
мадагаскардан
мадагаскарны
мадам
маданият
маданиятлары
маданиятны
маданияты
мадар
мадарла
мадарланы
мадарлары
мадарларын
мадарларыны
мадары
мадарыгъыз
мадарыды
мадарына
мадеи
маджар
маджаргъа
маджарда
маджардан
маджарлыла
маджарны
маджонг
мадонна
мадрид
мадхья
мазаллы
маздан
мазовия
мазхабы
маи
мак
макао
макаону
макдауэлл
макдоналдс
македон
македония
македонияны
македонски
македонскии
макемаке
макиавелли
маккавеи
маккензи
макклеллан
маккуори
макмаффин
макнаггетс
макс
максвелл
максим
максимал
максимилиан
максимум
максимуму
максура
макъа
макъаланы
макъам
макъамлы
макъамы
макъаны
мал
малави
малага
малаи
малакка
малаялам
мали
малиде
малик
малка
малкъар
малкъарда
малкъарлы
малкъарлыла
малкъарлыланы
малкъарны
малкъарча
маллагъа
мало
малчы
малчылыкъ
малых
мальвалыла
мальвин
мальгашла
мальдив
мальдивле
мальта
мальтаны
мальтии
малярия
мама
мамед
мамлекеттер
мамлекеттик
мамлекеттин
мамукъ
мамчуланы
мамыр
мамырлыкъ
мамырлыкъгъа
мамырлыкъны
ман
манама
мандат
мандатлы
мандатны
мандаты
мандатына
мандела
манден
мандомбе
мане
маневр
мани
мание
манила
манипур
манитоба
манифест
манифести
манифестни
маннергеи
манси
мансии
мансур
мануфактурасыны
манфред
манхэттен
манхэттенни
манча
манчестер
манш
маншда
маншны
манштеи
маньчжур
маньчжурияны
мао
маори
маориле
мапа
мар
мара
мараб
маракаи
марако
маратх
маратхи
маратхлыланы
марау
марафон
марбург
марганец
маргарет
маргарита
маргаританы
марда
мардала
мардаланы
марджа
марджан
марж
мари
мариан
марии
мариин
марина
марино
мария
мариямны
марияны
марк
марка
маркаланы
маркалы
маркасы
маркиз
маркны
марко
маркс
марксизм
марксизмде
марксизмни
марксист
маркус
марлен
марокко
мароккода
мароккону
марс
марсда
марсель
марсельеза
марсны
март
марта
мартда
мартдан
марте
мартин
мартиника
мартинни
мартны
мартха
марты
мартына
мартында
мартындан
мартыны
марухи
марш
маршал
маршалл
маршаллны
маршны
маршрут
маршруту
маршы
мары
маскалы
маскасы
масонлукъ
масс
масса
массагъа
массаж
массала
массаланы
массалары
массаларыны
массалы
массаны
массасы
массасындан
массачусетс
массивди
масср
мастер
мастеров
мастерскои
мастерскоюнда
масштаб
масштаблы
маталлы
маталлыла
математик
математика
математикада
математиканы
математикачы
материал
материалла
материалланы
материалны
материалов
материалы
материк
материкге
материкни
матч
мауляна
маунт
маунтин
маус
махал
махатма
махачкала
махтаб
махтау
махтаулу
махтауну
мачу
машиаха
машина
машинагъа
машинады
машинала
машинаны
машиш
машоклагъа
мая
маяк
мвд
мвт
мге
мгече
мгу
мгц
ме
мегатонналыкъ
мегафон
меген
мегенди
мегендиле
медалы
медаль
медведев
меджисуу
меджлис
медиа
медицина
медицинада
медицинаны
медия
медреседе
меерсон
межгит
межгитде
межгитди
межгити
межгитини
межгитле
межгитлери
межгитни
между
международного
международном
международныи
межлитературные
мез
мезозои
меи
меир
мекка
меклик
мекликни
меконг
мексика
мексикада
мексикан
мексиканы
мекям
мекямгъа
мекямды
мекямла
мекямланы
мекямлары
мекямны
мекямы
мекямын
мекямына
мекямында
мекямыны
мел
меланезии
меланезия
меланезиялыла
меланезияны
меланхолия
мелвилл
мелилья
мельбурн
мемель
мемет
мемориал
мемориалы
мен
менда
менде
менделеев
мендельсонну
менден
менеджер
менее
менелик
менен
мени
меннге
менорка
меню
менюда
меня
мер
меридиан
меридиана
меридианда
меридиандан
меридианлары
меридианны
меридианом
меридианы
меркатор
меркель
меркурии
мермер
мерни
месихни
месопатам
месопатамияда
месопотамия
мессина
мессия
месте
местиа
место
месяц
месяцы
мет
мета
метаболизм
метаболизмни
металл
металла
металланы
металлургии
металлургия
металлы
метеор
метеорит
метеорология
метисле
метка
меткам
метками
метки
меткои
метод
методическии
меток
метохия
метохияда
метр
метрге
метрде
метрден
метрди
метрик
метрли
метрлик
метрни
метро
метрону
метрополитен
метрополитенни
метрополия
метрополияда
метрополиядан
метрополияланы
метрополиялары
метрополияны
метросунда
метросуну
меуччи
мефодии
механизм
механизмле
механизмни
механик
механика
механикалы
мехико
мехикода
мехмед
мехмет
мехтини
мешина
мешинала
мешиналаны
мешинаны
миг
мигель
миграция
миграциясы
миди
мидиягъа
мидуэи
мижирги
мизам
мизамны
мизамсызлыкълагъа
мии
микалыкъ
микдаш
микеланджело
микки
миколаі
микоян
микронезия
микронезиялыла
микронезияны
микроорганизмлени
микрофон
микроформата
микроформаты
мила
милан
милана
миланда
милиция
милициягъа
милицияны
милициясы
милициячыланы
миллет
миллетге
миллетден
миллетди
миллетдиле
миллети
миллетине
миллетини
миллетле
миллетледен
миллетлени
миллетлери
миллетлерин
миллетлерине
миллетлерини
миллетли
миллетлик
миллетни
миллетчи
миллетчиле
миллетчилеге
миллетчилиги
миллетчилик
миллетчиликге
миллетчиликни
миллиард
миллион
миллиондан
миллионла
миллионнга
милнни
милуоки
милуокини
милютин
миля
мимар
мин
минамото
минарасы
минг
мингден
мингдж
мингджыллыгъында
мингджыллыгъыны
мингджыллыкъ
мингджыллыкъгъа
мингджыллыкъда
мингджыллыкъны
минге
минги
мингле
минглик
мингнге
мингни
минданао
миндоро
минерал
минерваны
мини
миниатюр
миниатюрала
минимал
минимум
минимуму
министерства
министерстве
министерствосу
министерствосуну
министр
министра
министрди
министри
министрини
министрле
министрледен
министрлени
министрлери
министрлерини
министрлиги
министрлигине
министрлигини
министрлик
министрликле
министрликлеге
министрликлени
министрни
миниу
миннгенди
минни
миномет
минометдан
минск
минскде
минтака
минусом
минут
минутах
минутда
минутну
минутха
миокардны
мир
мира
мире
мирныи
мирні
мировои
мис
мисалгъа
мисалы
мисе
мисир
мисирге
мисирде
мисирдеги
мисирден
мисирни
мисирчи
мисирчиле
миссионер
миссионерле
миссисипи
миссия
миссияны
миссури
митинг
митингге
митингле
митинглени
митингчиле
митингчилени
миф
мифле
мифология
мифологияда
михаи
михаил
михаилни
михаэль
мичиган
мишель
мияла
мияладан
мкин
мкъу
млада
млечного
млечныи
млн
млрд
млу
мм
мн
мне
мнение
мни
многие
многих
много
мны
мо
мобил
мобилизация
мобилизацияны
могаи
могиле
могилян
моголланы
могут
модели
моделле
моделни
модель
модем
модерн
модулла
модуль
модулю
модулюну
модын
мое
моего
моеи
может
можете
можно
мозаика
мозамбик
мозамбикде
мозамбикни
мои
молд
молдаван
молдаванла
молдаванлыланы
молдавия
молдавияны
молдавскои
молдова
молдованы
молекула
моллюскланы
моллюскну
молодая
молотовну
молукк
молукка
мольер
мольти
мольтке
мом
момбаса
момент
мон
мона
монако
монарх
монархда
монархия
монархияда
монархиядан
монархияды
монархияла
монархияланы
монархиялы
монархиялыкъ
монархияны
монархладан
монархланы
монархны
монархы
монастырны
монастырында
монастырь
монах
монахла
монблан
монгол
монголия
монголияда
монголла
монголланы
монголоид
монетала
монеталаны
монмут
моно
монография
монополия
монополияны
монреаль
монро
монрону
монте
монтре
монтсеррат
монумент
монументи
мор
моравияны
морган
мордовия
море
морис
мориц
мороженои
моррисон
морфология
морх
моря
моск
москва
москвагъа
москвада
москвадагъы
москвадан
москваны
москвачы
москве
москвы
москова
московская
московскии
московского
московском
мостар
мосулну
мотор
моторлу
мохаммед
моцарт
мс
му
муаммар
мугабе
мугабени
музеи
музея
музыка
музыкагъа
музыкалы
музыкалыкъ
музыкантла
музыканы
музыкасы
музыкасыны
мукъладис
мулат
мулатла
мулла
мультипликация
мультфильм
мультфильмни
мумбаи
мун
мунда
муниципал
муниципальным
муниципальных
муну
мур
муравье
муранака
мурат
муратда
муратла
муратланады
муратланы
муратлары
муратларын
муратларына
муратлы
муратлыды
мураты
муратын
мурдарлыкъ
мурдарлыкъгъа
мурманск
муртуз
муса
муслиман
муслиманла
муслиманладыла
муслиманланы
мусоргскии
мусса
муссаны
муссолини
муссолинини
муссон
муссонлуду
муссы
мустафа
мустафаны
мусульман
мусульманла
мут
мутарджим
мутвундо
мутхуз
мухаммад
мухаммат
мухаммед
мухурну
мухуру
мучко
мушка
мфа
мы
мыды
мыи
мылсыз
мылы
мылыды
мылылыгъы
мылылыкъ
мылылыкъны
мында
мындан
мыннга
мыр
мырды
мырдылы
мырдыны
мырыт
мырытла
мырытланы
мырытны
мысны
мыстылыкъ
мычымаи
мьянма
мэдисон
мэи
мэн
мэри
мэриленд
мэрилин
мэрию
мэриясы
мэтью
мюзик
мюзикл
мюзикле
мюзиклле
мюзиклни
мюзиклны
мюи
мюкюл
мюлк
мюлкге
мюлкде
мюлкдю
мюлклени
мюлклерин
мюлклеринден
мюлкню
мюлкю
мюлкюне
мюльхаи
мюнстер
мюнхен
мюнхенде
мюнхендеги
мюр
мюрат
мюратны
мюрге
мюрде
мюрдеги
мюрден
мюрзеу
мюрле
мюрлеге
мюрледе
мюрледен
мюрлени
мюрлеринде
мюрлерини
мюрлю
мюрлюк
мюрлюкге
мюрню
мюрю
мюрюне
мюрюню
мяо
міліція
міні
мітинг
мітингу
мітингувальники
мүлк
мүлккө
н
на
наб
набатеи
наблус
наблусха
набор
набрать
навигацион
навигационная
навигационные
навигационныи
навигация
нагасаки
нагоя
нагъаи
нагъан
нагъанда
нагъанды
нагъандыла
нагъы
нагъыды
над
надежда
надо
надписи
надпись
нажатии
нажать
назад
назаретни
название
названием
названию
названия
названные
назик
назир
назифа
назму
назмуду
назмула
назмулары
назмуларын
назмуларына
назмусу
назмучу
назмучулукъ
назмучуну
назначение
называется
называть
наи
наиболее
накохов
накъ
накъла
накълагъа
накълада
накъланы
накълары
накъларын
налгъан
налгъанды
налеш
налмаз
налмазланы
налмаи
налме
налог
налогла
налоглагъа
налогланы
налогну
налын
нальчик
нальчикде
нам
намагаються
намаз
намети
намиб
намибия
намибияда
намибияны
намыс
намыслы
нанадыла
нанама
нанкин
нанмаи
наннган
нансалада
наныула
нань
написание
написать
напишите
наполеон
наполеоннга
наполеонну
наполеончу
направлении
направленнои
например
напутина
нар
нара
нарат
нарвик
наргъа
нард
нардла
наре
наркис
наркоматы
народ
народа
народная
народного
народность
народные
народныи
народов
народы
нарсана
нарт
нартла
нарты
нартюх
нарутович
нас
наса
населе
население
населения
населенным
насер
насерни
наси
наска
наследие
наставники
настоящее
настрои
настроить
насыб
насыблы
насыбым
натали
нато
натурал
натуралист
наук
наука
наумкин
науру
научная
научно
научныи
нафыслы
нах
нахичевань
находится
нации
национал
национализация
национализациясы
национализм
национализма
национального
национальность
национальныи
национальных
нацист
нацистле
нацистлени
начал
начала
начале
начало
началоправокатори
началось
начался
начальное
начать
начертание
начиная
наш
наша
наше
ная
нг
нга
нге
нда
ндагъы
ндан
нде
ндеги
нделен
нделенине
нден
ндия
не
небоскре
невада
невадо
невачы
невис
негатив
неге
негев
него
негр
негрле
негрлени
негроид
негрос
негызым
неда
недавно
недели
неделю
неди
незалежності
неи
неименованных
нек
неккер
некорректно
некоторые
некоторых
нектар
некях
некяхлары
некяхы
неле
нельзя
нельсон
нем
немец
немецкии
немецким
немецкого
немецле
немецлени
немецли
немецча
немча
немчала
немчаланы
немчалыла
немчалылагъа
немчалыланы
немыч
нен
ненец
нени
ненча
необходимо
необходимое
необходимости
необязательные
необязательныи
непал
непалда
непалны
непосредственно
неправильными
нептун
нептунну
нер
нерва
нерген
нерни
неродик
неру
несворачиваемого
неси
нескольких
несколько
нестандартная
нестор
нет
нефтли
нефтни
нефть
нече
нечетным
нечетных
ни
ниагара
нибудь
нигер
нигерия
нигерияда
нидерл
нидерланд
нидерландла
нидерландлагъа
нидерландлада
нидерландланы
нидерланды
ниже
нижнего
нижнеи
нижненемецкии
нижнии
низам
низамгъа
низамны
низкии
низм
низці
нии
ник
никакие
никарагуа
никарагуаны
никель
никиди
никита
никколо
никобар
никола
николаев
николаевич
николаевское
николаи
никотин
никсон
нил
нилни
нимеи
нин
нинде
нини
ниньо
ниньону
нинья
ниньяны
ниуэ
них
нихонго
ничего
ниш
ништадт
ния
нквд
нко
нле
нлерине
ннге
нни
нному
нны
нныи
нных
но
нобелни
нобель
нов
нова
новая
новгород
новгородда
новгородну
новеи
новелла
новеллы
нови
новиков
новицкии
ново
новое
новои
новороссии
новосибирск
новости
новую
новые
новыи
ногаи
ногъаи
нозои
нои
ноль
ном
номархия
номер
номера
номери
номериди
номерин
номерли
номерни
номинал
номиналлы
номиналы
номинация
норв
норвег
норвегии
норвегия
норвегиягъа
норвегияда
норвегиядан
норвегияны
норвеглиле
норвеглилени
норвегча
норвеж
норвежскии
норд
норма
нормаланы
норманд
норманнла
норматив
нортленд
норфолк
нотр
ноутбук
нохта
нохтады
нохтала
нохталары
нохтаны
нохтасы
нохтасыды
нохтасыны
ноябргъа
ноябрда
ноябрдан
ноябрны
ноябрына
ноябрында
ноябрындан
ноябрыны
ноябрь
ноября
нрици
нс
нсдап
нська
нськии
нські
нт
ну
нубии
нуво
нужно
нужнои
нужны
нужные
нулевым
нумерациялы
нумерацияны
нумерациясыз
нумерованные
нунда
нуно
нунын
нуньес
нурыев
нфурт
нц
нці
нштеи
нъ
ны
ныб
ныбды
ныгъан
ныгъанды
ныгъын
нызы
ныи
ныкъы
нытады
нытыр
нытыу
нытыугъа
нытыуда
ныу
ныугъа
ныуларын
ныуларыны
ныуну
ныуу
ныуун
ныууна
ныуунда
ныууну
нь
нью
ньютон
ньюфаундленд
ньяса
ню
нюзюр
нюзюрге
нюзюрде
нюзюрле
нюзюрлеге
нюзюрлени
нюзюрлери
нюзюрлерин
нюзюрлеринде
нюзюрлерине
нюзюрлерини
нюзюрлю
нюзюрню
нюзюрю
нюзюрюн
нюзюрюнде
нюзюрюне
нюнорск
нюношк
нюношкда
нюношкну
нюр
нюрнберг
ня
няли
нямбал
о
об
обалстны
обама
обергруппенфюрер
оберфюрери
обеспечение
обеспечения
обзор
областда
областдан
областды
области
областла
областлары
областларыны
областны
областха
областы
областына
областыны
область
облисполкомну
обнаружены
обновления
обновленных
обновляется
обозначается
обозначения
обозрение
обоих
оборудование
обработки
обработчиков
образовании
образования
образованиям
образом
обсерватория
обсерваторияда
обсерваторияны
обсерваториясы
обсерваториясында
обсуждение
обсуждении
обсуждения
обтекание
обур
обурених
обурланы
обурлукъ
общая
общеи
общеиндоевропеи
общества
общественно
общество
общие
общии
общиналаны
объе
объект
объекта
объектге
объектди
объекти
объектив
объектле
объектлеге
объектлени
объектлери
объектни
объектов
объявил
объявления
обычно
обь
обязательные
обязательныи
ова
овидии
ога
огаи
оглу
оголосили
ограничения
огъаи
огъары
огъесе
огъуз
огъузла
огъуна
огъунакъ
огъунакъда
огъур
огъурлу
огыл
од
ода
одер
одерни
одесса
одессада
одессаны
одесскии
одеська
оджибве
один
одна
однако
одним
одновременно
одного
однои
одноименныи
одном
одну
ожеро
ожерону
оза
озанфан
озгъан
озгъанды
озеф
озса
озуб
ои
ок
окампо
океан
океанда
океандагъы
океандан
океанды
океания
океаниягъа
океанияда
океанияны
океанла
океанлагъа
океанланы
океаннга
океанны
океанография
оккупацион
оккупация
оккупациягъа
оккупациядан
оккупацияны
оккупациясы
оккупациясыны
оклахома
окленд
окно
около
окончании
округ
округа
округга
округда
округдан
округду
округла
округлада
округну
округов
округу
оксам
оксфорд
октавиан
октябргъа
октябрда
октябрдан
октябрны
октябры
октябрына
октябрында
октябрындан
октябрь
октября
окуу
окъ
окъу
окъуб
окъугъан
окъугъанды
окъугъуз
окъуи
окъулады
окъулгъан
окъулгъаны
окъур
окъургъа
окъутуу
окъутууну
окъутханды
окъуу
окъуугъа
окъууда
окъуудан
окъууларыны
окъууну
окъууун
окъуууна
окъуучулагъа
ол
ола
олбир
олда
олдрин
олду
олеандр
олег
олесунн
олива
оливер
олимпиада
олимпиадада
олимпии
олимпия
олтурады
олтургъан
олтургъанды
олтургъанланы
олтуртулгъанды
олтуртургъа
олтуруб
олтурургъа
олтуруу
олтуруулада
олтурууларын
олтурууу
олтурууунда
ольга
ом
омакъ
оман
омар
омск
он
она
оналты
онам
онас
онбир
онг
онгда
онгдан
онгнга
онгчу
онда
ондан
онджыллыгъында
ондзи
онду
онеки
онекиге
они
онла
онлагъа
онлада
онлаи
онланы
онлары
онларын
онларына
онларында
онларындан
онларыны
онлукъ
онмун
оннга
онну
оно
онов
оноу
оноугъа
оноуда
оноула
оноулагъа
оноуланы
оноулары
оноуларын
оноуларына
оноун
оноуну
оноуу
оноуун
оноууна
оноуунда
оноучу
оноучула
оноучуланы
онсегиз
онтарио
ону
онуду
онун
онуна
онунда
онуну
онунчу
онусун
онюч
оон
ооо
оп
опек
опера
операда
операны
операсы
операсында
операсыны
оператив
оператору
операции
операцион
операция
операцияда
операцияла
операциялагъа
операциялада
операцияланы
операциялары
операцияларын
операцияны
операциясы
операциясын
оперетта
описание
описания
опозиція
оппозиция
оппозициягъа
оппозицияны
определе
определено
определены
оптика
опубликовано
опухоль
опции
опциональнои
опция
ор
ора
ораза
ораи
орам
орамгъа
орамда
орамла
орамлары
орамларында
орамны
орамы
орамында
оранж
оранчы
орат
орб
орбита
орбитагъа
орбитада
орбитал
орбиталарыны
орбитасына
орган
органды
организаторов
организации
организация
организациягъа
организацияда
организациядан
организацияды
организацияла
организациялада
организацияланы
организацияны
организациясы
организациясын
организациясына
организациясыны
организм
организмле
организмлени
организмни
организовать
органика
органла
органлада
органладан
органланы
органлары
органларын
органларына
органларыны
органнга
органны
органы
органыды
органына
орда
ордада
орден
ордени
орденин
орденини
орденни
оре
орегон
орегонну
орельянаны
оригами
оригинал
оригинального
ориноко
орисса
оритомо
орк
орка
оркда
оркдагъы
оркну
орлеан
орлеанны
орловская
орнала
орналады
орналадыла
орналгъан
орналгъанды
орналгъандыла
орналгъанларына
орналгъаны
орналыб
орналыбды
орналыбдыла
орналыу
орну
орнун
орнуна
орнунда
орнундады
орнундадыла
орнундан
орны
орта
ортабаева
ортабаи
ортагъа
ортада
ортаджер
ортаджыллыкъ
ортадунаи
ортакъ
орталама
орталарында
орталыкъ
ортасы
ортасына
ортасында
ортасындан
ортографическая
ортодокс
ортодоксла
ортосунда
орту
орузлама
орузламагъа
орузламада
орузламаны
орун
орунбасары
орунда
орундады
орунла
орунлагъа
орунлары
орунларын
орунларына
оруннга
орунну
оруну
орунун
орунундан
орус
орусланы
оруслу
оруслула
оруслулагъа
оруслуладан
оруслуланы
орусча
орфография
орфографияны
орхидея
орхон
ос
осака
осал
осемити
осетии
осетинскии
осетия
осият
осиятында
оскар
осло
ослода
осмакълаи
осмакълау
осмакълаучу
осман
османлы
османны
османья
основе
основная
основного
основные
основным
основу
основы
особенности
ост
оставался
оставить
оставкасын
остальных
остзеи
островскии
осуи
осцилляцияны
от
отв
ответственныи
отд
отда
отделение
отделом
отдельныи
отдельным
отдельными
отдельных
отдых
отель
отечество
отключена
открывается
открыт
открыть
отладочная
отлаи
отланы
отлукъ
относительно
отношении
отношения
отну
ото
отображаемыи
отображается
отображалось
отображаться
отображаются
отображе
отображен
отображена
отображение
отображения
отображено
отоу
отро
отрошто
отряд
отрядлары
отряды
отставка
отставкагъа
отставкасы
отставкасын
отсутсвует
отсутствие
отсутствует
отта
отто
оту
отуз
отузджыллыкъ
отуну
отче
офис
офиси
офиц
офицерле
официал
официально
официальныи
оформление
оформления
оформленного
оффе
оффени
оханнесбургда
оханнесбургну
охеда
охотск
оценка
оцепления
очень
очерк
очерки
очеркле
ошибка
оюлгъан
оюлгъанды
оюлгъанлары
оюлуб
оюм
оюмгъа
оюмда
оюмдадыла
оюмду
оюмла
оюмлагъа
оюмланы
оюмлары
оюмларына
оюмлу
оюмну
оюму
оюмун
оюмуна
оюн
оюнла
оюнланы
оюннга
оюнну
оюулары
оядыла
ояргъа
оҥаи
п
па
пабло
павел
павелич
павелни
павильон
павильону
павлович
паго
паи
пак
пакетлени
пакистан
пакистанда
пакистаннга
пакистанны
пакт
пактны
пактха
пакты
пактына
пала
палаван
паланы
палата
палатагъа
палатада
палатадан
палаталы
палатаны
палатасы
палатасына
палатасында
палатасыны
палау
палах
пале
палермону
палестин
палестина
палестинагъа
палестинада
палестинадада
палестинаны
паллада
палыкъ
пальма
пальмала
пальманы
памфили
памяти
памятники
память
пан
панаи
панама
панаманы
пандемия
панель
паника
панланы
паннон
панов
панорама
панорамасы
пантеон
паны
папа
папагъа
папаны
папуа
папуас
папуасла
парагваи
парад
парады
параллели
параллель
параметр
параметра
параметрами
параметрах
параметре
параметрле
параметрлени
параметрлери
параметрни
параметров
параметром
параметру
параметры
парана
параналь
параскеваны
парашют
парашютизм
парашютле
пари
париж
парижге
парижде
париждеги
парижден
париже
парижни
парижчиле
парк
паркда
паркдан
паркла
парклагъа
паркны
паркында
парламент
парламентге
парламентде
парламентди
парламенти
парламентиди
парламентини
парламентле
парламентлери
парламентлерини
парламентли
парламентни
паровоз
паролугъузну
пароль
паром
пароход
пароходну
парсера
партизан
партизанла
партии
партия
партиягъа
партиядан
партияла
партиялада
партияланы
партиялары
партиялы
партияны
партиясы
партиясыз
партиясындан
партиясыны
партне
парфенон
пас
паскаль
паспорт
пассажир
пассажири
пассажирле
пассат
пассатла
пассатланы
пассаты
пассив
пастер
пастеризация
пастеризацияны
пасха
пасханы
патагон
пате
патент
патриарх
патриархы
патрик
патрикни
патриот
патриции
патруль
патчах
патчахла
патчахланы
патчахларыны
патчахлыгъы
патчахлыкъ
патчахлыкъгъа
патчахлыкъда
патчахлыкъны
патчахны
патчахы
паулу
пауль
паульскирхени
пахау
пацифист
паша
пашадарым
пашам
пашаны
пе
певец
певцы
педагогика
педро
педру
пеи
пекин
пекинде
пекиннге
пеликан
пенджабны
пенни
пенов
пенсильвания
пенсионарии
пенсли
пень
пер
первая
первого
первои
первомаи
первые
первыи
первым
первых
перевести
перевод
перевода
переводить
переводом
переводчик
переводчика
переворот
перед
передае
передан
передают
передающии
передумови
переи
переименовывалась
перемежающегося
перенесена
переопределить
переписи
перепись
пересекает
перестрои
переход
перикл
период
пермскии
пермского
пермь
пермяк
перни
перре
перс
персия
персиядагъы
персияны
персонажланы
персонал
персоналии
персоналны
персонификация
перу
перуан
перуда
перуну
песни
песня
петанк
петен
петер
петербург
петербурга
петербургда
петербургдагъы
петербургну
петербургского
петербургышто
петергоф
петиция
петициягъа
петицияла
петр
петров
петрович
петровна
петроград
петроградда
петропавловск
пехота
пехотаны
печали
печати
печенегле
печора
пи
пианист
пии
пик
пикардияда
пикассо
пикенс
пикет
пики
пикселях
пикфорд
пикчу
пил
пилле
пиллени
пилни
пилот
пилотаж
пилотла
пилоту
пилсудскии
пилтдаун
пинбол
пинг
пингвин
пинсон
пиньинь
пионер
пирамида
пирамидада
пиренеи
пири
писарро
писателеи
писатели
писатель
письма
письменность
письменных
письмо
письмода
письмола
питер
питерсберг
пиып
пк
пке
пкеле
пкс
плагины
плазма
плакат
плакатла
плакатланы
пламондон
план
планда
планета
планетагъа
планетада
планетала
планеталаны
планеталары
планеталарыны
планетаны
планетарии
планк
планктонну
планлада
планланнган
планланнганды
планланы
планланыуну
планлары
планларын
планларына
планнга
планны
плантацияла
планы
планын
планында
пластика
плата
платина
плато
платон
платформа
платформагъа
платформада
платформады
платформаларына
плафон
плацдарм
плацдармгъа
плацдармны
плебеи
плебисцит
плебисцитде
плебисцитни
плеи
плессиде
плеу
плимут
плита
плитагъа
плитадан
плиталаны
площі
плутон
плюрализм
пляж
пляжда
пляжла
пневмония
по
победа
победы
побили
побилися
побитих
повелительная
повести
повестле
повесть
поводу
под
поддерживает
поддержке
подобные
подольск
подписи
подпись
подразумевается
подробнее
подробности
подсказка
подсмотреть
подставляться
подстраницах
подстраницы
подходы
поезд
поезди
поездни
пожалуи
позволяет
позволяют
позже
позитив
позицион
позиционные
позицияланы
позициялары
позицияларына
позицияны
позициясы
позкарт
позкарта
пои
поиск
поиска
поисковои
поисковых
пока
показ
показан
показано
показаны
показатель
показывает
показываются
покер
покун
пол
поле
поли
полинезия
полинезиялыла
полинезиялыланы
полинезияны
полиомиелит
политбюро
политбюрону
политехника
политиздат
политик
политика
политикагъа
политикада
политикалыкъ
политиканы
политикасы
политикасын
политикасына
политикасында
политикасыны
политикачы
политикачыла
политикачыладан
политикле
политическая
политические
политических
политическои
политология
полицеи
полиции
полиция
полициягъа
полицияды
полицияла
полицияны
полициясы
полициясыны
полициячыла
полкну
полковник
полларда
полное
полномочияланы
полномочияларыны
полностью
полную
полныи
поло
половец
половине
половины
положение
положения
полу
получение
получения
получившиеся
получить
полушарии
полушария
полциягъа
поль
пользователеи
пользователи
пользователь
пользователя
пользоваться
польскии
польского
польша
польшагъа
польшада
польшаны
полюс
полюса
полюсда
полюсдан
полюслукъ
полюсну
полюсха
поля
поляк
поляки
полякла
полякладан
полякланы
полякча
поляна
поляр
померанияны
помещать
помните
помочь
помощи
помощью
понад
понг
понятны
понять
поп
попов
популяр
популярныи
породала
породалагъа
породаладан
порошенко
порт
портал
порталы
портдан
портла
портладан
портланы
портлары
портну
портрет
портрети
портретинде
портсмут
порту
португал
португалия
португалиягъа
португалияда
португалияны
португаллы
португаллыла
португаллылагъа
португаллыланы
портунда
портха
порты
порядке
посадов
посе
посеи
поселение
поселении
посещении
поскольку
после
последнего
последующие
посмотреть
посна
пособие
посол
посолу
посполита
посполитаны
посполитая
посполитаяны
пост
поставить
постоянного
постсовет
посту
постундан
поте
потенциал
потери
потну
потомки
потоси
потребуется
потсдам
потсдамдады
потто
похожеи
почеш
почта
почти
пошкудо
поэзии
поэзия
поэзияда
поэзиялыкъ
поэзияны
поэма
поэмала
поэмаланы
поэмы
поэт
поэтди
поэти
поэтика
поэтле
поэтлени
поэтни
поэтому
появились
появится
появления
появляется
появляться
пояс
пояснение
ппе
ппеле
ппеси
ппесиди
ппесине
пра
права
правда
правее
правилам
правило
правительство
правительствогъа
правительствода
правительстводан
правительствола
правительстволаны
правительстволары
правительстволарына
правительстволарыны
правительствону
правительствосу
правительствосуду
правительствосун
правительствосуна
правительствосуну
правительстов
править
правка
право
правовые
правого
правои
правому
праворуч
православ
православиеди
православии
прага
прагада
праганы
праги
прадеш
прадхо
практика
практикада
практикалыкъ
практиканын
практикасы
практикасын
практикасына
превратилась
преградна
предгорное
предлагает
предназначен
преднистровье
предприятие
предприятиеле
предприятияла
председатели
председатель
представитель
представление
представляет
предупреждает
предупреждение
предыдущего
презентациясы
президент
президентге
президентди
президенти
президентине
президентини
президентлери
президентни
президентчи
президиуму
президиумуну
преи
преимущественно
прекращает
премия
премиягъа
премияла
премияны
премиясы
премиясын
премиясыны
премьер
премьерасы
преобразование
пресгурвик
пресли
пресс
пресса
прессада
преферанс
префикс
при
прибалтика
прибалтиканы
прибалтики
приватизация
приглашаю
пригодится
приднестровье
приднестровьеде
призмала
прии
приматла
примененными
применены
применяется
применяться
пример
примера
примеру
примеры
примечание
примечания
приморск
приміщення
принимает
принимал
принсипи
принтер
принц
принцесса
принцип
принципге
принципи
принципини
принципле
принциплени
принциплери
принциплерин
принциплерине
принципни
принципы
принцни
принч
принятия
принять
приоритет
приоритетлерине
приштина
про
пробел
пробелов
пробелы
проблема
проблемала
проблемаланы
проблемалары
проблемаларын
проблемаларыны
проблеманы
проблематика
проблеми
проблемы
прованс
проверка
проверьте
провинция
провинциягъа
провинцияда
провинцияла
провинциялада
провинцияладан
провинцияланы
провинциялары
провинцияны
провинциясы
провинциясыды
провинциясында
провинциясыны
провокация
провокациялагъа
провокациясы
прогноз
прогнозу
программа
программала
программалагъа
программаланы
программаны
программасы
программированиени
прогресс
прогрессив
продвинутым
продуктла
продукции
продукция
продукцияны
продюсер
проект
проекта
проектге
проектде
проектден
проекте
проекти
проектин
проектине
проектини
проектле
проектлеге
проектледе
проектлени
проектлери
проектлеринде
проектлерини
проектни
проектов
проекты
проекции
проекция
проза
прозагъа
прозада
прозаик
прои
произведении
произведения
производить
произвольные
произои
происходит
прокатха
прокламация
прокламациясы
пролетар
пролетариатны
промежуточном
промилле
промышленностну
промышленносту
промышленностха
промышленность
пропаганда
пропаганданы
пропагандасын
прорыв
просмотр
просмотре
просмотреть
просто
простоты
протекторат
протекторатда
протекторатла
протекторатха
протектораты
протекторатын
протекторатында
протест
протестант
протестантла
протестантлыкъ
протестге
протестле
протестлени
протестлерин
протестни
протестчилеге
протестчилени
протестчини
проти
против
противники
протистле
протокол
протоколгъа
протоколу
протосинаи
протоцивлизация
проф
профессионал
профессионально
профессиональное
профессор
профессорланы
профессорлары
профессору
профилге
профсоюз
профсоюзла
профсоюзланы
прохладна
проходит
процедура
процедураны
процент
процентах
процентле
процентлери
процесс
процесса
процессге
процессде
процессди
процесси
процессиди
процессинде
процессле
процесслени
процессни
процессов
процессор
проще
прус
прусс
пруссия
пруссиягъа
пруссиядан
пруссияны
прут
прямая
прямо
прямои
псалъэ
психиканы
психолог
психология
психологиялыкъ
псков
псыж
птаун
птаунда
птолемеи
пу
пуасси
пуаш
публикагъа
публикации
публикацию
публикация
публицист
публицистика
пул
пулеме
пулеметла
пулитцер
пункт
пунктам
пунктла
пунктов
пунтленд
пураш
пустое
пустои
пустым
путеводителе
путеводитель
пути
путин
путч
путчну
путь
пухов
пуччинини
пушкин
пушкинни
пушту
пуэбла
пуэрто
пхи
пьер
пьеса
пьесала
пьесаларыны
пьесасы
пьесасын
пьесасыны
пюр
пюрге
пюрде
пюрден
пюрле
пюрлени
пюрню
пюрю
пюрюню
пянь
пярну
пятигорск
пятница
під
р
ра
рабии
рабин
работ
работает
работать
работают
работе
работу
работы
рабочии
раг
рагъы
рагъын
рагъыны
рада
раданы
радасында
радасыны
радиация
радиацияны
радикал
радио
радиоактив
радиобаи
радиону
радиостанция
радиостанцияны
радиостанциясы
радиусу
радіо
раза
развитие
развитии
развития
раздел
раздела
разделитель
разделы
различных
размер
размера
размещение
размещения
разных
разработчикам
разработчиков
разы
разылыгъы
разылыгъын
разылыкъ
разылыкълары
разыма
раи
ракета
ракетала
ракетаны
раковинасы
ракъ
ракъдан
ракъла
ракъландырыу
ракъланы
ракълары
ракъны
рам
рамалланы
рамгъа
рамда
рамла
рамлада
рамланады
рамланы
рамлау
рамны
рамс
рамукова
рамукъланы
рамыды
ран
рангер
ранддан
рандстад
ранее
рапалло
раппало
рас
раса
расагъа
расаланы
расаларыны
расалы
расаны
расизм
расист
раскрытом
располагается
располагающаяся
распоряжению
рассел
расселни
рассказы
расстановку
растдзинад
растянутом
расулзадени
расхождениям
расче
расширении
расширения
расширенные
расширить
расширяется
рат
ратификация
ратуша
ратушасы
рауль
раутда
рафах
рафаэль
рахат
рахатлыкъны
рахатсыз
рахим
рахман
рахматлы
рахматы
рача
раш
рге
рген
ргенди
ргендиле
ргенлери
ргенмеда
рго
ргюз
ргюзген
ргюзгенди
ргюзгендиле
ргюзеди
ргюзедиле
ргюзмеи
ргюзтген
ргюзтгенди
ргюзтеди
ргюзтюучю
ргюзюб
ргюзюлген
ргюзюлгенди
ргюзюлгендиле
ргюзюледи
ргюзюр
ргюзюрге
ргюзюу
ргюзюуде
ргюзюучю
рдюм
ре
реабилитация
реакция
реализации
реальность
революции
революцион
революционного
революция
революциягъа
революциядан
революцияла
революциялагъа
революцияланы
революцияны
революциясы
революциячыланы
регби
регги
регенсбург
регент
регион
регионал
регионда
регионду
регионла
регионлагъа
регионлада
регионланы
регионлары
регионларына
регионларында
регионларыны
регионнга
регионну
региону
регионуду
регионунда
регионы
регистрация
регистрацияны
регуляр
регуляция
ред
редактирование
редактор
редакторам
редакторла
редакторлау
редакторлукъ
редакторов
редактору
реде
реди
редиле
редких
реж
режим
режимге
режиме
режими
режимин
режимини
режимле
режимлени
режимлери
режимни
режиссе
режиссеру
резерв
резервлени
резервлерин
резидентни
резиденция
резиденциясы
резиденциясыды
резин
резолюция
резолюцияны
результат
результатом
результаты
резьян
реи
реки
реклама
рекламасы
рекомендация
рекомендуется
реконкиста
реконструкции
реконструкция
реконструкциягъа
реконструкциядан
реконструкцияны
реконструкциясы
реконструкциясыны
рекреацион
рекреация
ректор
ректорну
ректору
ректорун
ректоруну
реле
релеге
релиз
релизи
реликт
рельеф
рельефге
рельефи
рельефинде
рельефине
рельефини
рельефли
рельефни
рем
рембрандт
рембрандтны
реме
ремонт
рен
рене
рени
рента
рентген
репарацияла
репарацияланы
репин
репрессияла
репрессиялагъа
рептилияла
рептилияланы
република
рес
ресде
ресе
реси
ресинде
ресиндеги
респиратор
респу
республик
республика
республикагъа
республикада
республикадан
республикады
республикала
республикалагъа
республикалада
республикаладыла
республикаланы
республикалары
республикаларыны
республикан
республиканы
республикасы
республикасында
республикасыны
республикачы
республике
республики
республикои
республикын
реставрация
реставрацияны
ресторан
ресторанла
ресторанланы
ресурс
ресурсла
ресурсланы
ресурсы
референдум
референдумгъа
референдумда
референдумну
реформа
реформадан
реформала
реформалагъа
реформаладан
реформаланы
реформаларыны
реформаны
реформаторла
реформатскии
реформация
реформизм
речи
речь
решениями
решефни
реюньон
ржев
ри
риббентропну
рига
ригада
риджуэи
риека
рика
риккардо
рико
риксмол
рим
римге
римде
римдеги
римден
римли
римлиле
римлилени
римни
римчиле
рин
ринг
рингни
рини
рио
рис
риси
риска
ритм
ритмика
риттер
ритуал
риф
рифле
рифма
рифмалагъа
рифни
рифт
рифтден
рихард
ричард
ричмонд
ричмондха
ришелье
рк
ркню
ркп
ркс
рл
рла
рланнган
рлары
рлинг
рло
рлукъ
рлюксе
рмегендиле
рмеи
рмюч
рмючде
рмючю
рну
рные
ро
роберт
робеспьер
роби
робинзон
робуста
ровно
род
рода
родезия
родезияда
родезияны
родник
родного
роднои
родном
родным
родо
родос
родословного
родригес
рождения
рождество
рождествону
роже
роза
розгін
розенталь
розігнав
рои
рок
рокбрен
рокоссовскии
року
ролда
роллада
ролланы
роллары
ролну
ролу
ролун
роль
ролю
ролюн
ром
роман
романда
романиотла
романла
романнга
романны
романча
романы
романыны
ромео
рон
рона
рональд
ронго
роншан
роскилле
роспись
россеи
россии
россию
россия
россиягъа
россияда
россиядан
россиялы
россияны
россияныкъын
россиячы
россну
росспэн
ростов
ростова
ростовну
ростовскои
ростовха
росіи
роттердам
роттердамны
роуз
рош
роэ
рского
рсфср
рт
ртгюл
ртгюлню
ртден
ртджыллыкъ
ртен
ртенден
ртенни
ртюнчю
ру
руаль
руанда
руанданы
рубль
рубля
рубрикагъа
рубриканы
рубрики
рубрук
ругъу
ругъун
руденко
рудольф
рузвельт
руис
руководство
руководством
рукъ
рукъгъа
рукълу
рукъну
рукъсузла
рум
румын
румынии
румыния
румыниягъа
румынияда
румынияны
румынлыла
румынскии
румынягъа
рунала
руниверс
рупертни
рур
рурну
рус
русда
русин
русская
русские
русскии
русско
русского
русское
русскои
русском
русскоязычных
русскую
руссо
рустам
рутмастер
рух
рф
рширден
ръеҥ
ры
рыаякъла
рыбница
рыды
рыдыла
рыза
рыкам
рыкча
рылады
рыладыла
рылгъан
рылгъанды
рылгъандыла
рылыб
рылыбды
рылыбдыла
рылыргъа
рылыуланы
рылыуну
рылыуу
рым
рымкан
рымкангъа
рымканда
рымкандагъы
рымкандан
рымканды
рымканла
рымканлагъа
рымканлада
рымканладан
рымканланы
рымканлары
рымканларында
рымканларыны
рымканнга
рымканны
рымканчыкъла
рымканы
рымканын
рымканына
рымканында
рыцарланы
рыцарь
рэи
рэндзю
рю
рюб
рюкю
рюлгенди
рюмю
рюнеди
рюнедиле
рюнмеи
рюннген
рюннгендиле
рюннюгю
рюннюкдю
рюню
рюнюм
рюнюмю
рюнюрге
рюнюрча
рюнюу
рюнюулери
рюнюую
рюрге
рюу
рюучю
рюшюуле
рюшюулеге
рюшюуледе
рюшюулени
ряд
рядом
ряду
рязань
рөстәм
с
са
сааремаа
саарланд
саарны
саб
саба
сабан
сабии
сабланы
саботаж
сава
савои
саву
сагат
сагъ
сагъат
сагъатда
сагъатдан
сагъатлыкъ
сагъатны
сагъатха
сагъатында
сагъынылады
сагъыныу
сагъыш
сагъышла
сагъышларында
сагъышха
сагъышын
сад
сада
садакъ
садакъа
садовничии
саз
саи
саксон
саксония
саксонияны
сакъла
сакълаб
сакълагъан
сакълагъанды
сакълагъандыла
сакълаи
сакъламагъан
сакъланады
сакъланадыла
сакъланмагъан
сакъланмагъанды
сакъланмаи
сакъланнга
сакъланнган
сакъланнганды
сакъланнгандыла
сакълар
сакъларгъа
сакълат
сакълау
сакълаугъа
сакълауда
сакълауду
сакълауну
сакълауул
сакълауулну
сакълаучу
сал
сала
салады
саладыла
салам
салатда
салгъан
салгъанды
салгъандыла
салгъанлагъа
салгъанланы
салгъанма
салгъаны
салдым
салим
салих
салмагъанды
сало
салоник
салониклени
салса
салсанг
салуунун
салуучу
салыб
салынады
салынадыла
салынган
салынмаи
салыннган
салыннганды
салыннгандыла
салыннганы
салынса
салыныб
салыныбды
салыныргъа
салыныу
салыныугъа
салыныуу
салыр
салыргъа
салыу
салыугъа
салыулары
салыуну
салыуню
салыуу
салыучу
сальвадор
сальвадорда
салют
сам
саман
самар
самара
саммитге
саммитде
саммити
саммитинде
саммитле
саммитни
само
самоа
самоаны
самого
самое
самоле
самолет
самолетдан
самолетла
самолетланы
самолетлары
самолетну
самостоятельно
сампи
самтер
самтерге
сан
санаб
санагъадыла
санагъан
санагъанды
санагъандыла
санагъанланы
санагъанына
санагъат
санагъатда
санагъатла
санагъатлагъа
санагъатланы
санагъатлары
санагъатчыла
санагъатыны
санаи
саналады
саналадыла
саналгъан
саналгъанды
саналгъандыла
саналлыкъды
саналмагъан
саналмаи
саналса
саналыргъа
санамаи
санамасакъ
санаргъа
санаргъада
санат
санатда
санатла
санатланы
санатны
санатории
санау
санаугъа
санауну
санаууна
санаучу
санда
сандан
сандвич
сандуго
санитар
санкт
санкцияла
санкцияланы
санла
санлагъа
санланы
санлары
санларын
санлы
саннга
санны
санскрит
сансыз
санта
сантиметр
сантиметрге
санто
сантьяго
сантьягону
санцияла
саны
саныда
санын
санына
санында
санындан
саныны
сапариш
сапариши
сапаришле
саптагъаи
сара
саравак
сарагоса
сараевода
саратов
сардин
саркгъан
саркъа
саркъады
саркъадыла
саркъгъан
саркъыб
саркъыу
саркъыулары
саркъыуу
сармат
сары
сарыубекле
сас
саскачеван
сатаргъа
сатранч
сату
сатум
сатурн
сатурнну
сатхан
сатханды
сатыб
сатылады
сатылгъан
сатылгъанды
сатылыб
сатыр
сатыу
сатыуда
сатыуну
сатыучу
сау
саугъа
саугъагъа
саугъаланнганды
саугъалары
саугъаны
саугъасы
сауд
сауда
саудада
саудаланы
сауданы
саудюгер
саудюгерле
саудюгерлени
саудюгерлик
саудюгерликде
саудюгерликни
саудюгерчи
саудюгерчилик
саулаи
саулугъуна
саулукъ
саулукъларын
саулукълу
саулукъну
саутгемптон
саутланы
саутлу
сауут
сауутду
сауутла
сауутланнган
сауутланы
сауутланыу
сауутлары
сауутларын
сауутлу
сауутну
сауутсуз
сауутсузланыу
саууту
сауутха
саф
сафларында
сафларыны
саха
сахалин
сахара
сахарада
сахарадан
сахараны
сахаров
сахна
сахнагъа
сахнада
сахнадан
сахнасы
сацума
сб
сберг
сбергле
сбол
сборник
сборников
сброшен
сбург
свазиленд
сванети
свастикалы
свеаборг
сведении
свердловск
сверху
свет
света
светит
свобода
свободадан
свободаны
свободное
свое
своем
свои
свою
своі
свуп
связанные
связи
связь
свіи
світу
сген
сгенден
сгенди
сгени
сгенлеи
сгъ
сдвигом
сдвоенные
сделано
сдр
сдюрген
сдюргенди
сдюргендиле
сдюреди
сдюрюлген
сдюрюр
сдюрюрге
сдюрюу
се
себастьян
себе
себеб
себебден
себеби
себебли
себеблиди
себеблик
себеден
себели
себеп
себепли
себя
севастополну
севастополь
севера
северин
северная
северного
северном
северныи
северо
севр
сегиз
сегодня
сегрегация
сегрегацияны
седи
седиле
сез
сезим
сезимли
сезню
сезон
сеи
сек
сека
секириу
секретариат
секретариатны
секретариатыны
секретарият
секретариятны
секретарлары
секретары
секретарыны
секретарь
секторгъа
секторда
секторлагъа
секторну
секторуна
секторунда
секторышто
секунд
секунда
секундах
секундну
секундха
секция
селевкидлеге
селеке
селена
селения
селим
селимие
селитра
село
сельва
сельваланы
сельвасы
сельских
сельское
семантика
семе
семеи
семен
семенланы
семенлени
семенов
семерик
семиз
семизлик
семиртгичле
семит
семитоид
семын
семье
семья
сен
сена
сенат
сенатны
сенатор
сенату
сенаты
сенг
сенде
сенден
сенегал
сенегалда
сени
сеннге
сенокос
сенсор
сент
сентбярда
сентябргъа
сентябрда
сентябрдан
сентябрны
сентябры
сентябрына
сентябрында
сентябрындан
сентябрь
сентябрьда
сентября
сепаратизм
сепаратистлеге
септемврии
сер
серам
серб
сербия
сербиягъа
сербияда
сербияны
серблиле
серблиледен
серблилени
сербска
сербскии
сербча
сервантес
серверлери
сервис
серге
сергеевич
сергеи
сердце
сери
серия
сериядан
серияла
сериясы
сермешген
сермешгенди
сермешгендиле
сермешедиле
сермеширге
сермешиу
сермешиуге
сермешиуде
сермешиуден
сермешиудю
сермешиуле
сермешиулеге
сермешиуледе
сермешиуледен
сермешиулени
сермешиулери
сермешиулеринден
сермешиуню
сермешиую
серни
серро
сессиясы
сессиясында
сет
сети
сеть
сеул
сеута
сефардла
сецессионну
сецессия
сецессиягъа
сецессияла
си
сиам
сибир
сибирге
сибирде
сибирни
сибирь
сиге
сигнал
сигналны
сиднеи
сидр
сиз
сизге
сизни
сии
сикстин
сикх
сикхизм
сикхлени
силез
силезияны
силенд
силсиласы
силсиля
силсилясы
силы
сильвестр
символ
символла
символларындан
символлукъ
символну
символов
символу
символуду
символы
симон
симпсон
симферополь
симфония
син
сина
синаи
синан
синанны
сингапур
сингапурда
сингапурну
синдхи
синематограф
синоними
синтаксис
синтез
синтетика
синьхаи
синьцзян
сионизмни
сионист
сионистле
сипаи
сирелгенди
сиреледи
сирии
сириус
сирия
сирияда
сирияны
сиро
сискеи
система
системагъа
системада
системадан
системады
системала
системалада
системаладан
системаланы
системалары
системаларын
системаларыны
системалы
системалыкъ
системаны
системасы
системасыды
системасын
системасына
системасында
системасындан
системасыны
систематика
системе
систему
системы
системын
сите
сити
ситуации
ситуация
ситуацияны
сицилии
сицилияда
сиш
ск
ска
скаи
скандинав
скандинавия
скандинавияда
скат
ская
сквер
скде
скелет
ские
скии
скиф
скифле
ских
склад
скобкалагъа
скобкалада
скобках
ского
скодзенски
ское
скои
ском
скопировать
скоропадскии
скорости
скорость
ското
скотт
скрипач
скрипка
скриптов
скрыт
скрыто
скрытом
скрыть
скульптор
скульптура
славян
славянла
славянланы
сле
слева
следует
следующеи
следующие
следующии
следующим
слима
слов
слова
словак
словакия
словакияда
словакияны
словакланы
словакча
словарь
словен
словения
словенияда
словенияны
словенлилени
словенскии
словенча
слово
словян
словянла
служба
службы
служебныи
случае
случаев
случаях
см
смаи
смерти
сметона
смика
смикасы
смит
смитни
смо
смоленск
смоленскни
снг
сни
снизу
сносканы
снукер
со
соавторстве
собескии
собои
собор
соборну
собору
соборуну
собрание
события
совершенствования
совет
совета
совети
советиди
советине
советини
советле
советлени
советлерини
советни
советская
советскии
советских
советского
советскои
советы
совнаркомну
современник
современности
современность
современныи
согласно
согъум
согъумну
содержание
содержания
содержимого
содержимое
содержит
содержится
созаргъа
созарукъланы
создавать
создае
создает
создаи
создал
создали
создан
создана
создание
создании
создания
созданы
создать
созулгъан
созулгъандыла
сои
соискатель
соколов
сокотра
сократ
сокращенная
сокъур
сокъурлукъ
сол
солгъа
солда
солдан
солджагъа
солженицын
солнце
соломон
соломонну
солтан
солтанны
солтаны
солуу
солуугъа
солуулула
солчу
солчула
солчуланы
солідарність
сом
сомали
сомалиге
сомалиленд
сомалилендни
сомалини
сомну
сомылым
сон
сонет
сонетле
сонетлери
сонетлеридиле
сонетлерини
сонеты
сообщении
сообщения
сообщества
сообщество
соответственно
соответствии
соответствует
соответствующего
соответствующие
соответствующих
сопротивления
сора
сорада
сораи
соргъанны
сорок
сорт
сортла
соруу
соруугъа
сорууда
соруула
соруулагъа
соруулада
сорууладан
сорууланы
соруулары
сорууларына
сорууну
сорууу
сослан
сост
состав
составе
составитель
составленные
состояние
состоянием
состоянии
состояния
сот
сото
соттук
соттун
соту
софия
софиятаун
софокл
сохан
сохранение
сохранить
сохранности
сохталаны
сохталары
сохтасы
социал
социализм
социализмге
социализмни
социалист
социалистическая
социалистическии
социалистических
социалистле
социалистлени
социальная
социально
социология
сочи
сочинении
сочинения
союз
союза
союзгъа
союзда
союзлу
союзниклени
союзниклери
союзну
союзом
союзуну
соя
спалила
спасибо
спб
спбгу
спбкъу
спектакль
спектаклях
спектр
спектрине
спектрли
специал
специализированных
специалистлени
специальныи
спецификасы
специяланы
спецназ
спецназны
спид
спираль
спирит
спирт
спирти
списка
спискам
списками
списков
списогу
списогуна
список
списокга
списокда
списокла
списокну
спорт
спортчула
справа
справка
справочник
справочниккатегория
спутниги
спутник
спутникден
ср
сравнении
сравнению
сразу
среда
среди
средневековья
среднее
среднем
српски
сс
ссан
сср
ссср
ссылка
ссылке
ссылки
ссылкои
ссылку
ссылок
ст
ста
ставка
ставканы
ставривск
ставрополь
ставрополье
ставропольская
ставропольскии
ставропольского
стадион
стаже
стал
стала
сталин
сталина
сталинград
сталинградны
сталинни
сталинскои
сталинчи
стамбул
стамбулда
стампыл
стамфорд
стандарт
стандартда
стандартлагъа
стандартланы
стандартлары
стандартного
стандартны
стандартныи
стандартха
стандарты
станислав
становится
станок
станокну
стансе
станседе
станседен
станседи
стансени
станция
станциягъа
станцияда
станциядан
станцияны
станциясы
стара
старт
старты
стартыны
стат
статеи
статистика
статистикасы
статистике
статистики
статистические
статистическии
статистического
статистическое
статус
статусда
статуслары
статусларыны
статусну
статусу
статусун
статусуна
статусундан
статусуну
статусха
статут
статуя
статуялары
статуясы
статхаудер
стать
статье
статьи
статью
статья
статьягъа
статьягъызны
статьяда
статьядан
статьяла
статьялагъа
статьялада
статьяланы
статьялары
статьяларын
статьяларына
статьяларыны
статьянгы
статьяны
статьясы
статьясына
статьясында
статьях
статьячыкъла
статяланы
стационар
стб
ств
ства
ствие
ствии
ствия
ство
ствовать
сте
стеи
стенлини
степан
стефан
стефанны
сти
стивен
стилге
стилде
стилевые
стили
стилни
стиль
стиля
стилями
стихи
стихов
стихотворения
стоит
стокгольм
стокгольмда
стоматология
сторожевои
стороны
стортинг
стр
страи
стран
страна
странами
стране
страниц
страница
страницах
странице
страницу
страницы
страну
страны
страсбург
стратегии
стратегия
стратегиялыкъ
стратфорд
стрит
стритде
стритни
строи
строк
строка
строке
строки
строковое
строкои
строку
структура
структурала
структураланы
структуралары
структураларыны
структуралыкъ
структурасы
структурасына
структурасыны
структуру
студент
студенти
студентле
студентлени
студентлерине
студентськии
студентів
студия
студияда
стуколка
ступенек
стэнли
стюарт
стяпонас
су
суахили
субантакрктика
субарктика
субаэрал
субтропик
субтропика
субтропикле
субтропикледе
субтропиклик
субъекти
субъектиди
субъектлери
субъектлерини
субэкватор
суверен
суверенитет
суверенитетге
суверенитети
суверенитетин
суверенитетлерин
суверенитетни
суворов
суворовну
сугъарыу
суд
судан
суданда
суданнга
суданны
судет
судьба
сулавеси
сулеи
сулла
сулланы
султан
султанлы
султанов
сулу
сульт
сультну
суматра
суматраны
сумбава
суммасы
суммасыды
сун
сунады
сунадыла
сундургъанды
сундурулгъанды
сундурургъа
сунжа
сунмагъан
сунмагъаны
сунмагъанын
сунмазлыгъы
сунмазлыгъын
сунмазлыгъыны
сунмазлыкъ
сунмазлыкъларын
сунмазлыкъны
сунмаи
сунмаулугъу
сунмаулугъун
сунмаулугъуну
сунмаулукъ
сунмаулукъларын
сунмаулукъну
суннасын
суннган
суннганды
суннгандыла
суннганында
суннит
суннитле
сунуб
сунургъа
сунуу
сунууда
сунуудан
сунуш
супер
суперджулдуз
суперконтинентни
сурат
суратда
суратдан
суратла
суратлагъа
суратлагъан
суратлаи
суратланады
суратланнган
суратланнганды
суратланы
суратланыбды
суратлары
суратларын
суратлау
суратлауу
суратлаучу
суратны
суратха
суратчы
суратчыла
суратчылыкъ
суратчыны
сураты
суратын
суратына
суратында
суратыны
сурахаи
сурибати
суринам
сурреи
суртда
сурхаи
сусло
суслону
суспензиялы
сутичок
сутка
суткагъа
суткаланы
сутканы
суу
суугъа
сууда
суудан
сууду
суула
суулагъ
суулагъа
суулада
сууладан
суулады
сууланы
суулары
сууларын
сууларына
сууларында
сууларындан
сууларыны
суулу
сууну
суураны
суусун
суусунну
суутюбю
сууу
сууугъан
сууугъуракъды
сууукъ
сууукъду
суууну
суфи
суфии
суфини
суффикс
сухум
существительное
существует
существуют
сущности
суэц
суюнчев
сфера
сферада
сфералада
сфералары
сферасына
сферасында
сферыште
сформирует
сфср
схауат
схема
схемала
схемасы
схемасына
схипхол
сценарист
сцены
сцягафікацыя
счетчик
сша
съезди
съездинде
съездлерини
сы
сыбызгъы
сыз
сызгъа
сызда
сызла
сызлы
сызны
сызчыкъ
сызы
сызын
сызына
сыи
сылпагъарланы
сылтау
сылтаугъа
сылтаусуз
сылтауу
сын
сына
сынаб
сынагъан
сынагъанды
сынагъандыла
сынагъандылабульдозер
сынаи
сынам
сынамчы
сынамын
сынар
сынаргъа
сынау
сынауларын
сынджыр
сынджырларын
сынджырны
сыннган
сынны
сынович
сынты
сынчыкълау
сыны
сыныб
сыра
сыраны
сырт
сыртда
сыртланы
сыртларында
сыртны
сырты
сыртында
сырье
сысы
сыфатлы
сычуань
сьерра
ських
ського
ську
ськіи
сэлмон
сэн
сэр
сю
сюб
сюд
сюда
сюдге
сюдде
сюдле
сюдлени
сюдню
сюдю
сюдюден
сюдюле
сюдюлени
сюдюне
сюдюню
сюе
сюеги
сюедиле
сюек
сюеклери
сюелген
сюзерге
сюзюлгенди
сюзюу
сюзюуню
сюи
сюлемен
сюм
сюмле
сюмлени
сюмлюк
сюмлюкле
сюмлюкледе
сюмлюклени
сюмлюкню
сюмлюлюкле
сюмлюлюкню
сюр
сюре
сюредиле
сюреминде
сюрюуде
сют
сютге
сютичиучюле
сютлю
сютмыстылы
сютню
сюу
сюуню
сюую
сюуюне
ся
січня
т
та
таб
таба
табагъа
табады
табадыла
табакъ
табар
табаргъа
табарыкъсыз
табды
табигъат
табигъатда
табигъатдан
табигъатны
табигъаты
табии
таблица
таблицада
таблице
таблицу
таблицы
табмаи
табса
табсыз
табсызлыкъла
табсызыракъ
табхан
табханды
табхандыла
табыб
табыз
табылады
табыладыла
табылгъан
табылгъанды
табылгъандыла
табылгъаны
табылмады
табылыб
табыннганды
табыныу
табыныучу
табыракъ
табыу
табыула
табыучу
тагал
таганрог
тагъылгъан
тагъылгъанды
тагъылыб
тагъылыргъа
тагъылыуларыны
тагъылыучу
тадеуш
тадж
таджик
таджикистан
таджикистанда
таджикистанны
таджны
таджха
таджын
тады
тадыла
тажрыи
таза
тазалыгъы
тазир
таи
таиланд
таиландны
таифа
таифаны
так
такадзи
также
такие
таким
таких
такого
такое
також
такои
таком
таксонланы
таксоннга
таксонну
тактика
такъгъанды
такъгъандыла
такъыи
такъюзюк
талаи
таласы
талер
талиб
таллин
талны
таль
там
тама
тамада
тамадала
тамадаланы
тамадалары
тамадаларыны
тамадалыгъы
тамадалыкъ
тамадасы
тамадасыды
тамадысыны
тамал
тамалгъа
тамалда
тамалланады
тамалланнган
тамалланнганды
тамалланнгандыла
тамаллары
тамалларын
тамалларында
тамалларындан
тамалларыны
тамаллы
тамаллыладыла
тамалы
тамалыды
тамалын
тамалына
тамалында
тамалыны
тамам
тамамлагъанды
тамамладым
тамамланнган
тамамланнганды
тамамланыуу
тамамы
тамамына
тамара
тамаша
тамбла
тамгъа
тамгъасын
тамил
тамм
таможня
тамчы
тамыр
тамырдан
тамырла
тамырлары
тамырларын
тамырлы
тамырны
тамыры
тан
тана
танах
танг
танганьика
танги
тангны
тангына
тангында
танзания
танзанияны
танка
танкала
танкалагъа
танковые
танковых
таныгъан
таныгъанды
таныгъандыла
таныгъанланы
таныи
танылады
таныладыла
танылгъан
танылгъанды
танылмагъан
танылмагъанды
танылмаи
танымагъан
танымагъанды
танымаи
таныргъа
танытханды
танытыу
таныу
таныуну
таныш
танышады
танышдырады
тар
тарабынан
тарады
тарадыла
таракъча
тарас
тарасов
таргъа
таргъанды
таргъандыла
таргъулу
тариба
тарибагъа
тарикатны
тарикъатны
тарикъатха
тарих
тарихаллындагъыла
тарихге
тарихде
тарихден
тарихи
тарихинде
тарихини
тарихлеринде
тарихлерини
тарихли
тарихни
тарихчи
тарихчиле
тарихчилени
таркъаи
тарн
тартады
тартадыла
тарту
тартхандыла
тартыб
тартылады
тартылгъан
тартыу
тарх
тархдан
тархла
тархланы
тарыб
тарылады
тарыладыла
тарылгъан
тарылгъанды
тарыр
тарыргъа
тарыу
тарыуну
тас
таса
тасман
тасмания
тасманны
тат
татар
татарланы
татарлыла
татарлыланы
татарскии
татарстан
татары
татлы
татлыла
татыуу
татыуун
татьяна
тау
тауберт
таугъа
тауда
таудан
тауду
таукел
таукелсизлиги
таукелсизлик
таула
таулагъа
таулада
тауладан
тауланы
таулары
тауларында
таулу
таулула
таулуланы
таун
тауну
таурух
таурухла
таурухланы
тауруху
тауу
тауукъ
тауусадыла
тауусулгъанды
тауусхан
тауусханды
таууш
тауушда
тауушдадыла
тауушдан
тауушла
тауушладыла
тауушланы
тауушлары
тауушлу
тауушну
тауушу
тауэр
тах
тахдан
тахны
тахса
тахсалы
тахсачы
тахтагъа
тахтаны
тахтасына
тахтдан
тахтны
тахтха
тахха
тахына
таш
таша
ташатын
ташдан
ташке
ташкент
ташкентде
ташла
ташлы
ташны
ташыгъан
ташыладыла
ташылгъан
ташыу
ташыуну
ташыучуну
тая
таяды
таякъла
таякълау
таякъчыгъы
таяннган
таяныб
тбилиси
тбилисиде
тв
твен
тверь
творчества
творчестве
творчеству
твоя
твэн
тген
тгенден
тгенди
тгендиле
тгюр
тда
тдан
тде
тдым
тдюргенди
тдюргендиле
тдюрюб
тдюрюрге
те
театр
театра
театрал
театргъа
театрда
театрла
театрлада
театрланы
театрлары
театрларыны
театрны
театры
театрында
театрыны
теберди
тебердиде
тебердичи
тебереди
тебиу
теблеи
тебрегендиле
тебреи
тебрениу
тебрениуле
тебрениуню
тебуланы
тебя
тевтон
тегеи
тегеран
тегерегине
тегерек
тегерекде
тед
теджеб
теджеген
теджегенди
теджегендиле
теджеи
теджелгенди
теджеледи
теджеу
теджеулени
теджеулери
теджеуню
теджеую
теджеуюн
теди
тедиле
теи
текст
текста
тексте
тексти
текстиль
текстин
текстле
текстлеге
текстлени
текстлери
текстни
текстом
тексту
тектоника
текущего
текущеи
тел
тела
теле
телевидение
телевидениеде
телевиденияны
телевидениясыны
телевизион
телеграмма
телеграф
телеграфны
телеканал
телеком
телекоммуникацияла
телекъала
телерадиосу
телесериал
телескоп
телескопну
телефо
телефон
телефонда
телефондан
телефония
телефонла
телефонланы
телефоннга
телефонну
телецентрни
тели
телмеи
телугу
тель
тельтов
тем
тема
темагъа
темадан
темалагъа
темаланы
теманы
темасы
тематика
тематикагъа
темза
темир
темирланны
темирни
температура
температурада
температурала
температураланы
температуралары
температураны
температурасы
температурасыны
темпле
темы
тенант
тенг
тенгди
тенги
тенгиз
тенгизге
тенгизде
тенгиздеги
тенгизден
тенгизи
тенгизиди
тенгизинде
тенгизини
тенгизле
тенгизлеге
тенгизледе
тенгизлени
тенгизлери
тенгизлерини
тенгизни
тенгизчи
тенгизчиле
тенглешдирир
тенглешдирирге
тенглешдириу
тенглешдириуге
тенглик
тенгликлери
тенгликни
тенгтерклениу
тенденции
теневилни
тенерифе
теннесси
теннис
теннисбол
теодор
теократ
теории
теория
теориягъа
теорияда
теорияла
теориялы
теориялыкъ
теорияны
теориясы
теориясыны
тепловоз
тепсеи
тепсеу
тепсеую
тепси
тептярла
тер
терге
тергеу
тергеуге
тергеулени
тергеулерине
тергеуюне
терджиман
терезе
терезеде
терезелеринден
терезеси
терезесинден
терек
терекге
терекле
тереклеге
тереклени
терекни
терен
теренде
терендеди
терени
теренине
теренлиги
теренлигине
теренлик
теренликге
теренликде
теренликдедиле
теренликлеге
теренликлерини
теренликни
тери
терили
терилиле
терини
терк
теркди
терклениу
терклениуню
терклениую
терклениуюню
терклиги
терклигини
терклик
теркликге
теркликли
теркликни
термала
термидор
термилиу
термин
терминалия
терминди
термини
терминле
терминлени
терминни
терминология
термодинамика
термоядролу
термоядролукъ
территориал
территориальная
территориальныи
территории
территория
территориягъа
территорияда
территориядан
территорияды
территориял
территорияла
территориялагъа
территориялада
территорияланы
территориялары
территорияларын
территорияларына
территорияларында
территорияларыны
территориялыкъ
территорияны
территориясы
территориясын
территориясына
территориясында
территориясындан
территориясыны
террор
терроризм
террорист
террористле
террорну
терс
терсге
терсине
терслеб
терслегенди
терслеи
терслениб
терслеу
терслигин
терт
теруэль
теснина
тест
тесты
тесь
тетр
тех
техас
техасны
техника
техникада
техниканы
технически
технология
технологияла
технологияланы
технологияны
технологиясы
тешиб
тешик
тешиклени
тешикли
тешикни
теҥыз
ти
тибет
тибетни
тигинде
тигре
тигрени
тиде
тиеди
тиедиле
тиек
тиекден
тижня
тизгенди
тизгин
тизгинде
тизгинден
тизгини
тизгинле
тизгинлери
тизгинлерини
тизгинни
тизилген
тизилгендиле
тизиледи
тизилиу
тизилиуню
тизим
тизими
тизимин
тизимине
тизимле
тизимлени
тизимлери
тизимлерине
тизиу
тизиуню
тизме
тизмеге
тизмеси
тизмесине
тии
тик
тикау
тикген
тики
тиклиги
тиклик
тикликле
тикликлени
тикликни
тил
тилге
тилде
тилдеги
тилдеди
тилден
тилдеча
тилди
тилеб
тилегенди
тилеи
тилек
тилекни
тилерим
тили
тилибизде
тилибизни
тилиди
тилин
тилинде
тилинден
тилине
тилини
тилле
тиллеге
тилледа
тилледе
тилледен
тилледиле
тиллеи
тиллени
тиллери
тиллериди
тиллерин
тиллеринде
тиллеринден
тиллерине
тиллерини
тиллеча
тилли
тиллиле
тилни
тилча
тильданы
тим
тимор
тиморну
тимошенко
тимошенкону
тин
тинвальд
тинвальдны
тинг
тингде
тинги
тингинде
тингледе
тинтген
тинтгенди
тинтгендиле
тинте
тинтеди
тинтедиле
тинтиб
тинтилген
тинтилгенди
тинтирге
тинтиу
тинтиуде
тинтиуле
тинтиулеге
тинтиуледе
тинтиулени
тинтиулерине
тинтиуню
тинтиуу
тинтиучю
тинтиучюле
тинтиучюлени
тинтиую
тинтиуюн
тинтиуюнде
тинтиуюне
тинтиуюню
тип
типа
типге
типди
типи
типиди
типин
типине
типле
типлери
типли
типов
типография
типология
тиражы
тиран
тиранланы
тираны
тирасполь
тиргартен
тири
тирилик
тирмен
тирменле
тис
тисяч
тисяча
тит
титан
титаник
титул
титулла
титулну
титулу
титушкала
тифлис
тихон
тихонов
тиши
тишириула
тиширыу
тиширыуду
тиширыула
тиширыулагъа
тиширыуланы
тиширыуну
тиширыуу
тишиси
ткъу
тла
тлагъа
тладан
тланы
тлары
тмаздан
тмаи
тмеи
тмек
тну
тны
тных
то
тоб
тоба
тобаго
тобагода
тобагону
тобдан
тобларын
тоблу
тобну
тобрукну
тобу
тов
товар
товаргъа
товарла
товарлагъа
товарланы
товарны
товарів
тогда
того
тогону
тогъаи
тогъуз
тогъузунчу
тодтну
тои
ток
токио
токиода
токиону
токну
токугава
толады
толалмагъанды
толгъан
толедо
толкинни
толковыи
толкъун
толкъунла
толкъунлада
толкъунлу
толли
толмаи
толстои
толтруучу
толтургъан
толтургъанды
толтургъандыла
толтурулса
толтурур
толтурургъа
толтуруу
толтуруучу
толу
толуб
толуду
толуракъ
толусу
только
том
тома
томас
томах
томе
томсонну
тому
тон
тонаб
тонга
тонгуз
тони
тонкин
тонна
тоннадан
тоннель
топография
топонимия
топракъ
топуракъ
топуракъдан
топуракъла
топуракълары
топуракъны
тор
тора
торвальдс
торгаи
тордесильяс
тори
торнадо
торонто
торпеда
торресни
торунь
тот
тотал
тоталитар
тоталитаризм
тотуркъулланы
тохана
тохананы
тохта
тохтаб
тохтагъан
тохтагъанды
тохтагъандыла
тохтады
тохтаи
тохтамагъанды
тохтамаи
тохтамышны
тохтаргъа
тохтатады
тохтатмаи
тохтатханды
тохтатхандыла
тохтатыб
тохтатылады
тохтатыладыла
тохтатылгъанды
тохтатылгъандыла
тохтатыр
тохтатыргъа
тохтатыу
тохтатыун
тохтатыуну
тохтатыуун
тохтаусуз
точек
точка
точки
точкои
точно
тошлакъ
тр
трагедия
традиции
траекториягъа
тракт
трактат
трактатны
трактатха
тракторгъа
тракторну
трал
тралитет
тралитетин
тралитетни
траллыкъны
трамваи
трамла
трансаляска
трансатлантика
трансвааль
трансгрессия
трансильванияны
транскрипция
транслитерация
трансляция
транспорт
трасса
тре
требуется
треи
трескалыла
третьего
третьих
три
трианон
триба
трибуналны
трибунланы
трибут
триграфла
триест
трилогия
тринидад
тристан
трну
троллеи
тронну
тронхеи
тропик
тропика
тропикалыкъ
тропикле
тропикледе
тропиклик
тропосфера
тропосферада
троцкии
труба
труппаны
тс
тса
тсакъ
тсанг
тсн
тся
ту
туал
туамоту
туамотуну
тубан
тубанлыкъ
тубанлыкъда
тубанлыкъны
тубаннга
туберкуле
тува
тувалу
тувалуну
тудлан
тудо
тудым
тудын
туз
тузакъгъа
тузланнган
тузлу
тузлудула
тузлулугъу
тузлулукъ
тузлулукъну
тузлулулугъу
тузлуракъды
тузлусу
тузну
тузсуз
тузсузландырыуу
тузсузланнган
тукъум
тукъумдан
тукъумду
тукъумла
тукъумладан
тукъумланы
тукъумлу
тукъумну
тукъуму
тукым
тула
туле
тульчин
тунакы
тунакыгъа
тунакыла
тунакыладан
тунакыланы
тунакылны
тунгус
тунис
тунисге
тунисни
туннель
тупру
тур
тура
турады
турадыла
тураи
турама
тураса
тургъан
тургъанды
тургъандыла
тургъанла
тургъанлаи
тургъанларын
тургъанма
тургъаны
турецкии
турецкого
тури
туризм
туризмни
туринде
турист
туристле
туристлени
туристлик
туркия
туркияны
турлукъма
турмагъандыла
турмаи
турмуш
турмушда
турмушларында
турмушну
турна
турну
туруб
туруму
турур
турургъа
туруу
туруусуз
турууу
турции
тут
тута
тутады
тутадыла
туталгъанларын
туталмагъандыла
тутар
тутаргъа
тутмаи
тутмакъ
тутмакъда
тутмакъла
тутмакъланы
тутса
тутуб
тутулады
тутуладыла
тутулгъан
тутулгъанды
тутулгъандыла
тутулгъанланы
тутулуб
тутурукъ
тутуу
тутуугъа
тутууда
тутууну
тутуучу
тутхан
тутханды
тутхандыла
тутханла
тутханланы
тууады
тууар
туугъ
туугъан
туугъанды
туугъандыла
туугъанла
туугъанлагъа
туугъаны
туугъанындан
туудугъу
туудукълары
туудуруучу
туура
туурадан
тууралгъан
туурасында
тууудукълары
тухаи
тучков
туякълыла
тха
тхаи
тхан
тханда
тхандан
тханды
тхандыла
тханларыча
тханнга
тханча
тханына
тханында
тхи
тхылыкъ
тчик
ты
тыб
тыва
тывалыла
тыгаи
тыгак
тыге
тыглаи
тыгъыз
тыи
тыкълыгъы
тыла
тылады
тылгъан
тылгъанды
тылгъаныча
тылмач
тылпыу
тылса
тылыб
тылына
тылыуу
тымла
тымны
тынгылау
тынгылы
тынгысыз
тында
тындыра
тындырады
тындырадыла
тындыргъан
тындыргъанды
тындырыб
тындырылады
тындырыр
тындырыргъа
тындырыугъа
тынч
тынчаи
тынчды
тынчлыгъы
тынчлыкъ
тынчыракъ
тынчыракъды
тыр
тыргъа
тырма
тырныаууз
тырыкъды
тырыкъдыла
тырын
тыс
тытыр
тыу
тыугъа
тыула
тыуну
тыуу
тыш
тышкары
тышкърал
тышлары
тышы
тышына
тышында
тышындагъы
тышындада
тышындан
тыюу
тыяды
тыядыла
тыялмаи
тыяр
тыяргъа
тьюринг
тэгу
тэтчер
тюб
тюбеб
тюбеген
тюбегенди
тюбегендиле
тюбеи
тюбемеи
тюберге
тюбешгенди
тюбешгендиле
тюбешеди
тюбешедиле
тюбешиб
тюбешиу
тюбешиулеринде
тюбешиую
тюбкъауум
тюбкъауумуна
тюблеринде
тюбю
тюбюн
тюбюнде
тюбюндеги
тюбюндеди
тюбюндедиле
тюбюнден
тюбюне
тюбюню
тюбюрек
тюе
тюз
тюзге
тюзде
тюздеги
тюздю
тюзет
тюзетген
тюзете
тюзетедиле
тюзетиб
тюзетилгенди
тюзетилир
тюзетир
тюзетирге
тюзетиу
тюзетиуню
тюзле
тюзлеге
тюзледе
тюзледиле
тюзлени
тюзлери
тюзлеринде
тюзлерине
тюзлю
тюзлюк
тюзню
тюзю
тюзюн
тюзюрек
тюи
тюкен
тюкенле
тюклю
тюл
тюлбюз
тюлдю
тюлдюле
тюлкю
тюлме
тюлмюдю
тюлсюз
тюмень
тюнене
тюрден
тюрингия
тюрк
тюркге
тюркде
тюркден
тюрки
тюркия
тюркле
тюрклюле
тюрклюлени
тюркмен
тюркменистан
тюркменистанны
тюркменлиле
тюркню
тюркских
тюркча
тюрлендир
тюрлендирген
тюрлендиргенди
тюрлендиргендиле
тюрлендиреди
тюрлендиредиле
тюрлендириб
тюрлендирилгенди
тюрлендирир
тюрлендирирге
тюрлендириу
тюрлендириуле
тюрлендириуню
тюрлендирмеи
тюрлендирсе
тюрлене
тюрленеди
тюрленедиле
тюрлениб
тюрленирге
тюрлениу
тюрлениуде
тюрлениуле
тюрлениулеге
тюрлениуледен
тюрлениулени
тюрлениулери
тюрлениулерине
тюрлениулерини
тюрлениуню
тюрлениусюз
тюрлениую
тюрлениуюню
тюрленмеи
тюрленнген
тюрленнгенди
тюрленнгенин
тюрленнгенлеи
тюрлю
тюрлюге
тюрлюден
тюрлюдю
тюрлюле
тюрлюлени
тюрлюлери
тюрлюлерине
тюрлюлерини
тюрлюлюгю
тюрлюлюкню
тюрлюню
тюрлюсю
тюрлюсюдю
тюрлюсюн
тюрлюсюнде
тюрлюсюнден
тюрлюсюне
тюрлюсюню
тюрме
тюрмеге
тюрмеде
тюрмеден
тюрюк
тюрюу
тютюн
тютюнню
тюу
тюуню
тюш
тюшген
тюшгенден
тюшгенди
тюшгендиле
тюшгенинден
тюшгенлени
тюшгенлери
тюшдю
тюшеди
тюшедиле
тюшерге
тюшмеи
тюшсе
тюшюб
тюшюрген
тюшюргенди
тюшюреди
тюшюредиле
тюшюрюледи
тюшюрюр
тюшюрюу
тюшюрюуле
тюшюу
тюшюулери
тюшюуню
тюшюучю
тюшюую
тюшюуюнден
тюшюуюню
тягнибок
тян
тяньаньмэнь
тітушок
түзүлгөн
түзүү
түштүк
төркеме
у
уа
уаи
уаска
уатт
уб
убирания
убрать
убыхла
уважаемые
уважением
уведомления
уганда
угандада
уганданы
угарит
уго
угол
угор
угр
угъаи
уд
удар
удмурт
удмуртия
удобно
уездни
ужаш
ужашыштыже
ужгородда
уже
узаи
узакъ
узакъгъа
узакъда
узакълыгъы
узакълыгъына
узакълыкъ
узакълыкъда
узакълыкъдады
узбекистан
узбекскии
узи
узнать
узун
узункъуи
узунлугъу
узунлугъун
узунлугъуна
узунлугъунда
узунлугъуну
узунлукъгъа
узунлукъда
узунлукълары
узунлукъларына
узунлукъну
узунуна
узунунда
уи
уикипедия
уильям
уинстон
указ
указан
указанию
указания
указанного
указаннои
указано
указаны
указать
указы
указывать
указываются
укр
украин
украина
украинагъа
украинада
украинадан
украинаны
украинли
украинлиле
украинча
украины
украі
укуктук
укуктун
улам
улан
уланлары
уланы
улисс
улица
улл
уллаи
уллу
уллугъа
уллуду
уллула
уллулагъа
уллуланы
уллуларакъ
уллулары
уллулугъу
уллулукъла
уллулукъну
уллуракъ
уллусу
уло
улоу
улоуда
улоуну
улоуу
улу
улугъа
улуну
улыт
ультиматум
ультиматумну
ультратамаллы
ультрафиолет
ульяновск
умар
умарны
умео
умм
умолчанию
умут
умутда
умутла
умутлары
умутлу
ун
унаб
унагъанды
унаи
унамагъан
унамагъанды
унамагъандыла
унамаи
универсал
универсальная
университет
университета
университетге
университетде
университетден
университете
университети
университетини
университетле
университетлени
университетлери
университетлерини
университетни
уникал
унитар
унификация
униформа
униформада
униформаны
уния
униягъа
унияны
униясы
униясыны
унн
унну
унутдурургъа
унутулуу
унциягъа
уокер
уоллис
уолт
уолтер
уолш
уоррал
употребления
уппа
управление
управлениеси
управлениесини
управления
управлениясыны
ур
урады
урадыла
урал
уралгъа
уран
уранны
урбанизация
урбанизациясы
урвань
ургъан
ургъанды
ургъандыла
ургъанла
ургъанына
урду
урияла
урланнганды
урлугъу
урлукъларын
уровне
уровня
уруб
уругваи
уруксатсыз
урулады
урулгъанды
урулгъандыла
урулуб
урум
урумлула
урунуу
урунуугъа
урунууда
урунууду
урунууларыны
урунууну
уруп
урургъа
уруу
уруула
уруулары
урууларын
урууларына
урууну
урууун
уруучу
уруш
урушда
урушла
урушну
урушсуз
урушха
уряду
ус
усикова
условии
условия
условиях
услуг
усср
уста
устав
уставны
уставха
уставы
уставын
уставына
уставында
уставыны
устаз
устазланы
устазлыкъ
устазы
устазыбыз
устазым
усталаны
усталыгъы
усталыгъын
усталыкъ
усталыкъны
установки
устасыды
устрои
усть
усуф
утверждение
утверждении
утверждения
утла
утларак
утрехт
уу
ууакъ
ууатханды
ууатыб
ууатылгъанды
уулу
уучулукъ
уфа
ухань
ухр
ухркбб
уч
учады
учаргъа
участие
участники
участников
уче
учебник
учкулан
учкуланда
учну
учреждение
учреждениеле
учуб
учуз
учуна
учунда
учундан
учуу
учууну
учууу
учуучу
учха
учхан
учханды
учханы
учхара
уччиал
уш
ушагъан
ушагъандыла
ушагъы
ушаи
ушакъ
ушакъда
ушамагъан
ушамаи
ушатмагъан
ушатмаи
ушатылгъанды
ушаш
ушаша
уэббер
уэи
уэллсни
уэльс
уэльсде
уэльсчи
уялмагъыз
уясы
ф
фабрика
фабрикада
фабрикала
фадеев
фаерлени
фаза
фаи
факт
фактла
фактланы
факто
фактор
факторла
факторланы
факторларындан
факультет
факультетин
факультетле
факультетлени
факультетлери
факъыр
фалаша
фаллени
фантастика
фарадеи
фараллон
фарер
фармацевтика
фаро
фарси
фасады
фаси
фасо
фатарлары
фатары
фатима
фатиманы
фатх
фауна
фаунасы
фаунасында
фаунасыны
фауст
фахд
фахдны
фахму
фахмулу
фахмум
фахмуну
фахмусу
фашизм
фашизмни
фашист
фашистле
фашистледен
фашистлени
фе
февралгъа
февралда
февралны
февралына
февралында
февралындан
февраль
февраля
федерал
федеральная
федеральныи
федератив
федерации
федерация
федерациягъа
федерацияда
федерациядан
федерацияны
федерациясы
федерациясына
федерико
феи
феликс
фелипе
феллини
фелни
фель
фельдмаршал
феминизм
фениан
феникс
фениче
фенияла
феодал
феодализмни
феодосия
фердинанд
фердинандны
фермада
ферментле
фернан
фес
фестиваль
фз
фиат
фигурала
фигураланы
фидель
фиджи
фиджиде
физик
физика
физикада
физикадан
физикалыкъ
физикачы
физиология
фиксин
филадельфияда
филдс
филиал
филиалы
филипп
филиппин
филиппинле
филиппинлеге
филиппинледе
филиппинлени
филиппинлиле
филиппни
филлип
филлипинле
филлипинлени
филм
филология
философ
философии
философия
философияны
философланы
философскии
фильм
фильмде
фильмди
фильми
фильмиди
фильмин
фильмини
фильмле
фильмледе
фильмлени
фильмлери
фильмни
фильмографиясы
фин
финал
финанс
финансла
финансланы
финансларыны
финикии
финле
финляндии
финляндия
финляндиягъа
финляндияда
финляндиядан
финляндияны
финляндскои
финского
фирма
фирмала
фирманы
фирме
фискал
фиуме
фиумени
фкп
флаг
флага
флаги
флагификаци
флагификация
флагманы
флангда
флангларын
флангында
фландрия
фландрияда
флеволанд
флора
флорасы
флоренция
флоренцияда
флорес
флорида
флоридада
флориданы
флот
флотда
флотилия
флотланы
флотларына
флотларыны
флотну
флоту
флотун
флотуна
флотуну
флотха
фокс
фоксну
фолио
фолиону
фолкленд
фолклендлени
фольклор
фольклорда
фольклордан
фольклорист
фольклорлада
фольклорну
фон
фона
фонд
фонда
фондну
фонду
фондуну
фондха
фонемаланы
фонетик
фонетика
фонетикалыкъ
фонну
фонографны
фоноидеографиялыкъ
фонтан
фону
фонунда
форд
форма
формагъа
формада
формады
формал
формала
формалагъа
формалада
формаладан
формалары
формаларын
формаларына
формаларыны
формалы
форманы
формасы
формасыды
формасын
формасына
формасыны
формат
формата
форматда
формате
форматлы
формация
формирование
формоза
формулы
форт
фортда
фортдан
фортепиано
фортификация
фортла
фортну
фортха
форум
форумгъа
форумда
форумну
фосс
фосфатла
фосфорит
фото
фотогалерея
фотографии
фотография
фотографиялары
фотографияны
фотографиясы
фотопортрети
фотосинтез
фотохром
фр
фрагмент
фразаны
фразасын
фраи
фракияны
фракцияла
фран
франк
франка
франклин
франковскда
франкфурт
франкфуртда
франківську
франс
франсиско
франсуа
франуз
франц
франции
франциск
франциско
францискода
францискону
франция
франциягъа
францияда
франциядан
францияны
француз
французла
французлагъа
французланы
французлу
французлула
французлуланы
французская
французскии
французского
французскои
французча
франчаи
франческо
фрг
фред
фредерик
фреи
фреканслада
фреканслары
фреска
фрескала
фреш
фридман
фридрих
фридрихни
фрисби
фронт
фронтда
фронтдан
фронтла
фронтлада
фронтланы
фронтну
фронту
фронтха
фрс
фрунзе
фрэнк
фрэнсис
фу
фука
фула
фумио
фундаментал
функции
функционал
функцию
функция
функцияла
функцияланы
функциялары
функцияларын
функцияларыны
функцияны
функциясы
функциясын
фунла
фунланы
фунцияла
фурье
футбол
футболдан
футболист
футболтеннис
футзал
футуна
футуризмни
фьорд
фьордла
фьюмичино
х
ха
хааф
хабаровск
хаббл
хабез
хабиб
хабибии
хабибия
хабичев
хабичланы
хабль
хабу
хадж
хаджи
хадсонну
хазар
хазарии
хазария
хазарла
хазарскии
хазарского
хазары
хазна
хазнасы
хазыр
хазырлаб
хазырлагъан
хазырлагъанды
хазырлаи
хазырлана
хазырланадыла
хазырланнган
хазырланнганды
хазырланнгандыла
хазырланыб
хазырланыу
хазырланыула
хазырланыуланы
хазырланыуну
хазырлар
хазырлау
хазырлауда
хазырлауну
хазырлаучу
хазырлыкъ
хазырлыкъны
хаи
хакасия
хакс
хакъ
хакъгъа
хакъда
хакъды
хакъла
хакълагъа
хакълада
хакъладан
хакъланы
хакълары
хакъларыды
хакъларын
хакъларына
хакъларындан
хакъларыны
хакъны
хакъсыз
хакъы
хал
халал
халат
халатла
халатланы
халгъа
халда
халдан
халиле
халилери
халилерине
халили
халимат
халиматны
халифатны
халкъ
халкъгъа
халкъда
халкъдан
халкъды
халкъла
халкълада
халкъладан
халкъланы
халкъларасы
халкълары
халкъларына
халкъларыны
халкъны
халкъчылыкъ
халкъы
халкъын
халкъына
халкъындан
халкъыны
халланы
халлары
халларын
халларына
халны
халхин
халы
халын
халына
халында
халыны
халыып
хальмахера
хаман
хаманда
хамандагъы
хамандалыкъ
хамбары
хаммерстаи
хампи
хамуда
хан
ханаанны
хангылгъа
хангылда
хангылны
хангыль
ханланы
ханлыкъ
ханлыкъны
ханои
ханс
хансда
хансла
ханслы
ханство
ханты
ханчча
ханччада
ханччда
ханы
хань
хапар
хапаргъа
хапарла
хапарлары
хапарлауу
хапарлы
хапарны
хапарчысы
хапары
хар
харальд
харам
харбор
харборда
харбордагъы
харита
хариф
харифге
харифден
харифи
харифине
харифле
харифлеге
харифледен
харифлени
харифлери
харифлерине
харифли
харифни
харифча
харлем
хартиягъа
хартиясы
хартиясын
харьков
харьковда
хасан
хасани
хасанны
хасаут
хасмонеи
хат
хата
хау
хауа
хауагъа
хауада
хауадан
хауаны
хауасыны
хауачылыкъны
хаумеа
хауса
хаух
хафа
хафиз
хачирланы
хачыпсы
хачыпсыда
хачыпсыны
хде
хден
хе
хеи
хельмут
хельсинки
хеминдж
хеминджни
хи
хилверсюм
химик
химия
химиядан
химиялыкъ
химияны
химиячы
хинди
хип
хирагана
хиробуми
хиросима
хиросимагъа
хирург
хиыт
хкк
хмельницкии
хни
хны
хо
хобсбаум
хобуста
хозяи
хок
хоккаи
хоккеи
холам
холера
холераны
холиок
холл
холмс
холмсну
холоднои
холодович
холокост
холокостну
холст
хонгха
хондзе
хоншу
хоншула
хоншулары
хоп
хорв
хорват
хорватия
хорватияда
хорватияны
хорватлыла
хорватлыланы
хорватча
хордалыла
хорезм
хорлаб
хорлагъан
хорлагъанды
хорлагъандыла
хорлагъанындан
хорлаи
хорлам
хорламгъа
хорламдан
хорламла
хорламлары
хорламларына
хорламлы
хорламны
хорламы
хорланмазлыкъ
хорланнган
хорланнганды
хорланнгандыла
хорланнганын
хорланнганындан
хорланыб
хорланыулары
хорланыуу
хорлар
хорласада
хорлатадыла
хорлатханы
хорлатыб
хорлау
хорлаялмаи
хорошее
хорошо
хорхе
хосе
хотим
хотите
хотя
хоу
хофман
хош
хошимин
храм
храмны
храмы
храмыны
хрещатик
хрещатикде
христиан
христианла
христианланы
христианлыкъ
христианлыкъгъа
христос
христосну
христофор
хромосома
хроникасы
хронология
хронологиясы
хруще
хсканцлер
хскомиссариат
хср
хстаг
хстагга
хстагда
хстагны
хуан
хуанхэ
хубиев
хубии
хугли
художник
хумара
хумеллек
хуна
хунг
хунмин
хурзук
хурзукда
хуссеи
хутор
хх
хыи
хыны
хыртдыкъанатла
хыртха
хэ
хэку
ц
цаи
цар
цария
царияда
царияны
царское
царства
цвет
цвета
цев
цегельскии
цезарны
цезарь
цеи
целиком
цель
цельсии
целью
целях
цензорнет
цент
центден
центр
центра
центрального
центральное
центральнои
центросоюзну
центрі
церера
церетели
церкви
церковь
цзы
цзыдянь
цзыхаи
цзэдун
цивилизация
цивилизациягъа
цивилизацияла
цивилизацияладан
цивилизацияланы
цивилизациялары
цивилизацияны
циклон
циклонла
циклы
цилиндр
цин
цинк
цинь
цирконии
циркуляцион
циркуляция
циркуляцияларына
циркуляциясы
циркуляциясына
циркуляциясында
циркуляциясыны
цит
цитаталадыла
цифра
ция
цк
цола
цон
цру
цсу
цунами
цунамиле
цы
ч
ча
чабады
чабадыла
чабакъ
чабакъла
чабакъланы
чабакъны
чабакъчы
чабакъчыла
чабакъчыланы
чабакъчылыкъ
чабар
чабаргъа
чабмауну
чабхан
чабханды
чабхандыла
чабханладан
чабханлаи
чабханланы
чабханындан
чабыб
чабыу
чабыугъа
чабыуда
чабыуну
чабыуу
чабыуул
чабыуулгъа
чабыуулдан
чабыуулла
чабыууллары
чабыуулларындан
чабыуулну
чабыуулу
чабыуулун
чавес
чагос
чагъады
чагъы
чагъыр
чагъырла
чагъырланы
чагъырны
чад
чадыр
чадырланы
чаи
чако
чакъ
чакъгъа
чакъгъан
чакъла
чакълагъа
чакълары
чакълы
чакъцырсала
чакъыра
чакъырады
чакъырадыла
чакъыргъан
чакъыргъанды
чакъыргъандыла
чакъыргъандыукраинская
чакъырыб
чакъырылгъанды
чакъырылгъандыла
чакъырылыб
чакъырыу
чакъырыугъа
чакъырыуну
чалман
чам
чамлары
чамо
чамодан
чамола
чамолагъа
чамолада
чамоланы
чамоларындан
чамолу
чамону
чан
чандигархны
чанкаева
чанселорсвиллде
чапаи
чаплин
чапыракъ
чапыракълары
чапыракълы
чапыракъны
чапыргъаны
чарлз
чарли
чарлини
чарльз
чарльстон
чархда
чархны
час
части
частности
частныи
частота
часть
частью
чат
чатам
чачады
чачадыла
чачакъды
чачакълы
чачар
чачаргъа
чачла
чачхан
чачханды
чачхандыла
чачыб
чачыла
чачылады
чачыладыла
чачылгъан
чачылгъанды
чачылгъандыла
чачылгъанындан
чачылууна
чачылыб
чачылыргъа
чачылыу
чачылыуу
чачылыуун
чачылыууна
чачылыуундан
чачылыууну
чачыу
чачыуну
чген
чгенди
чгендиле
чгенле
чгюнчю
чгюнчюлюк
чгюнчюлюкню
чдю
чдюле
че
чеботарев
чева
чегем
чегемде
чегет
чегетде
чегетле
чегетледе
чегетлени
чегетлеринде
чегетни
чеги
чегин
чегинде
чегинден
чегине
чегини
чего
чеди
чедиле
чеи
чек
чекге
чекгендиле
чекде
чекден
чекле
чеклеге
чекледе
чекледен
чекленеди
чеклени
чеклениу
чеклениуле
чекленнген
чекленнгенди
чеклери
чеклерин
чеклеринде
чеклеринден
чеклерине
чеклерини
чеклешеди
чекли
чеклиди
чекни
чексиз
чекчи
чекчиле
челленджер
человек
человека
человеко
человеком
человечность
челюскин
челябинск
чем
чемберлен
чемерликлени
чемпион
чемпионат
чемпионатда
чемпионатында
чемпионатыны
чер
черге
через
черек
черекни
черекская
черке
черкес
черкесде
черкесии
черкесия
черкесияда
черкесияны
черкеслиле
черкеслилени
черкесск
черкесске
черкесскеде
черкесскеден
черкесскии
черкесыбзэ
чернецкии
черновол
черногор
черногория
черногорияны
черногорлула
чернозе
черняков
чероки
черокини
черт
чертгенди
чертеди
чертиб
чертилген
чертилгенди
чертирге
черчилль
чеси
четени
четным
четных
чех
чехия
чехияны
чеховну
чехославакияны
чехословак
чехословакия
чехословакиягъа
чехословакияны
чехча
чечек
чечен
чеченлиле
чеченни
чжунхуа
чжэн
чи
чибин
чибинле
чибинни
чизбургер
чии
чикаго
чикагогъа
чикагону
чикен
чиле
чили
чилиге
чилиде
чилии
чилик
чилини
чиличиле
чилле
чингисхан
чиркъау
численности
численность
число
чита
читателеи
читать
чичен
чкыдын
член
членже
члени
члениди
членлени
членлери
членлерин
членлеринден
членлерине
членлерини
членлигин
членлик
членликни
членнге
членов
чмегендиле
чокуна
чокъуракъ
чокъуракъла
чолпан
чоным
чорновол
чорх
чорхуна
чосон
чосонгыль
чот
чс
чтения
что
чтобы
чу
чуваш
чувашия
чувашлыла
чувашскии
чуи
чукот
чукотка
чукун
чукча
чулымлыла
чумыр
чунгур
чунгургъа
чунгурларында
чунгурну
чунцин
чурум
чурумгъа
чурумла
чурумлары
чурумларыны
чуруму
чурумун
чууакъ
чууана
чууут
чууутлу
чууутлугъа
чууутлула
чууутлулагъа
чууутлуланы
чууутлулары
чучхур
чучхурну
чхве
чхи
чы
чыбыкъ
чыбыкъла
чыбыкъсыз
чыганлыла
чыгъа
чыгъады
чыгъадыла
чыгъалмагъандыла
чыгъаналы
чыгъар
чыгъарады
чыгъарадыла
чыгъаргъа
чыгъаргъан
чыгъаргъанды
чыгъаргъандыла
чыгъаргъанын
чыгъарма
чыгъармада
чыгъармады
чыгъармала
чыгъармалада
чыгъармаладан
чыгъармаланы
чыгъармалары
чыгъармаларын
чыгъармаларында
чыгъармаларыны
чыгъарманы
чыгъармасы
чыгъармасыны
чыгъармачыгъын
чыгъармачылыгъы
чыгъармачылыгъында
чыгъармачылыгъыны
чыгъармачылыкъ
чыгъармачылыкъны
чыгъарыб
чыгъарыкъды
чыгъарыкъдыла
чыгъарылады
чыгъарыладыла
чыгъарылгъан
чыгъарылгъанды
чыгъарылгъандыла
чыгъарылыб
чыгъарын
чыгъарыр
чыгъарыргъа
чыгъарыу
чыгъарыугъа
чыгъарыуда
чыгъарыудан
чыгъарыуну
чыгъарыуу
чыгъарыууну
чыгъарыучу
чыгъарыучула
чыгъарыучулугъу
чыгъыб
чыгъырыуда
чыгъыу
чыгъыугъа
чыгъыула
чыгъыулары
чыгъыуну
чыгъыуу
чыгъыуун
чыгъыууну
чыгъыш
чыгъышлары
чыгъышха
чыгъышы
чыдамлы
чыкъ
чыкъгъан
чыкъгъандан
чыкъгъанды
чыкъгъандыла
чыкъгъанла
чыкъгъанланы
чыкъгъанлары
чыкъгъаннга
чыкъгъаны
чыкъгъанын
чыкъгъанындан
чыкъгъаныны
чыкъгъынчы
чыкъмаи
чыла
чын
чынар
чынлары
чыны
чыпчыкъ
чыпчыкъла
чыпчыкъны
чыран
чырандан
чыранла
чыранладан
чыранланы
чыранлары
чыранларындан
чыранны
чырантюбю
чырмау
чырпыла
чырт
чыртда
чычхан
чю
чюб
чюи
чюлгенди
чюр
чюрген
чюргенди
чюргендиле
чюргенлери
чюргенме
чюрдюм
чюреди
чюредиле
чюрмеси
чюрсек
чюрюб
чюрюлген
чюрюлгенди
чюрюлгендиле
чюрюледи
чюрюледиле
чюрюлюб
чюрюрге
чюрюу
чюрюуле
чюрюуню
чюрюую
чюу
чюулери
чюуню
чюую
чюуючю
ш
шабат
шабле
шаблон
шаблона
шаблонами
шаблонах
шаблонда
шаблонду
шаблоне
шаблонла
шаблонлагъа
шаблонлада
шаблонланы
шаблонлары
шаблоннга
шаблонну
шаблонов
шаблоном
шаблону
шаблоны
шагъатланы
шагъатлыкъ
шагъатлыкъланы
шагъатлыкъларын
шагъыреи
шазалия
шазалияны
шазили
шазилии
шаи
шакаи
шалва
шалом
шаля
шаляпин
шаляпина
шаляпинни
шаляпиным
шамгъа
шамдарии
шамиль
шамны
шампан
шампань
шан
шанс
шанскии
шантар
шанхаи
шар
шаркъда
шарль
шарм
шарма
шарны
шарон
шаронну
шарт
шартла
шартлада
шартлары
шартларын
шартларына
шартларында
шартларыны
шартны
шартсыз
шартха
шарты
шартын
шато
шаттл
шаттлны
шауаи
шаулис
шаухалланы
шаухаллыкъ
шафран
шахар
шахарады
шахаргъа
шахарда
шахардагъы
шахардады
шахардан
шахарды
шахарла
шахарлагъа
шахарлада
шахарладан
шахарланы
шахарлары
шахарларын
шахарларында
шахарларындан
шахарларыны
шахарны
шахарчыкъ
шахарчыкъда
шахарчыкъны
шахарчыла
шахарчыланы
шахары
шахарыды
шахарын
шахарына
шахарында
шахарындан
шахарыны
шахмат
шахсеван
шахте
шашкала
шая
шванштаи
швед
шведле
шведлиле
шведлилеге
шведская
шведскии
швеи
швеции
швеция
швециягъа
швецияда
швециядан
швецияны
швоб
ше
шеварднадзени
шевченко
шевченкогъа
шевченкону
шеи
шекели
шекелли
шекер
шекери
шекерле
шекерни
шекилге
шекилде
шекили
шекилиди
шекилин
шекилине
шекиллери
шекиллерини
шекилли
шекспир
шекспира
шекспирге
шекспирден
шекспирни
шел
шельф
шельфде
шельфи
шельфинде
шельфлеринде
шельфни
шенген
шер
шерлок
шерман
шерманны
шестьдесят
шетланд
шефикъа
шеффилд
шеш
ши
шибан
шибладис
шива
шие
шии
шиит
шиитле
шимал
шималгъа
шималда
шималдагъы
шималдан
шималкавказ
шималны
шималчы
шималчыла
шималчыланы
шималы
шималына
шималында
шималындагъы
шималыракъ
шини
шинли
ширази
ширина
ширину
ширины
широта
широту
ших
шиша
шишаны
шка
шке
шкилди
шкилдини
шкок
школ
школа
школгъа
школда
школла
школлагъа
школлада
школланы
школну
школуна
школунда
шкуро
шлап
шлапла
шлезвиг
шлезвигни
шли
шло
шломо
шляхта
шо
шоа
шовинизм
шогун
шогъаи
шои
шоколад
шонберг
шопен
шопена
шоркъа
шорлула
шоссе
шот
шота
шотлалтеш
шотланд
шотландия
шотландияда
шотландияны
шотландлы
шотландлыла
шотландскии
шотышто
шоу
шох
шохларыны
шохлукъ
шохлукъну
шоху
шохун
шохуна
шохундан
шочмо
шош
шошлукъ
шошокеан
шпан
шпее
шпионаж
шпицберген
шпицбергенде
шпицбергенни
шре
шри
шрифт
шрифта
штаб
штабны
штабы
штабын
штабына
штабында
штабыны
штаи
штат
штатда
штатдагъы
штатды
штатла
штатлагъа
штатлада
штатланы
штатлары
штатларында
штатларыны
штатны
штаттар
штатха
штаты
штатыды
штатына
штатында
штатындагы
штатындан
штатыны
штеи
штера
штосс
штрассе
штраус
штраусну
штрих
штурм
штурмда
штурмну
штурму
штурмун
штурмуна
штурмунда
штурмують
штурмчу
штутгарт
шу
шуберт
шувалов
шуи
шуко
шукур
шумер
шуудан
шуша
шушкевич
шушниг
шхара
шыи
шылаб
шымал
шымалда
шяуляи
щ
ще
що
ъ
ы
ыб
ыбны
ыбы
ыгъычсыз
ыдам
ыз
ыздан
ызла
ызлары
ызларына
ызларындан
ызлау
ызны
ызы
ызын
ызына
ызында
ызындан
ызыны
ыи
ык
ыкъ
ыкъгъа
ыкъда
ыкъдан
ыкъла
ыкъланы
ыкълыкъ
ыкъмы
ыкъны
ыл
ыла
ылады
ыладыла
ылгъан
ылгъанды
ылгъандыла
ылгъаны
ыле
ылмагъан
ылме
ылуу
ылы
ылыб
ылыбды
ылыбдыла
ылылыкъны
ылыргъа
ылыу
ылыугъа
ылыуда
ылыуду
ылыула
ылыуланы
ылыулары
ылыуларына
ылыуларында
ылыуларыны
ылыунда
ылыуну
ылыуу
ылыууду
ылыуун
ылыууна
ылыуунда
ылыууну
ым
ыма
ымашым
ымда
ымдыгъы
ымдыкъ
ымдыла
ымны
ымы
ымыды
ын
ына
ынады
ында
ындан
ынды
ынлыкъла
ынмаи
ынчлы
ынчлыды
ыншлы
ыншлыды
ыны
ыныракъ
ыныргъа
ыныу
ып
ыр
ырады
ырадыла
ыракъ
ыргъа
ыргъан
ыргъанда
ыргъанды
ыргъандыла
ырджы
ырен
ырла
ырладырылгъан
ырлан
ырланады
ырланадыла
ырландырадыла
ырландыргъан
ырландыргъанды
ырландыргъандыла
ырландырмагъыз
ырландырмаи
ырландырыб
ырландырыгъыз
ырландырылады
ырландырыладыла
ырландырылгъан
ырландырылгъанды
ырландырылгъандыла
ырландырылмаи
ырландырылыргъа
ырландырыргъа
ырландырыу
ырландырыуну
ырланмагъан
ырланмагъанды
ырланмагъандыла
ырланмагъанлары
ырланмазгъа
ырланмаи
ырланмаса
ырланнган
ырланнганды
ырланнгандыла
ырланса
ырланы
ырланыб
ырланыр
ырланыргъа
ырланыу
ырланыугъа
ырланыуда
ырланыудан
ырланыулары
ырланыуну
ырланыуу
ырланыуун
ырланыууна
ырланыууну
ырлары
ырларындан
ырларыны
ырлы
ырлыкъны
ырма
ырманчы
ырны
ырсыз
ыртемалтше
ырхыз
ырхызлы
ырхызсыз
ыры
ырыб
ырылады
ырыладыла
ырылгъан
ырылгъанды
ырылгъандыла
ырылмазлыкъ
ырылыб
ырылыуу
ырына
ырында
ырындагъы
ырындан
ырыны
ырыр
ырыргъа
ырырмасындан
ырыу
ырыуну
ыс
ысе
ыт
ытхандан
ыу
ыугъа
ыуду
ыулары
ыуну
ыуу
ыууну
ых
ыхтырады
ыхтырадыла
ыхтыргъандыла
[...]
