!
"
#
##0
##1
##10
##11
##12
##13
##14
##15
##16
##17
##18
##19
##2
##20
##21
##22
##23
##24
##25
##26
##27
##28
##29
##3
##30
##31
##32
##33
##34
##35
##36
##37
##38
##39
##4
##40
##41
##42
##43
##44
##45
##46
##47
##48
##49
##5
##50
##51
##52
##53
##54
##55
##56
##57
##58
##59
##6
##60
##61
##62
##63
##64
##65
##66
##67
##68
##69
##7
##70
##71
##72
##73
##74
##75
##76
##77
##78
##79
##8
##80
##81
##82
##83
##84
##85
##86
##87
##88
##89
##9
##90
##91
##92
##93
##94
##95
##96
##97
##98
##99
$
%
&
'
(
)
*
+
,
-
.
/
0
00
000
0000
000000
0001
0002
0003
0004
001
002
003
004
005
006
007
008
009
01
010
011
012
013
014
015
016
017
018
019
02
020
021
022
023
024
025
026
027
028
029
03
030
031
032
033
034
035
036
037
038
039
04
040
041
042
043
044
045
046
047
048
049
05
050
051
052
053
054
055
056
057
058
059
06
060
061
062
063
064
065
066
067
068
069
07
070
071
072
073
074
075
076
077
078
079
08
080
081
082
083
084
085
086
087
088
089
09
090
091
092
093
094
095
096
097
098
099
1
10
100
1000
10000
100000
1001
1002
1003
1004
1005
1006
1007
1008
1009
101
1010
1011
1012
1013
1014
1015
1016
1017
1018
1019
102
1020
1021
1022
1023
1024
1025
1026
1027
1028
1029
103
1030
1031
1032
1033
1034
1035
1036
1037
1038
1039
104
1040
1041
1042
1043
1044
1045
1046
1047
1048
1049
105
1050
1051
1052
1053
1054
1055
1056
1057
1058
1059
106
1060
1061
1062
1063
1064
1065
1066
1067
1068
1069
107
1070
1071
1072
1073
1074
1075
1076
1077
1078
1079
108
1080
1081
1082
1083
1084
1085
1086
1087
1088
1089
109
1090
1091
1092
1093
1094
1095
1096
1097
1098
1099
11
110
1100
11000
1101
1102
1103
1104
1105
1106
1107
1108
1109
111
1110
1111
1112
1113
1114
1115
1116
1117
1118
1119
112
1120
1121
1122
1123
1124
1125
1126
1127
1128
1129
113
1130
1131
1132
1133
1134
1135
1136
1137
1138
1139
114
1140
1141
1142
1143
1144
1145
1146
1147
1148
1149
115
1150
1151
1152
1153
1154
1155
1156
1157
1158
1159
116
1160
1161
1162
1163
1164
1165
1166
1167
1168
1169
117
1170
1171
1172
1173
1174
1175
1176
1177
1178
1179
118
1180
1181
1182
1183
1184
1185
1186
1187
1188
1189
119
1190
1191
1192
1193
1194
1195
1196
1197
1198
1199
12
120
1200
12000
1201
1202
1203
1204
1205
1206
1207
1208
1209
121
1210
1211
1212
1213
1214
1215
1216
1217
1218
1219
122
1220
1221
1222
1223
1224
1225
1226
1227
1228
1229
123
1230
1231
1232
1233
1234
1235
1236
1237
1238
1239
124
1240
1241
1242
1243
1244
1245
1246
1247
1248
1249
125
1250
1251
1252
1253
1254
1255
1256
1257
1258
1259
126
1260
1261
1262
1263
1264
1265
1266
1267
1268
1269
127
1270
1271
1272
1273
1274
1275
1276
1277
1278
1279
128
1280
1281
1282
1283
1284
1285
1286
1287
1288
1289
129
1290
1291
1292
1293
1294
1295
1296
1297
1298
1299
13
130
1300
1301
1302
1303
1304
1305
1306
1307
1308
1309
131
1310
1311
1312
1313
1314
1315
1316
1317
1318
1319
132
1320
1321
1322
1323
1324
1325
1326
1327
1328
1329
133
1330
1331
1332
1333
1334
1335
1336
1337
1338
1339
134
1340
1341
1342
1343
1344
1345
1346
1347
1348
1349
135
1350
1351
1352
1353
1354
1355
1356
1357
1358
1359
136
1360
1361
1362
1363
1364
1365
1366
1367
1368
1369
137
1370
1371
1372
1373
1374
1375
1376
1377
1378
1379
138
1380
1381
1382
1383
1384
1385
1386
1387
1388
1389
139
1390
1391
1392
1393
1394
1395
1396
1397
1398
1399
14
140
1400
14000
1401
1402
1403
1404
1405
1406
1407
1408
1409
141
1410
1411
1412
1413
1414
1415
1416
1417
1418
1419
142
1420
1421
1422
1423
1424
1425
1426
1427
1428
1429
143
1430
1431
1432
1433
1434
1435
1436
1437
1438
1439
144
1440
1441
1442
1443
1444
1445
1446
1447
1448
1449
145
1450
1451
1452
1453
1454
1455
1456
1457
1458
1459
146
1460
1461
1462
1463
1464
1465
1466
1467
1468
1469
147
1470
1471
1472
1473
1474
1475
1476
1477
1478
1479
148
1480
1481
1482
1483
1484
1485
1486
1487
1488
1489
149
1490
1491
1492
1493
1494
1495
1496
1497
1498
1499
15
150
1500
15000
1501
1502
1503
1504
1505
1506
1507
1508
1509
151
1510
1511
1512
1513
1514
1515
1516
1517
1518
1519
152
1520
1521
1522
1523
1524
1525
1526
1527
1528
1529
153
1530
1531
1532
1533
1534
1535
1536
1537
1538
1539
154
1540
1541
1542
1543
1544
1545
1546
1547
1548
1549
155
1550
1551
1552
1553
1554
1555
1556
1557
1558
1559
156
1560
1561
1562
1563
1564
1565
1566
1567
1568
1569
157
1570
1571
1572
1573
1574
1575
1576
1577
1578
1579
158
1580
1581
1582
1583
1584
1585
1586
1587
1588
1589
159
1590
1591
1592
1593
1594
1595
1596
1597
1598
1599
16
160
1600
1601
1602
1603
1604
1605
1606
1607
1608
1609
161
1610
1611
1612
1613
1614
1615
1616
1617
1618
1619
162
1620
1621
1622
1623
1624
1625
1626
1627
1628
1629
163
1630
1631
1632
1633
1634
1635
1636
1637
1638
1639
164
1640
1641
1642
1643
1644
1645
1646
1647
1648
1649
165
1650
1651
1652
1653
1654
1655
1656
1657
1658
1659
166
1660
1661
1662
1663
1664
1665
1666
1667
1668
1669
167
1670
1671
1672
1673
1674
1675
1676
1677
1678
1679
168
1680
1681
1682
1683
1684
1685
1686
1687
1688
1689
169
1690
1691
1692
1693
1694
1695
1696
1697
1698
1699
17
170
1700
1701
1702
1703
1704
1705
1706
1707
1708
1709
171
1710
1711
1712
1713
1714
1715
1716
1717
1718
1719
172
1720
1721
1722
1723
1724
1725
1726
1727
1728
1729
173
1730
1731
1732
1733
1734
1735
1736
1737
1738
1739
174
1740
1741
1742
1743
1744
1745
1746
1747
1748
1749
175
1750
1751
1752
1753
1754
1755
1756
1757
1758
1759
176
1760
1761
1762
1763
1764
1765
1766
1767
1768
1769
177
1770
1771
1772
1773
1774
1775
1776
1777
1778
1779
178
1780
1781
1782
1783
1784
1785
1786
1787
1788
1789
179
1790
1791
1792
1793
1794
1795
1796
1797
1798
1799
18
180
1800
1801
1802
1803
1804
1805
1806
1807
1808
1809
181
1810
1811
1812
1813
1814
1815
1816
1817
1818
1819
182
1820
1821
1822
1823
1824
1825
1826
1827
1828
1829
183
1830
1831
1832
1833
1834
1835
1836
1837
1838
1839
184
1840
1841
1842
1843
1844
1845
1846
1847
1848
1849
185
1850
1851
1852
1853
1854
1855
1856
1857
1858
1859
186
1860
1861
1862
1863
1864
1865
1866
1867
1868
1869
187
1870
1871
1872
1873
1874
1875
1876
1877
1878
1879
188
1880
1881
1882
1883
1884
1885
1886
1887
1888
1889
189
1890
1891
1892
1893
1894
1895
1896
1897
1898
1899
19
190
1900
1901
1902
1903
1904
1905
1906
1907
1908
1909
191
1910
1911
1912
1913
1914
1915
1916
1917
1918
1919
192
1920
1921
1922
1923
1924
1925
1926
1927
1928
1929
193
1930
1931
1932
1933
1934
1935
1936
1937
1938
1939
194
1940
1941
1942
1943
1944
1945
1946
1947
1948
1949
195
1950
1951
1952
1953
1954
1955
1956
1957
1958
1959
196
1960
1961
1962
1963
1964
1965
1966
1967
1968
1969
197
1970
1971
1972
1973
1974
1975
1976
1977
1978
1979
198
1980
1981
1982
1983
1984
1985
1986
1987
1988
1989
199
1990
1991
1992
1993
1994
1995
1996
1997
1998
1999
2
20
200
2000
20000
2001
2002
2003
2004
2005
2006
2007
2008
2009
201
2010
2011
2012
2013
2014
2015
2016
2017
2018
2019
202
2020
2021
2022
2023
2024
2025
2026
2027
2028
2029
203
2030
2032
2035
204
2040
2048
2049
205
2050
206
2060
207
208
209
21
210
2100
211
212
213
214
215
216
217
218
219
22
220
2200
221
222
223
224
225
226
227
228
229
23
230
2300
2307
231
232
233
234
235
236
237
238
239
24
240
2400
2405
241
242
243
244
245
246
247
248
249
25
250
2500
25000
251
252
253
254
255
2550
256
2560
257
258
259
26
260
2600
261
262
263
264
265
266
267
268
269
27
270
2700
271
272
273
274
275
276
277
278
279
28
280
2800
281
282
283
284
285
286
287
288
289
29
290
2900
291
292
293
294
295
296
297
298
299
3
30
300
3000
30000
301
302
303
304
305
306
307
308
309
31
310
3100
311
312
313
314
315
316
3166
317
318
319
32
320
3200
321
322
323
324
325
326
327
328
329
33
330
3300
331
332
333
334
335
336
337
338
339
34
340
3400
341
342
343
344
345
346
347
348
349
35
350
3500
351
352
353
354
355
356
357
358
359
36
360
3600
361
362
363
364
365
366
367
368
369
37
370
3700
371
372
373
374
375
376
377
378
379
38
380
3800
381
382
383
384
385
386
387
388
389
39
390
391
392
393
394
395
396
397
398
399
4
40
400
4000
40000
401
402
403
404
405
406
407
408
409
41
410
411
412
413
414
415
416
417
418
419
42
420
4200
421
4217
422
423
424
425
426
427
428
429
43
430
4300
431
432
433
434
435
436
437
438
439
44
440
4400
441
442
443
444
445
446
447
448
449
45
450
4500
451
452
453
454
455
456
457
458
459
46
460
4600
461
462
463
464
465
466
467
468
469
47
470
471
472
473
474
475
476
477
478
479
48
480
4800
481
482
483
484
485
486
487
488
489
49
490
491
492
493
494
495
496
497
498
499
5
50
500
5000
50000
501
502
503
504
505
506
507
508
509
51
510
511
512
513
514
515
516
517
518
519
52
520
5200
521
522
523
524
525
526
527
528
529
53
530
5300
531
532
533
534
535
536
537
538
539
54
540
541
542
543
544
545
546
547
548
549
55
550
5500
551
552
553
554
555
556
557
558
559
56
560
5600
561
562
563
564
565
566
567
568
569
57
570
571
572
573
574
575
576
577
578
579
58
580
581
582
583
584
585
586
587
588
589
59
590
591
592
593
594
595
596
597
598
599
6
60
600
6000
601
602
603
604
605
606
607
608
609
61
610
611
612
613
614
615
616
617
618
619
62
620
621
622
623
624
625
626
627
628
629
63
630
631
632
633
634
635
636
637
638
639
64
640
641
642
643
644
645
646
647
648
649
65
650
6500
651
652
653
654
655
656
657
658
659
66
660
661
662
663
664
665
666
667
668
669
67
670
671
672
673
674
675
676
677
678
679
68
680
681
682
683
684
685
686
687
688
689
69
690
691
692
693
694
695
696
697
698
699
7
70
700
7000
701
702
703
704
705
706
707
708
709
71
710
7106
711
712
713
714
715
716
717
718
719
72
720
7203
721
722
723
724
725
726
727
728
729
73
730
731
732
733
734
735
736
737
738
739
74
740
741
742
743
744
745
746
747
748
749
75
750
7500
751
752
753
754
755
756
757
758
759
76
760
761
762
763
764
765
766
767
768
769
77
770
771
772
773
774
775
776
777
778
779
78
780
781
782
783
784
785
786
787
788
789
79
790
791
792
793
794
795
796
797
798
799
8
80
800
8000
8001
801
802
803
804
805
806
807
808
809
81
810
811
812
813
814
815
816
817
818
819
82
820
821
822
823
824
825
826
827
828
829
83
830
831
832
833
834
835
836
837
838
839
84
840
841
842
843
844
845
846
847
848
849
85
850
8500
851
852
853
854
855
856
857
858
859
86
860
861
862
863
864
865
866
867
868
869
87
870
871
872
873
874
875
876
877
878
879
88
880
881
882
883
884
885
886
887
888
889
89
890
891
892
893
894
895
896
897
898
899
9
90
900
9000
9001
901
902
90210
903
904
905
906
907
908
909
91
910
911
912
913
914
915
916
917
918
919
92
920
921
922
923
924
925
926
927
928
929
93
930
931
932
933
934
935
936
937
938
939
94
940
941
942
943
944
945
946
947
948
949
95
950
951
952
953
954
955
956
957
958
959
96
960
961
962
963
964
965
966
967
968
969
97
970
971
972
973
974
975
976
977
978
979
98
980
981
982
983
984
985
986
987
988
989
99
990
991
992
993
994
995
996
9965
997
998
999
:
;
<
=
>
?
@
\
^
_
`
a
aa
aaa
aaaa
aac
aachen
aalborg
aalto
aan
aantal
aar
aarau
aarde
aargau
aarhus
aaron
aas
aasta
aastal
aastatel
aat
ab
aba
ababa
abad
abadi
abaixo
abajo
abandon
abandona
abandonar
abandoned
abandonne
abandono
abans
abat
abate
abau
abb
abba
abbas
abbaye
abbazia
abbe
abbeville
abbey
abbia
abbot
abbott
abbr
abbrev
abbreviated
abbreviation
abby
abc
abd
abdallah
abdel
abdi
abdomen
abdominal
abdu
abdul
abdullah
abe
abeba
abel
abend
abenteuer
aber
aberdeen
abertura
abgeordneter
abgerufen
abgeschlossen
abha
abhandlungen
abi
abia
abidjan
abierta
abierto
abies
abigail
abilities
ability
abingdon
abitanti
abitur
abku
able
ablo
ablon
abnormal
abo
aboard
abogado
abolished
abolition
abord
aboriginal
abortion
abou
about
above
abr
abra
abraham
abram
abrams
abre
abreu
abri
abril
abrio
abrir
abrite
abroad
abruzzo
abs
abschluss
abschnitt
absence
absent
abside
absolue
absolut
absoluta
absolute
absolutely
absoluto
absolvierte
absorbed
absorption
abstract
abstraction
abstracts
absurd
abt
abtei
abteilung
abu
abuja
abundance
abundant
abungawg
abuse
abuso
aby
abyss
ac
aca
acaba
acabar
acabo
acabou
acacia
acad
acade
academia
academic
academics
academie
academy
acapulco
acara
acb
acc
accademia
acce
acceleration
accent
accept
acceptable
acceptance
accepte
accepted
accepting
accepts
accesat
acceso
access
accessdate
accessed
accessibility
accessible
accessibles
accession
accesso
accident
accidental
accidentally
accidente
accidents
accio
acciones
accipiter
acclaim
acclaimed
accommodate
accommodation
accompagne
accompanied
accompanying
accomplished
accord
accordance
accorde
according
accordingly
accordo
accords
account
accounting
accounts
accra
accueil
accueille
accumulation
accuracy
accurate
accusation
accusations
accuse
accused
ace
aceasta
aceh
aceite
acer
acerca
acero
aces
acesso
acest
acesta
aceste
acf
ach
acha
ache
acheve
achieve
achieved
achievement
achievements
achieving
achille
achilles
achim
acho
acht
achter
aci
acid
acide
acido
acids
acima
acker
ackermann
acknowledged
acm
aco
acompan
aconseguir
acord
acordo
acosta
acoustic
acp
acqua
acque
acquire
acquired
acquis
acquisition
acre
acres
acrididae
acro
across
acs
act
acta
acte
acted
actes
acteur
acteurs
actief
actif
actifs
acting
actinopterygii
action
actions
activa
activated
activation
active
actively
actives
actividad
actividades
activision
activism
activist
activists
activitats
activite
activities
activity
activo
acto
acton
actor
actores
actorion
actors
actos
actress
actrice
actrices
actriz
acts
actu
actuacio
actual
actuales
actualidad
actualite
actually
actualment
actualmente
actuar
actuel
actuelle
actuellement
acu
acuerdo
acum
acuminata
acun
acuta
acute
ad
ada
adagio
adair
adalah
adalbert
adam
adama
adams
adamson
adan
adana
adapt
adaptacio
adaptation
adaptations
adapte
adapted
adapter
adaptive
adar
adas
adat
adb
adc
add
adda
addams
addclass
added
addiction
adding
addio
addis
addison
addition
additional
additionally
additions
address
addressed
addresses
addressing
adds
ade
adel
adela
adelaide
adelante
adele
adelheid
adels
adem
adema
aden
adenauer
adequate
ades
adeva
adhd
adhe
adi
adicional
adidas
adieu
adige
adil
adina
adio
adj
adjacent
adjoint
adjust
adjusted
adjustment
adjutant
adler
adlı
adm
admin
administered
administra
administrac
administracio
administrador
administrateur
administratibo
administratif
administration
administrativ
administrativa
administrative
administrativna
administrativo
administrator
administrators
admins
admira
admiral
admiralty
admissibilite
admission
admit
admits
admitted
adn
adnan
ado
adobe
adolah
adolescence
adolescent
adolescente
adolescentes
adolescents
adolf
adolfo
adolph
adolphe
adonis
adopt
adopte
adopted
adoption
ador
adora
adore
adorno
ados
adott
adp
adquirir
adresse
adria
adriaan
adrian
adriana
adriano
adriatico
adrien
adrienne
ads
adsl
adta
adtong
adu
adult
adulta
adulte
adulto
adultos
adults
adunay
adv
advance
advanced
advancement
advances
advancing
advantage
advantages
advent
adventure
adventures
adverse
adversus
advertisement
advertising
advice
advised
adviser
advisor
advisory
advocacy
advocate
advocates
advokat
ady
adı
adına
adını
ae
aec
aedes
aeg
aegean
aek
aer
aerea
aerei
aereo
aerial
aero
aeroflot
aerona
aeronautica
aeronautical
aeronautics
aeronave
aeronaves
aeroporto
aeropuerto
aerosmith
aerospace
aes
aesthetic
aesthetics
aew
af
afa
afar
afb
afc
afd
afdeling
afe
aff
affa
affair
affaire
affaires
affairs
affari
affect
affecte
affected
affecting
affection
affects
affiche
affiliate
affiliated
affiliation
affine
affinis
affinity
affirme
affleck
affluent
afford
afganistan
afghan
afghanistan
afghano
afi
afin
afirma
afirmar
afirmo
afl
afla
aflate
afo
afonso
afp
afr
afra
afraid
africa
africain
africaine
africains
african
africana
africano
africans
africanus
afrika
afrikaans
afrikaanse
afrique
afro
afstand
aft
after
aftermath
afternoon
afterwards
ag
aga
again
against
agama
agamemnon
agar
agaricus
agassiz
agata
agatha
agathe
agave
agder
age
aged
agen
agence
agencia
agencies
agency
agenda
agent
agente
agentes
agenti
agents
ageri
ages
agglome
aggregate
aggression
aggressive
agha
agi
agile
aging
agir
agit
agli
agm
agne
agnes
agni
agnieszka
ago
agora
agost
agostini
agostino
agosto
agra
agraria
agre
agree
agreed
agreement
agreements
agrees
agri
agricola
agricole
agricoles
agricultura
agricultural
agriculture
agrilus
agrippa
agro
agrupacio
ags
agu
agua
aguas
aguascalientes
aguilar
aguilera
aguirre
agung
agus
agusta
agusti
agustus
ah
aha
ahead
ahi
ahl
ahli
ahmad
ahmed
ahmet
ahn
aho
ahol
aholi
aholisi
ahora
ahu
ai
aia
aic
aichi
aici
aid
aida
aidan
aide
aided
aider
aids
aient
aig
aigle
aigu
aigua
aiheesta
aik
aika
aikana
aiken
ail
aile
ailes
ailleurs
aim
aime
aimed
aimer
aims
ain
aina
ainda
ainsi
ainu
air
airborne
airbus
aircraft
aire
aired
aires
airfield
airing
airline
airlines
airplane
airplay
airport
airports
airs
airways
airy
ais
aise
aises
aisne
ait
aita
aitken
aiuto
aix
aixi
aixo
aj
aja
ajaccio
ajal
ajan
ajax
aje
aji
ajne
ajno
ajo
ajoute
ajouter
aju
ajuda
ajudar
ajuntament
ak
aka
akad
akade
akademi
akademia
akademie
akademii
akademik
akal
akan
akar
akb
akbar
akc
ake
akershus
akhir
akhirnya
aki
akibat
akik
akin
akira
akita
akkor
ako
akp
akron
aks
aksara
akt
akta
akte
akten
akti
aktif
aktion
aktiv
aktive
aktivita
aktor
aktuell
aktuelle
aku
al
ala
alaba
alabak
alabama
aladdin
aladin
alagoas
alain
alam
alameda
alamo
alamos
alan
alana
aland
alang
alapi
alapja
alar
alarco
alarm
alas
alaska
alastair
alat
alata
alatt
alb
alba
albacete
alban
albanese
albani
albania
albanian
albano
albans
albany
albatros
albe
albedo
alben
albero
albert
alberta
alberti
alberto
alberts
albertus
albi
albin
albino
albion
albo
albrecht
albright
albu
album
albuma
albumet
albumi
albumin
albums
albumu
albumy
albuquerque
albus
alc
alca
alcala
alcalde
alcaldes
alcanc
alcance
alcanzar
alcanzo
alcatraz
alchemilla
alchemist
alcohol
alcool
alcun
alcune
alcuni
alda
alde
aldea
alden
alder
aldershot
aldi
aldo
aldrich
aldrig
aldı
ale
alebo
alec
alegre
alegri
alejandra
alejandro
aleksandar
aleksander
aleksandr
aleksandra
aleksei
alema
aleman
alemana
alemanes
alemanha
alemania
alemany
alemanya
alen
alenc
alene
aleph
aleppo
alert
ales
alessandra
alessandria
alessandro
alessio
alex
alexa
alexander
alexandr
alexandra
alexandre
alexandria
alexandrie
alexandru
alexei
alexey
alexis
alf
alfa
alfabet
alfabeto
alfaro
alfons
alfonso
alfred
alfredo
alg
alga
algae
algarve
alge
algebra
algebraic
algemeen
algemene
alger
algeria
algerian
algiers
algo
algorithm
algorithms
algoritmo
algu
algue
algum
alguma
algumas
alguna
algunas
algunes
algunos
alguns
alhambra
ali
alia
aliados
aliaj
alianc
alianza
alias
aliases
alibangbang
alibi
alicante
alice
alicia
alie
alien
aliens
alighieri
align
alignbars
aligned
alignment
alihan
alii
alike
alimenta
alimentacio
alimentation
alimento
alimentos
alin
alina
aline
alis
alisa
alisateur
alisation
alise
aliser
alison
alistair
alite
alive
alix
alkali
alkmaar
alkohol
alkoi
all
alla
allah
allan
allant
alle
alleanza
allee
alleen
allegations
alleged
allegedly
allegheny
allegiance
allegro
allein
allem
allemagne
allemand
allemande
allemandes
allemands
allen
allenatore
allende
aller
allerdings
allerede
alles
alley
allga
allgemein
allgemeine
allgemeinen
allgemeines
alli
alliance
alliances
allianz
allie
allied
allier
allies
alligator
allison
allium
allma
allman
allmovie
allmusic
allo
allocated
allocation
allora
allow
allowed
allowing
allows
allsvenskan
allt
alltid
ally
alm
alma
almagro
alman
almanac
almanach
almanya
almas
almaty
almeida
almeno
almeri
almighty
almirante
almost
almıs
alo
aloe
alois
alone
along
alongside
alonso
alonzo
alors
aloysius
alp
alpe
alpen
alpes
alpha
alphabet
alphabetical
alphonse
alpi
alpin
alpina
alpine
alpino
alps
already
alrededor
alright
als
alsace
also
alstom
alt
alta
altai
altamente
altamira
altar
altare
altas
altay
alte
alten
altenburg
alter
altera
altered
alternate
alternatif
alternativ
alternativa
alternative
alternatively
alternatives
alternativo
altes
altezza
although
alti
altijd
altiniai
altitud
altitude
altitudes
altman
alto
altogether
alton
altona
altos
altra
altre
altres
altri
altro
altstadt
altura
altı
altın
altında
alu
alue
alueella
alueen
aluminium
aluminum
alumnado
alumnes
alumni
alumnicard
alumnos
alun
alus
alva
alvar
alvarado
alvarez
alvaro
alveolar
alves
alvin
always
aly
alz
alzheimer
alıs
am
ama
amadeo
amadeus
amado
amador
amal
amalia
amalie
aman
amand
amanda
amanita
amant
amante
amar
amara
amaral
amarillo
amaro
amas
amat
amata
amateur
amateurs
amato
amazing
amazo
amazon
amazonas
amb
amba
ambas
ambassade
ambassadeur
ambassador
ambassadors
amber
ambient
ambiental
ambiente
ambition
ambitions
ambitious
ambito
ambo
ambos
ambrogio
ambroise
ambrose
ambrosio
ambrosius
ambulance
ambush
amc
amd
ame
ameac
amedeo
amelia
amely
amelyek
amelyet
amen
amended
amendment
amendments
ament
amento
amer
americ
america
american
americana
americani
americano
americanos
americans
americanus
americas
americke
americky
amerika
amerikaans
amerikaanse
amerikai
amerikalı
amerikan
amerikaner
amerikanische
amerikanischen
amerikanischer
amerikansk
amerikanska
amerikanske
amerike
amersfoort
amerykan
ames
amg
amherst
ami
amica
amici
amico
amid
amie
amiens
amiga
amigo
amigos
amihanan
amihanang
amihang
amikor
amin
amina
amine
amino
amir
amiral
amis
amistad
amit
amitie
aml
amma
ammad
amman
amministrazione
ammo
ammunition
amnesia
amnesty
amo
amon
among
amongst
amont
amor
amore
amores
amos
amount
amounts
amour
amoureux
amours
amp
amparo
ampe
amphibian
amphibians
amphoe
ampla
ample
amplia
ampliacio
amplio
amplitude
amr
ams
amstel
amsterdam
amt
amtrak
amu
amundsen
amur
amusement
amx
amy
an
ana
anadolu
anaheim
anai
anak
anakin
anal
anales
anali
analisi
analiza
analog
analogue
analyse
analyses
analysis
analyst
analytic
analytical
analytics
anan
anand
ananda
anar
anarchism
anarchist
anarchy
anas
anastasia
anastasio
anat
anato
anatole
anatoli
anatolia
anatomi
anatomia
anatomie
anatomy
anc
anca
ancak
ance
ances
ancestor
ancestors
ancestral
ancestry
anch
anche
ancho
anchor
anchorage
ancien
ancienne
anciennes
anciens
ancient
ancona
ancora
and
anda
andaluci
andalus
andalusia
andaman
andante
andar
andare
andata
ande
anden
ander
andere
anderem
anderen
anderer
anderlecht
anders
andersen
anderson
andersson
andes
andet
andhra
andi
andina
ando
andorra
andra
andrade
andre
andrea
andreas
andrei
andrej
andrena
andres
andretti
andreu
andrew
andrews
andrey
andro
android
andromeda
andrzej
andy
ane
anemia
anemone
anexo
anfa
anfang
anfangs
ang
anga
angaben
angaz
ange
angeboten
angegeben
angeho
angel
angela
angelegt
angeles
angeli
angelica
angelika
angelina
angelique
angelis
angelo
angels
angelus
anger
angers
anges
angewandte
anggola
anggota
angie
angkatan
angkor
angl
anglais
anglaise
angle
angles
angleterre
anglia
anglican
anglicky
anglii
anglo
angol
angola
angoule
angra
angriff
angry
angst
anguilla
angular
angus
angustifolia
anh
anha
anhalt
anhand
anhianhi
anhui
ani
ania
anie
anii
anim
anima
animacio
animais
animal
animale
animales
animali
animalia
animals
animated
animation
animations
animator
animaux
anime
animo
anin
anique
anita
aniversario
anja
anje
anjou
anju
anka
ankara
ankau
anke
anker
anla
anlage
anlagen
anlas
anmerkungen
anmoins
ann
anna
annak
annalen
annales
annals
annan
annapolis
annat
anne
annecy
annemarie
annen
annet
annette
annex
annexe
annexes
anni
annibale
annie
annika
annis
anniversaire
anniversary
anno
annonaceae
annonce
annos
annotated
announce
announced
announcement
announces
announcing
annu
annuaire
annual
annually
annuelle
annum
anny
ano
anomala
anomenat
anon
anonyme
anonymous
anonymus
anopheles
anos
another
anque
ans
ansa
ansbach
anschließend
anschluss
anse
anselm
anselmo
anser
anses
ansi
ansicht
anska
anske
anson
anstalt
answer
answered
answers
ant
anta
antagonist
antal
antalet
antalya
antananarivo
antar
antara
antarctic
antarctica
antarktika
antarktis
antas
antau
ante
antecedentes
anteil
antelope
antena
antenna
antenne
anterior
anteriores
anteriormente
antes
anthem
anthologie
anthology
anthony
anthrax
anthropological
anthropologie
anthropology
anthurium
anti
antic
antica
antiche
antichi
antico
antics
antiga
antigen
antigo
antigone
antigos
antigu
antigua
antiguas
antiguo
antiguos
antik
antike
antiken
antilles
antioch
antioquia
antiqua
antique
antiques
antiquite
antiquities
antiquity
anto
antofagasta
antoine
antoinette
antologi
antologia
anton
antoni
antonia
antonin
antonino
antonio
antonius
antonov
antony
antrim
antropologi
ants
antti
antwerp
antwerpen
anu
anual
anugerah
anul
anuncia
anunciado
anuncio
anunciou
anura
anus
anv
anva
anvers
anwar
anwendung
anxiety
any
anya
anybody
anymore
anyone
anys
anything
anyway
anywhere
anz
anza
anzac
anzahl
anzeiger
ao
aoc
aoi
aoki
aol
aomori
aon
aos
aosta
aou
ap
apa
apabila
apache
apagar
apan
apare
aparece
aparecen
aparecer
aparecio
aparentemente
aparicio
apart
aparte
apartheid
apartment
apartments
apc
ape
apel
apenas
aperc
aperta
aperto
apertura
aperture
apes
apesar
apex
apg
aphia
aphrodite
api
apia
apiaceae
apidae
apie
apil
apis
apl
aplica
aplicacio
aplicada
aplicar
apo
apocalypse
apocynaceae
apoi
apoio
apollo
apollon
apolo
apology
apostle
apostles
aposto
apostoli
apostolic
apostolica
apostolo
apoyo
app
apparai
apparatus
appare
appareil
apparent
apparente
apparently
apparition
appartement
appartenant
appartient
appeal
appeals
appear
appearance
appearances
appeared
appearing
appears
appel
appele
appellation
appelle
appena
append
appendix
apple
apples
appleton
applicable
application
applications
applied
applies
applique
apply
applying
appoint
appointed
appointment
appointments
apporte
appre
appreciation
apprend
apprentice
approach
approached
approaches
approaching
approche
appropriate
approuve
approval
approved
approx
approximate
approximately
approximation
apps
appui
apr
apre
aprender
apresenta
apri
aprika
april
aprile
aprilie
aproximadamente
aps
apt
apte
apu
apud
apus
aq
aqua
aquarium
aquarius
aquatic
aque
aquel
aquela
aqueles
aquell
aquella
aquellos
aquest
aquesta
aquestes
aquests
aqui
aquila
aquileia
aquino
aquitaine
aquitania
ar
ara
arab
araba
arabe
arabera
arabes
arabi
arabia
arabian
arabic
arabica
arabie
arabische
arabischen
arabo
arabs
arac
arachnida
arad
arafat
arago
aragon
aragona
aragone
arah
araigne
arak
aral
aralık
aram
aramaic
aran
arana
aranda
araneae
araneidae
araneus
arap
ararat
aras
arasında
arata
arau
araya
arb
arba
arbeid
arbeit
arbeiten
arbeiter
arbeitet
arbeitete
arbitrage
arbitrary
arbitration
arbo
arbor
arborea
arboretum
arbre
arbres
arc
arca
arcade
arcades
arcadia
arce
arch
archa
archaeological
archaeology
archaic
archbishop
archdiocese
arche
archer
arches
archeve
archi
archibald
archie
archimedes
archipel
archipelago
archipie
architect
architecte
architects
architectural
architecture
architekt
architekten
architektur
architektura
architetto
architettura
archiv
archive
archived
archives
archivio
archivo
archivos
arcivescovo
arco
arcos
arcs
arctic
arcy
ard
arda
arde
ardea
arden
ardenne
ardennes
ardından
are
area
areal
areas
arecaceae
aree
aren
arena
arenaria
arenas
arendt
arequipa
ares
aretha
arezzo
arg
arge
argent
argenti
argentin
argentina
argentinas
argentine
argentinien
argentino
argentinos
argento
arges
argo
argon
argos
args
argu
argue
argued
argues
arguing
argument
argumenta
argumento
argumentos
arguments
argus
argyll
ari
aria
ariadne
ariana
ariane
arias
arica
arid
arie
ariel
aries
arif
aris
arise
arising
arista
aristide
aristo
aristote
aristoteles
aristotle
arithmetic
arizona
arjuna
ark
arka
arkansas
arkham
arkitekt
arkiv
arko
arkı
arles
arlington
arm
arma
armada
armadas
armageddon
armagh
armament
armamento
armand
armando
armani
armas
armata
armate
arme
armed
armee
armen
armenia
armenian
armenians
armes
armi
armia
armies
armii
armin
armistice
armor
armored
armour
armoured
arms
armstrong
army
arn
arna
arnaldo
arnaud
arndt
arne
arnhem
arno
arnold
arnulf
aro
arol
aroma
aron
arose
around
arp
arpa
arqueo
arqueolo
arquitecto
arquitectura
arr
arra
arran
arrange
arranged
arrangement
arrangements
arras
array
arre
arrest
arrested
arresto
arriba
arribar
arrie
arriva
arrival
arrive
arrived
arrives
arriving
arrivo
arro
arrondissement
arrondissements
arrow
arrows
arroyo
arroz
ars
arse
arsenal
arslan
art
arta
arte
artean
artem
artemis
artemisia
arten
artens
arter
arteria
arterial
artery
artes
arthropoda
arthur
arti
article
articles
articolo
artifacts
artificial
artigas
artigo
artigos
artikel
artikkelen
artikulo
artilleri
artillerie
artillery
artis
artisans
artist
artista
artistas
artiste
artistes
artisti
artistic
artistica
artistique
artists
arto
artois
arts
artu
artur
arturo
artwork
aru
aruba
arundel
arv
arvensis
arvid
arvo
arxiv
ary
arya
aryan
arz
arzobispo
arzt
as
asa
asad
asahi
asal
asam
asamblea
asan
asas
asc
ascension
ascenso
ascent
aschaffenburg
ascher
ascii
ascoli
ascomycota
ase
asean
asemenea
asesinato
ash
asha
ashanti
ashby
ashe
asher
ashes
ashford
ashgate
ashley
ashton
asi
asia
asian
asiatic
asiatica
aside
asie
asien
asilidae
asimismo
asimov
asin
asina
asistencia
ask
asked
asker
askeri
asking
asko
asks
asl
aslan
asleep
asli
asm
asma
asmara
asne
asnost
aso
asociacio
asopis
asp
asparagos
aspect
aspecto
aspectos
aspects
aspekt
aspekte
aspen
aspergillus
aspetto
asphalt
asplenium
aspx
asr
ass
assad
assai
assam
assassin
assassinat
assassination
assassine
assassins
assault
asse
assedio
assemblage
assemble
assemblea
assembled
assembleia
assembly
assen
assert
asserted
assess
assessed
assessment
assessor
asset
assets
assez
assi
assieme
assigned
assignment
assim
assimilation
assis
assisi
assist
assistance
assistant
assiste
assisted
assistent
assistente
assists
associac
associacio
associate
associated
associates
association
associations
associazione
associe
assume
assumed
assuming
assumption
assunta
assunto
assurance
assure
assurer
assyrian
ast
asta
astana
aste
aster
asteraceae
asterix
asteroid
asteroide
asteroiden
asteroides
asteroids
astfel
asti
astni
asto
aston
astor
astoria
astra
astragalus
astral
astrid
astro
astronaut
astrono
astronom
astronomer
astronomi
astronomia
astronomical
astronomie
astronomo
astronomska
astronomy
astrophysical
astrophysics
astros
asturias
asu
asuka
asuncio
asuntos
asupra
asus
asv
asy
asya
asylum
ası
at
ata
atac
ataca
atacama
atacar
atal
atalanta
atan
ataque
ataques
atari
atas
atatu
atau
ataupun
atc
atd
ate
atelier
ateliers
aten
atena
atenas
atencio
atene
ateneo
ater
ates
ath
athe
atheist
athen
athena
athene
athens
athle
athlete
athletes
athletic
athletics
athos
ati
ation
ations
atividades
atkins
atkinson
atl
atla
atlanta
atlante
atlantic
atlantica
atlantik
atlantiko
atlantique
atlantiques
atlantis
atlas
atle
atlet
atleta
atletas
atletico
atletismo
atm
atmosfe
atmosfera
atmosphe
atmosphere
atmospheric
ato
atoll
atom
atoma
atomic
atoms
atop
ator
atos
atp
atque
atr
atra
atrave
atribui
atrice
atrium
atriz
ats
att
atta
attacco
attache
attached
attachment
attack
attacked
attacking
attacks
attaque
attaques
atte
atteindre
atteint
attempt
attempted
attempting
attempts
attend
attendance
attendant
attended
attending
attendre
attentat
attention
atti
attic
attica
attila
attire
attitude
attitudes
attivita
atto
attore
attorney
attorno
attr
attract
attracted
attraction
attractions
attractive
attraverso
attribue
attribute
attributed
attributes
attribution
attrice
attuale
attualmente
atu
atual
atualmente
atunci
atv
atwood
au
aube
aubert
aubin
aubrey
auburn
auch
auckland
auction
aucun
aucune
aud
aude
audi
audie
audience
audiences
audiencia
audio
audiovisual
audit
audition
auditor
auditorium
audrey
audubon
aue
auer
auerbach
auf
aufbau
auffu
aufgabe
aufgaben
aufgefu
aufgelo
aufgenommen
aufgestellt
aufgrund
aufkla
aufl
auflage
auflo
aufnahme
aufnahmen
aufsa
aufstieg
auftrag
aug
auga
auge
augen
augmentation
augmente
augsburg
august
augusta
auguste
augusti
augustin
augustine
augustinus
augusto
augustus
augusztus
aujourd
auk
auks
aula
aumenta
aumentando
aumentar
aumento
aun
aung
aunque
aunt
auparavant
aupre
auquel
aur
aura
auraient
aurait
aure
aurea
aurel
aurelia
aurelio
aurelius
aureus
aurivillius
aurora
aurore
aus
ausbau
ausbildung
auschwitz
ausdruck
ausencia
ausfu
ausgabe
ausgaben
ausgefu
ausgestattet
ausgetragen
ausgewa
ausgezeichnet
ausla
ausland
ausnahme
ausschließlich
aussi
ausstattung
ausstellung
aust
austen
austerlitz
austin
austra
austral
australasia
australasian
australe
australia
australian
australiana
australiano
australians
australie
australien
australis
australische
austri
austria
austriaca
austriaco
austrian
austro
auswa
auswahl
auszeichnung
auszeichnungen
aut
auta
autant
aute
autel
autem
auteur
auteurs
authentic
author
authored
authorities
authority
authorized
authors
autism
auto
autobahn
autobiography
autobus
automa
automated
automatic
automatically
automation
automatique
automne
automo
automobil
automobile
automobiles
automobili
automotive
autono
autonoma
autonome
autonomi
autonomia
autonomie
autonomous
autonomy
autor
autora
autore
autorem
autoren
autores
autori
autoridad
autoridade
autoridades
autorise
autorita
autorite
autoroute
autors
autos
autostrada
autour
autre
autrefois
autres
autriche
autumn
autun
auvergne
aux
auxerre
auxiliar
auxiliary
außen
außer
außerdem
außerhalb
av
ava
avaient
availability
available
avais
avait
avaju
aval
avalanche
avalon
avanc
avance
avanje
avant
avanti
avatar
avati
avc
ave
avea
avec
avellaneda
avellino
avendo
avenger
avengers
avenida
avenir
aventura
aventuras
aventure
aventures
avenue
aver
average
averaged
avere
avery
aves
avesse
aveva
avevano
avex
aveyron
avez
avg
avgiftsfri
avgust
avi
avia
aviacio
avian
aviation
aviator
avibase
avignon
avila
avio
avion
aviones
avions
avis
aviso
aviv
avlidna
avn
avni
avo
avocat
avoid
avoided
avoiding
avoir
avon
avons
avra
avrebbe
avrebbero
avril
avrinningsomra
avro
avrupa
avs
avu
avui
avut
avuto
avventura
aw
awa
awake
awakening
awal
award
awarded
awards
aware
awareness
away
awe
awesome
awstralya
ax
axe
axel
axes
axial
axis
ay
aya
ayacucho
ayala
ayam
ayan
ayant
ayat
aydın
aye
ayer
ayisyen
ayiti
aymara
ayn
aynı
ayres
ayrton
ayrıca
ayu
ayuda
ayudar
ayumi
ayuntamiento
ayutthaya
ayı
az
aza
azad
azar
azaz
aze
azerbaijan
azerbaijani
azeri
azevedo
azi
azienda
azione
azioni
aziz
azo
azon
azonban
azores
azov
azpian
azt
aztec
azteca
azu
azul
azur
azure
azərbaycan
að
ał
ała
b
ba
baa
baal
baan
baas
bab
baba
babak
babcock
babe
babel
babes
babi
babic
babies
babilonia
babu
baby
babylon
babylonian
bac
baca
bacchus
bach
bachelor
bachmann
bacillus
back
backed
background
backgroundcolors
backing
backlash
backs
backstage
backup
backward
backwards
bacon
bacte
bacteria
bacterial
bad
bada
badajoz
badan
bade
baden
bader
badge
badger
badia
badly
badminton
bado
bae
baehr
baer
baez
bafta
bag
baga
bagdad
baghdad
bagi
bagian
bags
bah
baha
bahadur
bahamas
bahan
bahasa
bahawa
bahi
bahia
bahin
bahn
bahnhof
bahnstrecke
bahr
bahrain
bahwa
bai
baia
baie
baik
bail
baile
bailey
bailly
bain
baina
baino
bains
baird
bairro
baisse
bait
baita
baix
baixa
baixo
baixos
baja
bajas
bajnoksa
bajo
bajos
bak
baka
bakar
bakarrik
bake
baker
baki
bakker
bakr
baku
bakukangon
bakı
bal
bala
balada
balai
balance
balanced
balangay
balas
balboa
bald
baldwin
bale
baleares
balet
balfour
bali
balili
balka
balkan
balkans
ball
balla
ballad
ballade
ballads
ballard
balle
ballerina
ballet
ballets
ballistic
ballo
ballon
balloon
ballot
ballroom
balls
balo
balogh
baloncestistas
baloncesto
balta
baltasar
balthasar
baltic
baltimore
balzac
bam
bamako
bamberg
bambi
bambini
bambino
bamboo
bambu
ban
bana
banana
banat
banc
banca
banco
bancos
bancroft
band
banda
bandai
bandar
bandas
bande
bandeau
bandeira
bandera
banderas
bandes
bandet
bandiera
bandit
bandits
bando
bands
bandung
bandy
bane
bang
bangalore
bangkok
bangladesh
bangor
bangsa
bangunan
bani
banja
banjar
banjo
bank
banka
banken
banker
banking
bankruptcy
banks
banku
banlieue
banned
banner
banners
bano
banque
banquet
bans
bansa
banska
bantam
banten
bantu
banu
banyak
bao
baptise
baptism
baptist
baptista
baptiste
bar
bara
barack
barak
baran
barang
barangay
barat
barb
barba
barbados
barbara
barbarian
barbarians
barbarossa
barbe
barber
barbera
barbie
barbier
barbieri
barbosa
barbour
barbra
barbuda
barbus
barc
barca
barcelona
barcelone
barclay
barclays
barco
barcos
bard
bardata
bardo
bardziej
bardzo
bare
barely
barge
bari
barincrement
baris
bark
barker
barkley
barley
barlow
barn
barna
barnard
barnes
barnet
barnett
barney
barnsley
baro
baron
barone
baroness
baronet
baroni
barons
baroque
barque
barr
barra
barracks
barrage
barranca
barranco
barranquilla
barras
barre
barred
barrel
barren
barrera
barreto
barrett
barri
barrichello
barrie
barrier
barriers
barrington
barrio
barrios
barro
barroco
barron
barros
barroso
barrow
barry
barrymore
bars
barset
bart
barth
barthe
bartholomew
bartlett
barto
bartolome
bartolomeo
barton
bartsch
baru
baruch
bas
basa
basada
basado
basal
base
baseado
baseball
based
basel
baseline
basement
basen
baserat
bases
bash
bashir
basi
basic
basics
basidiomycota
basihan
basil
basile
basilea
basilica
basilicata
basilika
basilio
basilique
basin
basis
basket
basketball
basler
baso
basque
bass
bassa
bassano
basse
basses
bassett
bassi
bassin
bassist
basso
basta
bastante
bastard
bastia
bastian
bastien
bastille
bastion
bastogne
basu
bat
bata
bataille
bataillon
batak
batalha
batalion
batalla
batallo
batang
batas
batavia
batch
bate
batean
bateau
bateman
baten
bateri
bateria
bates
bath
bathurst
bati
batista
batman
bato
baton
bats
battaglia
battalion
battalions
batteria
batterie
batteries
battery
batting
battista
battle
battlefield
battles
battleship
battu
battuta
battuto
batu
batzuk
bau
baudelaire
baudouin
bauen
bauer
bauern
bauhaus
baum
baumann
baur
baureihe
baute
bauten
bautista
bautzen
bauwerk
bava
bavaria
bavarian
bavie
baviera
bawah
bawd
bax
baxter
bay
baya
bayan
bayard
baybayon
bayer
bayerische
bayerischen
bayerischer
bayern
bayeux
bayley
baylor
bayonne
bayou
bayreuth
bays
baz
baza
bazaar
bazar
baze
bazı
bb
bba
bban
bbb
bbbb
bbbbb
bbbs
bbc
bbd
bbe
bbi
bbs
bc
bce
bd
bdd
bde
bdfutbol
bds
be
bea
beach
beaches
beacon
beagle
beale
beam
bean
beans
bear
bearbeitet
beard
bearing
bears
beast
beasts
beat
beata
beate
beaten
beati
beating
beatles
beato
beatrice
beatrix
beatriz
beats
beatty
beau
beauchamp
beaucoup
beaufort
beaulieu
beaumont
beauregard
beaute
beautiful
beauty
beauvais
beauvoir
beaux
beaver
bebe
beberapa
bec
became
because
beccaloni
beck
becker
becket
beckett
beckham
becky
become
becomes
becoming
bed
beda
bede
bedeutet
bedeutung
bedford
bedfordshire
bedingungen
bedr
bedrijf
bedroom
beds
bedu
bee
beech
beef
beek
beeld
been
beendet
beendete
beer
beers
bees
beethoven
beetle
beetles
bef
befand
befinden
befindet
befo
befolkning
befolkningen
before
befu
beg
bega
began
begann
begannen
begge
begin
beginn
beginnen
beginning
beginnings
beginnt
begins
begon
begonia
begonnen
begra
begriff
begru
begu
begun
begynte
beha
behalf
behandelt
behandlung
behar
behavior
behavioral
behaviour
behind
beho
behold
behoort
bei
beide
beiden
beier
beijing
beim
bein
being
beings
beira
beirut
beispiel
beispiele
beispielsweise
beit
beitra
beitrag
beja
bek
beka
bekam
bekannt
bekannte
bekannten
bekas
bekend
bekende
beker
bekerja
bel
bela
belakang
belanda
belang
belangrijke
belangrijkste
belarus
belarusian
belas
bele
belediye
beleg
belegt
belegte
belfast
belfort
belg
belga
belge
belges
belgia
belgian
belgica
belgie
belgien
belgio
belgique
belgisch
belgische
belgium
belgrad
belgrade
belgrado
belgrano
beli
beliau
belief
beliefs
believe
believed
believes
believing
belinda
belize
bell
bella
bellamy
bellas
bellator
belle
belles
belleville
bellevue
belleza
belli
bellini
bello
bells
bellum
belluno
belly
belmont
belmonte
belo
belong
belonged
belonging
belongs
beloved
below
belt
beltra
belu
belum
belvedere
bem
bemerkungen
bemu
ben
bena
benannt
bench
bend
benda
bender
bene
beneath
benedetti
benedetto
benedict
benedictus
benedikt
beneficio
benefit
benefits
benelux
benes
benetton
benevento
benfica
bengal
bengali
bengals
bengt
beni
benigno
benin
benito
benjamin
benn
benne
bennet
bennett
bennington
benno
benny
beno
benoi
benoist
benoit
bens
benson
bent
benth
bentham
bentley
bento
benton
bentuk
benutzt
benz
beograd
beowulf
ber
bera
berada
berasal
berat
berbagai
berbe
berber
berdasarkan
bere
bereich
bereits
berenguer
beretta
berg
berga
bergamo
bergang
berge
bergen
berger
bergerac
bergh
bergman
bergmann
berhasil
berhaupt
beri
bericht
berichte
berichten
berichtet
berikut
bering
berita
berk
berkas
berkeley
berkshire
berli
berlin
berlina
berlinale
berliner
berlino
berlioz
berlusconi
bermain
berman
bermuda
bern
berna
bernabe
bernadette
bernadotte
bernahm
bernahme
bernal
bernama
bernard
bernarda
bernardi
bernardino
bernardo
bernd
berne
berner
bernhard
bernhardt
bernie
bernini
bernommen
bernoulli
bernstein
bero
berre
berri
berry
bers
bersama
bersetzer
bersetzt
bersetzung
bersicht
bert
berta
bertelsmann
bertha
berthe
berthold
bertie
bertil
bertolt
bertragen
bertram
bertrand
beru
beruf
berufen
berwick
berwiegend
beryl
bes
besa
besanc
besar
besaß
bescha
beschra
beschreibung
beschreven
beschrieben
besetzt
besetzung
beside
besides
besitz
besitzen
besitzt
beskrevet
beskrevs
beso
besoin
besoins
besondere
besonderer
besonders
bess
besser
bessie
besson
best
besta
bestaan
bestaande
bestaat
bestand
bestanden
beste
bestehen
besteht
bestelako
besten
bester
bestia
bestimmt
bestimmte
bestimmten
bestimmung
bestod
bestritt
bestseller
bestuur
besuch
besuchte
besze
besøkt
bet
beta
bete
beteiligt
betekent
beter
beth
bethel
bethesda
bethlehem
bethune
beti
betis
beto
beton
betra
betrachtet
betrayal
betrieb
betrieben
betrug
betsy
bette
better
bettina
betty
betu
betula
between
bev
bevan
bevat
beverley
beverly
bevo
bevolking
bevor
bewa
beweging
bewegung
bewohner
bey
beyer
beyonce
beyond
bez
bezala
bezeichnet
bezeichnete
bezeichnung
beziehung
beziehungen
beziehungsweise
bezirk
bezocht
bezpec
bezpieczen
bezu
bezug
bf
bg
bgm
bh
bha
bharat
bhi
bhp
bhutan
bhutto
bi
bia
biagio
biais
bianca
bianchi
bianco
biarritz
bias
biasa
biasanya
biasonyo
biathlon
biała
białystok
bib
bibcode
bibel
bibi
bible
biblia
biblical
biblio
bibliogra
bibliografi
bibliografia
bibliografie
bibliographie
bibliography
biblioteca
biblioteka
bibliothe
bibliotheca
bibliothek
bic
bica
bice
bici
bicolor
bicycle
bid
bida
bidang
biden
bidrag
bie
bieber
bieg
biel
bielefeld
biella
bien
bienes
biennale
biens
biento
bier
bietet
big
bigarren
bigelow
bigg
bigger
biggest
bih
bihar
bij
bija
bijna
bijvoorbeeld
bik
bike
bikini
bil
bila
bilakaera
bilal
bilan
bilancio
bilang
bilateral
bilbao
bilbo
bild
bilden
bildenden
bilder
bildern
bildet
bildete
bildhauer
bildung
bile
bilen
biles
bili
bilingual
bill
billboard
bille
billed
biller
billie
billings
billion
bills
billy
bilo
bils
bim
bin
bina
binary
bind
binder
binding
bine
bing
bingen
bingham
bingo
binh
bini
binne
binnen
bino
binom
binomial
bint
bintang
bio
biochemistry
biodiversity
biogeography
biogra
biografi
biografia
biografico
biografie
biografija
biografisk
biographical
biographie
biographies
biographique
biographisches
biography
biol
biolib
biolo
biologi
biologia
biological
biologie
biology
biomedical
bios
biotechnology
bip
bipolar
bir
bira
birc
birch
bird
birdlife
birds
birger
birgit
biri
birinchi
birinci
birkenau
birles
birlig
birlikte
birmingham
biro
birth
birthday
birthplace
births
biru
birz
bis
bisa
bisby
bisch
bischo
bischof
bischoff
biserica
bisexual
bisher
bishop
bishops
biskop
biskup
biskupa
bislang
bismarck
bison
bispo
bissau
bist
bistro
bistum
bit
bita
bitat
bitch
bitcoin
bite
bites
biti
bitka
bitki
bito
bits
bitter
bivs
biz
bizantina
bizantino
bizarre
bizet
bizi
bizottsa
biztanle
biztanleak
biztanleria
bj
bjo
bjp
bjørn
bk
bke
bl
bla
black
blackberry
blackbird
blackburn
blackhawks
blacklist
blackmore
blackout
blackpool
blacks
blackwell
blackwood
blad
blade
blades
blaine
blair
blaise
blake
blame
blanc
blanca
blancas
blanchard
blanche
blanco
blancos
blancs
bland
blandt
blank
blanka
blant
blas
blasco
blason
blast
blatt
blau
blaue
blaz
blaze
blazers
ble
bleach
bled
bleeding
bleef
bleek
bleeker
blei
bleiben
bleibt
blend
blender
bler
bles
bless
blesse
blessed
blessing
blessure
bleu
bleue
bleus
blev
blevet
bli
blic
blica
blicas
blich
blick
blico
blicos
blieb
blieben
blind
blinde
blink
blir
bliss
blitt
blitz
bliver
bliz
blizu
blizzard
blo
bloc
blocage
bloch
block
blockade
blockbuster
blocked
blocking
blocks
blocs
blog
blogger
blogs
blogspot
blois
blok
blom
blond
blonde
blondie
blood
bloody
bloom
bloomberg
bloomfield
bloomington
bloomsbury
bloque
bloqueio
blossom
blot
blow
blown
blows
bls
blu
blue
bluegrass
blues
bluetooth
bluff
blum
blume
blunt
blur
blurb
blut
bly
blyth
blz
bm
bmatrix
bmc
bmg
bmi
bmp
bmw
bmx
bn
bne
bner
bnf
bnp
bo
boa
board
boarding
boards
boas
boat
boats
bob
boba
bobby
bobo
boc
boca
bocage
bocca
boccaccio
bochum
bock
bod
boda
bode
boden
bodensee
bodies
bodo
body
bodyguard
bodø
boe
boeing
boek
boeken
boer
bog
boga
bogart
bogdan
bogen
bogor
bogota
bohe
bohemia
bohemian
bohr
boi
bois
boise
boiss
boj
boja
bojan
boje
boji
bok
boka
boken
bokma
boko
boks
boku
bol
bola
bolan
boland
bold
boldsymbol
bole
boleh
bolero
boleslav
bolesti
bolesław
boleti
boletus
boleyn
boli
bolivar
bolivia
boliviana
bolj
boll
bolle
bollettino
bollywood
bolo
bologna
bols
bolsa
bolsonaro
bolt
bolton
boltzmann
bolus
bolzano
bom
bomb
bomba
bombardement
bombardier
bombardment
bombas
bombay
bombe
bomber
bombers
bombing
bombs
bombus
bombyliidae
bon
bona
bonaire
bonanza
bonaparte
bonaventura
bond
bondage
bonde
bonds
bone
bones
bong
bongo
bonham
bonheur
boni
boniface
bonifacio
bonita
bonito
bonjour
bonn
bonne
bonner
bonnes
bonnet
bonneville
bonnie
bonnier
bono
bons
bonus
boo
boogie
book
booker
booklet
books
boolean
boom
boomerang
boon
boone
boost
booster
boot
boote
booth
bootleg
boots
bop
bor
bora
borba
borbe
borbo
bord
borda
borde
bordeaux
borden
border
borders
bordo
bore
boreal
borealis
borg
borges
borghese
borgia
borgo
bori
boring
boris
borja
born
borne
borneo
boro
borough
boroughs
borromeo
borrowed
borsa
bort
boru
borussia
bory
bos
bosc
bosch
bosco
bose
bosh
boshqa
bosna
bosne
bosni
bosnia
bosnian
bosnie
bosnien
bosque
bosques
boss
bossa
bosse
bost
boston
bosworth
bot
bota
botafogo
botanic
botanica
botanical
botanik
botaniker
botanique
botanischen
botanist
botany
bote
boten
both
botha
boto
bots
botschaft
botschafter
botswana
bottal
bottas
botticelli
bottle
bottom
bou
bouchard
bouche
boucher
bouches
bouchet
boucle
boue
bougainville
bought
bouillon
boulanger
boulder
boule
boulenger
boulevard
boulogne
bounce
bound
boundaries
boundary
bounded
bounds
bounty
bouquet
bourbon
bourg
bourgeois
bourgeoisie
bourges
bourget
bourgogne
bourgoin
bourne
bournemouth
bourse
bout
boutique
bouton
bouvier
bouw
boven
bow
bowen
bower
bowers
bowie
bowl
bowler
bowles
bowling
bowls
bowman
box
boxe
boxer
boxes
boxing
boy
boyaca
boyce
boycott
boyd
boyer
boyfriend
boyko
boyle
boys
boyunca
boyz
boz
bozen
bp
bpm
bps
bq
br
bra
brabant
brabham
brac
braccio
brace
brach
bracht
brachte
bracket
brackets
braconidae
brad
bradbury
bradford
bradley
bradshaw
brady
braga
braganc
bragg
brahe
brahim
brahma
brahman
brahms
braille
brain
brains
brak
brake
bram
brama
bran
branca
branch
branche
branches
branco
brand
branda
branded
brandenburg
branding
brando
brandon
brands
brandt
brandy
brani
branka
branko
brann
brano
brant
bras
brasi
brasil
brasile
brasileira
brasileiro
brasileiros
brasilen
brasilia
brasilien
brasiliensis
brass
brassica
brassicaceae
brat
brata
bratislava
brauer
braun
braunschweig
brava
brave
braves
bravo
brawl
braxton
bray
brazi
brazil
brazilian
brazo
brazos
brazzaville
brdo
bre
breach
bread
break
breakdown
breaker
breakers
breakfast
breaking
breakout
breaks
breakthrough
breast
breath
breathe
breathing
brecht
bred
breda
brede
bree
breed
breeding
breeds
breen
breeze
bref
breisgau
breit
breite
breizh
bremen
bremer
bremerhaven
brenda
brendan
brennan
brenner
brent
brentford
bres
brescia
breslau
bresse
brest
bret
bretagne
bretan
brethren
breton
brett
breu
breuer
breuning
brev
breve
brevemente
brevet
brevi
brevis
brewer
brewers
brewery
brewing
brewster
brexit
brez
bri
brian
brica
brice
brick
bride
brides
bridge
bridgeport
bridges
bridget
brie
brief
briefe
briefing
briefly
brien
brienne
brig
briga
brigada
brigade
brigades
brigadier
brigata
brigen
briggs
brigham
bright
brighton
brigitte
brill
brillante
brilliant
brin
brindisi
bring
bringen
bringing
brings
bringt
brink
brio
brion
bris
brisbane
brise
bristol
brit
brita
britain
britania
britannia
britannica
britannico
britannique
britanniques
brite
britische
britischen
britischer
british
britisk
britiske
britney
brito
brits
britse
britske
britt
brittany
britten
britton
brne
brno
bro
broad
broadcast
broadcaster
broadcasting
broadcasts
broader
broadway
brochure
brock
brockhaus
brod
brodie
brody
broer
broglie
broj
broja
broju
broke
broken
broker
bromley
bromwich
bron
bronce
broncos
brons
bronson
bronte
bronx
bronz
bronze
bronzo
brood
brook
brooke
brooklyn
brooks
bror
bros
brot
brother
brotherhood
brothers
brought
broughton
brouwer
brown
browne
browning
browns
browser
browsers
broz
brt
bru
bruce
bruch
bruck
bruckner
bruder
brug
bruges
brugge
bruins
bruk
brukt
brun
bruna
brune
brunei
brunel
brunet
bruni
brunnen
brunner
bruno
brunswick
brush
brussel
brussels
brut
brutal
brute
bruto
brutus
bruxelles
bry
bryan
bryant
bryce
bryn
bryozoa
brz
brzo
brøndby
bs
bsa
bsc
bsd
bsg
bt
bte
btr
bts
bu
bua
buah
bubble
bubbles
bubo
buc
bucarest
buccaneers
buch
buchanan
bucharest
buchenwald
buchhandlung
buchholz
bucht
buck
bucket
buckingham
buckinghamshire
buckley
bucks
bucures
bud
buda
budapes
budapest
budapesti
budaya
budd
buddha
buddhism
buddhist
buddy
bude
budge
budget
budi
budova
budu
buduc
budynek
bue
buen
buena
buenas
buenaventura
bueno
buenos
buffalo
buffer
buffet
buffon
buffy
bufo
bug
bugatti
bugnaw
bugs
bugu
buick
build
builder
builders
building
buildings
built
buiten
buk
buka
bukan
bukarest
bukid
bukit
buku
bul
bula
bulak
bulan
bulbophyllum
bulga
bulgaria
bulgarian
bulgarien
bulk
bull
bulla
bulldog
bulldogs
bulle
bullet
bulletin
bullets
bullock
bulls
bully
bulo
bulu
bulunan
bum
bumi
bump
bun
buna
bunch
bund
bunda
bundan
bundes
bundesamt
bundesarchiv
bundesliga
bundesrepublik
bundesstaat
bundesstraße
bundestag
bundeswehr
bundle
bundy
bune
bung
bunga
bunge
bungtod
bungtoron
bunker
bunny
bunu
bunun
bunuri
buo
buon
buona
buono
buprestidae
buque
buques
bur
burada
burbank
burden
bure
bureau
buren
burg
burgemeester
burgen
burgenland
burger
burgers
burgess
burgh
burgos
burgundy
buri
burial
buried
burke
burkina
burlesque
burlington
burma
burman
burmeister
burmese
burn
burned
burnett
burnham
burning
burnley
burns
burnt
burr
burrell
burroughs
burrows
bursa
burst
burt
burton
buru
burundi
burung
bury
bus
busan
busay
busca
buscando
buscar
busch
buses
bush
business
businesses
businessman
buskerud
bust
busta
bustamante
buste
buster
busto
busy
but
buta
butch
butcher
bute
buteo
butler
buts
butt
butte
butter
butterfield
butterflies
butterfly
butterworth
button
buttons
buvo
buy
buying
buys
buz
buza
buzz
bv
bw
bwf
bwv
bx
by
byc
byd
bydgoszcz
bye
byen
byer
bygger
bygget
byl
byla
byli
bylo
byly
bypass
byrd
byrne
byron
bystrica
byt
byte
bytes
byzantine
byzantium
był
była
było
były
bz
bzw
c
ca
caa
cab
caballeri
caballero
caballeros
caballo
caballos
caban
cabaret
cabe
cabec
cabecera
cabello
cabeza
cabezas
cabildo
cabin
cabina
cabinet
cable
cables
cabo
cabot
cabra
cabral
cabrera
cabriolet
cac
cacao
caccia
cache
cactus
cad
cada
cadas
cade
cadena
cadence
cadet
cadets
cadillac
cadre
caduta
cae
caen
caer
caesar
caesarea
caesars
caetano
caf
cafe
caffe
cage
cagliari
cahiers
cahill
cai
cain
caine
caire
cairn
cairns
cairo
caisse
caius
caixa
caja
cake
cal
cala
calabria
calais
calatrava
calc
calciatore
calciatori
calcio
calcium
calcul
calculate
calculated
calculation
calculator
calculus
calcutta
caldas
calder
caldera
caldero
caldo
caldwell
cale
caleb
caledonia
calendar
calendario
calendrier
calgary
calhoun
cali
calibre
calidad
calidris
caliente
calif
califo
california
californica
californie
caligula
call
callaghan
callahan
callao
calle
called
calles
calling
calls
calm
calma
calo
calor
caltech
calvados
calvert
calvi
calvin
calvo
calypso
cam
cama
camacho
camara
camargo
camaro
cambia
cambiar
cambio
cambios
cambodia
cambra
cambrai
cambridge
cambridgeshire
camden
came
camel
camelot
cameo
camera
cameras
cameron
cameroon
cameroun
cami
camila
camilla
camille
camillo
camilo
caminho
camino
caminos
camisa
camo
camp
campagna
campagne
campagnes
campaign
campaigns
campan
campana
campanha
campania
campanile
campanula
campbell
campea
campeche
campeo
campeonato
campeonatos
campeones
campi
campinas
camping
campio
campion
campionat
campionati
campionato
campione
campioni
campo
camponotus
campos
camps
campus
camus
can
cana
canaan
canada
canadensis
canadese
canadian
canadien
canadienne
canadiens
canal
canale
canales
canals
canard
canaria
canarias
canary
canberra
canc
cancel
canceled
cancelled
cancer
cancio
canciones
cand
candela
candelaria
candi
candice
candida
candidat
candidata
candidate
candidates
candidato
candidatos
candidats
candidatura
candidature
candle
cando
candy
cane
cani
canique
canis
canlynol
cannabis
cannes
canning
cannon
cannot
cano
canoe
canon
canonical
canons
cant
canta
cantabria
cantal
cantando
cantante
cantantes
cantar
cantata
canterbury
cantidad
canto
canton
cantonal
cantons
cantor
cantora
cantos
cantu
canucks
canvas
canvi
canyon
canzone
canzoni
cao
caos
cap
capa
capabilities
capability
capable
capacidad
capacidade
capacita
capacite
capacity
capaz
capcom
cape
capela
capella
capelli
capensis
capi
capilla
capita
capitaine
capital
capitale
capitales
capitalism
capitals
capitan
capitani
capitano
capite
capitol
capitolo
capo
capoluogo
capone
capote
capped
cappella
capra
capri
caprice
caps
capsule
capt
captain
captains
caption
captive
captivity
captura
capture
captured
captures
capturing
capua
caput
car
cara
carabidae
carabinieri
carabus
caracas
caracol
caracte
caracteri
caracteriza
carai
caras
carattere
caratteristiche
caravaggio
caravan
carbo
carbon
carbone
carbono
carcassonne
carcere
carcinoma
card
cardenal
cardi
cardiac
cardiff
cardinal
cardinale
cardinals
cardiovascular
cardona
cardoso
cards
care
career
careers
careful
carefully
cares
carex
carey
carga
cargo
cargos
cari
caribbean
caribe
caribou
carica
carico
carin
carina
carioca
carita
caritas
carl
carla
carles
carleton
carlin
carlisle
carlo
carlos
carlota
carlsen
carlson
carlsson
carlton
carly
carlyle
carme
carmel
carmelo
carmen
carmichael
carmina
carmine
carmona
carn
carnage
carnaval
carne
carnegie
carney
carnival
carnot
caro
carol
carola
carole
caroli
carolina
caroline
carolus
carolyn
caron
carpenter
carpet
carpi
carr
carranza
carrara
carrasco
carre
carrefour
carreira
carrer
carrera
carreras
carretera
carriage
carrie
carried
carrier
carriera
carriers
carries
carrillo
carrington
carro
carroll
carros
carry
carrying
cars
carson
carsten
cart
carta
cartagena
cartago
cartas
carte
cartel
carter
cartes
carthage
cartier
carton
cartoon
cartoons
cartridge
carts
cartwright
caruso
carvajal
carvalho
carved
carver
cary
cas
casa
casablanca
casada
casado
casal
casale
casamento
casanova
casar
casas
cascade
cascades
casco
case
caserta
cases
casey
cash
casi
casimir
casino
caso
casos
casou
caspar
casper
caspian
cass
cassa
cassandra
casse
cassel
cassell
cassette
cassia
cassidy
cassie
cassini
cassino
cassius
cast
casta
castan
caste
castel
castela
castell
castella
castellana
castellano
castellanos
castelli
castello
castelnau
castelnuovo
castelo
castiglione
castile
castilla
castillo
casting
castle
castles
castor
castro
castrum
casu
casual
casualties
casualty
cat
cata
catago
catala
catalan
catalana
catalanes
catalans
catalina
catalog
catalogo
catalogue
catalogueoflife
catalogus
catalonia
catalun
catalunya
catalyst
catania
catanzaro
catarina
catastrophe
catatan
catch
catcher
catches
catching
cate
catedra
catedral
categori
categoria
categorie
categories
category
catena
caterina
caterpillar
catfish
catharina
cathe
cathedral
catherine
catholic
catholicism
catholics
catholique
catholiques
cathy
cato
cats
cattedrale
cattle
cattolica
cau
cauca
caucasian
caucasus
cauchy
caucus
caudal
caught
causa
causando
causar
causas
cause
caused
causes
causing
causo
caution
cav
cava
cavalerie
cavalier
cavaliere
cavalieri
cavaliers
cavalleria
cavalli
cavallo
cavalry
cave
cavendish
caves
cavite
cavour
cay
cayenne
cayman
cayo
caza
cb
cba
cbc
cbd
cbe
cbn
cbs
cc
cca
ccc
ccd
cctv
ccw
cd
cda
cdc
cdma
cdot
cdots
cdp
cdr
cds
cdu
ce
cea
ceara
ceas
cease
ceased
ceaus
cebu
cec
ceca
cech
ceci
cecil
cecilia
cedar
cede
cedric
cee
cego
cei
ceiling
ceinture
cej
cel
cela
cele
celebra
celebracio
celebrar
celebrate
celebrated
celebrates
celebrating
celebration
celebrations
celebre
celebrities
celebrity
celebro
celeste
celestial
celia
celine
celje
celkem
cell
cella
celle
celles
cello
cells
cellular
cellule
celo
celsius
celso
celta
celtic
celtics
celu
celui
celular
cely
cem
cembre
cement
cementerio
cemetery
cemment
cen
cena
cene
ceni
cens
cense
censimento
censo
censorship
censura
censure
census
cent
centar
centaur
centaurea
centauri
cente
centenario
centenary
centennial
center
centered
centers
centi
centime
centimeter
cento
centra
centraal
central
centrala
centrale
centrales
centrali
centre
centres
centri
centro
centros
centru
centrum
cents
centura
centuries
centurion
century
cenu
ceny
ceo
ceos
cep
cependant
ception
cer
cera
cerambycidae
ceramic
ceramics
cerca
cercani
cercano
cercle
cerco
cerda
cerebral
ceremonia
ceremonial
ceremonies
ceremony
ceres
cerezo
cerf
cerita
cern
cerne
cero
cerrado
cerro
cert
certa
certain
certaine
certaines
certainly
certains
certe
certes
certificate
certification
certifications
certified
certo
cervantes
cervus
ces
cesa
cesar
cesare
cesena
cesis
cessaire
cessaires
cesse
cession
cessite
cessna
cest
cesta
ceste
cet
ceta
cette
ceuta
ceux
cev
ceylon
cf
cfa
cfc
cfg
cfl
cfm
cfr
cfrac
cg
cgi
ch
cha
chaco
chacun
chacune
chad
chadwick
chai
chaim
chain
chains
chair
chairman
chairs
chakra
chal
chalcidoidea
chalk
challenge
challenged
challenger
challenges
challenging
chalmers
chalon
cham
chama
chamada
chamado
chambe
chamber
chamberlain
chamberlin
chambers
chambre
chamonix
champ
champagne
champaign
champion
championnat
championnats
championne
champions
championship
championships
champlain
champs
chan
chance
chancellor
chances
chandler
chandra
chanel
chang
change
changed
changement
changements
changer
changes
changing
changwat
channel
channels
channing
chanson
chansons
chant
chantal
chante
chanteur
chanteuse
chantier
chantiers
chantilly
chants
chao
chaos
chap
chapel
chapelle
chapitre
chaplin
chapman
chappe
chapter
chapters
chaque
char
chara
character
characteristic
characteristics
characterization
characterized
characters
charakter
charente
charentes
charge
charged
charger
chargers
charges
chariot
charitable
charite
charity
charlemagne
charleroi
charles
charleston
charley
charlie
charlotte
charlottenburg
charlton
charly
charm
charming
charpentier
chars
chart
charte
charter
chartered
chartres
chartreuse
charts
chas
chase
chasing
chasse
chasseurs
chassis
chat
chateau
chatham
chattanooga
chau
chaucer
chaumont
chausse
chaux
chave
chaves
chavez
chce
che
cheap
chec
checa
check
checked
checking
checklist
checklists
checks
checs
cheek
cheer
cheers
cheese
cheetah
chef
chefe
chefs
chega
chegar
chegou
chel
chelle
chelles
chelsea
cheltenham
chem
chemical
chemically
chemicals
chemie
chemiker
chemin
chemins
chemische
chemist
chemistry
chemnitz
chen
cheney
cheng
chengdu
chennai
cher
cherbourg
cherche
chercher
cheresse
chern
cherokee
cherry
cheryl
ches
chesapeake
cheshire
chess
chest
chester
chesterfield
chestnut
chet
cheung
cheval
chevalier
chevaliers
chevaux
chevrolet
chevron
chew
cheyenne
chez
chi
chia
chiamata
chiamato
chiang
chiapas
chiar
chiara
chiba
chic
chica
chicago
chichester
chick
chicken
chicks
chico
chie
chiede
chief
chiefly
chiefs
chien
chiesa
chiese
chieti
chiffre
chiffres
chihuahua
child
childhood
children
chile
chilean
chilena
chileno
chili
chill
chim
chimica
chimie
chin
china
chinatown
chine
chinensis
chinese
chinesische
chinesischen
ching
chino
chinois
chinoise
chip
chips
chira
chirac
chiron
chirurgie
chis
chisholm
chitarra
chittagong
chiu
chl
chlich
chloe
chloride
cho
choc
choco
chocolate
choctaw
chod
chodni
choi
choice
choices
choir
choisi
choisir
choix
choke
chola
cholera
chomsky
chong
chongqing
choo
choose
choosing
chop
chopin
chopra
choque
chor
chora
choral
chorale
chord
chords
chore
choro
chorus
chos
chose
chosen
choses
chou
chow
chp
chr
chra
chre
chris
christ
christa
christchurch
christen
christensen
christi
christiaan
christian
christiana
christiane
christiania
christianisme
christianity
christians
christiansen
christie
christina
christine
christliche
christlichen
christmas
christo
christoph
christophe
christopher
christus
christy
chrome
chromosome
chronic
chronica
chronicle
chronicles
chronicon
chronik
chronique
chroniques
chrono
chronological
chronologie
chronology
chrysler
chrysomelidae
chrzes
chse
chsische
chsischen
chst
chste
chsten
cht
chte
chten
chter
chto
chu
chua
chuan
chuck
chun
chung
chuo
chur
church
churches
churchill
chute
chuye
chy
chœur
ci
cia
ciach
cial
ciale
ciales
cialise
cialiste
ciao
ciara
cias
cible
cibo
cic
cicadellidae
cicero
cichlidae
ciclismo
ciclista
ciclistas
ciclo
cid
cida
cidade
cidades
cide
cider
cido
cidos
cie
ciel
cielo
ciem
cien
ciencia
ciencias
cienti
cierta
cierto
ciertos
cies
cifique
cifra
cig
cigarette
cigarettes
cigliano
cigu
cii
cija
cijan
cijas
cikin
cikk
cikkek
cil
cile
cili
cim
cima
cime
cimetie
cimitero
cimo
cin
cina
cinc
cincinnati
cinco
cincuenta
cinderella
cindy
cine
cinema
cinemas
cinematic
cinematogra
cinematografica
cinematography
cinerea
cinese
cinq
cinquanta
cinquante
cinque
cinquie
cinta
cintura
cinturo
cio
cioe
cios
cioła
cipitations
cipriano
cir
circ
circa
circle
circles
circo
circonscription
circuit
circuito
circuits
circulacio
circular
circulation
circumstances
circus
ciri
cirka
ciro
cirque
cis
cisco
cise
cision
cisions
cisneros
cit
cita
citadel
citado
citation
citations
cite
cited
cites
citi
cities
citing
citizen
citizens
citizenship
cito
citoyens
citroe
citrus
cits
citta
cittadini
city
citypopulation
ciu
ciuda
ciudad
ciudadanos
ciudades
ciutat
ciutats
civ
civic
civica
civico
civil
civile
civiles
civili
civilian
civilians
civilisation
civilization
civilizations
civils
civilta
civitas
cił
cj
ck
cka
cke
cken
cker
ckkehr
cklich
cks
cksichtigung
ckt
ckte
cky
cl
cla
clade
claes
claim
claimed
claiming
claims
clair
claire
clairement
clan
clancy
clans
clapton
clar
clara
claramente
claration
clare
claremont
clarence
clarendon
clari
clarinet
clarity
clark
clarke
clarkson
claro
clasate
clase
clases
clash
clashes
clasificacio
class
classe
classement
classements
classes
classic
classica
classical
classico
classics
classifica
classificac
classificacio
classification
classifiche
classified
classique
classiques
classis
classroom
claude
claudia
claudine
claudio
claudius
claus
clause
clausen
clausura
clav
clava
clave
clavier
claw
clay
clayton
clc
cle
clean
cleaning
cleanup
clear
clearance
cleared
clearing
clearly
clearwater
clef
clem
clemens
clement
clemente
clements
cleo
cleopatra
clergy
clerk
clermont
clero
cles
cleveland
clever
cli
cliche
click
client
cliente
clientes
clients
cliff
clifford
cliffs
clifton
clima
climat
climate
climats
climax
climb
climbing
clin
cline
clinic
clinical
clint
clinton
clio
clip
clipper
clippers
clips
clique
cliquer
clive
clo
clocher
clock
clone
clones
clooney
clos
close
closed
closely
closer
closest
closet
closing
closure
cloth
clothes
clothing
cloud
clouds
clover
clovis
clown
clu
club
clube
clubes
clubs
clue
cluj
cluny
cluster
clusters
clutch
clyde
cm
cma
cmentarzu
cmos
cms
cn
cnbc
cnc
cne
cnica
cnicas
cnico
cnicos
cnn
cnrs
cnt
co
coa
coach
coached
coaches
coaching
coahuila
coal
coalicio
coalition
coast
coastal
coaster
coat
coates
coats
cobain
cobalt
cobar
cobb
cobertura
cobra
cobre
coburg
coca
cocaine
coccoidea
cochabamba
coche
cochran
cochrane
cocina
cock
cockerell
cockpit
cocktail
coco
cocoa
coconut
cocos
cocteau
cod
coda
code
codes
codex
codice
coding
cody
coe
coefficient
coelho
coen
coeur
coffee
coffin
cog
cognac
cognition
cognitive
cohe
cohen
cohn
coi
coil
coimbra
coin
coinage
coincide
coins
cois
coisa
coisas
coke
col
cola
colaboracio
colas
colbert
colby
colchester
cold
coldplay
cole
colec
coleccio
colegio
coleman
coleo
coleophora
coleoptera
coles
colette
coli
colima
colin
colina
coliseum
coll
colla
collaborated
collaboration
collaborations
collaborative
collaborazione
collage
collapse
collapsed
collapsible
collar
colle
colleagues
collect
collected
collectie
collectif
collecting
collection
collections
collective
collectivite
collector
collectors
colleen
collega
collegamenti
college
colleges
collegiate
collegio
collegium
collette
collezione
colli
collier
collin
collina
colline
collingwood
collins
collision
colloque
colman
colmar
colo
colocado
colocar
cologie
cologique
cologne
coloma
colombe
colombia
colombian
colombiana
colombiano
colombie
colombo
colon
colonel
colonia
colonial
coloniale
colonias
colonie
colonies
colonisation
colonization
colonna
colonne
colonnes
colonos
colons
colony
color
colorado
colore
colored
colores
colori
colors
colossus
colour
coloured
colours
colpi
colpo
cols
colspan
colt
coltrane
colts
columba
columbia
columbus
column
columna
columnas
columns
com
coma
comanche
comanda
comandante
comando
comarca
combat
combate
combates
combats
combattimento
combina
combinacio
combination
combinations
combine
combined
combining
combo
combs
combustible
combustion
come
comeback
comec
comedia
comedian
comedy
comenc
comenta
comenzaron
comenzo
comer
comerc
comercial
comerciales
comercio
comes
comet
cometa
comets
comfort
comfortable
comic
comics
comida
comienza
comienzo
coming
comique
comisio
comissa
comitato
comite
comm
comma
command
commandant
commande
commanded
commandement
commander
commanders
commandeur
commanding
commando
commandos
commands
comme
commedia
commemorative
commenc
commence
commenced
commencement
comment
commentaire
commentaires
commentaries
commentary
commentator
commented
comments
commerce
commercial
commerciale
commercially
commercio
commissaire
commissario
commission
commissione
commissioned
commissioner
commissioners
commissions
commit
commitment
committed
committee
committees
commodore
common
commonly
commons
commonwealth
commun
communal
communale
communautaire
communaute
commune
communes
communicate
communication
communications
communion
communique
communis
communism
communist
communiste
communists
communities
community
commuter
como
comp
compact
compagni
compagnia
compagnie
compagnies
compagno
compan
companhia
companies
companion
companions
company
comparable
comparacio
comparative
compare
compared
comparer
comparing
comparison
comparisons
compass
compassion
compatibility
compatible
compe
compendium
compensation
compense
compenses
compete
competed
competencia
competent
competic
competicio
competing
competir
competition
competitions
competitive
competitors
competizione
competizioni
compie
compilation
compilations
compiled
compiler
compilersreviewers
complaint
complaints
comple
complejo
complement
complesso
complet
completa
completamente
completar
complete
completed
completely
completes
completing
completion
completo
complex
complexe
complexes
complexity
complexo
compliance
complicated
complications
complot
complutense
comply
compone
component
componente
componentes
componenti
components
componist
comporta
comportamento
comporte
comportement
compose
composed
composer
composers
composicio
composite
compositeur
composition
compositions
compositor
compositores
composizione
composta
compostela
composto
compound
compounds
compra
comprar
compre
comprehensive
comprenant
comprend
comprende
comprendre
compression
compris
comprise
comprised
comprises
comprising
compromise
comptait
compte
compter
comptes
compton
compuesta
compuesto
compulsory
computation
computational
computer
computers
computing
comtat
comte
comtes
comtesse
comu
comum
comun
comuna
comunale
comunas
comune
comunes
comuni
comunica
comunicac
comunicacio
comunicaciones
comunidad
comunidade
comunidades
comunista
comunistas
comunita
comunitat
comunque
comuns
con
conan
conc
conca
concacaf
concat
conce
concede
conceic
conceived
concelho
concello
concentra
concentracio
concentrated
concentration
concentrations
concepcio
concept
conception
concepto
concepts
conceptual
concern
concernant
concerne
concerned
concerning
concerns
concert
concerti
concerto
concertos
concerts
concession
concessions
concha
conciencia
concierto
conciertos
concilio
concise
conclave
conclude
concluded
conclusa
conclusio
conclusion
conclusions
concolor
concord
concorde
concordia
concorso
concours
concrete
concreto
concurrence
concurrent
concurso
condado
condamne
conde
condemned
condenado
condes
condic
condicio
condiciones
condita
condition
conditional
conditions
condizioni
condor
conduce
conduct
conducted
conducting
conductor
conduit
conduite
cone
conegut
conf
confe
confederacio
confederate
confederation
confere
conference
conferences
conferencia
confession
confessions
confiance
confidence
confident
confidential
confie
config
configuration
confine
confined
confirm
confirma
confirmation
confirme
confirmed
confirms
conflict
conflicto
conflictos
conflicts
conflit
conflito
conflits
conflitto
confluence
conform
conforme
confrontation
confronti
confronto
confusa
confused
confusion
cong
conge
congo
congre
congregation
congreso
congress
congressional
congressman
congresso
conhecida
conhecido
conhecimento
coni
conjecture
conjunction
conjunt
conjunto
conmebol
conn
connai
connaissance
connect
connected
connecticut
connecting
connection
connections
connector
connects
connell
connelly
conner
connery
connexe
connexes
connie
connolly
connor
connors
connu
connue
connus
cono
conoce
conocer
conoci
conocida
conocido
conocidos
conocimiento
conomie
conomique
conomiques
conor
conoscenza
conosciuto
conque
conquer
conquered
conqueror
conquest
conquista
conquistador
conquistar
conrad
cons
consacre
conscience
conscious
consciousness
conse
consecuencia
consecutive
conseguenza
conseguir
conseguiu
conseil
conseiller
conseillers
conseils
consejo
conselho
consell
consenso
consensus
consent
consequence
consequences
consequently
conserva
conservacio
conservador
conservateur
conservation
conservative
conservatives
conservatoire
conservatorio
conservatory
conserve
conserver
conside
consider
considera
considerable
considerably
considerada
considerado
considerados
considerando
considerar
considerat
considerata
consideration
considerations
considerato
considered
considering
considero
considers
consiglio
consiguio
consist
consiste
consisted
consistent
consistente
consistently
consisting
consists
console
consoles
consolidated
consolidation
consommation
consonant
consonants
consort
consortium
conspiracy
const
consta
constable
constance
constant
constante
constantes
constantin
constantine
constantino
constantinopla
constantinople
constantly
constants
constate
constellation
constitucio
constitucional
constitue
constituencies
constituency
constituent
constitui
constitute
constituted
constitution
constitutional
constraints
construc
construccio
construct
constructed
constructing
construction
constructions
constructive
constructor
construi
construido
construir
construire
construit
construite
construyo
consuelo
consul
consult
consulta
consultado
consultant
consultation
consulte
consulting
consume
consumer
consumers
consumo
consumption
cont
conta
contaba
contact
contacte
contacto
contacts
contador
contain
contained
container
containing
contains
contamination
contar
contatto
conte
contea
contempora
contemporain
contemporaine
contemporains
contemporanea
contemporary
contenant
contenido
content
contents
contenu
contes
contessa
contest
contestant
contestants
contested
contesto
conteu
context
contexte
contexto
contexts
conti
contiene
contient
continent
continental
continentale
continente
continents
contingent
continu
continua
continuacio
continuar
continuation
continue
continued
continues
continuing
continuity
continuo
continuou
continuous
continuously
continuum
conto
contoh
contra
contract
contracted
contractor
contracts
contradiction
contraire
contrairement
contrario
contrary
contrast
contraste
contrat
contrato
contratto
contre
contreras
contrib
contribs
contribucio
contribue
contribui
contribute
contributed
contributeur
contributeurs
contributing
contribution
contributions
contributo
contributor
contributors
contro
control
controlar
controle
controlled
controller
controlling
controllo
controls
controverse
controversia
controversial
controversies
controversy
conus
convencio
convenience
convenient
convent
convention
conventional
conventions
convento
converge
convergence
conversation
conversations
conversio
conversion
convert
converted
converter
converti
convertible
convertido
converting
convertir
convertirse
converts
convicted
conviction
convierte
convince
convinced
convirtie
convirtio
convoy
conway
coo
cooh
cook
cooke
cookie
cookies
cooking
cool
coolidge
cooling
coop
coope
cooper
cooperacio
cooperation
cooperativa
cooperative
coord
coordenadas
coordinate
coordinates
coordination
coordinator
cop
copa
copas
cope
copeland
copenhagen
copenhague
copepoda
copernicus
copia
copias
copie
copied
copies
coppa
coppe
copper
coppia
coppola
cops
coptic
copy
copyright
coq
cor
cora
corac
coral
corazo
corbett
corbie
corbin
corbusier
cord
corda
corde
cordero
cordes
cordialement
cordillera
cordoba
cordon
cordova
core
corea
coreana
cores
corey
cori
corine
corinne
corinth
corinthians
cork
corn
corne
corneille
cornelia
cornelis
cornelius
cornell
corner
corners
cornet
cornish
corno
cornwall
coro
corolla
corona
coronado
coronation
coronavirus
coronel
corp
corpi
corpo
corporacio
corporal
corporate
corporation
corporations
corporis
corps
corpse
corpus
corrado
corral
corre
correa
correct
corrected
correction
corrections
correctly
corredor
correia
correlate
correlation
corrente
correo
correr
correspond
correspondance
correspondant
corresponde
corresponden
correspondence
correspondent
correspondiente
corresponding
corrida
corridor
corriente
corrientes
corriere
corrupcio
corrupt
corruption
cors
corsa
corse
corsi
corsica
corso
cort
corta
corte
cortes
cortex
cortez
corti
cortina
cortinarius
corto
cortometraggio
corun
corvette
corvus
cory
cos
cosa
cosas
cosby
cose
cosenza
cosi
cosimo
cosme
cosmic
cosmo
cosmology
cosmopolitan
cosmos
cosse
cost
costa
costantino
costas
costat
coste
costello
costes
costituito
costituzione
costo
costretto
costruita
costruito
costruzione
costs
costume
costumes
cosworth
cot
cota
cote
cotta
cottage
cottbus
cotton
cou
couch
couche
cougar
could
couldn
coule
couleur
couleurs
coulthard
council
councillor
councils
counsel
count
countdown
counted
counter
countess
counties
counting
countries
country
countryside
counts
county
coup
coupage
coupe
couple
coupled
couples
coups
cour
courage
courant
courbet
coureur
coureurs
courier
couronne
courrier
cours
course
courses
court
courte
courtenay
courtesy
courthouse
courtney
courtois
courts
courtyard
cousin
cousins
coutinho
couture
couvent
couvert
couverte
couvertes
couverture
couvre
couvrir
cov
cova
cove
covenant
covent
coventry
cover
coverage
covered
covering
covers
covid
covington
cow
cowan
coward
cowboy
cowboys
cowell
cox
coyote
coyotes
coz
cp
cpa
cpc
cpi
cpu
cq
cr
cra
crab
crack
cracovia
cradle
craft
crafts
craig
craiova
crambidae
cramer
cran
crane
craneflies
crash
crashed
crassus
crata
crate
crater
crates
craven
crawford
crawley
cray
crazy
crc
cre
crea
creacio
creada
creado
creador
cream
creando
crear
creare
creat
create
created
creates
creating
creation
creative
creativity
creato
creator
creators
creature
creatures
creazione
crecimiento
crede
credit
credited
credits
credo
cree
creed
creek
crei
crema
cremona
creo
creole
cres
crescendo
crescent
crescente
crespo
cresson
crest
cresta
cret
creta
cretaceous
crete
creu
creuse
crew
crewe
crews
cri
cria
criac
criada
criado
crianc
criar
crichton
cricket
cricketer
cried
cries
crime
crimea
crimean
crimen
crimes
criminal
criminals
crimson
cripta
crire
cris
crise
crises
crisi
crisis
crisp
criss
crist
crista
cristal
cristata
cristatus
cristia
cristian
cristiana
cristiani
cristianismo
cristiano
cristianos
cristina
cristo
cristoforo
crit
crite
criteria
criterion
critic
critica
critical
critically
critici
criticised
criticism
criticized
critico
critics
critique
critiques
crits
criture
crivain
crivains
crkva
crkve
cro
croacia
croat
croata
croatia
croatian
croce
crocidura
crockett
crocodile
crocus
croft
crois
croise
croissance
croix
cromwell
cronologia
crook
crooked
crop
cropped
crops
crosby
cross
crosse
crossed
crosses
crossing
crossover
crossroads
croton
crouch
crow
crowd
crowe
crowley
crown
crowned
crows
croydon
crs
crt
cru
cruce
cruces
crucial
crucis
crude
cruel
cruise
cruiser
cruisers
cruises
crusade
crusader
crusaders
crusades
crush
crusoe
crustacea
crustaceans
cruz
cruzeiro
crvena
cry
crying
crypt
crystal
crystals
cs
csa
csaba
csak
csala
csapat
csapata
csata
csc
csd
cse
csf
csi
csiro
cska
csm
cso
csoport
csp
css
csstext
csu
ct
cta
cte
cter
cti
ctica
cticas
ctimas
ctor
ctrica
ctrl
ctv
ctx
cu
cua
cuadro
cual
cuales
cualquier
cuando
cuanto
cuarta
cuarto
cuartos
cuatro
cub
cuba
cuban
cubana
cubano
cube
cubic
cubierta
cubs
cuckoo
cue
cuenca
cuenta
cuento
cuentos
cuerpo
cuerpos
cuesta
cuestio
cueva
cuevas
cui
cuidado
cuisine
cujo
cukup
cul
cula
culas
cules
culex
cullen
culo
culos
culpa
cult
culte
cultivar
cultivated
cultivation
cultivo
culto
cultura
cultural
culturale
culturales
culturali
culturas
culture
culturel
culturelle
culturelles
cultures
culver
cum
cuma
cumberland
cumbre
cumbria
cumhuriyet
cumhuriyeti
cummings
cummins
cumplir
cun
cundinamarca
cuneiform
cuneo
cung
cunha
cunningham
cuo
cuore
cup
cupa
cupe
cupid
cupola
cups
cur
cura
curac
curator
curb
curculionidae
curculionoidea
cure
curia
curie
curiosity
curious
curite
curitiba
curling
curly
curran
currency
current
currently
currents
curriculum
currie
curry
curs
curse
curso
cursor
cursos
cursus
curt
curta
curtain
curtis
curtiss
curva
curve
curved
curves
curzon
cus
cusco
cushing
custer
custo
custodia
custodian
custody
custom
customary
customer
customers
customs
cut
cuta
cute
cuthbert
cutif
cution
cutler
cuts
cutter
cutting
cuvier
cuya
cuyo
cuzco
cv
cvt
cw
cx
cy
cyber
cyborg
cych
cycle
cycles
cycling
cyclisme
cyclist
cycliste
cyclone
cyclops
cyfarwyddwr
cyfeiriadau
cygnus
cyhoeddodd
cyhoeddwyd
cylinder
cym
cymru
cynhyrchwyd
cynthia
cyp
cyperaceae
cyperus
cypress
cyprinidae
cyprus
cyr
cyrano
cyril
cyrillic
cyrus
cz
cza
czas
czasie
czasu
cze
czech
czechoslovakia
czeniu
czerwca
czi
cznie
cztery
czy
czyli
czym
czyz
czyzn
czył
członek
członkiem
członko
członkowie
cı
cœur
d
da
daa
daan
daar
daarmee
daarna
daarnaast
daarom
daarop
daarvan
dab
daba
dabei
dac
daca
dach
dachau
dacia
daction
dad
dada
daddy
dade
dades
dadi
dado
dados
dadurch
dae
daegu
daerah
daewoo
daf
dafrika
daftar
dafu
dag
daga
dagar
dagat
dagblad
dagbladet
dagegen
dagen
dagens
dagestan
dagger
daghagtiil
daghan
dagiti
dagli
dagmar
dago
dagoge
dagogik
dagomkahoy
dah
daha
daher
dahil
dahin
dahl
dahlia
dai
daille
dailles
daily
daimler
daimyo
dair
dairy
daisuke
daisy
daj
daje
daji
daju
dak
dakar
dakbayan
dake
daki
dako
dakong
dakota
dal
dala
dalai
dalam
dalarna
dale
daleithiau
daleko
dalen
daley
dali
dalian
dalje
dall
dalla
dallas
dalle
dallo
dalo
dals
dalt
dalton
daly
dam
dama
damage
damaged
damages
damaligen
damals
damas
damascus
dame
damen
damer
dames
dami
damia
damian
damiano
damien
damit
damm
damme
damn
damned
damon
dams
dan
dana
danach
danas
danc
dance
dancer
dancers
dances
dancing
dando
dandy
dane
daneben
danemark
danes
dang
danger
dangerous
dangers
danh
dani
danie
daniel
daniela
daniele
danielle
daniels
danilo
danish
dank
danmark
danmarks
dann
danni
danny
dano
danos
dans
danse
danser
dansk
danska
danske
dant
dante
danu
danube
danubio
dany
danych
danza
danzig
dao
dap
dapat
dapek
daphne
dapit
dar
dara
darah
daran
darat
darauf
daraufhin
daraus
darby
darcy
dard
dare
daredevil
darf
darfur
dargestellt
dari
daria
darin
daring
dario
daripada
darius
dark
darker
darkgrey
darkness
darko
darling
darlington
darmstadt
daro
darrell
darren
darryl
darstellung
dart
darth
dartmouth
darts
daru
darul
darunter
darwin
daryl
das
dasar
dash
dass
dassault
dat
data
databasdump
database
databases
datang
datant
dataset
datatype
datavalue
date
dated
dateformat
datei
daten
datenbank
dates
dati
dating
dato
datos
datoteka
datter
datu
datuk
datum
dau
dauden
daughter
daughters
daun
dauphin
dauphine
dava
davant
davantage
davanti
davao
dave
davenport
davey
davi
david
davida
davide
davids
davidson
davie
davies
davis
davison
davon
davor
davos
davy
daw
dawes
dawhilahila
dawkins
dawn
dawson
dax
day
daya
daylight
days
daytime
dayton
daytona
daz
dazu
daß
db
dba
dbb
dbd
dc
dca
dce
dchen
dci
dd
dda
ddb
ddd
dde
ddeutsche
ddg
ddr
dds
ddt
de
dea
deacon
dead
deadline
deadly
deadpool
deaf
deal
dealer
dealing
deals
dealt
dean
dear
dearborn
death
deaths
deb
debajo
debat
debate
debates
debbie
debe
deben
deberi
debi
debian
debido
deborah
debra
debrecen
debris
debt
debts
debu
debussy
debut
debuted
debuto
debutto
dec
deca
decade
decades
decatur
decay
decca
deceased
deceduto
december
decembra
decembrie
decembro
deception
deci
decide
decided
decides
decidio
decidir
decidiu
decima
decimal
decin
decine
decins
decir
decisa
decise
decisio
decision
decisione
decisions
decisiva
decisive
deciso
deck
decke
decker
declara
declaracio
declarado
declarar
declaration
declare
declared
declares
declaro
decline
declined
deco
decock
decoracio
decorated
decoration
decorations
decorative
decrease
decreased
decree
decreto
dede
dedi
dedica
dedicada
dedicado
dedicata
dedicated
dedication
dedicato
dedico
dee
deed
deeds
deel
deemed
deen
deep
deeper
deeply
deer
def
defa
default
defaults
defeat
defeated
defeating
defeats
defence
defend
defendant
defendants
defended
defender
defenders
defending
defensa
defense
defenses
defensive
defensor
defensores
defesa
defiance
deficiency
deficit
define
defined
defines
defini
definicio
definida
defining
definir
definire
definite
definitely
definition
definitions
definitiva
definitivamente
definitive
definitivo
defunct
deg
degas
degli
degradation
degre
degree
degrees
deh
dehors
dei
dein
deir
deities
deity
deixa
deixar
deixou
dej
deja
dejan
dejar
dejo
dek
dekan
dekat
deki
dekker
dekret
del
dela
delacroix
delaney
delano
delar
delas
delaware
delay
delayed
dele
delegacio
delegate
delegates
delegation
delen
deler
deles
delete
deleted
deletion
delfi
delft
delgado
delhi
deli
delia
delicate
delicious
delight
deliver
delivered
delivery
dell
della
delle
delles
dello
dellos
delmi
delo
delos
delphi
delphine
dels
delstaten
delt
delta
deltakere
deltog
deltok
delu
deluxe
delvis
dem
dema
demain
demais
demand
demanda
demande
demanded
demander
demanding
demands
demasiado
deme
demeter
demetrio
demetrius
demeure
demi
demille
demir
demise
demo
democra
democracia
democracy
democrat
democratic
democratico
democrats
demogra
demografi
demografia
demografica
demografie
demografija
demographic
demographics
demokrat
demokratie
demokratik
demokratikanhong
demokratische
demokratischen
demolished
demolition
demon
demons
demonstrate
demonstrated
demonstration
demonstrations
demos
demospongiae
demostrar
dempsey
dempue
den
dena
denda
dende
dendrobium
dene
denen
deng
dengan
deni
denial
denied
denis
denise
deniz
denken
denkmal
denmark
denn
denna
denne
dennis
dennoch
denny
denomina
denominacio
denominada
denominado
denominazione
dens
densa
dense
denses
densidad
densidade
densita
densite
density
dent
dental
dente
dentes
denton
dentro
dents
denuncia
denver
deny
denys
deo
deos
dep
depan
departamencie
departament
departamento
departamentos
departed
departement
departemente
departementet
departemento
departementu
department
departments
departure
depeche
depend
depende
dependence
dependencies
dependency
dependent
depending
depends
depicted
depicting
depicts
deployed
deployment
depo
depois
deportation
deporte
deportes
deportiva
deportivo
deposit
deposits
depot
depp
deprecated
depresio
depressa
depression
dept
depth
depths
depuis
deputado
deputados
deputati
deputies
deputy
der
dera
deras
derby
derbyniad
derbyshire
derde
dere
derecha
derecho
derechos
derek
deren
deres
deretter
derfor
deri
deriva
derivative
derivatives
derived
dermed
dern
dernie
dernier
derniers
derrick
derrida
derrie
derrota
derrotado
derrotar
derry
ders
derselben
derzeit
des
desa
desaparicio
desarrollo
desastre
desc
descartes
descend
descendant
descendants
descended
descent
deschamps
describe
described
describes
describing
descriere
descripcio
description
descriptions
descriptive
descrita
descritas
descrito
descritos
descrizione
desde
dese
desember
desembre
desempen
desenvolupament
desenvolvimento
deseo
desert
deserto
deset
deshalb
desi
desiderio
desierto
design
designa
designado
designated
designation
designed
designer
designers
designing
designs
desirable
desire
desired
desires
desiyerto
desk
desktop
desmond
desno
despair
despelare
desperate
despite
despois
despre
despue
dess
dessa
dessau
desse
dessen
dessert
dessin
dessine
dessins
dessous
dessus
desta
destaca
destacado
destacados
destacan
destacar
destaque
deste
destin
destinada
destinado
destination
destinations
destine
destino
destiny
destra
destro
destroy
destroyed
destroyer
destroyers
destroying
destruccio
destruction
destructive
destrui
destruir
det
detachment
detail
detailed
details
detained
detalle
detalles
dete
detect
detected
detection
detective
detectives
detector
detention
determina
determinada
determinado
determinar
determination
determine
determined
determines
determining
detlef
detlev
detra
detroit
dets
detta
dette
detto
deu
deum
deur
deus
deutlich
deutsch
deutsche
deutschen
deutscher
deutsches
deutschland
deutschlands
deutschsprachigen
deux
deuxie
dev
deva
devait
devam
devanagari
devant
deve
develop
developed
developer
developers
developing
development
developmental
developments
devem
devenir
devenit
devenu
devenue
devi
device
devices
devido
devient
devil
deville
devils
devin
devine
devint
devise
devlet
devletleri
devlin
devo
devoir
devon
devono
devonshire
devoted
devotion
devrait
dew
dewa
dewalt
dewan
dewasa
dewey
dewi
dewitt
dex
dexter
dey
dez
deze
dezelfde
dezember
dezembro
df
dfa
dfb
dfrac
dg
dga
dh
dha
dhabi
dhaka
dharma
dhc
dhe
dhi
dhu
di
dia
diabetes
diable
diablo
diagno
diagnose
diagnosed
diagnosis
diagnostic
diagonal
diagram
diagrama
diaire
diakses
dial
dialect
dialects
dialekt
dialog
dialogo
dialogue
dialogues
diamant
diamante
diame
diameter
diamond
diamonds
dian
diana
diane
dianggap
diante
dianthus
diari
diaries
diario
diary
dias
diaspora
diatement
diavolo
diaz
diberikan
dibuat
dic
dica
dicale
dicaprio
dicas
diccionario
dice
dicembre
dich
dicha
dicho
dicht
dichter
dici
diciembre
dicis
dicit
dicitur
dick
dickens
dickinson
dickson
dico
dicos
dict
dicta
dictadura
dictator
dictatorship
dictionaries
dictionary
dictionnaire
did
dida
diderot
didi
didier
didn
dido
didz
die
dieci
died
diede
diego
diels
diem
dien
diena
dienen
diens
dienst
dienste
dient
diente
dieppe
dier
dieren
dieron
dies
diese
diesel
diesem
diesen
dieser
dieses
diet
dieta
dietary
dieter
dietmar
dietrich
dietro
dietz
dieu
dieux
diez
difere
diferencia
diferent
diferente
diferentes
diferents
difesa
diff
diffe
differ
difference
differences
different
differential
differentiation
differently
differenza
differs
difficile
difficolta
difficult
difficulte
difficulties
difficulty
diffusa
diffuse
diffusion
difi
difice
difusio
dig
diga
dige
diger
digest
digimon
digit
digita
digital
digitale
digitales
digitalisat
digits
digne
dignity
digo
digt
digunakan
diha
dii
dijk
dijo
dijon
dik
dike
dikenal
dil
dilakukan
dilemma
dili
dill
dillon
dim
dima
dimanche
dime
dimensio
dimension
dimensional
dimensioni
dimensions
dimitri
din
dina
dinah
dinamarca
dinamo
dinar
dinas
dinasti
dinastia
dine
diner
dinero
ding
dinge
dingen
dinger
dingo
dinh
dini
dining
dinner
dino
dinosaur
dinosaurs
dins
dintre
dio
dioce
diocese
diocesi
dioecesis
diogenes
diogo
dion
dionisio
dionysius
dior
dios
dioscorea
dioses
diospyros
dioxide
dip
dipartimento
dipinti
dipinto
diplo
diplom
diploma
diplomacy
diplomat
diplomatic
diplomatik
diplomatique
diptera
dipterorum
diputacio
diputado
diputados
dique
diques
dir
dira
dirac
dire
direc
direccio
direct
directa
directamente
directe
directed
directement
directeur
directing
direction
directions
directiva
directive
directly
directo
director
directora
directorate
directores
directors
directory
directx
direita
direito
direitos
direkt
direkte
direkto
direktor
diren
diretor
diretta
direttamente
diretto
direttore
direzione
diri
dirige
dirigeants
dirigent
dirigente
dirigida
dirigido
dirigio
dirigir
dirilis
diritti
diritto
dirk
dirt
dirty
diru
dis
disa
disabilities
disability
disabled
disambiguation
disappearance
disappeared
disaster
disasters
disbanded
disc
discharge
dische
dischen
discher
disci
disciple
disciples
disciplina
discipline
disciplines
disclosure
disco
discogra
discografi
discografia
discography
discogs
discontinued
discos
discours
discourse
discover
discovered
discoveries
discovering
discovers
discovery
discrete
discrimination
discs
discurso
discuss
discussa
discussed
discusses
discussing
discussion
discussions
discute
discuter
disease
diseases
disebut
disegno
disen
disguise
dish
dishes
disk
disko
diskografi
diskografie
diskussion
dismissed
disney
disneyland
disorder
disorders
disp
disparition
disparu
dispatch
disperse
dispersion
displaced
displacement
display
displayed
displaying
displays
displaystyle
dispone
disponi
disponibile
disponible
disponibles
disposal
dispose
disposicio
disposition
dispositions
dispositivo
dispositivos
disputa
disputar
dispute
disputed
disputes
disputo
disque
disques
diss
disse
dissertation
dissident
disso
dissolution
dissolved
dista
distance
distances
distancia
distant
distante
distanza
distinct
distinction
distinctions
distinctive
distingue
distinguish
distinguished
distinta
distintas
distintos
distortion
distress
distretto
distribucio
distribui
distribuito
distribute
distributed
distribution
distributions
distributor
distribuzione
district
districte
districts
distrik
distrikt
distriktet
distrikto
distrito
distritos
disturbed
disyembre
dit
dita
ditch
dite
diterbitkan
diterrane
dites
diteur
dition
ditions
dito
ditos
dits
ditu
ditulis
dituzten
diu
dium
div
diva
divadlo
divan
divas
dive
divenne
diventa
diventare
diver
divers
diversa
diversas
diverse
diverses
diversi
diversity
diverso
diversos
dives
divi
divide
divided
dividida
dividido
divina
divine
diving
divinity
divino
divisa
divise
divisi
divisie
divisio
division
divisional
divisione
divisionen
divisions
divisjon
diviso
divo
divorce
divorced
dix
dixie
dixit
dixon
diy
diz
dizer
dizi
dizionario
dizzy
dj
dja
django
dje
djebel
djela
djibouti
djokovic
djs
djurga
djvu
dk
dka
dku
dky
dl
dla
dlc
dle
dli
dlich
dliche
dlichen
dll
dlo
dlr
dm
dma
dmc
dmitri
dmitrij
dmitry
dms
dmy
dn
dna
dnb
dne
dnes
dnf
dni
dnia
dnipro
dniu
dns
dnu
dny
do
doa
doan
doanh
doar
dob
doba
dobe
dobi
dobila
dobio
doble
dobles
dobr
dobra
dobre
dobro
dobry
dobson
dobu
doby
doc
doce
docent
docente
doch
dochter
dock
docks
docs
docteur
doctor
doctoral
doctorat
doctorate
doctors
doctrina
doctrine
doctrines
document
documenta
documentacio
documentaire
documental
documentary
documentation
documented
documenti
documento
documentos
documents
dod
doda
dodd
dodge
dodgers
dodo
dodson
doe
doel
doen
doenc
does
doesn
dog
doge
dogg
dogma
dogs
doha
dohc
doherty
doi
doine
doing
dois
doit
doivent
dojo
dok
doka
dokonc
dokter
doktor
doktora
dokument
dokumenta
dokumentarfilm
dokumentation
dokumente
dol
dola
dolan
dolar
dolazi
dolby
dolce
dole
doli
dolina
doll
dolla
dollar
dollari
dollars
dolls
dolly
dolmen
dolna
dolni
dolo
dolor
dolore
dolores
dolorosa
dolphin
dolphins
dolu
dom
doma
domac
domain
domaine
domaines
domains
dome
domenica
domenico
domeniul
domesday
domestic
domestica
domi
domicile
domina
dominance
dominant
dominante
dominated
domination
domine
domingo
domingos
domini
dominic
dominica
dominican
dominicana
dominik
dominika
dominio
dominion
dominique
domino
dominum
dominus
dommages
domo
domov
domu
domus
don
dona
donald
donaldson
donar
donat
donated
donatello
donation
donations
donato
donau
donc
doncaster
donde
done
donegal
dones
donetsk
dong
doni
donie
donizetti
donji
donjon
donkey
donna
donnant
donne
donnell
donnelly
donner
donnie
dono
donor
donovan
dons
dont
doo
dood
doom
doomsday
door
doors
dop
dope
dopiero
doping
dopo
doppel
doppio
doppler
dor
dora
dorado
doran
dorchester
dordogne
dordrecht
dore
dorf
dori
doria
dorian
doris
dormir
dorn
dornier
doro
dorothea
dorothy
dorp
dorsal
dorset
dorsey
dorso
dort
dortmund
dos
dosa
dose
doses
dosi
dosis
dossier
dost
dosta
dostal
doste
dosten
dostupne
dosya
dot
dota
dote
dots
dott
dotter
dotycza
dou
doua
douai
douard
double
doubled
doubleday
doubles
doubs
doubt
douce
doug
douglas
douglass
douro
dous
doute
doux
douze
dov
dove
dover
doveva
dovuto
dow
down
downey
downing
download
downloaded
downloads
downs
downtown
dowo
doyle
doz
doze
dozen
dozens
dp
dpr
dq
dr
dra
drac
draco
dracula
draft
drafted
drafting
drag
draga
dragan
drago
dragon
dragons
drain
drainage
drake
drale
dram
drama
dramas
dramatic
dramatik
dramatique
dramaturg
drame
dramma
drapeau
draper
draw
drawing
drawings
drawn
draws
draz
dre
dread
dreadnought
dream
dreamcast
dreamer
dreaming
dreams
dreamworks
drehbuch
drehbuchautor
drei
drenthe
drept
dresden
dresdner
dress
dressed
dressing
dret
dreux
drew
dreyer
dreyfus
dri
dric
drie
dried
drift
drill
drink
drinking
drinks
driscoll
dritte
dritten
dritter
drive
driven
driver
drivers
drives
driving
drm
dro
drog
droga
drogas
droge
drogi
droit
droite
droits
dromo
drone
drones
drop
dropped
dropping
drops
dros
drosera
drosophila
drought
drove
drowned
drowning
droz
drs
dru
druce
druck
drug
druga
druge
drugi
drugiej
drugih
drugim
drugo
drugog
drugs
druha
druhe
druhu
druhy
druk
drum
drummer
drummond
drums
drunk
drury
drus
druz
dry
dryden
drz
ds
dsa
dsb
dsc
dsl
dsm
dso
dsp
dss
dst
dt
dte
dten
dter
dtirol
dtische
dtischen
dtm
dts
dtv
du
dua
dual
duan
duane
duarte
duas
dub
dubai
dubbed
dubia
dublin
dubna
dubois
dubrovnik
duc
duca
ducal
ducale
ducati
ducation
ducato
duce
ducha
duchamp
duche
duchess
duchesse
duchy
duck
ducks
duckworth
ducs
duction
dud
duda
dude
dudley
due
duel
duen
duero
dues
duet
duff
duffy
dufour
dug
duh
dui
duire
duisburg
duit
duits
duitse
duitsland
duk
duke
dukes
dukla
dul
dula
dulce
dull
dulo
dum
duma
dumas
dumb
dumbarton
dumbledore
dume
dummy
dumont
dump
dun
duna
dunay
dunbar
duncan
duncker
dundee
dune
dunedin
dunes
dung
dungeon
dungeons
dunha
dunia
dunkerque
dunlop
dunn
dunne
dunque
duo
duomo
duos
dupa
dupla
duplex
duplicate
dupont
dupuis
duque
dur
dura
durable
duracio
duran
durand
durango
durant
durante
duras
durata
duration
durban
durch
durchfu
durchgefu
durchmesser
dure
durga
durham
duri
during
duro
durowan
durre
dus
dusk
dust
dustin
dusty
dusun
dut
dutch
dute
duties
dutt
dutton
duty
duval
duvall
dux
duy
duz
dv
dva
dvb
dvd
dvds
dve
dvi
dvije
dvor
dvou
dw
dwa
dwarf
dwayne
dwelling
dwest
dwesten
dwestlich
dwie
dwight
dwo
dwyer
dx
dy
dyck
dydd
dye
dyer
dying
dyke
dylan
dynamic
dynamics
dynamite
dynamo
dynastie
dynasties
dynasty
dyntaxa
dyr
dyson
dytiscidae
dz
dza
dze
dzi
działalnos
działania
dzie
dzieci
dzieje
dziejo
dzien
dziennik
dziernika
dzis
dzkiej
dztwa
dztwie
dztwo
dzy
død
døde
dı
dır
dıs
długos
də
e
ea
eaa
each
eades
eads
eagle
eagles
eam
ean
ear
earl
earle
earlier
earliest
early
earn
earned
earnest
earning
ears
earth
earthquake
earthquakes
eas
ease
easier
easily
east
easter
eastern
eastman
easton
eastwood
easy
eat
eaten
eater
eating
eaton
eau
eaux
eb
eba
ebay
ebbe
ebben
ebe
eben
ebenda
ebene
ebenfalls
ebenso
eberhard
ebert
ebi
ebola
ebook
ebrei
ebro
ebs
ebu
eby
ec
eca
ecc
ecce
eccle
eccles
ecclesia
ecclesiae
ecclesiastica
ecclesiastical
ecco
ece
ech
echa
echny
echo
echoes
echt
echte
echter
eci
eck
ecke
eclesia
eclipse
ecm
eco
ecole
ecolo
ecological
ecology
econo
economi
economia
economic
economica
economico
economics
economie
economies
economist
economista
economy
ecosystem
ecosystems
ecstasy
ecuador
ecw
ed
eda
edad
edat
edats
edd
edda
eddie
eddy
ede
edel
eden
eder
edessa
edevs
edf
edgar
edge
edges
edhe
edi
edic
edicio
ediciones
edicions
edifi
edifici
edificio
edificios
edildi
edilir
edilmis
edinburgh
edir
edirne
edison
edit
edita
editado
editar
edited
edith
edithistory
editing
editio
edition
editions
edito
editor
editora
editore
editores
editori
editorial
editoriale
editors
editrice
edits
editura
edizione
edizioni
edm
edme
edmond
edmonton
edmund
edmunds
edn
edna
edni
edo
edoardo
edouard
eds
edt
edu
eduard
eduardo
educac
educacio
educated
education
educational
educativa
educator
edvard
edward
edwards
edwin
edzo
edən
ee
eeg
eel
een
eerder
eerst
eerste
ees
eest
eesti
eeu
eeuw
ef
efa
efe
efecto
efectos
efendi
effect
effectif
effective
effectively
effectiveness
effects
effectue
effekt
effet
effets
effetti
effetto
efficace
efficacy
efficiency
efficient
effort
efforts
efi
efl
efter
eftersom
eftir
eg
ega
egan
ege
egen
eger
eget
egg
egger
eggs
egi
egin
egipto
egiten
egitto
egli
eglise
egmont
ego
egon
egun
egy
egye
egyes
egyesu
egyetem
egyetlen
egyha
egyik
egyma
egypt
egypte
egyptian
egyse
egyu
eh
ehe
ehefrau
ehemalige
ehemaligen
ehemaliger
ehemals
eher
ehess
ehf
ehir
ehk
ehre
ehren
ehrlich
ei
eichmann
eichsta
eid
eifel
eiffel
eigen
eigene
eigenen
eigenschaften
eigensta
eigentlich
eight
eighteen
eighteenth
eighth
eighty
eika
eiland
eile
eileen
ein
eina
einar
einaudi
eind
einde
eindhoven
eindigde
eine
einem
einen
einer
eines
einfach
einfluss
einfu
eingang
eingefu
eingerichtet
eingesetzt
eingestellt
einheit
einheiten
einige
einigen
einiger
einleitung
einmal
eino
einrichtung
einrichtungen
eins
einsa
einsatz
einschließlich
einst
einstein
eintracht
eintrag
einwohner
einwohnern
einwohnerzahl
einzel
einzelnachweise
einzelne
einzelnen
einzige
einzigen
eis
eisen
eisenach
eisenbahn
eisenberg
eisenhower
eisenstein
eisernen
eishockey
eishockeyspieler
eisner
eit
either
eius
eiva
ej
eje
ejecutivo
ejemplo
eji
ejne
ejo
ejus
ek
eka
ekaterina
ekde
eki
ekilde
ekim
ekki
ekkor
ekles
ekman
eko
ekonomi
ekonomia
ekonomiko
ekonomiska
eks
eksakto
eksempel
eksteraj
eksterne
ekstra
eky
el
ela
elaboracio
elaborate
elaine
elam
elan
elas
elastic
elateridae
elba
elbe
elbow
elc
elche
elde
elder
elderly
elders
eldest
eldorado
ele
eleanor
eleccio
elecciones
eleccions
elect
electa
elected
election
elections
elector
electoral
electra
electric
electrical
electricity
electro
electromagnetic
electron
electronic
electronica
electronics
electrons
elefante
elegans
elegant
elegante
elegido
eleic
eleito
eleje
elektra
elektric
elektrik
elektrische
elektro
elektron
elektronik
elem
eleme
element
elementa
elemental
elementary
elemente
elementen
elementi
elemento
elementos
elements
elementu
elena
elenco
eleonora
elephant
elephants
eles
eletro
eletto
elevada
elevado
elevated
elevation
elevator
eleven
eleventh
elezioni
eleznic
elf
elgar
elgin
elhunyt
eli
elia
elias
elie
eligible
elijah
elimina
eliminac
eliminacio
eliminado
eliminar
eliminate
eliminated
elimination
eliminato
elin
elina
elio
eliot
elis
elisa
elisabet
elisabeth
elisabetta
elise
elit
elite
eliza
elizabeth
elja
elk
elka
elkaar
elke
elko
ell
ella
ellas
elle
ellen
ellene
eller
elles
elli
ellie
ellington
elliot
elliott
ellis
ellison
ello
ellos
ells
ellsworth
elm
elmar
elme
elmer
elmi
elmo
elno
elo
elon
elongata
elor
eloy
els
elsa
else
elseif
elsevier
elsewhere
elsie
elso
elst
elster
elte
eltern
elton
elu
elva
elvira
elvis
ely
elz
em
ema
email
emakume
emakumeak
eman
emancipation
emanuel
emanuele
emas
embargo
embassy
embedded
ember
emble
emblem
emblema
embora
embrace
embraer
embryo
emden
eme
emerald
emerge
emerged
emergence
emergency
emerging
emeritus
emerson
emery
emi
emigrant
emigration
emil
emile
emilia
emiliano
emilie
emilio
emily
emin
eminem
eminent
emir
emirates
emisio
emission
emissions
emle
emli
emma
emmanuel
emmanuelle
emme
emmerich
emmett
emmy
emo
emory
emotion
emotional
emotions
empat
empate
empe
emperador
empereur
emperor
emperors
empezo
emphasis
empieza
empire
empires
empirical
emplacement
empleo
emploi
employe
employed
employee
employees
employer
employers
employment
empoli
empresa
empresas
empreses
empress
empty
ems
emu
en
ena
enable
enabled
enables
enabling
enacted
enam
enc
encara
encargo
ence
enceinte
enchanted
enci
enciclope
enciclopedia
enciklopedija
encima
enclave
enclosed
encode
encoded
encoding
encontra
encontraba
encontrado
encontrar
encontre
encontro
encore
encounter
encountered
encounters
encourage
encouraged
encuentra
encuentran
encuentro
encyclopaedia
encyclope
encyclopedia
encyclopædia
encyklopedia
end
enda
endangered
endast
ende
endeavour
ended
endemic
enden
ender
endet
endete
endgame
endgu
ending
endless
endo
endorsed
endowment
endre
endroit
ends
endurance
enduring
ene
enemies
enemigo
enemigos
enemy
energi
energia
energie
energy
enero
eneste
enfance
enfant
enfants
enfer
enfermedad
enfield
enfin
enforce
enforcement
enfrentar
eng
engage
engaged
engagement
engagements
engaging
engan
enge
engel
engeland
engelbert
engelmann
engels
engelse
engelsk
engelska
engelske
engem
enger
engine
engineer
engineered
engineering
engineers
engines
engl
england
engler
englisch
englische
englischen
englischer
english
enhance
enhanced
eni
enia
enid
enie
enige
enigma
enih
enim
enix
enja
enje
enjoy
enjoyed
enju
enka
enke
enkel
enkele
enkelte
enko
enlace
enlaces
enlarged
enlightenment
enligt
enlisted
enllac
enllaces
enn
enna
enne
ennek
ennemi
ennemis
ennen
ennes
ennio
eno
enoch
enorme
enormous
enou
enough
enpresa
enpresak
enquanto
enque
enregistre
enregistrement
enri
enric
enrico
enrique
enrolled
ens
ensayo
ensayos
ense
enseigne
enseignement
ensemble
ensembles
ensen
ensi
ensign
ensimma
ensin
ensino
enska
enske
ensky
ensuite
ensure
ent
enta
entanto
entdeckt
ente
entender
entendre
entente
enter
entered
entering
enterprise
enterprises
enterre
enters
entertainer
entertainment
entfernt
entha
enthalten
enthusiasm
entidad
entidades
entie
entier
entire
entirely
entita
entities
entitled
entity
entityid
entlang
ento
entomol
entomologica
entomological
entomologie
entomologique
entomologische
entomologist
entomology
entonces
entorn
entorno
entourage
entoure
entra
entrada
entrai
entrambe
entrambi
entrance
entrando
entrar
entrare
entrata
entre
entrega
entrenador
entrepreneur
entrepreneurs
entreprise
entreprises
entrer
entretanto
entretien
entrevista
entries
entro
entrou
entry
ents
entscheidung
entschied
entsprechend
entspricht
entstand
entstanden
entstehen
entsteht
entstehung
entweder
entwickelt
entwickelte
entwicklung
entwurf
enu
env
enver
envers
envi
enviado
enviar
envio
environ
environment
environmental
environments
environnement
environs
envoy
envoye
enw
enwiki
eny
enz
enza
enzim
enzima
enzo
enzyklopa
enzyme
enzymes
eo
eocene
eon
eorum
eos
ep
epa
epe
ephraim
epi
epic
epidemia
epidemic
epidemiology
epidendrum
epirus
episcopal
episcopus
episo
episode
episoden
episodes
episodi
episodio
episodios
epistola
epitaph
epitome
epizo
epo
epoca
epoch
epoche
epos
eps
epsilon
epstein
epub
eq
equal
equality
equally
equals
equation
equations
equatorial
equilibrio
equilibrium
equip
equipe
equipes
equipment
equipo
equipos
equipped
equity
equiv
equivalent
equivalente
equus
er
era
erabiltzen
eraikuntza
eram
eran
erano
eras
erasmus
erat
erau
erba
erbaut
erbe
erben
erc
ercole
erde
erdo
erdog
ere
erebidae
erected
erectus
eredeti
eredivisie
eredme
ereignisse
eren
eres
erfahrungen
erfolg
erfolge
erfolgreich
erfolgt
erfolgte
erfu
erfurt
erg
erga
ergebnis
ergebnisse
ergo
erha
erhalten
erhard
erhielt
erhielten
erho
erhoben
eri
eric
erica
erich
erick
erickson
ericsson
erie
erik
erika
eriksen
eriksson
erin
erinnert
erinnerung
erinnerungen
eris
eritrea
erka
erkek
erkennen
erkla
erla
erlandais
erlangen
erma
ermita
ermo
ern
erna
ernannt
erne
ernest
ernesto
erneut
erni
ernie
erno
ernst
erny
ero
eropa
eros
erosion
erotic
erp
err
erre
erreferentziak
erreichen
erreicht
erreichte
erreur
errichtet
errichtete
errichtung
erro
errol
erroldatutako
error
errors
ers
ersatz
erscheinen
erscheint
erschien
erschienen
ersetzt
erskine
erst
erste
ersten
erster
erstes
erstmals
ert
eru
eruption
ervence
ervin
ervna
erwa
erwarb
erweitert
erweiterte
erwin
erza
erzbischof
erzielte
erzse
erzurum
es
esa
esan
esas
esbjerg
esc
esca
escala
escalier
escapar
escape
escaped
escapes
esce
escena
escenario
escenas
esch
escher
escherichia
eschmeyer
esclaves
esco
escobar
escocia
escola
escolar
escolas
escorial
escort
escreveu
escribio
escribir
escrita
escrito
escritor
escritora
escritores
escritos
escritura
escriure
escu
escudo
escuela
escuelas
escultor
escultura
esculturas
ese
esempio
esemplari
esercito
esete
esfera
esforc
esgle
esgrima
esi
esimerkiksi
esine
esis
esiste
esistenza
eska
eske
eski
eskimo
eskis
esko
eskoslovenska
eskoslovenske
eskoslovensky
esku
esky
esme
esmeralda
eso
esos
esp
espac
espace
espaces
espacial
espacio
espacios
espada
espagne
espagnol
espagnole
espai
espan
espanha
espanya
espanyol
espanyola
espasa
espe
especi
especial
especiales
especialista
especially
especialmente
especie
especies
especta
espectadores
espejo
esper
espera
esperanc
esperanto
esperanza
esperar
esperienza
espero
espi
espinosa
espiritual
espn
espoir
espoirs
espoo
esporte
esportiva
esports
esposa
esposito
espresso
esprit
esq
esquema
esquerda
esquerra
esqui
esquina
esquire
ess
essa
essai
essais
essas
essay
essays
esse
essen
essence
essendo
essent
essential
essentially
essentials
essentiel
essentiellement
esser
essere
esses
esset
essex
essi
esso
essonne
est
esta
estaba
estaban
establecer
establecio
establiments
establish
established
establishing
establishment
establishments
estac
estacio
estaciones
estadi
estadio
estado
estados
estadounidense
estadounidenses
estadual
estamos
estan
estancia
estando
estaos
estar
estara
estas
estat
estatal
estate
estates
estati
estats
estatu
estatua
estatuto
estava
estavam
estaven
este
esteban
estekak
estela
estelle
estende
ester
esterni
esterno
esternos
estero
estes
esteve
esthe
esther
esti
estil
estilo
estilos
estima
estimada
estimate
estimated
estimates
estimation
estime
estis
estiu
estland
esto
estonia
estonian
estoril
estos
estou
estrada
estrate
estre
estreia
estrela
estrelas
estrella
estrellas
estrenada
estreno
estructura
estructuras
estrutura
estu
estudi
estudiantes
estudiar
estudio
estudios
estudis
estudo
estudos
estuvo
eswatini
esztergom
et
eta
etablert
etapa
etapas
etappe
etat
etc
etdi
ete
etela
eterna
eternal
eternity
eterno
eth
ethan
ethanol
ethel
ether
ethernet
ethical
ethics
ethiopia
ethiopian
ethnic
ethnicity
ethnologue
eti
etiam
etienne
etimologia
etiopia
etiri
etka
etkom
etku
etmis
etna
etne
etnia
etnic
etnik
eto
eton
etr
etre
ets
etsi
ett
etta
etter
etti
ettore
etu
etude
etudes
etwa
etwas
etxeak
etxebizitza
etxek
etxetan
etymology
eu
eua
eucalyptus
euclid
euge
eugen
eugene
eugenia
eugenio
euler
eum
eun
eunice
euphorbia
euphorbiaceae
eupithecia
eur
eurasia
eurasian
eure
eureka
euren
euro
eurobasket
eurocup
euroleague
europa
europaea
europameisterschaft
europas
europe
europea
european
europeans
europee
europees
europei
europeo
europeos
europese
europeu
europeus
europy
euros
eurosport
eurovision
eus
eusebio
eusebius
euskadi
euskal
eut
eux
ev
eva
evac
evacuation
eval
evaluate
evaluation
evan
evange
evangelical
evangelion
evangelisch
evangelische
evangelischen
evangelist
evangelista
evangelium
evans
eve
evelyn
even
evening
event
eventi
evento
eventos
events
eventual
eventually
eventualmente
ever
everest
everett
evergreen
everlasting
evers
evert
everton
every
everybody
everyday
everyone
everything
everywhere
evi
evic
evide
evidence
evidencia
evident
evidente
evil
evit
evita
evitar
evitare
evo
evol
evolucio
evolution
evolutionary
evoluzione
evolve
evolved
evrope
evropske
evropy
ew
ewa
ewald
ewan
ewe
ewing
ex
exact
exactly
exam
examen
examination
examine
examined
examiner
examining
example
examples
excavation
excavations
exce
exceed
excel
excelente
excellence
excellent
excelsior
excentricite
excepcio
except
exception
exceptional
exceptions
excepto
excerpt
excerpts
excess
excessive
exchange
excited
exciting
exclude
excluded
excluding
exclusion
exclusivamente
exclusive
exclusively
excuse
exe
execute
executed
execution
executive
executives
exempel
exemplaires
exemplar
exemplare
exemplaren
exemple
exemples
exemplo
exemplos
exempt
exerce
exercer
exercice
exercise
exercises
exeter
exhaust
exhibit
exhibited
exhibition
exhibitions
exhibits
exige
exil
exile
exilio
exist
exista
existe
existed
existem
existen
existence
existencia
existent
existente
existentes
existenz
existi
existing
existir
exists
exit
exo
exodus
exotic
exp
expand
expanded
expanding
expansio
expansion
expe
expect
expectations
expected
expedicio
expedition
expeditionary
expeditions
expelled
expense
expenses
expensive
experie
experience
experienced
experiences
experiencia
experiment
experimental
experiments
expert
expertise
experts
expired
expiry
explain
explained
explaining
explains
explanation
explica
explicar
explicit
explicitly
explique
exploit
exploitation
exploitations
exploite
exploits
exploration
explorations
explore
explored
explorer
explorers
exploring
explosion
explosive
explosives
explotacio
expo
exponent
export
exports
expose
exposed
exposic
exposicio
exposition
expositions
exposure
expresio
express
expressa
expressed
expressing
expression
expressions
expressway
exprime
expulsion
ext
extant
exte
extend
extended
extending
extends
extensa
extensio
extension
extensions
extensive
extensively
extent
exterior
exteriores
externa
external
externas
externe
externes
externi
externos
externs
extinct
extinction
extra
extract
extracted
extraction
extragalactic
extrait
extran
extraordinary
extras
extre
extrem
extrema
extremadura
extreme
extremely
extremo
ey
eyck
eye
eyed
eyes
eylu
eyre
ez
eza
eze
ezek
ezekiel
ezen
ezer
ezio
ezna
ezra
ezt
ezu
ezzel
f
fa
faa
fab
fabaceae
fabbrica
faber
fabia
fabian
fabiano
fabien
fabio
fabius
fable
fables
fabre
fabric
fabrica
fabricacio
fabrication
fabrice
fabricius
fabrik
fabrique
fabrizio
fabulous
fac
facade
faccia
facciata
face
facebook
faced
facelift
facendo
faces
fach
fachada
facial
facile
facilement
facilita
facilitar
facilitate
facilities
facility
facilmente
facing
facolta
facsimile
fact
facta
factbook
faction
factions
facto
factor
factores
factories
factors
factory
facts
factsheet
faculdade
facultad
faculte
faculty
fad
fada
fade
fader
fahrenheit
fahrer
fahrt
fahrzeug
fahrzeuge
fai
faible
fail
failed
failing
fails
failure
failures
faint
fair
fairbanks
fairchild
faire
fairfax
fairfield
fairly
fairmaire
fairy
fais
faisait
faisal
faisant
fait
faite
faites
faith
faithful
faits
faixa
faixas
faj
fake
fakt
fakta
faktor
faku
fakulta
fakultet
fal
fala
falaise
falar
falco
falcon
falcone
falcons
fale
falk
falkland
fall
falla
falle
fallecidos
fallecio
fallen
falling
fallon
fallout
falls
falo
falsa
false
falso
falta
falu
falun
fam
fama
fame
fami
famicom
famiglia
famiglie
famili
familia
familiak
familial
familiar
familiaren
familiares
familias
familie
familien
familienname
families
familjen
famille
familles
family
famine
famosa
famoso
famosos
famous
fan
fana
fancy
fand
fanden
fanfare
fang
fanning
fanno
fanns
fanny
fano
fans
fant
fanta
fantasi
fantasia
fantasma
fantastic
fantastique
fantasy
fanteria
fanto
fao
faq
far
fara
faraday
farah
farao
farbe
farben
farc
fare
farewell
fargo
fari
faria
farid
farina
faris
faritr
farkas
farklı
farley
farm
farma
farmer
farmers
farming
farms
farnese
faro
faroe
farrar
farrell
fars
farsi
farther
farw
fas
fasa
fasc
fascia
fasciata
fascism
fascismo
fascist
fascista
fase
fases
fashion
fashioned
fasi
faso
fassung
fast
faster
fastest
fasti
fat
fata
fatah
fatal
fatale
fate
fath
father
fathers
fatigue
fatih
fatima
fato
fats
fatta
fatti
fatto
fatty
fau
fauchald
faudrait
faulkner
fault
fauna
faune
faure
faust
faustino
fausto
faut
faute
faux
faveur
favor
favorable
favorables
favore
favorit
favorita
favorite
favorites
favour
favourite
favre
fawcett
fax
fay
fayard
faye
fayette
fayl
faz
faza
faze
fazenda
fazendo
fazer
fazla
fb
fbi
fc
fcc
fci
fd
fda
fdp
fe
fea
fear
feared
fearless
fears
feast
feat
feather
feathers
feature
featured
features
featuring
feb
febbraio
febrer
febrero
februa
februar
februari
februarie
february
fece
fecha
fecit
fecture
fed
fede
federa
federac
federacio
federal
federale
federation
federazione
federer
federico
fedor
fedora
fee
feed
feedback
feeding
feeds
feel
feeling
feelings
feels
fees
feet
fega
fehe
fei
feira
feit
feita
feito
feje
fekete
fel
fela
feld
felder
feldman
fele
felese
felice
felicia
feliciano
felicity
feliks
felipe
felis
felix
feliz
fell
felle
fellini
fellow
fellows
fellowship
felso
felt
felte
felu
fem
female
females
femenina
femenino
femina
feminina
feminine
feminino
feminism
feminist
feminista
femme
femmes
femmine
femminile
fen
fence
fencing
fender
fendre
fene
fenerbahc
feng
fenn
feno
fenomen
fenomeno
fense
fenster
fent
fenton
feo
fer
fera
ferdinand
ferdinando
fere
ferenc
ferencva
fergus
ferguson
feria
ferma
fermat
ferme
fermi
fermo
fern
ferna
fernand
fernanda
fernandes
fernandez
fernando
ferner
ferns
fernsehen
fernsehfilm
fernsehserie
fero
feros
ferran
ferrand
ferrara
ferrari
ferraris
ferre
ferreira
ferrer
ferrero
ferri
ferrie
ferries
ferris
ferro
ferrocarril
ferrol
ferrovia
ferroviaire
ferroviaria
ferroviario
ferrovie
ferry
ferte
fertile
fertility
fes
fest
festa
feste
festival
festivali
festivals
festo
festschrift
festuca
festung
fet
fetch
fets
fett
feu
feud
feudal
feudo
feuer
feuille
feuilles
feux
fev
fever
fevereiro
few
fewer
fey
feyenoord
feynman
fez
ff
ffa
ffc
ffentlich
ffentliche
ffentlichen
ffentlichkeit
ffentlicht
ffentlichte
ffentlichung
ffentlichungen
ffer
fff
ffffff
ffilm
ffilmiau
ffilmio
ffnet
ffnete
ffnung
fg
fh
fi
fia
fiance
fianco
fiat
fiba
fiber
fibra
fibre
fibres
fic
fica
ficamente
ficar
ficas
ficcio
fice
ficha
fiche
ficheiro
fichier
fichte
ficit
fick
fico
ficos
ficou
fiction
fictional
ficus
fiddle
fide
fidei
fidel
fidelity
fides
fie
fiedler
fief
fiel
field
fielding
fields
fier
fiera
fierce
fierro
fiesta
fiestas
fifa
fife
fifteen
fifteenth
fifth
fifty
fig
figaro
fight
fighter
fighters
fighting
fights
figli
figlia
figlio
figs
figu
figueroa
figur
figura
figuras
figure
figuren
figures
figuur
fiind
fija
fiji
fik
fikk
fil
fila
filadelfia
file
filed
filem
files
filha
filho
filhos
fili
filia
filial
filiale
filii
filip
filipa
filipe
filipina
filipinas
filipino
filippo
filius
fill
filla
fille
filled
filles
filling
fillmore
fills
film
filma
filme
filmed
filmen
filmer
filmes
filmfare
filmi
filmin
filming
filmler
filmmaker
filmo
filmografi
filmografia
filmografie
filmographie
filmography
filmovi
filmregisseur
films
filmu
filmy
filnedladdningstja
filo
filoso
filosofi
filosofia
filosofie
filozof
fils
filter
filters
filtro
filum
fim
fin
fina
finais
final
finala
finale
finalement
finalen
finales
finali
finalist
finalista
finaliste
finalists
finally
finalment
finalmente
finals
financ
finance
finances
financial
financie
financier
financing
finch
find
finden
finder
findet
finding
findings
finds
fine
fines
finest
finestra
finger
fingers
fini
finir
finis
finish
finished
finishing
finiste
finit
finita
finite
finition
finitivement
fink
finla
finland
finlande
finlandia
finlands
finlay
finley
finn
finne
finnes
finnish
finnland
finnmark
finns
fino
fins
finska
fio
fiona
fiore
fiorentina
fiorentino
fiori
fips
fiques
fir
fira
fire
firearms
fired
firefly
firefox
firenze
fires
fireworks
firing
firm
firma
firme
firmin
firmo
firms
firmware
firmy
first
firth
fis
fiscal
fiscals
fiscaux
fisch
fischer
fish
fishbase
fisher
fisheries
fisherman
fishery
fishes
fishing
fisica
fisk
fiskal
fiske
fist
fit
fita
fitch
fitness
fits
fitted
fitting
fitxa
fitxer
fitz
fitzgerald
fitzpatrick
fitzroy
fiu
fiume
fivb
five
fix
fixa
fixe
fixed
fixes
fixing
fixo
fiz
fizic
fizik
fizika
fj
fja
fjell
fjo
fjord
fjordane
fk
fl
fla
flag
flagge
flags
flagship
flair
flak
flame
flamenco
flamengo
flames
flaming
flamingo
flammarion
flanagan
flanders
flandre
flank
flash
flashback
flat
flats
flaubert
flava
flavescens
flavia
flavio
flavius
flavor
fle
flea
fled
flee
fleet
fleetwood
fleischer
fleming
flemish
flensburg
fler
flera
flere
flesh
fleste
fletcher
fleur
fleurs
fleury
fleuve
flew
flex
flexible
flexion
flick
flickr
flies
fließt
flight
flights
flinders
flint
flip
flo
float
floating
flock
flokkur
flood
flooding
floods
floor
floors
flop
flor
flora
floral
flore
florence
florencia
florent
florenz
flores
floresta
flori
florian
floriano
florida
floride
florin
floris
flota
flotilla
flotta
flotte
flour
flow
flower
flowering
flowers
flowing
flown
flows
floyd
flu
flucht
flug
flughafen
fluid
fluminense
fluss
flute
fluvial
flux
flwyddyn
fly
flyer
flyers
flying
flynn
fm
fmt
fn
fo
foar
foarte
foc
focal
focke
foco
focus
focused
focuses
focusing
fod
foe
fog
foggia
fogo
fogue
foi
fois
foix
fokker
fokus
fol
fold
folded
folding
foley
folge
folgen
folgende
folgenden
folgender
folgt
folgte
folgten
folha
folia
folie
folio
folk
folklore
folks
folle
follow
followed
followers
following
follows
folly
folyo
fomento
fon
fonction
fonctionnement
fonctions
fond
fonda
fondamentale
fondata
fondateur
fondation
fondato
fondazione
fonde
fondi
fondo
fondos
fonds
fondu
fone
fong
fono
fons
fonseca
font
fontaine
fontainebleau
fontaines
fontana
fontane
fonte
fontenay
fontes
fonti
fonts
fontsize
foo
food
foods
fool
foolish
fools
foot
footage
football
footballdatabase
footballer
footballeur
footer
footnote
footnotes
footsteps
for
fora
forall
foram
foran
forbes
forbidden
forbindelse
forc
force
forced
forces
forcing
ford
fordham
fordi
fore
forecast
foreign
forel
foreman
foren
forensic
forest
foresta
forestier
forestry
forests
forever
foreword
forfatter
forge
forges
forget
forgive
forgotten
forhold
fork
forks
forlag
forli
form
forma
formac
formacio
formada
formado
formal
formally
formalmente
forman
formando
formant
formar
formas
format
formata
formation
formations
formato
formats
formatted
formatting
formazione
forme
formed
formel
formen
forment
former
formerly
formes
formica
formicidae
formidable
forming
formo
formosa
formou
forms
formula
formulation
formule
formy
foro
foron
forra
forrest
forrester
fors
forschung
forschungen
forse
forskning
forst
forster
forsyth
fort
forta
fortaleza
fortan
forte
fortement
fortemente
fortes
fortezza
forth
forti
fortifications
fortis
fortran
fortress
forts
fortsatte
fortsetzung
fortuna
fortunato
fortune
fortunes
forty
forum
forums
forward
forza
forze
fos
foss
fossa
fosse
fossero
fossil
fossile
fossils
fost
foster
fotbal
fotbaliste
fotball
fotballspillere
fotboll
foto
fotogra
fotograf
fotografi
fotografia
fotografie
fotografii
fotos
fou
foucault
fought
fouilles
foul
foule
found
foundation
foundations
founded
founder
founders
founding
fountain
four
fourier
fournier
fournir
fourteen
fourteenth
fourth
fowler
fox
foy
foyer
foz
fp
fpo
fps
fr
fra
frac
fraction
fracture
frage
fragen
fragile
fragilis
fragment
fragmente
fragmentos
fragments
frais
fraktion
fram
frame
framed
frameless
frames
framework
framfo
fran
franc
franca
france
frances
francesa
francesc
francesca
francesco
francese
franceses
francesi
franche
franchi
franchise
francia
franciaorsza
francie
francine
francis
francisca
francisco
franciscus
franciszek
francji
franck
franco
francois
francophone
francos
francs
francu
francuska
francuske
francuski
franjo
frank
franka
franke
franken
frankenstein
frankfurt
frankfurter
frankie
franklin
franko
frankreich
frankrijk
frankrike
franks
frans
fransa
franse
fransk
franska
franske
fransız
frant
frantis
frantz
frantziako
franz
franziska
franzo
frappe
frase
fraser
frases
fratelli
fratello
frater
fraternity
frattempo
frau
fraud
fraude
frauen
fray
frazer
frazier
frazione
frazioni
fre
freak
frecuencia
fred
freda
freddie
freddy
frederic
frederick
frederico
frederik
fredrik
free
freebsd
freed
freedman
freedom
freelance
freely
freeman
freestyle
freetown
freeway
freeze
freguesia
freguesias
frei
freiberg
freiburg
freie
freien
freight
freiheit
freiherr
freire
freising
freitag
freitas
frem
fremantle
fremont
french
frente
frequ
frequencies
frequency
frequent
frequentemente
frequently
fresco
fresh
freshman
freshwater
fresno
freud
freund
freunde
freundschaft
frey
freya
fri
fria
fribourg
frica
frick
friction
frida
friday
fried
frieden
friederike
friedhof
friedman
friedrich
friend
friendly
friends
friendship
fries
friese
friesland
frigate
friidrett
fringe
frisch
fritsch
fritz
friuli
fro
frodo
froese
frog
frogs
froid
from
fromm
frompos
front
frontal
frontale
fronte
fronteira
frontera
frontie
frontier
frontiers
frontline
fronto
frosinone
frost
frozen
frs
fru
fruit
fruits
fruto
frutos
fry
frye
fs
fsa
fsb
fsv
ft
fte
ften
ftigt
ftp
ftsfu
fu
fuchs
fuck
fucking
fue
fuego
fuel
fuente
fuentes
fuera
fueron
fuerte
fuertes
fuerza
fuerzas
fuga
fugie
fugitive
fugue
fuhr
fui
fuit
fuite
fuji
fujian
fujiwara
fukuoka
fukushima
fulda
fulham
full
fuller
fulltext
fully
fulton
fume
fun
func
funcio
funciona
funcionar
funciones
funct
function
functional
functionality
functioning
functions
fund
funda
fundac
fundacio
fundada
fundado
fundador
fundadores
fundamental
fundamentals
fundar
funde
funded
funding
fundo
fundraising
funds
fune
funeral
fung
fungi
fungorum
fungus
funk
funkcje
funktion
funktionen
funky
funny
funzione
funzioni
fuoco
fuori
fur
furent
furia
furious
furnace
furniture
furono
furtado
further
furthermore
fury
fus
fusa
fusca
fuscus
fuse
fusil
fusiliers
fusio
fusion
fut
futbol
futbolcular
futbolcuları
futbolista
futbolistas
futbolistes
futbolo
futebol
futebolista
futebolistas
futsal
futuna
futur
futura
future
futures
futuro
fuzzy
fuß
fußball
fußballspieler
fv
fw
fwyaf
fx
fy
fylke
fyra
fyrir
fødsler
født
følgende
før
først
første
førte
g
ga
gaa
gaan
gaat
gab
gaba
gabe
gabeko
gabi
gabinete
gable
gabon
gabriel
gabriela
gabriele
gabriella
gabrielle
gaby
gac
gad
gada
gadang
gaddafi
gade
gadget
gadgets
gado
gae
gael
gaelic
gaetano
gaf
gag
gaga
gagarin
gage
gagne
gagner
gai
gaia
gail
gaillard
gain
gained
gainera
gaines
gainesville
gaining
gains
gainsbourg
gais
gaita
gaius
gaja
gal
gala
galactic
galactica
galaksija
galapagos
galat
galatasaray
galaxia
galaxie
galaxies
galaxy
gale
galeazzo
galega
galego
galement
galen
galera
galeri
galeria
galerie
galeries
galerija
gales
gali
galia
galicia
galilei
galileo
galina
galite
galium
galiza
gall
galla
gallagher
gallardo
galle
gallego
gallegos
gallen
galleria
galleries
gallery
galles
galli
gallia
gallica
gallimard
gallipoli
gallo
gallon
galloway
gallup
gallus
galo
galt
galva
galveston
galway
gam
gama
gamal
gamay
gamba
gambar
gambia
gambit
gamble
gambling
game
gamecube
gameplay
gamer
games
gamespot
gaming
gamla
gamle
gamma
gamme
gammel
gan
gana
ganado
ganador
ganar
gand
ganda
gandalf
gandhi
gandy
gane
gang
ganga
gange
ganges
gangs
gangster
ganhou
gano
gans
ganska
gansu
gant
ganwyd
ganz
ganze
ganzen
gao
gaon
gap
gaps
gar
gara
garage
garai
garanti
garantir
garay
garbage
garbo
garc
garci
garcia
gard
garda
garde
garden
gardens
gardes
gardien
gardiner
gardner
gare
gares
gareth
garfield
gari
garibaldi
garis
garland
garmisch
garner
garnet
garnett
garnier
garnison
garo
garonne
garrett
garrido
garrison
garros
garry
gars
garten
garth
garuda
gary
garza
gas
gases
gasoline
gaspar
gaspard
gast
gasto
gaston
gastos
gastronomi
gastropoda
gat
gata
gate
gates
gateway
gather
gathered
gathering
gation
gato
gatos
gatti
gatto
gattung
gattungen
gatunek
gatunki
gau
gauche
gaudi
gauge
gauguin
gaul
gaulle
gaur
gauss
gauteng
gauthier
gautier
gav
gave
gavin
gawas
gay
gaya
gaye
gaz
gaza
gazdasa
gaze
gazelle
gazeta
gazette
gazetteer
gazi
gazprom
gazzetta
gb
gba
gbajnoksa
gban
gbe
gbo
gbr
gc
gcatholic
gcc
gd
gdan
gde
gdi
gdje
gdp
gdy
gdynia
gdzie
ge
gea
gear
gearchiveerd
gears
geb
geba
gebaseerd
gebaut
geben
gebied
gebieden
gebiet
gebiete
gebieten
gebildet
gebirge
geboren
geborene
gebouw
gebouwd
gebracht
gebruik
gebruikt
gebu
geburt
geburtstag
gec
gecko
ged
geda
gedanken
gede
gedeelte
gedicht
gedichte
gedichten
gedurende
gee
geeft
geek
geen
geer
gees
geest
gefa
gefahr
geffen
geforce
gefu
gefunden
gegeben
gegen
gegend
gegensatz
gegenu
gegenwa
gegenwart
gegner
gegru
gehalten
geheel
geheime
geheimnis
gehen
gehiago
geho
gehouden
gehrels
geht
gei
geiger
geist
geistlicher
gek
gekommen
gel
gela
gelang
gelar
gelb
geld
gelderland
geldig
gele
gelegen
gelegenen
gelegentlich
gelen
gelis
geln
gelo
gels
gelsenkirchen
gelten
gem
gema
gemaakt
gemacht
gemeente
gemeenten
gemeinde
gemeinden
gemeinderat
gemeinsam
gemeinsame
gemeinsamen
gemeinschaft
gemini
gemma
gems
gemu
gen
gena
genannt
genannten
genas
genau
genc
gendarmerie
gende
gender
gene
genealogia
genealogical
genealogie
genealogy
genel
gener
genera
generaal
generacio
general
generala
generale
generales
generali
generalitat
generalized
generalleutnant
generally
generalmajor
generalmente
generals
generate
generated
generates
generating
generation
generations
generator
genere
generi
generic
generis
genero
genes
genesis
genet
genetic
genetics
genetik
geneva
genevie
genevieve
genf
geni
genie
genio
genis
genital
genitori
genius
genk
gennaio
gennaro
geno
genoa
genocide
genoemd
genom
genome
genommen
genomsnitt
genomsnittlig
genova
genovese
genre
genres
gens
gent
gente
gentes
gentiana
gentil
gentile
gentle
gentleman
gentlemen
gently
gentry
genu
genua
genuine
genus
genutzt
geo
geoff
geoffrey
geoffroy
geogra
geografi
geografia
geografie
geografija
geograph
geographic
geographical
geographie
geographische
geography
geolo
geologi
geologia
geological
geologie
geology
geometri
geometria
geometric
geometridae
geometrie
geometry
geonames
geophysical
georg
george
georges
georgetown
georgi
georgia
georgian
georgiana
georgie
georgina
georgios
geplant
gepra
gepubliceerd
geq
ger
gera
geraadpleegd
gerade
gerais
gerakan
geral
gerald
geraldine
geralmente
geranium
gerard
gerardo
gerber
gerc
gerd
gerda
gere
gereja
gerhard
geri
gericht
gerlach
germ
germa
germain
germaine
german
germana
germani
germania
germaniae
germanic
germanica
germanicus
germano
germans
germany
germplasm
gern
gero
geronimo
gerrard
gerrit
gerry
gers
gershwin
gert
gertrud
gertrude
gertsch
geru
gervais
ges
gesa
gesammelte
gesamte
gesamten
gesang
gescha
geschaffen
geschichte
geschichten
geschiedenis
geschlecht
geschlossen
geschreven
geschrieben
geschu
gesehen
gesellschaft
gesetz
gesetzt
geslacht
gespeeld
gespielt
gespra
gest
gesta
gestalt
gestaltung
gestapo
geste
gestellt
gestio
gestion
gestione
gesto
gestorben
gesu
gesundheit
get
geta
getafe
getargs
geto
getparent
getroffen
gets
getting
getty
gettysburg
geval
geven
gevolg
gewa
gewalt
gewann
geweest
gewesen
gewicht
gewinnen
gewo
gewone
gewonnen
geworden
geyer
geza
gezeigt
gezien
gf
gfdl
gg
gge
ggetlen
ggo
gh
gha
ghana
ghar
ghe
gheorghe
ghetto
ghi
gho
ghosh
ghost
ghosts
ghz
gi
gia
giacomo
giai
giallo
giambattista
gian
giancarlo
gianfranco
giang
gianluca
gianni
giant
giants
giao
giappone
giapponese
giardino
gib
gibb
gibbon
gibbons
gibbs
gibi
gibraltar
gibson
gibt
gic
gica
gicas
gick
gico
gicos
gida
gide
gideon
gie
gien
gier
gies
gießen
gif
gifford
gift
gifte
gifted
gifts
gifu
gig
giga
gigante
gigantea
gigantes
gigas
gigi
giglio
gihabogon
gihapon
gihatagan
gihulagway
giiniton
gijo
gik
gikan
gikk
gil
gila
gilapdon
gilbert
gilberto
gilda
giles
gill
gillan
gilles
gillespie
gillette
gilliam
gillian
gillis
gilman
gilmore
gilmour
gilt
gim
gime
gimen
giment
gimme
gimna
gimnasia
gin
gina
ginas
gine
ging
gingen
ginger
gingharian
ginhatag
ginhulagway
gini
ginn
gino
gintang
gio
gioca
giocare
giocato
giocatore
giocatori
giochi
gioco
gioia
gion
gional
gionale
gionales
gions
giordano
giorgi
giorgio
giornale
giornata
giorni
giorno
gios
giotto
giovane
giovani
giovanna
giovanni
giques
gir
gira
girard
giraud
girault
gire
giri
giris
girl
girlfriend
girls
giro
girolamo
girona
gironde
girondins
girone
giroux
gis
gisa
gisela
gislatives
gislature
git
gita
gitar
gitara
gitarist
github
giu
giudice
giugno
giulia
giuliani
giuliano
giulio
giuseppe
giustizia
giusto
give
given
gives
giving
giza
gizon
gj
gjate
gje
gjennom
gjorde
gjort
gk
gks
gl
gla
glabra
glace
glacial
glacier
glaciers
glad
gladbach
gladiator
gladstone
gladys
glam
glamour
glance
gland
glas
glaser
glasgow
glass
glasses
glastonbury
glauben
glauca
glava
glavni
gle
gleason
glee
gleich
gleichen
gleichnamigen
gleichzeitig
glej
glement
glen
glendale
glenn
gler
gles
gli
glich
gliche
glichen
glicherweise
glichkeit
glichkeiten
gliese
glise
glises
glo
global
globale
globalization
globally
globalsecurity
globe
globes
globo
globus
glock
gloire
gloria
gloriosa
glorious
glory
glossary
gloucester
gloucestershire
glover
glow
glu
gluck
glucose
glumac
gm
gma
gmail
gmbh
gmelin
gmin
gmina
gminie
gminy
gmt
gmu
gn
gna
gne
gner
gnes
gnie
gno
gnome
gnu
go
goa
goal
goalkeeper
goals
goat
gob
gobernador
goberno
gobierno
gobiernos
gobiernu
gobiidae
goblin
god
goda
godard
goddard
goddess
gode
godfather
godfrey
godina
godine
godis
godoy
gods
godt
godwin
godzilla
goe
goebbels
goed
goede
goes
goethe
goff
gogh
gogo
gogol
goi
goia
goin
going
goire
gok
goku
gol
gola
golan
golau
gold
goldberg
golden
goldene
goldenen
goldman
goldschmidt
goldsmith
goldstein
goldwyn
gole
golem
goles
golf
golfe
golfo
goli
goliath
golo
golpe
gols
goma
gomes
gomez
gon
gonc
goncourt
gone
gonflement
gong
gonna
gonza
gonzaga
gonzales
gonzalez
gonzalo
goo
good
goodbye
goode
goodman
goods
goodwin
goodyear
google
goose
gor
gora
goran
gordo
gordon
gore
gorge
gorges
gori
gorica
gorie
gories
gorilla
gorizia
gorki
gorman
gornji
goro
gory
goryeo
gos
gospel
gospels
gospod
gospoda
gosse
gossip
got
gota
goth
gotha
gotham
gothic
gotland
goto
gotovo
gott
gotta
gottes
gottfried
gotthard
gottlieb
gottlob
gou
goud
gouden
gough
gould
gouv
gouvernement
gouverneur
gov
govaerts
govern
governador
governance
governatore
governed
governing
government
governmental
governments
governo
governor
governorate
governors
govori
govt
gower
goya
gozo
gp
gpa
gpl
gps
gpu
gq
gr
gra
graaf
graafschap
grab
grabacio
grabar
graben
grabo
grac
grace
gracia
gracias
gracie
gracilis
grad
grada
grade
grader
grades
gradi
gradient
gradis
grado
gradova
gradovi
gradu
gradual
gradually
gradualmente
graduate
graduated
graduates
graduating
graduation
grady
graeca
graeme
graf
grafen
graff
graffiti
grafia
grafica
grafik
grafiker
grafo
grafos
grafschaft
grafton
graham
grain
grains
gral
gram
grama
gramm
grammaire
grammar
grammatica
grammatical
grammatik
grammophon
grammy
grams
gran
grana
granada
grand
granda
grande
grandes
grandeur
grandfather
grandi
grandiflora
grandis
grandmother
grands
grandson
grange
granger
granic
granica
granice
granit
granite
granja
grano
grans
grant
granted
granting
grants
granville
grape
grapes
graph
graphic
graphics
graphique
graphs
gras
grass
grasse
grasset
grasshopper
grasshoppers
grassi
grata
grateful
gratia
gration
gratis
grau
graubu
grav
grava
grave
gravel
gravemente
graven
graves
graveyard
gravi
gravity
gravure
gray
grayson
graz
grazia
grazie
grb
grc
gre
grease
great
greater
greatest
greatly
grec
greca
greci
grecia
greco
grecque
grecs
greece
greek
greeks
green
greenberg
greene
greenfield
greenhouse
greenland
greenpeace
greens
greenville
greenwich
greenwood
greer
greetings
greg
grega
gregg
grego
gregor
gregori
gregorian
gregorio
gregorius
gregory
greifswald
gren
grenada
grenade
grenadier
grenier
grenoble
grens
grenze
grenzen
grenzt
gres
greta
gretchen
grete
greve
grew
grey
greyhound
gri
grid
gridcolor
griechenland
griechisch
griechische
griechischen
grief
grieg
griega
griego
griff
griffin
griffith
griffiths
grigori
grill
grille
grillo
grim
grimaldi
grimes
grimm
grin
grind
grip
gris
griswold
grizzlies
grizzly
gro
grob
groen
groeneveld
groep
grof
grond
groningen
groom
groot
grootste
groove
gros
grosjean
gross
grossa
grosse
grosses
grosseto
grossi
grossman
grosso
grote
grotta
grotte
ground
grounds
group
groupe
groupes
groups
grove
grover
groves
grow
growing
grown
grows
growth
groß
großbritannien
große
großen
großer
großes
grs
gru
grube
gruber
grudnia
grumman
grund
grundlage
grundlagen
grundriss
grundsa
grundstu
grunge
grunn
grup
grupa
grupe
grupo
grupos
grupp
gruppe
gruppen
grupper
gruppi
gruppo
grups
grupu
grupy
grus
gruyter
gry
grzegorz
gs
gsi
gsm
gst
gsta
gsub
gt
gta
gte
gten
gti
gto
gts
gu
gua
guadalajara
guadalcanal
guadalupe
guadeloupe
guam
guan
guanajuato
guangdong
guangxi
guangzhou
guanyar
guarani
guarantee
guaranteed
guard
guarda
guardia
guardian
guardians
guards
guas
guatemala
guayaquil
gucci
gud
gudrun
gue
guernsey
guerra
guerras
guerre
guerrero
guerres
guerrilla
guess
guest
guests
guetta
guevara
guez
guggenheim
guglielmo
gui
guia
guiana
guida
guidance
guide
guided
guidelines
guides
guiding
guido
guila
guild
guilherme
guillaume
guille
guillem
guillermo
guilt
guilty
guimara
guin
guine
guinea
guinness
guio
guion
guionista
guise
guitar
guitare
guitarist
guitarra
guitarrista
guitars
guizhou
gujarat
gujarati
gul
gula
gulag
gulch
guld
gulden
gulf
gulie
gull
gulliver
gum
gun
guna
gundam
gung
gunma
gunn
gunnar
guns
gunter
gunther
gunung
guo
gupta
gur
gura
gure
gurion
gurney
guru
gus
gust
gusta
gustaf
gustafsson
gustav
gustave
gustavo
gusti
gusto
gut
gute
guten
gutenberg
guthrie
gutie
gutierrez
guts
guy
guyana
guyane
guys
guzma
gv
gva
gw
gweld
gweler
gwen
gwrywaidd
gwyn
gwynedd
gx
gy
gya
gyda
gye
gyfarwyddwyr
gyhoeddwyd
gyi
gyldendal
gym
gymnasium
gymnastics
gynnwys
gyo
gypsy
gypte
gypten
gyu
gyula
gz
głe
gło
h
ha
haa
haag
haakon
haan
haaptacteuren
haar
haaretz
haarlem
haas
haase
hab
haba
habagat
habagatan
habagatang
habana
habe
habeas
haben
haber
habet
habi
habib
habilidades
habilitation
habit
habita
habitacio
habitant
habitantes
habitants
habitat
habitatge
habitatges
habitation
habitats
habite
habits
habitual
habla
hablar
habri
habsburg
hac
hace
hacen
hacer
hachette
haci
hacia
hacienda
haciendo
hack
hacker
hackett
had
hada
haddad
hadde
hadden
hade
hades
hadi
hadith
hadley
hadrian
hadton
hadz
hae
haec
haeckel
hafen
haft
hag
haga
hagan
hagen
hagi
hague
hagyoma
hahn
hai
haifa
haig
haiku
hail
haile
haim
hain
hainan
hainaut
hainbat
haine
haines
hair
haiti
haja
hajdu
hajduk
haji
hajo
hak
haka
hakan
hakim
hakka
hakkında
hal
hala
halberstadt
halbfinale
halbinsel
hale
haleakala
halen
haley
half
halfway
hali
halifax
halk
hall
halla
halle
hallelujah
haller
halley
hallo
halloween
halls
halo
hals
halsey
halt
halte
halten
halve
ham
hama
hamad
hamar
hamas
hamburg
hamburger
hamburgo
hameau
hamel
hamer
hamid
hamilton
hamlet
hamm
hammer
hammersmith
hammerstein
hammond
hampden
hampir
hampshire
hampson
hampstead
hampton
hamza
han
hana
hanau
hanc
hancock
hand
handball
handbook
handbuch
handed
handel
handeln
handelt
handen
handful
handicap
handle
handled
handler
handley
handling
handlung
hands
handsome
handy
hane
hanem
hang
hangar
hanging
hangul
hangzhou
hani
hanja
hank
hanks
hanley
hann
hanna
hannah
hannes
hannibal
hanno
hannover
hanns
hannu
hanoi
hanover
hans
hansa
hansen
hanson
hansson
hant
hanya
hao
hap
hapit
hapoel
hapon
happen
happened
happening
happens
happiness
happy
haq
haqqında
har
hara
harald
haram
harare
harassment
harbin
harbor
harbour
harcourt
hard
hardcore
hardcover
harden
harder
hardin
harding
hardly
hardware
hardy
hare
harem
haren
hari
harlan
harlem
harley
harlow
harm
harmadik
harman
harmattan
harmon
harmonia
harmonica
harmonie
harmony
harms
haro
harold
harp
harper
harpercollins
harri
harrier
harriet
harrington
harris
harrisburg
harrison
harrow
harry
harsh
hart
harta
harte
hartford
hartley
hartman
hartmann
hartmut
hartu
haru
haruka
harun
harus
harv
harvard
harvest
harvey
harwood
haryana
harz
has
hasan
hash
hashimoto
hasi
hasil
haskell
hasonlo
hassan
hasse
hasselt
hassler
hast
hasta
hastings
haszna
hat
hata
hatch
hatchback
hate
hatfield
hath
hathaway
hati
hato
hatred
hats
hatt
hatta
hatte
hatten
hau
haunted
haupt
hauptbahnhof
hauptmann
hauptsa
hauptstadt
haus
hausa
hause
hauser
hauses
haut
haute
hautes
hauteur
hauts
hava
havana
havas
havde
have
havel
haven
haver
havet
havi
havia
havien
havilland
having
havis
havli
havoc
havre
haw
hawa
hawai
hawaii
hawaiian
hawk
hawke
hawker
hawkes
hawking
hawkins
hawks
hawley
haworth
hawthorn
hawthorne
hay
haya
hayashi
hayat
hayden
haydn
haye
hayek
hayes
hayley
haynes
hayop
hays
hayward
haz
haza
hazard
hazards
haze
hazel
haziran
hb
hbar
hbo
hc
hcl
hd
hdi
hdl
hdmi
hdr
hdz
he
head
headed
header
heading
headline
headquarters
heads
heal
healing
health
healthcare
healthy
healy
heap
hear
heard
hearing
hearst
heart
heartbeat
heartbreak
heartland
hearts
heat
heath
heather
heathrow
heating
heats
heaven
heavenly
heavens
heavily
heavy
heavyweight
heb
hebben
hebdo
hebei
hebra
hebrew
hebron
hec
hecho
hechos
hecht
heck
hecta
hectare
hectares
hector
hed
hedge
hedgehog
hedges
hedmark
hedwig
hee
heeft
heel
heels
heer
heerenveen
heet
heft
hefyd
hegel
hei
heian
heida
heide
heidegger
heidelberg
heidi
height
heights
heike
heikki
heil
heilbronn
heilig
heilige
heiligen
heilongjiang
heim
heimat
hein
heina
heine
heineken
heinemann
heiner
heinkel
heinrich
heinrichs
heinz
heir
heiratete
heirs
heisenberg
heist
heißt
hej
hektar
hel
hela
held
helden
helder
hele
helen
helena
helene
helens
helft
helga
helge
heli
helico
helicopter
helicopters
helikopter
helin
helios
helium
helix
hell
hella
hellas
helle
hellenic
hellenistic
heller
hello
helm
helmet
helmholtz
helms
helmut
helmuth
help
helped
helper
helpful
helping
helps
helsingborg
helsingfors
helsingin
helsinki
helt
hely
helye
helyen
hem
hemiboreal
hemingway
hemiptera
hemisphere
hemmin
hen
henan
henares
hence
hende
henderson
hendrick
hendricks
hendrik
hendrix
henk
henkilo
henley
henne
hennes
hennessy
henning
henri
henricus
henrietta
henriette
henrik
henrique
henry
henryk
henschel
henson
hentet
henvisninger
heo
hep
hepatitis
hepburn
her
hera
heracles
herald
herat
heraus
herausgeber
herausgegeben
herb
herba
herbarium
herbert
herbie
herbst
herceg
hercegovina
hercegovine
hercule
hercules
herd
herder
here
herec
heredia
hereditary
hereford
heren
herge
hergestellt
hering
heritage
herkunft
herman
hermana
hermanas
hermann
hermano
hermanos
herme
hermes
hermine
hermione
hermitage
hermosa
herna
hernandez
hernando
herne
hero
herodes
herodotus
heroes
heroi
heroic
heroin
heroine
heron
herr
herre
herren
herrera
herri
herriak
herrich
herring
herrmann
herrn
herrschaft
herrscher
hers
herschel
herself
hershey
hersteller
herstellung
hertfordshire
hertha
hertog
hertz
herve
hervor
herz
herze
herzegovina
herzen
herzog
herzogtum
hes
hess
hesse
hessen
hessischen
hester
het
heteroptera
hett
heure
heures
heureux
heute
heutige
heutigen
hewitt
hewlett
hex
hey
heydrich
heyne
heyograpiya
hez
hezbollah
hf
hg
hh
hi
hia
hiatus
hiba
hibiscus
hic
hicieron
hickman
hicks
hicule
hicules
hid
hidalgo
hidden
hiddencat
hide
hideyoshi
hiding
hidra
hidro
hidup
hie
hielt
hien
hier
hieracium
hierarchy
hierbei
hierdie
hieronymus
hierro
hig
higgins
higgs
high
higher
highest
highland
highlanders
highlands
highlight
highlighted
highlights
highly
highway
highways
higkeit
hii
hij
hija
hijo
hijos
hikaru
hiking
hil
hilabihan
hilaire
hilal
hilary
hilbert
hilda
hilde
hildebrand
hildegard
hildesheim
hilfe
hill
hillary
hiller
hilliard
hillman
hills
hillsborough
hilo
hilton
him
himachal
himalaya
himalayan
himalayas
hime
himmel
himmler
himno
himself
hin
hina
hinaus
hind
hindenburg
hindi
hindu
hinduism
hindus
hindustan
hine
hines
hing
hingegen
hingga
hini
hiniusang
hino
hint
hinter
hintergrund
hinton
hinzu
hip
hipo
hipparcos
hippolyte
hir
hira
hiram
hire
hired
hiri
hiro
hiroshi
hiroshima
hiroyuki
hirsch
hirschfeld
hirsuta
hiru
his
hispa
hispana
hispania
hispanic
hispaniola
hispano
hist
histeridae
histo
histoire
histoires
historia
historiador
historiadores
historiae
historian
historians
historias
historic
historica
historical
historically
historicky
historie
historien
historiens
histories
historii
historija
historik
historiker
historio
historiography
historique
historiques
historisch
historische
historischen
historischer
historisches
historisk
history
hiszpan
hit
hita
hitachi
hitam
hitchcock
hitler
hitlers
hitman
hits
hitting
hiv
hivatalos
hiver
hizo
hj
hja
hjahr
hjalmar
hk
hko
hl
hla
hlau
hlava
hlavne
hlavni
hle
hled
hlen
hler
hli
hlich
hling
hlist
hlt
hlte
hlten
hlung
hlungen
hm
hmas
hme
hmen
hmong
hms
hn
hne
hnen
hner
hnk
hnlich
hnliche
hnlichen
hno
hnt
hnung
ho
hoa
hoang
hob
hobart
hobbes
hobbit
hobbs
hobby
hoboken
hobson
hoc
hoch
hochkant
hochschule
hochschullehrer
hochzeit
hockey
hod
hodder
hodge
hodges
hodgson
hoe
hoek
hoewel
hof
hofer
hoff
hoffman
hoffmann
hoffnung
hofmann
hog
hogan
hogar
hogarth
hoge
hogg
hogwarts
hogy
hohe
hohen
hohenlohe
hohenzollern
hoher
hoi
hojas
hoje
hokkaido
hol
hola
holanda
holande
hold
holden
holder
holders
holding
holdings
holds
holdt
hole
holes
holger
holi
holiday
holidays
holl
holla
holland
hollande
holliday
hollis
hollow
holloway
holly
hollywood
holm
holman
holme
holmes
holocaust
holotype
holst
holstein
holt
holte
holy
holz
hom
homa
homage
hombre
hombres
homburg
home
homecoming
homeland
homeless
homem
homenaje
homens
homepage
homer
homes
homestead
hometown
homicide
hominem
homines
hominis
hommage
homme
hommes
homo
homoge
homonymie
homoptera
homosexual
homosexuality
homs
hon
honda
hondo
honduras
honek
honest
honey
honeymoon
hong
hongkong
hongrie
hongrois
honneur
honno
honolulu
honom
honor
honorable
honorary
honore
honored
honoris
honorius
honors
honour
honourable
honours
honra
honshu
honve
hoo
hood
hoog
hoogste
hoogte
hook
hooker
hooks
hoon
hoop
hooper
hoover
hop
hope
hoped
hopes
hoping
hopkins
hoppe
hopper
hor
hora
horace
horacio
horas
horatio
hordaland
horde
hores
hori
horien
horizon
horizons
horizontal
horizonte
hormone
horn
horne
horner
hornet
hornets
horni
horns
horowitz
horrible
horror
hors
horse
horses
horseshoe
horst
hort
horta
horton
horus
horva
hory
hos
hose
hospital
hospitality
hospitals
hospoda
hossein
hosszu
host
hostage
hosted
hostile
hosting
hosts
hot
hotel
hotels
hotspur
hou
houghton
hound
hour
hours
house
housed
household
householder
households
houses
housewives
housing
houston
houten
houve
hova
hove
how
howard
howe
howell
however
hoy
hoya
hoyo
hoyt
hoz
hozza
hp
hpa
hpv
hq
hr
hra
hrabstwie
hrad
hradec
hradis
hre
hren
hrend
hrende
hrenden
hrer
hrige
hrigen
hriger
hrlich
hrliche
hrsg
hrt
hrte
hrten
hru
hrung
hrungen
hrus
hrvatska
hrvatske
hrvatski
hrvatskoj
hry
hs
hsbc
hsu
hsv
ht
hta
htc
hte
hteet
hti
htm
html
htmlhttp
http
https
hu
hua
huai
huan
huang
huawei
hub
hubbard
hubble
hubei
huber
hubert
hubertus
hubiera
hubo
hubungan
hud
huddersfield
hudebni
hudson
hue
huelva
huerta
huesca
huet
huey
huff
huffington
hug
huge
hugh
hughes
hugo
hugues
hui
huidige
huile
huis
huit
huitie
hukum
hul
hula
hulk
hull
hulle
hulu
hulyo
hum
huma
humain
humaine
humaines
humains
human
humana
humanas
humane
humanidad
humanist
humanita
humanitarian
humanite
humanities
humanity
humano
humanos
humans
humber
humbert
humberto
humble
humblot
humboldt
hume
humilis
hummel
humo
humor
humour
humphrey
humphreys
hun
hunan
hund
hundert
hundred
hundreds
hung
hungara
hungaria
hungarian
hungary
hunger
hungri
hungry
hunt
hunter
hunters
hunting
huntington
hunyo
huo
hur
huraca
hurd
hurley
hurling
huron
hurricane
hurricanes
hurst
hurt
hurtado
hurts
hus
husa
husayn
husband
huset
hush
hussain
hussein
husserl
hustle
huston
hustru
hut
hutan
hutch
hutchinson
hutton
huvudsak
huvudstaden
huxley
huy
huye
huygens
hv
hva
hve
hver
hvert
hvilket
hvis
hvor
hw
hwa
hwan
hwang
hx
hy
hyacinthe
hyatt
hybrid
hyd
hyde
hyderabad
hydra
hydraulic
hydro
hydrogen
hye
hygiene
hyman
hymenoptera
hymn
hymne
hymns
hynny
hyo
hype
hyper
hypericum
hyperion
hyphen
hypothe
hypothesis
hyun
hyundai
hyva
hyvin
hz
həmc
hər
i
ia
iaaf
iaea
iai
iain
iako
ial
ialah
iam
ian
iana
ianuarie
iar
ias
iat
iata
iau
iaure
ib
iba
ibabaw
iban
ibarra
ibc
ibe
iberia
iberian
iberica
ibf
ibge
ibi
ibid
ibidem
ibilgailuen
ibis
ibiza
ibm
ibn
ibo
ibrahim
ibsen
ibu
ic
ica
icao
icarus
icc
icd
ice
iceland
icelandic
ich
icha
iche
ichi
ichiro
ichneumon
ichneumonidae
ichneumonoidea
ici
icke
ico
icon
iconic
icons
ics
ict
icu
icy
id
ida
idade
idag
idaho
ide
idea
ideal
ideale
ideals
ideas
idee
ideen
ideia
ideje
idem
iden
identical
identidad
identifica
identificacio
identificar
identification
identifie
identified
identifier
identifiers
identifies
identify
identifying
identique
identita
identite
identities
identity
ideo
ideolo
ideologi
ideologia
ideologie
ideology
ides
idf
idi
idioma
idiomas
idiot
idir
idle
ido
idol
idols
idris
ids
idt
idu
ie
iec
ieee
iei
iel
iela
iem
ien
ier
iere
iert
ies
ietf
iets
ieu
ieyasu
if
ifa
iff
iffhs
ifju
ifk
ifra
ifølge
ig
iga
igbo
ige
igel
igen
igg
iggy
igi
igitur
igjen
iglesia
iglesias
ign
igna
ignacio
ignacy
ignatius
ignaz
ignazio
ignorance
ignorant
ignore
ignored
igo
igor
igra
igrac
igre
igreja
igrzysk
igrzyskach
igual
igualmente
iguana
ih
iha
ihe
ihm
ihn
ihnen
ihr
ihre
ihrem
ihren
ihrer
ihres
ii
iia
iihf
iii
iile
iis
ij
ija
ije
iji
ijo
iju
ik
ika
ikan
ike
ikea
ikeda
iki
ikinci
ikke
ikki
ikkje
ikko
iko
ikon
iktas
iku
ikus
il
ila
ilan
ilc
ildis
ildə
ile
ilegal
iler
iles
ilex
ilgili
ilha
ilhas
ili
ilia
ilic
ilija
ilik
ilin
ilina
ilis
ilja
ilk
ill
illa
illas
ille
illegal
illes
illetve
illi
illinois
illness
illo
illud
illumination
illusion
illusions
illustrated
illustration
illustrations
illustrator
illustre
ilm
ilmiah
ilmu
ilo
ilona
ilor
ils
ilse
ilu
ily
ilya
ilyen
ilə
im
ima
image
imagem
imagen
imagens
imagery
images
imagesize
imagina
imaginaire
imaginary
imagination
imagine
imaging
imago
imaju
imala
imali
imam
iman
imao
imatge
imax
imdb
ime
imel
imena
imenom
imf
img
imi
imidlertid
imitation
imma
immaculate
immagine
immagini
immanuel
imme
immediate
immediately
immense
immer
immigrant
immigrants
immigration
immortal
immune
immunity
imo
imola
imp
impact
impacto
impacts
impatiens
impe
impeachment
impedir
imperador
imperator
imperatore
imperi
imperia
imperial
imperiale
imperialism
imperii
imperio
imperium
impero
implante
implement
implementation
implemented
implementing
implements
implica
implication
implications
implied
implies
implique
impo
import
importa
importance
importancia
important
importante
importantes
importanti
importants
importanza
importe
imported
impose
imposed
imposible
impossible
imprensa
imprenta
impresa
impressed
impression
impressions
impressive
impressum
imprime
imprimerie
imprint
imprisoned
imprisonment
improve
improved
improvement
improvements
improving
improvisation
impuls
impulse
impulso
imre
ims
imu
in
ina
inac
inactive
inak
inappropriate
inaugurada
inaugurado
inaugural
inaugurated
inauguration
inaugure
inc
inca
incapable
incarico
incarnation
ince
incendie
incendio
inception
incerta
incertae
inch
incheon
inches
inci
incidence
incident
incidente
incidents
incl
incline
inclu
include
included
includes
includiintestazione
including
inclui
incluido
incluindo
incluir
inclusa
inclusion
inclusive
incluso
incluye
incluyen
incluyendo
income
incomplete
inconnu
incontri
incontro
incorpora
incorporate
incorporated
incorporates
incorporating
incorporation
incorrect
increase
increased
increases
increasing
increasingly
incredible
increment
incremento
incumbent
ind
inda
inde
indeed
indeling
indelningar
indem
inden
independe
independence
independencia
independent
independente
independently
independents
independiente
indes
index
indi
india
indian
indiana
indianapolis
indiano
indians
indias
indic
indica
indicar
indicate
indicated
indicates
indicating
indication
indications
indicator
indicators
indice
indices
indicus
indie
indien
indiens
indies
indige
indigenous
indigo
indio
indios
indipendenza
indique
indira
indirect
indische
indispensable
indivi
individu
individua
individual
individuale
individuales
individually
individuals
individuelle
individuo
individuos
individus
indiya
indo
indochina
indone
indonesia
indonesian
indonesie
indonesien
indonesya
indoor
indra
indre
indu
induce
induced
inducted
induction
indus
industri
industria
industrial
industriale
industrie
industriel
industrielle
industries
industry
indy
indycar
ine
inec
inen
inequality
ines
inevitable
inf
infa
infamous
infancia
infant
infanta
infante
infanteri
infanterie
infantil
infantry
infants
infatti
infe
infected
infection
infections
infectious
inferior
inferiore
inferiores
infernal
inferno
inferred
infine
infinita
infinite
infinito
infinity
inflation
influe
influence
influenced
influences
influencia
influent
influential
influenza
info
infobox
infolge
inform
informa
informac
informacio
informal
informatie
information
informationen
informations
informatique
informazioni
informe
informed
informer
informes
informo
infos
infra
infrared
infrastructure
infrastructures
infrastruktur
infty
ing
inga
inge
ingeborg
ingen
ingenieri
ingeniero
ingenieur
inger
inggris
inghilterra
ingkang
inglaterra
ingle
ingles
inglesa
inglese
ingleses
inglesi
inglis
ingmar
ingo
ingolstadt
ingram
ingredients
ingres
ingreso
ingresos
ingresso
ingressos
ingrid
inhabitants
inhabited
inhalt
inherent
inherit
inheritance
inherited
inhibitor
inhume
ini
inicia
inicial
inicialmente
iniciar
iniciativa
inicio
inicios
inin
inio
inis
init
initial
initialement
initially
initials
initiated
initiation
initiative
initiatives
inizi
inizia
inizialmente
iniziato
inizio
inje
injection
injured
injuries
injury
injustice
ink
inka
inklusive
inland
inlet
inline
inmediatamente
inn
inna
innan
inne
innen
inner
innere
inneren
innerhalb
innes
inni
inning
innings
innocence
innocent
innost
innosti
innovation
innovations
innovative
innsbruck
innych
innymi
ino
inoltre
inom
inorganic
inou
inoue
input
inquirer
inquiry
inquisition
inra
ins
insan
insane
insanlar
insbesondere
inschrift
inscribed
inscripcio
inscription
inscriptions
inscrit
inscrits
inse
insect
insecta
insectes
insectos
insects
insee
inseeren
insekto
insektsart
insel
inseln
insert
inserted
insertion
insgesamt
inside
insider
insieme
insight
insights
insigne
insignia
insignis
insiste
insisted
insjo
inspecteur
inspection
inspector
inspira
inspiration
inspire
inspired
inst
insta
instagram
instalacio
instalaciones
install
installation
installations
installe
installed
installer
instance
instances
instant
instar
instead
instinct
institucio
institucional
instituciones
instituic
institut
instituta
institute
institutes
institution
institutional
institutionen
institutions
instituto
instituts
instituut
instruction
instructions
instructor
instrument
instrumental
instrumentation
instrumente
instrumento
instrumentos
instruments
instytut
insufficient
insula
insular
insularis
insulin
insurance
insurrection
int
inta
intact
intake
intanto
inte
integer
integra
integracio
integrada
integrado
integral
integrante
integrantes
integrar
integrated
integration
integrity
intel
intelectual
inteligencia
intellect
intellectual
intelligence
intelligent
intencio
intendant
intended
intensa
intense
intensity
intensive
intenso
intent
intenta
intentar
intention
intentions
intento
inter
intera
interact
interaction
interactions
interactive
interception
interchange
intercity
intercontinental
interdiction
interdisciplinary
interdit
intere
interes
intereses
interessante
interesse
interessen
interest
interested
interesting
interests
interface
interfaces
interfere
interference
interieur
interim
interior
interiors
interlude
interme
intermedia
intermediate
intermezzo
interministe
intern
interna
internacionais
internacional
internacionales
internal
internasional
internasjonale
internat
international
internationale
internationalen
internationaler
internationales
internationally
internationaux
internazionale
internazionali
interne
internes
internet
interni
interno
intero
interpol
interpre
interpret
interpreta
interpretacio
interpretada
interpretado
interpretando
interpretar
interpretata
interpretation
interpretations
interpretato
interpreted
interpreter
interpreto
interrupted
interscope
intersection
interstate
interstellar
intertoto
interval
intervals
intervencio
intervenir
intervention
interventions
intervento
interview
interviewed
interviews
intervista
interwiki
intestinal
inti
intimate
intitule
into
intorno
intra
intre
intrigue
intro
introduccio
introduce
introduced
introduces
introducing
introduction
introductory
introduzione
inu
inuit
inut
inutile
inv
inva
invaded
invaders
invalid
invariant
invasio
invasion
invasions
invasive
invece
inventa
inventaire
invented
invention
inventions
inventor
inventory
inverness
inverno
inversa
inverse
inversio
inversion
invertebrate
invertebrates
inverted
invest
investigacio
investigaciones
investigadores
investigate
investigated
investigating
investigation
investigations
investigative
investigator
investment
investments
investor
investors
invierno
invincible
invisible
invita
invitation
invitational
invite
invited
invloed
invocation
invoke
involve
involved
involvement
involves
involving
inwoners
inwonertal
iny
inyo
inz
inzwischen
io
ioan
ioannes
ioannis
ioc
iom
ion
iona
ional
ionala
ionale
ions
ios
iota
iowa
ip
ipa
ipac
ipad
ipairs
ipak
ipar
ipc
ipcc
iphone
ipo
ipod
ipomoea
ipotesi
ips
ipsa
ipse
ipso
ipsum
ipswich
ipv
iq
iqbal
ir
ira
irak
iran
irani
iranian
iranica
iraq
iraqi
iras
irb
irc
ire
ireann
ireland
irena
irene
ireo
iri
iria
irin
irina
iris
irish
irk
irkau
irkutsk
irl
irland
irlanda
irlande
irma
iro
iron
ironman
irons
iroquois
irre
irregular
irrigation
irs
irt
iru
irun
irvin
irvine
irving
irwin
is
isa
isaac
isaak
isabel
isabela
isabella
isabelle
isaf
isai
isaiah
isang
isbn
isch
ische
ischen
ischer
ise
isen
iset
isfahan
ish
ishii
ishikawa
ishte
isi
isia
isidore
isidoro
isidro
isil
isin
isis
iska
iskandar
iskola
isl
isla
islam
islamabad
islamic
island
islande
islander
islanders
islandia
islands
islas
isle
isles
ism
isma
ismael
ismail
isme
ismert
isn
iso
isola
isolated
isolation
isole
isonzo
isopod
isopoda
isotope
isp
israe
israel
israeli
iss
issa
issn
isso
issu
issue
issued
issues
issus
ist
ista
istana
istanbul
istat
iste
isten
isti
istifadə
istilah
istituto
isto
istoc
istoria
istoric
istorie
istorija
istraz
istri
istria
istva
istwa
isu
isə
it
ita
ital
itali
italia
italiaanse
italian
italiana
italiane
italiani
italiano
italianos
italians
italic
italica
italics
italie
italien
italienisch
italienische
italienischen
italienischer
italienne
italiens
italiensk
italijanski
italiji
italo
italy
italya
itarong
itd
ite
itel
item
itemid
items
iter
itf
ithaca
iti
itim
itine
itis
itli
ito
its
itself
itt
itu
itunes
itv
ity
iu
iucn
iuj
iulia
iulie
iulius
iunie
iupac
iure
iuris
ius
iv
iva
ivan
ivana
ivanja
ivano
ivanov
ivanovic
ivanovich
ivar
ive
iveco
ivelany
ivelo
ives
ivi
ivica
ivo
ivoire
ivor
ivory
ivot
ivota
ivotopis
ivy
iw
iwa
iwan
iwata
iwgp
iwo
ix
ixer
iy
iya
iyi
iyo
iz
iza
izan
izin
između
izmir
iznosi
izquierda
izquierdo
izrael
izraz
izumi
izvor
izvori
izvrs
j
ja
jaan
jaap
jaar
jaba
jabal
jabatan
jabb
jac
jacek
jacinto
jack
jacket
jackets
jackie
jacks
jackson
jacksonville
jacky
jacob
jacobi
jacobo
jacobs
jacobsen
jacobson
jacobus
jacoby
jacopo
jacq
jacqueline
jacques
jad
jada
jade
jadi
jae
jaeger
jaffa
jag
jagd
jagger
jagiellon
jaguar
jaguars
jah
jahan
jahn
jahr
jahrbuch
jahre
jahren
jahres
jahrgang
jahrhundert
jahrhunderts
jai
jail
jaime
jain
jak
jaka
jakarta
jake
jako
jakob
jakub
jal
jalan
jalisco
jalur
jam
jama
jamaica
jamaican
jamais
jamal
jambi
jame
james
jameson
jamestown
jami
jamie
jamii
jammu
jams
jan
jana
jane
janeiro
janet
janez
jang
jani
janice
janine
janis
janko
jankovic
janne
jano
jans
jansen
janson
janssen
jansson
janua
januar
januari
january
janus
janusz
janvier
jap
japa
japan
japanese
japanische
japanischen
japanischer
japans
japansk
japanske
japo
japon
japonais
japonaise
japone
japonesa
japoneses
japonica
japonicus
jar
jara
jarak
jarcento
jardi
jardim
jardin
jardine
jardines
jardins
jared
jaren
jari
jarige
jaringan
jarl
jaro
jaroj
jaros
jaroslav
jarosław
jarrett
jarvis
jas
jasmin
jasmine
jason
jasper
jat
jau
jauh
jaume
jaune
jav
java
javascript
javelin
javi
javier
jaw
jawa
jaws
jay
jaya
jays
jaz
jazeera
jazz
jb
jc
jd
jde
je
jealous
jean
jeanette
jeanne
jeans
jeb
jebel
jec
jed
jedan
jede
jedem
jeden
jeder
jedes
jedi
jedna
jednak
jedne
jednego
jednej
jedni
jedno
jednog
jednom
jednostka
jednostki
jednou
jednu
jednym
jedoch
jedynie
jeep
jef
jefe
jeff
jefferson
jeffery
jeffrey
jeg
jego
jegyzetek
jeho
jehovah
jej
jeji
jejich
jeju
jekyll
jel
jelen
jelena
jelent
jelento
jelly
jelo
jem
jemen
jen
jena
jene
jeneral
jeni
jenis
jenkins
jenna
jenner
jennie
jennifer
jennings
jenny
jeno
jens
jenseits
jensen
jenson
jeon
jeong
jepang
jer
jera
jeremiah
jeremy
jerez
jericho
jermaine
jerman
jero
jerome
jerry
jersey
jerusale
jerusalem
jerzy
jes
jesper
jess
jesse
jessica
jessie
jest
jesu
jesuit
jesus
jeszcze
jet
jete
jeter
jethro
jets
jette
jetzt
jeu
jeune
jeunes
jeunesse
jeung
jeux
jew
jeweiligen
jeweils
jewel
jewelry
jewels
jewish
jews
jez
jezera
jezero
jezik
jezika
jeziku
jezus
jf
jfk
jg
jh
jharkhand
ji
jia
jian
jiang
jiangsu
jiangxi
jic
jie
jih
jihad
jihlava
jika
jil
jilin
jill
jim
jima
jime
jimi
jimmie
jimmy
jin
jina
jindr
jine
jing
jingle
jiny
jir
jiri
jiro
jis
jitsu
jiu
jive
jiwa
jiz
jj
jk
jka
jl
jm
jma
jme
jmpl
jn
jna
jne
jo
joa
joachim
joakim
joan
joana
joanna
joanne
joannes
joaqui
joaquim
joaquin
job
jobb
jobs
joc
jocelyn
jochen
jock
jockey
jocs
jodie
jody
joe
joel
joey
jog
joga
jogador
jogadores
jogi
jogo
jogos
joh
johan
johann
johanna
johannes
johannesburg
johannis
johansen
johansson
john
johna
johnnie
johnny
johns
johnson
johnston
johnstone
johor
johr
joie
join
joined
joining
joins
joint
jointly
joinville
joj
jojo
joka
joke
joker
joko
jolie
jolla
jolloin
jolly
jon
jona
jonah
jonas
jonathan
jones
jong
jonge
joni
jonka
jonny
joo
joon
joost
joplin
jord
jorda
jordan
jorden
jordi
jorge
joris
jornada
jornal
jos
jose
josef
josefa
josefina
joseon
josep
joseph
josepha
josephine
josephus
josh
joshi
joshua
josiah
josie
josip
joss
jossa
jost
jota
jotka
jou
joue
jouer
joueur
joueurs
joueuse
joule
jour
jourbook
journal
journalism
journalist
journaliste
journalisten
journalists
journals
journaux
journe
journey
journeys
jours
jov
jovan
jovanovic
jove
jovem
joven
jovi
jovice
joy
joyce
joylashgan
joz
jozef
jp
jpeg
jpg
jpl
jr
jra
js
jsa
jsem
json
jsou
jsp
jst
jstor
jt
jtbc
jtwc
ju
jua
juan
juana
juara
juba
jubila
jubilee
juca
jud
juda
judah
judai
judaica
judaism
judas
judd
jude
judea
juden
judet
judge
judgement
judges
judgment
judi
judiciaire
judicial
judiciary
judit
judith
judo
judoka
judy
juega
juego
juegos
juez
jug
juga
jugador
jugadores
jugar
juge
jugement
jugend
jugo
jugoslavije
juha
juice
juicio
juif
juifs
juillet
juin
juive
jujuy
juk
jukka
jul
jula
jules
julho
juli
julia
julian
juliana
julie
julien
juliet
julieta
juliette
julija
julio
juliol
julius
july
juma
jumbo
jumlah
jump
jumper
jumping
jun
juna
junction
june
jung
junge
jungen
jungle
junho
juni
junio
junior
junioren
juniors
juniperus
junius
junk
junkers
juno
junta
juntamente
juntas
junto
juntos
juny
juo
jupiter
jur
jura
jurado
juraj
jurassic
jure
juri
juridique
jurij
juris
jurisdiction
jurisprudence
jurist
jury
jus
jusqu
jusque
juss
jussi
just
justa
juste
justi
justic
justice
justicia
justification
justified
justify
justin
justine
justinian
justo
justus
juta
jutta
juve
juvenil
juvenile
juventud
juventus
juz
jv
jva
jw
jyp
jyva
jz
jørgen
jørgensen
k
ka
kaa
kaarangay
kaart
kaas
kaayo
kaayong
kab
kaba
kabanay
kabel
kabi
kabila
kabinet
kabinett
kabir
kabugangan
kabuki
kabukiran
kabul
kabungtoran
kabupate
kabupaten
kac
kacamatan
kad
kada
kadagatang
kadang
kadar
kade
kader
kadokawa
kadın
kafe
kafka
kag
kagaangan
kagoshima
kahaboga
kahenera
kahn
kai
kaikki
kain
kaip
kairo
kais
kaiser
kaiserin
kaiserliche
kaiserlichen
kaisers
kaiserslautern
kaj
kaja
kaji
kak
kaka
kaki
kako
kakor
kaks
kaksi
kaku
kal
kala
kalan
kalapukan
kalas
kale
kalender
kali
kalibonan
kalifornia
kalifornien
kalimantan
kaliningrad
kaliwatan
kalla
kallas
kallaste
kalle
kalmar
kalo
kalt
kalte
kam
kama
kamadan
kamakura
kamal
kamar
kamara
kame
kamen
kamer
kamera
kamerun
kami
kamien
kamikaze
kamil
kamin
kamingawan
kammer
kamp
kampala
kampen
kampf
kampioen
kampioenschap
kampong
kampung
kampus
kamu
kan
kana
kanada
kanadischer
kanagawa
kanak
kanal
kanan
kanda
kandahar
kandida
kandidat
kandidaten
kane
kang
kangaroo
kani
kanji
kann
kannada
kano
kanon
kanpo
kans
kansai
kansas
kanssa
kant
kanta
kanto
kanton
kantonen
kantons
kantor
kanu
kanye
kanı
kao
kaominina
kap
kapa
kapal
kapanguhaan
kapcsolo
kapel
kapela
kapelle
kapita
kapital
kapitan
kapitel
kaplan
kapoor
kapott
kapp
kappa
kapten
kapuloan
kar
kara
karabakh
karachi
karakter
karan
karaoke
karas
karate
karbon
kardes
kardina
kardinal
kare
karel
karen
karena
kari
karie
karier
kariera
kariere
karim
karin
karina
karine
karl
karla
karlheinz
karlo
karlovac
karlovy
karls
karlsruhe
karlsson
karma
karna
karnataka
karo
karol
karola
karoli
karolina
karoline
karriere
kars
karsch
karst
karsten
kart
karta
karte
karten
kartu
karu
karya
kas
kasa
kasadpan
kasadpang
kasagaran
kasagbotan
kasai
kasalupan
kasarangan
kasarangang
kasarigan
kashmir
kasi
kasnije
kaspar
kasparov
kasper
kassel
kasta
kaste
kasteel
kasus
kasım
kat
kata
katalin
katalog
katanga
katar
katarina
katarzyna
kate
katedra
katego
kategooria
kategori
kategoria
kategorie
kategorii
kategorija
kategorio
kategoriya
kategory
kategorya
kateqoriya
kater
kath
katharina
katharine
kathedrale
katherine
kathleen
kathmandu
katholieke
katholische
katholischen
katholischer
kathryn
kathy
kati
katia
katie
katika
katja
kato
katolic
katolik
katolikus
katona
katowice
katrin
katrina
katta
katy
katyn
katz
kau
kaudella
kauden
kaufman
kaufmann
kaukasus
kaum
kaumahan
kaunas
kaupungin
kaupunki
kaur
kautta
kava
kawasaki
kawasan
kay
kaya
kayak
kaye
kaynakc
kayu
kaz
kaza
kazakh
kazakhstan
kazan
kaze
kazimierz
kb
kben
kbo
kbs
kc
kcal
kd
kde
kdo
kdy
kdyz
ke
kea
keane
keating
keaton
keats
kebangsaan
kec
kecamatan
kecil
ked
kedah
kedua
kee
keefe
keegan
keel
keeles
keen
keenan
keene
keep
keeper
keeping
keeps
keer
kees
kega
kehidupan
kehrte
kei
keiko
kein
keine
keinen
keirin
keiser
keita
keith
keizer
kek
kel
kela
kelahiran
kelantan
kelas
kele
keleti
kell
keller
kellett
kelley
kellner
kellogg
kelly
kelompok
kelsey
kelt
keluarga
kelurahan
kelvin
kely
kem
kemal
kematian
kembali
kemi
kemp
kemper
kemudian
ken
kena
kenan
kendall
kendi
kendo
kendrick
keng
kenia
kenji
kennedy
kennen
kenneth
kennis
kenntnis
kenny
kensington
kent
kenta
kentucky
kenya
kenyon
kenyse
kepada
kepala
kepler
kept
kepulauan
keputusan
ker
kera
kerajaan
kerala
keramik
kerana
kere
keren
kereta
keri
kerja
kerk
kerman
kern
kernel
kerr
kerry
kers
kershaw
kerstin
keru
kes
kesa
keseluruhan
kesfehe
keski
kessel
kessler
ket
ketiga
ketika
ketto
ketua
kev
keva
keve
keversoort
kevin
kew
key
keyboard
keyboards
keyin
keynes
keys
keyserling
keystone
kez
kezdo
kf
kfc
kfz
kg
kgb
kh
kha
khai
khaled
khalid
khalifa
khalil
kham
khan
khao
kharkiv
khartoum
khas
khe
khi
khie
khl
khlong
khmer
kho
khoa
khor
khorasan
khu
khusus
khyber
khz
ki
kia
kiada
kiado
kiai
kiam
kiba
kic
kick
kicked
kicker
kicking
kicks
kickstarter
kid
kidd
kidman
kidnapped
kidney
kids
kie
kiedy
kiefer
kieffer
kiel
kielce
kien
kierkegaard
kierunku
kies
kiev
kiga
kigali
kih
kii
kiki
kiko
kil
kila
kildare
kilder
kile
kilimanjaro
kilka
kilkenny
kilku
kill
killed
killer
killers
killing
killings
kills
kilo
kilogram
kilome
kilometer
kilometers
kilometre
kilometres
kilometro
kim
kimball
kimberley
kimberly
kimi
kimia
kimura
kin
kina
kinabalu
kinabasaan
kinabugnawan
kinadul
kinahabogang
kinainitan
kinase
kinaugahan
kinci
kind
kinder
kinderen
kindergarten
kindern
kindheit
kindle
kinds
kine
kinetic
king
kingdom
kingdoms
kings
kingsley
kingston
kinh
kini
kinney
kino
kinsey
kinshasa
kio
kip
kipling
kir
kira
kiradi
kirby
kirche
kirchen
kirchengemeinde
kirchner
kiri
kiribati
kirill
kirin
kirk
kirke
kirken
kirkland
kirkpatrick
kirov
kirsten
kis
kishi
kiss
kisses
kissing
kissinger
kit
kita
kitab
kitara
kitchen
kitchener
kitching
kite
kito
kits
kitt
kitts
kitty
kitu
kiu
kiuj
kiva
kiwi
kj
kjelder
kjell
kjent
kjer
kjo
kk
kka
kkal
kke
kko
kl
kla
klaas
klad
klade
kladni
kladogram
klagenfurt
klaipe
klan
klang
klar
klara
klare
klas
klase
klasic
klasik
klass
klasse
klassen
klassik
klassische
klassischen
klasy
klasyfikacji
klaus
klavier
kle
klee
klein
kleine
kleinen
kleiner
kleinere
kleines
kleist
klemens
kleopatra
klet
kleve
kli
klima
klimt
kline
klinik
klip
kljuc
klm
klo
klooster
kloster
klosters
klu
klub
kluba
klubben
klubi
klubo
klubu
kluby
kluge
kluwer
klux
km
kmt
kmu
kn
kna
knapp
kne
knee
knesset
knew
knez
kni
knicks
knife
knight
knights
kniha
knihy
knjiga
knjige
knjiz
kno
knob
knock
knocked
knockout
knoll
knopf
knot
knots
know
knowing
knowledge
knowles
known
knows
knox
knoxville
knu
knud
knudsen
knut
knuth
knvb
ko
koa
kobayashi
kobe
kobiet
kobiety
koblenz
koc
koch
kochi
kod
koda
kodak
kodansha
kode
kodu
koe
koehler
koenig
kofi
kog
koga
koh
koha
kohe
kohl
kohn
kohta
koi
koj
koja
koje
kojeg
kojem
koji
kojih
kojim
kojima
kojoj
koju
kok
koko
koku
kol
kola
kolbe
kole
kolei
kolej
kolem
koli
kolic
kolik
kolika
koliko
kolkata
kolme
kolo
kolombiya
kolonel
koloni
kolonia
kolonie
kolozsva
kolu
koly
kom
koma
komanda
kombat
kombe
kombination
kome
komedi
komedie
komen
komet
komi
komik
komisji
komite
komitetu
komm
komma
kommandant
kommandeur
kommando
komme
kommen
kommentar
kommentarer
kommer
kommission
kommt
kommun
kommune
kommunen
kommuner
kommunikation
komo
komon
kompanie
kompleks
komplett
komplex
komponist
komponisten
komposition
komputer
komt
komu
komun
komuna
komune
komunumo
komunumoj
komyun
kon
kona
konami
konc
koncert
konci
kondado
konden
kondo
kone
konec
konflikt
kong
konge
kongelige
kongen
konggo
kongo
kongres
kongress
koni
koniec
koning
koninklijke
koninkrijk
konkre
konkurs
konnte
konnten
kono
konrad
kons
konsert
konservative
konstant
konstantin
konstantinopel
konstantinos
konstanz
konstna
konstruktion
konsul
kontakt
kontext
kontinente
kontra
kontrakt
kontrau
kontrol
kontrole
kontroll
kontrolle
kontrolu
konu
konus
kony
konya
konzept
konzert
koo
kool
koor
koos
kop
kopa
kopenhagen
koper
kopf
kopi
kopie
kopp
kor
kora
koran
korban
korc
korda
kore
korea
korean
koren
koreya
kori
koris
koriste
koristi
korm
korma
korn
koro
korona
korps
korpus
kors
kort
korta
korte
kos
kosa
kosi
koska
kosmos
kosova
kosove
kosovo
kossuth
kost
kosta
kostel
kosten
kosti
kostu
kot
kota
koto
kotor
kou
kov
kova
kovac
kove
kovi
kovic
kovo
kovy
kowalski
koz
koza
koło
kp
kpa
kpd
kr
kra
kraft
kraftwerk
krai
kraj
kraja
kraje
krajem
kraji
krajina
kraju
krako
krakow
krakowie
kral
kralj
kralja
kramer
krankenhaus
krankheit
kras
krasnodar
krater
kraus
krause
krauss
krav
kray
krc
kre
krebs
kredit
kreeg
krefeld
kreis
kreises
kremlin
kres
kresim
kreta
kreuz
kri
krieg
krieger
krieges
kriegsmarine
krig
krigen
krim
kring
kris
krise
krishna
krista
kristal
kristen
kristi
kristian
kristiania
kristiansand
kristin
kristina
kristine
kristo
kristus
kritic
kritik
kritika
kritiker
kritische
kriz
kro
kroatien
krog
krom
krome
krone
kronika
kroz
krs
kru
krug
kruger
krupp
krus
kruse
kruz
krvi
krzysztof
krzyz
ks
ksc
kse
ksek
ksi
ksia
ksie
kst
ksza
kszos
kt
kta
kte
kter
ktera
ktere
kterou
ktery
ktet
ktm
kto
ktora
ktore
ktory
ktu
ku
kuala
kuat
kuba
kuban
kubo
kubrick
kuc
kuda
kudo
kudu
kug
kuhn
kui
kuid
kuin
kuiper
kuitenkin
kuk
kul
kula
kulit
kull
kulle
kulon
kult
kultu
kultur
kultura
kulture
kulturelle
kulturen
kulturni
kultury
kulu
kum
kuma
kumamoto
kumar
kumbang
kumi
kumpulan
kun
kuna
kunde
kune
kung
kungliga
kunhod
kuni
kuningas
kunna
kunne
kunnen
kuno
kunst
kunstdenkma
kunsten
kunsthalle
kunstmuseum
kunth
kuntze
kuo
kuolleet
kuomintang
kuopio
kup
kupa
kupası
kuperad
kur
kura
kurang
kurd
kurdish
kurdistan
kure
kurfu
kuri
kurier
kuro
kurosawa
kurs
kursk
kurt
kuru
kurz
kurze
kurzen
kus
kush
kust
kut
kuta
kuten
kuti
kuu
kuuluu
kuuta
kuva
kuwait
kuz
kuzey
kv
kva
kvadrat
kvadratkilometer
kvar
kve
kvinner
kvinnor
kvu
kw
kwa
kwadrado
kwam
kwamen
kwan
kwang
kwazulu
kwh
kwietnia
kwon
kx
ky
kya
kyi
kyiv
kyla
kyle
kylie
kyo
kyoto
kyrgyzstan
kyrie
kyrka
kyrkan
kyu
kyung
kyushu
kz
københavn
kısa
l
la
laa
laat
laatste
lab
laba
laban
labdaru
labe
label
labeled
labels
labem
labor
laboral
laboratoire
laboratories
laboratorio
laboratorium
laboratory
labore
labour
labrador
labs
labyrinth
lac
lacan
lace
lacey
lach
lachaise
lack
lacking
lacroix
lacrosse
lacs
lactarius
lacy
lad
lada
ladd
ladder
lade
laden
ladi
ladies
ladislav
lado
lados
ladro
lady
ladı
lae
lafayette
laffont
lag
laga
lagarde
lage
lagen
lager
laget
lagi
lago
lagoa
lagoon
lagos
lagrange
lagt
lagu
laguna
lah
lahir
lahko
lahn
lahore
lahti
lai
laid
laika
laila
lain
laine
laing
lainnya
lair
laird
lais
laisse
laisser
laissez
lait
laja
lajos
lak
laka
lake
lakers
lakes
laki
lakin
lako
lakossa
lakota
laks
lakshmi
lal
lala
lalat
lalawigan
lalo
lalu
lam
lama
laman
lamar
lamarck
lamas
lamb
lambda
lambert
lamborghini
lame
lament
lamiaceae
lamina
lamo
lamont
lamp
lampe
lampung
lamy
lamıs
lan
lana
lanak
lanaw
lanc
lancashire
lancaster
lance
lancelot
lancement
lancer
lancet
lancia
land
landa
landau
lande
landed
landen
lander
landes
landesamt
landet
landets
landi
landing
landis
landkreis
landmark
landmarks
lando
landon
landry
lands
landsberg
landscape
landscapes
landschaft
landshut
landskapet
landtag
landwirtschaft
lane
lanes
lang
langa
langage
langau
langaw
langcode
langdon
lange
langen
langer
langes
langle
langley
langs
langsung
langt
language
languages
langue
languedoc
langues
lanham
lani
lanka
lankan
lans
lansing
lant
lantern
lantma
lantılar
lanza
lanzado
lanzamiento
lanzo
lao
laon
laos
lap
lapa
lapangan
lapin
lapis
laplace
laporte
lappland
laps
lapse
laptop
lapyahan
laquelle
lar
lara
lare
laredo
lares
larga
large
largely
largement
larger
largest
largo
lari
larissa
lark
larkin
larousse
larry
lars
larsen
larson
larsson
larus
larva
larvae
ları
las
lasa
lasalle
lasang
lascia
lascio
laser
lasioglossum
lasker
lasse
lassen
lasso
last
lasta
lasted
lasting
laszta
lat
lata
latach
late
lately
laten
later
lateral
laterale
latere
latest
latex
latham
lati
latifolia
latin
latina
latine
latini
latino
latinos
latitude
lato
latour
latreille
latte
latter
latvia
latvian
latvija
latvijas
lau
lauda
laude
lauderdale
lauenburg
lauf
laufbahn
laufe
laugh
laughing
laughter
laulu
launch
launched
launches
launching
laura
laure
laurea
laureate
laurel
lauren
laurence
laurens
laurent
laurentius
lauri
laurie
lauro
lausanne
laut
lautrec
lav
lava
laval
lave
lavender
laver
lavigne
lavorare
lavori
lavoro
law
lawis
lawn
lawrence
laws
lawson
lawsuit
lawyer
lawyers
lax
lay
layan
laye
layer
layers
laying
layla
layout
layton
laz
lazar
lazare
lazarus
lazer
lazio
lazy
lb
lba
lbe
lbs
lbum
lbumes
lbuns
lc
lca
lccn
lcd
lce
lci
lcs
ld
lda
lde
lden
lder
ldern
ldi
ldl
ldo
ldots
ldre
lds
ldu
le
lea
leach
lead
leader
leaders
leadership
leading
leads
leaf
leafs
league
leagues
leah
leal
lean
leander
leandro
leap
lear
learn
learned
learning
learns
leary
lease
least
leather
leave
leaves
leaving
leb
lebanese
lebanon
lebel
leben
lebens
lebih
leblanc
lebre
lebron
lebt
lebte
lebten
lec
lecce
leccio
lecco
lech
leche
leclerc
leconte
lecteur
lecteurs
lection
lectionne
lections
lector
lectricite
lectrique
lectriques
lectronique
lectura
lecture
lecturer
lectures
lecz
led
leda
lede
leden
leder
ledes
ledger
lediglich
ledna
lee
leech
leeds
leeftijd
leer
lees
leeuw
lefe
lefebvre
left
leftrightarrow
leg
lega
legacy
legado
legal
legala
legale
legally
legat
legata
legate
legati
legato
lege
legend
legenda
legendary
legende
legends
leger
leges
legge
leggenda
leggi
legi
legia
legio
legion
legis
legislation
legislativa
legislative
legislativo
legislatura
legislature
legitimate
legjobb
legnagyobb
legno
lego
legrand
legs
legt
legte
legumes
leh
lehen
lehet
leheto
lehman
lehmann
lehr
lehrbuch
lehre
lehrer
lei
leia
leiaf
leibniz
leica
leicester
leicestershire
leicht
leichtathletik
leiden
leider
leiding
leif
leigh
leighton
leila
leinster
leipzig
leipziger
leis
leistung
leistungen
leisure
leit
leita
leite
leiter
leitete
leith
leitung
lejos
lek
leka
leksikon
lektor
lel
lela
lelaki
leland
lem
lema
lembaga
lemberg
leme
lement
lemma
lemmon
lemon
lemos
lemy
len
lena
lend
lendemain
lene
leng
lenga
length
lengths
lengua
lenguaje
lenguas
lengyel
leni
lenin
leningrad
lenka
lenker
lennart
lenne
lennon
lennox
lenny
leno
lenove
lens
lent
lenta
lentamente
lente
lento
leny
lenz
leo
leon
leona
leonard
leonardo
leone
leones
leonhard
leoni
leonid
leonor
leonora
leopard
leopold
leopoldina
leopoldo
leos
lep
lepa
lepidoptera
lepindex
lepo
leps
lepus
leq
lequel
ler
lera
leri
lerin
lern
lerner
leroux
leroy
les
lesa
lesbian
lese
lesen
lesio
lesley
leslie
lesnar
lesotho
lesquelles
lesquels
less
lesser
lessing
lesson
lessons
lest
leste
lester
lestwa
lesz
leszek
let
leta
lete
letech
letett
lethal
leti
letni
letnich
leto
letra
letras
lets
lett
lette
letter
lettera
letteratura
lettere
letterman
letters
letto
lettre
lettres
letu
letzte
letzten
letzter
leu
leung
leur
leurs
leute
leutnant
leuven
lev
leva
levage
levande
levant
levante
levar
leve
level
levels
leven
lever
leverkusen
levi
leviathan
levin
levine
levinson
levis
levo
levou
levy
lew
lewin
lewis
lex
lexicon
lexikon
lexington
lexus
ley
leyenda
leyes
leyland
leyman
leyte
lez
lf
lfo
lfte
lg
lga
lgan
lgbt
lgbtq
lge
lgica
lh
lha
lhasa
lhato
lhe
li
lia
liability
liaison
liaisons
liam
lian
liane
liang
liao
liaoning
liar
liard
lias
lib
liban
libano
libanon
libby
libe
liber
libera
liberacio
liberal
liberale
liberalism
liberals
liberation
liberator
liberdade
liberec
liberi
liberia
libero
liberta
libertad
libertador
libertadores
libertarian
libertas
liberte
liberties
liberty
libia
libra
librairie
libraries
library
libras
libre
libreria
libres
libreto
libretto
libri
libris
libro
libros
libya
libyan
lic
lica
licas
lice
licence
license
licensed
licenses
licensing
licent
liceo
liceu
lich
lichaam
lichenized
licht
lichtenberg
lichtenstein
lick
lico
licos
liczba
liczby
liczyła
lid
lida
liddell
lide
lider
lidi
lidia
lido
lidos
lidove
lie
liebe
lieben
lieber
lieberman
liechtenstein
lied
lieder
lief
liege
liegen
liegt
lien
liens
liepa
lier
lies
liet
lietuviu
lietuvos
lieu
lieutenant
lieux
lieve
ließ
life
lifestyle
lifetime
lift
lifted
lifting
lig
liga
ligac
ligadas
ligas
ligazo
lige
ligg
ligger
light
lighter
lightgrey
lighthouse
lighting
lightning
lights
lightweight
ligi
ligiloj
ligne
lignes
ligo
ligt
ligu
ligue
ligure
liguria
lih
lihat
lii
liiga
lijn
lijst
lik
lika
like
liked
likely
likes
likewise
lil
lila
lili
lilian
liliana
liliopsida
lilith
lilium
lilla
lille
lillehammer
lillian
lilly
lilo
lily
lim
lima
liman
limb
limba
limbo
limburg
lime
limerick
limes
limestone
limi
limine
limit
limita
limitada
limitation
limitations
limite
limited
limites
limitrophes
limits
limo
limoges
limoniidae
limousin
limousine
limpopo
lin
lina
linares
lincoln
lincolnshire
lind
linda
lindau
lindberg
lindbergh
linde
linden
linder
lindgren
lindl
lindley
lindner
lindsay
lindsey
line
linea
lineage
lineal
linear
linebacker
lined
linedata
linee
linegrey
linen
liner
lines
lineup
ling
lingkungan
lingu
lingua
lingue
linguist
linguistic
linguistica
linguistics
linguistique
lingvo
linh
linha
linhas
linia
linie
linien
linii
linje
link
linke
linked
linkedin
linken
linker
linki
linkin
linking
linko
linkovi
links
linn
linna
linnaeus
linne
linnean
lino
lint
linus
linux
linyphiidae
linz
lio
lion
lionel
lions
liore
liorer
lip
lipa
lipca
lipid
lippe
lippi
lips
lique
liquid
liquide
liquor
lira
lire
lis
lisa
lisabeth
lisboa
lisbon
lische
lise
lisi
lisis
lislingid
lisp
lissa
lissabon
list
lista
listade
listas
liste
listed
listen
listening
lister
listes
listi
listing
listings
listo
listopada
listopadu
lists
listu
listy
liszt
lit
lita
litauen
lite
liten
liter
litera
literacy
literal
literally
literaria
literary
literatu
literatur
literatura
literature
literatury
literatuur
lites
lithium
lithuania
lithuanian
lito
litoral
litre
lits
litt
litte
litteratur
little
littlefield
littoral
litu
lituania
liturgia
liturgie
litva
liu
lius
liv
live
lived
livello
lively
liver
liverpool
lives
livestock
livet
livia
living
livingston
livingstone
livio
livius
livorno
livre
livres
livro
livros
livy
liwos
lix
liz
liza
lizard
lizards
lizzie
lizzy
lj
lja
ljande
lje
ljo
ljubljana
ljudi
lk
lka
lke
lkeen
lker
lkerung
lkerungsentwicklung
lku
lky
ll
lla
llai
llama
llamada
llamado
llamo
llanc
llande
llano
llanos
llar
llarg
llati
llave
llavors
llc
lle
llega
llegada
llegando
llegar
llegaron
llego
llei
lleida
lleisiol
llen
llengua
ller
llet
lleva
llevar
llevo
lli
llibre
llibres
llig
lliga
llista
lliw
lln
llning
llo
llobregat
lloc
lloma
llor
lloyd
lls
llt
llu
llui
llum
lm
lma
lme
lmp
lms
lmu
ln
lna
lne
lner
lng
lnh
lni
lnie
lny
lnych
lo
loa
load
loaded
loader
loading
loan
loans
lob
lobby
lobe
lobo
lobos
loc
loca
locais
local
locale
locales
locali
localidad
localidades
localisation
localise
localita
localite
localities
locality
localiza
localizada
localizado
locally
locals
locarno
located
location
locations
locaux
loch
loci
lock
lockdown
locke
locked
locker
lockhart
lockheed
locks
lockwood
loco
locomotive
locomotives
locuitori
locul
locus
lod
lode
lodewijk
lodge
lodi
lodovico
loe
loeb
loew
loft
log
loga
logan
logatott
loge
logement
logements
loggia
logi
logic
logica
logical
logiciel
logik
login
logique
logis
logistics
logo
logos
logra
lograr
logro
logron
logs
loh
loi
loin
loir
loira
loire
loiret
lois
loisirs
loja
lok
loka
lokal
lokale
lokasi
loki
loko
lokomotiv
lokomotive
lol
lola
lolita
lolo
lom
loma
lomas
lombard
lombardi
lombardia
lombardo
lombok
lome
lon
lona
lond
londen
london
londra
londres
londy
lone
lonely
loneos
lonesome
long
longa
longe
longer
longest
longipes
longitud
longitude
longitudinal
longman
longo
longrightarrow
longs
longtemps
longtime
longue
longues
longueur
lons
loo
look
looked
looking
lookout
looks
loomis
loon
looney
loop
loops
loos
loose
lope
lopes
lopez
lor
lora
lorca
lord
lords
lore
loren
lorena
lorentz
lorenz
lorenzo
loreto
loretta
lori
lorient
lorna
loro
lorrain
lorraine
lors
lorsqu
lorsque
los
lose
loser
loses
losing
loss
losses
lost
losti
lot
lothar
lothian
lothringen
lots
lotta
lotte
lottery
lotto
lotus
lou
loud
lough
louie
louis
louisa
louise
louisiana
louisville
lounge
loup
lourdes
lourenc
louvain
louvre
lov
lova
lovato
love
lovecraft
loved
lovek
lovell
lovely
lover
lovers
loves
lovin
loving
lovstvi
low
lowe
lowell
lower
lowest
lowland
lowry
loy
loyal
loyalty
loyola
loz
lozano
loze
lp
lpg
lps
lr
lrt
ls
lsa
lsd
lse
lska
lso
lst
lsu
lt
lta
ltak
ltal
ltala
ltd
lte
ltek
lten
lter
ltere
lteren
lteste
ltesten
lti
ltig
ltigen
ltima
ltimas
ltimo
ltimos
ltiples
ltnis
ltnisse
lto
ltoza
ltu
lu
lua
luanda
luang
luar
luas
lub
lubin
lublin
luc
luca
lucas
lucca
luce
lucerne
lucha
luci
lucia
lucian
luciana
luciano
lucie
lucien
lucifer
lucille
lucio
lucius
luck
lucknow
lucky
lucra
lucrezia
lucy
lud
lude
ludlow
ludnos
ludo
ludovic
ludovico
ludvig
ludwig
ludwigsburg
ludwigshafen
ludwik
ludzi
ludzie
lue
luego
luer
luft
lufthansa
luftwaffe
lug
luga
lugano
lugar
lugares
luge
luglio
lugo
lui
luigi
luis
luisa
luise
luiz
luja
luk
luka
lukas
luke
luku
lula
lulas
lulea
lullaby
lulu
lum
luma
lume
lumen
lumi
lumie
lumina
lumot
lumpur
lun
luna
lunar
lunch
lund
lunda
lundi
lune
lunes
lung
lunga
lunghezza
lungo
lungsod
luni
luo
luoghi
luogo
luokka
lupa
lupe
lupin
lupo
lupus
lur
lure
lus
lusaka
lusignan
luso
lust
lut
luta
lute
lutea
lutego
luther
lutheran
luthor
luton
lutte
lutz
luuk
luv
luvulla
luvun
lux
luxe
luxembourg
luxemburg
luxor
luxury
luye
luz
luzern
luzon
lv
lva
lvarez
lvaro
lve
lven
lvez
lvi
lviv
lw
lwo
lx
ly
lya
lyal
lycaenidae
lyce
lyceum
lycophytes
lydia
lye
lyegke
lyek
lyen
lyi
lying
lyle
lyman
lyn
lynch
lyndon
lyne
lynn
lynne
lynx
lyon
lyonnais
lyons
lyra
lyric
lyrical
lyrics
lyrik
lys
lysa
lyse
lyt
lz
lze
lzer
lı
m
ma
maa
maakt
maakte
maal
maan
maar
maart
maarten
maas
maastricht
maat
maatschappij
mab
mabel
mabibilngan
mac
macao
macarthur
macau
macaulay
macbeth
maccabi
macchina
macdonald
mace
macedo
macedonia
macedonian
macerata
macfarlane
macgregor
mach
machado
machen
machi
machiavelli
machina
machine
machinery
machines
macho
machos
macht
machte
maci
maciej
macintosh
mack
mackay
mackenzie
maclean
macleod
macmillan
macon
macos
macpherson
macquarie
macro
macron
maculata
maculatus
macy
mad
mada
madagascar
madagascariensis
madagaskar
madam
madama
madame
maddalena
madden
maddox
made
madeira
madeleine
madeline
mademoiselle
madera
madero
madhya
madison
madness
madonna
madras
madre
madrid
madrigal
madrilen
mads
madsen
madura
maduro
mae
maeda
maes
maestra
maestri
maestro
maestros
mafia
mag
maga
magalha
magallanes
magas
magasin
magazin
magazine
magazines
magda
magdalena
magdalene
magdeburg
mage
magellan
magenta
maggie
maggio
maggior
maggiore
maggiori
maghreb
magi
magia
magic
magica
magical
magician
magie
magis
magister
magistrat
magistrate
maglia
magma
magna
magne
magnesium
magnet
magnetic
magneto
magni
magnificent
magnitud
magnitude
magnitudo
magno
magnolia
magnoliopsida
magnum
magnus
magnusson
mago
maguire
magyar
magyarorsza
mah
maha
mahabharata
mahal
mahalle
maharaja
maharashtra
mahatma
mahdi
maher
mahler
mahmoud
mahmud
mahoney
mai
maia
maid
maiden
maier
maig
maigret
mail
maila
mailand
mailing
maillot
main
maine
mainland
mainly
mains
mainsnak
mainstream
maint
maintain
maintained
maintaining
maintains
maintenance
maintenant
mainz
maio
maior
maiores
maioria
mair
maire
maires
mairie
mais
maison
maisons
maitland
maj
maja
majd
majestic
majesty
majeur
majeure
maji
majka
majlis
majo
major
majora
majoria
majoritatea
majorite
majority
majors
maju
mak
maka
makan
makanan
makassar
make
maken
maker
makers
makes
makeup
maki
makin
making
makita
mako
makoto
maks
maksim
maksimum
mal
mala
malabar
malacca
malade
maladie
maladies
malaga
malagasy
malam
malang
malar
malaria
malas
malatesta
malawi
malay
malaya
malayalam
malaysia
malaysian
malaysiya
malcolm
malden
maldives
maldonado
male
malek
malen
maler
malerei
males
malgrat
malgre
mali
malia
malibu
malice
malik
malin
mall
malla
malle
mallet
malley
mallorca
mallory
malmo
malo
malone
malt
malta
malte
maltese
malu
maluku
malus
malvaceae
maly
mam
mama
maman
mambo
mame
mami
mamma
mammal
mammalia
mammalian
mammals
mammoth
mampu
man
mana
manage
managed
management
manager
managers
manages
managing
managua
manaus
manbalar
manca
mancha
manche
manchester
manchmal
manchu
manchuria
mancini
mand
manda
mandal
mandala
mandalay
mandarin
mandat
mandate
mandato
mandatory
mande
mandel
mandela
mandi
mando
mandolin
mandy
mane
maneira
manera
manet
manfred
manfredi
mang
manga
mangan
mange
manger
mango
mangrove
manhattan
mani
mania
manic
manie
manier
maniera
manifest
manifesta
manifestation
manifestations
manifeste
manifesto
manila
manipulation
manipur
manis
manitoba
manje
mankind
mann
manna
mannen
manner
mannerheim
manners
mannheim
manning
mannschaft
mannschaften
manny
mano
manoel
manoir
manolo
manon
manor
manos
manque
mans
mansa
mansell
mansfield
mansion
manson
mansur
manta
mantan
mante
mantegna
mantel
mantener
manter
mantiene
mantis
mantle
manto
mantova
mantra
mantua
mantuvo
manu
manual
manuale
manually
manuel
manuela
manufacture
manufactured
manufacturer
manufacturers
manufacturing
manus
manuscript
manuscripts
manuscrit
manuscrits
manusia
manuskript
manx
many
manz
mao
maori
map
mapa
mapas
maple
mappa
mapping
mapquest
maps
mapsto
mapuche
maputo
mar
mara
maracaibo
maradona
marais
maramures
maran
maranha
maras
marat
marathi
marathon
maraton
marble
marbre
marburg
marc
marca
marcada
marcado
marcador
marcar
marcas
marcel
marcela
marcelino
marcello
marcellus
marcelo
march
marcha
marchand
marche
marches
marchese
marchetti
marching
marcia
marcial
marciano
marcin
marco
marconi
marcos
marcou
marcu
marcus
mardi
mare
marea
marec
marek
mares
maret
marga
margaret
margareta
margarete
margaretha
margarita
marge
margherita
margin
marginal
marginata
margit
margo
margot
marguerite
mari
maria
mariae
mariage
mariah
mariam
marian
mariana
marianna
marianne
mariano
maribor
marido
marie
marien
marietta
marii
marija
marijuana
marika
marilyn
marin
marina
marine
mariner
mariners
marines
marinespecies
marinha
marini
marino
marinos
marins
marinus
mario
marion
mariposa
maris
marisa
mariscal
marit
maritima
maritime
maritimes
marito
marius
marjorie
mark
marka
marke
marked
marken
marker
markers
market
marketing
marketplace
markets
markgraf
markham
marking
markku
marko
markov
markovic
marks
marksize
markt
markup
markus
marlborough
marlene
marley
marlins
marlon
marlowe
marmara
marne
maro
maroc
marokko
maroon
maros
marque
marques
marquess
marquette
marquis
marquise
marr
marrakech
marre
marriage
marriages
married
marriott
marro
marruecos
marry
mars
marsa
marsch
marsden
marseille
marsh
marshal
marshall
marso
marston
mart
marta
marte
martel
marten
martens
martes
martha
marthe
marti
martial
martian
martie
martin
martina
martine
martinelli
martinez
martini
martinique
martino
martins
martinus
martius
marto
marts
marty
martyn
martyr
martyrs
maru
marupokan
marvel
marvin
marx
marxism
marxist
marxista
mary
maryland
marzo
mas
masa
masalah
masaryk
maschi
maschile
maschine
maschinen
mascot
masculin
masculina
masculine
masculino
mase
maserati
mash
masi
masih
masing
masjid
mask
maske
masked
masks
maso
mason
masque
mass
massa
massachusetts
massacre
massacres
masse
masses
massey
massif
massima
massimiliano
massimo
massive
masson
mast
master
mastering
masterpiece
masters
masu
masuk
masyarakat
ması
mat
mata
matador
matag
matahari
matang
matar
mataram
matas
match
matched
matcher
matches
matching
matchs
mate
mateix
mateixa
matema
matematica
matematik
matematika
mateo
mater
materia
material
materiale
materiales
materiali
materialien
materials
materie
materna
maternal
mates
mateus
math
mathbb
mathbf
mathcal
mathe
mathematica
mathematical
mathematician
mathematics
mathematik
mathematiker
mather
matheson
mathew
mathews
mathfrak
mathias
mathieu
mathilde
mathis
mathrm
mathsf
mati
matias
matic
matie
matilda
matilde
matin
mating
matique
matiques
matisse
matka
matki
mato
matoari
matos
matra
matrice
matrices
matrimoni
matrimonio
matrix
matriz
mats
matsumoto
matsumura
matt
matta
matte
matteo
matter
matters
mattha
matthew
matthews
matthias
matthieu
matti
mattia
matu
matud
mature
mau
maud
maude
mauer
maui
maule
mauna
maur
maura
maureen
maurer
mauri
maurice
mauricio
mauritania
mauritius
maurizio
mauro
maury
maus
mauser
mausoleum
mauthausen
mauvais
mauvaise
maverick
mavericks
mawr
max
maxi
maxim
maxima
maximal
maximale
maxime
maximilian
maximiliano
maximilien
maximum
maximus
maxine
maxwell
may
maya
maybe
maydoni
mayen
mayenne
mayer
mayfield
mayhem
maynard
mayo
mayor
mayores
mayori
mayotte
mayr
mays
mayu
mayıs
maz
maza
mazda
maze
mazur
maßnahmen
mały
mb
mba
mbar
mbc
mbe
mber
mbh
mbi
mbia
mbit
mbito
mbo
mbolo
mbolos
mbox
mbs
mc
mca
mcbride
mcc
mccain
mccall
mccann
mccarthy
mccartney
mcclellan
mcclure
mcconnell
mccormick
mccoy
mcculloch
mcdermott
mcdonald
mcdonnell
mcdowell
mcfarland
mcg
mcgee
mcgill
mcgowan
mcgrath
mcgraw
mcgregor
mcguire
mci
mcintosh
mcintyre
mckamey
mckay
mckee
mckenna
mckenzie
mckinley
mckinney
mclaren
mclaughlin
mclean
mcleod
mcmahon
mcmillan
mcnally
mcnamara
mcneill
mco
mcpherson
mcqueen
mcrae
mcu
md
mda
mdb
mde
mdl
mdr
me
mea
mead
meade
meadow
meadows
meal
mean
meaning
meanings
means
meant
meanwhile
measure
measured
measurement
measurements
measures
measuring
meat
meaux
mec
meca
mecanismo
mecca
mechanical
mechanics
mechanism
mechanisms
mechelen
mecke
mecklenburg
mecky
meczu
med
meda
medaglia
medaille
medal
medalha
medali
medalis
medalist
medalla
medallas
medallistas
medals
medan
mede
medea
medelli
medeltemperaturen
medi
media
mediados
medial
median
mediana
mediante
medias
mediawiki
medic
medica
medical
medici
medicina
medicinal
medicine
medicines
medico
medida
medidas
medie
medien
medieval
medievale
medina
medio
medioevo
medios
meditation
mediteranyo
mediterra
mediterranean
mediterraneo
mediu
medium
medizin
mediziner
medizinische
medlem
medlemmer
medley
medo
medusa
medvedev
medyo
medzi
mee
meek
meer
meerdere
mees
meest
meestal
meeste
meet
meeting
meetings
meets
meg
mega
megachile
megadeth
megan
megaselia
mege
meget
megfelelo
megjelent
meglio
mego
megva
megye
meh
mehdi
mehiko
mehmed
mehmet
mehr
mehrere
mehreren
mehrfach
mehrheit
mehta
mei
meier
meiji
meilleur
meilleure
meilleurs
mein
meine
meiner
meiningen
meio
meir
meist
meisten
meister
meisterschaft
meisterschaften
meji
mejor
mejores
mek
mekong
meksika
meksiko
meksiku
mel
mela
melakukan
melalui
melanie
melawan
melayu
melbourne
melchior
mele
melhor
melhores
meli
melilla
melinda
melissa
melk
mellan
melle
mellem
mellett
mello
mellom
mellon
mellor
melo
melodi
melodia
melodic
melodie
melodies
melodifestivalen
melodrama
melody
melon
melrose
melting
melville
melvin
mely
mem
membantu
membawa
membentuk
member
memberi
memberikan
members
membership
membra
membracoidea
membrana
membrane
membre
membres
membri
membro
membros
membuat
meme
memento
memiliki
memo
memoir
memoirs
memorable
memorandum
memoria
memorial
memoriam
memorias
memorie
memories
memory
memphis
mempunyai
men
mena
menace
mencapai
mencio
menciona
mencionado
mendapat
mendapatkan
mende
mendel
mendelssohn
mendes
mendoza
mene
menengah
mener
menerima
menes
menezes
meng
mengalami
mengambil
menge
mengen
mengenai
menggunakan
menghasilkan
menhir
meni
meninggal
menjadi
menn
mennesker
meno
menon
menor
menorca
menores
menos
mens
mensa
mensch
menschen
menschlichen
mense
mensen
ment
menta
mentaire
mentaires
mental
mentale
mente
menteri
menti
mention
mentioned
mentionne
mentions
mentor
mentre
ments
menu
menudo
menunjukkan
menurut
menyatakan
menyebabkan
menys
menzel
menzies
meo
mep
mer
mera
merah
mercado
mercantile
mercato
mercator
merce
merced
mercedes
mercer
merchant
merchants
merci
mercia
mercier
merck
mercure
mercurio
mercury
mercy
mere
meredith
mereka
merely
merge
merged
merger
meri
merian
meridian
meridional
meridionale
meridionalis
merino
merit
merito
merk
merkel
merkezi
merkmale
merkur
merle
merlin
mermaid
mero
meros
merr
merriam
merrill
merritt
merry
mers
mersin
mert
mertens
merton
meru
merupakan
mervyn
meryl
merz
mes
mesa
mese
meses
mesh
mesi
mesin
mesir
meskipun
mesma
mesmo
mesmos
mesmu
mesnil
meso
mesopotamia
mess
messa
message
messages
messe
messenger
messer
messerschmitt
messi
messiah
messico
messier
messina
messo
mest
mesta
meste
mester
mesto
mestre
mestres
mestu
mesura
mesure
mesures
met
meta
metabolic
metabolism
metacritic
metadata
metade
metais
metal
metall
metallic
metallica
metals
metaphysics
metara
metcalf
mete
meteor
meteorolo
meteorological
meteors
meter
metern
meters
meth
method
methode
methoden
methodist
methodology
methods
methuen
methyl
meti
meto
metod
metoda
metode
metodi
metodo
metr
metra
metre
metres
metri
metria
metric
metro
metropole
metropolis
metropolita
metropolitan
metropolitana
metropolitano
metros
metru
mets
metsa
mettant
mette
metternich
mettre
metu
metz
metzger
metzler
meu
meurt
meurthe
meurtre
meus
meuse
mev
mew
mewn
mex
mexican
mexicana
mexicano
mexicanos
mexico
mexiko
mexique
mey
meyer
meyers
meyrick
mez
meza
mezcla
mezi
mezina
mezir
mezo
mezzo
með
među
međutim
mf
mfa
mg
mga
mgm
mgr
mh
mhc
mhnt
mhz
mi
mia
miai
miami
miao
miasta
miasto
miatt
miał
miała
miały
mic
mica
micas
mice
mich
michae
michael
michaela
michaelis
michaels
michail
michal
michaud
michał
miche
michel
michelangelo
michele
michelin
michelle
michiel
michigan
michoaca
mick
mickey
mico
miconia
micos
micro
microbiology
micronesia
microsoft
microwave
mics
mid
mida
midas
middel
midden
middle
middlesbrough
middlesex
middleton
mide
midfielder
midi
midland
midlands
midnight
mido
midst
midsummer
midway
midwest
mie
mieczysław
miedo
miejsca
miejsce
miejscowos
miejscu
miel
miembro
miembros
mien
mientras
mientres
mierci
mies
miesto
mieszkan
mieux
mifflin
mig
might
mighty
miglior
migliore
migliori
migrant
migrants
migration
migrations
migre
miguel
miha
mihai
mihail
mihi
mii
mij
mijn
mik
mika
mikael
mike
mikel
mikhail
miki
mikko
miklo
miko
mikołaj
mikro
mikula
mil
mila
milan
milanese
milano
mild
mildred
mile
milena
miles
milestone
miley
milford
milho
mili
milie
milieu
milieux
milik
milimetro
milio
milion
miliona
milioni
milions
milita
militaire
militaires
militant
militante
militants
militar
militare
militares
militari
military
milite
militer
militia
milito
militum
miljo
miljoen
milk
milky
mill
milla
millar
millard
mille
millennium
miller
milles
millet
milli
milliards
millie
millimeter
millio
million
millionaire
millionen
millioner
millions
milliy
millo
millones
millor
mills
milly
milne
milner
milo
milos
milton
milwaukee
milyon
mim
mime
mimi
mimo
mimosa
min
mina
minahan
minaire
minaj
minami
minamoto
minangka
minangkabau
minas
mind
mindanao
mindat
minded
minden
minder
mindestens
mindig
mindre
minds
mine
minecraft
mineiro
minen
miner
minera
mineral
minerals
miners
minerva
mines
mineur
mineures
ming
minggu
minh
minha
mini
miniatur
miniatura
miniaturadaimagem
miniaturadeimagen
miniature
miniatyr
minima
minimal
minimum
minin
minine
mining
miniserie
miniseries
ministe
minister
ministeri
ministerial
ministerio
ministerium
ministero
ministerpra
ministers
ministra
ministre
ministres
ministri
ministries
ministro
ministros
ministru
ministry
mink
minka
minn
minna
minne
minneapolis
minnesota
minnie
mino
minogue
minor
minore
minori
minorities
minority
minos
minsk
minst
mint
minta
minu
minuit
minus
minut
minuta
minute
minuten
minutes
minuti
minuto
minutos
minutus
minyak
mio
miocene
mios
mips
miq
mique
miquel
miques
mir
mira
mirabilis
miracle
miracles
mirada
mirador
mirage
miranda
mircea
mire
mireille
miri
miriam
mirko
miro
miroir
miroslav
mirror
mirrors
mirza
mis
misa
misc
miscellaneous
misch
mische
mischen
mischer
mise
misericordia
misery
mises
mishima
misi
misio
misiones
miskolc
misli
misma
mismo
mismos
miss
missa
missed
missile
missiles
missing
mission
missionaries
missionary
missione
missions
mississippi
missouri
missy
mist
mista
mistake
mistakes
miste
mister
misteri
misterio
misterioso
misto
mistral
mistress
mistrovstvi
mistrz
mistrzostw
mistrzostwa
mistrzostwach
misty
misura
mit
mita
mitad
mitarbeiter
mitch
mitchell
mite
miteinander
mites
mitglied
mitglieder
mitgliedern
mitja
mitjanc
mito
mitochondrial
mitologi
mitologia
mitos
mitra
mitre
mits
mitsubishi
mitt
mitte
mitteilungen
mittel
mittelalter
mittelalters
mitteleuropa
mittels
mitten
mitterrand
mittlere
mittleren
mittlerweile
mitu
miu
miura
miuta
mivel
mix
mixed
mixing
mixta
mixtape
mixte
mixture
miya
miyagi
miyamoto
miyazaki
miz
mizuki
miłos
mj
mjesta
mjesto
mjestu
mjo
mk
mku
mky
ml
mla
mlada
mlade
mladi
mladost
mlb
mle
mlich
mln
mls
mly
mm
mma
mme
mmel
mmen
mmer
mmorpg
mmr
mms
mn
mna
mne
mnet
mni
mno
mnogi
mnogo
mnoho
mnoz
mo
moa
mob
mobil
mobile
mobility
moby
moc
mock
mocrate
mocratie
mocratique
mod
moda
modal
modalita
mode
model
modele
modeli
modeling
modell
modelle
modellen
modelli
modelling
modello
modelo
modelos
models
modelu
modem
modena
moderate
moderato
moderator
modern
moderna
moderne
modernen
modernes
moderni
modernism
modernity
moderno
modernos
modes
modest
modesta
modeste
modesto
modi
modifica
modification
modifications
modifie
modified
modifier
modify
modo
modos
modu
modul
modular
modulation
module
modules
modulo
modus
moe
moeder
moest
moet
moeten
moffat
mog
moga
mogao
mogelijk
mogla
mogli
moglie
mographie
mogu
moguc
moh
moha
mohamed
mohammad
mohammed
mohan
mohawk
mohd
mohl
mohou
mohr
moi
moin
moindre
moine
moines
moins
moira
moire
moires
mois
moise
moitie
moj
moja
moje
mojo
mok
mol
mola
molar
moldavia
molde
moldova
mole
molecular
molecule
molecules
molekula
molen
moles
moli
molie
molina
molino
molise
moll
molla
molle
mollis
mollusca
molluscabase
molly
molna
molo
molotov
molt
molta
molte
moltes
molti
moltke
molto
molts
molupyo
mom
moma
momc
moment
momento
momentos
moments
momentu
momentum
momo
mon
mona
monaco
monaghan
monarca
monarch
monarchia
monarchie
monarchs
monarchy
monarqui
monaste
monasterio
monastero
monastery
monat
monate
monaten
mond
mondadori
monday
monde
mondes
mondial
mondiale
mondiali
mondo
mone
moneda
monet
moneta
monetary
money
monferrato
mong
mongo
mongol
mongolia
mongolian
mongols
moni
monica
monie
monika
monique
monitor
monitoring
monk
monkey
monkeys
monks
monmouth
monnaie
mono
monogatari
monograph
monographie
monographs
monopoly
monroe
mons
monsieur
monsoon
monster
monsters
mont
monta
montage
montagna
montagne
montagnes
montagu
montague
montaigne
montan
montana
montane
montanus
montauban
montbe
monte
monteiro
montenegro
monterey
montero
monterrey
montes
montesquieu
montessori
monteverdi
montevideo
montfort
montgomery
month
monthly
months
monti
monticola
montigny
montmartre
montmorency
monto
montoya
montparnasse
montpellier
montre
montreal
montrer
montreuil
montreux
montrose
monts
montserrat
monty
monument
monumenta
monumental
monumentale
monumenti
monumento
monumentos
monuments
monza
moo
mood
moody
moog
moon
mooney
moonlight
moons
moor
moore
moose
mor
mora
moraes
morais
moral
morala
morale
morales
morali
morality
morals
moran
morava
morave
moravia
moray
morbihan
morceaux
mord
more
moreau
morebits
moreira
morel
morelia
morelos
morena
moreno
moreover
mores
moresby
moretti
morfologia
morgan
morgana
morgen
morgenstern
mori
morial
moriarty
morin
morir
morire
moritz
morley
mormon
morne
morning
moro
moroccan
morocco
moros
morphological
morphologie
morphology
morreu
morris
morrison
morrissey
morro
morrow
mors
morse
mort
morta
mortal
mortality
mortar
morte
mortem
morten
mortensen
mortes
mortgage
morti
mortimer
mortis
morto
morton
mortos
morts
mos
mosaic
mosaik
mosambik
mosca
moscou
moscow
moscu
mose
mosel
moselle
moser
moses
moshe
moskau
moskva
mosley
mosque
mosquito
moss
mosse
mosses
most
mostar
mosteiro
mostly
mostra
mostrando
mostrar
mostro
mostu
mosul
mosunod
mot
mota
motel
moteur
moteurs
moth
mother
mothers
moths
moti
motif
motifs
motion
motions
motiv
motivation
motive
motivi
motivo
motivos
moto
motogp
motor
motorcycle
motore
motoren
motores
motori
motorola
motors
motorsport
motorsports
motorway
motown
mots
mott
motta
motte
motto
motu
mou
moulin
moulins
moun
mound
mount
mountain
mountains
mountbatten
mounted
moura
mourir
mourning
mouse
moussa
mouth
mouton
mouvement
mouvements
mov
move
moved
movement
movements
mover
moves
movie
movies
moviment
movimento
movimiento
movimientos
moving
mowd
moya
moyen
moyenne
moyens
moz
mozambique
mozart
mozilla
mp
mpa
mpc
mpeg
mpfe
mpfen
mpfer
mph
mpi
mpica
mpico
mpicos
mpla
mpo
mps
mpumalanga
mq
mr
mra
mrac
mrc
mrez
mri
mrna
mro
mrs
mrt
mrti
mru
ms
msa
msc
msg
msi
msk
msn
msnbc
msnm
mss
mst
msu
msv
msx
mt
mta
mtad
mter
mtliche
mto
mts
mtu
mtv
mu
mua
muassa
muay
mubarak
muc
much
mucha
muchas
mucho
muchos
mud
muda
mudanc
mudar
muddy
mude
mudo
muell
mueller
muere
muerte
muerto
muertos
muestra
mug
muga
mugabe
mughal
muh
muhammad
muhammed
mui
muir
muita
muitas
muito
muitos
mujer
mujeres
muka
mukaan
mukana
mul
mula
mulai
mulder
mule
mulher
mulheres
mulhouse
mullen
muller
mulligan
mulo
mult
multa
multe
multi
multilingual
multimedia
multiplayer
multiple
multiples
multiplication
multiplier
multitude
mum
mumbai
mummy
mun
muna
munch
muncul
mund
munda
mundi
mundial
mundo
mundu
mune
mungkin
muni
munich
munici
municipal
municipale
municipales
municipalite
municipalities
municipality
municipi
municipio
municipios
municipis
munisipalidad
munisipyo
munitions
munk
munka
munro
munster
munt
muo
mur
mura
murad
murakami
mural
muralla
murat
murcia
murder
murdered
murderer
murders
murdoch
mure
mures
muri
murid
muriel
murillo
murio
muro
muros
murphy
murray
murs
mus
musa
musashi
muscat
muscidae
muscle
muscles
muscular
musculus
muse
museen
museet
musei
museo
museos
museu
museum
museums
mushroom
musi
music
musica
musicais
musical
musicale
musicales
musicali
musicals
musician
musicians
musicien
musiciens
musik
musika
musikalische
musiker
musim
musique
musk
muslim
muslims
muss
mussolini
musste
mussten
must
musta
mustafa
mustang
mustela
muster
musulman
musulmana
musulmanes
musulmans
mut
muta
mutant
mutants
mutation
mutations
mute
muti
mutiny
muto
mutta
mutter
mutual
muualla
muun
muy
muz
muzej
muzeum
muziek
muzik
muzika
muzyka
mv
mvp
mw
mwaka
mx
my
mya
myanmar
mycket
mycol
mye
myers
myles
myo
myotis
myra
myriam
myron
myrtaceae
myrtle
mys
myself
mysore
myspace
mysql
myste
mysteries
mysterio
mysterious
mystery
mystic
mystical
mystique
myth
mythe
mythologie
mythology
mythos
myths
myung
mz
møller
møre
mıs
młodziez
məs
n
na
naa
naacp
naam
naar
naast
nabi
nabla
nabokov
nac
nace
nach
nacha
nachdem
nachdruck
nachfolger
nacho
nachrichten
nacht
nachts
nacido
nacidos
nacimiento
nacio
nacionais
nacional
nacionales
nacionalista
nacionalni
naciones
nacl
naco
nacque
nad
nada
nadal
nadat
nade
naden
nader
nadh
nadi
nadia
nadie
nadine
nadir
nadmorskoj
nado
nados
nadu
nae
nafar
nafta
nag
naga
nagano
nagar
nagara
nagasaki
nage
nagel
nagement
nager
nages
naglangkob
naglibot
naglukop
nagorno
nagoya
nagrada
nagrade
nagroda
nagrody
nagu
nagusia
nagy
nagyobb
nagyon
nah
naha
nahe
nahezu
nahi
nahilalakip
nahimutang
nahimutangan
nahiubos
nahm
nahmen
nahra
nahuatl
nai
naik
nail
nails
nainte
nair
nairobi
naissance
naj
naja
najbardziej
najbliz
najbolji
najc
naji
najniz
najs
najvec
najvis
najwie
najwyz
nak
naka
nakai
nakajima
nakalista
nakamura
naked
nakhon
nakladatelstvi
nakon
nakonec
nal
nala
nalaze
nalazi
nale
nalez
nalista
nalukop
nam
nama
namco
name
named
namely
namen
namens
names
namespace
namespaces
nami
namibia
naming
namn
namnet
namo
namun
namur
nan
nana
nancy
nanda
nang
nani
nanjing
nanny
nano
nansen
nant
nanterre
nantes
nao
naoh
naomi
nap
napa
napalm
nape
napi
napier
naples
napo
napoca
napole
napoleo
napoleon
napoleone
napoleonic
napoli
napr
nar
nara
narayan
narbonne
narciso
narcissus
nard
nare
narin
nario
nariste
narita
narnia
naro
naroc
narod
naroda
narodil
narodne
narodowego
narodowej
narodowy
narozeni
narra
narration
narrativa
narrative
narratives
narrator
narrow
naruto
narva
narvik
nas
nasa
nasal
nascar
nasce
nasceu
nascimento
nascita
nasdaq
nase
naselja
naselje
naseljeno
naselju
nash
nashville
nasi
nasional
nasir
naskig
naso
nasod
nasr
nassau
nasser
nast
nasta
naste
nasty
nat
nata
natacio
natal
natale
natalia
natalie
natalya
natasha
nate
nateur
nath
nathalie
nathan
nathaniel
nati
nation
nationaal
national
nationalbibliothek
nationale
nationalen
nationales
nationalism
nationalist
nationalite
nationality
nationally
nationalmannschaft
nationalmuseum
nationalpark
nationals
nationalsozialismus
nationaux
nationen
nations
nationwide
nativa
native
natives
nativos
natl
nato
natomiast
nattflyn
natu
natur
natura
naturae
naturais
natural
naturale
naturales
naturaleza
naturali
naturalis
naturalist
naturalista
naturally
naturalmente
nature
naturel
naturelle
naturelles
naturels
natureza
naturgeschichte
naturschutzgebiet
natus
nau
nauc
naughty
nauk
nauka
nauki
naukowe
naumann
nauru
nautical
nautilus
nav
nava
navajo
naval
navale
navarra
navarre
navarro
navas
navbar
navbox
nave
navegacio
naver
naves
navi
navidad
navigation
navigator
navire
navires
navn
navnet
navs
navy
nawet
naxos
nay
naya
nayarit
naz
nazaire
nazareth
nazi
nazionale
nazionali
nazioni
nazis
nazista
naziv
nazwa
nazwe
nazwy
nazy
nb
nba
nbc
nberg
nbl
nbo
nbs
nc
nca
ncaa
[...]
