!
"
#
##0
##1
##10
##11
##12
##13
##14
##15
##16
##17
##18
##19
##2
##20
##21
##22
##23
##24
##25
##26
##27
##28
##29
##3
##30
##31
##32
##33
##34
##35
##36
##37
##38
##39
##4
##40
##41
##42
##43
##44
##45
##46
##47
##48
##49
##5
##50
##51
##52
##53
##54
##55
##56
##57
##58
##59
##6
##60
##61
##62
##63
##64
##65
##66
##67
##68
##69
##7
##70
##71
##72
##73
##74
##75
##76
##77
##78
##79
##8
##80
##81
##82
##83
##84
##85
##86
##87
##88
##89
##9
##90
##91
##92
##93
##94
##95
##96
##97
##98
##99
$
%
&
'
(
)
*
+
,
-
.
/
0
00
000
0000
0001
0002
0003
0004
0006
0007
0009
001
0012
0013
0014
002
0021
0022
00238
0027
0028
003
0031
0035
0036
004
0040
0049
005
006
0062700553
0067
007
008
009
01
010
0100000
011
012
013
0136120512
0138
014
0140
015
016
017
018
019
0190
0195082095
02
020
021
0212
022
023
024
025
026
0261
027
028
029
03
030
0307
031
032
033
034
035
036
0362
0365
037
038
039
04
040
041
0415285569
042
043
044
045
046
047
048
049
05
050
051
052
053
054
055
056
057
058
059
06
060
061
062
063
064
065
066
067
068
0684805332
069
0691152071
07
070
071
072
073
074
0746
075
076
077
078
079
08
080
081
0815752199
0816071365
082
083
084
085
086
087
088
089
09
090
091
092
092917
093
094
095
096
097
098
099
1
10
100
1000
10000
1001
1002
1003
1004
1005
1006
1007
1008
1009
101
1010
1011
1012
1013
1014
1015
1016
1017
1018
1019
102
1020
1021
1022
1023
1024
1025
1026
1027
1028
1029
103
1030
1031
1032
1033
1034
1035
1036
1037
1038
1039
104
1040
1041
1042
1043
1044
1045
1046
1047
1048
1049
105
1050
1051
1052
1053
1054
1055
1056
1057
1058
1059
106
1060
1061
1062
1063
1064
1065
1066
1067
1068
1069
107
1070
1071
1072
1073
1074
1075
1076
1077
1078
1079
108
1080
1081
1082
1083
1084
1085
1086
1087
1088
1089
109
1090
1091
1092
1093
1094
1095
1096
1097
1098
1099
11
110
1100
1101
1102
1103
1104
1105
1106
1107
1108
1109
111
1110
1111
1112
1113
1114
1115
1116
1117
1118
1119
112
1120
1121
1122
1123
1124
1125
1126
1127
1128
1129
113
1130
1131
1132
1133
1134
1135
1136
1137
1138
1139
114
1140
1141
1142
1143
1144
1145
1146
1147
1148
1149
115
1150
1151
1152
1153
1154
1155
1156
1157
1158
1159
116
1160
1161
1162
1163
1164
11646
1165
1166
1167
1168
1169
117
1170
1171
1172
1173
1174
1175
1176
1177
1178
1179
118
1180
1181
1182
1183
1184
1185
1186
1187
1188
1189
119
1190
1191
1192
1193
1194
1195
1196
1197
1198
1199
12
120
1200
1201
1202
1203
1204
1205
1206
1207
1208
1209
121
1210
1211
1212
1213
1214
12148
1215
1216
1217
1218
1219
122
1220
1221
1222
1223
1224
1225
1226
1227
1228
1229
123
1230
1231
1232
1233
1234
1235
1236
1237
1238
1239
124
1240
1241
1242
1243
1244
1245
1246
1247
1248
1249
125
1250
1251
1252
1253
1254
1255
1256
1257
1258
1259
126
1260
1261
1262
1263
1264
1265
1266
1267
1268
1269
127
1270
1271
1272
1273
1274
1275
1276
1277
1278
1279
128
1280
1281
1282
1283
1284
1285
1286
1287
1288
1289
129
1290
1291
1292
1293
1294
1295
1296
1297
1298
1299
13
130
1300
1301
1302
1303
1304
1305
1306
1307
1308
1309
131
1310
1311
1312
1313
1314
1315
1316
1317
1318
1319
132
1320
1321
1322
1323
1324
1325
1326
1327
1328
1329
133
1330
1331
1332
1333
1334
1335
1336
1337
1338
1339
134
1340
1341
1342
1343
1344
1345
1346
1347
1348
1349
135
1350
1351
1352
1353
1354
1355
1356
1357
1358
1359
136
1360
1361
1362
1363
1364
1365
1366
1367
1368
1369
137
1370
1371
1372
1373
1374
1375
1376
1377
1378
1379
138
1380
1381
1382
1383
1384
1385
1386
1387
1388
1389
139
1390
1391
1392
1393
1394
1395
1396
1397
1398
1399
14
140
1400
1401
1402
1403
1403962588
1404
1405
1406
1407
1408
1409
141
1410
1411
1412
1413
1414
1415
1416
1417
1418
1419
142
1420
1421
1422
1423
1424
1425
1426
1427
1428
1429
143
1430
1431
1432
1433
1434
14344
1435
1436
1437
1438
1439
144
1440
1441
1442
1443
1444
1445
1446
1447
1448
1449
145
1450
1451
1452
1453
1454
1455
1456
1457
1458
1459
146
1460
1461
1462
1463
1464
1465
14651858
1466
1467
1468
1469
147
1470
1471
1472
1473
1474
1475
1476
1477
1478
1479
148
1480
1481
1482
1483
1484
1485
1486
1487
1488
1489
149
1490
1491
1492
1493
1494
1495
1496
1497
1498
1499
15
150
1500
15000
1501
1502
1503
1504
1505
1506
1507
1508
1509
151
1510
1511
1512
1513
1514
1515
1516
1517
1518
1519
152
1520
1521
1522
1523
1524
1525
1526
1527
1528
1529
153
1530
1531
1532
1533
1534
1535
1536
1537
1538
1539
154
1540
1541
1542
1543
1544
1545
1546
1547
1548
1549
155
1550
1551
1552
1553
1554
1555
1556
1557
1558
1559
156
1560
1561
1562
1563
1564
1565
1566
156616
1567
156705
1568
1569
157
1570
1571
1572
1573
1574
1575
1576
1577
1578
1579
1579583377
158
1580
1581
1582
1583
1584
1585
1586
1587
1588
1589
159
1590
1591
1592
1593
1594
1595
1596
1597
1598
1599
16
160
1600
1601
1602
1603
1604
1605
1606
1607
1608
1609
161
1610
1611
1612
1613
1614
1615
1616
1617
1618
1619
162
1620
1621
1622
1623
1624
1625
1626
1627
1628
1629
163
1630
1631
1632
1633
1634
1635
1636
1637
1638
1639
1639616
164
1640
1641
1642
1643
1644
1645
1646
1647
1648
1649
165
1650
1651
1652
1653
1654
1655
1656
1657
1658
1659
166
1660
1661
1662
1663
1664
1665
1666
1667
1668
1669
167
1670
1671
1672
1673
1674
1675
1676
1677
1678
1679
168
1680
1681
1682
1683
1684
1685
1686
1687
1688
1689
169
1690
1691
1692
1693
1694
1695
1696
1697
1698
1699
17
170
1700
1701
1702
1703
1704
1705
1706
1707
1708
1709
171
1710
1711
1712
1713
1714
1715
1716
1717
1718
1719
172
1720
1721
1722
1723
1724
1725
1726
1727
1728
1729
173
1730
1731
1732
1733
1734
1735
1736
1737
1738
1739
174
1740
1741
1742
1743
1744
1745
1746
1747
1748
1749
175
1750
1751
1752
1753
1754
1755
1756
1757
1758
1759
176
1760
1761
1762
1763
1764
1765
1766
1767
1768
1769
177
1770
1771
1772
1773
1774
1775
1776
1777
1778
1779
178
1780
1781
1782
1783
1784
1785
1786
1787
1788
1789
179
1790
1791
1792
1793
1794
1795
1796
1797
1798
1799
18
180
1800
1801
1802
1803
1804
1805
1806
1807
1808
1809
181
1810
1811
1812
1813
1814
1815
1816
1817
1818
1819
182
1820
1821
1822
1823
1824
1825
1826
1827
1828
1829
183
1830
1831
1832
1833
1834
1835
1836
1837
1838
1839
184
1840
1841
1842
1843
1844
1845
1846
1847
1848
1849
185
1850
1851
1852
1853
1854
1855
1856
1857
1858
1859
186
1860
1861
1862
1863
1864
1865
1866
1867
1868
1869
187
1870
1871
1872
1873
1874
1875
1876
1877
1878
1879
188
1880
1881
1882
1883
1884
1884964311
1885
1886
1887
1888
1889
189
1890
1891
1892
1893
1894
1895
1896
1897
1898
1899
19
190
1900
1901
1902
1903
1904
1905
1906
1907
1908
1909
191
1910
1911
1912
1913
1914
1915
1916
1917
1918
1919
192
1920
1921
1922
1923
1924
1925
1926
1927
1928
1929
193
1930
1931
1932
1933
1934
1935
1936
1937
1938
1939
194
1940
1941
1942
1943
1944
1945
1946
1947
1948
1949
195
1950
1951
1952
1953
1954
1955
1956
1957
1958
1959
196
1960
1961
1962
1963
1964
1965
1966
1967
1968
1969
197
1970
1971
1972
1973
1974
1975
1976
1977
1978
1979
198
1980
1981
1982
1983
1984
1985
1986
1987
1988
1989
199
1990
1991
1992
1993
1994
1995
1996
1997
1998
1999
2
20
200
2000
20000
2001
2002
2003
2004
2005
2006
2007
2008
2009
201
2010
2011
2012
2013
2014
2015
2016
20160209064446
20160228161657
2017
2018
2019
20190419091014
202
2020
2021
2022
2023
2024
2025
2026
2027
2028
2029
2029273
203
2030
204
2040
2041
2045
205
2050
206
207
2070
208
209
21
210
2100
211
212
2121
213
214
215
216
217
218
219
22
220
2200
221
222
223
224
225
226
227
228
229
2294
23
230
2300
2305
2307
231
232
233
234
235
236
237
238
239
24
240
2400
2405
241
241600000
242
243
244
245
246
247
248
249
25
250
2500
25000
251
2510
252
253
254
255
256
257
258
2580
2581
259
26
260
2600
261
262
263
264
265
266
267
268
269
27
270
2700
271
272
273
274
275
276
277
278
279
2792
28
280
2800
281
282
283
284
285
286
287
288
289
29
290
2900
291
292
293
294
295
296
2966
297
298
2981593
299
3
30
300
3000
301
302
303
304
305
306
307
3077
308
309
31
310
3100
311
312
313
314
315
316
3166
317
318
319
32
320
3200
321
322
323
324
325
326
327
328
329
33
330
3300
331
33102669
332
333
334
335
336
3363419
337
338
3389
339
3390
34
340
3400
341
342
343
344
345
346
347
348
349
35
350
3500
3504917
351
352
353
354
355
356
357
358
359
36
360
3600
361
362
363
364
365
366
367
368
369
37
370
371
372
373
374
375
376
377
378
379
38
380
3800
381
382
383
384
3847
385
386
387
388
3881
389
39
390
391
392
393
394
395
396
397
398
399
4
40
400
4000
401
402
4020
403
404
405
4051
406
407
408
409
41
410
411
412
413
414
415
416
417
418
419
42
420
4200
421
422
423
424
425
426
427
428
429
43
430
431
432
433
4331
434
435
436
437
438
439
44
440
441
442
443
444
445
446
447
448
449
45
450
4500
451
452
453
454
455
456
457
458
459
46
460
461
462
463
464
465
466
467
468
469
47
470
471
472
473
474
475
476
477
478
479
48
480
481
482
483
484
4846
485
486
487
488
489
49
490
491
492
493
494
495
496
497
498
498708
499
5
50
500
5000
50000
501
502
503
504
505
506
507
508
509
51
510
511
511228
512
513
514
515
516
517
518
519
5194
52
520
521
522
523
524
525
526
527
528
529
53
530
531
532
533
534
535
536
537
538
539
54
540
541
542
543
544
545
546
547
548
54837
549
55
550
5500
551
552
553
554
555
556
557
558
559
56
560
561
562
563
564
565
5659724
566
567
568
569
57
570
571
572
573
574
575
576
577
578
579
58
580
581
582
583
584
585
586
587
588
589
59
590
591
592
593
594
595
596
597
598
599
6
60
600
6000
601
602
603
604
605
606
607
608
609
61
610
611
612
613
614
615
616
617
618
619
62
620
621
622
623
624
625
6256
626
627
628
629
63
630
631
632
633
634
635
636
6361
637
637413
638
639
64
640
641
642
643
644
645
646
647
648
649
65
650
6500
651
652
653
654
655
656
657
658
659
66
660
661
662
663
664
665
666
667
668
669
67
670
671
672
673
6736
674
675
676
677
678
679
68
680
681
682
683
684
685
686
687
688
689
69
690
691
692
693
694
695
696
697
698
699
7
70
700
7000
7001
701
702
703
704
705
706
707
708
709
71
710
7106
711
712
713
714
715
716
717
718
719
72
720
7203
721
722
723
724
725
726
727
728
729
73
730
731
732
733
734
735
736
737
738
739
74
740
741
742
743
7432
744
745
746
747
748
749
75
750
7500
751
752
753
754
755
756
757
758
759
76
760
761
762
763
764
765
766
767
768
769
77
770
771
772
773
774
775
776
777
778
779
78
780
781
782
783
784
785
786
7864
787
788
789
79
790
791
792
793
794
795
796
797
798
799
8
80
800
8000
8001
801
8014
8018
802
803
804
8047
805
806
807
808
809
81
810
8108
811
812
813
814
815
816
8160
817
818
819
82
820
821
822
8221
823
824
825
826
827
828
829
83
830
831
832
833
834
835
836
837
838
839
84
840
841
842
843
844
84433
845
845937
846
847
848
849
8493
85
850
851
85177
852
85270
853
854
855
856
857
858
859
86
860
861
862
863
864
865
866
867
868
869
87
870
87021
871
8711
872
87237
873
874
875
876
877
878
879
88
880
881
882
883
884
885
886
887
888
889
89
890
891
892
893
894
895
896
897
898
899
9
90
900
9000
9001
901
902
903
904
905
906
907
908
909
91
910
911
912
913
914
915
916
917
918
919
92
920
921
922
923
924
925
926
927
928
929
93
930
931
932
933
934
935
936
937
938
939
94
940
941
942
943
944
945
946
947
948
949
95
950
951
952
953
954
955
956
957
958
959
96
960
961
962
963
964
965
966
967
968
969
97
970
971
972
973
974
975
976
977
978
979
98
980
981
982
983
984
985
986
987
988
989
99
990
991
99166
992
993
994
995
996
9965
997
998
999
99941
:
;
<
=
>
?
@
[
\
]
^
_
`
a
aa
aaa
aac
aachen
aai
aalborg
aalto
aan
aanmaken
aantal
aanvoegende
aar
aarde
aarhus
aaron
aas
aasta
aastal
aastatel
aat
ab
aba
abad
abadi
abaixo
abajo
abandon
abandona
abandonar
abandoned
abandonne
abandonner
abandono
abans
abat
abate
abb
abba
abbas
abbaye
abbe
abbeville
abbey
abbia
abbiamo
abbildung
abbot
abbott
abbreviation
abby
abc
abd
abdallah
abdel
abdomen
abdominal
abdu
abdul
abdullah
abe
abel
abend
abenteuer
aber
aberdeen
aberto
abertura
abgeordneten
abgerufen
abgeschlossen
abha
abhandlungen
abhishek
abi
abidjan
abierta
abierto
abies
abigail
abilities
ability
abingdon
abita
abitanti
abitur
abku
abl
ablative
able
ablon
ablona
abnormal
abo
aboard
abogado
abolished
abolition
abondance
abord
aborde
aboriginal
abortion
abou
about
above
abra
abraham
abram
abrams
abre
abreu
abri
abril
abrir
abrite
abroad
abrufbar
abruzzo
abs
abschluss
abschnitt
absence
absent
absolu
absolue
absolument
absolut
absoluta
absolute
absolutely
absolvierte
absorbe
absorbed
absorption
abstract
abstraction
abstracts
absurd
abt
abteilung
abu
abucay
abuja
abundance
abundant
abus
abuse
aby
abyss
ac
aca
acaba
acabar
acabou
acacia
acad
acade
academia
academic
academie
academies
academy
acapulco
acara
acb
acc
accademia
acce
acceleration
accent
accept
acceptable
acceptance
accepte
accepted
accepter
accepting
accepts
accesat
acceso
access
accessdate
accessed
accessible
accessibles
accession
accesso
accident
accidental
accidentally
accidente
accidents
accio
acciones
accipiter
acclaim
acclaimed
accommodate
accommodation
accompagne
accompanied
accompanying
accomplir
accomplished
accord
accordance
accorde
according
accordingly
accordo
accords
account
accountability
accounting
accounts
accra
accreditations
accueil
accueille
accumulation
accuracy
accurate
accusatif
accusation
accusations
accusative
accuse
accused
ace
aceasta
aceh
acer
acerca
acero
aces
acesso
acest
acesta
ach
acha
ache
achete
acheter
acheve
achieve
achieved
achievement
achievements
achieving
achille
achilles
achim
acht
achter
aci
acid
acide
acido
acids
acier
acima
acker
ackermann
acknowledged
acm
aco
acompan
aconseguir
acord
acordo
acosta
acoustic
acp
acqua
acque
acquire
acquired
acquires
acquis
acquisition
acre
acres
acrididae
acro
across
acs
act
acta
acte
acted
actes
acteur
acteurs
actief
actif
actifs
acting
actinopterygii
action
actions
actiu
activa
activated
activation
active
actively
actives
actividad
actividades
activision
activism
activist
activists
activite
activities
activity
activo
acto
acton
actor
actores
actorion
actors
actos
actress
actrice
actriz
acts
actu
actuacio
actual
actualidad
actualite
actually
actualment
actualmente
actuar
actuel
actuelle
actuellement
acu
acuerdo
acum
acun
acute
ad
ada
adagio
adair
adalah
adalbert
adalwyd
adam
adama
adams
adamson
adana
adapt
adaptacio
adaptation
adaptations
adapte
adapted
adapter
adaptive
adar
adas
adat
adatok
adb
add
adda
addams
added
addiction
adding
addio
addis
addison
addition
additional
additionally
additions
address
addressed
addresses
addressing
adds
ade
adel
adela
adelaide
adelante
adele
adelman
adels
adema
aden
adenauer
adequate
ades
adeva
adhd
adhe
adi
adidas
adieu
adige
adil
adina
adio
adj
adjacent
adjectif
adjective
adjektiv
adjektivs
adjoint
adjust
adjusted
adjustment
adjusts
adjutant
adler
adlı
adm
admin
administered
administra
administrac
administracio
administracji
administrasi
administratibo
administratif
administration
administrativ
administrativa
administrative
administrativna
administrativo
administrator
admira
admirable
admiral
admiralty
admiration
admire
admis
admission
admit
admits
admitted
adn
adnan
ado
adobe
adolah
adolescence
adolescent
adolescente
adolescents
adolf
adolfo
adolph
adolphe
adonis
adopt
adopte
adopted
adoption
ador
adora
adore
adorno
ados
adott
adp
adquirir
adres
adresowych
adresse
adresu
adria
adrian
adriana
adriano
adrien
adrienne
ads
adtong
adu
adult
adulte
adulto
adultos
adults
adunay
adv
advance
advanced
advancement
advances
advancing
advantage
advantages
advent
adventure
adventures
adverb
adverbial
adversaire
adverse
adversus
advertisement
advertiser
advertising
advice
advised
adviser
advisor
advisory
advocacy
advocate
advocates
ady
adı
ae
aec
aedes
aeg
aegean
aek
aer
aereo
aerial
aero
aeronautica
aeronautical
aeronautics
aeroporto
aeropuerto
aerosmith
aerospace
aes
aesthetic
aesthetics
aew
af
afa
afar
afb
afc
afd
afe
aff
affa
affair
affaire
affaires
affairs
affari
affect
affecte
affected
affecting
affection
affections
affects
affiche
affiliate
affiliated
affiliation
affine
affinis
affinity
affirme
affleck
affluent
afford
afganistan
afghan
afghanistan
afi
afin
afirma
afirmativo
afl
afla
afo
afonso
afp
afr
afraid
africa
africain
africaine
african
africana
africano
africans
africanus
afrika
afrikaans
afrikaanse
afrique
afro
afstand
aftenposten
after
aftermath
afternoon
afterward
afterwards
aftonbladet
ag
aga
again
against
agama
agar
agassiz
agata
agatha
agave
agder
age
aged
agen
agence
agencia
agencies
agency
agenda
agent
agente
agentes
agents
agenzia
ages
agglome
aggregate
aggression
aggressive
agha
agi
agile
aging
agir
agissait
agit
agitation
agite
agli
agm
agne
agnes
agni
agnieszka
ago
agony
agora
agost
agostini
agostino
agosto
agra
agraria
agre
agree
agreed
agreement
agreements
agrees
agri
agricola
agricole
agricoles
agricultura
agricultural
agriculture
agrilus
agrippa
agro
agrupacio
ags
agu
agua
aguas
aguascalientes
aguilar
aguilera
aguirre
agung
agus
agusti
agustus
ah
aha
ahead
ahi
ahl
ahli
ahmad
ahmed
ahmet
ahn
aho
ahol
aholi
ahora
ahu
ahıs
ai
aia
aichi
aici
aid
aida
aidan
aide
aided
aider
aids
aie
aient
aigle
aigu
aigua
aiguille
aiheesta
aik
aika
aikana
aiken
ail
aile
ailes
ailleurs
aim
aimable
aimait
aime
aimed
aimer
aims
ain
aina
ainda
ainsi
aip
air
airborne
airbus
aircraft
aire
aired
aires
airfield
airing
airline
airlines
airplane
airplay
airport
airports
airs
airways
airy
ais
aise
aises
aisne
ait
aitken
aiuto
aix
aixi
aixo
aj
aja
ajaccio
ajal
ajan
ajax
aje
aji
ajo
ajouta
ajoute
ajouter
aju
ajuda
ajudar
ajuntament
ajuta
ajutor
ak
aka
akad
akade
akademi
akademia
akademie
akademiens
akademii
akademija
akademik
akal
akan
akar
akb
akbar
akc
ake
akershus
akhir
akhirnya
aki
akibat
akik
akin
akira
akita
akkor
akkusativ
ako
akron
aks
aksara
akt
akta
akte
akten
akti
aktif
aktion
aktiv
aktive
aktivita
aktor
aktuell
aktuelle
aku
akuzativ
al
ala
alaba
alabama
aladdin
aladin
alain
alam
alameda
alamo
alamos
alan
aland
alang
alapi
alapja
alar
alarm
alas
alaska
alastair
alat
alatt
alb
alba
albacete
alban
albanese
albania
albanian
albanie
albano
albans
albany
albatros
albe
albedo
alben
alberga
albero
albert
alberta
alberti
alberto
alberts
albi
albin
albino
albion
albo
albornoz
albrecht
albright
albu
album
albuma
albumet
albumi
albums
albumu
albuquerque
albus
alc
alca
alcala
alcalde
alcanc
alcance
alcanzar
alcanzo
alchemilla
alchemist
alcohol
alcool
alcun
alcuna
alcune
alcuni
alda
alde
aldea
alden
alder
aldershot
aldo
aldrich
aldrig
aldı
ale
alebo
alec
alegeri
alegre
alegri
alejandra
alejandro
aleksandar
aleksander
aleksandr
aleksandra
aleksei
alema
aleman
alemana
alemanes
alemanha
alemania
alemany
alemanya
alembert
alenc
alene
aleph
aleppo
alert
ales
alessandra
alessandria
alessandro
alessio
alex
alexa
alexander
alexandra
alexandre
alexandria
alexandrie
alexandru
alexei
alexis
alf
alfa
alfabet
alfabeto
alfaro
alfons
alfonso
alfred
alfredo
alga
algae
algarve
alge
algebra
algebraic
algemeen
algemene
alger
algeria
algerian
algiers
algo
algorithm
algorithms
algoritmen
algoritmer
algoritmo
algu
algumas
alguna
algunas
algunes
algunos
alguns
alhambra
ali
alia
aliados
aliaj
alianc
alianza
alias
alibangbang
alibi
alicante
alice
alicia
alie
alien
aliens
alighieri
align
aligned
alignment
alihan
alii
aliis
alike
alimenta
alimentacio
alimentation
alimento
alimentos
alina
aline
aliquid
alis
alisa
alisateur
alisation
alise
aliser
alison
alistair
alite
alive
alix
aljazeera
alkali
alkohol
alkoi
alkupera
all
alla
allah
allait
allan
allant
allcinema
alle
alleen
allegations
alleged
allegedly
allegheny
allegiance
allegro
allein
allem
allemagne
allemand
allemande
allemands
allen
allenatore
allende
allens
aller
allerdings
allerede
allergy
alles
alley
allez
allgemein
allgemeine
allgemeinen
allgemeines
alli
alliance
alliances
allianz
allie
allied
allier
allies
alligator
allison
allium
allkpop
allma
allmovie
allmusic
allo
allocation
allocine
allons
allora
allow
allowed
allowing
allows
allsvenskan
allt
alltid
allure
allusion
ally
alm
alma
almagro
alman
almanac
almanach
almanya
almas
almaty
almeida
almeno
almeri
almighty
almirante
almost
almıs
alo
aloe
alois
alone
along
alongside
alonso
alonzo
alors
aloud
alp
alpe
alpen
alpes
alpha
alphabet
alphabetical
alphonse
alpi
alpin
alpina
alpine
alpino
alps
already
alrededor
alright
als
alsace
also
alt
alta
altai
altamente
altamira
altar
altare
altas
alte
alten
altenburg
alter
altera
altered
alternate
alternatif
alternativ
alternativa
alternative
alternatives
alternativo
altes
altezza
although
alti
altijd
altitud
altitude
altitudes
altman
alto
altogether
alton
altona
altos
altra
altre
altres
altri
altro
altstadt
altura
altında
alu
alue
alueella
aluminium
aluminum
alumni
alumnicard
alun
alus
alva
alvar
alvarado
alvarez
alvaro
alves
alvin
always
aly
alz
alzheimer
alıs
am
ama
amadeus
amado
amador
amal
amalia
amalie
aman
amanda
amanita
amant
amante
amar
amara
amaral
amarillo
amaro
amas
amat
amata
amateur
amateurs
amato
amazing
amazo
amazon
amazonas
amb
amba
ambas
ambassade
ambassadeur
ambassador
ambassadors
amber
ambient
ambiental
ambiente
ambition
ambitions
ambitious
ambito
ambos
ambrogio
ambroise
ambrose
ambrosio
ambulance
amc
amd
ame
ameac
amedeo
amelia
amely
amen
amended
amendment
amendments
amene
amenities
ament
amento
amer
americ
america
american
americana
americanfactfinder
americani
americano
americanos
americans
americanus
americas
americke
americky
amerika
amerikaans
amerikaanse
amerikai
amerikan
amerikanische
amerikanischen
amerikanischer
amerikansk
amerikanske
amerykan
ames
amg
amherst
ami
amica
amici
amico
amid
amie
amiens
amiga
amigo
amigos
amihanan
amihanang
amihang
amikor
amin
amina
amine
amino
amir
amiral
amis
amistad
amit
amitie
amma
ammad
amman
amministrazione
ammo
ammunition
amnesty
amo
amon
among
amongst
amor
amore
amores
amos
amount
amounts
amour
amoureux
amours
amp
amparo
ampe
amphibian
amphibians
ampla
ample
amplia
amplio
amplitude
ampy
amr
ams
amsterdam
amt
amtliches
amtrak
amu
amundsen
amur
amuse
amusement
amy
an
ana
anaa
anadolu
anagrama
anagramme
anagrammes
anaheim
anai
anak
anal
anales
anali
analisi
analiza
analog
analogie
analogue
analyse
analyses
analysis
analyst
analytic
analytical
analytics
anand
anar
anarana
anarchism
anarchist
anarchy
anas
anastasia
anat
anatole
anatolia
anatomi
anatomia
anatomie
anatomy
anc
anca
ancak
ance
ances
ancestor
ancestors
ancestral
ancestry
anch
anche
ancho
anchor
anchorage
ancien
ancienne
anciennes
anciens
ancient
anco
ancona
ancora
and
anda
andadiskusikan
andaluci
andalus
andalusia
andaman
andante
andar
andare
andata
ande
anden
ander
andere
anderem
anderen
anderer
anderes
anderlecht
andern
anders
andersen
anderson
andersson
anderton
andes
andet
andhra
andi
ando
andorra
andra
andrade
andre
andrea
andreas
andreeva
andrei
andrej
andrena
andres
andreu
andrew
andrews
andrey
andro
android
andromeda
andrzej
andy
ane
anecdotes
anemia
anexo
anfa
anfang
anfangs
ang
anga
angabe
angaben
angaz
ange
angeboten
angegeben
angeho
angel
angela
angelegt
angeles
angeli
angelica
angelika
angelina
angelis
angelo
angels
angelus
anger
angers
anges
angewandte
anggota
angie
angielski
angiosperm
angka
angkatan
angkor
angl
anglais
anglaise
angle
angles
angleterre
anglia
anglic
anglican
anglicke
anglicky
anglii
angliski
anglo
angol
angola
angolul
angoule
angra
angriff
angry
angst
anguilla
angular
angus
angustifolia
anh
anha
anhalt
anhianhi
anhui
ani
ania
anie
anii
anil
anim
anima
animacio
animais
animal
animale
animales
animali
animalia
animals
animated
animation
animator
animaux
anime
animo
anin
aniruddha
anita
aniversario
anja
anjara
anje
anjou
anka
ankara
ankau
anke
ankehitriny
anker
anla
anlage
anlas
anleitung
anmoins
ann
anna
annak
annalen
annales
annali
annals
annan
annapolis
annat
anne
annecy
annen
annet
annette
annex
annexe
anni
annie
annika
annis
anniversaire
anniversary
anno
annonc
annonce
annos
annotated
announce
announced
announcement
announces
announcing
annu
annuaire
annual
annually
annuelle
annum
annurev
anny
ano
anoina
anomala
anon
anonyme
anonymous
anonymus
anos
another
anque
ans
ansa
ansbach
anschließend
anschluss
anse
anselm
anselmo
anser
anses
ansi
ansicht
anske
anson
ansta
anstalt
answer
answered
answers
ant
anta
antagonist
antal
antalet
antalya
antar
antara
antarctic
antarctica
antarktis
antau
ante
anteil
antelope
antena
antenna
antenne
anterior
anteriores
anteriormente
antes
anthem
anthologie
anthology
anthony
anthrax
anthropological
anthropologie
anthropologist
anthropology
anthurium
anti
antic
antica
antiche
antichi
anticipated
antico
anticuado
antiga
antigen
antigo
antigone
antigu
antigua
antiguo
antiguos
antike
antiken
antilles
antioch
antioquia
antiqua
antique
antiques
antiquite
antiquities
antiquity
anto
antoine
antoinette
antoj
antologi
antologia
anton
antoni
antonia
antonimy
antonin
antonino
antonio
antonis
antonius
antonov
antony
antropologi
ants
antti
antwerp
antwerpen
antwort
anu
anual
anul
anuncia
anuncio
anura
anus
anv
anva
anvers
anwar
anwendung
anxiety
anxious
any
anya
anybody
anymore
anyone
anys
anything
anyway
anywhere
anz
anza
anzahl
anzeiger
anzi
ao
aoc
aoki
aol
aon
aos
aosta
aou
ap
apa
apabila
apache
apan
apare
aparece
aparecen
aparecio
aparicio
apart
aparte
apartheid
apartment
apartments
apc
ape
apel
apellido
apenas
aperc
aperta
aperto
apertura
aperture
apes
apesar
apex
apg
aphia
aphrodite
api
apidae
apie
apis
apj
apl
aplica
aplicacio
aplicar
apo
apocalypse
apoi
apoio
apollo
apollon
apolo
apology
apostle
apostles
aposto
apostoli
apostolic
apostolica
apostolique
apoyo
app
apparai
apparatus
appare
appareil
apparence
apparent
apparente
apparently
apparition
appartement
appartenant
appartenente
appartient
appe
appeal
appeals
appear
appearance
appearances
appeared
appearing
appears
appel
appelait
appele
appeler
appellation
appelle
appena
appendice
appendix
appl
apple
apples
appleton
applicable
application
applications
applied
applies
applique
apply
applying
appoint
appointed
appointment
appointments
appoints
apporte
apporter
apportionment
appre
appreciation
apprend
apprendre
apprentice
appris
approach
approached
approaches
approaching
approbation
approche
appropriate
approuve
approval
approve
approved
approves
approx
approximate
approximately
approximation
apps
appui
apr
apras
apre
aprel
apresenta
apri
aprika
april
aprile
aprilie
aproximadamente
aps
apt
apte
apu
apud
aq
aqua
aquarium
aquatic
aquel
aquell
aquella
aquellos
aqueous
aquest
aquesta
aquestes
aquests
aqui
aquila
aquino
aquitaine
aquitania
ar
ara
arab
araba
arabe
arabera
arabes
arabi
arabia
arabian
arabic
arabie
arabisch
arabische
arabiya
arabo
arabs
arac
arachnida
arachnologie
arad
arafat
arago
aragon
aragona
aragone
aragonesa
arah
araigne
arak
aral
aralık
aram
aran
arana
aranda
araneae
araneidae
araneus
ararat
aras
arasında
arau
arba
arbeid
arbeit
arbeiten
arbeiter
arbeitet
arbeitete
arbitrary
arbitration
arbor
arboretum
arbre
arbres
arc
arca
arcade
arcadia
arce
arch
archa
archaeological
archaeology
archaic
archbishop
archdiocese
arche
archer
archery
arches
archeve
archi
archibald
archie
archinform
archipel
archipelago
architect
architecte
architects
architectural
architecture
architekt
architekten
architektur
architektura
architetto
architettura
archiv
archiva
archivado
archival
archive
archived
archives
archiviato
archiviert
archivio
archivlink
archivo
archivos
archivu
archiwum
arcivescovo
arco
arcos
arcs
arct
arcta
arctan
arctic
arcy
ard
arda
arde
arden
ardenne
ardennes
ardent
ardente
ardeur
ardından
are
area
areal
areas
aree
aren
arena
arenaria
arenas
arendt
arequipa
ares
arezzo
arg
argent
argenti
argentina
argentine
argentino
argentinos
argento
argo
argomento
argon
argos
argue
argued
argues
argument
argumento
arguments
argus
argyll
arh
arhivat
arhivirana
arhivirano
ari
aria
ariana
ariane
arias
arid
arie
ariel
aries
arif
arild
aris
arise
arising
arista
aristide
aristo
aristote
aristoteles
aristotle
arithmetic
arizona
arjuna
ark
arka
arkansas
arkham
arkistoitu
arkiv
arkiverad
arkiveret
arkivert
arkivigite
arko
arles
arlington
arm
arma
armada
armadas
armageddon
armament
armand
armando
armas
armata
armate
arme
armed
armee
armen
armenia
armenian
armenians
armes
armi
armia
armies
armii
armin
armistice
armor
armored
armorial
armour
armoured
arms
armstrong
army
arn
arna
arnaldo
arnaud
arndt
arne
arnhem
arno
arnold
aro
aroma
aron
arose
around
arp
arpa
arqueolo
arquitecto
arquitectura
arquivada
arquivado
arquivo
arquivos
arr
arra
arrange
arranged
arrangement
arrangements
arranger
arras
array
arre
arrest
arrested
arrests
arriba
arribar
arrie
arriva
arrival
arrive
arrived
arriver
arrives
arriving
arrivo
arro
arrondissement
arrondissements
arrow
arrows
arroyo
arroz
ars
arse
arsenal
arsenic
arslan
art
arta
artagnan
arte
artean
artemis
artemisia
arten
artens
arter
arteria
arterial
artery
artes
artfo
arthritis
arthropoda
arthur
arti
article
articles
articol
articolo
articule
articulo
artifacts
artificial
artigo
artikel
artikeln
artikkel
artikkelen
artikkeli
artikkelia
artikler
artilleri
artillerie
artillery
artis
artisans
artist
artista
artistas
artiste
artistes
artisti
artistic
artistica
artistique
artists
artnet
arto
artois
arts
artu
artur
arturo
artwork
artykuł
aru
aruba
arun
arv
arvid
arvo
arxiv
arxivat
arxivlandi
arxivləs
ary
arya
aryan
arzt
as
asa
asahi
asal
asam
asamblea
asan
asas
asc
ascap
ascension
ascenso
ascent
ascher
ascii
ascoli
ascomycota
ase
asean
asemenea
asesinato
ash
asha
ashby
ashe
asher
ashes
ashgate
ashley
ashton
asi
asia
asian
asiatic
aside
asie
asien
asilidae
asimismo
asimov
asin
asistencia
ask
asked
asker
asking
asko
asks
asl
aslan
asleep
asli
asm
asma
asn
asne
aso
asociacio
asopis
asp
aspect
aspecto
aspectos
aspects
aspekte
aspen
aspergillus
aspetto
asplenium
aspx
asr
ass
assad
assai
assam
assassin
assassinat
assassination
assassine
assassins
assault
assaut
asse
assemblage
assemble
assemblea
assembled
assembleia
assembly
asserted
assertion
assessing
assessment
assessor
asset
assets
assez
assi
assieme
assigned
assignment
assim
assimilation
assis
assise
assisi
assist
assistance
assistant
assistants
assiste
assisted
assistent
assistente
assists
associac
associate
associated
associates
association
associations
associazione
associe
assume
assumed
assuming
assumption
assunta
assunto
assurance
assure
assured
assurer
assyrian
ast
asta
astana
aste
aster
asteraceae
asterix
asteroid
asteroide
asteroides
asteroids
astfel
asthma
asti
asto
aston
astor
astoria
astra
astragalus
astrid
astro
astron
astronaut
astrono
astronom
astronomer
astronomers
astronomi
astronomia
astronomical
astronomie
astronomiques
astronomo
astronomy
astrophoto
astrophys
astrophysical
astrophysics
astros
asturiana
asturias
asu
asuka
asuncio
asuntos
asupra
asus
asv
asya
asylum
at
ata
atac
atacama
atacar
atal
atalanta
ataque
ataques
atari
atas
atatu
atau
ataupun
atc
ate
atelier
ateliers
aten
atenas
atencio
atene
ateneo
ates
ath
athe
atheism
atheist
athen
athena
athene
athens
athle
athlete
athletes
athletic
athletics
athos
ati
ation
ations
atkins
atkinson
atla
atlanta
atlante
atlantic
atlantik
atlantique
atlantiques
atlantis
atlas
atle
atleta
atletico
atletismo
atm
atmosfe
atmosfera
atmosphe
atmosphere
atmospheric
ato
atoll
atom
atomic
atoms
atop
ator
atos
atp
atque
atr
atra
atrave
atribucio
atribui
atrice
atriz
ats
att
atta
attacco
attache
attached
attachment
attachmentcolhold
attack
attacked
attacking
attacks
attained
attaque
attaquer
attaques
atte
atteindre
atteint
attempt
attempted
attempting
attempts
attend
attendait
attendance
attendant
attended
attending
attendre
attends
attendues
attentat
attente
attention
attenzione
attested
atti
attic
attila
attire
attitude
attitudes
attivita
attivo
atto
attore
attorney
attorno
attract
attracted
attraction
attractions
attractive
attraverso
attribue
attribute
attributed
attributes
attribution
attrice
attuale
attualmente
atu
atual
atualmente
atunci
atv
atwood
au
aube
auberge
aubert
aubin
aubrey
auburn
auch
auckland
auction
aucun
aucune
audace
aude
audi
audie
audience
audiences
audiencia
audio
audiodateien
audiovisual
audiovisuel
audit
audition
auditor
auditorium
audrey
audubon
auer
auerbach
auf
aufbau
auffu
aufgabe
aufgaben
aufgebaut
aufgefu
aufgelo
aufgenommen
aufgestellt
aufgrund
aufkla
aufl
auflage
auflo
aufnahme
aufnahmen
aufstieg
auftrag
aug
auga
auge
augen
augmentation
augmente
augmented
augmenter
augsburg
august
augusta
auguste
augusti
augustin
augustine
augustinus
augusto
augustus
augusztus
aujourd
auk
auks
aula
aumenta
aumentar
aumento
aun
aung
aunque
aunt
auparavant
aupre
auquel
aur
aura
auraient
aurais
aurait
aure
aurea
aurel
aurelia
aurelio
aurelius
aureus
auront
aurora
aurore
aus
ausbildung
auschwitz
ausdru
ausdruck
ausencia
ausfu
ausgabe
ausgefu
ausgesprochen
ausgetragen
ausgewa
ausgezeichnet
ausla
ausland
ausnahme
ausschließlich
aussi
aussito
aussprache
ausstellung
aust
austen
austin
austra
austral
australasian
australia
australian
australiana
australiano
australians
australie
australien
australis
austri
austria
austriaca
austriaco
austrian
austriancharts
austro
auswa
auswahl
auszeichnung
aut
auta
autant
aute
autel
autem
auteur
auteurs
authentic
author
authored
authorities
authority
authorized
authors
autism
auto
autobahn
autobiography
autobus
automa
automated
automatic
automatically
automation
automatisch
automatycznie
automne
automo
automobil
automobile
automobiles
automotive
autono
autonoma
autonome
autonomi
autonomia
autonomie
autonomous
autonomy
autor
autora
autore
autorem
autoren
autores
autori
autoridad
autoridades
autorise
autorita
autorite
autoroute
autors
autorytatywna
autos
autosport
autostrada
autour
autre
autrefois
autrement
autres
autriche
auttaa
autumn
auvergne
aux
auxerre
auxiliar
auxiliary
auxquelles
auxquels
außen
außer
außerdem
außerhalb
av
ava
avaient
availability
available
avais
avait
aval
avalanche
avalon
avanc
avance
avanje
avant
avantage
avantages
avanti
avatar
avati
ave
avea
avec
avellino
avendo
avenger
avengers
avenida
avenir
aventura
aventuras
aventure
aventures
avenue
aver
average
averaged
averages
avere
avery
aves
avesse
aveugle
aveva
avevano
aveyron
avez
avgiftsfri
avgust
avi
avia
aviacio
avian
aviation
avibase
avignon
avila
avin
avio
avion
aviones
avions
avis
aviv
avn
avni
avo
avocat
avoid
avoided
avoir
avoit
avon
avons
avoue
avra
avrebbe
avril
avrinningsomra
avro
avrupa
avs
avui
avut
avuto
avvocato
avy
aw
awa
awake
awakening
awal
award
awarded
awards
aware
awareness
away
awe
awesome
awful
awstralya
ax
axe
axel
axes
axis
ay
aya
ayala
ayan
ayant
ayat
aydın
aye
ayer
ayisyen
ayn
aynı
ayres
ayrton
ayrıca
ayuda
ayudar
ayuntamiento
az
aza
azad
azar
aze
azerbaijan
azerbaijani
azeri
azevedo
azi
azienda
azione
azioni
aziz
azo
azonban
azt
aztec
azteca
azu
azul
azur
azure
azərbaycan
azərbaycanca
að
ał
ała
aɪ
aɾ
aʊ
b
ba
baa
baal
baan
bab
baba
babak
babe
babel
babelio
babes
babi
babies
babu
baby
babylon
babylonian
bac
baca
bacchus
bach
bachelor
bachmann
bacillus
back
backed
background
backing
backlash
backs
backstage
backup
backward
bacon
bacteria
bacterial
bad
bada
badajoz
badan
bade
baden
bader
badge
badger
badia
badly
badminton
bado
bae
baer
bafta
bag
baga
bagdad
baghdad
bagi
bagian
bags
bah
baha
bahadur
bahamas
bahan
bahasa
bahawa
bahi
bahia
bahin
bahn
bahnhof
bahnstrecke
bahr
bahrain
bahwa
bai
baia
baidu
baie
baik
bail
baile
bailey
baillargeon
baillie
bailly
bain
baina
baino
bains
baird
bairro
baiser
baisse
bait
baix
baixa
baixo
baixos
baja
bajnoksa
bajo
bajos
bak
baka
bakar
bakarrik
bake
baker
baki
bakker
bakr
baku
bakukangon
bakı
bal
bala
balada
balai
balance
balanced
balangay
balas
balboa
bald
baldwin
bale
balear
balearic
balfour
bali
balkan
balkans
ball
balla
ballad
ballade
ballads
ballantine
ballard
balle
ballerina
ballet
ballo
ballon
balloon
ballot
ballroom
balls
balo
balogh
baloncesto
balta
balthasar
baltic
baltimore
balzac
bam
bamako
bamberg
bambi
bambini
bambino
bamboo
bambu
ban
bana
banana
banarsidass
banat
banc
banca
banco
bancos
bancroft
band
banda
bandai
bandar
bandas
bande
bandeau
bandeira
bandera
bandes
bandet
bandiera
bandit
bandits
bando
bands
bandung
bandy
bane
bang
bangalore
bangkok
bangladesh
bangor
bangsa
bangunan
bani
banja
banjo
bank
banka
banken
banker
banking
bankruptcy
banks
banned
banner
bano
banque
banquet
bans
bansa
banska
bantam
banten
bantu
bantuan
banu
banyak
bao
baptise
baptism
baptist
baptista
baptiste
bar
bara
barack
barak
baran
barang
barangay
barat
barb
barba
barbados
barbara
barbarian
barbarians
barbarossa
barbe
barber
barbera
barbie
barbier
barbosa
barbour
barbra
barbuda
barbus
barc
barca
barcelona
barcelone
barclay
barclays
barco
barcos
bard
bardziej
bardzo
bare
barely
bari
baris
bark
barker
barks
barley
barlow
barn
barna
barnard
barnes
barnet
barnett
barney
barnsley
baro
baron
barone
baroness
baronet
baroni
barons
baroque
barque
barr
barra
barracks
barrage
barranca
barras
barre
barred
barrel
barren
barrera
barreto
barrett
barri
barrie
barrier
barriers
barrington
barrio
barrios
barro
barron
barros
barroso
barrow
barruko
barry
barrymore
bars
bart
barth
barthe
bartholomew
bartlett
barto
bartolome
bartolomeo
barton
baru
baruch
baryon
bas
basa
basada
basado
basal
base
baseball
based
basel
basement
basen
baserad
baserat
bases
bash
bashir
basi
basic
basics
basidiomycota
basil
basile
basilica
basilicata
basilio
basilique
basin
basingstoke
basis
basket
basketball
basler
baso
basque
bass
bassa
basse
basses
bassett
bassi
bassin
bassist
basso
basta
bastante
bastard
bastia
bastian
bastien
bastille
bastion
basu
bat
bata
bataille
batailles
bataillon
batalha
batalla
batang
batas
batavia
batch
bate
batean
bateau
bateaux
bateman
baten
bateri
bateria
bates
bath
bathurst
bati
batista
batman
bato
baton
bats
battaglia
battalion
battalions
batteria
batterie
batteries
battery
batting
battista
battle
battlefield
battles
battleship
battleships
battre
battu
battuto
batu
batzuk
bau
bauche
baudelaire
baudouin
bauen
bauer
bauern
bauhaus
baum
baumann
baute
bauten
bautista
bautzen
bavaria
bavarian
bavie
baviera
bawah
baxter
bay
baya
bayan
bayard
baybayon
bayer
bayerische
bayerischen
bayerischer
bayerisches
bayern
bayerns
baylor
bayonne
bayou
bayreuth
baz
baza
bazaar
bazar
baze
bazie
bazı
bb
bba
bbc
bbe
bbi
bbs
bc
bce
bd
bde
bdfa
bdfutbol
bdl
be
bea
beach
beaches
beacon
beagle
beam
bean
beans
bear
bearbeitet
beard
bearer
bearing
bears
beast
beasts
beat
beata
beate
beaten
beati
beating
beatles
beato
beaton
beatrice
beatrix
beatriz
beats
beatty
beau
beauchamp
beaucoup
beaufort
beaulieu
beaumont
beaute
beautiful
beauty
beauvais
beauvoir
beaux
beaver
bebe
beberapa
bec
became
because
beccaloni
beck
becker
beckett
beckham
becky
become
becomes
becoming
bed
beda
bede
bedeutet
bedeutung
bedeutungen
bedford
bedingungen
bedrijf
bedroom
beds
bedu
bee
beech
beef
beek
beeld
been
beendet
beendete
beer
beers
bees
beethoven
beetle
beetles
beezley
befand
befinden
befindet
befo
befolkning
befolkningen
before
befu
beg
bega
began
begann
begge
begin
beginn
beginnen
beginning
beginnings
beginnt
begins
begon
begonia
begonnen
begra
begreep
begriff
begru
begu
begun
beh
beha
behalf
behandelt
behandlung
behar
behavior
behavioral
behaviour
behind
beho
behold
behoort
bei
beide
beiden
beier
beijing
beim
bein
being
beings
beira
beirut
beispiel
beispiele
beispielsweise
beit
beitra
beitrag
beja
bek
beka
bekam
bekannt
bekannte
bekannten
bekend
bekende
bekerja
bekommen
bel
bela
belanda
belang
belangrijke
belangrijkste
belarus
belarusian
belas
bele
belediye
belegt
belegte
belfast
belfort
belga
belge
belges
belgia
belgian
belgie
belgien
belgio
belgique
belgisch
belgische
belgium
belgrad
belgrade
belgrado
belgrano
beli
beliau
belief
beliefs
believe
believed
believes
believing
belinda
belirtme
belize
belknap
bell
bella
bellamy
bellas
bellator
belle
belles
belleville
bellevue
belleza
bellezza
belli
bellini
bello
bells
bellum
belluno
belly
belmont
belmonte
belo
belong
belonged
belonging
belongs
beloved
below
belt
beltra
belu
belum
belvedere
bem
bemerkungen
bemu
ben
bena
benannt
bench
bend
benda
bender
bendrai
bene
beneath
benedetto
benedict
benedictus
benedikt
beneficial
beneficio
benefit
benefits
benes
benevento
benfica
bengal
bengali
bengt
beni
benigno
benin
benito
benjamin
benn
bennet
bennett
benno
benny
beno
benoi
benoist
benoit
bens
benson
bent
benth
bentham
bentley
bento
benton
bentuk
benutzt
benz
beograd
beogradu
bepaald
bepaalde
ber
bera
berada
berall
berarbeitete
berasal
berat
berbagai
berber
berdasarkan
bere
bereich
bereits
berg
berga
bergamo
bergang
berge
bergen
berger
bergerac
bergh
berghahn
bergman
bergmann
berhasil
berhaupt
beri
bericht
berichte
berichten
berichtet
berikut
bering
berita
berk
berkeley
berkshire
berli
berlin
berlinale
berlind
berliner
berlino
berlioz
berlusconi
bermain
berman
bermuda
bern
berna
bernabe
bernadette
bernahm
bernal
bernama
bernard
bernardi
bernardino
bernardo
bernd
berne
berner
bernhard
bernhardt
bernie
bernommen
bernoulli
bernstein
bero
berpru
berri
berry
bersama
bersetzt
bersetzung
bersetzungen
bersicht
bert
berta
bertha
berthold
bertil
bertolt
bertragen
bertram
bertrand
beru
beruf
berufen
berwick
berwiegend
bes
besa
besanc
besar
besaß
bescha
beschra
beschreibung
beschreven
beschrieben
besetzt
besetzung
beside
besides
besitz
besitzen
besitzer
besitzt
beskrevs
beso
besoek
besoin
besoins
besondere
besonderen
besonderer
besonders
bess
besser
bessie
best
besta
bestaan
bestaande
bestaat
bestand
bestanden
beste
bestehen
besteht
besten
bester
bestia
bestimmt
bestimmte
bestimmten
bestod
bestritt
bestseller
besuch
besuchte
besze
besøkt
bet
beta
bete
beteiligt
betekent
beter
beth
bethel
bethesda
bethlehem
betiko
betis
beto
beton
betra
betrachtet
betrayal
betrayed
betrieb
betrieben
betrug
betsy
bett
bette
better
bettina
betty
betula
between
betydelser
beutler
bev
bevan
bevat
beverley
beverly
bevo
bevolking
bevor
bewa
beware
bewegen
bewegung
bewohner
bey
beyer
beyonce
beyond
bez
beza
bezeichnet
bezeichnete
bezeichnung
beziehung
beziehungen
bezirk
bezirke
bezpieczen
bezpos
bezu
bezug
bf
bfi
bfs
bg
bgm
bh
bha
bharat
bhardwaj
bhi
bhp
bhutan
bi
bia
bianca
bianchi
bianco
bias
biasa
biasanya
biasonyo
biathlon
biała
białystok
bib
bibcode
bibel
bibi
bibl
bible
biblia
biblical
biblio
bibliogra
bibliografia
bibliographie
bibliographisches
bibliography
biblioteca
biblioteka
bibliothe
bibliotheca
bibliothek
bic
bicolor
bicycle
bid
bida
bidang
biden
bidrag
bids
bie
bieber
biegu
biel
bielefeld
bien
bienes
biennale
biens
biento
bienvenue
bier
bieta
bietet
big
bigarren
bigelow
bigg
bigger
biggest
bih
bihar
bij
bija
bijna
bijvoorbeeld
bik
bike
bikini
bil
bila
bilan
bilancio
bilang
bilateral
bilbao
bild
bilden
bildenden
bilder
bildern
bildet
bildete
bildhauer
bildung
bile
bilen
biles
bilgi
bilgiler
bili
bilingual
bill
billboard
bille
billed
biller
billet
billie
billings
billion
billionaire
bills
billy
bilo
bim
bin
bina
binary
bind
binder
binding
bine
bing
bingen
bingham
bingo
binh
binne
binnen
bint
bintang
bio
biochem
biochemical
biochemistry
biodiversity
biogeography
biogra
biografi
biografia
biografias
biografico
biograficzny
biografie
biografien
biografisk
biografiskt
biographical
biographie
biographies
biographique
biographisches
biography
biol
biolib
biolo
biologi
biologia
biological
biologie
biology
biomedical
biophys
bios
biotechnology
bip
bipolar
bir
bira
birc
birch
bird
birdlife
birds
birger
birgit
biri
birinchi
birinci
birles
birlig
birlikte
birmingham
biro
biroul
birth
birthday
birthplace
births
birz
bis
bisa
bisby
bisch
bischo
bischof
bischoff
biserica
bisexual
bisher
bishop
bishops
biskop
biskup
biskupa
bismarck
bisogna
bisogno
bison
bispo
bissau
bist
bistum
bit
bitat
bitch
bitcoin
bite
bites
biti
bitki
bito
bits
bitte
bitten
bitter
biu
bivs
biz
bizantino
bizarre
bizi
biztanle
bizyaev
bj
bjo
bjp
bjørn
bk
bl
bla
blabbermouth
black
blackberry
blackburn
blackmore
blackout
blackpink
blackpool
blacks
blackwell
blackwood
blad
blade
blades
blaine
blair
blaise
blake
blame
blamed
blanc
blanca
blancas
blanchard
blanche
blanches
blanco
blancos
blancs
bland
blandt
blank
blanka
blant
blas
blast
blasts
blatt
blau
blaue
blaz
blaze
blazers
ble
bleach
bleeding
bleef
bleek
bleeker
blei
bleiben
bleibt
blend
blender
bles
bless
blesse
blessed
blessing
blessure
bleu
bleue
bleus
blev
blevet
bli
blic
blica
blicas
blich
blick
blico
blicos
blieb
blieben
blind
blinde
blink
blir
bliss
blitt
blitz
blive
bliver
bliz
blizzard
blo
bloc
bloch
block
blockade
blockbuster
blocked
blocking
blocks
blog
blogger
blogs
blogspot
blois
blok
blom
blond
blonde
blood
bloody
bloom
bloomberg
bloomfield
bloomington
bloomsbury
bloque
blossom
blot
blount
blow
blowing
blown
blows
blu
blue
bluegrass
bluemax
blues
bluetooth
bluff
blum
blume
blunt
blut
bly
blyth
bm
bmatrix
bmc
bmg
bmi
bmj
bmp
bmw
bmx
bn
bne
bner
bnf
bnp
bo
boa
board
boarding
boards
boas
boat
boats
bob
bobby
bobo
boc
boca
bocage
bocca
boccaccio
bochanski
bochum
bock
bod
boda
bode
boden
bodies
bodo
body
bodø
boe
boeing
boek
boer
bog
boga
bogdan
bogen
bogor
bogota
bogu
bohe
bohemia
bohemian
bohr
boi
boiling
boire
bois
boise
boiss
boissier
boj
boja
boje
boji
bok
boka
boken
bokma
boko
boku
bol
bola
bolan
boland
bold
boldsymbol
bole
boleh
boles
boleslav
bolesti
bolesław
boleti
boli
bolivar
bolivia
bolj
boll
bollettino
bollywood
bolo
bologna
bols
bolsa
bolsonaro
bolt
bolton
bolus
bolzano
bom
bomb
bomba
bombardier
bombardment
bombay
bombe
bomber
bombers
bombing
bombs
bon
bona
bonanza
bonaparte
bond
bonde
bonds
bone
bones
bong
bongo
bonheur
boni
boniface
bonifacio
bonita
bonito
bonjour
bonn
bonne
bonner
bonnes
bonnet
bonnie
bonnier
bono
bons
bonte
bonus
bony
boo
boogie
book
booker
booklet
bookmaker
books
boom
boomerang
boon
boone
boost
boot
boote
booth
boots
bop
bor
bora
borba
borbo
bord
borda
borde
bordeaux
borden
border
borders
bordo
bords
bore
boreal
borealis
borg
borges
borghese
borgia
borgo
bori
boring
boris
borja
born
borne
borneo
boro
borough
borrowed
borsa
bort
boru
borussia
bory
borys
bos
bosc
bosch
bosco
bose
bosh
bosna
bosne
bosni
bosnia
bosnian
bosnie
bosnien
bosque
bosques
boss
bossa
bosse
bost
boston
bosworth
bot
bota
botafogo
botanic
botanica
botanical
botanik
botanique
botanischen
botanist
botany
bote
both
boto
botschaft
botswana
bottle
bottom
bou
bouchard
bouche
boucher
bouches
bouchet
boue
bougainville
bought
bouillon
boulanger
boulder
boule
boulenger
boulevard
boulogne
bounce
bound
boundaries
boundary
bounded
bounds
bounty
bouquet
bourbon
bourg
bourgeois
bourgeoisie
bourges
bourgogne
bourgoin
bourne
bournemouth
bourse
bout
boutique
bouvier
boven
bovy
bow
bowen
bower
bowers
bowie
bowiem
bowl
bowler
bowles
bowling
bowman
box
boxer
boxes
boxing
boxofficemojo
boxrec
boy
boyce
boycott
boyd
boydell
boyer
boyfriend
boyko
boyle
boys
boyunca
boyz
boz
bp
bpi
bps
br
bra
brabant
brabham
brac
braccio
brace
brach
bracht
brachte
braconidae
brad
bradbury
bradford
bradley
bradshaw
brady
braga
braganc
bragg
brahim
brahma
brahman
brahms
braille
brain
brains
brak
brake
bram
brama
bran
branca
branch
branche
branches
branco
brand
branded
branden
brandenburg
branding
brando
brandon
brands
brandt
brandy
brani
branko
brann
brano
brant
bras
brasi
brasil
brasile
brasileira
brasileiro
brasileiros
brasilen
brasilia
brasilien
brasiliensis
brass
brassica
brassicaceae
brat
brata
bratislava
brauer
braun
braunschweig
brava
brave
braves
bravo
braxton
bray
braz
brazi
brazil
brazilian
brazo
brazos
brazzaville
brdo
bre
breach
bread
break
breakdown
breaker
breakers
breakfast
breaking
breakout
breaks
breakthrough
breast
breath
breathe
breathing
brecht
bred
breda
brede
bree
breed
breeding
breeds
breeze
bref
breisgau
breit
breite
bremen
bremer
brenda
brendan
brennan
brenner
brent
brentford
bres
brescia
breslau
bresse
brest
bret
bretagne
bretan
brethren
breton
brett
breu
breuning
brev
breve
brevet
brevis
brew
brewer
brewery
brewing
brewster
brexit
brez
bri
brian
brica
brice
brick
bride
brides
bridge
bridges
bridget
brie
brief
briefe
briefing
briefly
brien
brig
briga
brigada
brigade
brigades
brigadier
brigen
briggs
brigham
bright
brightest
brighton
brigitte
brill
brillant
brillante
brilliant
brin
brindisi
bring
bringen
bringing
brings
bringt
brink
brinkmann
brio
bris
brisbane
brise
bristol
brit
brita
britain
britania
britannia
britannica
britannico
britannique
britanniques
britische
britischen
britischer
british
britiske
britney
brito
brits
britse
britt
brittany
britten
britton
brne
brno
bro
broad
broadcast
broadcaster
broadcasting
broadcasts
broader
broadway
brochure
brock
brockhaus
brod
brodie
brody
broer
broj
broja
broju
broke
broken
broker
bromley
bromwich
bron
bronce
broncos
broni
brons
bronson
bronte
bronx
bronze
bronzo
brood
brook
brooke
brookings
brooklyn
brooks
bror
bros
brot
brother
brotherhood
brothers
brought
broughton
brouwer
brown
browne
browning
browns
brownstein
browse
browser
broz
brt
bru
bruce
bruch
bruckner
bruder
brug
bruges
brugge
bruins
bruit
bruk
brukt
brun
bruna
brune
brunei
brunet
bruni
brunnen
brunner
bruno
bruns
brunswick
brush
brussel
brussels
brut
brutal
brute
bruto
brutus
bruxelles
bruye
bryan
bryant
bryce
bryn
bryozoa
brz
bs
bsc
bsd
bt
bte
bts
bu
bua
buah
bubble
bubbling
buc
bucarest
buch
buchanan
bucharest
buchhandlung
buchholz
buchsuche
buck
bucket
buckingham
buckinghamshire
buckley
bucks
bucures
bud
buda
budapes
budapest
budapesti
budaya
budd
buddha
buddhism
buddhist
buddy
bude
budge
budget
budi
budu
buduc
budynek
bue
buen
buena
buenas
bueno
buenos
buffalo
buffer
buffet
buffon
buffy
bug
bugatti
bugguide
bugnaw
bugs
bugu
buick
build
builder
builders
building
buildings
builds
built
buiten
buk
buka
bukan
bukarest
bukid
bukit
buku
bul
bula
bulak
bulan
bulbophyllum
bulga
bulgaria
bulgarian
bulgarien
bulk
bull
bulldog
bulldogs
bulle
bullet
bulletin
bulletins
bullets
bullock
bulls
bully
bulo
bulu
bulunan
bulunmaktadır
bulunur
bum
bumi
bump
bun
buna
bunch
bund
bunda
bundan
bundes
bundesamt
bundesla
bundesliga
bundesrepublik
bundesstaat
bundesstraße
bundestag
bundesverband
bundeswehr
bundle
bundy
bung
bunga
bunge
bungtod
bungtoron
bunker
bunny
bunu
bunun
buo
buon
buona
buono
buprestidae
bur
burada
burbank
burden
burditt
bure
bureau
bureaux
buren
burg
burgemeester
burgen
burgenland
burger
burgers
burgess
burgh
burgos
burial
buried
burke
burkina
burlington
burma
burmeister
burmese
burn
burned
burnett
burnham
burning
burnley
burns
burnt
burr
burroughs
burrows
bursa
burst
burt
burton
buru
burundi
burung
bury
bus
busan
busay
busca
buscar
busch
buses
bush
business
businesses
businessman
businessweek
bust
bustamante
buster
busto
busy
but
buta
butch
butcher
bute
butler
buts
butt
butte
butter
butterflies
butterfly
butterworth
button
buttons
buvo
buy
buying
buys
buza
buzz
bv
bw
bwf
bwv
bx
by
byc
byd
bydgoszcz
bye
byen
bygger
bygget
byl
byla
byli
bylo
byly
bypass
byrd
byrne
byron
bys
bystrica
byt
byte
bytes
byzantine
byzantium
był
była
byłem
było
były
bz
bzw
błe
bɔ
bə
bɛ
c
ca
caa
cab
caballero
caballeros
caballo
caballos
caban
cabaret
cabe
cabec
cabello
cabeza
cabezas
cabi
cabin
cabinet
cable
cables
cabo
cabot
cabral
cabrera
cac
cacao
caccia
cache
cacher
cactus
cad
cada
cadas
cade
cadena
cadence
cadet
cadets
cadillac
cadre
caduta
cae
caen
caer
caesar
caetano
caf
cafe
caffe
cafodd
cage
cagematch
cagliari
cahiers
cahill
cai
cain
caine
caire
cairn
cairns
cairo
caisse
caitlin
caixa
caja
cake
cal
cala
calabria
calais
calc
calciatore
calcio
calcium
calcul
calculated
calculation
calculations
calculator
calcule
calculus
calcutta
caldas
calder
caldera
caldero
caldo
caldwell
cale
caleb
caledonia
calendar
calendario
calendrier
calgary
calhoun
cali
calibre
calidad
caliente
calif
califo
california
californie
call
callaghan
callahan
calle
called
calles
calling
calls
calm
calma
calme
calo
calon
calor
caltech
calvados
calvert
calvin
calvo
cam
cama
camacho
camara
camargo
camaro
cambia
cambiar
cambio
cambios
cambodia
cambrai
cambrian
cambridge
cambridgeshire
camden
came
camel
cameo
camera
cameras
cameron
cameroon
cameroun
cami
camila
camilla
camille
camillo
camilo
caminho
camino
caminos
camp
campagna
campagne
campagnes
campaign
campaigns
campan
campana
campanha
campania
campanile
campanula
campbell
campea
campeo
campeonato
campeonatos
campeones
campi
camping
campion
campionat
campionati
campionato
campione
campioni
campo
camponotus
campos
camps
campus
camus
can
cana
canaan
canada
canadensis
canadese
canadian
canadians
canadien
canadienne
canadiens
canal
canale
canales
canals
canard
canaria
canarias
canary
canavese
canberra
canc
cancel
canceled
cancelled
cancer
cancio
canciones
candelaria
candida
candidat
candidata
candidate
candidates
candidato
candidatos
candidats
candidatura
candidature
candle
cando
candy
cane
cangjie
cani
canique
canis
canlynol
cannabis
canne
cannes
canning
cannon
cannot
cano
canoe
canon
canonical
canons
cant
canta
cantabria
cantal
cantando
cantante
cantar
cantata
canterbury
cantidad
canto
canton
cantone
cantonese
cantons
cantor
cantora
cantos
cantu
canvas
canyon
canzone
canzoni
cao
caos
cap
capa
capabilities
capability
capable
capacidad
capacidade
capacita
capacite
capacity
capaz
capcom
cape
capela
capella
capelli
capensis
capi
capilla
capita
capitaine
capital
capitale
capitales
capitalism
capitalist
capitals
capitan
capitano
capite
capitol
capitolo
capo
capoluogo
cappella
capra
capri
caprice
caps
capsule
capt
captain
captains
captive
captivity
captura
capture
captured
captures
capturing
capua
caput
car
cara
carabidae
carabus
caracas
caracol
caracte
caracteri
caras
carattere
caratteristiche
caravaggio
caravan
carbo
carbon
carbonate
carbone
carbono
carcassonne
carcinoma
card
cardenal
cardi
cardiac
cardiff
cardinal
cardinale
cardinals
cardiovascular
cardona
cardoso
cards
care
carece
career
careers
careful
carefully
cares
carex
carey
carga
cargo
cargos
cari
caribbean
caribe
carica
carin
carina
carioca
carita
carl
carla
carles
carleton
carlin
carlisle
carlo
carlos
carlsen
carlson
carlsson
carlton
carly
carlyle
carme
carmel
carmelo
carmen
carmichael
carmina
carmine
carmona
carnage
carnaval
carne
carnegie
carnero
carney
carnival
carnot
caro
carol
carola
carole
carolina
caroline
carolus
carolyn
caron
carpenter
carpet
carr
carranza
carrara
carrasco
carre
carrefour
carreira
carrer
carrera
carreras
carretera
carriage
carrie
carried
carrier
carriera
carriers
carries
carrillo
carrington
carro
carroll
carros
carry
carrying
cars
carson
carsten
cart
carta
cartagena
cartas
carte
cartel
carter
cartes
carthage
cartier
carton
cartoon
cartoons
cartwright
caruso
carvajal
carvalho
carved
carver
cary
cas
casa
casablanca
casada
casado
casal
casale
casamento
casanova
casar
casas
cascade
cascades
casco
case
caserta
cases
casey
cash
casi
casimir
casino
caso
casos
casou
caspar
casper
caspian
cass
cassa
cassandra
casse
cassel
cassell
cassette
cassidy
cassie
cassini
cassius
cast
casta
castan
caste
castel
castela
castell
castella
castellana
castellano
castellanos
castelli
castello
castelnau
castelo
castes
castiglione
castile
castilla
castille
castillo
casting
castle
castles
castor
castro
castrum
casts
casu
casual
casualties
casualty
cat
cata
catala
catalan
catalana
catalans
catalina
catalog
catalogne
catalogo
catalogue
catalogueoflife
catalogues
catalogus
catalonia
catalun
catalunya
catalyst
catalytic
catania
catanzaro
catarina
catastrophe
catch
catcher
catches
catching
cate
catedra
catedral
categori
categoria
categorie
categories
category
catena
caterina
catfish
catharina
cathe
cathedral
catherine
catholic
catholica
catholicism
catholicisme
catholics
catholique
catholiques
cathy
cato
cats
cattedrale
cattle
cattolica
cattolico
cau
cauca
caucasian
caucasus
cauchy
caucus
caudal
caught
caulfield
causa
causal
causar
causas
cause
caused
causes
causing
caution
cav
cava
cavalerie
cavalier
cavaliere
cavalieri
cavaliers
cavalleria
cavalli
cavallo
cavalry
cave
cavendish
caves
cavite
cavour
cay
cayman
cayo
caza
cała
całe
całego
całej
całos
cały
całym
cb
cba
cbc
cbd
cbe
cbn
cbr
cbs
cc
cca
ccc
ccd
ccl
ccola
cctv
ccw
cd
cda
cdc
cdna
cdot
cdots
cdp
cdr
cds
cdu
ce
cea
ceara
ceas
cease
ceased
cebu
cec
ceca
cech
ceci
cecil
cecilia
cedar
cede
cedric
cedsci
cee
cego
cei
ceiling
ceinture
cej
cel
cela
cele
celebra
celebracio
celebrar
celebrate
celebrated
celebrates
celebrating
celebration
celebrations
celebre
celebrities
celebrity
celeste
celestial
celi
celia
celine
celkem
cell
cella
celle
celles
cello
cells
cellular
cellule
celo
celsius
celso
celta
celtic
celtics
celtique
celu
celui
celular
cely
cem
cembre
cement
cemetery
cemment
cen
cena
cene
cengage
ceni
cens
censimento
censo
censorship
censos
censura
censure
census
censuses
censusindia
cent
centar
centaurea
centauri
cente
centenario
centenary
centennial
center
centered
centers
centi
centime
centimeter
cento
centra
centraal
central
centrala
centralbyra
centrale
centrales
centrali
centre
centres
centri
centro
centrocampista
centros
centru
centrum
cents
centuries
century
centurycomm
cenu
ceny
ceo
cep
cependant
ception
cer
cera
cerambycidae
ceramic
cerca
cercando
cercano
cercle
cerco
cerda
cerebral
ceremonia
ceremonial
ceremonies
ceremony
ceres
cerf
cerita
cern
cerne
cero
cerrado
cerro
cert
certa
certain
certaine
certainement
certaines
certainly
certains
certe
certes
certificate
certification
certifications
certified
certo
cervantes
cerveau
ces
cesa
cesar
cesare
cesena
cesis
cessaire
cessairement
cessaires
cesse
cession
cessite
cessna
cest
cesta
ceste
cestista
cet
ceta
cette
ceuta
ceux
cev
ceva
ceylon
cf
cfa
cfl
cfm
cfr
cg
cgi
ch
cha
chaco
chacun
chacune
chad
chadwick
chafodd
chagrin
chai
chaim
chain
chains
chair
chairman
chairs
chaise
chal
chalcidoidea
chaleur
chalk
challenge
challenged
challenger
challenges
challenging
chalmers
chalon
cham
chama
chamada
chamado
chambe
chamber
chamberlain
chamberlin
chambers
chambre
chambres
champ
champagne
champaign
champion
championnat
championnats
champions
championship
championships
champlain
champs
chan
chance
chancellor
chances
chandler
chandra
chanel
chang
change
changed
changement
changements
changer
changes
changing
changwat
channel
channels
channing
chanson
chansons
chant
chantal
chante
chanter
chanteur
chanteuse
chants
chao
chaos
chap
chapeau
chapel
chapelle
chapitre
chaplin
chapman
chappe
chapper
chapter
chapters
chaque
char
character
characteristic
characteristics
characterization
characterized
characters
charakter
charbon
charente
charentes
charge
charged
chargement
charger
chargers
charges
charging
chariot
charitable
charite
charity
charlemagne
charlene
charleroi
charles
charleston
charley
charlie
charlotte
charlton
charly
charm
charmant
charme
charming
charpentier
chart
charte
charter
chartered
charters
chartres
charts
chas
chase
chasing
chasse
chasseur
chasseurs
chassis
chat
chateau
chatham
chats
chattanooga
chatterjee
chau
chaucer
chaud
chaumont
chausse
chaux
chaves
chavez
chca
chce
chcesz
chciał
che
cheap
cheat
chec
checa
check
checked
checklist
checklists
checks
checs
cheek
cheer
cheers
cheese
chef
chefe
chefs
chega
chegar
chegou
chel
chelle
chelles
chelsea
cheltenham
chem
chemical
chemically
chemicals
chemie
chemin
chemine
chemins
chemische
chemist
chemistry
chemnitz
chen
cheney
cheng
chengdu
chennai
cher
cherbourg
cherche
chercher
chern
chernobyl
cherokee
cherry
cheryl
ches
chesapeake
cheshire
chess
chessgames
chest
chester
chesterfield
chestnut
chet
cheung
cheur
cheval
chevalier
chevaliers
chevaux
cheveux
chevrolet
chevron
chew
cheyenne
chez
chhi
chhia
chhiong
chi
chia
chiamata
chiamato
chiang
chiapas
chiappini
chiar
chiara
chiaro
chiba
chic
chica
chicago
chichester
chick
chicken
chico
chie
chief
chiefly
chiefs
chien
chiens
chiesa
chiese
chieti
chiffre
chiffres
chihuahua
child
childhood
children
chile
chilean
chilena
chileno
chili
chill
chim
chime
chimica
chimie
chin
china
chinatown
chine
chinensis
chinese
chinesischen
ching
chino
chinois
chinoise
chip
chips
chir
chira
chirac
chirurgie
chis
chisholm
chit
chitarra
chiu
chlich
chloe
chloride
chng
cho
choa
choc
chociaz
chocolate
chod
chodni
choe
choi
choice
choices
choir
choisi
choisir
choix
cholera
chomsky
chong
chongqing
choose
choosing
chop
chopin
chopra
choque
chor
chora
choral
chord
choro
chorus
chos
chose
chosen
choses
chosun
chou
chow
chr
chra
chre
chris
christ
christa
christchurch
christen
christensen
christgau
christi
christiaan
christian
christiana
christiane
christiania
christianisme
christianity
christians
christiansen
christie
christina
christine
christlichen
christmas
christo
christoph
christophe
christopher
christus
christy
chrome
chromosome
chron
chronic
chronicle
chronicles
chronicon
chronik
chronique
chroniques
chronological
chronologie
chronology
chrysler
chrysomelidae
chrzes
chse
chsische
chsischen
chst
chste
chsten
cht
chte
chten
chter
chtig
chtigen
chto
chu
chua
chuang
chuck
chun
chung
chuo
chur
church
churches
churchill
chute
chuye
chwila
chwile
chwili
chwiliwch
chy
chyba
chœur
ci
cia
ciach
cial
ciale
cialise
cialiste
ciami
cian
ciao
ciara
cias
ciała
ciało
cibo
cic
cicadellidae
cicero
ciclismo
ciclista
ciclo
cid
cida
cidade
cidades
cide
cider
cido
cie
ciebie
ciej
ciel
ciele
cielo
ciem
cien
ciencia
ciencias
cienti
cierta
cierto
cies
cieszyn
cieux
cifra
cifras
cigarette
cigarettes
cigliano
cii
cija
cijan
cijas
cikin
cikk
cil
cile
cili
cim
cima
cime
cimetie
cimo
cin
cina
cinc
cincinnati
cinco
cinderella
cindy
cine
cinema
cinemas
cinematic
cinematogra
cinerea
cinese
cinii
cinq
cinquanta
cinquante
cinque
cinquie
cins
cinta
cintura
cio
cioe
cios
ciot
cioła
cir
circ
circa
circle
circles
circo
circolo
circonscription
circonstances
circuit
circuito
circuits
circular
circulation
circumstances
circus
ciri
cirka
ciro
cirque
cis
cisco
cise
ciser
cision
cisneros
cisse
cit
cita
citadel
citado
citation
citations
citato
citazioni
cite
cited
citer
citeref
cites
citeseerx
cities
citing
citizen
citizens
citizenship
cito
citoyen
citoyens
citroe
citrus
cits
citta
cittadini
city
citypopulation
ciu
ciuda
ciudad
ciudadanos
ciudades
ciutat
civ
civic
civico
civil
civile
civiles
civili
civilian
civilians
civilisation
civilization
civilizations
civils
civilta
civitas
cił
ciła
cj
ck
cka
cke
cken
cker
ckkehr
cklich
ckner
cks
cksichtigung
ckt
ckte
cl
cla
clade
claes
claim
claimed
claiming
claims
clair
claire
clairement
clan
clancy
clans
clapton
clara
claration
clare
claremont
clarence
clarendon
clari
clarification
clarinet
clark
clarke
clarkson
claro
clarte
clase
clases
clash
clashes
clasificacio
class
classe
classement
classes
classic
classica
classical
classics
classifica
classification
classifications
classificazione
classified
classique
classiques
classroom
clat
claude
claudia
claudine
claudio
claudius
claus
clause
clausura
clav
clave
clavier
clay
clayton
clc
cle
clean
cleaning
clear
cleared
clearing
clearly
clearwater
clef
clemens
clement
clemente
clementine
clements
cleo
cleopatra
clerc
clerge
clergy
clerk
clermont
clero
cles
cleveland
clever
cli
cliche
click
clicking
client
cliente
clientes
clients
cliff
clifford
cliffs
clifton
clima
climat
climate
climatic
climats
climax
climb
climbing
clin
clinaison
cline
clinic
clinical
clinics
clint
clinton
clio
clip
clippers
clips
cliquant
clive
clo
cloche
clocher
clock
clone
clones
cloning
clooney
clos
close
closed
closely
closer
closes
closest
closet
closing
closure
cloth
clothes
clothing
cloud
clouds
clover
clovis
clown
club
clube
clubes
clubs
clue
cluj
cluny
cluster
clusters
clyde
cm
cma
cms
cmt
cn
cna
cnbc
cne
cnet
cnica
cnicas
cnico
cnicos
cnn
cnrs
cnt
co
coa
coach
coached
coaches
coaching
coahuila
coal
coalicio
coalition
coast
coastal
coaster
coat
coates
coats
coauthors
cobain
cobalt
cobb
cobertura
cobiss
cobra
cobre
coburg
coca
cocaine
coccoidea
cochabamba
coche
cochran
cochrane
cocina
cock
cockerell
cockpit
cocks
cocktail
coco
coconut
cocos
cod
coda
code
codes
codex
codice
coding
cody
coe
coefficient
coefficients
coelho
coen
coeur
coffee
coffin
cog
cognate
cognition
cognitive
cohe
cohen
cohn
coi
coil
coimbra
coin
coinage
coincide
coins
cois
coise
coke
col
cola
colaboracio
colas
colbert
colby
colchester
cold
coldplay
cole
coleccio
colegio
coleman
coleo
coleophora
coleoptera
coles
colette
coli
colin
colina
coliseum
coll
colla
collaborated
collaboration
collaborative
collaborazione
collage
collana
collapse
collapsed
collar
colle
colleagues
collect
collecte
collected
collectif
collecting
collection
collections
collective
collectivite
collector
collectors
colleen
collega
collegamento
college
colleges
collegiate
collegio
collegium
collette
collezione
colli
collider
collier
collin
collina
colline
collines
collingwood
collins
collision
collo
colloque
colloquial
colmar
colo
cologique
cologne
coloma
colombe
colombia
colombian
colombiana
colombiano
colombie
colombo
colon
colonel
colonia
colonial
coloniale
colonie
colonies
colonisation
colonization
colonna
colonne
colonnes
colons
colony
color
colorado
colore
colored
colores
colori
coloro
colors
colossus
colour
coloured
colours
colpi
colpo
colt
colte
coltrane
colts
columba
columbia
columbus
column
columna
columnist
columns
com
coma
comandante
comando
comarca
comb
combat
combate
combats
combattre
combien
combinacio
combination
combinations
combine
combined
combining
combo
combustible
combustion
come
comeback
comec
comedia
comedian
comedy
comenc
comenzo
comer
comercial
comerciales
comercio
comes
comet
cometa
comets
comfort
comfortable
comic
comics
comida
comienza
coming
comingsoon
comique
comisio
comissa
comitato
comite
comm
comma
command
commandant
commande
commanded
commandement
commander
commanders
commandeur
commanding
commando
commands
comme
commedia
commemorative
commenc
commence
commenced
commencement
commencer
comment
commentaries
commentary
commentator
commented
comments
commerce
commercial
commerciale
commercio
commis
commissaire
commission
commissione
commissioned
commissioner
commissioners
commissions
commit
commitment
committed
committee
committees
commodity
commodore
common
commonly
commons
commonsissa
commonwealth
commun
communal
communale
communales
communaute
commune
communes
communicate
communication
communications
communion
communique
communis
communism
communist
communiste
communists
communities
community
commuter
como
comp
compact
compagni
compagnia
compagnie
compagnies
compagno
compagnon
compagnons
compan
companhia
companies
companion
companions
company
comparable
comparaison
comparat
comparative
compare
compared
comparer
comparing
comparison
comparisons
compartirigual
compass
compassion
compatible
compe
compelled
compendious
compendium
compensation
compense
compete
competed
competencia
competent
competic
competicio
competing
competir
competitie
competition
competitions
competitive
competitor
competitors
competizione
compie
compilation
compiled
compiler
compilersreviewers
complaint
complaints
comple
complejo
complement
complementary
complesso
complet
completa
completamente
completar
completarea
complete
completed
completely
completes
completing
completion
completo
complex
complexe
complexes
complexity
compliance
complicated
complications
complutense
componenete
component
componente
componentes
components
comportamento
comporte
compose
composed
composer
composers
composicio
composite
compositeur
composition
compositions
compositor
compositore
composta
compostela
composto
compound
compounds
compra
comprar
compre
comprehensive
comprenant
comprend
comprende
comprendre
compression
compris
comprise
comprises
comprising
compromise
comptait
compte
compter
comptes
compton
compuesta
compuesto
compulsory
computation
computational
computer
computers
computing
comtat
comte
comtes
comtesse
comu
comum
comun
comuna
comunale
comunas
comune
comunelor
comunes
comuni
comunica
comunicac
comunicacio
comunicaciones
comunicado
comunidad
comunidade
comunidades
comunista
comunita
comunitat
comunque
con
conan
conc
conca
concacaf
conce
concede
conceic
conceived
concello
concentracio
concentrated
concentration
concentrations
concepcio
concept
conception
conceptions
concepto
concepts
conceptual
concern
concernant
concerne
concerned
concerning
concerns
concert
concerti
concerto
concertos
concerts
concession
concessions
concha
conciencia
concierto
conciertos
concilio
concise
conclude
concluded
concludes
conclusion
conclusions
concolor
concord
concorde
concordia
concorso
concours
concretamente
concrete
concreto
concurrence
concurrent
concurso
condado
condados
condamne
conde
condemned
condic
condicio
condicional
condiciones
condita
condition
conditional
conditionnel
conditions
condizioni
condor
conduce
conduct
conducted
conducting
conductor
conduire
conduit
conduite
cone
conegut
conf
confe
confederacio
confederate
confederation
confere
conference
conferences
conferencia
conferred
confession
confessions
confiance
confidence
confident
confidential
confie
configuration
confine
confined
confirm
confirma
confirmation
confirme
confirmed
confirms
conflict
conflicto
conflicts
conflit
confluence
conform
conforme
confrontation
confronti
confronto
confusa
confused
confusion
cong
conge
congiuntivo
congo
congre
congregation
congreso
congress
congressional
congressman
congresso
conhecida
conhecido
coni
conjecture
conjugaison
conjugation
conjunction
conjunto
conmebol
conn
connai
connais
connaissance
connaissances
connaissez
connect
connected
connecticut
connecting
connection
connections
connects
connell
connelly
conner
connexion
connie
connolly
connor
connors
connu
connue
connues
connus
cono
conoce
conocer
conoci
conocida
conocido
conocimiento
conomie
conomique
conomiques
conor
conoscenza
conosciuto
conque
conquer
conquered
conqueror
conquest
conquista
conrad
cons
consacre
conscience
conscious
consciousness
conse
consecuencia
consecutive
conseguenza
conseguir
conseguiu
conseil
conseille
conseiller
conseillers
conseils
consejo
conselho
consell
consenso
consensus
consent
consequence
consequences
consequently
conserva
conservacio
conservador
conservateur
conservation
conservative
conservatives
conservatoire
conservatorio
conservatory
conserve
conserver
conside
consider
considera
considerable
considerably
considerada
considerado
considerando
considerar
considerat
considerata
consideration
considerations
considerato
considered
considering
considers
consiglio
consiguio
consist
consiste
consisted
consistent
consisting
consists
consolation
console
consoles
consolidated
consolidation
consommation
consonant
consort
consortium
consorzio
conspiracy
const
consta
constable
constance
constant
constante
constantin
constantine
constantino
constantinople
constantly
constants
constate
constellation
constitucio
constitucional
constitue
constituencies
constituency
constituent
constitui
constitute
constituted
constitution
constitutional
constraints
construc
construccio
construct
constructed
constructing
construction
constructions
construi
construido
construir
construire
construit
construite
consuelo
consul
consulate
consult
consulta
consultado
consultant
consultation
consultato
consulte
consulter
consulting
consume
consumer
consumers
consumo
consumption
cont
conta
contaba
contact
contacto
contacts
contador
contain
contained
container
containing
contains
contamination
contar
conte
contea
contempora
contemporain
contemporaine
contemporains
contemporanea
contemporary
contempt
contenant
contenido
contenir
content
contente
contention
contents
contenu
contes
contest
contestant
contestants
contested
contesto
context
contexte
contexto
contexts
conti
contiene
contient
continent
continental
continentale
continente
continents
contingent
continu
continua
continuacio
continuar
continuation
continue
continued
continuer
continues
continuing
continuity
continuo
continuous
continuously
continuum
conto
contoh
contour
contra
contract
contracted
contraction
contractor
contracts
contradiction
contrainte
contraire
contrairement
contrari
contrario
contrary
contrast
contraste
contrat
contrato
contratto
contre
contreras
contribue
contribui
contribute
contributed
contributing
contribution
contributions
contributor
contributors
contro
control
controlar
controle
controlled
controller
controlling
controllo
controls
controverse
controversial
controversy
conus
convencio
convenience
convenient
convent
convention
conventional
conventions
convento
converge
convergence
conversation
conversations
converse
conversion
convert
converted
converter
converti
convertir
convex
convicted
conviction
convictions
convient
convierte
convince
convinced
convirtio
convoy
conway
coo
cook
cooke
cookie
cooking
cool
coolidge
cooling
coop
coope
cooper
cooperacio
cooperation
cooperativa
cooperative
coord
coordenadas
coordinate
coordinates
coordination
coordinator
cop
copa
cope
copeland
copenhagen
copernicus
copia
copias
copie
copies
coppa
copper
coppia
coppola
cops
coptic
copy
copyright
coq
cor
cora
corac
coral
coraz
corazo
corbett
corbin
corbusier
cord
corda
corde
cordero
cordes
cordillera
cordon
core
corea
coreano
cores
corey
cori
corine
corinne
corinthians
cork
corn
corne
corneille
cornelia
cornelis
cornelius
cornell
corner
corners
cornet
cornish
cornwall
coro
corolla
corona
coronado
coronation
coronavirus
coronel
corp
corpo
corpora
corporal
corporate
corporation
corporations
corporis
corps
corpse
corpus
corrado
corral
corre
correa
correct
corrected
correction
corrections
correctly
corredor
correia
correlation
corrente
correo
correr
correspond
correspondance
correspondant
correspondants
corresponde
corresponden
correspondence
correspondent
corresponding
corrida
corridor
corriente
corrientes
corriere
corrupt
corruption
cors
corsa
corse
corsi
corsica
corso
cort
corta
corte
cortes
cortex
cortez
corti
cortina
cortinarius
corto
cortometraggio
corun
corvette
corvus
corwin
cory
cos
cosa
cosas
cose
cosenza
cosh
cosi
cosimo
cosme
cosmic
cosmo
cosmology
cosmopolitan
cosmos
cosse
cost
costa
costas
costat
coste
costello
costituzione
costo
costruito
costruzione
costs
costume
costumes
cot
cota
cote
cotta
cottage
cottbus
cotton
cou
couch
couche
coucher
couches
cougar
could
couldn
coule
couleur
couleurs
council
councillor
councils
counsel
count
countdown
counted
counter
countess
counties
counting
countries
country
countryside
counts
county
coup
coupable
coupe
couper
couple
coupled
couples
coups
cour
courage
courant
courbe
coureur
courier
courir
couronne
courrier
cours
course
courses
court
courte
courtenay
courtesy
courthouse
courtney
courtois
courts
cousin
cousine
cousins
coute
couter
coutume
couture
couvent
couvert
couverte
couvertes
couverts
couverture
couvre
couvrir
cov
cova
cove
covenant
covent
coventry
cover
coverage
covered
covering
covers
covert
covey
covid
cow
cowan
coward
cowboy
cowboys
cowell
cowley
cox
coyote
coz
cp
cpc
cpi
cpu
cq
cr
cra
crab
crack
cradle
craft
crafts
craig
craindre
crainte
crambidae
cramer
cran
crane
craneflies
crash
crashed
crashes
crassus
crata
crater
crates
craven
crawford
crawley
crazy
crc
cre
crea
creacio
creada
creado
cream
creando
crear
creare
creat
create
created
creates
creating
creation
creative
creativity
creato
creator
creators
creature
creatures
creazione
crecimiento
crede
credere
credit
credited
credits
credo
cree
creed
creek
crei
crema
cremona
creo
creole
cres
crescent
crespo
crest
cret
creta
cretaceous
crete
creu
creuse
crew
crewe
crews
cri
cria
criac
criada
criado
crianc
criar
cribb
cricinfo
cricket
cricketarchive
cricketer
crie
cried
cries
crime
crimea
crimean
crimen
crimes
criminal
criminals
crimson
crire
cris
crise
crises
crisi
crisis
crisp
crist
crista
cristal
cristian
cristiana
cristiani
cristianismo
cristiano
cristianos
cristina
cristo
crit
crite
criteria
criterion
crites
critic
critica
critical
critically
criticised
criticism
criticized
critico
critics
critique
critiques
crits
criture
crivain
crivains
crkva
cro
croat
croata
croate
croatia
croatian
croce
crocidura
crocodile
croft
croi
croire
crois
croise
croissance
croit
croix
cromwell
crook
crooked
croom
crop
crops
crore
crosby
cross
crosse
crossed
crosses
crossing
crossover
crossroads
croton
crouch
crow
crowd
crowded
crowds
crowe
crowley
crown
crowned
crows
croyait
croydon
croyez
cru
cruce
cruces
crucial
crucis
crude
cruel
cruelty
cruise
cruiser
cruisers
cruises
crunchyroll
crusade
crusader
crusaders
crusades
crush
crust
crustacea
crustaceans
cruz
cruzeiro
cry
crying
crystal
crystals
cs
csa
csak
csala
csapat
csc
cse
csi
csic
csiro
cska
cso
css
csu
csupa
csv
ct
cte
cter
cti
ctica
cticas
ctimas
ctor
ctrica
ctrl
ctv
cu
cua
cuadro
cual
cuales
cualquier
cuando
cuanto
cuarta
cuarto
cuatro
cub
cuba
cuban
cubana
cubano
cube
cubic
cubs
cucina
cuckoo
cue
cuenca
cuenta
cuentos
cuerpo
cuerpos
cuesta
cuestio
cueva
cuevas
cui
cuidado
cuisine
cuius
cuivre
cujo
cukup
cul
cula
culas
cules
culham
cullen
culo
culos
culpa
cult
culte
cultivar
cultivated
cultivation
cultive
cultivo
culto
cultura
cultural
culturale
culturales
culturali
culturas
culture
culturel
culturelle
cultures
culu
cum
cumberland
cumbria
cumhuriyeti
cummings
cummins
cumulative
cun
cuneo
cung
cunha
cunningham
cuo
cuore
cup
cupe
cups
cur
cura
curac
curator
curculionidae
curculionoidea
cure
curia
curie
curieux
curiosite
curiosity
curious
curite
curitiba
curling
curr
curran
currency
current
currently
currents
curriculum
currie
curry
curse
cursed
curso
cursos
curt
curta
curtain
curtis
curtiss
curva
curve
curved
curves
curzon
cus
cusco
cushing
custer
custodian
custody
custom
customer
customers
customs
cut
cuta
cute
cuthbert
cution
cutler
cutri
cuts
cutter
cutting
cuvier
cuya
cuyo
cv
cw
cx
cy
cyber
cyborg
cych
cycle
cyclebase
cycles
cycling
cyclingnews
cyclisme
cyclist
cycliste
cyclone
cyfarwyddwr
cygnus
cyhoeddodd
cyhoeddwyd
cylinder
cym
cymi
cymru
cynhyrchwyd
cynthia
cyp
cyperus
cypress
cyprinidae
cyprus
cyr
cyrano
cyrchiad
cyril
cyrillic
cyrus
cz
cza
czarna
czas
czasem
czasie
czaso
czasownik
czasu
cze
czech
czechoslovakia
czego
czem
czenia
czenie
czeniu
czerwca
czi
cznie
cznos
czso
czterech
cztery
czy
czyc
czyk
czyli
czym
czyz
czyzn
czył
czyła
członek
członkiem
członko
człowiek
człowieka
cı
cœur
cœurs
d
da
daa
daan
daar
daarmee
daarna
daarnaast
daarom
dab
daba
dabei
dac
daca
dach
dachau
dacia
daction
dad
dada
daddy
dade
dades
dadi
dado
dados
dadurch
dae
daerah
daf
daftar
dafu
dag
daga
dagar
dagat
dagblad
dagbladet
dagegen
dagen
dagens
dagger
daghan
dagli
dagmar
dago
dagogik
dagomkahoy
dah
daha
daher
dahil
dahin
dahl
dai
daibuun
daille
daily
daimler
dair
dairy
daisuke
daisy
dait
daj
daja
daje
daji
dak
dakar
dakbayan
daki
dakong
dakota
dal
dala
dalai
dalam
dale
daleithiau
dalej
daleko
dalen
daley
dali
dalje
dall
dalla
dallas
dalle
dallo
dals
dalton
daly
dam
dama
damage
damaged
damages
damaligen
damals
damas
damascus
dame
damen
dames
dami
damia
damian
damiano
damien
damit
damm
damme
damn
damned
damon
dams
dan
dana
danach
danas
danc
dance
dancer
dancers
dances
dancing
dando
dandy
dane
daneben
danemark
danes
dang
danger
dangereux
dangerous
dangers
danh
dani
dania
danie
daniel
daniela
daniele
danielle
daniels
danilo
danish
dank
danmark
danmarks
dann
danni
danno
danny
dano
danois
dans
danse
danser
dansk
danska
danske
dant
dante
danube
dany
danych
danza
danzig
dao
dapat
dapek
daphne
dapit
dar
dara
darah
daran
darauf
daraufhin
daraus
darby
darcy
dard
dare
daredevil
darf
darfur
dargestellt
dari
daria
darin
daring
dario
daripada
darius
dariusz
dark
darker
darkness
darling
darlington
darmstadt
daro
darreh
darrel
darrell
darren
darryl
darstellung
dart
dartmouth
darts
daru
darum
darunter
darwin
daryl
das
dasar
dash
dass
dassault
dat
data
databa
databasdump
database
databases
datang
dataset
datasetid
datasets
date
dated
datei
daten
datenbank
dates
dati
datif
dating
dativ
dative
dato
datos
datter
datu
datuak
datum
datumoj
dau
daughter
daughters
daukagu
daum
daun
dauphin
dauphine
dava
davant
davantage
davanti
davao
dave
davenport
davey
david
davide
davids
davidson
davies
davis
davison
davon
davor
davos
davy
daw
dawkins
dawn
dawna
dawniej
dawson
dax
day
daya
daylight
days
daytime
dayton
daytona
daz
dazu
daß
dał
db
dc
dca
dce
dchen
dd
dda
dde
ddelweddau
ddeutsche
ddr
ddsa
ddt
de
dea
deacon
dead
deadline
deadly
deadurl
deaf
deal
dealer
dealing
deals
dealt
dean
dear
dearborn
death
deaths
deb
debajo
debate
debates
debbie
debe
deben
deberi
debi
debian
debido
deborah
debout
debra
debrecen
debris
debt
debts
debu
debussy
debut
debuted
debuto
debuts
debutto
dec
deca
decade
decades
decatur
decay
decca
deccan
deceased
december
decembra
decembrie
decembro
decennial
decent
deception
deci
decide
decided
decides
decidio
decidir
decima
decimal
decin
decine
decins
decir
decisa
decise
decisio
decision
decisions
decisive
deciso
deck
decke
decker
declara
declaracio
declaran
declarar
declaration
declare
declared
declares
declaring
declaro
declension
decline
declined
deco
decock
decorated
decoration
decorations
decorative
decrease
decreased
decree
decreto
dedans
dede
dedi
dedica
dedicada
dedicado
dedicata
dedicated
dedication
dedicato
dedico
dee
deeann
deed
deeds
deel
deemed
deen
deep
deeper
deepl
deeply
deer
def
defa
default
defeat
defeated
defeating
defeats
defect
defects
defekt
defence
defend
defendant
defendants
defended
defender
defenders
defending
defends
defensa
defense
defensive
defensor
defesa
defiance
deficiency
deficit
define
defined
defines
defini
definicija
definiciju
definicio
definido
defining
definir
definire
definisi
definite
definitely
definition
definitions
definitiva
definitivamente
definitive
definitivo
defunct
deg
degli
dego
degradation
degre
degree
degrees
deh
dehors
dei
dein
deine
deir
deities
deity
deixa
deixar
deixou
dej
deja
dejan
dejar
dejo
dek
dekabr
dekat
deki
dekker
deklinacija
deklination
del
dela
delabrouille
delacroix
delaney
delar
delas
delavrinningsomra
delaware
delay
delayed
delays
dele
delegate
delegates
delegation
delen
deles
delete
delfi
delft
delgado
delhi
deli
delia
delicate
delicious
delight
deliver
delivered
delivers
delivery
dell
della
delle
dello
delmi
delo
delphi
delphine
dels
delstaten
delta
deltog
deltok
delu
delubac
deluxe
delvis
dem
dema
demain
demand
demanda
demande
demanded
demander
demanding
demands
demasiado
deme
dementia
demetrius
demeure
demi
demise
demitri
demo
democra
democracia
democracy
democrat
democratic
democrats
demogra
demographic
demographics
demography
demokrat
demokratie
demokratik
demokratischen
demolished
demolition
demon
demons
demonstrate
demonstrated
demonstration
demonstrations
demos
demospongiae
dempsey
dempue
demselben
demu
den
dena
dende
dendrobium
dene
denen
deng
dengan
deni
denial
denied
denies
denis
denise
deniz
denken
denkma
denkmal
denkmalpflege
denmark
denn
denna
denne
dennis
dennoch
denny
denomina
denominacio
denominada
denominado
dens
dense
densidad
densidade
densite
density
dent
dental
dente
dentes
denton
dentro
dents
denuncia
denver
deny
denys
deo
deos
dep
depart
departament
departamentas
departamento
departamentos
departed
departement
departementet
departemento
department
departments
departure
depeche
depend
depende
dependence
dependent
depending
depends
depicted
depicting
deployed
deployment
depo
depois
deporte
deportes
deportista
deportiva
deportivo
deposit
deposits
depot
depp
deprecated
depressa
depression
dept
depth
depths
depuis
deputado
deputati
deputies
deputy
der
dera
deras
derby
derbyshire
derde
dere
derecha
derecho
derechos
derek
deren
deres
derfor
deri
deriva
derivada
derivation
derivative
derivatives
derived
dermatology
dermed
dern
dernie
dernier
derniers
derrick
derrie
derrota
derrotar
derry
ders
derselben
derzeit
des
desa
desarrollo
descartes
descend
descendant
descendants
descended
descendre
descent
describe
described
describes
describing
descripcio
description
descriptions
descriptive
descrita
descrito
descrizione
desde
dese
desember
desembre
desempen
desenvolvimento
deseo
deseret
desert
deserto
deset
deshalb
desi
desiderio
design
designado
designated
designation
designed
designer
designers
designing
designs
desirable
desire
desired
desires
desiyerto
desk
desktop
desmond
despair
despelare
desperate
despite
despois
despre
despue
dess
dessa
dessau
desse
dessein
desselben
dessen
dessert
dessin
dessine
dessins
dessous
dessus
desta
destaca
destacan
destacar
deste
destin
destination
destinations
destine
destino
destiny
desto
destra
destroy
destroyed
destroyer
destroyers
destroying
destruccio
destruction
destructive
destrui
destruir
det
detachment
detail
detailed
details
detained
detalles
detect
detected
detection
detective
detector
detention
determina
determinada
determinado
determinar
determination
determine
determined
determining
detien
detra
detroit
dets
detta
dettaglio
dette
detto
deu
deum
deur
deus
deutlich
deutsch
deutsche
deutschen
deutscher
deutsches
deutschland
deutschlands
deutschsprachigen
deux
deuxie
dev
deva
devaient
devait
devam
devant
deve
develop
developed
developer
developers
developing
development
developmental
developments
develops
devenir
devenit
devenu
devenue
devi
device
devices
devido
deviennent
devient
devil
deville
devils
devin
devine
devint
devise
devlet
devlin
devo
devoir
devoirs
devon
devono
devons
devonshire
devoted
devotion
devrait
dew
dewa
dewalt
dewan
dewasa
dewey
dewi
dex
dexter
dey
dez
deze
dezelfde
dezember
dezembro
df
dfb
dfrac
dg
dga
dgs
dh
dha
dhabi
dhaka
dharma
dhe
dhital
dhu
di
dia
diabaikan
diabetes
diable
diablo
diagno
diagnosed
diagnosis
diagnostic
diagonal
diagram
diagrama
diaire
diakses
dial
dialect
dialectal
dialectes
dialects
dialekt
dialog
dialogue
dialogues
diamant
diamante
diambil
diame
diameter
diameters
diamond
diamonds
dian
diana
diane
dianggap
diari
diaries
diario
diarkibkan
diarsipkan
diary
dias
diaspora
diatement
diavolo
diaz
dibuat
dic
dica
dicale
dicapai
dicas
diccionari
diccionario
dice
dicembre
dich
dicha
dicho
dicht
dichter
dici
diciembre
diciona
dicis
dicit
dicitur
dick
dickens
dickinson
dickson
dico
dicos
dict
dicta
dictadura
dictator
dictatorship
dicte
diction
dictionaries
dictionary
dictionnaire
dictionnaires
dictum
did
dida
diderot
didi
didier
didn
dido
didz
die
diecezji
dieci
died
diede
diego
diels
diem
dien
diena
dienen
diens
dienst
dienste
dient
diente
dieppe
dier
dieren
dies
diese
diesel
dieselbe
diesem
diesen
dieser
dieses
diet
dieta
dietary
dieter
dietmar
dietrich
dietro
dietz
dieu
dieux
diez
difere
diferencia
diferent
diferente
diferentes
diferents
difesa
diffe
differ
difference
differences
different
differential
differentiation
differenza
difficile
difficolta
difficult
difficulte
difficulties
difficulty
diffusa
diffuse
diffusion
difi
difice
difusio
dig
diga
dige
digen
diger
digest
digi
digimon
digit
digital
digitale
digitales
digitalisat
digitized
digne
dignite
dignity
digo
digos
digt
digunakan
diha
dii
dijk
dijo
dijon
dik
dike
dikenal
diketahui
dil
dilakukan
dilemma
dili
dillon
dim
dima
dimanche
dime
dimension
dimensional
dimensioni
dimensions
diminution
diminutive
dimitri
din
dina
dinamarca
dinamo
dinas
dinasti
dinastia
dine
diner
dinero
ding
dinge
dingen
dinger
dinh
dinhi
dini
dining
dinner
dino
dinosaur
dinosauria
dinosaurs
dins
dintre
dio
dioce
diocese
diocesi
dioecesis
diogenes
diogo
dion
dionysius
dior
dios
diospyros
dioxide
dip
dipartimento
dipinto
diplo
diplom
diploma
diplomacy
diplomat
diplomatic
diplomatie
diplomatique
diptera
dipterorum
diputacio
diputado
diputados
dique
dir
dira
dirac
dire
direc
direccio
direct
directa
directamente
directe
directed
directement
directeur
directing
direction
directions
directive
directly
directo
director
directora
directorate
directors
directory
directs
direito
direitos
direkt
direkte
direkto
direktor
diretor
diretta
direttamente
diretto
direttore
direzione
diri
dirige
dirigent
dirigente
dirigida
dirigido
dirigir
dirilib
dirilis
diritti
diritto
dirk
dirt
dirty
dis
disa
disabilities
disability
disabled
disait
disambiguation
disant
disappearance
disappeared
disaster
disasters
disbanded
disc
discharge
discharged
dische
dischen
disci
disciple
disciples
disciplina
discipline
disciplines
disclosure
disco
discogra
discographie
discography
discogs
discontinued
discorso
discos
discours
discourse
discover
discovered
discoveries
discovering
discovers
discovery
discre
discrete
discrimination
discs
discurso
discuss
discussed
discusses
discussing
discussion
discussions
discute
dise
disease
diseases
disebut
disegno
disen
disent
disguise
dish
dishes
disk
diskussion
dismissed
disney
disneyland
disorder
disorders
disparai
disparition
disparu
dispatch
disperse
dispersion
displaced
displacement
display
displayed
displays
displaystyle
dispone
disponi
disponibile
disponible
disponibles
disposal
dispose
disposez
disposicio
dispositif
disposition
dispositions
dispositivo
disputa
disputar
dispute
disputed
disputes
disputo
disque
diss
disse
dissen
dissent
dissertation
disso
dissolution
dissolved
dist
dista
distance
distances
distancia
distant
distante
distanza
distinct
distinction
distinctions
distinctive
distingue
distinguer
distinguish
distinguished
distintas
distintos
distress
distretto
distribucio
distribue
distribui
distribuito
distributed
distribution
distributions
distribuzione
district
districte
districts
distrik
distrikt
distriktet
distrikto
distrito
distritos
disturbed
disyembre
dit
dita
ditch
dite
ditemukan
diterbitkan
diterrane
dites
diteur
diteurs
dition
ditions
dito
ditos
dits
ditu
ditulis
dituzten
diu
div
diva
divadlo
divan
divas
dive
divenne
diventa
diventare
diver
divergence
divers
diversa
diversas
diverse
diverses
diversi
diversification
diversity
diverso
diversos
dives
divi
divide
divided
dividida
divin
divina
divine
diving
divinite
divinity
divino
divisa
divise
divisi
divisie
divisio
division
divisional
divisione
divisions
diviso
divorce
divorced
diwar
diwedd
diweddarwch
dix
dixie
dixit
dixon
diy
diz
dizionario
dizzy
dj
dja
django
dje
djebel
djibouti
djokovic
djurga
djvu
dk
dka
dki
dko
dku
dky
dl
dla
dlaczego
dlatego
dlc
dle
dli
dlich
dliche
dlichen
dll
dlo
dlv
dm
dma
dmitri
dmitry
dn
dna
dnb
dne
dnes
dni
dnia
dniach
dnie
dniu
dno
dns
dnu
dny
do
doa
doan
doanh
doar
dob
doba
dobe
dobio
doble
dobr
dobra
dobre
dobro
dobry
dobrze
dobson
dobu
doby
doc
doce
docent
docente
doch
dochter
dock
docks
docs
docteur
doctor
doctoral
doctorat
doctorate
doctors
doctrina
doctrine
doctrines
document
documenta
documentacio
documentaire
documental
documentary
documentation
documented
documenti
documento
documentos
documents
dod
doda
dodajte
dodał
dodd
dodge
dodgers
dodo
dodson
doe
doel
doen
does
doesn
dog
doge
dogg
dogma
dogs
doha
doherty
doi
doigt
doigts
doine
doing
dois
doit
doivent
dok
doka
dokonaj
dokonc
dokter
doktor
doktora
dokument
dokumenta
dokumentarfilm
dokumentation
dokumente
dol
dola
dolan
dolby
dolce
dole
doli
dolina
doll
dollar
dollari
dollars
dolls
dolly
dolmen
dolni
dolo
dolor
dolore
dolores
dolphin
dolphins
dom
doma
domac
domain
domaine
domaines
domainfalsefalse
domainpublic
domains
domani
dome
domenica
domenico
domesday
domestic
domestica
domestique
domestiques
domi
domicile
domina
dominance
dominant
dominante
dominate
dominated
domination
domine
domingo
domingos
domini
dominic
dominica
dominican
dominicana
dominik
dominika
dominio
dominion
dominique
domino
dominum
dominus
domo
domov
domu
domus
domy
don
dona
donald
donaldson
donar
donat
donated
donatello
donation
donations
donato
donau
donc
doncaster
donde
done
donegal
dones
donetsk
dong
doni
donie
donizetti
donkey
donna
donnait
donnant
donne
donnell
donnelly
donnent
donner
donnie
dono
donor
donovan
dons
donsker
dont
doo
dood
doom
door
doors
dop
dope
dopiero
doping
dopo
doppio
doppler
dopunite
dopuniti
dor
dora
dorado
dorchester
dordogne
dordrecht
dore
dorf
doria
dorian
doris
dorling
dormant
dormir
dorn
dorna
doro
dorothea
dorothy
dorp
dorsal
dorset
dorsey
dort
dorta
dortigen
dortmund
dos
dosa
dose
doses
dosi
dossier
dost
dosta
dostal
doste
dosten
dostupne
dot
dota
dote
dots
dott
dotter
dotycza
dou
doua
douard
double
doubleday
doubles
doubs
doubt
doubts
douce
doucement
douceur
doue
doug
douglas
douglass
douleur
dous
doute
doux
douze
dov
dove
dover
doveva
dovuto
dow
down
downey
downing
download
downloaded
downloads
downs
downtown
dowo
dowy
dowych
doyle
doz
doze
dozen
dozens
dp
dpr
dq
dr
dra
drac
draco
dracula
draft
drafted
drag
draga
dragan
drago
dragoljub
dragon
dragons
drain
drainage
drake
drale
dram
drama
dramas
dramatic
dramatique
dramaturg
drame
dramma
drapeau
draper
draw
drawing
drawings
drawn
draws
draz
dre
dread
dream
dreamer
dreaming
dreams
dreamworks
drei
drept
dresden
dresdner
dress
dresse
dressed
dresser
dressing
dret
drew
dreyer
dreyfus
dri
dric
drie
dried
drift
drill
drilling
drima
drink
drinking
drinks
driscoll
dritte
dritten
dritter
drive
driven
driver
drivers
drives
driving
dro
drodze
drog
droga
drogas
droge
drogi
droit
droite
droits
dromo
drone
drones
drop
dropped
dropping
drops
dros
drosophila
drought
drove
drowned
droz
drs
dru
druce
druck
drug
druga
druge
drugi
drugie
drugiego
drugiej
drugih
drugim
drugo
drugs
druhe
druhu
druhy
druk
drum
drummer
drummond
drums
drunk
drury
drus
druz
drwy
dry
dryden
drz
drzwi
ds
dsb
dsc
dsm
dss
dt
dte
dten
dter
dtirol
dtischen
dtv
du
dua
dual
duan
duane
duarte
duas
dub
dubai
dubbed
dublin
dubna
dubois
dubrovnik
duc
duca
ducati
ducation
duce
duch
ducha
duche
duchess
duchesse
duchy
duck
ducks
duckworth
duction
dud
duda
dude
duden
dudley
due
duel
duen
duero
dues
duet
duff
duffy
dufour
dug
duh
dui
duire
duisburg
duit
duits
duitse
duitsland
duk
duka
duke
dukes
dulce
dull
dum
duma
dumas
dumb
dumbarton
dumbledore
dume
dumont
dun
duna
dunay
dunbar
duncan
duncker
dundee
dune
dunedin
dunes
dung
dungeon
dungeons
dunha
dunham
dunia
dunkerque
dunlop
dunn
dunne
dunque
duo
duomenys
duomo
duos
dupa
dupla
dupont
dupuis
dupuy
duque
duquel
dur
dura
durable
duracio
duran
durand
durango
durant
durante
duras
durata
duration
durban
durch
durchfu
durchgefu
durchmesser
dure
durham
duri
during
duro
durowan
dus
dusk
dust
dustin
dusty
dusun
duszy
dut
dutch
dutchcharts
dute
duties
dutton
duty
duval
duwe
dux
duy
duz
dv
dva
dvb
dvd
dvds
dve
dvi
dvije
dvor
dvou
dw
dwa
dwarf
dwarfs
dwayne
dwelling
dwellings
dwelly
dwest
dwesten
dwestlich
dwie
dwight
dwo
dwyer
dx
dy
dyck
dydd
dyddiad
dye
dyer
dying
dyke
dylan
dym
dyn
dynamic
dynamical
dynamics
dynamite
dynamo
dynastie
dynasties
dynasty
dyntaxa
dyr
dyson
dytiscidae
dz
dza
dze
dzenie
dzi
dzia
działalnos
działania
dzic
dzie
dzieci
dziecie
dziecko
dzieje
dziejo
dzien
dziennik
dziernik
dziernika
dziesia
dziesie
dziewczyna
dzis
dzisiaj
dził
dzkiej
dzs
dztwa
dztwie
dztwo
dzy
død
døde
dı
dır
dıs
dła
dło
długo
długos
dłuz
dɐ
dɔ
də
dən
dɛ
e
ea
eaa
each
eades
eager
eagle
eagles
ealet
eam
ean
ear
earl
earle
earlier
earliest
early
earn
earned
earnest
earning
earnings
earns
ears
earth
earthquake
earthquakes
eas
ease
easier
easily
east
easter
eastern
eastman
easton
eastwood
easy
eat
eaten
eater
eating
eaton
eau
eaux
eb
eba
ebay
ebbe
ebben
ebe
ebelke
eben
ebenda
ebene
ebenfalls
ebenso
eberhard
ebert
ebi
ebird
ebola
ebook
ebrei
ebrill
ebro
ebu
eby
ec
eca
ecc
ecce
eccle
ecclesia
ecclesiae
ecclesiastica
ecclesiastical
ecco
ece
ech
echa
echny
echo
echoes
echt
echte
echter
eci
eck
ecke
eclesia
eclipse
ecm
eco
ecole
ecolo
ecological
ecology
econo
economi
economia
economic
economica
economico
economics
economie
economies
economist
economista
economy
ecosystem
ecosystems
ecs
ecstasy
ecuador
ecw
ed
eda
edad
edat
edda
eddie
eddy
ede
eden
eder
edessa
edevs
edgar
edge
edges
edhe
edi
edic
edicio
ediciones
edicions
edifi
edifici
edificio
edificios
edildi
edilir
edilmis
edilməsi
edinburgh
edir
edisi
edison
edit
edita
editar
edited
edith
editing
editio
edition
editions
edito
editor
editora
editore
editores
editori
editorial
editoriale
editors
editrice
editura
edizione
edizioni
edm
edme
edmond
edmonds
edmondson
edmonton
edmund
edmunds
edn
edna
edni
edo
edoardo
edouard
edp
eds
edt
edu
eduard
eduardo
educac
educacio
educated
education
educational
educator
edvard
edward
edwards
edwin
edytuj
edən
ee
eel
een
eens
eerder
eerdmans
eerst
eerste
eest
eesti
eeuw
ef
efa
efe
efecto
efectos
eff
effect
effective
effectively
effectiveness
effects
effectue
effekt
effet
effets
effetti
effetto
efficace
efficacy
efficiency
efficient
effort
efforts
efi
efl
eft
efter
eftersom
eftir
eg
ega
egan
ege
egen
eger
eget
egg
egger
eggs
egi
egin
egipto
egiten
egitto
egli
eglise
egmont
ego
egon
egy
egye
egyes
egyesu
egyetem
egyha
egyik
egyma
egypt
egypte
egyptian
egyu
eh
ehe
ehefrau
ehemalige
ehemaligen
ehemaliger
ehemals
eher
ehess
ehf
ehir
ehk
ehre
ehren
ehrlich
ei
eia
eid
eiffel
eiga
eigen
eigene
eigenen
eigenschaften
eigensta
eigentlich
eight
eighteen
eighteenth
eighth
eighty
eika
eil
eiland
eile
eileen
eilish
ein
eina
einander
einar
einaudi
eind
einde
eindhoven
eine
einem
einen
einer
eines
einfach
einfluss
einfu
eingefu
eingerichtet
eingeschra
eingesetzt
eingestellt
einheit
einheiten
einige
einigen
einiger
einleitung
einmal
eino
einrichtung
eins
einsa
einsatz
einschließlich
einst
einstein
eintracht
eintrag
einwohner
einwohnern
einwohnerzahl
einwohnerzahlen
einzel
einzelne
einzelnen
einzige
einzigen
eis
eisen
eisenach
eisenbahn
eisenberg
eisenhower
eisernen
eisner
eit
either
eius
eiva
ej
eje
ejecutivo
ejemplo
eji
ejne
ejo
ejus
ek
eka
ekde
eki
ekilde
ekim
ekimi
ekki
ekkor
eklad
ekles
ekman
eko
ekonomi
ekonomicznych
ekonomiko
ekonomiska
eks
eksakto
eksempel
ekstra
el
ela
elaborate
elaine
elan
elas
elastic
elba
elbe
elbow
elde
elden
elder
elderly
elders
eldest
eldorado
ele
eleanor
eleccio
elecciones
eleccions
elect
electa
elected
election
elections
electoral
electra
electric
electrical
electricity
electro
electromagnetic
electron
electronic
electronica
electronics
electrons
elegans
elegant
elegante
elegido
eleic
eleito
eleje
elektra
elektric
elektrik
elektrische
elektro
elektron
elektronik
elem
element
elemental
elementary
elemente
elementen
elementi
elemento
elementos
elements
elena
elenco
eleonora
elephant
elephants
eles
eletto
elevada
elevated
elevation
elevator
eleven
eleventh
elezioni
eleznic
elf
elgar
elgin
eli
elia
elias
elic
elie
eligibility
eligible
elijah
eliminar
eliminate
eliminated
elimination
elin
elina
elio
eliot
elis
elisa
elisabeth
elisabetta
elise
elite
eliteprospects
eliza
elizabeth
elja
eljko
elk
elkaar
elke
ell
ella
ellas
elle
ellement
ellen
eller
elles
elli
ellie
ellington
elliot
elliott
ellis
ellison
ello
ellos
ells
ellsworth
elm
elmar
elmer
elmi
elmo
elno
elo
elon
elongata
elor
elpais
els
elsa
else
elsevier
elsewhere
elsie
elso
elte
eltern
elton
elu
elva
elvira
elvis
ely
elz
em
ema
email
emakume
eman
emancipation
emanuel
emanuele
emas
embargo
embassy
embedded
ember
emble
emblem
emblema
embora
embrace
embraer
embryo
emden
eme
emerald
emerge
emerged
emergence
emergency
emerging
emeritus
emerson
emery
emi
emigration
emil
emile
emilia
emiliano
emilie
emilio
emily
emin
eminem
eminent
emir
emirates
emission
emissions
emle
emli
emma
emmanuel
emmanuelle
emme
emmerich
emmett
emmy
emmys
emo
emory
emot
emotion
emotional
emotions
emp
empat
empate
empe
emperador
empereur
empereurs
emperor
emperors
empezo
emphasis
empire
empires
empirical
emplacement
emplea
emploi
employ
employe
employed
employee
employees
employer
employers
employment
emporis
emporte
emprega
empresa
empresas
empreses
empress
emprunte
empty
ems
emu
emy
en
ena
enable
enabled
enabling
enacted
enam
enc
encara
ence
enceinte
enchai
enchanted
enciclope
enciclopedia
enciklope
enciklopedija
encima
enclave
enclosed
encoding
encontra
encontraba
encontrado
encontrar
encontro
encore
encounter
encountered
encounters
encourage
encouraged
encouragement
encuentra
encuentran
encuentro
encyclopaedia
encyclope
encyclopedia
encyclopedie
encyclopædia
encyklopedia
end
enda
endangered
endast
ende
endeavour
ended
endemic
enden
ender
endete
endgame
endgu
ending
endl
endless
endlich
endnu
endo
endocrinology
endowment
endre
endrik
endrika
endroit
endroits
ends
endurance
endure
enduring
ene
enemies
enemy
energi
energia
energie
energy
enero
eneste
enfance
enfans
enfant
enfants
enfer
enfermedad
enfield
enfin
enforcement
eng
engadget
engage
engaged
engagement
engagements
engaging
engan
enge
engel
engeland
engelbert
engelmann
engels
engelse
engelsk
engelska
engelskspra
enger
engine
engineer
engineering
engineers
engines
engl
england
englanniksi
engler
engleski
englewood
engleza
englisch
englische
englischen
englischer
english
enhance
enhanced
eni
enia
enie
enige
enigma
enih
enim
eniu
enix
enja
enje
enjoy
enjoyed
enju
enka
enke
enkel
enkele
enkelte
enkelvoud
enko
enlace
enlarged
enle
enleve
enlever
enlightenment
enligt
enlisted
enllac
enn
enna
enne
ennek
ennemi
ennemis
ennen
ennes
ennio
eno
enoch
enorme
enormous
enough
enpresa
enpresak
enquanto
enque
enregistre
enric
enrico
enrique
enrolled
ens
ensayo
ense
enseigne
enseignement
ensembl
ensemble
ensembles
ensen
ensi
ensign
ensimma
ensin
ensino
enska
enske
enskog
ensky
ensuite
ensure
ent
enta
entanto
entdeckt
entdeckung
ente
enten
entend
entender
entendre
entendu
entente
enter
entered
entering
enterprise
enterprises
enterre
enters
entertain
entertainer
entertainment
entferne
entfernt
entgegen
entha
enthalten
enthousiasme
enthusiasm
entidad
entidades
entie
entier
entire
entirely
entities
entitled
entity
entlang
ento
entomol
entomologica
entomological
entomologie
entomologique
entomologische
entomologist
entomology
entonces
entorno
entourage
entoure
entra
entrada
entradas
entrai
entrambi
entrance
entrant
entrar
entrare
entre
entrega
entrenador
entrepreneur
entrepreneurs
entrepreneurship
entreprise
entreprises
entrer
entretien
entrevista
entrez
entri
entries
entro
entrou
entry
ents
entscheidung
entsprechend
entspricht
entstand
entstanden
entstehen
entsteht
entstehung
entweder
entwickelt
entwickelte
entwicklung
entwurf
enu
envelope
enveloppe
enver
envers
envi
enviado
enviar
envie
environ
environment
environmental
environments
environnement
environs
envoie
envoy
envoye
envoyer
envy
enw
enwiki
eny
enz
enzim
enzima
enzo
enzyklopa
enzyme
enzymes
eo
eocene
eol
eorum
eos
ep
epa
epe
ephraim
epi
epic
epidemic
epidemiology
epidendrum
episcopal
episcopus
episo
episode
episoden
episodes
episodi
episodio
episodios
epistola
epitaph
epo
epoca
epoch
epos
eps
epsilon
epstein
epub
eq
equal
equality
equally
equation
equations
equatorial
equilibrio
equilibrium
equip
equipe
equipment
equipo
equipos
equipped
equity
equiv
equivalent
equivalente
equus
er
era
erabiltzen
eram
eran
erano
eras
erasmus
erat
erau
erba
erbaut
erbe
erben
erc
ercole
erde
erdo
erdog
ere
erebidae
erected
erectus
eredete
eredeti
eredetibo
eredivisie
eredme
ereignisse
eren
eres
erfahrungen
erfolg
erfolge
erfolgreich
erfolgt
erfolgte
erfu
erfurt
erg
erga
ergebnis
ergebnisse
ergibt
ergo
erha
erhalten
erhard
erhielt
erhielten
erho
erhoben
eri
eric
erica
erich
erick
erickson
ericsson
erie
erik
erika
eriksen
eriksson
erin
erinnert
erinnerung
erinnerungen
eris
erit
eritrea
erka
erkennen
erkla
erla
erlandais
erlangen
erlewine
erling
erma
ermita
ermo
ern
erna
ernannt
erne
ernest
ernesto
erneut
ernie
erno
ernst
erny
ero
eropa
eros
erosion
erotic
erp
err
erre
erreichen
erreicht
erreichte
erreur
erreurs
errichtet
erro
error
errore
errors
ers
ersatz
erscheinen
erscheint
erschien
erschienen
ersetzt
erskine
erst
erste
ersten
erster
erstes
erstmals
erstreckt
ert
eru
eruption
ervence
ervna
erwa
erwarb
erweitert
erweiterte
erwin
erza
erzbischof
erzielte
erzurum
es
esa
esas
esc
esca
escala
escalier
escapar
escape
escaped
escapes
esce
escena
escenario
esch
escherichia
eschmeyer
esclavage
esclave
esclaves
esco
escobar
escoffier
escola
escolar
escolas
escort
escribio
escribir
escrita
escrito
escritor
escritora
escritores
escritos
escritura
esctoday
escu
escude
escudo
escuela
escuelas
escultor
escultura
ese
esempio
esercito
esfera
esforc
esgle
esi
esimerkiksi
esine
esis
esiste
esistenza
eska
eske
eski
esko
eskoslovenske
esku
esky
esmeralda
eso
esos
esp
espac
espace
espaces
espacial
espacio
espacios
espada
espagne
espagnol
espagnole
espagnols
espan
espanha
espanhol
espanya
espanyol
espanyola
espasa
espe
especi
especial
especiales
especialista
especially
especialmente
especie
especies
especta
espectadores
espejo
espera
esperanc
esperanto
esperanza
esperar
esperienza
espi
espinosa
espiritual
espn
espncricinfo
espoir
esporte
esports
esposa
esposito
espresso
esprit
esprits
esq
esquema
esquerda
esquerra
esquire
esri
ess
essa
essai
essais
essas
essay
essays
esse
essen
essence
essendo
essent
essential
essentially
essentials
essentiel
essentiellement
esser
essere
esses
esset
essex
essi
esso
essonne
est
esta
estaba
estaban
establecer
establecio
establish
established
establishing
establishment
estac
estacio
estaciones
estadi
estadio
estado
estados
estadounidense
estadounidenses
estadual
estamos
estan
estancia
estando
estar
estara
estas
estat
estatal
estate
estates
estati
estats
estatua
estatuto
estava
estavam
estaven
este
esteban
esteka
estelle
estende
ester
esterno
estero
estes
esteve
esthe
esther
esti
estil
estilo
estima
estimada
estimate
estimated
estimates
estimation
estimativas
estime
estis
estland
esto
estonia
estonian
estos
estoy
estrada
estrate
estre
estreia
estrela
estrella
estrellas
estrena
estreno
estructura
estrutura
estu
estudi
estudiantes
estudiar
estudio
estudios
estudis
estudo
estudos
estuvo
eswatini
esz
et
eta
etapa
etapas
etappe
etat
etc
etdi
ete
etela
eterna
eternal
eternity
eterno
eth
ethan
ethel
ether
ethernet
ethical
ethics
ethiopia
ethiopian
ethnic
ethnicity
ethnologue
eti
etiam
etienne
etimologi
etimologia
etimologie
etiopia
etiqueta
etiri
etka
etku
etmek
etmis
etna
etne
etnic
etnik
eto
eton
etr
ets
ett
etta
etter
etti
ettore
etu
etude
etudes
etwa
etwas
etxebizitza
etxek
etxetan
etymologia
etymological
etymology
eu
eua
eucalyptus
euch
euge
eugen
eugene
eugenia
eugenio
euler
eum
eun
eunice
euphorbia
euphorbiaceae
eupithecia
eur
eurasia
eurasian
eure
eureka
eurent
euro
eurobasket
eurogamer
eurohockey
euroleague
euronews
europa
europaea
europameisterschaften
europas
europe
europea
european
europeana
europeans
europees
europei
europeo
europeos
europese
europeu
europy
euros
eurosport
eurostat
eurovision
eurovoix
eus
eusebio
eusebius
euskadi
euskal
eussent
eut
eux
ev
eva
evac
evacuation
eval
evaluation
evan
evange
evangelical
evangelion
evangelisch
evangelische
evangelischen
evangelist
evangelista
evans
eve
evel
evelyn
even
evening
event
eventi
evento
eventos
events
eventual
eventually
eventualmente
ever
everest
everett
evergreen
evert
everton
every
everybody
everyday
everyone
everything
everywhere
evi
evic
evidence
evident
evidente
evidently
evil
evit
evita
evitar
evitare
evo
evol
evolucio
evolution
evolutionary
evolve
evolved
evolving
evrope
evropske
ew
ewa
ewald
ewan
ewe
ewen
ewentualnych
ewing
ex
exact
exacte
exactement
exactly
exage
exam
examen
examination
examine
examined
examiner
examining
example
examples
excavation
excavations
exce
exceed
exceeded
excel
excellence
excellent
excelsior
excepcio
except
excepte
exception
exceptional
exceptions
excepto
excerpt
excess
excessive
exchange
excite
excited
excitement
exciting
excluded
excluding
exclusion
exclusivamente
exclusive
exclusively
excuse
exe
execute
executed
execution
executive
executives
exempel
exemplaires
exemplar
exemple
exemples
exemplo
exempt
exerce
exercer
exercice
exercise
exercises
exeter
exhibit
exhibited
exhibition
exhibitions
exhibits
exige
exil
exile
exist
exista
existe
existed
existem
existen
existence
existencia
existent
existente
existentes
existi
existing
exists
exit
exo
exodus
exoplanet
exotic
exp
expand
expanded
expanding
expands
expansio
expansion
expe
expect
expectations
expected
expecting
expedicio
expedition
expeditions
expelled
expenditure
expense
expenses
expensive
experie
experience
experienced
experiences
experiencia
experiment
experimental
experiments
expert
expertise
experts
explain
explained
explaining
explains
explanation
explanatory
explica
explicar
explication
explicit
explique
expliquer
exploit
exploitation
exploitations
exploite
exploits
exploration
explorations
explore
explored
explorer
explorers
explores
exploring
explosion
explosions
explosive
expo
export
exports
expose
exposed
exposicio
exposition
expositions
exposure
expresio
express
expressa
expressed
expressen
expresses
expressing
expression
expressions
expressway
exprime
exprimer
expulsion
ext
extant
exte
extend
extended
extending
extends
extensa
extensio
extension
extensions
extensive
extensively
extent
exterior
exteriores
externa
external
externe
externes
extgroup
extinct
extinction
extra
extract
extraction
extracts
extragalactic
extrait
extran
extraordinaire
extraordinary
extras
extrasolar
extre
extrem
extrema
extremadura
extreme
extremely
extremo
ey
eyck
eye
eyed
eyes
eylu
eyre
ez
eza
ezazu
eze
ezek
ezen
ezna
ezra
ezt
ezu
ezzel
eſt
f
fa
faa
faan
fab
fabaceae
faber
fabia
fabian
fabien
fabio
fable
fables
fabre
fabric
fabrica
fabricacio
fabrication
fabrice
fabricius
fabrik
fabrique
fabrizio
fabulous
fac
facade
faccia
facciata
face
facebook
faced
facendo
facere
faces
faceva
fach
fachada
facial
facile
facilement
facilitate
facilite
facilities
facility
facilmente
facing
facolta
facsimile
fact
facta
factbook
factfinder
faction
factions
facto
factor
factores
factories
factors
factory
facts
factsheet
factum
faculdade
facultad
faculte
faculty
fad
fade
fader
fag
faharoa
fahatelo
fahren
fahrenheit
fahrt
fahrzeuge
fai
faible
faiblesse
fail
failed
failing
fails
failure
failures
faim
faint
fair
fairbanks
fairchild
faire
fairfax
fairfield
fairly
fairmaire
fairy
fais
faisaient
faisait
faisal
faisant
fait
faite
faites
faith
faithful
faits
faixa
faj
fake
fakt
fakta
faktor
faku
fakulta
fakultet
fal
fala
falco
falcon
falcons
fale
falk
falkland
fall
falla
fallait
falle
fallece
fallecio
fallen
falling
fallingrain
fallon
fallout
falls
falsa
false
falsefalse
falso
falta
falu
falun
fam
fama
fame
fameux
fami
famiglia
famiglie
famili
familia
familiak
familial
familian
familiar
familiares
familias
familie
familien
familienname
familier
families
familjebok
familjen
famille
familles
family
familysearch
famine
famitsu
famosa
famoso
famosos
famous
fan
fana
fancy
fand
fandango
fanden
fandom
fane
fanfare
fang
fanno
fanns
fanny
fano
fans
fant
fanta
fantaisie
fantasi
fantasia
fantasma
fantastic
fantastique
fantasy
fanto
fao
faq
far
fara
faraday
farah
farao
farbe
farben
farc
fare
farewell
fargo
fari
faria
farina
faris
farkas
farklı
farley
farm
farmer
farmers
farming
farms
farnese
faro
faroe
farrar
farrell
fars
farsi
farther
farw
fas
fasa
fasc
fascia
fascism
fascismo
fascist
fascista
fase
fases
fashion
fashioned
faso
fasse
fassung
fast
faster
fastest
fasti
fat
fata
fatal
fatale
fate
father
fathers
fatigue
fatih
fatima
fato
fats
fatta
fatti
fatto
fatty
faubourg
fauchald
faudrait
faulkner
fault
fauna
faune
faure
fausse
faust
fausto
faut
faute
fauteuil
faux
faveur
favor
favorable
favorables
favore
favorite
favour
favourite
favre
fawcett
fax
fay
fayard
faye
fayette
faz
faza
faze
fazer
fazla
fb
fbi
fbref
fc
fcc
fd
fda
fdp
fe
fea
fear
feared
fearless
fears
feast
feat
feather
feathers
feature
featured
features
featuring
feb
febbraio
febrer
febrero
februa
februar
februari
februarie
february
fece
fecha
fecit
fecture
fed
fede
feder
federa
federac
federacio
federal
federale
federation
federazione
federer
federico
fedora
fee
feed
feedback
feeding
feeds
feel
feeling
feelings
feels
fees
feet
feghi
fehe
fehlen
fehlt
fei
feil
feira
feit
feita
feito
fej
feje
fekete
fel
fela
feld
felder
feldman
fele
felese
felice
felicia
felicita
felicity
felipe
felis
felix
feliz
fell
feller
fellini
fellow
fellows
fellowship
felso
felt
felu
fem
female
females
femeni
femenina
femenino
femina
feminina
feminine
feminino
femininum
feminism
feminist
feminista
femme
femmes
femminile
fen
fence
fencing
fend
fender
fendre
fene
fenerbahc
feng
fenn
feno
fenomen
fenomeno
fense
fenster
fenton
fer
fera
ferait
ferdinand
ferdinando
fere
ferenc
fergus
ferguson
feria
ferma
fermat
ferme
fermentation
fermi
fermo
fern
ferna
fernand
fernanda
fernandes
fernandez
fernando
ferner
ferns
fernsehen
fernsehfilm
fernsehserie
fero
feros
ferran
ferrand
ferrara
ferrari
ferraris
ferre
ferreira
ferrer
ferrero
ferri
ferrie
ferries
ferris
ferro
ferrocarril
ferrovia
ferroviaire
ferroviaria
ferry
fers
fertile
fertility
fes
fest
festa
feste
festen
festival
festivals
festo
festschrift
festuca
festung
fet
fetal
fett
feu
feud
feudal
feuer
feuille
feuilles
feuillet
feux
fever
fevereiro
fevral
few
fewer
feyenoord
feynman
fez
ff
ffa
ffentlich
ffentliche
ffentlichen
ffentlichkeit
ffentlicht
ffentlichte
ffentlichung
ffentlichungen
ffer
fff
ffilm
ffilmiau
ffilmio
ffnet
ffnete
ffnung
fg
fh
fi
fia
fiance
fianco
fiat
fiba
fiber
fibra
fibre
fibres
fic
fica
ficamente
ficas
ficcio
fice
ficha
fiche
ficheiros
fiches
fichier
fick
fico
ficos
ficou
fiction
fictional
ficus
fide
fidei
fidel
fidelity
fides
fie
fief
fiel
field
fielding
fields
fiendrika
fier
fiera
fierce
fieri
fierro
fiesta
fiestas
fifa
fife
fifteen
fifteenth
fifth
fifty
fig
figaro
figc
fight
fighter
fighters
fighting
fights
figli
figlia
figlio
figs
figueroa
figur
figura
figuras
figure
figuren
figures
figuur
fiind
fiji
fik
fikk
fil
fila
filadelfia
filaza
file
filed
filem
filer
files
filha
filho
filhos
fili
filia
filial
filiale
filii
filing
filip
filipa
filipe
filipina
filipinas
filipino
filippo
filius
filiz
fill
filla
fille
filled
filles
filling
fillmore
fills
film
filma
filmaffinity
filmdatabas
filme
filmed
filmen
filmer
filmes
filmfare
filmi
filming
filmmaker
filmmakers
filmo
filmographiques
filmography
filmova
filmportal
films
filmu
filmweb
filmy
filnedladdningstja
filo
filoso
filosofi
filosofia
filosofie
filosofo
filozof
fils
filter
filum
fim
fimi
fin
fina
final
finala
finale
finalement
finalen
finales
finali
finalist
finalista
finaliste
finalists
finally
finalment
finalmente
finals
financ
finance
finances
financial
financie
financier
financing
finch
find
findagrave
finden
finder
findes
findet
finding
findings
finds
fine
fines
finest
finestra
finger
fingers
fini
finie
finir
finis
finish
finished
finishes
finishing
finiste
finit
finita
finite
finition
finitivement
fink
finla
finland
finlande
finlandia
finlands
finlay
finlayson
finley
finn
finna
finnes
finnish
finnland
finnmark
finns
fino
fins
finska
fio
fiona
fiore
fiorentina
fiorentino
fiori
fir
fire
firearms
fired
firefly
firefox
firent
firenze
fires
firing
firm
firma
firme
firmin
firmly
firmo
firms
firmy
first
firth
fis
fiscal
fiscaux
fisch
fischer
fish
fishbase
fisher
fisheries
fishery
fishes
fishing
fisica
fisico
fisk
fiske
fist
fit
fitch
fitness
fits
fitted
fitting
fitxa
fitz
fitzgerald
fitzpatrick
fitzroy
fiu
fiume
fivb
five
fix
fixa
fixation
fixe
fixed
fixer
fixes
fixing
fixtures
fiz
fizika
fj
fja
fjo
fjord
fjordane
fk
fl
fla
flag
flags
flagship
flaherty
flair
flak
flame
flamenco
flamengo
flames
flaming
flamingo
flammarion
flamme
flanagan
flanders
flandre
flash
flashback
flat
flats
flaubert
flava
flavia
flavio
flavius
flavor
fle
fled
flee
fleet
fleetwood
fleischer
fleming
flemish
flensburg
fler
flera
flere
flertall
flesh
fleste
fletcher
fleur
fleurs
fleury
fleuve
flew
flex
flexible
flexion
flexions
flick
flickr
flies
fließt
flight
flightglobal
flights
flinders
flint
flip
flixster
flo
float
floating
flock
flood
flooding
floods
floor
floors
flor
flora
floral
flore
florence
florencia
florent
florenz
flores
floresta
florian
florida
florin
flota
flotta
flotte
flour
flow
flower
flowering
flowers
flowing
flown
flows
floyd
flu
flucht
flughafen
fluid
fluminense
fluss
flute
fluvial
flux
flwyddyn
fly
flyer
flyers
flying
flynn
fm
fn
fo
foar
foarte
foc
focal
foco
focus
focused
focuses
focusing
fod
foe
fog
foggia
fogo
foi
fois
foix
fok
fokker
fokus
fol
fold
folding
foley
folge
folgen
folgende
folgenden
folgender
folgt
folgte
folgten
folha
folia
folie
folio
folk
folklore
folkma
folks
folle
follow
followed
followers
following
follows
folly
fols
folyo
fon
fonction
fonctionnement
fonctions
fond
fonda
fondamentale
fondata
fondateur
fondation
fondazione
fonde
fondi
fondo
fondos
fonds
fondu
fone
fong
foniche
fono
fons
fonseca
font
fontaine
fontainebleau
fontaines
fontana
fontane
fonte
fontenay
fontes
fonti
fonts
foo
food
foods
fool
foolish
fools
foot
footage
football
footballdatabase
footballer
footballers
footballeur
footballfacts
footnote
footsteps
for
fora
forall
foram
foran
forbes
forbidden
forbindelse
forc
force
forced
forces
forcing
ford
fordham
fordi
fore
forecast
foreign
foreigners
forel
foreløpig
foreman
foren
forensic
forest
foresta
forestie
forestry
forests
forever
foreword
forfatter
forge
forges
forget
forgive
forgot
forgotten
forhold
fork
forks
forlag
forli
form
forma
formac
formacio
formada
formado
formal
formally
formalmente
forman
formando
formant
formar
formas
format
formata
formate
formation
formations
formato
formats
formazione
forme
formed
formel
formen
forment
former
formerly
formes
formica
formicidae
formidable
forming
formo
formosa
forms
formula
formule
formy
foro
foron
forra
forrest
fors
forschung
forschungen
forse
forskjellige
forskning
forst
forster
forsyth
fort
fortaleza
forte
fortement
fortemente
forteresse
fortes
forth
forti
fortifications
fortis
fortress
forts
fortsatte
fortschreibung
fortsetzung
fortuna
fortunato
fortune
fortunes
forty
forum
forums
forward
forza
forze
fos
foss
fossa
fosse
fossero
fossil
fossils
fossilworks
fost
foster
fotbal
fotball
fotboll
foto
fotogra
fotograf
fotografi
fotografia
fotografie
fotos
fou
foucault
fought
foul
foule
found
foundation
foundations
founded
founder
founders
founding
fountain
four
fourier
fournier
fournir
fournon
fourteen
fourteenth
fourth
fowler
fox
foy
foyer
fp
fps
fq
fr
fra
frac
fraction
fracture
frage
fragen
fragile
fragment
fragmente
fragments
frai
frais
fraktion
fram
frame
framed
frames
framework
framfo
framra
fran
franc
franca
france
frances
francesa
francesc
francesca
francesco
francese
franceses
francesi
franche
franchi
franchise
franchises
francia
franciaorsza
francie
francine
francis
francisca
francisco
franciscus
franciszek
francji
franck
franco
francois
francophone
francouzsky
francs
francu
francuska
francuske
francuski
frank
franke
franken
frankenstein
frankfurt
frankfurter
frankie
franklin
franko
frankreich
frankrijk
frankrike
franks
frans
fransa
franse
fransk
franska
franske
fransız
frant
frantis
frantsay
frantsesez
frantz
frantziako
franz
franziska
franzo
frappe
frasa
frase
fraser
frases
fratelli
fratello
frater
fraternity
frattempo
frau
fraud
fraude
frauen
fray
fraza
frazeologiczne
frazer
frazier
frazione
fre
freak
frecuencia
fred
freda
freddie
freddy
frederic
frederick
frederico
frederik
fredrik
free
freebase
freebsd
freed
freedman
freedom
freely
freeman
freestyle
freeway
freeze
freguesia
frei
freiburg
freie
freien
freier
freight
freiheit
freiherr
freire
freitag
freitas
frem
fremont
french
frente
frequ
frequencies
frequency
frequent
frequentemente
frequently
fresco
fresh
freshman
freshwater
fresno
freud
freude
freund
freunde
freundschaft
frew
frey
fri
fria
fribourg
frica
frick
fricke
friction
frida
friday
fried
frieden
friederike
friedhof
friedman
friedrich
friend
friendly
friends
friendship
fries
friese
friesland
frigate
frinchaboy
fringe
frisch
fritsch
fritz
friuli
fro
froese
frog
frogs
froid
froide
from
front
frontal
fronte
fronteira
frontera
frontie
frontier
frontiers
frontline
frontman
fronto
fronts
frosinone
frost
frozen
frs
fru
fruit
fruits
fruto
frutos
fry
frye
fs
ft
fte
ften
ftigt
ftp
ftsfu
fu
fuchs
fuck
fucking
fue
fuego
fuel
fuels
fuente
fuentes
fuera
fueron
fuerte
fuertes
fuerza
fuerzas
fuga
fugie
fugitive
fuhr
fui
fuit
fuite
fuji
fujian
fujiwara
fukuoka
fukushima
fulda
fulham
full
fuller
fully
fulton
fume
fun
func
funcio
funciona
funciones
funct
function
functional
functioning
functions
fund
funda
fundac
fundacio
fundada
fundado
fundador
fundamental
fundamentals
fundar
funde
funded
funding
fundo
funds
fune
funeral
fung
fungal
fungi
fungorum
fungus
funk
funkcje
funktion
funktionen
funky
funny
funzione
funzioni
fuoco
fuori
fur
furent
furia
furious
furnace
furnished
furniture
furono
furtado
further
furthermore
fury
fus
fusca
fuse
fusil
fusio
fusion
fussballdaten
fussent
fusu
fut
futbol
futbolista
futbolo
futebol
futon
futsal
futur
futura
future
futures
futuro
fuzzy
fuß
fußball
fußballspieler
fv
fw
fwyaf
fx
fy
fylke
fyra
fyrir
fz
født
følgende
før
først
første
førte
fɔ
fɛɐ
g
ga
gaa
gaan
gaat
gab
gaba
gabe
gabinete
gable
gabon
gabriel
gabriela
gabriele
gabriella
gabrielle
gabrielli
gaby
gac
gad
gada
gadang
gaddafi
gade
gado
gae
gael
gaelic
gaetano
gaf
gaffiot
gag
gaga
gagarin
gage
gagne
gagner
gai
gaia
gail
gaillard
gain
gained
gaines
gainesville
gaining
gains
gais
gaius
gaja
gal
gala
galactic
galat
galatasaray
galaxia
galaxie
galaxies
galaxy
galbraith
gale
galega
galego
galement
galen
galeri
galeria
galerie
galeries
gales
galex
gali
galicia
galilei
galileo
galina
galite
galium
gall
gallagher
gallant
gallardo
galle
gallego
gallegos
gallen
galleria
galleries
gallery
galles
galli
gallia
gallica
gallimard
gallipoli
gallo
galloway
gallup
gallus
galo
galt
galva
galveston
galway
gam
gama
gamasutra
gamay
gamba
gambar
gambia
gambit
gamble
gambling
game
gamecube
gameplay
gamer
gamerankings
games
gamespot
gamespy
gamesradar
gaming
gamla
gamle
gamma
gammel
gan
gana
ganado
ganador
ganar
gand
ganda
gandhi
gane
gang
ganga
gange
ganges
gangs
gangster
ganhou
gano
gans
ganska
ganske
gansu
gant
gantikanlah
ganwyd
ganz
ganze
ganzen
gao
gaon
gap
gar
gara
garage
garanti
garantir
garay
garbage
garc
garci
garcia
gard
garda
garde
garden
gardener
gardens
garder
gardes
gardien
gardiner
gardner
gare
gares
gareth
garfield
gari
garibaldi
garis
garland
garmisch
garner
garnett
garnier
garnison
garo
garonne
garrett
garrido
garrison
garros
garry
gars
garten
garth
gary
garza
gas
gases
gasoline
gaspar
gaspard
gast
gasto
gaston
gastropoda
gat
gata
gate
gates
gateway
gather
gathered
gathering
gation
gato
gatos
gatto
gattung
gattungen
gatunek
gatunko
gau
gauche
gaudi
gauge
gauguin
gaul
gaule
gaulle
gaulois
gaur
gauss
gauthier
gautier
gav
gave
gavin
gay
gaya
gaye
gayle
gays
gaz
gaza
gazdasa
gaze
gazeta
gazette
gazetteer
gazi
gazzetta
gb
gba
gban
gbar
gbe
gbif
gbo
gc
gcatholic
gcc
gd
gdan
gde
gdje
gdp
gdy
gdyby
gdynia
gdyz
gdzie
ge
gea
gear
gears
geb
geba
gebaseerd
gebaut
geben
gebied
gebiet
gebiete
gebieten
gebietsstand
gebildet
geboren
gebouw
gebouwd
gebracht
gebrauch
gebruik
gebruikt
gebu
geburt
geburtstag
gec
gecko
geda
gedanken
gede
gedicht
gedichte
gedurende
gee
geeft
geek
geen
geer
gees
gefa
gefahr
gefu
gefunden
gegeben
gegen
gegend
gegensatz
gegenu
gegenwa
gegenwart
gegner
gegru
gehalten
geheel
gehen
geho
gehouden
geht
gei
geiger
geimba
geist
geistlicher
gek
gekommen
gel
gela
gelang
gelar
gelb
geld
geldig
gele
gelegen
gelegenen
gelegentlich
gelen
gelis
geln
gelo
gelten
geluid
gem
gema
gemaakt
gemacht
gemeente
gemeenten
gemeinde
gemeinden
gemeindeverzeichnis
gemeinsam
gemeinsame
gemeinsamen
gemeinschaft
gemini
gemischten
gemma
gems
gemu
gen
gena
genannt
genannten
genas
genau
genc
gendarmerie
gende
gender
gendes
gene
genealogia
genealogical
genealogie
genealogy
geneastar
genel
gener
genera
generaal
generacio
general
generale
generales
generali
generalitat
generalized
generalleutnant
generally
generalmajor
generalmente
generals
generate
generated
generating
generation
generations
generator
generał
genere
generic
generis
genero
generoko
generous
genes
genesis
genet
genetic
genetics
geneva
genevie
genf
geni
genie
genio
genis
genital
genitiv
genitive
genitori
genius
gennaio
gennaro
geno
genoa
genocide
genoemd
genom
genome
genomes
genomic
genomics
genommen
genomsnitt
genomsnittlig
genoux
genova
genovese
genre
genres
gens
gent
gente
gentes
gentil
gentile
gentle
gentleman
gentlemen
gently
gentry
genu
genug
genuine
genus
genutzt
geo
geoff
geoffrey
geoffroy
geogr
geogra
geografi
geografia
geograficzny
geografie
geografikum
geographic
geographical
geographie
geographische
geography
geolo
geologic
geological
geologie
geology
geometria
geometric
geometridae
geometrie
geometry
geonames
geonet
geophysical
geoportal
georg
george
georges
georgetown
georgi
georgia
georgian
georgie
georgina
georgios
geospatial
geplant
gepra
gepru
gepubliceerd
geq
ger
gera
geraadpleegd
gerade
gerais
geral
gerald
geraldine
geralmente
geranium
gerard
gerardo
gerber
gerc
gerd
gerda
gere
gereja
gerhard
geri
gericht
gerlach
gerlista
germ
germa
germain
germaine
german
germana
germane
germania
germaniae
germanic
germano
germans
germany
germplasm
gern
gero
gerrit
gerry
gers
gershwin
gert
gertrud
gertrude
gertsch
geru
gerund
gerundivums
gervais
ges
gesa
gesamte
gesamten
gesang
gescha
geschaffen
geschichte
geschichten
geschiedenis
geschlecht
geschlossen
geschreven
geschrieben
geschu
gesehen
gesellschaft
gesetz
gesetzt
gesicht
geslacht
gespeeld
gespielt
gespra
gest
gesta
gestalt
gestaltung
gestapo
geste
gestellt
gestio
gestion
gestione
gesto
gestorben
gesu
gesundheit
get
geta
geto
getroffen
gets
getting
getty
gettysburg
geval
geven
gevolg
gewa
gewalt
gewann
geweest
gewesen
gewicht
gewinnen
gewo
gewone
gewonnen
geworden
gewu
geza
gezeigt
gezien
gf
gfdl
gfk
gg
gga
gge
gh
gha
ghana
ghar
ghe
gheorghe
ghetto
ghezzi
ghi
ghiaccio
gho
ghosh
ghost
ghosts
ghz
gi
gia
giacomo
giai
giallo
gian
giancarlo
gianfranco
giang
gianluca
gianni
giant
giants
giao
giappone
giapponese
giardino
gibb
gibbon
gibbons
gibbs
gibi
gibraltar
gibson
gibt
gic
gica
gicas
gick
gico
gicos
gide
gideon
gie
gien
gienne
gier
gies
gießen
gif
gifford
gift
gifted
gifts
gifu
gig
giga
gigante
gigantea
gigas
gigi
giglio
gihabogon
gihapon
gihatagan
gihulagway
giiniton
gijo
gik
gikan
gikk
gikopiya
gikuha
gil
gila
gilapdon
gilay
gilbert
gilberto
giles
gill
gilles
gillespie
gillian
gillis
gilman
gilmore
gilmour
gilt
gim
gime
gimen
giment
gimme
gimna
gin
gina
ginas
gine
ging
gingen
ginger
ginhatag
ginhulagway
gini
ginkuha
ginn
gino
gintang
gio
giocato
giocatore
giocatori
giochi
gioco
gioia
gion
gional
gionale
gionales
gions
giordano
giorgi
giorgio
giornale
giornalista
giornata
giorni
giorno
gios
giotto
giovane
giovani
giovanna
giovanni
gir
gira
girard
girardi
giraud
girault
giri
giris
girl
girlfriend
girls
giro
girolamo
girona
gironde
girone
giroux
gis
gisa
gisela
gislatives
git
gita
gitar
gitara
gitas
github
gitime
giu
giudice
giugno
giulia
giuliano
giulio
giuseppe
giustizia
giusto
give
given
gives
giving
giza
gizis
gizon
gj
gjennom
gjerde
gjorde
gjort
gk
gks
gl
gla
glabra
glace
glacial
glacier
glaciers
glad
gladiator
gladstone
gladys
glagola
glam
glamour
glance
gland
glas
glaser
glasgow
glass
glasses
glaube
glauben
glava
glavni
gle
gleason
glee
gleich
gleiche
gleichen
gleichnamigen
gleichzeitig
glement
glen
glendale
glenn
gler
gles
gli
glich
gliche
glichen
glicherweise
glichkeit
glichkeiten
glise
glises
glo
global
globale
globalization
globally
globalsecurity
globe
globes
globo
globoesporte
globus
gloire
gloria
glorious
glory
glossary
glottolog
gloucester
gloucestershire
glover
glow
glu
gluck
glucose
gm
gma
gmail
gmbh
gmelin
gmin
gmina
gmine
gminie
gminy
gmt
gmu
gn
gna
gnd
gne
gner
gnes
gnie
gnis
gno
gnome
gnu
go
goa
goal
goalkeeper
goals
goat
gob
gobernador
gobierno
goblin
god
goda
godard
goddard
goddess
gode
godfather
godfrey
godina
godine
godis
godoy
gods
godt
godwin
godzilla
godziny
goe
goebbels
goed
goede
goes
goethe
goff
gogh
goi
goia
goin
going
goire
gok
goku
gol
gola
golan
golau
gold
goldberg
golden
goldene
goldenen
goldman
goldsmith
goldstein
goldwyn
gole
goleki
golem
goles
golf
golfe
golfo
goli
goliath
golo
golpe
gols
goma
gomes
gomez
gon
gonc
gone
gong
gonna
gontcho
gonza
gonzaga
gonzales
gonzalez
gonzalo
goo
good
goodbye
goode
goodman
goodness
goodreads
goods
goodwin
google
goose
gop
gor
gora
goran
gordo
gordon
gore
gorge
gorges
gori
gorica
gorie
gories
gorilla
gorizia
gorman
gornji
goro
gory
gos
gospel
gospels
gospod
gosse
gossip
got
goth
gotha
gotham
gothic
gotland
goto
gotovo
gott
gotta
gottes
gottfried
gotthard
gottlieb
gottlob
gou
goud
gouden
gough
gould
goulding
gouv
gouvernement
gouvernements
gouverneur
gov
govaerts
govern
governador
governance
governed
governing
government
governmental
governments
governo
governor
governorate
governors
govine
govora
govori
govpubs
govt
gower
goya
gozo
gp
gpl
gps
gpu
gq
gr
gra
graaf
grab
grabar
graben
grac
grace
gracia
gracias
gracie
graciela
gracilis
grad
grada
grade
grader
grades
gradi
gradient
grado
gradova
gradu
gradual
gradually
graduate
graduated
graduates
graduating
graduation
grady
graeme
graf
grafen
graff
graffiti
grafia
grafica
grafik
grafo
grafschaft
grafton
graham
grain
grains
graja
gral
gram
grama
grammaire
grammar
grammatical
grammatik
grammatische
grammy
gran
grana
granada
grand
granda
grande
grandes
grandeur
grandfather
grandi
grandis
grandmother
grands
grandson
grange
granger
granic
granica
granice
granicy
granit
granite
granja
grano
grans
grant
granted
granting
grants
granville
grao
grape
grapes
graph
graphic
graphics
graphie
graphs
gras
grass
grasse
grasset
grasshopper
grassi
grateful
gratia
gratis
gratitude
grau
graubu
grav
grava
grave
gravel
graven
graves
graveyard
gravi
gravitation
gravitational
gravity
gravure
gray
grayson
graz
grazia
graziano
grazie
grc
gre
great
greater
greatest
greatly
greatness
grec
greca
greci
grecia
greco
grecque
grecs
greece
greek
greeks
green
greenberg
greene
greenfield
greenhouse
greenland
greenpeace
greens
greenville
greenwich
greenwood
greer
greg
grega
gregg
grego
gregor
gregorian
gregorio
gregorius
gregory
greifswald
grein
gren
grenada
grenade
grenadier
grenier
grenoble
grens
grenze
grenzen
gres
greta
gretchen
grete
greve
grew
grey
greyhound
gri
grid
griechenland
griechisch
griechische
griechischen
grief
griego
griff
griffin
griffith
griffiths
grill
grille
grillo
grim
grimaldi
grimes
grimm
grin
grind
grip
gris
griswold
gro
grob
groep
gromady
grond
groningen
groom
groot
grootste
groove
gros
gross
grossa
grosse
grosser
grosses
grosseto
grossi
grossman
grosso
grote
grotte
ground
grounds
group
groupe
groupes
groups
grove
grover
groves
grow
growing
grown
grows
growth
groz
groß
großbritannien
große
großen
großer
großes
grs
gru
grub
grube
gruber
grudnia
grumman
grund
grundlage
grundlagen
grundsa
grundstu
grunge
grunn
grup
grupa
grupe
grupo
grupos
grupp
gruppe
gruppen
gruppi
gruppo
grupu
grupy
grus
gruyter
gry
grzegorz
gs
gsfc
gsi
gsm
gst
gsta
gt
gta
gte
gten
gtk
gto
gu
gua
guadalajara
guadalcanal
guadalupe
guadeloupe
guam
guan
guanajuato
guangdong
guangtun
guangxi
guangzhou
guanyar
guarani
guarantee
guaranteed
guard
guarda
guardia
guardian
guardians
guards
guas
guatemala
guayaquil
gucci
gud
gudrun
gue
guernsey
guerra
guerras
guerre
guerrero
guerres
guerrilla
gues
guess
guest
guests
guetta
guevara
guez
guggenheim
guglielmo
gui
guia
guiana
guicciardini
guida
guidance
guide
guided
guidelines
guides
guido
guila
guild
guilford
guilherme
guillaume
guillermo
guilt
guilty
guimara
guin
guine
guinea
guinness
guise
guitar
guitare
guitarist
guitarra
guitarrista
guitars
guizhou
gujarat
gujarati
gul
gula
gulch
guld
gulden
gulf
gulie
gull
gum
gun
gundam
gung
gunn
gunnar
guns
gunter
gunther
gunung
guo
gupta
gur
gura
gurney
guru
gus
gust
gusta
gustaf
gustafsson
gustav
gustave
gustavo
gusti
gusto
gut
gute
guten
gutenberg
guter
guthrie
gutie
gutierrez
guy
guyana
guyane
guys
guzma
gv
gw
gwaith
gwefan
gweld
gwen
gwillim
gwoyeu
gwyn
gwynedd
gx
gy
gya
gyda
gye
gyhoeddwyd
gyi
gyldendal
gym
gymnasium
gymnastics
gynhyrchwyd
gynnwys
gyo
gypsy
gypte
gypten
gyu
gyula
gyvenamosios
gyventojai
gyventoju
gz
gł
głe
gło
głos
głosem
głowa
głowe
głowy
h
ha
haag
haakon
haan
haaptacteuren
haar
haaretz
haarlem
haas
hab
habagat
habagatan
habagatang
habana
habe
haben
haber
habere
habet
habi
habib
habilitation
habit
habita
habitable
habitacio
habitant
habitante
habitantes
habitants
habitat
habitatge
habitatges
habitation
habitats
habite
habits
habitual
habitude
habla
hablar
habri
habsburg
hac
hace
hacen
hacer
hachette
haci
hacia
hacienda
haciendo
hack
hacker
hackett
hacking
had
hada
haddad
hadde
hadden
hade
hades
hadi
hadith
hadley
hadton
hadz
hae
haec
hafa
hafen
haft
hag
haga
hagan
hagen
haggard
hague
hahn
hai
haifa
haig
hail
haile
hain
hainan
hainaut
haine
haines
hair
haiti
hajdu
hajduk
haji
hajo
hak
haka
hakim
hakka
hakkında
hal
hala
halaman
halbfinale
halbinsel
hale
halen
haley
half
halfway
hali
halifax
halk
hall
halla
hallan
halle
haller
halley
halliday
hallo
halloween
halls
halo
hals
halsey
halt
halte
halten
halve
ham
hama
hamar
hamas
hamburg
hamburger
hameau
hamid
hamilton
hamish
hamlet
hamm
hammer
hammersmith
hammond
hampshire
hampson
hampton
hamza
han
hana
hanau
hanc
hancinema
hancock
hand
handball
handbook
handbuch
handed
handel
handeln
handelt
handen
handicap
handle
handled
handler
handling
handlung
hands
handsome
handy
hane
hanem
hang
hangar
hangeul
hanging
hangul
hangzhou
hani
hanja
hank
hanks
hanley
hann
hanna
hannah
hannes
hannibal
hanno
hannover
hanns
hannu
hanoi
hanover
hans
hansa
hansard
hansen
hanson
hansson
hanya
hanyu
hao
hap
hapit
hapoel
hapon
happen
happened
happening
happens
happiness
happy
haqqında
har
hara
harald
haram
harare
harassment
harbin
harbor
harbour
harcourt
hard
hardcore
hardcover
harden
harder
hardin
harding
hardly
hardware
hardy
hare
harem
haren
hari
harian
harlan
harlem
harley
harlow
harm
harmadik
harman
harmattan
harmon
harmonia
harmonic
harmonie
harmony
harms
haro
harold
harp
harper
harpercollins
harrassowitz
harri
harriet
harrington
harris
harrisburg
harrison
harrow
harry
harsh
hart
harta
harte
hartford
hartley
hartman
hartmann
hartmut
harus
harv
harvard
harvest
harvey
harvnb
harwood
haryana
harz
has
hasan
hasard
haseł
hash
hashimoto
hasi
hasil
haskell
hasonlo
hassan
hasse
hassler
hast
hasta
haste
hastings
haszna
hasło
hat
hata
hatch
hate
hatfield
hath
hathaway
hati
hato
hatred
hats
hatt
hatta
hatte
hatten
hau
haul
haunted
haupt
hauptartikel
hauptbahnhof
hauptmann
hauptsa
hauptsatzkonjugation
hauptstadt
haus
hause
hauser
hauses
haut
haute
hautes
hauteur
hauts
hautsitako
hava
havana
havas
havde
have
havel
haven
haver
havet
havi
havia
havien
havilland
having
havis
havre
haw
hawa
hawai
hawaii
hawaiian
hawk
hawke
hawker
hawkes
hawking
hawkins
hawks
hawley
haworth
hawthorn
hawthorne
hay
haya
hayashi
hayat
hayden
haydn
haye
hayek
hayes
hayley
haymarket
haynes
hayop
hays
hayward
haz
haza
hazard
hazards
haze
hazel
haziran
hb
hbar
hbo
hc
hcl
hd
hde
hdi
hdl
he
head
headed
header
heading
headline
headlines
headquarters
heads
heal
healing
health
healthcare
healthy
healy
heap
hear
heard
hearing
hearst
heart
heartbreak
hearted
hearts
hearty
heat
heath
heather
heating
heats
heaven
heavenly
heavens
heavily
heavy
heavyweight
heb
hebben
hebdo
hebei
hebra
hebrew
hebron
hec
hecho
hechos
hecht
heck
hecta
hectare
hectares
hector
hed
hedge
hedgehog
hedges
hedmark
hedwig
hee
heeft
heel
heels
heer
heet
heft
hegel
hei
heida
heide
heidegger
heidelberg
heidi
height
heights
heijmans
heike
heikki
heil
heilbronn
heilig
heilige
heiligen
heim
heimat
hein
heina
heine
heineken
heinemann
heinrich
heinrichs
heinz
heir
heiratete
heirs
heist
heißt
hej
hektar
hel
hela
held
helden
hele
helen
helena
helene
helfen
helga
helge
heli
helicopter
helicopters
helikopter
helio
helios
helium
helix
hell
hella
hellas
helle
hellenic
hellenistic
heller
hello
helm
helmet
helmut
helmuth
help
helped
helping
helps
helsingfors
helsingin
helsinki
helt
hely
helye
hem
hemeroteca
hemiboreal
hemingway
hemiptera
hemisphere
hemmin
hen
henan
hence
hende
henderson
hendes
hendricks
hendrik
hendrix
henk
henkilo
henley
henne
hennes
hennessy
henning
henri
henrietta
henriette
henrik
henrique
henry
henryk
henson
henta
hentet
hep
hepatitis
hepburn
her
hera
herald
heraldry
heraus
herausgeber
herausgegeben
herb
herba
herbarium
herbe
herbert
herbie
herbst
herceg
hercegovina
hercegovine
hercegovini
hercule
hercules
herd
herder
here
herec
heredia
hereditary
hereford
heren
hergestellt
hering
heritage
herkunft
herman
hermana
hermanas
hermann
hermano
hermanos
herme
hermes
hermione
hermitage
hermosa
herna
hernandez
hernando
hero
herodes
herodotus
heroes
heroi
heroic
heroin
heroine
heron
herr
herre
herren
herrera
herri
herring
herrmann
herrn
herrschaft
hers
herschel
herself
hersteller
herstellung
hertfordshire
hertha
hertug
hertz
herve
hervor
herz
herze
herzegovina
herzen
herzog
herzogtum
hes
heslo
hess
hesse
hessen
hessischen
hester
het
heteroptera
hett
heure
heures
heureuse
heureux
heute
heutige
heutigen
hewitt
hewlett
hex
hey
heyne
heywood
hez
hezbollah
hf
hg
hh
hi
hia
hiatus
hibiscus
hic
hicieron
hickman
hicks
hicule
hicules
hid
hidalgo
hidden
hide
hiding
hidro
hidup
hie
hielt
hier
hieracium
hierarchy
hierbei
hierdie
hieronymus
hierro
hieß
hifenacija
hig
higgins
higgs
high
higher
highest
highland
highlands
highlight
highlights
highly
highway
highways
higkeit
hii
hij
hija
hijo
hijos
hiking
hil
hilabihan
hilaire
hilal
hilary
hilbert
hilda
hilde
hildebrand
hildegard
hildesheim
hilfe
hill
hillary
hiller
hilliard
hills
hilton
him
himalaya
himalayan
himmel
himmler
himno
himself
hin
hina
hinaus
hind
hindenburg
hindi
hindu
hinduism
hindus
hindustan
hine
hines
hing
hingegen
hingga
hini
hino
hint
hinter
hintergrund
hinton
hints
hinweis
hinzu
hiong
hip
hiperonimy
hipo
hiponimy
hipparcos
hippolyte
hir
hira
hiragana
hiram
hire
hired
hiro
hiroshi
hiroshima
hirsch
hiru
his
hispa
hispana
hispania
hispanic
hispaniola
hispano
hist
histo
histoire
histoires
historia
historiador
historiadores
historiae
historial
historian
historians
historias
historic
historica
historical
historically
historicky
historico
historie
historien
historiens
histories
historii
historik
historiker
historiography
historique
historiques
historisch
historische
historischen
historischer
historisches
historisk
history
hiszpan
hit
hita
hitam
hitchcock
hitherto
hitler
hitlers
hitman
hitparade
hits
hitting
hitz
hiu
hiv
hivatal
hivatalos
hiver
hizo
hj
hja
hjahr
hjalmar
hjelp
hjelpe
hjem
hjemmeside
hk
hko
hl
hla
hlau
hlavne
hlavni
hle
hlen
hler
hli
hlich
hling
hlm
hlt
hlte
hlten
hlung
hlungen
hm
hme
hmen
hms
hn
hne
hnen
hner
hnlich
hnliche
hnlichen
hnt
hnung
ho
hoa
hoang
hoat
hob
hobart
hobbes
hobbit
hobbs
hobby
hoboken
hobson
hoc
hoch
hochschule
hochschullehrer
hockey
hockeydb
hod
hodder
hodge
hodges
hodgson
hoe
hoek
hoepli
hoewel
hof
hofer
hoff
hoffman
hoffmann
hoffnung
hofmann
hog
hogan
hogar
hoge
hogg
hogy
hohe
hohen
hohenlohe
hohenzollern
hoher
hoi
hojas
hoje
hok
hokkaido
hokkien
hol
hola
holanda
holande
hold
holden
holder
holders
holding
holdings
holds
holdt
hole
holes
holger
holiday
holidays
holl
holla
holland
hollande
hollis
hollow
holloway
holly
hollywood
hollywoodreporter
holm
holman
holmes
holocaust
holonimy
holotype
holst
holstein
holt
holte
holtzman
holy
holz
hom
homage
hombre
hombres
homburg
home
homecoming
homeland
homeless
homem
homenaje
homens
homepage
homer
homes
homestead
hometown
homicide
hominem
homines
hominis
hominum
hommage
homme
hommes
homo
homonymes
homonymie
homophones
homoptera
homosexual
homosexuality
homs
hon
honda
hondo
honduras
honek
honen
honest
honey
honeymoon
hong
hongkong
hongrie
hongrois
honlapja
honne
honneur
honno
honolulu
honom
honor
honorable
honorary
honore
honored
honoris
honors
honour
honourable
honoured
honours
honra
honscheid
honshu
honte
hoo
hood
hoog
hoogste
hook
hooker
hoon
hoop
hooper
hoover
hop
hope
hoped
hopes
hoping
hopkins
hoppe
hopper
hor
hora
horace
horacio
horas
horatio
hordaland
horde
hori
horien
horizon
horizons
horizontal
horizonte
hormone
horn
horne
horner
hornet
hornets
horni
horns
horowitz
horreur
horrible
horror
hors
horse
horses
horseshoe
horst
hort
horta
horticultural
horton
horus
horva
hory
hos
hospital
hospitality
hospitals
hospoda
hossein
hosszu
host
hostage
hosted
hostel
hostile
hosting
hosts
hot
hotel
hotels
hotspur
hottest
hou
hough
houghton
hound
hour
hours
house
housed
household
householder
households
houses
housewives
housing
houston
houten
hove
how
howard
howe
howell
however
hoy
hoya
hoyo
hoyt
hoz
hozza
hp
hpa
hq
hr
hra
hrabia
hrabstwie
hrad
hradec
hre
href
hren
hrend
hrende
hrenden
hrer
hrige
hrigen
hriger
hrlich
hrliche
hrsg
hrt
hrte
hrten
hrung
hrungen
hrus
hrvatska
hrvatske
hrvatski
hrvatskoj
hrvatskom
hry
hs
hsbc
hsu
hsun
hsv
ht
hta
htc
hte
hti
htm
html
http
https
hu
hua
huai
huan
huang
huawei
hub
hubbard
hubble
hubei
huber
hubert
hubo
hubungan
hud
hudba
huddersfield
hudebni
hudson
hue
huelva
huerta
huesca
huet
huey
huffington
huffpost
hug
huge
hugh
hughes
hugo
hugues
hui
huidige
huile
huis
huit
huitie
hukum
hul
hulk
hull
hulle
hulp
hulu
hulyo
hum
huma
humain
humaine
humaines
humains
human
humana
humane
humanist
humanitarian
humanite
humanities
humanity
humano
humanos
humans
humbert
humberto
humble
humblot
humboldt
hume
humeur
humilis
hummel
humo
humor
humour
humphrey
humphreys
hun
hunan
hund
hundert
hundred
hundreds
hung
hungama
hungara
hungarian
hungary
hunger
hungri
hungry
hunt
hunter
hunters
hunting
huntington
hunyo
huo
hur
huraca
hurd
hurley
hurling
huron
hurricane
hurricanes
hurry
hurst
hurt
hurtado
hurts
hus
husband
huset
hush
hussain
hussein
huston
hustru
hut
hutan
hutchinson
hutton
huvudavrinningsomra
huvudsak
huvudsakligen
huvudstaden
huxley
huy
huye
huygens
hv
hva
hvad
hve
hvem
hver
hvert
hvilket
hvis
hvor
hw
hwa
hwan
hwang
hy
hybrid
hyd
hyde
hyderabad
hydra
hydref
hydro
hydrogen
hydrol
hydrology
hye
hygiene
hyman
hymenoptera
hymn
hymne
hymns
hynny
hyo
hype
hyper
hyperion
hypertension
hyphenation
hypothe
hypothesis
hyun
hyundai
hyva
hyvin
hz
hər
hərbi
i
ia
iaaf
iabot
iaea
iai
iain
iako
ial
ialah
iam
ian
iana
ianuarie
iar
ias
iat
iata
iau
iaure
ib
iba
ibabaw
iban
ibarra
ibdb
ibe
iberia
iberian
ibf
ibge
ibi
ibid
ibidem
ibis
ibiza
ibm
ibn
ibo
ibrahim
ibsen
ibu
ic
ica
icao
icar
icarus
icc
icd
ice
iceland
icelandic
ich
icha
ichi
ichiro
ichneumon
ichneumonidae
ichneumonoidea
ichthyology
ici
icke
ico
icon
iconic
icons
ict
icu
icy
id
ida
idade
idag
idaho
ide
idea
ideal
ideale
ideals
ideas
idee
ideen
ideia
ideje
idem
iden
identical
identidad
identifica
identificar
identification
identifie
identified
identifier
identifies
identify
identifying
identiques
identita
identite
identities
identity
identyfikatory
ideo
ideolo
ideology
ides
idf
idh
idi
idioma
idiomas
idiot
idir
idle
idnes
ido
idol
idols
idris
ids
idu
idzie
ie
iec
ieee
iei
iela
iem
ien
ier
ieri
iert
ies
iets
ieu
if
ifa
iffhs
ifk
ifpi
ifra
ifølge
ig
iga
ige
igen
iggy
igi
igitur
igjen
iglesia
iglesias
ign
ignacio
ignacy
ignasi
ignatius
ignaz
ignazio
ignorance
ignorant
ignore
ignored
igo
igor
igra
igrac
igreja
igrzysk
igrzyskach
igual
igualmente
ih
iha
ihe
ihf
ihm
ihn
ihnen
ihr
ihre
ihrem
ihren
ihrer
ihres
ii
iihf
iii
iile
iis
ij
ija
ije
iji
ijo
iju
ik
ika
ikan
ike
ikeda
iki
ikinci
ikke
ikki
ikkje
ikko
iko
ikon
iktas
iku
il
ila
ilan
ilbo
ilc
ildis
ildə
ile
iler
iles
ilex
ilg
ilgili
ilha
ilhas
ili
ilia
ilik
ilin
ilina
ilis
ilk
ill
illa
ille
illegal
illes
illetve
illi
illinois
illis
illness
illo
illud
illum
illumination
illusion
illusions
illustrated
illustration
illustrations
illustrator
illustre
ilm
ilmiah
ilmu
ilo
ilona
ilor
ilos
ils
ilse
ilu
ilustrasi
ilustrowany
ily
ilya
ilyen
ilə
im
ima
image
imagen
imagens
imagery
images
imagina
imaginaire
imaginary
imagination
imagine
imagined
imaging
imago
imaju
imala
imali
imam
iman
imao
imati
imax
imdb
ime
imel
imena
imenice
imenom
imf
img
imi
imidlertid
imie
imitation
immagine
immagini
immanuel
imme
immediate
immediately
immense
immer
immigrant
immigrants
immigration
immobile
immortal
immune
immunity
immunology
imo
imp
impact
impacto
impacts
imparfait
impatience
impatiens
impe
impeachment
imperador
imperativ
imperative
imperativo
imperator
imperatore
imperfect
imperfective
imperfecto
imperfekta
imperfet
imperfetto
imperi
imperia
imperial
imperiale
imperialism
imperii
imperio
imperium
impero
impf
implement
implementation
implemented
implementing
implica
implications
implies
implique
impo
import
importa
importance
importancia
important
importante
importantes
importanti
importants
importanza
importe
imported
imports
impose
imposed
imposible
impossible
impr
impre
imprensa
imprenta
impresa
impress
impressed
impression
impressions
impressive
impressum
imprime
imprimerie
imprint
imprisoned
imprisonment
improve
improved
improvement
improvements
improving
impulse
impulso
imre
ims
imslp
imu
in
ina
inac
inaczej
inan
inanime
inativa
inaturalist
inaugurado
inaugural
inaugurated
inauguration
inaugure
inc
inca
incapable
incarico
incarnation
ince
incendie
incendio
inception
inch
incheon
inches
inci
incidence
incident
incidente
incidents
incl
inclination
incline
inclined
include
included
includes
includiintestazione
including
inclui
incluindo
inclus
inclusa
inclusion
inclusive
incluso
incluye
incluyen
incluyendo
incolarum
income
incomple
incomplete
inconnu
inconnue
incontro
incorpo
incorpora
incorporated
incorporates
incorporating
incorporation
incorrect
increase
increased
increases
increasing
increasingly
incredible
incremento
incumbent
ind
inda
inde
indeed
indefinite
indeks
indeling
indem
inden
independe
independence
independencia
independent
independente
independently
independiente
indes
index
indi
india
indian
indiana
indianapolis
indiano
indians
indias
indiatimes
indica
indicar
indicate
indicated
indicates
indicatif
indicating
indication
indications
indicatiu
indicative
indicativo
indicator
indicators
indice
indices
indicus
indie
indien
indiens
indies
indiewire
indiffe
indige
indigenous
indignation
indigo
indikativ
indio
indios
indipendenza
indique
indira
indirect
indische
indispensable
individu
individual
individuals
individuelle
individuo
individuos
individus
indiya
indo
indochina
indone
indonesia
indonesian
indonesie
indonesien
indonesya
indoor
indra
indre
indu
induce
induced
inducted
induction
indus
industri
industria
industrial
industriale
industrie
industriel
industrielle
industries
industry
indy
indycar
ine
inec
inegi
inen
inequality
ines
inese
inevitable
inf
infa
infamous
infancia
infant
infanta
infante
infanteri
infanterie
infantil
infantry
infants
infatti
infe
infect
infected
infection
infections
infectious
inference
inferior
inferiore
inferiores
infernal
inferno
inferred
infine
infini
infinite
infinitive
infinito
infinity
inflammation
inflammatory
inflation
inflection
influe
influence
influenced
influences
influencia
influential
influenza
info
infobase
infobox
infolge
inform
informa
informac
informace
informacio
informacje
informacji
informal
informality
informasi
informasjon
informatics
informatie
information
informationen
informations
informationssystem
informatique
informatise
informazioni
informe
informed
informer
informes
informo
infos
infra
infrared
infrastructure
infrastruktur
infty
ing
inga
inge
ingeborg
ingelesez
ingen
ingenieri
ingeniero
ingenieur
inger
inggeris
inggris
inghilterra
ingl
inglaterra
ingle
ingles
inglesa
inglese
ingleses
inglis
inglise
ingmar
ingo
ingolstadt
ingram
ingredients
ingreso
ingresos
ingresso
ingrid
inhaber
inhabitants
inhabited
inhalt
inherent
inheritance
inherited
inhibition
inhibitor
inhibitors
ini
inicia
inicial
inicialmente
iniciar
iniciativa
inicio
inin
inio
init
initial
initialement
initially
initiated
initiation
initiative
initiatives
inizia
inizialmente
inizio
inje
injection
injured
injuries
injury
injustice
ink
inka
inklusive
inland
inlet
inline
inn
inna
innan
inne
innego
inneha
innen
inner
innere
inneren
innerhalb
innes
inni
inning
innings
innocence
innocent
innosti
innovation
innovations
innovative
innsbruck
inny
innych
innymi
ino
inoltre
inom
inorganic
inou
inoue
input
inquie
inquirer
inquiry
inquisition
inra
ins
insa
insan
insane
insbesondere
inschrift
inscribed
inscription
inscriptions
inscrit
inscrits
inse
insect
insecta
insectes
insects
insee
inseeren
insekto
insektsart
insel
inseln
insert
inserted
insertion
insgesamt
inside
insider
insieme
insight
insights
insigne
insignia
insignis
insiste
insisted
insjo
inspecteur
inspection
inspector
inspira
inspiration
inspire
inspired
inspiring
inst
insta
instagram
instalaciones
install
installation
installations
installe
installed
installer
instance
instances
instant
instar
instead
instinct
institucio
institucional
instituciones
instituic
institut
instituta
institute
institutes
institution
institutional
institutionen
institutions
instituto
instituts
institutul
instituut
instruction
instructions
instructor
instrument
instrumental
instrumentation
instrumente
instrumento
instrumentos
instruments
instytut
insufficient
insuffisamment
insula
insular
insularis
insulin
insurance
insurrection
int
inta
intact
intake
intanto
inte
integer
integra
integracio
integrada
integrado
integral
integrantes
integrated
integration
integrity
intel
intelectual
inteligencia
intellect
intellectual
intelligence
intelligent
intelligente
intencio
intendant
intended
intending
intensa
intense
intensity
intensive
intent
intenta
intentar
intention
intentions
intento
inter
intera
interact
interaction
interactions
interactive
interchange
intercity
intercontinental
intercourse
interdisciplinary
interdit
intere
interes
intereses
interessante
interesse
interest
interested
interesting
interests
interface
interfaces
interfax
interfere
interference
interieur
interim
interior
interlingua
interlude
interme
intermedia
intermediate
intern
interna
internacional
internacionales
internal
internasional
internat
international
internationale
internationalen
internationaler
internationales
internationally
internationals
internationaux
internazionale
internazionali
interne
internet
internetova
internetowa
interno
intero
interpol
interpolation
interpre
interpret
interpreta
interpretacio
interpretada
interpretar
interpretation
interpretations
interpretato
interpreted
interpreter
interpreto
interprogetto
interrotto
interrupted
interruption
interscience
interscope
intersection
interstate
interstellar
interval
intervalle
intervals
intervencio
intervenir
intervention
interventions
intervento
interview
interviewed
interviews
intervista
intestinal
inti
intimate
intime
intitule
into
intorno
intra
intransitive
intre
intrigue
intro
introduccio
introduce
introduced
introduces
introducing
introduction
introductory
introduit
introduzione
intuition
inu
inuit
inut
inutile
inv
inva
invade
invaded
invaders
invalid
invariable
invasio
invasion
invasions
invasive
invece
inventaire
inventari
invente
invented
invention
inventions
inventor
inventory
inverness
inverno
inverse
invertebrate
invertebrates
invest
invested
investigacio
investigaciones
investigate
investigated
investigating
investigation
investigations
investigative
investigator
investment
investments
investor
investors
invierno
invincible
invisible
invita
invitation
invitational
invite
invited
involve
involved
involvement
involves
involving
inwoners
iny
inyo
inz
inzwischen
io
ioan
ioannis
ioc
iom
iombonana
ion
iona
ional
ionala
ionale
ionawr
ions
iop
iopscience
ios
iowa
ip
ipa
ipac
ipad
ipak
ipc
ipcc
iphone
ipni
ipo
ipod
ipomoea
ips
ipsa
ipse
ipso
ipsum
ipswich
ipv
iq
iqbal
ir
ira
irak
iran
iranian
iranica
iraq
iraqi
iras
irb
irc
ire
ireann
ireland
irena
irene
iri
irilica
irin
irina
iris
irish
irkau
irland
irlanda
irlandais
irlande
irma
iro
iroda
irodalmi
iron
ironman
irons
iroquois
irre
irregular
irrigation
irs
irt
iru
irvine
irving
irwin
is
isa
isaac
isabel
isabela
isabella
isabelle
isai
isaiah
isang
isbn
isch
ische
ischen
ischer
ise
isen
iser
iset
isfahan
ish
ishikawa
ishte
isi
isidore
isidoro
isidro
isil
isin
isis
iska
iskola
isl
isla
islam
islamabad
islamic
island
islande
islander
islanders
islands
islas
isle
isles
ism
ismael
ismail
isme
isn
isni
iso
isola
isolated
isolation
isole
isopod
isopoda
isotope
isp
israe
israel
israele
israeli
iss
issa
issn
isso
issu
issue
issued
issues
issus
ist
ista
istana
istanbul
istat
iste
isten
isti
istilah
istituto
istnieja
isto
istoc
istoria
istoric
istorija
istraz
istri
istria
istva
isu
isə
it
ita
ital
itali
italia
italiaanse
italian
italiana
italiane
italiani
italiano
italianos
italians
italic
italie
italien
italienisch
italienische
italienischen
italienischer
italienne
italiens
italiensk
italijanski
italiji
italo
italy
italya
itandi
itarong
itd
ite
item
itemid
items
iter
itf
itftennis
ithaca
iti
itim
itine
itis
ito
its
itself
itt
ittf
itu
itunes
itv
ity
iu
iucn
iucnredlist
iue
iuj
iulia
iulie
iulis
iune
iunie
iupac
iure
iuris
ius
iv
iva
ivan
ivana
ivanov
ivanovic
ivans
ivar
ive
ivelo
ives
ivezic
ivi
ivlendi
ivlenmis
ivo
ivoire
ivor
ivory
ivot
ivota
ivy
iw
iwa
iwan
iwo
ix
ixe
ixer
iy
iya
iye
iyi
iyo
iyul
iyun
iz
iza
izan
izd
izdanje
izin
između
iznosi
izquierda
izquierdo
izrael
izraz
izumi
izvorne
izvrs
j
ja
jaan
jaap
jaar
jabal
jabatan
jac
jacek
jacinto
jack
jacket
jackie
jackson
jacksonville
jacky
jacob
jacobi
jacobs
jacobsen
jacobson
jacobus
jacoby
jacopo
jacq
jacqueline
jacques
jad
jada
jade
jadi
jadis
jae
jaeger
jaffa
jaffe
jag
jagd
jagger
jagiellon
jaguar
jah
jahn
jahr
jahrb
jahrbuch
jahre
jahren
jahres
jahrgang
jahrhundert
jahrhunderts
jai
jail
jailed
jaime
jain
jak
jaka
jakarta
jakby
jake
jaki
jakie
jakies
jakim
jakis
jako
jakob
jakos
jakub
jaky
jakz
jal
jalan
jalisco
jalur
jam
jama
jamaica
jamaican
jamais
jamal
jambes
jame
james
jameson
jamestown
jami
jamie
jammu
jams
jan
jana
jane
janeiro
janet
janez
jang
jani
janice
janina
janine
janis
janko
jankovic
janne
janos
jansen
janson
janssen
jansson
janua
januar
januari
january
janus
janusz
janvier
jap
japa
japan
japanese
japanische
japanischen
japans
japansk
japo
japon
japonais
japonaise
japone
japonesa
japonica
jar
jara
jarak
jarcento
jardi
jardim
jardin
jardins
jared
jaren
jargon
jari
jarige
jaringan
jarl
jaro
jaroj
jaros
jaroslav
jarosław
jarrett
jartzen
jarvis
jas
jasmin
jasmine
jasna
jasne
jasno
jason
jasper
jat
jau
jauh
jaume
jaune
jav
java
javascript
javi
javier
jaw
jawa
jaweon
jaws
jay
jaya
jays
jaz
jazeera
jazyk
jazyka
jazykova
jazz
jb
jbc
jc
jd
jde
jduppgifter
je
jealous
jean
jeanette
jeanne
jeannette
jeans
jeb
jebel
jec
jed
jedan
jede
jedem
jeden
jeder
jedes
jedi
jedna
jednak
jedne
jednego
jednej
jedni
jednine
jedno
jednoczes
jednog
jednom
jednostka
jednostki
jednu
jednym
jedoch
jedynie
jeep
jef
jefe
jeff
jefferson
jeffery
jeffrey
jeffries
jeg
jego
jeho
jehovah
jej
jeji
jejich
jekyll
jel
jelen
jelena
jelent
jelento
jelly
jelo
jelze
jem
jemen
jemu
jen
jena
jene
jener
jeni
jenis
jenkins
jenna
jenner
jennie
jennifer
jennings
jenny
jeno
jens
jensen
jeon
jeong
jepang
jer
jera
jeremiah
jeremy
jerez
jericho
jerman
jero
jeroen
jerome
jerry
jersey
jerusale
jerusalem
jerzy
jes
jesper
jess
jesse
jessica
jessie
jest
jestem
jestes
jesu
jesuit
jesus
jeszcze
jet
jeta
jete
jeter
jets
jette
jetzt
jeu
jeune
jeunes
jeunesse
jeung
jeux
jew
jeweiligen
jeweils
jewel
jewelry
jewels
jewish
jews
jez
jezera
jezero
jezic
jezik
jezika
jeziku
jezioro
jezus
jf
jfk
jg
jh
jha
jharkhand
jhu
ji
jia
jian
jiang
jiangsu
jiangxi
jie
jih
jihad
jika
jill
jim
jima
jime
jimi
jimmie
jimmy
jin
jina
jindr
jine
jing
jini
jiny
jir
jiri
jis
jiten
jiu
jiwa
jiz
jj
jk
jka
jl
jm
jme
jn
jna
jne
jningsform
jo
joa
joachim
joakim
joan
joana
joanna
joanne
joannes
joaqui
joaquim
joaquin
job
jobb
jobs
joc
jocelyn
jochen
jockey
jocs
jodie
jody
joe
joel
joey
joga
jogador
jogo
jogos
joh
johan
johann
johanna
johannes
johannesburg
johansen
johansson
john
johnny
johns
johnson
johnston
johnstone
johor
joie
join
joined
joining
joins
joint
jointly
joints
joinville
joj
jojo
joka
joke
joker
joko
joli
jolie
jolla
jolloin
jolly
joly
jon
jona
jonah
jonas
jonathan
jonay
jones
jong
jonge
joni
jonka
jonny
joo
joon
joongang
joost
jord
jorda
jordan
jorden
jordi
jorge
joris
jornada
jornal
jos
jose
josef
josefa
joseon
josep
joseph
josephine
josephus
josh
joshi
joshua
josiah
josip
joss
jossa
jost
jota
jotka
jou
joue
jouer
joueur
joueurs
jour
jourbook
journ
journal
journalism
journalist
journaliste
journalisten
journalists
journals
journaux
journe
journey
journeys
jours
jovan
jovanovic
jove
jovem
joven
jovi
jovice
joy
joyce
joyeux
joylashgan
joz
jozef
jp
jpeg
jpg
jpl
jr
jra
js
jsa
jsem
json
jsonapi
jsou
jsp
jstor
jt
jtbc
ju
jua
juan
juana
juara
juba
jubila
jubilee
jud
juda
judah
judai
judaica
judaism
judas
judd
jude
juden
judet
judge
judgement
judges
judgment
judi
judiciaire
judicial
judiciary
judit
judith
judo
judoinside
judoka
judul
judy
juega
juego
juegos
juez
jug
juga
jugador
jugadores
jugar
juge
jugement
jugend
juger
juges
jugo
jugoslavije
juha
juice
juicio
juif
juifs
juillet
juin
juive
jukka
jul
jula
julai
jules
julho
juli
julia
julian
juliana
julie
julien
juliet
juliette
julija
julio
juliol
julius
july
juma
jumbo
jumlah
jump
jumping
jun
juna
junction
june
jung
junge
jungen
jungle
junho
juni
junio
junior
junioren
juniors
juniperus
junk
junkers
juno
junta
juntas
junto
juntos
juny
juo
jupiter
jur
jura
jurado
juraj
jurassic
jure
juri
jurij
juris
jurisdiction
jurisprudence
jurist
jury
jus
jusqu
jusque
juss
jussi
just
justa
juste
justement
justi
justic
justice
justices
justicia
justification
justified
justify
justin
justine
justo
justus
juta
jutro
jutta
juve
juvenil
juvenile
juventud
juventus
juz
jv
jw
jy
jyp
jyutping
jyva
jørgen
jørgensen
jɛ
k
ka
kaart
kaayo
kaayong
kaba
kabanay
kabe
kabeh
kabel
kabi
kabinet
kabinett
kabir
kabugangan
kabukiran
kabul
kabungtoran
kabupate
kabupaten
kac
kaca
kacamatan
kach
kad
kada
kadagatang
kadang
kadar
kade
kader
kadokawa
kadın
kafka
kagaangan
kah
kahaboga
kahenera
kahn
kai
kaike
kaikki
kaimo
kain
kaip
kairo
kais
kaiser
kaiserliche
kaiserlichen
kaisers
kaiserslautern
kaj
kaja
kaji
kak
kaka
kaki
kako
kakor
kaks
kaksi
kal
kala
kalan
kalapukan
kalas
kalba
kale
kalender
kali
kalibonan
kalifornia
kalifornien
kalimantan
kalimat
kaliningrad
kaliwatan
kalkulado
kalla
kallas
kallaste
kalle
kalmar
kalt
kalte
kam
kama
kamadan
kamal
kamala
kamar
kamara
kamen
kamer
kamera
kamerun
kami
kamien
kamikaze
kamil
kamin
kamingawan
kammer
kamp
kampala
kampen
kampf
kampioen
kampung
kamu
kamus
kamusbesar
kan
kana
kanada
kanagawa
kanak
kanal
kanan
kanda
kandida
kandidat
kandidaten
kane
kang
kangaroo
kangxi
kani
kanji
kann
kannada
kannst
kano
kanon
kans
kansainva
kansas
kanssa
kant
kanta
kanto
kanton
kantonen
kantons
kantor
kanu
kanye
kanı
kao
kaohsiung
kaominina
kap
kapal
kapanguhaan
kapel
kapelle
kapita
kapital
kapitan
kapitel
kapitola
kaplan
kapoor
kapott
kappa
kapuloan
kapunawpunawan
kar
kara
karabakh
karachi
karakter
karan
karaoke
karas
karate
kardes
kardinal
kare
karel
karen
karena
kari
karie
kariere
karim
karin
karina
karl
karla
karlheinz
karlovy
karls
karlsruhe
karlsson
karma
karna
karnataka
karo
karol
karola
karolina
karoline
karriere
kars
karst
karsten
kart
karta
karte
karten
kartu
karya
kas
kasa
kasadpan
kasadpang
kasagaran
kasagbotan
kasalupan
kasarangan
kasarangang
kashmir
kasnije
kaspar
kasper
kassel
kasta
kaste
kasteel
kasus
kasım
kat
kata
katalog
katanga
katar
katarina
katarzyna
katastra
kate
katedra
kategori
kategorie
kategorii
kategorio
kater
kath
katharina
katharine
katherine
kathleen
kathmandu
katholieke
katholische
katholischen
katholischer
kathryn
kathy
kati
katia
katie
katika
katja
kato
katolik
katolikus
katona
katowice
katrin
katrina
katta
katy
katz
kau
kaudella
kauden
kaufman
kaufmann
kaum
kaumahan
kaunas
kaupungin
kaupunki
kaur
kautta
kawasaki
kawasan
kay
kaya
kayak
kaye
kaynag
kaynak
kayu
kaz
kaza
kazakh
kazakhstan
kazan
kazimierz
kazin
kb
kbbi
kbo
kbs
kc
kd
kde
kdo
kdy
kdyz
ke
kea
keane
keating
keaton
kebangsaan
kebudayaan
kec
kecamatan
kecil
ked
kedah
kedua
kee
keefe
keegan
keel
keele
keeles
keen
keenan
keene
keep
keeper
keeping
keeps
keer
kees
kega
kegan
kehrte
kei
kein
keine
keinen
keiner
keiser
keith
keivan
keizer
kek
kel
kela
kelantan
kelas
kell
keller
kellett
kelley
kellner
kellogg
kelly
kelompok
kelsey
keluar
keluarga
kelurahan
kelvin
kely
kem
kemal
kembali
kementerian
kemi
kemp
kemper
kemudian
ken
kendall
kendi
kendrick
keng
kenia
kenji
kennedy
kennen
kenneth
kennis
kenntnis
kenny
kensington
kent
kenta
kentucky
kenya
kenyon
kepada
kepala
kepler
kept
kepulauan
keputusan
ker
kera
kerajaan
kerala
kerana
kere
kerem
keren
kereta
keri
kerja
kerk
kerman
kern
kernel
kerr
kerrang
kerry
kershaw
kerstin
keru
kes
kesa
kese
keski
keskus
kessel
kessler
ket
ketiga
ketika
ketua
keva
keversoort
kevin
kew
key
keyboard
keyboards
keynes
keys
keyserling
keystone
keywords
kez
kezdo
kf
kg
kgb
kh
kha
khai
khaled
khalid
khalifa
khalil
khan
khao
kharkiv
khartoum
khas
khe
khee
khi
khie
khl
khlong
khmer
kho
khoa
khok
khor
khorasan
khu
khusus
khz
ki
kia
kiada
kiado
kiam
kib
kiba
kic
kick
kicked
kicker
kicks
kickstarter
kid
kidd
kidnapped
kidney
kids
kie
kiedy
kiefer
kieffer
kiel
kielce
kiem
kien
kierkegaard
kierunku
kies
kiev
kiga
kigali
kih
kiki
kiko
kil
kila
kildare
kili
kilka
kilkenny
kilku
kill
killed
killer
killers
killing
killings
kills
kilm
kilo
kilome
kilometer
kilometers
kilometre
kilometres
kilometria
kilometro
kim
kimball
kimberley
kimberly
kimi
kimura
kin
kina
kinabasaan
kinabugnawan
kinadak
kinadul
kinahabogang
kinainitan
kinase
kinaugahan
kind
kinder
kinderen
kindergarten
kindern
kindersley
kindle
kindness
kindred
kinds
kine
kinematics
kinetic
kinetics
king
kingdom
kingdoms
kings
kingsley
kingston
kinh
kini
kino
kinshasa
kio
kip
kipi
kipling
kir
kira
kiradi
kirby
kirche
kirchen
kirchner
kiri
kiribati
kirin
kirja
kirk
kirkby
kirke
kirkland
kirkpatrick
kirkwood
kirsten
kis
kishi
kiss
kisses
kissing
kissinger
kit
kita
kitab
kitchen
kitchener
kitching
kite
kito
kits
kitts
kitty
kitu
kiu
kiuj
kiva
kiwi
kj
kjell
kjent
kjer
kjo
kk
kka
kke
kko
kl
kla
klaas
klad
klade
kladni
kladogram
kladograma
klaene
klagenfurt
klaipe
klan
klang
klar
klara
klare
klart
klas
klase
klasik
klass
klasse
klassen
klassik
klassischen
klasy
klasyfikacji
klaus
klavier
kle
klee
klein
kleine
kleinen
kleiner
kleinere
kleines
kleist
klemens
kleur
kli
kliknij
klima
klinik
klip
kljuc
klm
klo
kloster
klosters
klu
klub
kluba
klubben
klubi
klubu
kluge
kluwer
km
kml
kmu
kn
kna
knapp
knat
kne
knee
knees
kneib
knesset
knew
knez
kni
knicks
knie
knife
knight
knights
kniha
kning
knjiga
knjige
knjiz
kno
knob
knock
knocked
knockout
knoll
knopf
knot
knots
know
knowing
knowledge
knowles
known
knows
knox
knoxville
knu
knud
knudsen
knut
knuth
knvb
ko
koa
koan
kobayashi
kobe
kobiet
kobieta
kobiety
koblenz
koc
koch
kochi
kod
koda
kodak
kodansha
kode
kodu
koe
koehler
koenig
kofi
kog
koga
kogo
koh
koha
kohe
kohl
kohlhammer
kohn
kohta
koi
koine
koj
koja
koje
kojem
koji
kojih
kojima
kojoj
koju
kok
koka
koko
kol
kola
kolbe
kole
kolei
kolej
kolem
koli
kolic
kolik
kolika
kolkata
kolme
kolo
kolokacje
kolonia
kolonie
kolovoza
kolozsva
kolu
koly
kom
koma
komanda
kombat
kombination
kome
komen
komentar
komi
komisji
komite
komitet
komitetu
komma
kommando
komme
kommen
kommentar
kommer
kommission
kommt
kommun
kommune
kommunen
kommuner
kommunikation
komo
komon
komparativa
komparativs
kompas
kompleks
komplett
komplex
komponist
komponisten
komputer
komt
komu
komun
komuna
komune
komunejo
komunikat
komunumo
komyun
kon
kona
konami
konc
koncert
konci
kondado
kondo
kondolojy
kone
konec
konflikt
kong
konge
kongelige
kongen
kongo
kongres
kongress
koni
koniec
koning
koninklijke
koninkrijk
konjunktiv
konkre
konkurs
konnte
konnten
kono
konrad
kons
konstantin
konstantinopel
konstanz
konstna
konsul
kontakt
kontinente
kontra
kontrakt
kontrau
kontrol
kontrola
kontrole
kontrolle
kontsultatua
konu
konus
kony
konya
konzept
konzert
koo
kool
koordinat
koordinate
koordinaten
koos
kop
kopa
kopenhagen
koper
kopf
kopi
kopie
kopija
kopp
kopya
kor
kora
koran
korban
korc
korda
kore
korea
korean
korekt
kori
koris
koristi
korma
korn
koro
korona
korpora
korps
korpus
kors
kort
korte
kos
kosa
koska
kosmos
kosova
kosove
kosovo
kossuth
kost
kosta
kostel
kosten
kosti
kot
kota
kotaku
kotava
koto
kou
kov
kova
kovac
kove
kovic
kovo
kovy
kowalski
koz
koza
koło
kp
kpa
kpd
kr
kra
kraft
kraftwerk
krai
kraj
kraja
kraje
krajem
kraji
krajina
krajo
kraju
krako
krakow
krakowie
kral
kralj
kralja
kramer
kran
krankenhaus
krankheit
kras
krasnodar
kraus
krause
krauss
krauze
krav
kray
krc
kre
krebs
kreeg
kreis
kreise
kreisen
kreises
kremlin
kres
kreuz
krew
kri
krieg
krieger
krieges
kriegsmarine
krig
krigen
krim
kring
kris
krise
krishna
krista
kristen
kristensen
kristi
kristian
kristiania
kristin
kristina
kristine
kristo
kristus
kritik
kritika
kritiker
kritische
kriz
kro
kroatien
krok
kroll
krom
krome
krone
kronika
kropf
kroz
krs
kru
krug
kruger
krupp
krus
kruz
krwi
krzysztof
krzyz
ks
ksc
kse
ksek
ksi
ksia
ksie
kst
ksza
ksze
kszos
kt
kta
kte
kter
ktera
ktere
kterou
ktery
ktet
kto
ktora
ktore
ktory
ktos
ku
kua
kuala
kuan
kuba
kuban
kubo
kubrick
kuc
kudu
kuhn
kui
kuid
kuin
kuiper
kuitenkin
kujemy
kul
kula
kuli
kull
kult
kultu
kultur
kultura
kulture
kulturen
kulturni
kultury
kulu
kum
kuma
kumar
kumbang
kumpulan
kun
kuna
kunci
kunde
kune
kung
kungliga
kunhod
kuni
kuningas
kunna
kunne
kunnen
kuno
kunst
kunstdenkma
kunsthalle
kunta
kunth
kuntze
kunze
kuo
kup
kupa
kuperad
kupfer
kur
kura
kurang
kurd
kurdi
kurdish
kurdistan
kurds
kure
kurfu
kuri
kuria
kurier
kuris
kuro
kurosawa
kurs
kursk
kurt
kurtz
kuru
kurumu
kurz
kurze
kurzen
kus
kust
kut
kuten
kuti
kutler
kuu
kuuluu
kuuta
kuvia
kuwait
kuz
kuzey
kv
kva
kvadratkilometer
kvar
kve
kvinnor
kvu
kw
kwa
kwadrado
kwam
kwamen
kwan
kwazulu
kwh
kwietnia
kwon
ky
kya
kyi
kyiv
kyla
kyle
kylie
kyo
kyoto
kyrgyz
kyrgyzstan
kyrka
kyrkan
kyu
kyung
kyushu
kz
københavn
kɑ
kɔ
kə
kənd
kɛ
l
la
laa
laajentamalla
laat
laatste
lab
laba
laban
labdaru
labe
label
labels
labem
labes
labing
labor
laboratoire
laboratories
laboratorio
laboratorium
laboratory
labore
labour
labrador
labs
labyrinth
lac
lace
lacey
lach
lack
lacking
lacks
lacroix
lacrosse
lacs
lacy
lad
lada
ladda
ladder
lade
laden
ladies
ladislav
lado
lados
lady
ladı
lae
lafayette
laffont
lag
laga
lagarde
lage
lagen
lager
laget
lagi
lago
lagoa
lagoon
lagos
lagrange
lagt
lagu
lagun
laguna
lah
lahir
lahko
lahn
lahore
lahti
lai
laid
laika
laila
lain
laine
laing
lainnya
lair
laird
lais
laissa
laissant
laisse
laisser
laissez
lait
laja
lajos
lak
laka
lake
lakers
lakes
laki
lakin
lako
lakosainak
lakota
lakshmi
lal
lala
lalat
lalawigan
lalu
lam
lama
laman
lamar
lamarck
lamas
lamb
lambda
lambert
lamborghini
lame
lament
lamo
lamont
lamp
lampe
lampung
lamıs
lan
lana
lanak
lanaw
lanc
lancashire
lancaster
lance
lancelot
lancer
lancet
lancia
land
landa
landareal
landau
lande
landed
landen
lander
landes
landesamt
landet
landets
landi
landing
landis
landkreis
landmark
landmarks
lando
landon
landry
lands
landsberg
landscape
landscapes
landschaft
landshut
landskapet
landtag
landwirtschaft
lane
lanes
lang
langage
langau
langaw
lange
langen
langenscheidt
langer
langes
langle
langley
langs
langsam
langsung
langt
language
languages
langue
languedoc
langues
lanham
lanka
lankan
lans
lansing
lant
lantern
lantma
lanza
lanzado
lanzamiento
lanzo
lao
laon
laos
lap
lapa
lapangan
lapin
lapis
laplace
laporte
lappland
laps
laptop
lapyahan
laquelle
lar
lara
lare
lares
larga
large
largely
largement
larger
larges
largest
largeur
largo
lari
larissa
larkin
larmes
larousse
larry
lars
larsen
larson
larsson
larus
larva
larvae
ları
las
lasa
lasalle
lasan
lasang
lascia
lascio
laser
lasioglossum
lasker
lass
lasse
lassen
lasso
last
lasta
lasted
lasting
laszta
lat
lata
latach
late
lateinischen
lately
laten
later
lateral
latere
latest
latex
latham
lati
latimes
latin
latina
latine
latini
latino
latinos
latins
lation
latitude
lato
latour
latreille
latte
latter
latvia
latvian
latvies
latvija
latvijas
lau
lauda
laude
lauderdale
lauf
laufbahn
laufe
laufen
laugh
laughed
laughing
laughter
laulu
launch
launched
launches
launching
laura
laure
laurea
laureate
laureates
laurel
lauren
laurence
laurens
laurent
laurentius
lauri
laurie
laurier
lauro
lausanne
laut
lav
lava
laval
lave
laver
lavigne
lavorare
lavori
lavoro
law
lawan
lawis
lawn
lawrence
laws
lawson
lawsuit
lawyer
lawyers
lax
lay
layan
layer
layers
laying
layout
layton
laz
lazar
lazare
lazarus
lazio
lazy
lał
lb
lbe
lbum
lc
lcauth
lccn
lcd
lce
ld
lda
lde
lden
lder
ldern
ldh
ldi
ldl
ldo
ldots
ldrajzporta
ldre
lds
ldu
le
lea
leach
lead
leader
leaders
leadership
leading
leads
leaf
leafs
league
leagues
leah
leak
leal
lean
leander
leandro
leap
lear
learn
learned
learning
learns
leary
lease
least
leather
leave
leaves
leaving
leb
lebanese
lebanon
lebel
leben
lebens
lebih
leblanc
lebre
lebt
lebte
lebten
lec
lecce
leccio
lecco
lech
leche
leclerc
leconte
lecteur
lecteurs
lection
lectionne
lections
lector
lectricite
lectrique
lectronique
lectura
lecture
lecturer
lectures
lecz
led
leda
lede
leden
leder
ledes
ledger
lediglich
ledna
lee
leech
leeds
leeftijd
leela
leer
lees
leeuwen
lefe
lefebvre
left
leg
lega
legacy
legal
legale
legally
legat
legate
legato
lege
legen
legend
legenda
legendary
legende
legends
leger
leges
legge
leggenda
leggi
legi
legia
legifrance
legio
legion
legis
legislation
legislativa
legislative
legislativo
legislatura
legislature
legitimate
legjobb
legnagyobb
legno
lego
legrand
legs
legt
legte
legumes
leh
lehen
lehet
leheto
lehman
lehmann
lehr
lehrbuch
lehre
lehrer
lei
leia
leiaf
leibniz
leicester
leicestershire
leicht
leichtathletik
leid
leiden
leider
leiding
leif
leigh
leighton
leila
leinster
leipzig
leipziger
leis
leistung
leistungen
leisure
leit
leita
leite
leiter
leitete
leith
leitung
lejos
lek
leksikon
lel
lelaki
leland
lem
lema
lembaga
leme
lement
lemma
lemon
lemonde
lemos
lemy
len
lena
lend
lendemain
lene
length
lengths
lengua
lenguaje
lenguas
lengyel
leni
lenin
leningrad
lenke
lennart
lennon
lennox
lenny
leno
lens
lent
lenta
lentamente
lente
lentement
lento
leny
lenz
leo
leon
leona
leonard
leonardo
leone
leonhard
leoni
leonid
leonor
leopard
leopold
leopoldina
leopoldo
lep
lepa
lepidoptera
lepiej
lepindex
lepo
lepus
leq
lequel
lequipe
ler
lera
leri
lerin
lern
lernen
lerner
leroux
leroy
les
lesa
lesbian
lescharts
lese
lesen
leser
lesley
leslie
lesotho
lesquelles
lesquels
less
lesser
lessing
lesson
lessons
lest
leste
lester
lestwa
lesz
leszek
let
leta
lete
letech
letett
lethal
leti
letni
leto
letra
letras
lets
lett
lette
letter
lettera
letteratura
lettere
letters
letting
letto
lettre
lettres
letu
letzte
letzten
letzter
leu
leukemia
leung
leur
leurs
leute
leuven
lev
leva
levant
levante
levar
leve
level
levels
leven
lever
leverkusen
levi
levin
levine
levinson
levo
levou
levy
lew
lewin
lewis
lex
lexicon
lexikon
lexington
lexus
ley
leyenda
leyes
leyman
leyte
lez
lf
lfo
lfp
lfte
lg
lga
lgan
lgbt
lgbtq
lge
lgica
lh
lhasa
lhato
lhe
li
lia
liability
liable
liaison
liam
lian
liang
liant
liao
liaoning
liar
liard
lias
lib
liban
libanon
libby
libe
liber
libera
liberacio
liberal
liberale
liberalism
liberals
liberation
liberdade
liberec
liberi
liberia
libero
liberta
libertad
libertadores
libertarian
liberte
liberties
liberty
libia
libra
librairie
librarian
libraries
library
libre
libreria
libres
libretto
libri
libris
libro
libros
libya
libyan
lic
lica
licas
lice
licence
licencia
licencji
licens
license
licensed
licenses
licensing
liceo
lices
lich
lichaam
lichenized
licht
lichtenberg
lichtenstein
licite
lick
lico
licos
liczba
liczby
liczyła
lid
lida
liddell
lide
lider
lidi
lidia
lido
lidos
lidove
lie
liebe
lieben
lieber
lieberman
liechtenstein
lied
lieder
lief
liegen
liegt
liela
lien
liens
liep
lier
lies
liet
lietuva
lietuviu
lietuvos
lieu
lieues
lieutenant
lieux
lieve
ließ
life
lifestyle
lifetime
lift
lifted
lifting
lifts
lig
liga
ligac
ligand
ligas
lige
ligg
ligger
light
lighter
lighthouse
lighting
lightning
lights
lightweight
ligi
ligne
lignes
ligo
ligt
ligue
ligure
liguria
lih
lihat
lii
liiga
liittyva
lija
lijn
lijst
lik
lika
like
liked
likely
likes
likewise
liko
lil
lila
lili
lilian
liliana
liliopsida
lilla
lille
lillehammer
lillian
lilly
lily
lim
lima
limb
limba
limbo
limbs
limburg
lime
limerick
limes
limestone
limine
limit
limita
limitada
limitation
limitations
limite
limited
limites
limits
limo
limoges
limoniidae
limousin
lin
lina
linares
lincoln
lincolnshire
lind
linda
lindau
lindberg
linde
linden
linder
lindgren
lindl
lindley
lindner
lindsay
lindsey
line
linea
lineage
linear
lined
linee
linen
liner
lines
lineup
ling
linge
lingea
lingu
lingua
lingue
lingui
linguistic
linguistica
linguistics
linguistique
lingvo
linh
linha
linhas
linhua
linia
linie
linien
linii
linje
link
linke
linked
linkedin
linken
linker
linkiem
linkin
linking
linko
links
linn
linna
linnaeus
linne
linnean
lino
lint
linton
linus
linux
linyphiidae
linz
lio
lion
lionel
lions
liorant
liorer
lip
lipa
lipca
lipid
lipnja
lippe
lippincott
lips
lipsa
lique
liquid
liquide
liquor
lira
lire
lis
lisa
lisabeth
lisboa
lisbon
lisbonne
lische
lise
lisi
lisis
lisitry
lisle
lisp
lissa
lissabon
list
lista
listade
listas
liste
listed
listen
listening
lister
listes
listing
listings
listo
listopada
listopadu
lists
listu
listy
liszt
lit
lita
litauen
lite
liten
liter
litera
literacy
literal
literally
literaria
literary
literatu
literatur
literatura
literature
literatury
lites
lithium
lithuania
lithuanian
lito
litoral
litre
litres
lits
litt
litte
litteratur
little
littlefield
littoral
littre
lituania
liu
lius
liv
live
lived
livello
lively
liver
liverpool
lives
livestock
livet
livia
living
livingston
livingstone
livio
livius
livorno
livre
livrer
livres
livro
livros
liwa
liwe
liwos
liwy
lix
liz
liza
lizard
lizards
lizzie
lizzy
lj
lja
ljande
lje
ljo
ljubljana
ljudi
lk
lka
lke
lkeen
lker
lkerung
lkerungsstandes
lku
lky
ll
lla
llama
llamada
llamado
llamo
llan
llanc
llande
llano
llar
llarg
llati
llave
llavors
llc
lle
llega
llegada
llegando
llegar
llegaron
llego
llei
lleida
llen
llengua
ller
llet
lleva
llevar
llevo
llewellyn
lli
llibre
llibres
llig
lliga
llingua
llista
llning
llo
llobregat
lloc
lloma
lloyd
lls
llt
llu
llui
llum
lm
lma
lme
lmu
ln
lna
lnb
lne
lnej
lner
lng
lni
lnie
lny
lnych
lo
loa
load
loaded
loading
loan
loans
lobby
lobe
lobo
lobos
loc
loca
locais
local
locale
locales
locali
localidad
localidades
localisation
localita
localitate
localite
localities
locality
localiza
localizada
localizado
localization
locally
locals
locarno
located
locatif
location
locations
locative
locaux
loch
loci
locis
lock
lockdown
locke
locked
locker
lockhart
lockheed
locks
lockwood
loco
locomotive
locomotives
locuint
locuitori
locul
locus
lod
lode
lodewijk
lodge
lodi
lodovico
loe
loeb
loew
loft
log
loga
logan
logatott
loge
logement
logements
loges
loggia
logi
logic
logica
logical
logique
logis
logistics
logo
logos
logra
logro
logs
loi
loigne
loin
loir
loira
loire
loiret
lois
loisirs
loja
lok
loka
lokakuuta
lokal
lokala
lokale
lokativ
loki
loko
lokomotiv
lol
lola
lolita
lom
loma
lomas
lombard
lombarda
lombardi
lombardia
lombardo
lome
lon
lona
lond
londen
london
londra
londres
lone
lonely
lonesome
long
longa
longe
longer
longest
longitud
longitude
longitudinal
longman
longmans
longo
longrightarrow
longs
longtemps
longtime
longue
longues
longueur
lons
lonsdale
lontano
loo
look
looked
looking
lookout
looks
lookup
loomis
loon
looney
loop
loos
loose
lop
lope
lopes
lopez
lor
lora
lorca
lord
lorde
lords
lore
loren
lorena
lorentz
lorenz
lorenzo
loreto
loretta
lori
lorient
lorna
loro
lorraine
lors
lorsqu
lorsque
los
lose
loser
loses
losing
loss
losses
lost
losti
lot
lothar
lothringen
lots
lotta
lotte
lottery
lotto
lotus
lou
loud
loue
lough
louie
louis
louisa
louise
louisiana
louisville
lounge
loup
lourdes
lourenc
louvain
louvre
lov
lova
lovato
love
lovecraft
loved
lovek
lovell
lovely
lover
lovers
loves
lovin
loving
lovstvi
low
lowa
lowe
lowell
lower
lowest
lowry
loy
loyal
loyalty
loyola
loz
lozano
loze
lp
lpa
lpg
lr
ls
lsa
lsd
lse
lsjbot
lska
lso
lst
lsu
lt
lta
ltal
ltala
ltd
lte
ltek
lten
lter
ltere
lteren
lteste
ltesten
ltig
ltima
ltimas
ltimo
ltimos
ltiples
ltnis
ltnisse
lto
ltoza
ltu
lu
lua
luan
luanda
luang
luar
luas
lub
lubin
lublin
luc
luca
lucas
lucatello
lucca
luce
lucerna
lucha
luci
lucia
lucian
luciana
luciano
lucie
lucien
lucifer
lucille
lucio
lucius
luck
lucknow
lucky
lucy
lud
lude
ludlow
ludnos
ludo
ludovic
ludovico
ludowej
ludu
ludvig
ludwig
ludwik
ludzi
ludzie
lue
luego
luer
luft
lufthansa
luftwaffe
lug
lugano
lugar
lugares
luge
luglio
lugo
lui
luigi
luis
luisa
luise
luiz
luk
luka
lukas
luke
lula
lulas
lulu
lum
luma
lume
lumen
lumi
lumie
lumiere
lumina
luminous
lumpur
lun
luna
lunar
lunch
lund
lunda
lundgren
lundi
lundy
lune
lunes
lung
lunga
lunghezza
lungo
lungsod
luo
luoghi
luogo
lupa
lupin
lupo
lupton
lupus
lur
lure
lus
lusaka
lust
lut
luta
lute
lutego
luther
lutheran
luton
lutte
lutter
lutz
luuk
luv
luvulla
luvun
lux
luxe
luxembourg
luxemburg
luxury
luy
luye
luz
luzern
luzon
lv
lva
lvarez
lvaro
lvi
lviv
lw
lwo
lx
ly
lya
lyal
lyce
lyceum
lycophytes
lyd
lydia
lye
lyga
lyi
lying
lyle
lyman
lyn
lynch
lyndon
lyne
lynn
lynne
lynx
lyon
lyonnais
lyons
lyra
lyre
lyric
lyrics
lys
lysa
lyse
lz
lze
lı
lık
lɑ
lɔ
lə
lɛ
m
ma
maa
maailman
maakt
maakte
maal
maan
maar
maart
maarten
maas
maastricht
mab
mabel
mabibilngan
mac
macao
macarthur
macau
macaulay
macbeth
maccabi
macchina
macdonald
mace
macedo
macedonia
macedonian
macfarlane
macgregor
mach
machado
machen
machi
machiavelli
machine
machinery
machines
macho
machos
macht
machte
maciej
macintosh
mack
mackay
mackenzie
maclean
macleod
macmillan
macon
macos
macpherson
macquarie
macro
macron
mactutor
maculata
macy
mad
mada
madagascar
madagaskar
madam
madame
maddalena
madde
madden
maddox
made
madeira
madeleine
madeline
mademoiselle
madera
madero
madhya
madison
madness
madonna
madras
madre
madrid
mads
madsen
madura
maduro
mae
maeda
maestra
maestri
maestro
mafia
mag
maga
magalha
magallanes
magana
magas
magasin
magazin
magazine
magazines
magda
magdalena
magdalene
magdeburg
mage
magellan
magenta
maggie
maggio
maggior
maggiore
maggiori
maghreb
magi
magia
magic
magical
magician
magie
magis
magister
magistrat
magistrate
maglia
magma
magna
magne
magnesium
magnet
magnetic
magni
magnificent
magnifique
magnitud
magnitude
magnitudes
magnitudo
magno
magnolia
magnoliopsida
magnum
magnus
magnusson
mago
maguire
magyar
magyarorsza
mah
maha
mahabharata
mahadevan
mahal
mahalle
maharaja
maharashtra
mahasz
mahatma
mahdi
maher
mahler
mahmoud
mahmud
mahomet
mai
maia
maid
maiden
maier
maig
maigret
maija
mail
mailand
maillot
main
maincol
maine
mainichi
mainland
mainly
mains
mainstream
maint
maintain
maintained
maintaining
maintains
maintenance
maintenant
maintenir
mainz
mainzer
maio
maior
maiores
maioria
mair
maire
maires
mairie
mais
maison
maisons
maitland
maj
maja
majd
majemuk
majesta
majeste
majestic
majesty
majeur
majeure
majewski
maji
majlis
majo
major
majora
majoria
majoritatea
majorite
majority
majors
maju
mak
maka
makan
makanan
makarov
make
maken
maker
makers
makes
makeup
maki
making
makita
makna
mako
makoto
maks
maksim
mal
mala
malabar
malade
malades
maladie
maladies
malam
malanushenko
malaria
malawi
malay
malaya
malayalam
malaysia
malaysian
malcolm
malden
maldives
maldonado
male
malek
malen
maler
malerei
males
malgre
malheur
malheureusement
malheureux
mali
malibu
malice
malik
malin
mall
malla
malle
mallet
malley
mallon
mallorca
mallory
malmo
malo
malone
malt
malta
malte
maltese
malu
maluku
malus
maly
mam
mama
maman
mamarana
mambo
mame
mami
mamma
mammal
mammalia
mammalian
mammals
mammoth
mampu
mamy
man
mana
manage
managed
management
manager
managers
manages
managing
manano
manaty
manca
mancall
mancante
mancha
manche
manches
manchester
manchmal
manchu
mancini
mand
manda
mandarin
mandat
mandate
mandato
mandatory
mande
mandel
mandela
mandelbaum
mandi
mando
mandy
mane
maneira
manera
manet
manfred
mang
manga
mange
mangelfull
manger
mango
manhattan
mani
mania
manie
manier
maniera
manifest
manifesta
manifestation
manifestations
manifeste
manifesto
manila
manipulation
manipur
manis
manitoba
manje
mankind
mann
manna
manne
mannen
manner
manners
mannes
mannheim
manning
mannschaft
mannschaften
manny
mano
manoel
manoir
manolo
manon
manor
manoro
manos
manquant
manquante
manquantes
manque
mans
mansfield
mansion
manson
mansur
manta
mantan
mante
manteau
mantel
mantener
manter
mantiene
mantle
manto
mantova
mantra
mantua
mantuvo
manu
manual
manuale
manuel
manuela
manufacture
manufactured
manufacturer
manufacturers
manufactures
manufacturing
manus
manuscript
manuscripts
manuscrit
manuscrits
manusia
manut
manx
many
manz
mao
maori
map
mapa
mapas
maplandia
maple
mappa
mapping
mapquest
maps
mapsto
maputo
mar
mara
maradona
marais
maran
maranha
maras
maraston
marat
marathi
marathon
marble
marbre
marburg
marc
marca
marcar
marcas
marcel
marcela
marcella
marcello
marcellus
marcelo
march
marcha
marchand
marchandises
marchands
marchant
marche
marcher
marches
marchese
marchetti
marching
marcia
marcin
marcio
marco
marconi
marcos
marcu
marcus
mardi
mare
marea
marek
mares
maret
marga
margala
margaret
margareta
margarete
margaretha
margarita
marge
margherita
margin
marginal
margit
margo
margot
marguerite
mari
maria
mariae
mariage
mariah
mariam
marian
mariana
marianna
marianne
mariano
maribor
marido
marie
marietta
marii
marija
marijuana
marilyn
marin
marina
marine
mariner
mariners
marines
marinespecies
marinha
marini
marino
marinos
marins
marinus
mario
marion
maris
marisa
mariscal
marit
maritima
maritime
maritimes
marito
marius
marja
marjorie
mark
marka
marke
marked
marken
marker
markers
market
marketing
marketplace
markets
markgraf
markham
markiert
marking
markku
marko
markov
markovic
marks
markt
markup
markus
marlborough
marlene
marley
marlon
marlowe
marne
maro
maroc
marokko
maroon
marque
marques
marquess
marquette
marquis
marquise
marr
marrakech
marre
marriage
marriages
married
marriott
marry
mars
marsden
marseille
marsh
marshal
marshall
marso
marston
mart
marta
marte
martel
marten
martens
martes
martha
marthe
marti
martial
martian
martie
martin
martina
martindale
martine
martinez
martini
martinique
martino
martins
martinus
martius
marto
marts
marty
martyn
martyr
martyrs
maru
marupokan
marvel
marvin
marx
marxism
marxist
mary
maryland
marzo
marzu
mas
masa
masalah
maschile
maschine
mascot
masculi
masculin
masculina
masculine
masculino
mase
maserati
mash
mashke
masi
masih
masing
masjid
mask
masked
masks
maskulinum
maso
mason
masque
mass
massa
massachusetts
massacre
massacres
masse
masses
massey
massif
massima
massimo
massive
masson
mast
master
mastering
masterpiece
masters
masu
masuk
masx
masyarakat
masz
ması
mat
mata
matador
matag
matahari
matang
matar
match
matches
matching
matchs
mate
mateix
mateixa
matema
matematica
matematik
matematika
mateo
mater
materia
material
materiale
materiales
materiali
materialien
materials
materie
materna
maternal
mateus
mateusz
math
mathbb
mathbf
mathcal
mathe
mathematica
mathematical
mathematician
mathematics
mathematik
mathematiker
mathew
mathews
mathfrak
mathias
mathieu
mathilde
mathis
mathrm
mathsf
mathur
mathworld
mati
matic
matica
matie
matilda
matilde
matin
matique
matiques
matisse
matka
matki
mato
matoanteny
matoari
matos
matric
matrice
matrices
matrimonio
matrix
matriz
mats
matsumoto
matt
matteo
matter
matters
mattha
matthew
matthews
matthias
matthieu
matti
mattia
matu
matud
mature
mau
maud
maude
mauer
maui
maule
maur
maura
maureen
maurer
mauri
maurice
mauricio
mauritania
mauritius
maurizio
mauro
maury
maus
mausoleum
mauvais
mauvaise
maux
maverick
mavericks
mawr
max
maxi
maxim
maxima
maximal
maximale
maxime
maximilian
maximilien
maximum
maximus
maxwell
may
maya
maybe
maydoni
mayen
mayenne
mayer
mayfield
mayhem
maynard
mayo
mayor
mayores
mayori
mayors
mayotte
mayr
mays
mayu
mayıs
maz
maza
mazda
maze
mazur
mała
małe
małgorzata
mało
mały
małz
mb
mba
mbc
mbe
mber
mbh
mbi
mbia
mbit
mbito
mbo
mbolo
mbolos
mbox
mbs
mc
mca
mcbride
mccain
mccall
mccann
mccarthy
mccartney
mcclure
mcconnell
mccormick
mccoy
mccracken
mcd
mcdermott
mcdonald
mcdonnell
mcdowell
mcfarland
mcg
mcgee
mcgehee
mcgill
mcgowan
mcgrath
mcgraw
mcgreer
mcgregor
mcguire
mci
mcintosh
mcintyre
mckamey
mckay
mckee
mckenna
mckenzie
mckinley
mclaren
mclaughlin
mclean
mcleod
mcmahon
mcmillan
mcnally
mcnamara
mcnary
mcneill
mcnulty
mcpherson
mcqueen
mcrae
mcu
md
mda
mde
mdr
mdz
me
mea
mead
meade
meadow
meadows
meal
meals
mean
meaning
meanings
means
meant
meanwhile
measure
measured
measurement
measurements
measures
measuring
meat
meaux
mec
meca
mecca
mechanical
mechanics
mechanism
mechanisms
mechelen
mecke
mecklenburg
mecky
meczu
med
meda
medaglia
medaille
medal
medalha
medali
medalist
medalla
medallas
medals
medan
mede
medea
medelli
medeltemperaturen
medesimo
medi
media
mediabestanden
mediados
median
mediana
mediante
medias
mediated
mediawiki
medic
medica
medical
medici
medicina
medicinal
medicine
medicines
medico
medida
medidas
medie
medien
medieval
medievale
medii
medina
medio
medioevo
medios
meditation
mediteranyo
mediterra
mediterranean
mediterraneo
medium
medizin
medlem
medlemmer
medley
medo
medusa
medvedev
medyo
medzi
mee
meek
meer
meerdere
meervoud
mees
meest
meestal
meeste
meet
meeting
meetings
meets
meg
mega
megachile
megadeth
megan
megaselia
mege
meget
meghan
meglio
mego
megye
meh
mehdi
mehiko
mehmed
mehmet
mehr
mehrere
mehreren
mehrfach
mehrheit
mehta
mei
meier
meiji
meilleur
meilleure
meilleures
meilleurs
mein
meine
meinem
meinen
meiner
meiningen
meinung
meio
meir
meist
meisten
meister
meisterschaft
meisterschaften
mej
meji
mejor
mejores
mek
mekong
meksika
meksiko
meksiku
mel
mela
melakukan
melalui
melancholy
melanie
melayu
melbourne
melchior
mele
melhor
melhores
melihat
melilla
melinda
melissa
mellan
melle
mellem
mellett
mellier
mello
mellom
mellon
mellor
melo
melodi
melodia
melodie
melodies
melody
melon
melrose
melting
melton
melville
melvin
mely
mem
membantu
membawa
membentuk
member
memberikan
members
membership
membra
membracoidea
membrana
membrane
membre
membres
membri
membro
membros
membuat
meme
mement
memento
memiliki
memo
memoir
memoire
memoirs
memorable
memorandum
memoria
memorial
memorials
memoriam
memorias
memorie
memories
memory
memphis
mempunyai
men
mena
menac
menace
mencapai
mence
mencio
mendapat
mendapatkan
mende
mendel
mendelssohn
mendes
mendoza
mene
menengah
mener
menerima
menes
menezes
meng
mengambil
mengandung
menge
mengenai
menggunakan
menghapus
meni
mening
meninggal
menjadi
menn
mennesker
meno
menon
menor
menores
menos
mens
mensa
mensch
menschen
menschlichen
mense
mensen
ment
menta
mentaire
mentaires
mental
mentale
mente
menteri
menti
mention
mentioned
mentionne
mentions
mento
mentor
mentre
ments
menu
menudo
menunjukkan
menurut
menyatakan
menyebabkan
menys
menzel
menzies
meo
mer
mera
merah
mercado
mercantile
mercato
merce
merced
mercedes
mercer
merchandise
merchant
merchants
merci
mercier
merck
mercure
mercurio
mercury
mercy
mere
meredith
mereka
merely
merge
merged
merger
meri
meridian
meridional
meridionale
merino
merit
merito
merk
merkel
merkez
merkezi
merkmale
merkmalen
merkur
merle
merlin
mermaid
mero
meronimy
meros
merr
merriam
merrill
merritt
merry
mers
mersin
mert
mertens
merton
meru
merupakan
mes
mesa
mese
meses
mesh
mesi
mesin
meskipun
mesma
mesmo
mesnil
meso
mesopotamia
mess
messa
message
messages
messe
messenger
messer
messerschmitt
messi
messiah
messico
messier
messieurs
messina
messo
mest
mesta
meste
mester
mesto
mestre
mestu
mesure
mesures
met
meta
metabolic
metabolism
metabrainz
metacritic
metadata
metade
metais
metal
metall
metallic
metallica
metallum
metals
metaphysics
metara
metaratings
metcalf
mete
meteor
meteorolo
meteorological
meteorology
meteors
meter
metern
meters
meth
method
methode
methoden
methodist
methodology
methods
methuen
methyl
meti
metod
metoda
metode
metodo
metorsza
metr
metra
metre
metres
metri
metria
metric
metro
metropolis
metropolita
metropolitan
metropolitana
metropolitano
metros
metru
mets
metsa
mettant
mette
mettent
mettere
metternich
mettre
metu
metz
metzger
metzler
meu
meunier
meurt
meurthe
meurtre
meus
meuse
mev
mewn
mex
mexican
mexicana
mexicano
mexicanos
mexico
mexiko
mexique
mey
meyer
meyers
meyrick
mez
meza
mezcla
mezi
mezina
mezo
mezzo
með
među
međutim
mf
mfa
mfn
mg
mga
mgm
mgr
mh
mhz
mi
mia
miai
miami
miast
miasta
miasto
miatt
miał
miała
miało
miały
mic
mica
micas
mice
mich
michae
michael
michaela
michaelis
michaels
michail
michal
michaud
michał
miche
michel
michelangelo
michele
michelin
michelle
michiel
michigan
michoaca
mick
mickey
mico
miconia
micos
micro
microbial
microbiol
microbiology
micron
micronesia
microscope
microsoft
microwave
mics
mid
mida
midas
middel
midden
middle
middlesbrough
middlesex
middleton
mide
midfielder
midi
midland
midlands
midnight
midst
midway
midwest
mie
miec
miechem
mieczysław
miedo
miei
miejsca
miejsce
miejscowos
miejscu
miel
mieli
miembro
miembros
mien
mientras
mientres
mierc
mierci
mies
miesia
miesie
miesto
mieszkan
mieux
mifflin
mig
might
mighty
miglior
migliore
migliori
migne
mignon
migrant
migrants
migration
migrations
migre
miguel
miha
mihai
mihail
mihi
mii
mij
mijn
mik
mika
mikael
mike
mikel
mikhail
miki
mikko
miklo
miko
mikołaj
mikula
mil
mila
milan
milanese
milano
mild
mildred
mile
milena
miles
milestone
milestones
miley
milford
milho
mili
milie
milieu
milieux
milik
milimetro
milion
miliona
milioni
milions
milita
militaire
militaires
militant
militante
militants
militar
militare
militares
militari
military
militer
militia
milito
miljo
miljoen
milk
milky
mill
milla
millar
millard
mille
millennium
miller
milles
millet
milli
milliards
millie
milliers
millimeter
million
millionaire
millionen
millioner
millions
milliy
milliyet
millo
millones
millor
mills
milne
milner
milo
miloradov
milos
milton
milwaukee
milyon
mim
mime
mimi
mimo
mimosa
min
mina
minahan
minaj
minami
minangka
minas
mince
mind
mindanao
mindat
minded
minden
minder
mindestens
mindre
minds
mine
minecraft
mineiro
minen
miner
minera
mineral
mineralogy
minerals
miners
minerva
mines
mineur
mineures
ming
minga
minh
minha
mini
miniature
minima
minimal
minimum
minin
minine
mining
miniserie
miniseries
ministe
minister
ministeri
ministerial
ministerio
ministerium
ministero
ministerpra
ministers
ministra
ministre
ministres
ministri
ministries
ministro
ministros
ministru
ministry
minka
minn
minna
minne
minneapolis
minnesota
minnie
mino
minogue
minor
minore
minori
minorities
minority
minorplanetcenter
minors
minsk
minst
mint
minu
minuit
minus
minut
minuta
minute
minuten
minutes
minuti
minuto
minutos
minutus
mio
miocene
mios
miq
mique
miquel
miques
mir
mira
mirabilis
miracle
miracles
mirada
mirage
miralda
miranda
mircea
mire
mireille
mires
miri
miriam
mirko
miro
miroir
miroslav
mirror
mirrors
mirza
mis
misa
misc
miscellaneous
misch
mische
mischen
mise
miserable
misericordia
misery
mises
misi
misio
misiones
misli
misma
mismo
mismos
miss
missa
missed
misses
missile
missiles
missing
mission
missionaries
missionary
missione
missions
mississippi
missouri
missy
mist
mista
mistake
mistaken
mistakes
miste
mister
misto
mistral
mistress
mistrz
mistrzostw
mistrzostwa
mistrzostwach
misty
misura
mit
mita
mitad
mitarbeiter
mitch
mitchell
mite
miteinander
mites
mitglied
mitglieder
mitja
mito
mitochondrial
mitologia
mitos
mitra
mitre
mitsubishi
mitt
mitte
mitteilungen
mittel
mittelalter
mittelalters
mitteleuropa
mittels
mitten
mitterrand
mittlere
mittleren
mittlerweile
miu
miura
mivel
mix
mixed
mixing
mixtape
mixte
mixture
miyamoto
miyazaki
miz
miłos
mj
mjesta
mjesto
mjo
mk
mku
ml
mla
mlada
mlade
mladi
mlb
mle
mlich
mlle
mln
mls
mly
mm
mma
mmajunkie
mme
mmel
mmen
mmer
mmr
mn
mna
mnd
mne
mnet
mnie
mniej
mno
mnogo
mnoho
mnoz
mnras
mo
moa
mob
mobil
mobile
mobility
moby
mobygames
moc
mock
mocratie
mocratique
mocy
mod
moda
modal
mode
model
modeling
modell
modelle
modellen
modelli
modelling
modello
modelo
modelos
models
modelu
modem
modena
moderate
moderator
modern
moderna
moderne
modernen
modernes
moderni
modernism
modernity
moderno
modernos
modes
modest
modesta
modeste
modesto
modi
modifica
modification
modifications
modifie
modified
modifier
modis
modo
modul
modular
modulation
module
modules
modulo
modus
moe
moeder
moest
moet
moeten
moffat
moga
moge
mogelijk
mogli
moglie
mographique
mogu
moguc
mogła
moh
mohamed
mohammad
mohammed
mohan
mohawk
mohd
mohr
moi
moignage
moin
moindre
moine
moines
moins
moire
moires
mois
moise
moitie
moj
moja
moje
mojej
mojo
mok
moka
moke
mol
mola
moldavia
molde
moldova
mole
molecular
molecule
molecules
moli
molie
molina
molino
molise
moliterno
moll
molla
molle
mollusca
molluscabase
molly
molo
molotov
molt
molta
molte
molti
moltke
molto
molts
molupyo
mom
moma
moment
momento
momentos
moments
momentu
momentum
mommsen
momo
mon
mona
monaco
monarca
monarch
monarchia
monarchie
monarchs
monarchy
monark
monaste
monasterio
monastero
monastery
monat
monate
monaten
mond
mondadori
monday
monde
mondes
mondial
mondiale
mondiali
mondo
mone
moneda
monet
moneta
monetary
money
monferrato
mong
mongol
mongolia
mongolian
mongols
moni
monica
monie
monika
monikko
monique
monitor
monitoring
monk
monkey
monkeys
monks
monmouth
monnaie
mono
monogatari
monograph
monographie
monographs
monopoly
monroe
mons
monseigneur
monsieur
monster
monsters
monstre
mont
monta
montage
montagna
montagne
montagnes
montagu
montague
montaigne
montan
montana
montant
montanus
monte
monteiro
montenegro
monter
monterey
montero
monterrey
montes
montesano
montesquieu
montevideo
montfort
montgomery
month
monthly
months
monti
monticola
montmartre
montmorency
monto
montoya
montparnasse
montpellier
montre
montreal
montrent
montrer
montreuil
montreux
montrose
monts
montserrat
monty
monument
monumenta
monumental
monumentale
monumento
monumentos
monuments
monza
moo
mood
moody
moon
mooney
moonlight
moons
moor
moore
moose
mor
mora
moraes
moral
morale
morales
morali
morality
morals
moran
morava
moravia
morbihan
morceau
morceaux
mord
more
moreau
moreira
morel
morelos
morena
moreno
moreover
mores
moretti
morfologia
morgan
morgen
mori
morin
morir
morire
moritz
morley
mormon
morne
morning
moro
moroccan
morocco
morphological
morphology
morre
morreu
morris
morrison
morrissey
morro
morrow
mors
morse
mort
morta
mortal
mortality
mortar
morte
mortem
morten
mortensen
mortes
mortgage
morti
mortimer
mortis
morto
morton
morts
morza
mos
mosaic
mosca
moscou
moscow
moscu
mose
moselle
moser
moses
moshe
moskau
moskva
mosley
mosque
mosquito
moss
mosse
mosses
most
mostar
mostly
mostra
mostrar
mostro
mostu
mosul
mosunod
mot
mota
motel
moteur
moteurs
moth
mother
mothers
moths
moti
motif
motifs
motilal
motion
motions
motiv
motivation
motive
motivi
motivo
motivos
moto
motogp
motor
motorcycle
motore
motoren
motores
motori
motorola
motors
motorsport
motorsports
motown
mots
mott
motta
motte
motto
motu
mou
moulin
moulins
mound
mount
mountain
mountains
mounted
moura
mourir
mourning
mourut
mouse
moussa
mouth
mouton
mouvement
mouvements
mov
move
moved
movement
movements
mover
moves
movie
movies
moviment
movimento
movimiento
movimientos
moving
mowd
moy
moya
moyen
moyenne
moyens
moyle
moz
mozambique
mozart
mozilla
mp
mpa
mpanao
mpandray
mpc
mpeg
mpfe
mpfen
mpfer
mph
mpi
mpica
mpico
mpicos
mpla
mpo
mps
mq
mr
mra
mrac
mrc
mrez
mri
mrna
mro
mrs
mrt
mrtav
ms
msa
msc
msk
msn
msnbc
msnm
mss
mst
msu
mt
mta
mtad
mtat
mter
mtliche
mto
mtv
mu
mua
muassa
mubarak
muc
much
mucha
muchas
mucho
muchos
mud
muda
mudanc
muddy
mudo
muell
mueller
muere
muerte
muerto
muertos
muestra
muet
mug
mughal
muh
muhammad
muhammed
mui
muir
muita
muitas
muito
muitos
mujer
mujeres
muka
mukaan
mukana
mukherjee
mul
mula
mulai
mulder
mule
mulher
mulheres
mulhouse
mullen
muller
mulligan
mulo
mult
multa
multe
multi
multimedia
multiplayer
multiple
multiples
multiplication
multitude
multrimedaj
mum
mumbai
mummy
mun
muna
munch
muncul
mund
mundi
mundial
mundo
mundu
mung
mungkin
muni
munich
munici
municipal
municipale
municipales
municipalite
municipalities
municipality
municipi
municipii
municipio
municipios
municipis
munisipyo
munitions
munk
munka
munn
munro
munster
munt
munzinger
muo
muoto
mur
mura
murad
murakami
mural
murat
murcia
murder
murdered
murderer
murders
murdoch
mure
mures
muri
muriel
murillo
murio
muro
muros
murphy
murray
murs
mus
musa
muscat
muscle
muscles
muscular
musculus
muse
museen
museet
musei
museo
museu
museum
museums
mushroom
mushrooms
musi
musiał
music
musica
musical
musicale
musicales
musicali
musicals
musicbrainz
musician
musicians
musicien
musiciens
musicline
musiikkituottajat
musik
musiker
musim
musique
musk
muslim
muslims
muss
mussolini
musste
mussten
must
musta
mustafa
mustang
muster
musulmanes
musulmans
musze
mut
muta
mutant
mutation
mutations
mute
mutiny
muto
mutta
mutter
mutual
muun
muy
muz
muzej
muzeum
muziek
muzik
muzika
muzyka
muß
mußte
mv
mvp
mw
mwaka
mx
my
mya
myanmar
mycket
mycol
mycologia
mye
myers
myles
mymovies
myo
myotis
myra
myrtle
mys
myself
mysore
myspace
mysql
myste
mysteries
mysterio
mysterious
mystery
mystic
mystical
mystique
myth
mythe
mythologie
mythology
mythos
myths
myung
mz
møller
møre
mıs
młody
młodziez
mœurs
mɑ
mɔ
mə
mən
məs
mɛ
n
na
naa
naacp
naam
naamwoord
naar
naast
nabi
nabla
nac
nace
nach
nacha
nachdem
nachdruck
nachfolger
nachrichten
nachruf
nacht
nacido
nacimiento
nacio
nacional
nacionales
nacionalista
nacionalna
nacionalni
naciones
nacl
naco
nacque
nad
nada
nadal
nadat
nade
naden
nader
nadi
nadia
nadie
nadika
nadine
nadir
nadmorskoj
nado
nadu
nae
nafar
nag
naga
nagano
nagar
nagasaki
nage
nagel
nagement
nager
nages
naglangkob
nagle
naglibot
naglukop
nagorno
nagoya
nagrada
nagroda
nagrody
nagu
nagusia
nagy
nagyobb
nagyon
nah
naha
nahe
nahezu
nahilalakip
nahimutang
nahimutangan
nahm
nahmen
nahuatl
nai
naik
nail
nails
nair
nairobi
naissance
naj
naja
najbardziej
najbliz
najc
najniz
najs
najvec
najvis
najwie
najwyz
nak
naka
nakai
nakajima
nakalista
nakamura
naked
nakhon
nakladatelstvi
nakon
nakuha
nal
nalazi
nale
nalez
nalista
nalukop
nam
nama
namco
name
named
namely
namen
namens
namentlich
names
nami
namibia
namie
naming
namn
namnet
namo
namun
namur
nan
nana
nancy
nanda
nang
nani
nanjing
nano
nansen
nant
nantes
nao
naomi
nap
napa
nape
napier
naples
napo
napoca
napole
napoleo
napoleon
napoleone
napoli
napr
naprzo
nar
nara
narayan
narbonne
narcissus
nard
nare
nario
nariste
naro
narod
naroda
narodne
narodowego
narodowej
narodowy
narodu
narra
narration
narrativa
narrative
narratives
narrator
narrow
naruto
narva
nas
nasa
nasal
nascar
nasce
nasceu
nascimento
nascita
nasdaq
nase
naselja
naselje
naseljeno
naseljima
naselju
nash
nashville
nasi
nasional
nasir
naskig
naslov
naso
nasod
nasr
nassau
nasser
nast
nasta
naste
nasty
nasz
nasza
nasze
naszych
nat
nata
natal
natale
natalia
natalie
natasha
nate
nath
nathalie
nathan
nathaniel
nati
nation
nationaal
national
nationalbibliothek
nationale
nationalen
nationalencyklopedin
nationales
nationalism
nationalist
nationalite
nationality
nationally
nationalmannschaft
nationalpark
nationals
nationalsozialismus
nationaux
nationen
nations
nationwide
nativa
native
natives
natl
nato
natomiast
natu
natur
natura
naturae
natural
naturale
naturales
naturaleza
naturali
naturalis
naturalist
naturalista
naturally
naturalmente
nature
naturel
naturelle
naturellement
naturelles
naturels
natureza
naturgeschichte
naturreservat
naturwissenschaften
natus
natychmiast
nau
nauc
naud
naughty
nauk
nauka
nauki
naukowe
nauru
nautical
nautilus
nav
nava
navajo
naval
navale
navarra
navarre
navarro
navas
nave
naver
naves
navi
navigation
navigator
navire
navires
navn
navnet
navy
nawet
nawr
naxos
nay
naz
nazareth
nazi
nazionale
nazionali
nazione
nazioni
nazis
naziv
nazw
nazwa
nazwe
nazwy
nazy
nb
nba
nbc
nberg
nbl
nbn
nbo
nc
nca
ncaa
ncbi
ncc
nce
nceput
ncer
nch
nchen
nchengladbach
nchez
nchner
nci
ncia
ncias
ncies
ncio
ncipe
ncis
nct
ncu
nd
nda
ndar
ndare
ndb
nde
ndel
nden
nder
ndern
ndert
nderte
nderung
nderungen
ndes
ndet
ndete
ndeten
ndez
ndi
ndia
ndice
ndido
ndig
ndige
ndigen
ndiger
ndiges
ndigt
ndihme
ndisch
ndische
ndischen
ndischer
ndk
ndl
ndler
ndlich
ndnis
ndo
ndola
ndole
ndolo
ndor
ndose
ndr
ndra
ndrome
nds
ndska
ndtv
ndu
ndung
ndə
ne
nea
neal
neapel
near
nearby
nearest
nearly
neas
neat
neb
neben
nebenformen
nebensatzkonjugation
nebinavkiri
nebo
nebot
nebraska
nebst
nebula
nebulae
nebulosa
neburg
nec
necesario
necesidad
necesita
necessa
necessarily
necessario
necessary
necessita
necessity
neck
neckar
ned
neda
nede
neder
nederbo
nederla
nederland
nederlands
nederlandsche
nederlandse
nedostaje
nedovrs
nee
need
needed
needham
needle
needs
neerlande
nees
neet
nef
neg
nega
negara
negativa
negative
negativo
negeri
neglect
neglected
negli
nego
negocios
negotiations
negra
negras
negre
negri
negro
negros
neh
nehmen
nehru
nei
neid
neige
neighbor
neighborhood
neighborhoods
neighboring
neighbors
neighbourhood
neighbouring
neighbours
neil
neill
nein
neis
neither
nej
nejleps
nejve
nejvys
nek
neka
nekaj
neke
neki
neko
nekoliko
nel
nele
nelja
nell
nella
nelle
nellie
nello
nelly
nelson
nem
nema
nemac
nemark
neme
nemen
nement
nements
nemesis
nemi
nemico
nemli
nemo
nems
nemu
nemzeti
nemzetko
nen
nena
nende
nene
neni
nennen
nennt
nens
nent
neo
neodređenog
neolithic
neon
neos
neotropical
nepal
nepali
nepenthes
nephew
nepomuk
nepr
neptune
neq
neque
ner
nera
nere
nergie
neri
nerladdad
nero
neros
nerve
nervous
nes
nese
nesi
nesrec
ness
nessa
nesse
nessun
nessuno
nest
nesta
neste
nestle
nestor
net
neta
netanyahu
nete
netflix
netherlands
neti
neto
nets
netto
nettsted
network
networking
networks
netz
neu
neubau
neucha
neue
neuen
neuer
neues
neuf
neuilly
neumann
neun
neur
neural
neuro
neurology
neuron
neurons
neuroscience
neustadt
neuter
neutral
neutre
neutro
neutron
neutrum
neuve
neuvie
neuville
neuz
neuzeit
neva
nevada
neve
neveik
never
nevers
nevertheless
neves
neveu
neville
nevis
nevu
new
newark
newcastle
newcomer
newell
newest
newfoundland
newly
newman
newport
news
newsbots
newsletter
newspaper
newspapers
newsroom
newsru
newsweek
newswire
newton
next
nexus
ney
neyi
nez
neza
nf
nfa
nfc
nfl
nfte
nften
ng
nga
ngadto
ngalan
ngan
ngaran
ngare
ngaro
ngay
ngc
ngd
nge
ngel
ngeles
ngen
nger
ngere
ngeren
ngerin
nghe
nghi
nghie
ngi
ngig
ngigkeit
ngilizce
nglich
ngliche
nglichen
ngnis
ngo
ngoa
ngre
ngs
ngst
ngt
ngu
ngua
nguez
ngulo
nguo
nguye
nguyen
nh
nha
nhau
nhe
nhi
nhie
nhk
nhl
nhn
nho
nhs
nhu
ni
nia
niadtong
niagara
niall
nias
niby
nic
nica
nicamente
nicaragua
nicas
niccolo
nice
nicene
nich
niche
nichol
nicholas
nicholls
nichols
nicholson
nicht
nichts
nici
nick
nickel
nickelodeon
nicki
nickname
nicky
nico
nicol
nicola
nicolae
nicolai
nicolas
nicolau
nicolaus
nicole
nicolo
nicolson
nicos
nicosia
nics
nicu
nid
nida
nidever
nido
nie
niech
nieco
nieder
niederla
niederlage
niederlande
niedero
niedersa
niedersachsen
niedz
niego
niei
niej
niekto
niel
niels
nielsen
niem
niema
niemal
niemand
niemcy
niemczech
niemeyer
niemi
niemiec
niemiecki
nien
nienia
niens
niente
niepodległos
nier
nies
niesprawdzonych
nieszcze
niet
nieto
nietzsche
nieukerken
nieur
nieuw
nieuwe
nieuws
nieves
niez
nifer
nig
nigdy
nige
nigel
niger
nigeria
nigerian
night
nightingale
nightmare
nights
nigin
niglich
nigliche
niglichen
nigra
nigreich
nigreichs
nigs
nigsberg
nih
niha
nihil
nihon
nii
niigata
niin
niini
niining
nij
nija
nije
nijmegen
nik
nika
nike
niki
nikita
nikkei
nikki
niklas
niko
nikola
nikolai
nikolaj
nikolaus
nikolay
nikoli
nikon
nikos
niks
nikt
niku
nil
nila
nilai
nile
niles
nilo
nils
nilsson
nim
nima
nime
nimi
nimmt
nimo
nimos
nin
nina
nincs
nine
nineteen
nineteenth
ninety
ning
ningen
ningu
ninguna
ninh
nini
niniejszy
ninja
nino
nintendo
ninth
nio
nior
nios
nippon
nique
niques
nir
niro
nirvana
nis
nisa
nisan
nisch
nische
nischen
nisi
niso
nissan
nist
nisu
nit
nita
nite
niti
nitif
nito
nitra
nitro
nitrogen
niu
niue
nius
niva
niveau
nivel
niveles
nivell
niversitesi
nix
nixon
niya
niz
nizza
nj
nja
nje
njega
njegov
njegova
njegove
njegovi
njegovo
njem
[...]
