!
"
#
##0
##1
##10
##11
##12
##13
##14
##15
##16
##17
##18
##19
##2
##20
##21
##22
##23
##24
##25
##26
##27
##28
##29
##3
##30
##31
##32
##33
##34
##35
##36
##37
##38
##39
##4
##40
##41
##42
##43
##44
##45
##46
##47
##48
##49
##5
##50
##51
##52
##53
##54
##55
##56
##57
##58
##59
##6
##60
##61
##62
##63
##64
##65
##66
##67
##68
##69
##7
##70
##71
##72
##73
##74
##75
##76
##77
##78
##79
##8
##80
##81
##82
##83
##84
##85
##86
##87
##88
##89
##9
##90
##91
##92
##93
##94
##95
##96
##97
##98
##99
$
%
&
'
(
)
*
+
,
-
.
/
0
00
000
001
002
003
007
01
013
02
03
0362
04
05
06
07
08
09
1
10
100
1000
1001
1002
1007
101
1016
1017
102
103
1037
1038
104
105
106
107
1073
108
1080
1086
1089
109
1093
1097
1098
11
110
1100
1103
111
1111
112
1126
113
1136
114
115
116
117
1177
118
1186
119
12
120
1200
1204
121
122
123
124
1244
125
1250
126
127
1274
128
129
13
130
1300
131
132
133
1330
134
1348
135
1350
1353
136
1365
137
1371
138
1385
1389
139
1392
14
140
1400
1405
1408
141
1416
1417
142
143
1430
1431
1432
144
1443
1444
1448
145
1450
1453
1455
1456
1458
146
1460
14651858
1466
1467
1468
1469
147
1470
1478
1479
148
1480
1481
1485
149
1490
1492
1494
1497
1498
1499
15
150
1500
1501
1502
1503
1504
1505
1506
1508
151
1510
1512
1513
1514
1515
1516
1517
1518
1519
152
1520
1521
1525
1526
1528
153
1530
1534
154
1540
1542
155
1550
1555
156
1560
1565
1566
1568
157
1570
1571
158
1580
1581
1582
1585
159
1590
1592
1595
16
160
1600
1603
1605
1606
161
1610
162
1620
1622
163
1630
1632
1635
164
1640
1642
1643
1644
1648
165
1650
1658
166
1660
1662
1665
1667
1669
167
1670
1672
1674
168
1680
1682
1683
1684
1685
1687
1688
1689
169
1690
1699
17
170
1700
1701
1702
1703
1705
1706
1707
1708
1709
171
1710
1715
1717
1718
172
1720
1722
1723
1724
1725
1726
1727
173
1730
1731
1732
1733
1735
1736
1737
1738
1739
174
1740
1741
1742
1743
1744
1745
1746
1747
1748
1749
175
1750
1751
1752
1753
1754
1755
1756
1757
1758
1759
176
1760
1761
1762
1763
1764
1765
1766
1767
1768
1769
177
1770
1771
1772
1773
1774
1775
1776
1777
1778
1779
178
1780
1781
1782
1783
1784
1785
1786
1787
1788
1789
179
1790
1791
1792
1793
1794
1795
1796
1797
1798
1799
18
180
1800
1801
1802
1803
1804
1805
1806
1807
1808
1809
181
1810
1811
1812
1813
1814
1815
1816
1817
1818
1819
182
1820
1821
1822
1823
1824
1825
1826
1827
1828
1829
183
1830
1831
1832
1833
1834
1835
1836
1837
1838
1839
184
1840
1841
1842
1843
1844
1845
1846
1847
1848
1849
185
1850
1851
1852
1853
1854
1855
1856
1857
1858
1859
186
1860
1861
1862
1863
1864
1865
1866
1867
1868
1869
187
1870
1871
1872
1873
1874
1875
1876
1877
1878
1879
188
1880
1881
1882
1883
1884
1885
1886
1887
1888
1889
189
1890
1891
1892
1893
1894
1895
1896
1897
1898
1899
19
190
1900
1901
1902
1903
1904
1905
1906
1907
1908
1909
191
1910
1911
1912
1913
1914
1915
1916
1917
1918
1919
192
1920
1921
1922
1923
1924
1925
1926
1927
1928
1929
193
1930
1931
1932
1933
1934
1935
1936
1937
1938
1939
194
1940
1941
1942
1943
1944
1945
1946
1947
1948
1949
195
1950
1951
1952
1953
1954
1955
1956
1957
1958
1959
196
1960
1961
1962
1963
1964
1965
1966
1967
1968
1969
197
1970
1971
1972
1973
1974
1975
1976
1977
1978
1979
198
1980
19807
1981
1982
1983
1984
1985
1986
1987
1988
1989
199
1990
1991
1992
1993
1994
1995
1996
1997
1998
1999
2
20
200
2000
2001
2002
2003
2004
2005
2006
2007
2008
2009
201
2010
2011
2012
2013
2014
2015
2016
2017
2018
2019
202
2020
2021
2022
2023
2024
203
204
205
206
207
208
209
21
210
211
212
213
214
215
216
217
218
219
22
220
221
222
223
224
225
226
227
228
229
23
230
2307
231
232
233
234
235
236
237
238
239
24
240
241
242
243
244
245
246
247
248
249
25
250
2500
251
252
253
254
255
256
257
258
259
26
260
261
262
263
264
265
266
267
268
269
27
270
271
272
273
274
275
276
277
278
279
28
280
281
282
283
284
285
286
287
288
289
29
290
291
292
293
294
295
296
297
298
299
3
30
300
3000
301
302
303
304
305
306
307
308
309
31
310
311
312
313
314
315
316
317
318
319
32
320
321
322
323
324
325
326
327
328
329
33
330
331
332
333
334
335
336
337
338
339
34
340
341
342
343
344
345
346
347
348
349
35
350
3500
351
352
353
354
355
356
357
358
359
36
360
361
362
363
364
365
366
367
368
369
37
370
371
372
373
374
375
376
377
378
379
38
380
381
382
383
384
385
386
387
388
389
39
390
391
392
393
394
395
396
397
398
399
4
40
400
4000
401
402
403
404
405
406
407
408
409
41
410
411
412
413
414
415
416
417
418
419
42
420
421
422
423
424
425
426
427
428
429
43
430
431
432
433
4331
434
435
436
437
438
439
44
440
441
442
443
444
445
446
447
448
449
45
450
451
452
453
454
455
456
457
458
459
46
460
461
462
463
464
465
466
467
468
47
470
471
472
473
474
475
476
477
479
48
480
482
483
484
485
486
487
488
49
490
491
492
493
495
496
497
498
499
5
50
500
5000
501
505
506
509
51
510
511
512
513
515
516
517
518
519
52
520
521
523
525
527
529
53
530
531
532
533
534
535
539
54
540
541
545
546
547
549
55
550
551
552
553
555
556
559
56
560
562
565
567
569
57
570
571
575
577
58
580
581
582
586
589
59
590
596
6
60
600
6000
602
608
61
610
613
614
615
618
62
620
621
622
623
624
625
627
628
63
630
631
632
633
634
639
64
640
642
643
65
650
656
658
66
660
661
663
666
667
67
670
671
674
68
680
684
69
691
7
70
700
7000
7017
705
71
72
720
73
730
737
74
75
750
76
760
764
77
78
780
79
8
80
800
8000
8014
8018
802
81
8108
82
820
83
84
85
850
86
87
870
88
89
9
90
900
91
92
93
94
95
950
96
960
97
973
975
978
9789951615846
9789994356225
98
99
9928
9951
999
99927
99943
99956
:
;
<
=
>
?
@
[
\
]
^
_
`
a
aa
aak
aargau
aaron
aaroni
aaronit
ab
abas
abasi
abaz
abazi
abbas
abbey
abbott
abc
abd
abdel
abdest
abdi
abdu
abdul
abdulaziz
abdulla
abdullah
abdullahu
abdurrahman
abdyl
abe
abedin
abej
abel
abetare
abhinav
aborti
abortion
abortit
about
above
abraham
abrahami
abrahamit
abria
absolut
absolute
absolutisht
abstrakt
abstrakte
absurde
abu
abul
abuzimi
abuzimit
ac
acade
academia
academic
academy
accademia
access
accessdate
accessed
according
account
ace
achillea
acid
acide
acidet
acidi
acidit
acm
aconitum
across
act
acta
action
active
activity
actor
actors
actress
ad
ada
adam
adami
adams
adaptive
addison
address
ade
adekuate
adelina
adem
ademi
ademit
adhurim
adhurimi
adhurimin
adhurimit
adhurohet
adhurojne
adhuroni
adhuronin
adhuruar
adhurues
adhuruesit
adi
adidas
adil
adjusted
adler
adlib
administrata
administrate
administration
administrativ
administrative
administrativisht
administrator
administratore
administrim
administrimi
administrimin
administrimit
administrohet
administruar
administruara
admiral
admirali
admirim
adn
adnan
adobe
adoleshence
adoleshent
adoleshente
adolf
adoptoi
adoptua
adoptuar
adra
adrat
adre
adresa
adresave
adrese
adresoi
adresuar
adrian
adriana
adriano
adrianopoje
adriatic
adriatik
adriatikut
adult
advanced
adventure
adventures
ae
aeroplan
aeroplane
aeroplani
aeroplanit
aeroport
aeroporti
aeroportin
aeroportit
af
afariste
afat
afatgjata
afatgjate
afati
afatin
afatit
afc
afe
afer
aferdita
affairs
affiliation
afgane
afganistan
afganistani
afganistanit
aforizma
afreske
afresket
africa
african
afrika
afrikan
afrikane
afrikano
afrike
afrim
afrimi
afrimin
afro
afrohej
afrohen
afrohet
afrua
afruan
afruar
afta
afte
after
ag
aga
again
against
agani
age
agency
agent
ages
agger
agim
agimi
agimit
agje
agjenci
agjencia
agjencine
agjencise
agjencite
agjent
agjente
agjenti
agnes
ago
agolli
agon
agra
agrare
agras
agreement
agresionit
agresiv
agresive
agriculture
agron
agroni
agu
ah
ahead
ahet
ahiret
ahmad
ahmed
ahmedi
ahmet
ahmetaj
ahmeti
ahmetit
ahu
ahut
ai
aid
aida
aids
aihole
ain
air
aires
airlines
airport
airways
ais
aise
aisha
aisne
aj
ajanta
ajax
aje
ajet
ajete
ajetet
ajeti
ajetin
aji
ajit
ajke
ajnshtajni
ajnshtajnit
ajo
ajri
ajrin
ajrit
ajror
ajrore
ajupi
ak
aka
akademi
akademia
akademie
akademija
akademik
akademike
akademine
akademise
akalli
akatsuki
akbar
akbarit
akc
ake
akili
akilit
akira
ako
akoma
akorduar
akra
akre
akredituar
akropolit
aks
akses
aksident
aksidentalisht
aksidenti
aksin
aksion
aksione
aksionet
aksioneve
aksioni
aksionin
aksionit
akt
akte
aktet
akteve
akti
aktin
aktit
aktiv
aktive
aktivisht
aktivist
aktiviste
aktivitet
aktivitete
aktivitetet
aktiviteteve
aktiviteti
aktivitetin
aktivitetit
aktivizimin
aktivizohet
aktivizua
aktivizuar
aktor
aktore
aktoren
aktoret
aktori
aktorin
aktorit
aktorja
aktrim
aktrimin
aktrimit
aktual
aktuale
aktualisht
aku
akull
akulli
akullit
akullnajave
akullnajore
akustike
akut
akute
akuza
akuzat
akuzave
akuze
akuzoi
akuzua
akuzuan
akuzuar
al
ala
alabama
alain
alam
alan
alarm
alaska
alaske
alb
alba
alban
albana
albanais
albane
albanese
albanesi
albani
albania
albanian
albanians
albanica
albanie
albanien
albaniku
albanikut
albanische
albanischen
albanolog
albanologjik
albanologjike
albanologjise
albany
albert
alberta
alberto
albin
albion
albrecht
album
albume
albumet
albumeve
albumi
albumin
albumit
albums
albus
alca
aldo
ale
aleanca
aleance
aleat
aleate
alegorike
alejandro
alejhi
aleks
aleksandar
aleksande
aleksander
aleksandri
aleksandrise
aleksandrit
aleksi
aleppo
alessandro
alex
alexander
alexandra
alexandre
alexandria
alexis
alfa
alfabet
alfabeti
alfabetik
alfabetin
alfabetit
alfonso
alfred
alfredo
algjebre
algjebrike
algjeri
algjeria
algjerise
algorite
algoritmi
ali
alia
aliaj
alicante
alice
alien
aligned
alija
aliriza
alise
alison
aliu
aliun
aliut
alive
alkool
alkooli
alkoolike
alkoolit
all
alla
allah
allahu
allahun
allahut
allama
allan
alle
allen
alliance
allier
allison
allmusic
alma
almost
alone
along
alonso
alpes
alpet
alpeve
alpha
alpin
alpine
alpiniste
als
alsace
also
alt
alta
altar
altare
altari
altarin
altarit
alternativ
alternativa
alternative
although
altimetrica
altin
alto
alumini
alush
alves
always
am
ama
aman
amanda
amanet
amantia
amar
amator
amatore
amazing
amazon
ambasada
ambasade
ambasador
ambasadore
ambasadori
ambasadorit
ambassador
ambicien
ambicioz
ambicioze
ambient
ambiente
ambientet
ambienti
ambientin
ambientit
ambulance
ame
amen
america
american
amerika
amerikan
amerikane
amerikano
amerike
ami
amin
aminoacideve
amir
amman
amnesty
amon
among
amonit
amor
amore
amos
amp
amplitude
amr
amsterdam
amtare
amundsen
amy
amza
amze
an
ana
anadoll
anadollit
anagnosti
analfabet
analfabete
analist
analiste
analitik
analitike
analiza
analizat
analizave
analize
analizon
analizuar
analog
analoge
analogji
analysis
anamali
anamorave
anas
anash
anasjelltas
anastas
anastasi
anastasia
anat
anatomia
anatomy
ancient
and
andaj
andalusia
andej
anders
andersen
anderson
andi
andon
andoni
andorra
andorre
andra
andre
andrea
andreas
andrei
andrew
andrews
android
andy
ane
aneksimin
aneksimit
aneksuar
anembane
anen
anetar
anetare
ang
angazhim
angazhimi
angazhimin
angazhimit
angazhohen
angazhohet
angazhua
angazhuan
angazhuar
ange
angel
angela
angeles
angelo
angels
angers
angl
anglez
angleze
angli
anglia
angline
anglise
anglisht
anglishte
anglishten
anglishtes
anglishtja
anglo
angola
anhalt
anhu
ani
anica
anice
anija
anije
anijen
anijes
anijesh
anijet
anijeve
anik
aniku
anikut
anila
animal
animals
animation
anime
animuar
anin
anit
anita
ankara
ankarase
ankesa
ankesat
ankese
ankete
ankohet
ankth
ankthi
ankthit
ankua
ann
anna
annals
anne
anni
annie
anniversary
anno
announced
announces
annual
anonim
anonime
anore
another
ans
ansambe
ansambli
ansamblin
ansamblit
anshe
anshme
ant
anta
antar
antare
ante
antena
antenat
antenave
antene
anthology
anthony
anthropology
anti
antibiotike
antifashist
antifashiste
antigua
antik
antika
antike
antikitet
antikiteti
antikitetin
antikitetit
antikomuniste
antiosmane
antiquity
antishqiptare
antitrupat
antitrupave
anto
antoine
antologji
antologjia
antologjine
anton
antoni
antoninus
antonio
antropologjia
antropologjise
antwerp
anulohet
anulua
anwar
anxhela
anxhelos
any
anzhuine
ao
ap
apache
aparat
aparate
aparati
aparatin
aparatit
apartament
apasionuar
ape
apel
apelit
aplikacion
aplikacione
aplikacionet
aplikacioneve
aplikacioni
aplikative
aplikim
aplikime
aplikimet
aplikimi
aplikimin
aplikimit
aplikohen
aplikohet
aplikuar
aplikuara
apo
apollo
apolloni
apollonia
apollonit
apoloni
apolonia
apolonise
apostolik
apostolike
apostujt
apostujve
apostull
apostulli
app
apple
application
applications
applied
approach
april
aprovuar
aq
aqif
aqsh
aqshf
aquitaine
ar
ara
arab
arabe
arabi
arabia
arabic
arabik
arabine
arabise
arabisht
arabishtja
arad
arago
aragon
arapi
arat
arave
arbana
arbanashka
arbanasi
arbe
arben
arberori
arbitrare
arbrit
arc
arcade
archaeological
archaeology
architectural
architecture
archive
archived
archives
ard
arde
ardenice
ardenne
ardennes
ardhacake
ardhe
ardhja
ardhje
ardhjen
ardhjes
ardhme
ardhmen
ardhmes
ardhmja
ardhshe
ardhshme
ardhur
ardhura
ardhurat
ardhurave
ardian
ardiane
ardit
are
area
areas
arena
arene
arge
argentina
arges
argjend
argjende
argjendi
argjendit
argjendte
argjentina
argjentinas
argjentinase
argjentine
argjile
argument
argumente
argumentet
argumenti
argumentoi
argumentojne
argumenton
argumentuar
ari
aria
arian
ariana
ariane
arianiti
arie
ariel
arif
arifi
arin
arinjte
aristokracia
aristokracise
aristokrate
aristokratike
aristoteli
aristotelit
aristotle
arit
aritmetike
ariu
ariut
arizona
arja
arjan
arje
arjen
ark
arka
arkaike
arkansas
arke
arkeolog
arkeologe
arkeologji
arkeologjia
arkeologjik
arkeologjike
arkeologjise
arkeologu
arkitekt
arkitekte
arkitekti
arkitektit
arkitektonik
arkitektonike
arkitektura
arkitekture
arkitekturor
arkitekturore
arkiv
arkiva
arkivat
arkivave
arkivi
arkivin
arkivit
arkivor
arkivore
arkivuar
arktik
arktike
arktikut
arm
arma
armand
armando
armata
armate
armatim
armatimi
armatimit
armatosur
armatosura
armature
arme
armen
armene
armeni
armenia
armenian
armenise
armenisht
armik
armike
armiku
armikun
armikut
armillotta
armiq
armiqe
armiqte
armiqve
armor
arms
armstrong
army
arn
arnold
aroma
aromatike
arome
around
arra
arratis
arratiset
arratisur
arre
arrest
arrestimi
arrestimin
arrestimit
arrestohet
arrestoi
arrestua
arrestuan
arrestuar
arrihen
arrihet
arrij
arrije
arrijme
arrijne
arrin
arrine
arrinin
arrinte
arrit
arrite
arriti
arritja
arritje
arritjen
arritjes
arritjet
arritjeve
arritshe
arritshme
arritur
arritura
ars
arsenal
arsenali
arsenalin
arsenalit
arshi
arsim
arsimi
arsimim
arsimimi
arsimimin
arsimimit
arsimin
arsimit
arsimor
arsimore
arsimtar
arsimtare
arsimuar
arsye
arsyeja
arsyen
arsyes
arsyeshe
arsyeshme
arsyet
arsyetim
arsyetimi
arsyetimin
arsyetuar
art
arta
artan
artane
arte
artet
arteve
arthritis
arthur
arti
article
articles
artificial
artificiale
artikuj
artikujsh
artikujt
artikujve
artikull
artikulli
artikullin
artikullit
artileri
artilerie
artilerise
artin
artist
artiste
artisti
artistik
artistike
artistikisht
artistin
artistit
artistja
artists
artit
artizanale
artizane
arts
artur
arturo
arumune
arvanite
arvanites
arvanitika
arxiv
as
asa
asaf
asaj
asamble
asambleja
asamblene
asamblese
ascii
asdreni
ase
asfaltuar
asgje
ash
ashak
ashanti
asher
ashke
ashley
ashpe
ashpra
asht
ashte
ashtu
ashtuquajtur
ashtuquajtura
ashtuquajturat
ashtuquajture
ashtuquajturi
ashtuquajturin
ashtuquajturit
asi
asia
asian
asim
asin
asiriane
asirise
asiste
asistence
asistent
asistente
asistoi
asistuar
ask
aske
askujt
askund
askush
asllan
asllani
asma
asnjane
asnje
asnjeri
aso
asociuar
asokohe
asp
aspak
aspects
aspekt
aspekte
aspektet
aspekteve
aspekti
aspektin
aspiratat
aspx
ass
assad
assembly
assessment
associated
association
associations
ast
aste
asti
astin
astit
aston
astrit
astronom
astronome
astronomi
astronomia
astronomike
astronomise
astronomy
asturias
at
ata
atalanta
atatu
ataturkut
atdhe
atdhetar
atdhetare
atdhetari
atdheu
atdheun
atdheut
ate
atehere
ateist
ateiste
atentat
athe
athena
athens
athina
athinase
athine
athletic
ati
atia
atij
atike
atille
atin
atine
atintane
atise
atit
atite
atje
atkinson
atlanta
atlantic
atlantik
atlantikut
atlantique
atlantiques
atlas
atle
atlete
atletico
atletike
atmosfera
atmosfere
atmosferik
atmosferike
ato
atom
atome
atomet
atomeve
atomi
atomik
atomike
atomit
atp
atribuar
atribuohen
atribuohet
atribut
atribute
atributet
atributeve
attack
attacks
aty
atyre
au
aube
auch
aude
audi
audienca
audience
audio
auf
auflage
augsburg
august
augusta
auguste
augusti
augustit
augusto
augustus
aurel
aurelius
aurora
aus
aushi
austin
australi
australia
australian
australiane
australine
australise
austri
austria
austriak
austriake
austrian
austrine
austrise
austro
autentik
autentike
author
authority
authors
auto
autobiografike
autobus
autobuse
autobusi
autokton
autoktone
automatik
automatike
automatikisht
automjet
automjete
automjetet
automjeteve
automobilave
automobilistik
automobilistike
autonom
autonome
autonomi
autonomia
autonomine
autonomise
autoqefale
autor
autore
autori
autorin
autorit
autoritare
autoritet
autoritetet
autoriteteve
autoriteti
autoritetin
autoritetit
autorizim
autorizimin
autorizuar
autorja
autosport
autostrada
autostrade
auvergne
auvernia
aux
av
ava
available
avancimin
avancuar
avancuara
avant
avantazh
avantazhin
avatar
avdi
ave
avec
aventura
aventurat
aventure
avenue
aveyron
aviacionit
avion
avione
avioni
avionit
aviv
avni
avokat
avokate
avokati
avokatit
avull
avulli
avullit
awakening
award
awards
away
ax
axel
ay
ayn
ayodhya
az
azem
azemi
azerbaijan
azerbajxhan
azerbajxhani
azerbajxhanit
azi
azia
aziatik
aziatike
azil
azine
azise
aziz
azizi
azotit
azur
b
ba
baba
babai
babain
babait
babaj
babajt
baballare
babane
babe
babiloni
babilonise
babiqi
babri
babushi
baby
bac
baca
bach
bachelor
back
background
bad
badami
bade
baden
bafta
bagdad
bagdadit
bage
baggio
bahadur
bahc
bahrain
bahreinit
bahri
bai
baica
baidah
bailey
bains
baix
baja
bajame
bajc
bajgora
bajgore
bajishtica
bajo
bajraktari
bajraku
bajram
bajrami
bajramit
bakalli
bake
baker
baki
bakr
bakri
bakrit
bakteret
baku
bal
bala
balada
balade
balaj
balance
balc
baldwin
bale
balena
balenat
balene
balerin
balerine
baleti
baletit
bali
balinca
balinoci
balkan
balkans
balkanweb
ball
balla
ballabani
ballafaqohet
balle
balli
ballin
balliste
ballit
ballkan
ballkani
ballkanik
ballkanike
ballkanin
ballkanit
ballore
ballsh
balsha
balshajve
balta
balte
baltik
baltike
baltimore
bamir
bamire
ban
banaras
banarsidass
band
banda
bandat
bandave
bande
bandite
banesa
banesat
banesave
banese
bang
bangalore
bangladesh
bangladeshi
bani
banim
banimi
banimit
banja
banje
banjica
banjo
banjska
bank
banka
bankar
bankare
bankat
bankave
banke
banks
banojne
banon
banonin
banonte
banor
banore
banoret
banoreve
banori
banu
banuar
banuara
banues
baptiste
bar
bara
barabar
barabarta
barabarte
barazi
barazia
barazim
barazime
barazimi
barazimin
barazimit
barazine
barazise
barazoi
barazon
barazuar
barbar
barbara
barbare
barc
barca
barcelona
barcelone
bardh
bardha
bardhe
bardhi
bardhit
bardhosh
bardhyl
bardhyli
bardi
bare
bari
barin
barinjte
barishte
barishtore
barit
baritore
bariu
bariut
barja
bark
barke
barker
barku
barkun
barkut
barleti
barletit
barnave
barnes
barok
baron
baroni
barra
barre
barrichello
barriere
barry
bart
barte
bartin
bartolomeo
bartur
barut
bas
basadi
base
based
basel
bash
basha
bashk
bashkangjitur
bashkatdhetare
bashkautor
bashkautore
bashke
bashki
bashkia
bashkiak
bashkiake
bashkie
bashkim
bashkimi
bashkimin
bashkimit
bashkine
bashkise
bashkite
bashkive
bashkohej
bashkohen
bashkoheshin
bashkohet
bashkoi
bashkoj
bashkojne
bashkon
bashkonte
bashkpunim
bashku
bashkua
bashkuan
bashkuar
bashkuara
basho
basic
basil
baske
basketball
basketboll
basketbolli
basketbollist
basketbolliste
basketbollit
basquiat
bass
basse
bastisje
bastisjes
bat
batalion
batalione
batalioni
batalionin
batalionit
bate
bateri
bathe
batista
batman
bato
battista
battle
batusha
baudouin
bauer
bavareze
bavaria
bavarise
bay
bayer
bayern
baza
bazat
bazave
baze
bazike
bazilika
bazilike
bazohej
bazohen
bazohet
bazua
bazuar
bazuara
bb
bbc
bc
bd
bdfutbol
bdi
be
beach
bean
bear
bears
beast
beat
beatles
beatrix
beaumont
beautiful
beauty
bebe
bec
became
because
beci
beck
beckham
become
becomes
bedri
bedrit
beduin
bee
been
beer
beethoven
befas
befasi
befasuar
befasuese
before
beg
begaj
begate
begati
begin
beginning
begins
begolli
begut
behar
behavior
behavioral
behaviour
behej
behet
behind
behluli
bei
being
beitra
bej
bejat
beje
bejko
bejlere
bejne
bekim
bekimet
bekimi
bekimin
bekofte
bekri
bektash
bektashi
bektashiane
bekteshi
bekuar
bel
bela
belarus
belbe
belegu
belfort
belg
belge
belgium
belgjika
belgjike
belgrade
beli
belica
bell
bella
belle
bello
bellopaqi
bellopoja
bellusci
belmont
belushi
ben
benares
bend
bendi
bendit
bendtner
bene
benedikti
benfica
bengal
bengali
bengalit
beni
beniaminit
benigni
benin
benito
benjamin
bennett
benson
bente
bentheim
benz
benzine
beograd
beogradi
beogradit
beqare
beqir
beqiri
ber
berat
berati
beratin
beratit
berbere
berberi
bere
berg
bergen
berger
beri
berisha
berishe
berkeley
berlin
berlini
berlinit
bern
bernabe
bernard
bernardo
bernd
berne
bernhard
bernstein
bertrand
bes
besa
bese
besiana
besiane
besim
besime
besimet
besimeve
besimi
besimin
besimit
besimtar
besimtare
besimtari
besnik
besnike
beso
besohej
besohet
besoi
besoj
besoje
besojme
besojne
beson
besoni
besonin
besonte
besosh
best
besua
besuan
besuar
besuat
besueshe
besueshme
beta
beteja
betejat
betejave
beteje
beth
betim
betimi
betimin
betimit
betohem
betohen
betoni
better
betty
betua
betuar
between
beu
beun
beut
beverly
bey
beyond
bf
bfi
bg
bh
bhairava
bharat
bi
bianca
bibaj
bibcode
bibe
bibla
bible
biblik
biblike
bibliografi
bibliografia
bibliography
biblioteka
bibliotekat
bibliotekave
biblioteke
bic
bicaj
bie
bien
big
bige
biggest
bih
bihar
bij
bija
bijat
bije
bijte
bijve
bilal
bilanci
bilancio
bilbao
bilbil
bilbili
bile
bilete
bill
billboard
billion
billy
bima
bime
bimet
bimi
bimin
bimit
bimore
bin
binar
binare
binc
bind
binde
binden
bindet
bindi
bindja
bindje
bindjen
bindjet
bindte
bindur
binin
binjake
bint
binte
bio
biodiversity
biografi
biografia
biografik
biografike
biografine
biografite
biographical
biography
biol
biological
biologji
biologjia
biologjik
biologjike
biologjine
biologjise
biology
bir
bird
birdlife
birds
bire
biri
birin
birit
birmania
birmingham
birra
birre
birth
birthday
bis
bised
biseda
bisedat
bisedave
bisede
bisedime
bisedimet
bisedimeve
biseduar
bisha
bishave
bishe
bishop
bisht
bishta
bishti
bishtin
bishtit
bistrica
bit
bite
bizantin
bizantine
bizantit
bizhuteri
biznes
biznese
bizneset
bizneseve
biznesi
biznesin
biznesit
biznesmen
biznesmene
bjellorusia
bjellorusise
bjere
bjeshke
bjo
bk
bksh
black
blackburn
blackpink
blackwell
blair
blake
blanc
blanco
ble
bleach
blegtorale
blegtori
blegtoria
blegtorise
blen
blene
blere
blerim
blerja
blerje
blerjen
blerjes
blerta
blerte
bleta
blete
bleu
blic
blinduar
blinduara
blinte
bllaca
bllace
bllata
bllok
bllokade
blloku
bllokuar
bllokun
bllokut
blloqe
blloqet
block
blog
blogspot
blood
bloom
bloomberg
bloomsbury
blu
bluar
blue
blues
blunt
bluze
bmatrix
bmo
bmw
bo
board
bob
bobby
boc
boca
boccaccio
bodrum
body
boeing
boga
bogdan
bogdani
bogdanit
bohemise
boi
bois
boj
boje
boke
boks
boksier
boksit
boletini
bolivia
bolle
bollshe
bollshme
bologna
bolonje
bolshevike
bolton
bomb
bomba
bombardimet
bombardimeve
bombe
bon
bonaparte
bonaventura
bond
bone
bonn
book
books
boom
booth
bor
bora
bord
bordeaux
border
bordi
bordin
bordit
bore
borg
borgjez
borgjeze
borgjezise
boric
boris
borja
born
borova
borussia
borxh
borxhe
borxhet
borxhi
borxhin
borxhit
bos
bosforit
bosh
boshe
boshlle
boshnjak
boshnjake
boshnjakisht
bosht
boshti
boshtin
boshtit
bosne
bosnia
bosnja
bosnje
bosnjes
boss
boston
bostonit
bot
bota
botanik
botanike
botasot
bote
boten
boterore
botes
both
botim
botime
botimet
botimeve
botimi
botimin
botimit
botohej
botohen
botohet
botoi
botoje
boton
botonte
botticelli
botua
botuan
botuar
botuara
botues
botuese
botuesi
botuesit
botushja
bouches
boundaries
bourg
bourgogne
box
boy
boys
boz
br
bra
brad
bradford
bradley
brady
brahim
brahimi
brahma
brahmine
brahms
brain
braina
braktis
braktise
braktisi
braktisin
braktisur
brand
brandenburg
brandt
branko
brasil
braun
brave
bravo
brawn
brazil
brazili
brazilian
braziliane
brazilin
brazilit
brdo
bre
break
breaking
bredh
bredhi
breg
bregas
bregdet
bregdetar
bregdetare
bregdeti
bregdetin
bregdetit
bregore
bregu
bregun
bregut
brejte
bremen
brenda
brende
brendi
brendshe
brendshme
brenge
brenner
brescia
breshe
breshka
breshke
brestoci
bretagne
brez
breza
brezat
brezave
brezi
brezin
brezit
breznic
breznica
brezovica
bri
brian
bridge
brief
brien
brigada
brigadat
brigadave
brigade
brigje
brigjet
brigjeve
brill
bring
brinja
brinje
brire
briri
brishte
brisk
brisku
bristol
britain
britanez
britani
britania
britanik
britanike
britanine
britanise
britannica
british
britma
britme
broadcast
broadcasting
broadway
brock
brod
brodi
brodit
broja
bronx
bronxi
bronz
bronze
bronzi
bronzit
bronzte
brook
brooke
brooklyn
brooks
bros
broshure
brother
brothers
brovina
brown
broz
brss
bru
bruce
bruksel
brukselit
brume
brumi
brunei
bruneit
bruno
brunswick
brusniku
brutale
bruto
bruyne
bryan
bryant
bs
bsc
bts
bu
bua
bualli
buan
buar
bublica
buc
buck
buda
budalla
budapest
buddha
buddhism
buddhist
bude
budist
budiste
budizmi
budizmin
budizmit
buenos
buffalo
buffon
buganda
bugatti
buhara
buhariu
building
buildings
built
bujanit
bujanoc
bujanoci
bujanocit
bujar
bujare
bujari
buje
bujk
bujku
bujq
bujqe
bujshme
bujt
buka
buke
bukhari
bukoshi
bukoviku
bukur
bukura
bukure
bukuresht
bukureshtit
bukuri
bukuria
bukurine
bukurise
bukurite
bule
buletini
bulgaria
bulgarian
bulku
bull
bulletin
bullgar
bullgare
bullgari
bullgaria
bullgarine
bullgarise
bullgarisht
bulqize
bum
buna
bundesliga
bundeslige
bundy
bune
bunjaku
bunker
bunyoro
buonarroti
bureau
burg
burgim
burgje
burgjet
burgjeve
burgos
burgose
burgoset
burgosur
burgosuri
burgosurit
burgosurve
burgu
burgun
burgut
burim
burime
burimet
burimeve
burimi
burimin
burimit
burimor
burimore
burke
burkina
burma
burns
burojne
buron
burr
burra
burrash
burrat
burrave
burre
burrel
burrelit
burri
burrin
burrit
bursa
burse
burton
burundi
bury
bus
busaid
bush
bushati
bushi
bushtrani
business
busquets
bust
busti
but
buta
butani
butanit
bute
butka
butler
butrint
butrinti
butrintit
butterfly
button
buu
buxhet
buxheti
buxhetin
buxhetit
buxhetore
buz
buza
buze
buzuku
by
byc
bylis
byrek
byroja
byron
byrose
bytyc
bytyqi
byzantine
byzantium
c
ca
cabanes
cache
caesar
cafe
cagliari
cahill
cairo
cak
cake
cakran
cakrani
caktimi
caktimin
caktohen
caktohet
caktoi
caktoj
cakton
caktua
caktuan
caktuar
caktuara
calais
calcio
california
call
called
calls
calvados
calvin
camaj
cambridge
came
cameo
cameron
cami
camille
camp
campaign
campbell
campeonato
campo
campus
can
cana
canada
canadian
canal
cancer
cani
canis
cannes
cantabria
cantal
canton
cap
capari
capcom
cape
capital
capone
cappella
captain
car
cara
caravaggio
card
cardiff
care
career
carey
cari
caribbean
carit
carl
carla
carles
carlo
carlos
carmen
carnegie
carnivora
carol
carolina
caroline
carrabregu
carrara
carrie
carroll
carta
carter
cas
casa
case
cases
cash
casillas
cassius
cast
castello
castile
castillo
castle
castriota
castro
cat
catalogue
catalunya
category
catherine
catholic
cato
cats
causa
cause
causes
caushi
cave
cavendish
caves
cbs
cc
cd
cdc
cdo
cdot
cdots
ce
cech
cecil
cecilia
ceka
ceke
cekur
cele
cell
celsius
celtic
celular
celulare
cen
censure
census
censuses
censusit
cent
center
centimetra
centimetres
centraal
central
centralizuar
centre
centro
centuries
century
ceo
cep
cepa
ceremoni
ceremonia
ceremoniale
ceremonine
ceremonise
ceremonite
ceres
cern
cernica
cerova
certain
certifikata
certifikate
cervantes
cesare
cest
cet
cetinje
ceylon
cezari
cezarit
cf
cfare
ch
cha
challenge
challenges
chalukya
cham
chamakh
champagne
champion
champions
championship
chams
chan
chanakya
chance
chandra
chandragupta
chanel
chang
change
changed
changes
changing
channel
chaos
chapman
chapter
character
characteristics
characters
charente
charentes
charles
charlie
charlotte
chart
charts
chase
che
chelsea
chemical
chemistry
chen
cheng
chennai
cher
chess
chi
chiang
chicago
chief
child
childhood
children
chile
china
chinese
ching
cho
choice
chola
cholas
chopper
chris
christian
christianity
christians
christie
christina
christine
christmas
christoph
christophe
christopher
chronicle
chronology
chu
chuck
chun
chung
church
churchill
ci
cia
ciceroni
cid
cigane
cigare
cike
cikle
cikli
ciklike
ciklin
ciklit
cila
cilado
cilat
cilave
cile
cilen
ciles
cilet
cili
cilido
cilin
cilinde
cilindo
cilindrike
cilit
cinema
cinge
cio
cipa
cipe
circ
circle
cirilik
cirku
cit
citation
cite
cities
citim
citimi
citizen
citon
citrus
citta
cituar
city
cityt
ciudad
civeti
civil
civile
civilisation
civilization
civilizimit
cjap
cjapi
ck
cka
cl
cla
claim
claims
claire
clara
clarence
clarendon
clark
clarke
clash
class
classic
classical
classics
classification
claude
claudia
claudio
clayer
cle
clement
cleveland
clifford
climate
clinical
clint
clinton
clio
clive
close
cloud
club
cm
cmimin
cn
cnn
co
coach
coast
coca
cochrane
code
codex
cognitive
cohen
col
cola
cold
cole
colin
collected
collection
collections
college
collins
colombia
colombo
colonial
color
colorado
columbia
columbus
com
come
comedy
comes
comic
comics
coming
comingsoon
command
commander
commentary
commerce
commission
committee
commodus
common
commons
commonwealth
communication
communications
communist
communities
community
como
companion
company
comparative
comparison
competition
compilation
complete
complex
composition
comprehensive
computer
computing
comte
con
conan
concept
concepts
concerning
concise
conde
conference
confirmed
confirms
conflict
congress
connecticut
connection
connor
conquest
conrad
consequences
conservation
considered
constant
constantine
constantinople
constitution
construction
contact
conte
contemporary
content
contest
context
continental
continuum
contract
contribution
control
convention
cook
cool
cooper
cooperation
coordinates
cop
copa
copat
copave
cope
copenhagen
coppa
copy
core
corleone
cornell
coronavirus
corporation
corpus
corre
corriere
corse
cos
cosh
cosimo
costa
could
council
count
counter
countet
countries
country
counts
county
coupe
course
court
cov
cover
covid
cox
cp
cpu
cr
craig
crash
crataegus
crawford
crc
cre
created
creation
creative
creek
crescent
creshneva
creuse
crime
crimes
criminal
crisis
cristiano
cristina
critical
critics
crne
croatia
croatian
cromwell
cross
crown
cruz
cry
crystal
cs
css
ct
ctor
cu
cuba
cuca
cult
cultura
cultural
culturali
culture
cultures
cum
cung
cunguar
cunningham
cup
cura
current
curri
curriculum
currit
curry
curtis
customs
cut
cv
cw
cycle
cyprus
cyrih
cyril
czech
d
da
dabi
dabit
dac
daci
dada
dafina
dafine
dag
dahl
dahomey
dai
daily
daimler
daimyo
daja
daje
dajti
dajtit
dake
dakord
dakota
dal
dala
dalai
dale
dali
dalim
dalin
dalja
dalje
daljen
daljes
daljet
dallas
dalle
dallge
dallim
dallime
dallimet
dallimeve
dallimi
dallimin
dallohej
dallohen
dallohet
dallojme
dallojne
dallon
dallonin
dallua
dalluan
dalluar
dallues
dalluese
dallueshe
dallueshme
dalmaci
dalmacise
dalmate
dalte
dalton
dalur
dam
dama
damask
damaskut
dame
damjani
dan
dana
dance
dancing
danez
daneze
danger
dani
daniel
daniele
danieli
danilo
danimarka
danimarke
danish
danisht
danny
dans
dante
dantes
danub
danubit
daphne
dar
dara
dardan
dardane
dardani
dardania
dardanise
dardha
dardhe
dare
dari
dark
darka
darke
darmstadt
daro
darwin
daryl
das
dash
dashamire
dashe
dashi
dashje
dashnor
dashte
dashur
dashura
dashure
dashuri
dashuria
dashurie
dashurin
dashurine
dashurise
dashurit
dashuruar
dasma
dasme
dass
data
database
databaza
datat
datave
date
dates
datojne
daton
datuar
daud
daughter
daulle
daut
dauti
dave
david
davidi
davidin
davidit
davies
davis
davudi
davudit
dawn
day
days
db
dc
dd
de
dea
dead
deadline
deal
dean
death
debat
debate
debatet
debati
debatin
debatit
deborah
debut
debutimi
debutimin
debutoi
debutuar
debutues
dec
december
decision
declaration
decline
deco
deda
dedaj
dede
dedikohet
dedikuar
dedja
dee
deep
defence
defense
defined
definition
definuar
defterin
deg
dega
dege
degli
dehur
dei
deir
dejan
deje
dekada
dekadat
dekadave
dekade
dekan
deklarata
deklaratat
deklarate
deklaroi
deklarojne
deklaron
deklarua
deklaruan
deklaruar
dekorata
dekorate
dekorativ
dekorative
dekorim
dekorime
dekorimi
dekorimin
dekorohet
dekorua
dekoruar
dekoruara
dekret
dekretet
dekreti
dekretin
del
delaware
dele
delegacion
delegacioni
delegacionin
delegacionit
delegat
delegate
delet
deleve
delfine
delhi
delhit
deli
delia
delikate
delja
dell
della
dellc
delle
dello
delta
delte
delvina
delvine
dem
dema
demac
demaj
demaku
demat
deme
demi
demir
demiraj
demiri
demit
demo
democracy
democratic
demografia
demografico
demografik
demografike
demographic
demokraci
demokracia
demokracine
demokracise
demokrat
demokrate
demokratik
demokratike
demon
demone
demonstrata
demonstratat
demonstratave
demonstrate
demonstruar
dempsey
den
dende
dendur
dendura
denis
denise
denje
denmark
dennis
density
dentare
departament
departamente
departamentet
departamenti
departamentin
departamentit
department
depe
depo
deportivo
depot
depozita
depozitat
depozite
depozituar
deprecated
depresion
depresioni
depresionit
depression
deputet
deputete
deputeti
deputetit
der
dera
derbi
derbin
derby
derdh
derdhe
derdhen
derdhet
derdhja
derdhje
derdhjen
derdhjes
derdhur
dere
derek
deri
derisa
derr
derrat
derri
derrin
derrit
dervish
dervishi
des
description
desert
desh
deshe
deshi
deshte
design
despot
despotatit
despoti
despotit
dessau
destani
destinacion
destinuar
destinuara
destiny
destruction
det
detail
details
detaj
detaje
detajet
detajeve
detajuar
detajuara
detar
detare
dete
detective
detet
deteve
deti
detin
detit
detroit
detyra
detyrat
detyrave
detyre
detyrim
detyrime
detyrimet
detyrimeve
detyrimi
detyrimin
detyrimisht
detyrohen
detyrohet
detyroi
detyrojne
detyron
detyronte
detyrua
detyruan
detyruar
detyrueshe
detyrueshme
deutsch
deutsche
deutschen
deutscher
deutschland
deux
deva
deve
deveja
development
developmental
devene
deves
devete
devi
devijuar
devil
devit
devoll
devolli
devollit
devotshe
devotshme
dewey
dexhalli
dexhallin
dexhallit
dfb
dh
dha
dhaja
dhame
dhan
dhane
dhanore
dhashe
dhate
dhe
dhelpe
dhelpra
dhelprat
dhelprave
dhelpre
dhemb
dhembja
dhembje
dhena
dhenave
dhene
dhenj
dhenje
dhenjte
dhente
dhenve
dheu
dheun
dheut
dhi
dhia
dhiate
dhima
dhimbja
dhimbje
dhimbjen
dhimbjes
dhimbjet
dhimbshe
dhimbshme
dhimite
dhimitri
dhise
dhite
dhive
dhjame
dhjata
dhjet
dhjeta
dhjetat
dhjete
dhjetor
dhjetore
dhjetori
dhjetorit
dhjetra
dhoma
dhomat
dhomave
dhome
dhulkarneini
dhulkarneinit
dhuna
dhune
dhunshe
dhunshme
dhunti
dhurata
dhuratat
dhurate
dhurohet
dhuroi
dhuron
dhuruar
di
dia
diabeti
diagnoza
diagnoze
dialekt
dialekte
dialektet
dialekteve
dialekti
dialektike
dialektin
dialektit
dialektore
dialog
dialogu
dialogun
dialogut
diamante
diamanti
diamete
diametri
diamond
diana
diane
diario
diaspora
diaspore
dibe
dibra
dibrane
dibre
dic
dick
dicka
dickens
dictionaries
dictionary
did
didaktike
didier
die
died
diego
diel
diele
diell
dielli
diellin
diellit
diellor
diellore
dies
dieta
diete
dieter
dietrich
diferenca
diference
diferenciale
diferencuar
difference
differences
different
diga
digambar
dige
digital
digitalb
digjen
digjet
digjital
digjitale
dihej
dihen
dihet
dija
dije
dijen
dijeni
dijes
dijet
dijetar
dijetare
dijetari
dijeve
dijshe
dijshme
dike
diktator
diktatori
diktatorit
diktatura
diktature
diku
dikujt
dikur
dikurshe
dikurshme
dikush
dil
dileme
dilni
dilnin
dilte
dime
dimension
dimensional
dimensionale
dimensione
dimensionet
dimitri
dimitrov
dimra
dimri
dimrin
dimrit
din
dinak
dinake
dinamik
dinamika
dinamike
dinamo
dinasti
dinastia
dinastine
dinastise
dinastive
dine
dini
dinin
dinjitet
dinjitetin
dino
dinte
dio
diode
dioksidit
dionysos
dioqeza
dioqeze
diploma
diplomaci
diplomacia
diplomacine
diplomacise
diplomacy
diplomat
diplomate
diplomati
diplomatic
diplomatik
diplomatike
diplome
diplomimit
diplomohet
diplomoi
diplomua
diplomuar
direct
direction
director
directory
direkt
direkte
dirigjent
disa
disave
discogs
discovery
disease
diseases
disertacionin
disfate
dish
dishepujt
dishepujve
disi
disiplina
disiplinat
disiplinave
disipline
disk
diskografike
diskrete
diskriminim
diskriminimi
diskriminimin
diskriminimit
disku
diskun
diskut
diskutim
diskutime
diskutimet
diskutimeve
diskutimi
diskutimin
diskutimit
diskutohet
diskutojne
diskuton
diskutua
diskutuan
diskutuar
diskutueshe
diskutueshme
disney
disorders
displaystyle
disponueshe
disponueshme
dispozicion
dispozita
dispozitat
dispozitave
dispozite
disqe
disqet
distanca
distance
distribution
district
distrikt
distrikte
distrikti
distriktin
distriktit
dit
dita
ditar
ditari
ditarin
dite
diten
ditet
ditions
ditor
ditore
ditur
dituri
dituria
diturine
diturise
diversitetit
diversity
divisio
division
divizion
divizione
divizioni
divizionin
divizionit
divjake
divorcuan
divya
dixhital
dixhitale
dizajn
dizajne
dizajni
dizajnin
dizajnit
dizajnuar
dizajnuara
dizdari
dizionario
dj
djal
djale
djali
djalin
djalit
djall
djalle
djalli
djallin
djallit
djalosh
djaloshi
djathe
djathi
djathta
djathtas
djathte
dje
djeg
djege
djegia
djegie
djegien
djegies
djegur
djegura
djem
djemt
djemte
djemve
djep
djepi
djerse
dk
dl
dmth
dna
do
dobe
dobi
dobishe
dobishme
dobraja
dobratini
dobrenoeci
dobroshani
dobroshi
doc
docent
docs
doctor
document
documentary
documents
doda
dode
dodona
dodone
does
doflamingo
dog
dogane
doganor
doganore
dogj
dogje
dogji
dogme
dogs
doi
doja
doje
dok
doke
dokle
doktor
doktorate
doktorature
doktore
doktori
doktrina
doktrinat
doktrine
dokument
dokumenta
dokumentar
dokumentare
dokumentari
dokumentat
dokumente
dokumentet
dokumenteve
dokumenti
dokumentin
dokumentit
dokumentuar
dokumentuara
dokush
dol
dolce
dole
doli
dollap
dollar
dollare
dollenca
dolli
dom
domain
domate
domatet
dome
domenico
domenin
domestic
domethe
domi
dominanca
dominante
domingo
dominikane
dominimin
dominioneve
dominique
dominojne
dominon
dominuar
dominues
dominuese
domosdoshe
domosdoshme
don
donald
donatello
donatore
done
donetsk
doni
donika
donin
donja
donje
donji
donna
donovan
donte
doo
door
dopiete
dor
dora
dordogne
dore
doreza
doreze
dorian
doris
dorothy
dortmund
dortmundi
dos
dosja
dosje
dot
double
doubs
douglas
dover
down
download
doyle
doza
doze
dp
dq
dr
drac
dracula
draft
draga
dragan
dragoi
dragoit
dragon
drake
drama
dramat
dramatik
dramatike
dramaturg
dramaturge
drame
drape
drastike
dravida
dravidian
dravidiane
draw
dre
dream
dreams
dredha
dredhe
dredhi
dredhur
drejt
drejta
drejtat
drejtave
drejte
drejten
drejti
drejtim
drejtime
drejtimet
drejtimi
drejtimin
drejtimit
drejtke
drejtohej
drejtohen
drejtoheshin
drejtohet
drejtoi
drejtoj
drejtoje
drejtojne
drejton
drejtonte
drejtor
drejtore
drejtoreshe
drejtori
drejtoria
drejtorin
drejtorine
drejtorise
drejtorit
drejtpe
drejtshkrimit
drejtua
drejtuan
drejtuar
drejtuara
drejtues
drejtuese
drejtuesi
drejtuesit
drejtuesve
dreke
drekes
drenas
drenasit
dreni
drenica
drenice
drenoci
drenoku
drenova
dreq
drere
dreri
dridhet
dridhje
drin
drini
drinit
drishtit
drita
dritan
dritare
dritares
dritaret
dritareve
dritarja
dritat
drite
drithe
drithi
drithit
drive
dro
droga
droge
drogomishti
drop
dru
drug
drunje
drunjte
drure
druri
drurin
drurit
drus
drute
drz
ds
dt
du
dua
duam
duan
duar
duart
duarte
duartrokitje
duarve
duash
dubai
dublin
dublohet
dublues
dubova
dubrava
dubrovnik
duc
duck
duckworth
dudaj
due
duel
duet
duhan
duhani
duhanin
duhanit
duhej
duhen
duheshin
duhet
duhur
duhura
duk
duka
dukagjin
dukagjini
dukagjinit
dukat
dukatit
duke
dukej
duken
dukesha
dukeshin
duket
dukje
dukshe
dukshme
dukur
dukuri
dukuria
dukurie
dukurite
dukurive
duma
dume
dumnica
duncan
duo
dur
duraku
durch
durga
durge
durham
durim
during
duro
duroj
duron
durre
durres
durueshe
dus
dushan
dushanit
dushi
dushk
dushku
dushkubica
dushkut
dutch
dvd
dvorishti
dw
dwelling
dx
dy
dybala
dyer
dyert
dyerve
dyfish
dyfishta
dyfishte
dygjuhe
dygole
dyja
dyjave
dykate
dylli
dymbe
dynamics
dynamo
dynasty
dyndjeve
dynja
dypale
dyqan
dyqane
dyqanet
dyqaneve
dyqani
dyqanin
dyqind
dyrrah
dyrrahut
dysh
dyshe
dysheme
dyshemeja
dyshemene
dyshemese
dyshim
dyshime
dyshimet
dyshimi
dyshimte
dyshja
dyshje
dyshohet
dyshon
dyshuar
dyta
dyte
dyti
dytin
dyve
dyvjec
dyzet
dz
dzeko
e
ea
each
eagle
eagles
earl
earliest
early
earth
earthquake
east
eastern
easy
eb
ebert
ebi
ebu
ec
ece
echo
eci
ecim
ecin
ecje
ecology
economic
economics
economist
economy
ecte
ecur
ecurine
ed
eddie
ede
eden
edgar
edge
edhe
edhepse
edi
edicion
edicione
edicionet
edicioni
edicionin
edicionit
edin
edinburgh
edinburgut
edison
edit
edited
edith
edition
editions
editor
editore
editorial
editors
editrice
edizioni
edmond
edmund
edo
eds
edu
eduard
eduardo
education
educational
edukata
edukate
edukativ
edukative
edukativo
edukatore
edukim
edukimi
edukimin
edukimit
edukuar
edward
edwards
edwin
ee
ef
efekt
efekte
efektet
efekteve
efekti
efektin
efektit
efektiv
efektive
efektshme
efendi
efendiu
effect
effects
efikas
efikase
efikasitetin
efraimit
ege
egje
egjeut
egjipt
egjiptasit
egjipti
egjiptian
egjiptiane
egjiptin
egjiptit
egnatia
egra
egri
egypt
egyptian
egziston
eh
ehli
ei
eichmann
eight
ein
einaudi
eine
einem
einer
eines
einstein
ej
eja
ejani
ejup
ek
ekber
eke
ekic
ekip
ekipe
ekipet
ekipeve
ekipi
ekipin
ekipit
ekisht
eko
ekologjik
ekologjike
ekonomi
ekonomia
ekonomik
ekonomike
ekonomikisht
ekonomiko
ekonomine
ekonomise
ekonomist
ekonomiste
ekonomite
ekosllovaki
ekosllovakia
ekosllovakise
ekran
ekrani
ekranin
ekranit
ekrem
ekskluzive
ekskluzivisht
eksodi
ekspedita
ekspeditat
ekspedite
eksperienca
eksperience
eksperiment
eksperimental
eksperimentale
eksperimente
eksperimentet
eksperimenteve
eksperimenti
ekspert
eksperte
ekspertize
eksplicite
eksploruar
eksport
eksportit
ekspozimi
ekspozimit
ekspozita
ekspozitat
ekspozite
ekspozuar
ekspozuara
ekspres
ekstrem
ekstreme
ekstremiste
eku
ekuacion
ekuacionet
ekuacioneve
ekuacioni
ekuacionin
ekuacionit
ekuador
ekuadori
ekuadorit
ekuatoriale
ekuatorit
ekuilibe
ekuilibri
ekuilibrin
ekuilibrit
ekuilibruar
ekuipazhi
ekuipazhin
ekuipazhit
ekuivalent
ekuivalente
ekzekutimet
ekzekutimi
ekzekutimin
ekzekutimit
ekzekutiv
ekzekutive
ekzekutohet
ekzekutua
ekzekutuan
ekzekutuar
ekzemplare
ekzistenca
ekzistence
ekzistoje
ekzistojne
ekziston
ekzistonin
ekzistonte
ekzistuar
ekzistues
ekzistuese
ekzotike
el
ela
elagabalus
elastike
elbasan
elbasani
elbasanit
elbe
elbi
elder
ele
elebi
election
elections
electric
electronic
elefant
elefante
elefanti
elefantit
elegance
elegant
elegante
elekronik
elektorale
elektr
elektricitetit
elektrik
elektrike
elektro
elektromagnetik
elektromagnetike
elektron
elektrone
elektronet
elektroneve
elektronik
elektronike
elektroteknike
element
elementare
elementary
elemente
elementet
elementeve
elementi
elementin
elementit
elements
eleminua
eleminuar
elena
elez
elezi
elezit
eli
elia
elias
elik
eliku
elikut
eliminimin
eliminua
eliminuar
elin
eliot
elisabeth
elita
elitare
elite
eliza
elizabeta
elizabeth
ellade
elle
ellen
elliott
ellis
ellora
elmazi
elo
elsa
elsat
elsevier
elsi
elsie
elsin
elsit
elton
elur
elvis
em
ema
email
emanuel
emanuele
emanueli
embassy
emblema
embleme
eme
emer
emergency
emergjence
emergjente
emetuar
emi
emigracionit
emigrant
emigrante
emigrimit
emigroi
emigruan
emigruar
emil
emilia
emilio
emily
emin
emir
emiratet
emirati
emiri
emision
emisione
emisionet
emisioneve
emisioni
emisionin
emisionit
emma
emmanuel
emmy
emocion
emocional
emocionale
emocione
emocionet
emocioneve
emperor
empire
empirike
emporda
emra
emrat
emrave
emri
emrin
emrit
emyx
en
ena
enc
enciclopedia
enciklopedi
enciklopedia
enciklopedik
enciklopedike
enciklopedine
enciklopedise
encyclopaedia
encyclopedia
encyclopedic
encyclopædia
end
ende
endemike
ends
endur
ene
energjetike
energji
energjia
energjie
energjik
energjike
energjine
energjise
energy
eng
engel
engine
engineering
engje
england
english
eni
enigma
enigme
enix
enkriptuar
eno
enough
enrico
enrique
entertainment
enti
entit
entitet
entre
entry
entuziaze
enver
enveri
environment
environmental
enzime
enzo
ep
epe
epi
epic
epik
epike
epir
epiri
epirin
epirit
epirote
epirus
episkop
episod
episode
episodes
episodet
episodi
episodin
epizodi
epoka
epoke
eposi
eposit
eprore
eqrem
er
era
erasmus
erc
erdha
erdhe
erdhi
ere
erebara
erek
eri
eric
erich
erik
eriksen
erion
eritrea
erkeze
erling
ermal
ernest
ernesto
ernst
erotike
erozioni
erre
error
erseke
erste
ertifikate
ervin
es
esad
esat
esc
escape
esctoday
ese
eseist
esence
esenciale
esh
eshme
esht
eshte
eshtra
eshtrat
eshtrave
esk
eskan
eskane
esko
esku
espan
espanyol
esperanto
espn
essay
essays
essential
essonne
est
esta
estadi
estate
este
esteban
ester
estetik
estetike
estimates
esto
estoneze
estoni
estonia
estonise
estrada
estrade
et
eta
etapa
etape
etat
etave
etc
ete
ethe
ethet
ethics
ethnic
ethnicity
ethnologue
etika
etike
etiketa
etiketat
etikete
etiketuar
etimologjia
etimologjike
etiopi
etiopia
etiopiane
etiopise
etj
etja
etje
etnik
etnike
etnikisht
etno
etnogr
etnografik
etnografike
eto
etruske
etur
etymology
eu
euf
eufrat
eufrati
euge
eugen
eugene
eugenio
euler
eulerit
eulex
euphorbia
eure
euro
europa
europe
european
europian
europiane
eurorilindja
euros
eurosong
eurosport
eurovision
eurovizion
eurovizionit
eurovoix
ev
eva
evac
evaluation
evans
evce
eve
even
evening
event
events
eventualisht
ever
everest
everton
every
everything
evic
evidence
evidentuar
evil
evis
evlija
evlijat
evo
evoluar
evolucionare
evolucioni
evolucionin
evolucionit
evoluoi
evolution
evolutionary
evropa
evrope
evropian
evropiane
ex
example
exchange
exclusive
exe
executive
exhibition
exit
exlibris
expansion
experience
experiment
experimental
expert
explorer
expo
exposition
express
extended
extra
eye
eyes
ez
ezari
ezekieli
f
fa
faber
fabio
fabrika
fabrikat
fabrike
fabula
fac
face
facebook
faces
fact
factboock
factbook
facto
factor
facts
faculty
fadil
fahd
fahri
faik
fair
fairy
faisal
faith
faj
faje
faji
fajin
fajit
fajtor
fajtore
fakt
fakte
faktet
fakteve
fakti
faktin
faktit
faktor
faktore
faktori
fakultet
fakultete
fakultetet
fakulteti
fakultetin
fakultetit
fal
fala
falas
fale
faleminderit
falen
falet
fali
falin
falja
falje
faljen
faljes
fall
falls
false
faltore
faltoren
faltores
faltoret
faltoreve
faltorja
falur
fama
fame
families
familja
familjar
familjare
familjarisht
familje
familjeje
familjen
familjes
familjet
familjeve
family
famous
famshe
famshme
famullitar
fan
fanella
fanelle
fans
fansat
fantastic
fantastik
fantastike
fantastiko
fantasy
fantazi
fantazme
fao
faq
faqe
faqen
faqes
faqesh
faqet
faqeve
faqja
far
fara
faraday
faraone
faraoni
faraonit
farat
fare
farke
farm
farmaceutike
farmaci
faroe
faruk
farz
farzet
fasada
fasade
fashion
fashist
fashiste
fashizmit
faso
fast
fasule
fat
fatal
fatale
fate
fatehpur
fatet
father
fathul
fati
fatih
fatimah
fatime
fatimes
fatin
fatit
fatkeq
fatkeqe
fatmir
fatmire
fatos
fauna
faune
favor
favorite
favorizuar
favorshe
favorshme
faza
fazat
fazave
faze
fazli
fazliu
fbi
fc
fe
fear
feat
feature
features
featuring
february
fec
federal
federale
federata
federate
federation
federativ
federative
federico
feet
fehmi
fehmiu
feisal
feja
feje
fejese
fejuar
fejzullahu
felidae
felipe
felis
felix
fellow
fem
female
feme
femije
femijes
femijet
femijeve
feminist
feministe
femra
femrat
femrave
femre
fen
fene
fenerbahc
fenikse
feniksit
fenomen
fenomene
fenomenet
fenomeneve
fenomeni
fer
ferdinand
ferdinandi
ferguson
ferid
ferit
ferizaj
ferizajit
ferizajt
ferma
fermat
ferme
fermentimit
fermere
ferna
fernando
ferr
ferra
ferrara
ferrari
ferre
ferrer
ferri
ferrit
fese
fesh
fest
festa
festat
festave
feste
festimet
festival
festivale
festivalet
festivaleve
festivali
festivalin
festivalit
festive
festohet
festoi
festojne
feston
festuar
fet
feta
fetar
fetare
fete
feu
feudal
feudale
feve
few
feyenoord
feyenoordi
feynman
ff
fhd
fi
fia
fiat
fiba
fibra
fibrat
fiction
ficus
fidane
fidel
field
fields
fier
fieri
fierit
fierze
fifa
fifpro
fifth
fig
fight
fighter
fighting
figura
figurat
figurativ
figurative
figurave
figure
figures
figuron
fije
fijes
fijet
fijeve
fik
fike
fiks
fikse
fiksuar
fiktiv
fiktive
fiku
fikut
fil
filadelfia
fildishte
file
files
filip
filipi
filipin
filipine
filipinet
filipineve
filipit
filippo
filistejte
filistejve
fill
fillestar
fillestare
filli
fillim
fillimet
fillimi
fillimin
fillimisht
fillimit
fillin
filloi
filloj
filloje
fillojme
fillojne
fillon
fillonin
fillonte
fillor
fillore
fillta
fillte
filluan
filluar
film
filma
filmash
filmat
filmave
filmi
filmik
filmike
filmin
filmit
films
filmuar
filologji
filologjik
filologjike
filologjise
filoz
filozof
filozofal
filozofe
filozofi
filozofia
filozofik
filozofike
filozofine
filozofise
filozofit
filxhan
fim
fime
fimet
fimi
fimin
fimit
fin
final
finale
finalen
finales
finalet
finalist
finaliste
finalja
finals
financa
financat
financave
finance
financial
financiar
financiare
financiarisht
financimi
financimin
financimit
financuar
find
finding
fine
finiste
finland
finlanda
finlande
finlandez
finlandeze
finlandisht
fino
fiorentina
fiorentine
fiq
firaja
fire
firence
firences
firenze
firma
firmat
firme
firmos
firmosi
firmosur
first
fis
fischer
fise
fiset
fiseve
fish
fisheke
fisher
fishke
fishta
fishte
fisi
fisin
fisit
fiskal
fiskale
fisnik
fisnike
fisnor
fisnore
fit
fitan
fitim
fitime
fitimet
fitimi
fitimin
fitimit
fitimprure
fitimtar
fitimtare
fitna
fitne
fitohen
fitohet
fitoi
fitoj
fitoje
fitojme
fitojne
fiton
fitonin
fitonte
fitore
fitoreje
fitoren
fitores
fitoret
fitoreve
fitorja
fitua
fituan
fituar
fituara
fitues
fituese
fituesi
fituesit
fituesve
five
fixhi
fiz
fizik
fizika
fizikan
fizikant
fizike
fizikisht
fiziko
fiziologjike
fj
fjal
fjala
fjale
fjali
fjalia
fjalie
fjalim
fjalime
fjalimet
fjalimi
fjalimin
fjalimit
fjaline
fjalise
fjalite
fjalive
fjalor
fjalore
fjalori
fjalorin
fjalorit
fjalorthi
fjetur
fk
fl
flag
flaka
flake
flakte
flamuj
flamujt
flamur
flamuri
flamurin
flamurit
flamurtari
flas
flase
flash
flasim
flasin
fle
fleksibe
fleming
flet
fleta
fletave
fletcher
flete
fletore
fletorja
fli
flight
flijim
flijime
flijimit
flisnin
fliste
flitej
fliten
flitet
floke
flora
flore
florence
florent
flores
flori
florian
florida
flota
flote
floyd
flu
fluksi
fluronvdekja
fluronvdekjes
flutur
flutura
fluturim
fluturime
fluturimet
fluturimi
fluturimin
fluturimit
fluturoi
fluturojne
fluturon
fluturuar
fluturues
fluturuese
flying
fm
fmn
fo
focus
foekema
fokus
fokusi
fokusohet
fokusuar
fol
fole
folene
foli
folja
folje
foljes
foljet
foljeve
folk
folklor
folklore
folklori
folklorik
folklorike
folklorin
folklorit
following
folur
folura
folurit
fond
fondacioni
fondacionin
fondacionit
fonde
fondet
fondeve
fondi
fondin
fondit
fonetik
fonetike
fontaine
food
foot
football
for
forall
forbes
forca
forcat
forcave
force
forces
forcimi
forcimin
forcoi
forcon
forcuar
ford
foreign
forest
forever
forgotten
form
forma
formacion
formacione
formacionet
formacioneve
formacioni
formacionin
formal
formale
formalisht
format
formati
formatim
formatin
formation
formatit
formave
forme
formen
former
formim
formimi
formimin
formimit
formohen
formohet
formoi
formoje
formojne
formon
formonin
formonte
forms
formua
formuan
formuar
formuara
formuese
formula
formule
formulimin
formuluar
fort
forta
forte
fortesa
fortese
fortifikimet
fortifikimeve
fortifikimi
fortifikuar
fortifikuara
fortune
forum
forumi
forumit
forward
foshnja
foshnjat
foshnjave
foshnje
fosile
fosilet
fossil
foster
foto
fotograf
fotografe
fotografi
fotografia
fotografik
fotografike
fotografine
fotografise
fotografite
fotografive
fotografuar
foton
fotosinteze
fotot
found
foundation
foundations
founder
four
fourfourtwo
fourth
fox
fq
fqinj
fqinje
fr
fra
frac
fragment
fragmente
framework
fran
franc
franca
france
frances
francesc
francesca
francesco
francez
franceze
franche
francis
francisco
francisko
franco
frang
franga
frank
franke
frankfurt
franklin
franko
franky
franz
fraser
frashe
frasheri
fraza
fraze
fre
fred
frederic
frederick
frederik
free
freedom
freeman
freiburg
freire
frekuenca
frekuencat
frekuencave
frekuence
french
frengjisht
freske
freud
frey
fribourg
friday
friedman
friedrich
friend
friendly
friends
friesland
frieslandit
frigorifer
frika
frikacak
frike
frikshe
frikshme
frisch
fritz
friza
from
fron
froni
fronin
fronit
front
fronti
frontier
frontin
frontit
fru
frut
fruta
frutash
frutat
frutave
fruti
frutin
frutit
frutore
fry
fryhet
fryma
fryme
frymore
fryn
fryre
fryt
fryte
frytet
fryti
fshat
fshatar
fshatare
fshati
fshatin
fshatit
fshatra
fshatrat
fshatrave
fsheh
fshehe
fshehin
fshehta
fshehtat
fshehte
fshehur
fshehura
fshehurazi
fshese
fshf
fshihen
fshihet
fshij
fshike
fshire
fshmn
fsk
ft
fte
fterra
fterre
ftese
ftohe
ftohet
ftohta
ftohte
ftohtit
ftohur
ftoi
fton
ftore
ftp
ftua
ftuan
ftuar
ftuarit
ftyra
fu
fuad
fuat
fuc
fulham
full
function
fund
funde
fundi
fundin
fundit
fundjave
fundme
fundmi
fundore
fundos
funeral
funksion
funksional
funksionale
funksionar
funksionare
funksione
funksionet
funksioneve
funksioni
funksionimi
funksionimin
funksionimit
funksionin
funksionit
funksionoi
funksionoje
funksionojne
funksionon
funksiononte
funksionuar
fuqi
fuqia
fuqie
fuqimisht
fuqine
fuqiplote
fuqise
fuqishe
fuqishme
fuqite
fuqive
fuqizimin
furc
furierit
furnizim
furnizime
furnizimi
furnizimin
furnizimit
furnizon
furnizuar
furra
furre
further
furtune
fush
fusha
fushat
fushata
fushatat
fushatave
fushate
fushave
fushe
fushen
fushor
fushore
fusin
fusnota
fustan
fut
futboll
futbolli
futbollin
futbollist
futbolliste
futbollisti
futbollistik
futbollistike
futbollit
fute
futen
futet
futi
futja
futjen
futjes
futsal
futur
futura
future
fyell
fyelli
fyen
fyer
fyerje
fyes
fyese
fyt
fytit
fytyra
fytyrat
fytyre
g
ga
gabim
gabime
gabimet
gabimeve
gabimi
gabimin
gabimisht
gabon
gaboni
gabriel
gabriele
gabuar
gabuara
gac
gadimja
gadishulli
gadishullin
gadishullit
gaetano
gaius
gajtani
gal
gala
galatasaray
galaxy
gale
galeri
galeria
galerie
galerine
galerise
gali
galic
galica
galicia
galileo
galleria
gallery
galloway
gama
gambia
game
games
gamma
gana
gandhi
gane
ganesha
gang
ganga
gangut
gani
gap
gaqo
gara
garanci
garantohet
garanton
garantuar
garat
garave
garci
garcia
gard
garda
garde
garden
gardens
gardh
gardner
gare
gareth
garfield
garnizoni
garnizonit
garoi
garon
garonne
garp
garuar
garues
gary
gas
gashi
gashit
gaspar
gaston
gate
gates
gateway
gati
gatim
gatimi
gatimit
gatishme
gatshe
gatshme
gatuar
gaudi
gauri
gautama
gawrych
gay
gaya
gaz
gaza
gaze
gazet
gazeta
gazetar
gazetare
gazetari
gazetarise
gazetarit
gazetat
gazetave
gazete
gazette
gazetteer
gazeve
gazi
gazin
gazit
gazmend
gazrave
gazte
gazzetta
gb
gd
gdhende
gdhendje
gdhendur
gdhendura
gdp
ge
geer
gega
gege
geisha
gej
gel
gelderland
gen
genc
gender
gene
general
generation
genesis
geneta
genetic
genetics
genetta
geneva
genius
genoa
genocide
gent
genti
gentian
gentiana
genus
geoffrey
geographic
geographical
geography
geological
georg
george
georges
georgi
georgia
georgios
ger
gerald
gerard
gerhard
germa
germain
german
germany
gers
geschichte
gesellschaft
get
gets
ghat
ghatet
ghati
ghatin
ghatit
gheorghe
ghost
ghulam
ghz
gi
giacomo
gianni
giant
gibbon
gibson
giggs
gil
gilbert
gill
gilles
gim
gimi
gimia
gimine
gimise
gimtar
gimtare
gimtari
gina
gion
giorgio
giotto
giovanni
girl
girls
girona
gironde
gis
gisht
gishta
gishtat
gishtave
gishte
gishti
gishtin
gishtit
giuliano
giulio
giuseppe
give
given
gives
gize
gj
gja
gjah
gjahtare
gjahu
gjahun
gjahut
gjak
gjakderdhje
gjake
gjakftohte
gjakova
gjakove
gjakpe
gjaku
gjakun
gjakut
gjalla
gjalle
gjallese
gjalpe
gjarpe
gjarpri
gjarprit
gjasa
gjase
gjashta
gjashte
gjashti
gjat
gjata
gjate
gjatesi
gjati
gje
gjec
gjedhe
gjegje
gjej
gjeje
gjejme
gjejn
gjejne
gjel
gjelbe
gjelbra
gjeli
gjell
gjella
gjelle
gjemb
gjemba
gjen
gjend
gjende
gjendej
gjenden
gjendeshin
gjendet
gjendja
gjendje
gjendjeje
gjendjen
gjendjes
gjendjet
gjendjeve
gjendur
gjene
gjeneral
gjenerale
gjenerali
gjeneralin
gjeneralit
gjenerata
gjeneratat
gjeneratave
gjenerate
gjeneratore
gjenerimin
gjeneron
gjeneruar
gjenet
gjenetik
gjenetike
gjenetikisht
gjeneve
gjeni
gjenin
gjenitale
gjeniu
gjenocidi
gjenocidit
gjente
gjeo
gjeogr
gjeograf
gjeografe
gjeografi
gjeografia
gjeografik
gjeografike
gjeografikisht
gjeografine
gjeografise
gjeol
gjeologjik
gjeologjike
gjeologjise
gjeom
gjeometri
gjeometria
gjeometrik
gjeometrike
gjeometrine
gjeometrise
gjeopolitike
gjeorgji
gjeorgjia
gjeorgjiane
gjeorgjise
gjer
gjera
gjere
gjergj
gjergji
gjergjit
gjerman
gjermane
gjermani
gjermania
gjermanike
gjermanine
gjermanise
gjermanisht
gjermanishten
gjermanishtes
gjermanishtja
gjermano
gjersa
gjesh
gjest
gjet
gjeta
gjete
gjethe
gjethes
gjethet
gjetheve
gjeti
gjetiu
gjetja
gjetje
gjetjen
gjetjes
gjetjet
gjetke
gjetur
gjetura
gji
gjigand
gjigande
gjigant
gjigante
gjika
gjilan
gjilani
gjilanit
gjilpe
gjimi
gjimit
gjimnastike
gjimnaz
gjimnazi
gjimnazin
gjimnazit
gjin
gjinaj
gjinden
gjindet
gjini
gjinia
gjinie
gjinine
gjinise
gjinite
gjinive
gjinor
gjinore
gjiri
gjirin
gjirit
gjirokaste
gjirokastra
gjirokastre
gjitar
gjitare
gjith
gjitha
gjithandej
gjithanshe
gjithanshme
gjithash
gjithashtu
gjithc
gjithcka
gjithe
gjithfare
gjithkush
gjithmon
gjithmone
gjithnje
gjithsej
gjithsesi
gjize
gjo
gjobe
gjohej
gjohen
gjohet
gjoi
gjoj
gjoja
gjoje
gjojme
gjojne
gjoka
gjokaj
gjoke
gjoks
gjoksi
gjoksin
gjoksit
gjon
gjonaj
gjoni
gjonin
gjonit
gjonte
gjova
gjovalin
gju
gjua
gjuajne
gjuajte
gjuajtje
gjuajtjet
gjuajtur
gjuan
gjuar
gjuetare
gjueti
gjuetia
gjuetine
gjuetise
gjuh
gjuha
gjuhe
gjuhen
gjuhes
gjume
gjumi
gjumin
gjumit
gjunje
gjurgjeviku
gjurit
gjurma
gjurme
gjurmime
gjykata
gjykatat
gjykatave
gjykate
gjykim
gjykime
gjykimet
gjykimeve
gjykimi
gjykimin
gjykimit
gjykohet
gjykoje
gjykon
gjykuar
gjymtyre
gjynah
gjyq
gjyqe
gjyqi
gjyqin
gjyqit
gjyqtar
gjyqtare
gjyqtari
gjyqtarit
gjyse
gjyshe
gjyshi
gjyshit
gjyshja
gjysma
gjysme
gladiatore
glasgow
glasnik
glass
glen
glenn
gli
gllabe
gllavica
glloboc
gllogjani
global
globale
globe
globin
globit
globus
glock
gloria
glory
glossary
glu
glukoze
gmbh
gnu
go
goal
goals
goce
god
godas
godase
godasin
goddess
godeni
godet
godfather
godina
godine
godiste
godit
godite
goditi
goditja
goditje
goditjen
goditjes
goditjet
goditjeve
goditur
gods
goes
goethe
goge
goi
going
goja
goje
gojore
goku
gokut
gol
gola
golashe
golat
golave
gold
golden
goldman
gole
golem
golemi
goli
golin
golit
goma
gomar
gomare
gomari
gome
gomez
gone
gonza
gonzalez
gonzalo
good
google
gopal
gora
goran
gorana
gorane
gordon
gore
gori
gornja
gornje
gornji
gosti
gostivar
gostivari
gostivarit
got
gota
gote
gotha
gotik
gotike
gottfried
gov
government
governoratin
goxha
gozhde
gp
gps
gr
gra
grabite
grabitje
grabitqar
grabitqare
graboci
grac
grace
gracka
gracke
grad
grada
gradat
grade
gradeci
gradua
gradual
graduale
gradualisht
graduate
graf
grafik
grafike
grafiku
graham
gram
gramatika
gramatike
gramatikore
grame
grammar
grammy
gramoz
gramsh
gramshit
gran
granada
grand
grande
granger
granit
graniti
grant
graphic
grash
grat
grate
graubu
grav
grave
gravitacionale
gravitetit
gray
graz
grc
gre
great
greater
greatest
greece
greek
greeks
green
greene
greenwood
greg
gregori
gregorian
gregory
grek
greke
greko
gremine
grep
greq
greqi
greqia
greqine
greqise
greqisht
greqishten
greqishtes
greqishtfole
greqishtja
greshnica
greta
greva
greve
grey
gri
grid
griffin
grigor
grimca
grimcat
grimcave
grimce
grindje
grindjet
gripit
grire
grisur
gro
groningen
grop
gropa
gropat
grope
ground
group
groups
grove
growing
growth
gru
grua
gruaja
gruaje
gruan
gruas
gruda
grude
grumbull
grumbullimi
grumbullimin
grumbullimit
grumbullohen
grumbulluar
grumbulluara
grup
grupe
grupet
grupeve
grupi
grupim
grupin
grupit
grupuar
grure
gruri
grurin
grurit
grusht
grushti
grushtit
gruyter
gryka
gryke
gt
gu
guadeloupe
guajana
guan
guar
guara
guardian
guardiola
guaske
guatemala
guatemale
guci
gucia
gucise
gue
guelders
guerile
guerra
guetta
guevara
guez
guide
guides
guido
guild
guillaume
guillermo
guinea
guinese
guinness
guitar
gujarat
gumnishti
gun
gune
gunga
gunge
guns
gupta
gur
gurakuqi
gure
guri
gurin
gurit
gurra
gurre
gurte
guru
gushe
gusht
gushti
gushtit
gustaf
gustav
gustavo
gutenberg
guvernator
guvernatore
guvernatori
guvernatorin
guvernatorit
guxim
guximi
guximin
guximshe
guximshme
guxon
guy
gyan
gyatso
gyp
gypsy
h
ha
haaland
habi
habib
habine
habitat
habitatet
habitateve
habitatit
habitshme
habitur
habsburge
had
hadith
hadithe
hadithet
haditheve
hadithi
hadithin
hadithit
hadri
hafez
hafiz
hage
hahen
hahet
hahn
haiti
hajati
hajdar
hajdari
hajde
hajdini
hajdut
hajdute
haje
hajredin
hajrullah
hak
haki
hakim
hakimi
hakmarre
hakmarrja
hakmarrje
hakmarrjes
hakun
hal
hala
hale
halepit
half
halid
halife
halil
halili
halim
halimi
halit
haliti
hall
halla
hallac
hallall
halle
hallet
halore
ham
hamad
hamami
hamamit
hamburg
hamdi
hame
hamende
hamid
hamilton
hamit
hamiti
hamleti
hammad
hammer
hammond
hampshire
hamza
han
hana
hancock
hand
handbook
handel
hands
hane
hani
hanin
hanit
hanna
hannah
hannover
hanover
hanoverit
hans
hansen
hante
hanumanit
hap
hapa
hapat
hape
hapen
hapet
hapi
hapin
hapja
hapje
hapjen
hapjes
happy
hapsira
hapsire
haptas
haptazi
hapte
hapur
hapura
har
harac
haradinaj
harald
haram
harapase
harapi
hard
hardhi
hardhia
hardhise
hardware
hardy
hare
hari
haris
harith
hark
harku
harkun
harkut
harmoni
harmonia
harmonike
harmonise
harold
harper
harqe
harqet
harrassowitz
harrese
harri
harrin
harris
harrison
harrit
harrohet
harroj
harrojme
harron
harroni
harruar
harry
hart
harta
hartat
hartave
harte
hartimi
hartimin
hartimit
hartoi
hartuar
harun
harvard
harvardit
harvey
harvnb
has
hasa
hasan
hasani
hasanit
hase
hasen
haset
hash
hashim
hasi
hasim
hasin
hasit
haskaj
hassan
hastings
hasur
hat
hate
hatun
hau
haus
haut
haute
hautes
hauts
hava
have
haveli
haven
having
hawaii
hawking
hawkins
haxhaj
haxhi
haxhin
haxhit
haxhiu
hay
hazard
hazir
haziri
hazret
hazreti
hbo
hd
he
head
header
health
heart
hearts
heat
heath
heather
heaven
heavy
hebraike
hebraisht
hebre
hebreje
hebrenj
hebrenjte
hebrenjve
hedh
hedhe
hedhim
hedhin
hedhja
hedhje
hedhjen
hedhur
heidelberg
heinemann
heinrich
heinz
hej
hektare
hekur
hekuri
hekurin
hekurit
hekurt
hekurudha
hekurudhat
hekurudhave
hekurudhe
hekurudhor
hekurudhore
held
helen
helena
helene
helenistike
helikopter
helikoptere
helium
hell
hellenic
hello
helm
helme
helmi
helmstedt
helmuar
helmues
helmuese
helmut
help
helsinki
hem
hemi
hemingway
hemisfere
hemoglobine
hen
hendbollit
hendek
henderson
henley
henri
henrik
henry
hepatitit
heq
heqe
heqin
heqja
heqje
heqjen
heqjes
hequr
hequra
her
hera
herakliu
herakliut
herald
heraldike
herazi
herbert
hercegovina
hercegovine
here
heret
heretike
herit
heritage
herman
hermann
hermiona
hermione
herna
hernandez
hero
herodoti
heroes
heroi
heroik
heroike
heroikisht
heroin
heroine
heroit
heronj
heronjte
heronjve
herrera
herschel
hershe
hershme
herzegovina
hesh
heshin
hesht
heshte
heshtja
heshtje
heshtur
hesse
hessen
het
hetfield
hetim
hetimet
hetimeve
hetimi
hetimin
hetimit
hetuar
hf
hg
hi
hibrid
hibride
hic
hidden
hidhe
hidhen
hidheshin
hidhet
hidhnin
hidhte
hidhur
hidraulike
hidrocentrali
hidrogjen
hidrogjeni
hidrogjenit
hierarki
hierarkine
hierarkise
higgins
high
higher
highest
higjiene
higuai
higuain
hija
hije
hijen
hijes
hijet
hijshe
hijshme
hila
hile
hill
hillary
hills
hilmi
him
himara
himare
himn
himni
himnin
himnit
hindi
hindu
hinduism
hinduizmit
hindute
hip
hipe
hipi
hipokrite
hipoteza
hipoteze
hipster
hipur
hiq
hiqej
hiqen
hiqet
hiqnin
hiqte
hir
hire
hiri
hirin
hirit
hirohito
hiroshima
hirte
his
hist
histo
histoire
histori
historia
historian
historiane
historiani
historianit
historians
historic
historical
historie
histories
historik
historike
historikisht
historiko
historiku
historikun
historin
historine
historiografia
historiografine
historiografise
historiography
historise
historite
history
hit
hite
hitet
hitler
hitleri
hitlerin
hitlerit
hits
hiv
hivzi
hixhri
hizb
hkun
hl
hm
ho
hoc
hodgkin
hodh
hodhe
hodhi
hoffman
hoffmann
hogoshti
hoguorts
hoguortsit
hohenzollern
hokage
holanda
holande
holandez
holandeze
holandisht
hold
holding
holl
holla
holland
hollanda
hollande
hollandez
hollandeze
hollat
holle
hollywood
holmes
holocaust
holokaustit
holstein
holt
holy
homazh
home
homepage
homer
homeri
homerit
homo
homogjene
homologe
homoseksual
homoseksuale
hon
honda
honduras
hondurasi
hong
honor
honore
honoris
honour
hood
hoover
hop
hope
hopkins
hoq
hoqe
hoqi
hora
hore
horizont
horizontal
horizontale
horizonte
horizontit
hormone
hormonet
hormoneve
horn
horror
horse
hospital
host
hot
hotel
hotele
hoteli
hotelin
hotelit
hoti
hotit
hotspur
houghton
hour
house
housing
houston
hov
how
howard
however
hoxha
hoxhe
hoysala
hp
hr
hrer
hrsg
hrung
hrvatska
hrvatske
hs
htm
html
http
https
hu
hua
huahine
huaj
huaja
huajt
huajve
huang
huazim
huazimi
huazua
huazuar
hubert
hudaifah
hudhaifa
hudhe
hudhra
hudson
huffington
hugh
hughes
hugo
hui
hull
hulli
hulumtim
hulumtime
hulumtimet
hulumtimeve
hulumtimi
hulumtimin
hulumtimit
hulumtuar
hulumtues
hulumtuese
hulumtuesit
human
humane
humanist
humaniste
humanitar
humanitare
humanizmi
humanizmit
humb
humbas
humbase
humbasin
humbe
humbet
humbi
humbin
humbiste
humbja
humbje
humbjen
humbjes
humbjet
humbjeve
humboldt
humbur
humbura
humnere
humor
humori
humoristike
humorit
hun
hund
hunda
hunde
hune
hung
hungarez
hungareze
hungari
hungaria
hungarian
hungarine
hungarise
hungarisht
hungary
hunt
hunter
hurejra
hurst
husein
hussain
hussein
hut
hutuar
hyderabad
hyj
hyje
hyjne
hyjnesha
hyjneshe
hyjni
hyjnia
hyjnine
hyjnise
hyjnite
hyjnive
hyjnor
hyjnore
hyka
hylli
hyn
hyne
hyni
hynin
hynte
hyre
hyri
hyrja
hyrje
hyrjen
hyrjes
hyrjet
hysa
hysaj
hysen
hyseni
hysni
hyundai
hz
i
ia
ian
iap
ib
ibe
iberik
ibid
ibm
ibn
ibne
ibni
ibra
ibrahim
ibrahimi
ibrahimit
ibrahimovic
ibrit
ic
ica
icardi
ice
iceland
ich
ichigo
icon
icty
id
ida
idaho
ide
idea
ideal
ideale
idealet
idealeve
ideali
idealiste
ideas
ideja
ideje
idene
identifikimi
identifikimin
identifikimit
identifikohen
identifikohet
identifikoi
identifikojne
identifikon
identifikua
identifikuan
identifikuar
identik
identike
identitet
identiteti
identitetin
identitetit
identities
identity
ideologji
ideologjia
ideologjik
ideologjike
ideologjine
ideologjise
ideology
idese
idete
ideve
idhujt
idhujtare
idhujve
idhulli
idol
idriz
idrizi
idromeno
ie
ieee
if
iffhs
ifliku
ifllaku
ift
ifte
iftet
ifteve
ifti
iftit
ifut
ifute
ig
ign
ignacio
igor
ihre
ii
iii
iiss
ija
ije
ik
ika
ikago
ikagos
ike
iki
ikin
ikindise
ikje
ikko
ikleta
iklete
iknin
ikona
ikonat
ikonave
ikone
ikonomi
ikte
iku
ikur
il
ila
ilac
ilaz
ile
ilegal
ilegale
ili
ilia
iliada
ilina
ilir
ilire
iliri
iliria
ilirik
iliriku
ilirikut
ilirine
ilirise
iliro
ilirologjia
ilise
iljaz
ille
illinois
illustrated
illyria
illyrian
illyrians
illyricum
ilo
ilte
iluminizmit
ilustrime
ilustruar
iluzion
im
image
images
imagjinar
imagjinare
imagjinate
imam
imambara
imame
imami
imamit
iman
imani
imazh
imazhe
imazhet
imazheve
imazhi
imazhin
imazhit
imdb
ime
imi
imin
imit
imituar
imk
immobile
impact
imperator
imperial
imperialiste
imperializmit
implementimi
implementimin
implications
imponuar
import
importance
important
importit
importuar
importuara
impresionuar
impulse
impulsit
imran
imta
imte
imune
imunitar
imunitet
imzot
in
ina
inat
inati
inc
inca
ince
incident
incidente
incidenti
incidentit
include
includes
including
ind
inde
indeks
indeksi
independence
independent
indet
indeve
index
indi
india
indian
indiana
indiane
indigjene
indine
indirekt
indirekte
indise
individ
individe
individi
individin
individit
individual
individuale
individualisht
indo
indoevropiane
indonesia
indonezi
indonezia
indoneziane
indonezise
indre
indus
indusit
industri
industria
industrial
industriale
industrine
industrise
industrite
industry
ine
infeksion
infeksionet
infeksioneve
infeksioni
infeksionit
infektive
infektuar
infektuarve
infermiere
influence
info
infobox
informacion
informacione
informacionet
informacioneve
informacioni
informacionin
informacionit
informata
informatat
informatave
informate
informatike
information
informativ
informative
informim
informimit
informohet
informoi
informon
informuar
infra
infrastruktura
infrastrukture
infty
ing
ini
iniciativa
iniciative
injorance
injoruar
injury
inkurajoi
inkurajon
inkurajuar
inner
innovation
inovative
inscriptions
insee
insekte
insektet
insekteve
insha
inside
insider
insight
inspektor
inspektori
inspiruar
instagram
instaluar
instat
institucion
institucional
institucionale
institucione
institucionet
institucioneve
institucioni
institucionin
institucionit
institut
institute
institutet
instituti
institutin
institution
institutions
institutit
instituto
instruktor
instruktore
instrument
instrumental
instrumentale
instrumente
instrumentet
instrumenteve
instrumenti
insuline
int
integral
integrale
integration
integrim
integrimi
integrimin
integrimit
integritetin
integruar
integruara
intel
intelektual
intelektuale
inteligjenca
inteligjence
inteligjent
inteligjente
intellectual
intelligence
intensitet
intensiteti
intensitetit
intensiv
intensive
inter
interactive
interaktive
interes
interesa
interesant
interesante
interesat
interesave
interesi
interesim
interesimi
interesimin
interesin
interesit
interest
interesuar
interesuara
interface
interference
interi
interin
interior
interit
internacional
internacionale
internal
international
internationale
internazionale
internet
interneti
internetin
internetit
internim
internimi
internimit
internua
internuan
internuar
interpretation
interpretim
interpretime
interpretimet
interpretimi
interpretimin
interpretimit
interpretohet
interpretoi
interpretojne
interpreton
interpretuar
interpretues
interseks
interval
intervale
interview
intervista
interviste
intervistuar
intime
into
introduction
invalid
invasion
investigation
investim
investime
investimet
investimeve
investitore
investuar
inxhinier
inxhiniere
inxhinieri
inxhinieria
inxhinierike
inxhinierine
inxhinierise
inzaghi
io
ion
ios
iot
iowa
ip
ipa
ipeshke
iphone
ipko
iq
iqi
ir
ira
irak
iraku
irakut
iran
irani
iranian
iraniane
iranin
iranit
iraq
ireland
irene
irfan
iris
irish
irlanda
irlande
irlandez
irlandeze
irma
iron
ironi
irving
is
isa
isaac
isabel
isabella
isabelle
isai
isaia
isait
isak
isaku
isakut
isbn
ise
ish
isha
ishaq
ishe
ishim
ishin
ishit
isht
ishte
ishti
ishuj
ishujt
ishujve
ishull
ishulli
ishullin
ishullit
isis
islam
islame
islami
islamic
islamik
islamike
islamin
islamiste
islamit
island
islanda
islande
islandeze
islandisht
islands
isle
ismail
ismaili
ismailit
ismajli
ismet
iso
israel
issn
issue
issues
issuu
ist
istanbul
istat
istituto
istog
istogu
istogut
istrefi
istria
isuf
isufi
it
itachi
itaku
itali
italia
italian
italiana
italiane
italiani
italiano
italic
italine
italise
italisht
italishtja
italo
italy
ite
ithtar
ithtare
its
itself
itunes
iu
iucn
ius
iv
iva
ivan
ivanaj
ivanc
ive
ivo
ix
iz
iza
izet
izme
izmir
izolim
izolimi
izolimin
izolimit
izoluar
izoluara
izrael
izraeli
izraelin
izraelit
izraelite
izvori
j
ja
jaber
jabllanica
jabllanice
jabuc
jack
jackie
jackson
jacob
jacobs
jacopo
jacqueline
jacques
jae
jahja
jahjaga
jain
jak
jake
jakob
jakobi
jakobit
jakov
jakova
jakup
jakupi
jam
jama
james
jamie
jan
janar
janari
janarit
janc
jane
janeiro
janet
jang
jani
janina
janine
january
jap
japan
japanese
jape
japim
japin
japonez
japoneze
japoni
japonia
japonine
japonise
japonisht
jasenoviku
jashanica
jashar
jashari
jasharit
jasht
jashte
jashtme
jason
jaste
java
javan
javascript
jave
javier
javor
javore
jaxhuxhe
jay
jazeera
jazz
je
jean
jeff
jefferson
jeffrey
jehona
jehone
jelek
jem
jemen
jemeni
jemenit
jemi
jen
jena
jene
jeni
jenic
jenkins
jenner
jennifer
jenny
jens
jep
jepej
jepen
jepeshin
jepet
jepi
jepni
jepnin
jepte
jeremia
jeremy
jerlive
jerome
jeronim
jerre
jerry
jersey
jerusalem
jerusalemit
jeruzalem
jeruzalemi
jeruzalemin
jeruzalemit
jese
jesh
jeshile
jessica
jesu
jesus
jet
jeta
jete
jeten
jetes
jetesa
jetese
jetike
jetim
jetime
jetoi
jetoj
jetoje
jetojme
jetojne
jeton
jetonin
jetonte
jetosh
jetuan
jetuar
jetuarit
jewish
jews
jexhuxh
jexhuxhe
jezid
jezik
jezu
jezuit
jezuite
jezus
jezusi
jezusin
jezusit
ji
jiang
jigme
jim
jimmy
jin
jl
jme
jn
jne
jo
joa
joachim
joan
joani
joaqui
jobesimtare
jobi
jobs
joe
joel
jofitimprure
johan
johann
johannes
john
johnny
johns
johnson
johnston
johor
join
joins
joint
jokal
jon
jona
jonas
jonathan
jone
jones
jonet
joneve
jong
joni
jonike
jonit
jonuz
joqeveritare
jordan
jordani
jordania
jordanise
jordanit
jorgaqi
jorge
jorgji
jorgo
jork
jorkut
jose
josef
joseon
joseonit
josep
joseph
josh
joshe
joshua
joshur
josif
josip
jote
journal
journey
jovan
jovanovic
joy
joyce
jozam
jozef
jozefi
jozefit
jozueu
jozyrtare
jp
jpg
jr
jstor
jt
jta
jtat
jte
jti
jtin
jtit
ju
jua
juaj
juaja
juan
juda
jude
judenjte
judenjve
judith
judy
jug
juge
juglindje
juglindor
juglindore
jugor
jugore
jugoslavije
jugosllav
jugosllave
jugosllavi
jugosllavia
jugosllavine
jugosllavise
jugpere
jugu
jugun
jugut
juka
jul
jules
juli
julia
julian
juliana
julie
julien
julio
julius
july
jump
jun
june
juneau
jung
junik
junikut
junior
jupiter
jupiterit
jura
jure
juria
juridik
juridike
juridiksionin
jurise
jurisprudence
jurist
juriste
jush
just
justice
justifikuar
justin
justinian
justiniani
justinianit
jusuf
jusufi
jusufit
juve
juventus
juventusi
juventusin
juventusit
jve
k
ka
kabashi
kabine
kabineti
kabinetin
kabinetit
kabir
kabllo
kabllor
kabuki
kac
kadamba
kadare
kadareja
kadarese
kadastrale
kadri
kadriu
kafaz
kafe
kafeje
kafene
kafese
kafir
kafka
kafke
kafsha
kafshate
kafshe
kah
kai
kaido
kairo
kaiser
kaje
kajro
kajros
kaka
kakashi
kaku
kal
kala
kalabrise
kalaja
kalama
kalane
kalase
kalavesh
kalb
kalbe
kalbur
kale
kalendar
kalendari
kalendarin
kalendarit
kali
kalifati
kalifatit
kalife
kalifi
kalifit
kaliforni
kalifornia
kalifornise
kalim
kalimi
kalimin
kalimit
kalimtar
kalimtare
kalin
kalit
kalkuta
kalkute
kallam
kalldre
kalle
kalli
kalludra
kalo
kalohet
kaloi
kaloj
kaloje
kalojne
kalon
kalonin
kalonte
kalore
kalosh
kalte
kaluan
kaluar
kaluara
kaluare
kalyani
kam
kamate
kamath
kambane
kamberi
kamboxhia
kamboxhias
kame
kamen
kamenica
kamenice
kamera
kamere
kameruni
kamion
kamione
kamp
kampe
kampet
kampi
kampin
kampion
kampionat
kampionate
kampionatet
kampionateve
kampionati
kampionatin
kampionatit
kampione
kampioneve
kampioni
kampionit
kampit
kan
kanada
kanadaja
kanadase
kanade
kanadez
kanadeze
kanal
kanale
kanalet
kanaleve
kanali
kanalin
kanalit
kanalizimeve
kancelar
kancelari
kancer
kanceri
kancerit
kanchi
kanchipuram
kandidat
kandidate
kandidati
kandidatit
kandidature
kandidoj
kane
kange
kani
kanibalize
kanina
kanine
kanioni
kanonike
kansas
kanton
kantoneve
kantoni
kantonin
kantonit
kanuni
kanunit
kanye
kanzul
kaos
kaotike
kap
kapacitet
kapacitetet
kapaciteteve
kapaciteti
kapacitetin
kapacitetit
kapak
kapake
kapaku
kape
kapela
kapele
kapen
kapet
kapi
kapin
kapital
kapitale
kapitali
kapitalist
kapitaliste
kapitalit
kapitalizmit
kapiten
kapitene
kapiteni
kapitenin
kapitenit
kapituj
kapitujt
kapitull
kapitulli
kapitullimit
kapitullin
kapja
kapjen
kapjes
kaplan
kapo
kapte
kaptina
kapuc
kapur
kaq
kara
karabakh
karac
karadakut
karaibe
karaibeve
karakter
karaktere
karakteret
karaktereve
karakteri
karakterin
karakteristik
karakteristika
karakteristikat
karakteristikave
karakteristike
karakterit
karakterizohen
karakterizohet
karakterizojne
karakterizon
karakterizua
karakterizuar
karate
karatese
karboni
karbonit
karburantit
kardashian
kardinal
kardinale
kardinali
karel
karen
kariere
karikature
karim
karl
karli
karlit
karma
karnata
karnataka
karolina
karoline
karriera
karriere
karrige
karroce
karshi
karstike
karta
kartagjene
kartat
karte
kartela
kartele
karton
kartoni
kartonin
kas
kase
kasete
kashi
kashmir
kashte
kasolle
kaspik
kaste
kastrat
kastrati
kastratit
kastriot
kastriote
kastrioti
kastriotit
kat
katalog
katalogu
katalonia
katalonje
katana
katar
katare
katari
katarit
katastrofe
katastrofike
kate
katedrale
katedralen
katedrales
katedralja
katedre
kategori
kategoria
kategorie
kategorine
kategorise
kategorite
kategorive
kategorizues
kater
katerina
katet
kateve
katherine
kathir
kathleen
kati
katie
katin
katit
katolik
katolike
katror
katrore
katrori
katund
katunde
katundi
katundin
katundit
kau
kaukaz
kaukazit
kaupunki
kauze
kavaje
kay
kaza
kazaja
kazakistan
kazakistani
kazakistanit
kazan
kazane
kazase
kazazi
kb
kc
kd
ke
kebek
kec
keep
kehf
keith
kek
kelly
kelmendi
kelmendit
kelte
kem
kemal
kembrixh
kembrixhit
kemi
ken
kenan
kene
kenga
kenge
kengen
kenges
keni
kenia
kennedy
kenneth
kenny
kent
kentucky
kepi
kepit
keq
keqardhje
keqbe
keqe
keqen
keqes
keqja
keqpe
kerala
kerale
kerkon
kesaj
kesh
keshtu
ket
keta
kete
kethir
kethiri
keti
ketij
keto
ketu
ketyre
kevin
key
kf
kfor
kg
kh
khalid
khalifa
khalifh
khan
khanda
khudri
ki
kiametit
kic
kick
kicker
kid
kidd
kids
kiel
kiev
kijameti
kijametit
kili
kilit
kill
killed
killer
killing
kilmister
kilogram
kilograme
kilomete
kilometra
kilometrash
kilometres
kim
kimi
kimia
kimik
kimike
kimise
kimist
kina
kind
kindi
kine
kinema
kinemaja
kinemase
kinematografi
kinematografik
kinematografike
kinematografise
kinetike
kinez
kineze
kinezisht
king
kingdom
kings
kini
kino
kinostudio
kinse
kirk
kirurg
kirurge
kirurgji
kirurgjikale
kirurgjise
kish
kisha
kishat
kishave
kishe
kishes
kishim
kishin
kishit
kishtar
kishtare
kishte
kiss
kit
kita
kitab
kitara
kitare
kitarist
kitaristi
kite
kiten
kitje
kitur
kjo
kk
kl
klan
klani
klanit
klara
klasa
klasat
klasave
klase
klasifikim
klasifikimi
klasifikimin
klasifikimit
klasifikohen
klasifikohet
klasifikuar
klasik
klasike
klasit
klasore
klaus
klec
klein
klement
klementi
kleopatra
kleri
klerik
klerike
klerit
klient
kliente
klienti
klientit
klima
klimatike
klime
klina
kline
klinik
klinika
klinike
klinton
klishe
klisurica
kllapa
klos
klosi
klub
klube
klubet
klubeve
klubi
klubin
klubit
km
knight
knjiga
knjiz
know
knowledge
known
ko
koalicion
koalicioni
koalicionit
kobe
koc
koch
koci
kocka
kockat
kockave
kocke
kod
koda
kode
kodet
kodeve
kodi
kodike
kodin
kodit
kodra
kodralia
kodrat
kodrave
kodre
kodrina
kodrine
kodrinor
kodrinore
koduar
kofshe
kognitive
koh
koha
kohe
kohen
kohes
kohet
kohor
kohore
koja
kojc
koje
kojnarja
kok
koka
kokaj
kokajt
kokat
koke
kokrra
kokrrat
kol
kola
kole
kolec
koleg
kolege
kolegj
kolegje
kolegji
kolegjin
kolegjit
kolegu
koleksion
koleksione
koleksionet
koleksioneve
koleksioni
koleksionin
koleksionit
kolektiv
kolektive
kolektivisht
koliqi
kolle
kollit
kolombi
kolona
kolonat
kolonave
kolone
kolonel
koloneli
koloni
kolonia
kolonial
koloniale
kolonine
kolonise
koloniste
kolonite
kolonive
kolonizatore
kolonizimi
kolonizimit
kolonje
kolosale
kolumbi
kolumbia
kolumbian
kolumbiane
kolumbise
kom
komanda
komandant
komandante
komandanti
komandantin
komandantit
komandat
komande
komandonte
komanduar
komb
kombe
kombet
kombetar
kombetare
kombeve
kombi
kombin
kombinim
kombinime
kombinimi
kombinimin
kombinohen
kombinon
kombinuar
kombinuara
kombit
kombtare
komedi
komedia
komedian
komedine
komedise
koment
komentatore
komente
komentet
komentoi
komentuar
komercial
komerciale
komete
komik
komike
komisar
komisari
komision
komisioneri
komisioni
komisionin
komisionit
komitet
komitetet
komiteteve
komiteti
komitetin
komitetit
kommune
komonuelthit
kompakt
kompakte
kompani
kompania
kompanie
kompanine
kompanise
kompanite
kompanive
kompedicionet
kompensim
kompetenca
kompetencat
kompetencave
kompetence
kompetent
kompetente
kompeticion
kompeticionet
kompeticioni
kompjuter
kompjuterave
kompjutere
kompjuteri
kompjuterik
kompjuterike
kompjuterin
kompjuterit
kompleks
komplekse
kompleksi
kompleksin
kompleksit
komplet
kompletuar
komplikuar
komplot
komploti
komponent
komponente
komponime
komponimet
kompozim
kompozime
kompozimet
kompozimi
kompozimin
kompozimit
kompozitor
kompozitore
kompozitori
kompozitorit
kompozoi
kompozuar
kompromis
komuna
komunal
komunale
komunat
komunave
komune
komunen
komunes
komunikacionit
komunikim
komunikimet
komunikimi
komunikimin
komunikimit
komunikojne
komunikon
komunikuar
komunikuese
komunist
komuniste
komunitet
komunitete
komunitetet
komuniteteve
komuniteti
komunitetin
komunitetit
komunizmi
komunizmit
kon
konc
koncept
koncepte
konceptet
koncepteve
koncepti
konceptin
konceptit
konceptuale
konceptuar
koncert
koncerte
koncertet
koncerteve
koncerti
koncertin
konfederata
konfederatave
konfederate
konferenca
konferencave
konference
konfirmohet
konfirmoi
konfirmon
konfirmua
konfirmuan
konfirmuar
konfirmuara
konflikt
konflikte
konfliktet
konflikteve
konflikti
konfliktin
konfliktit
konfuzion
kong
kongo
kongos
kongres
kongreseve
kongresi
kongresin
kongresit
konica
konice
konike
konjari
konjuhi
konjusha
konkludojme
konkret
konkrete
konkretisht
konkurrenca
konkurrence
konkurrente
konkurrojne
konkurrues
konkurruese
konkurs
konkurse
konkursi
konkursin
konkursit
konoha
konrad
konsensus
konservator
konservatore
konservatorin
konservimit
konservuar
konsiderate
konsiderohej
konsiderohen
konsideroheshin
konsiderohet
konsideroi
konsiderojne
konsideron
konsideronin
konsideronte
konsiderua
konsideruan
konsideruar
konsiderueshe
konsiderueshme
konsiston
konsolidimin
konsoliduar
konstandin
konstandini
konstandinit
konstandinopoje
konstant
konstante
konstantin
konstantinos
konstatohet
konstatuar
konstruktive
konstruktore
konsulent
konsull
konsullata
konsullate
konsulli
konsullit
konsullore
konsultuar
konsum
konsumatore
konsumatorit
konsumi
konsumimit
konsumit
konsumojne
konsumuar
kont
kontabilitetit
kontakt
kontakte
kontaktet
kontakteve
kontakti
kontaktin
kontaktit
konte
kontea
kontekst
kontekste
konteksti
kontekstin
kontekstit
kontestuar
konti
kontinent
kontinental
kontinentale
kontinente
kontinentet
kontinenteve
kontinenti
kontinentin
kontinentit
kontit
kontrabande
kontradiktat
kontradiktore
kontrast
kontrata
kontratat
kontrate
kontriboi
kontribuan
kontribuar
kontribues
kontribuoi
kontribuoje
kontribuojne
kontribuon
kontribut
kontribute
kontributet
kontributi
kontributin
kontributit
kontroll
kontrolle
kontrolli
kontrollimin
kontrollin
kontrollit
kontrollohet
kontrolloje
kontrollojne
kontrollon
kontrollonin
kontrollonte
kontrolluar
kontrolluara
kontrollues
konvencionale
konventa
konvente
konvertimi
konvertimit
konvertua
konvertuar
konvikt
kooperativa
kooperative
koordinatat
koordinatave
koordinator
koordinimin
koordinuar
kope
kopenhage
kopenhagen
kopertine
kopete
kopiliqi
kopja
kopje
kopjet
kopjuar
kopsht
kopshte
kopshtet
kopshteve
kopshti
kopshtin
kopshtit
kor
korab
korabit
korale
korc
korce
kordinca
kore
korea
korean
koreane
koreanisht
koreja
korene
korenica
koreograf
korese
korfuz
korfuzit
kori
korin
korintasve
korintit
korit
korniza
kornize
koronavirus
koronavirusit
korporata
korporatave
korporate
korpusi
korpusit
korr
korre
korrekt
korrekte
korrespondence
korrespondent
korrespondojne
korrespondon
korresponduese
korri
korridor
korrik
korriku
korrikut
korrupsion
korrupsioni
korrupsionin
korrupsionit
korruptuar
korrur
korsi
kos
kosharja
koshi
kosi
kosova
kosovar
kosovare
kosove
kosoves
kosovo
kosovu
kosta
kostandin
kostandini
kostandinit
kostandinopoja
kostandinopoje
koste
kosto
kostoja
koston
kostos
kostot
kostum
kostume
kostumet
kosturi
kosturit
kot
kota
kote
kotorrit
kou
kova
kovac
kovalente
kove
kovil
kozma
kozmetike
kozmik
kozmike
kppk
kq
kqz
kr
kra
krah
kraharorit
krahas
krahasim
krahasimi
krahasohen
krahasohet
krahasuar
krahasuese
krahasueshme
krahe
krahin
krahina
krahinat
krahinave
krahine
krahinor
krahinore
krahu
krahun
krahut
kraja
kraje
kramer
krasniqi
krasniqit
kravets
kreative
kredi
kredite
kreditit
krehe
krejt
krejte
krem
kremenata
krenar
krenare
krenari
krenaria
krenarine
krenarise
krere
kreshnik
kreshnike
kreshta
kreshte
krete
kreu
kreun
kreut
krijesa
krijesat
krijesave
krijese
krijim
krijime
krijimet
krijimeve
krijimi
krijimin
krijimit
krijimtari
krijimtaria
krijimtarine
krijimtarise
krijohej
krijohen
krijohet
krijoi
krijoj
krijoje
krijojne
krijon
krijonin
krijonte
krijua
krijuan
krijuar
krijuara
krijues
krijuese
krijuesi
krijuesit
krijuesve
krim
krimbat
krimbi
krime
krimese
krimet
krimeve
krimi
krimin
kriminal
kriminale
kriminel
kriminele
krimit
kripa
kripe
kripur
kris
krishna
krisht
krishte
krishtera
krishtere
krishterim
krishterimi
krishterimin
krishterimit
krishti
krishtin
krishtit
krishtlindjeve
kristal
kristaq
kristian
kristiane
kristina
kristo
kristofor
kriter
kritere
kriteret
kritereve
kriteri
kritik
kritika
kritikat
kritikave
kritike
kritikoi
kritiku
kritikua
kritikuar
kriva
kriza
krize
kroaci
kroacia
kroacine
kroacise
kroat
kroate
kroatisht
kroi
kroje
krokodili
kromi
kromit
kroni
kronik
kronika
kronikat
kronikave
kronike
kronologjia
kronologjike
krua
kruja
kruje
krume
krusha
krushe
krusheva
krusheve
krushevica
krushica
krushja
krye
kryej
kryeje
kryejne
kryelarte
kryeministe
kryeministrat
kryeministri
kryeministrin
kryeministrit
kryen
kryengrite
kryengritja
kryengritje
kryengritjen
kryengritjes
kryengritjet
kryengritjeve
kryenin
kryente
kryepeshkop
kryepeshkopi
kryepeshkopit
kryeqe
kryeqende
kryeqendra
kryeqendre
kryeqytet
kryeqyteti
kryeqytetin
kryeqytetit
kryer
kryera
kryeredaktor
kryerja
kryerjen
kryerjes
kryes
kryesia
kryesine
kryesise
kryesisht
kryesoi
kryeson
kryesonte
kryesor
kryesore
kryesuar
kryesuese
kryet
kryetar
kryetare
kryetari
kryetarin
kryetarit
kryevepe
kryevepra
kryeziu
kryhej
kryhen
kryhet
kryq
kryqe
kryqi
kryqin
kryqit
kryqtare
krysheci
ks
ksa
ksaj
kthehej
kthehem
kthehemi
kthehen
ktheheni
ktheheshin
kthehet
kthehu
kthej
ktheje
kthejne
kthen
kthente
kthesa
kthese
kthetra
kthetrat
ktheu
kthim
kthimi
kthimin
kthimit
kthjelle
kthjellim
kthjellimin
kthye
kthyen
kthyer
kto
ku
kuade
kuadri
kuadrin
kuadrit
kuadro
kuadrove
kuaj
kuajt
kuajve
kualifikim
kualifikimet
kualifikimi
kualifikimin
kualifikimit
kualifikohej
kualifikohen
kualifikohet
kualifikua
kualifikuan
kualifikuar
kualifikues
kualifikuese
kualifikueset
kualifikueseve
kuantik
kuantike
kub
kuba
kube
kubeja
kubite
kuc
kudo
kufe
kufi
kufij
kufijte
kufijve
kufinje
kufiri
kufirin
kufirit
kufitar
kufitare
kufizim
kufizime
kufizimet
kufizimeve
kufizohej
kufizohen
kufizohet
kufizojne
kufizon
kufizuar
kufizuara
kufoma
kufomat
kufome
kujdes
kujdesej
kujdesen
kujdeset
kujdesi
kujdesin
kujdesit
kujdesshe
kujdesshme
kujdestar
kujdestare
kujdestari
kujdesur
kujt
kujtesa
kujtese
kujtim
kujtime
kujtimet
kujtimeve
kujtimi
kujtimin
kujtimit
kujto
kujtohet
kujtoi
kujtoj
kujtojme
kujtojne
kujton
kujtuar
kukaj
kuke
kukull
kukulla
kukullave
kulac
kulla
kullat
kullave
kulle
kullosin
kullot
kullota
kullotat
kullotave
kullote
kulluar
kulm
kulmet
kulmi
kulmin
kulmit
kulmore
kult
kulti
kultin
kultit
kultivimi
kultivimin
kultivimit
kultivohen
kultivohet
kultivuar
kultur
kultura
kulturat
kulturave
kulture
kultures
kulturor
kulturore
kulturuar
kuma
kumanova
kumanove
kumar
kumbulla
kumtesa
kumtese
kun
kund
kunde
kunder
kundi
kundje
kundra
kundrejt
kundur
kung
kungull
kunj
kunja
kunst
kunta
kuote
kupa
kupat
kupe
kupola
kupole
kuptim
kuptime
kuptimet
kuptimeve
kuptimi
kuptimin
kuptimit
kuptimore
kuptimplote
kuptohen
kuptohet
kuptoi
kuptoj
kuptoje
kuptojme
kuptojne
kupton
kuptoni
kuptonin
kuptonte
kuptosh
kuptuan
kuptuar
kuptuarit
kuptueshe
kuptueshme
kuq
kuqe
kuqja
kur
kura
kuran
kurani
kuranin
kuranit
kurat
kurban
kurbinit
kurde
kurdohere
kure
kurejshe
kurejshite
kurora
kurore
kurr
kurre
kurrfare
kurrikule
kurriz
kurrizi
kurrizin
kurrizit
kurrizore
kurrsesi
kurs
kurse
kurset
kurseve
kurshumlise
kursi
kursin
kursit
kursyer
kurt
kurth
kurthe
kurti
kurtubi
kuruar
kurve
kurveleshit
kusari
kush
kushdo
kushe
kusht
kushte
kushtet
kushtetues
kushtetuese
kushtetuta
kushtetute
kushteve
kushti
kushtin
kushtohet
kushtoi
kushton
kushtrim
kushtrimi
kushtua
kushtuar
kut
kuteli
kuti
kutia
kutine
kuvajt
kuvajti
kuvajtit
kuvend
kuvendet
kuvendi
kuvendin
kuvendit
kuzhina
kuzhine
kv
kw
ky
kyc
kyiv
kyle
kyo
kyoto
kyu
l
la
lab
labe
label
labi
labinot
labor
laborator
laboratore
laboratori
laboratorike
laboratorin
laboratorit
laboratory
labour
lac
lady
lag
laga
lage
laget
lagja
lagje
lagjen
lagjes
lagjet
lagjeve
lagjja
lagos
lagranzhit
laguna
lagune
lagur
lahen
lahet
lahore
lahuta
lahute
laibach
laik
laike
laj
lajc
lajm
lajme
lajmet
lajmeve
lajmi
lajmin
lak
lake
lakhm
lakmia
lako
lakra
lakshmi
lakuar
lakuriq
lakuriqe
lal
lala
lale
lam
lama
lambda
lambert
lame
lampard
lamtumire
lan
lanc
lancet
land
landes
lands
landscape
lane
lang
language
languages
languedoc
lanham
lanka
lanke
lansua
lansuar
laos
laosi
laps
lar
lara
lare
larg
large
largest
largim
largimi
largimin
largimit
largohej
largohem
largohen
largoheshin
largohet
largoi
largoj
largoje
largojne
largon
largpame
largua
larguan
larguar
larja
larje
larme
larmi
larmishe
larmishme
larry
lars
lart
larta
larte
larti
lartpe
las
laser
lasgush
lashta
lashtat
lashtave
lashte
last
lat
late
later
latest
latif
latifi
latin
latina
latine
latinisht
latinishtes
latinishtja
latvia
lau
launches
laura
laureat
lauren
laurence
laurent
lavde
lavdi
lavdia
lavdine
lavdise
lavdishe
lavdishme
lave
law
lawrence
laws
layer
lazar
laze
lazer
lazio
lazios
lb
lc
lccn
lcyra
lcyre
ld
ldk
le
lead
leader
leaders
leadership
leading
league
learning
least
leave
lebana
lebane
leben
lebroze
lec
leci
lecke
lecture
lectures
led
ledri
lee
leeds
lef
left
lefter
lega
legacy
legal
legalitetit
legend
legends
legjenda
legjendar
legjendare
legjendat
legjendave
legjende
legjionet
legjislacioni
legjislacionin
legjislacionit
legjislativ
legjislative
legjislatura
legjislature
legjitim
legjitime
lehta
lehte
leicester
leiden
leigh
leipzig
leja
leje
lejen
lejohej
lejohen
lejohet
lejoi
lejoje
lejojne
lejon
lejonin
lejonte
lejua
lejuan
lejuar
lejuara
lejueshme
lek
leka
leke
leksikore
leksion
leksione
lektor
lelouch
len
lena
lende
lene
lenin
lenini
leniniste
leninit
lente
leo
leon
leonard
leonardo
leone
leoni
leonid
leopard
leopardi
leopold
lepujt
lepur
lepuri
ler
lera
lere
les
lesh
leshani
leshator
leshi
leshin
leshit
leshnica
leshte
leskoci
leskocit
leskoveci
leskovik
leskoviku
leslie
less
lessons
let
lete
letoneze
letoni
letonia
letonise
letra
letrar
letrare
letrat
letrave
letre
letter
letteratura
letters
leu
lev
level
leverkusen
levi
levite
levizje
levizjes
levy
lewis
lexicon
lexikon
lexim
leximi
leximin
leximit
lexo
lexohen
lexohet
lexoi
lexoj
lexoje
lexojme
lexojne
lexon
lexoni
lexonte
lexosh
lexuar
lexues
lexuesi
lexuesin
lexuesit
lexuesve
lez
lezbike
lezha
lezhe
lgbt
lhura
lhure
li
lia
liban
libani
libanit
libe
liber
liberal
liberale
liberia
libertadores
liberty
libi
libia
libise
libohova
libohove
libr
libra
librari
libraria
libraries
library
librash
librat
librave
librazhd
librazhdit
libri
librin
librit
libro
liburne
lic
licence
licencuar
license
liceu
liceun
liceut
lider
lidere
lideri
liderin
liderit
lidh
lidhe
lidhej
lidhen
lidheshin
lidhet
lidhi
lidhin
lidhja
lidhje
lidhjeje
lidhjen
lidhjes
lidhjet
lidhjeve
lidhnin
lidhte
lidhur
lidhura
lie
lies
life
lig
liga
ligas
ligat
lige
light
ligj
ligje
ligjet
ligjeve
ligji
ligjin
ligjit
ligjor
ligjore
ligjshe
ligjshme
ligjve
ligue
lihen
lihet
lihtenshtajni
lihtenshtajnit
lika
like
likove
lil
lila
lili
lille
lily
lim
lima
liman
limani
limburgu
lime
limi
limin
limit
limited
limituar
limon
limoni
limousin
lin
lina
lincoln
lind
linda
linde
lindi
lindin
lindita
lindja
lindje
lindjen
lindjes
lindjeve
lindor
lindore
lindte
lindur
lindura
line
linear
lineare
lines
linga
linge
lingua
linguistic
linguistics
linguistike
lini
linin
linja
linjat
linjave
linje
link
links
linnaeus
linte
linux
lio
lion
lionel
lions
lipa
lipjan
lipjani
lipjanit
lipovica
lippe
lippi
liqen
liqene
liqenet
liqeneve
liqeni
liqenin
liqenit
liquid
lira
lire
liri
liria
liridashe
lirie
lirik
lirika
lirike
lirim
lirimi
lirimin
lirimit
lirimtar
lirimtare
lirin
lirine
lirise
lirisht
lirite
lirive
lirohen
lirohet
liroi
liroj
liroje
lirojne
liron
lirshe
lirshme
lirua
liruan
liruar
liruara
lis
lisa
lisat
lisbone
lise
lisi
lisit
list
lista
listat
liste
listen
listuar
listuara
lit
litar
litare
lite
literary
literatur
literatura
literature
lithuania
lito
litra
little
littlefield
lituaneze
lituani
lituania
lituanise
liu
livade
livadh
livadhe
livadhet
livadhi
live
liverpool
liverpoolit
lives
living
livoc
lix
liza
ljarja
ljubljana
ll
lla
llabjani
llac
llaca
lladrovci
llagova
llah
llahu
llahun
llahut
llai
llain
llait
llak
llakavica
llambe
llambi
llane
llap
llapashtica
llape
llapi
llapit
llapushe
llau
llausha
llazar
llaze
llc
lle
lleida
ller
lleshi
lleze
lli
llic
llim
llima
llime
llimet
llimeve
llimi
llimin
llimisht
llimit
llimshe
llimshme
llin
lliqur
llit
llogari
llogarine
llogarise
llogarit
llogarite
llogariten
llogaritet
llogaritja
llogaritje
llogaritjen
llogaritjes
llogaritjet
llogaritur
lloi
lloj
lloje
llojet
llojeve
lloji
llojin
llojit
llojllojshme
llojne
llojshme
llokvica
llon
llonte
llopatica
llore
lloret
lloshi
lloyd
llozhani
lltise
lltyre
llua
lluan
lluar
lluc
lluga
llugaxhia
lluka
llukaca
lluke
llukova
llumb
llumbat
llumbave
llumbi
ln
lnc
lo
loc
local
location
lode
lodh
lodhja
lodhje
lodhur
lodra
lodrat
log
logic
logjik
logjika
logjike
logjistike
logo
logoreci
logos
lohet
loi
loir
loire
loiret
loj
loja
loje
lojne
lojra
lojrat
lojrave
lojtar
lojtare
lojtari
lojtarin
lojtarit
lokacioni
lokal
lokale
lokalitet
lokaliteti
lokalitetin
lokalizuar
lokomotiva
lola
lon
londe
london
londra
londre
lonely
long
longitude
longman
look
looking
lopa
lopate
lope
lopez
lord
lordi
lorenc
lorenzo
loro
lorraine
los
loss
lost
lot
lote
lothal
loti
lou
louis
louise
louisiana
love
low
lowe
lower
lozane
loze
lp
lpk
lqeje
lqejne
lqen
lqente
lqere
lqeror
lqerore
lqeu
lqim
lqimi
lqimin
lqimit
lqyer
lqyera
lqyeshe
lqyeshme
lr
lsi
lsira
lsire
lt
ltd
lu
lua
luaj
luaje
luajne
luajt
luajte
luajti
luajtur
luajtura
luan
luane
luani
luanin
luanit
luante
luar
luarasi
lubinja
lubizhda
lubjane
lubonja
luc
luca
lucas
luce
lucia
luciano
lucius
lucknow
lucknowt
lucky
lucy
ludovico
ludwig
luffy
luft
lufta
luftarak
luftarake
lufte
luften
luftes
luftim
luftime
luftimet
luftimeve
luftimi
luftimin
luftimit
luftoi
luftoj
luftoje
luftojme
luftojne
lufton
luftoni
luftonin
luftonte
luftrat
luftrave
luftuan
luftuar
lug
luge
lugina
luginat
luginave
lugine
lugu
luhen
luhet
lui
luigi
luigj
luigji
luis
luiz
luka
lukaku
luke
luksemburg
luksemburgu
luksemburgut
luksoze
lul
lule
lules
lulesh
lulet
luleve
luli
lulja
luljeta
lulu
lulzim
lum
luma
lumbardhi
lume
lumenj
lumenje
lumenjte
lumenjve
lumi
lumin
lumit
lumo
lumor
lumore
lumtur
lumturi
lumturia
lumturine
lumturise
luna
lund
lunde
lundrim
lundrimi
lundrimit
lundroi
lundruar
lundruese
lunxhe
lupc
lupin
lupus
lure
lush
lusha
lushnja
lushnje
lushnjes
lushta
lut
lute
lutej
lutem
lutemi
luten
lutet
lutfi
luther
lutja
lutje
lutjen
lutjes
lutjet
lutjeve
lutur
luz
luzern
lv
lvaro
ly
lyej
lyer
lyga
lynch
lynn
lynx
lyon
lype
lyre
lyrical
lyshe
lzen
m
ma
mac
macau
macdonald
mace
macedonia
macedonian
maces
macet
maceve
machine
macja
mackenzie
macmillan
mad
madagaskari
madame
madara
made
madh
madhe
madhi
madhja
madhor
madhore
madison
madje
madona
madonna
madras
madrid
madridi
madridin
madridit
mafia
magazina
magazine
magdalena
maggie
magic
magjepse
magjepsur
magjera
magji
magjia
magjik
magjike
magjine
magjise
magjistar
magjistare
magjistrale
magjistrature
magna
magnet
magnetic
magnetik
magnetike
magnus
maha
mahabalipuram
mahal
mahali
mahalit
mahalle
maharaxhai
mahdi
mahmoud
mahmud
mahmut
mahnite
mahnitshme
mahnitur
mai
mail
main
maine
mainz
maj
maja
majat
majave
majdanoz
maje
maji
majit
majlinda
majme
majmune
major
majta
majtas
majte
make
makedonija
makes
makina
makinat
makinave
makine
makineri
makinerive
making
makkah
makreshi
maksim
maksimal
maksimale
maksimum
maksimumi
mal
mala
malaj
malajzi
malajzia
malajzise
malaysia
malazez
malazeze
malazezisht
malazisht
malcolm
maldini
maldivet
maldiveve
male
malesh
malet
maleve
mali
malietoa
malik
malin
maliq
maliqi
maliqit
malisheva
malisheve
malit
mall
mallakaste
mallakastre
malle
malli
mallin
mallit
mallk
mallkim
mallkimi
mallkuar
mallra
mallrash
mallrat
mallrave
malmo
malo
maloku
malor
malore
malta
malte
maltese
malteze
malzi
malziut
mama
mamaja
mami
mammal
mammalia
mammalian
mammals
man
management
manager
manaj
manasit
manastir
manastire
manastireci
manastiret
manastireve
manastiri
manastirin
manastirit
manc
mancha
manche
manchester
mancini
mandala
mandapa
mandat
mandate
mandati
mandatin
mandatit
mandej
mandir
mandiri
mane
manfred
manga
mange
manhattan
mani
manifest
manifestim
manifestime
manifestohet
manikarnika
manila
manin
manipuluar
manit
mann
manning
mansur
mansurit
mantel
mantelin
manual
manuel
many
mao
map
mapo
maps
maqedon
maqedonas
maqedonase
maqedonasit
maqedonasve
maqedone
maqedoni
maqedonia
maqedonine
maqedonise
maqedonisht
mar
mara
maradona
marash
maratone
marc
marca
marcel
marcello
marcelo
march
marchisio
marciale
marco
marcos
marcus
mardhe
mare
mareci
margaret
margarita
marge
mari
maria
mariamman
mariana
marianne
mariano
marie
marielena
marilyn
marin
marina
marinare
marine
marino
marinsat
mario
marion
marise
maritime
maritimes
marjeta
mark
marka
marke
market
marketing
marketingut
marko
marks
marksi
marksist
marksiste
marku
markup
markus
markut
marne
maroci
marok
maroku
marokut
marr
marra
marrdhe
marre
marri
marriage
marrim
marrin
marrja
marrje
marrjen
marrjes
marrur
mars
marseille
marshall
marshoi
marshuan
marsi
marsit
mart
marta
marte
martesa
martesat
martesave
martese
marteses
martesore
martha
marti
martin
martinez
martini
martinique
martino
martir
martire
martohej
martohen
martohet
martua
martuan
martuar
marty
marubi
marvel
marx
mary
maryland
mas
masa
masake
masakra
masakrat
masakre
masakruan
masakruar
masat
masave
mase
mashke
mashkull
mashkulli
mashkullit
mashkullor
mashkullore
masht
mashtrim
mashtrimi
mashtrohet
mashtruar
mashtrues
mashtruese
masiv
masive
masjid
maska
maskat
maske
maskuar
mason
masone
mass
massa
massachusetts
massimo
master
masters
masudi
mat
mata
matane
match
matches
mate
matec
matematik
matematika
matematikan
matematikane
matematike
matematikor
matematikore
materazzi
materia
material
materiale
materialet
materialeve
materiali
materialin
materialit
materials
materie
materies
matet
mateu
math
matha
mathbb
mathbf
mathcal
mathematical
mathematics
mathieu
mathrm
mathura
mati
matit
matja
matje
matjen
matjes
matjet
mato
matrica
matrice
matrix
matt
matteo
matter
matthew
matthias
matur
mature
maung
maurice
mauritania
maurizio
mauro
mavraj
mavrove
max
maxhah
maxhe
maximilian
maximus
maxwell
may
maya
mayenne
mayer
mayor
mayotte
mazreku
mb
mba
mbahej
mbahen
mbaheshin
mbahet
mbaj
mbaje
mbajme
mbajne
mbajt
mbajte
mbajti
mbajtja
mbajtje
mbajtjen
mbajtjes
mbajtur
mbajtura
mban
mbane
mbani
mbanin
mbante
mbare
mbarim
mbarimi
mbarimin
mbarimit
mbaroi
mbaroj
mbarojne
mbaron
mbaronte
mbart
mbarte
mbartur
mbaruan
mbaruar
mbas
mbase
mbasi
mbe
mbej
mbejne
mben
mbesa
mbese
mbesin
mbet
mbete
mbetej
mbetem
mbeten
mbeteshin
mbetet
mbeti
mbetje
mbetjet
mbetjeve
mbetur
mbetura
mbeturina
mbeturinat
mbeturinave
mbeu
mbi
mbidetare
mbieme
mbiemra
mbiemrat
mbiemri
mbiemrin
mbiemrit
mbije
mbijetese
mbijetoi
mbijetoje
mbijetojne
mbijeton
mbijetuan
mbijetuar
mbijetuara
mbijetuarit
mbike
mbikqyre
mbikqyrjen
mbillet
mbim
mbimet
mbimi
mbimin
mbimit
mbin
mbinatyrshme
mbinj
mbinje
mbinjere
mbinjte
mbinjve
mbiquajtur
mbishkrim
mbishkrime
mbishkrimet
mbishkrimi
mbishkrimin
mbit
mbivlere
mbizote
mbjell
mbjelle
mbla
mbledh
mbledhe
mbledhin
mbledhja
mbledhje
mbledhjen
mbledhjes
mbledhjet
mbledhjeve
mbledhur
mbledhura
mblidhen
mblidheni
mblidheshin
mblidhet
mblidhte
mblodh
mblodhe
mblodhi
mbor
mbore
mbox
mbrapa
mbrapme
mbrapsht
mbre
mbrenda
mbresa
mbrese
mbret
mbrete
mbreti
mbretin
mbretit
mbrohen
mbrohet
mbroj
mbroje
mbrojne
mbrojte
mbrojti
mbrojtja
mbrojtje
mbrojtjeje
mbrojtjen
mbrojtjes
mbrojtjet
mbrojtur
mbrojtura
mbron
mbronin
mbronte
mbulesa
mbulese
mbulimi
mbulimin
mbull
mbulohen
mbulohet
mbuloi
mbuloj
mbuloje
mbulojne
mbulon
mbulonin
mbulonte
mbuluar
mbuluara
mburoja
mburoje
mbush
mbushe
mbushet
mbushi
mbushin
mbushje
mbushur
mbushura
mbyen
mbyer
mbyeshe
mbyll
mbylle
mbyllen
mbyllet
mbylli
mbyllja
mbyllje
mbylljen
mbylljes
mbyllte
mbyllur
mbyllura
mbyt
mbyte
mbyti
mbytur
mc
mccarthy
mcdonald
mcfarland
mcgraw
mclaren
mcnulty
md
me
meaning
means
mec
mechanics
mecklenburg
med
medal
medalja
medalje
medaljen
medha
media
median
medias
mediat
mediatik
mediatike
mediave
medical
medici
medicinale
medicine
medieval
medina
medine
mediterranean
medium
medrese
medreseja
medresene
medresese
medveci
medvegja
medvegje
meet
meeting
mega
megjithate
megjithe
mehdi
mehdiu
mehdiun
mehdiut
mehmed
mehmedi
mehmet
mehmeti
mehmetit
mei
meiji
mein
meja
meje
mejremes
meka
mekanik
mekanika
mekanike
mekanize
mekanizma
mekanizmat
mekanizmave
mekanizmi
mekasit
meke
mekes
mekke
mekruh
meksi
meksika
meksikan
meksikane
meksike
meksiko
mel
melbourne
mele
melissa
melodi
melville
mema
member
members
membrane
memoirs
memorandum
memoria
memorial
memorie
memorien
memories
memorje
memory
men
menaxher
menaxhere
menaxheri
menaxhim
menaxhimi
menaxhimin
menaxhimit
menaxhohet
menaxhuar
menc
mend
mende
mendelssohn
mendim
mendime
mendimet
mendimeve
mendimi
mendimin
mendimit
mendimtar
mendimtare
mendja
mendje
mendjelehte
mendjemadhe
mendjen
mendjes
mendjet
mendohej
mendohet
mendoi
mendoj
mendoje
mendojme
mendojne
mendon
mendoni
mendonin
mendonte
mendor
mendore
mendosh
mendshe
mendte
menduam
menduan
menduar
menduarit
mendur
menje
menjehere
mental
mentor
menyre
meqe
meqene
mer
merak
mercedes
mercenare
merfu
meri
merimange
merita
meritat
merite
meritojne
meriton
merituar
merjemes
merkel
merlin
mermer
mermeri
mero
merr
merre
merrej
merrem
merren
merreshin
merret
merriam
merrni
merrnin
merrte
mes
mesa
mesatar
mesatare
mesataren
mesatarisht
mesatarja
mesazh
mesazhe
mesazhet
mesazheve
mesazhi
mesazhin
mesazhit
mesdhe
mesdhetar
mesdhetare
mesdheut
mesdite
mese
mesfushe
mesfushor
mesfushori
mesfushorit
meshe
meshkuj
meshkujt
meshkujve
mesi
mesia
mesihu
mesin
mesise
mesit
mesjeta
mesjetar
mesjetare
mesjete
mesme
mesmen
mesnate
message
messenger
messi
mesudi
mesut
mesxhid
met
meta
metacritic
metafizike
metafora
metafore
metal
metale
metalet
metaleve
metali
metalik
metalike
metalit
metat
mete
method
methods
meti
metoda
metodat
metodave
metode
metodike
metodologjia
metohise
metra
metrash
metrave
metrazh
metrazhit
metres
metrike
metro
metropol
metropolis
metropolitan
metropolitane
meurthe
meuse
mexhid
mexhuxh
mexhuxhe
mexico
meyer
mez
mezi
mg
mhz
mi
mia
miami
mic
michael
michel
michelangelo
michele
michell
michelle
michigan
microsoft
mid
middle
midi
midis
mie
miell
mielli
miellit
mifflin
mig
might
migjeni
migjenit
migration
migrimi
migrimit
migruan
miguel
mihail
mihal
mihali
mihaliqi
mij
mija
mije
mik
mike
mikel
mikene
mikhail
mikprite
mikro
mikroskopike
mikrovale
miku
mikuliqi
mikun
mikut
mil
milaj
milan
milani
milanin
milanit
milano
milanos
mile
miles
mili
miliard
miliarde
milimetra
milion
miliona
milione
militant
militante
military
milito
milje
millennium
miller
million
milliyet
milloshevic
millosheviqit
mills
milo
milos
milosao
milot
milton
mim
mime
mimet
mimeve
mimi
mimin
mimit
mimo
mimoza
min
mina
minare
minarja
minatore
minber
mind
mine
mineral
minerale
mineraleve
minerare
mines
ming
minga
minh
mini
miniature
miniera
minierat
minierave
miniere
minimal
minimale
minimum
ministe
minister
ministra
ministrat
ministrave
ministre
ministri
ministria
ministrin
ministrine
ministrise
ministrit
ministry
minjte
minneapolis
minnesota
minor
minore
minoritare
minorities
minority
minsk
minus
minuta
minutash
minutat
minutave
minute
mio
miq
miqe
miqte
miqve
mir
mira
miranda
mirashi
mirat
miratim
miratimi
miratimin
miratimit
miratohet
miratoi
miraton
miratua
miratuan
miratuar
miratuara
mirave
mirdita
mirdite
mirditore
mire
mirela
miri
mirko
miro
miroslav
mirpo
mirret
mirror
mirusha
mirza
mis
mise
mises
mish
misha
mishe
mishi
mishin
mishit
mishkat
mishngre
misimovic
mision
misionar
misionare
misione
misionet
misioneve
misioni
misionin
misionit
misja
miskito
misri
misrin
misrit
miss
missing
mission
mississippi
missouri
mister
misteret
misteri
misterioz
misterioze
mistik
mistike
mit
mita
mitchell
mite
mitet
miteve
mithat
miti
mitik
mitike
mitin
mitit
mitologji
mitologjia
mitologjike
mitologjine
mitologjise
mitre
mitrovica
mitrovice
mitrush
mitur
miturit
miu
miut
mix
mixed
miza
mize
mizor
mizore
mja
mjaft
mjafte
mjafton
mjaftueshe
mjaftueshme
mjalte
mjalti
mjaltit
mje
mjeda
mjedis
mjedise
mjediset
mjediseve
mjedisi
mjedisin
mjedisit
mjedisor
mjedisore
mjegull
mjegulla
mjegulle
mjek
mjeke
mjekimi
mjekre
mjeksore
mjeku
mjekut
mjen
mjere
mjerim
mjerimi
mjerisht
mjes
mjeshte
mjeshtrat
mjeshtri
mjeshtrit
mjet
mjete
mjetet
mjeteve
mjeti
mk
ml
mls
mm
mn
mo
moabit
mobil
mobile
mobilizuar
moc
mochi
mod
moda
mode
model
modele
modelet
modeleve
modeli
modelin
modelit
models
modeluar
modena
modern
moderne
modernizimin
moderuar
modest
modeste
modifikime
modifikuar
modric
moduli
moglica
mogul
mogule
mohamed
mohammad
mohammed
mohd
mohenjo
mohet
mohim
mohimi
mohoi
mohojne
mohon
mohoni
mohuan
mohuar
mohuese
moi
moikom
moisiu
moisiun
moisiut
moj
mojo
mokra
mokre
mol
molare
moldavi
moldavia
moldavise
moldova
molecular
molekula
molekulare
molekulat
molekulave
molekule
molina
molla
molle
molose
molotov
mom
moment
momentalisht
momente
momentet
momenti
momentin
momentit
mon
monaco
monako
monakos
monark
monarke
monarki
monarkia
monarkine
monarkise
monarku
mondadori
monday
monde
mondo
mone
monedha
monedhat
monedhave
monedhe
monet
monetar
monetare
money
mongol
mongole
mongoli
mongolia
mongolise
mongozi
monica
monika
monitor
monitorimi
monitorimin
monitoring
monkey
monografi
monografia
monografik
monroe
mons
monstat
monster
monsters
mont
montalto
montana
montazhi
monte
montenegro
montgomery
month
monthly
months
montpellier
montreal
montuar
monument
monumental
monumentale
monumente
monumentet
monumenteve
monumenti
monumentit
monuments
moon
moore
mor
mora
moral
morale
morales
morali
moralin
moralisht
moralit
morava
morave
morbihan
more
moreno
morfine
morfologjia
morfologjike
morgan
mori
morina
morine
morning
morr
morre
morri
morris
morrison
morrissey
mortality
mortor
mortore
mos
mosbesim
moscow
moselle
mosha
moshat
moshatare
moshave
moshe
moshen
moshuar
moshuarit
moska
moske
mosmarre
mosmire
mospe
mosque
mosques
most
moste
mostra
mostrat
mostrave
mot
mote
motet
mother
moti
motilal
motin
motion
motit
motiv
motivacionin
motive
motivet
motiveve
motivi
motivimi
motivuar
moto
motoc
motoja
motor
motore
motori
motorike
motorin
motorit
motra
motrat
motrave
motre
motta
mount
mountain
mountains
mourinho
mouse
move
movement
movie
movies
mozaik
mozaike
mozaiku
mozambiku
mozart
mozilla
mp
mposht
mposhte
mposhti
mposhtur
mprehta
mprehte
mr
mrekulli
mrekullia
mrekullite
mrekullive
mrekullueshe
mrekullueshme
mri
mrs
ms
msh
mshe
mshme
mshpe
mt
mtim
mtime
mtimet
mtimeve
mtimi
mtimin
mtimit
mtohet
mtoi
mtoje
mtojne
mton
mtua
mtuan
mtuar
mtuara
mtv
mu
mua
muaj
muaji
muajin
muajit
muajsh
muajshe
muajt
muajve
muar
muara
mubarak
muc
much
mueshme
mughal
muhamed
muhamedi
muhamedin
muhamedit
muhamet
muhameti
muhametit
muhammad
muhammed
muhammedi
muhammedin
muhammedit
muharrem
muhaxherve
muhaxhire
muhoci
muje
mujer
muji
mujo
mujor
mujore
muka
mukjes
mula
mulla
muller
mulli
mulliri
mullirit
multi
multimedia
multimediale
multiple
mumbai
mun
mund
munde
mundem
munden
mundesi
mundet
mundi
mundim
mundime
mundimet
mundin
mundja
mundje
mundjeje
mundjen
mundjes
mundjet
mundjeve
mundo
mundohen
mundohet
mundon
mundshe
mundshme
mundua
munduar
mundur
mungesa
mungese
mungojne
mungon
mungonin
mungonte
munguar
munich
municipal
municipalities
municipality
mur
murad
murale
murat
murati
muratit
murcia
murder
mure
muret
mureve
murg
murgeshe
murgjit
murgu
muri
murin
muriqi
murit
murphy
murray
murre
murrme
murtaja
murtaje
mus
musa
musai
musait
muse
museo
museum
mushke
music
musical
muskujt
muskujve
muskulore
muslim
musliman
muslimane
muslimi
muslims
musliu
musnad
musned
musnedin
mussolini
must
mustadrak
mustafa
mustafe
mustaqe
muz
muzaka
muzake
muze
muzete
muzeu
muzeun
muzeut
muzika
muzikant
muzikante
muzike
muzikes
muzikor
muzikore
mv
mw
my
myftari
myfti
myftiu
mynih
mynihut
mysafir
mysafire
mysliman
myslimane
myslimani
myslimi
mysore
mysql
mystery
myth
mythology
myths
myzeqe
myzeqese
n
na
nabla
nac
nach
nacional
nacionalc
nacionale
nacionalist
nacionaliste
nacionalizmi
nacionalizmit
nadu
nafile
nafta
nafte
nagar
nagara
nagato
nagoric
naim
naimi
naimit
nalanda
nalte
nam
namaz
namazet
namazi
namazin
namazit
name
named
names
nami
namibia
namik
nana
nancy
nane
nano
nantes
naomi
napoleon
napoleoni
napoleonit
napoli
napolit
naq
naqe
naqet
naqshme
naqur
narasimha
narkotike
narrative
narte
naruto
nas
nasa
naser
nash
nasho
nasi
nasir
nasr
nassau
nasser
nat
nata
natale
natalia
natalie
natasha
nate
nath
nathalie
nathan
nation
national
nationale
nationalfilmcenter
nationalism
nations
native
nato
natos
natriumi
natriumit
natur
natural
nature
natyra
natyral
natyrale
natyralizmi
natyre
natyrisht
natyror
natyrore
natyrshe
natyrshme
nauas
nauka
naum
naval
navas
nave
navy
nawabi
nawwas
nazi
nazif
nazionale
nazist
naziste
nazmi
nb
nba
nbc
nc
nchen
nchez
nd
nda
ndafil
ndafili
ndafshi
ndafshit
ndahej
ndahen
ndaheshin
ndahet
ndaj
ndaje
ndajf
ndajme
ndajne
ndal
ndale
ndalesa
ndalese
ndalet
ndalim
ndalimi
ndalimin
ndalimit
ndalohet
ndaloi
ndaloj
ndaloje
ndalojne
ndalon
ndalonin
ndalonte
ndalua
ndaluan
ndaluar
ndaluara
ndalur
ndan
ndane
ndanin
ndante
ndara
ndare
ndarja
ndarje
ndarjen
ndarjes
ndarjet
ndarjeve
ndash
ndau
nde
ndege
ndej
nden
ndenje
ndenjur
nder
nderaj
nderajt
nderbej
nderbeu
nderbeun
nderbeut
ndere
nderi
nderim
nderime
nderimet
nderimi
nderimin
nderin
nderit
nderkohe
nderkombetar
nderkombetare
ndermjet
nderohet
nderoi
nderoj
nderojne
nderon
ndersa
ndershe
ndershme
ndertuar
nderua
nderuar
ndesh
ndesha
ndeshe
ndeshen
ndeshet
ndeshim
ndeshja
ndeshje
ndeshjen
ndeshjes
ndeshjet
ndeshjeve
ndeshur
ndet
ndete
ndeti
ndetin
ndetit
ndetje
ndetshe
ndetshme
ndetur
ndeve
ndez
ndeze
ndezi
ndezur
ndheshme
ndi
ndia
ndie
ndiej
ndien
ndier
ndihej
ndihen
ndihet
ndihma
ndihmat
ndihme
ndihmen
ndihmese
ndihmoi
ndihmoj
ndihmoje
ndihmojne
ndihmon
ndihmoni
ndihmonin
ndihmonte
ndihmosh
ndihmuan
ndihmuar
ndija
ndije
ndikim
ndikime
ndikimet
ndikimeve
ndikimi
ndikimin
ndikimit
ndikohen
ndikohet
ndikoi
ndikoje
ndikojne
ndikon
ndikonte
ndikua
ndikuan
ndikuar
ndim
ndime
ndimi
ndimin
ndimit
ndimor
ndimore
ndin
ndine
ndiqet
ndiqnin
ndiqte
ndise
ndisur
ndit
ndite
ndive
ndizet
ndje
ndjehen
ndjehet
ndjej
ndjek
ndjeke
ndjekin
ndjekja
ndjekje
ndjekjen
ndjekjes
ndjekur
ndjen
ndjenja
ndjenjat
ndjenjave
ndjenje
ndjente
ndjere
ndjerit
ndjese
ndjeshe
ndjeshme
ndjesi
ndjeu
ndo
ndoc
ndodh
ndodhe
ndodhej
ndodhen
ndodheshin
ndodhet
ndodhi
ndodhin
ndodhte
ndodhur
ndofta
ndohen
ndohet
ndoi
ndoj
ndoja
ndoje
ndojne
ndokush
ndom
ndomte
ndon
ndone
ndonin
ndonje
ndonte
ndoq
ndoqe
ndoqi
ndor
ndore
ndosh
ndosha
ndoshe
ndoshta
ndote
ndotja
ndotjen
ndotjes
ndotur
ndra
ndrat
ndrave
ndre
ndrek
ndreq
ndrequr
ndresa
ndrese
ndreu
ndri
ndric
ndrim
ndrime
ndrimet
ndrimeve
ndrimi
ndrimin
ndrimit
ndrit
ndritshe
ndritshme
ndritur
ndrohet
ndroi
ndroj
ndroje
ndrojne
ndron
ndroni
ndronin
ndronte
ndror
ndrore
ndrra
ndrrat
ndrrave
ndrre
ndrua
ndruan
ndruar
ndrueshe
ndrueshme
ndryshe
ndryshem
ndryshim
ndryshime
ndryshimet
ndryshimeve
ndryshimi
ndryshimin
ndryshimit
ndryshme
ndryshmet
ndryshohet
ndryshoi
ndryshoj
ndryshoje
ndryshojeni
ndryshojne
ndryshon
ndryshonin
ndryshonte
ndryshua
ndryshuan
ndryshuar
ndryshueshe
ndryshueshme
ndshe
ndshme
ndua
nduan
nduar
nduarit
ndue
ndve
ndyre
ne
near
nebi
nebraska
nec
nee
need
needs
negativ
negative
negativisht
negociatat
negociatave
neil
neill
nel
nella
nelly
nelson
nemuna
nen
nena
nene
nenet
neni
nenin
nenit
nentor
neo
neolitike
neolitit
nepal
nepali
nepalit
nepe
neper
nepermjet
neq
neritan
nero
nervat
nervor
nervore
nes
nese
nesh
net
neta
nete
netflix
netherlands
neto
network
networks
neue
neumann
neutral
neutrale
nevada
neve
never
neveri
neveritshme
nevis
nevoja
nevojat
nevojave
nevoje
nevojiten
nevojitet
nevojshe
nevojshme
new
newcastle
newman
news
newspaper
newspapers
newton
nexhat
nexhip
nexhmije
next
neymar
nez
nezir
neziri
nfamilja
ng
nga
ngadale
ngadalshe
ngadalshme
ngadalte
ngadhe
nganje
ngaqe
ngarkesa
ngarkesat
ngarkesave
ngarkese
ngarkohet
ngarkoi
ngarkua
ngarkuar
ngarkuara
ngase
ngate
ngathe
ngaze
nge
ngel
ngeli
ngelur
ngjaje
ngjajne
ngjajshe
ngjajshme
ngjall
ngjalli
ngjallur
ngjan
ngjante
ngjare
ngjarja
ngjarje
ngjarjeje
ngjarjen
ngjarjes
ngjarjesh
ngjarjet
ngjarjeve
ngjashe
ngjashme
ngje
ngjergji
ngjes
ngjesh
ngjeshur
ngjesi
ngjesin
ngjesit
ngjet
ngjeve
ngjisht
ngjishtja
ngjit
ngjite
ngjitej
ngjiten
ngjitet
ngjitja
ngjitje
ngjitjen
ngjitjes
ngjitur
ngjyra
ngjyrash
ngjyrat
ngjyrave
ngjyre
ngjyrosur
ngjyrosura
ngoi
ngoj
ngon
ngopur
ngordhur
ngre
ngreje
ngrene
ngri
ngrihej
ngrihen
ngriheshin
ngrihet
ngrinte
ngrire
ngrit
ngrite
ngritet
ngriti
ngritja
ngritje
ngritjen
ngritjes
ngritur
ngritura
ngroh
ngrohja
ngrohje
ngrohjes
ngrohta
ngrohte
ngrohur
ngrysur
ngshe
ngshme
ngu
nguar
nguez
ngujuar
ngul
ngule
nguli
ngulitur
ngulje
ngulm
ngulur
ngun
ngurta
ngurte
ngushe
ngusht
ngushta
ngushte
ngushtica
ngushtice
ngut
nguye
nh
ni
nia
nic
nica
niccolo
nice
nicholas
nicht
nick
nickelodeon
nico
nicola
nicolae
nicolas
nicole
nie
niedersachsen
nieje
nielsen
nien
nies
niet
nietzsche
nieve
nigel
nigeri
nigeria
night
nih
nihaya
nijazi
nijet
nik
nika
nikaj
nikaragua
nike
nikel
nikeli
nikita
niko
nikola
nikolai
nikolla
nikolle
niku
nil
nilit
nils
nim
nimani
nime
nimet
nimeve
nimi
nimin
nimit
nin
nina
nine
nineteenth
nini
ninja
nino
nintendo
nio
nip
nipe
nipi
nipin
nipit
nis
nisa
nise
nisej
nisen
niset
nish
nishan
nishani
nishit
nisi
nisin
nisja
nisje
nisjen
nisjes
nisma
nisme
niste
nisur
nit
niue
nivel
nivele
nivelet
niveleve
niveli
nivelin
nivelit
nivice
nixon
nj
nja
njane
njanuar
nje
njegos
njeh
njejta
njejte
njejten
njejtin
njen
njera
njere
njerez
njerezit
njeri
njeriu
njeriun
njeriut
njerzit
njes
njeshtar
njeshtare
njeshte
njeshtra
njeste
njestrim
nji
njihej
njihen
njiheshin
njihet
njihnin
njihte
njim
njoftim
njoftime
njoftimi
njoftimit
njoftoi
njofton
njoftua
njoftuan
njoftuar
njoh
njohe
njohim
njohin
njohja
njohje
njohjeje
njohjen
njohjes
njohu
njohur
njohura
njohuri
njohurit
njohurite
njohurive
njolla
njollat
njolle
njoma
njome
njor
njosur
nju
njutonit
njyer
nk
nklasa
nkryetar
nkryetare
nkuptohet
nkuptojne
nkupton
nkuptonte
nkuptuar
nl
nm
nndarje
no
noah
nobel
nobelist
noble
nocion
nocioni
nocionin
noel
nofke
nofulle
nohej
nohen
nohet
noi
noj
noja
nojat
nojave
noje
nojme
nojne
nokia
noli
nolin
nolit
nomade
nome
nomenklature
nomiminmin
nominale
nominations
nominees
nominua
nominuar
nominuarit
non
nonin
nonte
nor
nora
norbert
nord
nordik
nordike
nordrhein
nore
norma
normal
normale
normalen
normalisht
norman
normandie
normane
normat
normativ
normative
normave
norme
norodom
norris
north
northern
northwestern
norton
norvegjez
norvegjeze
norvegji
norvegjia
norvegjine
norvegjise
norvegjisht
norway
norwich
nos
nosi
nostalgia
not
nota
notat
note
notes
nothing
noti
notit
notre
nou
nouvelle
nov
nova
novaku
novel
novela
novele
november
novi
novo
novobe
novoselani
novosella
now
np
npr
nprefekture
nqs
nr
ns
nshkrimi
nshkrimin
nshkrimit
nshkroi
nshkrua
nshkruan
nshkruar
nshkrues
nshtete
nshtrohen
nshtrohet
nshtrua
nshtruan
nshtruar
nster
nt
nte
ntoke
ntor
ntori
ntorit
nu
nua
nuan
nuar
nuara
nuarit
nuclear
nues
nuese
nuesi
nuesit
nuh
nuhi
nujore
nuk
num
number
numbers
nume
numer
numerik
numerike
numizmatike
numra
numrat
numrave
numri
numrin
numrit
nun
nuova
nuovo
nur
nuremberg
nuri
nuse
nusen
nuses
nushi
nusja
nvlere
nxe
nxehet
nxehta
nxehte
nxirren
nxirret
nxirrte
nxisin
nxiste
nxit
nxite
nxiti
nxitim
nxitja
nxitje
nxitjen
nxituar
nxitur
nxjerr
nxjerra
nxjerre
nxjerrim
nxjerrin
nxjerrja
nxjerrjen
nxjerrjes
nxore
nxori
nxorri
ny
nyja
nyje
nyjet
nyjeve
nyra
nyrat
nyrave
nyre
nz
o
oaks
ob
oba
obama
obe
obito
obituary
object
objekt
objekte
objektet
objekteve
objekti
objektin
objektit
objektiv
objektiva
objektivat
objektivave
objektive
objektivi
objektivin
obligim
obligimet
obliguar
oborr
oborre
oborret
oborri
oborrin
oborrit
oborrtare
observations
observatori
observer
obsh
oc
occitanie
occupation
ocean
och
oclc
october
od
oda
ode
oden
oder
odhise
oecd
of
ofensive
oferta
ofertat
oferte
off
office
officer
official
officials
oficer
oficere
oficeri
ofrimin
ofrohen
ofrohet
ofroi
ofroje
ofrojne
ofron
ofronin
ofronte
ofrua
ofruan
ofruar
ofruara
ofruesit
often
og
oh
ohe
ohen
ohet
ohio
ohri
ohrit
ohu
oi
oil
ois
oise
oj
oje
ojme
ojne
ojq
ok
okb
oke
oklahoma
okollate
oksfordit
oksigjen
oksigjeni
oksigjenit
oku
okupimit
ol
ola
old
oldenburg
oldest
ole
olga
olimpiade
olimpik
olimpike
oliveira
oliver
olivia
olivier
olympic
olympics
olympique
om
oman
omani
omanit
omar
omari
ombrelle
omega
omer
omeri
omerit
omsca
omukama
on
once
one
oni
onin
online
only
onomastik
onomastike
ontario
onte
onufri
op
open
opening
opens
opera
operacion
operacione
operacionet
operacioneve
operacioni
operacionin
operacionit
operas
operation
operations
operativ
operative
operator
operatore
operatori
opere
operojne
operon
operuar
opinion
opinione
opinionet
opinioni
opinionin
opinionit
oplus
opoje
opold
opozita
opozitare
opozite
ops
optik
optike
optimale
opus
oqean
oqeani
oqeanike
oqeanin
oqeanit
or
ora
oral
orana
orange
orape
orar
orari
orbita
orbitale
orbite
orchestra
order
ore
oregon
orendi
orendite
org
organ
organe
organet
organeve
organi
organik
organike
organin
organisation
organit
organizata
organizatat
organizatave
organizate
organization
organizativ
organizative
organizator
organizatore
organize
organizim
organizimi
organizimin
organizimit
organizma
organizmat
organizmave
organizmi
organizmin
organizmit
organizohen
organizohet
organizoi
organizoje
organizojne
organizon
organizonte
organizua
organizuan
organizuar
organizuara
orhan
ori
orient
oriental
orientale
orientales
orientim
orientimi
orientimin
orientimit
orientuar
origin
original
origins
origjina
origjinal
origjinale
origjinali
origjinalit
origjine
orite
orive
oriz
orizari
orizi
orizit
orkeste
orkestra
orkestre
orkestrimin
orlando
orle
orleans
orne
oro
ortega
orthodhokse
orthodox
ortodoks
ortodokse
os
osbe
oscar
osce
ose
osek
oskar
oslo
osman
osmane
osmani
osmanisht
osmanit
osoji
ostrobothnia
ostrosi
osvaldo
other
others
otoman
otomane
otto
ottoman
ou
ouest
ould
our
out
outlook
output
outside
ov
ova
ovale
ove
over
overijssel
overview
ovi
ovid
ovidit
owen
own
oxford
oxhaku
oxhakut
oz
p
pa
paafte
paane
pabarabarte
pabese
pabesi
pabesimtare
pabesueshme
pablo
pac
pacaj
pacaktuar
pace
paciente
pacienti
pacientit
pacific
pacolli
pade
padi
padiskutueshe
paditur
padova
padove
padre
padrejte
padukshe
padukshme
padurim
padyshim
paepur
pafaje
pafajshe
pafajshme
pafe
pafund
pafunde
pafundme
pafuqishe
paga
pagan
pagane
pagarusha
pagat
pagave
page
pages
pagesa
pagesat
pagesave
pagese
pagjume
pagoda
pagoi
paguaj
paguaje
paguajne
paguan
paguanin
paguante
paguar
paguhet
pah
paharruar
pahlavi
pai
pain
painfo
painting
paisje
paisjet
pajaziti
paje
pajete
pajis
pajisja
pajisje
pajisjen
pajisjes
pajisjet
pajisjeve
pajisur
pajisura
pajtim
pajtimin
pajtimit
pajtohen
pajtohet
pajtua
pajtuan
pajtuar
pajtueshme
pak
pake
paketa
paketave
pakete
pakica
pakicat
pakicave
pakice
pakistan
pakistani
pakistanin
pakistanit
pako
paksa
pakta
pakte
pakti
paktit
paku
pakuf
pakufizuar
pakuptimte
pal
pala
palace
palacio
palatinate
palau
palazzo
palce
pale
paleolitit
palermo
palermos
palestine
palestinez
palestineze
palgrave
pali
paligjshe
paligjshme
palin
palit
pallat
pallate
pallatet
pallateve
pallati
pallatin
pallatit
pallava
pallto
palm
palma
palmave
palme
palmer
palodhur
paluajtshme
pamartuar
pambrojtur
pambuk
pambuku
pambukut
pame
pamja
pamjaftueshme
pamje
pamjen
pamjes
pamjet
pamjeve
pamor
pamore
pamposhtur
pamunde
pamundur
pan
panairi
panairin
panajot
panama
panamaja
panamase
pancha
panda
pandare
pandashme
pande
pandeli
pandemia
pandemic
pandemise
pandi
pandryshuar
pandryshueshme
pane
panel
panele
panelet
panevojshme
pangopur
panik
panjohur
panjohura
pano
panorama
panorame
pantallona
panthera
panume
paola
paolo
papa
papajtueshme
papale
papare
papaste
pape
paper
papers
papjekur
paplote
papnor
papranueshme
paprekshme
paprekur
papritmas
papritur
papritura
papua
papune
paqarta
paqarte
paqe
paqeje
paqen
paqeruajte
paqes
paqja
par
para
paraardhe
paracaktuar
parade
paradise
parafj
parafjale
paragjykime
paragjykimet
paragjykimeve
paragrafi
paragrafin
paraguaj
parahistorik
parahistorike
paraja
parajsa
parajse
parakohshme
paralajme
paralel
paralele
paralelisht
paramenduar
parametra
parametrat
parametrave
parametri
paramilitare
paramithia
paramithise
parandalimi
parandalimin
parandaluar
parapare
parape
paraprak
paraprake
paraprakisht
paraprijne
paraprin
paraprire
paraqese
paraqesin
paraqet
paraqiste
paraqit
paraqite
paraqitej
paraqiten
paraqitet
paraqiti
paraqitja
paraqitje
paraqitjen
paraqitjes
paraqitjet
paraqitjeve
paraqitur
paraqitura
pararende
pararoje
parase
parash
parashikimet
parashikimi
parashikohet
parashikoi
parashikon
parashikonte
parashikuar
parashikuara
parashkollor
parashkollore
parashqevi
parashtesa
parashtruara
parashute
parasysh
parat
parate
parathe
paraushtarake
parave
parazite
pare
parents
paret
parga
parge
pari
paria
parim
parime
parimet
parimeve
parimi
parimin
parimit
parin
paris
parise
parisi
parisit
parit
park
parker
parks
parku
parkun
parkut
parlament
parlamentar
parlamentare
parlamenti
parlamentin
parlamentit
parliament
parma
parme
parmende
parqe
parqet
parregullt
parregullta
parshe
parshme
part
parti
partia
partiak
partiake
partial
partie
partine
partise
partite
partive
partizan
partizane
partizani
partizanin
partizanit
partner
partnere
partneri
partneritet
partneriteti
partneritetit
partnership
parts
party
parvati
pas
pasagjere
pasakte
pasaporta
pasaporte
pasardhe
pascal
pasdite
pase
pash
pasha
pashai
pashait
pashallare
pashalle
pashe
pashke
pashko
pashmangshe
pashmangshme
pashoqe
pashtrikut
pashuar
pasi
pasigurt
pasion
pasioni
pasionin
pasionuar
pasiqe
pasiv
pasive
pasjac
paska
paske
paslufte
pasme
pasnje
pasoi
pasoj
pasoja
pasojat
pasojave
pasoje
pasojne
pason
pasqyra
pasqyre
pasqyrim
pasqyrimi
pasqyrohen
pasqyrohet
pasqyrojne
pasqyron
pasqyruar
pass
passion
past
pastaj
paste
pasth
pastor
pastra
pastrehe
pastrim
pastrimi
pastrimin
pastrimit
pastrohet
pastroj
pastroje
pastruar
pasua
pasuan
pasuar
pasues
pasuese
pasuesit
pasuesve
pasuksesshe
pasuksesshme
pasuniversitar
pasuniversitare
pasur
pasura
pasuri
pasuria
pasurimin
pasurine
pasurise
pasurit
pasurite
pasurive
pasuruar
pat
pata
patate
patatet
pate
patente
path
pathyeshe
pati
patients
patjete
patna
patogjene
patologjike
patos
patriarkale
patriarku
patrice
patricia
patrick
patriot
patriote
patrioti
patriotik
patriotike
patriotit
patronazhin
patterns
patundshme
patundur
patur
pau
paudhe
paul
paula
paulo
paund
pavare
pavarsise
pavarur
pavarura
pavdeke
pavdekshe
pavdekshme
pave
pavel
pavet
pavete
pavle
pavlefshe
pavlefshme
payne
pays
paz
pazakonta
pazakonte
pazar
pazari
pazarin
pazarit
paze
pb
pbb
pbs
pc
pd
pda
pdf
pdi
pdk
pe
peace
peak
pearl
pearson
pec
peci
pedagog
pedagoge
pedagogji
pedagogjia
pedagogjik
pedagogjike
pedagogjise
pedagogu
pedagogut
pedagogy
pedro
peer
peizazh
peizazhe
peizazhi
peizazhin
peizazhit
peja
peje
pejgamber
pejgambere
pejgamberi
pejgamberin
pejgamberit
pejgamberlle
pekin
pekinit
pele
pelegrinazhi
pelegrinazhit
pelegrine
pellazge
pellg
pellgu
pellgun
pellgut
peloponezit
pema
peme
pen
pena
penal
penale
penallti
penalltine
penalltive
penda
pende
pendese
pendimit
pendohen
pendohet
penduar
pene
peng
pengesa
pengesat
pengesave
pengese
pengoi
pengoje
pengojne
pengon
pengonte
penguan
penguar
penguin
penn
pennsylvania
penny
pensilvanise
pension
people
peoples
pepe
peqin
peqinit
per
perandor
perandorak
perandorake
perandore
perandoresha
perandori
perandoria
perandorin
perandorine
perandorise
perandorit
perandorive
perbehet
perc
percaktuar
perceptimi
perceptimin
perceptimit
perceptuar
percy
perde
perdoren
perdoret
perdorur
pere
pereira
perendim
perendimore
perez
perfect
perfekte
performanca
performancat
performancave
performance
performoi
performon
performuar
perfshin
perfshire
pergjithshem
pergjithshme
peri
periferi
periferike
perikliu
perime
perimet
perimeve
period
periodik
periodike
periudha
periudhat
periudhave
periudhe
periudhen
periudhes
perket
perla
perlat
permanent
permban
permes
pero
perpara
perry
perse
persekutimit
perseri
perseus
persi
persia
persian
persiane
persik
persise
persisht
person
persona
personal
personale
personalisht
personalitet
personalitete
personalitetet
personaliteteve
personaliteti
personalitetin
personalitetit
personality
personash
personat
personave
personazh
personazhe
personazhet
personazheve
personazhi
personazhin
personazhit
personel
personeli
personelin
personelit
personi
personin
personit
perspective
perspectives
perspektiva
perspektive
peru
perugia
perumal
peruse
pervec
pervizi
pes
pese
pesha
peshave
peshe
peshk
peshkaqene
peshkatare
peshkim
peshkimi
peshkimit
peshkop
peshkope
peshkopi
peshkopise
peshkopit
peshku
peshkut
peshojne
peshon
peshonte
peshq
peshqit
peshqve
peshtani
peshuar
pesta
pestalozzi
peste
pesti
petar
pete
peter
petersburg
peterson
petit
petra
petraq
petrarke
petrit
petro
petroci
petrova
petrovic
petrucci
pez
peza
peze
pezull
pezulluar
pfa
pfalz
pg
ph
phase
phd
phi
phil
philadelphia
philip
philipp
philippe
phillips
philosophical
philosophy
phoenix
phone
photo
photos
php
phyllosticta
physical
physics
pi
pia
piacenza
piak
piake
pianist
pianiste
piano
pianos
piazza
pic
picardie
picture
pictures
pie
piece
pier
pierce
piero
pierre
pieter
pietro
pihet
pija
pije
pijet
pijeve
pijne
pijshe
pik
pika
pikat
pikave
pike
pikerisht
pikon
piktor
piktore
piktoreske
piktori
piktorit
piktura
pikturat
pikturave
pikture
pikturoi
pikturuar
pikturuara
pilgrimage
pill
pilot
pilote
piloti
pilotit
pin
pine
ping
pinguine
pingul
pini
pinin
pink
pinte
pio
pioneer
pionier
pioniere
pipa
pipe
piper
piqen
piqet
pique
pira
piramida
piramidale
piramidat
piramidave
piramide
pirat
pirate
pirates
pire
pirg
pirja
pirlo
piro
pirro
pirros
pisa
pise
pish
pisha
pishe
pishine
pista
piste
pistolete
pit
pite
pitoni
piu
pius
pive
pizarro
pize
pj
pjata
pjate
pjekur
pjekura
pjekurine
pjekurise
pjell
pjelle
pjellor
pjellore
pjerre
pjes
pjesa
pjese
pjesen
pjeshke
pjesmarre
pjesshe
pjesshme
pjestar
pjestare
pjete
pjeter
pjetri
pjetrit
pk
pkk
pksh
pl
pla
plac
place
places
plaga
plage
plagos
plagose
plagoset
plagosur
plak
plaka
plake
plaku
plakut
plan
planck
plane
planet
planetare
planete
planeti
planetin
planetit
planeve
plani
planifikim
planifikimi
planifikimin
planifikimit
planifikoi
planifikon
planifikuar
planifikuara
planimetri
planin
planit
planning
plans
plant
plants
plase
plasi
plastike
plasur
plate
platforma
platformat
platforme
platini
platinum
plato
platoni
platonit
plava
plave
play
played
player
players
playing
playstation
plaza
plazh
plazhe
plazhet
plazhi
ple
pleh
plehe
plehrave
pleistocenit
plenumit
plepi
pleq
pleqe
pleqte
pleqve
plini
pliny
pllaje
pllaka
pllakat
pllakave
pllake
pllana
ploge
plos
plot
plota
plote
plotfuqishe
plovdiv
pluhur
pluhuri
pluhurin
pluhurit
plumb
plumba
plumbi
plumbit
plus
pm
pmb
pmc
pmid
pnas
png
po
poashtu
poc
pocket
pocock
podgorica
podgorice
podrimja
podujeve
poe
poema
poemat
poeme
poems
poet
poete
poeti
poetik
poetike
poetin
poetit
poetry
poezi
poezia
poezine
poezise
poezite
poezive
pogradec
pogradeci
pogradecit
pogragja
pohim
pohimi
pohoi
pohojne
pohon
pohuan
pohuar
point
points
poitou
pojata
pokal
poke
pol
polak
polake
poland
polar
polare
pole
polemika
polemike
polet
poli
polic
police
polici
policia
policie
policies
policine
policise
policor
policore
policy
polifonike
polin
polis
polish
politeknik
political
politics
politik
politika
politikan
politikane
politikani
politikat
politikave
politike
politikisht
politiko
polje
pollo
pollogut
polluzha
polo
poloni
polonia
polonine
polonise
polonisht
pompe
pone
pont
pop
pope
popoci
popova
popovic
popuj
popujt
popujve
popular
population
populations
popull
popullaritet
popullariteti
popullaritetin
popullaritetit
popullarizuar
popullata
popullatat
popullate
populle
populli
popullin
popullise
popullit
popullor
popullore
popullsi
popullsia
popullsie
popullsine
popullsise
popullsite
popullsive
populluar
populluara
por
poradeci
pornhub
pornografike
porosi
porosite
porositi
porositur
porsa
porsche
porse
porsi
port
porta
portal
portali
portat
portave
porte
porter
portet
porti
portier
portiere
portieri
portierin
portierit
portik
portiku
portin
portit
portland
portnoy
porto
portokalli
portrait
portret
portrete
portretet
portreti
portretin
portretizoi
portretizuar
portugal
portugali
portugalia
portugaline
portugalise
portugalisht
portugez
portugeze
portuguese
pos
posa
posac
posedojne
posedon
posht
poshte
poshtme
position
positive
possible
post
posta
postar
postare
poste
postet
posti
postime
postimeve
postin
postojeni
potencial
potenciale
potenciali
potencialin
potencialisht
potencialit
potential
poter
pothuaj
pothuajse
potoc
potok
potoku
potokut
potter
pound
pour
powell
power
powers
pozicion
pozicione
pozicionet
pozicioni
pozicionin
pozicionit
pozicionuar
pozita
pozitat
pozite
pozitiv
pozitive
pozitivisht
pp
ppen
ppsh
pr
pra
practical
practice
practices
pradesh
pradeshit
prag
prage
pragu
prague
pragun
praktik
praktika
praktikat
praktikave
praktike
praktikisht
praktikohet
praktikojne
praktikuar
pran
prandaj
prane
pranga
prani
prania
pranim
pranimi
pranimin
pranimit
pranine
pranise
pranishe
pranishme
pranishmit
pranohen
pranohet
pranoi
pranoj
pranoje
pranojme
pranojne
pranon
pranoni
pranonin
pranonte
pranua
pranuan
pranuar
pranuara
pranueshe
pranueshme
pranvera
pranvere
prap
prapa
prapambetur
prapashtesa
prapashtese
prapavije
prape
prapme
prasad
pre
prec
predha
predhe
predikimin
predikuar
prefekt
prefekti
prefektura
prefekture
preference
preferojne
preferon
preferuar
preferuara
pregnancy
prehet
prehistoric
prehistorike
prehje
prej
prejardhja
prejardhje
prejardhjen
prejardhjes
prek
prekazi
preke
preken
preket
prekin
prekje
prekshe
prekshme
preku
prekur
prekura
prelezi
premier
premiera
premiere
premio
premium
premte
premten
premtes
premtim
premtime
premtimet
premtimi
premtimin
premtoi
premton
premtuar
prene
preng
prenk
prentice
prera
prere
prerja
prerje
prerjen
prerjes
pres
prese
present
presheva
presheve
presidenca
presidence
presidencial
presidenciale
president
presidente
presidenti
presidential
presidentin
presidentit
presidentja
presidiumit
presim
presin
presion
presioni
presionin
presionit
prespe
press
prestigjioz
prestigjioze
pret
pretendime
pretendimet
pretendimin
pretendohet
pretendoi
pretendojne
pretendon
pretendonin
pretendonte
pretenduar
pretoriane
preu
prevention
preveze
prezantimi
prezantimin
prezantimit
prezantohet
prezantoi
prezanton
prezantua
prezantuan
prezantuar
prezantues
prezantuese
prezenca
prezence
prezent
prezente
prezentuar
pri
price
pride
pridvorica
prift
prifte
prifti
priftin
priftit
prije
prill
prilli
prillit
prima
primar
primare
primary
primate
primavera
prime
primera
primitiv
primitive
primo
primula
princ
princat
princave
prince
princesha
princeshe
princess
princeton
princi
princin
principata
principate
principe
principi
principles
princit
prind
prinde
prinderit
print
printing
prioritet
prire
priren
prirja
prirje
prirjen
prirjet
prirur
pris
prish
prishe
prishet
prishi
prishin
prishja
prishjen
prishjes
prishtina
prishtine
prishur
prisni
prisnin
prison
priste
pristina
prit
prita
prite
pritej
priten
pritet
priti
pritja
pritje
pritjes
pritshme
pritur
pritura
privat
private
privilegje
privilegjet
privilegjuar
prix
prize
prizren
prizreni
prizrenit
pro
problem
problematike
probleme
problemet
problemeve
problemi
problemin
problemit
problems
proc
procedura
procedurat
procedurave
procedure
proceedings
proces
procese
proceset
proceseve
procesi
procesin
procesit
procesore
procesori
process
processing
prodhim
prodhime
prodhimet
prodhimeve
prodhimi
prodhimin
prodhimit
prodhohen
prodhohet
prodhoi
prodhoje
prodhojne
prodhon
prodhonin
prodhonte
prodhua
prodhuan
prodhuar
prodhuara
prodhues
prodhuese
prodhuesi
prodhuesit
prodhuesve
producent
producente
producenti
producer
product
production
productions
products
produksioni
produkt
produkte
produktet
produkteve
produkti
produktin
produktit
prof
profesion
profesional
profesionale
profesionalisht
profesioni
profesionin
profesionist
profesioniste
profesionit
profesor
profesore
profesoreshe
profesori
profesorit
professional
professor
profet
profete
profeti
profetin
profetit
profil
profile
profili
profilin
profilit
program
programe
programet
programeve
programi
programimi
programimit
programin
programit
programme
programming
programs
programuar
programuese
progres
progresit
progresiv
progresive
progress
progressive
project
projects
projekt
projekte
projektet
projekteve
projekti
projektimi
projektimin
projektimit
projektin
projektit
projektoi
projektua
projektuar
prokupla
prokuple
prokuror
prokurore
prokurori
prokuroria
prokurorise
prokurorit
proletariatit
promotion
promovimi
promovimin
promovimit
promovoi
promovojne
promovon
promovua
promovuar
prona
pronar
pronare
pronari
pronarit
pronat
pronave
prone
propaganda
propagande
properties
property
prophet
proporcional
proporcionale
propozim
propozime
propozimet
propozimi
propozimin
propozoi
propozon
propozua
propozuan
propozuar
propozuara
prostitute
protagonist
protagoniste
protagonisti
protected
protection
proteina
proteinat
proteinave
proteine
protektorat
protest
protesta
protestant
protestante
protestat
protestave
proteste
protesters
protests
protestuesit
proto
protocol
protokoll
protokollet
protokolli
protokollin
protokollit
prova
provat
provave
prove
provence
provided
provim
provimet
provimin
provinca
provincat
provincave
province
provinces
provincia
provincial
provinciale
provohet
provoi
provojne
provokuar
provon
provuar
proza
prozator
proze
prroi
prroj
pru
prure
prurja
prurje
prush
prusia
prusiane
prusise
ps
psalmet
psalmi
pse
pseudo
pseudonim
pseudonimi
pseudonimin
psg
psh
pshere
psi
psikike
psikolog
psikologe
psikologji
psikologjia
psikologjik
psikologjike
psikologjine
psikologjise
psikoze
psv
psychiatry
psychological
psychology
pt
ptolemeu
ptolemeut
pu
pub
pubertetit
public
publication
publications
publicist
publicistike
publik
publike
publikim
publikime
publikimet
publikimi
publikimin
publikimit
publikisht
publikohet
publikoi
publikojne
publikon
publiku
publikua
publikuan
publikuar
publikuara
publikun
publikut
publique
published
publisher
publishers
publishing
puc
puca
puce
puerto
puka
puke
pula
pulat
pule
pulisic
pulitzer
pulla
pulle
puna
pune
punen
punes
punim
punime
punimet
punimeve
punimi
punimin
punimit
punishte
punk
punohet
punoi
punoj
punoje
punojme
punojne
punon
punoni
punonin
punonje
punonte
puntore
punua
punuan
punuar
punuara
punues
punuese
punueshme
pupe
pupla
purana
puranike
pure
puri
purple
purpurt
pus
puse
puset
push
pushim
pushime
pushimet
pushimeve
pushimi
pushimin
pushimit
pushka
pushkatuar
pushke
pushoi
pushoje
pushojne
pushon
pushtet
pushteti
pushtetin
pushtetit
pushtim
pushtimet
pushtimeve
pushtimi
pushtimin
pushtimit
pushtohet
pushtoi
pushtojne
pushton
pushtonte
pushtua
pushtuan
pushtuar
pushtuara
pushtues
pushtuese
pushtuesi
pushtuesit
pushtuesve
pushuan
pushuar
pusi
pusit
put
pute
putet
puth
puthje
puti
putin
putja
putje
putjen
putjes
putur
putura
puy
puyol
pvt
pyes
pyesin
pyet
pyeta
pyete
pyetet
pyeti
pyetja
pyetje
pyetjen
pyetjes
pyetjet
pyetjeve
pyetur
pyje
pyjet
pyjeve
pyjor
pyjore
pyke
pyll
pylle
pylli
pyllin
pyllit
pyre
q
qa
qabe
qaben
qabene
qabes
qabese
qaf
qafa
qafat
qafe
qafir
qafzezi
qais
qaj
qajar
qamil
qamili
qan
qante
qare
qark
qarku
qarkullim
qarkullimi
qarkullimin
qarkullimit
qarkullojne
qarkullon
qarkun
qarkut
qarqe
qarqet
qarqeve
qarta
qarte
qasim
qasja
qasje
qasjen
qasjes
qasjet
qatar
qau
qazim
qazimi
qbz
qdo
qe
qebulli
qebullit
qejf
qelbe
qele
qeli
qeliza
qelizat
qelizave
qelize
qelizor
qelizore
qellim
qelqi
qelqit
qemal
qemali
qemalin
qemalit
qen
qena
qende
qender
qendra
qendrat
qendrave
qendre
qendron
qendror
qendrore
qene
qengj
qengji
qeni
qenia
qenie
qenien
qenies
qeniet
qenieve
qenin
qenit
qenka
qente
qenurit
qenve
qep
qepe
qepur
qeramika
qeramike
qerim
qerimi
qerre
qerres
qerret
qershi
qershor
qershori
qershorit
qese
qesh
qesharake
qeshe
qeshje
qeshur
qet
qeta
qete
qeveri
qeveria
qeverie
qeverine
qeveris
qeverise
qeverisin
qeverisja
qeverisje
qeverisjen
qeverisjes
qeverisur
qeveritar
qeveritare
qeverite
qeverive
qi
qiej
qiejt
qiejve
qiell
qielli
qiellin
qiellit
qiellor
qiellore
qij
qija
qijat
qilim
qime
qimet
qimeve
qin
qind
qindra
qindvjec
qing
qipriote
qipro
qipros
qira
qiri
qiriazi
qit
qite
qiti
qitje
qka
qofshin
qoft
qofte
qoj
qorr
qoshe
qosja
qquad
qu
quad
quaj
quajme
quajne
quajt
quajte
quajti
quajtur
quajtura
quality
quan
quanin
quante
quantum
quarterly
que
queen
queens
queensland
quentin
quest
question
questions
quhej
quhen
quheshin
quhet
qui
quincy
qull
qulle
qume
quo
quot
quote
qurtubi
qv
qymyr
qymyri
qymyrit
qyprilliu
qyr
qyre
qyrjen
qyrur
qysh
qyshe
qyt
qytet
qytetar
qytetare
qytetari
qytetarit
qytete
qytetet
qyteteve
qyteti
qytetin
qytetit
qyteza
qyteze
r
ra
rabbani
rac
raca
racave
race
rachel
racing
racional
racionale
raciste
racore
rada
rade
radha
radhazi
radhe
radhit
radhitet
radhitur
radhitura
radi
radikal
radikale
radio
radioaktive
radion
radios
radobili
radoniqi
radova
rafael
rafe
raffaello
rafinuar
rafinuara
ragip
raguze
rahman
rahovec
rahoveci
rahovecit
rahovica
rai
raiden
railway
rain
rainbow
raj
raja
rajendra
rajhut
rajon
rajonal
rajonale
rajone
rajonet
rajoneve
rajoni
rajonin
rajonit
raketa
rakete
raki
rakinica
ralph
ram
rama
ramadan
ramadani
raman
ramas
ramazan
ramazanit
rambujese
rame
ramesses
rami
ramiz
ramna
ramo
ramon
ramos
ramsay
ramsey
ramush
ran
rana
rand
random
rane
rang
range
rangers
rangun
rangut
rani
ranking
rankings
ranor
ranore
rao
rap
raport
raporte
raportet
raporteve
raporti
raportin
raportit
raportohet
raportoi
raportojne
raporton
raportua
raportuan
raportuar
rapper
rard
rare
ras
rasa
rase
rash
rashe
rashid
rashtani
rasim
rast
rastavica
raste
rastet
rasteve
rasti
rastin
rastit
rat
rata
ratat
rate
ratha
rather
ratings
ration
ratu
rau
rauf
rault
raundi
raundin
raundit
rauza
rave
ravensbru
raxha
raxhai
ray
raymond
rb
rba
rbac
rball
rballe
rballej
rballen
rballet
rballoje
rballonte
rballuar
rballur
rbashke
rbe
rbehet
rbej
rbeje
rbejne
rben
rbenin
rbente
rbese
rbeu
rbica
rbim
rbime
rbimet
rbimeve
rbimi
rbimin
rbimit
rbinde
rbjani
rblehet
rblim
rblime
rblimet
rblimi
rblimin
rblye
rblyer
rbrenda
rbri
rbuar
rbuze
rbuzje
rbyen
rbyer
rbyes
rbyese
rc
rca
rcaktim
rcaktimi
rcaktimin
rcaktimit
rcaktohen
rcaktohet
rcaktoi
rcaktoj
rcaktoje
rcaktojne
rcakton
rcaktua
rcaktuan
rcaktuar
rcaktuara
rce
rcej
rceje
rcejne
rcell
rcelli
rcen
rceu
rcillet
rcim
rcime
rcimi
rcimin
rcimit
rcimtare
rcjell
rcjelle
rcjellin
rcjelljen
rcjellur
rcolli
rcyer
rd
rda
rdani
rde
rderisa
rdhe
rdhes
rdhese
rdita
rdite
rditshe
rditshme
rdoci
rdoli
rdor
rdore
rdorej
rdoren
rdoreshin
rdoret
rdori
rdorim
rdorime
rdorimi
rdorimin
rdorimit
rdorin
rdorni
rdornin
rdorshme
rdorte
rdorues
rdoruesi
rdoruesin
rdoruesit
rdoruesve
rdorur
rdorura
rdredhur
rdrejt
rdrejta
rdrejte
re
read
reader
reading
ready
reagan
reagim
reagime
reagimet
reagimi
reagimin
reagimit
reagojne
reagon
reaksion
reaksionare
reaksionet
reaksioni
reaksionit
real
reale
reali
realisht
realist
realiste
realit
realitet
realiteti
realitetin
realitetit
reality
realizim
realizimi
realizimin
realizimit
realizmi
realizmit
realizohen
realizohet
realizoi
realizoje
realizojne
realizon
realizonte
realizua
realizuan
realizuar
realizuara
really
reason
rebecca
rebel
rebele
rebelim
rebelimi
rebelimin
rebelimit
rec
recent
receptore
receta
recete
reciprok
reciproke
reciprokisht
recitimi
recognition
record
recorded
recording
records
red
redaksia
redaksise
redaktimin
redakto
redaktor
redaktore
redaktori
redaktorit
redaktuar
reduktimin
reduktuar
reed
reeder
reeve
ref
refer
referenca
referencash
referencat
reference
references
referendum
referendumi
referendumit
referime
referimi
referohej
referohen
referohet
referuar
refik
reflections
reflektimi
reflekton
reflektuar
reform
reforma
reformat
reformation
reformave
reforme
reformuar
refs
refugees
refugjat
refugjate
refuzimi
refuzimin
refuzimit
refuzoi
refuzojne
refuzon
refuzua
refuzuan
refuzuar
regan
reggio
regia
regina
region
regional
regions
register
regjence
regjent
regji
regjia
regjim
regjimenti
regjimentin
regjimentit
regjimi
regjimin
regjimit
regjine
regjion
regjionale
regjioni
regjionin
regjionit
regjisor
regjisore
regjisori
regjisorin
regjisorit
regjiste
regjistra
regjistrat
regjistrave
regjistri
regjistrim
regjistrime
regjistrimet
regjistrimeve
regjistrimi
regjistrimin
regjistrimit
regjistrin
regjistrit
regjistrohen
regjistrohet
regjistroi
regjistrojne
regjistron
regjistrua
regjistruan
regjistruar
regjistruara
regjizor
regjur
rehat
rehati
rehen
rehet
reich
reid
reims
reina
reis
reja
rejat
rejme
rejne
rejti
rejtje
rejtjen
rejtur
reka
rekate
reke
rekisteritilanne
reklama
reklamat
reklame
rekomandohet
rekomanduar
rekord
rekorde
rekordet
rekordeve
rekordi
rekordin
rekreative
rekrute
rekrutuar
rektor
rektori
relacion
relacioni
related
relations
relationship
relationships
relativ
relative
relativisht
relativitetit
relativity
release
released
releases
relevante
relief
reliev
relieve
relievi
relievin
relievit
religion
religions
religious
religjioze
rem
remains
reme
remix
remrit
remzi
ren
renaissance
renato
renault
rend
renda
rende
rendesi
rendesishem
rendesishme
rendi
rendin
rendit
rendite
renditen
renditet
renditi
renditja
renditje
renditjen
renditjes
renditur
renditura
rene
reni
rennes
rep
repart
reparte
repartet
reparti
repartit
reper
repertorin
report
reporter
reports
reprezentacionin
reprint
repubblica
republic
republika
republikan
republikane
republikat
republikave
republike
republikes
reputacion
reputacioni
reputacionin
rer
res
rese
research
reserve
resh
resha
reshat
reshe
reshje
reshjet
reshjeve
resident
resistance
resnje
resolution
resource
resources
respect
respekt
respekti
respektimin
respektin
respektivisht
respektojne
respekton
respektuar
response
rest
restaurimi
restaurimin
restaurimit
restauruar
restorant
restorante
resuli
results
resurseve
rete
reth
retorike
retrieved
return
returns
reuss
reuters
rev
reve
revealed
reveals
revenge
review
reviews
revised
revista
revistat
revistave
reviste
revizioniste
revolta
revolte
revolucion
revolucionar
revolucionare
revolucioni
revolucionin
revolucionit
revolution
revolutionary
revue
rex
rexha
rexhe
rexhep
rexhepi
rey
reyes
reynolds
rez
reza
rezalla
rezerva
rezervat
rezervave
rezerve
rezervuar
rezervuara
rezidenca
rezidence
rezidenciale
rezistenca
rezistence
rezistente
rezistuar
rezolucion
rezoluta
rezolute
rezultat
rezultate
rezultatet
rezultateve
rezultati
rezultatin
rezultatit
rezultoi
rezultoje
rezultojne
rezulton
rezultuan
rezultuar
rf
rfaqe
rfaqeje
rfaqen
rfaqes
rfaqet
rfaqeve
rfaqja
rfaqsuar
rfc
rfille
rfillje
rfillur
rfitim
rfitime
rfitimet
rfitimin
rfitoi
rfitojne
rfiton
rfituar
rforcim
rforcuar
rfshi
rfshihej
rfshihen
rfshiheshin
rfshihet
rfshije
rfshijne
rfshin
rfshine
rfshinin
rfshinte
rfshira
rfshire
rfshirja
rfshirje
rfshirjen
rfshirjes
rfshiu
rftohet
rfundim
rfundime
rfundimet
rfundimi
rfundimin
rfundimisht
rfundimit
rfundimtar
rfundimtare
rfundoi
rfundoj
rfundoje
rfundojne
rfundon
rfundonte
rfundua
rfunduan
rfunduar
rfunduara
rg
rgate
rgatit
rgatite
rgatitej
rgatiten
rgatitet
rgatiti
rgatitja
rgatitje
rgatitjen
rgatitjes
rgatitjet
rgatitore
rgatitur
rgatitura
rge
rgen
rgim
rgimi
rgimin
rgimit
rgimtare
rgja
rgjakshme
rgjakur
rgjani
rgjate
rgje
rgjegj
rgjegje
rgjegjen
rgjegjes
rgjegjja
rgjegjshe
rgjegjshme
rgjere
rgjigj
rgjigja
rgjigje
rgjigjej
rgjigjem
rgjigjen
rgjigjes
rgjigjet
rgjigjur
rgjithe
rgjithmone
rgjithshe
rgjithshme
rgjyshore
rgjysme
rgohen
rgohet
rgoi
rgoj
rgoje
rgojne
rgon
rgonin
rgonte
rgu
rgua
rguam
rguan
rguar
rguara
rguari
rguarin
rguarit
rguarve
rh
rhap
rhape
rhapen
rhapet
rhapi
rhapja
rhapje
rhapjen
rhapjes
rhapur
rhapura
rhead
rhein
rheinland
rheq
rheqe
rheqin
rheqja
rheqje
rheqjen
rheqjes
rhequr
rhere
rhershe
rhershme
rheumatoid
rhin
rhiqej
rhiqen
rhiqeshin
rhiqet
rhiqte
rho
rhode
rhoq
rhoqe
rhoqi
rhyn
rhyre
rhyri
rhyrja
rhyrje
rhyrjen
rhyrjes
rhyrjet
rhyrjeve
ri
ria
riad
ribari
ribe
ribera
ribotim
ribotuar
ric
rica
ricardo
rice
ricerche
rich
richard
richards
richardson
rick
rico
ride
ridge
ridrejtoje
rie
rieme
rifat
rifilloi
riga
right
rightarrow
rights
rigjalle
rij
rijeka
rika
rike
riki
rikthehej
rikthehet
rikthim
rikthimi
rikthimin
rikthimit
rikthye
rikthyen
rikthyer
rikuperuar
rilindas
rilindase
rilindasi
rilinde
rilindja
rilindje
rilindjen
rilindjes
rim
rima
rimarre
rime
rimet
rimeve
rimi
rimin
rimishe
rimit
rin
rina
rinde
rine
ring
ringen
ringjall
ringjallen
ringjallet
ringjallja
ringjallje
ringjalljen
ringjalljes
ringjallur
rings
rini
rinia
rinine
rinise
rinj
rinje
rinjsh
rinjte
rinjve
rinoceront
rinoceronte
rinoceronti
rinocerontit
rinor
rinore
rinovoi
rinovua
rinovuar
rio
riparimin
riparuar
ripe
riprodhim
riprodhimi
riprodhimin
riprodhimit
riprodhuar
riprodhues
riprodhuese
rire
riri
ris
rise
rish
rishe
rishikim
rishikimi
rishikuar
risht
rishtas
rishtazi
rishte
rishtes
rishtja
risi
rising
risite
risk
rit
rita
rite
riten
ritet
riteve
riti
ritin
ritit
ritja
ritje
ritjen
ritme
ritmi
ritmike
ritmin
ritshme
ritual
rituale
ritualet
rituali
ritur
ritura
riu
rival
rivale
rivali
rivalitet
rivaliteti
rive
rivendos
rivendosjen
rivendosur
river
rivera
rivie
rivlere
riza
rizgjodh
rizzoli
rja
rjashtim
rjashtime
rjashtimi
rjashtohet
rjashtua
rjashtuar
rje
rjen
rjes
rjestelma
rjete
rjetoi
rjetojne
rjeton
rjetshe
rjetshme
rjetuan
rjetuar
rk
rka
rkaq
rkasin
rkate
rke
rkeqe
rkesa
rkesat
rkesave
rkese
rket
rkim
rkime
rkimet
rkimeve
rkimi
rkimin
rkimit
rkimor
rkimore
rkisnin
rkiste
rkiye
rko
rkohe
rkohej
rkohen
rkohet
rkohshe
rkohshme
rkoi
rkoj
rkoje
rkojme
rkojne
rkombe
rkon
rkoni
rkonin
rkonte
rkosh
rkova
rkrah
rkrahe
rkrahin
rkrahje
rkrahjen
rkrahu
rkrahur
rkryer
rks
rkth
rkthehet
rktheu
rkthim
rkthime
rkthimet
rkthimeve
rkthimi
rkthimin
rkthimit
rkthye
rkthyer
rkthyera
rkthyes
rkthyese
rkthyesi
rkthyesit
rkua
rkuan
rkuar
rkuara
rkues
rkufizim
rkufizime
rkufizimet
rkufizimi
rkufizimin
rkufizohet
rkufizuar
rkujtim
rkujtimore
rkujto
rkujtohet
rkujton
rkujtuar
rkul
rkulur
rkunde
rkundrazi
rkundrejt
rkure
rkurrit
rkushtim
rkushtimi
rkushtimin
rkushtimit
rkushtua
rkushtuar
rle
rlepi
rleshje
rlidhe
rlidhje
rlidhur
rlidhura
rlikuar
rlikuara
rlla
rllogaritjeve
rluftuese
rm
rma
rmadha
rmadhat
rmadhe
rmarra
rmarre
rmarrja
rmarrje
rmarrjeje
rmarrjen
rmarrjes
rmarrjet
rmarrjeve
rmasa
rmasat
rmasave
rmase
rmb
rmbahen
rmbahet
rmbaje
rmbajne
rmbajtja
rmbajtje
rmbajtjen
rmbajtjes
rmbajtur
rmban
rmbanin
rmbante
rmbe
rmbi
rmbledh
rmbledhe
rmbledhja
rmbledhje
rmbledhjen
rmbledhjet
rmbledhur
rmbush
rmbushe
rmbushjen
rmbushur
rmbylle
rmbys
rmbysje
rmbysjen
rmbysur
rmbytje
rmbytjet
rmbytjeve
rme
rmen
rmend
rmende
rmenden
rmendet
rmendi
rmendim
rmendin
rmendja
rmendore
rmendur
rmendura
rmes
rmet
rmete
rmetet
rmeteve
rmeti
rmetit
rmi
rmica
rmilli
rmime
rmimet
rmimeve
rmire
rmit
rmjet
rmjete
rmjetme
rmore
rmori
rmuar
rmuese
rmve
rn
rnava
rnc
rnda
rndahen
rndahet
rndaj
rndan
rndane
rndara
rndare
rndarja
rndarje
rndarjen
rndarjes
rndau
rndjekur
rndryshe
rngul
rngule
rngulen
rngulet
rngulja
rnguljen
rnguljes
rngulur
rni
rnica
rnina
rnini
rnjaku
rnje
rnoci
rnokaj
rnova
ro
road
rob
robben
robe
robert
roberta
roberto
roberts
robertson
robi
robin
robinson
robot
robote
roche
rock
rocky
rod
rodgers
rodri
rodrigo
rodriguez
roger
rogers
rogova
rohej
rohem
rohen
roheshin
rohet
roi
roj
roja
rojas
roje
rojet
rojeve
rojme
rojn
rojne
rojtar
rok
rol
roland
role
rolet
roleve
roli
rolin
rolit
roll
rolling
rolls
rom
roma
romak
romake
roman
romana
romance
romane
romanet
romaneve
romani
romania
romanian
romanin
romanit
romanizuar
romano
romantik
romantike
rome
romelu
romeo
ron
ronald
ronaldinho
ronaldo
ronaldon
ronaldos
roni
ronin
ronnie
ronte
room
rooney
roosevelt
root
roots
ror
rore
roren
rores
rorit
rorja
rosa
rosario
rosberg
rose
rosen
rosh
roshi
ross
rossi
rosso
roterdam
roth
rotorit
rotten
rotterdam
round
rousseau
roussillon
route
routledge
rova
row
rowling
rowman
roy
royal
royale
royce
roza
rozafa
roze
rozhaja
rozhaje
rp
rpara
rpare
rparim
rparime
rparimet
rparimi
rparimin
rparimit
rparimtare
rparme
rparoi
rparuar
rparuara
rpca
rpce
rpe
rpeza
rpike
rpikte
rpiluar
rpiqej
rpiqem
rpiqen
rpiqeshin
rpiqet
rpjekja
rpjekje
rpjekjen
rpjekjes
rpjekjet
rpjekjeve
rpjekur
rpjese
rpjete
rplas
rplaset
rplasja
rplasje
rplot
rpoq
rpoqe
rpos
rpre
rprene
rprera
rprere
rprerje
rprerjen
rprerjes
rpret
rpreu
rpritet
rps
rpska
rpudhat
rpudhe
rpunim
rpunimi
rpunimin
rpunimit
rpunon
rpunuar
rpunuara
rputhen
rputhet
rputhje
rputhshme
rqafoi
rqafuar
rqark
rqe
rqendrim
rqendrimi
rqendrimit
rqendrohen
rqendrohet
rqendrua
rqendruar
rqendruara
rqi
rqind
rqindja
rqindje
rqindjen
rr
rra
rradhazi
rradhe
rrafsh
rrafshe
rrafshi
rrafshin
rrafshit
rrafshnalta
rrafshnalte
rrah
rrahe
rrahje
rrahman
rrahmani
rrahu
rrahur
rralla
rrallat
rrallave
rralle
rrap
rrapaj
rrapi
rras
rrasa
rrasat
rrase
rrasin
rrathe
rrbardhit
rre
rregull
rregulla
rregullat
rregullave
rregulli
rregullim
rregullime
rregullimet
rregullimeve
rregullimi
rregullimin
rregullimit
rregullin
rregullisht
rregullit
rregullohen
rregullohet
rregulloi
rregulloj
rregullojne
rregullon
rregullore
rregulloren
rregullores
rregulloret
rregulloreve
rregullorja
rregullt
rregullta
rregulluar
rreh
rrejshe
rreme
rremte
rrepta
rrepte
rresht
rreshta
rreshtat
rreshtave
rreshti
rreshtin
rreshtuan
rreshtuar
rret
rreth
rrethana
rrethanat
rrethanave
rrethane
rrethe
rrethet
rretheve
rrethi
rrethim
rrethimi
rrethimin
rrethimit
rrethin
rrethina
rrethinat
rrethine
rrethit
rrethohet
rrethoi
rrethojne
rrethon
rrethonin
rrethor
rrethore
rrethuan
rrethuar
rrethuara
rrethues
rrethuese
rrezatim
rrezatimi
rrezatimin
rrezatimit
rreze
rrezes
rrezet
rrezeve
rrezik
rrezikon
rrezikshe
rrezikshme
rreziku
rrezikuar
rrezikuara
rrezikun
rrezikut
rreziqe
rreziqet
rreziqeve
rrezja
rri
rridhte
rrihet
rrije
rrijne
rrim
rrime
rrimet
rrimi
rrimin
rrimit
rrimtare
rrin
rrine
rrini
rrinin
rrinte
rrip
rripa
rripat
rripi
rripin
rrise
rrisin
rrisnin
rriste
rrit
rrite
rritej
rriten
rritet
rriti
rritja
rritje
rritjen
rritjes
rritur
rritura
rriturit
rriturve
rriyet
rrjedh
rrjedha
rrjedhat
rrjedhe
rrjedhim
rrjedhimisht
rrjedhin
rrjedhja
rrjedhje
rrjedhjen
rrjedhjes
rrjedhoje
rrjedhore
rrjedhshe
rrjedhshme
rrjedhur
rrjet
rrjeta
rrjetat
rrjetave
rrjete
rrjetet
rrjeteve
rrjeti
rrjetin
rrjetit
rrmije
rrmuar
rrmuese
rroba
rrobaqepe
rrobat
rrobave
rrobe
rrofte
rroge
rrohej
rrohen
rrohet
rroi
rroit
rroj
rroje
rrojne
rrok
rroke
rrokje
rron
rronin
rronte
rrota
rrote
rrotull
rrotullim
rrotullimi
rrotullimit
rrotullohen
rrotullohet
rrotullues
rrotulluese
rrua
rruan
rruar
rruara
rruaza
rrues
rruese
rrufe
rrufeja
rruga
rruge
rrugen
rruges
rrugice
rrugor
rrugore
rrumbullake
rrush
rrushi
rrushit
rrustem
rryer
rryma
rrymat
rrymave
rryme
rs
rsa
rse
rsfj
rsh
rshani
rshe
rsheci
rshembull
rshkak
rshkalle
rshkohet
rshkon
rshkrim
rshkrime
rshkrimet
rshkrimi
rshkrimin
rshkrimit
rshkroi
rshkrua
rshkruajne
rshkruan
rshkruante
rshkruar
rshkruara
rshkruhen
rshkruhet
rshkuar
rshpejtuar
rshtar
rshtare
rshtari
rshtarin
rshtarit
rshtat
rshtate
rshtaten
rshtatet
rshtatja
rshtatje
rshtatjen
rshtatshe
rshtatshme
rshtatur
rshtim
rshtime
rshtimi
rshtimin
rshtoi
rshtojne
rshton
rshtonin
rshtonte
rshtuan
rshtuar
rshtypje
rshtypjen
rsi
rsia
rsie
rsine
rsipe
rsise
rsisht
rsjelle
rska
rsosme
rsosur
rss
rsssf
rstena
rstenberg
rsteniku
rsti
rsuar
rt
rta
rtas
rtase
rte
rtej
rtejme
rtesa
rtesash
rtesat
rtesave
rtese
rtet
rteta
rtetat
rtete
rtetim
rtetohet
rtetoi
rtetojne
rteton
rtetuar
rthama
rthamat
rthame
rthamor
rthamore
rthe
rthehet
rthej
rtheje
rthejne
rthen
rtheu
rthim
rthime
rthimet
rthimi
rthimin
rthimit
rthorazi
rthore
rthorte
rthurur
rthyen
rthyer
rthyese
rti
rtia
rtim
rtime
rtimet
rtimeve
rtimi
rtimin
rtimit
rtimore
rtine
rtise
rtiti
rtitur
rtk
rtl
rtohej
rtohen
rtoheshin
rtohet
rtoi
rtoj
rtoje
rtojne
rtoke
rton
rtonin
rtonte
rtp
rtsh
rttemberg
rtua
rtuan
rtuar
rtuara
rtues
rtuese
rtuesit
rtv
rtype
ru
rua
ruaj
ruaje
ruajne
ruajt
ruajte
ruajti
ruajtja
ruajtje
ruajtjen
ruajtjes
ruajtur
ruajtura
ruan
ruanda
ruande
ruanin
ruante
ruar
ruara
ruarve
rubens
rubin
rubla
rubrike
ruby
rudari
rudess
rudi
rudina
rudolf
rues
ruese
rueshe
rueshme
ruesi
ruesit
rufca
rugova
rugove
ruhen
ruhet
ruiz
ruku
rul
rule
rulers
rules
rulur
rum
rumani
rumania
rumanine
rumanise
rumanisht
rumelise
rumi
rumun
rumune
run
runner
running
rural
rurale
rurua
rus
ruse
rush
rushiti
rusi
rusia
rusine
rusise
rusisht
ruso
russell
russia
russian
rustemi
ruth
rutine
ruzhdi
rvajtje
rvalla
rve
rvec
rveni
rveniku
rveprimet
rveprimi
rveprimit
rveq
rvete
rvi
rvihet
rvitje
rvitjen
rvitjes
rvitore
rvitshe
rvitur
rvjec
rvjetorin
rvoja
rvojat
rvojave
rvoje
ry
ryan
ryu
rz
rza
rze
rzeme
rzgjedhja
rzgjedhje
rzgjedhjen
rzgjedhjes
rzgjedhur
rzier
rziera
rzierja
rzierje
rzierjen
rzihen
rzihet
rzit
rzitur
s
sa
saad
sabah
sabahut
sabine
sabit
sabo
sabri
sabrina
sac
sachsen
sacred
sad
sadakas
sadik
sadiku
sado
sadri
safe
safet
safety
saga
sage
sahabe
sahara
sahat
sahatit
sahibi
sahih
sahit
sai
said
saimir
saint
sainte
saints
saj
saja
saje
sajuar
sake
sakrifica
sakrifice
saksone
saksonia
saksonise
sakta
sakte
sakura
sala
salah
salall
salam
salazar
salce
sale
salem
sales
sali
salih
salihu
salim
saliu
salla
sallat
sallate
salle
sallon
sally
salm
salman
salomon
salomoni
salon
salt
salvador
salvatore
salzburg
sam
samaan
samadrexha
saman
samantha
samari
same
sami
samishte
samiu
samoa
sampdoria
samsung
samuel
samueli
samuelit
samurai
san
sanchez
sand
sandra
sandro
sanji
sanskrit
sanskrite
sanskritisht
sant
santa
santander
santiago
santo
santos
sanxhak
sanxhaku
sanxhakun
sanxhakut
sao
sapo
sapun
saqe
sar
sara
sarac
sarah
sarajeve
sarajevo
saranda
sarande
sardenja
sardenjas
sardenje
sars
sarthe
sasarit
sasi
sasia
sasine
sasiore
sasise
sasuke
sat
sate
satelit
satelite
sateliti
satelitore
satellite
satire
satirik
satirike
saturday
saturn
saturnit
saud
saudi
saudit
saudite
saul
sauli
saulit
sava
save
savoie
saw
saxe
saxony
say
says
sayyid
sb
sbashk
sc
scala
scale
scanderbeg
scar
scarecrow
scene
scenes
schalke
schleswig
schmidt
schmitt
schneider
scho
scholar
scholars
school
schools
schu
schumacher
schumann
schuster
schwartz
schwarzburg
sci
science
sciences
scientific
scientist
scientists
scooby
score
scores
scotland
scott
scottish
screen
scribd
script
scriptstyle
sd
se
sea
sean
seanca
seancat
seance
search
season
seattle
sebastia
sebastian
sec
secila
secile
secili
secilin
secilit
second
secret
secretary
secrets
section
sector
secure
security
see
seedorf
seen
sefer
seferi
segment
segmente
segunda
sei
sein
seine
seit
sej
sejdiu
sejko
sek
sekonda
sekondar
sekondare
sekonde
sekret
sekretar
sekretare
sekretari
sekretariatit
sekretarin
sekretarit
sekrete
sekretet
sekreti
seks
seksi
seksion
seksione
seksionet
seksioni
seksionin
seksionit
seksit
seksual
seksuale
seksualisht
sektit
sektor
sektore
sektori
sektorin
sektorit
sekuenca
sekuence
sela
selam
selami
selanik
selanikut
selassie
selca
selected
selection
selektiv
selem
seleme
selenice
self
seli
selia
selim
selimi
selimit
seline
selise
selishti
selite
sella
sellca
selman
selmani
selo
selxhuke
semantike
semi
seminar
seminare
seminari
seminarin
semite
sen
sena
senat
senati
senatin
senatit
senator
senatore
send
sende
sendesh
sendet
sendeve
sendi
senegali
sengoku
senior
sens
sense
sensi
sensore
sent
sepse
september
ser
sera
serb
serbe
serbi
serbia
serbian
serbine
serbise
serbisht
serbo
serbokroatisht
serbs
sere
serge
sergei
sergio
seri
seria
serial
seriale
seriali
serialin
serialit
serie
series
serik
serine
serioz
serioze
seriozisht
serise
serish
serite
serive
serre
server
serveri
serverit
service
services
ses
sesa
sesi
sesion
sesioni
session
set
seth
sets
seve
seven
seventh
several
severus
seviljes
sevilla
seward
sex
sexhde
sexual
seymour
sezon
sezonal
sezonale
sezone
sezonet
sezoneve
sezoni
sezonin
sezonit
sfarac
sfec
sfera
sferat
sfere
sferike
sfida
sfidat
sfide
sfiduar
sfn
sfond
sg
sh
sha
shaban
shabani
shadow
shafi
shah
shahin
shahini
shahiqi
shahu
shahut
shaka
shakespeare
shakhtar
shakti
shala
shale
shall
shami
shan
shanghai
shanks
shans
shansi
shaqir
shaqiri
shar
share
sharif
sharma
sharon
sharr
sharre
sharri
sharrit
shat
shate
shaw
shb
shba
she
sheet
shef
shefi
shefik
shefin
shefit
shefki
shefqet
shege
sheh
shehu
shehut
sheikh
sheiku
shejh
shejtani
shek
shekspirit
shekuj
shekujsh
shekujt
shekujve
shekull
shekulli
shekullin
shekullit
shekullor
shekullore
shell
shem
shemb
shembe
shembuj
shembujt
shembull
shembulli
shembullin
shembur
shen
shenja
shenjat
shenjave
shenje
shenjt
shenjta
shenjte
shenjti
shenjtit
shenjtor
shenjtore
shenoi
sheqer
sheqeri
sheqerin
sheqerit
sheremeti
sheriatit
sherif
sherifi
sherr
sherri
shes
shese
shesh
sheshe
sheshet
sheshi
sheshin
sheshit
sheshta
sheshte
shesin
shet
shfaje
shfaq
shfaqe
shfaqej
shfaqen
shfaqeshin
shfaqet
shfaqi
shfaqin
shfaqja
shfaqje
shfaqjeje
shfaqjen
shfaqjes
shfaqjet
shfaqjeve
shfaqte
shfaqur
shfaqura
shfletoni
shfletuesit
shfrenuar
shfryte
shfuqizimin
shfuqizoje
shfuqizua
shi
shichibukai
shield
shife
shifra
shifrat
shifrave
shifre
shigjeta
shigjetat
shigjete
shih
shihej
shihen
shiheshin
shihet
shihni
shihnin
shihte
shiite
shija
shijak
shije
shijen
shijes
shijshme
shijuar
shikhara
shikim
shikime
shikimi
shikimin
shikimit
shiko
shikohet
shikoi
shikoj
shikoje
shikojme
shikojne
shikon
shikoni
shikonin
shikonte
shikosh
shikuar
shikues
shikueshme
shikuesit
shill
shilla
shillat
shillave
shille
shilli
shillin
shillit
shilloi
shillon
shillova
shilltar
shilltare
shilltari
shilluar
shillues
shim
shime
shimi
shimin
shimit
shin
shine
shinigami
shinobi
shinto
shipashnica
shira
shirat
shirave
shire
shirit
shirita
shiritin
shirley
shiroj
shirojme
shirojne
shiroka
shiron
shironi
shironin
shironte
shirshe
shirshme
shiruar
shiruara
shirues
shirueshme
shiruesit
shishe
shiste
shit
shite
shiten
shitet
shiti
shitja
shitje
shitjen
shitjes
shitjet
shitjeve
shitur
shitura
shiu
shiun
shiut
shiva
shive
shk
shka
shkak
shkake
shkaktar
shkaktare
shkaktohen
shkaktohet
shkaktoi
shkaktoj
shkaktoje
shkaktojne
shkakton
shkaktonte
shkaktuan
shkaktuar
shkaktuara
shkaku
shkakun
shkall
shkalla
shkalle
shkape
shkaqe
shkaqet
shkaqeve
shkarkim
shkarkimi
shkarkimin
shkarkimit
shkarkohet
shkarkua
shkarkuar
shkas
shkate
shkathe
shkathte
shke
shkel
shkele
shkeli
shkelin
shkelja
shkelje
shkeljen
shkeljet
shkelur
shkenca
shkencat
shkencave
shkence
shkencor
shkencore
shkim
shkimi
shkimin
shko
shkode
shkoder
shkodra
shkodran
shkodrane
shkodre
shkodres
shkohet
shkoi
shkoj
shkoje
shkojme
shkojne
shkolla
shkollat
shkollave
shkolle
shkollen
shkolles
shkollim
shkollimi
shkollimin
shkollimit
shkollor
shkollore
shkollua
shkolluar
shkon
shkoni
shkonin
shkonte
shkop
shkopi
shkopin
shkopinj
shkosh
shkova
shkoza
shkoze
shkreli
shkrelit
shkrepe
shkrese
shkrete
shkreti
shkrife
shkrihet
shkrim
shkrime
shkrimesh
shkrimet
shkrimeve
shkrimi
shkrimin
shkrimit
shkrimtar
shkrimtare
shkrimtareve
shkrimtari
shkrimtarin
shkrimtarit
shkrire
shkrirja
shkrirjen
shkrirjes
shkroi
shkronja
shkronjat
shkronjave
shkronje
shkrua
shkruaj
shkruaje
shkruajme
shkruajne
shkruajti
shkruajtur
shkruan
shkruanin
shkruante
shkruar
shkruara
shkruarit
shkrues
shkruhej
shkruhen
shkruhet
shkuan
shkuar
shkuara
shkuare
shkul
shkumbin
shkumbinit
shkume
shkup
shkupi
shkupin
shkupit
shkurre
shkurreve
shkurt
shkurta
shkurtaj
shkurte
shkurter
shkurtesa
shkurtese
shkurti
shkurtimisht
shkurtit
shkurtra
shkurtuar
shllaku
shlyerjen
shm
shmang
shmange
shmangen
shmanget
shmangin
shmangur
shme
shmi
shmia
shmine
shmise
shmitar
shmitare
shmitari
shmite
shmive
shmohet
shmoi
shmojne
shmon
shmor
shmore
shmori
shmorit
shmuar
shnde
sho
shofer
shoferi
shogun
shoguni
shoh
shohe
shohen
shohet
shohim
shohin
shoi
shoj
shoje
shojne
shok
shoke
shoket
shoku
shokun
shokut
shon
shonte
shoqata
shoqatat
shoqatave
shoqate
shoqe
shoqen
shoqerise
shoqet
shoqja
short
shorte
shorten
shortes
shorti
shortin
shortit
shortja
shortore
shoshe
shot
should
shoviniste
show
shows
shpall
shpalle
shpallej
shpallet
shpalli
shpallin
shpallja
shpallje
shpalljen
shpalljes
shpalljet
shpallte
shpallur
shpat
shpata
shpatat
shpate
shpatet
shpati
shpatin
shpatit
shpatull
shpatullat
shpe
shpejt
shpejta
shpejte
shpejti
shpella
shpellat
shpellave
shpelle
shpellor
shpellore
shpend
shpende
shpendi
shpenzime
shpenzimet
shpenzimeve
shpenzoi
shpenzuar
shpesh
shpeshhere
shpeshta
shpeshte
shpeshti
shpeze
shpie
shpifje
shpik
shpike
shpikja
shpikje
shpikjen
shpikjet
shpiku
shpikur
shpine
shpirt
shpirte
shpirti
shpirtin
shpirtit
shpirtrat
shpirtrave
shpjegim
shpjegime
shpjegimet
shpjegimi
shpjegimin
shpjegohen
shpjegohet
shpjegoi
shpjegoje
shpjegojne
shpjegon
shpjegonte
shpjeguar
shpjegues
shporte
shpreh
shprehe
shprehej
shprehen
shprehet
shprehi
shprehim
shprehimisht
shprehin
shprehja
shprehje
shprehjen
shprehjes
shprehjet
shprehjeve
shprehte
shprehu
shprehur
shprehura
shpresa
shpresat
shprese
shpresoj
shpreson
shpresonte
shpresuar
shprone
shpuar
shpylle
shq
shqet
shqete
shqip
shqipe
shqipen
shqiperi
shqiperia
shqiperine
shqiperise
shqipes
shqipfole
shqipja
shqipni
shqipnise
shqiponja
shqiponjat
shqiponje
shqiptar
shqiptare
shqiptaret
shqiptareve
shqiptari
shqiptarit
shqiptarja
shqiptaro
shqiptim
shqiptimi
shqiptimin
shqiptohet
shqiptuar
shqisa
shqisat
shqisave
shqisore
shqite
shqitje
shqitjet
shqua
shquan
shquar
shquara
shquhej
shquhen
shquhet
shqyer
shqyrtim
shqyrtimi
shqyrtimin
shqyrtimit
shqyrton
shqyrtuar
shrek
shri
shrines
shronje
sht
shta
shtabi
shtabin
shtabit
shtat
shtate
shtati
shtator
shtatore
shtatori
shtatorit
shtatze
shtaza
shtaze
shtazore
shte
shteg
shtegu
shtegun
shtenja
shtenje
shtepi
shtepia
shtepine
shtepise
shterpe
shtesa
shtese
shtesin
shteste
shtet
shtetas
shtetasit
shtetasve
shtete
shtetej
shteten
shtetet
shteteve
shteti
shtetin
shtetit
shtetja
shtetje
shtetjen
shtetjes
shtetrore
shtetur
shtetura
shthurur
shti
shtia
shtie
shtigje
shtigjet
shtigjeve
shtim
shtime
shtimes
shtimi
shtimin
shtimit
shtin
shtine
shtira
shtire
shtise
shtit
shtiu
shtiza
shtize
shtja
shtje
shtjefe
shtjeje
shtjell
shtjella
shtjellat
shtjellave
shtjelle
shtjen
shtjes
shtjet
shtjeve
shtohej
shtohen
shtohet
shtoi
shtoj
shtojca
shtojce
shtoje
shtojme
shtojne
shton
shtoni
shtonte
shtor
shtore
shtrat
shtrati
shtratin
shtratit
shtre
shtrembe
shtrenjta
shtrenjte
shtresa
shtresat
shtresave
shtrese
shtrete
shtri
shtrige
shtrihej
shtrihen
shtriheshin
shtrihet
shtrim
shtrime
shtrimi
shtrimin
shtrin
shtrine
shtrira
shtrire
shtrirja
shtrirje
shtrirjen
shtrirjes
shtriu
shtrohet
shtroi
shtroj
shtroje
shtron
shtrua
shtruan
shtruar
shtruara
shtrung
shtrunge
shtu
shtua
shtuan
shtuar
shtuara
shtune
shtupeqi
shtuqe
shty
shtyj
shtyjne
shtylla
shtyllat
shtyllave
shtylle
shtyme
shtyn
shtyne
shtyp
shtype
shtypet
shtypi
shtypin
shtypit
shtypja
shtypje
shtypjen
shtypjes
shtypshkronja
shtypshkronje
shtypur
shtypura
shtyre
shtyse
shtyte
shtytje
shtyu
shu
shua
shuaj
shuan
shuar
shuara
shufe
shufra
shuhet
shukri
shul
shum
shuma
shume
shumica
shumice
shumta
shumte
shumti
shuplake
shurdhe
shushica
shushice
shuteriqi
shyhrete
shyqyri
shyti
si
sia
siam
siamit
siberi
siberian
siboci
sic
sica
sich
sicili
sicilise
sid
side
sidney
sido
sidomos
sidoqofte
sie
siena
siene
siera
sierra
sigma
sign
signs
siguri
siguria
sigurie
sigurimeve
sigurimi
sigurimin
sigurimit
sigurine
sigurise
sigurisht
sigurohet
siguroi
siguroj
siguroje
sigurojne
siguron
siguronin
siguronte
sigurt
sigurta
sigurte
siguruan
siguruar
sikh
sikunde
sikur
sikurse
sil
sillej
sillem
sillen
sillet
sillnin
sillte
silva
silver
silvia
silvio
sim
sima
simbas
simbol
simbole
simbolet
simboleve
simboli
simbolik
simbolike
simbolin
simbolit
simbolizojne
simbolizon
simdhe
sime
simet
simetrik
simetrike
simeve
simfonike
simi
simin
simit
simo
simon
simone
simoni
simor
simore
simpati
simple
simpson
simpsons
simptoma
simptomat
simptomave
sin
sina
sinagoge
sinai
sinan
sinani
since
sind
sindikale
sindikatat
sindikatave
sindikate
sindiku
sindroma
sindrome
sine
sing
singapor
singapore
singapori
singer
singh
single
singles
sinh
sinjal
sinjale
sinjalet
sinjaleve
sinjali
sinjalin
sinjalit
sinonim
sinonime
sinor
sinore
sinqerisht
sinqerte
sintakse
sintaksore
sintetike
sinteza
sinteze
sion
sionit
sipas
sipe
siperfaqe
siq
siqeva
sir
sira
sirat
sirave
sire
siri
siria
sirian
siriane
sirine
sirise
sirius
siriusi
siro
sis
sise
sish
sishe
sishme
sishmet
sishmja
sisht
sishte
sisoj
sistem
sistematik
sistematike
sisteme
sistemet
sistemeve
sistemi
sistemin
sistemit
sister
sit
site
sites
sitet
siteve
siti
sitin
sitit
situata
situatat
situatave
situate
situation
sive
six
sixth
size
sja
sjell
sjelle
sjellim
sjellin
sjellja
sjellje
sjelljen
sjelljes
sjelljet
sjelljeve
sjellur
sk
ska
skaj
skajet
skaji
skajin
skajshme
skalitje
skalitur
skalitura
skandal
skanderbeg
skandinave
ske
skeda
skedare
skele
skelet
skeleti
skema
skemat
skeme
skena
skenar
skenare
skenari
skenarin
skenarist
skenariste
skenat
skenave
skender
skenderaj
skenderbeu
skenderbeut
skendi
skene
skenik
skenike
skenografia
ski
skica
skice
skive
skllav
skllave
skllavopronare
sklleve
skoc
skocez
skoceze
skoci
skocia
skocise
skopje
skrapar
skraparit
skuade
skuadra
skuadrat
skuadrave
skuadre
skulptor
skulptore
skulptori
skulptura
skulpturat
skulpturave
skulpture
skulpturore
skuqet
skuqur
skuqura
sky
skype
sl
slatina
slave
slavic
sleep
slivova
sllakoci
sllatina
sllatine
sllav
sllave
sllavo
sllobodan
sllovake
sllovaki
sllovakia
sllovakise
slloven
sllovene
slloveni
sllovenia
sllovenise
sllovenisht
sllupc
slobodan
slovenia
sm
small
smaqi
smart
sme
smire
smirnova
smith
smithsonian
sn
sneijder
snooker
snow
so
sobe
sobranie
soc
soccer
soccerbase
soccernet
soccerway
social
socialdemokrate
sociale
socialist
socialiste
socializmi
socializmin
socializmit
sociedad
societies
society
socio
sociologji
sociologjike
sociologjise
sociology
sod
sofia
sofistikuar
sofje
sofjes
softuer
softuere
softuerike
softuerit
software
sohej
sohem
sohen
soheshin
sohet
soi
soj
soje
sojme
sojne
sokol
sokoli
sokoto
sokrati
sokratit
sol
solar
soldier
solemne
solid
solidaritetit
solide
solist
soliste
soll
solle
solli
solo
solomon
solothurn
somalia
some
something
somme
son
sonata
sondazh
sone
song
songs
soni
sonin
sonje
sons
sonte
sony
sophia
sophie
sopi
sopoti
soprano
sor
sore
soren
sori
soria
sorin
sorise
sorit
soros
sos
sosh
sot
sote
sotir
sotiri
sotme
sotshme
soul
sound
soundtrack
source
sources
sous
south
southampton
southeast
southern
sova
soviet
sovjetik
sovjetike
sovran
sovrane
sovranitetin
sovranitetit
sp
spa
space
spaced
spagnola
spahiu
spain
span
spanish
spanja
spanje
spanjisht
spanjoll
spanjolle
sparta
spartak
spartane
sparte
spd
spe
speaking
spec
speca
specia
special
speciale
specialist
specialiste
specializim
specializuar
specializuara
specie
species
speciet
specieve
specific
specifik
specifike
specifikuar
speech
speed
spektake
spektakolare
spektatore
spekte
spektri
spektrin
spektrit
spencer
spider
spiegel
spikat
spikatur
spikatura
spike
spin
spirale
spirit
spiritual
spiro
spital
spitale
spitalet
spitali
spitalin
spitalit
spiun
spiune
split
sponsorizuar
spontane
sport
sporte
sportet
sporteve
sporti
sportin
sporting
sportist
sportiste
sportit
sportiv
sportive
sports
spot
sprache
spring
springer
springfield
springs
sprova
sprovat
sprove
spy
sq
sqaron
sqaruar
sqep
sqrt
sqt
squad
square
sr
srbija
srbije
sri
srpska
ss
sseldorf
ssl
st
sta
stabilitet
stabiliteti
stabilitetin
stabilitetit
stacion
stacione
stacionet
stacioneve
stacioni
stacionin
stacionit
stacionuar
stad
stade
stadio
stadion
stadium
stadiumi
stadiumin
stadiumit
stadt
staf
stafa
staff
stafi
stafin
stafit
stage
stalin
stalini
stalinit
stamboll
stambolli
stambollit
stamford
stampa
stan
stanbul
stand
standard
standarde
standardet
standardeve
standardi
standardin
standardit
standardizuar
standards
standarte
staneci
stanford
stanley
stanovnis
star
stara
starasella
stari
stars
start
stat
state
statement
states
statike
station
statistica
statistical
statistics
statistiek
statistika
statistikat
statistikave
statistike
statistikor
statistikore
statoci
stats
statuja
statujat
statuje
status
statusi
statusin
statusit
statut
statutet
statuti
statutin
statutit
stavri
stavro
stay
ste
steel
stefan
stefanaq
stefani
stefanit
stefano
stein
steiner
stella
stem
stema
steme
step
stepanca
stepe
stephanie
stephen
sterling
stern
sterre
steve
steven
stevens
stevenson
stewart
stica
stil
stile
stilet
stileve
stili
stilin
stilistike
stilit
stilizuar
still
stimuluar
stina
stine
stipc
sto
stock
stockholm
stoke
stokholm
stokholmit
stol
stoli
stolisur
stomak
stomakut
stone
stop
store
storia
stories
storm
story
str
straboni
strange
stranger
strasbourg
strateg
strategies
strategji
strategjia
strategjik
strategjike
strategjine
strategjise
strategjite
strategy
strauss
strazhova
stream
street
streha
strehe
strehim
strehimi
strehimit
strehon
strehuar
strellca
stres
stresi
stresit
strezoci
strike
striker
strikte
string
strip
strong
structure
struga
struge
struggle
struktura
strukturat
strukturave
strukture
strukturor
strukturore
strukturuar
stu
stuart
stublla
studena
student
studente
studentet
studenti
studentit
studentore
students
studi
studia
studien
studies
studim
studime
studimesh
studimet
studimeve
studimi
studimin
studimit
studimja
studimor
studimore
studio
studiohet
studioi
studioj
studioje
studiojne
studion
studionte
studios
studiot
studiuar
studiues
studiuese
studiuesi
studiuesit
studiuesve
studjoi
studjues
study
stuhi
stuhite
stupa
stuttgart
style
su
sua
suaj
suam
suan
suar
suara
suarit
sub
subdivisions
subject
subjekt
subjekte
subjektet
subjekteve
subjekti
subjektin
subjektit
subjektive
substanca
substancat
substancave
substance
subtropikale
success
such
sud
sudan
sudani
sudanit
sue
suedez
suedeze
suedi
suedia
suedine
suedise
suedisht
sues
suese
sueses
sueshme
suesi
suesin
suesit
suesja
suesve
suetonius
sufi
sufjani
sufjanit
sugjeroi
sugjerojne
sugjeron
sugjeruar
suhareke
suhodolli
sui
suicide
suite
suke
sukses
suksese
sukseset
sukseseve
sukseshme
suksesi
suksesin
suksesit
suksesshe
suksesshme
sul
sula
sulaiman
sule
sulejman
sulejmani
sulejmanit
suli
suliote
sulit
sulla
sullivan
sulltan
sulltanati
sulltane
sulltani
sulltanin
sulltanit
sulm
sulme
sulmet
sulmeve
sulmi
sulmin
sulmit
sulmohet
sulmoi
sulmoje
sulmojne
sulmon
sulmonin
sulmonte
sulmua
sulmuan
sulmuar
sulmues
sulmuese
sulmuesi
sulmuesin
sulmuesit
sulo
sultan
sum
sumatra
sumatran
summary
summer
sun
sunan
sunday
sunderland
sundim
sundimi
sundimin
sundimit
sundimtar
sundimtare
sundimtari
sundimtarit
sundoi
sundon
sundonte
sunduan
sunduar
sundues
sunduese
sunduesi
sunduesit
suneti
sunetit
sung
sunite
sunnet
sunnetit
suny
sup
supe
super
supercopa
supercoppa
superficie
superior
superiore
superkupa
superkupe
superliga
superlige
supersport
supet
supozohet
supozojme
supozuar
support
suprem
supreme
sur
sure
suren
sures
suretu
surja
surname
surprize
survey
survival
sus
susan
susheva
sushica
sustainable
suzuki
sv
sve
sveti
svinishti
svirca
swami
swamy
swan
sweden
swedish
sweet
swift
swiss
switch
switzerland
sword
sy
sydney
syla
syle
sylejman
sylejmani
sylvia
symbols
symphony
symposium
syndrome
synim
synime
synimet
synimeve
synimi
synimin
synojne
synon
synonin
synonte
synuar
syri
syria
syrin
syrit
syrja
system
systematic
systems
syte
syve
syze
t
ta
tabari
tabela
tabelat
tabele
table
tablesl
tablo
tabrani
tabu
tac
taekwondo
tafseer
tag
tahir
tahiri
tai
tail
tailanda
tailande
taiwan
taj
tajlande
tajvan
taka
take
taken
takes
takim
takime
takimet
takimeve
takimi
takimin
takimit
taking
takohen
takohet
takoi
takoje
takojne
takon
takonin
takonte
taksa
taksat
taksave
takse
taktika
taktike
takua
takuan
takuar
tale
talent
talente
talenteve
talenti
talentin
talentit
talentuar
tales
talk
talks
tall
talle
tallje
tamam
tamara
tamil
tamile
tamim
tan
tana
tane
tang
tango
tani
tanime
tanishe
tanishme
tank
tanke
tanush
tanzania
tanzimatit
tape
tar
tara
tare
taren
tares
taret
tareve
target
tari
tarifa
tarifat
tarifave
tarife
tarikatit
tarikh
tarin
tarisht
tarit
tarja
tarn
tarrace
tarragona
tartu
tas
tash
tashko
tashme
tashmen
tashti
task
tastiere
tat
tatare
tate
tateshi
tatimeve
tatimit
tatimore
taulante
tauris
tavan
tavani
tave
tavolara
tavoline
taxh
taxonomic
taxonomy
taylor
tb
tbilisi
tbol
tc
tcp
te
tea
teach
teacher
teachers
teaching
team
teams
teate
teatrale
teatri
teatrin
teatrit
teatro
teatrore
teatrot
teatrove
teau
tebe
teborg
tech
technical
technology
ted
teen
tefik
tefta
teh
tej
tejdukshme
teje
tejet
tejkalojne
tejkalon
tejkaluar
tejme
tejshe
tejshme
tek
teke
teki
teknik
teknika
teknikat
teknikave
teknike
teknikisht
tekniko
teknologji
teknologjia
teknologjik
teknologjike
teknologjine
teknologjise
teknologjite
teknologjive
teksa
teksas
teksasit
tekst
tekste
tekstesh
teksteshqip
tekstet
teksteve
teksti
tekstile
tekstilit
tekstin
tekstit
tektonike
tel
tela
telashe
telat
tele
telefon
telefonat
telefoni
telefonik
telefonike
telefonin
telefonise
telefonit
telegraf
telegrafi
telegrafike
telegram
telegraph
telekomunikacioni
telekomunikacionit
telenovela
telenovele
telesport
television
televizion
televizioni
televizionin
televizionit
televiziv
televizive
teli
tell
tem
tema
temat
tematika
tematike
temave
teme
temjan
temper
temperatura
temperaturat
temperaturave
temperature
temple
temples
tempo
tempuj
tempujsh
tempujt
tempujve
tempull
tempulli
tempullin
tempullit
tempullor
tempullore
ten
tende
tendenca
tendencat
tendence
tenerife
tenisit
tennessee
tension
tensionet
tensioni
tensionin
tensionit
tentative
tentoi
tentojne
tenton
tentori
tentuar
tenxhere
teodor
teolog
teologe
teologji
teologjia
teologjik
teologjike
teologjine
teologjise
teorema
teoreme
teori
teoria
teorie
teorik
teorike
teorikisht
teorine
teorise
teorite
teorive
tepe
tepelena
tepelene
teper
teprice
tepruar
tepsi
teqe
teqeja
teqja
ter
tera
terapi
terapia
terciar
tere
teren
teresa
tereza
tereze
teritorin
term
terma
termale
termat
termave
terme
termi
termik
termike
termin
terminal
terminali
terminator
termit
termodinamike
terms
terra
terrakote
terre
terren
terreni
terrenin
terrenit
territor
territore
territoret
territoreve
territori
territorial
territoriale
territories
territorin
territorit
territory
terror
terrori
terrorist
terroriste
terrorit
terrorizmit
terry
tes
teshe
tesla
test
testament
testamenti
teste
testet
testi
testimi
testimin
testimit
testuar
tet
tete
teti
tetor
tetori
tetorit
tetova
tetove
teuta
teute
texas
text
texts
teza
teze
th
tha
thac
thahet
thai
thame
thames
than
thana
thanas
thane
thani
thara
thare
tharte
thase
thashe
thashetheme
thashethemet
that
thata
thate
the
theater
theatre
their
theke
theks
theksi
theksin
theksohet
theksoi
theksojne
thekson
theksonte
theksuar
theksuara
thelb
thelbe
thelbi
thelbin
thella
thelle
thelluar
them
theme
themel
themele
themelet
themeleve
themeli
themelimi
themelimin
themelimit
themelohet
themeloi
themelon
themelor
themelore
themelua
themeluan
themeluar
themelues
themeluese
themeluesi
themeluesit
themi
themselves
themudit
then
thene
theo
theodor
theodore
theodosius
theories
theory
thepisur
ther
therande
therapy
there
theresa
thes
thesalise
thesar
thesare
thesaret
thesari
thesarin
thesarit
these
thesin
thesis
theta
theu
they
thiago
thierry
thika
thike
thimi
thing
things
think
third
thirr
thirre
thirrej
thirren
thirret
thirri
thirrja
thirrje
thirrjen
thirrjes
thirrjet
thirrur
this
thith
thithe
thithur
thjerre
thjesht
thjeshta
thjeshte
thjeshtligj
thjeshtuar
thoja
thoma
thomai
thomas
thompson
thomson
thone
thoni
thonin
thonjte
those
thoshin
thoshte
thot
thote
thought
thousand
thrake
threatened
three
thriller
thrones
through
thu
thua
thuaj
thuajse
thuaju
thuash
thuhej
thuhet
thumb
thumbues
thundrake
thur
thurur
thus
thye
thyej
thyejne
thyen
thyer
thyerja
thyerje
thyerjes
thyhet
ti
tia
tibet
tibetiane
tibetit
tica
ticino
tico
tie
tienne
tierra
tietoja
tifoz
tifoze
tigan
tige
tiger
tigrat
tigrave
tigri
tigris
tigrit
tij
tija
tije
tik
till
tilla
tille
tim
tima
timatic
time
timeline
times
timet
timeve
timi
timin
timit
timo
timothy
tin
tina
tine
tinge
tinguj
tingujt
tingujve
tingull
tingulli
tingullin
tingullit
tinnitus
tip
tipar
tipare
tiparet
tipareve
tipe
tipet
tipi
tipik
tipike
tipin
tipit
tira
tiran
tirana
tirane
tiranes
tirazhi
tire
tirmidhi
tirmidhiu
tirona
tirtha
tirupati
tis
tise
tish
tit
titan
tite
titje
title
tito
titos
tituj
titujt
titujve
titull
titullar
titulli
titullin
titullit
titullohet
titulluar
titus
tiu
tivar
tivari
tivarit
tive
tiziano
tj
tjegulla
tjera
tjerash
tjerat
tjerave
tjere
tjeret
tjete
tjeter
tjetra
tjetre
tjetri
tjetrin
tjetrit
tl
tm
tmerr
tmerri
tmerrshe
tmerrshme
tmerruar
to
toc
today
todd
todor
toena
toga
toge
toger
together
togfjale
togo
tohet
toi
toj
toje
tojne
tok
toka
tokash
tokat
tokave
toke
token
tokes
tokio
tokios
toksike
tokugawa
tokyo
toledo
tolerance
tom
toma
tomas
tomatoes
tome
tommy
tomori
tomorrow
ton
tona
tone
tonga
tongue
toni
tonight
tonin
tonte
tony
too
took
tools
top
topa
topalli
topanica
topat
topi
topia
topin
topit
toplica
toplice
topografike
toponim
toponime
toponimet
toponimeve
toponimi
toptani
toptanit
topulli
tor
tore
tori
torin
torino
torinos
torit
torja
toro
toronto
torre
torres
torte
tortura
torturat
torture
toska
toskana
toskane
toske
total
totale
totalisht
totalitar
toto
tottenham
totti
touch
toulouse
tour
tourism
tourist
tournament
tours
toward
towards
tower
town
towns
toyota
tr
tra
track
trade
tradhe
tradhtar
tradhtare
tradhti
tradicional
tradicionale
tradicionalisht
tradita
traditat
traditave
tradite
tradition
traditional
traditions
trafford
trafik
trafikimit
trafiku
trafikun
trafikut
tragjedi
tragjedia
tragjedine
tragjedise
tragjik
tragjike
trailer
train
trainer
training
trajner
trajnere
trajneri
trajnerin
trajnerit
trajnim
trajnime
trajnimi
trajnimin
trajnimit
trajnuar
trajta
trajtat
trajte
trajtim
trajtimet
trajtimi
trajtimin
trajtimit
trajtohen
trajtohet
trajtoi
trajtojne
trajton
trajtshme
trajtuan
trajtuar
trake
traktat
traktate
traktatet
traktateve
traktati
traktatin
traktatit
traktit
trans
transactions
transfer
transferim
transferimi
transferimin
transferimit
transfermarkt
transferohej
transferohet
transferte
transferua
transferuan
transferuar
transformation
transformimi
transformimin
transformimit
transformohet
transformuar
transgjinore
transition
translated
translation
transmetim
transmetime
transmetimet
transmetimi
transmetimin
transmetimit
transmetohen
transmetohet
transmetojne
transmeton
transmetua
transmetuar
transmetuara
transmetues
transmetuese
transmetuesi
transmetuesit
transparence
transparente
transport
transporti
transportimin
transportin
transportit
transportuar
transportues
tranzicion
tranzicioni
tranzicionit
trap
trare
trasha
trashe
traste
trauma
travel
travels
trazira
trazirat
trazirave
trazire
trazuar
tre
treatment
treaty
tree
trefishte
treg
trege
tregim
tregime
tregimet
tregimeve
tregimi
tregimin
tregimit
tregjet
tregjeve
trego
tregohen
tregohet
tregoi
tregoj
tregoje
tregojme
tregojne
tregole
tregon
tregoni
tregonin
tregonte
tregtar
tregtare
tregtari
tregti
tregtia
tregtine
tregtise
tregu
tregua
treguan
treguar
tregues
treguesi
treguesit
tregun
tregut
treke
tremb
trembe
trembet
trembur
tren
trena
trenat
trends
treni
trenit
trepc
treqind
treshe
tresor
tret
treta
tretat
trete
treten
tretet
treti
tretin
tretjes
tretshme
tretur
treva
trevat
trevave
treve
trezeguet
tri
trial
tribes
tribuna
tribune
tribute
trick
tridhjete
trieste
trilluar
trim
trima
trimat
trimave
trime
trimi
tring
trinidad
trio
triple
triplete
tripoli
trishtim
trishtuar
triumfi
triumfin
triumfit
trnjane
trofe
trofeu
trofeun
trojan
trojane
troje
trojet
trojeve
trondite
tronditje
tronditur
tropical
tropikale
tropike
tropoja
tropoje
trt
tru
truall
trualli
truallin
truallit
true
trulli
truman
trump
trung
trungu
trungun
trungut
trup
trupa
trupat
trupave
trupe
trupi
trupin
trupit
trupmadh
trupor
trupore
truri
trurin
trurit
trust
trute
truth
tryeza
tryeze
ts
tt
ttingen
tu
tua
tuaj
tuaja
tuan
tuar
tub
tuba
tuberkulozi
tubim
tubime
tubimit
tucker
tudes
tue
tues
tuese
tufa
tufat
tufe
tuj
tul
tulla
tullara
tullash
tullat
tullave
tulle
tuma
tumat
tume
tund
tundur
tunel
tuneli
tunizi
tunizia
tupou
tur
turbine
turbo
turbullt
turc
turgut
turhan
turi
turin
turing
turiste
turistik
turistike
turit
turize
turizmi
turizmin
turizmit
turjaka
turk
turke
turkey
turkish
turkmenistan
turkmenistani
turko
turks
turku
turma
turmat
turme
turn
turnament
turnamentin
turnamentit
turne
turner
turneu
turneun
turneut
turp
turpe
turpi
turpin
turpshe
turpshme
turq
turqi
turqia
turqine
turqise
turqisht
turqishtja
turqit
turqve
turshi
tutje
tuttlingen
tutto
tuzit
tv
tva
tve
tvo
tvsh
twelve
twentieth
twenty
twice
twin
twitter
two
ty
tyler
tym
tymi
tymin
tyne
type
types
tyrbja
tyre
tyte
tze
u
ua
uan
uar
uara
uashington
uashingtonit
uc
uchiha
ud
udayagiri
udb
udha
udhe
udi
udinese
udite
uditshe
uditshme
udp
ue
ueb
uebfaqja
uefa
uells
uellsi
uellsit
ues
uese
ueshme
uet
ufa
uffizi
ufo
uganda
uglara
uicn
uj
ujdi
uje
uji
ujin
ujit
ujitje
ujk
ujku
ujkun
ujkut
ujor
ujore
ujqe
ujrat
ujrave
uk
uka
uke
ukoci
ukraina
ukrainas
ukrainase
ukraine
ukrainian
ukrainisht
ukshin
uku
ul
ulcinj
ule
ulej
ulem
ulema
ulemaja
ulen
ulet
uli
ulja
ulje
uljen
uljes
ulli
ullinj
ullinjte
ulliri
ullirit
ulpiana
ulqin
ulqini
ulqinin
ulqinit
ulrich
ulta
ulte
ultimate
ultra
ulur
um
uma
umamah
umar
umberto
umea
umeri
umetit
umm
umme
ump
umren
umts
un
una
unaza
unazat
unazave
unaze
unc
und
under
underground
understanding
undp
une
unesco
ungjilli
ungjillin
ungjillit
ungjillore
uni
unicef
unifikuar
uniforma
uniforme
unik
unike
union
unioni
unionit
unit
united
unitet
uniteti
unitetin
unitetit
unity
univ
univers
universal
universale
universe
universi
universidad
universin
universit
universita
universitar
universitare
universite
universitet
universitete
universitetet
universiteteve
universiteti
universitetin
universitetit
universities
university
unix
unknown
unmik
uno
unter
until
up
update
updated
upi
upon
upper
uppsala
ur
ura
urani
urat
urave
urban
urbane
urbanistik
urbanistike
urdhe
urdhra
urdhrat
urdhrave
urdhri
urdhrin
urdhrit
urdu
ure
urgell
urgjence
urgjente
uri
uria
urine
urise
uritur
url
urna
uroj
urrejne
urrejtja
urrejtje
urrejtjen
urrejtjes
urren
urryer
ursula
ursus
urta
urte
urti
urtimori
urtimorit
urua
uruguaj
uruguaji
uruguay
us
usa
usaid
usd
use
used
user
uses
ushqehen
ushqehet
ushqen
ushqim
ushqime
ushqimet
ushqimeve
ushqimi
ushqimin
ushqimit
ushqimor
ushqimore
ushqyer
ushqyerit
ushqyese
usht
ushtar
ushtarak
ushtarake
ushtarakisht
ushtare
ushtari
ushtarit
ushtri
ushtria
ushtrie
ushtrime
ushtrimet
ushtrimeve
ushtrimi
ushtrimin
ushtrimit
ushtrine
ushtrise
ushtrite
ushtrive
ushtrohet
ushtroi
ushtroje
ushtrojne
ushtron
ushtronte
ushtruar
using
usopp
usta
ut
utah
utc
utd
uthman
uthull
utrecht
uttar
uz
uzbekistan
uzina
uzine
v
va
vac
vaj
vajguri
vaji
vajin
vajit
vajti
vajtje
vajtjen
vajtur
vajza
vajzat
vajzave
vajze
vake
vaksine
vakum
val
vala
valais
valbona
valbone
vale
valencia
valencias
valentin
valentina
valentine
valentini
vali
valide
vall
valle
vallen
valles
vallet
valleve
valley
vallja
valltare
valon
valore
valter
value
values
valuta
valute
valverde
vampire
van
vandale
vanessa
vangjel
vangjeli
vangjush
vapa
vape
var
vara
varanasi
varanasit
varat
vardar
vardarit
vare
varej
varen
varepsilon
vareshin
varet
varfe
varfra
varg
vargas
varge
vargje
vargjet
vargjeve
vargmalet
vargu
vargun
vargut
vari
variablave
variacione
variacionet
variant
variante
variantet
varianti
varietet
varietete
varietetet
variety
variojne
varion
various
varka
varke
varna
varphi
varr
varraga
varre
varret
varreve
varreza
varrezat
varrezave
varreze
varri
varrimi
varrimin
varrimit
varrin
varrit
varros
varrose
varroset
varrosur
varshave
varte
varur
varura
vasa
vasal
vasale
vasari
vashe
vasil
vasili
vaso
vastu
vate
vath
vathe
vatikan
vatikani
vatikanit
vatra
vatrat
vatre
vau
vaxhib
vazhde
vazhdim
vazhdime
vazhdimi
vazhdimin
vazhdimisht
vazhdoi
vazhdoj
vazhdoje
vazhdojme
vazhdojne
vazhdon
vazhdone
vazhdonin
vazhdonte
vazhduam
vazhduan
vazhduar
vazhdueshe
vazhdueshme
vazo
vd
vdekja
vdekje
vdekjen
vdekjeprure
vdekjes
vdekjet
vdekjeve
vdekshme
vdekur
vdekura
vdekuri
vdekurin
vdekurit
vdekurve
vdes
vdese
vdesin
vdiq
vdiqe
vdiste
ve
vec
vecanta
vecante
vedat
vedike
vega
vegas
vege
vegim
vegje
vegjlit
vegla
veglat
veglave
vegle
vehbi
veja
veje
vektor
vektore
vektori
vektoriale
vel
vela
velc
velegllava
veli
velika
veliko
veliu
ven
vend
vendas
vendase
vendasit
vendasve
vendbanim
vendbanime
vendbanimet
vendbanimeve
vendbanimi
vendbanimin
vendbanimit
vende
vendesh
vendet
vendeve
vendi
vendim
vendime
vendimet
vendimeve
vendimi
vendimin
vendimit
vendimtar
vendimtare
vendin
vendit
vendlindja
vendlindje
vendlindjen
vendlindjes
vendndodhja
vendndodhje
vendndodhjen
vendndodhjes
vendor
vendore
vendos
vendose
vendosej
vendosen
vendoseshin
vendoset
vendosi
vendosim
vendosin
vendosja
vendosje
vendosjen
vendosjes
vendosme
vendosni
vendosnin
vendoste
vendosur
vendosura
vendqe
vene
venecia
venecian
veneciane
venecias
venedik
venedikas
venedikase
venedikasit
venediku
venedikut
venera
veneto
venezia
venezuela
venezuele
venice
ventura
venus
venusit
vep
vepe
vepra
veprash
veprat
veprave
vepre
vepren
veprim
veprime
veprimet
veprimeve
veprimi
veprimin
veprimit
veprimtar
veprimtare
veprimtari
veprimtaria
veprimtarie
veprimtarine
veprimtarise
veprimtarite
veprimtarive
veproi
veproj
veproje
veprojne
vepron
veproni
vepronin
vepronte
vepruan
vepruar
veprues
vepruese
ver
vera
verande
verbal
verbale
verbe
verdha
verdhe
verdi
vere
veri
verifikuar
verilindje
verilindor
verilindore
verior
veriore
veripere
veriqi
veriu
veriun
veriut
verlag
vermont
verne
vernon
vero
verona
veror
verore
versace
versaje
version
versione
versionet
versioni
versionin
versionit
versus
vertete
vertikal
vertikale
vertikalisht
very
ves
vesa
vese
veseli
vesh
veshe
veshi
veshin
veshit
veshja
veshje
veshjeje
veshjen
veshjes
veshjet
veshjeve
veshkave
veshur
veshura
vet
veta
vetash
vete
vetem
veten
veter
veteran
veterane
veterinare
vetes
vetevendosje
veti
vetia
vetin
vetite
vetiu
vetive
vetja
vetjak
vetjake
vetme
vetmen
vetmet
vetmi
vetmia
vetmin
vetmise
vetmit
vetmja
vetmuar
veton
vetor
vettel
vetull
vetullat
vetura
veture
vetv
vetvete
vetveten
vetvetes
vetvetiu
vetvetja
vexhita
vexhite
vez
veza
vezake
veze
vezir
veziri
vezirit
vfl
vi
via
vic
vice
vicente
vickers
victims
victor
victoria
victory
vida
vidal
video
videoklipi
videoklipin
videon
videos
videot
vidic
vidit
vie
vieira
viene
vienna
vienne
vietnam
vietnami
vietnamit
view
views
vihara
vihej
vihen
vihet
vii
viii
vij
vija
vijat
vijave
vijayanagara
vije
vijim
vijne
vijoi
vijojne
vijon
vijuar
vijues
vijuese
viking
vikinge
viktima
viktimat
viktimave
viktime
viktor
viktoria
viktoriane
vila
vilaine
vilajet
vilajeti
vilajetin
vilajetit
vile
villa
village
villages
villarreal
ville
villeneuve
villers
vilnius
vimana
vinarca
vinc
vinca
vincent
vincenzo
vinci
vine
vini
vinin
vinte
viola
violence
violeta
violine
violonc
vip
viral
virale
virgin
virginia
virgje
viri
virtual
virtuale
virtyt
virtyte
virtytet
virtyti
virus
viruse
viruset
virusi
virusin
virusit
virxhinia
vis
visar
vise
viset
viseve
vish
vishej
vishen
vishet
vishnu
vishnut
vishvanatha
vishwanath
vision
visit
vista
visual
vit
vita
vitale
vitamina
vitamine
vite
vitellius
vitesh
vitet
viteve
viti
vitia
vitin
vitise
vitit
vito
vittorio
viva
viz
viza
vizatim
vizatime
vizatimet
vizatimi
vizatimit
vizatimor
vizatuar
vizave
vize
vizi
vizin
vizion
vizioni
vizionin
vizita
vizitat
vizitave
vizite
vizitohet
vizitoi
vizitojne
viziton
vizitoni
vizitonte
vizitor
vizitore
vizituan
vizituar
vizja
vizje
vizjeje
vizjen
vizjes
vizjet
vizjeve
viznin
vizshe
vizshme
vizte
vizual
vizuale
vizur
vjec
vjecare
vjedh
vjedhe
vjedhja
vjedhje
vjedhur
vjen
vjena
vjene
vjeqare
vjersha
vjershat
vjershe
vjeshta
vjeshte
vjet
vjete
vjeter
vjetor
vjetore
vjetori
vjetorin
vjetorit
vjetra
vjetri
vjetrit
vjollca
vjollce
vjosa
vjose
vl
vladimir
vlefshe
vlefshme
vlejne
vlen
vlene
vlera
vlerat
vlerave
vlere
vllahia
vllamasi
vllasi
vllasova
vllaznia
vllehe
vlonjate
vlora
vlore
vmatrix
vmro
vo
vocal
voce
voci
voda
vodica
voge
vogel
vogla
vogli
vogue
voice
voices
vojvodina
vojvodine
vokal
vokale
vokrri
vokshi
vol
volejboll
volejbollit
volkswagen
vols
volta
volume
volumes
volumi
vom
von
vona
vone
vonesa
vonese
vonshe
vonshme
vonuar
voor
vor
vore
voren
vosges
voskopoje
vota
votat
votave
vote
votim
votimi
votimin
votimit
votoi
votojne
votua
votuan
votuar
votuesve
vox
voyage
vp
vra
vrac
vrane
vraniqi
vranishti
vranje
vranoci
vrap
vrapc
vrare
vras
vrase
vrasin
vrasja
vrasje
vrasjen
vrasjes
vrasjet
vrasjeve
vrau
vrazhde
vre
vrella
vrenjtur
vres
vreshta
vreshtat
vret
vrima
vrimat
vrime
vrioni
vrisnin
vriste
vrite
vriten
vritet
vruar
vrull
vrullshe
vrullshme
vs
vu
vuaj
vuajne
vuajti
vuajtje
vuajtjen
vuajtjes
vuajtjet
vuajtjeve
vuajtur
vuan
vuante
vuc
vuk
vula
vule
vulgare
vullkani
vullkanik
vullkanike
vullnet
vullnetar
vullnetare
vullnetarisht
vullneti
vullnetin
vullnetit
vulos
vulose
vulosur
vulpes
vune
vuri
vushtrri
vushtrria
vushtrrise
vuthaj
vv
vyer
vygotsky
w
wa
wade
wagner
wales
walk
walker
walking
wall
wallace
walsh
walt
walter
wan
wanderers
wang
wano
want
wanted
wants
war
ward
warner
warren
warrior
warriors
wars
was
washington
watch
water
watson
watt
wave
way
wayback
wayne
ways
we
weather
web
webb
webber
weber
webfaqja
website
webster
week
weekly
wehrmacht
wei
weimar
welcome
well
welle
wells
welt
wendy
werden
werder
were
werner
wesley
west
western
westfalen
westminster
what
wheeler
when
where
which
while
white
whitman
whitney
who
whole
whose
why
wi
wide
wie
wied
wien
wiesbaden
wife
wigan
wiki
wikibooks
wikifjalori
wikileaks
wikilink
wikimedia
wikipedia
wikipedian
wikipedias
wikipedine
wikisource
wild
wildlife
wiley
wilhelm
wilhelmina
wilkes
wilkins
will
willem
william
williams
willis
willy
wilson
win
wind
windows
wing
winner
winners
winning
wins
winston
winter
wird
wireless
wisconsin
wisdom
wissenschaften
with
within
without
wiwibloggs
wlan
wo
wolf
wolfgang
wolfsburg
woman
women
won
wong
woo
wood
woods
woody
woolf
word
wordpress
words
work
working
works
workshop
world
worlds
worldwide
worth
would
wp
wright
write
writer
writers
writing
writings
written
wu
wurde
www
wyoming
x
xavier
xe
xh
xha
xhabiri
xhafa
xhafer
xhaferi
xhaferri
xhainist
xhainiste
xhakete
xham
xhama
xhamajka
xhamajke
xhami
xhamia
xhamie
xhamin
xhamine
xhamise
xhamite
xhamive
xhandare
xhandarme
xhani
xhavit
xhaxhai
xhaxhait
xhazit
xhehennem
xhehennemit
xhejms
xheladin
xhelal
xheleshanuhu
xhelozia
xhemal
xhemat
xhemati
xheme
xhemil
xhenetli
xhennet
xhenneti
xhep
xhepa
xhepi
xhevahir
xhevat
xhevdet
xhirimet
xhiro
xhiron
xhiruar
xhirues
xhon
xhorxh
xhorxhi
xhufi
xhumase
xhunge
xhuvani
xhuxh
xi
xico
xii
xiii
xiv
xix
xixe
xml
xp
xu
xv
xvi
xvii
xviii
xx
xxi
xxiii
y
ya
yahoo
yahya
yale
yamaguchi
yaman
yamato
yan
yang
yas
yates
yb
ye
year
years
yellow
yen
yeni
yes
yet
yi
yje
yjet
yjeve
yll
ylli
yllin
yllit
yllka
ymer
ymeri
yndyre
yne
yo
yonne
york
you
young
your
youth
youtube
yt
yu
yuan
yugoslav
yugoslavia
yusuf
yvelines
yves
z
za
zabe
zabeli
zadar
zagora
zagragja
zagreb
zagrebit
zaharia
zahir
zajazi
zajmi
zako
zakon
zakone
zakonet
zakoneve
zakoni
zakonisht
zakonit
zakonore
zakonshe
zakonshme
zall
zaman
zambaku
zambia
zana
zanafilla
zanafille
zanat
zane
zanetti
zani
zanore
zanoret
zanoreve
zanzibari
zanzibarit
zar
zaragoza
zare
zat
zate
zave
zavod
zbardhe
zbardhur
zbarkoi
zbarkuan
zbatim
zbatimi
zbatimin
zbatimit
zbatohen
zbatohet
zbatoi
zbatoje
zbatojne
zbaton
zbatua
zbatuar
zbatueshme
zbavite
zbe
zbehte
zbornik
zbraze
zbrazur
zbres
zbrese
zbresin
zbret
zbrite
zbriti
zbritja
zbritje
zbritjen
zbritjes
zbritur
zbukurim
zbukurime
zbukurimet
zbukurimi
zbukuruar
zbukuruara
zbukuruese
zbulese
zbulim
zbulime
zbulimet
zbulimeve
zbulimi
zbulimin
zbulimit
zbulohen
zbulohet
zbuloi
zbuloj
zbuloje
zbulojne
zbulon
zbulonte
zbulua
zbuluan
zbuluar
zbuluara
zbulues
zbut
zbute
zbutur
ze
zealand
zeeland
zef
zeit
zeitschrift
zeitung
zejtare
zejtarise
zeka
zeke
zela
zelanda
zelande
zell
zeme
zemer
zemra
zemrashqiptare
zemrat
zemre
zen
zene
zenel
zeneli
zenit
zeno
zeqatit
zeqir
zeqiri
zeqo
zeri
zero
zet
zeta
zete
zeusi
zeusit
zeza
zezake
zeze
zgave
zgavre
zge
zgjase
zgjasin
zgjaste
zgjat
zgjate
zgjatet
zgjati
zgjatja
zgjatje
zgjatjen
zgjatur
zgjatura
zgjedh
zgjedha
zgjedhe
zgjedhet
zgjedhin
zgjedhja
zgjedhje
zgjedhjen
zgjedhjes
zgjedhjet
zgjedhjeve
zgjedhor
zgjedhore
zgjedhur
zgjedhura
zgjedhuri
zgjerim
zgjerimi
zgjerimin
zgjerimit
zgjerohej
zgjerohet
zgjeroi
zgjerua
zgjeruan
zgjeruar
zgjidh
zgjidhe
zgjidhej
zgjidhen
zgjidhet
zgjidhi
zgjidhja
zgjidhje
zgjidhjen
zgjidhjes
zgjidhjet
zgjidhte
zgjidhur
zgjimi
zgjodh
zgjodhe
zgjodhi
zgjohet
zgjoi
zgjoje
zgjua
zgjuar
zh
zhabari
zhabjani
zhan
zhane
zhang
zhanreve
zhanri
zhanrin
zhanrit
zhde
zhdripi
zhduk
zhduke
zhduken
zhduket
zhdukja
zhdukje
zhdukjen
zhdukjes
zhdukur
zhge
zhgim
zhgime
zhgimet
zhgimi
zhgimin
zhgimit
zhguar
zhgues
zhguesit
zhitia
zhou
zhu
zhubi
zhukov
zhupania
zhupanine
zhur
zhuri
zhurma
zhurme
zhvendos
zhvendose
zhvendoset
zhvendosi
zhvendosja
zhvendosje
zhvendosjen
zhvendosjes
zhvendosur
zhveshur
zhvillim
zhvillime
zhvillimet
zhvillimeve
zhvillimi
zhvillimin
zhvillimit
zhvillimore
zhvillohej
zhvillohen
zhvilloheshin
zhvillohet
zhvilloi
zhvilloje
zhvillojne
zhvillon
zhvillonin
zhvillonte
zhvillua
zhvilluan
zhvilluar
zhvilluara
zhvilluesit
zhvlere
zhyt
zhyte
zhytur
zi
zia
zidane
zie
zien
zier
ziera
zihen
zihet
zihni
zija
zil
zile
zili
zilia
zim
zimbabve
zime
zimet
zimeve
zimi
zimin
zimit
zine
zinedine
zinin
zinj
zinku
zinkut
zinte
zinxhir
zinxhire
zinxhiri
zinxhirit
zise
zish
zisht
zit
zite
zjarr
zjarre
zjarret
zjarrfike
zjarri
zjarrin
zjarrit
zjarrte
zlatan
zllakuqani
zllatari
zmadhuar
zn
znj
zo
zof
zofi
zog
zogaj
zogj
zogjte
zogjve
zogu
zogun
zogut
zohej
zohem
zohen
zoheshin
zohet
zoi
zoj
zoja
zoje
zojne
zojzi
zon
zona
zonat
zonave
zone
zonen
zones
zonin
zonja
zonje
zonte
zoo
zool
zoological
zoologjik
zoologjike
zoology
zor
zoran
zore
zoro
zorre
zot
zota
zotat
zotave
zote
zoti
zotin
zotit
zr
zu
zua
zuan
zuar
zuara
zubin
zues
zuese
zueshme
zuesi
zuesit
zuesve
zullumqare
zulu
zuluve
zum
zune
zur
zuri
zv
zvarranike
zvarre
zve
zvec
zvice
zviceran
zvicerane
zvicra
zvicre
zvoge
zwischen
zymi
zymte
zyra
zyrat
zyrave
zyre
zyrt
zyrtar
zyrtare
zyrtari
zyrtarisht
{
|
}
~



¡
£
¥
§
¨
©
ª
«
¬
­
®
¯
°
±
²
³
´
µ
·
¹
º
»
¼
½
¾
¿
×
æ
ð
÷
ø
đurovac
ı
ın
ƒ
ɑ
ɔ
ə
ɛ
ɡ
ɪ
ʃ
ʰ
ʲ
ʷ
ʻ
ʼ
ʾ
ʿ
ˈ
ˌ
ː
˙
˚
̀
́
̂
̃
̄
̆
̇
̈
̉
̊
̋
̌
̓
̔
̛
̣
̥
̦
̧
̨
̩
̮
̯
̱
̲
̸
͂
ͅ
͡
΄
α
απο
αρβανι
ας
β
γ
δ
δα
ε
ει
ζ
η
θ
ι
κ
κα
και
κτης
λ
μ
με
ν
να
ξ
ο
οι
ου
π
πανδε
που
ρ
ς
σ
στην
τ
τα
τη
την
της
το
του
των
υ
φ
χ
ψ
ω
ων
ϕ
ϵ
а
б
в
во
г
д
да
е
з
за
и
к
л
м
н
на
не
о
од
п
по
р
россии
с
се
со
су
т
у
ф
х
ъ
я
і
је
ҫ
ְ
ִ
ַ
ָ
ֹ
ּ
א
ה
ו
י
ל
ש
،
ا
الا
الله
ب
بن
ة
ت
ج
ح
خ
د
ذ
ر
ز
س
ش
ص
ط
ع
عبد
غ
ف
ق
ك
ل
م
محمد
ن
ه
و
ى
ي
ً
َ
ُ
ِ
ّ
ْ
ٓ
ٔ
ٕ
ٰ
ܐ
ܰ
ܳ
ं
क
ग
ज
ट
ड
ण
त
द
न
प
ब
म
य
र
ल
व
श
स
ह
़
ा
ि
ी
ु
ू
ृ
े
ो
्
র
া
ি
ে
্
ਰ
ਸ
ਾ
ਿ
ੀ
க
ச
த
ப
ம
ய
ர
ல
வ
ா
ி
ு
ே
ை
்
ා
ั
ิ
ี
่
้
์
​
‌
‎
‏
‐
‑
–
—
―
‖
‘
’
‚
“
”
„
†
•
…
‰
′
″
⁄
⁡
₀
₁
₂
₤
€
ℏ
ℓ
№
™
↑
→
↔
↷
⇒
⇔
∀
∂
∃
∇
∈
∑
−
∗
∘
∙
√
∞
∠
∣
∧
∨
∩
∪
∫
∮
≈
≡
≤
≥
⊕
⊗
⊙
⊤
⊥
⋅
⋮
⋯
③
④
⑦
─
█
△
►
◄
●
♀
♂
♭
⟨
⟩
⺀
⺄
⺆
⺈
⺊
⺌
⺕
⺝
⺸
⺼
⿰
⿱
⿲
⿳
⿴
⿵
⿶
⿷
⿸
⿹
⿺
⿻
、
。
《
》
「
」
『
』
〖
〗
〜
〢
あ
い
う
え
お
か
き
く
け
こ
さ
し
す
せ
そ
た
ち
っ
つ
て
と
な
に
の
は
ひ
へ
ま
み
め
も
よ
ら
り
る
れ
を
ん
゙
゚
ァ
ア
ィ
イ
ウ
ェ
エ
オ
カ
キ
ク
ケ
コ
サ
シ
ス
セ
ソ
タ
チ
ッ
ツ
テ
ト
ナ
ニ
ノ
ハ
ヒ
フ
ヘ
ホ
マ
ミ
ム
メ
モ
ャ
ュ
ユ
ョ
ラ
リ
ル
レ
ロ
ワ
ン
・
ー
㇁
㇂
㇄
㇇
㇈
㇉
㇓
㐁
㐄
㐅
㐌
㐫
㐬
㐭
㐮
㐱
㑒
㒵
㒸
㒼
㓁
㓞
㔾
㕛
㕣
㖾
㘝
㚅
㚇
㚔
㚘
㝉
㝡
㝴
㝵
㞋
㞢
㞷
㠩
㠭
㠯
㡀
㡭
㡿
㢲
㢴
㣇
㣺
㥯
㪅
㫄
㫐
㫒
㫺
㬅
㬎
㬥
㬰
㲋
㳄
㷠
㸒
㸚
㸦
㼌
㼲
㽞
㿟
䀠
䂞
䍃
䏍
䒑
䖍
䖒
䖝
䖵
䙴
䚻
䜌
䝿
䡛
䧹
䪞
一
丁
丂
七
丄
丅
丆
万
丈
三
上
下
丌
不
与
丏
丐
丑
专
且
丕
世
丘
丙
业
东
丞
丢
丣
两
严
並
丨
丩
个
丫
丬
中
丮
丰
丱
串
丵
丶
丷
丸
丹
为
主
丽
丿
乀
乂
乃
久
乆
乇
么
义
之
乌
乍
乎
乏
乐
乑
乔
乖
乗
乘
乙
乚
乛
乜
九
乞
也
习
乡
乳
乾
亀
亅
了
亇
予
争
事
二
亍
于
亏
亐
云
互
亓
五
井
亘
亚
亜
亞
亟
亠
亡
亢
交
亥
亦
产
亨
亩
享
京
亭
亮
亯
亰
亲
亳
亶
亷
人
亻
亼
亾
仁
今
介
仌
从
仐
仑
仒
仓
仕
他
付
仝
代
令
以
任
企
伊
伏
伐
休
会
伝
伯
但
位
何
佘
余
作
佥
使
來
侈
侌
侖
侯
侵
便
保
俞
信
修
倉
倍
候
倠
備
僉
僕
儿
兀
允
兂
元
兄
充
兆
兇
先
光
兊
克
兌
免
兑
兒
兓
兔
党
兜
兟
入
全
兩
兪
八
公
六
兮
兰
共
关
兵
其
具
典
兹
兼
冀
冂
冃
冄
内
冈
冉
冊
冋
册
再
冎
冏
冐
冒
冓
冖
冗
冘
军
农
冝
冡
冥
冫
冬
冰
冷
几
凡
凢
凵
凶
凷
凸
凹
出
函
凾
刀
刁
刂
刃
刄
刅
分
切
刍
刑
刕
刖
列
刘
则
初
別
利
别
到
制
刺
則
削
剌
前
剡
剽
劉
力
功
加
劦
助
劫
劳
劵
勃
勇
勉
勒
動
務
勞
勤
勹
勺
勻
勾
勿
匀
匂
包
匆
匈
匊
匋
匍
匕
化
北
匚
匝
匡
匪
匱
匸
匹
区
医
匽
匿
區
十
卂
千
卄
卅
卆
升
午
卉
半
卌
华
卑
卒
卓
单
卖
南
卜
卝
卞
占
卡
卢
卣
卤
卦
卩
卪
卬
卯
印
危
即
却
卵
卷
卸
卻
厂
厃
厄
历
厈
厉
厌
厓
厘
厚
原
厤
厥
厨
厭
厲
厶
厷
厸
去
厼
厽
叀
参
參
叅
又
叉
及
友
双
反
叐
发
叒
叔
叕
取
受
叚
叜
叟
口
古
句
另
叩
只
召
可
台
叱
史
右
叵
号
司
叹
吂
各
吅
合
吉
吊
吋
同
名
后
吏
向
吕
君
吝
吞
否
含
启
吳
吴
吹
吾
呂
呆
呈
告
员
呙
周
命
咅
和
咎
咠
咢
咨
咸
咼
哀
品
哉
員
哥
哲
唐
商
啇
問
啚
啬
啻
善
喜
喬
單
喿
嗇
噩
嚴
囊
囗
囘
囙
囚
四
回
囟
因
団
囧
囬
困
囱
囷
固
国
圂
圅
國
圍
圓
土
圡
圣
圥
在
圭
地
圶
圼
坐
坒
坚
坴
垂
垔
垚
埀
埋
城
埶
執
基
堂
堅
堆
堇
堯
場
塞
墨
壘
士
壬
壯
声
壳
壴
壹
壺
壽
夂
处
夅
夆
备
夊
夋
夌
复
夏
夒
夕
外
夗
夘
多
夜
夢
大
夨
天
太
夫
夬
夭
央
失
夲
头
夷
夸
夹
夻
夾
奂
奄
奇
奈
奉
奎
奏
奐
契
奓
奔
奚
奞
奠
奢
奥
奭
女
奴
奻
好
如
妄
妙
妟
妥
妻
妾
姑
委
姜
威
娄
婁
婴
嬰
嬴
子
孑
孔
孕
孖
字
存
孚
孛
孝
孟
季
孤
学
孫
孱
學
宀
宁
宂
它
宅
宇
守
安
宋
完
宏
宓
宗
官
定
宛
宜
宝
実
客
宣
室
宮
宰
害
家
容
宾
宿
寄
寅
密
富
寒
察
寧
審
寫
寬
寮
寸
对
寺
寻
寽
対
寿
封
尃
射
将
將
專
尉
尊
尋
尌
對
小
少
尒
尓
尔
尖
尗
尚
尞
尢
尣
尤
尧
尨
尭
就
尸
尹
尺
尻
尼
尽
尾
尿
局
居
屈
屋
屎
屏
屑
展
屖
屚
属
屠
屡
屬
屮
屯
屰
山
屵
屾
岁
岂
岑
岡
岩
岳
岸
峯
島
崇
崑
崔
崖
崙
崩
嵬
嶲
巂
巛
川
州
巟
巠
巢
巤
工
左
巧
巨
巩
巫
差
己
已
巳
巴
巷
巸
巽
巾
巿
帀
市
布
希
帚
帛
帝
带
師
席
帶
常
干
平
年
幵
并
幷
幸
幺
幻
幼
幽
幾
广
広
庄
床
底
店
庚
府
度
庫
庭
庶
康
庸
廉
廌
廛
廣
廩
廴
延
廷
建
廾
廿
开
弁
弃
弄
弇
弋
式
弓
弔
引
弗
弘
弜
弟
弥
弦
弱
張
強
强
彊
彌
彎
彐
彑
当
彔
录
彖
彗
彡
形
彥
彦
彧
彭
彳
役
彼
往
待
律
徒
得
徙
從
復
微
徵
心
忄
必
忌
忍
志
忝
忠
忩
快
念
忽
忿
思
怠
急
怱
恆
恒
恩
恭
息
悉
患
悤
悲
悶
情
惠
惡
惢
愁
愈
意
愛
感
慈
慧
慮
憂
憲
應
戀
戈
戉
戊
戋
戌
戍
戎
成
我
戒
戔
或
戚
戠
戢
戦
截
戲
戶
户
戹
戼
戾
房
所
扁
扇
手
扌
才
打
托
执
承
折
报
拉
拜
拿
掌
推
提
摩
支
攴
攵
收
攸
改
放
政
敄
敏
敕
敖
敗
敝
敞
敢
散
敦
敫
敬
数
敷
數
斂
文
斉
斊
斗
斤
斥
斩
斬
斯
新
方
於
施
斿
旁
旋
族
无
旡
既
旣
日
旦
旧
旨
早
旬
旱
旲
时
旾
昆
昇
昌
昍
明
昏
易
昔
昗
昜
星
春
昬
是
昱
昴
昷
時
晃
晋
晏
普
景
晶
智
暑
暴
曇
曩
曰
曲
曳
更
曷
書
曹
曼
曾
替
最
朁
會
月
有
朋
服
朔
朕
朗
望
朝
木
朩
未
末
本
札
朮
术
朱
朵
朶
朿
杀
李
杏
村
杜
束
条
来
東
杲
杳
松
析
林
枚
果
枝
枲
枼
某
柔
查
柬
柰
柴
栗
桀
桑
桼
梁
條
梟
梨
棘
棠
棥
森
楚
業
楽
榮
樂
樊
橋
欠
次
欣
欮
欲
欶
欽
款
歆
歇
歌
歛
止
正
此
步
武
歨
歪
歮
歯
歰
歲
歴
歷
歸
歹
歺
死
殳
段
殷
殸
殹
殺
殻
殿
毋
毌
母
每
毒
比
毕
毚
毛
毳
氏
氐
民
气
氣
水
氵
氶
氷
永
氺
氾
求
汝
汞
江
沃
沓
沙
沝
泉
法
波
泣
泥
泰
洛
洪
活
派
流
浦
浪
浮
海
淡
淮
清
渚
渠
湯
滿
漸
火
灬
灭
灰
灵
灷
炅
炎
炏
炗
炙
炭
為
烈
烏
烝
焉
無
焦
焱
然
煞
熊
熏
燕
營
燮
爪
爫
爭
爯
爰
爱
爲
爵
父
爻
爽
爾
爿
片
版
牙
牚
牛
牜
牟
牢
牧
物
牪
牽
犀
犬
犭
犮
狂
狄
狊
独
狺
猋
猒
猪
献
獻
玄
率
玉
王
玟
玨
珎
班
理
琴
瑟
瑩
瓜
瓦
甘
甚
生
産
用
甫
甬
田
由
甲
申
电
甶
男
甸
甹
画
甾
畀
界
畏
畐
留
畜
畟
畢
畧
畨
番
畫
異
畱
當
畺
畾
疊
疋
疌
疑
疒
疾
癶
癸
癹
登
發
白
百
皀
皃
的
皆
皇
皋
皐
皕
皮
皷
皿
盃
盆
盇
盈
益
盍
盎
监
盒
盖
盛
盡
監
盤
盧
目
直
相
盾
省
眇
眉
看
眔
眞
真
眷
眼
眾
着
睘
睪
睿
瞏
瞢
瞿
矍
矛
矞
矢
矣
知
矦
短
石
破
碎
磊
磨
示
礻
礼
社
神
祟
票
祭
禀
禁
禸
禹
禺
离
禽
禾
禿
秀
秃
秉
秋
科
秝
秦
移
稟
穀
穌
穴
究
穹
空
穿
突
窄
窒
立
竒
竜
竝
竟
章
童
竹
笑
笠
第
筆
等
答
箕
算
箴
節
篤
篭
米
粉
粛
粟
粤
粦
粲
糞
糸
糹
系
約
納
素
索
紫
累
細
結
絜
絫
絲
維
綿
縣
繇
纍
纟
缶
网
罒
罔
罕
罗
罙
罡
罢
罪
署
罷
羅
羊
羌
羍
美
羔
羕
羗
羞
羡
羣
群
義
羲
羸
羽
翁
翏
習
翕
翟
翠
翼
老
耂
考
者
耆
而
耎
耑
耒
耳
耴
耶
耷
聂
聊
聖
聚
聶
聿
肀
肃
肅
肉
肖
肙
肥
肩
肯
育
肴
胃
背
胡
胥
能
脊
脩
膚
臣
臤
臧
自
臬
臭
臯
臱
至
致
臺
臼
臽
臾
臿
舀
舂
舄
與
興
舉
舌
舍
舛
舜
舞
舟
般
艮
良
色
艸
艹
艾
芒
芔
芬
芮
花
芳
芺
芻
苔
苗
苟
若
苦
英
茶
茸
荅
草
荒
荣
荼
莆
莧
莫
莽
菆
菊
菐
華
萬
落
葉
著
葛
董
葵
蒙
蒦
蒼
蓋
蓬
蓺
蔑
蔡
蕉
蕭
薄
薛
薦
薰
藍
藏
藤
藥
蘭
虍
虎
虐
虒
虔
處
虖
虗
虘
虚
虛
虜
虞
虫
虽
蚤
蚩
蜀
蜜
蟲
蠡
血
行
衍
衛
衣
衤
表
衮
衰
袁
袞
褭
褱
襄
襾
西
覀
要
覃
見
規
覓
覧
親
覽
见
角
解
言
訁
訇
計
記
詹
語
誩
諸
讠
谷
豆
豈
豊
豐
豕
豖
豙
象
豦
豩
豪
豸
貇
貝
貞
貟
負
貢
貧
貪
貫
責
貳
貴
買
費
賁
資
賈
賏
賓
賔
賛
賞
賢
賣
質
賴
贊
贝
贡
责
贯
贲
贵
赖
赞
赤
赦
走
越
足
路
蹇
身
躬
車
軍
軎
軟
輦
车
辛
辜
辟
辥
辰
辱
農
辵
辶
边
达
过
近
连
迷
追
退
送
逆
逐
通
速
造
逢
連
逮
進
遀
遂
過
道
達
遣
適
遷
遺
邊
邑
邕
那
邦
邪
郎
部
郭
都
鄉
酉
酋
配
酓
釆
采
里
重
野
量
金
釒
錢
钅
長
镸
长
門
閃
閉
開
閏
閑
閒
間
閔
閵
閻
闌
门
间
闷
阑
阜
阝
阿
降
院
陳
隆
隊
隋
隡
隨
隱
隶
隹
隺
隻
隼
隽
难
雀
雁
集
雈
雋
雍
雐
雔
雙
雚
雜
雝
離
難
雨
雩
雪
雲
零
雷
需
霍
霜
霝
霞
霸
靈
靑
青
非
靡
面
靣
革
韋
韦
韭
韯
韱
音
頁
頃
項
須
頗
頡
頻
顛
页
風
风
飛
飞
食
飠
養
饣
首
香
馬
馮
駦
马
骨
高
髟
鬥
鬯
鬲
鬼
魔
魚
魯
鮮
鱼
鲁
鳥
鳳
鸟
鹵
鹿
麃
麗
麥
麦
麻
黃
黄
黍
黎
黑
黒
黨
黹
黽
黾
鼎
鼓
鼠
鼻
齊
齋
齐
齒
齿
龍
龙
龜
龟
龠
龰
龱
龴
龵
龶
龷
龸
龹



者
艹
ﬁ
ﯽ
ﺍ
ﺎ
ﺑ
ﻠ
﻿
！
（
）
，
：
？
～
�
𝑎
𝑓
𝑖
𝑘
𝑛
𝑥
𠀁
𠀃
𠀆
𠀉
𠀎
𠀐
𠁁
𠁣
𠂆
𠂇
𠂈
𠂉
𠂊
𠂋
𠂎
𠂒
𠂔
𠂛
𠂡
𠂢
𠂤
𠂬
𠂭
𠂹
𠃊
𠃋
𠃌
𠃍
𠃎
𠃑
𠃓
𠃔
𠃜
𠄌
𠄎
𠄠
𠄢
𠆢
𠆥
𠇍
𠈌
𠌵
𠓜
𠔉
𠔥
𠔼
𠔽
𠔿
𠕀
𠕁
𠕋
𠘧
𠘨
𠙻
𠙼
𠚏
𠚒
𠚤
𠚪
𠣏
𠤎
𠤕
𠥓
𠦄
𠦑
𠦝
𠧒
𠧗
𠧪
𠩺
𠪚
𠫓
𠫔
𠫤
𠬛
𠬝
𠬞
𠬢
𠬤
𠬶
𠮛
𠮦
𠮷
𠯑
𠱠
𠳮
𠷎
𡈼
𡉀
𡉵
𡌥
𡍮
𡏳
𡕒
𡕩
𡕰
𡖅
𡗗
𡗜
𡘆
𡘤
𡧱
𡨄
𡩧
𡬠
𡭽
𡰣
𡰥
𡰪
𡰯
𡰱
𡷈
𡸁
𡿨
𡿩
𡿪
𡿺
𢀖
𢀛
𢀩
𢁙
𢆉
𢆰
𢆶
𢇁
𢇇
𢉖
𢌬
𢌿
𢏚
𢑑
𢑚
𢖻
𢙣
𢛳
𢦏
𢦒
𢧵
𢼄
𢾕
𣁋
𣄼
𣅀
𣅽
𣍘
𣎳
𣎵
𣏋
𣏼
𣗥
𣥂
𣥖
𣦵
𣦼
𣧄
𣪊
𣪠
𣬉
𣳾
𣶒
𤇾
𤊽
𤐫
𤓰
𤔔
𤕨
𤣩
𤰇
𤰔
𤰞
𤴓
𤴔
𤽄
𥁑
𥁕
𥃦
𥃩
𥃭
𥇡
𥑟
𥘅
𥘈
𥝢
𥫗
𥱡
𦈢
𦉪
𦉬
𦉼
𦍌
𦍒
𦎧
𦐇
𦓔
𦔮
𦘒
𦙃
𦚏
𦣝
𦣞
𦣻
𦥑
𦥔
𦥯
𦨉
𦭝
𦰩
𧆞
𧈧
𧘇
𧰨
𧴪
𧴮
𧵩
𧾷
𨸏
𨾴
𩙿
𩠐
𩫏
𩵋
𪉷
𪜀
𪟽
𪠲
𪩲
𫇦
𫔭
𫜸
𫝀
𫠣
𫠩
𫢉
𫥞
𫩏
𫩠
𫪡
𫲽
𫶧
𬀷
𬐘
𬗌
𬙙
𬛸
𬜯
𬟩
𬯁
𬴘
𬺻
𬼉
𬼖
𭀰
𭁈
𭁨
𭅰
𭑈
𭕄
𭗼
𭤨
𭥫
𭻾
𮅕
𮊿
𮍌
𮍏
𮓗
𮥼
𮧮
廾
𰀁
𰀄
𰀈
𰀉
𰀕
𰀠
𰀡
𰀢
𰀪
𰁜
𰃮
𰆊
𰆘
𰋙
𰕎
𰢴
𰧭
𰯲
00--
000--
01--
02--
03--
04--
05--
06--
07--
08--
09--
50--
52--
56--
57--
58--
59--
60--
61--
64--
65--
67--
68--
69--
70--
71--
72--
73--
74--
75--
76--
77--
78--
79--
80--
81--
82--
83--
84--
85--
86--
87--
88--
89--
90--
91--
92--
93--
94--
95--
96--
97--
978--
97808--
98--
99--
a--
aa--
ab--
abd--
abdi--
abdu--
abe--
abkh--
abor--
absor--
abste--
abstr--
abu--
ac--
acar--
accep--
ace--
achieve--
acqui--
act--
activ--
ad--
ada--
adapt--
addit--
ade--
adhu--
adi--
administr--
admir--
adop--
adre--
advo--
ae--
aero--
aerod--
aeronau--
af--
afat--
afir--
afro--
afte--
ag--
aga--
agamemn--
age--
agjitac--
aglla--
ago--
agres--
agri--
agricul--
agro--
agu--
ah--
ai--
air--
aj--
ak--
aka--
ake--
aki--
ako--
akord--
akro--
akrob--
aks--
aksio--
akt--
aku--
akumu--
al--
ala--
alb--
ale--
aless--
algje--
ali--
alighi--
all--
allge--
als--
alt--
alta--
alter--
alve--
aly--
am--
ama--
ambu--
ame--
amen--
amfitea--
ami--
amino--
amnis--
amp--
ampli--
an--
ana--
anali--
analy--
anark--
anash--
and--
ane--
aneks--
ang--
angazho--
angje--
ani--
ann--
anom--
ans--
ansam--
ant--
anthropolog--
anti--
antro--
antropo--
anul--
anuli--
anxh--
any--
ao--
ap--
ape--
apli--
apo--
app--
appea--
approxi--
aq--
aqu--
ar--
ara--
arb--
arc--
ard--
are--
argo--
ari--
arit--
ark--
arkip--
arm--
arn--
arqi--
arra--
arri--
arro--
ars--
art--
arte--
arti--
artiku--
arvanit--
as--
asa--
ase--
ash--
ashen--
asi--
ask--
aso--
asoci--
asocia--
asp--
aspir--
ass--
assass--
associa--
ast--
astro--
at--
ata--
atdhe--
ate--
athl--
ati--
atraks--
atri--
atribu--
au--
audi--
aus--
autenti--
autiz--
auto--
av--
ava--
avanc--
avdu--
ave--
avent--
avia--
awa--
ax--
ay--
az--
azka--
azo--
b--
ba--
baba--
babi--
babilon--
babin--
bac--
back--
bad--
bag--
bahr--
bai--
baj--
bajo--
bajr--
bak--
bal--
ban--
bapt--
bar--
bara--
bark--
bart--
bas--
bashk--
bashke--
bat--
bay--
be--
beau--
beg--
begat--
bei--
bej--
bel--
belle--
ben--
beni--
ber--
berg--
beri--
bes--
bey--
bez--
bezdi--
bh--
bi--
bian--
bib--
[...]
