!
"
#
##0
##1
##10
##11
##12
##13
##14
##15
##16
##17
##18
##19
##2
##20
##21
##22
##23
##24
##25
##26
##27
##28
##29
##3
##30
##31
##32
##33
##34
##35
##36
##37
##38
##39
##4
##40
##41
##42
##43
##44
##45
##46
##47
##48
##49
##5
##50
##51
##52
##53
##54
##55
##56
##57
##58
##59
##6
##60
##61
##62
##63
##64
##65
##66
##67
##68
##69
##7
##70
##71
##72
##73
##74
##75
##76
##77
##78
##79
##8
##80
##81
##82
##83
##84
##85
##86
##87
##88
##89
##9
##90
##91
##92
##93
##94
##95
##96
##97
##98
##99
$
%
&
'
(
)
*
+
,
-
.
/
0
00
000
001
007
01
02
03
04
05
06
07
08
09
1
10
100
1000
1007
101
1016
1018
102
103
104
105
106
107
108
1080
1089
109
11
110
1100
111
1111
112
1120
113
114
115
116
117
118
1185
119
12
120
1200
1204
121
122
123
124
1244
125
1250
1258
126
1260
1261
1266
127
128
1280
1282
129
13
130
1300
1304
131
132
1320
133
1330
1332
1336
134
1341
1343
1348
135
1350
1353
1354
136
1362
1368
137
1370
1371
1374
138
1385
1389
139
1392
14
140
1400
1402
1405
1408
141
1416
1417
142
1421
143
1430
1431
1432
144
1440
1443
1444
1448
145
1450
1451
1453
1455
1456
1458
1459
146
1460
1462
1464
1465
1466
1467
1468
1469
147
1470
1474
1475
1478
1479
148
1480
1481
1482
1483
1485
149
1490
1492
1493
1494
1495
1496
1497
1498
1499
15
150
1500
1501
1502
1503
1504
1505
1506
1507
1508
1509
151
1510
1511
1512
1513
1514
1515
1516
1517
1518
1519
152
1520
1521
1522
1525
1526
1528
1529
153
1530
1533
1534
1536
1537
1538
154
1540
1541
1542
1543
1545
1547
1548
155
1550
1554
1555
1559
156
1560
1561
1565
1566
1567
1568
1569
157
1570
1571
1573
1574
1576
158
1580
1581
1582
1583
1585
1588
159
1590
1591
1592
1594
1595
1598
16
160
1600
1603
1604
1605
1606
1609
161
1610
1611
1612
1613
1614
1615
1616
1618
1619
162
1620
1621
1622
1623
1625
163
1630
1632
1634
1635
1638
1639
164
1640
1642
1643
1644
1648
1649
165
1650
1656
1658
1659
166
1660
1662
1665
1667
1669
167
1670
1671
1672
1674
168
1680
1682
1683
1684
1685
1686
1687
1688
1689
169
1690
1691
1693
1697
1699
17
170
1700
1701
1702
1703
1705
1706
1707
1708
1709
171
1710
1712
1713
1715
1716
1717
1718
172
1720
1721
1722
1723
1724
1725
1726
1727
1728
173
1730
1731
1732
1733
1734
1735
1736
1737
1738
1739
174
1740
1741
1742
1743
1744
1745
1746
1747
1748
1749
175
1750
1751
1752
1753
1754
1755
1756
1757
1758
1759
176
1760
1761
1762
1763
1764
1765
1766
1767
1768
1769
177
1770
1771
1772
1773
1774
1775
1776
1777
1778
1779
178
1780
1781
1782
1783
1784
1785
1786
1787
1788
1789
179
1790
1791
1792
1793
1794
1795
1796
1797
1798
1799
18
180
1800
1801
1802
1803
1804
1805
1806
1807
1808
1809
181
1810
1811
1812
1813
1814
1815
1816
1817
1818
1819
182
1820
1821
1822
1823
1824
1825
1826
1827
1828
1829
183
1830
1831
1832
1833
1834
1835
1836
1837
1838
1839
184
1840
1841
1842
1843
1844
1845
1846
1847
1848
1849
185
1850
1851
1852
1853
1854
1855
1856
1857
1858
1859
186
1860
1861
1862
1863
1864
1865
1866
1867
1868
1869
187
1870
1871
1872
1873
1874
1875
1876
1877
1878
1879
188
1880
1881
1882
1883
1884
1885
1886
1887
1888
1889
189
1890
1891
1892
1893
1894
1895
1896
1897
1898
1899
19
190
1900
1901
1902
1903
1904
1905
1906
1907
1908
1909
191
1910
1911
1912
1913
1914
1915
1916
1917
1918
1919
192
1920
1921
1922
1923
1924
1925
1926
1927
1928
1929
193
1930
1931
1932
1933
1934
1935
1936
1937
1938
1939
194
1940
1941
1942
1943
1944
1945
1946
1947
1948
1949
195
1950
1951
1952
1953
1954
1955
1956
1957
1958
1959
196
1960
1961
1962
1963
1964
1965
1966
1967
1968
1969
197
1970
1971
1972
1973
1974
1975
1976
1977
1978
1979
198
1980
1981
1982
1983
1984
1985
1986
1987
1988
1989
199
1990
1991
1992
1993
1994
1995
1996
1997
1998
1999
2
20
200
2000
2001
2002
2003
2004
2005
2006
2007
2008
2009
201
2010
2011
2012
2013
2014
2015
2016
2017
2018
2019
202
2020
2021
2022
2023
2024
2025
203
204
205
206
207
208
209
21
210
211
212
213
214
215
216
217
218
219
22
220
2200
221
222
223
224
225
226
227
228
229
23
230
231
232
233
234
235
236
237
238
239
24
240
241
242
243
244
245
246
247
248
249
25
250
2500
251
252
253
254
255
256
257
258
259
26
260
2600
261
262
263
264
265
266
267
268
269
27
270
271
272
273
274
275
276
277
278
279
28
280
281
282
283
284
285
286
287
288
289
29
290
291
292
293
294
295
296
297
298
299
3
30
300
3000
301
302
303
304
305
306
307
308
309
31
310
311
312
313
314
315
316
317
318
319
32
320
321
322
323
324
325
326
327
328
329
33
330
331
332
333
334
335
336
337
338
339
34
340
341
342
343
344
345
346
347
348
349
35
350
3500
351
352
353
354
355
356
357
358
359
36
360
361
362
363
364
365
366
367
368
369
37
370
371
372
373
374
375
376
377
378
379
38
380
381
382
383
384
385
386
387
388
389
39
390
391
392
393
394
395
396
397
398
399
4
40
400
4000
401
402
403
404
405
406
407
408
409
41
410
411
412
413
414
415
416
417
418
42
420
421
422
423
424
425
426
427
428
429
43
430
431
432
433
434
435
436
437
438
439
44
440
442
444
445
446
447
448
449
45
450
4500
451
453
454
455
456
457
458
459
46
460
461
462
464
465
466
467
468
47
470
471
472
473
474
475
476
477
479
48
480
482
483
484
485
486
487
488
49
490
491
492
495
496
497
498
499
5
50
500
5000
505
506
508
509
51
510
511
512
513
515
516
518
519
52
520
521
523
524
525
526
527
529
53
530
531
532
533
534
535
537
54
540
543
545
549
55
550
553
555
56
560
565
567
569
57
570
58
580
586
589
59
590
596
6
60
600
6000
602
604
607
608
609
61
610
613
614
615
618
62
620
622
624
625
627
628
629
63
630
631
632
633
634
639
64
640
642
645
65
650
656
657
658
66
660
661
666
668
67
670
674
68
680
684
69
691
7
70
700
7000
7017
705
71
715
72
720
728
73
730
737
74
747
75
750
76
760
77
770
78
780
79
8
80
800
8000
802
81
815
82
820
83
84
85
850
86
87
870
88
89
890
9
90
900
907
91
911
912
92
93
94
940
95
950
96
960
97
973
978
98
99
9928
9951
999
99927
99943
99956
:
;
<
=
>
?
@
\
^
_
`
a
aa
aab
aak
aargau
aaron
ab
abas
abaz
abazi
abbas
abbey
abbott
abc
abd
abdel
abdi
abdu
abdul
abdulaziz
abdulla
abdullah
abdullahu
abdurrahman
abdyl
abe
abedin
abej
abel
aber
abetare
abhinav
abi
abort
aborti
abortin
abortit
about
above
abraham
absolut
absolute
absolutisht
abstrakt
abstrakte
absurde
abu
abuzimi
abuzimit
ac
academia
academic
academy
accademia
access
accessed
according
account
ace
acharya
achillea
acid
acide
acidet
acideve
acidi
acidit
aconitum
across
act
acta
action
active
actor
actress
ad
ada
adam
adami
adams
adaptim
adaptuar
ade
adekuate
adelina
adem
ademi
ademit
adenauer
adhurim
adhurimi
adhurimin
adhurimit
adhurohet
adhurojne
adhuronin
adhuruar
adhurues
adhuruesit
adi
adidas
adil
adler
administrata
administrate
administration
administrativ
administrative
administrativisht
administrator
administratore
administrim
administrimi
administrimin
administrimit
administrohet
administruar
administruara
admiral
admirale
admirali
admiruar
adn
adnan
adobe
adoleshence
adoleshent
adoleshente
adolf
adolfo
adoptoi
adoptua
adoptuan
adoptuar
adresa
adresave
adrese
adresuar
adrian
adriana
adriano
adrianopoje
adriatik
adriatikut
adult
advanced
adventure
adventures
ae
aeronautike
aeroplan
aeroplane
aeroplani
aeroplanit
aeroport
aeroporte
aeroporti
aeroportin
aeroportit
aes
af
afariste
afat
afatgjata
afatgjate
afati
afatshkurte
afc
afe
afer
aferdita
affairs
affiliation
afgane
afganistan
afganistani
afganistanit
afresk
afreske
afresket
africa
african
afrika
afrikan
afrikane
afrikano
afrike
afrim
afrimi
afrimin
afro
afrohej
afrohen
afrohet
afrua
afruar
afta
afte
after
ag
aga
again
against
age
agency
agent
ages
agger
agim
agimi
agimit
agje
agjenci
agjencia
agjencine
agjencise
agjencite
agjensia
agjent
agjente
agjenti
agnes
agni
ago
agolli
agon
agostini
agostino
agra
agrare
agras
agregate
agresionit
agresiv
agresive
agron
agroni
agu
ah
ahilyabai
ahmad
ahmed
ahmet
ahmetaj
ahmeti
ahmetit
ahu
ahut
ai
aid
aida
aids
aif
aihole
ain
air
airbus
aires
airlines
airport
airways
ais
aise
aisne
aix
aj
ajanta
ajax
aje
ajet
ajete
ajeti
aji
ajit
ajnshtajni
ajnshtajnit
ajo
ajri
ajrin
ajrit
ajror
ajrore
ajupi
ak
aka
akademi
akademia
akademie
akademik
akademike
akademine
akademise
akalli
akatsuki
akbar
akbari
akbarit
akc
ake
akejnte
akihito
akili
akilit
akira
ako
akoma
akorduar
akra
akre
akredituar
akropoli
akropolit
aks
akses
aksesore
aksi
aksident
aksidentale
aksidentalisht
aksidenti
aksidentit
aksin
aksion
aksionare
aksione
aksionet
aksioneve
aksioni
aksionin
aksionit
aksit
akt
akte
aktet
akteve
akti
aktin
aktit
aktiv
aktive
aktivisht
aktivist
aktiviste
aktivitet
aktivitete
aktivitetet
aktiviteteve
aktiviteti
aktivitetin
aktivitetit
aktivizimi
aktivizimin
aktivizohet
aktivizua
aktivizuar
aktor
aktore
aktoren
aktores
aktoret
aktori
aktorin
aktorit
aktorja
aktrim
aktrimi
aktrimin
aktrimit
aktual
aktuale
aktualisht
aku
akull
akulli
akullit
akullnajave
akullnajore
akustike
akut
akute
akuza
akuzat
akuzave
akuze
akuzoi
akuzua
akuzuan
akuzuar
al
ala
alabama
alain
alam
alan
alarmi
alaska
alaske
alavite
alayam
alb
alba
alban
albana
albanais
albanese
albanesi
albani
albania
albanian
albanians
albanica
albanie
albanien
albanikut
albanischen
albanolog
albanologe
albanologjik
albanologjike
albanologjise
albany
albert
alberta
alberti
alberto
albin
albion
albrecht
album
albume
albumet
albumeve
albumi
albumin
albumit
albums
albus
alca
alda
aldo
ale
aleanca
aleance
aleat
aleate
alegorik
alegorike
alejandro
alejhi
aleks
aleksandar
aleksande
aleksander
aleksandr
aleksandri
aleksandrise
aleksandrit
aleksi
aleppo
alessandro
alex
alexander
alexandra
alexandre
alexandria
alexandros
alexis
alfa
alfabet
alfabete
alfabeti
alfabetin
alfabetit
alfonso
alfred
alfredo
algjebre
algjebrike
algjeri
algjeria
algjerise
algorite
algoritme
algoritmet
algoritmeve
algoritmi
algoritmit
ali
alia
aliaj
alicante
alice
alien
alighieri
align
alija
alise
aliu
aliun
aliut
alive
alkool
alkooli
alkoolike
alkoolit
all
alla
allah
allahu
allahun
allahut
allan
alle
allen
allier
allsvenskan
alma
almost
alone
along
alonso
alpe
alpes
alpet
alpeve
alpha
alphabet
alpin
alpine
alpiniste
als
alsace
also
alt
alta
altar
altare
altari
altarin
altarit
alte
alternativ
alternativa
alternative
alternuar
although
altimetrica
altin
alto
alumini
alush
always
am
ama
amadeus
aman
amanda
amantia
amar
amator
amatore
amazing
amazon
amazone
ambasada
ambasade
ambasador
ambasadore
ambasadori
ambasadorit
ambicia
ambicien
ambicies
ambiciet
ambicioz
ambicioze
ambient
ambiente
ambientet
ambienti
ambientin
ambientit
ambulance
amc
ame
america
american
amerika
amerikan
amerikane
amerikano
amerike
amfibe
ami
amiens
amin
aminoacide
aminoacidet
aminoacideve
amir
amman
amnesty
amon
among
amonit
amor
amore
amos
amour
amplituda
amplitude
amr
amsterdam
amtare
amundsen
amy
amza
an
ana
anadoll
anadollit
anagnosti
analfabet
analfabetizmit
analist
analiste
analitik
analitike
analiza
analizat
analizave
analize
analizohen
analizon
analizuar
analog
analoge
analogji
analysis
anamali
anamorave
anarkiste
anash
anasjelltas
anastas
anastasi
anastasia
anatomi
anatomia
anatomike
anaya
ancient
and
andaj
andalusia
andej
anders
andersen
anderson
andeve
andi
andon
andoni
andorra
andorre
andra
andre
andrea
andreas
andrei
andrew
andrews
android
andy
ane
anekdota
aneksimin
aneksimit
aneksoi
aneksua
aneksuar
aneksuara
anembane
anemia
anen
anetar
anetare
anfield
ang
angazhim
angazhimi
angazhimin
angazhimit
angazhohen
angazhohet
angazhua
angazhuan
angazhuar
ange
angel
angela
angeles
angelica
angelo
angels
angers
angl
anglez
angleze
angli
anglia
anglikane
angline
anglise
anglisht
anglishten
anglishtes
anglishtja
anglo
angola
anhalt
ani
anice
anija
anije
anijen
anijes
anijesh
anijet
anijeve
anik
aniku
anikut
anila
animacion
animal
animals
animation
anime
animuar
animuara
anin
anit
anita
ankand
ankara
ankarase
ankesa
ankesat
ankese
ankete
ankth
ankthi
ankthit
ann
anna
annapurna
annapurnas
anne
anni
annie
anniversary
annual
ano
anonim
anonime
another
ans
ansambe
ansambli
ansamblin
ansamblit
anshme
ant
anta
antagoniste
antar
antare
ante
antena
antenat
antenave
antene
anthemius
anthology
anthony
anthropology
anti
antibiotike
antico
antifashist
antifashiste
antigjen
antigua
antik
antike
antikitet
antikiteti
antikitetin
antikitetit
antikomuniste
antiokise
antiosmane
antiquity
antishqiptare
antitrupa
antitrupat
antitrupave
anto
antoine
antologji
antologjine
anton
antoni
antonin
antoninus
antonio
antonit
antony
antropologji
antropologjia
antropologjike
antropologjise
antropomorfe
antwerp
anulua
anuluar
anxhela
anxhelos
any
anzhu
anzhuine
ao
ap
apache
aparat
aparati
aparatin
aparatit
apartament
apasionuar
apelit
aplikacion
aplikacione
aplikacionet
aplikacioneve
aplikacioni
aplikacionit
aplikative
aplikim
aplikime
aplikimet
aplikimi
aplikimin
aplikimit
aplikohen
aplikohet
aplikoi
aplikojne
aplikuar
aplikuara
apo
apollo
apollon
apolloni
apollonia
apollonise
apollonit
apoloni
apolonia
apolonise
apostolik
apostolike
apostujt
apostujve
apostull
app
apple
application
applications
applied
approach
april
aprovuar
aq
aqif
aquitaine
ar
ara
arab
arabe
arabi
arabia
arabic
arabik
arabine
arabise
arabisht
arabishtja
arabo
arad
arago
aragon
aragonit
arapi
arash
arat
arave
arbana
arbanasi
arbe
arben
arberori
arbitrare
arbrit
arc
arcade
archaeological
archaeology
architectural
architecture
archive
archived
archives
ard
arde
ardenne
ardennes
ardhacake
ardhe
ardhja
ardhje
ardhjen
ardhjes
ardhme
ardhmen
ardhmes
ardhmja
ardhshe
ardhshme
ardhur
ardhura
ardhurat
ardhurave
ardian
ardiane
ardit
are
area
areas
arena
arenberg
arene
arezzo
arge
argentina
arges
argjend
argjende
argjendi
argjendit
argjendte
argjentina
argjentinas
argjentinase
argjentine
argjile
argument
argumente
argumentet
argumenti
argumentit
argumentoi
argumentojne
argumenton
argumentuar
ari
aria
arian
ariana
ariane
arianiti
arie
ariel
arif
arifi
arin
arinjte
arinjve
ariosto
aristokracia
aristokracise
aristokrate
aristokratike
aristoteli
aristotelit
arit
aritmetike
ariu
ariun
ariut
arizona
arja
arjan
arje
arjen
ark
arka
arkaike
arkansas
arke
arkeolog
arkeologe
arkeologji
arkeologjia
arkeologjik
arkeologjike
arkeologjise
arkeologu
arkipelagun
arkitekt
arkitekte
arkitekti
arkitektit
arkitektonik
arkitektonike
arkitektura
arkitekture
arkitekturor
arkitekturore
arkiv
arkiva
arkivat
arkivave
arkive
arkivi
arkivin
arkivit
arkivore
arkivuar
arktik
arktike
arktikut
arli
arm
arma
armand
armando
armata
armate
armatim
armatimi
armatimit
armatosur
armatosura
armature
arme
armen
armene
armeni
armenia
armenise
armik
armike
armiku
armikun
armikut
armillotta
armiq
armiqe
armiqte
armiqve
armor
arms
armstrong
army
arn
arnold
aroma
aromatike
arome
around
arra
arratis
arratiset
arratisur
arre
arrest
arrestimi
arrestimin
arrestimit
arrestohet
arrestoi
arrestua
arrestuan
arrestuar
arrihej
arrihen
arrihet
arrije
arrijme
arrijne
arrin
arrine
arrinin
arrinte
arrit
arrite
arriti
arritja
arritje
arritjen
arritjes
arritjet
arritjeve
arritshe
arritshme
arritur
arritura
ars
arsenal
arsenali
arsenalin
arsenalit
arshi
arshise
arsim
arsimi
arsimim
arsimimi
arsimimin
arsimimit
arsimin
arsimit
arsimor
arsimore
arsimtar
arsimtare
arsimuar
arsye
arsyeja
arsyen
arsyes
arsyeshme
arsyet
arsyetimi
arsyetimin
arsyetimit
art
arta
artan
artane
arte
artet
arteve
arthur
arti
article
articles
artificial
artificiale
artikuj
artikujsh
artikujt
artikujve
artikull
artikulli
artikullin
artikullit
artikuluar
artileri
artileria
artilerie
artilerise
artin
artist
artiste
artisti
artistik
artistike
artistin
artistit
artistja
artists
artit
artizanale
artizanatit
artizane
arts
artur
arturo
arulmigu
arumune
arvanitase
arvanite
arvanites
arvanitika
as
asaf
asaj
asamble
asambleja
asamblene
asamblese
ascii
ascoli
asdreni
asfaltuar
asgje
ash
ashak
ashanti
ashley
ashoka
ashpe
ashpra
ashrame
ashrami
asht
ashte
ashtu
ashtuquajtur
ashtuquajtura
ashtuquajturat
ashtuquajture
ashtuquajturi
ashtuquajturin
ashtuquajturit
asi
asia
asian
asim
asimetrike
asimilimit
asimiluar
asiriane
asist
asiste
asistence
asistent
asistente
asistime
asistoi
asistuar
aske
asketike
askujt
askund
askush
asllan
asllani
asnjane
asnje
aso
asociacioni
asociuar
asokohe
asor
asp
aspak
aspects
aspekt
aspekte
aspektet
aspekteve
aspekti
aspektin
aspiratat
aspx
ass
assembly
assessment
assi
assisi
assistoi
associated
association
ast
aste
asti
astin
astit
aston
astrit
astronom
astronome
astronomi
astronomia
astronomik
astronomike
astronomine
astronomise
astronomy
asturias
at
ata
atalanta
atalante
atatu
ataturku
ataturkut
atdhe
atdhetar
atdhetare
atdhetari
atdheu
atdheun
atdheut
ate
atehere
ateist
ateiste
atentat
atentati
athena
athens
athina
athinas
athinase
athinasit
athine
athletic
ati
atia
atij
atike
atin
atine
atintane
atise
atit
atite
atje
atkinson
atlanta
atlantic
atlantik
atlantikut
atlantique
atlantiques
atlas
atle
atlete
atletike
atmosfera
atmosfere
atmosferik
atmosferike
ato
atom
atome
atomet
atomeve
atomi
atomik
atomike
atomit
atp
atribuar
atribuohen
atribuohet
atribute
atributet
attack
aty
atyre
au
aube
auch
aude
audi
audienca
audience
audio
auditimit
auersperg
auf
auflage
augsburg
august
augusta
auguste
augusti
augustin
augustit
augusto
augustus
aurangzebit
aurel
aurelius
aurora
aus
aushi
austin
australi
australia
australian
australiane
australine
australise
austri
austria
austriak
austriake
austrian
austrine
austrise
austro
autariate
autentik
autentike
author
authority
authors
autizmit
auto
autobiografike
autobiografine
autobus
autobuse
autobusi
autodidakt
autogol
autokton
autoktone
automatik
automatike
automatikisht
automjet
automjete
automjetet
automjeteve
automobilave
automobile
automobilistike
autonom
autonome
autonomi
autonomia
autonomine
autonomise
autoqefale
autor
autore
autori
autorin
autorit
autoritare
autoritet
autoritetet
autoriteteve
autoriteti
autoritetin
autoritetit
autorizuar
autorja
autostrada
autostrade
auvergne
auvernia
aux
av
available
avancimin
avancuar
avancuara
avangarde
avant
avantazh
avantazhin
avare
avatar
avdi
ave
aventura
aventurat
aventure
avenue
aveyron
aviacionit
avion
avione
avioni
avionit
aviv
avni
avokat
avokate
avokati
avokatit
avull
avulli
avullimit
avullit
awadhit
award
awards
away
ax
axel
ay
ayn
ayodhya
ayodhyas
az
azca
azem
azemi
azerbajxhan
azerbajxhani
azerbajxhanit
azi
azia
aziatik
aziatike
azil
azine
azise
aziz
azizi
azkabanit
azoti
azotit
azur
b
ba
bab
baba
babai
babain
babait
babajt
baballare
babane
babe
babilonase
babilonise
babri
baby
bac
baca
bach
bachelor
back
background
bacon
bad
badami
bade
baden
bafta
bagdad
bagdadit
bage
baggio
bagh
bahadur
bahrain
bahreini
bahreinit
bahri
bai
bailey
bains
baix
bajgore
bajo
bajrake
bajraktari
bajraku
bajrakut
bajram
bajrami
bajramit
bakalli
bake
baker
baki
bakr
bakri
bakrit
bakteret
baktereve
baku
bal
bala
balada
balade
balaj
balance
balancuar
baldwin
bale
balearik
balena
balenat
balenave
balene
balerin
balerine
baleti
baletit
bali
balkan
balkans
ball
balla
ballafaqohet
balle
balli
ballin
ballina
balliste
ballit
ballkan
ballkani
ballkanik
ballkanike
ballkanin
ballkanit
ballore
balsha
balshajt
balshajve
balshe
balta
balte
baltik
baltike
baltimore
bamir
bamire
ban
banaras
banarsidass
band
banda
bandat
bandave
bande
bandite
banesa
banesat
banesave
banese
bang
bangalore
bangladesh
bangladeshi
bangladeshit
bani
banim
banimi
banimit
banja
banjat
banje
banjo
bank
banka
bankar
bankare
bankat
bankave
banke
banks
banojne
banon
banonin
banonte
banor
banore
banoret
banoreve
banori
banu
banuar
banuara
baptiste
bar
bara
barabarta
barabarte
barack
barazi
barazia
barazim
barazime
barazimi
barazimin
barazimit
barazine
barazise
barazoi
barazuar
barbados
barbadosit
barbar
barbara
barbare
barbi
barc
barcelona
barcelone
bardh
bardha
bardhe
bardhi
bardhyl
bardhyli
bardi
bare
bari
barin
barinjte
barishtore
barit
baritore
bariu
bark
barke
barker
barku
barkun
barkut
barleti
barnave
barnes
barney
barngre
barni
barok
baroke
barokut
baron
baroni
barra
barre
barrichello
barry
bart
barte
bartet
bartholdy
bartin
bartjen
bartolome
bartolomeo
bartur
bas
basadi
base
based
basel
basha
bashk
bashkangjit
bashkangjitur
bashkatdhetare
bashkautor
bashkautore
bashke
bashki
bashkia
bashkiak
bashkiake
bashkie
bashkim
bashkimi
bashkimin
bashkimit
bashkine
bashkise
bashkite
bashkive
bashkohej
bashkohen
bashkoheshin
bashkohet
bashkoi
bashkojne
bashkon
bashkonte
bashkpunim
bashku
bashkua
bashkuan
bashkuar
bashkuara
basic
basil
basketball
basketboll
basketbolli
basketbollist
basketbolliste
basketbollit
basquiat
bass
basse
bast
bastisja
bastisje
bastisjes
bat
batalione
batalioni
batalionin
batalionit
bateri
bateria
baterite
batista
batman
bato
battista
battle
batu
baudouin
bavareze
bavaria
bavarise
bay
bayer
bayern
bayerni
bayernin
bayernit
bayreuth
baza
bazament
bazat
bazave
baze
bazike
bazilika
bazilike
bazohej
bazohen
bazohet
bazua
bazuar
bazuara
bbc
bc
bd
be
beach
bean
bear
beast
beat
beatles
beatrix
beaumont
beautiful
beauty
bebe
bec
became
because
beci
beck
beckham
become
bedri
bee
been
beethoven
befasi
befasuar
befasuese
before
beg
begate
begin
beginning
begolli
behavior
behej
behet
behgjet
behind
behluli
bei
being
bej
beje
bejko
bejlere
bejne
bekim
bekimin
bekri
bektash
bektashi
bektashiane
bekuar
bel
bela
belfort
belg
belge
belgium
belgjika
belgjike
belgrade
beli
bell
bella
belle
bellini
bello
belmont
belushi
ben
benares
bend
bende
bendi
bendit
bendtner
bene
benedetto
benedikti
benfica
benfice
bengal
bengali
bengalit
beni
benigni
benin
benito
benjamin
bennett
bente
bentheim
bentley
benu
benz
benzine
beograd
beogradi
beogradit
beqare
beqir
beqiri
ber
berat
berati
beratit
berbere
bere
berg
bergen
berger
bergman
beri
berisha
berishe
berkeley
berlin
berlini
berlinit
bern
bernabe
bernard
bernardo
bernburg
bernd
berne
bernhard
bernstein
bertrand
bes
besa
besanc
bese
besiana
besiane
besim
besime
besimet
besimeve
besimi
besimin
besimit
besimtar
besimtare
besnik
besnike
besohej
besohet
besoi
besoj
besojme
besojne
beson
besonin
besonte
best
besua
besuan
besuar
besueshe
besueshme
bet
beta
beteja
betejat
betejave
beteje
betim
betimi
betimin
betimit
betoni
better
betty
betua
betuar
between
beu
beun
beut
beverly
bey
beyond
bfi
bg
bhagwan
bhairava
bhairave
bharat
bi
biasi
bibe
bibi
bibla
bible
biblik
biblike
bibliografi
bibliografia
biblioteca
biblioteka
bibliotekat
bibliotekave
biblioteke
bic
bicaj
bie
bien
big
bihar
biharit
bij
bija
bijat
bije
bijte
bijve
bilal
bilanci
bilancio
bilbao
bilbili
bild
bile
bileta
biletave
bill
billboard
billy
bima
bime
bimet
bimi
bimin
bimit
bimor
bimore
bin
binar
binare
binc
bind
binde
bindet
bindi
bindja
bindje
bindjen
bindjet
bindte
bindur
binin
binjake
bint
binte
bio
biodiversitetit
biografi
biografia
biografik
biografike
biografine
biografite
biographical
biography
biologe
biologji
biologjia
biologjik
biologjike
biologjine
biologjise
biology
biomjeke
bipolar
bir
bird
bire
biri
birin
birit
birkenfeld
birla
birley
birmania
birmingham
birra
birre
birth
bis
biseda
bisedat
bisedave
bisede
bisedime
bisedimet
bisedimeve
biseduar
bisha
bishave
bishe
bisht
bishta
bishti
bishtin
bishtit
bismarck
bistrica
bistrice
bit
bite
bizanti
bizantin
bizantine
bizantit
bizhuteri
biznes
biznese
bizneset
bizneseve
biznesi
biznesin
biznesit
biznesmen
biznesmene
bjelloruse
bjellorusi
bjellorusia
bjellorusise
bjere
bjeshke
bjo
bk
bksh
black
blackburn
blackwell
blair
blake
blanc
blanco
blankenburg
ble
bleach
blegtorale
blegtori
blegtoria
blegtorise
blejne
blene
blere
blerim
blerja
blerje
blerjen
blerjes
blerta
blerte
bleta
blete
bleu
blinduar
blinduara
blinte
bllaca
bllace
bllok
bllokade
blloku
bllokuan
bllokuar
bllokun
bllokut
blloqe
blloqet
blloqeve
block
blog
blogspot
blood
blu
blue
blues
blunt
bmatrix
bmo
bmw
bo
board
bob
bobby
boc
boca
boccaccio
bodrum
body
boeing
bogdan
bogdani
boge
bohemia
bohemise
boi
bois
boje
boke
boks
boksier
boksiere
boksit
boldsymbol
boletini
bolivi
bolivia
bolivise
bolle
bollshe
bollshme
bologna
bolonja
bolonje
bolshevike
bolton
bomb
bomba
bombardimet
bombardimeve
bombardimi
bombardimin
bombe
bombejit
bon
bonaparte
bonaventura
bond
bone
bonn
bono
book
books
booksources
boom
booth
boppard
bora
bord
bordeaux
border
bordi
bordin
bordit
bore
borgjeze
borgjezise
boric
boris
borja
borje
born
borussia
borxh
borxhi
borxhit
bos
bosforit
bosh
boshe
boshlle
boshnjak
boshnjake
boshnjaku
bosht
boshti
boshtin
boshtit
bosnia
bosnja
bosnje
bosnjes
boston
bostonit
bot
bota
botanik
botanike
bote
boten
boterore
botes
both
botim
botime
botimet
botimeve
botimi
botimin
botimit
botohej
botohen
botohet
botoi
botoje
boton
botonte
botticelli
botua
botuan
botuar
botuara
botues
botuese
botuesi
botuesit
bouches
boulogne
bourg
bourgogne
bovide
box
boy
boys
br
bra
brabanta
brad
bradford
brady
brahim
brahimi
brahma
brahmine
brahms
brain
braktis
braktise
braktisi
braktisin
braktisjes
braktiste
braktisur
brandenburg
brandt
branko
brankovic
brasil
brasileiro
braun
braunschweig
brave
bravo
brawn
brazil
brazili
brazilian
braziliane
brazilin
brazilit
bre
break
bredhi
breg
bregas
bregdet
bregdetar
bregdetare
bregdeti
bregdetin
bregdetit
bregore
bregu
bregun
bregut
breivik
brejte
bremen
brenda
brende
brendi
brendshe
brendshme
brenner
brescia
breshe
breshka
breshke
breslau
brest
bretagne
brez
breza
brezat
brezave
brezi
brezin
brezit
bri
brian
bridge
brief
brien
brigada
brigadat
brigadave
brigade
bright
brigjet
brigjeve
brill
brinja
brinje
brire
briri
brishte
bristol
britain
britanez
britaneze
britani
britania
britanik
britanike
britanine
britanise
britannica
british
broadcasting
broadway
brock
brod
brodit
broken
bromwich
bronx
bronxi
bronxit
bronz
bronze
bronzi
bronzit
bronzte
brook
brooke
brooklyn
brooks
bros
broshure
brother
brothers
brown
broz
brss
bru
bruce
bruksel
brukselit
brumi
brunei
bruneit
brunelleschi
bruno
brunswick
brutale
bruto
bruyne
bryan
bryant
bs
bsc
bts
bu
bua
bualli
buan
buar
buc
buck
bucures
buda
budapest
buddha
buddhist
bude
budist
budiste
budize
budizmi
budizmin
budizmit
buenos
buffalo
buffon
buganda
bugatti
buggy
bugs
buhariu
building
buildings
bujanit
bujanoc
bujanocit
bujar
bujare
bujari
buje
bujku
bujqe
bujshme
bujt
buka
buke
bukhara
bukur
bukura
bukure
bukuresht
bukureshtit
bukuri
bukuria
bukurine
bukurise
bukurite
buletini
bulevardi
bulgaria
bulgarian
bulku
bull
bulletin
bullgar
bullgare
bullgari
bullgaria
bullgarine
bullgarise
bullgarisht
bulqize
bum
buna
bundesarchiv
bundesliga
bundeslige
bundy
bune
bunjaku
bunker
bunny
bunyoro
buonarroti
bureau
burg
burgess
burgim
burgje
burgjet
burgjeve
burgos
burgose
burgoset
burgosur
burgosuri
burgosurit
burgosurve
burgu
burgun
burgut
burim
burime
burimesh
burimet
burimeve
burimi
burimin
burimit
burimor
burimore
burkina
burning
burns
burojne
buron
burr
burra
burrash
burrat
burrave
burre
burrel
burrelit
burri
burrin
burrit
bursa
burse
burton
burundi
bury
bus
busaid
bush
bushati
bushi
business
bust
busti
but
buta
butani
butanit
bute
butka
butler
butrint
butrinti
butrintit
butterfly
button
buu
buxhet
buxheti
buxhetin
buxhetit
buza
buze
buzuku
by
bylis
bylisit
byroja
byron
byrose
bytyc
bytyqi
byzantine
c
ca
cache
caen
caesar
cafe
cahill
cake
cakran
caktimin
caktohen
caktohet
caktoi
cakton
caktua
caktuan
caktuar
caktuara
calais
calcio
caldero
california
call
called
calvados
calvin
camaj
cambridge
came
cameo
cameron
cami
camille
camillo
camp
campaign
campbell
campeonato
campo
campus
can
cana
canada
canadian
canal
cani
canis
cannes
cantabria
cantal
canton
canyon
canzone
canzoniere
capcom
cape
capello
capital
capone
cappella
captain
car
cara
caravaggio
card
cardiff
care
career
cari
carit
carl
carla
carlo
carlos
carmen
carnegie
carol
carolina
caroline
carrara
carrie
carroll
carter
cas
casa
case
cases
casillas
cassius
cast
castello
castile
castilla
castillo
castle
castriota
castro
cat
catalogue
catalunya
categoria
category
cathedral
catherine
catholic
cato
causa
caushi
cavalcanti
cave
caves
cbs
cc
cd
cdc
cdo
cdot
cdots
cdu
ce
cech
cecil
cecilia
ceka
ceke
cekur
cele
cell
celsius
celta
celtic
celular
celulare
censure
census
censusit
cent
center
centimetra
centraal
central
centralizuar
centre
centro
centuries
century
ceo
cep
cepa
cerchiari
cerek
ceremoni
ceremonia
ceremonial
ceremoniale
ceremonine
ceremonise
ceremonite
ceremonive
ceres
cern
cernica
cernice
certain
certificate
certifikata
certifikate
cervantes
cesare
cesena
cest
cet
cetine
cetinje
ceylon
cezari
cezarit
cf
cfare
ch
cha
chaitya
chakra
challenge
challenges
chalukya
cham
chamakh
champagne
champion
champions
championship
chams
chan
chanakya
chandra
chandragupta
chanel
chang
change
changes
channel
chaos
chapelle
chapman
chapter
character
characters
charbagh
charente
charentes
charles
charlie
charlotte
chart
chase
che
check
chekhov
chelsea
chemical
chemistry
chen
cheng
chennai
chennait
cher
chhatri
chi
chiang
chicago
chief
chievo
child
childhood
children
china
chinese
ching
cho
choice
chola
cholas
chopper
chorus
chris
christ
christian
christie
christina
christine
christmas
christoph
christophe
christopher
chronicle
chu
chuck
chun
chung
church
churchill
ci
cia
ciceroni
ciceronit
cid
cielo
cigane
cigare
cike
cikle
ciklet
cikli
ciklike
ciklin
ciklit
cila
cilat
cilave
cile
cilen
ciles
cilet
cili
cilin
cilinde
cilindrike
cilit
cimabue
cine
cinema
cio
cipher
circle
circuit
cirilik
cirku
cisco
cit
citation
cite
cited
cities
citim
citimi
citohet
citon
citrus
citta
cituar
city
cityt
ciudad
civeti
civil
civile
civilisation
civilization
civilizimit
ck
cka
cken
cl
cla
claire
clara
clarence
clark
clarke
clash
class
classic
classical
classici
classics
classification
claude
claudia
claudio
claudius
cle
clean
clemens
clement
clermont
cleveland
clifford
clint
clinton
clio
clive
close
cloud
club
cm
cmimi
cmimin
cnn
co
coast
coca
code
codex
cohen
col
cola
cold
cole
colin
collected
collection
college
collins
colo
colombo
colonna
color
colorado
columbia
columbus
com
come
comedy
comes
comic
comics
coming
command
commander
commedia
commentary
commission
committee
commodus
common
commons
communication
communications
communist
communities
community
como
companion
company
comparative
compendio
compilation
complete
complex
composition
compton
computer
computing
comte
con
conan
concacaf
concept
concert
concerto
concise
conde
conference
conflict
congress
connecticut
connor
conquest
conrad
conservation
considered
constance
constant
constantine
constitution
construction
contact
containing
conte
contemporary
content
contest
context
continuum
contribution
control
convention
cook
cool
cooper
copa
copat
cope
copenhagen
coppa
copy
corazo
core
corleone
cornelius
cornell
corporation
corpus
corre
corriere
corse
corun
cos
cosimo
costa
costello
could
council
count
counter
countet
countries
country
county
coupe
course
court
cov
cover
covid
cox
cp
cpu
craig
crataegus
crawford
cray
cre
creative
creek
crescent
creuse
crime
crimes
criminal
crisis
cristiano
cristina
cristo
critical
critics
croatia
croatian
croce
cromwell
crop
cropped
cross
crown
cruz
cry
crystal
cs
ct
ctor
cu
cuca
cult
cultural
culturali
culture
cum
cung
cunningham
cup
cura
current
curri
currit
curry
curtis
cut
cw
cycle
cyrih
cyril
d
da
dabi
dabit
daci
dada
dado
dafina
dafine
dag
dahl
dahomey
dai
daily
daimler
daimyo
daja
daje
dajti
dajtit
dake
dakord
dakota
dal
dala
dalai
dale
dali
dalin
dalit
dalja
dalje
daljen
daljes
daljet
dallas
dalle
dallge
dallim
dallime
dallimet
dallimeve
dallimi
dallimin
dallohej
dallohen
dalloheshin
dallohet
dallojme
dallojne
dallon
dallua
dalluan
dalluar
dalluara
dallues
dalluese
dallueshe
dallueshme
dalmaci
dalmacia
dalmacise
dalmate
dalton
dalur
dam
dama
damask
damasku
damaskut
dame
dan
dana
dance
dancing
danez
daneze
dani
daniel
daniele
danilo
danimarka
danimarke
danish
danny
dans
dante
dantes
dantja
danub
danubit
daphne
dar
dara
dardan
dardane
dardani
dardania
dardanise
dardha
dardhe
dark
darka
darke
darko
darmstadt
daro
darwaza
darwin
daryl
das
dashamire
dashashvamedha
dashi
dashje
dashnor
dashur
dashura
dashure
dashuri
dashuria
dashurie
dashurin
dashurine
dashurise
dashurit
dashurohet
dashurore
dashuruar
dasma
dasme
dass
data
database
databaza
datat
date
datohet
datojne
daton
datuar
daughter
daulah
daulle
daut
dauti
dave
david
davidi
davidit
davies
davis
dawn
day
days
db
dc
dd
de
dea
dead
deal
dean
death
debat
debate
debatet
debati
debatin
debatit
debatuar
deborah
debutimi
debutimin
debutimit
debutoi
debutuar
debutues
dec
december
decimal
deco
decorated
deda
dede
dedikohet
dedikuar
dedikuara
dedja
dee
deep
default
defense
definition
definuar
defterin
dega
dege
degli
dehur
dei
deir
dejan
deje
dekada
dekadat
dekadave
dekade
dekan
deklarata
deklaratat
deklarate
deklaroi
deklarojne
deklaron
deklaronte
deklarua
deklaruan
deklaruar
dekorata
dekorate
dekorativ
dekorative
dekorim
dekorime
dekorimet
dekorimi
dekorimin
dekorimit
dekorohet
dekorua
dekoruar
dekoruara
dekoruese
dekret
dekreti
dekretin
del
delaware
delc
dele
delegacion
delegacioni
delegacionin
delegacionit
delegat
delegate
delet
deleve
delfine
delfini
delhi
delhit
deli
delia
delikate
delja
dell
della
delle
delmate
delta
delte
delvina
delvine
dem
dema
demac
demaku
deme
demetrio
demi
demir
demiraj
demiri
demit
demo
democracy
demografi
demografia
demografico
demografik
demografike
demokraci
demokracia
demokracine
demokracise
demokrat
demokrate
demokratik
demokratike
demon
demone
demonstrata
demonstratat
demonstratave
demonstrate
demonstroi
demonstron
demonstruar
dempsey
den
dende
dendur
dendura
denis
denje
denmark
dennis
densitet
densiteti
densitetit
dentare
departament
departamente
departamentet
departamenteve
departamenti
departamentin
departamentit
departametin
department
depe
depo
deportivo
depot
depozita
depozitat
depozite
depozituar
depresion
depresioni
depresionin
depresionit
depresive
depression
deputet
deputete
deputeti
deputetit
der
dera
derbi
derbin
derby
derdhen
derdhet
derdhja
derdhje
derdhjen
derdhjes
derdhur
dere
derek
deri
derisa
derivatet
derivati
derrat
derri
derrit
dervish
dervishi
des
description
desh
deshe
deshi
design
desktop
despot
despotatit
despoti
despotit
dessau
destani
destinacion
destinacionet
destinacioni
destinuar
destinuara
destiny
destruction
det
detail
details
detaj
detaje
detajet
detajeve
detajuar
detajuara
detar
detare
dete
detective
detektivi
detet
deteve
deti
detin
detit
detroit
detyra
detyrat
detyrave
detyre
detyrim
detyrime
detyrimet
detyrimeve
detyrimi
detyrimisht
detyrohej
detyrohen
detyrohet
detyroi
detyron
detyronte
detyrua
detyruan
detyruar
detyruara
detyrueshe
detyrueshme
deutsch
deutsche
deutschen
deutscher
deutschland
deux
deva
deve
development
devi
devil
devit
devoll
devolli
devollit
devotshe
devotshme
dewey
dfb
dh
dha
dhaja
dhane
dharma
dhate
dhcp
dhe
dhelpe
dhelpra
dhelprat
dhelprave
dhelpre
dhembje
dhena
dhenat
dhenave
dhene
dhenj
dhenje
dhenjte
dheu
dheut
dhi
dhia
dhiate
dhimbja
dhimbje
dhimbjen
dhimbjes
dhimbjet
dhimbjeve
dhimbshme
dhimite
dhimitri
dhimitrit
dhite
dhive
dhjeta
dhjete
dhjetor
dhjetore
dhjetori
dhjetorit
dhjetra
dholavira
dhoma
dhomat
dhomave
dhome
dhuna
dhune
dhunshe
dhunshme
dhunti
dhurata
dhuratat
dhurate
dhurime
dhurohet
dhuroi
dhurua
dhuruar
di
dia
diabet
diabeti
diabetit
diagnostikuar
diagnoza
diagnoze
diagram
diagrami
dialekt
dialekte
dialektet
dialekteve
dialekti
dialektin
dialektit
dialektore
dialog
dialogu
dialogun
dialogut
diamante
diamanti
diamete
diametri
diamond
diana
diane
diaspora
diaspore
diatezave
diateze
diaz
dibe
dibra
dibrane
dibre
dic
dick
dicka
dickens
dictionary
did
didaktik
didaktike
didier
die
diego
diel
diela
diele
diell
dielli
diellin
diellit
diellor
diellore
dies
diese
diesel
dieta
diete
dieter
dietrich
diferenca
diference
diferencial
diferenciale
diferencimi
diferencimit
diferencuar
different
diga
digambar
dige
digital
digitalb
digjet
digjital
digjitale
dihej
dihen
dihet
dija
dije
dijen
dijeni
dijes
dijetar
dijetare
dijetari
dijshe
dijshme
dike
diktator
diktatori
diktatorial
diktatorit
diktatura
diktature
diku
dikujt
dikur
dikurshe
dikurshme
dikush
dilnin
dilte
dime
dimension
dimensional
dimensionale
dimensione
dimensionet
dimensioni
dimitri
dimitrov
dimra
dimrat
dimri
dimrin
dimrit
din
dinake
dinamik
dinamika
dinamike
dinamo
dinamos
dinare
dinasti
dinastia
dinastike
dinastine
dinastise
dinastite
dinastive
dine
dini
dinin
dinjitet
dinjitetin
dino
dinte
dio
diode
diokleciani
dioksidit
dionisi
dionysos
dioqeza
dioqeze
diploma
diplomaci
diplomacia
diplomacine
diplomacise
diplomat
diplomate
diplomatik
diplomatike
diplome
diplomimit
diplomohet
diplomoi
diplomua
diplomuar
diplomuarit
direct
direction
director
direkt
direkte
dirichlet
dirigjent
disa
disavantazh
discovery
disertacionin
disfata
disfate
dishepujt
disi
disiplina
disiplinat
disiplinave
disipline
disiplinore
disk
diskografia
diskografike
diskrete
diskriminim
diskriminimi
diskriminimin
diskriminimit
disku
diskun
diskut
diskutim
diskutime
diskutimet
diskutimeve
diskutimi
diskutimin
diskutimit
diskutohet
diskutoi
diskutojne
diskuton
diskutua
diskutuan
diskutuar
diskutueshe
diskutueshme
disney
dispersioni
displaystyle
disponueshe
disponueshme
dispozicion
dispozitat
dispozitave
disqe
disqet
disqeve
distanca
distance
distribution
district
distrikt
distrikte
distrikti
distriktin
distriktit
dit
dita
ditar
ditare
ditari
ditarin
dite
diten
ditet
ditions
ditor
ditore
ditur
dituri
dituria
diturine
diturise
diversitet
diversiteti
diversitetin
diversitetit
divisio
division
divizion
divizione
divizionet
divizioni
divizionin
divizionit
divjake
divorcuan
divorcuar
divya
dixhital
dixhitale
diz
dizajn
dizajne
dizajni
dizajnin
dizajnit
dizajnuar
dizajnuara
dizdari
dizenjuar
dizionario
dj
djal
djale
djali
djalin
djalit
djalli
djallit
djalosh
djaloshi
djathe
djathi
djathta
djathtas
djathte
dje
djege
djegia
djegie
djegien
djegies
djegur
djegura
djem
djemt
djemte
djemve
djepi
djerse
dl
dmitri
dmth
do
dobe
dobi
dobishe
dobishme
doc
docent
docs
doctor
document
documentary
documents
doda
dode
dodona
dodone
does
doflamingo
dog
dogana
dogane
doganor
doganore
dogj
dogje
dogji
dogs
doi
doja
doje
dok
doke
dokle
doktor
doktorate
doktorature
doktore
doktori
doktrina
doktrine
dokument
dokumenta
dokumentacioni
dokumentar
dokumentare
dokumentari
dokumente
dokumentet
dokumenteve
dokumenti
dokumentin
dokumentit
dokumentuar
dokumentuara
dokush
dolce
dole
doli
dollar
dollare
dollari
dom
domain
domate
dome
domene
domenico
domenin
domethe
domi
dominante
domingo
dominikane
dominimi
dominimin
dominimit
dominioneve
dominique
dominojne
dominon
dominonte
dominuar
dominues
dominuese
domosdoshe
domosdoshme
don
donald
donatello
donatore
done
donetsk
doni
donika
donin
donje
donna
donovan
donte
doo
door
doors
dopiete
dora
dordogne
dore
doreza
doreze
dorian
dorik
doris
dorothy
dortmund
dortmundi
dortmundit
dos
dosja
dosje
dosjet
dot
douard
double
doubs
doug
douglas
dover
down
download
doza
doze
dp
dq
dr
dracula
draft
drag
draga
dragan
dragash
dragoi
dragoit
dragon
drake
drama
dramat
dramatik
dramatike
dramaturg
dramaturge
drame
drastike
dravida
dravidian
dravidiane
dre
dream
dreams
drei
drejt
drejta
drejtat
drejtave
drejte
drejti
drejtim
drejtime
drejtimet
drejtimeve
drejtimi
drejtimin
drejtimit
drejtke
drejtohej
drejtohen
drejtoheshin
drejtohet
drejtoi
drejtoje
drejtojne
drejton
drejtonte
drejtor
drejtore
drejtoreshe
drejtori
drejtoria
drejtorin
drejtorine
drejtorise
drejtorit
drejtpe
drejtshkrimit
drejtua
drejtuan
drejtuar
drejtuara
drejtues
drejtuese
drejtuesi
drejtuesit
drejtuesve
dreke
drenas
drenasit
drenica
drenice
drere
dreri
drerit
dress
dridhje
drin
drini
drinin
drinit
drishtit
drita
dritan
dritare
dritares
dritaret
dritareve
dritarja
dritat
drite
drithe
drive
dro
droga
droge
drop
dru
drums
drure
druri
drurit
drusore
ds
dt
du
dua
duam
duan
duar
duart
duarte
duartrokitje
duarve
dubai
dublimi
dublin
dublohet
dubluar
dublues
dubrovnik
dubrovnikut
duc
duccio
duck
dudaj
due
duel
duet
duhan
duhani
duhanit
duhej
duhen
duheshin
duhet
duhur
duhura
duk
duka
dukagjin
dukagjine
dukagjini
dukagjinit
dukat
dukati
dukatit
duke
dukej
duken
dukesha
dukeshin
duket
dukje
dukshe
dukshme
dukuri
dukuria
dukurite
dukurive
duma
dumrese
duncan
duomo
dur
duraku
durch
durga
durge
durham
durim
during
duro
durre
durres
dus
dushan
dushanit
dushi
dushk
dushku
dushkut
dutch
dvd
dwarka
dwight
dx
dy
dybala
dyer
dyert
dyerve
dyfishta
dyfishte
dyfishuar
dygjuhe
dygole
dyja
dyjave
dykate
dylan
dylli
dymbe
dynamo
dynasty
dyndjeve
dypale
dyqan
dyqane
dyqanet
dyqaneve
dyqani
dyqanin
dyqind
dyrrah
dyrrahut
dysh
dyshe
dysheme
dyshemeja
dyshemene
dyshemese
dyshim
dyshime
dyshimet
dyshimi
dyshimte
dyshja
dyshohet
dyshuar
dyta
dyte
dythundrake
dyti
dytin
dyve
dyvjec
dyzet
dz
e
ea
each
eagle
eagles
earl
earliest
early
earth
east
eastern
easy
eb
ebert
ebi
ebu
ec
ece
eci
ecin
ecja
ecje
ecjen
ecjes
eck
economic
economics
economy
ecte
ecur
ecurine
ed
eddie
eden
edgar
edge
edhe
edhepse
edi
edicion
edicione
edicionet
edicioni
edicionin
edicionit
edinburg
edinburgh
edinburgut
edison
edit
edited
edith
edition
editions
editor
editore
editorial
editors
editrice
edizioni
edmond
edmund
edo
eds
edu
eduard
eduardo
education
educational
edukata
edukate
edukativ
edukative
edukativo
edukatore
edukim
edukimi
edukimin
edukimit
edukuar
edward
edwards
edwin
ee
ef
efekt
efekte
efektet
efekteve
efekti
efektin
efektit
efektiv
efektive
efektivisht
efektivitetin
efektshme
efendi
efendiu
effect
effects
efic
efikas
efikase
efikasitet
efikasiteti
efikasitetin
efikasitetit
ege
egitto
egje
egjeut
egjipt
egjipti
egjiptian
egjiptiane
egjiptin
egjiptit
egnatia
egon
egra
egypt
egyptian
egzistojne
egziston
eh
ei
eichmann
eight
ein
einaudi
eine
einem
einer
eines
einstein
eintracht
eisenhower
ej
eja
ejup
ek
eke
eki
ekic
ekip
ekipe
ekipet
ekipeve
ekipi
ekipin
ekipit
eko
ekologjia
ekologjik
ekologjike
ekonomi
ekonomia
ekonomik
ekonomike
ekonomikisht
ekonomiko
ekonomine
ekonomise
ekonomist
ekonomiste
ekonomite
ekonomive
ekosllovaki
ekosllovakia
ekosllovakise
ekran
ekranet
ekrani
ekranin
ekranit
ekrem
ekskluziv
ekskluzive
ekskluzivisht
ekspedita
ekspeditat
ekspedite
eksperienca
eksperience
eksperiment
eksperimental
eksperimentale
eksperimente
eksperimentet
eksperimenteve
eksperimenti
ekspert
eksperte
ekspertize
eksplicite
eksploruar
eksplorues
eksplozive
eksponente
eksport
eksportet
eksporti
eksportit
ekspozimi
ekspozimin
ekspozimit
ekspozita
ekspozitat
ekspozitave
ekspozite
ekspozuar
ekspozuara
ekspres
ekspresive
ekstra
ekstrem
ekstreme
ekstremiste
eku
ekuacion
ekuacione
ekuacionet
ekuacioneve
ekuacioni
ekuacionin
ekuacionit
ekuador
ekuadori
ekuadorit
ekuatoriale
ekuatorit
ekuilibe
ekuilibri
ekuilibrin
ekuilibrit
ekuilibruar
ekuipazh
ekuipazhi
ekuipazhin
ekuipazhit
ekuivalent
ekuivalente
ekuivalenti
ekumenike
ekzakte
ekzaminimi
ekzaminuar
ekzekutim
ekzekutimet
ekzekutimi
ekzekutimin
ekzekutimit
ekzekutiv
ekzekutive
ekzekutohen
ekzekutohet
ekzekutua
ekzekutuan
ekzekutuar
ekzemplar
ekzemplare
ekzistenca
ekzistence
ekzistenciale
ekzistoje
ekzistojne
ekziston
ekzistonin
ekzistonte
ekzistuar
ekzistuari
ekzistues
ekzistuese
ekzotike
el
ela
elagabalus
elastike
elbasan
elbasani
elbasanit
elbe
elbi
elder
ele
elebi
electric
electronic
elefant
elefante
elefanti
elefantit
elegance
elegant
elegante
elektorale
elektricitetit
elektrik
elektrike
elektro
elektromagnetik
elektromagnetike
elektron
elektrone
elektronet
elektroneve
elektronik
elektronike
elektrostatike
elektroteknike
element
elementare
elemente
elementet
elementeve
elementi
elementin
elementit
elements
eleminim
eleminua
eleminuar
elena
elez
elezi
elezit
eli
elia
elias
elik
eliku
elikut
eliminim
eliminimin
eliminua
eliminuan
eliminuar
elin
eliot
eliptike
elisabeth
eliste
elita
elitare
elite
eliza
elizabeta
elizabeth
ell
ellade
elle
ellen
elliot
elliott
ellis
ellora
elmaz
elmazi
elo
elsa
elsat
else
elsevier
elsi
elsie
elsin
elsit
elton
elur
elvis
em
ema
email
emanuel
emanuele
emanueli
emblema
embleme
embrionale
eme
emer
emergjence
emergjente
emetimit
emetuar
emi
emigracioni
emigracionit
emigrant
emigrante
emigrimi
emigrimit
emigroi
emigruan
emigruar
emil
emilia
emilio
emily
emin
emir
emiratet
emirateve
emirati
emiri
emision
emisione
emisionet
emisioneve
emisioni
emisionin
emisionit
emma
emmanuel
emmy
emocional
emocionale
emocionalisht
emocione
emocionet
emocioneve
emperor
empire
empirike
emporda
emra
emrat
emrave
emri
emrin
emrit
emyx
en
ena
enciclopedia
enciklopedi
enciklopedia
enciklopedik
enciklopedike
encyclopaedia
encyclopedia
encyclopædia
end
ende
endemike
ene
energjetik
energjetike
energji
energjia
energjie
energjik
energjike
energjine
energjise
energy
eng
engel
engine
engineering
engje
england
englisch
english
eni
enigma
enigme
enix
enkriptimi
enkriptimit
enkriptuar
eno
enrico
enrique
entertainment
enti
entitet
entitete
entre
entry
entuziaste
entuziaze
enver
environment
environmental
enzima
enzimat
enzime
enzo
eo
ep
epe
epic
epidemi
epik
epika
epike
epilepsi
epilepsia
epilepsise
epir
epiri
epirin
epirit
epirot
epirote
epirus
episkop
episod
episode
episodes
episodet
episodeve
episodi
episodin
epizodet
epizodi
epoka
epoke
epos
eposi
eposin
eposit
eprore
epsilon
eqrem
er
era
erasmus
erc
erdhe
erdhi
ere
eredivisie
erek
eri
eric
erich
erickson
erik
eriksen
erion
eritrea
erkeze
ermal
ernest
ernesto
ernst
ero
eros
erotike
erozioni
erre
error
erseke
erste
ertifikate
ertug
ervin
es
esad
esat
esc
escape
ese
eseist
esence
esenciale
esh
eshma
esht
eshte
eshtra
eshtrat
eshtrave
esk
eskan
eskane
esko
esku
eskut
esp
espan
espanyol
espn
essay
essays
essen
essonne
est
esta
estate
este
esteban
estetik
estetika
estetike
estoneze
estoni
estonia
estonise
estrada
estrade
et
eta
etapa
etape
etat
etave
etc
ete
ethe
ethet
ethnic
ethnologue
etik
etika
etike
etiketa
etikete
etiketuar
etimologjia
etimologjine
etiopi
etiopia
etiopiane
etiopise
etj
etnik
etnike
etnikisht
etno
etnografik
etnografike
etnologjik
eto
etruske
etur
eu
euge
eugen
eugene
eugenio
eukariote
euler
eulerit
eulex
euphorbia
eur
eure
euro
euroazi
euroaziatik
europa
europe
european
europian
europiane
eurorilindja
euros
eurosport
eurovision
eurovisionit
eurovizion
eurovizionit
ev
eva
evans
eve
even
event
events
eventuale
eventualisht
ever
everest
everton
evertonit
every
everything
evic
evidence
evidentuar
evil
eviq
evo
evoluan
evoluar
evolucion
evolucionare
evolucioni
evolucionin
evolucionit
evoluoi
evolution
evropa
evrope
evropian
evropiane
ex
example
excel
exchange
exe
exhibition
exlibris
experience
experiment
explorer
expo
exposition
express
extra
eye
eyes
ez
ezari
f
fa
faber
fabian
fabio
fabrika
fabrikat
fabrike
fabula
fac
face
facebook
fact
facto
factor
facts
faculty
fadil
fahd
fahri
faik
fair
fairy
faisal
faith
faj
faje
fajin
fajtor
fajtore
fakt
fakte
faktet
fakteve
fakti
faktikisht
faktin
faktit
fakto
faktor
faktore
faktori
faktorit
fakultet
fakultete
fakultetet
fakulteti
fakultetin
fakultetit
fal
falas
fale
falen
falet
fali
falja
falje
faljen
faljes
fall
fallho
falling
falls
false
faltore
faltoren
faltores
faltoret
faltoreve
faltorja
falur
fama
fame
famiglia
familia
families
familja
familjar
familjare
familje
familjeje
familjen
familjes
familjet
familjeve
family
famous
famshe
famshme
famshmi
famullitar
fan
fanella
fanelle
fansat
fansave
fantastik
fantastike
fantastiko
fantasy
fantazi
fantazise
fantazme
faq
faqe
faqen
faqes
faqesh
faqet
faqeve
faqja
far
fara
faraday
faradeit
faraone
faraoni
faraonin
faraonit
farat
fare
farke
farm
farmaceutike
farmaci
faroe
faruk
fasada
fasade
fashion
fashist
fashiste
fashizmit
faso
fast
fasule
fat
fatal
fatale
fate
fatehpur
fatet
father
fati
fatih
fatime
fatin
fatit
fatkeqe
fatmir
fatmire
fatos
fature
fauna
faune
favor
favorite
favorizuar
favorshe
favorshme
faza
fazat
fazave
faze
fazli
fazliu
fbi
fc
fe
fear
feat
feature
features
featuring
feb
february
federal
federale
federata
federate
federation
federative
federico
fehmi
fehmiu
feim
feisal
feja
feje
fejesa
fejzullahu
felice
felipe
felix
fellow
female
feme
femije
femijet
feministe
femra
femrat
femrave
femre
fen
fene
fenerbahc
fenere
feniksit
fenja
fenomen
fenomene
fenomenet
fenomeneve
fenomeni
fenomenin
fer
ferdinand
ferdinandi
ferenc
ferguson
ferid
ferit
ferizaj
ferizajit
ferizajt
ferma
fermat
fermave
ferme
fermentimi
fermentimit
fermere
ferna
fernando
ferr
ferrara
ferrari
ferrarit
ferrer
ferri
ferrit
fese
fest
festa
festat
festave
feste
festimet
festimeve
festimi
festival
festivale
festivalet
festivaleve
festivali
festivalin
festivalit
festive
festohet
festoi
festojne
feston
festuar
feta
fetar
fetare
fete
fetusit
fetva
feu
feudal
feudale
feve
few
feyenoord
feyenoordi
feynman
ff
fhd
fi
fia
fiat
fiba
fibe
fibra
fibrat
fibrave
fibre
fiction
ficus
fidane
fidel
field
fields
fier
fieri
fierit
fierze
fifa
fifpro
fifth
fig
fight
fighter
fighting
figura
figurash
figurat
figurativ
figurative
figurave
figure
figurina
figuron
fije
fijes
fijet
fijeve
fikh
fiks
fikse
fiksuar
fiktiv
fiktive
fiku
filadelfia
fildishi
fildishte
file
files
filip
filipi
filipin
filipine
filipinet
filipineve
filipit
filippo
fill
fillestar
fillestare
fillet
fillim
fillimet
fillimi
fillimin
fillimisht
fillimit
filloi
filloj
filloje
fillojne
fillon
fillonin
fillonte
fillor
fillore
fillta
fillte
filluan
filluar
film
filma
filmash
filmat
filmave
filmi
filmik
filmike
filmin
filmit
filmografia
films
filmuar
filo
filogjenetike
filolog
filologji
filologjik
filologjike
filologjise
filozof
filozofal
filozofe
filozofi
filozofia
filozofik
filozofike
filozofine
filozofise
filozofit
filte
filxhan
fim
fime
fimet
fimi
fimin
fimit
fin
final
finale
finalen
finales
finalet
finaleve
finalist
finaliste
finalja
financa
financat
financave
finance
financial
financiar
financiare
financiarisht
financimi
financimin
financimit
financuar
find
finding
fine
finiste
finland
finlanda
finlande
finlandez
finlandeze
finlandisht
fiore
fiorentin
fiorentina
fiorentine
fire
firence
firences
firencia
firenze
firma
firmat
firmave
firme
firmos
firmosi
firmosur
first
fis
fischer
fise
fiset
fiseve
fish
fisheke
fisher
fishta
fishte
fisi
fisin
fisit
fiskal
fiskale
fisnik
fisnike
fisniku
fisnor
fisnore
fit
fitim
fitime
fitimet
fitimi
fitimin
fitimit
fitimprure
fitimtar
fitimtare
fitohen
fitohet
fitoi
fitoj
fitoje
fitojme
fitojne
fiton
fitonin
fitonte
fitore
fitoreje
fitoren
fitores
fitoret
fitoreve
fitorja
fitua
fituan
fituar
fituara
fitues
fituese
fituesi
fituesin
fituesit
fituesve
five
fixhi
fizik
fizika
fizikan
fizikane
fizikant
fizikante
fizike
fizikisht
fiziko
fiziologji
fiziologjike
fjala
fjale
fjali
fjalim
fjalime
fjalimet
fjalimi
fjalimin
fjalimit
fjalise
fjalor
fjalore
fjalori
fjalorin
fjalorit
fjetur
fk
fl
flag
flaka
flake
flakte
flamande
flamuj
flamujt
flamur
flamuri
flamurin
flamurit
flamurtari
flamurtarin
flamurtarit
flas
flase
flash
flasim
flasin
flaut
fle
fleksibe
fleming
flet
fleta
fletave
fletcher
flete
fletore
flickr
flight
flisnin
fliste
flitej
fliten
flitet
floke
flor
flora
flore
floreale
florence
florent
flores
flori
florian
florida
floride
flota
flote
flower
flowers
floyd
fluksi
fluksin
fluksit
fluronvdekja
fluronvdekjes
flutura
fluturim
fluturime
fluturimet
fluturimi
fluturimin
fluturimit
fluturoi
fluturojne
fluturon
fluturuar
fluturues
fluturuese
fly
flying
fm
fmn
fo
focus
foekema
foka
fokat
fokus
fokusi
fokusin
fokusohet
fokusuar
fol
fole
foli
folja
folje
foljes
foljet
foljeve
folk
folklor
folklori
folklorik
folklorike
folklorin
folklorit
following
folur
folura
folure
folurit
fond
fondacioni
fondacionin
fondacionit
fonde
fondet
fondeve
fondi
fondin
fondit
fonetik
fonetike
fontaine
fontainebleau
fontana
fontsize
food
foot
football
for
forbes
forca
forcat
forcave
force
forces
forcimi
forcimin
forcoi
forcuar
ford
foreign
forest
forever
form
forma
formacion
formacione
formacionet
formacioneve
formacioni
formacionin
formacionit
formal
formale
formalisht
format
formatet
formati
formatin
formatit
formave
forme
formen
former
formim
formimi
formimin
formimit
formohej
formohen
formohet
formoi
formoje
formojne
formon
formonin
formonte
forms
formua
formuan
formuar
formuara
formuese
formula
formule
formulimi
formulimin
formuluar
fort
forta
forte
fortesa
fortesat
fortese
fortifikimet
fortifikimeve
fortifikimi
fortifikuar
fortifikuara
fortuna
fortune
forum
forumi
forumin
forumit
foshnja
foshnjat
foshnjave
foshnje
fosile
fosilet
foster
foto
fotograf
fotografe
fotografi
fotografia
fotografik
fotografike
fotografine
fotografise
fotografite
fotografive
fotografuar
foton
fotosinteze
fotot
found
foundation
foundations
four
fourth
fox
fq
fqinj
fqinje
fr
fra
frac
fragment
fragmente
fragmentet
frame
framework
fran
franc
franca
france
frances
francesc
francesca
francesco
francez
franceze
franche
francis
francisca
francisco
francisko
franco
frang
franga
frank
franke
frankfurt
franklin
franko
franky
franz
frashe
frasheri
frat
frauen
fraza
fraze
fre
fred
frederic
frederick
frederik
frederikut
free
freedom
freeman
freiburg
freire
frekuenca
frekuencat
frekuencave
frekuence
french
frengjisht
fresco
freske
freud
frey
fribourg
friedman
friedrich
friend
friends
friesland
frieslandit
frika
frike
frikshe
frikshme
frisch
fritz
friza
fro
from
fron
froni
fronin
fronit
front
frontale
fronti
frontier
frontin
frontit
fru
frusciante
frut
fruta
frutash
frutat
frutave
fruti
frutin
frutit
frutore
fryma
fryme
frymore
fryn
fryre
fryt
fshat
fshatar
fshatare
fshate
fshati
fshatin
fshatit
fshatra
fshatrat
fshatrave
fsheh
fshehe
fshehta
fshehtave
fshehte
fshehur
fshehura
fshehurazi
fshf
fshihen
fshihet
fshike
fshire
fshmn
fsk
ft
fterra
fterre
ftese
ftohe
ftohet
ftohjes
ftohta
ftohte
ftohtit
ftohur
ftoi
fton
ftore
ftp
ftua
ftuan
ftuar
ftuarit
fu
fuad
fuat
fuc
fuga
fulham
full
fund
funde
fundi
fundin
fundit
fundjave
fundme
fundmi
fundore
funeral
funk
funksion
funksional
funksionale
funksionar
funksionare
funksione
funksionet
funksioneve
funksioni
funksionimi
funksionimin
funksionimit
funksionin
funksionit
funksionoi
funksionoje
funksionojne
funksionon
funksiononte
funksionuar
fuqi
fuqia
fuqie
fuqimisht
fuqine
fuqiplote
fuqise
fuqishe
fuqishme
fuqite
fuqive
fuqizimi
fuqizimin
fuqizuar
furc
furierit
furnizim
furnizime
furnizimet
furnizimi
furnizimin
furnizimit
furnizohet
furnizon
furnizuar
furra
furre
further
fuse
fusha
fushat
fushata
fushatat
fushatave
fushate
fushave
fushe
fushen
fushor
fushore
fusion
fustan
fut
futboll
futbolli
futbollin
futbollist
futbolliste
futbollisti
futbollistik
futbollistike
futbollit
fute
futej
futen
futet
futi
futja
futjen
futjes
futur
futura
future
fyer
fyes
fyese
fyt
fytyra
fytyrat
fytyre
g
ga
gabim
gabime
gabimet
gabimeve
gabimi
gabimisht
gabimit
gaboni
gabriel
gabriele
gabuar
gabuara
gac
gadishulli
gadishullin
gadishullit
gaetano
gaius
gala
galaktike
galatasaray
galaxy
galba
gale
galeri
galeria
galerie
galerine
galerise
galerite
gali
galica
galicia
galilei
galileo
galleria
gallery
gallienus
galloway
gama
gamal
gambia
game
games
gamma
gana
gandhi
gane
ganesha
ganeshe
gang
ganga
gangu
gangut
gani
gap
gaqo
gara
garanci
garanton
garantuar
garash
garat
garave
garbhagriha
garci
garcia
gard
garda
garde
garden
gardiane
gardner
gare
garfield
gargano
garnizoni
garnizonin
garnizonit
garoi
garon
garonne
garonte
garp
garuar
garues
garuesit
gary
gas
gashi
gashit
gaspar
gaston
gate
gates
gati
gatim
gatime
gatimi
gatimit
gatishme
gatshe
gatshme
gatuar
gaudi
gaudise
gaulle
gauri
gaurit
gautama
gay
gaya
gaz
gaze
gazeta
gazetar
gazetare
gazetari
gazetarise
gazetarit
gazetat
gazetave
gazete
gazeve
gazi
gazit
gazmend
gazrat
gazrave
gazte
gb
gdhendje
gdhendur
gdhendura
gdp
ge
geass
geer
gega
gege
geisha
gej
gel
gelderland
gen
genc
gender
gene
general
generation
genesis
geneta
genetta
geneva
genoa
genoas
gent
genti
gentian
gentiana
gentile
gentit
geoffrey
geographic
geography
georg
george
georges
georgi
georgia
georgios
ger
gerald
gerard
gerhard
germa
germain
german
germania
germany
gers
geschichte
gesellschaft
get
ghat
ghatet
ghateve
ghati
ghatin
ghatit
ghazi
gheorghe
ghirlandaio
ghost
ghz
gi
giacomo
gian
giancarlo
gianni
gibbon
gibellini
gibson
gif
giggs
gil
gilbert
gilberto
gill
gilles
gimi
gimia
gimine
gimise
gims
gimtar
gimtare
gimtari
gina
gion
giordano
giorgio
giotto
giovanna
giovanni
girl
girls
girolamo
girona
gironde
gis
gisht
gishta
gishtat
gishtave
gishte
gishti
gishtin
gishtit
giuliano
giulio
giuseppe
give
given
givenchy
gize
gj
gja
gjahtare
gjahun
gjahut
gjak
gjakderdhje
gjakova
gjakove
gjakpe
gjaku
gjakun
gjakut
gjalla
gjalle
gjalpe
gjarpe
gjarpri
gjarprit
gjasa
gjasat
gjase
gjashta
gjashte
gjashti
gjat
gjata
gjate
gjati
gje
gjec
gjedhe
gjegje
gjej
gjeje
gjejme
gjejne
gjelbe
gjelbra
gjeli
gjelle
gjeloshi
gjemba
gjen
gjend
gjende
gjendej
gjenden
gjendeshin
gjendet
gjendja
gjendje
gjendjen
gjendjes
gjendjet
gjendjeve
gjendur
gjene
gjeneral
gjenerale
gjenerali
gjeneralin
gjeneralit
gjenerata
gjeneratat
gjeneratave
gjenerate
gjeneratore
gjenerimin
gjenerojne
gjeneron
gjeneruar
gjenet
gjenetik
gjenetika
gjenetike
gjenetikisht
gjeneve
gjeni
gjenin
gjenitale
gjeniu
gjenocid
gjenocidi
gjenocidin
gjenocidit
gjenomit
gjente
gjeo
gjeograf
gjeografe
gjeografi
gjeografia
gjeografik
gjeografike
gjeografikisht
gjeografiko
gjeografine
gjeografise
gjeologji
gjeologjia
gjeologjik
gjeologjike
gjeologjise
gjeometri
gjeometria
gjeometrik
gjeometrike
gjeometrine
gjeometrise
gjeopolitike
gjeorgji
gjeorgjia
gjeorgjiane
gjeorgjise
gjer
gjera
gjere
gjergj
gjergji
gjergjit
gjerman
gjermane
gjermani
gjermania
gjermanike
gjermanin
gjermanine
gjermanise
gjermanisht
gjermanishten
gjermanishtes
gjermanishtja
gjermano
gjersa
gjesh
gjest
gjeste
gjet
gjete
gjethe
gjethes
gjethet
gjetheve
gjeti
gjetja
gjetje
gjetjen
gjetjes
gjetjet
gjetjeve
gjetke
gjetur
gjetura
gji
gjigand
gjigande
gjigant
gjigante
gjika
gjilan
gjilani
gjilanit
gjilpe
gjimi
gjimit
gjimnastike
gjimnaz
gjimnazi
gjimnazin
gjimnazit
gjin
gjinaj
gjinden
gjindet
gjini
gjinia
gjinie
gjinine
gjinise
gjinite
gjinive
gjinor
gjinore
gjiri
gjirin
gjirit
gjirokaste
gjirokastra
gjirokastre
gjitare
gjith
gjitha
gjithanshe
gjithanshme
gjithash
gjithashtu
gjithc
gjithcka
gjithe
gjithmon
gjithmone
gjithnje
gjithsej
gjithsesi
gjo
gjobe
gjohet
gjoi
gjoja
gjoje
gjojne
gjoka
gjokaj
gjoke
gjoks
gjoksin
gjoksit
gjon
gjonaj
gjoni
gjonin
gjonit
gjonte
gjovalin
gju
gjuajne
gjuajte
gjuajti
gjuajtje
gjuajtjet
gjuajtur
gjuan
gjuar
gjuetare
gjueti
gjuetia
gjuetie
gjuetine
gjuetise
gjuha
gjuhe
gjuhen
gjuhes
gjume
gjumi
gjumin
gjumit
gjunje
gjurit
gjurme
gjurmime
gjykata
gjykatat
gjykatave
gjykate
gjykim
gjykime
gjykimet
gjykimi
gjykimin
gjykimit
gjykuar
gjymtyre
gjyq
gjyqe
gjyqi
gjyqin
gjyqit
gjyqtar
gjyqtare
gjyqtari
gjyse
gjyshe
gjyshi
gjyshit
gjyshja
gjysma
gjysme
gladiatore
glasgow
glass
glen
glenn
gli
global
globale
globalizimi
globalizimit
globe
globin
globit
globus
glock
gloria
glory
glu
glukoze
gmbh
gnu
go
goal
god
godase
godet
godfather
godina
godine
godiste
godit
godite
goditi
goditja
goditje
goditjen
goditjes
goditjet
goditjeve
goditur
gods
goes
goethe
goi
going
goja
goje
gojore
goku
gokut
gol
gola
golaj
golashe
golat
golave
gold
golden
goldman
gole
golem
golemi
golf
goli
golin
golit
goma
gomave
gome
gomez
gone
gonza
gonzalez
gonzalo
goo
good
google
gopal
gopurame
gopurami
gora
goran
gorane
gordon
gore
gorilla
gostivar
gostivari
gostivarit
got
gota
gote
gotha
gotik
gotike
gottfried
gov
government
governoratin
gp
gps
gr
gra
grabite
grabitqar
grabitqare
grac
grace
grad
grada
gradat
grade
gradua
gradual
graduale
gradualisht
graf
grafik
grafike
grafiku
graham
gram
gramatika
gramatike
gramatikore
grame
grammar
grammy
gramoz
gramsh
gramshit
gran
granada
grand
grande
granit
graniti
grant
granth
graphic
grate
graubu
grav
grave
gravitacionale
graviteti
gravitetit
gravure
gray
graz
gre
great
greater
greatest
greece
greek
greeks
green
greene
greenwood
greg
gregori
gregorian
gregory
grek
greke
greko
grenoble
greq
greqi
greqia
greqine
greqise
greqisht
greqishten
greqishtes
greqishtfole
greqishtja
greta
greva
greve
grey
gri
griffin
grigor
grimca
grimcat
grimcave
grimce
grindje
grindjet
gripi
gripit
grire
gro
groningen
grop
gropa
gropat
grope
ground
group
groups
grove
growth
gru
grua
gruaja
gruaje
gruan
gruas
gruda
grude
grumbull
grumbullimi
grumbullimin
grumbullimit
grumbullohen
grumbulloi
grumbulluar
grumbulluara
grup
grupe
grupet
grupeve
grupi
grupim
grupime
grupimi
grupin
grupit
grupuar
grure
gruri
grurit
grusht
grushti
grushtit
gruyter
gryka
gryke
gsm
gt
gu
guadalajara
guadalupe
guadeloupe
guajana
guan
guar
guara
guardian
guardiola
guaske
guatemala
guatemale
guci
gucia
gucise
gue
guelders
guell
guerile
guerra
guetta
guevara
guez
guggenheim
gui
guide
guido
guillaume
guillermo
guinea
guinese
guinness
guitar
guittone
gujarat
gumenice
gun
gundam
gunga
guns
gupta
gur
gurakuqi
gurdvara
gure
guri
gurin
gurion
gurit
gurra
gurre
gurte
guru
guruja
gushe
gusht
gushti
gushtit
gustaf
gustav
gustavo
gutenberg
guvernator
guvernatore
guvernatori
guvernatorin
guvernatorit
guxim
guximi
guximin
guximshe
guximshme
guy
gyan
gyanvapi
gyatso
h
ha
haaland
habib
habitat
habitatet
habitateve
habitati
habitatin
habitatit
habitur
habsburge
had
hadi
hadith
hadithe
haditheve
hadithi
hadithit
hadri
hafez
hafiz
hage
hagen
hahet
hahn
haile
haiti
hajati
hajdar
hajdari
hajde
hajdini
hajdute
haje
hajredin
hajrullah
hak
haki
hakim
hakmarre
hakmarrja
hakmarrje
hakmarrjes
haku
hal
hale
halep
halepi
halepit
half
halid
halil
halili
halilit
halim
halimi
halit
haliti
hall
halla
halle
halore
ham
hamad
hamam
hamami
hamamit
hamburg
hamburger
hamburgut
hamdi
hamende
hamid
hamilton
hamiltonit
hamit
hamiti
hamleti
hammer
hammett
hammond
hamorte
hampi
hampshire
hamza
han
hana
hancock
hand
handbook
handel
hands
hane
hani
hanin
hanit
hannah
hannover
hanover
hanoverit
hans
hansen
hanuman
hanumanit
hap
hapa
hapat
hape
hapen
hapet
hapi
hapin
hapja
hapje
hapjen
hapjes
happy
hapsinore
hapsira
hapsire
haptazi
hapte
hapur
hapura
harac
haradinaj
harald
harapa
harapase
harapi
hard
hardhise
hardin
hardware
hardy
hare
hari
haridwar
hark
harku
harkun
harkut
harmandir
harmoni
harmonia
harmonike
harmonine
harmonise
harold
harper
harqe
harqet
harqeve
harrese
harri
harrin
harris
harrison
harrit
harrohet
harruar
harry
hart
harta
hartat
hartave
harte
hartimi
hartimin
hartimit
hartoi
hartua
hartuan
hartuar
hartuara
harun
harvard
harvardit
harvey
harvnb
has
hasa
hasan
hasani
hasanit
hase
hasen
haset
hash
hashim
hasi
hasim
hasin
hasit
haskaj
hassan
hastings
hasur
hat
hatshepsutit
hatun
hau
haus
haut
haute
hautes
hauts
have
haveli
haven
hawaii
hawking
hawkins
haxhi
haxhit
haxhiu
hayek
hayes
hazard
hazir
haziri
hbar
hbo
hd
he
head
header
health
heart
hearts
heat
heath
heaven
heavy
hebraike
hebraisht
hebre
hebreje
hebrenj
hebrenjte
hebrenjve
hechingen
hedh
hedhe
hedhim
hedhin
hedhja
hedhje
hedhjen
hedhjes
hedhur
heidelberg
heinrich
heinz
hej
hektare
hekur
hekuri
hekurit
hekurt
hekurudha
hekurudhat
hekurudhave
hekurudhe
hekurudhor
hekurudhore
held
helen
helena
helene
helenistike
helikopter
helikoptere
helium
hell
hellas
hellenic
hello
helm
helmstedt
helmuar
helmues
helmuese
helmut
help
helsinki
hem
hemingway
hemisfere
hemoglobine
hen
hendbollit
hendek
henderson
henley
henri
henrik
henry
hepatitit
hepburn
heq
heqe
heqin
heqja
heqje
heqjen
heqjes
hequr
hequra
her
hera
herakliu
herakliut
herald
heraldike
herbert
hercegovina
hercegovine
here
heret
heretike
herit
heritage
herman
hermann
hermiona
hermione
herna
hernanes
hero
herodoti
heroes
heroi
heroik
heroike
heroikisht
heroin
heroina
heroine
heroit
heronj
heronjte
heronjve
herrera
hershe
hershme
herzegovina
heshin
heshtja
heshtje
heshtjes
heshtur
hesse
hessen
het
hetfield
hetim
hetimet
hetimeve
hetimi
hetimin
hetimit
hetuar
hg
hi
hibrid
hibride
hidhe
hidhen
hidheshin
hidhet
hidhnin
hidhte
hidhur
hidraulike
hidrocentralet
hidrocentrali
hidrogjen
hidrogjeni
hidrogjenit
hidrografia
hienat
hierarki
hierarkike
hierarkine
hierarkise
higgins
high
higher
higjiene
higuai
hija
hije
hijen
hijes
hijet
hijeve
hijshme
hila
hilafetit
hildesheim
hile
hill
hillary
hills
hilmi
him
himara
himare
himn
himni
himnin
himnit
hindenburg
hindi
hindley
hindu
hinduism
hinduize
hinduizmi
hinduizmit
hindute
hinduve
hip
hipi
hipopotame
hipopotami
hipostile
hipoteza
hipoteze
hipster
hipur
hiqej
hiqen
hiqet
hiqnin
hiqte
hir
hire
hiri
hirin
hirit
hirohito
hiroshima
his
hispanike
histoire
histori
historia
historian
historiane
historiani
historianit
historic
historical
historie
histories
historik
historike
historikisht
historiko
historiku
historikun
historine
historiografia
historiografine
historiografise
historise
historite
historive
history
hit
hitchcock
hite
hitet
hitler
hitleri
hitlerin
hitlerit
hits
hiv
hivzi
hixhri
hkun
hl
hm
hms
ho
hobi
hoc
hodgkin
hodh
hodhe
hodhi
hoffman
hoffmann
hoguorts
hoguortsit
hohenzollern
hoj
hokage
hokej
holanda
holande
holandez
holandeze
holandisht
holding
holl
holla
holland
hollanda
hollande
hollandez
hollandeze
holle
holli
hollywood
holmes
holokaustit
holstein
holy
homazh
homazhe
home
homepage
homer
homeri
homerit
homo
homogjen
homogjene
homologe
homoseksual
homoseksuale
homoseksualiteti
honda
honduras
hondurasi
hondurasit
hong
honor
honore
honoris
honour
hood
hoover
hop
hope
hopkins
hopper
hoq
hoqe
hoqi
hora
hore
horizont
horizontal
horizontale
horizontalisht
horizonte
horizontit
hormone
hormonet
hormoneve
horn
horror
horse
horst
hosni
hospital
host
hot
hotel
hotele
hotelet
hoteli
hotelin
hotelit
hoti
hotit
hotspur
house
houston
hov
how
howard
however
hoxha
hoxhallare
hoxhe
hoysala
hp
hr
hrer
hrsg
hrt
hrung
htm
html
http
https
hu
hua
huahine
huaj
huaja
huajt
huajve
huang
huazim
huazimi
huazimit
huazua
huazuar
hubert
hudhra
hudson
hugh
hughes
hugo
hui
hull
hulumtim
hulumtime
hulumtimet
hulumtimeve
hulumtimi
hulumtimin
hulumtimit
hulumtuar
hulumtues
hulumtuese
hulumtuesit
human
humane
humanist
humaniste
humanitar
humanitare
humanizmi
humanizmit
humb
humbase
humbasin
humbe
humbet
humbi
humbin
humbiste
humbja
humbje
humbjen
humbjes
humbjet
humbjeve
humboldt
humbur
humbura
humor
humori
humoriste
humoristike
humorit
hun
hunda
hunde
hune
hung
hungarez
hungareze
hungari
hungaria
hungarine
hungarise
hungarisht
hungary
hunt
hunter
husein
hussein
hut
hyde
hyderabad
hyje
hyjne
hyjnesha
hyjneshe
hyjni
hyjnia
hyjnine
hyjnise
hyjnite
hyjnive
hyjnizuar
hyjnor
hyjnore
hyka
hylli
hyn
hyne
hynin
hynte
hyre
hyri
hyrja
hyrje
hyrjen
hyrjes
hyrjet
hysa
hysaj
hysen
hyseni
hysi
hysni
hyun
hyundai
hz
i
ia
ian
ibe
iberik
ibm
ibn
ibrahim
ibrahimi
ibrahimit
ibrahimovic
ibrit
ic
ica
icardi
ice
ich
ichigo
icty
id
ida
idaho
ide
idea
ideal
ideale
idealet
idealeve
ideali
idealizuar
ideas
ideja
idene
identifikimi
identifikimin
identifikimit
identifikohen
identifikohet
identifikoi
identifikojne
identifikon
identifikua
identifikuan
identifikuar
identik
identike
identitet
identiteti
identitetin
identitetit
identity
ideologji
ideologjia
ideologjik
ideologjike
ideologjine
ideologjise
idese
idete
ideve
idhuj
idhujt
idhujtare
idhujve
idhull
idhulli
idhullit
idol
idriz
idrizi
ie
ieee
ieyasu
if
iffhs
ift
ifte
iftet
ifteve
ifti
iftit
ifute
ig
ignacio
igor
ihre
ii
iii
ija
ije
ik
ikago
ikagos
ike
ikin
ikje
ikjes
ikko
ikleta
iklete
ikliste
iknin
ikona
ikonat
ikonave
ikone
iktas
ikte
iku
ikur
il
ilac
ilaz
ile
ilegale
ili
ilia
iliada
iliade
iliane
ilir
ilire
iliri
iliria
ilirik
iliriku
ilirikut
ilirine
ilirise
iliro
ilirologjia
ilise
iljaz
ille
illinois
illustrated
illyria
illyrian
illyrians
illyricum
ilo
iluminizmit
ilustrim
ilustrime
ilustrohet
ilustron
ilustruar
iluzion
im
image
images
imagjinar
imagjinare
imagjinate
imagjinuar
imam
imambara
imambare
imame
imami
imamit
imazh
imazhe
imazhet
imazheve
imazhi
imazhin
imazhit
imdb
ime
imer
imi
imin
imit
imitim
imituar
immobile
impact
impel
imperator
imperial
implementimi
implementimin
imponuar
import
important
importit
importuar
importuara
impresionuar
improvizuar
impuls
impulse
impulsi
impulsit
imta
imte
imune
imunitar
imunitetit
imzot
in
ina
inc
incident
incidente
incidenti
incidentin
incidentit
include
includes
including
ind
inde
indeks
indeksi
indeksin
indeksit
independence
independent
indet
indeve
index
indi
india
indian
indiana
indiane
indiano
indigjene
indine
indirekt
indirekte
indise
indit
individ
individe
individi
individin
individit
individual
individuale
individualisht
indo
indoevropiane
indonezi
indonezia
indoneziane
indonezise
indre
induksionit
indus
indusit
industri
industria
industrial
industriale
industrine
industrise
industrite
industry
ine
inercise
infeksion
infeksione
infeksionet
infeksioneve
infeksioni
infeksionit
infektive
infektuar
infektuarve
inferior
inferiore
infermiere
inflamacion
inflamatore
influenca
influence
info
informacion
informacione
informacionet
informacioneve
informacioni
informacionin
informacionit
informale
informata
informatat
informatave
informate
informatike
information
informativ
informative
informim
informimit
informoi
informon
informuar
infra
infrastruktura
infrastrukture
infty
ing
ini
iniciativa
iniciative
iniciuar
injorance
injoruar
inkorporuar
inkuadruar
inkurajoi
inkurajon
inkurajuar
inner
inorganike
inovative
input
inscriptions
insee
insekte
insektet
insekteve
inside
inspektor
inspektori
inspiruar
instagram
instaluar
institucion
institucional
institucionale
institucione
institucionet
institucioneve
institucioni
institucionin
institucionit
institut
institute
institutet
instituti
institutin
institutit
instituto
instruktor
instruktore
instrument
instrumental
instrumentale
instrumente
instrumentet
instrumenteve
instrumenti
instrumentit
instruments
insuline
int
integral
integrale
integrali
integration
integrim
integrimi
integrimin
integrimit
integritetin
integruar
integruara
intel
intelektual
intelektuale
inteligjenca
inteligjence
inteligjent
inteligjente
intelligence
intensitet
intensiteti
intensitetin
intensitetit
intensiv
intensive
intensivisht
inter
interactive
interaktive
interes
interesa
interesant
interesante
interesat
interesave
interesi
interesim
interesimi
interesimin
interesin
interesit
interesua
interesuar
interesuara
interface
interference
interi
interin
interior
interit
internacional
internacionale
internal
international
internationale
internazionale
internet
interneti
internetin
internetit
internim
internimi
internimit
internua
internuan
internuar
interpretim
interpretime
interpretimet
interpretimi
interpretimin
interpretimit
interpretohet
interpretoi
interpretojne
interpreton
interpretuan
interpretuar
interpretues
interpretuesit
interseks
intertoto
interval
intervale
intervali
intervalit
interview
intervista
intervistat
interviste
intervistuar
intime
into
introduction
investigation
investim
investime
investimet
investimeve
investimi
investitore
investuar
inxhinier
inxhiniere
inxhinieri
inxhinieria
inxhinierike
inxhinierine
inxhinierise
inzaghi
io
ion
ionian
ios
iot
iowa
ip
ipeshke
iphone
ipko
ipod
ipsec
ipv
iq
ir
ira
irak
iraku
irakun
irakut
iran
irani
iranian
iraniane
iranin
iranit
ireland
irene
iris
irlanda
irlande
irlandez
irlandeze
irma
iron
ironi
irving
is
isa
isaac
isabel
isabella
isabelle
isak
isbn
ise
ish
isha
ishe
ishim
ishin
isht
ishte
ishuj
ishujt
ishujve
ishull
ishulli
ishullin
ishullit
isis
islam
islame
islami
islamic
islamik
islamike
islamin
islamiste
islamit
islamizmi
island
islanda
islande
islandeze
islands
isle
ismail
ismaili
ismajli
ismet
iso
israel
issn
issue
issues
issuu
ist
istanbul
istat
istituto
istog
istogut
istrefi
istria
isuf
isufi
it
itachi
itali
italia
italian
italiana
italiane
italiani
italiano
italine
italise
italisht
italishtes
italishtja
italo
italy
ite
ithtare
itinerari
its
itunes
iu
iucn
ius
iv
iva
ivan
ivanaj
ivanov
ivanovic
ivo
ix
iz
izet
izmir
izolim
izolimi
izolimin
izolimit
izoluar
izoluara
izoluese
izrael
izraeli
izraelin
izraelit
izraelite
j
ja
jaber
jabllanice
jack
jackie
jackson
jacob
jacopo
jacqueline
jacques
jae
jagannatha
jaguar
jaguari
jahan
jahanit
jahja
jahjaga
jaho
jahre
jai
jaime
jain
jaipur
jak
jake
jakob
jakova
jakup
jakupi
jalan
jam
james
jamie
jan
janar
janari
janarit
jane
janeiro
janet
jang
jani
janina
janine
janjeve
january
jap
japan
japanese
jape
japim
japin
japonez
japoneze
japoni
japonia
japonine
japonise
japonisht
jashar
jashari
jasht
jashte
jashtem
jashtme
jason
jaste
java
javan
javascript
jave
javier
javor
javore
jay
jazz
je
jean
jeanne
jeff
jefferson
jeffrey
jehona
jehone
jehude
jem
jemen
jemeni
jemenit
jemi
jen
jena
jene
jeni
jenic
jenkins
jenner
jennifer
jenny
jens
jenson
jep
jepej
jepen
jepeshin
jepet
jepni
jepnin
jepte
jeremy
jerome
jeronim
jerry
jersey
jerusalem
jerusalemit
jeruzalem
jeruzalemit
jesh
jeshile
jessica
jesu
jesus
jet
jeta
jete
jeten
jetes
jetesa
jetese
jetike
jetim
jetime
jetoi
jetoj
jetoje
jetojme
jetojne
jeton
jetonin
jetonte
jetuan
jetuar
jewish
jezu
jezuit
jezuite
jezusi
jezusit
ji
jiang
jigme
jim
jime
jimmy
jin
jinbe
jinchu
jl
jme
jne
jo
joa
joachim
joan
joani
joaqui
jobs
joe
joel
joey
jofitimprure
joformal
joformale
johan
johann
johannes
john
johnny
johns
johnson
johor
jon
jona
jonas
jonathan
jone
jones
jonet
joneve
jong
jonik
jonike
jonit
jonuz
joqeveritare
jordan
jordani
jordania
jordanise
jorge
jorgji
jorgo
jork
jorkut
jos
jose
josef
joseon
joseonit
josep
joseph
josh
joshe
joshua
joshur
josif
josip
jote
journal
journey
jovan
joy
joyce
jozef
jozefi
jozefit
jozyrtar
jozyrtare
jp
jpeg
jpg
jr
js
jstor
jt
jta
jtat
jte
jti
jtin
jtit
ju
jua
juaj
juan
jude
judenjte
judenjve
judith
judy
jug
juglindje
juglindor
juglindore
jugor
jugore
jugosllav
jugosllave
jugosllavi
jugosllavia
jugosllavine
jugosllavise
jugpere
jugu
jugun
jugut
jul
jules
juli
julia
julian
juliana
julianus
julie
julien
julio
julius
july
jump
jun
june
jung
junik
junikut
junior
juniors
junta
jupiter
jupiteri
jupiterit
jura
jure
juria
juridik
juridike
juridiksion
juridiksionin
juridiksionit
jurise
jurisprudence
jurist
juriste
jush
just
justice
justifikim
justifikuar
justin
justinian
justiniani
justinianit
jusuf
jusufi
juve
juventus
juventusi
juventusin
juventusit
jve
jyotirlinga
k
ka
kabashi
kabine
kabineti
kabinetin
kabinetit
kabir
kabirit
kabllo
kabllor
kabuki
kac
kadamba
kadare
kadarese
kadastrale
kadri
kadriu
kafaz
kafe
kafeje
kafene
kafese
kafka
kafke
kafsha
kafshe
kah
kahn
kai
kaido
kairo
kaiser
kaito
kaje
kajro
kajros
kaka
kakashi
kaku
kal
kala
kalabrise
kalaja
kalama
kalane
kalase
kalate
kalciumit
kale
kalendar
kalendare
kalendari
kalendarin
kalendarit
kali
kalif
kalifati
kalifatit
kalife
kalifi
kalifit
kaliforni
kalifornia
kalifornise
kalim
kalime
kalimet
kalimi
kalimin
kalimit
kalimtar
kalimtare
kalin
kalit
kalkuta
kalkute
kallam
kalldre
kalle
kalohet
kaloi
kaloj
kaloje
kalojne
kalon
kalonin
kalonte
kalore
kalorsiake
kalosh
kalte
kaluan
kaluar
kaluara
kaluare
kalyani
kam
kamakshi
kamath
kambane
kamber
kamberi
kamboxhia
kamboxhias
kame
kamen
kamenice
kamera
kamerat
kamerave
kamere
kameruni
kamion
kamione
kamp
kampe
kampet
kampeve
kampi
kampin
kampion
kampionat
kampionate
kampionatet
kampionateve
kampionati
kampionatin
kampionatit
kampione
kampioneve
kampioni
kampionit
kampit
kampus
kampusi
kampusin
kampusit
kan
kanada
kanadaja
kanadase
kanade
kanadez
kanadeze
kanal
kanale
kanalet
kanaleve
kanali
kanalin
kanalit
kanalizimeve
kanavace
kancelar
kancelari
kancer
kanceri
kancerin
kancerit
kanchi
kanchipuram
kanchipurami
kanchipuramit
kandidat
kandidate
kandidati
kandidatit
kandidature
kandidoj
kandinski
kandinsky
kane
kange
kani
kanibalize
kanide
kanine
kanioni
kanonike
kansas
kanti
kanton
kantone
kantonet
kantoneve
kantoni
kantonin
kantonit
kanuni
kanunit
kanye
kaone
kaos
kaotike
kap
kapacitet
kapacitetet
kapaciteteve
kapaciteti
kapacitetin
kapacitetit
kapak
kape
kapela
kapele
kapen
kapet
kapi
kapin
kapital
kapitale
kapitali
kapitaliste
kapitalit
kapitalizmit
kapiten
kapitene
kapiteni
kapitenin
kapitenit
kapituj
kapitujt
kapitull
kapitulli
kapitullimit
kapitullin
kapja
kapjen
kapjes
kaplan
kapnin
kapodistria
kapte
kapuc
kapur
kaq
kara
karabakh
karac
karadakut
karaibe
karaibeve
karakter
karaktere
karakteret
karaktereve
karakteri
karakterin
karakteristik
karakteristika
karakteristikat
karakteristikave
karakteristike
karakterit
karakterizohej
karakterizohen
karakterizohet
karakterizojne
karakterizon
karakterizua
karakterizuar
karate
karatese
karavaxho
karbala
karbalan
karbohidrate
karbon
karboni
karbonit
karburant
karburantit
kardashian
kardiak
kardinal
kardinale
kardinali
kardinalit
kardiovaskulare
karen
kariera
kariere
karikature
karim
karl
karli
karlit
karlsruhe
karma
karnak
karnata
karnataka
karnatakas
karnavalet
karol
karolina
karoline
karriera
karriere
karrieren
karrige
karroca
karroce
karshi
karstike
karta
kartagjene
kartat
karte
kartela
kartelat
kartele
karton
kartone
kartoni
kartonin
kartonit
karvane
kas
kase
kaseta
kasete
kashi
kashit
kashmir
kashte
kasolle
kaspik
kaste
kastrat
kastrati
kastratit
kastriot
kastriote
kastrioti
kastriotit
kat
katakuri
katalog
katalogu
katalonia
katalonje
katalunase
katana
katar
katare
katari
katarit
katastrofe
katastrofike
kate
katedrale
katedralen
katedrales
katedralja
katedre
kategori
kategoria
kategorie
kategorine
kategorise
kategorite
kategorive
kater
katerina
katet
kateve
katherine
kati
katie
katin
katit
kato
katolik
katolike
katror
katrore
katrori
katund
katundi
katundin
katundit
kaukaz
kaukazit
kauze
kavaje
kaza
kazaja
kazake
kazakistan
kazakistani
kazakistanit
kazan
kazane
kazase
kazazi
kazermat
kazerme
kb
kbe
kc
ke
kebek
kec
kedara
keep
keith
kek
kelly
kelmendi
kelmendit
kelt
kelte
kem
kemal
kembrixh
kembrixhit
kemi
ken
kenan
kene
kenga
kenge
kengen
kenges
kenget
keni
kenia
kennedy
kenneth
kenny
kent
kentucky
kepi
kepit
keq
keqardhje
keqbe
keqe
keqen
keqes
keqja
keqpe
kerala
kerale
kerkimi
kerkon
kershaw
kesaj
kesh
keshillit
keshtu
ket
keta
kete
keti
ketij
keto
ketu
ketyre
kevin
key
kf
kfor
kg
kh
khalid
khalifa
khan
khanda
khanit
ki
kibernetike
kic
kid
kidd
kids
kiev
kievit
kili
kilian
kilit
kill
killed
killer
kilmister
kilogram
kilograme
kilomete
kilometra
kilometrash
kim
kimi
kimia
kimik
kimike
kimise
kimist
kimiste
kimisti
kimono
kina
kind
kindi
kine
kinema
kinemaja
kinemane
kinemase
kinemate
kinematografi
kinematografik
kinematografike
kinematografise
kinetike
kinez
kineze
kinezisht
king
kingdom
kings
kino
kinostudio
kinse
kirk
kirurg
kirurgji
kirurgjia
kirurgjikale
kirurgjise
kish
kisha
kishat
kishave
kishe
kishes
kishim
kishin
kishtar
kishtare
kishte
kiss
kit
kita
kitab
kitara
kitare
kitarist
kitariste
kitaristi
kite
kitur
kjo
kk
kl
klan
klani
klanit
klara
klasa
klasat
klasave
klase
klasi
klasifikim
klasifikimi
klasifikimin
klasifikimit
klasifikohen
klasifikohet
klasifikuar
klasik
klasike
klasit
klaus
klauzole
klein
klement
klementi
kleopatra
kleopatre
kleri
klerik
klerike
klerit
klient
kliente
klienti
klientit
klima
klimatik
klimatike
klime
klina
kline
klinik
klinika
klinike
klinton
klishe
kllapa
klosi
klub
klube
klubet
klubeve
klubi
klubin
klubit
km
knight
know
knowledge
known
knox
ko
koalicion
koalicioni
koalicionit
kobe
koc
koch
koci
kocka
kockat
kockave
kocke
kod
koda
kode
kodeina
kodeine
kodet
kodeve
kodi
kodike
kodimi
kodin
kodit
kodra
kodrat
kodrave
kodre
kodrina
kodrine
kodrinor
kodrinore
kodrinoro
koduar
koeficiente
kofshe
kognitiv
kognitive
koha
kohe
kohen
koherente
kohes
kohet
kohor
kohore
koja
koje
koka
kokaine
kokaj
kokat
koke
kokrra
kol
kola
kole
koleg
kolege
kolegj
kolegje
kolegjet
kolegji
kolegjin
kolegjit
kolegu
koleksion
koleksione
koleksionet
koleksioneve
koleksioni
koleksionin
koleksionit
kolektiv
kolektive
kolektivisht
kolere
koliqi
kolle
kollit
kolombi
kolona
kolonade
kolonash
kolonat
kolonave
kolone
kolonel
koloneli
koloni
kolonia
kolonial
koloniale
kolonine
kolonise
koloniste
kolonite
kolonive
kolonizatore
kolonizimi
kolonizimit
kolonja
kolonje
kolorado
kolosale
kolumbi
kolumbia
kolumbian
kolumbiane
kolumbise
kom
komanda
komandant
komandante
komandanti
komandantin
komandantit
komandat
komande
komandonte
komanduar
komanduara
komb
kombe
kombet
kombetar
kombetare
kombetarja
kombeve
kombi
kombin
kombinim
kombinime
kombinimi
kombinimin
kombinohen
kombinon
kombinuar
kombinuara
kombit
kombtare
komedi
komedia
komedian
komedine
komedise
komedite
koment
komente
komentet
komentoi
komentuar
komercial
komerciale
komete
komik
komike
komisar
komisari
komision
komisione
komisioneri
komisionet
komisioni
komisionin
komisionit
komitet
komitetet
komiteteve
komiteti
komitetin
komitetit
komode
komonuelthit
kompakt
kompakte
kompani
kompania
kompanie
kompanine
kompanise
kompanite
kompanive
kompedicionet
kompensim
kompensuar
kompetenca
kompetencat
kompetencave
kompetence
kompetente
kompeticion
kompeticionet
kompeticioni
kompeticionit
kompjuter
kompjutera
kompjuterat
kompjuterave
kompjutere
kompjuteri
kompjuterik
kompjuterike
kompjuterin
kompjuterit
kompleks
komplekse
komplekset
kompleksi
kompleksin
kompleksit
kompleksiteti
kompleksitetin
komplet
komplete
kompletuar
komplikuar
komplot
komploti
komplotin
komponent
komponente
komponentet
komponenti
komponime
komponimet
kompozim
kompozime
kompozimet
kompozimi
kompozimin
kompozimit
kompozitor
kompozitore
kompozitori
kompozitorit
kompozoi
kompozuar
kompromis
komuna
komunal
komunale
komunat
komunave
komune
komunen
komunes
komunikacionit
komunikim
komunikimet
komunikimeve
komunikimi
komunikimin
komunikimit
komunikojne
komunikon
komunikuar
komunikuese
komunist
komuniste
komunitet
komunitete
komunitetet
komuniteteve
komuniteti
komunitetin
komunitetit
komunize
komunizmi
komunizmit
kon
konan
konc
koncept
koncepte
konceptet
koncepteve
koncepti
konceptim
konceptimi
konceptin
konceptit
konceptual
konceptuale
konceptuar
koncert
koncerte
koncertet
koncerteve
koncerti
koncertin
koneswaramit
konfederata
konfederatave
konfederate
konferenca
konferencat
konferencave
konference
konfirmoi
konfirmon
konfirmua
konfirmuan
konfirmuar
konfirmuara
konflikt
konflikte
konfliktet
konflikteve
konflikti
konfliktin
konfliktit
konfuzion
kong
kongo
kongos
kongres
kongreseve
kongresi
kongresin
kongresit
kongut
konica
konice
konike
konjitive
konkret
konkrete
konkretisht
konkurence
konkurrenca
konkurrence
konkurrente
konkurrojne
konkurruar
konkurrues
konkurruese
konkurs
konkurse
konkursi
konkursin
konkursit
konoha
konrad
konsensus
konsensusi
konservative
konservator
konservatore
konservatorin
konservimi
konservimit
konservuar
konsiderate
konsiderohej
konsiderohen
konsideroheshin
konsiderohet
konsideroi
konsiderojne
konsideron
konsideronin
konsideronte
konsiderua
konsideruan
konsideruar
konsiderueshe
konsiderueshme
konsistojne
konsiston
konsistonte
konsolidimin
konsoliduar
konstandin
konstandini
konstandinit
konstandinopoje
konstant
konstante
konstantin
konstantinos
konstatuar
konstruktive
konstruktore
konstruktuar
konsulent
konsull
konsullata
konsullate
konsulli
konsullit
konsullore
konsultuar
konsum
konsumatore
konsumatorit
konsumi
konsumin
konsumit
konsumohet
konsumojne
konsumuar
kont
kontabilitet
kontabilitetit
kontakt
kontakte
kontaktet
kontakteve
kontakti
kontaktin
kontaktit
konte
kontea
kontekst
kontekste
konteksti
kontekstin
kontekstit
kontestuar
konti
kontinent
kontinental
kontinentale
kontinente
kontinentet
kontinenteve
kontinenti
kontinentin
kontinentit
kontit
kontrabande
kontradiktat
kontradiktore
kontrast
kontrata
kontratat
kontrate
kontriboi
kontribuan
kontribuar
kontribues
kontribuoi
kontribuoje
kontribuojne
kontribuon
kontribut
kontribute
kontributet
kontributi
kontributin
kontributit
kontroll
kontrolle
kontrolli
kontrollimin
kontrollin
kontrollit
kontrollohen
kontrollohet
kontrolloje
kontrollojne
kontrollon
kontrollonin
kontrollonte
kontrolluar
kontrolluara
kontrollues
konvencional
konvencionale
konventa
konvente
konvertimi
konvertimin
konvertimit
konvertua
konvertuar
konvikt
kooperative
koordinata
koordinatat
koordinatave
koordinativ
koordinator
koordinimin
koordinuar
kope
kopenhage
kopenhagen
kopertina
kopertine
kopja
kopje
kopjet
kopjuar
kopsht
kopshte
kopshtet
kopshteve
kopshti
kopshtin
kopshtit
kor
korab
korabi
korabit
korale
korc
korce
kore
korea
korean
koreane
koreja
korene
koreograf
korese
korfuz
korfuzit
kori
korin
korintasve
korintit
korit
korja
korniza
kornizat
kornize
koronavirus
koronavirusit
korporata
korporatave
korporate
korpusi
korpusit
korre
korrekte
korrespondence
korrespondent
korrespondojne
korrespondon
korri
korridor
korridore
korridori
korrik
korriku
korrikut
korrozionit
korrupsion
korrupsioni
korrupsionin
korrupsionit
korruptuar
korsi
kos
kosi
kosova
kosovar
kosovare
kosove
kosoves
kosovo
kosta
kostandin
kostandini
kostandinit
kostandinopoja
kostandinopoje
kosto
kostoja
koston
kostos
kostot
kostum
kostume
kostumet
kostumeve
kosturit
kot
kota
kote
koto
kotorrit
kou
kova
kovac
kovalainen
kovalente
kovil
kozence
kozma
kozmetike
kozmik
kozmike
kpa
kppk
kq
kqz
kr
kra
krah
kraharorit
krahas
krahasim
krahasimi
krahasohen
krahasohet
krahason
krahasuar
krahasues
krahasuese
krahasueshe
krahasueshme
krahe
krahina
krahinat
krahinave
krahine
krahinor
krahinore
krahu
krahun
krahut
kraja
kraje
krako
kramer
krasniqi
kravets
kreative
kredi
kredite
kreditit
kreditore
kredituar
krejt
krejte
krem
kremlinit
krenar
krenare
krenari
krenaria
krenarise
krere
kreshnik
kreshnike
kreshta
kreshte
krete
kreu
kreun
kreut
krieg
krijesa
krijesat
krijesave
krijese
krijim
krijime
krijimet
krijimeve
krijimi
krijimin
krijimit
krijimtari
krijimtaria
krijimtarine
krijimtarise
krijohej
krijohen
krijohet
krijoi
krijoj
krijoje
krijojne
krijon
krijonin
krijonte
krijua
krijuan
krijuar
krijuara
krijues
krijuese
krijuesi
krijuesit
krijuesve
krim
krime
krimese
krimet
krimeve
krimi
krimin
kriminal
kriminale
kriminalistike
kriminel
kriminele
krimit
kripa
kripe
kripur
krishna
krishnas
krishne
krishte
krishtera
krishtere
krishterim
krishterimi
krishterimin
krishterimit
krishti
krishtin
krishtit
krishtlindjes
krishtlindjeve
kristal
kristale
kristaleve
kristaq
kristian
kristiane
kristo
kristofor
kriter
kritere
kriteret
kritereve
kriteri
kritik
kritika
kritikat
kritikave
kritike
kritikoi
kritiku
kritikua
kritikuan
kritikuar
kriza
krizat
krizave
krize
kroaci
kroacia
kroacine
kroacise
kroat
kroate
kroatisht
kroi
krokodili
kromi
kromit
kromozomeve
kroni
kronik
kronika
kronikat
kronike
kronologjia
kronologjike
kroos
krua
kruja
kruje
krume
krushe
krusheve
krye
kryej
kryeje
kryejne
kryeministe
kryeministra
kryeministrat
kryeministri
kryeministrin
kryeministrit
kryen
kryengrite
kryengritja
kryengritje
kryengritjen
kryengritjes
kryengritjet
kryengritjeve
kryenin
kryente
kryepeshkop
kryepeshkopate
kryepeshkopi
kryepeshkopit
kryeqe
kryeqende
kryeqendra
kryeqendre
kryeqytet
kryeqytete
kryeqytetet
kryeqyteti
kryeqytetin
kryeqytetit
kryer
kryera
kryere
kryeredaktor
kryerja
kryerjen
kryerjes
kryesia
kryesimin
kryesine
kryesise
kryesisht
kryesoi
kryeson
kryesonte
kryesor
kryesore
kryesuar
kryesues
kryesuese
kryetar
kryetare
kryetari
kryetarin
kryetarit
kryevepe
kryevepra
kryeziu
kryhej
kryhen
kryhet
kryq
kryqe
kryqi
kryqin
kryqit
kryqtare
ks
kshetra
kshmr
kthehej
kthehen
ktheheshin
kthehet
ktheje
kthejne
kthen
kthente
kthesa
kthese
kthetra
kthetrat
ktheu
kthim
kthimi
kthimin
kthimit
kthjelle
kthye
kthyen
kthyer
kto
ku
kuade
kuadri
kuadrin
kuadrit
kuadro
kuadrove
kuaj
kuajt
kuajve
kuala
kualifikim
kualifikimet
kualifikimeve
kualifikimi
kualifikimin
kualifikimit
kualifikohej
kualifikohen
kualifikohet
kualifikua
kualifikuan
kualifikuar
kualifikues
kualifikuese
kualifikueset
kualifikueseve
kualitet
kualiteti
kuantik
kuantike
kub
kuba
kuban
kube
kubeja
kubica
kubike
kuc
kudo
kufi
kufij
kufijte
kufijve
kufiri
kufirin
kufirit
kufitar
kufitare
kufizim
kufizime
kufizimet
kufizimeve
kufizimi
kufizohej
kufizohen
kufizohet
kufizojne
kufizon
kufizuar
kufizuara
kufizuese
kufoma
kufomat
kufome
kuidic
kujdes
kujdesej
kujdesen
kujdeset
kujdesi
kujdesin
kujdesit
kujdesshe
kujdesshme
kujdestar
kujdestare
kujdestari
kujdesur
kujt
kujtesa
kujtese
kujtim
kujtime
kujtimet
kujtimeve
kujtimi
kujtimin
kujtimit
kujtohet
kujtoi
kujtojme
kujtojne
kujton
kujtuar
kuk
kuke
kukull
kukulla
kukullave
kulla
kullat
kullave
kulle
kullosa
kullota
kullotat
kullotave
kullote
kulluar
kulm
kulme
kulmet
kulmi
kulmin
kulmit
kulmore
kult
kulti
kultin
kultit
kultivare
kultivimi
kultivimin
kultivimit
kultivohen
kultivohet
kultivuar
kultur
kultura
kulturat
kulturave
kulture
kultures
kulturor
kulturore
kuma
kumanova
kumanove
kumar
kumbulla
kumtesa
kumtese
kun
kund
kunda
kunde
kunder
kundi
kundra
kundrejt
kundur
kung
kunst
kuote
kupa
kupat
kupave
kupe
kupi
kupola
kupolat
kupole
kuptim
kuptime
kuptimet
kuptimeve
kuptimi
kuptimin
kuptimit
kuptimplote
kuptohen
kuptohet
kuptoi
kuptoj
kuptoje
kuptojme
kuptojne
kupton
kuptonin
kuptonte
kuptuan
kuptuar
kuptuarit
kuptueshe
kuptueshme
kuq
kuqe
kuqi
kuqja
kur
kura
kuran
kurani
kuranin
kuranit
kurat
kurban
kurbe
kurbinit
kurde
kurdohere
kure
kurejshe
kuriozitete
kurora
kurore
kurr
kurre
kurrfare
kurrikula
kurrikule
kurriz
kurrizore
kurrsesi
kurs
kurse
kurset
kurseve
kurshumlise
kursi
kursin
kursit
kursyer
kurt
kurth
kurthe
kurti
kuruar
kurveleshit
kush
kushdo
kushe
kusht
kushte
kushtet
kushtetues
kushtetuese
kushtetuta
kushtetute
kushteve
kushti
kushtin
kushtohet
kushtoi
kushton
kushtonte
kushtrim
kushtrimi
kushtua
kushtuar
kushtueshme
kut
kuteli
kuti
kutia
kutine
kuvajt
kuvajti
kuvajtit
kuvend
kuvendet
kuvendi
kuvendin
kuvendit
kuzhina
kuzhine
kv
kw
ky
kyc
kyiv
kyle
kyo
kyoto
kyrburg
kyu
kz
l
la
labe
label
labi
labinot
laborator
laboratore
laboratori
laboratorike
laboratorin
laboratorit
laboratory
lac
lady
laga
lage
laget
lagja
lagje
lagjen
lagjes
lagjet
lagjeve
lagjja
lagoon
lagos
lagranzhit
laguna
lagune
lagur
lahore
lahuta
lahute
laibach
laik
laike
lajc
lajm
lajme
lajmet
lajmeve
lajmi
lajmin
lake
lakers
lako
lakra
lakshmi
lakuar
lakuriq
lakuriqe
lal
lala
lalita
lam
lama
lambda
lambert
lame
lampard
lamtumire
lan
lanc
land
landes
landit
landschaft
lane
lang
language
languages
languedoc
lanka
lanke
lansoi
lansua
lansuar
laosi
lapland
lar
lara
lare
larg
large
largim
largimi
largimin
largimit
largohej
largohen
largoheshin
largohet
largoi
largojne
largon
largua
larguan
larguar
larja
larjen
larmi
larmine
larmishe
larmishme
larry
lars
lart
larta
larte
larti
lartpe
las
laser
lasgush
lashta
lashte
last
lat
late
later
latif
latifi
latin
latina
latine
latinisht
latinishten
latinishtes
latinishtja
latino
latvia
laude
laura
laureat
laureate
laurence
laurent
laurin
lavde
lavdi
lavdia
lavdine
lavdishme
lave
law
lawrence
layer
lazar
laze
lazer
lazio
lazion
lazios
lb
lc
lccn
lcyra
lcyre
ld
ldk
le
lead
leader
leaders
league
leagues
learning
least
leben
lec
lecce
lecke
lecture
lectures
led
ledri
lee
leeds
lef
left
lefter
lega
legacy
legal
legalitetit
legend
legends
legjenda
legjendar
legjendare
legjendat
legjendave
legjende
legjionet
legjislacioni
legjislacionin
legjislacionit
legjislativ
legjislative
legjislatura
legjislature
legjitim
legjitime
lehta
lehte
leicester
leiden
leigh
leiningen
leipzig
leja
leje
lejen
lejohej
lejohen
lejoheshin
lejohet
lejoi
lejoje
lejojne
lejon
lejonin
lejonte
lejua
lejuan
lejuar
lejuara
lek
leka
leke
leksikore
leksione
leksionet
lektor
lelouch
lem
lemmy
len
lena
lende
lene
lenin
lenini
leniniste
leninit
lente
leo
leon
leonard
leonardo
leone
leoni
leonid
leopard
leoparde
leopardi
leopold
lepujt
lepuri
lere
les
lesh
leshator
leshi
leshit
leskocit
leskovik
leskoviku
leslie
less
let
lete
letonez
letoneze
letoni
letonia
letonise
letra
letrar
letrare
letrat
letrave
letre
letter
letteratura
letters
leu
lev
levant
level
leverkusen
levi
levizje
levizjes
lewis
lex
lexicon
lexikon
lexim
lexime
leximi
leximin
leximit
lexo
lexohen
lexohet
lexoi
lexoje
lexojne
lexon
lexoni
lexonte
lexuar
lexues
lexueshme
lexuesi
lexuesin
lexuesit
lexuesve
lez
lezbike
lezha
lezhe
lezhes
lgbt
lhura
lhure
li
lia
liban
libani
libanit
libe
liber
liberal
liberale
liberia
libertadores
liberty
libi
libia
libise
libohova
libohove
libra
librari
libraria
library
librash
librat
librave
librazhd
librazhdit
libre
libri
librin
librit
libro
liburne
lic
licence
licencuar
license
liceu
liceun
liceut
licinius
lider
lidere
lideri
liderit
lidh
lidhe
lidhej
lidhen
lidheshin
lidhet
lidhi
lidhin
lidhja
lidhje
lidhjeje
lidhjen
lidhjes
lidhjet
lidhjeve
lidhnin
lidhore
lidhte
lidhur
lidhura
lie
liebe
lies
life
lig
liga
ligas
ligat
lige
ligen
light
ligj
ligje
ligjet
ligjeve
ligji
ligjin
ligjit
ligjor
ligjore
ligjshe
ligjshme
ligjve
ligue
lihen
lihet
lihtenshtajni
lihtenshtajnit
lika
like
likove
lil
lila
lili
liliana
lille
lily
lim
lima
liman
limani
limburgu
limi
limin
limit
limited
limituar
limoges
limon
limoni
limousin
lin
lina
lincoln
lind
linda
linde
lindi
lindin
lindita
lindja
lindje
lindjen
lindjes
lindjet
lindjeve
lindor
lindore
lindte
lindur
lindura
line
linear
lineare
lines
linga
linge
lingua
linguistic
linguistics
linguistike
lini
linin
linja
linjat
linjave
linje
link
links
linnaeus
linqe
linte
linux
lio
lion
lionel
lipa
lipjan
lipjanit
lippe
lippi
liqen
liqene
liqenet
liqeneve
liqeni
liqenin
liqenit
liquid
lira
lire
liri
liria
lirie
lirik
lirika
lirike
lirim
lirimi
lirimin
lirimit
lirimtar
lirimtare
lirin
lirine
lirise
lirisht
lirite
lirive
lirohen
lirohet
liroi
liroje
lirojne
liron
lirshe
lirshme
lirua
liruan
liruar
liruara
lis
lisa
lisat
lisbone
lise
lisi
lisit
list
lista
listat
listave
liste
listen
listuar
listuara
lit
litar
litare
lite
literary
literatur
literatura
literature
litra
little
lituaneze
lituani
lituania
lituanise
liturgjike
liu
livadh
livadhe
livadhet
livadhi
live
liverpool
liverpoolin
liverpoolit
lives
living
livorno
livy
lix
liza
ljubljana
ll
lla
llac
llahu
llahun
llahut
llai
llain
llait
llak
llambe
llane
llapi
llapit
llapushe
llastare
llau
llazar
llaze
lle
lleida
ller
lleshi
lleze
lli
llic
llim
llime
llimet
llimeve
llimi
llimin
llimisht
llimit
llimshe
llimshme
llit
llogari
llogarine
llogarit
llogarite
llogariten
llogaritet
llogaritja
llogaritje
llogaritjen
llogaritjes
llogaritjet
llogaritur
lloi
lloj
lloje
llojet
llojeve
lloji
llojin
llojit
llojllojshme
llojshme
llon
llore
lloyd
llua
lluan
lluar
lluka
lluke
llumb
llumbat
llumbave
llumbi
ln
lnc
lo
loc
local
located
lode
lodhje
lodhur
lodra
lodrat
log
logia
logic
logjik
logjika
logjike
logjistike
logo
logoja
logon
logoreci
logos
lohen
lohet
loi
loir
loire
loiret
loja
loje
lojne
lojra
lojrat
lojrave
lojtar
lojtare
lojtari
lojtarin
lojtarit
lok
lokacion
lokacioni
lokal
lokale
lokalitet
lokaliteti
lokalitetin
lokalizuar
lokomotiva
lola
lolarka
lombarde
lon
londe
london
londra
londre
lonely
long
loni
look
looking
lopa
lope
lopez
lord
lorde
lordi
lorenc
lorenzo
loro
lorraine
los
lost
lot
lote
lothal
lothalit
loti
lotus
lou
louis
louise
louisiana
louvre
love
low
lower
lozane
loze
lp
lpk
lqejne
lqen
lqente
lqere
lqeror
lqerore
lqeu
lqim
lqimi
lqimin
lqimit
lqyer
lqyera
lqyeshe
lqyeshme
lsi
lsira
lsirat
lsire
lt
ltd
lu
lua
luaj
luaje
luajne
luajt
luajte
luajti
luajtur
luajtura
luan
luane
luang
luani
luanin
luanit
luante
luar
luarasi
lubjana
lubjane
lubonja
luc
luca
lucas
lucca
luce
lucia
luciano
lucius
lucknow
lucknowt
lucky
lucy
ludovico
ludwig
luffy
lufta
luftarak
luftarake
lufte
luften
luftes
luftime
luftimet
luftimeve
luftimi
luftimin
luftimit
luftoi
luftoje
luftojne
lufton
luftonin
luftonte
luftrat
luftrave
luftuan
luftuar
lug
luge
lugina
luginat
luginave
lugine
lugu
luhej
luhen
luhet
lui
luigi
luigj
luigji
luis
luiz
luka
lukaku
lukather
luke
luksemburg
luksemburgu
luksemburgut
luksoz
luksoze
lula
lule
lules
lulesh
lulet
luleve
luli
lulja
luljeta
lulzim
lum
luma
lumbardhi
lume
lumenj
lumenje
lumenjte
lumenjve
lumi
lumin
lumit
lumor
lumore
lumtur
lumturi
lumturia
lumturine
lumturise
luna
lund
lunde
lundrim
lundrimi
lundrimin
lundrimit
lundroi
lundruar
lundruese
lupin
lupus
lure
lusha
lushnja
lushnje
lushnjes
lut
lute
lutem
luten
lutet
lutfi
luther
lutja
lutje
lutjes
lutjet
lutjeve
lutur
luvrit
luz
luzern
lv
lvarez
lvaro
ly
lyer
lynn
lynx
lyon
lyrical
lysh
lyshe
lzen
m
ma
mabetex
mac
macau
macbook
macdonald
mace
macedonia
macedonian
macet
maceve
machiavelli
machine
macja
mackenzie
macmillan
macrinus
mad
madagaskar
madagaskari
madagaskarit
madame
madara
made
madh
madhe
madhi
madhja
madhor
madhore
madison
madje
madona
madone
madonna
madrid
madridi
madridin
madridit
mafia
magazina
magazine
magdalena
maggie
magic
magister
magjepse
magjepsur
magji
magjia
magjik
magjike
magjine
magjise
magjistar
magjistare
magjiste
magjistrale
magjistrate
magjistrature
magna
magnet
magnete
magnetik
magnetike
magnus
maha
mahabalipuram
mahabharata
mahadev
mahal
mahali
mahalit
maharashtra
maharaxhai
mahatma
mahir
mahmoud
mahmud
mahmut
mahnite
mahnitshme
mai
mail
main
maine
mainz
maison
maj
maja
majat
majave
majdanoz
maje
maji
majin
majit
majlinda
majmun
majmune
major
majta
majtas
majte
make
makina
makinat
makinave
makine
makineri
makinerive
making
makro
maksim
maksimal
maksimale
maksimum
maksimumi
maksuellit
mal
mala
malaj
malajzi
malajzia
malajzise
malazez
malazeze
malazezisht
malcolm
maldini
maldivet
maldiveve
male
malesh
malet
maleve
mali
malietoa
malik
malika
malin
maliq
maliqi
maliqit
malisheve
malit
mall
mallakaste
mallakastre
malle
malli
mallit
mallkimi
mallkuar
mallorca
mallra
mallrash
mallrat
mallrave
malmo
malo
maloku
malor
malore
malta
malte
malteze
malzi
malziut
mama
mamaja
mami
mamluke
mamuthe
mamuthit
man
management
manaj
manas
manastir
manastire
manastiret
manastireve
manastiri
manastirin
manastirit
manc
mancha
manche
manchester
mancini
mandala
mandapa
mandat
mandate
mandati
mandatin
mandatit
mandej
mandir
mandiri
mandirit
mandz
mane
manfred
manga
mange
mangusta
manhattan
mani
manifestim
manifestime
manifestimi
manifestohet
manikarnika
manila
manin
manipuluar
mann
mannheim
manning
mano
manoharlal
mans
manson
mantel
manual
manuale
manuel
many
mao
map
mapo
maps
maqedon
maqedonas
maqedonase
maqedonasit
maqedonasve
maqedone
maqedoni
maqedonia
maqedonine
maqedonise
maqedonisht
mar
mara
maradona
marash
maratha
maratone
marc
marcel
marcello
marcelo
march
marche
marchisio
marciale
marco
marcos
marcus
mardhe
mare
margaret
margarita
marge
margrethe
mari
maria
mariamman
marian
mariana
marianne
mariano
marias
marie
marielena
marilyn
marin
marina
marinare
marine
marino
marinos
marinsat
mario
marion
marise
maritime
maritimes
mark
marka
markat
marke
market
marketing
marketingu
marketingut
marko
markovic
marks
marksi
marksist
marksiste
marksit
marksize
marku
markus
markut
marmara
marne
marok
maroku
marokut
marr
marra
marrdhe
marre
marriage
marrim
marrin
marrja
marrje
marrjen
marrjes
marrur
mars
marseille
marseje
marshall
marshoi
marshuan
marsi
marsin
marsit
marta
marte
martesa
martesat
martesave
martese
martesore
martha
marti
martin
martinez
martini
martinique
martinit
martino
martir
martire
martohej
martohen
martohet
martua
martuan
martuar
marubi
marvel
marx
mary
maryland
mas
masa
masake
masakra
masakrat
masakre
masakruan
masakruar
masat
masave
mase
mashkull
mashkulli
mashkullit
mashkullor
mashkullore
mashtrim
mashtrimit
mashtruar
mashtrues
masiv
masive
masivisht
masjid
maska
maskat
maske
maskuar
mason
masone
mass
massa
massachusetts
massimo
master
masters
mat
mata
mate
matec
matematik
matematika
matematikan
matematikane
matematikani
matematike
matematikisht
matematikor
matematikore
mateo
materazzi
materia
material
materiale
materialet
materialeve
materiali
materialin
materialit
materie
materies
matet
mateu
mateut
math
matha
mathbb
mathbf
mathcal
mathematical
mathematics
mathfrak
mathieu
mathrm
mathura
mati
matin
matit
matja
matje
matjen
matjes
matjet
matjeve
mato
matrice
matrix
matt
matteo
matter
matthew
matthias
matur
mature
maung
maurice
mauritania
maurizio
mauro
mauzoleu
mavrove
max
maximilian
maximus
maxwell
may
maya
mayenne
mayer
mayotte
mazreku
mb
mba
mbahej
mbahen
mbaheshin
mbahet
mbaj
mbaje
mbajne
mbajt
mbajte
mbajti
mbajtja
mbajtje
mbajtjen
mbajtjes
mbajtur
mbajtura
mban
mbane
mbani
mbanin
mbante
mbare
mbarim
mbarimin
mbarimit
mbaroi
mbarojne
mbaron
mbaronte
mbart
mbaruan
mbaruar
mbas
mbase
mbasi
mbe
mbejne
mben
mbesa
mbese
mbesin
mbet
mbete
mbetej
mbeten
mbeteshin
mbetet
mbeti
mbetje
mbetjet
mbetjeve
mbetur
mbetura
mbeturina
mbeturinat
mbeturinave
mbeu
mbi
mbidetare
mbieme
mbiemra
mbiemrat
mbiemri
mbiemrin
mbijetese
mbijetoi
mbijetoje
mbijetojne
mbijeton
mbijetuan
mbijetuar
mbijetuara
mbijetuarit
mbike
mbikqyre
mbikqyrjen
mbillen
mbim
mbime
mbimet
mbimi
mbimin
mbimit
mbin
mbinatyrshme
mbinj
mbinje
mbinjere
mbinjte
mbinjve
mbiquajtur
mbishkrim
mbishkrime
mbishkrimet
mbishkrimeve
mbishkrimi
mbishkrimin
mbit
mbizote
mbjelle
mbjen
mbjes
mbla
mbledh
mbledhe
mbledhin
mbledhja
mbledhje
mbledhjen
mbledhjes
mbledhjet
mbledhjeve
mbledhur
mbledhura
mblidhen
mblidheshin
mblidhet
mblidhte
mblodh
mblodhe
mblodhi
mbor
mbore
mbox
mbrapa
mbrape
mbrapme
mbrapsht
mbre
mbrenda
mbresa
mbrese
mbresle
mbret
mbrete
mbreteria
mbreti
mbretin
mbretit
mbrohen
mbrohet
mbroje
mbrojne
mbrojte
mbrojti
mbrojtja
mbrojtje
mbrojtjeje
mbrojtjen
mbrojtjes
mbrojtur
mbrojtura
mbron
mbronin
mbronte
mbulesa
mbulese
mbulim
mbulimi
mbulimin
mbulimit
mbull
mbulohen
mbulohet
mbuloi
mbuloje
mbulojne
mbulon
mbulonin
mbulonte
mbuluar
mbuluara
mburoja
mburoje
mbush
mbushe
mbushet
mbushi
mbushin
mbushje
mbushur
mbushura
mbyen
mbyer
mbyll
mbylle
mbyllen
mbyllet
mbylli
mbyllja
mbyllje
mbylljen
mbylljes
mbyllte
mbyllur
mbyllura
mbyt
mbyte
mbytur
mc
mccarthy
mcdonald
mcgraw
mclaren
md
me
meaning
mec
mechanics
mecklenburg
med
medal
medalja
medalje
medaljen
medh
medha
media
median
medias
mediat
mediatik
mediatike
mediave
medic
medical
medici
medicinale
medicine
medieval
medikamente
medikamentet
medina
medine
mediterranean
meditimit
medium
medrese
medreseja
medresene
medresese
medvegje
meet
mega
megjithate
megjithe
mehdi
mehmed
mehmedi
mehmet
mehmeti
mehmetit
mehr
mei
meiji
mein
meje
mejoze
meka
mekanik
mekanika
mekanike
mekanize
mekanizma
mekanizmat
mekanizmave
mekanizmi
meke
mekke
meksi
meksika
meksikan
meksikane
meksike
meksiko
mekuli
mel
melbourne
melissa
melodi
melville
mema
memaliaj
member
members
membrana
membrane
memorandum
memoria
memorial
memorie
memorien
memories
memory
men
menaxher
menaxhere
menaxheri
menaxhim
menaxhimi
menaxhimin
menaxhimit
menaxhment
menaxhohet
menaxhon
menaxhuar
menc
mend
mende
mendelssohn
mendim
mendime
mendimet
mendimeve
mendimi
mendimin
mendimit
mendimtare
mendja
mendje
mendjen
mendjes
mendjet
mendohej
mendohet
mendoi
mendoj
mendoje
mendojme
mendojne
mendon
mendoni
mendonin
mendonte
mendor
mendore
mendoza
menduan
menduar
menduarit
mendur
menje
menjehere
mental
mentor
mentuhotep
menyra
menyre
meqe
meqene
mer
mercedes
mercenare
meri
merini
merita
meritat
merite
meritojne
meriton
merituar
merkaton
merkatos
merkel
merlin
mermer
mermeri
mermerit
mero
merr
merre
merrej
merren
merreshin
merret
merrni
merrnin
merrte
mes
mesa
mesatar
mesatare
mesataren
mesatarisht
mesatarja
mesazh
mesazhe
mesazhet
mesazheve
mesazhi
mesazhin
mesazhit
mesdhe
mesdhetar
mesdhetare
mesdheun
mesdheut
mesdite
mese
mesfushe
mesfushor
mesfushore
mesfushori
mesfushorin
mesfushorit
meshe
meshkuj
meshkujt
meshkujve
mesi
mesia
mesin
mesit
mesjeta
mesjetar
mesjetare
mesjete
mesme
mesmen
mesnate
mesopotami
message
messenger
messi
messina
messit
mesues
mesut
met
meta
metabolike
metabolizmit
metafizike
metafora
metafore
metal
metale
metalet
metaleve
metali
metalik
metalike
metalit
metallica
metalurgjia
metalurgjise
metamorphoses
metat
mete
metheny
method
methods
metoda
metodat
metodave
metode
metodike
metodologji
metodologjia
metohi
metohise
metra
metrash
metrave
metrazh
metrazhit
metrike
metro
metropol
metropolis
metropolitan
metropolitane
metz
meurthe
meuse
mexhid
mexico
meyer
meyers
mez
mezi
mg
mhz
mi
mia
miami
mic
michael
michel
michelangelo
michele
michell
michelle
michigan
microsoft
mid
middle
midi
midis
mie
miell
mielli
mig
migjeni
migration
migrimet
migrimi
migrimit
migruan
migruar
miguel
mihail
mihal
mihali
mij
mija
mije
mik
mikael
mike
mikel
mikene
mikhail
mikprite
mikro
mikroskopike
mikrovale
miku
mikun
mikut
mil
milan
milani
milanin
milanit
milano
milanos
mile
miles
miletit
mili
miliard
miliarde
milicise
milimetra
milion
miliona
milione
militante
military
milito
milje
mill
mille
millennium
miller
million
milloshevic
millosheviqi
millosheviqit
milo
milos
milot
milton
mim
mime
mimet
mimeve
mimi
mimin
mimit
mimo
mimoza
min
mina
minare
minares
minaret
minarja
minato
minatore
mind
mine
mineral
minerale
mineralet
mineraleve
mineralit
minerare
minerva
mines
ming
minga
minh
mini
miniatura
miniature
miniera
minierat
minierave
miniere
minimal
minimale
minimizuar
minimum
ministe
minister
ministra
ministrat
ministrave
ministre
ministri
ministria
ministrin
ministrine
ministrise
ministrit
ministrite
ministry
minjte
minnesota
minor
minore
minoritare
minoriteteve
minority
minox
minus
minuta
minutash
minutat
minutave
minute
minuten
mio
miq
miqe
miqte
miqve
mir
mira
miranda
mirash
mirat
miratim
miratimi
miratimin
miratimit
miratoi
miraton
miratua
miratuan
miratuar
miratuara
mirave
mirdita
mirdite
mirditore
mire
miri
mirko
miro
miroslav
mirpo
mirren
mirret
mirror
mirusha
mirushe
mirza
mis
mise
mises
mish
misha
mishe
mishi
mishin
mishit
mishngre
misimovic
mision
misionar
misionare
misione
misionet
misioneve
misioni
misionin
misionit
misisipi
misja
miskito
misri
misrit
miss
missing
mission
mississippi
missouri
mister
misteret
misteri
misterioz
misterioze
mistik
mistike
mit
mita
mitchell
mite
mitet
miteve
miti
mitik
mitike
mitin
mitit
mitologji
mitologjia
mitologjike
mitologjine
mitologjise
mitra
mitre
mitropoliti
mitrovica
mitrovice
mitur
miturit
miu
miut
mix
mixed
mizore
mizzi
mjaft
mjafte
mjafton
mjaftueshe
mjaftueshme
mjalte
mjalti
mjaltit
mje
mjeda
mjedis
mjedise
mjediset
mjediseve
mjedisi
mjedisin
mjedisit
mjedisor
mjedisore
mjegull
mjek
mjeke
mjekimi
mjeksore
mjeku
mjekut
mjen
mjere
mjes
mjeshte
mjeshtra
mjeshtrat
mjeshtrave
mjeshtri
mjeshtrit
mjet
mjete
mjetet
mjeteve
mjeti
mk
ml
mls
mm
mn
mo
mobil
mobile
moby
moc
mochan
mochi
mod
moda
mode
model
modele
modelet
modeleve
modeli
modelimi
modelimin
modelimit
modelin
modelit
modeluar
modena
modern
moderne
modernizimin
modernizimit
moderuar
modest
modeste
modifikime
modifikuar
moduli
modulimi
moglica
mogul
mogule
mohamed
mohammad
mohammed
mohan
mohenjo
mohimi
mohoi
mohojne
mohon
mohuar
moi
moisiu
moisiut
moj
moksha
mol
molare
moldavi
moldavia
moldavise
molekula
molekulare
molekulat
molekulave
molekule
molla
molle
molose
molotov
mom
moment
momentale
momentalisht
momente
momentet
momenti
momentin
momentit
mon
monaco
monako
monakos
monark
monarke
monarki
monarkia
monarkine
monarkise
monarku
mondadori
monde
mondo
mone
monedha
monedhat
monedhave
monedhe
monet
monetar
monetare
money
mongol
mongole
mongoli
mongolia
mongolise
mongozi
monica
monitor
monitorimi
monitorimin
monitorimit
monitoruar
monkey
mono
monogatari
monografi
monografia
monolitike
monroe
mons
monster
monsters
mont
montalto
montana
montazhi
monte
montenegro
montgomery
montpellier
montreal
montuar
montuhotepit
monument
monumental
monumentale
monumente
monumentet
monumenteve
monumenti
monumentin
monumentit
monuments
moon
moore
mor
mora
morac
moral
morale
morales
morali
moralin
moralisht
moralit
morava
morave
morbihan
more
moren
moreno
morese
morfine
morfologjia
morfologjike
morgan
mori
moria
morina
morine
morning
morr
morre
morri
morris
morrison
morrissey
mortor
mortore
mos
moscow
moselle
mosha
moshat
moshatare
moshave
moshe
moshen
moshuar
moshuarit
moska
moske
mosmarre
mospe
mosque
mosques
most
moste
mostra
mostrat
mostrave
mot
mote
mother
moti
motilal
motion
motit
motiv
motivacionin
motive
motivet
motiveve
motivi
motivimi
motivimin
motivimit
motivuar
moto
motoc
motoja
moton
motor
motore
motori
motorike
motorin
motorit
motorr
motors
motra
motrat
motrave
motre
motta
mount
mountain
mountains
mourinho
mouse
movement
movie
movies
mozaik
mozaike
mozaiku
mozart
mozilla
mp
mposht
mposhte
mposhti
mposhtur
mpr
mprehta
mprehte
mr
mrekulli
mrekullia
mrekullite
mrekullive
mrekullueshe
mrekullueshme
mri
mrs
ms
msc
mshe
mshme
mshpe
msn
mt
mtim
mtime
mtimet
mtimeve
mtimi
mtimin
mtimit
mtland
mtoi
mtoje
mtojne
mton
mtua
mtuan
mtuar
mtuara
mtv
mu
mua
muaj
muaji
muajin
muajit
muajsh
muajt
muajve
muar
muara
mubarak
muc
much
mughal
muhamed
muhamedi
muhamedin
muhamedit
muhamet
muhameti
muhametit
muhammad
muhammed
muhammedi
muhammedit
muharrem
muharremit
muhaxhire
muje
mujer
muji
mujo
mujor
mujore
mukjes
mula
mulla
mulli
mulliqi
mulliri
mullirit
multi
multimedia
multimediale
multimode
multiple
mun
mund
munde
munden
mundesi
mundet
mundi
mundja
mundje
mundjeje
mundjen
mundjes
mundjet
mundjeve
mundo
mundohen
mundohet
mundshe
mundshme
mundua
munduar
mundur
mungesa
mungese
mungojne
mungon
mungonin
mungonte
munguar
munich
munshiram
mur
murad
murale
murat
murati
muratit
murcia
murder
mure
muresh
muret
mureve
murg
murgeshe
murgje
murgjit
murgu
muri
murin
muriqi
murit
murphy
murray
murrme
murtaja
murtaje
mus
musa
musai
musculus
muse
museo
museum
mushke
music
musical
muskuj
muskujt
muskujve
muskulore
muslim
musliman
muslimane
muslims
musliu
musolini
mussolini
must
mustafa
mustafe
mustaqe
mut
muzaka
muzakajt
muzake
muze
muzete
muzeu
muzeun
muzeut
muzika
muzikant
muzikante
muzike
muzikes
muzikor
muzikore
mw
my
mya
myftari
myfti
myftiu
mynih
mynihut
mysafir
mysafire
mysliman
myslimane
mysql
mystery
myth
mythology
myzeqese
n
na
nabla
nac
nach
nacional
nacionalc
nacionale
nacionalist
nacionaliste
nacionalizmi
nacionalizmit
nadu
naduse
nafta
nafte
naga
nagar
nagara
nagasaki
nagato
naim
naimi
naimit
nalanda
nalte
nalukettu
nam
namaz
namazi
namazin
namazit
name
named
names
nami
namibia
namik
nana
nancy
nandi
nandit
nano
nantes
napoleon
napoleoni
napoleonit
napoli
napolin
napolit
naqe
naqshme
naqur
nara
narasimha
narayan
narayana
narkotike
narrative
narte
naruto
nas
nasa
naser
nash
nasi
nasir
nasr
nassau
nasser
nat
nata
natale
natalia
natalie
natalino
natasha
nate
nath
nathan
nation
national
nationale
nationalfilmcenter
nationalism
nations
native
nato
natos
natriumi
natriumit
natural
nature
natyra
natyral
natyrale
natyraliste
natyralizmi
natyre
natyrisht
natyror
natyrore
natyrshe
natyrshme
naum
naval
navarre
nave
navy
nawab
nawabi
nazi
nazif
nazionale
nazist
naziste
nazmi
nba
nbc
nc
nchen
nchez
ncia
nd
nda
ndafili
ndafshi
ndafshit
ndahej
ndahen
ndaheshin
ndahet
ndaj
ndaje
ndajne
ndal
ndale
ndalesa
ndalese
ndalet
ndalim
ndalimi
ndalimin
ndalimit
ndalohet
ndaloi
ndaloje
ndalojne
ndalon
ndalonin
ndalonte
ndalua
ndaluan
ndaluar
ndaluara
ndalur
ndan
ndane
ndanin
ndante
ndara
ndare
ndarja
ndarje
ndarjen
ndarjes
ndarjet
ndarjeve
ndau
nde
ndege
ndej
nden
nder
nderaj
nderajt
nderbej
nderbeu
nderbeun
nderbeut
ndere
nderi
nderim
nderime
nderimet
nderimi
nderin
nderit
nderkohe
nderkombetar
nderkombetare
ndermjet
nderohet
nderoi
nderon
ndersa
ndershe
ndershme
ndertuar
nderua
nderuar
ndesh
ndesha
ndeshe
ndeshen
ndeshet
ndeshim
ndeshja
ndeshje
ndeshjen
ndeshjes
ndeshjesh
ndeshjet
ndeshjeve
ndeshur
ndet
ndete
ndeti
ndetin
ndetit
ndetja
ndetje
ndetjen
ndetshe
ndetshme
ndetur
ndeve
ndez
ndeze
ndezur
ndezura
ndheshme
ndi
ndia
ndie
ndihej
ndihen
ndihet
ndihma
ndihmat
ndihme
ndihmen
ndihmese
ndihmoi
ndihmoje
ndihmojne
ndihmon
ndihmonin
ndihmonte
ndihmuan
ndihmuar
ndija
ndikim
ndikime
ndikimet
ndikimeve
ndikimi
ndikimin
ndikimit
ndikohet
ndikoi
ndikoje
ndikojne
ndikon
ndikonte
ndikua
ndikuan
ndikuar
ndikuara
ndim
ndime
ndimi
ndimin
ndimit
ndimor
ndimore
ndin
ndine
ndiqen
ndiqet
ndiqnin
ndiqte
ndise
ndit
ndite
ndive
ndje
ndjehen
ndjehet
ndjek
ndjeke
ndjekin
ndjekja
ndjekje
ndjekjen
ndjekjes
ndjekur
ndjekura
ndjen
ndjenja
ndjenjat
ndjenjave
ndjenje
ndjente
ndjere
ndjerit
ndjeshe
ndjeshme
ndjesi
ndjeu
ndo
ndoc
ndodh
ndodhe
ndodhej
ndodhen
ndodheshin
ndodhet
ndodhi
ndodhin
ndodhite
ndodhte
ndodhur
ndohen
ndohet
ndoi
ndoj
ndoja
ndoje
ndojne
ndom
ndomte
ndon
ndone
ndonin
ndonje
ndonte
ndoq
ndoqe
ndoqi
ndor
ndore
ndosha
ndoshe
ndoshta
ndote
ndotja
ndotjen
ndotjes
ndotur
ndra
ndrat
ndrave
ndre
ndrek
ndresa
ndrese
ndreu
ndri
ndric
ndrim
ndrime
ndrimet
ndrimeve
ndrimi
ndrimin
ndrimit
ndrit
ndritshe
ndritshme
ndritur
ndrohet
ndroi
ndroje
ndrojne
ndron
ndronin
ndronte
ndror
ndrore
ndrra
ndrrat
ndrrave
ndrre
ndrua
ndruan
ndruar
ndrueshe
ndrueshme
ndryshe
ndryshem
ndryshim
ndryshime
ndryshimet
ndryshimeve
ndryshimi
ndryshimin
ndryshimit
ndryshme
ndryshmet
ndryshohet
ndryshoi
ndryshoje
ndryshojne
ndryshon
ndryshonin
ndryshonte
ndryshua
ndryshuan
ndryshuar
ndryshueshe
ndryshueshme
ndshe
ndshme
ndua
nduan
nduar
nduara
nduarit
ndue
ndve
ne
near
nebi
nebraska
nec
nedve
nee
need
nefertari
negativ
negative
negativisht
negociata
negociatat
negociatave
negociuar
neil
neill
nekropoli
nel
nella
nelly
nelson
nemuna
nen
nena
nene
nenet
neni
nenin
nenit
nentor
neo
neoklasike
neolitik
neolitike
neolitit
nepal
nepali
nepalit
nepe
neper
nepermjet
neretva
neritan
nero
nerva
nervat
nervor
nervore
nes
nese
nesh
net
neta
nete
netflix
netherlands
neto
network
networks
neu
neue
neuilly
neumann
neurologjike
neutral
neutrale
neuville
nevada
neve
never
nevis
nevoja
nevojat
nevojave
nevoje
nevojiten
nevojitet
nevojshe
nevojshme
new
newcastle
newman
news
newton
nexhat
nexhip
next
neymar
nez
nezir
neziri
nf
nfamilja
ng
nga
ngadale
ngadalshe
ngadalshme
ngadalte
ngadhe
nganje
ngaqe
ngarkesa
ngarkesat
ngarkesave
ngarkese
ngarkoi
ngarkua
ngarkuar
ngarkuara
ngase
ngate
ngaze
nge
ngel
ngelur
ngjajne
ngjajshe
ngjajshme
ngjall
ngjalli
ngjallja
ngjallur
ngjan
ngjante
ngjare
ngjarja
ngjarje
ngjarjeje
ngjarjen
ngjarjes
ngjarjesh
ngjarjet
ngjarjeve
ngjashe
ngjashme
ngjason
ngje
ngjes
ngjeshur
ngjesi
ngjesin
ngjesit
ngjet
ngjeve
ngjisht
ngjishtes
ngjishtja
ngjit
ngjite
ngjitej
ngjiten
ngjitet
ngjitja
ngjitje
ngjitjen
ngjitjes
ngjitur
ngjyra
ngjyrash
ngjyrat
ngjyrave
ngjyre
ngjyrosur
ngjyrosura
ngre
ngreje
ngrene
ngri
ngrihej
ngrihen
ngriheshin
ngrihet
ngrinte
ngrire
ngrit
ngrite
ngritet
ngriti
ngritja
ngritje
ngritjen
ngritjes
ngritur
ngritura
ngrohja
ngrohje
ngrohjen
ngrohjes
ngrohta
ngrohte
ngshe
ngshme
ngu
nguar
nguez
ngul
ngule
nguli
ngulitur
ngulje
ngulur
ngun
ngurta
ngurte
ngushe
ngusht
ngushta
ngushte
ngushtica
ngushtice
ngut
nguye
nh
ni
nia
nic
nica
niccolo
nice
nicholas
nicht
nick
nickelodeon
nico
nicola
nicolae
nicolas
nicole
nie
niedersachsen
nieje
nien
nies
niet
nietzsche
nieve
nigeri
nigeria
night
nih
nijazi
nik
nika
nikaj
nikaragua
nike
nikel
nikeli
nikelit
nikese
nikita
niko
nikola
nikolai
nikolla
nikolle
nil
nilit
nils
nim
nimani
nime
nimet
nimeve
nimi
nimin
nimit
nin
nina
nine
nineteenth
nini
ninja
nino
nintendo
ninxha
ninxhat
nio
nip
nipe
nipi
nipin
nipit
nirvana
nis
nise
nisej
nisen
niset
nish
nishan
nishani
nishit
nisi
nisin
nisja
nisje
nisjen
nisjes
nisma
nisme
niste
nisur
nit
nite
niue
nivel
nivele
nivelet
niveleve
niveli
nivelin
nivelit
nivice
nixon
nj
nja
njane
njazi
nje
njegos
njeh
njejta
njejte
njejten
njejtin
njen
njera
njere
njerez
njerezit
njerezore
njerezve
njeri
njeriu
njeriun
njeriut
njerzit
njerzore
njes
njeste
nji
njihej
njihen
njiheshin
njihet
njihnin
njihte
njim
njoftim
njoftimi
njoftoi
njofton
njoftua
njoftuan
njoftuar
njoh
njohe
njohim
njohin
njohja
njohje
njohjeje
njohjen
njohjes
njohjet
njohu
njohur
njohura
njohurat
njohuri
njohuria
njohurit
njohurite
njohurive
njolla
njollat
njome
njor
njosur
nju
njutoni
njutonit
njyer
nk
nklasa
nkryetar
nkryetare
nkuptohet
nkuptoje
nkuptojne
nkupton
nkuptonte
nkuptuar
nl
nlloje
nm
no
nobel
nobelist
noble
nobunaga
nocion
nocioni
nocionin
node
noe
noel
nofka
nofke
nofulla
nofulle
nohej
nohen
nohet
noi
noindex
noise
noizy
noj
noja
nojat
nojave
noje
nojme
nojne
nokia
noli
nolit
nomade
nome
nomenklature
nomiminmin
nominal
nominale
nominim
nominime
nominimet
nominua
nominuar
nominuarit
non
nonin
nonte
nor
nora
norbert
nord
nordik
nordike
nordrhein
nore
norma
normal
normale
normalen
normalisht
norman
normandie
normane
normat
normative
normave
norme
norodom
north
northern
northwestern
norton
norvegjez
norvegjeze
norvegji
norvegjia
norvegjine
norvegjise
norway
norwich
nos
nosi
not
nota
notat
notave
note
notes
nothing
noti
notit
notre
nou
nouveau
nouvelle
nov
nova
novel
novela
novelat
novele
november
novi
novo
novobe
novosibirsk
now
nprefekture
nqs
nr
ns
nsdap
nshkrimi
nshkrimin
nshkrimit
nshkroi
nshkrua
nshkruan
nshkruar
nshkrues
nshkruesit
nshtete
nshtrimin
nshtrohen
nshtroheshin
nshtrohet
nshtrua
nshtruan
nshtruar
nster
nt
nta
nte
ntgen
nther
ntoke
ntor
ntori
ntorit
nu
nua
nuan
nuar
nuara
nues
nuese
nuesi
nuesit
nuhi
nujore
nuk
nukleare
number
numbers
nume
numer
numerik
numerike
numizmatike
numra
numrat
numrave
numri
numrin
numrit
nuoros
nuova
nuovo
nur
nuremberg
nuri
nuse
nusen
nuses
nushi
nusja
nvlere
nw
nxe
nxehet
nxehta
nxehte
nxirren
nxirret
nxirrte
nxise
nxisin
nxiste
nxit
nxite
nxiti
nxitimi
nxitja
nxitje
nxitjen
nxitur
nxjerr
nxjerra
nxjerre
nxjerrin
nxjerrja
nxjerrjen
nxjerrjes
nxore
nxori
nxorr
nxorri
ny
nyja
nyje
nyjet
nyjeve
nyra
nyrat
nyrave
nyre
o
oak
ob
oba
obama
obelisku
obito
object
objekt
objekte
objektet
objekteve
objekti
objektin
objektit
objektiv
objektiva
objektivat
objektivave
objektive
objektivi
objektivin
obligim
oborr
oborre
oborret
oborreve
oborri
oborrin
oborrit
oborrtare
observatori
observer
obsh
oc
occitanie
ocean
och
oclc
october
od
oda
ode
oden
oder
odessa
odhise
oecd
of
ofensiva
ofensive
oferta
ofertat
oferte
off
office
official
oficer
oficere
oficeri
ofrimi
ofrimin
ofrimit
ofrohen
ofrohet
ofroi
ofroje
ofrojne
ofron
ofronin
ofronte
ofrua
ofruan
ofruar
ofruara
ofruesit
often
og
oh
ohe
ohen
ohet
ohio
ohri
ohrit
oi
oil
ois
oise
oj
oje
ojme
ojne
ojq
ok
okb
oklahoma
okollate
oksfordit
oksigjen
oksigjeni
oksigjenin
oksigjenit
oktal
oktava
oku
okupimit
okupuar
ol
ola
olav
old
oldenburg
ole
olga
olimpiade
olimpico
olimpik
olimpike
olivari
oliveira
oliver
olivia
olivier
olof
olympique
om
omani
omanit
omar
ombrelle
omega
omer
omeri
omukama
on
once
one
onepage
oni
onin
online
only
onomastik
onomastike
ontario
onte
onufri
op
open
opera
operacion
operacional
operacionale
operacione
operacionet
operacioneve
operacioni
operacionin
operacionit
operas
operation
operativ
operative
operator
operatore
operatori
operatorname
opere
operojne
operon
operuar
opinion
opinione
opinioni
opinionin
opinionit
opoja
opoje
opold
opozita
opozitare
opozite
ops
optik
optike
optimal
optimale
opus
oqean
oqeanet
oqeani
oqeania
oqeanike
oqeanin
oqeanit
or
ora
oral
orale
orange
orape
orar
orari
orbita
orbitale
orbite
orchestra
order
ore
oregon
org
organ
organe
organet
organeve
organi
organik
organike
organin
organit
organizata
organizatat
organizatave
organizate
organization
organizativ
organizative
organizator
organizatore
organizatori
organize
organizim
organizimi
organizimin
organizimit
organizma
organizmat
organizmave
organizmi
organizmin
organizmit
organizohen
organizohet
organizoi
organizoje
organizojne
organizon
organizonte
organizua
organizuan
organizuar
organizuara
orhan
ori
oria
orient
oriental
orientale
orientales
orientim
orientimi
orientimin
orientimit
orientuar
orientuara
origin
original
origini
origins
origjina
origjinal
origjinale
origjinali
origjine
oristanos
orite
orive
oriz
orizi
orizit
orkeste
orkestra
orkestrale
orkestre
orkestrimin
orlando
orleans
orne
oro
orochi
ortega
orthodhokse
orthodox
ortodoks
ortodokse
os
osaka
osbe
oscar
osce
ose
oskar
oslo
osman
osmane
osmani
osmanisht
osmanit
osnabru
ostrobothnia
osvaldo
oswald
other
others
oto
otoman
otomane
otto
ottoman
ou
ouest
ould
our
out
output
outside
ov
ova
ovale
ove
over
overijssel
overview
ovi
ovid
ovidi
ovidit
owen
own
oxford
oxhaku
oz
p
pa
paafte
pabarabarte
pabese
pabesueshme
pablo
pabotuar
pac
pacaktuar
pace
pacient
paciente
pacienti
pacientit
pacific
pacolli
pade
paderborn
padi
padiskutueshe
padova
padove
padre
padrejte
padukshe
padukshme
padyshim
pafaje
pafajshe
pafajshme
pafavorshme
pafund
pafunde
pafundme
pafuqishe
pag
paga
pagan
pagane
pagat
pagave
page
pages
pagesa
pagesat
pagesave
pagese
pagjume
pagoda
pagoi
paguaje
paguajne
paguan
paguanin
paguante
paguar
pah
pahlavi
pai
painting
paione
paisje
paisjet
pajaziti
pajete
pajisja
pajisje
pajisjen
pajisjes
pajisjet
pajisjeve
pajisur
pajisura
pajtim
pajtimin
pajtimit
pajtohen
pajtohet
pajtua
pajtuan
pajtuar
pajtueshme
pak
pake
paketa
paketat
paketave
pakete
pakica
pakicat
pakicave
pakice
pakistan
pakistaneze
pakistani
pakistanin
pakistanit
pako
paksa
pakta
pakte
pakthyeshme
pakti
paktit
paku
pakufizuar
pal
pala
palace
palacio
palais
palatinate
palatine
palau
palazzo
palce
pale
paleokristiane
paleolitit
palermo
palermos
palestina
palestine
palestinez
palestineze
palgrave
pali
paligjshe
paligjshme
palit
pallat
pallate
pallatet
pallateve
pallati
pallatin
pallatit
pallava
pallto
palm
palma
palmave
palme
palmer
palodhur
paluajtshme
pamartuar
pambrojtur
pambuku
pambukut
pame
pamja
pamjaftueshe
pamjaftueshme
pamje
pamjen
pamjes
pamjet
pamjeve
pamor
pamore
pamposhtur
pamunde
pamundur
pan
panair
panaire
panairi
panairin
panajot
panama
panamaja
panamase
pancha
panchakroshi
panda
pandare
pandashme
pande
pandeli
pandemia
pandemise
pandi
pandryshuar
pandryshueshme
pane
panel
panele
panelet
paneli
panevojshme
pangoline
panik
panjohur
panjohura
pano
panonia
panonise
panorama
panorame
panoramike
pantallona
panteonit
panthera
panume
paolo
papa
papale
papare
papaste
pape
paper
papers
paplote
papnor
papranueshme
paprekshme
paprekur
paprekura
papritmas
papritur
papritura
papua
papune
paqarta
paqarte
paqe
paqeje
paqen
paqeruajte
paqes
paqja
par
para
paraardhe
parabole
paracaktuar
parade
paradise
parafundit
paragjykimet
paraguaj
paraguaji
parahistoria
parahistorike
paraja
parajsa
parajse
parakohshme
paralajme
paralel
paralele
paralelisht
parallel
paralufte
paramenduar
parameter
parameters
parametra
parametrat
parametrave
paramilitare
paramithia
paramithise
parandalimi
parandalimin
parandalon
parandaluar
parandaluese
parapamje
parapare
parape
paraprak
paraprake
paraprakisht
paraprin
paraprire
paraqese
paraqesin
paraqet
paraqisnin
paraqiste
paraqit
paraqite
paraqitej
paraqiten
paraqitet
paraqiti
paraqitja
paraqitje
paraqitjen
paraqitjes
paraqitjet
paraqitjeve
paraqitur
paraqitura
pararende
parase
parash
parashikimet
parashikimi
parashikimin
parashikohet
parashikoi
parashikon
parashikonte
parashikuar
parashikuara
parashkollor
parashkollore
parashqevi
parashute
parasysh
parat
parate
parathe
paraushtarake
parave
parazite
parc
pare
paret
parga
parge
pari
paria
parim
parime
parimet
parimeve
parimi
parimin
parimit
parin
paris
parise
parisi
parisit
parit
park
parker
parku
parkun
parkut
parlament
parlamentar
parlamentare
parlamenti
parlamentin
parlamentit
parliament
parma
parme
parodi
parqe
parqet
parregullt
parregullta
parshe
parshme
part
partement
parti
partia
partiak
partiake
partial
partie
partine
partise
partite
partive
partizan
partizane
partizani
partizanin
partizanit
partly
partner
partnere
partneri
partnerin
partneritet
partneriteti
partneritetit
parts
party
parvati
parvatit
pas
pasagjere
pasakte
pasaporta
pasaporte
pasardhe
pasazh
pascal
pasdite
pase
pasha
pashai
pashait
pashallare
pashalle
pashe
pashke
pashko
pashku
pashmangshe
pashmangshme
pashqyrtuara
pashtrikut
pasi
pasigurt
pasion
pasioni
pasionin
pasionit
pasionuar
pasiqe
pasiv
pasive
paska
paske
paslufte
pasme
pasnje
pasohet
pasoi
pasoj
pasoja
pasojat
pasojave
pasoje
pasojne
pason
pasqyra
pasqyrat
pasqyre
pasqyrim
pasqyrohen
pasqyrohet
pasqyrojne
pasqyron
pasqyruar
pass
passau
passion
past
pastaj
paste
pastor
pastorale
pastra
pastrehe
pastrim
pastrimi
pastrimin
pastrimit
pastruar
pasua
pasuan
pasuar
pasues
pasuese
pasuesi
pasuesit
pasuksesshe
pasuksesshme
pasuniversitar
pasuniversitare
pasur
pasura
pasuri
pasuria
pasurimin
pasurine
pasurise
pasurit
pasurite
pasurive
pasuruar
pat
pata
patate
pate
patenta
patente
path
pati
patjete
patna
patne
pato
patogjene
patologji
patologjike
patos
patriarkale
patriarku
patrice
patricia
patrick
patriot
patriote
patrioti
patriotik
patriotike
patriotit
patronazhin
patundshme
patur
pau
paul
paula
paulista
paulo
paund
pavare
pavarsise
pavarur
pavarura
pavdeke
pavdekshe
pavdekshme
pave
pavel
pavete
pavlefshme
pavlov
payne
pays
paz
pazakonta
pazakonte
pazar
pazari
pazarin
pazarit
pazbuluar
paze
pb
pbb
pbs
pc
pcf
pcl
pd
pda
pdf
pdi
pdk
pdsh
pe
peace
pearl
pearson
pec
pedagog
pedagoge
pedagogji
pedagogjia
pedagogjik
pedagogjike
pedagogjise
pedagogu
pedagogut
pedro
peer
peizazh
peizazhe
peizazhet
peizazhi
peizazhin
peizazhit
peja
peje
pejgamberi
pejgamberit
pejic
pekin
pekinit
pele
pelegrinazhi
pelegrinazhit
pelegrine
pellazge
pellg
pellgje
pellgjet
pellgu
pellgun
pellgut
peloponez
peloponezit
pema
peme
pen
pena
penal
penale
penallti
penalltia
penalltine
penalltite
penalltive
penda
pende
pendese
pene
peng
pengesa
pengesat
pengesave
pengese
pengoi
pengojne
pengon
pengonte
penguan
penguar
penguin
penisit
penn
pennsylvania
penny
pensilvani
pensilvanise
pension
people
peoples
pepe
peqin
peqinit
per
perandor
perandorak
perandorake
perandore
perandoresha
perandoreshe
perandori
perandoria
perandorin
perandorine
perandorise
perandorit
perandorite
perandorive
perbehet
perbere
perceptimi
perceptimin
perceptimit
perceptuar
percy
perde
perdoren
perdoret
perdorur
pere
pereira
perendim
perendimore
peres
perfect
perfekte
performanca
performancat
performancave
performance
performoi
performonte
performuan
performuar
perfshin
perfshire
perfundoi
pergjithshem
pergjithshme
peri
periferi
periferike
perikliu
perikliut
perime
perimet
perimeve
period
periode
periodik
periodike
periudha
periudhat
periudhave
periudhe
periudhen
periudhes
perket
perla
perlat
permanent
permban
permes
pero
perpara
perry
pers
perse
persekutimi
persekutimit
perseri
perseu
perseus
persi
persia
persian
persiane
persik
persise
persisht
person
persona
personal
personale
personalisht
personalitet
personalitete
personalitetet
personaliteteve
personaliteti
personalitetin
personalitetit
personash
personat
personave
personazh
personazhe
personazhet
personazheve
personazhi
personazhin
personazhit
personel
personeli
personelin
personelit
personi
personin
personit
perspective
perspectives
perspektiva
perspektivat
perspektive
peru
perugia
perugino
perumal
peruse
pervec
pervizi
pes
pescara
pese
pesha
peshave
peshe
peshk
peshkaqene
peshkatare
peshkim
peshkimi
peshkimit
peshkop
peshkopate
peshkope
peshkopi
peshkopise
peshkopit
peshku
peshkut
peshojne
peshon
peshonte
peshq
peshqit
peshqve
pesta
pestalozzi
peste
pesti
petar
pete
peter
petersburg
peterson
peticion
petit
petra
petraq
petrarka
petrarke
petrele
petrit
petriti
petro
petrovic
petrucci
pez
peza
peze
pezull
pezullua
pezulluar
pfa
pfalz
pg
pgp
ph
phane
phantom
phd
phi
phil
philadelphia
philip
philipp
philippe
phillips
philosophical
philosophy
phoenix
phone
photo
photos
php
phyllosticta
physical
physics
pi
pia
piacenza
piak
piake
pianist
pianiste
piano
pianos
piazza
pic
picardie
picture
pictures
pie
piece
pier
pierce
piero
pierre
pieta
pieter
pietro
pija
pije
pijet
pijeve
pijshe
pika
pikat
pikave
pike
pikerisht
pikolo
piktor
piktore
piktoreske
piktori
piktorike
piktorin
piktorit
piktura
pikturat
pikturave
pikture
pikturoi
pikturuar
pikturuara
pill
pilot
pilote
piloti
pilotin
pilotit
pin
pine
ping
pinguine
pingul
pinin
pink
pinkerton
pinto
pio
pioneer
pionier
pioniere
pipa
pipe
piper
piqen
piqet
pique
pira
piramida
piramidale
piramidat
piramidave
piramide
pirat
pirate
pirates
pire
pirja
piro
pirro
pirroja
pirros
pisa
pise
pisha
pishe
pishine
pista
piste
pistoia
pistolete
pit
pitagora
pite
pitha
pitoni
piu
pius
pive
pizarro
pize
pjata
pjate
pjekjes
pjekur
pjekura
pjekurine
pjekurise
pjelle
pjellore
pjellorise
pjerre
pjerrte
pjes
pjesa
pjese
pjesen
pjesmarre
pjesmarrjen
pjesshe
pjesshme
pjestar
pjestare
pjete
pjeter
pjetri
pjetrit
pk
pkk
pksh
pl
pla
plac
place
places
plage
plagos
plagose
plagoset
plagosur
plain
plak
plake
plaku
plakut
plan
planck
plane
planet
planetare
planete
planeteve
planeti
planetin
planetit
planeve
plani
planifikim
planifikimi
planifikimin
planifikimit
planifikoi
planifikon
planifikuar
planifikuara
planimetri
planimetria
planin
planit
planning
plant
plants
plastike
plata
plate
platforma
platformat
platforme
platini
plato
platoni
platonike
platonit
plava
plave
play
player
players
playing
plays
playstation
plaza
plazh
plazhe
plazhet
plazhi
plazhin
plazma
plazme
plehrave
pleistocenit
plenumit
pleq
pleqe
pleqte
pleqve
plini
pll
pllaja
pllaje
pllaka
pllakat
pllakave
pllake
pllana
plot
plota
plote
plovdiv
pluhur
pluhuri
pluhurit
plumb
plumba
plumbi
plumbit
plus
plutarch
plutarku
pm
pmatrix
pmb
pmc
pmid
png
po
poashtu
poc
pocket
podgorica
podgorice
podium
podrimja
podujeve
poe
poema
poemat
poeme
poems
poesia
poesie
poet
poete
poeti
poetik
poetike
poetin
poetit
poetry
poezi
poezia
poezie
poezine
poezise
poezish
poezite
poezive
pogradec
pogradeci
pogradecit
pohim
pohimi
pohoi
pohojne
pohon
pohonte
pohuar
point
poirot
poitou
pokal
poke
pol
polak
polake
poland
polar
polare
pole
polemika
polemikave
polemike
polenta
polet
poleve
poli
polic
police
polici
policia
policie
policine
policise
policor
policore
policy
polifonike
polin
polis
polit
politeknik
political
politics
politik
politika
politikan
politikane
politikani
politikat
politikave
politike
politikisht
politiko
pollo
pollogut
polo
poloni
polonia
polonine
polonise
polonisht
poly
pompe
pompei
pont
ponte
pop
pope
popuj
popujt
popujve
popular
population
populations
popull
popullaritet
popullariteti
popullaritetin
popullaritetit
popullarizuar
popullarizuara
popullata
popullatat
popullatave
popullate
populle
populli
popullin
popullise
popullit
popullor
popullore
popullsi
popullsia
popullsie
popullsine
popullsise
popullsite
popullsive
populluar
populluara
por
poradeci
pornhub
pornografike
porosi
porosine
porosite
porositi
porositur
porsche
port
porta
portal
portali
portat
portave
porte
porter
portet
porteve
porti
portier
portiere
portieri
portierin
portierit
portik
portike
portiku
portikut
portin
portit
portland
portnoy
porto
portokalli
portos
portrait
portret
portrete
portretet
portreti
portretin
portretit
portretizoi
portretizon
portretizuar
portsmouth
portugal
portugali
portugalia
portugaline
portugalise
portugalisht
portugez
portugeze
pos
posa
posac
posedojne
posedon
posht
poshte
poshtme
position
positive
possible
post
posta
postar
postare
poste
postet
posti
postin
potence
potencial
potenciale
potenciali
potencialin
potencialisht
potencialit
poter
pothuaj
pothuajse
potokut
potter
pound
pour
powell
power
powers
pozicion
pozicione
pozicionet
pozicioneve
pozicioni
pozicionimi
pozicionin
pozicionit
pozicionuar
pozita
pozitat
pozite
pozitiv
pozitive
pozitivisht
poznan
pp
ppen
ppsh
pr
pra
practice
pradesh
pradeshit
prado
prag
prage
pragu
prague
pragun
praktik
praktika
praktikat
praktikave
praktike
praktikisht
praktikohet
praktikojne
praktikuar
pran
prandaj
prane
prani
prania
pranimi
pranimin
pranimit
pranine
pranise
pranishe
pranishme
pranishmit
pranohen
pranohet
pranoi
pranoj
pranoje
pranojme
pranojne
pranon
pranonin
pranonte
pranua
pranuan
pranuar
pranuara
pranueshe
pranueshme
pranuesi
pranvera
pranvere
prap
prapa
prapambetur
prapashtesa
prapashtese
prapavija
prapavije
prape
prapme
praruar
prasad
pre
prec
precize
predha
predhe
predikimet
predikimin
predikoi
predikuar
prefekt
prefekti
prefektit
prefektura
prefekture
preference
preferohet
preferojne
preferon
preferonte
preferuar
preferuara
prehet
prehistorike
prej
preja
prejardhja
prejardhje
prejardhjen
prejardhjes
prek
prekaz
prekazi
preke
preken
preket
prekin
prekja
prekje
prekjes
prekshe
prekshme
preku
prekur
prekura
premier
premiera
premiere
premio
premium
premte
premten
premtes
premtim
premtimet
premtimin
premtoi
premton
premtuar
prendi
prene
preng
prenk
prentice
prera
prere
prerja
prerje
prerjen
prerjes
prerjet
pres
prese
present
presheva
presheve
presidenca
presidence
presidencial
presidenciale
president
presidente
presidenti
presidentin
presidentit
presidentja
presidiumit
presim
presin
presion
presioni
presionin
presionit
prespe
prespektive
press
prestigj
prestigjioz
prestigjioze
prestigjoze
pret
pretekstin
pretendim
pretendime
pretendimet
pretendimeve
pretendimin
pretendohet
pretendoi
pretendojne
pretendon
pretendonin
pretendonte
pretenduan
pretenduar
pretorian
pretoriane
pretty
preu
preve
preveze
prezantim
prezantimi
prezantimin
prezantimit
prezantohet
prezantoi
prezanton
prezantua
prezantuan
prezantuar
prezantues
prezantuese
prezenca
prezence
prezent
prezente
prezentuar
pri
price
prift
prifte
prifti
priftit
prije
prill
prilli
prillit
prima
primar
primare
primate
primavera
prime
primeira
primera
primitiv
primitive
primo
primula
princ
princat
princave
prince
princesha
princeshe
princess
princeton
princi
princin
principata
principatat
principate
principato
principe
principi
principles
princit
prind
prinde
prinsep
print
prioritet
prire
priren
prirja
prirje
prirjen
prirjet
prirur
prish
prishe
prishet
prishi
prishja
prishjen
prishjes
prishtina
prishtine
prishtines
prishur
prisnin
priste
pristina
prit
prite
pritej
priten
pritet
priti
pritja
pritje
pritjes
pritjet
pritshme
pritur
privat
private
privatisht
privatizimit
privilegje
privilegjet
privilegjuar
privuar
prix
prize
prizren
prizreni
prizrenit
pro
problem
problematike
probleme
problemet
problemeve
problemi
problemin
problemit
problems
proc
procedura
procedurat
procedurave
procedure
proceedings
proces
procese
proceset
proceseve
procesi
procesin
procesion
procesioni
procesit
procesor
procesore
procesori
process
prodani
prodhim
prodhime
prodhimet
prodhimeve
prodhimi
prodhimin
prodhimit
prodhimtarise
prodhohen
prodhoheshin
prodhohet
prodhoi
prodhoje
prodhojne
prodhon
prodhonin
prodhonte
prodhua
prodhuan
prodhuar
prodhuara
prodhues
prodhuese
prodhuesi
prodhuesit
prodhuesve
producent
producente
producenti
producer
production
productions
produksion
produksioni
produksionit
produkt
produkte
produktet
produkteve
produkti
produktin
produktit
produktive
prof
profane
profesion
profesional
profesionale
profesionalisht
profesione
profesionet
profesioni
profesionin
profesionist
profesioniste
profesionit
profesor
profesore
profesoreshe
profesori
profesorit
professional
professor
profet
profete
profeti
profetike
profetin
profetit
profil
profile
profili
profilin
profilit
program
programe
programet
programeve
programi
programimi
programimit
programin
programit
programming
programuar
programuese
progres
progresi
progresin
progresit
progresiv
progresive
progress
progressive
project
projekt
projekte
projektet
projekteve
projekti
projektimi
projektimin
projektimit
projektin
projektit
projektoi
projektua
projektuar
prokuple
prokuror
prokurore
prokurori
prokuroria
prokurorise
prokurorit
proletariatit
prometheu
promovimi
promovimin
promovimit
promovoi
promovoje
promovojne
promovon
promovua
promovuar
promovuese
prona
pronar
pronare
pronari
pronarit
pronat
pronave
prone
propaganda
propagande
proporcion
proporcional
proporcionale
propozim
propozime
propozimet
propozimi
propozimin
propozoi
propozon
propozua
propozuan
propozuar
propozuara
prostitute
protagonist
protagoniste
protagonisti
protection
proteina
proteinat
proteinave
proteine
protektorat
protesta
protestant
protestante
protestat
protestave
proteste
protestuar
protestues
protestuesit
proto
protocol
protokoll
protokollet
protokolli
protokollin
protokollit
prova
provat
provave
prove
provencale
provence
provimet
provimeve
provimin
provinca
provincat
provincave
province
provinces
provincia
provincial
provinciale
provizore
provoi
provojne
provokuar
provon
provonte
provuar
proza
prozator
proze
prroi
prroj
pru
prure
prurja
prurje
prusia
prusiane
prusise
prva
ps
pse
pseudo
pseudonim
pseudonimet
pseudonimi
pseudonimin
psg
psh
psi
psikiatrik
psikiatrike
psikike
psikolog
psikologe
psikologji
psikologjia
psikologjik
psikologjike
psikologjine
psikologjise
psikopatise
psikoze
psv
psychology
psychosis
pt
ptolemeu
ptolemeut
pu
pub
pubertetit
public
publication
publications
publicist
publiciste
publicistike
publik
publike
publikim
publikime
publikimet
publikimi
publikimin
publikimit
publikisht
publikoi
publikojne
publikon
publiku
publikua
publikuan
publikuar
publikuara
publikun
publikut
published
publisher
publishers
publishing
puc
puca
puce
puerto
puka
puke
pula
pule
pulisic
pulitzer
pulla
pulle
pulmonare
pult
puna
pune
punen
punes
punike
punim
punime
punimesh
punimet
punimeve
punimi
punimin
punimit
punishte
punishten
punishtes
punishtet
punishtja
punk
punohet
punoi
punoj
punoje
punojne
punon
punonin
punonje
punonte
puntore
punua
punuan
punuar
punuara
punues
punuese
punueshme
purana
puranike
pure
puri
purple
pus
puse
puset
pushim
pushime
pushimet
pushimeve
pushimi
pushimin
pushimit
pushka
pushkatim
pushkatuar
pushke
pushoi
pushojne
pushon
pushtet
pushteti
pushtetin
pushtetit
pushtim
pushtimet
pushtimeve
pushtimi
pushtimin
pushtimit
pushtoi
pushtojne
pushton
pushtonin
pushtonte
pushtua
pushtuan
pushtuar
pushtuara
pushtues
pushtuese
pushtuesi
pushtuesit
pushtuesve
pushuan
pushuar
pusi
pusin
pusit
put
pute
putet
puth
puthje
putin
putja
putje
putjen
putjes
putur
putura
puxha
puy
puyol
pvt
px
pyesin
pyet
pyete
pyeti
pyetja
pyetje
pyetjen
pyetjes
pyetjet
pyetjeve
pyetur
pyje
pyjet
pyjeve
pyjor
pyjore
pyll
pylle
pylli
pyllin
pyllit
pyre
q
qaboos
qaf
qafa
qafe
qajar
qamil
qamili
qan
qare
qark
qarku
qarkullim
qarkullimi
qarkullimin
qarkullimit
qarkullojne
qarkun
qarkut
qarqe
qarqet
qarqeve
qarta
qarte
qasja
qasje
qasjen
qasjes
qasjet
qazim
qazimi
qe
qebulli
qebullit
qelbe
qele
qeli
qeliza
qelizat
qelizave
qelize
qelizor
qelizore
qellim
qelqi
qelqit
qemal
qemali
qemalin
qemalit
qen
qena
qende
qender
qendra
qendrat
qendrave
qendre
qendron
qendror
qendrore
qendruar
qene
qeni
qenia
qenie
qenien
qenies
qeniet
qenieve
qenin
qenit
qente
qenurit
qenve
qepe
qeramika
qeramike
qerim
qerre
qershi
qershor
qershori
qershorit
qese
qesh
qesharake
qeshje
qeshur
qet
qeta
qete
qeveri
qeveria
qeverie
qeverine
qeverise
qeverisja
qeverisje
qeverisjen
qeverisjes
qeverisur
qeveritar
qeveritare
qeverite
qeverive
qi
qiej
qiejt
qiejve
qiell
qielli
qiellin
qiellit
qiellor
qiellore
qija
qime
qimet
qin
qind
qindra
qindvjec
qing
qinte
qipriote
qipro
qiproja
qipros
qira
qiriazi
qofshin
qofte
qoshe
qosja
qquad
qu
quad
quajme
quajne
quajt
quajte
quajti
quajtur
quajtura
quality
quan
quanin
quante
quantum
quarterly
quattrocento
que
queen
queens
queensland
quentin
quest
question
questions
quevedo
quhej
quhen
quheshin
quhet
qui
quincy
quito
qume
quo
qymyr
qymyri
qymyrit
qyprilliu
qyr
qyre
qyrjen
qyrur
qysh
qytet
qytetar
qytetare
qytetari
qytetarit
qytete
qytetet
qyteteve
qyteti
qytetin
qytetit
qyteza
qyteze
r
ra
rabbit
rac
raca
racave
race
rachel
racing
racional
racionale
raciste
racore
rada
radar
rade
radha
radhazi
radhe
radhit
radhitet
radhitja
radhitur
radhitura
radi
radiale
radikal
radikale
radio
radioaktive
radion
radios
rafael
rafe
raffaello
rafinuar
rafinuara
raguze
rahim
rahman
rahovec
rahovecit
rai
raid
raif
rain
rainbow
raj
raja
rajasthan
rajendra
rajhut
rajon
rajonal
rajonale
rajonalisht
rajone
rajonet
rajoneve
rajoni
rajonin
rajonit
raketa
raketave
rakete
raki
rally
ralph
ram
rama
ramadan
ramadani
ramas
ramazan
ramazanit
rambo
rame
ramesses
rami
ramiz
ramnagar
ramo
ramon
ramos
ramsay
ramsesit
ramsey
ramush
ran
rana
rand
random
randy
rane
rang
ranganatha
range
rangers
rangle
rangun
rangut
rani
ranjit
ranor
ranore
rao
rap
rapid
raport
raporte
raportet
raporteve
raporti
raportin
raportit
raportohet
raportoi
raportojne
raporton
raportua
raportuan
raportuar
raportuara
rard
rare
ras
rasa
rase
rash
rashid
rashtrakuta
rasim
rast
raste
rastet
rasteve
rasti
rastin
rastit
rat
rata
ratat
rate
ratha
rathat
rau
rauf
rault
raund
raundet
raundi
raundin
raundit
rauza
rave
ravene
ravensbru
raxha
raxhai
ray
rayleigh
raymond
rb
rbac
rball
rballe
rballej
rballen
rballet
rballonte
rballuar
rballur
rbashke
rbe
rbehen
rbehet
rbeje
rbejne
rben
rbenin
rbente
rbeu
rbi
rbim
rbime
rbimet
rbimeve
rbimi
rbimin
rbimit
rbinde
rblehet
rblim
rblime
rblimet
rblimi
rblimin
rblye
rblyer
rbrenda
rbri
rbuar
rbyen
rbyer
rc
rcaktim
rcaktimi
rcaktimin
rcaktimit
rcaktohen
rcaktohet
rcaktoi
rcaktoje
rcaktojne
rcakton
rcaktonte
rcaktua
rcaktuan
rcaktuar
rcaktuara
rcaktues
rcaktuese
rcd
rce
rceje
rcejne
rcen
rceu
rcillet
rcim
rcime
rcimi
rcimin
rcimit
rcimtare
rcjell
rcjelle
rcjellin
rcjelljen
rcjellur
rcyer
rd
rde
rden
rderisa
rdhes
rdhese
rdisiplinore
rdita
rdite
rditshe
rditshme
rdor
rdore
rdorej
rdoren
rdoreshin
rdoret
rdori
rdorim
rdorime
rdorimet
rdorimi
rdorimin
rdorimit
rdorin
rdorni
rdornin
rdorshme
rdorte
rdorues
rdoruesi
rdoruesin
rdoruesit
rdoruesve
rdorur
rdorura
rdrejt
rdrejta
rdrejte
re
read
reader
reading
reagan
reagim
reagime
reagimet
reagimi
reagimin
reagimit
reagoi
reagojne
reagon
reaguar
reaksion
reaksione
reaksionet
reaksioni
reaktive
real
reale
reali
realin
realisht
realist
realiste
realit
realitet
realiteti
realitetin
realitetit
reality
realize
realizim
realizimi
realizimin
realizimit
realizmi
realizmin
realizmit
realizohen
realizohet
realizoi
realizoje
realizojne
realizon
realizonte
realizua
realizuan
realizuar
realizuara
reason
rebecca
rebel
rebele
rebelim
rebelimi
rebelimin
rebelimit
rebeluan
rebro
rec
recent
receptore
receta
recete
reciprok
reciproke
reciprokisht
record
recorded
records
rectus
red
redaksia
redaksise
redaktimi
redaktimin
redakto
redaktoi
redaktor
redaktore
redaktori
redaktuar
rede
redif
reduktim
reduktimi
reduktimin
reduktohet
reduktua
reduktuar
reed
reeve
ref
referenca
referencat
reference
referendum
referendumi
referendumit
referim
referime
referimet
referimi
referohej
referohemi
referohen
referohet
referua
referuar
referuara
refik
reflektim
reflektimi
reflektimit
reflektohet
reflekton
reflektuar
reforma
reformat
reformave
reforme
reformimin
reformuar
refugees
refugjat
refugjate
refuzimi
refuzimin
refuzimit
refuzoi
refuzojne
refuzon
refuzua
refuzuan
refuzuar
regan
reggio
regia
regina
region
regional
regions
register
regjence
regjent
regjente
regji
regjia
regjim
regjimenti
regjimentin
regjimentit
regjimet
regjimi
regjimin
regjimit
regjine
regjion
regjionale
regjionet
regjioni
regjionin
regjionit
regjisor
regjisore
regjisori
regjisorin
regjisorit
regjiste
regjistrat
regjistrave
regjistri
regjistrim
regjistrime
regjistrimet
regjistrimeve
regjistrimi
regjistrimin
regjistrimit
regjistrin
regjistrohen
regjistrohet
regjistroi
regjistrojne
regjistron
regjistrua
regjistruan
regjistruar
regjistruara
regjizor
rehatshme
rehen
rehet
reich
reims
reina
reis
reja
rejme
rejti
rejtje
rejtur
reka
reke
reklama
reklamat
reklame
rekomandimet
rekomandohet
rekomandoi
rekomanduar
rekord
rekorde
rekordet
rekordeve
rekordi
rekordin
rekreative
rekrute
rekrutuar
rektor
rektori
relacion
relacionet
relacioni
related
relations
relativ
relative
relativisht
relativiteti
relativitetit
release
relevante
relief
reliev
relieve
relievet
relievi
relievin
relievit
religion
religious
religjioni
religjionit
religjioze
reliket
rem
remix
remrat
remzi
ren
renaissance
renato
renault
rend
renda
rende
rendesi
rendesishem
rendesishme
rendi
rendin
rendit
rendite
renditej
renditen
renditet
renditi
renditja
renditje
renditjen
renditjes
renditur
renditura
rene
reni
rennes
rep
repart
reparte
repartet
reparti
reper
repertori
repertorin
repertorit
report
reporter
reports
reprezentacionin
reprint
repubblica
republic
republika
republikan
republikane
republikat
republikave
republike
republikes
reputacion
reputacioni
reputacionin
rer
reri
res
rese
research
resh
resha
reshat
reshe
reshje
reshjet
reshjeve
resnje
resources
respekt
respekti
respektimin
respektin
respektit
respektivisht
respektuar
respirator
restaurimi
restaurimin
restaurimit
restauruar
restorant
restorante
restorantet
results
resurset
resurseve
rete
reth
retorike
retrieved
retrospektive
return
reumatoid
reus
reuss
reuters
rev
reve
revenge
review
reviews
revised
revista
revistat
revistave
reviste
revolta
revolte
revolucion
revolucionar
revolucionare
revolucioni
revolucionin
revolucionit
revolution
rex
rexha
rexhe
rexhep
rexhepi
rey
reyes
reynolds
rez
reza
rezerva
rezervat
rezervave
rezerve
rezervuar
rezervuara
rezervuare
rezidenca
rezidence
rezidenciale
rezident
rezidente
rezistenca
rezistence
rezistente
rezistoi
rezistuan
rezistuar
rezolucion
rezoluta
rezolute
rezultat
rezultate
rezultatet
rezultateve
rezultati
rezultatin
rezultatit
rezultoi
rezultoje
rezultojne
rezulton
rezultuan
rezultuar
rf
rfaqe
rfaqeje
rfaqen
rfaqes
rfaqet
rfaqeve
rfaqja
rfaqsuar
rfc
rfitim
rfitime
rfitimet
rfitimin
rfitoi
rfitojne
rfituar
rforcim
rforcime
rforcimi
rforcuar
rfshi
rfshihej
rfshihen
rfshiheshin
rfshihet
rfshije
rfshijne
rfshin
rfshine
rfshinin
rfshinte
rfshira
rfshire
rfshirja
rfshirje
rfshirjen
rfshirjes
rfshiu
rfundim
rfundime
rfundimet
rfundimi
rfundimin
rfundimisht
rfundimit
rfundimtar
rfundimtare
rfundoi
rfundoj
rfundoje
rfundojne
rfundon
rfundonin
rfundonte
rfundua
rfunduan
rfunduar
rfunduara
rg
rgata
rgate
rgatit
rgatite
rgatitej
rgatiten
rgatitet
rgatiti
rgatitja
rgatitje
rgatitjen
rgatitjes
rgatitjet
rgatitore
rgatitur
rgatitura
rgb
rge
rgen
rgim
rgimi
rgimin
rgimit
rgimtare
rgjakshme
rgjate
rgjegje
rgjegjen
rgjegjes
rgjegjshe
rgjegjshme
rgjigj
rgjigja
rgjigje
rgjigjej
rgjigjen
rgjigjes
rgjigjet
rgjigjeve
rgjigjur
rgjithe
rgjithmone
rgjithshe
rgjithshme
rgjyshore
rglitz
rgohen
rgoheshin
rgohet
rgoi
rgoje
rgojne
rgon
rgonin
rgonte
rgua
rguan
rguar
rguara
rguari
rguarit
rhap
rhape
rhapen
rhapet
rhapja
rhapje
rhapjen
rhapjes
rhapur
rhapura
rhead
rheda
rhein
rheinland
rheq
rheqe
rheqin
rheqja
rheqje
rheqjen
rheqjes
rhequr
rhere
rhershe
rhershme
rhin
rhiqej
rhiqen
rhiqeshin
rhiqet
rhiqte
rho
rhode
rholluar
rhoq
rhoqe
rhoqi
rhyn
rhyre
rhyri
rhyrja
rhyrje
rhyrjen
rhyrjes
rhyrjet
rhyrjeve
rhythm
ri
ria
riad
ribe
ribera
ribotim
ribotuar
ric
rica
ricardo
riccardo
ricciardo
rice
ricerche
rich
richard
richards
richardson
rick
rico
rida
ride
rider
ridge
rie
rieme
rifat
rifilloi
rifitoi
riga
rige
right
rights
rigjalle
rigoletto
rigoroz
rigoroze
rihap
rijeka
rika
rike
riki
rikonstruktua
rikonstruktuar
rikthehej
rikthehet
riktheu
rikthim
rikthimi
rikthimin
rikthimit
rikthye
rikthyen
rikthyer
rikuperuar
rilindas
rilindase
rilinde
rilindja
rilindje
rilindjen
rilindjes
rim
rima
rimarre
rime
rimet
rimeve
rimi
rimin
rimini
rimishe
rimit
rimori
rin
rinde
rine
ring
ringen
ringjall
ringjallja
ringjallje
ringjalljen
ringjalljes
ringjallur
rings
rini
rinia
rinine
rinise
rinj
rinje
rinjsh
rinjte
rinjve
rinoceront
rinoceronte
rinoceronti
rinocerontit
rinor
rinore
rinovimi
rinovimin
rinovoi
rinovua
rinovuar
rio
riorganizimi
riparime
riparimin
riparuar
ripe
riprodhimi
riprodhimin
riprodhimit
riprodhuar
riprodhues
riprodhuese
rire
riri
ririn
ris
rise
rish
rishe
rishikim
rishikimi
rishikimin
rishikuar
risht
rishtas
rishtazi
rishte
rishtes
rishtja
risi
rising
risite
risk
ristori
rit
rita
rite
riten
ritet
riteve
riti
ritin
ritit
ritja
ritje
ritjen
ritjes
ritme
ritmi
ritmike
ritmin
ritratto
ritshme
ritual
rituale
ritualet
ritualeve
rituali
ritur
ritura
riu
riut
rival
rivale
rivali
rivalitet
rivaliteti
rive
rivendos
rivendose
rivendosi
rivendosjen
rivendosur
river
rivera
rivie
rivlere
riza
rizgjodh
rizzoli
rja
rjashtim
rjashtime
rjashtimi
rjashtimin
rjashtohet
rjashtoi
rjashtua
rjashtuan
rjashtuar
rje
rjen
rjes
rjete
rjetoi
rjetojne
rjeton
rjetshe
rjetshme
rjetuan
rjetuar
rk
rkaq
rkasin
rkate
rke
rkeqe
rkesa
rkesat
rkesave
rkese
rket
rkete
rkim
rkime
rkimet
rkimeve
rkimi
rkimin
rkimit
rkimor
rkimore
rkisnin
rkiste
rko
rkohe
rkohej
rkohen
rkohet
rkohshe
rkohshme
rkoi
rkoj
rkoje
rkojme
rkojne
rkombe
rkon
rkoni
rkonin
rkonte
rkontinentale
rkrah
rkrahe
rkrahje
rkrahjen
rkrahu
rkrahur
rkryer
rks
rkth
rkthehet
rktheu
rkthim
rkthime
rkthimet
rkthimeve
rkthimi
rkthimin
rkthimit
rkthye
rkthyer
rkthyera
rkthyes
rkthyese
rkthyesi
rkthyesit
rkua
rkuan
rkuar
rkuara
rkues
rkuesit
rkufizim
rkufizime
rkufizimet
rkufizimi
rkufizimin
rkufizimit
rkufizohet
rkufizon
rkufizuar
rkujtim
rkujtimor
rkujtimore
rkujton
rkujtuar
rkulur
rkunde
rkundrazi
rkundrejt
rkure
rkurrit
rkushtim
rkushtimi
rkushtimin
rkushtimit
rkushtua
rkushtuar
rleshje
rleshjet
rleshjeve
rlidhe
rlidhje
rlidhur
rlidhura
rlikuar
rlikuara
rllogaritjeve
rluftuese
rm
rma
rmadha
rmadhat
rmadhe
rmarra
rmarre
rmarrja
rmarrje
rmarrjen
rmarrjes
rmarrjet
rmarrjeve
rmasa
rmasat
rmasave
rmase
rmbahen
rmbahet
rmbaje
rmbajne
rmbajtja
rmbajtje
rmbajtjen
rmbajtjes
rmbajtur
rmban
rmbane
rmbanin
rmbante
rmbe
rmbi
rmbledh
rmbledhe
rmbledhja
rmbledhje
rmbledhjen
rmbledhjes
rmbledhjet
rmbledhur
rmbush
rmbushe
rmbushjen
rmbushur
rmbylle
rmbys
rmbysi
rmbysje
rmbysjen
rmbysur
rmbytje
rmbytjes
rmbytjet
rmbytjeve
rme
rmen
rmend
rmende
rmenden
rmendet
rmendi
rmendim
rmendin
rmendja
rmendore
rmendur
rmendura
rmes
rmet
rmete
rmetet
rmeteve
rmeti
rmetit
rmi
rmilli
rmime
rmimet
rmimeve
rmimi
rmire
rmit
rmjet
rmjete
rmjetme
rmore
rmori
rms
rmuar
rmuara
rmuese
rmve
rn
rnc
rnda
rndahen
rndahet
rndan
rndane
rndara
rndare
rndarja
rndarje
rndarjen
rndarjes
rndau
rndjekur
rndryshe
rngul
rngule
rngulen
rngulet
rngulja
rngulje
rnguljes
rngulur
ro
road
rob
robben
robe
robert
roberta
roberto
roberts
robertson
robin
robinson
robot
robote
robotike
roc
roche
rock
rocky
rod
rodgers
rodham
rodri
rodrigo
rodriguez
roe
roger
rogers
rohej
rohen
roheshin
rohet
roi
roj
roja
rojas
roje
rojet
rojeve
rojne
rok
rol
roland
role
rolet
roleve
roli
rolin
rolit
roll
rolling
rolls
rom
roma
romak
romake
romako
roman
romana
romance
romanciere
romane
romanet
romaneve
romani
romania
romanian
romanin
romanit
romanizuar
romano
romans
romantik
romantike
rome
romeo
romes
ron
ronald
ronaldinho
ronaldo
ronaldon
ronaldos
roni
ronin
ronit
ronnie
ronte
room
rooney
roosevelt
root
roots
ror
rore
roren
rores
rorja
ros
rosa
rosario
rosberg
rose
rosenberg
roses
roshi
ross
rossi
rosso
roterdam
roth
rotorit
rotten
rotterdam
rouge
round
rousseau
roussillon
route
routledge
rovers
rowling
roy
royal
royale
royce
roza
rozafa
roze
rozhaja
rozhaje
rp
rpara
rpare
rparim
rparime
rparimet
rparimi
rparimin
rparimit
rparimtare
rparme
rparoi
rparon
rparonte
rparuar
rparuara
rpce
rpe
rpg
rpikte
rpiloi
rpiluar
rpiqej
rpiqen
rpiqeshin
rpiqet
rpjekja
rpjekje
rpjekjen
rpjekjes
rpjekjet
rpjekjeve
rpjekur
rpjese
rplas
rplasja
rplasje
rplasjes
rplasjet
rpoq
rpoqe
rpos
rpre
rprene
rprere
rprerje
rprerjen
rprerjes
rpret
rpreu
rpritet
rpudhat
rpunim
rpunimi
rpunimin
rpunimit
rpunuar
rpunuara
rputhen
rputhet
rputhje
rputhshme
rqafuar
rqark
rqe
rqendrim
rqendrimi
rqendrimin
rqendrimit
rqendrohen
rqendrohet
rqendrua
rqendruar
rqendruara
rqind
rqindja
rqindje
rqindjen
rqinte
rr
rra
rradhazi
rradhe
rrafsh
rrafshe
rrafshi
rrafshin
rrafshit
rrafshnalta
rrafshnalte
rrahe
rrahje
rrahman
rrahmani
rrahur
rralla
rrallat
rrallave
rralle
rrap
rrapaj
rrapi
rrasa
rrase
rrasin
rrathe
rrbardhi
rrbardhit
rre
rregull
rregulla
rregullat
rregullatore
rregullave
rregulli
rregullim
rregullime
rregullimet
rregullimeve
rregullimi
rregullimin
rregullimit
rregullin
rregullisht
rregullit
rregullohet
rregullojne
rregullon
rregullore
rregulloren
rregullores
rregulloret
rregulloreve
rregullt
rregullta
rregulluar
rregulluara
rregullues
rreme
rremte
rrepet
rrepta
rrepte
rresht
rreshta
rreshtat
rreshtave
rreshti
rreshtin
rret
rreth
rrethana
rrethanat
rrethanave
rrethe
rrethet
rretheve
rrethi
rrethim
rrethimi
rrethimin
rrethimit
rrethin
rrethina
rrethinat
rrethine
rrethit
rrethohet
rrethoi
rrethojne
rrethon
rrethonin
rrethonte
rrethor
rrethore
rrethua
rrethuan
rrethuar
rrethuara
rrethues
rrethuese
rrez
rrezatim
rrezatimi
rrezatimin
rrezatimit
rreze
rrezes
rrezet
rrezeve
rrezik
rrezikshe
rrezikshme
rreziku
rrezikuar
rrezikuara
rrezikun
rrezikut
rreziqe
rreziqet
rreziqeve
rrezja
rri
rridhte
rrije
rrijne
rrim
rrime
rrimet
rrimi
rrimin
rrimit
rrimtare
rrin
rrine
rrinin
rrinte
rrip
rripa
rripi
rripin
rrise
rrisin
rrisnin
rriste
rrit
rrite
rritej
rriten
rriteshin
rritet
rriti
rritja
rritje
rritjen
rritjes
rritur
rritura
rriturit
rriturve
rrjedh
rrjedha
rrjedhat
rrjedhave
rrjedhe
rrjedhim
rrjedhimisht
rrjedhin
rrjedhja
rrjedhje
rrjedhjen
rrjedhjes
rrjedhoje
rrjedhshe
rrjedhshme
rrjedhur
rrjet
rrjeta
rrjetat
rrjetave
rrjete
rrjetet
rrjeteve
rrjeti
rrjetin
rrjetit
rrmije
rrmuese
rroba
rrobaqepe
rrobat
rrobave
rrofte
rroge
rrohej
rrohen
rrohet
rroi
rroit
rroj
rroje
rrojne
rrok
rroke
rrokje
rron
rronin
rronte
rrota
rrote
rrotull
rrotullim
rrotullimi
rrotullimit
rrotullohen
rrotullohet
rrotullues
rrotulluese
rrua
rruan
rruar
rruara
rruaza
rruazave
rrues
rruese
rrufe
rrufeja
rruga
rruge
rrugen
rruges
rruget
rrugica
rrugice
rrugor
rrugore
rrumbullake
rrush
rrushi
rrushit
rrustem
rryma
rrymat
rrymave
rryme
rrziu
rs
rsa
rse
rsf
rsfj
rsh
rshe
rshembull
rshkak
rshkalle
rshkohet
rshkon
rshkrim
rshkrime
rshkrimet
rshkrimi
rshkrimin
rshkrimit
rshkroi
rshkrua
rshkruajne
rshkruan
rshkruante
rshkruar
rshkruara
rshkruhen
rshkruhet
rshkuar
rshpejtuar
rshtar
rshtare
rshtari
rshtarin
rshtarit
rshtat
rshtate
rshtaten
rshtatet
rshtatja
rshtatje
rshtatjen
rshtatshe
rshtatshme
rshtatur
rshtatura
rshtim
rshtimi
rshtimin
rshtimit
rshtoi
rshtojne
rshton
rshtonin
rshtonte
rshtuan
rshtuar
rshtypje
rshtypjen
rsi
rsia
rsie
rsine
rsipe
rsise
rsisht
rsite
rsjelle
rsosme
rsosur
rss
rstenberg
rt
rta
rtat
rte
rtej
rtejme
rtesa
rtesash
rtesat
rtesave
rtese
rtet
rteta
rtetat
rtete
rtetohet
rtetoi
rtetojne
rteton
rtetuar
rthama
rthamat
rthame
rthamor
rthamore
rthe
rthejne
rthen
rtheu
rthim
rthime
rthimet
rthimi
rthimin
rthimit
rthore
rthorte
rthurur
rthyen
rthyer
rthyese
rti
rtia
rtim
rtime
rtimet
rtimeve
rtimi
rtimin
rtimit
rtimor
rtimore
rtimtari
rtimtarise
rtine
rtise
rtk
rtl
rtohej
rtohen
rtoheshin
rtohet
rtoi
rtoje
rtojne
rton
rtonin
rtonte
rtp
rtsh
rttemberg
rtua
rtuan
rtuar
rtuara
rtues
rtuese
rtuesit
rtv
rtype
ru
rua
ruaj
ruaje
ruajne
ruajt
ruajte
ruajti
ruajtja
ruajtje
ruajtjen
ruajtjes
ruajtur
ruajtura
ruan
ruanda
ruande
ruanin
ruante
ruar
ruara
ruarve
rubens
rubin
rubla
ruby
rudess
rudi
rudina
rudolf
rudolstadt
rue
rues
ruese
rueshme
ruesi
ruesit
rugova
rugove
ruhej
ruhen
ruheshin
ruhet
ruiz
rul
rule
rulers
rules
rumani
rumania
rumanine
rumanise
rumanisht
rumelise
rumi
rumun
rumune
run
rural
rurale
rurua
rus
ruse
rush
rushiti
rusi
rusia
rusine
rusise
rusisht
ruso
russell
russia
russian
rustemi
ruth
rutine
ruzhdi
rvalla
rve
rvec
rveprim
rveprimet
rveprimi
rveprimin
rveprimit
rveprojne
rveq
rvete
rvi
rvitje
rvitjen
rvitjes
rvitore
rvitshe
rvitshme
rvitur
rvjec
rvjetore
rvjetorin
rvoja
rvojat
rvojave
rvoje
ry
ryan
ryu
rz
rza
rze
rzeme
rzgjedhja
rzgjedhje
rzgjedhjen
rzgjedhjes
rzgjedhur
rzgjedhura
rzier
rziera
rzierja
rzierje
rzierjen
rzihen
rzihet
rzitur
s
sa
saad
sabah
sabha
sabine
sabit
sabo
sabri
sac
sachsen
sacred
sad
saddam
sadik
sadiku
sado
sadri
safet
saga
sage
sagrada
sahabe
sahara
sahat
sahatit
sahib
sahibi
sahibit
sahih
sahit
sai
said
sailor
saimir
saint
sainte
saints
saj
saja
sajan
saje
sajohen
sajuar
sake
sakrifica
sakrifice
saksone
saksonia
saksonise
sakta
sakte
sakura
sala
salah
salce
sale
salem
sali
salih
salihi
salihu
salim
salla
sallat
sallate
salle
sallon
salloni
sallonin
salm
salman
salomon
salon
salt
salvador
salvatore
salzburg
sam
samadhi
same
sami
samir
samitin
samoa
sampdoria
sampdorias
samsun
samsung
samuel
samurai
san
sana
sanctum
sand
sandra
sandro
sanitare
sanji
sankat
sankatha
sanskrit
sanskrite
sanskritisht
sansone
sant
santa
santi
santiago
santo
santos
sanxhak
sanxhake
sanxhaku
sanxhakun
sanxhakut
sao
sapegno
sapo
sapoformuar
sapokrijuar
saqe
sar
sara
sarac
sarah
sarajeva
sarajeve
sarajevo
sarajit
saranda
sarande
sardenja
sardenjas
sardenje
sarma
sarnath
sars
sarthe
sartre
sasanide
sasarit
sasi
sasia
sasine
sasiore
sasise
sassuolo
sasuke
sat
satelit
satelite
sateliti
satelitore
sati
satira
satire
satirik
satirike
saturday
saturn
saturni
saturnit
saud
saudi
saudit
saudite
saul
saussure
sava
save
saverian
savoie
saw
saxe
saxony
say
says
sayyid
sbashk
sc
scala
scar
scene
scenes
schalke
schelling
schiller
schleiz
schleswig
schmidt
schneider
scho
scholars
school
schools
schu
schubert
schumacher
schumann
schuster
schwarzburg
sci
science
sciences
scientific
scooby
scotland
scott
screen
scribd
scuderia
sd
se
sea
sean
seanca
seancat
seance
search
season
seattle
sebastia
sebastian
sebastiano
sec
secila
secile
secili
secilin
secilit
second
secret
secrets
section
security
see
seedorf
sefer
seferi
segment
segmente
segmenti
segunda
sei
sein
seine
seit
seiyu
sej
sejdi
sejdiu
sejko
sek
sekonda
sekondar
sekondare
sekondash
sekonde
sekret
sekretar
sekretare
sekretari
sekretariatit
sekretarin
sekretarit
sekrete
sekretet
sekreti
seks
seksi
seksin
seksion
seksione
seksionet
seksioni
seksionin
seksionit
seksit
seksual
seksuale
seksualisht
sekt
sektit
sektor
sektore
sektori
sektorin
sektorit
sekuenca
sekuencat
sekuence
sel
sela
selam
selami
selanik
selaniku
selanikut
selassie
selce
selected
selektiv
selektive
self
seli
selia
selim
selimi
selimit
seline
selino
selise
selite
selma
selman
selmani
selo
selxhuke
semantike
semi
seminar
seminare
seminari
seminarin
seminarit
semite
semundje
sen
senat
senati
senatin
senatit
senator
senatore
senatori
send
sende
sendet
sendeve
senegali
sengoku
senior
sens
sense
sensi
sensin
sensore
separatiste
sepse
september
septimius
ser
sera
serb
serbe
serbi
serbia
serbian
serbine
serbise
serbisht
serbo
serbs
sere
serge
sergei
sergio
seri
seria
serial
seriale
serialet
seriali
serialin
serialit
serie
series
serik
serine
serioz
serioze
seriozisht
serise
serish
serite
serive
serre
server
serveri
serverit
service
services
ses
sesa
sesi
sesion
sesioni
sesionin
session
set
seti
seve
seven
several
severus
seviljes
sevilla
seward
sex
sezon
sezonal
sezonale
sezone
sezonet
sezoneve
sezoni
sezonin
sezonit
sfera
sferat
sfere
sferike
sfida
sfidat
sfide
sfidoi
sfiduar
sfond
sfondi
sfondin
sh
sha
shaban
shabani
shadow
shafi
shah
shahin
shahini
shahu
shahut
shaivite
shaka
shakespeare
shakhtar
shakti
shala
shale
shall
shami
shan
shane
shang
shanghai
shanks
shans
shanset
shaqir
shaqiri
sharma
sharon
sharr
sharre
sharri
sharrit
shat
shate
shave
shaw
shb
shba
she
shearer
sheet
shef
sheffield
shefi
shefik
shefin
shefit
shefki
shefqet
shega
shege
sheh
shehu
shehut
sheikh
sheiku
shejh
shek
shekspirit
shekuj
shekujsh
shekujt
shekujve
shekull
shekulli
shekullin
shekullit
shekullor
shekullore
shell
shemb
shembuj
shembujt
shembull
shembulli
shembullin
shen
shenja
shenjat
shenjave
shenje
shenjt
shenjta
shenjte
shenjti
shenjtit
shenjtor
shenjtore
shenoi
sheqer
sheqeri
sheqerit
sheriati
sheriatit
sherif
sherifi
sherring
shese
shesh
sheshe
sheshi
sheshin
sheshit
sheshta
sheshte
shesin
shet
shfaq
shfaqe
shfaqej
shfaqen
shfaqeshin
shfaqet
shfaqi
shfaqin
shfaqja
shfaqje
shfaqjeje
shfaqjen
shfaqjes
shfaqjet
shfaqjeve
shfaqte
shfaqur
shfaqura
shfletues
shfryte
shfuqizua
shi
shichibukai
shield
shife
shifra
shifrat
shifrave
shifre
shift
shigjeta
shigjete
shih
shihej
shihen
shiheshin
shihet
shihni
shihnin
shihte
shiite
shijak
shije
shijen
shijes
shijuar
shikhara
shikim
shikime
shikimi
shikimin
shikimit
shiko
shikohet
shikojme
shikojne
shikon
shikoni
shikonin
shikonte
shikuar
shikues
shikueshme
shikuesit
shill
shilla
shillat
shillave
shille
shilli
shillin
shillit
shilloi
shillon
shilltar
shilltare
shilltari
shilluar
shillues
shim
shime
shimi
shimin
shimit
shin
shinigami
shinobi
shinto
shipkovice
shira
shirat
shirave
shire
shirit
shirita
shiriti
shiritin
shirley
shirojne
shiroka
shiroke
shiron
shironi
shironin
shironte
shirshe
shirshme
shiruar
shiruara
shirueshme
shishe
shiste
shit
shite
shiten
shitet
shiti
shitja
shitje
shitjen
shitjes
shitjet
shitjeve
shitur
shitura
shiu
shiut
shiva
shive
shk
shka
shkak
shkake
shkaktar
shkaktare
shkaktohen
shkaktohet
shkaktoi
shkaktoje
shkaktojne
shkakton
shkaktonte
shkaktuan
shkaktuar
shkaktuara
shkaku
shkakun
shkalla
shkalle
shkaqe
shkaqet
shkaqeve
shkarkim
shkarkimi
shkarkimin
shkarkimit
shkarkohet
shkarkua
shkarkuar
shkas
shkate
shkathe
shkathte
shke
shkel
shkele
shkeli
shkelje
shkeljen
shkeljes
shkeljet
shkelur
shkenca
shkencat
shkencave
shkence
shkencor
shkencore
shkim
shkimi
shko
shkode
shkoder
shkodra
shkodran
shkodrane
shkodre
shkodres
shkohet
shkoi
shkoj
shkoje
shkojne
shkolla
shkollat
shkollave
shkolle
shkollen
shkolles
shkollim
shkollimi
shkollimin
shkollimit
shkollor
shkollore
shkollua
shkolluar
shkon
shkoni
shkonin
shkonte
shkop
shkopi
shkopin
shkopinj
shkoza
shkoze
shkreli
shkrelit
shkrete
shkrihet
shkrim
shkrime
shkrimesh
shkrimet
shkrimeve
shkrimi
shkrimin
shkrimit
shkrimtar
shkrimtare
shkrimtareve
shkrimtari
shkrimtarin
shkrimtarit
shkrire
shkrirja
shkrirje
shkrirjen
shkrirjes
shkroi
shkronja
shkronjat
shkronjave
shkronje
shkrua
shkruaj
shkruaje
shkruajne
shkruajti
shkruajtur
shkruan
shkruanin
shkruante
shkruar
shkruara
shkruarit
shkruhej
shkruhen
shkruhet
shkua
shkuan
shkuar
shkuara
shkuare
shkumbin
shkumbinit
shkume
shkup
shkupi
shkupin
shkupit
shkurre
shkurret
shkurreve
shkurt
shkurta
shkurte
shkurter
shkurtesa
shkurtese
shkurti
shkurtimisht
shkurtit
shkurtra
shkurtuar
shllaku
shmang
shmange
shmangen
shmanget
shmangin
shmangte
shmangur
shme
shmi
shmia
shmine
shmitar
shmitare
shmite
shmive
shmohet
shmoi
shmojne
shmon
shmor
shmore
shmorit
shmuar
shnde
sho
shofer
shoferi
shogun
shoguni
shoh
shohe
shohen
shohet
shohim
shohin
shoi
shoje
shojne
shok
shoke
shoket
shoku
shokun
shokut
shon
shonte
shoqata
shoqatat
shoqatave
shoqate
shoqe
shoqen
shoqerise
shoqja
short
shorte
shorten
shortes
shorti
shortin
shortit
shortja
should
shouva
shoviniste
show
shows
shpall
shpalle
shpallej
shpallet
shpalli
shpallja
shpallje
shpalljen
shpalljes
shpallte
shpallur
shpat
shpata
shpatat
shpate
shpatet
shpati
shpatin
shpatit
shpatull
shpatullave
shpe
shpejt
shpejta
shpejte
shpejti
shpella
shpellat
shpellave
shpelle
shpellor
shpellore
shpend
shpende
shpendi
shpenzime
shpenzimet
shpenzimeve
shpenzoi
shpenzuar
shpesh
shpeshhere
shpeshta
shpeshte
shpeshti
shpeze
shpie
shpik
shpike
shpikja
shpikje
shpikjen
shpikjet
shpiku
shpikur
shpine
shpirt
shpirte
shpirti
shpirtin
shpirtit
shpirtrat
shpirtrave
shpjegim
shpjegime
shpjegimet
shpjegimi
shpjegimin
shpjegohen
shpjegohet
shpjegoi
shpjegoje
shpjegojne
shpjegon
shpjeguar
shpreh
shprehe
shprehej
shprehen
shprehet
shprehimisht
shprehin
shprehja
shprehje
shprehjen
shprehjes
shprehjet
shprehjeve
shprehte
shprehu
shprehur
shprehura
shpresa
shpresat
shprese
shpreson
shpresonte
shpresuar
shprone
shpuar
shpylle
shq
shqete
shqip
shqipe
shqipen
shqiperi
shqiperia
shqiperine
shqiperise
shqipes
shqipetare
shqipfole
shqipja
shqipni
shqipnise
shqiponja
shqiponjat
shqiponje
shqiptar
shqiptare
shqiptaret
shqiptareve
shqiptari
shqiptarit
shqiptarja
shqiptaro
shqiptim
shqiptimi
shqiptimin
shqiptohet
shqiptuar
shqisa
shqisat
shqisave
shqisore
shqua
shquan
shquar
shquara
shquhej
shquhen
shquhet
shqyrtim
shqyrtimi
shqyrtimin
shqyrtimit
shqyrton
shqyrtuar
shrek
shri
shronje
sht
shta
shtabi
shtabin
shtabit
shtate
shtati
shtator
shtatore
shtatori
shtatorit
shtatze
shtaze
shtazore
shte
shteg
shtegu
shtenja
shtenje
shtepi
shtepia
shtepine
shtepise
shtepite
shtesa
shtese
shtesin
shtesnin
shteste
shtet
shtetas
shtetasit
shtetasve
shtete
shtetej
shteten
shteteshin
shtetet
shteteve
shteti
shtetin
shtetit
shtetja
shtetje
shtetjen
shtetjes
shtetrore
shtetur
shtetura
shti
shtia
shtigje
shtigjet
shtigjeve
shtim
shtime
shtimes
shtimi
shtimin
shtimit
shtin
shtine
shtira
shtire
shtise
shtit
shtiza
shtize
shtja
shtje
shtjefe
shtjella
shtjellat
shtjellave
shtjelle
shtjen
shtjes
shtjet
shtjeve
shtohen
shtohet
shtoi
shtoj
shtojca
shtojce
shtoje
shtojme
shtojne
shton
shtoni
shtonte
shtor
shtore
shtrat
shtrati
shtratin
shtratit
shtre
shtrembe
shtrenjta
shtrenjte
shtresa
shtresat
shtresave
shtrese
shtrete
shtri
shtrihej
shtrihen
shtriheshin
shtrihet
shtrim
shtrime
shtrimi
shtrimin
shtrine
shtrira
shtrire
shtrirja
shtrirje
shtrirjen
shtrirjes
shtrohet
shtron
shtrua
shtruar
shtruara
shtrung
shtrunge
shtu
shtua
shtuan
shtuar
shtuara
shtune
shty
shtylla
shtyllat
shtyllave
shtylle
shtyme
shtyn
shtyne
shtyp
shtype
shtypi
shtypin
shtypit
shtypja
shtypje
shtypjen
shtypjes
shtypshkronja
shtypshkronje
shtypur
shtypura
shtyre
shtyse
shtyte
shtytje
shtyu
shu
shua
shuan
shuar
shuara
shufra
shuhet
shukri
shum
shuma
shume
shumica
shumice
shumta
shumte
shumti
shurdhe
shushice
shuteriqi
shyhrete
shyti
si
sia
siam
siamit
siberi
siberian
sic
sica
sich
sicili
sicilia
sicilise
sico
sid
sida
side
sidney
sido
sidomos
sidoqofte
sie
siemens
siena
siene
siera
sierra
siglo
sigma
sign
signal
signs
siguri
siguria
sigurie
sigurimeve
sigurimi
sigurimin
sigurimit
sigurine
sigurise
sigurisht
sigurohet
siguroi
siguroje
sigurojne
siguron
siguronin
siguronte
sigurt
sigurta
sigurte
siguruan
siguruar
sikh
sikhe
sikri
sikunde
sikur
sikurse
sillen
sillet
sillnin
sillte
silva
silver
silvia
silvio
sim
sima
simbas
simbel
simbol
simbole
simbolet
simboleve
simboli
simbolik
simbolike
simbolikisht
simbolin
simbolit
simbolizojne
simbolizon
simbolizuar
simdhe
sime
simeon
simet
simetrik
simetrike
simeve
simfonike
simi
simin
simit
simo
simon
simone
simoni
simor
simore
simpati
simpatine
simple
simpozium
simpson
simpsons
simptoma
simptomat
simptomave
simptome
sin
sina
sinagoge
sinai
sinan
sinani
since
sind
sindikale
sindikata
sindikatat
sindikatave
sindikate
sindiku
sindroma
sindrome
sindromi
sine
sing
singapor
singapore
singapori
singaporit
singer
singh
single
singles
sinjal
sinjale
sinjalet
sinjaleve
sinjali
sinjalin
sinjalit
sinonim
sinonime
sinor
sinore
sinqerte
sintaksa
sintakse
sintaksore
sintetike
sinteza
sinteze
sipas
sipe
siperfaqe
siq
sir
sira
sirat
sirave
sire
siri
siria
sirian
siriane
sirine
sirise
sirius
siriusi
siro
sis
sise
sish
sishe
sishme
sishmet
sishmi
sishmja
sisht
sishte
sisoj
sistem
sistematik
sistematike
sistematikisht
sisteme
sistemet
sistemeve
sistemi
sistemin
sistemit
sister
sistina
sit
site
sites
sitet
siteve
siti
sitin
sitit
sitnica
situata
situatat
situatave
situate
siva
sive
six
size
sizmike
sja
sjell
sjella
sjelle
sjellin
sjellja
sjellje
sjelljen
sjelljes
sjelljet
sjelljeve
sjellur
sk
ska
skaj
skajet
skaji
skajin
skajit
skajshme
skalitje
skalitur
skalitura
skanda
skandal
skandali
skanderbeg
skandinave
skandinavi
ske
skeda
skedare
skele
skelet
skeleti
skeletore
skema
skemat
skemave
skeme
skena
skenar
skenare
skenari
skenarin
skenarist
skenariste
skenarit
skenat
skenave
skender
skenderaj
skenderbeu
skenderbeut
skene
skenik
skenike
skenografia
ski
skica
skice
skijimi
skijimit
skinner
skive
skllav
skllave
sklleve
skocez
skoceze
skoci
skocia
skocise
skolastike
skopje
skrapar
skraparit
skuade
skuadra
skuadrat
skuadrave
skuadre
skulptor
skulptore
skulptori
skulptura
skulpturat
skulpturave
skulpture
skulpturore
skuqur
skuqura
sky
skyline
skype
sl
slam
slavic
sle
sllatine
sllav
sllave
sllavo
sllobodan
sllovak
sllovake
sllovaki
sllovakia
sllovakise
slloven
sllovene
slloveni
sllovenia
sllovenise
slobodan
slovenia
small
smart
smith
smtp
sneijder
snooker
snow
so
soc
soccer
soccerway
social
socialdemokrate
sociale
socialist
socialiste
socializmi
socializmin
socializmit
sociedad
society
socio
sociologe
sociologji
sociologjia
sociologjike
sociologjise
sodore
sofia
sofistikuar
sofje
sofjes
soft
softuer
softuere
softueri
softuerike
softuerit
software
sohej
sohen
soheshin
sohet
soi
soj
soje
sojme
sojne
sokol
sokoli
sokoto
sokrati
sokratit
sol
solar
soldier
sole
solemne
solid
solidariteti
solidaritetit
solide
solist
soliste
soll
solle
solli
solo
solomon
solothurn
somali
somalia
some
something
somme
son
sonata
sonda
sondazh
sondazhet
sondazhi
sone
sonete
song
songs
soni
sonin
sonje
sons
sonte
sony
sophia
sophie
sopi
sopotit
soprano
sor
sore
soren
sori
soria
sorin
sorise
sorit
soros
sos
sosh
sot
sote
sotir
sotiri
sotmbreti
sotme
soto
sotshme
soul
sound
soundtrack
source
sources
sous
south
southampton
southern
soviet
sovjetik
sovjetike
sovran
sovrane
sovranitetin
sovranitetit
sp
spa
space
spagnola
spahiu
spain
spanish
spanja
spanje
spanjisht
spanjishtja
spanjoll
spanjolle
sparta
spartak
spartane
sparte
spd
spe
speakers
speaking
spears
speca
specia
special
speciale
specialist
specialiste
specializim
specializuar
specializuara
specie
species
speciet
specieve
specifik
specifike
specifikisht
specifikuar
speech
speed
spektakolare
spektatore
spekte
spektri
spektrin
spektrit
spencer
sperme
spider
spiegel
spikat
spikate
spikati
spikatur
spikatura
spike
spin
spink
spirale
spirit
spiritual
spiro
spital
spitale
spitalet
spitali
spitalin
spitalit
spitalore
spiun
spiune
split
sponsorizuar
spontan
spontane
sporadike
sport
sporte
sportet
sporteve
sporti
sportin
sporting
sportist
sportiste
sportit
sportiv
sportive
sports
sprache
spring
springer
springfield
springs
sprove
spy
sq
sqaron
sqaruar
sqep
sql
sqrt
sqt
square
sr
sri
srpska
ss
sseldorf
ssl
st
sta
stabil
stabile
stabilitet
stabiliteti
stabilitetin
stabilitetit
stabilizim
stabilizuar
stacion
stacione
stacionet
stacioneve
stacioni
stacionin
stacionit
stad
stade
stadio
stadium
stadiume
stadiumet
stadiumi
stadiumin
stadiumit
stadt
staf
stafa
staff
stafi
stafin
stafit
stage
stalin
stalini
stalinit
stamboll
stambolli
stambollit
stamford
stampa
stan
stanbul
stand
standard
standarde
standardet
standardeve
standardi
standardin
standardit
standardizuar
standart
standarte
stanford
stankovic
stanley
star
stara
stars
start
startues
state
states
statik
statike
station
statistica
statistical
statistics
statistiek
statistika
statistikat
statistikave
statistike
statistikor
statistikore
statovci
statuja
statujat
statujave
statuje
status
statusi
statusin
statusit
statut
statuti
statutin
statutit
stauffenberg
stavri
stay
ste
steel
stefan
stefani
stefanit
stefano
stein
steiner
stella
stem
stema
steme
step
stepe
stephen
sterling
stern
sterre
steve
steven
stevens
stevenson
stewart
sthe
stil
stile
stilet
stileve
stili
stilin
stilistik
stilistike
stilit
stilizuar
still
stimujve
stimuluar
stina
stine
sto
stockholm
stoke
stokholm
stokholmit
stol
stoli
stomak
stomakut
stone
stop
store
storia
stories
storm
story
str
stra
straboni
strange
strasbourg
strasburg
strateg
strategji
strategjia
strategjik
strategjike
strategjine
strategjise
strategjite
strategjive
strauss
stream
street
streha
strehe
strehim
strehimi
strehimin
strehimit
strehon
strehua
strehuar
stres
stresi
stresit
strike
strikte
string
strip
strong
structure
struga
struge
struggle
struktura
strukturat
strukturave
strukture
strukturor
strukturore
strukturuar
stu
stuart
student
studente
studentet
studenti
studentit
studentor
studentore
students
studi
studien
studies
studim
studime
studimesh
studimet
studimeve
studimi
studimin
studimit
studimor
studimore
studio
studiohet
studioi
studioje
studiojne
studion
studionte
studios
studiot
studiuar
studiues
studiuese
studiuesi
studiuesit
studiuesve
studjoi
studjues
study
stuhi
stuhite
stupa
stuttgart
style
su
sua
suaj
suan
suar
suara
suarit
sub
subject
subjekt
subjekte
subjektet
subjekteve
subjekti
subjektin
subjektit
subjektive
substanca
substancat
substancave
substance
subtropikale
such
sud
sudan
sudani
sudanit
sue
suedez
suedeze
suedi
suedia
suedine
suedise
suedisht
sues
suese
sueses
suesi
suesin
suesit
suesja
suesve
suetonius
sufi
sugar
sugjeroi
sugjerojne
sugjeron
sugjeruar
suhareke
suharto
suhrkamp
sui
suit
suite
suk
suke
sukses
suksese
sukseset
sukseseve
sukseshme
suksesi
suksesin
suksesit
suksesshe
suksesshme
sul
sula
sule
sulejman
sulejmani
sulejmanit
suli
suliote
sulit
sulla
sullivan
sulltan
sulltana
sulltanati
sulltanatit
sulltane
sulltani
sulltanin
sulltanit
sulm
sulme
sulmet
sulmeve
sulmi
sulmin
sulmit
sulmohet
sulmoi
sulmoje
sulmojne
sulmon
sulmonin
sulmonte
sulmua
sulmuan
sulmuar
sulmues
sulmuese
sulmuesi
sulmuesin
sulmuesit
sulo
sultan
sulzbach
sum
sumatra
sumatran
sumere
summary
summer
sun
sunday
sunderland
sundim
sundimi
sundimin
sundimit
sundimtar
sundimtare
sundimtari
sundimtarit
sundoi
sundon
sundonin
sundonte
sunduan
sunduar
sundues
sunduese
sunduesi
sunduesit
sunduesve
sung
suni
sunite
supe
super
supercopa
supercoppa
supercup
superficie
superhero
superior
superiore
superkupa
superkupe
superliga
superlige
superman
supersport
supozimin
supozohej
supozohet
supozojme
supozuar
supozuara
support
suprem
supreme
sur
sure
suren
suret
suretu
surja
surprize
survey
surya
sus
susan
sustainable
sutcliffe
suzuki
sv
sve
sveti
svg
swami
swamy
swansea
sweden
swedish
sweet
swift
swiss
switch
switzerland
sy
sydney
syed
syla
syle
sylejman
sylejmani
sylvia
sylvie
symbol
symphony
symposium
synetise
synim
synime
synimet
synimi
synimin
synojne
synon
synonin
synonte
synuar
syri
syria
syrin
syrit
syros
system
systems
syte
syve
syze
syzet
szlo
t
ta
tabake
tabela
tabelat
tabele
table
tablo
tac
taekwondo
tag
tahir
tahiri
tai
taikowitz
tail
tailanda
tailande
taj
tajlande
tajvan
taka
take
takim
takime
takimet
takimeve
takimi
takimin
takimit
takohen
takohet
takoi
takojne
takon
takonin
takonte
taksa
taksat
taksave
takse
taksonomia
taktika
taktikat
taktike
takua
takuan
takuar
tale
talent
talente
talentet
talenteve
talenti
talentin
talentit
talentuar
tales
talk
tall
tamara
tamil
tamile
tan
tana
tane
tang
tango
tani
tanime
tanishe
tanishme
tank
tanke
tanzania
tanzimatit
tao
tape
tar
tara
tarantino
tare
taren
tares
taret
tareve
tari
tarifa
tarifat
tarifave
tarife
tarikatit
tarin
tarisht
tarit
tarja
tarn
taro
tarraca
tarrace
tarragona
tartu
tas
tash
tashko
tashme
tashmen
task
tasso
tastiere
tat
tatare
tate
tatimore
taulante
tauris
tavan
tavani
tavanin
tavanit
tave
tavolara
tavoline
taxh
taylor
tbilisi
tcp
te
tea
teach
teacher
teachers
teaching
team
teams
teate
teatral
teatrale
teatri
teatrin
teatrit
teatro
teatrore
teatrot
teatrove
teau
tebe
teborg
tech
technical
technology
tecklenburg
ted
tefik
teh
teil
tej
teje
tejet
tejkaloi
tejkalojne
tejkalon
tejkaluar
tejme
tejmije
tejshe
tejshme
tek
teke
teki
teknik
teknika
teknikat
teknikave
teknike
teknikisht
tekniko
teknologji
teknologjia
teknologjik
teknologjike
teknologjine
teknologjise
teknologjite
teknologjive
teksa
teksas
teksasit
tekst
tekste
tekstesh
tekstet
teksteve
teksti
tekstile
tekstilit
tekstin
tekstit
tekstuale
tektonike
tel
tela
telashe
telat
tele
telefon
telefonat
telefonave
telefoni
telefonik
telefonike
telefonin
telefonise
telefonit
telegraf
telegrafi
telegrafike
telegram
telegraph
telekomunikacioni
telekomunikacionit
telenovela
telenovele
teleperformance
teleskopi
television
televizion
televizione
televizionet
televizioni
televizionin
televizionit
televiziv
televizive
teli
teliti
tell
tem
tema
temat
tematik
tematika
tematike
temave
teme
temper
temperatura
temperaturat
temperaturave
temperature
template
temple
temples
tempo
tempuj
tempujsh
tempujt
tempujve
tempull
tempulli
tempullin
tempullit
tempullor
tempullore
ten
tenavaramit
tende
tendenca
tendencat
tendence
tenerife
tenis
tenisit
tennessee
tension
tensione
tensionet
tensioneve
tensioni
tensionin
tensionit
tensionuar
tentative
tentoi
tentojne
tenton
tentori
tentuar
tenxhere
teodor
teolog
teologe
teologji
teologjia
teologjik
teologjike
teologjine
teologjise
teorema
teoreme
teori
teoria
teoriciene
teorie
teorik
teorike
teorikisht
teorine
teorise
teorite
teorive
tepe
tepelena
tepelene
teper
teprice
tepruar
teqe
teqeja
teqja
ter
tera
terapeutike
terapi
terapia
terapine
terapise
terciar
tere
teresa
tereza
tereze
teritorin
term
terma
termale
termat
termave
terme
termi
termik
termike
termin
terminal
terminali
terminator
terminologji
terminologjia
terminologjine
termit
termocentralet
termodinamike
terms
terra
terrakote
terre
terren
terrene
terreni
terrenin
terrenit
territor
territore
territoret
territoreve
territori
territorial
territoriale
territorin
territorit
territory
terror
terrori
terrorist
terroriste
terrorit
terrorizmit
terry
tes
tesla
tessa
test
testament
teste
testet
testeve
testi
testimi
testimin
testimit
testin
testuar
tete
teti
tetor
tetori
tetorit
tetova
tetove
teuta
teute
texas
text
texts
teza
teze
tfrac
th
tha
thac
thai
thame
thames
than
thanas
thane
thani
thara
thare
thashe
thashethemet
that
thata
thate
the
theater
theatre
thec
their
theks
theksi
theksin
theksohet
theksoi
theksojne
thekson
theksonte
theksuar
theksuara
thelb
thelbe
thelbi
thelbin
thella
thelle
thelluar
them
theme
themel
themele
themelet
themeleve
themeli
themelimi
themelimin
themelimit
themelohet
themeloi
themelon
themelor
themelore
themelua
themeluan
themeluar
themeluara
themelues
themeluese
themeluesi
themeluesit
themi
then
thene
theo
theodor
theodore
theodosius
theory
therande
there
theresa
thesalise
thesar
thesaret
thesari
thesarin
thesarit
these
theta
theu
they
thiago
thierry
thika
thike
thimi
thing
things
think
third
thirr
thirre
thirrej
thirren
thirret
thirri
thirrja
thirrje
thirrjen
thirrjes
thirrjet
thirrjeve
thirrur
this
thithe
thithin
thithur
thjerre
thjesht
thjeshta
thjeshte
thjeshtuar
thoma
thomai
thomas
thompson
thomson
thone
thonin
those
thoshin
thoshte
thot
thote
thought
thousand
thrake
three
thriller
through
thu
thua
thuaj
thuajse
thuash
thuhej
thuhet
thumb
thumbnail
thundrake
thurur
thus
thye
thyejne
thyen
thyer
thyera
thyerja
thyerje
thyerjen
thyerjes
ti
tia
tiberius
tibet
tibetiane
tibetit
tica
ticiani
ticino
tico
tie
tienne
tierra
tifoz
tifoze
tigan
tige
tiger
tigra
tigrat
tigrave
tigri
tigrin
tigris
tigrit
tij
tija
tije
tijin
tik
till
tilla
tille
tillon
tim
tima
time
timeline
times
timet
timeve
timi
timin
timit
timo
timothy
tin
tina
tine
tinge
tinguj
tingujt
tingujve
tingull
tingulli
tingullit
tip
tipa
tipar
tipare
tiparet
tipareve
tipe
tipet
tipeve
tipi
tipik
tipike
tipikisht
tipin
tipit
tipologji
tira
tiran
tirana
tirane
tiranes
tirazhi
tire
tirtha
tirumala
tirupati
tis
tise
tish
tit
tite
titje
title
tito
titore
titos
tituj
titujt
titujve
titull
titullar
titullarit
titulli
titullin
titullit
titullohet
titulluar
titus
tiu
tivar
tivari
tivarit
tive
tiziano
tj
tjegulla
tjera
tjerash
tjerat
tjerave
tjere
tjeret
tjete
tjeter
tjetra
tjetre
tjetri
tjetrin
tjetrit
tls
tmerrshe
tmerrshme
tmerruar
to
tobi
toc
today
todd
todi
todor
toena
toga
toge
toger
together
togo
tohet
toi
toje
tojne
tok
toka
tokash
tokat
tokave
toke
token
tokes
tokio
tokios
toksike
tokugawa
tokyo
toledo
toleranca
tolerance
tom
toma
tomas
tomatoes
tome
tommaso
tommy
tomori
tomorit
tomorrow
ton
tona
tondo
tone
tonga
tongue
toni
tonight
tonin
tonte
tony
too
tool
tools
top
topa
topalli
topat
topi
topia
topin
topit
toplica
toplice
toplista
topografike
topojan
toponim
toponime
toponimet
toponimeve
toponimi
toptani
toptanit
tor
tore
tori
torino
torinos
torit
torja
toro
toronto
torre
torres
torte
tortura
torturat
torture
torturuar
toskan
toskana
toskane
toske
total
totale
totalisht
totalitar
toto
tottenham
totti
touch
toulouse
tour
tourism
tours
towards
tower
town
toyota
tr
tra
traboini
track
trade
tradhe
tradhtar
tradhtare
tradhti
tradicional
tradicionale
tradicionalisht
tradita
traditat
traditave
tradite
tradition
traditional
traditions
trafford
trafik
trafikimit
trafiku
trafikun
trafikut
tragjedi
tragjedia
tragjedine
tragjedise
tragjik
tragjike
trail
train
trainer
training
trajner
trajnere
trajneri
trajnerin
trajnerit
trajnim
trajnime
trajnimi
trajnimin
trajnimit
trajnuar
trajta
trajtat
trajte
trajtim
trajtime
trajtimet
trajtimi
trajtimin
trajtimit
trajtohen
trajtohet
trajtoi
trajtojne
trajton
trajtonte
trajtshme
trajtuan
trajtuar
trake
traktat
traktate
traktatet
traktateve
traktati
traktatin
traktatit
traktit
trans
transfer
transferim
transferimi
transferimin
transferimit
transferohej
transferohen
transferohet
transferte
transferua
transferuan
transferuar
transformation
transformim
transformimet
transformimi
transformimin
transformimit
transformohet
transformuar
transgjinore
transition
translated
translation
translations
transmetim
transmetimet
transmetimeve
transmetimi
transmetimin
transmetimit
transmetohen
transmetohet
transmetoi
transmetojne
transmeton
transmetua
transmetuar
transmetues
transmetuese
transmetueshme
transmetuesi
transmetuesit
transparence
transparente
transport
transporti
transportimin
transportin
transportit
transportuar
transportues
tranzicion
tranzicioni
tranzicionit
trap
trare
trasha
trashe
trauma
travel
travels
trazira
trazirat
trazirave
trazuar
tre
treaty
treccani
tree
trefishte
treg
trege
tregim
tregime
tregimet
tregimeve
tregimi
tregimin
tregimit
tregje
tregjet
tregjeve
tregohen
tregohet
tregoi
tregoj
tregoje
tregojne
tregole
tregon
tregonin
tregonte
tregtar
tregtare
tregtari
tregti
tregtia
tregtine
tregtise
tregtuar
tregu
tregua
treguan
treguar
tregues
treguesi
treguesit
tregun
tregut
treke
trembe
tren
trena
trenat
trenave
trend
treni
trenit
trent
trepc
treqinte
tres
treshe
treshja
tresor
treta
tretat
trete
tretet
treti
tretin
tretjes
tretshme
tretur
treva
trevat
trevave
treve
trevor
trezeguet
tri
tribuna
tribune
tribute
trick
tridhjete
trieste
trilluar
trim
trima
trimat
trimave
trime
trimi
trincomalee
tring
trinidad
trinise
trio
triple
triplete
tripoli
triumfi
triumfin
triumfit
triumfoi
trofe
trofete
trofeu
trofeun
trofeve
trois
trojan
trojane
troje
trojet
trojeve
trondite
tronditje
tronditur
tropikale
tropike
tropoja
tropoje
trt
tru
truallin
truallit
true
trujillo
trulli
truman
trump
trung
trungu
trungut
trup
trupa
trupash
trupat
trupave
trupe
trupi
trupin
trupit
trupor
trupore
truri
trurin
trurit
trust
truth
tryeze
ts
tt
ttel
ttingen
tu
tua
tuaj
tuaja
tuan
tuar
tub
tuba
tuberkulozi
tuberkulozit
tubim
tubime
tudes
tudor
tue
tues
tuese
tufa
tufat
tufe
tuj
tulasi
tulla
tullash
tullat
tullave
tulle
tulsi
tuma
tumat
tumave
tume
tunel
tunele
tuneli
tunis
tunizi
tunizia
tunxhi
tupou
tur
turbina
turbine
turbo
turgut
turhan
turi
turin
turing
turiste
turistik
turistike
turit
turize
turizmi
turizmin
turizmit
turk
turke
turkey
turkish
turkmenistani
turko
turks
turku
turma
turme
turn
turnament
turnamenti
turnamentin
turnamentit
turne
turner
turneu
turneun
turneut
turp
turpe
turpshme
turq
turqi
turqia
turqine
turqise
turqisht
turqishtja
turqit
turqve
turshi
tutje
tutjeshe
tuttlingen
tuz
tuzit
tv
tvsh
tw
twelve
twentieth
twitter
two
ty
tyler
tym
tymi
tyne
type
tyrbe
tyrbja
tyre
tz
tze
u
ua
uan
uar
uara
uashington
uashingtonit
uc
uchiha
ud
udayagiri
udb
udf
udha
udhe
udi
udinese
udineses
udite
uditshe
uditshme
udp
ue
ueb
uebfaqja
uefa
uells
uellsi
uellsit
ues
uese
ueshme
uet
uezli
ufa
uffizi
ufo
uganda
ui
uilliam
ujdhese
uje
uji
ujin
ujit
ujitje
ujjain
ujk
ujku
ujkun
ujkut
ujor
ujore
ujqe
ujrat
ujrave
uk
uka
uke
ukic
ukraina
ukrainas
ukrainase
ukraine
ukshin
ul
ulcinj
ule
ulej
ulema
ulen
ulet
uli
ulin
ulja
ulje
uljen
uljes
ullinj
ulliri
ullirit
ulpiana
ulqin
ulqinake
ulqini
ulqinin
ulqinit
ulrich
ulta
ulte
ultimate
ultra
ultravjollce
ulur
um
uma
umar
umberto
umea
umm
ump
umts
un
una
unaza
unazat
unazave
unaze
unc
und
under
underground
understanding
undp
une
unesco
ungjilli
ungjillin
ungjillit
ungjillore
uni
unicef
unifikuar
uniform
uniforma
uniforme
unik
unike
union
unioni
unionit
unit
unitar
united
unitet
uniteti
unitetin
unitetit
univ
univers
universal
universale
universe
universi
universidad
universin
universit
universita
universitar
universitare
universitet
universitete
universitetet
universiteteve
universiteti
universitetin
universitetit
universities
university
unix
unknown
unmik
uno
unter
until
up
updated
upi
upload
upon
upper
uppsala
upright
ur
ura
urani
urat
urave
urban
urbane
urbanistik
urbanistike
urbanizimit
urbino
urdhe
urdhra
urdhrat
urdhrave
urdhri
urdhrin
urdhrit
urdu
ure
urgell
urgjence
urgjente
uri
uria
urie
urine
urise
uritur
url
urrejtja
urrejtje
urrejtjen
urrejtjes
urta
urte
urtimori
urtimorit
uruguaj
uruguaji
uruguajit
us
usa
usaid
usb
usd
use
used
user
ushqehen
ushqehet
ushqejne
ushqim
ushqime
ushqimet
ushqimeve
ushqimi
ushqimin
ushqimit
ushqimor
ushqimore
ushqyer
ushqyerit
ushqyese
usht
ushtar
ushtarak
ushtarake
ushtarakisht
ushtarako
ushtare
ushtari
ushtri
ushtria
ushtrie
ushtrime
ushtrimet
ushtrimeve
ushtrimi
ushtrimin
ushtrimit
ushtrine
ushtrise
ushtrite
ushtrive
ushtrohet
ushtroi
ushtrojne
ushtron
ushtronin
ushtronte
ushtruar
using
usopp
ut
uta
utah
utc
uthull
utrecht
uttar
uz
uzina
uzine
v
va
vac
vagine
vai
vairavar
vaishnavit
vaishnavite
vaj
vaji
vajit
vajza
vajzat
vajzave
vajze
vake
vaksina
vaksine
vakum
val
vala
valais
valbona
valbone
valde
vale
valea
valence
valencia
valencias
valentin
valentina
valentine
valentini
valette
vali
valide
valladolid
valle
valles
vallet
valleve
valley
vallja
valltare
valon
valor
valore
valter
value
values
valuta
valute
valverde
vampire
van
vandale
vanessa
vangjel
vangjeli
vangjush
vapi
var
vara
varaha
varanasi
varanasit
varat
vardar
vardarit
vare
varej
varen
varepsilon
vareshin
varet
varfe
varfra
varg
vargas
vargje
vargjet
vargjeve
vargmalet
vargu
vargun
vargut
variabla
variablat
variablave
variacione
variacionet
variant
variante
variantet
varianti
variations
varietet
varietete
varietetet
variety
variojne
varion
various
varka
varkat
varke
varphi
varr
varre
varret
varreve
varreza
varrezat
varrezave
varreze
varri
varrimi
varrimin
varrimit
varrin
varrit
varros
varrose
varrosur
varshava
varshave
varte
varur
varura
vasa
vasal
vasale
vasari
vasil
vasili
vaskulare
vaso
vastu
vata
vate
vathe
vatikan
vatikani
vatikanit
vatra
vatrat
vatre
vaucluse
vaux
vazhde
vazhdim
vazhdime
vazhdimi
vazhdimin
vazhdimisht
vazhdohet
vazhdoi
vazhdoj
vazhdoje
vazhdojne
vazhdon
vazhdonin
vazhdonte
vazhduan
vazhduar
vazhdueshe
vazhdueshme
vazo
vd
vdekja
vdekje
vdekjen
vdekjeprure
vdekjes
vdekjet
vdekjeve
vdekshme
vdekur
vdekura
vdekurit
vdekurve
vdes
vdese
vdesin
vdiq
vdiqe
vdiste
ve
vec
vecanta
vecante
vecchi
vecchio
ved
veda
vedat
vedike
vega
vegas
vege
vegje
vegjetacionit
vegjetative
vegjlit
vegla
veglat
veglave
vehbi
veil
veja
vektor
vektore
vektori
vektoriale
vektorit
vela
veli
veliu
ven
vend
vendas
vendase
vendasit
vendasve
vendbanim
vendbanime
vendbanimet
vendbanimeve
vendbanimi
vendbanimin
vendbanimit
vende
vendesh
vendet
vendeve
vendi
vendim
vendime
vendimet
vendimeve
vendimi
vendimin
vendimit
vendimmarre
vendimtar
vendimtare
vendin
vendit
vendkalim
vendkalimi
vendlindja
vendlindje
vendlindjen
vendlindjes
vendndodhja
vendndodhje
vendndodhjen
vendndodhjes
vendodhja
vendor
vendore
vendos
vendose
vendosej
vendosen
vendoseshin
vendoset
vendosi
vendosim
vendosin
vendosja
vendosje
vendosjen
vendosjes
vendosme
vendosni
vendosnin
vendoste
vendosur
vendosura
vendqe
vene
venecia
venecian
veneciane
venecias
venecie
venedik
venedikas
venedikase
venedikasit
venediku
venedikun
venedikut
venera
veneto
venezia
venezuela
venezuele
venice
ventura
venus
venusi
venusit
vep
vepe
vepra
veprash
veprat
veprave
vepre
veprim
veprime
veprimet
veprimeve
veprimi
veprimin
veprimit
veprimtar
veprimtare
veprimtari
veprimtaria
veprimtarie
veprimtarine
veprimtarise
veprimtarite
veprimtarive
veproi
veproje
veprojne
vepron
vepronin
vepronte
veprore
vepruan
vepruar
ver
vera
veranda
verande
verbal
verbale
verbe
verdha
verdhe
verdi
vere
veri
verifikuar
verilindje
verilindor
verilindore
verior
veriore
veripere
veriu
veriun
veriut
verlag
vermont
verne
vernon
vero
verona
verone
veror
verore
verrocchio
versace
versaje
version
versione
versionet
versioni
versionin
versionit
vertet
vertete
vertical
vertikal
vertikale
vertikalisht
very
veseli
vesh
veshe
veshi
veshin
veshit
veshja
veshje
veshjeje
veshjen
veshjes
veshjet
veshjeve
veshka
veshkat
veshkave
veshke
veshtire
veshur
veshura
vet
veta
vetash
vete
vetem
veten
veteran
veterane
veterinare
vetes
vetevendosje
veti
vetia
vetin
vetite
vetive
vetja
vetjak
vetjake
vetme
vetmen
vetmet
vetmi
vetmia
vetmin
vetmise
vetmit
vetmja
vetmuar
veton
vetore
vettel
vetura
veture
vetvete
vetveten
vetvetes
vetvetiu
vetvetore
vexhita
vez
veza
veze
vezir
vezire
veziri
vezirit
vfb
vfl
vhs
vi
via
viasat
vic
vice
vicente
victor
victoria
victory
vida
vidal
video
videoja
videoklipi
videoklipin
videon
videos
videot
videove
vidi
vidic
vidit
vie
vieira
viene
vienna
vienne
vietnam
vietnami
vietnamit
view
vihara
vihej
vihen
vihet
vii
viii
vij
vija
vijat
vijave
vijayanagara
vije
vijim
vijne
vijoi
vijojne
vijon
vijuar
vijues
vijuese
viking
vikinge
viktima
viktimat
viktimave
viktime
viktor
viktoria
viktoriane
vila
vilaine
vilajet
vilajeti
vilajetin
vilajetit
vile
villa
village
villages
villarreal
ville
villeneuve
villers
vimana
vin
vinayaka
vinayakas
vinc
vincent
vincenzo
vinci
vine
vini
vinin
vinte
viola
violence
violeta
violine
violonc
vip
viral
virale
virgin
virginia
virgje
virgjilit
virtual
virtuale
virtyt
virtyte
virtytet
virtyti
virus
viruse
viruset
viruseve
virusi
virusin
virusit
virxhinia
vis
visar
vise
viset
viseve
vishalakshi
vishej
vishen
vishet
vishnin
vishnu
vishnun
vishnut
vishvanath
vishvanatha
vishveshvara
vishwanath
vision
visit
vista
visual
vit
vita
vitale
vitamina
vitamine
vite
vitellius
vitesh
vitet
viteve
viti
vitin
vitise
vitit
vito
vittorio
viva
vivo
viz
viza
vizatim
vizatime
vizatimet
vizatimi
vizatimin
vizatimit
vizatimor
vizatimore
vizatuar
vizave
vize
vizi
vizin
vizion
vizione
vizioni
vizionin
vizionit
vizita
vizitat
vizitave
vizite
vizitohet
vizitoi
vizitojne
viziton
vizitoni
vizitonin
vizitonte
vizitor
vizitore
vizituan
vizituar
vizja
vizje
vizjeje
vizjen
vizjes
vizjet
vizjeve
viznin
vizshe
vizshme
vizte
vizual
vizuale
vizur
vjec
vjecare
vjedh
vjedhe
vjedhje
vjedhur
vjen
vjena
vjene
vjeqar
vjeqare
vjersha
vjershe
vjeshta
vjeshte
vjet
vjete
vjeter
vjetor
vjetore
vjetori
vjetorin
vjetorit
vjetra
vjetri
vjetrit
vjollca
vjollce
vjosa
vjose
vl
vladimir
vlefshe
vlefshme
vlejne
vlen
vlene
vlera
vlerat
vlerave
vlere
vllahe
vllahise
vllaznia
vllaznise
vllehe
vlora
vlore
vlores
vmro
vo
vocal
vocals
voci
voge
vogel
vogla
vogli
vogue
voice
voices
vojvodina
vojvodine
vokal
vokale
vokalist
vokrri
vokshi
vol
volejboll
volejbollit
volkswagen
vols
volta
volume
volumi
volumin
vom
von
vona
vone
vonesa
vonese
vonshe
vonshme
vonuar
voor
vor
vore
vosges
voskopoje
vota
votash
votat
votave
vote
votim
votimi
votimin
votimit
votoi
votojne
votua
votuan
votuar
votuesve
voyage
vp
vpn
vra
vrane
vranje
vrare
vrase
vrasin
vrasja
vrasje
vrasjen
vrasjes
vrasjet
vrasjeve
vrau
vrazhde
vre
vres
vreshta
vreshtat
vret
vrima
vrimat
vrimave
vrime
vrioni
vrisnin
vriste
vriten
vritet
vrullshe
vs
vu
vuajne
vuajti
vuajtje
vuajtjes
vuajtjet
vuajtjeve
vuajtur
vuan
vuanin
vuante
vuc
vuitton
vuk
vula
vule
vulgare
vullkani
vullkanik
vullkanike
vullnet
vullnetar
vullnetare
vullnetarisht
vullneti
vullnetin
vullnetit
vulosur
vulpes
vune
vuri
vushtrri
vushtrria
vushtrrise
vuthaj
vv
vyasa
vyasas
vygotsky
vyrtemberg
w
wa
wade
wagner
wales
walk
walker
walking
wall
wallace
walsh
walt
walter
wan
wanderers
wang
wano
want
war
ward
warner
warren
warriors
wars
was
washington
watch
water
waterfall
watson
watt
wave
way
wayback
wayne
we
web
webber
weber
webfaqja
weblinks
website
webster
week
weekly
wehrmacht
wei
weimar
weingarten
weitra
welcome
well
wells
welt
wembley
wenceslaus
wendy
werden
werder
were
werner
weser
wesley
west
westerburg
western
westfalen
westminster
westphalia
what
wheeler
when
where
which
while
white
whitman
whitney
who
whole
why
wi
wide
width
wie
wied
wien
wiener
wiesbaden
wife
wigan
wiki
wikidata
wikifilmat
wikimedia
wikipedia
wikipedias
wild
wiley
wilhelm
wilhelmina
wilkes
will
willem
william
williams
willis
willy
wilson
win
wind
windows
wing
winners
winston
winter
wird
wireless
wisconsin
wisdom
with
within
without
wlan
wo
wolf
wolfenbu
wolfgang
wolfsburg
woman
women
won
wong
woo
wood
woodrow
woods
woody
word
words
work
working
works
world
worlds
worms
would
wp
wright
write
writer
writers
writing
writings
written
wu
wurde
wurden
wwe
www
wyoming
x
xavier
xbox
xe
xehe
xehes
xh
xha
xhafer
xhaferi
xhaferri
xhainist
xhainiste
xhakete
xham
xhama
xhamajka
xhamajke
xhami
xhamia
xhamie
xhamine
xhamise
xhamite
xhamive
xhandarme
xhavit
xhaxhai
xhaxhait
xhazit
xhejms
xheladin
xhelal
xhemal
xheme
xhemil
xhep
xhepa
xhevahir
xhevat
xhevdet
xhirimet
xhiro
xhiron
xhiruar
xhirues
xhon
xhonturk
xhorxh
xhudos
xhufi
xhuvani
xhuxh
xi
xia
xii
xiii
xiv
xix
xml
xor
xp
xv
xvi
xvii
xviii
xx
xxi
xxiii
xxiv
y
ya
yahoo
yahya
yale
yamato
yamuna
yan
yang
yantra
yas
yates
yatra
ye
year
years
yellow
yellowstone
yen
yes
yi
yje
yjet
yjeve
yjore
yll
ylli
yllin
yllit
yllka
ymer
ymeri
yndyre
yne
yo
yoga
yonne
york
you
young
your
youth
youtube
yt
yu
yuan
yugoslav
yugoslavia
yun
yuri
yusuf
yvelines
yves
z
za
zadar
zagreb
zagrebit
zaharia
zahir
zajmi
zako
zakon
zakone
zakonet
zakoneve
zakoni
zakonisht
zakonit
zakonore
zakonshe
zakonshme
zall
zaman
zambaku
zambia
zamora
zana
zanafilla
zanafille
zanafillor
zanafillore
zanat
zanave
zane
zanetti
zani
zanise
zanore
zanoret
zanoreve
zanpakuto
zanzibari
zanzibarit
zar
zara
zaragoza
zare
zat
zata
zate
zave
zbarkoi
zbarkuan
zbatim
zbatimi
zbatimin
zbatimit
zbatohen
zbatohet
zbatoi
zbatojne
zbaton
zbatua
zbatuar
zbatueshme
zbavite
zbe
zbehte
zbraze
zbresin
zbret
zbrite
zbriti
zbritja
zbritje
zbritur
zbukurime
zbukurimet
zbukurimi
zbukuruar
zbukuruara
zbukurues
zbukuruese
zbulese
zbulim
zbulime
zbulimet
zbulimeve
zbulimi
zbulimin
zbulimit
zbulohen
zbulohet
zbuloi
zbuloje
zbulojne
zbulon
zbulonte
zbulua
zbuluan
zbuluar
zbuluara
zbulues
zbuluesi
zbutur
ze
zealand
zebra
zeeland
zef
zeit
zeitschrift
zeitung
zejnullah
zejtare
zejtari
zejtarise
zeka
zeke
zela
zelanda
zelande
zell
zeme
zemer
zemra
zemrat
zemre
zen
zene
zenel
zeneli
zenit
zeno
zeppelin
zeqir
zeqiri
zerbst
zeri
zero
zet
zeta
zete
zeusi
zeusit
zeza
zezake
zeze
zgavre
zgjase
zgjasin
zgjaste
zgjat
zgjate
zgjatet
zgjati
zgjatja
zgjatje
zgjatjen
zgjatjes
zgjatur
zgjatura
zgjedh
zgjedhe
zgjedhet
zgjedhin
zgjedhja
zgjedhje
zgjedhjen
zgjedhjes
zgjedhjet
zgjedhjeve
zgjedhor
zgjedhore
zgjedhur
zgjedhura
zgjedhuri
zgjerim
zgjerimi
zgjerimin
zgjerimit
zgjerohej
zgjerohen
zgjerohet
zgjeroi
zgjerua
zgjeruan
zgjeruar
zgjeruara
zgjidh
zgjidhe
zgjidhej
zgjidhen
zgjidheshin
zgjidhet
zgjidhja
zgjidhje
zgjidhjen
zgjidhjes
zgjidhjet
zgjidhjeve
zgjidhni
zgjidhnin
zgjidhte
zgjidhur
zgjimi
zgjodh
zgjodhe
zgjodhi
zgjohet
zgjoi
zgjuar
zh
zhan
zhane
zhang
zhanice
zhanre
zhanret
zhanreve
zhanri
zhanrin
zhanrit
zhde
zhduk
zhduke
zhduken
zhduket
zhdukja
zhdukje
zhdukjen
zhdukjes
zhdukur
zhdukura
zhge
zhgim
zhgime
zhgimet
zhgimi
zhgimin
zhgimit
zhgoi
zhguar
zhgues
zhguesit
zhou
zhu
zhukov
zhupanine
zhurma
zhurme
zhvendos
zhvendose
zhvendosen
zhvendoset
zhvendosi
zhvendosja
zhvendosje
zhvendosjen
zhvendosjes
zhvendosur
zhveshur
zhvillim
zhvillime
zhvillimet
zhvillimeve
zhvillimi
zhvillimin
zhvillimit
zhvillimore
zhvillohej
zhvillohen
zhvilloheshin
zhvillohet
zhvilloi
zhvilloje
zhvillojne
zhvillon
zhvillonin
zhvillonte
zhvillua
zhvilluan
zhvilluar
zhvilluara
zhvilluesit
zhvlere
zhytur
zi
zia
zidane
zie
zier
zihet
zihni
zija
zikaltrit
zil
zile
zim
zimbabve
zime
zimet
zimeve
zimi
zimin
zimit
zinin
zinj
zink
zinku
zinkut
zinte
zinxhir
zinxhire
zinxhiri
zinxhirin
zinxhirit
zise
zish
zit
zjarr
zjarre
zjarret
zjarrfike
zjarri
zjarrin
zjarrit
zjarrte
zlatan
zn
znj
zo
zof
zofi
zog
zogaj
zogj
zogjte
zogjve
zogu
zogun
zogut
zohej
zohen
zoheshin
zohet
zoi
zoj
zoja
zoje
zojne
zon
zona
zonat
zonave
zone
zonen
zones
zonin
zonja
zonje
zonte
zoo
zoologjik
zoologjike
zor
zoran
zore
zorit
zoro
zorre
zosimea
zot
zotat
zotave
zote
zoti
zotin
zotit
zotua
zquez
zu
zua
zuan
zuar
zuara
zubin
zuckerberg
zues
zuese
zuesi
zuesit
zuesve
zulu
zuluve
zum
zune
zur
zuri
zv
zvarranike
zve
zvec
zvice
zviceran
zvicerane
zvicra
zvicre
zvoge
zwei
zwischen
zymte
zyra
zyrat
zyrave
zyre
zyrtar
zyrtare
zyrtari
zyrtarisht
zyrtarizua
{
|
}
~


¡
£
¥
§
¨
©
ª
«
¬
­
®
°
±
²
³
´
µ
·
¹
º
»
¼
½
¾
¿
×
æ
ð
÷
ø
ı
ƒ
ɑ
ɔ
ə
ɛ
ɡ
ɪ
ʃ
ʰ
ʲ
ʷ
ʻ
ʼ
ʾ
ʿ
ˈ
ˌ
ː
˚
̀
́
̂
̃
̄
̆
̇
̈
̉
̊
̋
̌
̓
̔
̛
̞
̣
̥
̦
̧
̨
̮
̯
̱
̲
̸
͂
ͅ
͡
΄
α
απο
αρβανι
ας
β
γ
δ
ε
ει
η
θ
ι
κ
κα
και
κτης
λ
μ
με
ν
να
ξ
ο
οι
ου
π
πανδε
ρ
ς
σ
τ
τα
τες
τη
την
της
το
του
των
υ
φ
χ
ψ
ω
ων
а
в
во
г
д
да
е
з
за
и
к
л
м
н
на
о
од
п
р
с
се
стр
т
у
ф
ц
ш
ъ
ы
ь
я
і
ҫ
ְ
ִ
ַ
ָ
ּ
א
ה
י
،
ا
الا
ب
بن
ة
ت
ج
ح
خ
د
ذ
ر
ز
س
ش
ص
ع
غ
ف
ق
ك
ل
م
محمد
ن
ه
و
ى
ي
ً
َ
ُ
ِ
ّ
ْ
ٓ
ٔ
ٕ
ܐ
ܰ
ܳ
ं
क
ग
ज
ड
ण
त
द
न
प
ब
भ
म
य
र
ल
व
श
स
ह
़
ा
ि
ी
ु
ू
ृ
े
ै
ो
ौ
्
।
॥
ত
দ
ব
য
র
ল
া
ি
ী
ূ
ে
্
ਂ
ਟ
ਬ
ਰ
ਸ
ਾ
ਿ
ੀ
ੈ
੍
ੰ
க
ச
ட
ண
த
ன
ப
ம
ய
ர
ல
ள
வ
ா
ி
ு
ூ
ெ
ே
ை
்
్
್
്
ා
ั
ิ
ี
่
้
์
་
​
‌
‎
‏
‐
‑
‒
–
—
―
‖
‘
’
‚
“
”
„
†
•
…
‰
′
″
⁄
⁡
₀
₁
₂
₤
€
№
™
↑
→
↔
↷
∈
−
∙
√
∞
∧
∩
≅
≈
≡
≤
≥
⊕
⋅
③
④
⑦
─
█
►
●
☆
♀
♂
⟨
⟩
⦁
⺀
⺄
⺆
⺈
⺊
⺌
⺕
⺝
⺸
⺼
⿰
⿱
⿲
⿳
⿴
⿵
⿶
⿷
⿸
⿹
⿺
⿻
、
。
《
》
「
」
〖
〗
〢
あ
い
う
え
お
か
き
く
け
こ
さ
し
す
そ
た
ち
っ
て
と
な
に
の
は
ひ
ま
め
も
よ
ら
り
る
れ
ろ
を
ん
゙
゚
ァ
ア
ィ
イ
ウ
ェ
エ
オ
カ
キ
ク
コ
サ
シ
ス
セ
ソ
タ
チ
ッ
ツ
テ
ト
ナ
ニ
ノ
ハ
ヒ
フ
ヘ
ホ
マ
ミ
ム
メ
モ
ャ
ュ
ユ
ョ
ラ
リ
ル
レ
ロ
ワ
ン
・
ー
㇁
㇂
㇄
㇇
㇈
㇉
㇓
㐁
㐄
㐅
㐌
㐫
㐬
㐭
㐮
㐱
㑒
㒵
㒸
㒼
㓁
㓞
㔾
㕛
㕣
㖾
㘝
㚅
㚇
㚔
㚘
㝉
㝡
㝴
㝵
㞋
㞢
㞷
㠩
㠭
㠯
㡀
㡭
㡿
㢲
㢴
㣇
㣺
㥯
㪅
㫄
㫐
㫒
㫺
㬅
㬎
㬥
㬰
㲋
㳄
㷠
㸒
㸚
㸦
㼌
㼲
㽞
㿟
䀠
䂞
䍃
䏍
䒑
䖍
䖒
䖝
䖵
䙴
䚻
䜌
䝿
䡛
䧹
䪞
一
丁
丂
七
丄
丅
丆
万
丈
三
上
下
丌
不
与
丏
丐
丑
专
且
丕
世
丘
丙
业
东
丞
丢
丣
两
严
並
丨
丩
个
丫
丬
中
丮
丰
丱
串
丵
丶
丷
丸
丹
为
主
丽
丿
乀
乂
乃
久
乆
乇
么
义
之
乌
乍
乎
乏
乐
乑
乔
乖
乗
乘
乙
乚
乛
乜
九
乞
也
习
乡
乳
乾
亀
亅
了
亇
予
争
事
二
亍
于
亏
亐
云
互
亓
五
井
亘
亚
亜
亞
亟
亠
亡
亢
交
亥
亦
产
亨
亩
享
京
亭
亮
亯
亰
亲
亳
亶
亷
人
亻
亼
亾
仁
今
介
仌
从
仏
仐
仑
仒
仓
仕
他
付
仝
代
令
以
任
企
伊
伏
伐
休
会
伯
但
位
何
佘
余
作
佥
使
來
侈
侌
侖
侯
侵
便
保
俞
信
修
倉
倍
候
倠
備
僉
僕
儿
兀
允
兂
元
兄
充
兆
兇
先
光
兊
克
兌
免
兑
兒
兓
兔
党
兜
兟
入
全
兩
兪
八
公
六
兮
兰
共
关
兵
其
具
典
兹
兼
冀
冂
冃
冄
内
冈
冉
冊
冋
册
再
冎
冏
冐
冒
冓
冖
冗
冘
军
农
冝
冡
冥
冫
冬
冷
几
凡
凢
凵
凶
凷
凸
凹
出
函
凾
刀
刁
刂
刃
刄
刅
分
切
刍
刑
刕
刖
列
刘
则
初
別
利
别
到
制
刺
則
削
剌
前
剡
剽
劉
力
功
加
劦
助
劫
劳
劵
勃
勇
勉
勒
動
務
勞
勤
勹
勺
勻
勾
勿
匀
匂
包
匆
匈
匊
匋
匍
匕
化
北
匚
匝
匡
匪
匱
匸
匹
区
医
匽
匿
區
十
卂
千
卄
卅
卆
升
午
卉
半
卌
华
卑
卒
卓
单
卖
南
卜
卝
卞
占
卡
卢
卣
卤
卦
卩
卪
卬
卯
印
危
即
却
卵
卷
卸
卻
厂
厃
厄
历
厈
厉
厌
厓
厘
厚
原
厤
厥
厨
厭
厲
厶
厷
厸
去
厼
厽
叀
参
參
叅
又
叉
及
友
双
反
叐
发
叒
叔
叕
取
受
叚
叜
叟
口
古
句
另
叩
只
召
可
台
叱
史
右
叵
号
司
叹
吂
各
吅
合
吉
吊
吋
同
名
后
吏
向
吕
君
吝
吞
否
含
启
吳
吴
吹
吾
呂
呆
呈
告
员
呙
周
命
咅
和
咎
咠
咢
咨
咸
咼
哀
品
哉
員
哥
哲
唐
商
啇
問
啚
啬
啻
善
喜
喬
單
喿
嗇
噩
嚴
囊
囗
囘
囙
囚
四
回
囟
因
団
囧
囬
困
囱
囷
固
国
圂
圅
國
圍
圓
土
圡
圣
圥
在
圭
地
圶
圼
坐
坒
坚
坴
垂
垔
垚
埀
埋
城
埶
執
基
堂
堅
堆
堇
堯
塞
墨
壘
士
壬
壯
声
壳
壴
壹
壺
壽
夂
处
夅
夆
备
夊
夋
夌
复
夏
夒
夕
外
夗
夘
多
夜
夢
大
夨
天
太
夫
夬
夭
央
失
夲
头
夷
夸
夹
夻
夾
奂
奄
奇
奈
奉
奎
奏
奐
契
奓
奔
奚
奞
奠
奢
奥
奭
女
奴
奻
好
如
妄
妙
妟
妥
妻
妾
姑
委
姜
威
娄
婁
婴
嬰
嬴
子
孑
孔
孕
孖
字
存
孚
孛
孝
孟
季
孤
学
孫
孱
學
宀
宁
宂
它
宅
宇
守
安
宋
完
宏
宓
宗
官
定
宛
宜
宝
客
宣
室
宮
宰
害
家
容
宾
宿
寄
寅
密
富
寒
察
寧
審
寫
寬
寮
寸
对
寺
寻
寽
対
寿
封
尃
射
将
將
專
尉
尊
尋
尌
對
小
少
尒
尓
尔
尖
尗
尚
尞
尢
尣
尤
尧
尨
尭
就
尸
尹
尺
尻
尼
尽
尾
尿
局
居
屈
屋
屎
屏
屑
展
屖
屚
属
屠
屡
屬
屮
屯
屰
山
屵
屾
岁
岂
岑
岡
岩
岳
岸
峯
島
崇
崑
崔
崖
崙
崩
嵬
嶲
巂
巛
川
州
巟
巠
巢
巤
工
左
巧
巨
巩
巫
差
己
已
巳
巴
巷
巸
巽
巾
巿
帀
市
布
希
帚
帛
帝
带
師
席
帶
常
干
平
年
幵
并
幷
幸
幺
幻
幼
幽
幾
广
広
庄
床
底
店
庚
府
度
庫
庭
庶
康
庸
廉
廌
廛
廣
廩
廴
延
廷
建
廾
廿
开
弁
弃
弄
弇
弋
式
弓
弔
引
弗
弘
弜
弟
弥
弦
弱
張
強
强
彊
彌
彎
彐
彑
当
彔
录
彖
彗
彡
形
彥
彦
彧
彭
彳
役
彼
往
待
律
徒
得
徙
從
復
微
徵
心
忄
必
忌
忍
志
忝
忠
忩
快
念
忽
忿
思
怠
急
怱
恆
恒
恩
恭
息
悉
患
悤
悲
悶
惠
惡
惢
愁
愈
意
愛
感
慈
慧
慮
憂
憲
應
戀
戈
戉
戊
戋
戌
戍
戎
成
我
戒
戔
或
戚
戠
戢
戦
截
戲
戶
户
戹
戼
戾
房
所
扁
扇
手
扌
才
打
托
执
承
折
拉
拜
拿
掌
推
提
摩
支
攴
攵
收
攸
改
放
政
敄
敏
敕
敖
敗
敝
敞
敢
散
敦
敫
敬
数
敷
數
斂
文
斉
斊
斗
斤
斥
斩
斬
斯
新
方
於
施
斿
旁
旋
族
无
旡
既
旣
日
旦
旧
旨
早
旬
旱
旲
时
旾
昆
昇
昌
昍
明
昏
易
昔
昗
昜
星
春
昬
是
昱
昴
昷
時
晃
晋
晏
普
景
晶
智
暑
暴
曇
曩
曰
曲
曳
更
曷
書
曹
曼
曾
替
最
朁
會
月
有
朋
服
朔
朕
朗
望
朝
木
朩
未
末
本
札
朮
术
朱
朵
朶
朿
杀
杏
杜
束
条
来
東
杲
杳
松
析
林
枚
果
枝
枲
枼
某
柔
查
柬
柰
柴
栗
桀
桑
桼
梁
條
梟
梨
棘
棠
棥
森
楚
業
楽
榮
樂
樊
欠
次
欣
欮
欲
欶
欽
款
歆
歇
歌
歛
止
正
此
步
武
歨
歪
歮
歯
歰
歲
歴
歷
歸
歹
歺
死
殳
段
殷
殸
殹
殺
殻
殿
毋
毌
母
每
毒
比
毕
毚
毛
毳
氏
氐
民
气
氣
水
氵
氶
氷
永
氺
氾
求
汝
汞
江
沃
沓
沙
沝
泉
法
波
泣
泥
泰
洛
洪
活
派
流
浦
浪
浮
海
淡
淮
清
渚
渠
湯
滿
漸
火
灬
灭
灰
灵
灷
炅
炎
炏
炗
炙
炭
為
烈
烏
烝
焉
無
焦
焱
然
煞
熊
熏
燕
營
燮
爪
爫
爭
爯
爰
爱
爲
爵
父
爻
爽
爾
爿
片
牙
牚
牛
牜
牟
牢
牧
物
牪
牽
犀
犬
犭
犮
狂
狄
狊
独
狺
猋
猒
猪
献
獄
獻
玄
率
玉
王
玟
玨
珎
班
琴
瑟
瑩
瓜
瓦
甘
甚
生
産
用
甫
甬
田
由
甲
申
电
甶
男
甸
甹
画
甾
畀
界
畏
畐
留
畜
畟
畢
畧
畨
番
畫
異
畱
當
畺
畾
疊
疋
疌
疑
疒
疾
癶
癸
癹
登
發
白
百
皀
皃
的
皆
皇
皋
皐
皕
皮
皷
皿
盃
盆
盇
盈
益
盍
盎
监
盒
盖
盛
盡
監
盤
盧
目
直
相
盾
省
眇
眉
看
眔
眞
真
眷
眼
眾
着
睘
睪
睿
瞏
瞢
瞿
矍
矛
矞
矢
矣
知
矦
短
石
破
碎
磊
磨
示
礻
礼
社
神
祟
票
祭
禀
禁
禸
禹
禺
离
禽
禾
禿
秀
秃
秉
秋
科
秝
秦
移
稟
穀
穌
穴
究
穹
空
穿
突
窄
窒
立
竒
竜
竝
竟
章
童
竹
笑
笠
筆
等
答
箕
算
箴
節
篤
篭
米
粉
粛
粟
粤
粦
粲
糞
糸
糹
系
約
納
素
索
紫
累
細
絜
絫
絲
維
綿
縣
繇
纍
纟
缶
网
罒
罔
罕
罗
罙
罡
罢
罪
署
罷
羅
羊
羌
羍
美
羔
羕
羗
羞
羡
羣
群
義
羲
羸
羽
翁
翏
習
翕
翟
翠
翼
老
耂
考
者
耆
而
耎
耑
耒
耳
耴
耶
耷
聂
聊
聖
聚
聶
聿
肀
肃
肅
肉
肖
肙
肥
肩
肯
育
肴
胃
背
胡
胥
能
脊
脩
膚
臣
臤
臧
自
臬
臭
臯
臱
至
致
臺
臼
臽
臾
臿
舀
舂
舄
與
興
舉
舌
舍
舛
舜
舞
舟
般
艦
艮
良
色
艸
艹
艾
芒
芔
芬
芮
花
芳
芺
芻
苔
苗
苟
若
苦
英
茶
茸
荅
草
荒
荣
荼
莆
莧
莫
莽
菆
菊
菐
華
萬
落
葉
著
葛
董
葵
蒙
蒦
蒼
蓋
蓬
蓺
蔑
蔡
蕉
蕭
薄
薛
薦
薰
藍
藏
藥
蘭
虍
虎
虐
虒
虔
處
虖
虗
虘
虚
虛
虜
虞
虫
虽
蚤
蚩
蜀
蜜
蟲
蠡
血
行
衍
衛
衣
衤
表
衮
衰
袁
袞
褭
褱
襄
襾
西
覀
要
覃
見
規
覓
覧
親
覽
见
角
解
言
訁
訇
計
詹
語
誩
諸
讠
谷
豆
豈
豊
豐
豕
豖
豙
象
豦
豩
豪
豸
貇
貝
貞
貟
負
貢
貧
貪
貫
責
貳
貴
買
費
賁
資
賈
賏
賓
賔
賛
賞
賢
賣
質
賴
贊
贝
贡
责
贯
贲
贵
赖
赞
赤
赦
走
越
足
路
蹇
身
躬
車
軍
軎
軟
輦
车
辛
辜
辟
辥
辰
辱
農
辵
辶
边
达
过
近
连
迷
追
退
送
逆
逐
通
速
造
逢
連
逮
進
遀
遂
過
道
達
遣
適
遷
遺
邊
邑
邕
那
邦
邪
郎
部
郭
都
鄉
酉
酋
配
酓
釆
采
里
重
野
量
金
釒
錢
钅
長
镸
长
門
閃
閉
開
閏
閑
閒
間
閔
閵
閻
闌
门
间
闷
阑
阜
阝
阿
降
陳
隆
隊
隋
隡
隨
隱
隶
隹
隺
隻
隼
隽
难
雀
雁
集
雈
雋
雍
雐
雔
雙
雚
雜
雝
離
難
雨
雩
雪
雲
零
雷
需
霍
霜
霝
霞
霸
靈
靑
青
非
靡
面
靣
革
韋
韦
韭
韯
韱
音
頁
頃
項
須
頗
頡
頻
顛
页
風
风
飛
飞
食
飠
養
饣
首
香
馬
馮
駦
马
骨
高
髟
鬥
鬯
鬲
鬼
魔
魚
魯
鮮
鱼
鲁
鳥
鳳
鸟
鹵
鹿
麃
麗
麥
麦
麻
黃
黄
黍
黎
黑
黒
黨
黹
黽
黾
鼎
鼓
鼠
鼻
齊
齋
齐
齒
齿
龍
龙
龜
龟
龠
龰
龱
龴
龵
龶
龷
龸
龹


者
艹
ﬁ
ﯽ
ﺍ
ﺎ
ﺑ
﻿
！
（
）
，
：
？
～
�
𝐶
𝑎
𝑏
𝑓
𝑔
𝑘
𝑛
𝑥
𝗮
𝗲
𝗶
𝗻
𝗿
𝘁
𠀁
𠀃
𠀆
𠀉
𠀎
𠀐
𠁁
𠁣
𠂆
𠂇
𠂈
𠂉
𠂊
𠂋
𠂎
𠂒
𠂔
𠂛
𠂡
𠂢
𠂤
𠂬
𠂭
𠂹
𠃊
𠃋
𠃌
𠃍
𠃎
𠃑
𠃓
𠃔
𠃜
𠄌
𠄎
𠄠
𠄢
𠆢
𠆥
𠇍
𠈌
𠌵
𠓜
𠔉
𠔥
𠔼
𠔽
𠔿
𠕀
𠕁
𠕋
𠘧
𠘨
𠙻
𠙼
𠚏
𠚒
𠚤
𠚪
𠣏
𠤎
𠤕
𠥓
𠦄
𠦑
𠦝
𠧒
𠧗
𠧪
𠩺
𠪚
𠫓
𠫔
𠫤
𠬛
𠬝
𠬞
𠬢
𠬤
𠬶
𠮛
𠮦
𠮷
𠯑
𠱠
𠳮
𠷎
𡈼
𡉀
𡉵
𡌥
𡍮
𡏳
𡕒
𡕩
𡕰
𡖅
𡗗
𡗜
𡘆
𡘤
𡧱
𡨄
𡩧
𡬠
𡭽
𡰣
𡰥
𡰪
𡰯
𡰱
𡷈
𡸁
𡿨
𡿩
𡿪
𡿺
𢀖
𢀛
𢀩
𢁙
𢆉
𢆰
𢆶
𢇁
𢇇
𢉖
𢌬
𢌿
𢏚
𢑑
𢑚
𢖻
𢙣
𢛳
𢦏
𢦒
𢧵
𢼄
𢾕
𣁋
𣄼
𣅀
𣅽
𣍘
𣎳
𣎵
𣏋
𣏼
𣗥
𣥂
𣥖
𣦵
𣦼
𣧄
𣪊
𣪠
𣬉
𣳾
𣶒
𤇾
𤊽
𤐫
𤓰
𤔔
𤕨
𤣩
𤰇
𤰔
𤰞
𤴓
𤴔
𤽄
𥁑
𥁕
𥃦
𥃩
𥃭
𥇡
𥑟
𥘅
𥘈
𥝢
𥫗
𥱡
𦈢
𦉪
𦉬
𦉼
𦍌
𦍒
𦎧
𦐇
𦓔
𦔮
𦘒
𦙃
𦚏
𦣝
𦣞
𦣻
𦥑
𦥔
𦥯
𦨉
𦭝
𦰩
𧆞
𧈧
𧘇
𧰨
𧴪
𧴮
𧵩
𧾷
𨸏
𨾴
𩙿
𩠐
𩫏
𩵋
𪉷
𪜀
𪟽
𪠲
𪩲
𫇦
𫔭
𫜸
𫝀
𫠣
𫠩
𫢉
𫥞
𫩏
𫩠
𫪡
𫲽
𫶧
𬀷
𬐘
𬗌
𬙙
𬛸
𬜯
𬟩
𬯁
𬴘
𬺻
𬼉
𬼖
𭀰
𭁈
𭁨
𭅰
𭑈
𭕄
𭗼
𭤨
𭥫
𭻾
𮅕
𮊿
𮍌
𮍏
𮓗
𮥼
𮧮
廾
𰀁
𰀄
𰀈
𰀉
𰀕
𰀠
𰀡
𰀢
𰀪
𰁜
𰃮
𰆊
𰆘
𰋙
𰕎
𰢴
𰧭
𰯲
00--
000--
01--
02--
03--
04--
05--
06--
07--
08--
09--
50--
54--
55--
56--
57--
58--
59--
62--
64--
65--
68--
69--
70--
71--
72--
73--
74--
75--
76--
77--
78--
79--
80--
81--
82--
83--
84--
85--
86--
87--
88--
89--
90--
91--
92--
93--
94--
95--
96--
97--
978--
98--
99--
a--
aa--
ab--
abd--
abdi--
abdom--
abe--
abi--
abkh--
absor--
absorbo--
abste--
abu--
ac--
acar--
accep--
ace--
acqui--
ad--
ada--
adapt--
addit--
ade--
adhu--
adi--
administr--
admir--
adop--
adres--
ae--
af--
afat--
afir--
afro--
afte--
ag--
aga--
agamemn--
age--
agjitac--
ago--
agre--
agres--
agri--
agricul--
agro--
agu--
agust--
ah--
ai--
aig--
air--
aj--
ak--
aka--
akarn--
ake--
ako--
akord--
akro--
akrob--
aks--
akt--
aku--
akumu--
al--
ala--
alb--
ale--
alego--
aless--
algje--
ali--
all--
allge--
als--
alt--
alu--
alve--
am--
ama--
amb--
ambu--
ame--
amfitea--
ami--
amnis--
amplifik--
an--
ana--
anali--
anark--
anash--
anato--
and--
andaluz--
ander--
ane--
aneks--
ang--
angazho--
angje--
ani--
ann--
anna--
ano--
ans--
ansam--
ant--
anti--
antro--
antropo--
anul--
anuli--
anxh--
any--
ao--
ap--
apli--
apo--
app--
appea--
appro--
apro--
aprovi--
aq--
aqui--
ar--
ara--
arb--
arc--
ard--
arde--
are--
argo--
ari--
ark--
arkip--
arm--
arn--
arqi--
arro--
ars--
art--
arte--
arti--
artiku--
arts--
as--
ash--
ashen--
asi--
asink--
aso--
asoci--
asp--
aspir--
ass--
ast--
astro--
at--
ata--
atdhe--
ate--
ati--
atlan--
ato--
atraks--
atri--
atribu--
au--
audi--
auf--
augen--
aus--
autenti--
autentifi--
auto--
aux--
av--
avan--
avdu--
ave--
avent--
avia--
avig--
avimuktesh--
avin--
avu--
awa--
ax--
ay--
az--
azh--
azhurn--
b--
ba--
bab--
baba--
bac--
back--
bad--
bag--
bah--
bai--
baj--
baja--
bajr--
bak--
bal--
bala--
ball--
bamb--
ban--
bapt--
bar--
bara--
bari--
bas--
bashk--
bashke--
bat--
bau--
bay--
bd--
be--
beat--
beau--
bee--
befa--
beg--
behr--
bei--
bej--
bejle--
bek--
bel--
belle--
ben--
beq--
ber--
berg--
bes--
bet--
bey--
bez--
bha--
bhu--
bhubanes--
bi--
bian--
bib--
biblio--
bie--
big--
bil--
bin--
bio--
bir--
bis--
bisek--
bit--
bje--
[...]
