!
"
#
##0
##1
##10
##11
##12
##13
##14
##15
##16
##17
##18
##19
##2
##20
##21
##22
##23
##24
##25
##26
##27
##28
##29
##3
##30
##31
##32
##33
##34
##35
##36
##37
##38
##39
##4
##40
##41
##42
##43
##44
##45
##46
##47
##48
##49
##5
##50
##51
##52
##53
##54
##55
##56
##57
##58
##59
##6
##60
##61
##62
##63
##64
##65
##66
##67
##68
##69
##7
##70
##71
##72
##73
##74
##75
##76
##77
##78
##79
##8
##80
##81
##82
##83
##84
##85
##86
##87
##88
##89
##9
##90
##91
##92
##93
##94
##95
##96
##97
##98
##99
$
%
&
'
(
)
*
+
,
-
.
/
0
00
000
0000
00000000
0004
001
002
0022
0027
003
004
005
007
008
01
010
011
013
016
02
020
03
031
0362
04
05
06
07
08
0862
09
1
10
100
1000
1001
1002
1007
101
1016
1017
102
1021
103
1038
1039
104
105
106
107
1073
108
1080
1086
1088
109
1093
1098
11
110
1100
111
1111
112
1126
113
114
1144
115
116
117
1177
118
1186
119
12
120
1200
121
1210
1211
1212
1213
1214
122
1225
123
1230
124
1240
125
1250
1253
126
1260
127
1278
128
129
1290
13
130
1300
1305
131
1310
1311
1318
132
1320
133
1330
1335
134
1340
1346
1347
1348
1349
135
1350
1351
1352
1355
1356
1358
1359
136
1360
1361
1364
1365
1368
137
1370
1371
1375
1377
1378
1379
138
1380
1384
1385
1389
139
1390
1399
14
140
1400
1402
1405
1406
1407
1408
1409
141
1410
1412
1414
1415
1419
142
1420
1421
1422
1423
1424
1425
1427
143
1430
1431
1433
1434
1435
1436
1437
144
1440
145
1450
1453
1454
1457
146
1460
1462
1464
1465
1466
1467
1468
1469
147
1470
1471
1474
1475
1476
148
1480
1483
1485
1487
149
1490
1492
1493
1494
1495
1496
1497
1498
1499
15
150
1500
1501
1502
1503
1504
1505
1506
1507
1508
1509
151
1510
1511
1512
1513
1514
1515
1516
1517
1518
1519
152
1520
1521
1522
1523
1524
1525
1526
1527
1528
1529
153
1530
1531
1532
1533
1534
1535
1536
1537
1538
1539
154
1540
1541
1542
1543
1544
1545
1546
1547
1548
1549
155
1550
1551
1552
1553
1554
1555
1556
1557
1558
1559
156
1560
1561
1562
1563
1564
1565
1566
1567
1568
1569
157
1570
1571
1572
1573
1574
1575
1576
1577
1578
1579
158
1580
1581
1582
1583
1584
1585
1586
1587
1588
1589
159
1590
1591
1592
1593
1594
1595
1596
1597
1598
1599
16
160
1600
1601
1602
1603
1604
1605
1606
1607
1608
1609
161
1610
1611
1612
1613
1614
1615
1616
1617
1618
1619
162
1620
1621
1622
1623
1624
1625
1626
1627
1628
1629
163
1630
1631
1632
1633
1634
1635
1636
1637
1638
1639
164
1640
1641
1642
1643
1644
1645
1646
1647
1648
1649
165
1650
1651
1652
1653
1654
1655
1656
1657
1658
1659
166
1660
1661
1662
1663
1664
1665
1666
1667
1668
1669
167
1670
1671
1672
1673
1674
1675
1676
1677
1678
1679
168
1680
1681
1682
1683
1684
1685
1686
1687
1688
1689
169
1690
1691
1692
1693
1694
1695
1696
1697
1698
1699
17
170
1700
1701
1702
1703
1704
1705
1706
1707
1708
1709
171
1710
1711
1712
1713
1714
1715
1716
1717
1718
1719
172
1720
1721
1722
1723
1724
1725
1726
1727
1728
1729
173
1730
1731
1732
1733
1734
1735
1736
1737
1738
1739
174
1740
1741
1742
1743
1744
1745
1746
1747
1748
1749
175
1750
1751
1752
1753
1754
1755
1756
1757
1758
1759
176
1760
1761
1762
1763
1764
1765
1766
1767
1768
1769
177
1770
1771
1772
1773
1774
1775
1776
1777
1778
1779
178
1780
1781
1782
1783
1784
1785
1786
1787
1788
1789
179
1790
1791
1792
1793
1794
1795
1796
1797
1798
1799
18
180
1800
1801
1802
1803
1804
1805
1806
1807
1808
1809
181
1810
1811
1812
1813
1814
1815
1816
1817
1818
1819
182
1820
1821
1822
1823
1824
1825
1826
1827
1828
1829
183
1830
1831
1832
1833
1834
1835
1836
1837
1838
1839
184
1840
1841
1842
1843
1844
1845
1846
1847
1848
1849
185
1850
1851
1852
1853
1854
1855
1856
1857
1858
1859
186
1860
1861
1862
1863
1864
1865
1866
1867
1868
1869
187
1870
1871
1872
1873
1874
1875
1876
1877
1878
1879
188
1880
1881
1882
1883
1884
1885
1886
1887
1888
1889
189
1890
1891
1892
1893
1894
1895
1896
1897
1898
1899
19
190
1900
1901
1902
1903
1904
1905
1906
1907
1908
1909
191
1910
1911
1912
1913
1914
1915
1916
1917
1918
1919
192
1920
1921
1922
1923
1924
1925
1926
1927
1928
1929
193
1930
1931
1932
1933
1934
1935
1936
1937
1938
1939
194
1940
1941
1942
1943
1944
1945
1946
1947
1948
1949
195
1950
1951
1952
1953
1954
1955
1956
1957
1958
1959
196
1960
1961
1962
1963
1964
1965
1966
1967
1968
1969
197
1970
1971
1972
1973
1974
1975
1976
1977
1978
1979
198
1980
1981
1982
1983
1984
1985
1986
1987
1988
1989
199
1990
1991
1992
1993
1994
1995
1996
1997
1998
1999
2
20
200
2000
2001
2002
2003
2004
2005
2006
2007
2008
2009
201
2010
2011
2012
2013
2014
2015
2016
2017
2018
2019
202
2020
2021
2022
2023
2024
2025
203
2030
204
205
206
207
208
209
21
210
211
212
213
214
215
216
217
218
219
22
220
221
222
223
224
225
226
227
228
229
23
230
2307
231
232
233
234
235
236
237
238
239
2394
24
240
241
242
243
244
245
246
247
248
249
25
250
2500
251
252
253
254
255
256
257
258
259
26
260
261
262
263
264
265
266
267
268
269
27
270
271
272
273
274
275
276
277
278
279
28
280
281
282
283
284
285
286
287
288
289
29
290
291
292
293
294
295
296
297
298
299
3
30
300
3000
301
302
303
304
305
306
307
308
309
31
310
311
312
313
314
315
316
3166
317
318
319
32
320
321
322
323
324
325
326
327
328
329
33
330
331
332
333
334
335
336
337
338
339
34
340
341
342
343
344
345
346
347
348
349
35
350
3500
351
352
353
354
355
356
357
358
359
36
360
361
362
363
364
365
366
367
368
369
37
370
371
372
373
374
375
376
377
378
379
38
380
381
382
383
384
385
386
387
388
389
39
390
391
392
393
394
395
396
397
398
399
4
40
400
4000
401
402
403
404
405
406
407
408
409
41
410
411
412
413
414
415
416
417
418
419
42
420
421
422
423
424
425
426
427
428
429
43
430
431
432
433
4331
434
435
436
437
438
439
44
440
441
442
443
444
445
446
447
448
449
45
450
451
452
453
454
455
456
457
458
459
46
460
461
462
463
464
465
466
467
468
469
47
470
471
472
473
474
475
476
477
478
479
48
480
481
482
483
484
485
486
487
488
489
49
490
491
492
493
494
495
496
498
499
5
50
500
5000
501
502
503
504
505
506
507
508
509
51
510
511
512
513
514
515
516
517
518
52
520
521
522
524
525
526
527
528
529
53
530
531
533
534
535
536
538
54
540
541
543
544
546
548
55
550
551
552
553
555
556
557
56
560
561
563
565
568
57
570
571
574
575
576
579
58
580
582
583
584
585
586
587
589
59
590
592
593
595
596
597
598
6
60
600
6000
601
602
603
604
605
606
608
61
610
613
614
615
616
618
62
620
623
624
625
626
63
630
631
632
634
636
637
638
639
64
640
642
644
645
647
649
65
650
652
658
66
660
664
668
67
670
674
679
68
680
69
691
7
70
700
7000
7001
701
7011
7021
706
707
71
710
7106
7185
72
720
7203
7207
7239
725
7277
73
730
7325
736
7360
737
74
740
7422
747
75
750
752
757
76
760
767
768
77
770
775
777
78
780
79
796
8
80
800
8000
802
81
810
811
815
8192
82
8203
823
83
84
840
85
850
85277
855
85983
86
86064
86158
87
88
89
9
90
900
91
911
913
92
93
94
95
950
96
960
965
97
978
98
99
999
:
;
<
=
>
?
@
[
\
]
^
_
`
a
aa
aaron
ab
aba
abart
abatys
abba
abbe
abc
abcha
abd
abe
abeceda
abecedne
abecedni
abecedy
abi
abies
ablativ
ablona
ablony
about
abraha
abraham
abs
absence
absenci
absolutne
absolutni
absolvent
absolventu
absolvova
absolvoval
absolvovala
abstraktni
absurdni
abu
aby
abych
abychom
abys
abyste
ac
acade
academia
academic
academy
access
accessed
ace
acer
ach
achove
achovy
achu
achy
acid
act
acta
action
active
activity
actor
ad
ada
adalbert
adam
adama
adamec
adami
adams
adaptace
adaptaci
adatel
adatele
adavek
adavku
adavky
add
ade
adech
adelaide
adem
adi
adic
adil
adila
adili
adilo
adit
adjektiva
adler
admin
administra
administration
administrativne
administrativni
admira
adni
adnic
adnice
adobe
adolf
adolfa
adou
adova
adoval
adovala
adovali
adovalo
adovane
adovany
adovat
adove
adovy
adra
adres
adresa
adrese
adresu
adresy
adrian
adriana
adu
aduje
aduji
adult
advanced
adventure
adventures
advoka
ady
ae
aero
af
afa
afar
afc
afe
affairs
afgha
afra
africa
african
africe
africke
africky
afrika
afriku
afriky
afroameric
after
ag
aga
again
against
age
agency
agent
agenta
agenti
agentu
agentur
agentura
agenturou
agentury
ages
aglomerace
aglomeraci
agnes
agra
agrega
agresivni
agriculture
ah
aha
ahl
ahli
ahmed
ai
aid
aids
ain
air
airbus
aircraft
aires
airlines
airport
airways
ais
aise
aj
aja
ajax
aje
ak
aka
akade
akademicke
akademicky
akademie
akademii
akc
akce
akci
akcie
akcii
akciona
akciova
akciove
ako
akov
akropolis
akt
akte
aktiva
aktivaci
aktivista
aktivistka
aktivistu
aktivit
aktivita
aktivitou
aktivitu
aktivity
aktivne
aktivni
aktu
aktua
aktuality
aktualizace
aktualizaci
aktualizova
aktualizovany
aktualne
akty
aku
akumula
akusticka
akusticke
akutni
akuzativ
akva
akvita
al
ala
alabama
alain
alan
alb
alba
albatros
albech
albem
albert
alberta
alberto
albi
albrecht
albrechta
albrechtice
albu
album
albums
ale
alegorie
alej
alejandro
alena
ales
alespon
alessandro
alex
alexander
alexandr
alexandra
alexandre
alexandrem
alexandrie
alexandrovic
alexej
alexis
alfa
alfons
alfonse
alfonso
alfre
alfred
alfreda
algoritmu
algoritmus
ali
aliance
alianci
alias
alice
alison
alive
aljas
alka
alkohol
alkoholu
all
alla
allan
alle
allen
allgemeine
alliance
allison
allmusic
alm
alma
almanach
almu
almy
alo
aloba
alobce
alobu
aloby
alois
aloise
alon
alone
alonso
alova
alovany
alp
alpa
alpes
alpha
alpine
alpske
alpsky
alpy
als
also
alt
alta
alternativa
alternative
alternativni
alto
alu
aludku
aly
alz
am
ama
amadeus
amanda
amate
amazon
ambasa
amber
ambice
ambicio
ambroz
amd
ame
amen
americ
america
american
americe
americka
americke
americko
americkou
americky
amerika
ameriku
ameriky
amfitea
ami
aminokyselin
amnestie
amnesty
among
amor
amore
amos
amour
ampio
ampiona
amsterdam
amsterdamu
amtliches
amu
amudanan
amy
an
ana
analy
analysis
analyticke
anastasija
anatolij
anatomie
anatomii
anatomy
anc
ance
anci
ancient
and
anda
ande
anders
andersen
anderson
andersson
andi
andra
andre
andrea
andreas
andrej
andreje
andrew
andrews
android
andrzej
andy
ane
aneb
anebo
anech
anem
anexi
anez
ang
angaz
angel
angela
angeles
angelo
angels
angl
anglic
anglicka
anglicke
anglickou
anglicky
anglie
anglii
anglika
anglo
anhaltsko
ani
anima
animace
animal
animals
animation
anime
animovane
animovany
aniz
anjou
anka
ankete
ankety
ankou
anky
ann
anna
annals
anne
annie
anno
annou
announces
annu
annual
anny
ano
anonymni
another
anov
anova
ans
ansa
anska
anske
ansko
anskou
ansky
anstvi
ant
antarktide
antarktidy
ante
anthony
anti
anticke
anticky
antiky
anto
antoine
antologie
antologii
anton
antona
antoni
antonia
antonie
antonio
antropolog
antropologie
antuce
antukovy
antverpa
anu
any
ao
aopk
ap
apache
apara
apek
apg
api
apka
aplikac
aplikace
aplikaci
aplikova
aplikovane
aplikovat
apod
apollo
apos
app
apple
application
applications
applied
approach
april
ar
ara
arab
arabove
arabs
arabska
arabske
arabsky
arabu
araby
aragonske
aranz
arbitra
arc
arch
archa
archaicky
archande
archeolog
archeologicka
archeologicke
archeologicky
archeologie
archeologii
archeologove
archi
architecture
architekt
architekta
architektem
architekti
architektonicke
architektonicky
architektu
architektur
architektura
architekturou
architekturu
architektury
archiv
archiva
archive
archives
archivni
archivova
archivovana
archivu
archiweb
arci
arcibiskup
arcibiskupa
arcibiskupem
arcibiskupske
arcibiskupstvi
arcibiskupu
arcide
arcidiece
arcive
arctic
are
area
areas
arena
ares
argentina
argentine
argentinske
argentinsky
argentiny
argo
argument
argumenty
ari
aria
ariel
aris
aristokracie
arizona
arka
arky
arlota
arm
arma
arme
arms
armstrong
army
arne
arnold
arnos
arode
aron
arou
around
arova
array
arriva
arrondissement
ars
arsenal
arska
arske
arskem
arsko
arsku
arsky
art
arte
artefaktu
arthur
arthura
article
articles
artist
artists
arts
artur
artus
aru
arxiv
ary
as
asa
ase
asech
asem
ashley
asi
asia
asian
asie
asii
asijske
asijsky
asistence
asistenci
asistent
asistenta
asistentem
asistentka
asna
asne
asni
asnost
asnosti
asnou
asny
asociace
asociaci
asopis
asopise
asopisech
asopisem
asopisu
asopisy
asova
asove
asovy
asp
aspektu
aspekty
aspon
aspx
assessment
assisi
associated
association
ast
asta
aste
asten
astenstvi
asti
astn
astna
astne
astni
astnil
astnila
astnili
astnilo
astnily
astnit
astnou
astny
asto
aston
astra
astro
astronaut
astronom
astronomical
astronomicka
astronomicke
astronomicky
astronomie
astronomii
astronomy
astrophysical
astrophysics
asty
asu
asy
at
ata
atd
ate
atec
atech
atek
atelie
atenta
athe
athletic
athletics
ati
atkem
atku
atky
atlanta
atlante
atlantic
atlantiku
atlantis
atlantske
atlas
atlasu
atle
atlet
atletice
atleticke
atleticky
atletika
atletka
atmosfe
ato
atom
atomove
atomovy
atomu
atomy
atp
atrakce
atrakci
atraktivni
atributu
atributy
attack
atu
aty
au
audi
audio
audiovizua
auf
aug
august
augusta
auguste
augustin
augustina
augustinia
augustus
aurora
aus
auschwitz
austin
austra
australia
australian
australska
australske
australsky
austria
aut
auta
autem
author
authority
auto
autobiografie
autobus
autobusova
autobusove
autobusovou
autobusovy
autobusu
autobusy
automat
automaticke
automaticky
automobil
automobilka
automobilky
automobilove
automobilovy
automobilu
automobily
autonomie
autonomii
autonomni
autoportre
autor
autora
autorem
autorita
autoritu
autority
autorka
autorkou
autorky
autorovy
autorska
autorske
autorsky
autorstvi
autoru
autory
auvergne
aux
av
ava
avantgardni
ave
avec
avengers
aventinum
avenue
avi
avia
aviation
aviv
avivu
avs
avske
avu
avy
award
awards
away
ax
axel
az
azen
azena
azene
azeni
azeno
azeny
azi
azova
azovaci
azte
azyl
b
ba
baba
babi
babic
babis
baby
babylo
babylon
bac
bach
bacha
back
bad
badatele
baden
bagda
bahenni
bahn
bailey
baji
bakala
baker
bakteria
bakterie
bakterii
baku
bal
bala
balada
balatka
balbi
balcar
balduin
baleni
balet
baletni
baletu
bali
balka
balko
ball
balo
baltimore
baltske
balvan
balvany
bami
ban
bana
bance
band
bang
banglade
bani
bank
banka
banke
bankovky
bankovni
bankovnictvi
banks
banku
banky
banska
banske
baptiste
bar
bara
barbara
barbora
barbory
barcelona
barcelone
barcelony
barev
barevna
barevne
barevny
bari
barie
barika
barnes
baroka
barokne
barokni
baron
barona
barrandov
barrett
barry
bart
barta
bartolome
barton
bartos
baru
barva
barvami
barve
barveni
barvi
barvou
barvu
barvy
bas
basa
base
based
basic
basileji
basketbal
basketbalista
basketball
basketbalova
basketbalove
basketbalovy
basketbalu
baskytara
baskytarista
basova
bass
bat
baterie
baterii
bati
batman
battista
battle
bauer
bava
bave
bavi
bavlne
bavlny
bavne
bavni
bavny
bavor
bavorska
bavorske
bavorsko
bavorsku
bavorsky
bavu
bavy
bay
bayer
bayern
baz
baza
baze
bazilice
bazilika
baziliky
bb
bbc
bc
bd
bde
be
beach
bear
beat
beatles
beatrice
beatrix
beats
beautiful
beauty
beaux
bec
bechyne
beck
becker
bedlive
bedna
bedne
bedr
been
beer
beethoven
before
begin
behind
bei
beijing
being
bejru
bejt
bek
bel
bela
belgic
belgicka
belgicke
belgicky
belgie
belgii
belgium
believe
bell
bella
belle
bem
ben
bena
benda
bene
benedikt
benedikta
benediktinske
benes
benga
beni
benjamin
bennett
benny
beno
benoi
benou
beny
benz
benzi
ber
bera
beran
bere
berg
berger
berka
berkeley
berli
berlin
berliner
bern
bernard
bernarda
bernd
bernhard
berni
berou
beroun
berry
bert
berta
bertrand
bes
beseda
besedy
beskydy
best
bet
beta
bete
betle
betni
betonove
betonovy
betonu
better
betty
betu
between
bety
beverly
beyond
bez
bezbarie
bezboz
bezde
bezdra
beze
bezejmenny
bezma
beznade
bezobratly
bezpartijni
bezpec
bezpilotni
bezplatne
bezpochyby
bezpra
bezprostr
bezruc
beztoho
bezu
bezve
bezvy
bf
bg
bh
bhu
bi
biatlonu
bibcode
bible
bibli
biblicke
biblicky
bibliografie
bic
bici
bie
biena
big
bii
bil
bila
bilance
bilanci
bili
bill
billa
billboard
billie
billy
bilo
bin
bina
binterova
bio
biograficke
biograficky
biografie
biographie
biographisches
biography
biolib
biolog
biological
biologicke
biologicky
biologie
biologii
biology
biotopu
bir
bird
birds
birmingham
birminghamu
birth
bis
bishop
biskup
biskupa
biskupem
biskupove
biskupovi
biskupske
biskupsky
biskupstvi
biskupu
biskupy
bit
bitev
bitevni
biti
bitmapa
bitov
bitova
bitove
bitovech
bitovem
bitovni
bitovu
bitovy
bitu
bitva
bitve
bitvou
bitvu
bitvy
biz
bjo
bk
bka
bl
bla
black
blackwell
blade
blaha
blaho
blahor
blahoslaveny
blake
blanc
blani
blanka
blansko
blast
blatna
blaz
ble
blede
bledy
blesk
bleskem
blesku
blesky
bli
blind
bliz
block
blog
blogspot
blogu
blok
bloka
blokova
bloku
bloky
blood
bloomberg
blu
bludny
blue
blues
bly
bmw
bne
bni
bo
board
bob
boba
bobby
bobr
bobule
boc
boci
bod
bode
bodech
bodem
bodlina
bodova
bodove
bodovy
bodu
body
boeing
boha
bohata
bohate
bohatou
bohats
bohatstvi
bohaty
bohdan
bohe
bohem
bohemia
bohemians
bohemica
bohosluz
bohove
bohu
bohumi
bohumil
bohumila
bohus
bohuslav
bohuslava
bohuz
bohy
bohyne
bohyni
bois
boj
boje
bojem
boji
bojis
bojova
bojoval
bojovala
bojovali
bojovat
bojove
bojovni
bojovou
bojovy
boju
bojuje
bojuji
bok
boku
boky
bol
boldsymbol
boleslav
boleslava
boleslavi
bolest
bolesti
bolestne
boletus
boli
bologna
bols
bomb
bomba
bombarde
bombardova
bombardovaci
bomby
bon
bonaparte
bond
bondy
bone
bonifa
bonn
bonus
book
books
boom
boot
bor
bora
bordeaux
borech
borek
borem
borgis
boris
borise
born
borna
borne
borny
borove
borovic
borovice
borovy
bors
borske
borsky
boru
bory
bos
bosa
bosch
bosenske
bosensky
boskovic
boskovice
bosn
bosna
bosne
bosny
boss
boston
bostonu
bot
botanic
botanical
botanice
botanicka
botanicke
botanicky
botanik
botanika
botany
boty
bou
bouda
boudy
boulevard
bour
bourbon
box
boxer
boxu
boy
boys
boz
br
bra
brabec
brad
brada
bradley
bradli
brady
brain
bral
brali
bram
brambor
brambory
brami
bran
branami
brand
brandon
brandy
branek
brani
braniborske
braniborsko
braniborsky
branka
branku
branky
branne
branou
bras
bratislava
bratislave
bratislavske
bratislavy
bratr
bratra
bratrance
bratrancem
bratranec
bratrem
bratrovi
bratrske
bratrstva
bratrstvi
bratrstvo
bratru
bratry
braun
brazi
brazil
brazilske
brazilsky
brdy
bre
break
breaking
brent
bretan
brian
bridge
brief
brien
briga
bright
brigitte
brill
brisbane
bristol
brit
brita
britain
britannica
british
britove
britska
britske
britsko
britskou
britsky
britu
brity
brna
brne
brno
brnou
brny
bro
broadcasting
broadway
brod
brode
brodu
broken
bronz
bronzova
bronzove
bronzovou
bronzovy
bronzu
brooklyn
brooks
bros
brothers
brouc
brouk
brouku
brous
brown
broz
bru
bruce
bruins
bruno
bruns
brunta
brusel
bruselu
bruta
bry
bryan
brz
brzdy
brzke
brzo
brzy
bs
bsd
bske
bsky
bu
buben
bubeni
bubny
buc
buch
buchu
bud
budapes
budapest
buddha
buddhismu
buddhismus
buddhisticke
buddhisticky
bude
budeme
budes
budete
budi
budis
budiz
budou
budouci
budoucna
budoucnost
budoucnosti
budoucnu
budov
budova
budovami
budovat
budove
budovou
budovu
budovy
budu
budys
buenos
buffalo
bugatti
building
bujne
buk
bukove
buku
bukures
bulhar
bulhars
bulharska
bulharske
bulharsko
bulharsku
bulharsky
bull
bulletin
bulva
bun
bundesliga
bune
bur
bureau
bures
burgundske
burian
buriana
burke
burns
burton
burz
burza
burze
bus
bush
business
busta
but
butler
buzna
buzne
buzni
buzny
by
bych
bychom
bydlel
bydlela
bydleli
bydleni
bydli
bydlis
bydz
byl
byla
byli
bylin
bylina
byliny
bylo
byly
bys
byste
bystr
bystre
bystrica
bystrici
bystry
byt
byte
bytek
bytem
byti
bytku
bytost
bytosti
bytove
bytovy
bytu
byty
byv
byzantska
byzantske
byzantsky
c
ca
cable
cache
caesar
cafe
calais
calcio
cale
calgary
california
call
cambridge
camera
cameron
camille
camp
campaign
campbell
can
canada
canadian
cancer
cannes
canon
canton
cap
cape
capital
capitals
captain
car
cara
carbon
card
care
career
carex
cargo
carl
carla
carlo
carlos
carmen
carol
carolina
caroline
carpenter
carroll
cars
carska
carske
carsko
carsku
carsky
carter
cas
casa
case
casey
cash
cast
castle
castro
cat
catalog
catalogue
catherine
catholic
cause
cavalier
cave
cb
cbs
cc
cca
cd
cdot
cdu
ce
cech
cechu
cecil
ceji
cek
cekra
cel
cela
cele
celebrity
celek
celestial
celkem
celkova
celkove
celkovou
celkovy
celku
celky
cell
cells
celni
celokrajne
celoroc
celosta
celosve
celou
celovec
celoz
celtic
cely
cem
ceme
cen
cena
cene
ceni
cenina
ceniny
cenne
cenny
ceno
cenou
cenove
censtvi
census
center
centimetru
centra
central
centre
centrem
centru
centrum
century
cenu
ceny
ceremonia
cero
certifika
ceskatelevize
ceskenoviny
cest
cesta
cestami
ceste
cestou
cestova
cestoval
cestovat
cestovatel
cestovatele
cestovni
cestu
cestuji
cesty
cet
ceu
cf
cgi
ch
cha
chaci
chagall
chaj
chaji
chajim
chal
chala
chali
challenge
challenger
chaloupka
chalupa
chalupni
chalupy
champagne
champion
champions
championship
championships
chan
chana
chance
chane
chang
change
changes
channel
chany
chao
chaos
chaosu
chapelle
chapman
chapter
charakter
charakteristicka
charakteristicke
charakteristicky
charakteristika
charakteristiky
charakterizova
charakterizuje
charakteru
charita
charitativni
charles
charlese
charlie
charlotte
chart
charts
charty
charva
chase
chat
chata
chatrc
chatu
chaty
chce
chceme
chces
chcete
chci
che
cheb
chebu
chelsea
chem
chemical
chemicka
chemicke
chemicko
chemickou
chemicky
chemie
chemii
chemik
chemika
chemistry
chen
cheng
cher
chess
chi
chicaga
chicago
chicagu
chief
chien
child
children
chile
chilske
chin
china
chinese
ching
chirurg
chirurgicke
chirurgie
chko
chl
chla
chladic
chladici
chladne
chladny
chlap
chlapce
chlapci
chlapcu
chlapec
chlapi
chlazeni
chlazeny
chle
chleba
chli
chloe
chlorid
chloridu
chlum
chlumec
chlumu
chlupate
chlupy
cho
chocen
chod
chodba
chodbe
chodby
chodce
chodcu
chode
chodem
chodi
chodil
chodila
chodili
chodit
chodne
chodni
chodoc
chodone
chodov
chodove
chodu
chody
choice
chomutov
chomutova
chomutove
chopil
chora
chorob
choroba
chorobou
choroby
chorvats
chorvatska
chorvatske
chorvatsko
chorvatsku
chorvatsky
chorvatu
chot
chota
chote
choti
chotni
choty
chou
chov
chova
chovaji
choval
chovali
chovat
chove
chovice
chovna
chovne
chovny
chovska
chovske
chovu
chovy
chozi
chr
chra
chrana
chrane
chranna
chranne
chranny
chranu
chrany
chris
christ
christian
christiana
christie
christina
christine
christmas
christoph
christopher
chromozomu
chronicle
chronologicke
chronologicky
chronologie
chrudim
chrudimi
chte
chti
chto
chu
chua
chuang
chuck
chuda
chude
chudi
chudoba
chudobe
chudoby
chuds
chudy
chuej
chung
church
churchill
chut
chuti
chva
chvat
chvatu
chve
chvi
chvilku
chy
chyb
chyba
chybe
chybi
chybne
chybny
chybu
chyby
chym
chysta
chystal
chyta
chytil
chytre
chytry
chz
ci
cia
cibule
cibulka
cid
cidlinou
cie
cieszyn
cihel
cihelna
cihelny
cihla
cii
cika
cileti
cincinnati
cinema
cio
circle
circuit
cirkus
cis
cistercia
cit
cita
citace
citaci
citation
cite
cities
citlive
citlivost
citlivosti
citlivy
citova
citove
citroe
citu
city
ciudad
civil
civilistu
civilizace
civilizaci
civilni
cizi
cizince
cizinci
cizincu
cizine
cizinec
ciziny
cizojazyc
ck
cka
cke
cko
ckou
cku
cky
cl
cla
claire
clam
clanek
clanky
clara
clarence
clark
clarke
class
classic
classical
classification
claude
claudia
claudio
clav
clava
clavem
clavovi
clavske
clavu
cle
cleveland
climate
clinical
clinton
close
cloud
club
clubu
clusters
cm
cmi
cn
cna
cnb
cne
cni
cnn
cnost
cnosti
cnou
cnu
cny
co
coast
coby
coco
code
codex
cohen
cokoli
cokoliv
col
cold
cole
colin
collection
college
collins
color
colorado
colts
columbia
columbus
com
combat
come
comedy
comes
comic
comics
coming
comique
command
commentary
commission
committee
common
commons
communication
communications
community
companion
company
competition
complete
complex
computer
comte
con
concert
conde
conference
conflict
congress
connecticut
connor
conrad
conservation
construction
contemporary
content
contest
continental
control
convention
conway
cook
cool
cooper
copa
copak
core
cornelius
cornell
coronavirus
corporation
corps
corpus
corte
cos
cosi
costa
could
council
countries
country
county
coupe
course
court
courtney
cov
cova
cove
cover
coververze
covid
covidu
covy
cox
coz
cp
cpu
cr
craig
crash
crazy
crc
cre
creative
creek
cretaceous
crew
crime
crisis
critical
critics
croix
cross
crown
cruz
cry
crystal
cs
csc
csfd
csfotbal
cska
ct
cta
cte
cti
ctibor
ctileta
ctilete
ctilety
ctiva
ctiz
ctka
ctnost
ctnosti
ctou
ctu
ctvi
cty
cu
cukr
cukra
cukrovar
cukrovaru
cukru
cultural
culture
cum
cuni
cup
cupu
current
curtis
curych
curychu
cut
cv
cvic
cvik
cvikove
cviku
cvrc
cw
cx
cycling
cyclingnews
cyklista
cyklisticke
cyklisticky
cyklistika
cyklisty
cyklo
cyklostezka
cyklotrasa
cyklu
cyklus
cykly
cyril
cyrila
cyrilice
cyrilici
cyrilometode
cytuj
cz
cze
czech
d
da
dabe
dabing
dac
daci
dagmar
daily
daj
daje
daji
dajne
dajny
daju
dakota
dal
dala
dale
daleka
daleke
daleko
dalekohled
dalekohledu
daleky
dali
dalibor
dallas
dalma
dalo
dals
daly
dam
damas
dame
dami
damu
dan
dana
dance
dancing
dane
dani
daniel
daniela
danny
danou
dans
dante
dany
dar
darem
dark
darova
daroval
darryl
daru
darwin
dary
das
dat
data
databa
database
databazeknih
date
datech
datem
dati
dativ
datova
datove
datovy
datu
datuje
datum
daty
dav
dave
david
davida
davidem
davidova
davies
davis
davne
davny
davu
davy
dawn
day
days
db
dba
dc
dce
dcem
dcer
dcera
dcerou
dceru
dcerus
dcery
dci
dcove
dcu
dd
ddr
de
dead
deadline
deal
dean
death
debata
debate
debaty
debian
deblove
deblovy
debut
debutoval
debutovala
debutove
debutu
dec
december
dech
dechem
dechove
dechovy
dechu
decka
decke
decko
deckou
decky
dectvi
dee
deep
default
defence
defense
definice
definici
definitivne
definitivni
definova
definoval
definovane
definovany
definovat
definuje
degli
dei
dej
dejiny
dejme
dejte
dek
deka
deklarace
deklaraci
deklinace
dekorace
dekoraci
dekorativni
dekret
dekretem
dekretu
del
dele
delega
delegace
delegaci
delfi
dell
della
delle
delna
delni
delny
dels
delta
dem
demek
demisi
demo
democracy
democratic
demograficke
demokracie
demokracii
demokrat
demokrate
demokraticka
demokraticke
demokratickou
demokraticky
demokratu
demolice
demolici
demonstrace
demonstraci
den
dendrologie
denec
deni
denik
denis
denise
denmark
denne
denni
dennis
densko
departementu
department
depo
deportova
depozita
deprese
depresi
der
derby
derek
deriva
derivace
deru
dery
des
desa
desce
description
desek
desert
deset
deseti
desetileti
desi
design
designated
designe
designu
desk
deska
deskami
deskou
desku
desky
destic
destinaci
det
detail
detailne
detailni
details
detailu
detaily
detekci
detektiv
detektivni
detroit
deus
deutsch
deutsche
deutschen
deutscher
deutsches
deutschland
deux
dev
deva
devadesa
devatena
deve
development
devi
device
devil
dexu
dez
dherne
dherny
di
dia
diagno
diagnostikova
diagona
diagram
dialekt
dialektu
dialog
dialogu
dialogy
diamond
diana
diane
dic
dice
dicem
dici
dick
dicke
dictionary
dictvi
dicu
did
die
diece
diego
diem
dies
diesel
diesely
dieter
dietrich
diferencia
different
digita
digital
digitalniknihovna
dii
dikta
dil
dila
dili
dilli
dilo
dily
dimenze
dimenzi
din
dina
dinamo
dinosaur
dinosaura
dinosauria
dinosaurs
dinosauru
dinosaurus
dinosaurusblog
dio
diony
diove
diovy
diplom
diplomacie
diplomat
diplomaticke
diplomaticky
diplomova
dir
direct
director
directory
dirigent
dirigentem
dirty
dis
discipli
disciplina
disco
discogs
discovery
disease
diseases
disertac
disk
diskografie
diskre
diskriminace
diskriminaci
disku
diskuse
diskusi
diskusni
diskuze
diskuzi
disky
disney
dispec
display
displaystyle
displej
disponuje
dispozice
dispozici
distribuc
distribuce
distribuci
distribuova
distribution
district
distriktu
dit
diti
ditrichs
diu
dium
div
diva
divadel
divadelni
divadla
divadle
divadlech
divadlem
divadlo
divadlu
dive
diversity
divi
divis
divisio
division
divize
divizi
divizni
divne
divny
divoc
divoce
divoka
divoke
divokou
divoky
divu
divy
dj
djokovic
djvu
dk
dka
dkami
dke
dkem
dkou
dkova
dkove
dkovy
dku
dky
dkyne
dl
dla
dlani
dlant
dlaz
dle
dlech
dlem
dlena
dlene
dleni
dleno
dleny
dli
dlil
dlila
dlili
dlilo
dlis
dlo
dlouha
dlouhe
dlouho
dlouhodobe
dlouhodobou
dlouhodoby
dlouholete
dlouholetou
dlouholety
dlouhou
dlouhy
dlouze
dlova
dlu
dluh
dluhu
dluhy
dluz
dly
dm
dmitrij
dna
dne
dnech
dnem
dnes
dni
dno
dnost
dnosti
dnou
dnouci
dnout
dnouti
dnu
dnuta
dnuti
dny
do
dob
doba
dobe
dobes
dobi
doborce
doborcu
doborec
dobou
dobove
dobovy
dobr
dobra
dobre
dobro
dobroc
dobrodruz
dobrou
dobrovolne
dobrovolni
dobrovolny
dobrovsky
dobrus
dobry
dobu
doby
dobyl
dobyla
dobyli
dobyt
dobyta
dobytek
dobyti
dobytka
doc
docela
docent
docentem
docha
dochova
dochoval
dochovala
dochovalo
dochovaly
dochovana
dochovane
dochovany
doci
doctor
document
documents
doda
dodal
dodala
dodat
dodatec
dodatek
dodatky
dodenni
dodnes
dodrz
does
dog
dohled
dohledem
dohledu
dohli
dohod
dohoda
dohode
dohodl
dohodli
dohodou
dohodu
dohody
dohra
dohromady
doi
dojde
dojel
dojem
doji
dojmem
dojmu
doka
dokazuje
dokazuji
dokla
doklad
dokladem
dokladu
doklady
dokola
dokonale
dokonalosti
dokonaly
dokonave
dokonc
dokonce
dokor
doktor
doktora
doktorem
doktorske
doktri
dokud
dokument
dokumenta
dokumentace
dokumentaci
dokumentech
dokumentu
dokumenty
dol
dolar
dolaru
dole
dolech
dolejs
dolet
doleva
dolez
doli
dolina
doline
doliny
dolni
doloz
dolu
doly
dom
doma
domaci
domain
domaz
dome
domech
domek
domem
domenico
domety
domi
domil
dominantni
dominantou
dominic
dominik
dominika
dominique
domino
dominuje
dominuji
domku
domky
domne
domni
domorodci
domorode
domorody
domosti
domov
domova
domove
domovem
domovni
domovska
domovske
domovsky
domovu
domu
domy
don
dona
donald
done
donna
donu
donucen
donutil
door
dopa
dopad
dopadu
dopady
dopis
dopise
dopisu
dopisy
dopln
doplne
doplni
doplnil
doplnit
dopoledne
doporuc
doposud
dopous
dopr
doprava
dopravce
dopravci
dopravcu
doprave
dopravni
dopravou
dopravu
dopravy
doprova
doprovod
doprovodem
doprovodne
doprovodny
doprovodu
dopustil
dor
dora
dorazi
dorazil
dorazila
dorazili
doroc
dorothy
dortmund
doru
doruc
dorys
dorysu
dos
dosa
dosah
dosahoval
dosahovala
dosahovat
dosahu
dosahuje
dosahuji
dosavadni
dosaz
dosi
doslov
doslova
doslovne
dospe
dospi
dost
dosta
dostac
dostal
dostala
dostali
dostalo
dostaly
dostane
dostaneme
dostanou
dostat
dostatec
dostatek
dostati
dostave
dostavil
doste
dosti
dostr
dostup
dostupna
dostupne
dostupnost
dostupnosti
dostupny
dosud
dosve
dot
dota
dotace
dotaci
dotaz
dotazni
dotazy
dotc
dotisk
doty
dotyc
dou
douard
double
doubles
doubrava
douci
doufa
doufal
doug
douglas
doupe
dous
dova
dove
dovede
dovedl
dovednosti
dovi
dovnitr
dovola
dovolene
dovoleno
dovolenou
dovolil
dovolit
dovoluje
dovoz
dovrs
dovy
down
download
doyle
doz
dozadu
dozor
dozorc
dozorce
dozra
dozve
dozvi
dp
dr
dra
drac
draftova
draftu
dragon
drah
draha
drahe
drahomi
drahos
drahou
drahy
drak
draka
drake
draku
drama
dramatic
dramaticke
dramaticky
dramatik
dramatu
dramaturg
dramaturgie
dramma
draselny
dravy
draz
dre
dream
dreams
drem
dres
dresden
dresu
drive
driver
dro
drobna
drobne
drobny
drog
droga
drogy
drove
drovy
drsc
drsne
drsny
drtive
dru
drug
druh
druha
druhdy
druhe
druhem
druholigove
druhotne
druhou
druhove
druhu
druhy
drusop
druz
druzi
dry
drz
ds
dska
dske
dsko
dskou
dsku
dsky
dt
du
dua
dub
duba
dubai
dube
duben
dublin
dublinu
dubna
dubnu
dubove
dubovy
dubrovni
dubu
duby
duch
ducha
duchem
duchove
duchovenstva
duchovni
duchu
duchy
duda
due
duel
duelu
duet
duka
duke
dukla
dunaj
dunaje
dunaji
dunajska
duncan
duo
dur
durch
durdi
during
dus
dusi
dusic
dutch
dute
dutina
dutiny
duty
duz
dva
dvaca
dvacet
dvaceti
dvakra
dvana
dvb
dvd
dve
dver
dvi
dvojc
dvoje
dvoji
dvojic
dvojice
dvojici
dvojite
dvojity
dvojka
dvojna
dvor
dvora
dvorce
dvorci
dvorec
dvorem
dvorni
dvorske
dvorsky
dvoru
dvory
dvou
dvoude
dvoudi
dvouhr
dvouhra
dvouhry
dvoukolovy
dvoukr
dvoulete
dvoumi
dvouplos
dvousetove
dvu
dx
dy
dycky
dyje
dyji
dyk
dylan
dynamicke
dynamicky
dynamics
dynamo
dynastie
dynastii
dynasty
dyt
dz
e
ea
eagle
earl
early
earth
earthquake
earthquakes
east
eastern
easy
eb
eba
ebas
ebaz
ebc
ebe
ebec
eben
ebene
ebenem
ebeni
ebenu
ebeny
eberhard
ebestia
ebi
ebic
ebis
ebitele
ebna
ebne
ebni
ebnic
ebnice
ebnici
ebnou
ebny
ebon
eboni
ebor
eboru
ebou
ebova
eboval
ebovali
ebove
ebr
ebra
ebu
ebudova
ebuje
ebujeme
ebuji
eby
ec
ecce
ece
ecek
ech
echa
echen
echna
echne
echno
echnu
echny
echo
echod
echodem
echodne
echodni
echodny
echodu
echody
echoslova
echou
echov
echova
echove
echu
echy
eci
ecka
ecke
ecko
eckou
ecku
ecky
eclav
ecology
economia
economic
economics
economy
ectvi
ed
eda
edal
edat
edbe
edc
edce
edcha
edchozi
edchu
edci
eddie
ede
edehra
edek
edem
eden
edes
edesa
edevs
edgar
edge
edhradi
edi
edic
edice
edici
edil
edila
edinburgh
edinburghu
ediska
ediskem
edisko
edisku
edit
edita
editel
editele
editelem
editeli
editelka
editelkou
editelstvi
edith
edition
editions
editor
edive
edivy
edka
edkem
edkla
edkola
edkole
edkova
edkove
edku
edky
edlitavska
edlohou
edlohy
edloz
edme
edmluva
edmund
edna
edne
ednesl
edni
ednice
ednicke
ednictvi
ednost
ednosta
ednosti
ednostn
ednostne
edny
edo
edoc
edoevropske
edoevropsky
edohor
edomor
edos
edou
edove
edovy
edozemni
edpis
edpisu
edpisy
edpokla
edpoklad
edpokladem
edpokladu
edpoklady
edposledni
edpove
edpovi
eds
edseda
edsedal
edsedkyne
edsedkyni
edsednictva
edsednictvi
edsedou
edsedu
edsedy
edsi
edstav
edstava
edstaven
edstavena
edstaveni
edstavenstva
edstaveny
edstavi
edstavil
edstavila
edstavili
edstavit
edstavitel
edstavitele
edstavitelem
edstaviteli
edstavitelu
edstavoval
edstavovala
edstavovalo
edstavovaly
edstavovat
edstavu
edstavuje
edstavuji
edstavy
edsti
edti
edu
eduard
eduarda
eduardo
education
edurc
edva
edvard
edvarda
edvec
edvedl
edvi
edvolebni
edward
edwarda
edwards
edwin
edy
ee
ef
efekt
efektivne
efektivni
efektu
efekty
effect
effects
efl
ego
egon
egypt
egypta
egypte
egyptska
egyptske
egyptsky
eh
eha
ehem
ehke
ehle
ehled
ehledne
ehledu
ehli
ehna
ehnane
eho
eholni
eholnice
ehor
ehoz
ehr
ehra
ehrad
ehrada
ehrade
ehradni
ehradske
ehradu
ehrady
ehu
ehy
ei
ein
eine
einer
einstein
eishockey
ej
ejde
eje
ejem
eji
ejka
ejme
ejmenova
ejmenoval
ejmenovala
ejn
ejna
ejne
ejni
ejnil
ejnila
ejnopra
ejnost
ejnosti
ejnou
ejny
ejs
eju
ek
eka
ekaji
ekal
ekala
ekali
ekami
ekane
ekat
ekl
ekla
eklad
ekladac
ekladatel
ekladatelka
ekladem
ekladu
eklady
ekli
ekne
ekni
eknih
eknu
ekologicke
ekologicky
ekologie
ekona
ekonal
ekonala
ekonat
ekonom
ekonomice
ekonomicka
ekonomicke
ekonomickou
ekonomicky
ekonomie
ekonomii
ekonomika
ekonomiku
ekonomiky
ekosyste
ekou
ekove
ekra
ekrac
ekroc
ekry
eku
ekva
ekvapeni
ekvapive
ekvivalent
ekvivalentni
eky
el
ela
elami
elar
elba
elbe
elbu
elby
elce
elcem
elci
elcu
ele
elec
elecka
elecke
elecky
election
elections
electric
electronic
electva
eled
eledi
elegantni
elek
elektr
elektra
elektricka
elektricke
elektrickou
elektricky
elektromagneticke
elektronicka
elektronicke
elektronicky
elektroniky
elektronove
elektronu
elektrony
elem
element
elementa
elementu
elen
elena
elene
eleni
eleny
eleonora
eleza
elezna
elezne
eleznic
eleznice
eleznici
eleznou
elezny
elezo
elfu
eli
elia
elias
elice
elike
eliky
elil
elila
elili
elina
elinis
elipticke
elis
elisabeth
elise
elisti
elit
elite
eliteprospects
elitni
elizabeth
elka
elkou
elku
elky
elle
ellen
elliott
ellis
elma
elmy
elne
elni
elnice
elnici
elny
elo
elomu
elou
elouc
elova
elove
elovi
elovy
eloz
else
elsevier
elske
elsky
elstvi
elu
elva
elvy
ely
em
ema
emanuel
emanuela
emble
eme
emen
emeritni
emes
emesel
emesla
emeslni
emeslo
emi
emic
emigrace
emigraci
emigroval
emil
emila
emilia
emilie
emily
emira
emise
emisi
emisni
emlic
emma
emmanuel
emmy
emoc
emoce
emoci
emociona
emoz
empi
empire
ems
emu
emuz
emy
emys
emysl
emysla
emyslovcu
emz
en
ena
enami
enat
enaty
ence
encem
enci
encu
encyclopaedia
encyclopedia
encyclopædia
encyklopedicke
encyklopedicky
encyklopedie
encyklopedii
end
endemicky
ene
enec
energeticke
energeticky
energetiky
energie
energii
energy
enesen
enesena
enesene
eneseni
eneseny
enesl
eneve
eng
engine
engineering
england
english
eni
enic
enice
enich
enici
enie
enil
enin
enina
eniny
enit
enka
enkla
enko
enkova
enku
enky
eno
enos
enosny
enost
enosti
enosu
enou
enov
enove
enovy
ens
enska
enske
ensko
enskou
ensky
enstev
enstva
enstvi
enstvo
enterprise
entertainment
entomologie
entry
enu
environment
environmenta
environmental
eny
enzymu
eobecna
eobecne
eobecnou
eobecny
ep
epa
epadeni
eparchie
epel
epele
epi
epic
epice
epici
epidemie
epidemii
epis
episode
episova
episu
epizod
epizoda
epizode
epizodu
epizody
eplavec
eplne
epoc
epocha
epos
eposu
epracova
epracovane
eprave
epravni
epravu
epravy
eptal
epu
epy
er
era
erb
erbem
erben
erbovni
erbu
erby
erc
ere
erejs
erem
eretz
eric
erica
erich
erik
erika
erka
erm
erma
ermi
erna
erne
ernest
erni
ernice
erno
ernobi
ernohorske
ernohorsky
ernos
ernou
ernst
ernsta
erny
ero
eroti
erov
erova
erove
erozi
erpa
erpaci
erpal
error
erstve
erstveni
erstvy
ert
ertova
ertu
eru
erupce
erupci
erus
erva
erven
ervena
ervence
ervenci
ervene
ervenec
ervenka
erveno
ervenohne
ervenou
erveny
ervi
ervna
ervnu
erwin
ery
es
esa
esahuje
esahuji
ese
esej
eseje
esejista
esel
eseni
esi
eska
eskala
eske
esko
eskobratrske
eskobude
eskoc
eskomoravska
eskomoravske
eskoslovenska
eskoslovenske
eskoslovensko
eskoslovenskou
eskoslovensku
eskoslovensky
eskou
esku
esky
esla
eslav
eslo
esme
esn
esna
esne
esnost
esnosti
esnou
esny
eso
espan
esperanto
espn
essays
essex
est
esta
estal
estala
estali
estalo
estaly
estane
estavba
estavbe
estavbou
estavbu
estavby
estave
este
ester
esteticke
esteticky
esti
estiva
estkra
estmi
estna
estne
estni
estny
esto
estons
estonska
estonske
estonsko
estonsku
estonsky
estou
estoupil
estoz
estr
estranky
estranne
estup
estupni
estupu
esty
esu
esun
esunout
esunu
esunul
esunula
esunut
esunuta
esunuti
esve
esy
et
eta
etap
etapa
etape
etapu
etapy
etc
ete
etelne
etelny
etem
eti
etice
eticke
eticky
etin
etina
etine
etinu
etiny
etiopie
etiopii
etiopske
etislav
etl
etla
etli
etna
etne
etni
etnicka
etnicke
etnicky
etnictvi
etnost
etnosti
etnou
etnuti
etny
etr
etrva
etrz
etu
etvor
ety
etymologicky
eu
euge
eugen
eugene
eur
eura
euro
eurofotbal
euromedia
europa
europe
european
eurovision
euweb
ev
eva
evahou
evahu
evakuaci
evakuova
evan
evangeli
evangelia
evangelicka
evangelicke
evangelicky
evangelista
evangelisty
evangelium
evans
evar
evaz
evc
eve
eved
eveden
evedena
evedeni
evedl
evelen
evem
even
event
eventpage
events
ever
every
everything
evezen
evi
evic
evidenc
evidence
evidenci
evidova
evil
evin
evina
eviny
evla
evnate
evne
evni
evo
evod
evodni
evodovka
evodu
evoluc
evoluce
evolution
evolutionary
evor
evra
evrat
evratu
evropa
evrope
evropou
evropska
evropske
evropskou
evropsky
evropu
evropy
evu
evy
evys
evz
evzal
evzala
evzali
evzalo
evzaly
evzata
evzato
evzaty
evzeti
evzi
ex
exc
exchange
exclusive
excurrendo
executive
exempla
exhibition
exilove
exilu
existence
existenci
existoval
existovala
existovalo
existovaly
existovat
existuje
existuji
exit
exkluzivni
expanze
expanzi
expedic
expedice
expedici
experience
experiment
experimenta
experimental
experimentu
experimenty
expert
explorer
exploze
explozi
expo
expona
export
exportni
expozic
expozice
expozici
expres
expresivne
express
extended
exterie
externi
extra
extragalactic
extraliga
extraligy
extralize
extre
eye
eyes
ez
eza
ezba
ezdi
ezem
ezen
ezi
ezina
ezna
ezne
ezni
eznice
ezno
eznu
ezova
ezove
ezu
ezy
f
fa
fabia
fabio
fac
face
facebook
facebooku
fact
facto
factor
factory
facts
fair
faith
fakt
fakta
faktech
fakticky
faktor
faktorem
faktoru
faktory
faktu
fakult
fakulta
fakulte
fakultni
fakultu
fakulty
falc
falcon
fales
fall
falls
false
fame
familia
families
family
famu
fan
fang
fanous
fantasticky
fantasy
fantazie
far
fara
farma
farme
farmy
farni
farnost
farnosti
faru
fary
fas
fasa
fashion
faso
fast
fat
fata
father
fauna
fauny
faust
fbi
fc
fd
fdb
fe
fear
feat
features
featuring
february
fed
fedcup
federa
federace
federaci
federal
federation
federativni
federer
federico
feel
felix
felixe
fem
female
feminina
feng
fenome
fer
ferdinand
ferdinanda
ferdinandem
ferenc
ferguson
ferna
fernando
ferrari
festival
festivalech
festivalu
feuda
ff
fi
fia
fiala
fialova
fialove
fialovy
fiat
fiba
fiction
fide
fidz
field
fifa
fifth
fight
fighter
fighting
figura
figury
fiktivni
fil
file
files
filharmonie
filharmonii
filia
filip
filipa
filipi
film
filmar
filmech
filmem
filmova
filmove
filmovou
filmovy
films
filmu
filmy
filolog
filosof
filosoficke
filosoficky
filosofie
filosofii
filozof
filozoficka
filozoficke
filozoficky
filozofie
filozofii
filtr
filtru
fin
fina
final
finalista
finals
financ
finance
financi
financial
financova
find
fine
finn
fins
finska
finske
finsko
finsku
finsky
fire
firem
firemni
firma
firme
firmou
firmu
firmy
first
fis
fischer
fish
fisher
five
fjodor
fk
fl
fla
flag
flags
flash
fle
fleet
fleming
flight
flo
flora
florbal
florence
florencie
florencii
floria
florian
florida
floride
flotila
flotily
flow
flowering
floyd
fly
flying
fm
fn
fni
fo
focus
fojti
fokker
folk
folklo
fond
fondu
fondy
foneticky
fonta
food
football
footballdatabase
for
forbes
force
forces
ford
foreign
forem
forest
forever
form
forma
formace
formaci
format
formation
forme
former
formou
formova
formu
formula
formulace
formule
formuli
formy
fort
fortuna
fortune
forum
fosfa
fosilie
fosilni
fossil
foster
fot
fotbal
fotbale
fotbalem
fotbalista
fotbaliste
fotbalistou
fotbalistu
fotbalova
fotbalove
fotbalovou
fotbalovy
fotbalu
foto
fotoapara
fotogalerie
fotograf
fotografa
fotografem
fotograficka
fotograficke
fotografickou
fotograficky
fotografie
fotografiemi
fotografii
fotografka
fotografova
fotografoval
fotografove
fotografu
fotoz
found
foundation
four
fourth
fox
fr
fra
frac
fragment
fragmenty
frakce
frakci
frame
framework
fran
franc
france
frances
francesca
francesco
francie
francii
francis
francisca
francisco
franco
francouz
francouzi
francouzs
francouzska
francouzske
francouzsko
francouzskou
francouzsky
francouzu
frank
franka
frankfurt
frankfurtu
franklin
franku
frans
franske
frant
franti
frantis
franz
franze
fras
fre
fred
fredaktor
fredaktorem
frederick
frederik
frederika
free
freedom
freeman
fregata
fregaty
freiburg
frekvenc
frekvence
frekvenci
french
frens
freska
fresky
freud
fri
fric
fridrich
fridricha
friedrich
friedricha
friend
friends
fritz
fro
from
frommert
front
fronta
fronte
frontu
fronty
fru
fry
frys
fs
ft
fu
fuc
fuchs
full
fun
function
fund
fungova
fungoval
fungovala
fungovat
funguje
funguji
funk
funkc
funkce
funkci
funkciona
futbal
future
fußball
fw
fy
fyzice
fyzicka
fyzicke
fyzickou
fyzicky
fyzik
fyzika
fyziku
fyziky
fyziologie
fyziologii
g
ga
gabriel
gabriela
gaga
gaia
gala
galaxie
galaxii
galaxy
gale
galerie
galerii
galil
galileji
galileo
gallery
gama
game
games
gamma
gang
gangu
gara
garci
garcia
garda
garden
gardens
gardy
garrigue
garros
gary
gas
gaston
gastronomie
gate
gates
gay
gaz
gazette
gazetteer
gazy
gb
gc
gdan
ge
gel
gen
gender
gene
genealogie
genealogy
genera
generace
generaci
general
generation
generova
genesis
geneticke
geneticky
genia
genitiv
genu
genus
geny
geode
geoffrey
geograf
geograficke
geograficky
geografie
geografii
geographic
geolog
geological
geologicka
geologicke
geologicky
geologie
geology
geometricke
geometricky
geometrie
geometrii
geomorfologicke
geomorfologicky
georg
georga
george
georgem
georges
georgia
georgie
ger
gerald
gerard
gerhard
germa
germain
german
germany
geschichte
gesellschaft
gestapa
gestapem
gestapo
get
gets
gg
ghana
ghetta
ghetto
ghost
ghz
gi
gia
giacomo
giant
gibson
gil
gilbert
gilles
gina
giorgio
giovanni
girl
girls
giro
git
giuseppe
giv
give
gl
glasgow
glass
glee
glen
glenn
glo
globa
global
globalsecurity
globator
globe
gloria
glory
glu
gluko
gm
gmbh
gmina
gminy
gn
gnome
gnu
go
goa
goal
god
goes
goethe
going
gold
golden
golf
gone
gonza
good
google
gordon
got
gotha
goticka
goticke
gotickou
goticky
gotiky
gott
gottfried
gottwalda
gov
government
gp
gps
gr
gra
grace
grad
grada
graf
graficka
graficke
graficky
grafik
grafika
grafiku
grafiky
grafu
graham
gramatika
gramatiky
grammy
gramu
gran
grana
grand
grande
grandslamove
grandslamovy
grandslamu
grant
grave
gravitac
gravitace
gray
graz
gre
great
greatest
greek
green
greene
greenwood
greg
gregor
gregoria
gregory
grey
gro
groening
gros
gross
ground
group
groups
grove
growth
gru
grumman
grupa
gruzi
gruzie
gruzii
gs
gt
gu
guardian
guatemala
gubernie
gue
guez
guide
guido
guillaume
guinea
guineji
guitar
gun
guns
gus
gusta
gustav
gustava
gustave
gut
gutenberg
guverne
guy
gy
gymna
gymnasium
gyo
h
ha
haagu
haas
habilitoval
habru
habsburkove
habsburku
habsburska
habsburske
habsbursko
habsbursky
hac
haci
had
hada
hadi
hadne
hadny
hadria
hadu
hady
hadz
haifa
haify
haiti
haji
hajny
hal
hala
hale
half
hali
halic
hall
halle
halo
halove
halovy
hals
haly
ham
hama
hamburg
hamburk
hamburku
hamilton
hamlet
hammer
hampshire
hamry
han
hana
hand
handbook
handbuch
hane
hanga
hanlive
hannah
hannover
hans
hanse
hansen
hanus
hany
happy
har
harald
harbor
hard
hardware
hardy
hare
harmonicky
harmonie
harmonii
harmonika
harold
harper
harris
harrison
harry
harryho
hart
hartmann
hartmut
harvard
harvey
has
hasic
hat
hate
hati
hattrick
haus
haute
hava
havarijni
havaroval
have
havel
havelka
haven
havi
havilland
havla
havli
havra
havran
havy
hawk
hawker
hbo
hc
hd
hdp
he
head
health
heart
heat
heather
heaven
heavy
hebraistika
hebrejs
hebrejske
hebrejsky
hedva
hedvika
heidelberg
heinrich
heinricha
heinz
hej
hejt
hejtm
hejtman
hejtmana
hejtmanem
hejtmanstvi
hektaru
hel
hele
helen
helena
heleny
hell
heller
hello
helmut
helni
help
helsinka
helsinky
hem
hen
henderson
henri
henrik
henry
henryho
henryk
her
herald
herba
herbert
herce
hercegovina
hercegovine
hercegoviny
hercem
herci
hercu
here
herec
herecke
hereckou
herecky
herectvi
heritage
herman
hermann
herna
herni
hero
heroes
herschel
herzog
hes
hesel
hesensko
hesla
heslem
heslo
het
heterosexua
hev
hezke
hezky
hg
hi
hierarchie
hierarchii
hierarchy
higgins
high
higher
highway
hill
hills
him
hima
hip
hir
hiragana
hiros
his
hispa
histo
histoire
historia
historic
historica
historical
historici
historicka
historicke
historicko
historickou
historicky
historie
historii
historik
historika
historikove
historiku
historiky
history
hit
hitem
hitler
hitlera
hitpara
hits
hitu
hity
hiv
hk
hl
hla
hlad
hladce
hladem
hladi
hladina
hladine
hladinou
hladinu
hladiny
hladka
hladke
hladky
hladove
hlas
hlasem
hlasite
hlasity
hlasova
hlasovaci
hlasovalo
hlasu
hlasy
hlav
hlava
hlavami
hlave
hlavic
hlavice
hlavici
hlavn
hlavne
hlavni
hlavou
hlavu
hlavy
hle
hled
hleda
hledaji
hledal
hledala
hledali
hledat
hledati
hlede
hledem
hledi
hledis
hlediska
hledne
hledny
hledu
hledy
hlejs
hlem
hli
hline
hlini
hlinka
hlo
hlou
hloubce
hloube
hloubi
hloubka
hloubku
hloubky
hloupe
hloupy
hloz
hlu
hlubin
hlubinny
hluboc
hluboce
hluboka
hluboke
hluboko
hlubokou
hluboky
hlubs
hluc
hluk
hluku
hlupa
hly
hm
hmen
hmot
hmota
hmotne
hmotnost
hmotnosti
hmotnostni
hmotny
hmotu
hmoty
hms
hmyz
hmyzem
hmyzu
hn
hna
hnaci
hne
hned
hni
hnou
hnouci
hnout
hnouti
hnu
hnul
hnuti
ho
hoch
hochu
hockey
hockeydb
hod
hoda
hode
hodi
hodil
hodin
hodina
hodine
hodinky
hodinou
hodinove
hodinovy
hodinu
hodiny
hodla
hodlal
hodna
hodne
hodnoceni
hodnost
hodnosta
hodnosti
hodnot
hodnota
hodnotami
hodnote
hodnoti
hodnotou
hodnotu
hodnoty
hodnou
hodny
hodoni
hodou
hodu
hody
hof
hoffman
hoffmann
hojne
hojnost
hojny
hokej
hokeje
hokeji
hokejista
hokejova
hokejove
hokejovy
hokoli
hokoliv
hola
holandska
holandske
holandsky
holc
hold
holding
hole
holec
holes
holi
holic
holka
holky
holland
hollar
holly
hollywood
hollywoodu
holmes
holocaust
holocaustu
holokaustu
hols
holtz
holub
holuba
holubi
holubu
holy
hom
home
homer
homera
homme
homo
homogenni
homosexua
homosexuality
hon
honda
honem
hong
hongkong
hongkongu
honic
honice
honor
honora
honore
honu
hony
honza
honzi
hood
hop
hope
hopkins
hor
hora
horami
horaz
horec
horizont
horizonta
horizontu
horka
horke
horky
horlive
horlivy
horn
horna
hornatina
horni
hornicke
hornictvi
hornin
hornina
horniny
hornoluz
horolezec
horolezecky
horou
horror
hors
horse
horska
horske
horsky
horst
horu
horva
hory
hos
hosa
hosi
hospital
hospoda
hospodar
hospode
hospodin
hospodina
hospodine
hospodinu
hospody
hospodyne
host
hosta
hoste
hostem
hosti
hostince
hostinci
hostinec
hostinsky
hostitele
hostivar
hostova
hostoval
hostu
hostuji
hosty
hot
hotel
hotelu
hotely
hotenstvi
hotne
hotov
hotova
hotove
hotovosti
hotovy
hou
houba
houby
hous
house
housenky
housle
houslista
houston
houz
hova
hoval
hovala
hovalci
hovalcu
hovali
hovalo
hovat
hove
hovor
hovorove
hovoru
hovory
hovy
how
howard
hoz
hp
hr
hra
hrabat
hrabata
hrabe
hrabis
hrabstvi
hrac
hraci
hrad
hrada
hradba
hradbami
hradby
hradc
hradce
hradci
hrade
hradeb
hradebni
hradec
hradecka
hradecke
hradecky
hradem
hradis
hradne
hradni
hradou
hradu
hrady
hraje
hraji
hrami
hrana
hrane
hrani
hranic
hranice
hranicemi
hranici
hranolova
hrany
hrbek
hrde
hrdelni
hrdina
hrdinou
hrdinove
hrdinstvi
hrdinu
hrdiny
hrdla
hrdlic
hrdlo
hrdy
hren
hrer
hrivna
hrn
hrnc
hrnec
hrob
hrobce
hrobe
hrobek
hrobka
hrobku
hrobky
hrobni
hrobu
hroby
hroma
hromada
hromade
hromadne
hromadny
hrou
hrozba
hrozbou
hrozbu
hrozby
hrozi
hrozil
hrozilo
hrozne
hroznu
hrozny
hrsg
hru
hruba
hrube
hruby
hrud
hrudi
hrudni
hrus
hry
hs
htm
html
http
https
hu
hub
huba
hubert
hubic
hubu
huc
hudba
hudbe
hudbou
hudbu
hudby
hudebne
hudebni
hudec
hudson
huga
hugh
hughes
hugo
huje
human
humanita
humanitni
humor
humoru
hun
hung
hungaricana
hungary
hunt
hunter
hurika
hus
husa
husi
husite
husitska
husitske
husitsky
husitstvi
husitu
husova
husovy
husta
huste
hustopec
hustota
hustotu
hustoty
hustou
husty
husu
husy
hut
hute
huti
hutni
hve
hvi
hy
hybridni
hyde
hydraulicky
hydropla
hymna
hymnu
hymny
hynek
hynka
hypote
hz
i
ia
iaaf
iai
ian
iang
iar
iata
iau
ib
iba
ibe
ibi
ibli
ibliz
ibm
ibn
ibrahim
ibu
iby
ibyl
ibyla
ibylo
ibyly
ic
ica
ice
icemi
icet
iceti
icetilete
ich
icha
ichem
ichni
icho
ichov
ichova
ichove
ichovi
ichovice
ichu
ichy
ici
icka
icke
ickni
icko
icky
id
ida
idal
idala
idali
idat
idc
ide
idea
ideje
idejte
idenice
identification
identifika
identifikac
identifikace
identifikaci
identifikova
identifikovat
identita
identitu
identity
ideologicky
ideologie
ideologii
idic
idla
idle
idli
idlice
idlo
idnes
idol
idovska
idovske
idovskou
idovsky
idruz
idrz
ids
idu
idy
ie
iec
ieee
ien
if
ifrova
ifsc
ign
igna
ignaz
igor
ih
iha
ihla
ihle
ihli
ihned
iho
ihodilo
ihra
ii
iihf
iii
ij
ija
ijal
ijala
ijali
ijalo
ijat
ijata
ijate
ijatelne
ijato
ijaty
ijde
ijdou
ije
ijede
ijel
ijela
ijeli
ijeme
ijeti
iji
ijme
ijmout
ik
ika
ikar
ikem
ikl
ikla
ikmo
ikova
ikra
ikroc
iku
iky
il
ila
ile
ilega
ilehle
ilehly
ilejs
ilete
ili
ilina
iline
ilis
iliteratura
ilja
iljic
illinois
illustrated
ilo
ilona
ilova
iloz
ilustra
ilustrace
ilustraci
ilustroval
ilustrovana
iluze
ily
im
ima
image
images
imdb
ime
imek
imem
imi
imigrantu
iml
immunology
imne
imon
imona
imov
impact
impe
imperia
imperial
implementace
implementaci
implications
import
impuls
imu
imunitni
imy
in
ina
inami
inc
ince
inci
incident
incidentu
including
incu
indela
independence
independent
index
indexu
india
indian
indiana
indianapolis
indicka
indicke
indicky
indie
indii
indika
indikativu
individua
indoc
indone
indonesia
industria
industrial
industries
industry
ine
inec
inech
inejmens
inek
inem
inese
inesl
inesla
inesli
ineslo
inesly
infarkt
infekc
infekce
infekci
inflace
info
informac
informace
informacemi
informaci
informatice
informatiky
information
informova
informoval
informuje
infrac
infrastruktura
infrastruktury
infty
ing
ingrid
ini
inicia
iniciativa
iniciativy
inicioval
inil
inila
inili
inilo
inily
init
initel
initele
initi
inka
inkem
inkova
inkoval
inkovala
inku
inkuji
inky
inn
inna
inne
innost
innosti
innou
innsbruck
innsbrucku
inny
ino
inoherni
inohry
inou
inova
inovace
inovaci
inovativni
inove
inovy
ins
inscenace
inscenaci
insee
inside
inske
insky
insolvenc
inspekce
inspektor
inspektora
inspirace
inspiraci
inspirova
inspiroval
inspirovala
inspirovane
inspirovany
instagramu
instalace
instalaci
instalova
instance
instituce
institucemi
instituci
instituciona
institut
institute
institution
institutu
instrukce
instrukci
instrumenta
int
integra
integrace
integraci
integrovane
integrovany
intel
intelektua
inteligence
inteligenci
inteligentni
intelligence
intenzita
intenzity
intenzivne
intenzivni
inter
interactive
interakce
interakci
interaktivni
interface
interie
interna
internaciona
international
internationale
internet
internetova
internetove
internetovy
internetu
interni
internova
interpret
interpretace
interpretaci
interval
intervalech
intervalu
intervence
intervenci
interview
intimni
into
intranzitivni
introduction
inu
invalidni
invaze
invazi
invazni
inventa
inventory
investic
investice
investor
iny
inz
inzera
io
ion
iontu
ionty
ios
iowa
ip
ipa
ipac
ipada
ipadl
ipadla
ipadlo
ipcc
ipevne
iphone
ipisova
ipisuje
ipka
ipky
ipojen
ipojena
ipojene
ipojeni
ipojeno
ipojeny
ipoji
ipojil
ipojila
ipojili
ipojit
ipojuje
ipomi
ipomne
ipous
ipraven
ipravena
ipravene
ipraveni
ipraveny
ipravi
ipravil
ipravila
ipravili
ipravit
ipravova
ipravoval
ipravovala
ipravovane
ipravovat
ipravuje
ipravuji
ipsal
ipsala
ipu
ipv
ir
ira
iran
ire
ireland
irena
irina
iris
irish
iro
iroce
iroka
iroke
irokou
iroky
iron
irovna
irozena
irozene
irozenosti
irozenou
irozeny
irozhlas
irs
irska
irske
irsko
irsku
irsky
irving
iry
is
isa
isaac
isabela
isbn
ise
isedle
isek
iska
isko
isla
islam
island
islands
islandske
islandsky
islandu
isle
isli
ismu
iso
ispe
ispi
isport
israel
israeli
iss
issn
issue
issues
ist
ista
istanbul
istanbulu
istave
iste
isti
isticke
isticky
istit
istoty
istou
istoupil
istva
isty
isve
it
ita
ital
italia
italian
italiana
italie
italii
italove
itals
italska
italske
italskou
italsky
italy
itatelne
itaz
ite
itec
itek
itel
itele
itelem
iteli
itelka
itelkou
itelna
itelne
itelni
itelnost
itelnosti
itelnou
itelny
itelske
itelsky
itelstvi
itelu
item
itf
iti
itkove
itku
itky
itne
itnosti
ito
itom
itost
itostech
itosti
itostne
itostny
itou
its
itu
itunes
ity
iu
iucn
ius
iuzlu
iv
iva
ivan
ivana
ivanc
ivanem
ivanov
ivanovic
ivatel
ivatele
ivatelem
ivateli
ivatelske
ivatelsky
ivatelu
ive
ivedl
ivedla
ivelni
iveni
iveta
ivezl
ivi
ivil
ivili
ivin
iviny
ivit
ivka
ivky
ivlastn
ivlu
ivna
ivne
ivnice
ivnostenske
ivnostensky
ivnosti
ivnostni
ivny
ivo
ivobyti
ivoc
ivoj
ivokla
ivost
ivosti
ivot
ivota
ivote
ivotech
ivotem
ivoti
ivotne
ivotni
ivotnost
ivotny
ivotopis
ivotopisu
ivotopisy
ivotu
ivoty
ivou
ivs
ivu
ivy
ix
iz
iza
izna
iznal
izolace
izolaci
izolova
izolovane
izolovany
izotopu
izova
izpu
izrael
izraele
izraelem
izraeli
izraels
izraelska
izraelske
izraelskou
izraelsky
izuje
j
ja
jablka
jablko
jablon
jablonci
jablonec
jablonne
jack
jacka
jackie
jackson
jacob
jacques
jader
jaderna
jaderne
jadernou
jaderny
jaderske
jagellonske
jaguar
jahre
jak
jaka
jake
jakkoli
jakkoliv
jakmile
jako
jakob
jakoby
jakou
jakoukoli
jakoukoliv
jakousi
jakoz
jaksi
jakub
jakuba
jaky
jakz
jal
jam
james
jamese
jamesem
jamie
jamu
jan
jana
janc
janda
jane
janec
janeiro
janem
janet
jang
jani
janko
janous
janov
janova
janove
janovi
janovice
janu
january
jany
japan
japanese
japonci
japons
japonska
japonske
japonsko
japonskou
japonsku
japonsky
jar
jara
jarmila
jarni
jaro
jaroli
jarome
jaromi
jaros
jaroslav
jaroslava
jaroslavem
jas
jasan
jasna
jasne
jasnost
jasnou
jasny
jason
jater
jaterni
java
javor
javorni
jawa
jay
jazyce
jazyci
jazyk
jazyka
jazykem
jazykova
jazykove
jazykovou
jazykovy
jazyku
jazyky
jazz
jazzove
jazzovy
jazzu
jc
jce
jcem
jci
jcu
jde
jdeme
jdes
jdi
jdou
jdouci
jdu
jdz
je
jean
jeana
jeanne
jec
jeci
jed
jede
jeden
jedena
jedenkra
jedi
jedina
jedince
jedinci
jedincu
jedine
jedinec
jedinou
jediny
jedle
jedli
jedlic
jedna
jednaci
jednaji
jednak
jednal
jednalo
jednat
jedne
jedni
jednic
jedno
jednoducha
jednoduche
jednoduchou
jednoduchy
jednodus
jednoho
jednolodni
jednom
jednomi
jednomu
jednora
jednosme
jednostranne
jednota
jednotce
jednote
jednotek
jednotka
jednotkami
jednotkou
jednotku
jednotky
jednotliva
jednotlivce
jednotlivci
jednotlivcu
jednotlive
jednotlivi
jednotlivy
jednotna
jednotne
jednotny
jednotu
jednoty
jednou
jednoznac
jednu
jedny
jedou
jedouci
jedovate
jedovaty
jedu
jeff
jefferson
jeffrey
jehlic
jehlice
jehly
jeho
jehoz
jej
jeji
jejich
jejichz
jejz
jek
jekate
jel
jela
jelen
jelena
jeleni
jeli
jelikoz
jelo
jely
jem
jemce
jemci
jemcu
jemenu
jemna
jemne
jemni
jemnice
jemnosti
jemnou
jemny
jemu
jemuz
jen
jena
jene
jeni
jenkins
jennifer
jenny
jeno
jenom
jens
jensen
jeny
jenz
jepis
jepisu
jeptis
jer
jeremy
jerome
jerony
jerry
jersey
jerusalem
jeruzale
jerzy
jes
jeseni
jesenice
jeskyne
jeskyni
jeskynni
jesse
jessica
jest
jestli
jestliz
jestr
jesu
jesus
jet
jeti
jetr
jev
jevem
jevgenij
jevi
jevis
jevu
jevy
jewish
jews
jez
jezd
jezdce
jezdci
jezdcu
jezdec
jezdecke
jezdem
jezdi
jezdil
jezdila
jezdily
jezdit
jezdni
jezdu
jezdy
jezer
jezera
jezerem
jezerni
jezero
jezeru
jezi
jezu
jezuite
jezuitske
jezuitsky
jezuitu
jf
jfk
ji
jic
jicchak
jich
jichz
jidis
jih
jihlava
jihlave
jihlavske
jihlavy
jihoafricka
jihoafricke
jihoafricky
jihoamericky
jihoc
jihokorejske
jihomoravske
jihomoravsky
jihovy
jihoza
jihu
jil
jila
jilemnice
jili
jilji
jilo
jily
jim
jimec
jimi
jimiz
jimkou
jimku
jimky
jimmy
jimz
jin
jina
jinak
jinam
jinami
jinde
jindr
jindra
jindy
jine
jinem
jing
jini
jinoch
jinou
jiny
jir
jira
jis
jiskra
jisra
jista
jiste
jisti
jisto
jistotou
jistotu
jistou
jisty
jit
jitka
jitr
jitra
jitro
jiz
jizerou
jizerske
jizersky
jka
jky
jm
jme
jmem
jmen
jmena
jmeni
jmeniny
jmenne
jmenny
jmeno
jmenova
jmenoval
jmenovala
jmenovane
jmenovany
jmenovat
jmenovite
jmenuje
jmenuji
jmove
jmovy
jmu
jmy
jna
jne
jnice
jnove
jnu
jny
jo
joa
joachim
joan
joe
joel
joey
johan
johana
johann
johanna
johannes
johansson
john
johna
johnem
johnny
johnson
johnston
joins
joint
jon
jona
jonas
jonathan
jones
jorda
jordan
jorge
jos
jose
josef
josefa
josefem
josefi
josefu
joseph
josepha
josh
joshua
josip
jota
jou
journal
journey
jov
jova
jove
jovic
jovice
jovici
jovicke
jovicky
jovsky
jovy
joy
joyce
joz
jozef
jozefa
jp
jpg
jr
js
jsa
jse
jsem
jsi
jska
jske
jsme
jsou
jsouc
jsouce
jste
jstor
jstvi
jte
ju
juan
juana
juandev
jubilejni
juda
judaismu
judaismus
judista
judith
judo
judoinside
judr
judu
judy
jugosla
jules
julia
julian
julie
julien
julii
julius
july
jump
jun
juna
june
jung
junior
juniorske
juniorsky
junioru
junkers
jupiter
jupiteru
jur
jura
juraj
jurassic
jurij
jury
just
justic
justice
justin
justinia
juventus
juz
jv
jz
jzd
k
ka
kaba
kabel
kabelu
kabina
kabinet
kabinetu
kabiny
kac
kachna
kaci
kadan
kadani
kader
kadlec
kafka
kai
kaiser
kajeta
kaji
kal
kala
kaleidoskop
kalenda
kalhoty
kali
kalich
kalifornie
kalifornii
kalifornske
kalina
kalis
kalo
kaluz
kalva
kalvoda
kaly
kam
kamara
kambodz
kamc
kamen
kamene
kamenem
kameni
kamenice
kamenici
kamenicke
kamenicky
kamenna
kamenne
kamennou
kamenny
kamenu
kameny
kamer
kamera
kameraman
kamerou
kameru
kamery
kami
kamil
kamila
kampa
kampan
kampane
kampani
kamy
kan
kana
kanad
kanada
kanade
kanadska
kanadske
kanadsky
kanady
kanalizace
kancela
kanciona
kancle
kandida
kandidaturu
kandidoval
kandidovala
kandidovat
kandz
kane
kanem
kang
kano
kanonicke
kanovni
kansas
kanstvi
kant
kanta
kanton
kantonu
kantor
kao
kap
kapacita
kapacitou
kapacitu
kapacity
kapalina
kapaliny
kapalne
kapel
kapela
kapele
kapelni
kapelou
kapelu
kapely
kapesni
kapita
kapitalismu
kapitol
kapitola
kapitole
kapitolu
kapitoly
kapitula
kapitulaci
kapitulni
kapituly
kapky
kaplan
kaple
kapli
kaplic
kapsy
kapuci
kar
kara
karante
karas
karate
kardina
karel
karen
karet
karetni
karibiku
karibske
karie
karin
karl
karla
karlem
karli
karlo
karlova
karlovarska
karlovarske
karlovarsky
karlove
karlovi
karlovy
karls
karlsruhe
karlu
karmel
karmelita
karol
karoli
karolina
karolinum
karosa
karoserie
karoserii
karpat
karpatech
karpaty
karta
karte
kartografie
kartu
karty
karvina
karvine
kas
kasa
kaska
kaspicke
kassel
kastilske
kastilsky
kat
kata
katala
katalog
katalogove
katalogu
katalyza
katastr
katastra
katastrofa
katastrofy
katastru
kate
katedr
katedra
katedry
kategorie
kategorii
kater
katherine
kati
katie
katol
katoli
katolicismu
katolicka
katolicke
katolickou
katolicky
katy
kauc
kauza
kauze
kava
kavali
kave
kavka
kavkaz
kavkazu
kaz
kazachsta
kazan
kazas
kazatel
kazatele
kazatelna
kazem
kazimi
kazimierz
kazni
kazu
kazy
kb
kc
kd
kde
kdejs
kdesi
kdez
kdo
kdoz
kdu
kdy
kdyby
kdybych
kdybychom
kdybys
kdybyste
kdykoli
kdykoliv
kdys
kdysi
kdyz
ke
kedd
keep
keith
kej
kejte
keller
kelly
keltske
keltsky
kem
ken
kend
kendu
keni
kennedy
kennedyho
kenneth
kenny
kent
kentu
kentucky
ker
kera
keramicke
keramicky
keramika
keramiky
kere
kernel
kerou
kery
kety
kevin
kew
key
kez
kfar
kg
khan
khl
ki
kibuc
kibucu
kid
kids
kill
killed
killer
kilogramu
kilometr
kilometru
kilometry
kim
kin
kina
kind
kindred
kinech
kinematografie
king
kingdom
kings
kino
kinoboxu
kinsky
kirjat
kirk
kis
kiss
kista
kit
kjo
kju
kke
kky
kl
kla
klad
klade
kladech
kladem
kladen
kladenske
kladi
kladivo
kladl
kladna
kladne
kladni
kladno
kladnou
kladnu
kladny
kladou
kladove
kladovy
kladu
klady
klan
klane
klanu
klarinet
klasicismu
klasicistni
klasicka
klasicke
klasickou
klasicky
klasifikace
klasifikaci
klasifikova
klatovy
klaus
klause
klavi
kle
klec
kleci
klein
klement
klementa
klenba
klenbou
klenbu
klenby
klenkova
klenoty
kles
klesa
klesaji
klesl
klesla
kli
klic
klid
klidne
klidny
klidu
klient
klienta
klientu
klienty
klima
klimaticke
klimaticky
klimatu
kliment
klimenta
klimes
klinicke
klinicky
klinika
kliniky
klip
klobouk
klobouku
klobouky
klokoc
klon
klonnost
kloubu
klub
klubech
klubem
klubove
klubovy
klubu
kluby
kluc
kluci
kluk
klusa
kluza
km
kmen
kmene
kmenem
kmeni
kmenove
kmenovy
kmenu
kmeny
kmitoc
kmotr
kn
kna
kne
kneset
knesetu
kni
knight
knih
kniha
knihkupectvi
knihou
knihoven
knihovna
knihovne
knihovni
knihovnictvi
knihovnou
knihovnu
knihovny
knihu
knihy
kniz
knize
kno
knofli
knou
know
knowledge
kny
ko
koalic
koalice
koalici
kobra
koc
koch
kocour
kod
koda
kodan
kodani
kodex
kodexu
kodi
kodil
kodit
kodlive
kodlivy
kodne
kodu
kody
koeficient
kognitivni
koho
kohout
kokor
kol
kola
kole
kolec
kolech
kolega
kolegia
kolegou
kolegove
kolegu
kolegy
kolej
koleje
koleji
kolejis
kolekce
kolekci
kolektiv
kolektivni
kolem
kolena
koleni
koli
kolik
kolika
kolikana
kolikra
koliv
kolka
kolky
kolla
kolmo
kolni
kolo
kolobe
kolona
kolonia
kolonie
kolonii
kolonizace
kolonizaci
kolou
kolove
kolovrat
kolowrat
kolska
kolske
kolsky
kolstvi
kolu
kolumbie
kolumbii
kolumbijske
koly
kom
koma
komande
kombinace
kombinaci
kombinovane
kombinuje
kombinuji
komedia
komedie
komedii
komenske
komensky
komenta
komerc
kometa
komety
komi
komik
komiks
komiksovy
komiksu
komisar
komise
komisi
komnaty
komor
komora
komorni
komory
kompaktni
kompatibilni
kompetence
kompetenci
kompilac
kompilace
kompilaci
komplet
kompletne
kompletni
komplex
komplexni
komplexu
komplexy
komplikace
komplikaci
komplikovane
komponent
komponenty
komponoval
kompozic
kompozice
kompozici
komu
komuna
komunikac
komunikace
komunikaci
komunikovat
komunismu
komuniste
komunisticka
komunisticke
komunistickou
komunisticky
komunistu
komunisty
komunit
komunita
komunite
komunitni
komunitu
komunity
kon
kona
konaji
konal
konala
konalo
konaly
konane
konany
konat
konc
konce
koncem
koncentrac
koncentrace
koncentraci
koncepc
koncepce
koncepci
koncept
konceptu
konceptua
koncernu
koncert
koncerte
koncertech
koncertni
koncertu
koncerty
konci
koncil
koncilu
koncipova
koncove
koncovy
kondenza
kone
konec
konech
konem
konfederace
konferenc
konference
konferenci
konfigurace
konfiguraci
konfiskaci
konflikt
konfliktu
konflikty
kong
kongo
kongregace
kongregaci
kongres
kongresu
koni
konjugace
konkre
konkurenc
konkurence
konkurenci
konkurzu
konna
konne
konni
konnost
konnosti
konnou
konny
konoda
konopi
konra
konrad
kons
konspirac
konstanta
konstantin
konstantina
konstantinopole
konstantinopoli
konstantni
konstanty
konstituc
konstrukc
konstrukce
konstrukci
konstrukte
konstruova
kontakt
kontaktni
kontaktu
kontakty
konte
kontext
kontextu
kontinent
kontinenta
kontinentu
kontinua
kontrabas
kontrakt
kontrastu
kontrola
kontrole
kontrolni
kontrolou
kontrolovat
kontrolu
kontroly
kontroverzni
konu
konvenc
konvence
konvent
konventu
konverzi
kony
konz
konzervativni
konzervator
konzole
konzoli
konzula
konzumaci
koordina
koordinac
koordinaci
kop
kopa
kopane
kopce
kopci
kopcu
kope
kopec
kopecky
kopem
kopi
kopie
kopii
kopinate
kopni
kopr
kopu
kopy
kor
kora
korc
korea
koreje
koreji
korejs
korejske
korejsky
korespondence
korespondenci
koridor
koridoru
koronaviru
korporace
korporaci
korpus
korun
koruna
korune
korunni
korunou
korunova
korunovac
korunovace
korunovaci
korunu
koruny
korupce
korupci
korvi
kory
koryta
koryto
kos
kosi
kosmicka
kosmicke
kosmicky
kosmodromu
kosmonaut
kosmonautika
kosmonautiky
kosmonautu
kosmu
kosova
kosovo
kosovu
kost
kostel
kostela
kostele
kostelec
kostelem
kosteli
kostelni
kostelu
kostely
kosterni
kosti
kostka
kostky
kostni
kostr
kostra
kostry
kosty
kot
kote
kotel
koti
kotle
kotlina
kotline
kotliny
kotlu
kotni
kotouc
kou
kouc
koule
kouli
koupa
koupalis
koupi
koupil
koupila
koupili
koupit
kour
kousek
kousku
kousky
koute
kouzelne
kouzelni
kouzelny
kouzla
kouzlo
kov
kova
kovaci
koval
kovane
kovany
kovar
kove
kovec
kovem
kovi
kovic
kovice
kovici
kovite
koviti
kovity
kovo
kovou
kovova
kovove
kovovy
kovska
kovske
kovsky
kovu
kovy
koz
koza
kozel
kozen
kozena
kozene
kozeni
kozeny
kozi
kozli
kozy
kp
kpt
kr
kra
krabal
krabic
kraj
kraje
krajem
kraji
krajin
krajina
krajine
krajinna
krajinne
krajinou
krajinu
krajiny
krajne
krajni
krajska
krajske
krajsky
kraju
krako
krakov
krakova
krakove
kral
kralupy
krama
kramerius
kran
kras
krasobruslar
krasobrusleni
krasu
kratochvi
krats
kraus
krause
krav
kravar
krbu
krc
kre
kreativni
krejc
kres
kresba
kresby
kreseb
kresleni
kresli
krev
krevni
kri
krimina
kris
krista
kristem
kristia
kristina
kristova
kristovy
kristu
kristus
kristy
krite
kritice
kritici
kriticka
kriticke
kriticky
kritik
kritika
kritikou
kritiku
kritiky
kritizova
kritizoval
kritizuje
krize
krizi
krizove
krk
krkonos
krku
krmeni
krmi
krnov
kro
kroc
krok
krokem
krokody
kroku
kroky
krom
krome
kronice
kronika
kroniky
kropa
kroupa
krouz
krov
krovu
krs
kru
kruchta
krucifix
kruh
kruhove
kruhovy
kruhu
kruhy
krumlov
krumlove
krus
krute
kruty
kruz
kruzi
krva
krvava
krvave
krvavy
krve
krvi
kry
kryci
kryje
krym
krymske
krymu
krys
krystalu
krystaly
kryt
kryta
kryte
kryti
krytu
kryty
ks
ksc
kss
kt
kter
ktera
kterak
ktere
kterou
kterouz
ktery
kto
ku
kuang
kuba
kube
kubi
kubis
kuby
kuc
kuchar
kuchyn
kuchyne
kuchyni
kud
kudy
kufr
kuje
kuji
kukac
kukur
kulate
kulaty
kulha
kuli
kulic
kulomet
kulometu
kulomety
kulovite
kult
kultovni
kultu
kultur
kultura
kulturne
kulturni
kulturou
kulturu
kultury
kun
kuna
kunc
kung
kuns
kunst
kuo
kup
kupci
kupe
kupec
kupni
kupoli
kupr
kupu
kupuji
kupy
kur
kura
kurfir
kurie
kurii
kurs
kurt
kury
kurz
kurzu
kurzy
kus
kusu
kusy
kutna
kutne
kuz
kuzne
kv
kva
kvalifikac
kvalifikace
kvalifikaci
kvalifikova
kvalifikoval
kvalita
kvalitativni
kvalite
kvalitne
kvalitni
kvalitu
kvality
kvantitativni
kvantove
kvapil
kvartet
kvarteto
kvas
kve
kvete
kveteni
kvetou
kvetouci
kvi
kvitova
kvo
kvu
kw
ky
kyc
kychot
kyjev
kyjeva
kyjeve
kyjevske
kyjov
kyle
kyne
kypr
kypru
kyrgyzsta
kysele
kyselin
kyselina
kyselinou
kyselinu
kyseliny
kysely
kysli
kytara
kytarista
kytaristou
kytaristy
kytaru
kytary
kytice
kz
l
la
lab
labe
label
labem
labi
laborator
laboratorni
laboratory
labut
labuti
labyrint
lac
laci
lad
lada
lade
ladies
ladislav
ladislava
ladu
lady
lago
laguna
lahvi
laj
laji
lake
lal
lala
lali
lalo
laloc
laly
lambda
lambert
lampa
lampy
lan
lana
lance
land
lands
landscape
landske
landsky
landu
lane
lang
lange
langer
langle
language
languages
lanka
lanosti
lanovka
lanovky
lans
lany
lapa
lara
large
larry
lars
larva
larvy
las
laser
laskave
last
lat
late
latera
latest
lati
latin
latina
latine
latinska
latinske
latinsky
latiny
launch
laura
laurea
lauren
laurence
laurent
lausanne
lava
lave
lavic
lavice
lavici
lavy
law
lawrence
laz
lb
lc
lce
lcem
lci
lcove
lcovy
lcu
ld
ldots
le
lea
lead
leader
league
learning
leben
lebka
lebky
lec
lech
lechetne
lechta
lechte
lechtic
lechtice
lechtici
lechticke
lechticky
lechticu
lechtile
lechtou
lechtu
lechty
lecka
lecke
leckopru
leckou
lecky
led
leda
lede
ledec
leden
ledna
ledni
lednice
lednu
ledova
ledovce
ledovcu
ledove
ledovec
ledovy
ledu
ledvin
lee
leeds
left
lega
legacy
legal
legend
legenda
legends
legendy
legie
legii
legiona
legislativni
legislativy
legitimni
lego
leha
lehc
lehce
lehka
lehke
lehkou
lehky
lehrad
lehrade
lehradu
leicester
leiden
leipzig
lej
leji
lejs
lek
lekce
lel
lela
leli
lelo
lely
lem
lemi
lemova
len
lena
lence
lene
lenek
lenem
leni
lenil
lenin
lenina
leningrad
lenit
lenka
lenkami
lenkou
lenkove
lenku
lenky
lenna
lenne
lenni
lennon
lennou
lenny
leno
lenost
lenosti
lenou
lenove
lenske
lensky
lenstvi
lenu
leny
leo
leon
leonard
leonarda
leonardo
leone
leonid
leopold
leopolda
leos
leps
leq
ler
les
lesa
lese
lesem
lesi
lesk
leskle
leskly
leslie
lesna
lesne
lesni
lesnicke
lesnictvi
lesnou
lesny
leso
lesu
lesvicko
lesy
let
leta
letadel
letadla
letadlem
letadlo
letadlova
letadlove
letadlovy
letci
letcu
lete
letec
letech
letecka
letecke
leteckou
letecky
letectva
letectvi
letectvo
letectvu
letem
leti
letis
letka
letky
letn
letne
letni
letohra
letopoc
letos
letou
letoun
letounem
letounu
letouny
letov
letove
letovy
letter
letters
letu
lety
lev
leva
leve
level
levi
levice
levici
levicove
levicovy
levne
levo
levoc
levostranny
levou
levy
lewis
lex
lexika
lexikon
lez
lezce
lezec
lezem
lezeni
lezu
lezy
lf
lgbt
lha
lhota
lhotka
lhoty
lhu
li
lia
liang
liao
lib
liba
libanon
libanonu
libava
libe
liben
liber
libera
liberce
liberci
liberec
liberecke
liberecky
liberty
libni
libor
libovolne
libovolny
library
libreta
libreto
libri
libus
libye
libyi
lic
lice
licenc
licence
licenci
lichtens
lici
lid
lide
lidech
lidem
lidi
lidmi
lidova
lidove
lidovky
lidovou
lidovy
lidska
lidske
lidskou
lidsky
lidstva
lidstvo
lidu
lidus
lie
lietuvos
life
liga
ligandy
light
lightning
ligova
ligove
ligovy
ligu
ligue
ligy
lii
lik
like
likud
likvidace
likvidaci
lil
lila
lili
lilie
lille
lilo
lily
lim
limit
limited
limitu
limity
lin
lina
lince
lincoln
linda
lindsay
line
linea
linek
ling
lingvista
linhart
linie
linii
link
linka
linkami
linkou
linkove
linku
linky
linnaeus
linne
linux
linuxu
liny
lion
lionel
liou
lip
lipe
lipni
lipova
lipsko
lipsku
liptovsky
lis
lisa
lisabon
lisabonu
list
lista
liste
listech
listem
listeny
listi
listin
listina
listine
listinu
listiny
listnate
listnaty
listopad
listopadu
listove
listu
listy
lit
lite
litelne
liten
litera
literatur
literatura
literature
literaturu
literatury
litevs
litevska
litevske
litevsky
liti
litome
litomys
litovel
litr
litru
little
liturgicke
liturgicky
liturgie
liturgii
litva
litve
litvi
litvy
liu
lius
liv
liva
live
livem
liverpool
liverpoolu
lives
living
livius
livost
livosti
livou
livu
livy
lix
liz
lize
lk
lka
lkami
lke
lkem
lko
lkou
lkova
lkove
lkovin
lkoviny
lkovy
lkruhovy
lku
lky
lkyne
ll
ller
lloyd
lm
lmajor
lmajora
lme
ln
lna
lne
lni
lnic
lnice
lnici
lnicka
lnicke
lnickou
lnicky
lnoc
lnoci
lnost
lnosti
lnou
lnu
lny
lo
loaja
lobkovic
lobkowicz
loc
local
lockheed
locvic
lod
lode
lodi
lodni
lodyha
lodyhy
lodz
log
logicke
logicky
logika
logiky
logo
loh
loha
lohla
lohorske
lohou
lohu
lohy
loire
loka
lokalit
lokalita
lokalite
lokalitou
lokalitu
lokality
lokdy
loket
lokomotiv
lokomotiva
lokomotivy
lom
lomeny
lomnice
lomu
lomy
lon
london
londy
long
loni
look
lopez
lord
lorda
lordem
lordu
lorenz
lorenzo
loreta
lorus
loruska
loruske
lorusko
lorusku
lorusky
los
lost
lostech
lostem
losti
lostmi
lostr
lot
lothar
lotrinske
lotrinsky
lotus
lotys
lou
louc
louce
louis
louise
louka
louky
loun
louny
loupez
loutka
loutkove
loutky
louvre
lov
lova
lovaci
loval
lovat
lovc
lovce
lovci
lovcu
love
lovec
lovecke
lovecky
lovers
lovi
lovice
lovite
lovna
lovne
lovnou
lovnu
lovny
lovo
lovou
lovska
lovske
lovskou
lovsky
lovstvi
lovu
lovy
low
lower
loz
loze
lp
lporuc
lr
lroc
ls
lska
lske
lskem
lsko
lskou
lsku
lsky
lsti
lstvi
lt
ltd
lu
lublan
lublani
lubomi
lubor
lubos
luc
luca
lucas
lucemburska
lucemburske
lucembursko
lucembursky
lucerna
lucia
lucie
lucii
lucius
lucky
lucy
lude
ludmila
ludmily
ludvi
ludwig
ludwiga
luftwaffe
luhac
lui
luigi
luis
luisa
luje
luji
luk
luka
lukas
luke
lukes
luky
lumi
lun
luna
lundy
lung
lunu
luny
lupa
lupic
lus
luta
lute
lutera
luther
lutou
luty
luxembourg
luxusni
luz
lv
lva
lvi
lvov
lvove
lvu
ly
lymfocytu
lymfocyty
lynch
lynn
lyon
lyonu
lyricke
lyricky
lysa
lyse
lyz
lz
lze
m
ma
mac
macdonald
macek
mach
macha
machac
machine
maci
mackovc
macmillan
mad
madagaskar
madagaskaru
madame
made
madeleine
madison
madona
madonna
madony
madrid
madridu
madz
mafia
mafra
mag
magazi
magazin
magazine
magda
magdale
magdalena
magdaleny
maggie
magic
magicke
magicky
magie
magii
magisterske
magistersky
magistra
magna
magneticke
magneticky
magnum
magnus
magyar
maha
mahel
mai
maiden
mail
main
maine
maison
maja
maje
majesta
majetek
majetkem
majetkove
majetkovy
majetku
majetky
maji
majitel
majitele
majitelem
majiteli
majitelu
major
majora
make
makedonie
makedonii
makedonske
makedonsky
makes
making
mal
mala
malajsie
malajsii
malba
malbami
malbe
malbou
malbu
malby
malcolm
male
maleb
males
mali
malic
malina
malmo
malo
malome
malostranske
malou
malova
maloval
malovane
malovany
malovat
mals
malta
malte
malty
maly
mama
maminka
man
mana
management
managementu
manager
manaz
manchester
manchesteru
manda
mandz
mane
manfred
manga
manhattan
manhattanu
manifest
manipulac
manipulace
manipulaci
mann
mans
manu
manua
manual
manuel
manuela
many
manz
mao
map
mapa
mape
mapova
mapovy
maps
mapu
mapy
mar
mara
marc
marca
marcel
marcela
marcelo
march
marco
marcus
mare
marec
marek
mares
margaret
marge
mari
maria
marian
mariana
marianne
marie
marii
marilyn
marin
marina
marine
marino
mario
marion
maritime
marius
mark
marka
marke
markem
market
marketing
marketingu
marko
markrabe
markrabstvi
markus
marky
marne
maroka
maroko
maroku
marriage
mars
marseille
marshall
marsu
mart
marta
martha
marti
martin
martina
martine
martinec
martinem
martinic
martinu
marty
maru
marvel
marx
mary
maryland
mas
masa
masakr
masakru
masaryk
masaryka
masarykova
masarykove
masarykovo
masarykovy
masem
masi
masiv
masivni
masivu
maska
maskulina
maskulinum
masky
maso
mason
masove
masovy
masoz
mass
massachusetts
master
masters
mastny
mat
mata
matc
matce
match
mate
matek
matem
matematice
matematicke
matematicky
matematik
matematika
matematiku
matematiky
mater
materia
mathbb
mathbf
mathcal
mathrm
mati
matia
matic
matice
matici
matka
matkou
matku
matky
matous
matric
matrice
matrika
matriky
matrix
matt
matteo
matter
matthew
matthias
matu
maturite
maturitni
maturoval
matus
maty
matya
matylda
maurice
mava
mave
mavost
mavosti
mavou
mavy
max
maxe
maxim
maxima
maximilian
maximum
maxmilia
may
mayer
maz
maza
mb
mba
mberka
mbox
mc
mccartney
mcdonald
mce
mcem
mci
mclaren
mco
mcova
mcove
mcu
md
me
mec
mecena
mech
mechanicke
mechanicky
mechanika
mechaniky
mechanismu
mechanismus
mechanismy
mechu
mecka
mecke
meckem
mecko
meckou
mecku
mecky
med
medaile
medaili
medailista
medailon
medal
medals
medek
media
mediaguru
medical
medici
medicine
medieval
medium
medu
medve
medvede
meet
meeting
mehmed
mein
meissner
mek
meklenbursko
mel
mela
melantrich
melbourne
melodie
melodii
mem
member
members
membra
memoria
memorial
memoriam
memory
men
mena
mene
meni
meno
mens
menta
menu
meny
mer
mercedes
mercury
merkur
mes
mesia
message
messier
mesto
met
meta
metacritic
metainformac
metal
metallum
metalova
metalove
metalu
meteor
meteorologicky
method
metod
metoda
metodami
metode
metodou
metodu
metody
metr
metra
metro
metropole
metropoli
metropolita
metropolitan
metropolitni
metru
metry
metuji
mexicke
mexicky
mexico
mexika
mexiko
mexiku
meyer
mez
meze
mezera
mezery
mezi
mezime
mezina
mezir
mezista
meziti
meziva
mezni
mezopota
mf
mff
mfk
mg
mgr
mhd
mhz
mi
mia
miami
mic
micha
michael
michaela
michaelem
michail
michajlovic
michal
michala
michel
michele
michelle
michigan
mick
mickey
microsoft
mid
middle
midi
midnight
mie
mig
migrac
migrace
migraci
migrantu
miguel
mii
mika
mike
mikes
mikola
mikroregion
mikroregionu
mikula
mikulov
mil
mila
milada
milan
milana
milano
mile
milena
milence
milenci
milenka
milenkou
miles
milevsko
mili
miliard
miliarda
miliardy
milic
milice
milimetru
milio
milion
miliona
milionu
miliony
military
mill
miller
million
mills
milni
milo
milos
miloslav
miloslava
milosrdenstvi
milosrdny
milost
milosti
milostne
milostny
milova
miloval
milovane
milovat
milovni
milton
miluje
miluji
mily
mimo
mimon
mimor
mimou
mimozems
min
mina
mince
minci
mind
mine
minera
ming
mingske
mini
minima
minimum
minise
minister
ministerske
ministersky
ministerstva
ministerstvem
ministerstvo
ministerstvu
ministr
ministra
ministrem
ministru
ministry
ministryne
minkou
minnesota
minor
minsk
minule
minulost
minulosti
minuly
minus
minut
minuta
minute
minutu
minuty
mir
mira
mirage
miranda
mirek
miriam
mirka
miroslav
miroslava
mirror
mis
miscellaneous
mise
misi
misie
misijni
misiona
miss
missa
missile
mission
mississippi
missouri
mistr
mistra
mistrem
mistrovske
mistrovsky
mistrovstvi
mistru
mistry
mistryn
mistryne
mistryni
mit
mita
mitchell
mitky
mito
mitsubishi
mittelalter
mix
miz
mizi
mj
mk
mka
mkami
mkem
mkoli
mkoliv
mkou
mkova
mku
mky
ml
mla
mlada
mlade
mladi
mladistve
mladoc
mladou
mlads
mlady
mlc
mld
mle
mlha
mlhovina
mlhy
mluv
mluva
mluvc
mluve
mluvene
mluvi
mluvil
mluvila
mluvili
mluvilo
mluvit
mluviti
mluvou
mluvu
mluvy
mly
mlyna
mlz
mm
mn
mne
mni
mnich
mnichov
mnichova
mnichove
mnichovske
mnichu
mnichy
mnis
mno
mnoha
mnohdy
mnohe
mnohem
mnoho
mnohokra
mnohona
mnohy
mnou
mnoz
mnozi
mnv
mny
mo
mobile
mobilni
moc
mocenske
mocensky
moci
mocna
mocne
mocnost
mocnosti
mocny
mod
mode
model
modelem
modelka
modelova
modelu
modely
modera
modern
moderne
moderni
modernizace
modernizaci
modernizova
modifikace
modifikaci
modli
modlitba
modlitbe
modlitbu
modlitby
modliteb
modr
modra
modre
modrou
modry
modul
modula
modulu
moduly
mohamed
mohanem
mohl
mohla
mohli
mohlo
mohly
mohou
mohu
mohuc
mohutna
mohutne
mohutny
moje
moji
mojmi
mojo
mojz
mokr
mokre
mokry
mol
mola
moldavske
molecular
molekul
molekula
molekuly
molie
moll
moment
momenta
momentu
mon
mona
monaco
monarchie
monarchii
monde
money
mongolska
mongolske
mongolsko
mongolsky
moni
monica
monika
monitor
monitorova
monografie
monografii
monroe
mons
monster
mont
monta
montana
monte
montgomery
month
monthly
montre
montreal
montrealu
monu
monument
monumenta
moon
moore
mor
mora
morava
moravce
morave
moravec
moravia
moravou
moravska
moravske
moravsko
moravskoslezska
moravskoslezske
moravskoslezsky
moravskou
moravsky
moravu
moravy
more
morgan
moritz
morning
morris
morrison
moru
mos
moscow
moskevske
moskevsky
moskva
moskve
moskvy
mosse
most
moste
mostem
mosti
mostni
mostu
mosty
mother
motion
motiv
motivace
motivaci
motivem
motivu
motivy
motocykl
motocyklovy
motocyklu
motor
motorem
motorova
motorove
motorovy
motors
motoru
motory
motto
moty
mou
mouc
moudr
moudre
moudrost
moudrosti
moudry
mouky
mount
mountain
mountains
mov
mova
move
movement
movi
movie
movies
movna
movne
movni
movny
movou
movy
moz
mozaika
mozart
mozarta
mozek
mozilla
mozkove
mozku
mp
mr
mra
mrac
mrak
mrakodrap
mraku
mraky
mramor
mramorovy
mramoru
mravenci
mravni
mravu
mrazu
mrs
mrsk
mrtev
mrti
mrtva
mrtve
mrtvi
mrtvoly
mrtvy
ms
msa
msi
mska
mske
mskokatolicka
mskokatolicke
mskokatolicky
mskou
msky
msou
mt
mto
mtv
mu
muc
much
mucha
mudr
muhammad
muka
multi
multimedia
multiple
muni
munice
munici
municipal
murder
murphy
murray
mus
muse
musea
museji
musejni
musel
musela
museli
muselo
musely
museo
muset
museum
musi
music
musica
musical
musicserver
musik
musil
musila
musili
muslim
muslimove
muslimske
muslimsky
muslimu
muslimy
must
mustafa
mutace
mutaci
muz
muzea
muzeem
muzei
muzejni
muzeu
muzeum
muzika
muzikolog
mv
mvcr
mw
my
mylne
mys
mysl
myslel
myslem
myslet
mysli
myslil
myslivec
myslne
myslni
myslova
myslove
myslovou
myslovy
myslu
myspace
mysql
mystery
mysu
mytologie
mytologii
mz
mzdy
n
na
naba
nabi
nabude
naby
nabyl
nabyla
nabyti
nac
nach
nacha
nachal
naci
naciona
nacional
nacionalismu
nacismu
naciste
nacisticke
nacisticky
nacistu
nacisty
nad
nada
nadac
nadace
nadaci
nadal
nadany
nadarmo
nadc
nadcha
nade
nadme
nadmor
nadna
nadporuc
nadpr
nadr
nads
nadvla
nadz
nadzemni
nagy
naha
nahe
nahla
nahle
nahli
nahor
nahoru
nahra
nahradi
nahradil
nahradila
nahradili
nahradily
nahradit
nahrazen
nahrazena
nahrazeni
nahrazeno
nahrazeny
nahrazova
nahrazuje
nahrazuji
nahy
nainstalova
naivni
najde
najdeme
najdete
najdou
naje
najednou
najevo
naji
nakaz
nakl
nakla
nakladatel
nakladatelstvi
naklone
nakonec
nakra
nal
nala
nale
nalevo
nalezen
nalezena
nalezene
nalezeni
nalezeno
nalezeny
nalezis
nalezl
nalezli
nalezne
nalezneme
naleznete
nali
nalo
naloz
naly
nam
nama
namaloval
name
named
names
nami
namluvil
namnoze
nan
nana
nancy
nanebevzeti
nanejvy
nanu
nany
naomi
naopak
napa
napada
napaden
napadeni
napadl
napadli
napadlo
napadne
nape
napi
napla
napln
naplne
naplno
napoc
napojen
napojena
napojeni
napojuje
napoleon
napoleona
napoleonsky
napoma
napomi
naposled
naposledy
napovi
napr
napravo
naprosta
naproste
naprosto
naprostou
naproti
napsa
napsal
napsala
napsali
napsana
napsane
napsany
napsat
napu
nar
nara
narazi
narazil
narodil
narodila
narodili
narodilo
narodily
narozen
narozena
narozene
narozeni
narozenin
narozenina
narozeniny
narozeny
naru
narus
nas
nasa
nasazen
nasazena
nasazene
nasazeni
nasazenou
nasazeny
nasazova
nasbi
nash
nasta
nastal
nastala
nastalo
nastaly
nastane
nastat
nastaveni
nastavit
naste
nastoupil
nastoupila
nastoupili
nastoupilo
nastoupit
nastr
nastudova
nastupoval
nastupuje
nastupuji
nasve
nat
nata
natalie
nataz
nate
nathan
nati
nation
national
nationale
nationally
nations
nato
natoc
natolik
natr
natrvalo
natura
natural
naturalis
nature
naty
nauc
nauk
nauka
nauku
nauky
nava
naval
navazuje
navazuji
nave
navi
naviga
navigac
navra
navrhl
navrhla
navrhli
navrhova
navrhoval
navrhuje
navrz
navs
navy
navypedia
navz
navza
navzdory
naz
nazi
nazionale
naznac
nazpe
nazpi
nazva
nazval
nazvana
nazvane
nazvanou
nazvany
nazy
nb
nba
nbc
nbu
nc
ncbi
nce
ncem
nchen
nchez
nci
ncu
nd
nde
nder
ndez
ndr
ne
neaktua
neapol
neapole
neapoli
neapolske
near
nearabske
neb
neba
nebe
nebem
nebes
nebesa
nebeske
nebesky
nebezpec
nebi
nebo
neboji
neboli
nebot
neboz
nebra
nebude
nebudeme
nebudou
nebudu
neby
nebyl
nebyla
nebyli
nebylo
nebyly
nec
necele
necely
nech
necha
nechal
nechala
nechali
nechat
nechce
nechci
necht
nechte
neci
ned
neda
nedal
nedaleke
nedaleko
nedaleky
nedar
nedbal
nede
nedi
nedlouho
nedoc
nedocha
nedochovaly
nedodrz
nedojde
nedoka
nedokonave
nedokonc
nedoporuc
nedos
nedosa
nedospe
nedosta
nedostal
nedostala
nedostatec
nedostatek
nedostatkem
nedostatku
nedostatky
nedostupny
nedoz
nedu
nedve
need
neexistuje
neexistuji
neforma
nefunkc
negativne
negativni
nehod
nehoda
nehode
nehodi
nehodu
nehody
nehra
neil
neill
nej
nejasne
nejasny
nejbe
nejbli
nejbliz
nejbohats
nejc
nejcenne
nejda
nejde
nejdels
nejdr
nejdraz
nejdu
nejedly
nejedna
nejednou
nejen
nejenom
nejhlubs
nejhors
nejiste
nejjasne
nejjednodus
nejjiz
nejkra
nejkrats
nejle
nejleps
nejlidnate
nejme
nejmens
nejmlads
nejmocne
nejmoderne
nejnavs
nejniz
nejnove
nejobli
nejpoc
nejpopula
nejpouz
nejpozde
nejpr
nejprestiz
nejproda
nejproduktivne
nejprve
nejrade
nejrozs
nejrozsa
nejru
nejrychleji
nejrychlejs
nejs
nejsem
nejseverne
nejsilne
nejslavne
nejsme
nejsou
nejspi
nejstars
nejste
nejsve
nejte
neju
nejuz
nejve
nejvhodne
nejvi
nejvlivne
nejvy
nejvys
nejza
nejzaji
nejzna
nek
nekonec
nekrolog
nele
nelega
neli
nelis
nelson
nelze
nem
nema
nemaji
nemale
nemanz
nemaz
neme
nemi
nemluvi
nemoc
nemoci
nemocne
nemocnic
nemocnice
nemocnici
nemocny
nemohl
nemohla
nemohli
nemohlo
nemohly
nemohou
nemohu
nemovitosti
nemovity
nemoz
nemu
nemusel
nemusi
nemysli
nen
nena
nenacha
nenada
nenas
nenastoupil
nenauc
nene
nenecha
neni
neny
neo
neobsahuje
neobvykle
neobvykly
neobyc
neoc
neodpovi
neoficia
neohroz
neomezene
neopra
nepa
nepatr
nepatrne
nepatrny
nepla
neplati
neplatny
nepoc
nepochybne
nepodar
nepokoje
nepokoju
nepomucke
nepomuk
nepor
neporus
nepos
neposkvrne
neposledni
neposlus
nepostoupil
nepotr
nepouz
nepovaz
nepozna
nepr
nepra
nepravde
nepravidelne
nepravidelny
nepros
nepru
nepu
ner
nerad
nero
nerovnost
nerovnosti
nerozhodne
nerozume
nerozumi
neruda
nerus
nervove
nervovy
nervu
nes
nesc
neschopnost
neschopnosti
nese
neshody
nesl
nesla
nesli
neslo
neslouz
neslus
nesly
neslys
nesme
nesmi
nesna
nesou
nesouci
nesouhlas
nesouhlasi
nesouhlasil
nespatr
nespoc
nespokojenost
nespra
nesta
nestabilni
nestac
nestalo
nestoji
nestor
nestrani
nestupn
net
nete
neter
netflix
netherlands
netoliko
netopy
netr
netradic
netrpe
netus
netvor
network
nety
neu
neuc
neude
neudrz
neue
neues
neumann
neume
neumi
neumoz
neurc
neus
neuskutec
neuspe
neusta
neustadt
neutra
neutrum
neuva
neuve
neuz
neuzna
nev
neva
nevada
nevadi
neve
nevede
nevelke
never
nevhodne
nevhodny
nevi
nevide
nevidi
neviditelny
nevinne
nevinny
nevla
nevlastni
nevni
nevra
nevs
nevy
nevycha
nevydrz
nevyhnutelne
nevyhovuji
nevyhra
nevys
nevyskytuje
nevyuz
nevyz
new
newcastle
newman
news
newton
newyorske
next
nez
neza
nezac
nezaji
nezame
nezapomne
nezar
nezasa
nezby
nezbytna
nezbytne
nezbytny
nezda
nezdar
nezi
neziskove
nezkus
nezletile
nezletily
nezme
nezna
neznal
neznamena
nezpu
nezr
nezu
nezve
nezvla
nezvykle
nf
nfl
ng
ngc
nh
nhl
ni
nia
nic
nica
nice
nich
nicholas
nicht
nichz
nici
nick
nicka
nicke
nickou
nicky
nicme
nico
nicola
nicolas
nicole
nictva
nictvi
nictvo
nictvu
nie
nielsen
nig
nige
nigel
niger
night
nih
nii
nijak
nik
nika
nikde
nikdo
nikdy
nikem
nikoho
nikola
nikolaj
nikolajevic
nikoli
nikoliv
nikomu
nikterak
niku
niky
nil
nila
nili
nilo
nilsson
nilu
nily
nim
nimi
nimiz
nimz
nin
nina
nine
ning
nink
ninkove
ninku
nintendo
niny
nio
nis
nisou
nista
nit
niti
nitra
nius
niva
nive
nivy
niz
nizozemi
nizozems
nizozemska
nizozemske
nizozemsko
nizozemsku
nizozemsky
nk
nka
nkami
nkem
nko
nkou
nkova
nkove
nkovi
nkovy
nkp
nku
nky
nl
nliva
nlive
nlivy
nlm
nln
nm
nme
nn
nna
nne
nner
nni
nnou
nny
no
nobel
nobelova
nobelovu
nobelovy
noc
noce
noci
noe
noha
nohama
nohou
nohu
nohy
noir
nokia
nom
nomenclature
nomina
nominace
nominaci
nominativ
nominova
non
nor
nora
norbert
nord
norem
norimberk
norimberku
norma
normalizace
norman
normandie
normy
norove
norovy
nors
norska
norske
norsko
norsku
norsky
north
northern
norton
noru
nos
nosem
nosi
nosic
nosil
nosili
nosit
nositel
nositele
nositelem
nositeli
nositelu
nosna
nosne
nosni
nosny
nosoroz
nost
nostech
nostem
nosti
nostmi
nostni
nosu
nosy
not
nota
note
notes
nothing
notre
nou
nouze
nouzi
nouzove
nouzovy
nov
nova
novak
noval
novala
novali
novana
novane
novanou
novany
novat
nove
novel
novela
novelizova
novely
november
novi
novice
novin
novina
novinky
noviny
novite
novo
novodobe
novodoby
novogoticke
novome
novorenesanc
novotna
novotne
novotny
novou
novove
novoze
novske
novu
novy
now
noz
noze
np
npr
npu
nr
nrove
nru
nry
ns
nsdap
nska
nske
nskem
nsko
nskou
nsku
nsky
nstvi
nt
nter
nther
nu
nucen
nucena
nucene
nuceni
nuceny
nuclear
nuje
nuji
nuklea
nula
null
nulove
nulovy
number
numbers
nus
nuti
nutna
nutne
nutno
nutnost
nutnosti
nutny
nuz
nv
nve
nvi
ny
nyi
nymburk
nyne
nyni
nytimes
nz
o
oa
ob
oba
obal
obalkyknih
obalu
obama
obava
obavy
obc
obce
obcemi
obcha
obchod
obchode
obchodem
obchodni
obchodova
obchodu
obchody
obchvat
obci
obdar
obde
obdiv
obdoba
obdobi
obdobne
obdobny
obdrz
obe
obec
obecenstvo
obecna
obecne
obecni
obecnou
obecny
obelisk
oberlandrat
obes
obha
obhajoval
obhospodar
obi
obili
obituary
objasne
object
objedna
objednal
objednala
objekt
objektem
objektivni
objektu
objekty
objem
objemu
objeti
objev
objeven
objevena
objevene
objeveni
objeveno
objeveny
objevi
objevil
objevila
objevili
objevilo
objevily
objevit
objevitel
objevovaly
objevovat
objevu
objevuje
objevuji
objevy
obji
obkli
obklopen
obklopena
obklopene
obklopeny
obklopuje
obklopuji
obla
oblak
oblaku
oblast
oblastech
oblasti
oblastmi
oblastni
oble
oblec
oblez
obli
oblibe
oblic
obloha
oblohy
oblouk
obloukem
oblouku
oblouky
obloz
obloze
obme
obna
obnaz
obnova
obnove
obnoven
obnovena
obnovene
obnoveni
obnoveno
obnoveny
obnovil
obnovila
obnovit
obnovu
obnovy
oboji
obojz
obor
obora
oborech
oboru
obory
obou
oboupohlavne
obousme
oboustranne
obr
obra
obraci
obrana
obrane
obranne
obranny
obranu
obrany
obrat
obratlovcu
obratne
obratu
obraz
obraza
obraze
obrazech
obrazem
obrazove
obrazovka
obrazovky
obrazovy
obrazu
obrazy
obrne
obrovska
obrovske
obrovskou
obrovsky
obrozeni
obs
obsa
obsadil
obsadila
obsadili
obsadilo
obsadit
obsah
obsahem
obsahoval
obsahovala
obsahovalo
obsahovaly
obsahovat
obsahu
obsahuje
obsahuji
obsaz
obsazen
obsazena
obsazeni
obsazeno
obsazeny
obsazova
observator
observatory
obsluz
obstara
obte
obti
obuv
obuvi
obuvni
obvin
obvine
obvinil
obvinila
obvod
obvode
obvodem
obvodni
obvodove
obvodu
obvody
obvykle
obvykly
oby
obyc
obydleny
obydli
obytna
obytne
obytny
obyv
obyvatel
obyvatele
obyvateli
obyvatelstva
obyvatelstvem
obyvatelstvo
obyvatelstvu
obyvatelu
obz
obzor
obzoru
obzvla
oc
ocas
ocasem
ocasni
ocasu
ocea
ocean
ocel
ocela
oceli
ocelove
ocelovy
ocen
ocene
ocenil
och
ochoten
ochotne
ochotni
ochra
ochran
ochrana
ochrane
ochranna
ochranne
ochrannou
ochranny
ochranou
ochranu
ochrany
ocitl
ocitla
oclc
oct
october
od
oda
odbe
odboc
odboj
odboja
odboje
odboji
odbojove
odbor
odborna
odborne
odborni
odbornou
odborny
odborove
odboru
odbory
odby
odbyl
odc
odcestoval
odcha
odchod
odchodem
odchodu
odchylky
odda
oddany
odde
oddi
ode
odebi
odebra
odebral
odec
odehra
odehrane
odehrany
odejde
odeji
odeon
odepr
oder
odes
odesi
odesla
odevzda
odevzdal
odhad
odhadova
odhadu
odhaduje
odhady
odhalen
odhalena
odhaleni
odhali
odhalil
odhalila
odhalit
odhla
odhodla
odjel
odjela
odjet
odjezdu
odji
odka
odkaz
odkazem
odkazu
odkazuje
odkazuji
odkazy
odkla
odkoupil
odkud
odle
odlehc
odlete
odlis
odlouc
odloz
odm
odme
odmi
odn
odna
odne
odnesl
odnoz
odola
odolne
odolnost
odolnosti
odolny
odpa
odpad
odpadni
odpadu
odpi
odpoc
odpoledne
odpoledni
odpor
odporem
odporu
odpove
odpovi
odpu
odpus
odpust
odr
odra
odraz
odrou
odru
odry
ods
odsoudil
odsouzen
odsouzena
odsouzeni
odsouzeny
odst
odstartoval
odstartovala
odstavce
odstavci
odstavec
odste
odsti
odstoupeni
odstoupil
odstoupila
odstoupit
odstr
odstran
odstrane
odstrani
odstranit
odsud
odsunu
odta
odte
odtrz
odtud
odu
odumr
odva
odvahu
odvahy
odve
odvete
odvezl
odvi
odvodn
odvola
odvolaci
odvolal
odvozen
odvozena
odvozene
odvozeno
odvozeny
odvozuje
odvra
odvysi
odznak
odznaku
of
ofenzi
off
offenbach
office
official
oficia
ofie
og
oh
ohen
ohio
ohla
ohlas
ohle
ohledem
ohledne
ohledu
ohli
ohn
ohne
ohni
ohnis
ohnive
ohnivy
ohr
ohradni
ohranic
ohromne
ohromny
ohroz
ohy
oil
ois
oise
ojedine
ok
oka
okamz
oke
okem
oken
okenni
oklahoma
okna
okne
oknem
okno
oknu
okny
oko
okola
okoli
okolni
okolnost
okolnosti
okolo
okr
okra
okraj
okraje
okrajem
okraji
okrajove
okrajovy
okrasna
okrasne
okrasny
okres
okrese
okresech
okresem
okresni
okresu
okresy
okrouhle
okrsek
okrsku
okruh
okruhu
okruhy
okruz
okta
oku
okupac
okupace
okupaci
okupovane
okve
ol
ola
olaf
olc
old
oldfield
oldne
oldr
ole
oleg
olej
oleje
olejem
oles
olga
olgy
oli
oliva
oliver
olivia
olivier
olivove
olomouc
olomouce
olomouci
olomoucke
olomoucky
olove
ols
olta
olympedia
olympia
olympic
olympics
olympijska
olympijske
olympijskou
olympijsky
om
oma
omar
omberok
omega
omezen
omezena
omezene
omezeni
omezenou
omezeny
omezit
omezova
omezuje
omezuji
omi
omyl
omylem
omylu
on
ona
onb
once
ondr
ondra
ondrej
ondrejic
one
onemocne
onen
ong
oni
online
only
ono
onoho
onom
ontario
onu
onv
ony
op
opa
opac
opadavy
opak
opakova
opakoval
opakovane
opakovany
opakovat
opakuje
opakuji
opat
opata
opatem
opatr
opatrne
opatrny
opatstvi
opava
opave
opavske
opavsky
opavy
opc
ope
opel
open
oper
opera
operac
operace
operaci
operation
operatorname
opereta
operni
operou
operu
opery
opevne
opi
opic
opice
opily
opla
opoc
opoda
opotr
opous
opovrz
opoz
opozic
opozice
opozici
opr
opra
oprav
oprava
opravdove
opravdovy
opravdu
oprave
opraven
opravena
opraveny
opravi
opravit
opravova
opravu
opravy
oproti
ops
opticke
opticky
optima
opus
opusti
opustil
opustila
opustili
opustit
opylova
or
ora
orange
oranz
orator
orbis
orbita
orchestr
orchestra
orchestrem
orchestru
ordens
order
orders
ordina
ordinace
ordo
oregon
orel
org
orga
organic
organicka
organicke
organicky
organisace
organisaci
organismu
organismus
organismy
organiza
organizac
organizace
organizacemi
organizaci
organization
organizova
organizoval
organizovane
organizovany
organizovat
organizuje
orient
orienta
orientac
orientace
orientaci
orientova
orientovana
orientovane
orientovany
orig
origin
origina
original
origins
orion
orla
orlando
orle
orlea
orleans
orli
orlice
orlici
orlicke
orlicky
oro
orp
ortodoxni
ortsbuch
os
osa
osad
osada
osade
osadni
osadou
osadu
osady
osame
osamostatne
osazeny
oscar
oscara
ose
osek
osel
osi
osir
oskar
osla
oslabeni
oslav
oslava
oslave
oslavou
oslavu
oslavy
oslo
osloveni
oslu
osm
osma
osmanska
osmanske
osmanskou
osmansky
osmdesa
osme
osmi
osmic
osmifina
osmna
osmy
osn
osob
osoba
osobami
osobe
osobitne
osobne
osobni
osobnost
osobnostem
osobnosti
osobnostmi
osobou
osobu
osoby
osou
ost
ostatku
ostatky
ostatne
ostatni
oste
ostr
ostra
ostrava
ostrave
ostravska
ostravske
ostravsko
ostravsky
ostravy
ostre
ostrohu
ostrov
ostrova
ostrove
ostrovech
ostrovem
ostrovni
ostrovu
ostrovy
ostroz
ostru
ostruz
ostry
osu
osud
osudem
osudove
osudu
osudy
osve
osvi
osvobodit
osvobozen
osvobozene
osvobozenecke
osvobozeni
oswald
osy
ot
ota
otakar
otakara
otc
otce
otcem
otci
otcova
otcove
otcovske
otcovy
otcu
ote
otec
oteplova
otevi
otevr
other
otis
otisk
otisky
oto
otoc
otokar
otr
otra
otroctvi
otroka
otroku
otroky
ottawa
otto
ottova
ottove
ottovo
ottu
otvi
otvor
otvorem
otvoru
otvory
oty
ou
our
out
ov
ova
ovac
ovaci
oval
ovala
ovali
ovalo
ovaly
ovana
ovane
ovanou
ovany
ovat
ovatce
ovatel
ovatele
ovatelne
ovati
ovatka
ovatkou
ovatky
ovc
ovce
ovci
ovdove
ove
ovec
ovem
over
overview
ovi
ovic
ovice
ovici
ovicke
ovicky
ovina
oviny
ovite
ovity
ovka
ovky
ovla
ovladac
ovlivn
ovlivne
ovlivnil
ovlivnila
ovlivnilo
ovlivnily
ovlivnit
ovna
ovne
ovni
ovny
ovo
ovoce
ovocem
ovocne
ovocny
ovou
ovs
ovska
ovske
ovsky
ovu
ovy
ovzdus
owen
own
oxford
oxfordu
oxid
oxidac
oxidaci
oxidu
oz
oza
ozbrojene
ozbrojeny
ozdobne
ozdobny
ozdrojova
ozna
oznac
oznamovaci
oznamuje
ozval
ozve
ozy
p
pa
pablo
pac
pach
pachatel
pachatele
pacient
pacienta
pacienti
pacientu
pacienty
pacific
pacifiku
pacner
pad
pada
padaji
pade
padech
padek
padem
padesa
padku
padl
padla
padli
padlo
padly
padna
padne
padni
padnou
padny
padoc
padone
padu
padua
pady
page
pages
pahorek
pahorkatina
pahorkatine
pahorkatiny
pahorku
pain
pak
paka
paketu
pakli
pal
pala
palace
palacke
palacky
palais
palazzo
palbou
palbu
palby
palce
palcu
palec
palem
paleontolog
paleontology
palermo
palestina
palestine
palestinske
palestinsky
palestiny
pali
palic
palisty
paliva
palivo
palivove
palm
palma
palmer
palmy
palube
palubni
palubu
pama
pamatkovykatalog
pame
pan
pana
panama
pance
panci
panda
pandemie
pandemii
pane
panel
panelu
panely
panem
panenka
panenske
pani
panic
pankra
panna
panne
panny
panorama
panova
panoval
panovni
panska
panske
pansky
panstvi
panthera
panton
panu
panuje
panuji
paolo
papa
paper
papers
papez
papi
papous
paprsek
paprsku
paprsky
par
para
paradise
paradox
paradoxne
paraguay
paralelne
paralelni
parametr
parametru
parametry
paras
parc
parci
pardubic
pardubice
pardubici
pardubicke
pardubicky
paris
park
parkem
parker
parkovaci
parkovis
parks
parku
parky
parlament
parlamentem
parlamentni
parlamentu
parliament
parma
parni
parodii
part
partial
partie
partii
partitury
partner
partnera
partnerem
partners
partnersky
partnerstvi
partneru
partnery
party
partyza
pas
pasa
pasaz
pascal
pase
pasech
paseka
pasem
pasi
pasivni
pasni
pass
past
pasti
pastor
pastora
pastviny
pasty
pasu
pasy
pat
pata
patent
patentu
pater
path
pati
patna
patne
patnou
patny
patoc
patr
patra
patrech
patriarcha
patriarchy
patricia
patrick
patrik
patrna
patrne
patrno
patrny
patro
patrol
patron
patrona
patronem
patrova
patrovy
paty
paul
paula
paulem
paulo
pave
pavel
pavilon
pavilonu
pavla
pavlac
pavlem
pavli
pavlovic
pavlu
pavol
pavouk
pavuc
payne
pays
paz
pb
pc
pchin
pching
pci
pd
pdf
pe
peace
peak
peakbagger
pearl
pec
pece
peci
peda
pedagog
pedagogicka
pedagogicke
pedagogickou
pedagogicky
pedagogika
pedagogiky
pedagoz
pedro
peer
peerage
pej
pejc
pejchar
pek
peka
pekar
peking
pekingu
pekla
peklo
pelc
pele
pelhr
pelika
pelopone
pem
pen
pena
penalty
penaty
pence
pencove
pencovy
pene
penguin
peni
pennsylvania
penny
pensylva
penze
people
pepr
per
pera
percy
perfect
performance
periferni
period
periodicky
periodik
periodika
periody
perk
perku
perkuse
perky
perl
perla
perly
perns
pero
perry
pers
persie
perska
perske
persky
person
persona
personal
perspektivy
peru
perua
perut
perute
peruti
pes
pestr
pestre
pestry
pet
pete
peter
petera
peters
peterson
petice
petici
petit
petr
petra
petrem
petrohrad
petrohrade
petrohradske
petrohradu
petrov
petrova
petrovi
petrovic
petrovice
petru
petrus
petrz
peugeot
pevna
pevne
pevnine
pevniny
pevnost
pevnosti
pevnostni
pevnou
pevny
pez
pf
pg
ph
phase
phd
phdr
phi
phil
philadelphia
philip
philipp
philippe
phillips
philosophy
phoenix
photo
photographer
photographers
photographic
photographie
photographs
photography
photos
php
phylogenetic
phylogeny
phys
physical
physics
pi
pia
pianista
piano
piazza
pic
pice
pici
pick
picture
pictures
pid
pie
pierra
pierre
pies
pieter
pietni
pietro
pije
pil
pila
pilar
pilastry
pili
pilne
pilot
pilota
pilotem
piloti
pilotni
pilotu
pily
pin
pine
ping
pink
pinus
pinyin
pio
piona
pioneer
piony
piotr
pira
pis
pisa
pisem
pisky
pisne
pisni
pisny
pistole
pistoli
pisu
pisy
pit
pita
pitchfork
piti
pitne
pittsburgh
pius
piva
pivni
pivo
pivovar
pivovaru
pivovary
piz
pk
pka
pku
pky
pl
pla
plac
place
placene
placeni
placeny
places
plachy
plaka
plamen
plameny
plan
plana
plane
planet
planeta
planetary
planete
planetka
planetky
planetu
planety
planina
planiny
plant
planta
plants
plas
plastic
plasticky
plastik
plastika
plastiky
plastu
plat
plata
platby
platebni
platforma
platforme
platformu
platformy
plati
platil
platila
platilo
platit
platna
platne
platni
platnost
platnosti
platny
plato
platu
platy
plav
plava
plavba
plavbe
plavbu
plavby
plavebni
plavec
plavecky
plavidel
plavidla
plavidlo
plavu
plavy
play
player
players
playoff
playstation
plaza
plazi
plazu
ple
plechu
plemen
plemena
plemene
plemeno
ples
plesa
pleso
plesu
pleti
pli
plic
plicni
pln
plna
plne
plni
plnil
plnit
plno
plnou
plny
plo
ploch
plocha
ploche
plochou
plochu
plochy
plod
plodem
plodi
plodin
plodiny
plodnice
plodolistu
plodu
plody
plos
plot
plotu
plouc
plova
plovouci
plu
pluji
pluk
plukovni
pluku
plura
plus
pluto
plyn
plyna
plyne
plynne
plynouci
plynove
plynovy
plynu
plynule
plyny
plz
plzen
plzne
plzni
pm
pmatrix
pmc
pmid
pn
pnas
pne
pneumatiky
pni
po
pobe
pobi
pobli
poboc
pobor
pobour
poboz
pobr
poby
pobyt
pobytu
poc
pocha
poche
pochod
pochodu
pochopeni
pochopi
pochopil
pochopit
pochopitelne
pochova
pochva
pochybnosti
pochyby
poci
pocit
pocitu
pocity
pocta
pocte
poctive
poctivy
pod
poda
podal
podala
podali
podar
podat
podbarveni
podbor
podc
podcelek
podcelku
poddane
poddani
poddanstvi
poddany
poddruh
poddruhu
poddruhy
pode
podepr
podepsa
podepsal
podepsala
podepsali
podepsalo
podepsat
podezr
podhradi
podhu
podi
podivi
podivne
podivny
podkarpatske
podklad
podkladu
podkrkonos
podlaha
podlahy
podlaz
podlaze
podle
podlehl
podlehla
podlehli
podlesi
podlouhle
podloz
podma
podme
podmi
podmnoz
podmor
podne
podnebi
podnes
podni
podnik
podnika
podnikatel
podnikatele
podnikatelske
podnikatelu
podnikem
podnikl
podniku
podniky
podnoz
podoba
podobaji
podobe
podobna
podobne
podobnost
podobnosti
podobnou
podobny
podobu
podoby
podoli
podpi
podpis
podpisu
podplukovni
podpor
podpora
podporou
podporova
podporoval
podporovala
podporovali
podporovane
podporovany
podporovat
podporu
podporuje
podporuji
podpory
podpu
podr
podra
podrobne
podrobnosti
podrobny
podruhe
podrz
podstata
podstate
podstatna
podstatne
podstatnou
podstatny
podstatou
podstatu
podstaty
podstavci
podstavec
podstoupil
podsve
podve
podvec
podvod
podvodni
podvodu
podvozek
podvozku
podvy
podzemi
podzemni
podzim
podzimni
podzimu
poe
poesie
poetry
poezie
poezii
poha
pohanske
pohansky
pohl
pohlavi
pohlavni
pohle
pohled
pohleda
pohledem
pohlednice
pohledu
pohledy
pohli
pohnuti
pohodli
pohodlne
pohon
pohonem
pohonna
pohonne
pohonny
pohonu
pohor
pohors
pohotovostni
pohr
pohranic
pohromade
pohyb
pohybem
pohyblive
pohyblivy
pohyboval
pohybovala
pohybovat
pohybove
pohybu
pohybuje
pohybuji
pohyby
point
poj
pojal
pojd
poje
pojedna
pojednou
pojem
pojeti
poji
pojis
pojistne
pojmem
pojmenova
pojmenoval
pojmenovana
pojmenovane
pojmenovany
pojmu
pojmy
poju
poka
pokaz
poke
pokla
poklad
pokladni
pokladny
pokladu
poklady
pokles
poklesu
pokoj
pokoje
pokoji
pokojne
pokoju
pokoleni
pokor
pokorne
pokorny
pokous
pokoz
pokr
pokrac
pokraji
pokrm
pokrmu
pokroc
pokrok
pokrokove
pokroku
pokry
pokryt
pokryta
pokryte
pokryti
pokryty
pokud
pokus
pokusech
pokusem
pokusi
pokusil
pokusila
pokusili
pokusu
pokusy
pokutu
pokuty
pokyn
pokyny
pol
pola
poland
polar
pole
poledne
poledni
polem
poleps
poli
polic
police
policejni
policie
policii
policista
policiste
policistu
policisty
policy
politic
political
politice
politici
politicka
politicke
politickou
politicky
politics
politik
politika
politikou
politiku
politiky
politolog
politologie
polka
polna
polni
polo
poloc
poloh
poloha
polohu
polohy
polokoule
polokouli
polome
poloostrov
poloostrova
poloostrove
polovic
polovice
polovici
polovina
polovine
polovinu
poloviny
polovodic
poloz
poloze
pols
polska
polske
polskem
polski
polsko
polskou
polsku
polsky
polygona
polyne
poma
pomale
pomalejs
pomalu
pomaly
pome
pomeranc
pomezi
pomi
pomni
pomnoz
pomoc
pomoci
pomocna
pomocne
pomocni
pomocny
pomohl
pomohla
pomohli
pomohlo
pomor
pomozte
pomsta
pomsti
pomstu
pomu
pomy
pona
ponde
pone
ponecha
ponechal
ponechat
poni
ponic
poniz
ponor
ponorek
ponorka
ponorky
ponou
pont
pony
pop
popa
pope
popel
popela
popelka
popi
popis
popisem
popisny
popisova
popisovany
popisu
popisuje
popisuji
popisy
popl
poplatek
poplatku
poplatky
popluz
popr
poprad
poprava
popraven
popraveni
popraveny
popravy
poprve
popsa
popsal
popsane
popsany
popsat
popta
popud
popula
populac
populace
populaci
popular
popularita
popularite
popularitu
popularity
population
por
pora
poradce
poradcem
poradenstvi
poradni
porady
porane
poraz
porazil
porazila
porazili
porazit
porcela
porne
porny
porodila
porodni
porodu
porost
porostle
porostu
porosty
porota
poroty
porouc
porovna
porozume
porsche
port
porta
portal
porte
porter
portfolio
portland
porto
portrait
portre
portu
portugal
portugalci
portugals
portugalska
portugalske
portugalsko
portugalsku
portugalsky
porty
poru
poruba
poruc
poruch
porucha
poruchou
poruchy
porus
pory
pos
posa
posadil
poschodi
posel
poselstvi
posi
posilova
posily
position
poskytl
poskytla
poskytne
poskytnout
poskytnuti
poskytova
poskytoval
poskytovala
poskytovat
poskytuje
poskytuji
posla
poslal
poslala
poslali
poslance
poslancem
poslanci
poslancu
poslanec
poslanecka
poslanecke
poslanecky
poslankyne
poslat
posle
posledne
posledni
posloucha
poslouchal
poslouchat
posloupnost
posloupnosti
poslouz
posluchac
poslus
posme
posmrtne
posouzeni
pospi
post
postac
postaral
postav
postava
postavami
postave
postaven
postavena
postavene
postaveni
postaveno
postavenou
postaveny
postavi
postavil
postavila
postavili
postavilo
postavit
postavou
postavu
postavy
postel
postele
posteli
postgradua
postihl
postihla
postiz
postoj
postoje
postoji
postoju
postoupil
postoupila
postoupili
postoupilo
postoupily
postoupit
postr
postra
postranni
postu
postup
postupem
postupne
postupny
postupoval
postupovat
postupu
postupuje
postupuji
postupy
posty
posud
posun
posunu
posunul
posunula
posuzova
posva
posve
pot
pota
potaz
pote
potencia
poti
potka
potkal
potlac
potoc
potoce
potok
potoka
potokem
potoku
potoky
potom
potomci
potomek
potomka
potomkem
potomku
potomky
potomstvo
potopeni
potopila
potr
potravin
potravina
potraviny
potravni
potravou
potravu
potravy
potresta
potrubi
pots
potter
potu
potvrdil
potvrdila
potvrdilo
potvrdit
potvrzen
potvrzena
potvrzeni
potvrzeno
potvrzeny
potvrzuje
potvrzuji
poty
potyc
pou
pouc
pouha
pouhe
pouhou
pouhy
pouka
poukazuje
poukazuji
poulic
pour
pous
poustevni
pout
pouta
pouti
poutni
pouz
pouze
pova
povaha
povahou
povahu
povahy
povaz
povaze
pove
povede
povedlo
povi
povinen
povinna
povinne
povinni
povinnost
povinnosti
povinny
povoden
povodi
povodne
povodni
povola
povolal
povolen
povolena
povoleni
povoleno
povoleny
povolil
povrch
povrchem
povrchove
povrchovy
povrchu
povs
povsta
povstal
povstalci
povstalcu
povy
powell
power
poz
pozadi
pozde
pozdne
pozdni
pozdrav
pozemci
pozemek
pozemkove
pozemkovy
pozemku
pozemky
pozemni
pozemske
pozemsky
pozic
pozice
pozici
pozitivne
pozitivni
pozme
pozn
pozna
poznal
poznala
poznali
poznamena
poznamenal
poznan
poznat
poznati
poznatku
poznatky
pozor
pozorne
pozornost
pozornosti
pozorova
pozorovaci
pozoroval
pozorovat
pozorovatel
pozorovatele
pozoruhodne
pozoruhodny
pozoruje
pozu
pozva
pozval
pozvolna
pp
pr
pra
pracemi
prach
prachatice
prachatici
prachaticke
prachu
praci
pracoval
pracovala
pracovali
pracovalo
pracovat
pracovis
pracovne
pracovni
pracovnice
practice
pracuje
pracuji
prade
prag
praga
prager
prague
praha
prahou
prahu
prahy
prakticka
prakticke
prakticky
praktiky
pramen
pramene
pramenech
pramenem
prameni
pramenis
pramenu
prameny
prapor
praporu
prapory
prarodic
pras
prasat
prasata
prase
pratt
prav
prava
pravami
pravc
pravda
pravde
pravdive
pravdou
pravdu
pravdy
prave
pravi
pravice
pravici
pravicove
pravicovy
pravidel
pravidelna
pravidelne
pravidelnou
pravidelny
pravidla
pravidlem
pravidlo
pravidly
pravil
pravila
pravku
pravky
pravne
pravni
pravny
pravo
pravomoc
pravomoci
pravopis
pravopisu
pravoslavi
pravoslavna
pravoslavne
pravoslavny
pravostranny
pravou
pravove
pravu
pravy
praxe
praxi
praz
praze
prchaji
prchal
pre
precli
preda
predika
prefektur
prefektura
prefektury
preferenc
preference
preferuje
prela
premie
premier
premiere
premio
premonstra
pres
presbyta
present
president
presidenta
press
presse
prestiz
prevence
prevenci
preventivni
prezentace
prezentaci
prezentova
prezentuje
prezident
prezidenta
prezidentem
prezidentovi
prezidentske
prezidentsky
prezidentu
pri
price
pride
prima
prime
primitivni
primus
princ
prince
princem
princess
princeton
princezna
princeznou
princeznu
princezny
princi
princip
principal
principem
principles
principu
principy
print
pris
priva
private
privatizace
privatizaci
privilegia
privilegii
privilegium
prix
prize
pro
probe
probi
proble
problem
problematice
problematicke
problematika
problematiku
probojoval
probojovala
probos
probudi
probudil
probuzeni
proc
proceedings
procent
procenta
procentni
procento
proces
procesem
procesi
procesni
procesor
procesoru
procesory
process
procesu
procesy
procha
procyclingstats
proda
prodal
prodala
prodali
prodalo
prodany
prodat
prodavac
prode
prodej
prodeje
prodejem
prodeji
prodejna
prodejni
prodejny
prodlouz
prodluz
producent
producenta
producentem
producenti
production
productions
products
produkc
produkce
produkci
produkova
produkoval
produkt
produktem
produktu
produkty
produkuje
produkuji
prof
profese
profesi
profesiona
profesne
profesni
profesor
profesora
profesorem
profesorka
profesoru
professional
professor
profil
profile
profilu
profily
profous
profutbal
program
programa
programech
programem
programova
programovaci
programove
programovy
programu
programy
progresivni
progress
prohla
prohlas
prohle
prohleda
prohli
prohr
prohra
prohru
prohry
projde
project
projedna
projekce
projekt
projektech
projektem
projektova
projektu
projekty
projev
projevem
projevi
projevil
projevila
projevilo
projevoval
projevovat
projevu
projevuje
projevuji
projevy
proji
proka
prokazatelne
prokleti
prokop
prokopa
prokura
prole
proleta
proli
prome
promena
promi
prominentni
promluvil
promo
promoval
prona
pronaji
pronesl
pronika
pronikl
proniknout
propadl
propaga
propagac
propagace
propagaci
propaganda
propagandy
propast
propasti
properties
propojena
propojeni
propojeny
propous
propu
propus
propustil
pror
proroctvi
prorok
proroka
proroku
pros
prosadil
prosadila
prosadit
prosazeni
prosazova
prosazoval
prosazovat
prosazuje
prosec
prosi
prosil
prosince
prosinci
prosinec
proslavil
proslavila
proslul
proslula
proslule
prosluly
prospe
prospi
prosta
proste
prosti
prostor
prostora
prostorem
prostorove
prostorovy
prostoru
prostory
prostr
prostranstvi
prosty
prota
protaz
prote
protection
protein
proteinu
proteiny
protektora
protektorat
protest
protestantske
protestantsky
protestantu
protestni
protestu
protestuji
protesty
proti
protila
protiletadlove
protiletadlovy
protilodni
protinacisticke
protiu
protiva
protivi
protivni
protivzdus
proto
protocol
protokol
protokolu
protokoly
prototyp
prototypu
prototypy
protoz
proud
proude
proudem
proudi
proudove
proudovy
proudu
proudy
prouz
prova
provda
provdala
provdana
prove
provede
proveden
provedena
provedene
provedeni
provedeno
provedeny
provedl
provedla
provedli
provence
provinc
provincia
provincie
provincii
provizorni
provola
provoz
provozem
provozni
provozova
provozoval
provozovala
provozovany
provozovat
provozovatel
provozovatele
provozovatelem
provozu
provozuje
provozuji
proz
prozaik
prozati
prozkouma
prozradi
prs
prsa
prsni
prsou
prst
prsten
prstenu
prstu
prsty
prsu
pru
prudce
prudke
prudky
pruh
pruhem
pruhu
pruhy
prus
pruska
pruske
prusko
prusku
prusky
pruz
prva
prve
prvek
prvenstvi
prvkem
prvku
prvky
prvne
prvni
prvoc
prvoligove
prvoligovy
prvotni
prvovy
prvy
pry
pryc
pryskyr
ps
psa
psaci
psal
psala
psali
psana
psane
psani
psany
psem
pseudonym
pseudonymem
psi
psp
psu
psy
psychiatr
psychiatricke
psychicke
psychicky
psycho
psycholog
psychologicke
psychologicky
psychologie
psychologii
psychology
pt
pta
ptac
ptactva
ptal
ptala
ptolemaios
pu
pub
pubchem
public
publication
publications
publicista
publika
publikac
publikace
publikaci
publikova
publikoval
publikovala
publikovane
publikovany
publikovat
publikuje
publikum
published
publishers
publishing
puc
puerto
pum
puma
pumy
punc
punk
pupeny
purkrabi
purkyne
purple
pus
pusta
puste
pusti
pustil
pusty
put
putin
putina
putova
py
pyramida
pyramidy
pyre
pyrenejske
pys
python
pytla
pytli
q
qatar
qu
quad
que
quebec
queen
queens
quercus
qui
quick
quijote
quinn
quo
r
ra
rabi
rabs
rac
race
racek
rachel
raci
racing
raciona
rad
rada
radar
radaru
rade
radek
radhos
radi
radia
radika
radim
radio
radioaktivni
radka
radni
radnic
radnice
radnici
radomi
radoslav
radost
radosti
radostne
radoti
radou
radovan
radu
rady
raf
rafael
rail
railway
rain
rainbow
rainer
rajc
raje
raji
rajo
rak
raket
raketa
rakete
raketopla
raketove
raketovy
rakety
rakev
rakous
rakousi
rakouska
rakouske
rakouskem
rakousko
rakouskou
rakousku
rakousky
rakousy
rakovina
rakovinu
rakoviny
rakovni
rakus
rakvi
ral
rala
rali
rally
rallye
ralo
ralok
ralph
raly
ram
ramat
ramen
ramena
ramene
rameni
rameno
rameny
rami
ramne
ran
rana
random
randy
rane
range
rangers
rangle
ranni
ranou
rany
rap
rapid
rapper
rard
ras
rasa
rasove
rasy
rat
rate
ratel
ratele
ratelu
rati
ratibor
ratings
ration
rava
rave
raven
ravy
raw
ray
raymond
raz
razem
razi
razn
razna
razne
razni
raznil
raznou
razny
razu
razy
rb
rc
rce
rcem
rci
rcu
rd
re
rea
reaction
read
reader
reading
ready
reagoval
reagovat
reaguje
reaguji
reakc
reakce
reakci
reaktivni
reaktor
reaktoru
real
realismu
realismus
realisticke
realisticky
realita
realitu
reality
realizace
realizaci
realizova
realizoval
realizovat
realu
reb
rebecca
rebel
rec
recenze
recenzi
recept
receptor
receptoru
receptory
rech
record
recordings
records
red
redakc
redakce
redakci
redaktor
redaktorem
redaktorka
redigoval
redukc
redukce
redukci
reed
reedice
refera
referenc
reference
referenci
referenda
referendu
referendum
reflex
reforem
reforma
reformace
reforme
reformni
reformou
reformu
reformy
regent
regina
regio
region
regiona
regional
regionech
regionu
regiony
register
registr
registrac
registrace
registraci
registrova
registrovane
registrovany
registru
regula
regulac
regulace
regulaci
reich
reinhard
rej
rejstr
rek
reklama
reklamni
reklamu
reklamy
rekonstrukce
rekonstrukci
rekonstruova
rekord
rekordni
rekordu
rekordy
rekreac
rektor
rektora
rektorem
relace
relaci
related
relations
relativity
relativne
relativni
release
relevantni
relie
religion
rem
remes
remi
remix
ren
rena
renaissance
renata
renault
rene
renesanc
renesance
renesanci
renska
renske
rensky
renstvi
rentgenove
reorganizace
reorganizaci
repertoa
replika
report
reporta
reporte
reporter
reports
reprezentac
reprezentace
reprezentaci
reprezentant
reprezentantem
reprezentantka
reprezentantu
reprezentativni
reprezentoval
reprezentovala
reprezentovat
reprezentuje
reprezentuji
repri
reprint
reprodukc
reprodukce
reprodukci
repubblica
republic
republice
republik
republika
republike
republikou
republiku
republiky
repunitova
requiem
rer
res
research
resolution
resource
resources
resp
respekt
respektive
respektova
response
restaura
restaurace
restauraci
restaurova
result
results
ret
retrieved
return
reuters
rev
revealed
reveals
revi
review
reviews
revised
revize
revizi
revoluc
revoluce
revoluci
revoluciona
revolution
revolver
revue
rex
rey
reynolds
rez
rezervace
rezervaci
rezervni
rezidenc
rezidence
rezidenci
rezignaci
rezignoval
rezistence
rezoluci
rf
rfc
rg
rgen
rh
rho
ri
ria
ric
rica
ricardo
rice
rich
richard
richarda
richardem
richards
richardson
richmond
richter
rick
ricke
ricky
ride
rie
rieger
riem
riga
right
rightarrow
rights
rigoro
rii
rik
riley
rina
ring
rio
riot
riova
riove
riovy
ris
rise
risk
rista
ristka
rita
ritter
ritua
riu
rium
river
rivie
rizik
rizika
riziko
rju
rk
rka
rkami
rkem
rkev
rkevni
rko
rkou
rkova
rkove
rkovite
rkovy
rku
rkve
rkvi
rky
rlitz
rm
rn
rna
rndr
rne
rni
rnice
rnici
rnil
rnila
rnili
rno
rnost
rnosti
rnou
rnu
rny
ro
road
rob
roba
robce
robcem
robci
robcu
robe
robek
robert
roberta
robertem
roberto
roberts
robertson
robin
robinson
robku
robky
robni
robot
robotu
roboty
robou
robu
robustni
roby
roc
roce
rock
rocket
rockova
rockove
rockovy
rocku
rocky
rod
roda
rode
rodech
rodem
rodi
rodic
rodin
rodina
rodine
rodinna
rodinne
rodinnou
rodinny
rodinou
rodinu
rodiny
rodis
rodna
rodne
rodni
rodnost
rodnosti
rodnostni
rodnou
rodny
rodohospoda
rodokmen
rodopisne
rodou
rodove
rodovy
rodri
rodu
rody
roger
rogera
rogers
roh
roha
rohan
rohodne
rohu
rohy
roi
rok
roka
rokem
rokle
roku
roky
rokycany
roland
role
rolf
roli
roll
rolling
rolls
rolni
rolnicke
rom
roma
roman
romana
romance
romanticke
romanticky
romantismu
rome
romeo
romove
romske
romu
ron
ronald
room
root
ropa
ropne
ropny
ropy
rory
ros
rosa
rose
rosenberg
roses
ross
rossi
roste
rostislav
rostl
rostla
rostlin
rostlina
rostlinami
rostline
rostlinne
rostlinny
rostlinou
rostlinu
rostliny
rostou
rostouci
rot
rota
rotac
rotace
rotaci
roth
rotoru
rotova
rotten
rotterdam
roty
rou
rouby
roucha
roucho
roudnice
roudnici
rouge
rouna
round
rous
route
routledge
rov
rova
rovaci
roval
rovala
rovany
rovat
rove
roven
rover
rovi
rovina
rovine
roviny
rovn
rovna
rovne
rovni
rovnic
rovnice
rovnici
rovnobe
rovnome
rovnopra
rovnost
rovnosti
rovnou
rovnova
rovny
rovou
rovy
row
roy
royal
royale
royce
roz
roza
rozbe
rozbi
rozbor
rozc
rozcesti
rozcestni
rozcha
rozchod
rozchodu
rozda
rozde
rozdi
rozebi
rozebra
rozena
rozene
rozenou
rozepr
rozes
rozestave
rozevr
rozezna
rozhlas
rozhlase
rozhlasova
rozhlasove
rozhlasovy
rozhlasu
rozhledna
rozhledny
rozhledy
rozhne
rozhodc
rozhodl
rozhodla
rozhodli
rozhodlo
rozhodly
rozhodne
rozhodnou
rozhodnout
rozhodnuti
rozhodnuto
rozhodny
rozhodova
rozhodovat
rozhoduje
rozhoduji
rozhor
rozhovor
rozhovoru
rozhovory
rozhrani
rozji
rozka
rozkaz
rozkazovaci
rozkazu
rozkazy
rozkla
rozklad
rozkladu
rozkos
rozkve
rozle
rozlehle
rozlehly
rozlic
rozlis
rozloha
rozlohou
rozlohu
rozlohy
rozlouc
rozloz
rozloze
rozmach
rozmachu
rozmanite
rozmanitost
rozmanitosti
rozmanity
rozme
rozmezi
rozmi
rozmnoz
rozna
rozpa
rozpad
rozpadla
rozpadu
rozpe
rozpi
rozpoc
rozporu
rozpory
rozpous
rozpozna
rozpoznat
rozpra
rozprosti
rozpty
rozpus
rozr
rozru
rozrus
rozs
rozsa
rozsah
rozsahem
rozsahu
rozstr
rozsudek
rozsudku
rozsvi
rozta
roztaz
roztoc
roztok
roztoku
roztoky
roztr
roztrous
roztrz
rozum
rozume
rozumi
rozumne
rozumu
rozva
rozve
rozvedli
rozvi
rozvinul
rozvinuty
rozvod
rozvodi
rozvodu
rozvoj
rozvoje
rozvojem
rozvoji
rozvojove
rozvojovy
rozz
rozzur
rp
rpg
rs
rska
rske
rsko
rskou
rsku
rsky
rsssf
rst
rstvi
rt
rta
rte
rterbuch
rttembersko
rtu
rtut
rty
ru
ruba
rubi
rublu
rubu
ruby
ruc
ruce
ruch
ruchu
rud
ruda
rude
rudi
rudolf
rudolfa
rudolfem
rudou
rudy
rue
ruiny
ruje
ruka
rukama
rukojmi
rukopis
rukopisu
rukopisy
rukou
ruku
ruky
rule
rules
rum
rumburk
rumuns
rumunska
rumunske
rumunsko
rumunsku
rumunsky
run
running
rus
rush
rusi
ruska
ruske
ruskem
rusko
ruskou
rusku
rusky
rusove
russell
russia
russian
rusu
rusy
ruth
ruz
rv
rva
rvac
ry
ryan
ryb
ryba
rybi
rybic
rybni
rybnic
rybolov
rybolovu
ryby
rychla
rychle
rychleji
rychlejs
rychli
rychlobruslar
rychlost
rychlosti
rychlostni
rychlou
rychly
rychnov
rychta
rys
rysem
rysu
rysy
ryti
rytmu
rytmus
ryze
ryzi
rz
s
sa
saab
sabina
sabine
sabota
sachsen
sad
sada
sadami
sade
sadech
sadka
sadku
sadne
sadni
sadou
sadu
sady
safety
sah
saha
sahaji
sahu
sahy
said
saint
sainte
saints
saji
sakra
sakristie
sakristii
sal
sala
salcburku
sales
salesia
salisbury
sally
salm
salo
salomon
salon
salonu
salt
salva
salvador
salzburg
sam
sama
samantha
samar
samc
samce
samci
samcu
same
samec
sametove
sami
samic
samice
samici
samo
samohla
samospra
samostatna
samostatne
samostatnost
samostatnosti
samostatnou
samostatny
samota
samote
samotna
samotne
samotnou
samotny
samoty
samou
samovolne
samozr
samsung
samuel
samuela
samy
san
sancho
sandra
sane
sankce
sankci
sankt
sans
sant
santa
santiago
santo
santos
sao
sar
sara
sarah
sarajevo
sarajevu
sarkofa
sars
sas
saska
saske
sasko
sasku
sasky
sat
satan
satelit
satelitni
satelitu
saturn
sau
saul
sav
savci
savcu
save
savojske
savojsky
saxofon
saxofonista
say
says
sazby
sb
sbe
sbi
sbli
sbohem
sbor
sborem
sbormistr
sborni
sborove
sborovy
sboru
sbory
sc
scala
scale
sce
scena
scene
scha
sche
schmidt
schneider
scho
schodech
schodis
schodu
schody
school
schopen
schopna
schopne
schopni
schopnost
schopnosti
schopnostmi
schopny
schova
schra
schro
schu
schubert
schulz
schumacher
schuster
schuz
schva
schwarz
schwarzenberg
schwarzenbergu
sci
science
sciences
scientific
scotland
scott
scottish
scout
screen
scriptstyle
sd
sde
sdh
sdi
sdruz
se
sea
sean
search
season
seat
seattle
seattlu
sebastia
sebastian
sebe
sebeve
sebevraz
sebou
sebral
sebrane
sec
secese
secesni
seci
second
secret
section
security
sed
seda
sedac
sedadla
sedan
sede
sedi
sedimentu
sedimenty
sedl
sedla
sedlc
sedle
sedlec
sedlem
sedlo
sedlovou
sedm
sedma
sedmdesa
sedme
sedmi
sedmic
sedmilete
sedmna
sedmy
seds
see
segmentu
sehra
seifert
sein
seine
seite
sek
seka
sekce
sekci
sekreta
sekretaria
sektor
sektoru
sekty
seku
sekula
sekund
sekunda
sekundu
sekundy
sekvence
sekvenci
seky
sel
selected
self
selha
seligman
selne
selny
selske
selsky
sem
semafor
semen
semena
semeni
semeno
semeny
semi
semifina
semily
semina
semna
semne
semnictvi
semnosti
semny
sen
sena
senica
senior
seniora
seniorske
seniory
sep
sepsa
sepsal
september
ser
serena
serge
sergej
sergeje
sergejevic
sergio
seria
serialzone
serie
series
server
serveru
servery
servi
service
services
servis
servisni
servisu
serz
ses
seskupeni
session
sesta
sestava
sestave
sestaveni
sestaveny
sestavil
sestavila
sestavit
sestavy
sester
sestoupil
sestr
sestra
sestrou
sestru
sestry
sestup
sestupu
set
setech
setka
setkal
setkala
setkali
setkat
setove
setr
setrva
setrvac
setrval
setrvala
setu
sety
sev
seven
sever
severne
severni
severoamericke
severoamericky
severoc
severojiz
severovy
severoza
severske
seversky
severu
sevilla
sevr
sex
sexu
sexua
sexual
seymour
sez
sezeni
sezna
seznam
seznamu
seznamy
sezo
sezon
sezona
sezone
sezonou
sezonu
sezony
sf
sfe
sfr
sg
sh
sha
shadow
shakespeare
shannon
sharon
shaw
she
sheet
sheffield
shell
ship
ships
shleda
shledal
shoda
shode
shodne
shodny
shoduje
shoduji
shop
shor
shora
short
shot
should
show
shows
shrnuti
shroma
shromaz
si
sia
siao
sibir
sic
sice
sich
sici
sicilske
sicilsky
sid
side
sidney
sie
siegfried
siemens
sien
sierra
sigma
sigmund
sigmunda
sign
signa
signata
signs
sii
sil
sila
silami
sili
silna
silne
silni
silnic
silnice
silnici
silnou
silny
silo
silou
silva
silver
sily
sim
simbad
simon
simona
simone
simple
simpson
simpsonovi
simpsonovy
simpsons
simula
simulace
sin
since
sinclair
sing
singapore
singapur
singapuru
singer
singl
single
singlem
singles
singlove
singlovy
singlu
singly
singula
sinojaponske
sio
sionisticke
sir
sira
sire
sirotc
sis
sit
site
sites
siti
situace
situaci
situova
sive
six
size
sj
sjedna
sjednocene
sjednoceni
sjezd
sjezdu
sji
sk
ska
skaji
skal
skala
skali
skalice
skalka
skalnate
skalnaty
skalni
skalo
skaly
skanda
skandina
skane
skany
skat
skaut
skautske
skautu
skc
ske
skem
ski
skie
skla
sklad
skladatel
skladatele
skladatelem
skladateli
skladatelka
skladatelu
skladba
skladbe
skladbou
skladbu
skladby
skladeb
skladis
skladova
skladu
sklady
sklena
sklene
skleni
sklenice
sklepy
skli
sklo
sklon
sklone
sklonku
sko
skoc
skok
skokan
skokem
skoku
skoky
skonc
skopje
skor
skoro
skot
skotska
skotske
skotsko
skotsku
skotsky
skotu
skou
skova
skovce
skovcove
skovcovy
skove
skovec
skovy
skp
skr
skra
skrec
skromne
skromny
skry
skryta
skryte
skryty
skrz
skrze
skslovan
sku
skupin
skupina
skupinami
skupine
skupinou
skupinove
skupinovy
skupinu
skupiny
skutec
skutek
skutku
skutky
skve
skvrn
skvrna
skvrnami
skvrny
sky
skyt
skytem
skytu
sl
sla
slaba
slabe
slabost
slabosti
slabs
slaby
sladka
sladke
sladkovodni
sladky
slalom
slalomu
slam
slane
slangove
slany
slatina
slav
slave
slavi
slavia
slavic
slavie
slavii
slavil
slavkov
slavna
slavne
slavni
slavnost
slavnosti
slavnostne
slavnostni
slavnou
slavny
slavoj
slavomi
sle
slec
slech
slechu
sled
sledci
sledek
sledkem
sledku
sledky
sledna
sledne
sledni
slednictvi
slednou
sledny
sledova
sledoval
sledovala
sledovali
sledovalo
sledovaly
sledovane
sledovany
sledovat
sledovne
sledovni
sleduje
sleduji
slem
slepa
slepe
slepic
slepice
slepy
slezska
slezske
slezsko
slezsku
slezsky
sli
slib
slibu
slibuje
sliby
slic
slice
slicemi
slitiny
slo
sloh
slohove
slohu
slon
sloni
slonoviny
slouc
sloup
sloupce
sloupci
sloupec
sloupky
sloupu
sloupy
slouz
slov
slova
slovakia
slovan
slovane
slovanska
slovanske
slovansky
slovanu
slovany
slovart
slove
slovech
slovem
slovenije
slovens
slovenska
slovenske
slovenskej
slovensko
slovenskou
slovensku
slovensky
sloves
slovesa
slovesnost
sloveso
slovi
slovins
slovinska
slovinske
slovinsko
slovinsku
slovinsky
slovky
slovne
slovni
slovnost
slovnosti
slovo
slovu
slovy
sloz
slu
sluc
sluch
sluchu
sluh
sluha
sluhou
sluhu
sluhy
sluje
slunce
sluncem
slunci
slunec
sluni
slus
sluz
sly
slys
slza
slzami
slzy
sm
sma
small
smart
smaz
smaza
sme
smec
smem
smen
smena
smene
smenem
smeno
smeny
smetana
smetanova
smetany
smi
smir
smith
smithsonian
smlouva
smlouve
smlouvou
smlouvu
smlouvy
smluv
smluvni
smo
smoli
smrc
smrk
smrkem
smrku
smrt
smrtelne
smrtelny
smrti
smrz
sms
smu
smutec
smutek
smutku
smutna
smutne
smutny
smy
smyc
smyk
smyku
smys
smysl
smyslem
smyslu
smysly
sn
sna
snad
snadne
snadno
snah
snaha
snahou
snahu
snahy
snaz
snaze
snazs
sne
sni
snic
snicka
snicke
snicky
snictvi
snil
sniz
snou
snow
snp
sns
sntl
snu
sny
so
soa
sob
soba
sobe
sobek
sobem
soben
sobena
sobene
sobeni
sobeno
sobenou
sobeny
sobi
sobil
sobila
sobili
sobilo
sobilosti
sobily
sobis
sobit
sobna
sobne
sobni
sobnost
sobnosti
sobnou
sobny
sobota
sobotka
sobotni
sobotu
sobou
sobova
sobovaci
sobovat
sobu
sobuje
sobuji
soby
soc
soccer
soccerway
soch
socha
sochami
sochar
sochou
sochu
sochy
socia
social
socialismu
socialismus
socialisticka
socialisticke
socialistickou
socialisticky
socie
society
sociolog
sociologicke
sociologicky
sociologie
sociologii
sodi
sodne
sodny
sofia
sofie
sofii
soft
software
softwarove
softwaru
sojka
sojuz
sojuzu
sokol
sokola
sokolov
sokolske
sol
sola
solar
solaris
soli
solidarity
solo
solun
som
soma
some
something
sommer
son
sona
sonda
sondy
song
songs
sons
sony
sopec
sopek
sophie
sopka
sopky
sopra
sor
sos
sost
sotva
sou
soube
souboj
souboje
souboji
soubor
souborem
souborne
souboru
soubory
souc
soud
soudce
soudcem
soudci
soudcu
soudem
soudi
souditi
soudni
soudnictvi
soudobe
soudoby
soudrz
soudu
soudy
souhla
souhlas
souhlasem
souhlasi
souhlasil
souhlasu
souhrn
souhrnne
souhve
soukroma
soukrome
soukromi
soukromou
soukromy
soukup
soul
souladu
soulu
soume
soumrak
soumraku
sound
soundtrack
souostrovi
souper
soupis
soupisu
souprava
soupravy
sour
source
sourozence
sourozenci
sourozencu
sous
soused
sousede
sousedi
sousedni
sousedstvi
sousedu
sousedy
sousos
soustava
soustave
soustavne
soustavou
soustavu
soustavy
soustr
soute
south
southern
soutokem
soutoku
souviseji
souvisi
souvisle
souvislost
souvislosti
souvisly
souvrstvi
souz
sova
sove
soviet
sovy
sp
spa
space
spacex
spada
spadaji
spadala
spadl
spadla
spadne
spain
spal
spalova
spalovaci
spani
spanish
spark
spart
sparta
spartak
sparte
spartu
sparty
spaseni
spasitele
spatr
spd
spe
specia
special
specialista
specializaci
specializoval
specializovane
specializovany
specializuje
specializuji
species
specificka
specificke
specifickou
specificky
specifikace
spectrum
speed
speedskatingnews
spektra
spektrum
spekulace
spekulaci
spencer
spi
spider
spiegel
spielbericht
spiknuti
spin
spira
spirit
spiritua
spis
spisech
spisovatel
spisovatele
spisovatelem
spisovateli
spisovatelka
spisovatelky
spisovatelu
spisovne
spisu
spisy
spjata
spjaty
spla
split
spln
splne
splnil
splnit
sply
spn
spo
spoc
spodni
spoj
spoje
spojen
spojena
spojence
spojenci
spojencu
spojene
spojenecke
spojenecky
spojenectvi
spojeni
spojeno
spojenou
spojeny
spoji
spojil
spojila
spojili
spojily
spojit
spojitost
spojka
spojky
spojova
spojovaci
spojovala
spoju
spojuje
spojuji
spokojen
spokojene
spol
spole
spolec
spolehlive
spolehlivosti
spolehlivy
spolek
spolkem
spolkova
spolkove
spolkovy
spolku
spolky
spoloc
spolu
spoluautor
spoluautorem
spoluhra
spolupra
spolupracoval
spolupracovala
spolupracovali
spolupracovat
spolupracovni
spolupracuje
spolupracuji
spoluz
spoluzakla
spoluzakladatel
spoluzakladatelem
spoluzaloz
sponta
spor
sporech
sporne
sporny
sport
sportech
sportovci
sportovcu
sportovec
sportovni
sports
sportu
sporty
sporu
spory
spotr
spous
spousta
spoustu
spr
spra
spravedlive
spravedlivy
spravedlnost
spravedlnosti
spravova
spravoval
spravuje
spring
springer
springfield
springfieldu
springs
sprint
sprintu
spu
spus
spusti
spustil
spustila
spustit
spy
spz
sql
sqrt
squad
square
sr
sra
sraz
srb
srbochorvats
srbove
srbs
srbska
srbske
srbsko
srbskou
srbsku
srbsky
srbu
srdc
srdce
srdcem
srdci
srdec
sri
srn
srostle
srostly
srov
srovna
srovnatelne
srovnej
srp
srpen
srpna
srpnu
srs
srst
srsti
srv
ss
ssd
sseldorf
ssr
sssr
st
sta
stabilitu
stability
stabilni
stac
stade
stadio
stadion
stadionu
stadium
stadt
staff
stage
stahova
staji
stal
stala
staleti
stali
stalin
stalina
stalo
stalost
stalosti
staly
stan
stand
standard
standardne
standardni
standardu
standardy
stane
stanford
stanic
stanice
stanicemi
stanici
stanislav
stanislava
stanisław
stanley
stanou
stanoven
stanovena
stanovene
stanoveni
stanoveno
stanoveny
stanovi
stanovil
stanovis
stanoviska
stanovisko
stanovit
stanovuje
stanovy
stanu
stanul
star
stara
staral
starala
starat
stare
stark
starobyle
starobyly
staroc
staroda
starome
staror
staroslove
starost
starosta
starosti
starostou
starostove
starostu
starosty
starou
starove
staroz
stars
start
startem
startovaci
startoval
startovala
startovat
startovni
startu
startuje
startuji
stary
stas
stat
statci
state
statec
statek
statement
states
stati
staticke
staticky
station
statisticke
statisticky
statistics
statistik
statistika
statistiky
statka
statkem
statku
statky
stats
status
statusu
statut
statuta
statutu
stav
stava
stavba
stavbami
stavbe
stavbou
stavbu
stavby
stave
staveb
stavebne
stavebni
stavebnictvi
stavech
stavem
staveni
stavi
stavis
stavitel
stavitele
stavitelem
stavitelstvi
stavni
stavoda
stavou
stavove
stavovske
stavu
stavy
staz
stb
ste
stec
stech
stecke
stecky
steel
stefan
stefano
stehli
stein
steiner
stejna
stejne
stejnojmenna
stejnojmenne
stejnojmennou
stejnojmenny
stejnopohlavni
stejnosme
stejnou
stejny
stejskal
stek
stella
stem
stenograficky
stenprot
step
stephan
stephanie
stephen
stepi
stepni
stern
sterreich
sterreichische
sterreichischen
sterreichisches
stev
steve
steven
stevens
stevni
stewart
stezce
stezka
stezky
sti
stic
stice
stiftung
stihl
stil
stila
stili
still
stilo
stily
stin
stipendium
stit
stiz
stka
stkem
stkou
stku
stky
stlac
stmi
stna
stnance
stnanci
stnancu
stnanec
stnanost
stnanosti
stnany
stnavatele
stne
stni
stnost
stnosti
stny
sto
stoc
stock
stockholm
stockholmu
stodola
stodrz
stodu
stoji
stojne
stojni
stojnost
stojnosti
stokra
stol
stolce
stole
stolec
stoleti
stolic
stolice
stolici
stolni
stolu
stone
stones
stonku
stop
stopa
stopis
stopisne
stopisny
stopka
stopr
stopu
stopy
store
stories
storm
story
stoupa
stoupaji
stoupavost
stoupenci
stoupencu
stoupla
stova
stoval
stovane
stovany
stovat
stove
stovek
stovky
stovy
stoz
str
stra
strach
strachem
strachu
straight
straka
strakonice
stran
strana
stranami
strane
strange
strani
stranicke
stranicky
stranou
stranu
strany
stras
strategicke
strategicky
strategie
strategii
strauss
stravy
straz
straße
strc
stream
street
strike
striktne
string
strme
strmy
strnad
stroj
stroje
strojem
stroji
strojni
strojove
stroju
strojvedouci
strom
strome
stromech
stromem
stromu
stromy
strone
strong
strop
stropni
stropu
stropy
stru
struc
structure
struktur
struktura
strukturni
strukturou
strukturu
struktury
struny
stry
strz
sts
stska
stske
stskou
stsky
stu
stuart
studa
stude
studena
studene
student
studenta
studenti
studentske
studentsky
studentu
studenty
studeny
studia
studie
studiem
studies
studii
studijni
studio
studios
studiova
studiove
studiovy
studiu
studium
studna
studny
studoval
studovala
studovat
studovna
studuje
studuji
study
stuha
stuje
stuji
stup
stupce
stupcem
stupci
stupcu
stupem
stupen
stupis
stupn
stupna
stupne
stupni
stupnice
stupnici
stupnictvi
stupny
stupove
stupu
stupy
stuttgart
stuttgartu
stuz
stuze
stv
stva
stvem
stvi
stvo
stvor
stvu
sty
styk
styku
styky
styl
style
stylem
stylu
styly
stys
styse
su
sua
sub
subjekt
subjektivni
subjektu
subjekty
subsp
substantiva
substra
subtropicke
sucha
suchdol
suche
sucho
suchou
suchy
sud
sudek
sudetone
sudi
sue
sui
suita
suite
suk
sukne
sullivan
sulta
sultan
sultana
sum
suma
summary
summer
summit
sun
sunday
sung
super
superpoha
superstar
support
supraphon
sur
surface
surove
surovin
suroviny
survey
sus
susan
sut
sutere
suvere
suz
suzanne
suzuki
sv
sva
svah
svahu
svahy
sval
svalu
svaly
svar
svata
svatba
svatbe
svatbu
svatby
svate
svatebni
svati
svatoja
svatopluk
svatopluka
svator
svatos
svatou
svatova
svatovi
svaty
svatyne
svatyni
svaz
svazci
svazek
svazem
svazi
svazku
svazky
svazu
sve
sven
svet
svi
svisle
svisly
svit
svita
svitavy
svitu
svle
svobod
svoboda
svobode
svobodna
svobodne
svobodni
svobodnou
svobodny
svobodova
svobodu
svobody
svoje
svoji
svola
svolal
svoleni
svou
svrchni
svrchu
svrz
svu
svy
swe
sweb
sweden
swedish
sweet
swift
swiss
sy
sydney
sylva
sylvia
symbol
symbolem
symbolicke
symbolicky
symbolizuje
symbolizuji
symbolu
symboly
symetricky
symfonicke
symfonicky
symfonie
symfonii
sympatie
symphony
symptomy
syn
syna
synagoga
synagogy
syndrom
synem
synonymum
synovce
synove
synovec
synovi
synte
synteticky
synteza
synthesis
synu
syny
syrske
syrsky
syste
system
systematic
systematicke
systematicky
systems
syte
sz
sza
sze
szlo
szo
sɛ
t
ta
tab
taba
table
tables
tabulce
tabule
tabulek
tabuli
tabulka
tabulku
tabulky
tac
tachov
taci
tadea
tadeusz
tady
tafeta
tafete
tafety
tag
tagblatt
tah
tahem
tahu
tahy
tai
taiwan
taje
tajemne
tajemni
tajemny
tajemstvi
taji
tajna
tajne
tajnosti
tajnou
tajny
tak
take
takes
takhle
takova
takove
takovi
takovou
takovy
takr
takte
takticke
takticky
takto
taky
takz
takzvana
takzvane
takzvany
tal
tala
tale
talent
talentu
tales
tali
talk
talks
tallinn
talo
taly
tam
tame
tami
tamni
tamte
tan
tana
tanc
tance
tanci
tancu
tane
tanec
tank
tankove
tankovy
tanku
tanky
tany
tao
tar
tas
tasma
tat
tata
tatar
tate
tater
tati
tatisticky
tato
tatra
tatran
tatry
tau
tave
taxi
taxon
taxonu
taylor
taz
tb
tbilisi
tc
tce
tch
tcha
tchaj
tchang
tchien
tci
tcp
tcu
te
team
teams
teatro
teau
tebe
tebou
tec
tech
technet
technical
technice
technicka
technicke
technickou
technicky
technik
technika
technikou
techniku
techniky
technologicka
technologicke
technologicky
technologie
technologies
technologii
technology
ted
teda
tedy
teen
tefa
tefan
tehda
tehdejs
tehdy
tehera
teina
tej
tejn
tejna
tejne
tejnem
tejnska
tejnske
tejnsky
tejnu
tek
tekouci
tekutiny
tel
telc
tele
telefon
telefonni
telefonu
telefony
telegrafni
telegraph
telekomunikac
telem
television
televize
televizi
televizni
teli
telil
telkyne
telkyni
tell
telne
telny
telske
telsky
telstvi
telu
tely
tem
tematicky
tematikou
teme
temna
temne
temnou
temny
templa
temple
tempo
ten
tena
tendence
tendenci
tene
tenhle
teni
tenis
tenisova
tenisove
tenisovy
tenisportal
tenista
tenistka
tenistu
tenisu
tenka
tenke
tenkra
tenky
tennessee
tennis
teno
tenor
tenstvi
tento
tentokra
tenty
teny
teolog
teologicka
teologicke
teologicky
teologie
teologii
teoreticke
teoreticky
teoretik
teorie
teorii
tepelne
tepelny
tepla
teple
teplejs
teplic
teplice
teplici
teplo
teplot
teplota
teplote
teplotni
teplotou
teplotu
teploty
teplou
teply
teprv
teprve
ter
tera
terapie
terapii
terasa
terasy
terc
tercia
tere
terem
teresa
tereza
terezi
terezie
terie
teritoria
teritorium
term
terma
termi
termina
terminologie
terminologii
ternberk
ternberka
terni
terorismu
teroristicke
teroristicky
terra
terror
terry
terstu
teru
tery
tes
tesar
tesla
test
testech
testova
testovaci
testu
testy
tesu
tesy
teta
tetova
tetr
tev
tex
texas
texasu
text
textar
textech
textem
textilie
textilii
textilni
textove
textovy
textu
texty
tez
tf
th
tha
thajsko
thajsku
than
that
thdr
the
theater
theatre
their
them
then
theodor
theodora
theodore
theorie
theory
there
these
theta
they
thing
things
think
third
this
thomas
thomase
thompson
thomson
thor
thought
thra
threatened
three
thriller
through
thu
thun
thurn
ti
tibet
tibetske
tibetsky
tibetu
tibor
tic
tice
ticha
tiche
ticho
tichomor
tichy
tici
tico
tie
tienne
tiger
tihodnosti
til
tila
tilete
tilety
tili
tilia
tilo
tily
tim
time
times
timi
timo
timothy
tin
tina
tinami
tine
tinou
tinu
tiny
tip
tis
tisi
tisk
tiska
tiskar
tiskem
tiskova
tiskove
tiskovy
tisku
tisky
tit
tita
titan
titanic
titel
titele
titelnice
titi
title
tito
titou
titul
titula
titulem
titulky
titulni
titulu
tituly
titus
tiv
tiva
tive
tivy
tj
tk
tka
tkami
tkaniny
tke
tkem
tko
tkodobe
tkou
tkova
tkove
tkovice
tkovou
tkovy
tkra
tku
tky
tl
tla
tlac
tlak
tlakem
tlakove
tlaku
tlana
tle
tlejs
tlem
tleni
tli
tlil
tlit
tlo
tlou
tlous
tlova
tluc
tluje
tluji
tlumic
tlumoc
tluste
tlusty
tly
tm
tma
tmava
tmave
tmavs
tmavy
tme
tmi
tmy
tn
tna
tne
tnem
tni
tnice
tnici
tno
tnost
tnosti
tnou
tnout
tnove
tnu
tnut
tnuta
tnuti
tny
to
tobe
tobia
tobias
tobolka
toc
toce
toci
today
todd
tof
tofa
together
tohle
toho
tohoto
tok
toka
tokem
tokijske
tokio
tokiu
toku
toky
tokyo
tol
tola
tolerance
toleranci
tolik
toliko
tolkien
tolske
tolsky
tolu
toly
tom
toma
toman
tomas
tomatoes
tomek
tomen
tomes
tommy
tomna
tomne
tomni
tomnost
tomnosti
tomny
tomorrow
tomte
tomto
tomu
tomuto
ton
toni
tony
too
top
topeni
topic
topol
topola
topra
tor
tora
torem
torka
torkou
torna
toronto
torontu
torovi
torpe
torre
torske
torsky
toru
tory
torzo
tos
toska
tost
tosti
tot
tota
total
totalitni
tote
totiz
toto
totoz
tottenham
tou
touch
touha
touhou
touhu
touhy
toulouse
tour
tournament
tours
tous
touto
touz
tov
tova
tovac
toval
tovarys
tovat
tove
tovi
tovne
tovni
tovou
tovy
tower
town
toxicky
toyota
toz
tozna
tozor
tp
tr
tra
track
trade
tradic
tradice
tradici
trage
tragicke
tragicky
trailer
train
traji
trakc
trakta
traktu
tral
trala
tramvaj
tramvaje
tramvaji
tramvajova
tramvajove
tramvajovy
trans
transakce
transakci
transfer
transfermarkt
transforma
transformace
transformaci
transkripce
translation
transport
transporte
transportni
transportu
tranzitivni
tras
trasa
trasburku
trase
trasou
trasu
trasy
trat
trate
trati
travel
travnate
travnaty
trc
tre
treatment
tree
trefil
trek
trem
trenc
trend
trendu
trendy
trene
tres
trest
tresta
trestem
trestne
trestni
trestny
trestu
tresty
trevor
trh
trha
trhu
trhy
tri
tria
trial
tribuna
tribune
tribute
trilogie
trinity
trio
tristan
triton
triumf
triumfa
triumfu
trna
trnava
trnave
trne
trni
trnka
trnostni
trny
tro
trochu
trofej
trofeje
trofeji
trois
troja
trojan
trojc
troji
trojice
trojici
trojlodni
trojna
trojrozme
troju
trolejbusova
trolejbusu
trolejbusy
tropech
trophy
tropical
tropicke
tropicky
tros
troska
trosky
trpasli
trpaslic
trpe
trpi
trpne
tru
trubek
trubic
trubice
trubka
trubky
true
truhla
trump
trup
trupem
trupu
trust
truth
trutnov
trva
trvaji
trval
trvala
trvale
trvalo
trvaly
trvat
try
trz
trzi
ts
tska
tske
tsko
tskou
tsky
tstvi
tsunami
tt
tte
tter
tu
tuberkulo
tuc
tudi
tudy
tuha
tuhe
tuhle
tuhy
tuk
tuku
tula
tun
tunel
tunelem
tunelu
tunely
tung
tunisko
tuny
tupe
tur
turbi
turbo
turc
turci
turec
turecka
turecke
turecko
tureckou
turecku
turecky
turek
turi
turiste
turisticka
turisticke
turistickou
turisticky
turistika
turistiky
turistu
turisty
turkey
turku
turky
turn
turnaj
turnaje
turnajem
turnaji
turnajove
turnajovou
turnaju
turne
turner
turnov
tus
tuto
tuz
tuze
tv
tva
tvar
tvarech
tvarem
tvarna
tvarne
tvarni
tvarnice
tvarny
tvaru
tvary
tve
tvemi
tvene
tveny
tver
tverce
tvercove
tvercovy
tverec
tvi
tvic
tvoje
tvoji
tvor
tvorba
tvorbe
tvorbou
tvorbu
tvorby
tvoru
tvory
tvou
tvrda
tvrde
tvrdi
tvrdil
tvrdili
tvrdou
tvrdy
tvrt
tvrta
tvrte
tvrtek
tvrtfina
tvrti
tvrtiny
tvrtleti
tvrtou
tvrty
tvrz
tvrze
tvrzeni
tvrzi
tvu
tvy
twitter
twitteru
two
txt
ty
tyc
tyden
tygr
tyl
tyla
tyler
typ
type
typech
typem
typicka
typicke
typickou
typicky
typove
typovy
typu
typy
tyr
tyrolsku
tyrs
tyry
tys
tyto
tz
tze
tzn
tzv
u
ua
ubi
ubli
ubohe
ubohy
ubomi
ubra
ubuntu
uby
ubytova
ubytovaci
uc
uce
ucha
uchazec
ucho
uchova
uchra
uchva
uchy
uci
ucti
uda
ude
uder
udi
udovi
udrz
udy
uefa
ufo
uh
uha
uhelne
uhelny
uher
uherc
uherska
uherske
uhersko
uhersku
uhersky
uhli
uhlic
uhlovodi
uhr
uhra
uj
ujal
ujala
ujc
uje
ujedna
ujeme
uji
ujis
ujme
ujte
uk
uka
ukazatel
ukazatele
ukazoval
ukazuje
ukazuji
ukla
ukonc
ukor
ukr
ukraine
ukrajina
ukrajinci
ukrajine
ukrajins
ukrajinska
ukrajinske
ukrajinsky
ukrajinu
ukrajiny
ukry
uku
uky
ul
ula
ulc
ule
ulehc
uli
ulic
ulice
ulicemi
ulici
ulovy
uloz
ulrich
ultima
ultimate
ultra
uly
um
umava
umave
umavske
umavy
umberto
ume
umi
umist
umoz
umperk
umr
umuc
umy
un
una
und
under
underground
une
unesco
ung
uni
unic
unicode
unie
unii
unika
unikl
uniknout
uninit
union
unit
unita
united
univ
universal
universe
universita
universite
university
univerza
univerzit
univerzita
univerzite
univerzitni
univerzitou
univerzitu
univerzity
unix
unter
until
up
upa
upadl
update
updated
upe
upevn
upevne
upi
uplatn
uplatne
uplatnil
uplatnit
uplynuti
upni
upomi
upon
upouta
upozorn
upozorne
upozornil
upper
upr
upraven
upravena
upravene
upraveno
upraveny
upravi
upravil
upravit
upravova
upravuje
upravuji
uprchl
uprchli
uprchnout
uprostr
upy
ur
ura
uran
uranu
uraz
urba
urban
urbana
urc
uri
url
urna
urnalista
urnalistiky
urovna
urs
uruguay
us
usa
usadil
usadila
usadili
usaf
usb
usd
use
used
usedl
usedlost
usedlosti
user
usgs
usi
usiloval
usilovat
usiluje
usiluji
using
uskupeni
uskutec
uslys
usma
usme
usmi
usnadn
usnadne
usneseni
usnul
uspe
uspokojeni
uspor
usr
uss
ust
usta
ustanoven
ustanovena
ustanoveni
ustanovil
ustaveni
ustavic
ustavuji
ustoupil
ustoupit
ustupuji
usve
ut
uta
utah
utc
ute
utec
utekl
utekla
utf
uti
utis
utka
utkal
utkalo
utlac
utrpe
utrpeni
utrz
utva
utvor
uv
uva
uvar
uvaz
uve
uveden
uvedena
uvedene
uvedeni
uvedeno
uvedeny
uvedl
uvedla
uvedli
uvedlo
uver
uvi
uvide
uvidi
uvnitr
uvoln
uvolne
uz
uza
uzavi
uzavr
uzbekista
uzdraveni
uzel
uzlu
uzly
uzna
uznal
uznala
uznat
uzpu
uzr
v
va
vac
vacat
vaccine
vacek
vaci
vaculi
vad
vada
vady
vadz
vago
vagr
vah
vaha
vahu
vahy
vaje
vajec
vaji
vakci
val
vala
valas
valc
valds
vale
valem
valenou
valenta
valentin
valentina
valerij
vali
valka
valle
valley
valna
valne
valo
valois
valou
valu
value
valy
vami
van
vana
vanc
vancouver
vancouveru
vanda
vane
vani
vanou
vany
var
varech
varepsilon
varhan
varhana
varhani
varhanni
varhany
variabilni
variace
variant
varianta
variante
variantou
variantu
varianty
variety
varnsdorf
varny
varova
varoval
varphi
vars
varu
varuje
vary
vas
vascular
vasilij
vasiljevic
vat
vati
vatika
vavr
vaz
vazba
vazbe
vazbou
vazbu
vazby
vazeb
vazek
vazku
vazky
vazne
vaznosti
vazny
vb
vc
vce
vcelku
vcem
vcha
vchod
vchodem
vchodu
vci
vcu
vda
vdala
vdana
vde
vdova
vdovou
vdovy
ve
vec
vece
vech
vecke
vecky
ved
veda
vede
veden
vedena
vedene
vedeni
vedeny
vedl
vedla
vedle
vedlejs
vedli
vedlo
vedly
vedou
vedouci
veduta
vega
vegas
vegetac
vegetace
vegetaci
vegetaria
vej
vejc
vejce
vejci
vejde
vejk
vejka
vejte
vek
vektor
vektoru
vel
velci
velehrad
velel
veleni
veletrhu
veli
velic
velice
velika
velike
velikonoc
velikost
velikosti
velikou
veliky
velitel
velitele
velitelem
veliteli
velitelske
velitelstvi
velitelu
velka
velke
velkokni
velkokr
velkolepe
velkolepy
velkome
velkostatek
velkostatka
velkostatku
velkou
velkove
velky
velmi
velmistr
velmoci
velmoz
velryba
vels
velvet
velvyslance
velvyslancem
velvyslanec
velvyslanectvi
vem
ven
vene
venezuela
veni
venkov
venkova
venkove
venkovni
venkovska
venkovske
venkovsky
venku
ventila
venus
veny
vepr
ver
vera
verdi
verein
verlag
verne
verner
verona
veronica
veronika
vers
versailles
version
versus
vertebrate
vertika
very
verze
verzi
ves
vesela
vesele
veseli
vesely
vesista
veslar
vesme
vesmi
vesnic
vesnice
vesnicemi
vesnici
vesnicke
vesnicky
vestave
vestfa
vesy
vetera
veterina
vetr
veverka
vez
vezme
vezmi
vfolyam
vg
vhodna
vhodne
vhodnou
vhodny
vi
via
viadukt
vic
vice
viceprezident
vichr
vici
vickers
vicko
victor
victoria
victory
vid
vida
vide
videa
videi
video
videohry
videoklip
videoklipu
vidi
viditelna
viditelne
viditelny
vie
vienna
vietnam
vietnamske
vietnamsky
vietnamu
view
vii
viii
vika
vikaria
viking
viktor
viktora
viktoria
viktorie
viktorii
vil
vila
vile
vilemi
vili
viliam
villa
village
ville
villeneuve
vilo
vilu
vily
vin
vina
vinar
vincenc
vincence
vincent
vinci
vine
vini
vinic
vinice
vinici
vinna
vinne
vinny
vinohradech
vinohradske
vinohrady
vinou
vinu
viny
viola
violoncello
violu
virgin
virginia
virginie
virginii
virtua
virtual
viru
virus
viry
vis
visi
vision
visla
visle
visli
vislost
vislosti
vislou
visly
vist
vista
visti
visual
vit
vita
vitami
vitra
viz
vize
vizi
vizigo
vizua
vjac
vjezd
vka
vkami
vkem
vkla
vkladatele
vko
vkou
vkova
vkove
vkovy
vkroc
vku
vky
vkyne
vl
vla
vlach
vlada
vladar
vladimi
vladimir
vladimira
vladislav
vladislava
vladyka
vlajce
vlajek
vlajka
vlajkou
vlajku
vlajky
vlak
vlakem
vlakove
vlaku
vlaky
vlas
vlasa
vlast
vlasta
vlastenec
vlastenecke
vlastenecky
vlastenectvi
vlasti
vlastimil
vlastive
vlastne
vlastni
vlastnicke
vlastnictvi
vlastnil
vlastnila
vlastnili
vlastnost
vlastnosti
vlastnostmi
vlasu
vlasy
vlc
vlci
vle
vlec
vlevo
vlhke
vlhkost
vlhkosti
vlhky
vli
vliv
vlivem
vlivne
vlivny
vlivu
vlivy
vlk
vlka
vlku
vln
vlna
vlne
vlnou
vlnove
vlnu
vlny
vloz
vltava
vltave
vltavou
vltavy
vna
vnaty
vne
vni
vnic
vnicka
vnicke
vnickou
vnicky
vnitr
vnitra
vnitrosta
vnitrozemi
vno
vnost
vnosti
vnou
vnuc
vnuk
vnuka
vnukem
vny
vo
voc
vod
voda
vodc
vodce
vodcem
vodci
vode
vodech
vodem
vodi
vodic
vodil
vodkyne
vodkyni
vodn
vodne
vodni
vodohospoda
vodopa
vodorovne
vodorovny
vodou
vodove
vodovi
vodovod
vodstvi
vodu
vody
vogue
voice
void
voj
voja
voje
vojem
vojenska
vojenske
vojenskou
vojensky
vojenstvi
vojevu
voji
vojna
vojne
vojnu
vojove
vojovy
vojsk
vojska
vojskem
vojsko
vojsku
vojsky
vojta
vojte
vojti
vojvodstvi
vok
voka
vokativ
vol
vola
volaji
volal
volavky
volba
volbami
volbe
volbou
volbu
volby
volcano
voleb
volebni
volen
voleni
voleny
volf
voli
volic
volit
volkswagen
volna
volne
volno
volnost
volnosti
volnou
volny
volume
volvox
volyn
vom
von
vondra
voni
vonne
vonny
vor
vora
vorce
vorka
vos
votobia
vou
vous
vousy
vova
voval
vovala
vovane
vovat
vove
vovy
voyage
voyager
voz
voze
vozech
vozem
vozi
vozidel
vozidla
vozidlo
vozove
vozovna
vozu
vozy
vp
vpa
vpr
vpravo
vr
vra
vraceji
vracel
vraci
vrah
vraha
vrahu
vranov
vrat
vrata
vrate
vratislav
vratislava
vratislavi
vratislavske
vratislavsky
vratne
vratu
vraty
vraz
vrba
vrch
vrchem
vrchlabi
vrchlicky
vrchni
vrchnost
vrchnosti
vrchol
vrcholem
vrcholi
vrcholku
vrcholne
vrcholny
vrcholove
vrcholovy
vrcholu
vrcholy
vrchovina
vrchovine
vrchoviny
vrchu
vrchy
vrh
vrha
vrhem
vrhl
vrhu
vrhy
vrouci
vroucne
vrs
vrstev
vrstevni
vrstva
vrstvami
vrstve
vrstvou
vrstvu
vrstvy
vrta
vrtule
vrtuli
vrtulni
vru
vry
vrz
vs
vseti
vsi
vska
vske
vskutku
vsky
vsta
vstal
vstoupi
vstoupil
vstoupila
vstoupili
vstoupilo
vstoupily
vstoupit
vstr
vstup
vstupem
vstupni
vstupu
vstupuje
vstupuji
vstupy
vta
vte
vter
vtip
vtipu
vtj
vtom
vu
vuelta
vuje
vuji
vulga
vulgaris
vulka
vulkanicke
vut
vy
vybaven
vybavena
vybavene
vybaveni
vybaveno
vybaveny
vybe
vybere
vybi
vybojoval
vybojovala
vybra
vybral
vybrala
vybrali
vybralo
vybrane
vybrany
vybrat
vybudova
vybudoval
vybudovali
vybudovane
vybudovany
vybudovat
vyc
vycha
vychodil
vychova
vycvic
vyd
vyda
vydal
vydala
vydali
vydalo
vydana
vydane
vydany
vydat
vydavatel
vydavatele
vydavatelem
vydavatelstvi
vyde
vydi
vydr
vydra
vydrz
vyha
vyhla
vyhlas
vyhleda
vyhledejte
vyhli
vyhna
vyhnal
vyhnanstvi
vyhnout
vyhnul
vyhodnoceni
vyhor
vyhos
vyhove
vyhovuji
vyhra
vyhrany
vyhroz
vyhy
vyhynuly
vyja
vyjadr
vyjde
vyjedna
vyjel
vyji
vyjma
vyka
vykazuje
vykazuji
vykla
vykona
vykonal
vykonat
vykopa
vykor
vykr
vyle
vyleps
vyli
vylode
vylouc
vyloz
vyluc
vyma
vyme
vymezene
vymezeni
vymezeny
vymezuje
vymi
vymr
vymy
vymys
vymyslel
vyn
vyna
vynalezl
vynaloz
vynecha
vynesl
vynesla
vynika
vynikaji
vynikal
vynikl
vynor
vyobrazen
vyobrazeni
vypa
vypada
vypadaji
vypadal
vypadalo
vypadat
vypadl
vypadla
vype
vypi
vypla
vyplene
vypln
vyplne
vyply
vypoc
vypor
vypous
vypove
vypovi
vypra
vypracova
vypracoval
vyprave
vypravil
vypravova
vypravoval
vypravuje
vyprs
vypsa
vypu
vypukl
vypukla
vypuklo
vypuknuti
vypus
vyr
vyra
vyraz
vyrazil
vyroben
vyrobena
vyrobene
vyrobeno
vyrobeny
vyrobil
vyrobila
vyrobit
vyrostl
vyrostla
vyrovna
vyrovnal
vyrovnane
vyrovnat
vyru
vyrus
vys
vysa
vysi
vyskoc
vyskytovat
vyskytuje
vyskytuji
vysla
vyslal
vyslancem
vyslanec
vysledky
vyslouz
vyslovil
vyslovuje
vysly
vyslys
vysoc
vysoce
vysoka
vysoke
vysoko
vysokorychlostni
vysokos
vysokou
vysoky
vyspe
vystave
vystaven
vystavena
vystaveni
vystaveno
vystaveny
vystavova
vystavoval
vystavuje
vyste
vystoupeni
vystoupi
vystoupil
vystoupila
vystoupili
vystoupit
vystr
vystudoval
vystudovala
vystupova
vystupoval
vystupovala
vystupovali
vystupovat
vystupuje
vystupuji
vysus
vysve
vyta
vyte
vytesa
vyti
vytis
vytlac
vytr
vytrvala
vytrvale
vytrvaly
vytrz
vytva
vytvor
vyty
vytyc
vyu
vyuc
vyuz
vyva
vyve
vyvi
vyvinout
vyvinul
vyvinula
vyvinulo
vyvinuly
vyvinut
vyvinuta
vyvinute
vyvinuty
vyvola
vyvolal
vyvolala
vyvolalo
vyvolat
vyvra
vyvraz
vyvrcholeni
vyvy
vyz
vyzar
vyzbrojeny
vyzkous
vyzna
vyznac
vyznamena
vyznamenal
vyznavac
vyzra
vyzva
vyzval
vyzvala
vyzve
vyzy
vz
vza
vzadu
vzal
vzala
vzali
vzbour
vzbudil
vzbudila
vzda
vzdal
vzdala
vzdali
vzde
vzdor
vzduch
vzduchem
vzduchu
vzdus
vzes
vzestup
vzestupu
vzhled
vzhledem
vzhledu
vzhu
vzi
vzkr
vzkve
vzle
vzletova
vzletu
vzna
vzne
vznes
vznik
vznika
vznikaji
vznikala
vznikaly
vznikat
vznikem
vznikl
vznikla
vznikle
vzniklo
vznikly
vznikne
vzniknout
vzniku
vzor
vzorce
vzorcem
vzorci
vzorec
vzorek
vzorem
vzorku
vzorky
vzoru
vzory
vzpe
vzpi
vzpomi
vzpomne
vzpour
vzpoura
vzpouru
vzpoury
vzpr
vzrostl
vzrostla
vzru
vzrus
vztah
vztahem
vztahu
vztahuje
vztahuji
vztahy
vztaz
vztazi
vztyc
vzy
w
wa
waffen
wagner
wagnera
wales
walesu
walk
walker
wall
wallace
walt
walter
waltera
walther
wan
wang
want
wanu
war
ward
warner
warren
wars
warszawa
was
washington
washingtonu
watch
water
waterloo
waters
watson
wave
way
wayback
wayne
wc
we
web
weber
webnode
webova
webove
webovy
website
webster
webu
week
weekly
wehrmachtu
weiss
wej
welcome
well
wells
welt
wen
wenzel
were
werk
werner
wesley
west
western
weston
what
whc
when
where
which
while
whisky
white
whitney
who
why
wi
wide
wie
wien
wiener
wiki
wikicita
wikidruzi
wikimedia
wikipedia
wikipedie
wikipedii
wikislovni
wikizdroje
wikizdroji
wikizpra
wild
wilde
wildlife
wiley
wilhelm
wilhelma
will
willem
william
williama
williamem
williams
williamsova
willis
willy
wilson
wimbledon
wimbledonu
win
wind
windows
windsor
wing
wings
winners
wins
winston
winter
wisconsin
wissenschaften
with
within
without
wo
wolf
wolfgang
wolfganga
wolfram
wolves
woman
women
won
wonder
wood
woods
word
words
work
working
works
world
worldfootball
worlds
worldwide
would
wp
wrc
wrestling
wright
write
ws
wta
wu
wwe
www
wz
x
xaver
xavier
xbox
xi
xico
xii
xiii
xiv
xix
xml
xp
xu
xv
xvi
xvii
xviii
xx
xxi
xxii
xxiii
xxx
y
ya
yahoo
yale
yang
year
years
yellow
yes
yo
york
yorkshire
yorku
you
young
your
youth
youtube
yu
yves
z
za
zabe
zabezpec
zabi
zabija
zabije
zabil
zabila
zabili
zabit
zabiti
zabito
zabity
zabloudil
zabra
zabran
zaby
zac
zacha
zacharia
zachova
zachoval
zachovala
zachovalo
zachovaly
zachovane
zachovany
zachovat
zachra
zachran
zachva
zachve
zachyceni
zachyceny
zachycuje
zachycuji
zachytil
zachytit
zaci
zad
zada
zadarmo
zadec
zadluz
zadni
zadrz
zagreb
zaha
zahajovaci
zahle
zahor
zahr
zahra
zahrad
zahrada
zahrade
zahradni
zahradnictvi
zahradou
zahradu
zahrady
zahranic
zahranici
zahranicni
zahrnoval
zahrnovala
zahrnovalo
zahrnovaly
zahrnovat
zahrnuje
zahrnuji
zahrnuta
zahrnuty
zahynul
zahynuli
zahynulo
zajat
zajatce
zajatci
zajatcu
zajaty
zajec
zajeti
zaji
zajis
zajiste
zajisti
zajistil
zajistila
zajistit
zaka
zakazuje
zakla
zakladatel
zakladatele
zakladatelem
zakladateli
zakladatelu
zakli
zakonc
zakor
zakoupeni
zakoupil
zakoupila
zakoupit
zakr
zakroc
zakry
zal
zala
zale
zalesne
zali
zalidne
zalo
zaloz
zaly
zamarovsky
zame
zami
zamiloval
zamilovany
zamiluje
zamlc
zamrza
zamy
zamys
zana
zane
zanecha
zanechal
zanedba
zanedlouho
zani
zanika
zanikl
zanikla
zanikle
zaniklo
zanikly
zanou
zany
zaopatr
zapa
zapi
zapisuje
zaplaceni
zaplati
zaplatil
zaplatit
zapoc
zapojeni
zapojeny
zapojil
zapojila
zapojit
zapomenute
zapomenuty
zapomi
zapomne
zapotr
zapove
zapr
zapsa
zapsal
zapsany
zapsat
zapu
zar
zara
zaru
zaruc
zas
zasa
zasadil
zasahovat
zasahuje
zasahuji
zasaz
zase
zaseda
zasedal
zasedl
zasi
zaskoc
zasli
zaslouz
zasma
zasnoubeni
zasta
zastarale
zastaraly
zastave
zastaven
zastavena
zastaveni
zastavi
zastavil
zastavila
zastavili
zastavit
zastavuji
zasti
zastoupen
zastoupena
zastoupeni
zastoupeny
zastr
zastras
zastupitel
zastupitele
zastupitelem
zastupitelstev
zastupitelstva
zastupitelstvi
zastupitelstvo
zastupitelstvu
zastupoval
zastupuje
zastupuji
zasve
zasypa
zat
zata
zatc
zate
zati
zatlac
zatme
zato
zatr
zaty
zau
zaujal
zaujala
zauji
zava
zavazuje
zave
zaveden
zavedena
zavedene
zavedeni
zavedeno
zavedeny
zavedl
zavedla
zavi
zavlaz
zavlec
zavola
zavolal
zavou
zavr
zavraz
zavrs
zavy
zaz
zazde
zaznamena
zaznamenal
zaznamenala
zazne
zazni
zazpi
zbabe
zbarvena
zbarvene
zbarveni
zbarveny
zbaven
zbavil
zbavit
zbe
zbli
zbor
zboura
zboz
zbran
zbrane
zbrani
zbraslav
zbroj
zbroje
zbroji
zbrojni
zbrojnice
zbrojnos
zbrojovka
zbudova
zby
zbyla
zbyle
zbylo
zbyly
zbyne
zbys
zbytec
zbytek
zbytkem
zbytku
zbytky
zc
zce
zcela
zcha
zci
zcu
zd
zda
zdaleka
zdali
zdami
zdane
zdar
zdarma
zde
zdech
zdejs
zden
zdena
zdene
zdenek
zdenka
zdenky
zdi
zdic
zdicovy
zdis
zdiva
zdivo
zdna
zdne
zdni
zdniny
zdnou
zdny
zdo
zdoba
zdobe
zdobena
zdobene
zdobeny
zdobi
zdobou
zdobu
zdoby
zdokonaleni
zdokupa
zdokupy
zdola
zdolal
zdolala
zdopravy
zdou
zdra
zdrave
zdravi
zdravotni
zdravotnicka
zdravotnicke
zdravotnicky
zdravotnictvi
zdravy
zdrobne
zdroj
zdroje
zdrojem
zdroji
zdrojove
zdrojovy
zdroju
zdrz
zdu
zdvih
zdvojna
zdvor
zdy
ze
zealand
zec
zed
zedna
zedni
zef
zeit
zeitschrift
zeitung
zeji
zejm
zejme
zek
zel
zela
zelen
zelena
zelene
zeleni
zelenina
zeleniny
zelenka
zelenou
zeleny
zeli
zelo
zely
zem
zeman
zemana
zeme
zemi
zemia
zemne
zemni
zemr
zemska
zemske
zemskou
zemsky
zen
zena
zene
zeni
zenka
zeno
zenou
zeny
zeppelin
zeptal
zerba
zero
zesi
zesilovac
zesnule
zesnuly
zesta
zet
zete
zeti
zeus
zev
zevne
zevni
zevnitr
zezadu
zfilmova
zhang
zhle
zhor
zhors
zhotoveny
zhotovil
zhrouceni
zhruba
zi
zia
zicky
zie
zii
zikmund
zikmunda
zil
zila
zili
zima
zimbabwe
zime
zimni
zimu
zimy
zip
zisk
ziskem
zisku
zisky
zit
ziu
zium
zjednodus
zjev
zjeveni
zjevne
zjis
zjisti
zjistil
zjistila
zjistili
zjistilo
zjistit
zk
zka
zkamene
zkami
zkaz
zke
zklama
zko
zkomponoval
zkonfiskova
zkopodlaz
zkost
zkosti
zkou
zkouma
zkoumaji
zkoumal
zkoumat
zkous
zkova
zkove
zkovy
zkr
zkra
zkratka
zkratkou
zkratky
zkresleni
zku
zkum
zkumem
zkumna
zkumne
zkumni
zkumny
zkumu
zkumy
zkus
zky
zl
zla
zlata
zlate
zlatem
zlatni
zlato
zlatou
zlaty
zle
zleps
zleva
zli
zlikvidova
zlive
zlo
zloc
zlode
zlom
zlomek
zlomky
zly
zma
zmar
zmatek
zmatku
zme
zmens
zmi
zmin
zmizel
zmizela
zmizely
zmizeni
zmizi
zmocne
zmocnil
zmocnili
zn
zna
znac
znaji
znak
znakem
znakovy
znaku
znaky
znal
znalec
znali
znalost
znalosti
znam
zname
znamech
znamem
znamena
znamenaji
znamenal
znamenala
znamenalo
znamenat
znameni
znamenite
znamenity
znamna
znamne
znamni
znamnou
znamny
znamu
znamy
znatelne
zne
znec
znemoz
znena
znepr
znes
zneuz
zni
znic
znice
znici
zniva
znivci
znivcu
znive
znivy
znojma
znojme
znojmo
znou
znova
znovu
zny
zo
zoba
zobecne
zobrazen
zobrazena
zobrazeni
zobrazeny
zobrazi
zobrazit
zobrazova
zobrazuje
zobrazuji
zodpove
zodpovi
zoh
zone
zoo
zoolog
zoologicke
zoologicky
zoologie
zoologii
zopakoval
zor
zora
zorganizoval
zorn
zorne
zoru
zory
zou
zoufale
zoufalstvi
zova
zove
zovou
zovy
zoznam
zpa
zpe
zper
zpevne
zpi
zplos
zpoc
zpochybn
zpochybne
zpove
zpoz
zpr
zpra
zpracova
zpracoval
zprava
zpravidla
zpravodaj
zpravodajske
zpravodajsky
zpravodajstvi
zpravy
zpros
zprostr
zprovozne
zprvu
zpu
zpustos
zr
zra
zrac
zrak
zrakem
zraku
zraky
zrale
zralosti
zrane
zranil
zrcadla
zrcadlo
zrekonstruova
zrna
zrodila
zrodu
zrovna
zrozeni
zruc
zrus
zrychleni
zs
zske
zsky
zslav
zslava
zstvi
zt
zte
zti
ztotoz
ztra
ztracena
ztracene
ztraceno
ztraceny
ztrati
ztratil
ztratila
ztratili
ztratilo
ztratily
ztva
zu
zub
zubni
zubr
zubu
zuby
zum
zur
zus
zuz
zuzana
zv
zva
zvana
zvane
zvanou
zvany
zvaz
zve
zveda
zvedl
zvem
zvenc
zver
zvi
zvl
zvla
zvlne
zvolal
zvolala
zvolen
zvolena
zvolene
zvoleni
zvoleny
zvoli
zvolil
zvolila
zvolili
zvolit
zvolna
zvon
zvonar
zvonek
zvoni
zvonic
zvonice
zvonici
zvonu
zvony
zvoslovi
zvra
zvu
zvuc
zvuk
zvukem
zvukove
zvukovy
zvuku
zvuky
zvy
zvyk
zvykem
zvyklosti
zvyku
zvyky
zvys
zx
zy
zz
{
|
}
~
¡
£
§
¨
©
«
¬
­
®
¯
°
±
²
³
´
µ
·
¹
º
»
¼
½
¾
¿
×
ß
æ
ð
÷
ø
ı
ł
ŋ
ɐ
ɑ
ɔ
ɕ
ə
ɛ
ɡ
ɪ
ɹ
ʃ
ʊ
ʒ
ʰ
ʲ
ʷ
ʹ
ʻ
ʼ
ʿ
ˀ
ˇ
ˈ
ˋ
ˌ
ː
˘
˙
ˠ
̀
́
̂
̃
̄
̆
̇
̈
̉
̊
̋
̌
̏
̑
̓
̔
̚
̛
̝
̞
̠
̣
̥
̦
̧
̨
̩
̪
̯
̱
̸
͂
ͅ
͍
͡
α
β
γ
δ
ε
ζ
η
θ
ι
κ
και
λ
μ
ν
ξ
ο
π
ρ
ς
σ
τ
υ
φ
χ
ψ
ω
ϕ
ϵ
а
б
в
г
д
е
з
за
и
к
л
м
н
на
не
ни
о
от
п
по
р
раи
россии
с
скои
т
у
украі
ф
федерации
х
ц
ч
ъ
ь
ю
я
і
ְ
ֲ
ִ
ֵ
ֶ
ַ
ָ
ֹ
ֻ
ּ
־
ֿ
ׁ
ׂ
א
ב
ג
גיאוגרפיים
ד
ה
היישובים
ו
ואוכלוסייה
ז
ח
ט
י
יישובים
ך
כ
ל
ם
מ
מאפיינים
ן
נ
נחל
ס
ע
ף
פ
צ
ק
ר
רשימת
ש
ת
״
ا
ب
ة
ت
ح
د
ر
س
ق
ك
ل
م
ن
و
ي
َ
ُ
ِ
ّ
ْ
ٓ
ٔ
ٕ
ܳ
ं
क
ग
त
द
न
प
म
य
र
ल
व
स
ा
ि
ी
ु
े
ो
्
া
்
ั
ิ
ี
ื
ุ
่
้
์
་
ོ
​
‌
‎
‐
‑
‒
–
—
―
‖
‘
’
‚
“
”
„
‟
†
‡
•
…
‰
′
″
‹
›
‿
⁠
⁡
₂
€
ℏ
№
™
ℵ
←
↑
→
↓
↔
↷
⇒
⇔
∀
∂
∃
∅
∇
∈
∑
−
∗
∘
∙
∞
∣
∧
∨
∩
∪
∫
∼
≈
≡
≤
≥
⊂
⊆
⊗
⋅
⋮
⋯
③
④
⑦
─
│
├
█
►
◄
●
♭
⚭
❊
⟨
⟩
⟶
⺀
⺄
⺆
⺈
⺊
⺌
⺕
⺝
⺸
⺼
⿰
⿱
⿲
⿳
⿴
⿵
⿶
⿷
⿸
⿹
⿺
⿻
、
。
「
」
『
』
〢
あ
い
う
え
お
か
き
く
け
こ
さ
し
す
せ
そ
た
ち
っ
つ
て
と
な
に
の
は
ひ
ふ
へ
ほ
ま
み
む
め
も
や
ゅ
ょ
よ
ら
り
る
れ
わ
を
ん
゙
゚
ァ
ア
ィ
イ
ウ
ェ
エ
オ
カ
キ
ク
ケ
コ
サ
シ
ス
セ
ソ
タ
チ
ッ
ツ
テ
ト
ナ
ニ
ネ
ノ
ハ
ヒ
フ
ヘ
ホ
マ
ミ
ム
メ
モ
ャ
ュ
ユ
ョ
ラ
リ
ル
レ
ロ
ワ
ン
・
ー
㇁
㇂
㇄
㇇
㇈
㇉
㇓
㐁
㐄
㐅
㐌
㐫
㐬
㐭
㐮
㐱
㑒
㒵
㒸
㒼
㓁
㓞
㔾
㕛
㕣
㖾
㘝
㚅
㚇
㚔
㚘
㝉
㝡
㝴
㝵
㞋
㞢
㞷
㠩
㠭
㠯
㡀
㡭
㡿
㢲
㢴
㣇
㣺
㥯
㪅
㫄
㫐
㫒
㫺
㬅
㬎
㬥
㬰
㲋
㳄
㷠
㸒
㸚
㸦
㼌
㼲
㽞
㿟
䀠
䂞
䍃
䏍
䒑
䖍
䖒
䖝
䖵
䙴
䚻
䜌
䝿
䡛
䧹
䪞
一
丁
丂
七
丄
丅
丆
万
丈
三
上
下
丌
不
与
丏
丐
丑
专
且
丕
世
丘
丙
业
东
丞
丢
丣
两
严
並
丨
丩
个
丫
丬
中
丮
丰
丱
串
丵
丶
丷
丸
丹
为
主
丽
丿
乀
乂
乃
久
乆
乇
么
义
之
乌
乍
乎
乏
乐
乑
乔
乖
乗
乘
乙
乚
乛
乜
九
乞
也
习
乡
乳
乾
亀
亅
了
亇
予
争
事
二
亍
于
亏
亐
云
互
亓
五
井
亘
亚
亜
亞
亟
亠
亡
亢
交
亥
亦
产
亨
亩
享
京
亭
亮
亯
亰
亲
亳
亶
亷
人
亻
亼
亾
仁
今
介
仌
从
仐
仑
仒
仓
仕
他
付
仝
代
令
以
任
企
伊
伏
伐
休
会
伯
但
位
佐
何
佘
余
作
佥
使
來
侈
侌
侖
侯
侵
便
保
俞
信
修
倉
倍
候
倠
備
僉
僕
儿
兀
允
兂
元
兄
充
兆
兇
先
光
兊
克
兌
免
兑
兒
兓
兔
党
兜
兟
入
全
兩
兪
八
公
六
兮
兰
共
关
兵
其
具
典
兹
兼
冀
冂
冃
冄
内
冈
冉
冊
冋
册
再
冎
冏
冐
冒
冓
冖
冗
冘
写
军
农
冝
冡
冥
冫
冬
冷
几
凡
凢
凵
凶
凷
凸
凹
出
函
凾
刀
刁
刂
刃
刄
刅
分
切
刍
刑
刕
刖
列
刘
则
初
別
利
别
到
制
刺
則
削
剌
前
剡
剽
劉
力
功
加
劦
助
劫
劳
劵
勃
勇
勉
勒
動
務
勞
勤
勹
勺
勻
勾
勿
匀
匂
包
匆
匈
匊
匋
匍
匕
化
北
匚
匝
匡
匪
匱
匸
匹
区
医
匽
匿
區
十
卂
千
卄
卅
卆
升
午
卉
半
卌
华
卑
卒
卓
单
卖
南
卜
卝
卞
占
卡
卢
卣
卤
卦
卩
卪
卬
卯
印
危
即
却
卵
卷
卸
卻
厂
厃
厄
历
厈
厉
厌
厓
厘
厚
原
厤
厥
厨
厭
厲
厶
厷
厸
去
厼
厽
叀
参
參
叅
又
叉
及
友
双
反
叐
发
叒
叔
叕
取
受
叚
叜
叟
口
古
句
另
叩
只
召
可
台
叱
史
右
叵
号
司
叹
吂
各
吅
合
吉
吊
吋
同
名
后
吏
向
吕
君
吝
吞
否
含
启
吳
吴
吹
吾
呂
呆
呈
呉
告
员
呙
周
命
咅
和
咎
咠
咢
咨
咸
咼
哀
品
哉
員
哥
哲
唐
商
啇
問
啚
啬
啻
善
喜
喬
單
喿
嗇
噩
嚴
囊
囗
囘
囙
囚
四
回
囟
因
囧
囬
困
囱
囷
固
国
圂
圅
國
圍
圓
土
圡
圣
圥
在
圭
地
圶
圼
坐
坒
坚
坴
垂
型
垔
垚
埀
埋
城
埶
執
基
堂
堅
堆
堇
堯
報
場
塞
墨
壘
士
壬
壯
声
壳
壴
壹
壺
壽
夂
处
夅
夆
备
夊
夋
夌
复
夏
夒
夕
外
夗
夘
多
夜
夢
大
夨
天
太
夫
夬
夭
央
失
夲
头
夷
夸
夹
夻
夾
奂
奄
奇
奈
奉
奎
奏
奐
契
奓
奔
奚
奞
奠
奢
奥
奭
女
奴
奻
好
如
妄
妙
妟
妥
妻
妾
姑
委
姜
威
娄
婁
婴
嬰
嬴
子
孑
孔
孕
孖
字
存
孚
孛
孝
孟
季
孤
学
孫
孱
學
宀
宁
宂
它
宅
宇
守
安
宋
完
宏
宓
宗
官
定
宛
宜
宝
客
宣
室
宮
宰
害
家
容
宾
宿
寄
寅
密
富
寒
察
寧
審
寫
寬
寮
寸
对
寺
寻
寽
対
寿
封
尃
射
将
將
專
尉
尊
尋
尌
對
小
少
尒
尓
尔
尖
尗
尚
尞
尢
尣
尤
尧
尨
尭
就
尸
尹
尺
尻
尼
尽
尾
尿
局
居
屈
屋
屎
屏
屑
展
屖
屚
属
屠
屡
屬
屮
屯
屰
山
屵
屾
岁
岂
岑
岡
岩
岳
岸
峯
島
崇
崑
崔
崖
崙
崩
嵬
嶲
巂
巛
川
州
巟
巠
巢
巤
工
左
巧
巨
巩
巫
差
己
已
巳
巴
巷
巸
巽
巾
巿
帀
市
布
希
帚
帛
帝
带
師
席
帶
常
干
平
年
幵
并
幷
幸
幺
幻
幼
幽
幾
广
広
庄
床
底
店
庚
府
度
庫
庭
庶
康
庸
廉
廌
廛
廣
廩
廴
延
廷
建
廾
廿
开
弁
弃
弄
弇
弋
式
弓
弔
引
弗
弘
弜
弟
弥
弦
弱
張
強
强
彊
彌
彎
彐
彑
当
彔
录
彖
彗
彡
形
彥
彦
彧
彭
彳
役
彼
往
待
律
後
徒
得
徙
從
復
微
徵
心
忄
必
忌
忍
志
忝
忠
忩
快
念
忽
忿
思
怠
急
怱
恆
恒
恩
恭
息
悉
患
悤
悲
悶
情
惠
惡
惢
愁
愈
意
愛
感
慈
慧
慮
憂
憲
應
戀
戈
戉
戊
戋
戌
戍
戎
成
我
戒
戔
或
戚
戠
戢
戦
截
戲
戶
户
戹
戼
戾
房
所
扁
扇
手
扌
才
打
托
执
承
折
拉
拜
拿
掌
推
提
摩
支
攴
攵
收
攸
改
放
政
敄
敏
敕
敖
敗
敝
敞
敢
散
敦
敫
敬
数
敷
數
斂
文
斉
斊
斗
斤
斥
斩
斬
斯
新
方
於
施
斿
旁
旋
族
无
旡
既
旣
日
旦
旧
旨
早
旬
旱
旲
时
旾
昆
昇
昌
昍
明
昏
易
昔
昗
昜
星
春
昬
是
昱
昴
昷
時
晃
晋
晏
普
景
晶
智
暑
暴
曇
曩
曰
曲
曳
更
曷
書
曹
曼
曾
替
最
朁
會
月
有
朋
服
朔
朕
朗
望
朝
木
朩
未
末
本
札
朮
术
朱
朵
朶
朿
杀
李
杏
村
杜
束
条
来
東
杲
杳
松
析
林
枚
果
枝
枲
枼
某
柔
查
柬
柰
柴
栗
株
桀
桑
桼
梁
條
梟
梨
棘
棠
棥
森
植
楚
業
楽
榮
樂
樊
機
欠
次
欣
欮
欲
欶
欽
款
歆
歇
歛
止
正
此
步
武
歨
歪
歮
歯
歰
歲
歴
歷
歸
歹
歺
死
殳
段
殷
殸
殹
殺
殻
殿
毋
毌
母
每
毒
比
毕
毚
毛
毳
氏
氐
民
气
氣
水
氵
氶
氷
永
氺
氾
求
汝
汞
江
沃
沓
沙
沝
河
治
泉
法
波
泣
泥
泰
洛
洪
活
派
流
浦
浪
浮
海
淡
淮
清
渚
渠
湯
滿
漢
漸
火
灬
灭
灰
灵
灷
炅
炎
炏
炗
炙
炭
為
烈
烏
烝
焉
無
焦
焱
然
煞
熊
熏
燕
營
燮
爪
爫
爭
爯
爰
爱
爲
爵
父
爻
爽
爾
爿
片
版
牙
牚
牛
牜
牟
牢
牧
物
牪
牽
犀
犬
犭
犮
狂
狄
狊
独
狺
猋
猒
猪
献
獻
玄
率
玉
王
玟
玨
珎
班
理
琴
瑟
瑩
瓜
瓦
甘
甚
生
産
用
甫
甬
田
由
甲
申
电
甶
男
甸
甹
町
画
甾
畀
界
畏
畐
留
畜
畟
畢
畧
畨
番
畫
異
畱
當
畺
畾
疊
疋
疌
疑
疒
疾
病
癶
癸
癹
登
發
白
百
皀
皃
的
皆
皇
皋
皐
皕
皮
皷
皿
盃
盆
盇
盈
益
盍
盎
监
盒
盖
盛
盡
監
盤
盧
目
直
相
盾
省
眇
眉
看
県
眔
眞
真
眷
眼
眾
着
睘
睪
睿
瞏
瞢
瞿
矍
矛
矞
矢
矣
知
矦
短
石
破
碎
磊
磨
示
礻
礼
社
神
祟
票
祭
禀
禁
福
禸
禹
禺
离
禽
禾
禿
秀
秃
秉
秋
科
秝
秦
移
稟
穀
穌
穴
究
穹
空
穿
突
窄
窒
立
竒
竜
竝
竟
章
童
竹
笑
笠
第
筆
等
答
箕
算
箴
節
篤
篭
米
粉
粛
粟
粤
粦
粲
糞
糸
糹
系
約
納
素
索
紫
累
細
絜
絫
絲
維
綿
縣
繇
纍
纟
缶
网
罒
罔
罕
罗
罙
罡
罢
罪
署
罷
羅
羊
羌
羍
美
羔
羕
羗
羞
羡
羣
群
義
羲
羸
羽
翁
翏
習
翕
翟
翠
翼
老
耂
考
者
耆
而
耎
耑
耒
耳
耴
耶
耷
聂
聊
聖
聚
聶
聿
肀
肃
肅
肉
肖
肙
肥
肩
肯
育
肴
胃
背
胡
胥
能
脊
脩
膚
臣
臤
臧
自
臬
臭
臯
臱
至
致
臺
臼
臽
臾
臿
舀
舂
舄
與
興
舉
舌
舍
舛
舜
舞
舟
航
般
艦
艮
良
色
艸
艹
艾
芒
芔
芬
芮
花
芳
芺
芻
苔
苗
苟
若
苦
英
茶
茸
荅
草
荒
荣
荼
莆
莧
莫
莽
菆
菊
菐
華
萬
落
葉
著
葛
董
葵
蒙
蒦
蒼
蓋
蓬
蓺
蔑
蔡
蕉
蕭
薄
薛
薦
薰
藍
藏
藤
藥
蘭
虍
虎
虐
虒
虔
處
虖
虗
虘
虚
虛
虜
虞
虫
虽
蚤
蚩
蜀
蜜
蟲
蠡
血
行
衍
衛
衣
衤
表
衮
衰
袁
袞
褭
褱
襄
襾
西
覀
要
覃
見
規
覓
覧
親
覽
见
角
解
言
訁
訇
計
記
詹
語
誩
諸
讠
谷
豆
豈
豊
豐
豕
豖
豙
象
豦
豩
豪
豸
貇
貝
貞
貟
負
貢
貧
貪
貫
責
貳
貴
買
費
賁
資
賈
賏
賓
賔
賛
賞
賢
賣
質
賴
贊
贝
贡
责
贯
贲
贵
赖
赞
赤
赦
走
越
足
路
蹇
身
躬
車
軍
軎
軟
輦
车
辛
辜
辟
辥
辰
辱
農
辵
辶
边
达
过
近
连
迷
追
退
送
逆
逐
通
速
造
逢
連
逮
進
遀
遂
過
道
達
遣
適
遷
遺
邊
邑
邕
那
邦
邪
郎
部
郭
都
鄉
酉
酋
配
酓
釆
采
里
重
野
量
金
釒
錢
钅
長
镸
长
門
閃
閉
開
閏
閑
閒
間
閔
閵
閻
闌
门
间
闷
阑
阜
阝
阿
降
院
陳
陽
隆
隊
隋
隡
隨
隱
隶
隹
隺
隻
隼
隽
难
雀
雁
集
雈
雋
雍
雐
雔
雙
雚
雜
雝
離
難
雨
雩
雪
雲
零
雷
需
霍
霜
霝
霞
霸
靈
靑
青
非
靡
面
靣
革
韋
韦
韭
韯
韱
音
頁
頃
項
須
頗
頡
頻
顛
页
風
风
飛
飞
食
飠
養
饣
首
香
馬
馮
駆
駦
马
骨
高
髟
鬥
鬯
鬲
鬼
魚
魯
鮮
鱼
鲁
鳥
鳳
鸟
鹵
鹿
麃
麗
麥
麦
麻
黃
黄
黍
黎
黑
黒
黨
黹
黽
黾
鼎
鼓
鼠
鼻
齊
齋
齐
齒
齿
龍
龙
龜
龟
龠
龰
龱
龴
龵
龶
龷
龸
龹
ꙗ
者
艹
﻿
！
（
）
，
：
？
�
𠀁
𠀃
𠀆
𠀉
𠀎
𠀐
𠁁
𠁣
𠂆
𠂇
𠂈
𠂉
𠂊
𠂋
𠂎
𠂒
𠂔
𠂛
𠂡
𠂢
𠂤
𠂬
𠂭
𠂹
𠃊
𠃋
𠃌
𠃍
𠃎
𠃑
𠃓
𠃔
𠃜
𠄌
𠄎
𠄠
𠄢
𠆢
𠆥
𠇍
𠈌
𠌵
𠓜
𠔉
𠔥
𠔼
𠔽
𠔿
𠕀
𠕁
𠕋
𠘧
𠘨
𠙻
𠙼
𠚏
𠚒
𠚤
𠚪
𠣏
𠤎
𠤕
𠥓
𠦄
𠦑
𠦝
𠧒
𠧗
𠧪
𠩺
𠪚
𠫓
𠫔
𠫤
𠬛
𠬝
𠬞
𠬢
𠬤
𠬶
𠮛
𠮦
𠮷
𠯑
𠱠
𠳮
𠷎
𡈼
𡉀
𡉵
𡌥
𡍮
𡏳
𡕒
𡕩
𡕰
𡖅
𡗗
𡗜
𡘆
𡘤
𡧱
𡨄
𡩧
𡬠
𡭽
𡰣
𡰥
𡰪
𡰯
𡰱
𡷈
𡸁
𡿨
𡿩
𡿪
𡿺
𢀖
𢀛
𢀩
𢁙
𢆉
𢆰
𢆶
𢇁
𢇇
𢉖
𢌬
𢌿
𢏚
𢑑
𢑚
𢖻
𢙣
𢛳
𢦏
𢦒
𢧵
𢼄
𢾕
𣁋
𣄼
𣅀
𣅽
𣍘
𣎳
𣎵
𣏋
𣏼
𣗥
𣥂
𣥖
𣦵
𣦼
𣧄
𣪊
𣪠
𣬉
𣳾
𣶒
𤇾
𤊽
𤐫
𤓰
𤔔
𤕨
𤣩
𤰇
𤰔
𤰞
𤴓
𤴔
𤽄
𥁑
𥁕
𥃦
𥃩
𥃭
𥇡
𥑟
𥘅
𥘈
𥝢
𥫗
𥱡
𦈢
𦉪
𦉬
𦉼
𦍌
𦍒
𦎧
𦐇
𦓔
𦔮
𦘒
𦙃
𦚏
𦣝
𦣞
𦣻
𦥑
𦥔
𦥯
𦨉
𦭝
𦰩
𧆞
𧈧
𧘇
𧰨
𧴪
𧴮
𧵩
𧾷
𨸏
𨾴
𩙿
𩠐
𩫏
𩵋
𪉷
𪜀
𪟽
𪠲
𪩲
𫇦
𫔭
𫜸
𫝀
𫠣
𫠩
𫢉
𫥞
𫩏
𫩠
𫪡
𫲽
𫶧
𬀷
𬐘
𬗌
𬙙
𬛸
𬜯
𬟩
𬯁
𬴘
𬺻
𬼉
𬼖
𭀰
𭁈
𭁨
𭅰
𭑈
𭕄
𭗼
𭤨
𭥫
𭻾
𮅕
𮊿
𮍌
𮍏
𮓗
𮥼
𮧮
廾
𰀁
𰀄
𰀈
𰀉
𰀕
𰀠
𰀡
𰀢
𰀪
𰁜
𰃮
𰆊
𰆘
𰋙
𰕎
𰢴
𰧭
𰯲
00--
000--
001--
01--
02--
03--
04--
05--
06--
07--
08--
09--
56--
57--
61--
62--
65--
66--
67--
68--
69--
70--
71--
72--
73--
74--
75--
76--
77--
78--
79--
80--
81--
82--
83--
84--
85--
86--
87--
88--
89--
90--
91--
92--
93--
94--
95--
96--
97--
978--
98--
99--
a--
aa--
ab--
aba--
abd--
abe--
abi--
abs--
absol--
ac--
ace--
ach--
achil--
act--
ad--
ada--
adam--
adapt--
add--
ade--
adi--
adop--
adven--
ae--
aero--
af--
ag--
aga--
age--
agres--
agro--
ah--
aha--
ai--
air--
aj--
ak--
aka--
akcept--
akred--
akt--
aku--
al--
ala--
alb--
alde--
ale--
alego--
aleks--
alge--
algebra--
algori--
ali--
alky--
all--
alm--
alo--
alomou--
alp--
als--
alt--
alten--
alu--
am--
ama--
ame--
ami--
amu--
an--
ana--
anarc--
anatom--
anc--
and--
ane--
ang--
anglo--
ani--
ann--
anna--
ano--
anony--
anorg--
ans--
ant--
antarkt--
anti--
anu--
any--
ao--
ap--
apol--
app--
aqu--
ar--
ara--
arago--
arbor--
arc--
are--
argen--
ari--
aris--
aristok--
arkt--
arm--
aroma--
ars--
art--
arte--
as--
asa--
asfalt--
ash--
asi--
asp--
assas--
assem--
ast--
astro--
asy--
asymetr--
at--
ata--
ate--
ato--
atom--
atri--
au--
auck--
audi--
audio--
auf--
aure--
aus--
aut--
auten--
auto--
autobio--
av--
ava--
avant--
ave--
avi--
avra--
awa--
ax--
ay--
az--
azare--
b--
ba--
bac--
back--
bad--
baj--
bal--
bald--
bali--
bamb--
ban--
bank--
bansko--
bapt--
bar--
bart--
bary--
bas--
base--
baski--
bat--
bau--
bay--
baz--
be--
beau--
bec--
bei--
bek--
bel--
ben--
ber--
berg--
bern--
bert--
bes--
besky--
bet--
bez--
beze--
bh--
bi--
biat--
biatlon--
bie--
big--
bil--
bin--
bio--
bir--
bis--
bit--
biz--
bk--
bl--
bla--
black--
blaho--
ble--
bli--
blo--
blou--
blu--
bo--
bob--
boc--
bod--
bohd--
bohos--
bohu--
boj--
bol--
bon--
bor--
borom--
bos--
bot--
bots--
bou--
bow--
box--
boy--
br--
bra--
brad--
bran--
bratisla--
bre--
bri--
bro--
broad--
brock--
broum--
bru--
bry--
brz--
bs--
bu--
bub--
buc--
buch--
bud--
budd--
budi--
buff--
buk--
bulga--
bun--
bundes--
bur--
burgun--
bus--
but--
buzen--
buzn--
by--
byrok--
byt--
byza--
byzant--
c--
ca--
cald--
camb--
can--
cap--
car--
cas--
casa--
cat--
cc--
cd--
ce--
cel--
cele--
cem--
cen--
cer--
cerat--
cerem--
certif--
cesky--
cet--
ch--
cha--
chan--
char--
che--
check--
chi--
chl--
chla--
chlor--
chloro--
chlou--
chmel--
cho--
chod--
chodo--
choreog--
chot--
chou--
chr--
chra--
chry--
chsis--
chu--
chva--
chy--
ci--
cibu--
cid--
cie--
ciga--
cimb--
cimr--
cirku--
cis--
cit--
cizo--
ck--
cl--
cla--
clay--
cle--
clif--
cly--
cm--
co--
col--
collo--
com--
come--
con--
contri--
copy--
cor--
cord--
corn--
corne--
cort--
cos--
cou--
coul--
coun--
coup--
cov--
cow--
cp--
cr--
craw--
cre--
cro--
crom--
cru--
crusa--
cs--
ct--
cti--
cu--
cum--
cur--
cut--
cv--
cy--
cycl--
cykli--
cyklo--
cytok--
cz--
cze--
d--
da--
daj--
dal--
dam--
dan--
dar--
das--
dat--
data--
dav--
day--
db--
dc--
de--
dec--
defe--
defi--
defin--
dei--
dej--
dek--
dekla--
del--
dem--
demo--
den--
depart--
der--
des--
det--
detek--
dev--
deva--
develo--
dex--
dez--
di--
dia--
diaman--
dic--
did--
die--
dil--
dimit--
din--
dio--
direk--
diri--
dis--
disk--
disku--
dispo--
dit--
div--
dj--
dk--
dla--
dlo--
dm--
dni--
do--
dob--
dobro--
doc--
dodavat--
dog--
doka--
dol--
dolno--
dolnos--
dom--
dome--
domlu--
don--
dor--
doroz--
dos--
dot--
dou--
doubra--
dove--
dovol--
down--
doz--
dp--
dr--
dra--
drah--
dre--
dro--
drob--
dru--
ds--
dt--
du--
dua--
dub--
duch--
dur--
dury--
dus--
dvoj--
dvou--
dy--
dynas--
dz--
e--
ea--
east--
eb--
ebe--
ebi--
ebr--
eby--
ec--
eccle--
ech--
ecko--
ed--
ede--
edi--
edit--
edlit--
edo--
eds--
edsu--
edu--
ee--
ef--
ege--
egg--
eh--
eho--
ehr--
ei--
eich--
ein--
eisen--
ej--
eje--
ek--
eka--
ekl--
ekolog--
eku--
ekva--
el--
ela--
ele--
elezo--
eli--
elipt--
elo--
em--
ema--
eme--
emi--
emot--
empi--
emu--
emysl--
en--
ena--
end--
ene--
energ--
eng--
eno--
enri--
ens--
ep--
epa--
epi--
epis--
epla--
epra--
equ--
equi--
er--
era--
erb--
ere--
erno--
ero--
ert--
es--
esa--
ese--
esi--
esko--
eso--
est--
esta--
esti--
estr--
et--
eta--
ete--
ether--
ethi--
eti--
etno--
etr--
ety--
eu--
eucha--
eukaryo--
euro--
euse--
ev--
eva--
evalu--
eve--
ever--
evi--
evo--
evod--
ex--
exc--
exeku--
exhi--
exot--
expan--
expe--
explo--
expo--
exten--
extra--
ey--
ez--
ezi--
f--
fa--
fabr--
fac--
fact--
faer--
fair--
fakt--
falk--
fan--
far--
fas--
fasci--
fat--
favor--
fc--
fe--
fed--
fejet--
feld--
fem--
femini--
fer--
fey--
ff--
fi--
fia--
figu--
fil--
fin--
fioren--
fire--
fis--
fitz--
fix--
fk--
fl--
fla--
fle--
flexi--
flo--
floren--
flori--
flu--
fluor--
fo--
foj--
fonet--
for--
formu--
fosf--
foto--
fox--
fra--
fre--
fred--
free--
fri--
fried--
fro--
fru--
fry--
ft--
fu--
fun--
fund--
fur--
fy--
fylog--
fyziolog--
g--
ga--
gaj--
galakt--
gall--
gamb--
gar--
gard--
gas--
gay--
gaz--
ge--
gel--
gen--
gene--
genoc--
geog--
geomorfolog--
geop--
ger--
get--
gi--
gia--
giga--
gil--
git--
gl--
glau--
glo--
glu--
gly--
gm--
gn--
go--
god--
gold--
gond--
good--
got--
gott--
gov--
gr--
gra--
graf--
gramm--
gramo--
gramofo--
gre--
green--
grif--
gro--
gru--
gry--
gs--
gu--
guate--
gue--
guil--
gun--
gut--
guver--
guy--
gy--
h--
ha--
habs--
hac--
had--
haj--
hal--
hale--
ham--
han--
hand--
hanni--
happ--
har--
hard--
hart--
has--
hat--
hau--
hava--
havl--
hay--
he--
hed--
hege--
hej--
hel--
helicop--
hell--
hem--
hen--
her--
herrm--
hes--
het--
hetero--
hex--
hey--
heydr--
hi--
hierarchi--
high--
hild--
him--
hind--
hindu--
hip--
hir--
hit--
hl--
hla--
hlas--
hli--
hlo--
hlou--
hm--
hmis--
hn--
hni--
hno--
ho--
hob--
hoch--
hod--
hof--
hohen--
hohenzo--
holl--
holz--
hom--
home--
homo--
hon--
hop--
hor--
hos--
hosti--
hot--
hou--
hous--
hr--
hra--
hrano--
hrdin--
hrom--
hroz--
hru--
hrvat--
hs--
hu--
hub--
human--
humb--
humor--
hump--
hun--
hung--
hur--
hus--
hut--
hy--
hyb--
hydra--
hydro--
hydroxy--
hygi--
hyper--
hyste--
hz--
i--
ia--
ian--
ib--
ibe--
iby--
ic--
ice--
icko--
id--
ide--
ident--
identif--
ideolog--
ie--
if--
ign--
ih--
iho--
ii--
ij--
ik--
ika--
ikl--
ikono--
ikou--
il--
ile--
ili--
illus--
ilo--
ilumi--
ilust--
im--
ima--
imi--
impak--
impe--
impresion--
impro--
improviz--
imu--
imuno--
in--
inaugu--
inc--
indi--
indo--
indu--
indus--
ine--
infan--
infe--
infi--
infin--
influ--
info--
ing--
inhi--
ini--
inn--
ino--
ins--
int--
inte--
integr--
integro--
inten--
inter--
intu--
inu--
invas--
inver--
inves--
investiga--
inz--
io--
ion--
ip--
ipa--
ipo--
ipom--
ipu--
ir--
ira--
ire--
iro--
iron--
is--
isa--
ise--
iso--
ist--
istup--
isuz--
it--
ita--
ite--
itel--
iu--
iv--
ive--
ivo--
iz--
iza--
izom--
j--
ja--
jacque--
jagel--
jahr--
jahrhun--
jak--
jakut--
jal--
jam--
jan--
japo--
jar--
jas--
je--
jed--
jedna--
jedno--
jem--
jen--
jer--
jes--
jet--
jev--
jez--
ji--
jih--
jihla--
jiho--
jihoa--
jihoamer--
jihoko--
jilem--
jim--
jin--
jir--
jis--
jiz--
jm--
jo--
joa--
jou--
jov--
js--
ju--
judis--
jun--
jung--
jur--
k--
ka--
kac--
kai--
kal--
kali--
kalifor--
kalku--
kam--
kan--
kano--
kap--
kapac--
kapitu--
kar--
kara--
karboxy--
karci--
karika--
karto--
kas--
kat--
kata--
kau--
kaufm--
kaz--
kb--
kc--
kde--
kdo--
ke--
kej--
kell--
kelt--
kem--
ken--
ker--
key--
ki--
kim--
kin--
kinemato--
kirc--
kirk--
kis--
kit--
kl--
kla--
klad--
klasifi--
kle--
kli--
klic--
klou--
klu--
klub--
km--
kn--
kne--
knih--
kno--
ko--
kobur--
koc--
kod--
kokos--
kokp--
kol--
kola--
kolo--
kom--
kombin--
komen--
komi--
kompati--
kompen--
kompli--
kompo--
komu--
kon--
konc--
konfis--
koni--
konkur--
kons--
kontami--
kontra--
kontro--
konver--
konz--
konzul--
koop--
koordin--
kop--
kopa--
kor--
korek--
kores--
korol--
korou--
koruta--
kos--
kosmet--
kost--
kot--
kou--
koupe--
kov--
koz--
kr--
kra--
kraj--
kral--
kras--
krc--
kre--
kres--
kri--
kris--
kro--
kru--
kry--
krys--
krzysz--
ks--
ku--
kud--
kulm--
kun--
kunst--
kuo--
kup--
kur--
kus--
kutno--
kva--
kvalifi--
kvant--
kvas--
kve--
kvi--
kvo--
kw--
ky--
kytar--
l--
la--
lab--
lac--
lach--
lad--
laj--
lamb--
lamp--
lan--
land--
landes--
lang--
lapo--
las--
laska--
lat--
latinsko--
lau--
law--
lay--
laz--
lc--
ld--
le--
lea--
lec--
lech--
led--
legisla--
legit--
lehk--
lej--
lek--
lem--
len--
leo--
leon--
ler--
les--
leso--
let--
lete--
lev--
lex--
ley--
lez--
lf--
lhot--
li--
lib--
liboch--
libret--
lic--
lich--
lid--
lie--
life--
light--
lik--
lil--
lim--
limit--
lin--
ling--
lingu--
lip--
lis--
lit--
liti--
litog--
liv--
livon--
lju--
ljubl--
lko--
lkru--
ll--
lm--
lo--
loc--
log--
loh--
lohor--
lom--
lon--
long--
lor--
los--
lot--
lotri--
lou--
lov--
lovo--
ls--
lt--
lu--
luc--
lucem--
lud--
luk--
luka--
lun--
lus--
lute--
lutoz--
lv--
ly--
m--
ma--
mac--
mad--
mag--
magde--
magnet--
mai--
main--
maj--
maje--
makar--
makro--
mal--
mala--
male--
mali--
malo--
mamm--
man--
manipu--
manu--
mao--
map--
mar--
mari--
mark--
marx--
mas--
mat--
mau--
maut--
mauz--
max--
may--
maz--
mb--
mber--
mc--
md--
me--
measu--
mec--
mech--
mechani--
med--
medai--
mega--
mek--
meklen--
mel--
melanc--
melod--
mem--
men--
mer--
merke--
mes--
met--
meta--
methy--
metr--
mexi--
mez--
mezi--
mi--
mia--
mic--
michel--
mid--
mie--
mig--
mik--
mikro--
mikrosko--
mil--
mile--
mili--
milo--
mimo--
min--
mini--
mir--
mis--
mit--
mix--
miz--
mj--
mk--
ml--
mla--
mlho--
mluv--
mm--
mn--
mnoho--
mo--
mobili--
moc--
mod--
mode--
modif--
moham--
mohu--
mohy--
mol--
mon--
mongo--
monog--
monop--
mont--
monte--
moon--
mor--
mora--
morfo--
mos--
motor--
mou--
mov--
moy--
moz--
mp--
mr--
mra--
mrtv--
ms--
mt--
mu--
mug--
multi--
mus--
muz--
my--
myan--
mys--
myth--
mytolog--
mz--
n--
na--
nac--
nach--
naci--
nad--
naft--
naj--
nakup--
nale--
nam--
nama--
namon--
nan--
nap--
napa--
napod--
napodob--
nar--
naru--
nas--
nasa--
nash--
nasy--
nat--
nata--
natur--
nava--
navar--
navrh--
naz--
nb--
nc--
nd--
ne--
neb--
nec--
nech--
ned--
neda--
neder--
nedoc--
nedoko--
nedovo--
nega--
neh--
nej--
nejed--
nejs--
nek--
nekom--
neli--
nem--
nemi--
nen--
nena--
nenas--
neo--
neob--
neobs--
neobsah--
neoby--
neod--
neodp--
neods--
nepa--
nepo--
nepr--
nepro--
nept--
ner--
nero--
neroz--
nes--
nesmr--
nesmrtel--
nesnes--
net--
netr--
neu--
neuro--
neus--
nev--
nevi--
nevol--
nevy--
nevztah--
new--
news--
newyo--
nez--
neza--
nezac--
nezi--
nf--
ng--
nh--
ni--
nic--
nie--
nieder--
nig--
nik--
nil--
nim--
nin--
nis--
nit--
nix--
nko--
nl--
nn--
no--
noc--
nom--
non--
nor--
nord--
norim--
nos--
not--
note--
nou--
nov--
novgo--
novo--
now--
nr--
ns--
nt--
nu--
nukle--
numer--
numis--
nus--
ny--
nymb--
nz--
o--
oa--
ob--
oba--
obc--
obdiv--
obe--
obec--
ober--
obi--
objev--
obme--
obo--
oboh--
obou--
obr--
obra--
obrat--
obroz--
obs--
obser--
obslu--
oby--
oc--
och--
oct--
od--
odc--
odchy--
odciz--
odda--
ode--
odhal--
odkou--
odpa--
ods--
odsou--
odsuz--
odve--
odvoz--
ody--
oester--
of--
off--
og--
oh--
ohle--
ohodn--
ohr--
ohrom--
ok--
okla--
oko--
okouz--
okr--
okrou--
oku--
ol--
old--
olden--
ole--
oli--
olive--
oly--
olymp--
olympi--
om--
omi--
omlu--
on--
one--
op--
opa--
opat--
opatr--
open--
oper--
opi--
oploc--
opo--
opra--
optimi--
opy--
or--
ora--
orchi--
org--
ornit--
oro--
orto--
os--
osa--
osamostat--
ose--
osi--
osla--
oslo--
osm--
osmi--
osn--
ost--
osvo--
osvobod--
osvoboz--
ot--
ota--
otc--
ote--
oto--
otr--
otroko--
ou--
our--
out--
ov--
ova--
over--
ovi--
ovo--
ovs--
ox--
oxy--
oz--
ozbro--
ozna--
ozu--
p--
pa--
pac--
pacif--
pad--
pado--
pak--
pal--
pala--
pale--
pama--
pamia--
pamp--
pan--
pana--
pane--
paprs--
par--
para--
parazit--
parou--
pas--
pass--
past--
pat--
patog--
patolog--
patr--
patriar--
pavl--
pay--
paz--
pc--
pe--
pec--
pedia--
pej--
pek--
pen--
penzi--
pept--
per--
pero--
perspec--
perspek--
pes--
pet--
petr--
pevni--
pf--
ph--
photo--
phy--
pi--
pia--
pic--
pie--
pil--
pilot--
pin--
pio--
pis--
pit--
pix--
pk--
pl--
pla--
plan--
plas--
plat--
plav--
play--
ple--
pli--
plno--
plo--
plod--
plu--
pm--
pn--
pneum--
po--
poc--
pochy--
pochyb--
pochybo--
pod--
podc--
podi--
podivu--
podla--
podr--
poe--
poha--
pohl--
pohod--
poj--
poku--
pol--
pola--
pole--
poli--
polo--
poly--
poma--
pomp--
pop--
por--
pora--
porno--
pos--
posi--
posky--
posou--
possi--
post--
pot--
pou--
povi--
povol--
povz--
povzbu--
poz--
pozasta--
pozem--
pp--
pr--
pra--
prag--
prakt--
pras--
prav--
pravo--
pre--
prefer--
pres--
pri--
prior--
pro--
propa--
propra--
pros--
proti--
prst--
pru--
pruh--
prvo--
prvorepubli--
prvoroz--
przy--
ps--
pseu--
pseudo--
psy--
psycho--
pt--
ptero--
ptole--
pu--
pub--
puc--
pum--
purk--
purp--
purpur--
pus--
put--
py--
pyr--
q--
qu--
quat--
que--
qui--
r--
ra--
rac--
rad--
radio--
raf--
raj--
rak--
ral--
ram--
ran--
rap--
ras--
rat--
ratifi--
ray--
raz--
rb--
rc--
rd--
re--
rea--
reakt--
real--
reb--
rec--
recei--
recen--
recip--
recog--
recon--
red--
reduk--
refer--
refle--
refu--
regi--
regu--
reha--
rehabili--
rein--
rej--
rek--
reli--
relik--
rem--
remem--
ren--
rent--
rept--
res--
ret--
retros--
rev--
revi--
rey--
rez--
rezer--
rf--
rg--
rh--
rho--
rhy--
ri--
ric--
rie--
rik--
rima--
ris--
rk--
rko--
rm--
rn--
rni--
ro--
rob--
roc--
rock--
rod--
roh--
rok--
roky--
rom--
ron--
roose--
ros--
rose--
rot--
rou--
roubo--
rov--
rovn--
row--
roz--
rozdr--
rs--
rst--
rsten--
rt--
rttem--
ru--
rubr--
rud--
ruka--
ruko--
rum--
run--
rus--
rv--
ry--
rychl--
rys--
rytmi--
rz--
s--
sa--
sacr--
sad--
sal--
salcb--
sam--
samo--
san--
sar--
sas--
sat--
satel--
satir--
sau--
sauro--
sav--
savo--
sax--
saz--
sb--
sc--
scar--
sce--
sch--
sche--
schi--
schind--
schle--
schm--
scho--
schr--
schu--
schwe--
sci--
scien--
sco--
scri--
scul--
sd--
se--
sea--
sebe--
sec--
sed--
sedi--
sedimen--
sedmi--
see--
segmen--
sek--
sel--
selek--
seleu--
sem--
semi--
sen--
sep--
separa--
seque--
ser--
ses--
set--
sev--
severo--
sex--
sey--
sez--
sf--
sg--
sgraf--
sh--
sha--
shake--
she--
sher--
sho--
shod--
show--
shut--
si--
sici--
sid--
sie--
sikor--
sil--
sim--
simul--
sin--
sinia--
sio--
sir--
sis--
sit--
six--
sj--
sjed--
sjednoc--
sk--
ska--
ske--
skept--
ski--
skle--
sklo--
sko--
skr--
sku--
skulp--
skvos--
sky--
sl--
sla--
sladk--
slado--
sle--
sled--
sli--
slib--
slo--
slu--
sm--
smalt--
sme--
smi--
smo--
smu--
sn--
sne--
sni--
sno--
snow--
so--
soa--
sob--
soc--
socio--
sol--
som--
some--
son--
sor--
sos--
sou--
soud--
sp--
spa--
spe--
specifi--
spect--
spekt--
spektros--
speku--
spi--
spis--
spla--
sply--
spo--
spoj--
spoko--
spol--
spolu--
sponz--
sponzor--
spor--
sport--
spr--
spra--
spu--
spy--
squ--
sr--
srb--
srozumi--
srp--
sru--
ss--
st--
sta--
staat--
stabili--
stan--
star--
staro--
stav--
ste--
stej--
ster--
stere--
steri--
sti--
stimu--
stir--
sto--
stol--
str--
stra--
straho--
strou--
stu--
stup--
stvrz--
sty--
styl--
su--
sub--
sucho--
sud--
sudet--
sue--
sui--
suk--
sulej--
sulf--
sum--
sun--
super--
supp--
sur--
survi--
sus--
sut--
sv--
sva--
sval--
svato--
sve--
svi--
svo--
svoj--
svor--
svrc--
svrchova--
swa--
swan--
swi--
swo--
sy--
sylv--
symetr--
symp--
sympati--
syn--
synchroni--
sz--
sza--
sł--
t--
ta--
tab--
tabul--
tac--
tafe--
tag--
tah--
tai--
taj--
tak--
tal--
tam--
tan--
tar--
tas--
tat--
tau--
tch--
te--
tech--
tek--
tel--
tele--
tem--
ten--
teoreti--
tepe--
ter--
termody--
terop--
teror--
terri--
tes--
test--
text--
th--
tha--
the--
theod--
theolog--
theor--
thero--
thou--
thu--
thy--
ti--
tiav--
tie--
til--
tim--
time--
tin--
tip--
tis--
tisk--
tit--
tiv--
tk--
tka--
tkalc--
tko--
tl--
tla--
tle--
tli--
tlo--
tma--
tni--
to--
tok--
tol--
tom--
ton--
top--
topog--
topograf--
tor--
tos--
tou--
tov--
toxi--
tr--
tra--
tragi--
tramp--
trans--
tranz--
traum--
traut--
tre--
trh--
tri--
triden--
trna--
tro--
troj--
trolej--
trou--
tru--
trubk--
try--
ts--
tt--
tu--
tuc--
tuk--
tun--
tur--
turki--
tuze--
tv--
tva--
tvar--
tvrd--
tvrt--
twe--
twi--
ty--
tyl--
typ--
typog--
tyr--
tz--
u--
ua--
ubi--
uby--
uc--
uce--
ucho--
uchy--
uda--
udi--
uga--
uh--
uhy--
uj--
uk--
uka--
uklid--
ukot--
ukr--
ukraj--
ul--
ule--
ullm--
ultra--
um--
ume--
un--
una--
under--
une--
ung--
uni--
up--
upa--
upi--
uply--
upust--
ur--
ura--
urban--
urna--
uroz--
urs--
ury--
urychl--
us--
usa--
usi--
usmr--
usou--
ust--
usta--
ustup--
usuz--
ut--
uta--
ute--
uti--
uv--
uva--
uve--
uvoz--
uz--
uzdra--
v--
va--
vac--
vad--
vaj--
val--
vamp--
van--
var--
varia--
vas--
vat--
vaz--
vc--
vdo--
ve--
vec--
ved--
veget--
vehi--
vej--
vel--
velez--
velko--
ven--
venezu--
ver--
ves--
vexilo--
vez--
vi--
via--
vic--
vice--
vid--
video--
viditel--
vie--
vil--
vin--
viole--
vis--
vit--
viz--
vko--
vl--
vla--
vlaj--
vlast--
vle--
vlk--
vln--
vlta--
vni--
vo--
voc--
vod--
vodo--
voj--
voje--
vok--
vol--
volej--
volks--
von--
vor--
vos--
voz--
vp--
vpa--
vr--
vra--
vrb--
vrh--
vroz--
vs--
vstup--
vu--
vulka--
vy--
vyc--
vychy--
vyd--
vyho--
vyhod--
vyhub--
vyhy--
vyka--
vykou--
vykres--
vyma--
vyme--
vymi--
vyn--
vypa--
vyple--
vypn--
vypu--
vyr--
vys--
vysa--
vysky--
vysoko--
vysta--
vystu--
vysvo--
vysy--
vyta--
vytr--
vyva--
vyz--
vyzbro--
vyzdvi--
vz--
vzbu--
vzdy--
vzle--
vzpama--
w--
wa--
wald--
wan--
war--
was--
we--
web--
wehr--
wein--
wen--
west--
whe--
whis--
whit--
wi--
wie--
wiesb--
wiki--
wild--
wilf--
wilk--
win--
wo--
wojci--
wood--
wres--
wri--
ws--
wu--
wy--
wyo--
wł--
x--
xi--
xx--
y--
ya--
yo--
yu--
z--
za--
zac--
zachy--
zad--
zago--
zaha--
zahr--
zahy--
zaka--
zakot--
zakou--
zame--
zami--
zamr--
zapa--
zapi--
zaple--
zar--
zaregi--
zaregistr--
zas--
zasa--
zasnou--
zasta--
zastu--
zat--
zata--
zato--
zau--
zava--
zaz--
zby--
zd--
zda--
zde--
zdis--
zdlou--
zdo--
zdokumen--
ze--
zej--
zel--
zem--
zen--
zesi--
zey--
zi--
zie--
zimm--
zit--
zk--
zko--
zkomp--
zkonstru--
zkontro--
zkr--
zkra--
zla--
zlato--
zle--
zli--
zlo--
zlom--
zma--
zmi--
zmoc--
zmr--
zn--
zna--
zne--
zni--
znojem--
znovu--
zo--
zoh--
zoo--
zootier--
zor--
zota--
zou--
zpoma--
zpr--
zr--
zra--
zranit--
zrca--
zredu--
zry--
zs--
zt--
zte--
ztros--
zu--
zub--
zuz--
zv--
zve--
zvi--
zvon--
zvra--
zwe--
zwi--
zy--
æ--
đ--
ł--
ſ--
ɔ--
ɛ--
ɡ--
ɦ--
ɪ--
ɲ--
ʁ--
ʃ--
ʒ--
α--
γ--
δ--
ε--
θ--
κ--
λ--
μ--
ν--
ο--
π--
ρ--
σ--
τ--
χ--
а--
б--
в--
г--
го--
д--
з--
и--
инст--
ист--
к--
ка--
ко--
л--
м--
ма--
ме--
мед--
ми--
мо--
му--
н--
населе--
нацио--
но--
о--
обл--
общи--
п--
пе--
пр--
р--
рус--
с--
се--
ск--
со--
ст--
т--
ук--
ф--
ч--
א--
ב--
ה--
י--
מ--
ע--
ש--
ا--
--0
--00
--01
--1
--10
--11
--14
--17
--18
--2
--20
--25
--27
--28
--3
--34
--4
--5
--6
--68
--7
--8
--9
--98
--a
--ab
--able
--ac
--ace
--aceae
--ach
--aci
--ad
--ada
--adl
--ado
--ads
--ae
--af
--age
--ah
--ai
--aille
--aj
--aji
--ak
--ake
--aki
--al
--ala
--ale
--ali
--all
--aly
--am
--ami
--ampton
--an
--ana
--and
--ane
--ang
--ani
--anik
--ann
--ano
--ans
--ant
--antni
--anu
--any
--ao
--ap
--ar
--ara
--ard
--arda
--aro
--art
--aru
--ary
--as
--ast
--at
--ata
--ate
--ath
--atic
--aticka
--aticky
--atikou
--atiky
--ation
--ations
--ative
--atne
--atni
--atu
--aturni
--aty
--au
--aurus
--av
--ava
--avde
--ave
--avi
--avit
--avne
--avou
--aw
--ay
--az
--azil
--b
--ba
--bc
--bce
--be
--bek
--ben
--berg
--bha
--bi
--bia
--bian
--bie
--bil
--bkou
--bku
--bky
--ble
--bne
--bni
--bny
--bo
--bor
--bou
--bova
--bove
--bovy
--box
--boy
--br
--bra
--bs
--bsd
--bt
--bu
--buje
--burg
--burgu
--burka
--burn
--bury
--bus
--by
--c
--ca
--cade
--cal
--can
--ce
--cea
--ceae
--ced
--cel
--cem
--cemi
--cen
--cer
--ces
--ch
--cha
--che
--chia
--chl
--chne
--cht
--chta
--chu
--chy
--ci
--cia
--cie
--cii
--cin
--cing
--cini
--cio
--cius
--ck
--cka
--cke
--cki
--cko
--ckou
--cku
--cky
--cl
--co
--com
--con
--cova
--cove
--covou
--craft
--cs
--ct
--ction
--ctor
--cts
--ctva
--ctvi
--ctvo
--cu
--cuje
--cuji
--cum
--cup
--cus
--cy
--cz
--d
--da
--dad
--dae
--dal
--dat
--day
--dcu
--de
--dea
--ded
--del
--dem
--den
--dena
--deny
--der
--des
--dge
--dh
--di
--dia
--die
--dii
--dil
--din
--dit
--dl
--dla
--dle
--dli
--dlo
--dlu
--dly
--dn
--dna
--dne
--dni
--dny
--do
--doc
--don
--dor
--dorf
--dou
--dov
--dr
--dra
--dry
--ds
--dt
--du
--duct
--duje
--dula
--dy
--dych
--dys
--dz
--e
--ea
--eae
--eal
--eau
--eb
--ec
--eca
--ech
--eck
--ecke
--ecky
--ect
--ection
--ects
--ed
--edl
--edle
--ee
--een
--ef
--eg
--eho
--ei
--ej
--ejc
--ek
--ekce
--ekci
--ekt
--el
--ela
--ele
--elem
--eli
--ell
--ella
--elli
--ello
--elna
--elne
--elnou
--elny
--elo
--els
--elu
--ely
--em
--emi
--en
--ena
--enburg
--enc
--end
--ene
--eni
--enne
--eno
--ens
--ensis
--enstein
--ent
--enta
--ents
--entu
--enu
--eny
--eo
--eon
--ep
--er
--era
--erg
--eri
--erie
--erk
--ern
--ers
--eru
--erve
--ervy
--ery
--es
--ese
--ess
--esse
--est
--et
--eta
--ete
--eto
--etou
--ets
--ett
--etta
--ette
--etti
--etu
--ety
--eu
--eum
--eus
--eux
--ev
--eva
--evic
--ew
--ex
--exua
--ey
--ez
--f
--fa
--fas
--fax
--fe
--feld
--fest
--ff
--fi
--fia
--fika
--fikace
--fly
--fni
--fo
--folia
--fon
--fs
--ft
--fu
--ful
--fy
--g
--ga
--gan
--gat
--gate
--gau
--ge
--ged
--gem
--gen
--genni
--ger
--ges
--gg
--gger
--gh
--ght
--gi
--gie
--gii
--gin
--ging
--gio
--gir
--gl
--gler
--gles
--gma
--gna
--gne
--gno
--go
--gon
--gona
--gos
--gr
--gram
--gro
--gs
--gt
--gu
--gua
--gy
--h
--ha
--hal
--ham
--hat
--hau
--hc
--he
--head
--heim
--hem
--hen
--her
--hes
--hi
--hia
--hic
--hie
--hieu
--hin
--hip
--hips
--hium
--hl
--hla
--hle
--hli
--hlivost
--hly
--hn
--hne
--hny
--ho
--hof
--hol
--hop
--hor
--hou
--hov
--hova
--hr
--hra
--hs
--ht
--hta
--hte
--hty
--hu
--huje
--huji
--hva
--hve
--hy
--hybny
--hyl
--hyn
--hyta
--i
--ia
--iac
--iaci
--ial
--ian
--iana
--ians
--ias
--ic
--ica
--ical
--ice
--ich
--ici
--ick
--icka
--icke
--icko
--ickou
--icky
--ico
--ics
--icum
--icus
--id
--ida
--idae
--idni
--ido
--ie
--ied
--iel
--iem
--ien
--ier
--iers
--ies
--if
--ifikace
--ig
--igh
--ight
--iho
--ii
--ij
--ija
--ijske
--ijsky
--ik
--ika
--ikou
--iku
--iky
--il
--ila
--ile
--ili
--ilia
--illa
--ille
--illy
--ilo
--ils
--ilu
--ily
--im
--in
--ina
--inda
--ine
--ines
--ing
--ings
--ington
--ingu
--ini
--iniho
--ino
--ins
--insky
--inu
--inum
--iny
--io
--iology
--ion
--iona
--ions
--ior
--ios
--ious
--iova
--iove
--iovy
--ip
--ipe
--ique
--ir
--ira
--ire
--iru
--is
--isch
--ische
--ise
--ish
--isku
--ism
--ismem
--ismu
--ismus
--ist
--ista
--iste
--isticka
--isticke
--istickou
--isticky
--istika
--istiku
--istiky
--istka
--istky
--istor
--istou
--ists
--istu
--isty
--isu
--it
--ita
--ite
--iti
--ities
--ition
--itni
--itou
--itske
--itt
--itu
--ity
--itz
--iu
--ium
--ius
--iv
--iva
--ive
--ivita
--ivitu
--ivity
--ivne
--ivni
--ivu
--ivy
--ix
--iz
--iza
--izac
--izace
--izaci
--ization
--ize
--ized
--izon
--izova
--izovana
--izovane
--izovany
--izovat
--izuji
--j
--ja
--jan
--jate
--jaty
--jazyc
--jde
--je
--jeme
--jet
--jev
--jeva
--ji
--jk
--jn
--jne
--jni
--jo
--js
--jsko
--jsky
--jt
--jte
--ju
--juje
--k
--ka
--kal
--kami
--kavy
--kc
--kce
--kci
--ke
--ked
--kel
--kem
--ker
--kes
--ket
--ki
--kie
--kij
--kl
--kla
--kli
--klo
--kly
--kne
--kni
--knuti
--ko
--koku
--kos
--kou
--kov
--kova
--kove
--kovy
--kr
--kra
--ks
--kt
--kta
--ktivni
--ktor
--ktoru
--ktu
--kty
--ku
--kula
--kum
--kve
--ky
--kyn
--kyni
--kytuji
--l
--la
--lac
--lace
--lage
--lahu
--lam
--land
--lar
--lard
--lav
--lay
--lc
--ld
--lda
--ldy
--le
--lem
--len
--ler
--les
--less
--let
--leta
--lete
--lety
--ley
--lf
--lh
--li
--lia
--lic
--licke
--licky
--lie
--liga
--lii
--lil
--lin
--line
--ling
--lio
--lis
--lismu
--lismus
--list
--lista
--listicke
--listicky
--listy
--lit
--lita
--lite
--litou
--litu
--lity
--live
--lizac
--lizace
--lizaci
--lizova
--lizovat
--lizuje
--lka
--lky
--ll
--lla
--lle
--llen
--lli
--llo
--llu
--lly
--ln
--lna
--lne
--lni
--lny
--lo
--log
--logie
--logii
--logy
--lor
--los
--lou
--lov
--lova
--love
--loz
--ls
--lt
--lta
--ltu
--lty
--lu
--luhuji
--luje
--lum
--lus
--ly
--lyn
--lys
--m
--ma
--maa
--man
--mann
--manova
--mba
--mbo
--me
--mem
--men
--ment
--ments
--mer
--mi
--mia
--mic
--mik
--miku
--min
--mis
--ml
--mm
--mmer
--mna
--mne
--mo
--mon
--mor
--mos
--mp
--mps
--ms
--mt
--mtud
--mu
--muji
--mus
--my
--n
--na
--nac
--nace
--nae
--nais
--nal
--nant
--nau
--nberg
--nc
--nce
--nced
--nci
--ncia
--ncova
--ncu
--ncy
--nd
--nda
--nde
--ndi
--ndo
--ndorf
--nds
--ndu
--ndy
--ne
--nea
--nec
--nek
--nel
--nell
--nem
--nen
--ner
--nes
--ness
--net
--news
--ney
--ng
--nga
--nge
--ngen
--nger
--ngo
--ngu
--ni
--nia
--nian
--nic
--nice
--nici
--nie
--niho
--nii
--nik
--nil
--nin
--nis
--nistka
--nit
--nity
--nium
--nja
--nk
--nka
--nke
--nko
--nku
--nky
--nkyni
--nn
--nna
--nne
--nni
--nny
--no
--nol
--nos
--nost
--nosti
--nou
--nout
--nouti
--nov
--nova
--nove
--novy
--ns
--nsa
--nse
--nsis
--nska
--nske
--nski
--nsky
--nson
--nstein
--nstvi
--nt
--nta
--nte
--ntem
--ntes
--ntet
--nti
--ntia
--ntial
--ntin
--ntne
--ntni
--nto
--nton
--ntova
--nts
--ntske
--ntu
--nty
--nu
--nul
--nulo
--num
--nus
--nut
--nuta
--nute
--nuti
--nuto
--nuty
--nuv
--nx
--ny
--nyj
--nz
--nza
--nze
--nzen
--o
--oa
--ob
--obi
--obil
--obni
--oc
--oce
--oci
--ock
--ocke
--ocky
--od
--oda
--odi
--odic
--odie
--odit
--ody
--oe
--of
--off
--ofilni
--og
--ogenni
--ogie
--ogii
--ografii
--ogue
--ogy
--oh
--oha
--ohor
--ohorni
--oi
--oidni
--oir
--oj
--oji
--ok
--oka
--oky
--ol
--ola
--olo
--olog
--ologicke
--ologie
--ologii
--ology
--oloz
--olu
--oly
--om
--oma
--ome
--omes
--omie
--omor
--omu
--omy
--on
--ona
--onal
--ond
--one
--onem
--oni
--onice
--onickou
--onika
--onova
--onovy
--ons
--onske
--ont
--ontu
--onu
--ony
--oo
--oon
--op
--opis
--opisu
--opol
--or
--ora
--ord
--ore
--orem
--ores
--orf
--ori
--oria
--orii
--orium
--orn
--ors
--ort
--ortu
--oru
--orum
--ory
--os
--osa
--osaurus
--osfe
--oso
--ost
--osti
--ot
--ota
--ote
--oth
--othe
--oti
--otku
--otky
--otny
--otu
--ou
--ouc
--ouci
--ough
--oun
--oupi
--oupky
--ous
--out
--ouva
--ouz
--ov
--ova
--oval
--ovala
--ovali
--ovana
--ovane
--ovany
--ovat
--ovce
--ovci
--ovcu
--ove
--ovek
--ovi
--ovic
--ovis
--ovka
--ovkou
--ovku
--ovky
--ovna
--ovne
--ovni
--ovny
--ovo
--ovou
--ovova
--ovske
--ovsky
--ovu
--ovy
--ow
--owa
--owe
--owice
--owitz
--ows
--owski
--owy
--ox
--oy
--oz
--p
--pa
--pal
--pc
--pe
--pedia
--pel
--pen
--peny
--per
--pf
--ph
--phe
--phical
--phone
--pi
--pie
--pii
--pil
--pit
--pl
--pla
--plne
--ply
--pni
--pny
--po
--poc
--pol
--port
--post
--pov
--pp
--ppa
--ppe
--pr
--pra
--ps
--pse
--pt
--pte
--pton
--pu
--puji
--py
--q
--que
--r
--ra
--rage
--ral
--ram
--rba
--rc
--rch
--rd
--rda
--rdi
--rdu
--re
--red
--rek
--rel
--rell
--rem
--ren
--rer
--res
--ret
--rg
--rge
--rgu
--ri
--ria
--rid
--ridu
--ridy
--rie
--ries
--rii
--rij
--rin
--rio
--ris
--risches
--rista
--rit
--rite
--ritu
--rity
--riu
--rium
--rius
--rk
--rka
--rky
--rl
--rle
--rly
--rm
--rma
--rman
--rn
--rna
--rne
--rni
--rny
--ro
--roc
--roid
--ron
--rop
--rou
--roz
--rp
--rr
--rra
--rre
--rry
--rs
--rson
--rt
--rta
--rte
--rth
--ru
--ruhu
--ruji
--rum
--rus
--ry
--rz
--rzity
--s
--sa
--saurus
--sberg
--sburg
--sburgu
--sch
--sco
--scope
--script
--sdorf
--se
--seau
--sed
--sem
--sen
--ser
--ses
--sey
--sh
--ship
--shire
--si
--sia
--sie
--sii
--siku
--sion
--sis
--sius
--sk
--ska
--ske
--ski
--skij
--sko
--skou
--sku
--sky
--sl
--sla
--slav
--sli
--slil
--sly
--sm
--smu
--smus
--sn
--sna
--sne
--sni
--sny
--so
--son
--sou
--sov
--sova
--sovi
--ss
--ssa
--sse
--ssi
--ssia
--sson
--st
--sta
--ste
--ster
--stev
--sti
--stic
--sticka
--sticke
--sticky
--stika
--stiku
--stiky
--stka
--stni
--stone
--stou
--str
--sts
--stu
--stva
--stvi
--stvo
--stvu
--stvy
--sty
--su
--suji
--sus
--sve
--sy
--sz
--szka
--sław
--t
--ta
--tac
--tace
--tal
--tan
--tar
--tas
--tav
--tbou
--tc
--tce
--te
--ted
--tein
--tek
--tel
--tele
--teli
--telna
--telne
--telnou
--telny
--telu
--tem
--ten
--ter
--ters
--tes
--tet
--th
--thal
--thon
--thus
--thy
--ti
--tia
--tial
--tic
--tica
--ticka
--ticke
--tickou
--ticky
--tics
--tida
--tie
--ties
--tii
--tik
--tika
--tiku
--tiky
--til
--tin
--ting
--tio
--tion
--tions
--tis
--tisi
--tismu
--tismus
--tit
--tium
--tius
--tiv
--tiva
--tive
--tivne
--tivni
--tivou
--tivu
--tivy
--tizace
--tizuji
--tka
--tku
--tky
--tl
--tna
--tne
--tni
--tnou
--tny
--to
--toc
--ton
--tona
--tonu
--top
--tor
--tore
--tors
--tou
--tova
--town
--tr
--tra
--tro
--tru
--trum
--try
--ts
--tsch
--tske
--tt
--tta
--tte
--tti
--tto
--tty
--tu
--tuje
--tuji
--tum
--tur
--tura
--ture
--turu
--tury
--tus
--tva
--tvem
--tvi
--tvo
--ty
--tz
--u
--ua
--ual
--ub
--uba
--ubu
--uc
--uce
--uch
--uci
--ud
--ue
--uer
--uf
--ugh
--ui
--uit
--uj
--uje
--uji
--uk
--ul
--ula
--ulo
--ult
--ulu
--ulus
--um
--uma
--umace
--un
--ung
--unt
--unu
--up
--upu
--ur
--ura
--ure
--ures
--uru
--urus
--ury
--us
--use
--uske
--usky
--usu
--ut
--uti
--ution
--uto
--uty
--uv
--uvu
--ux
--uz
--uze
--uzi
--v
--va
--vac
--vad
--val
--vala
--vanske
--vansky
--vat
--vatel
--vatele
--vateli
--vatelu
--vc
--vce
--vci
--vcu
--vd
--ve
--vec
--vem
--ven
--vena
--vene
--veny
--ver
--vi
--via
--vic
--vice
--vici
--vik
--vil
--ville
--vin
--vio
--vit
--vite
--viti
--vity
--vka
--vky
--vla
--vn
--vna
--vne
--vni
--vny
--vo
--vost
--vosti
--vou
--vova
--vr
--vs
--vske
--vsko
--vsku
--vsky
--vu
--vuje
--vuji
--vy
--w
--wa
--wald
--warovy
--way
--we
--web
--wer
--wi
--wich
--wick
--witz
--wl
--wn
--wo
--wood
--worth
--ws
--wska
--wski
--wy
--x
--xa
--xe
--xi
--xidu
--xu
--xy
--y
--ya
--ybe
--yc
--ych
--ye
--yer
--yho
--yi
--yk
--yka
--yl
--ym
--yn
--yna
--yne
--yni
--yon
--yova
--yp
--yr
--ys
--yslne
--yt
--yte
--yty
--yz
--z
--za
--zac
--zace
--zaci
--zan
--zano
--zd
--zdi
--ze
--zek
--zem
--zen
--zeni
--zeny
--zer
--zi
--zia
--zie
--zil
--zin
--zing
--zio
--zione
--zit
--zka
--zl
--zna
--zne
--zni
--zo
--zova
--zoval
--zovat
--zr
--zs
--zt
--zu
--zuje
--zuji
--zy
--zyn
--zzi
--ß
--ße
--ł
--ła
--ław
--ło
--ły
--ɐ
--ɔ
--ə
--ɛ
--ɪ
--ʁ
--ʊ
--α
--ε
--η
--ι
--ν
--ο
--ος
--ς
--υ
--ω
--а
--аи
--ан
--в
--ва
--вич
--д
--да
--е
--евич
--еи
--з
--и
--ии
--ия
--к
--ка
--ки
--кии
--л
--ль
--м
--н
--о
--ов
--ои
--р
--ра
--рия
--с
--скии
--сти
--т
--та
--тут
--ть
--у
--х
--ы
--ь
--я
--אל
--ה
--וב
--ות
--י
--ים
--ית
--ן
--ר
--ת
