!
"
#
##a
##aa
##ab
##ac
##ad
##ae
##af
##ag
##ah
##ai
##aj
##ak
##al
##am
##an
##ao
##ap
##aq
##ar
##as
##at
##au
##av
##aw
##ax
##ay
##az
##b
##ba
##bb
##bc
##bd
##be
##bf
##bg
##bh
##bi
##bj
##bk
##bl
##bm
##bn
##bo
##bp
##bq
##br
##bs
##bt
##bu
##bv
##bw
##bx
##by
##bz
##c
##ca
##cb
##cc
##cd
##ce
##cf
##cg
##ch
##ci
##cj
##ck
##cl
##cm
##cn
##co
##cp
##cq
##cr
##cs
##ct
##cu
##cv
##cw
##cx
##cy
##cz
##d
##da
##db
##dc
##dd
##de
##df
##dg
##dh
##di
##dj
##dk
##dl
##dm
##dn
##do
##dp
##dq
##dr
##ds
##dt
##du
##dv
##dw
##dx
##dy
##dz
##e
##ea
##eb
##ec
##ed
##ee
##ef
##eg
##eh
##ei
##ej
##ek
##el
##em
##en
##eo
##ep
##eq
##er
##es
##et
##eu
##ev
##ew
##ex
##ey
##ez
##f
##fa
##fb
##fc
##fd
##fe
##ff
##fg
##fh
##fi
##fj
##fk
##fl
##fm
##fn
##fo
##fp
##fq
##fr
##fs
##ft
##fu
##fv
##fw
##fx
##fy
##fz
##g
##ga
##gb
##gc
##gd
##ge
##gf
##gg
##gh
##gi
##gj
##gk
##gl
##gm
##gn
##go
##gp
##gq
##gr
##gs
##gt
##gu
##gv
##gw
##gx
##gy
##gz
##h
##ha
##hb
##hc
##hd
##he
##hf
##hg
##hh
##hi
##hj
##hk
##hl
##hm
##hn
##ho
##hp
##hq
##hr
##hs
##ht
##hu
##hv
##hw
##hx
##hy
##hz
##i
##ia
##ib
##ic
##id
##ie
##if
##ig
##ih
##ii
##ij
##ik
##il
##im
##in
##io
##ip
##iq
##ir
##is
##it
##iu
##iv
##iw
##ix
##iy
##iz
##j
##ja
##jb
##jc
##jd
##je
##jf
##jg
##jh
##ji
##jj
##jk
##jl
##jm
##jn
##jo
##jp
##jq
##jr
##js
##jt
##ju
##jv
##jw
##jx
##jy
##jz
##k
##ka
##kb
##kc
##kd
##ke
##kf
##kg
##kh
##ki
##kj
##kk
##kl
##km
##kn
##ko
##kp
##kq
##kr
##ks
##kt
##ku
##kv
##kw
##kx
##ky
##kz
##l
##la
##lb
##lc
##ld
##le
##lf
##lg
##lh
##li
##lj
##lk
##ll
##lm
##ln
##lo
##lp
##lq
##lr
##ls
##lt
##lu
##lv
##lw
##lx
##ly
##lz
##m
##ma
##mb
##mc
##md
##me
##mf
##mg
##mh
##mi
##mj
##mk
##ml
##mm
##mn
##mo
##mp
##mq
##mr
##ms
##mt
##mu
##mv
##mw
##mx
##my
##mz
##n
##na
##nb
##nc
##nd
##ne
##nf
##ng
##nh
##ni
##nj
##nk
##nl
##nm
##nn
##no
##np
##nq
##nr
##ns
##nt
##nu
##nv
##nw
##nx
##ny
##nz
##o
##oa
##ob
##oc
##od
##oe
##of
##og
##oh
##oi
##oj
##ok
##ol
##om
##on
##oo
##op
##oq
##or
##os
##ot
##ou
##ov
##ow
##ox
##oy
##oz
##p
##pa
##pb
##pc
##pd
##pe
##pf
##pg
##ph
##pi
##pj
##pk
##pl
##pm
##pn
##po
##pp
##pq
##pr
##ps
##pt
##pu
##pv
##pw
##px
##py
##pz
##q
##qa
##qb
##qc
##qd
##qe
##qf
##qg
##qh
##qi
##qj
##qk
##ql
##qm
##qn
##qo
##qp
##qq
##qr
##qs
##qt
##qu
##qv
##qw
##qx
##qy
##qz
##r
##ra
##rb
##rc
##rd
##re
##rf
##rg
##rh
##ri
##rj
##rk
##rl
##rm
##rn
##ro
##rp
##rq
##rr
##rs
##rt
##ru
##rv
##rw
##rx
##ry
##rz
##s
##sa
##sb
##sc
##sd
##se
##sf
##sg
##sh
##si
##sj
##sk
##sl
##sm
##sn
##so
##sp
##sq
##sr
##ss
##st
##su
##sv
##sw
##sx
##sy
##sz
##t
##ta
##tb
##tc
##td
##te
##tf
##tg
##th
##ti
##tj
##tk
##tl
##tm
##tn
##to
##tp
##tq
##tr
##ts
##tt
##tu
##tv
##tw
##tx
##ty
##tz
##u
##ua
##ub
##uc
##ud
##ue
##uf
##ug
##uh
##ui
##uj
##uk
##ul
##um
##un
##uo
##up
##uq
##ur
##us
##ut
##uu
##uv
##uw
##ux
##uy
##uz
##v
##va
##vb
##vc
##vd
##ve
##vf
##vg
##vh
##vi
##vj
##vk
##vl
##vm
##vn
##vo
##vp
##vq
##vr
##vs
##vt
##vu
##vv
##vw
##vx
##vy
##vz
##w
##wa
##wb
##wc
##wd
##we
##wf
##wg
##wh
##wi
##wj
##wk
##wl
##wm
##wn
##wo
##wp
##wq
##wr
##ws
##wt
##wu
##wv
##ww
##wx
##wy
##wz
##x
##xa
##xb
##xc
##xd
##xe
##xf
##xg
##xh
##xi
##xj
##xk
##xl
##xm
##xn
##xo
##xp
##xq
##xr
##xs
##xt
##xu
##xv
##xw
##xx
##xy
##xz
##y
##ya
##yb
##yc
##yd
##ye
##yf
##yg
##yh
##yi
##yj
##yk
##yl
##ym
##yn
##yo
##yp
##yq
##yr
##ys
##yt
##yu
##yv
##yw
##yx
##yy
##yz
##z
##za
##zb
##zc
##zd
##ze
##zf
##zg
##zh
##zi
##zj
##zk
##zl
##zm
##zn
##zo
##zp
##zq
##zr
##zs
##zt
##zu
##zv
##zw
##zx
##zy
##zz
$
%
&
'
(
)
*
+
,
-
.
/
0
00
000
0000
00000000
0001
0004
001
002
0022
0027
003
0032
004
005
006
007
008
009
01
010
011
012
013
014
015
016
017
018
019
02
020
021
022
026
0261
029
03
030
031
0362
04
05
057
06
07
08
0862
09
0a
0b
0c
0d
0e
0f
0g
0h
0i
0j
0k
0l
0m
0n
0o
0p
0q
0r
0s
0t
0u
0v
0w
0x
0y
0z
1
10
100
1000
1001
1002
1007
101
1016
1017
102
1021
1024
103
1038
1039
104
105
1050
1051
1055
106
1066
107
1073
108
1080
1086
1088
109
1093
1097
1098
11
110
1100
1101
1103
111
1111
112
1126
113
1130
114
1144
1146
115
1150
1156
1158
116
117
1177
118
1180
1186
119
1197
1198
12
120
1200
1204
121
1210
1211
1212
1213
1214
122
1220
1225
1227
123
1230
1234
1235
124
1240
1241
1246
125
1250
1252
1253
1255
126
1260
1261
1265
1267
127
1270
1278
1279
128
1280
129
1290
1291
1295
1296
1298
13
130
1300
1305
1306
1307
1308
131
1310
1311
1312
1315
1316
1318
132
1320
1322
1325
1327
1328
133
1330
1333
1335
1336
134
1340
1341
1342
1346
1347
1348
1349
135
1350
1351
1352
1353
1354
1355
1356
1357
1358
1359
136
1360
1361
1362
1363
1364
1365
1366
1367
1368
1369
137
1370
1371
1373
1375
1377
1378
1379
138
1380
1381
1382
1383
1384
1385
1386
1387
1389
139
1390
1391
1392
1393
1394
1395
1396
1397
1398
1399
14
140
1400
1402
1403
1404
1405
1406
1407
1408
1409
141
1410
1411
1412
1413
1414
1415
1416
1417
1418
1419
142
1420
1421
1422
1423
1424
1425
1426
1427
1428
1429
143
1430
1431
1432
1433
1434
1435
1436
1437
1438
1439
144
1440
1444
1445
1447
1448
1449
145
1450
1451
1452
1453
1454
1455
1456
1457
1458
1459
146
1460
1461
1462
1463
1464
1465
1466
1467
1468
1469
147
1470
1471
1472
1473
1474
1475
1476
1477
1478
1479
148
1480
1481
1482
1483
1485
1486
1487
1488
149
1490
1491
1492
1493
1494
1495
1496
1497
1498
1499
15
150
1500
1501
1502
1503
1504
1505
1506
1507
1508
1509
151
1510
1511
1512
1513
1514
1515
1516
1517
1518
1519
152
1520
1521
1522
1523
1524
1525
1526
1527
1528
1529
153
1530
1531
1532
1533
1534
1535
1536
1537
1538
1539
154
1540
1541
1542
1543
1544
1545
1546
1547
1548
1549
155
1550
1551
1552
1553
1554
1555
1556
1557
1558
1559
156
1560
1561
1562
1563
1564
1565
1566
1567
1568
1569
157
1570
1571
1572
1573
1574
1575
1576
1577
1578
1579
158
1580
1581
1582
1583
1584
1585
1586
1587
1588
1589
159
1590
1591
1592
1593
1594
1595
1596
1597
1598
1599
16
160
1600
1601
1602
1603
1604
1605
1606
1607
1608
1609
161
1610
1611
1612
1613
1614
1615
1616
1617
1618
1619
162
1620
1621
1622
1623
1624
1625
1626
1627
1628
1629
163
1630
1631
1632
1633
1634
1635
1636
1637
1638
1639
164
1640
1641
1642
1643
1644
1645
1646
1647
1648
1649
165
1650
1651
1652
1653
1654
1655
1656
1657
1658
1659
166
1660
1661
1662
1663
1664
1665
1666
1667
1668
1669
167
1670
1671
1672
1673
1674
1675
1676
1677
1678
1679
168
1680
1681
1682
1683
1684
1685
1686
1687
1688
1689
169
1690
1691
1692
1693
1694
1695
1696
1697
1698
1699
17
170
1700
1701
1702
1703
1704
1705
1706
1707
1708
1709
171
1710
1711
1712
1713
1714
1715
1716
1717
1718
1719
172
1720
1721
1722
1723
1724
1725
1726
1727
1728
1729
173
1730
1731
1732
1733
1734
1735
1736
1737
1738
1739
174
1740
1741
1742
1743
1744
1745
1746
1747
1748
1749
175
1750
1751
1752
1753
1754
1755
1756
1757
1758
1759
176
1760
1761
1762
1763
1764
1765
1766
1767
1768
1769
177
1770
1771
1772
1773
1774
1775
1776
1777
1778
1779
178
1780
1781
1782
1783
1784
1785
1786
1787
1788
1789
179
1790
1791
1792
1793
1794
1795
1796
1797
1798
1799
18
180
1800
1801
1802
1803
1804
1805
1806
1807
1808
1809
181
1810
1811
1812
1813
1814
1815
1816
1817
1818
1819
182
1820
1821
1822
1823
1824
1825
1826
1827
1828
1829
183
1830
1831
1832
1833
1834
1835
1836
1837
1838
1839
184
1840
1841
1842
1843
1844
1845
1846
1847
1848
1849
185
1850
1851
1852
1853
1854
1855
1856
1857
1858
1859
186
1860
1861
1862
1863
1864
1865
1866
1867
1868
1869
187
1870
1871
1872
1873
1874
1875
1876
1877
1878
1879
188
1880
1881
1882
1883
1884
1885
1886
1887
1888
1889
189
1890
1891
1892
1893
1894
1895
1896
1897
1898
1899
19
190
1900
1901
1902
1903
1904
1905
1906
1907
1908
1909
191
1910
1911
1912
1913
1914
1915
1916
1917
1918
1919
192
1920
1921
1922
1923
1924
1925
1926
1927
1928
1929
193
1930
1931
1932
1933
1934
1935
1936
1937
1938
1939
194
1940
1941
1942
1943
1944
1945
1946
1947
1948
1949
195
1950
1951
1952
1953
1954
1955
1956
1957
1958
1959
196
1960
1961
1962
1963
1964
1965
1966
1967
1968
1969
197
1970
1971
1972
1973
1974
1975
1976
1977
1978
1979
198
1980
1981
1982
1983
1984
1985
1986
1987
1988
1989
199
1990
1991
1992
1993
1994
1995
1996
1997
1998
1999
1a
1b
1c
1d
1e
1f
1g
1h
1i
1j
1k
1l
1m
1n
1o
1p
1q
1r
1s
1t
1u
1v
1w
1x
1y
1z
2
20
200
2000
2001
2002
2003
2004
2005
2006
2007
2008
2009
201
2010
2011
2012
2013
2014
2015
2016
2017
2018
2019
202
2020
2021
2022
2023
2024
2025
203
2030
204
205
206
207
208
209
21
210
211
212
213
214
215
216
217
218
219
22
220
2200
221
222
223
224
225
226
227
228
229
23
230
2307
231
232
233
234
235
236
237
238
239
2394
24
240
2400
241
242
243
244
245
246
247
248
249
25
250
2500
251
252
253
254
255
256
257
258
259
26
260
2600
261
262
263
264
265
266
267
268
269
27
270
271
272
273
274
275
276
277
278
279
28
280
281
282
283
284
285
286
287
288
289
29
290
291
292
293
294
295
296
297
298
299
2a
2b
2c
2d
2e
2f
2g
2h
2i
2j
2k
2l
2m
2n
2o
2p
2q
2r
2s
2t
2u
2v
2w
2x
2y
2z
3
30
300
3000
301
302
303
304
305
306
307
3077
308
309
31
310
311
312
313
314
315
316
3166
317
318
319
32
320
321
3213
322
323
324
325
326
327
328
329
33
330
331
332
333
334
335
336
337
338
339
34
340
341
342
343
344
345
346
347
348
349
35
350
3500
351
352
353
354
355
356
357
358
359
36
360
361
362
363
364
365
366
367
368
369
37
370
371
372
373
374
375
376
377
378
379
38
380
381
382
383
384
385
386
387
388
389
39
390
391
392
393
394
395
396
397
398
399
3a
3b
3c
3d
3e
3f
3g
3h
3i
3j
3k
3l
3m
3n
3o
3p
3q
3r
3s
3t
3u
3v
3w
3x
3y
3z
4
40
400
4000
401
402
403
404
405
406
407
408
409
41
410
411
412
413
414
415
416
417
418
419
42
420
421
422
423
424
425
426
427
428
429
43
430
431
432
433
4331
434
435
436
437
438
439
44
440
441
442
443
444
445
446
447
448
449
45
450
451
452
453
454
455
456
457
458
459
46
460
461
462
463
464
465
466
467
468
469
47
470
471
472
473
474
475
476
477
478
479
48
480
481
482
483
484
485
486
487
488
489
49
490
491
492
493
494
495
496
497
498
499
4a
4b
4c
4d
4e
4f
4g
4h
4i
4j
4k
4l
4m
4n
4o
4p
4q
4r
4s
4t
4u
4v
4w
4x
4y
4z
5
50
500
5000
501
502
503
504
505
506
507
508
509
51
510
511
512
513
514
515
516
517
518
519
52
520
521
522
523
524
525
526
527
528
529
53
530
531
532
533
534
535
536
537
538
539
54
540
541
542
543
544
545
546
547
548
549
55
550
551
552
553
554
555
556
557
558
559
56
560
561
562
563
564
565
566
567
568
569
57
570
571
572
573
574
575
576
577
578
579
58
580
581
582
583
584
585
586
587
588
589
59
590
591
592
593
595
596
597
598
599
5a
5b
5c
5d
5e
5f
5g
5h
5i
5j
5k
5l
5m
5n
5o
5p
5q
5r
5s
5t
5u
5v
5w
5x
5y
5z
6
60
600
6000
601
602
603
604
605
606
607
608
609
61
610
611
612
613
614
615
616
617
618
62
620
621
622
623
624
625
626
627
628
629
63
630
631
632
633
634
635
636
637
638
639
64
640
641
642
643
644
645
646
647
648
649
65
650
651
652
655
656
658
659
66
660
661
662
664
666
667
668
669
67
670
671
672
674
675
676
678
679
68
680
682
684
685
686
688
69
690
691
6a
6b
6c
6d
6e
6f
6g
6h
6i
6j
6k
6l
6m
6n
6o
6p
6q
6r
6s
6t
6u
6v
6w
6x
6y
6z
7
70
700
7000
7001
7008
701
7011
7017
702
7021
7033
704
705
706
707
708
709
71
710
7106
711
712
714
715
717
718
7185
72
720
7203
7207
721
7234
7239
7243
725
726
727
7277
728
73
730
7309
731
732
7325
734
735
736
7360
737
74
740
741
742
7422
7429
7442
747
75
750
751
752
753
754
757
76
760
767
768
77
770
775
777
78
780
781
7811
787
79
790
796
7a
7b
7c
7d
7e
7f
7g
7h
7i
7j
7k
7l
7m
7n
7o
7p
7q
7r
7s
7t
7u
7v
7w
7x
7y
7z
8
80
800
8000
801
802
804
805
807
808
81
810
811
813
814
815
8192
82
820
8203
823
82419
83
830
835
84
840
843
85
850
85277
855
85983
86
860
86064
86158
86829
87
870
871
88
880
887
89
8a
8b
8c
8d
8e
8f
8g
8h
8i
8j
8k
8l
8m
8n
8o
8p
8q
8r
8s
8t
8u
8v
8w
8x
8y
8z
9
90
900
9000
907
91
911
913
92
920
93
94
940
95
950
96
960
963
965
97
970
973
975
978
98
980
99
999
9a
9b
9c
9d
9e
9f
9g
9h
9i
9j
9k
9l
9m
9n
9o
9p
9q
9r
9s
9t
9u
9v
9w
9x
9y
9z
:
;
<
=
>
?
@
[
[CLS]
[MASK]
[PAD]
[SEP]
[UNK]
\
]
^
_
`
a
a0
a1
a2
a3
a4
a5
a6
a7
a8
a9
aa
aaron
ab
abart
abatyse
abba
abbas
abbe
abbey
abc
abchazie
abchazii
abd
abdikaci
abe
abeceda
abecedne
abecedni
abecedy
abel
abies
abigail
ablativ
about
abraham
abrahama
abs
absence
absenci
absolutne
absolutni
absolvent
absolventi
absolventu
absolvoval
absolvovala
absolvovani
absolvovat
abstraktni
abu
aby
abych
abychom
abys
abyste
ac
academia
academic
academie
academy
access
accessed
account
ace
acer
ach
acid
ackoli
ackoliv
acr
across
act
acta
action
active
activity
actor
ad
ada
adalbert
adam
adama
adamec
adamek
adamem
adamova
adams
adaptace
adaptaci
add
address
adela
adelaide
adele
adjektiva
adler
admin
administration
administrativne
administrativni
administrativnich
administrativnim
administrativy
administrator
administratorem
admiral
admirala
adobe
adolf
adolfa
adolfem
adolphe
adres
adresa
adresar
adresare
adresari
adresaru
adrese
adresu
adresy
adrian
adriana
adult
advance
advanced
advances
adventure
adventures
advokat
advokata
advokatem
advokatni
ae
aero
aerospace
af
afc
afera
afery
affairs
afghanistan
afghanistanu
africa
african
africe
africka
africke
africkeho
africky
africkych
afrika
afriku
afriky
after
ag
again
against
agave
age
agency
agenda
agent
agenta
agenti
agentu
agentura
agenturou
agenturu
agentury
agenty
ages
aglomerace
aglomeraci
agnes
agrarni
agresivni
agriculture
ah
aha
ahl
ahmad
ahmed
ahoj
ai
aid
aids
aim
ain
air
airbus
aircraft
aires
airlines
airport
airways
aix
aj
ajax
ak
aka
akad
akademicka
akademicke
akademickeho
akademickem
akademicky
akademickych
akademie
akademii
akce
akcent
akci
akcich
akcie
akcii
akciova
akciove
akciovou
akcni
ako
akordeon
akov
akropolis
akt
akta
aktiv
aktiva
aktivace
aktivaci
aktivista
aktiviste
aktivistka
aktivistu
aktivit
aktivita
aktivitach
aktivitam
aktivite
aktivitou
aktivitu
aktivity
aktivne
aktivni
aktivnich
aktivniho
aktivnim
aktivuje
aktu
aktuality
aktualizace
aktualizaci
aktualizovany
aktualne
aktualni
aktualnich
aktualnim
akty
akusticka
akusticke
akutni
akuzativ
al
ala
alabama
alain
alan
alb
alba
albanci
albanie
albanii
albanske
albansky
albany
albatros
albech
albem
albert
alberta
alberto
albin
albion
albrecht
albrechta
albrechtice
albu
album
albums
ale
alegorie
alej
alejandro
aleje
aleji
aleksander
alena
aleph
ales
alese
alespon
alessandro
alex
alexander
alexandr
alexandra
alexandre
alexandrem
alexandrie
alexandrii
alexandrovic
alexandru
alexej
alexis
alfa
alfons
alfonse
alfonso
alfred
alfreda
algebra
algoritmu
algoritmus
algoritmy
ali
aliance
alianci
alias
alice
alien
aliho
alison
alive
aljasce
aljasky
alkaloidy
alkohol
alkoholem
alkoholu
all
alla
allan
alle
allen
allgemeine
alliance
allison
allium
allmusic
alma
almanach
alois
aloise
alon
alone
alonso
alp
alpach
alpes
alpha
alpine
alpske
alpskem
alpsky
alpy
als
also
alt
altan
alte
alter
alternativa
alternative
alternativne
alternativni
alto
always
alzbeta
alzbetou
alzbety
alzirska
alzirsko
alzirsku
am
amadeus
amalie
amanda
amaterske
amatersky
amaterskych
amazing
amazon
amber
ambice
ambiciozni
ambroz
amd
amelie
amen
america
american
americana
americane
americanka
americanu
americany
americe
americka
americke
americkeho
americkem
americkemu
americko
americkou
americky
americkych
americkym
americkymi
americti
amerika
ameriku
ameriky
ami
aminokyselin
aminokyseliny
amnestie
amnestii
amnesty
among
amor
amore
amos
amose
amour
amsterdam
amsterdamu
amtliches
amu
amudanan
amy
an
ana
analogicky
analysis
analyticke
analyz
analyza
analyze
analyzou
analyzu
analyzy
anastasija
anatolij
anatomie
anatomii
anatomy
ancient
and
andel
andela
andele
andelu
andely
anders
andersen
anderson
andersson
andorra
andre
andrea
andreas
andreeva
andrej
andreje
andres
andrew
andrews
android
andrzej
andy
aneb
anebo
anexi
anezka
anezky
ang
angazma
angazoval
angel
angela
angeles
angelika
angelique
angelo
angels
angiosperm
angl
anglican
anglicane
anglicka
anglicke
anglickeho
anglickem
anglickou
anglicky
anglickych
anglickym
anglictina
anglictine
anglictinu
anglictiny
anglie
anglii
anglo
angola
anhaltsko
ani
animace
animaci
animal
animals
animation
anime
animovaneho
animovany
animovanych
anita
aniz
anjou
ankete
ankety
ann
anna
annales
annals
annapolis
anne
annie
anniversary
anno
annou
announced
announces
annu
annual
anny
ano
anonymni
anorganicka
another
ant
antarktide
antarktidy
ante
anthony
anti
anticke
antickeho
antickych
antigen
antika
antiky
antiochie
antoine
antologie
antologii
anton
antona
antoni
antonia
antonie
antonin
antonina
antoninem
antonio
antonius
antropolog
antropologie
antuce
antukovych
antverpach
any
ao
aopk
ap
apache
aparat
aparatu
apg
api
aplikace
aplikaci
aplikacni
aplikovane
aplikovat
apod
apollo
apostol
apostola
apostolske
apostolsky
apostolu
app
apple
application
applications
applied
approach
apr
april
apt
aq
ar
ara
arab
arabie
arabii
arabove
arabska
arabske
arabskeho
arabskem
arabskou
arabsky
arabskych
arabstina
arabu
araby
aranzma
arbor
arboretum
arc
arch
archa
archaeology
archaicky
archandela
archeolog
archeologicka
archeologicke
archeologickeho
archeologicky
archeologickych
archeologie
archeologii
archeologove
archer
architecture
architekt
architekta
architektem
architekti
architektonicka
architektonicke
architektonickeho
architektonickou
architektonicky
architektonickych
architektu
architektura
architekture
architekturou
architekturu
architektury
architekty
archiv
archivar
archive
archives
archivni
archivnich
archivovana
archivovano
archivu
archivy
archiweb
arci
arcibiskup
arcibiskupa
arcibiskupem
arcibiskupstvi
arcibiskupu
arcidieceze
arcidiecezi
arcivevoda
arcivevodkyne
arcivevody
arctic
are
area
areal
arealem
arealu
arealy
areas
arena
arene
areny
ares
argentina
argentine
argentinske
argentinsky
argentiny
argo
argument
argumentu
argumenty
ari
arie
ariel
aristokracie
aristoteles
arizona
arm
armad
armada
armade
armadni
armadnich
armadniho
armadou
armadu
armady
armand
armenie
armenii
armenske
armensky
armin
arms
armstrong
army
arne
arno
arnold
arnost
arnosta
aromaticke
aron
around
array
arriva
arrondissement
arrow
ars
arsenal
arsenalu
art
arte
artefaktu
artefakty
arthur
arthura
article
articles
artist
artists
arts
artur
arxiv
as
ascii
ash
ashley
asi
asia
asian
asie
asii
asijske
asijskych
asimov
asistence
asistenci
asistent
asistenta
asistentem
asistentka
ask
asociace
asociaci
asp
aspekt
aspektu
aspekty
aspon
aspx
assassin
assembly
assessment
assisi
associated
association
astana
asteroid
asteroidu
aston
astra
astrid
astro
astronaut
astronautu
astronom
astronomical
astronomicka
astronomicke
astronomicky
astronomickych
astronomie
astronomii
astronomove
astronomy
astrophysical
astrophysics
at
atari
atd
atelier
atelieru
atentat
atentatu
athen
athenach
atheny
athletic
athletics
atlanta
atlante
atlantic
atlantiku
atlantis
atlantskeho
atlas
atlasu
atlet
atletice
atletico
atletika
atletka
atm
atmosfera
atmosfere
atmosferou
atmosferu
atmosfery
atom
atomove
atomu
atomy
atp
atrakce
atrakci
atraktivni
atributu
atributy
attack
au
auckland
audi
audio
audrey
auf
aug
augsburg
august
augusta
auguste
augustin
augustina
augustinianu
augustus
aukce
aukci
aurora
aus
auschwitz
austin
australia
australian
australie
australii
australska
australske
australskeho
australskem
australsky
australskych
austria
aut
auta
aute
autem
author
authority
auto
autobiografie
autobus
autobusova
autobusove
autobusovou
autobusovych
autobusu
autobusy
automat
automaticka
automaticke
automatickou
automaticky
automatu
automobil
automobilem
automobilka
automobilky
automobilove
automobilovy
automobilovych
automobilu
automobily
autonomie
autonomii
autonomni
autonomniho
autoportret
autor
autora
autorem
autori
autorit
autorita
autoritou
autoritu
autority
autorka
autorkou
autorky
autorova
autorovi
autorska
autorske
autorskeho
autorsky
autorskych
autorstvi
autoru
autorum
autory
autosalonu
auvergne
aux
av
available
avantgardni
ave
avec
avengers
aventinum
avenue
avia
aviation
aviv
avivu
avlh
avraham
avro
avsak
avu
aw
award
awards
away
ax
axel
ay
az
azerbajdzan
azerbajdzansky
azerbajdzanu
azur
azyl
b
b0
b1
b2
b3
b4
b5
b6
b7
b8
b9
ba
baba
babi
babicce
babice
babicka
babicky
babis
babise
babka
baby
babylon
bach
bacha
back
background
bad
badani
badatel
badatele
badatelna
badatelu
baden
badensko
bafta
bagdadu
bahenni
bahn
bahna
bailey
baje
baji
bakalar
bakalarska
bakalarske
bakalarsky
baker
bakterialni
bakterie
bakterii
baku
bal
bala
balada
balady
balatka
balcar
balduin
baldwin
baleni
balet
baletni
baletu
bali
balicek
balicku
balik
baliku
balkan
balkane
balkanu
balkon
ball
ballet
balon
balonu
baltimore
baltskeho
balvan
balvany
ban
bance
band
bang
bani
banik
baniku
banjo
bank
banka
banker
bankou
bankovek
bankovky
bankovni
bankovnictvi
banks
banku
banky
banska
banske
baptiste
bar
bara
barak
baraz
baraze
barazi
barbara
barbarossa
barbora
barbory
barcelona
barcelone
barcelony
barev
barevna
barevne
barevnou
barevny
barevnych
barevnymi
bari
bariery
barnes
baroka
barokne
barokni
baroknich
barokniho
baroknim
baroko
baron
barona
baronet
barrandov
barrett
barry
bart
barta
bartolomej
bartolomeje
barton
bartos
bartosova
baru
barva
barvach
barvami
barve
barveni
barviva
barvivo
barvou
barvu
barvy
baryton
bas
basa
base
baseball
based
basel
basen
basic
basilej
basileji
basin
basketbal
basketbalista
basketball
basketbalova
basketbalove
basketbalovy
basketbalu
baskytara
baskytarista
basne
basni
basnici
basnicka
basnicke
basnickou
basnicky
basnickych
basnictvi
basnik
basnika
basnikem
basniku
basniky
basnirka
basova
bass
basso
basta
bat
bata
baterie
baterii
bati
batman
battista
battle
bauer
bavi
bavlny
bavor
bavorska
bavorske
bavorskeho
bavorskem
bavorsko
bavorsku
bavorsky
bay
bayer
bayern
bazalni
bazant
baze
bazen
bazenu
bazi
bazilice
bazilika
baziliky
baziny
bb
bbc
bc
bd
be
beach
bear
bears
beast
beat
beatles
beatrice
beatrix
beats
beautiful
beauty
beaux
bechyne
beck
becker
becvou
beda
bedlive
bednar
bedrich
bedricha
bee
been
beer
beethoven
before
begin
beh
behavior
behem
behind
behu
bei
beijing
being
beitrage
bejt
bel
bela
belave
bele
belehrad
belehrade
belehradu
belgicka
belgicke
belgickeho
belgicky
belgie
belgii
belgium
believe
belize
bell
bella
belle
belohlavek
belohorske
beloruska
beloruske
belorusko
belorusku
belorusky
ben
benatek
benatkach
benatky
benatske
benatsky
benda
bene
benedikt
benedikta
benediktinskeho
benes
benese
benesov
benesova
benesove
benjamin
benjamina
bennett
benny
benoit
benson
benz
benzin
benzinu
beograd
beran
beranek
berdych
bere
berg
bergen
berger
bergman
berka
berkeley
berlin
berlina
berline
berliner
berlinske
bern
bernard
bernarda
bernardo
bernd
bernhard
berni
bernstein
bernu
berou
beroun
berouna
beroune
berounky
berry
berta
bertrand
beseda
besedy
beskyd
beskydy
best
bet
beta
beth
betlem
beton
betonove
betonu
better
betty
between
beverly
beyond
bez
bezdetne
bezdetny
bezdez
bezdezem
bezdratove
beze
bezec
bezel
bezela
bezet
bezi
bezici
bezkyne
bezmala
bezna
bezne
bezneho
beznem
beznou
bezny
beznych
beznym
bezobratlych
bezpartijni
bezpeci
bezpecne
bezpecnost
bezpecnosti
bezpecnostni
bezpecnostnich
bezpecny
bezplatne
bezpochyby
bezpravi
bezprostredne
bezprostredni
bezprostrednim
beztoho
bezvedomi
bf
bg
bh
bi
bianca
biathlon
biatlonova
biatlonu
bibcode
bible
bibli
biblicka
biblicke
biblickeho
biblicky
biblickych
bibliografie
bibliografii
bibliotheque
bic
bici
bida
biden
bidu
bidy
bien
bienale
big
biggles
bije
bila
bilance
bilanci
bile
bileho
bilek
bilem
bili
bilina
bilkovin
bilkoviny
bill
billa
billboard
billie
billy
bilo
bilou
bily
bilych
bilym
bilymi
bin
binarni
binterova
bio
biochemie
biochemik
biodiversity
biograficky
biografie
biografii
biographical
biographie
biographisches
biography
biolib
biolog
biological
biologicka
biologicke
biologicky
biologickych
biologie
biologii
biology
biotopu
bird
birds
birmingham
birminghamu
birth
bis
bishop
biskup
biskupa
biskupem
biskupove
biskupovi
biskupska
biskupske
biskupskeho
biskupsky
biskupstvi
biskupu
biskupy
bismarck
bit
bitev
bitevni
bitevnich
biti
bitmapa
bitove
bitovy
bitu
bitva
bitvach
bitve
bitvou
bitvu
bitvy
bj
bjorn
bk
bl
blabbermouth
black
blackburn
blackhawks
blackwell
blade
blaha
blaho
blahobytu
blahoslav
blahoslaveny
blahova
blair
blake
blanc
blanche
blanik
blanka
blansko
blast
blata
blatna
blaze
blazej
blazek
blazen
bleda
blede
bledy
blesk
bleskem
blesku
blesky
blind
bliz
blizce
blize
blizi
blizici
blizil
blizka
blizke
blizkeho
blizkem
blizko
blizkost
blizkosti
blizkou
blizku
blizky
blizkych
blizkym
bliznou
blizsi
bloch
block
blog
blogspot
blogu
blois
blok
bloku
bloky
blood
bloomberg
blu
bludny
blue
blues
bluetooth
bm
bmw
bn
bnl
bnp
bo
board
boat
bob
boba
bobby
bobek
bobri
bobule
bocek
bocich
bocni
bocnich
bod
bode
bodech
bodem
bodlina
bodovaci
bodovani
bodove
bodovy
bodu
body
boeing
boha
bohac
bohata
bohate
bohateho
bohati
bohatou
bohatsi
bohatstvi
bohatstvim
bohaty
bohatych
bohatym
bohatymi
bohdan
bohem
bohemia
bohemiae
bohemians
bohemica
bohm
bohmen
bohmischen
bohoslovecke
bohosluzby
bohosluzeb
bohove
bohu
bohum
bohumil
bohumila
bohumin
bohumir
bohus
bohuslav
bohuslava
bohuzel
bohy
bohyne
bohyni
bois
boj
boje
bojem
boji
bojich
bojiste
bojisti
bojova
bojoval
bojovala
bojovali
bojovalo
bojovat
bojove
bojoveho
bojovnici
bojovnik
bojovnika
bojovniku
bojovniky
bojovou
bojovy
bojovych
boju
bojuje
bojuji
bojujici
bok
boku
boky
bol
boldsymbol
boleslav
boleslava
boleslavi
bolest
bolesti
bolestne
boletus
boli
bolivie
bolivii
bologna
bologni
bolzano
bomb
bomba
bombarder
bombarderu
bombardery
bombardovaci
bombardovani
bombu
bomby
bon
bonaparte
bond
bondy
bone
bonn
bonnu
bonus
book
books
boom
boot
bor
bora
bordeaux
border
borek
borgis
boris
borise
borivoj
born
borovice
borovsky
borovy
boru
borussia
bory
bosch
bosenske
bosensky
boskovic
boskovice
bosna
bosne
bosny
boss
boston
bostonu
bot
botanic
botanical
botanice
botanicka
botanicke
botanicky
botanickych
botanik
botanika
botaniky
botany
both
boty
bouda
boudy
boulevard
boulogne
bourbon
bourbonu
boure
bouri
bourlive
bowie
bowl
box
boxer
boxu
boy
boyd
boys
boze
bozena
bozeny
bozi
bozich
boziho
bozim
bozska
bozske
bozskeho
bozsky
bozstva
bozstvo
bp
bq
br
brabec
brad
bradley
brady
brain
bral
brala
brali
brambor
brambory
bran
brana
branami
brand
brandenburg
brandon
brandys
brane
branek
brani
braniborska
braniborsko
braniborsky
branil
branila
branili
branit
branka
brankami
brankar
brankare
brankari
branku
branky
branne
branou
branu
brany
brasil
brat
brati
bratislava
bratislave
bratislavske
bratislavy
bratr
bratra
bratrance
bratrancem
bratranec
bratre
bratrem
bratri
bratrim
bratrovi
bratrska
bratrske
bratrstva
bratrstvi
bratrstvo
bratru
bratrum
bratry
braun
bravo
brazda
brazil
brazilie
brazilii
brazilska
brazilske
brazilskeho
brazilsky
brdech
brdy
break
breaking
breclav
breclavi
breh
brehem
brehu
brehy
bremen
brent
bretislav
bretislava
brett
brezen
brezi
brezich
brezina
brezna
breznice
brezno
breznu
brezova
brezove
brian
bricha
bricho
bridge
bridlice
brief
brien
brigada
brigade
brigadni
brigady
bright
brigitte
brill
brisbane
brise
brisni
bristol
brit
britain
britanie
britanii
britannica
british
britney
britove
britska
britske
britskeho
britskem
britsko
britskou
britsky
britskych
britskym
britskymi
britsti
britu
brity
briza
brna
brne
brneni
brnenska
brnenske
brnenskeho
brnenskem
brnensky
brnenskych
brno
broadcasting
broadway
brod
brode
brodu
broken
bronz
bronzova
bronzove
bronzovou
bronzovy
bronzovych
bronzu
brooklyn
brooks
bros
brother
brothers
broucek
brouci
brouk
brouku
broumov
brown
browning
broz
brtnice
bruce
bruins
bruna
brunn
brunner
bruno
brunsvicko
bruntal
brusel
bruselu
brutalni
bryan
bryle
brzdy
brzo
brzy
bs
bsd
bt
bu
buben
bubenik
bubenika
bubenikem
bubnu
bubny
buch
buciny
bud
budapest
budapesti
buddha
buddhismu
buddhismus
buddhisticke
bude
budejovic
budejovice
budejovicich
budeme
budes
budete
budi
buditel
budiz
budou
budouci
budoucich
budouciho
budoucim
budoucna
budoucnost
budoucnosti
budoucnu
budov
budova
budovach
budovami
budovana
budovani
budovany
budovat
budove
budovou
budovu
budovy
budte
budto
budu
buduje
buenos
buffalo
bugatti
buh
build
building
bujne
buk
bukova
bukove
bukovina
buku
bukurest
bukuresti
buky
bula
bulhari
bulharska
bulharske
bulharskeho
bulharsko
bulharsku
bulharsky
bulharstina
bull
bulletin
bunce
bundesliga
bunecne
bunecnych
bunek
bunka
bunkach
bunkami
bunky
bureau
bures
burger
burgundsko
burian
buriana
burke
burn
burning
burns
burton
burza
burze
bus
bush
business
busta
but
butler
butterfly
bv
bw
bx
by
bych
bychom
bydlel
bydlela
bydleli
bydleni
bydlet
bydli
bydliste
byk
byl
byla
byli
bylin
bylina
byliny
bylo
bylt
byly
bys
byste
bystre
bystrica
bystrice
bystrici
byt
byte
bytem
byti
bytost
bytosti
bytove
bytovych
bytu
byty
byv
byva
byvaji
byval
byvala
byvale
byvaleho
byvalem
byvalemu
byvali
byvalo
byvalou
byvaly
byvalych
byvalym
byvalymi
byzance
byzantska
byzantske
byzantskeho
byzantsky
byznys
bz
c
c0
c1
c2
c3
c4
c5
c6
c7
c8
c9
ca
cable
cache
cad
caesar
caesara
caf
cafe
caj
caje
calais
calcio
cale
calgary
california
call
called
cam
cambridge
camera
cameron
camille
camp
campaign
campbell
campo
can
canada
canadian
canadiens
canal
cancer
candy
cang
canis
cannes
canon
canterbury
canton
cao
cap
cape
capek
capi
capital
capitals
capka
captain
car
cara
carbon
card
care
career
carem
carex
carey
cargo
carkovite
carl
carla
carlo
carlos
carmen
carnegie
carodej
carodejnice
carol
carolina
caroline
carou
carpenter
carrier
carroll
cars
carske
carson
carter
caru
cary
cas
casa
case
casech
casem
cases
casey
cash
caslav
caslavi
casne
casopis
casopise
casopisech
casopisecky
casopisem
casopisu
casopisy
casova
casove
casoveho
casovem
casovou
casovy
casovych
casovym
cast
casta
caste
castech
castecne
castecny
casteji
castejsi
casti
castic
castice
castka
castkou
castku
castky
castle
castmi
casto
castro
casty
castym
castymi
casu
casy
cat
catalog
catalogue
catherine
catholic
causa
cause
cavalier
cave
cb
cbc
cbs
cc
cca
cce
cchang
cchen
ccheng
cchi
cchin
cching
cchu
cchuan
ccm
cd
cdc
cdot
cdots
cdu
ce
cech
cecha
cechach
cechoslovaku
cechova
cechove
cechu
cechum
cechy
cecil
cecilie
ceho
cehoz
cejka
ceka
cekaji
cekal
cekala
cekali
cekalo
cekani
cekat
cel
cela
celakovsky
cele
celebrity
celed
celedi
celeho
celek
celem
celemu
celestial
celi
celil
celist
celisti
celit
celkem
celkova
celkove
celkoveho
celkovem
celkovemu
celkovou
celkovy
celkovych
celkovym
celku
celky
cell
cells
celni
celo
celokrajne
celorocne
celostatni
celostatniho
celosvetove
celosvetoveho
celou
celovecerni
celozivotni
celtic
cely
celych
celym
cem
cembalo
cemu
cemuz
cemz
cen
cena
cenach
cene
cenek
ceng
cenne
cenny
cennych
cenou
cenove
census
cent
center
centimetru
centra
central
centralni
centralnich
centralniho
centralnim
centre
centrech
centrem
centru
centrum
centry
centu
century
cenu
ceny
cep
cepel
cepele
cepice
cepici
ceremonial
ceremonialu
cermak
cerna
cerne
cerneho
cernem
cerni
cernin
cernobile
cernobily
cernohorsky
cernou
cernovice
cerny
cernych
cernym
cernymi
cerpa
cerpaci
cerpadla
cerpadlo
cerpal
cerstve
cert
certifikaci
certifikat
certifikatu
certova
cerven
cervena
cervence
cervenci
cervene
cervenec
cerveneho
cervenem
cervenka
cerveno
cervenou
cerveny
cervenych
cervenym
cervenymi
cervinka
cervna
cervnu
ces
cesar
cesare
cesi
ceska
ceskatelevize
ceske
ceskeho
ceskem
ceskemu
ceskenoviny
cesko
ceskobratrske
ceskobudejovicke
ceskobudejovicky
ceskolipsky
ceskomoravska
ceskomoravske
ceskoslovenska
ceskoslovenske
ceskoslovenskeho
ceskoslovenskem
ceskoslovensko
ceskoslovenskou
ceskoslovensku
ceskoslovensky
ceskoslovenskych
ceskoslovenskym
ceskoslovensti
ceskou
cesku
cesky
ceskych
ceskym
ceskymi
cesnek
cest
cesta
cestach
cestami
ceste
cesti
cestina
cestine
cestinu
cestiny
cestmir
cestna
cestne
cestneho
cestnou
cestny
cestnych
cestnym
cestou
cestoval
cestovani
cestovat
cestovatel
cestovatele
cestovni
cestovnich
cestovniho
cestu
cestuje
cestujici
cestujicich
cesty
cet
cetl
cetna
cetne
cetnicke
cetnost
cetnych
cetnymi
cety
cev
cevnatych
cevni
cez
cf
cg
cgi
ch
cha
chad
chagall
chaj
chajim
challenge
challenger
chaloupka
chaloupky
chalupa
chalupy
champagne
champion
champions
championship
championships
champs
chan
chana
chance
chang
change
changes
channel
chao
chaos
chaosu
chapal
chapan
chapana
chapani
chapat
chape
chapelle
chaplin
chapman
chapter
character
charakter
charakterem
charakteristicka
charakteristicke
charakteristickou
charakteristicky
charakteristickym
charakteristika
charakteristiky
charakterizuje
charakteru
charge
charita
charitativni
charity
charles
charlese
charlesem
charlie
charlotte
chart
charta
charts
charty
charvat
chase
chat
chata
chate
chateau
chatral
chatu
chaty
chce
chceme
chces
chcete
chci
che
cheb
chebu
check
chelsea
chem
chemical
chemicka
chemicke
chemickeho
chemicko
chemickou
chemicky
chemickych
chemie
chemii
chemik
chemistry
chen
cheng
cher
chess
chester
chi
chicaga
chicago
chicagu
chief
child
children
chile
china
chinese
chirurg
chirurgicke
chirurgie
chirurgii
chko
chl
chlad
chladici
chladne
chladny
chlap
chlapce
chlapci
chlapcu
chlapec
chlazeni
chlazeny
chleb
chleba
chloe
chlorid
chloridu
chlum
chlumec
chlumu
chlupata
chlupate
chlupy
chmel
cho
chocen
chod
chodba
chodbe
chodbou
chodby
chodce
chodeb
chodi
chodil
chodila
chodili
chodit
chodnik
chodniku
chodov
chodu
choice
chomutov
chomutova
chomutove
chopil
chor
choreograf
choreografie
chorob
choroba
chorobou
choroby
choru
chorvatska
chorvatske
chorvatskeho
chorvatskem
chorvatsko
chorvatsku
chorvatsky
chorvatstina
chorvatu
chot
chotebor
choti
chov
chova
chovaji
choval
chovali
chovan
chovani
chovanim
chovat
chovatelu
chovem
chovu
chram
chrame
chramem
chramove
chramu
chramy
chranen
chranena
chranene
chraneneho
chraneno
chranenou
chraneny
chranenych
chrani
chranici
chranil
chranit
chris
christ
christi
christian
christiana
christie
christina
christine
christmas
christoph
christophe
christopher
chrome
chromozomu
chronicle
chronologickem
chronologicky
chronologie
chrudim
chrudimi
chteje
chteji
chtel
chtela
chteli
chtelo
chtely
chtit
chu
chua
chuang
chuck
chuda
chudak
chude
chudeho
chudenic
chudi
chudoba
chudobe
chudoby
chudy
chudych
chudym
chuej
chung
church
churchill
chut
chuti
chuze
chuzi
chvala
chvali
chvaly
chvile
chvilemi
chvili
chvilich
chvilku
chyb
chyba
chybejici
chybel
chybi
chybne
chybou
chybu
chyby
chysta
chystaji
chystal
chytal
chytil
chytit
chytre
chytry
ci
cia
cibule
cibuli
cibulka
cicero
cich
cid
cidlinou
cigarety
cihel
cihelna
cihelny
cihly
cil
cile
cilem
cilene
cili
cilove
cilu
cilum
cily
cim
cimbura
cimz
cin
cina
cinane
cincinnati
cine
cinem
cinema
cini
cinidlo
cinil
cinila
cinili
cinilo
cinily
cinit
cinitel
cinitele
cinitelu
ciniti
cinne
cinnost
cinnosti
cinny
cinoherni
cinohry
cinou
cinska
cinske
cinskeho
cinskem
cinsko
cinskou
cinsky
cinskych
cinskym
cinstina
cinu
ciny
cinzovni
cip
cipu
cipy
circle
circuit
circus
cirkev
cirkevni
cirkevnich
cirkevniho
cirkevnim
cirkus
cirkve
cirkvi
cis
cisar
cisare
cisarem
cisari
cisarova
cisarove
cisarovna
cisarovny
cisarska
cisarske
cisarskeho
cisarskem
cisarskou
cisarsky
cisarskych
cisarskym
cisarstvi
cisaru
cisel
ciselne
cisla
cisle
cislech
cislem
cislic
cislice
cislicemi
cislo
cislovani
cislovky
cislu
cisly
cist
cista
ciste
cisteho
cisteni
cisterciackeho
cisti
cistotu
cistoty
cistou
cisty
cistych
cit
cita
citace
citaci
citajici
citala
citat
citation
citatu
citaty
cite
citelne
citeni
citi
cities
citil
citila
citili
citim
citit
citlive
citlivost
citlivosti
citlivy
citovano
citove
citroen
citu
cituje
city
ciudad
civil
civilistu
civilizace
civilizaci
civilni
civilnich
civilniho
civilnim
civky
cizek
cizi
cizich
ciziho
cizim
cizimi
cizince
cizinci
cizincu
cizincum
cizine
cizinec
ciziny
cj
ck
ckd
cl
cla
claims
claire
clam
clancich
clanek
clankem
clanku
clanky
clara
clarence
clark
clarke
class
classic
classical
classics
classification
claude
claudia
claudio
claudius
clay
clement
clen
clena
clenem
clenena
cleneni
cleneny
cleni
clenka
clenkou
clenky
clenove
clenska
clenske
clenskych
clenstvi
clenu
clenum
cleny
cleveland
climate
clinical
clinton
clio
close
cloud
clovece
clovek
cloveka
clovekem
cloveku
clr
club
clubu
clun
clunu
cluny
cluster
clusters
cm
cmfs
cn
cna
cnb
cnelka
cnn
cnr
co
coast
coby
cocky
coco
code
codex
cohen
cojeco
cokoli
cokoliv
col
cold
cole
coleman
colin
collection
college
collegium
collins
colloredo
color
colorado
colts
columbia
columbus
com
combat
come
comeback
comedy
comes
comic
comics
coming
comique
command
commander
commentary
commercial
commission
committee
common
commons
commonwealthu
communication
communications
community
como
companion
company
comparative
competition
complete
complex
compounds
computer
comte
con
conan
concert
concerto
conde
conference
confirmed
conflict
cong
congress
connecticut
connection
connor
conrad
conservation
constantin
constitution
construction
contemporary
content
contest
continental
control
convention
conway
cook
cool
cooper
cop
copa
copak
copy
cordoba
core
cornelius
cornell
coronavirus
corporation
corps
corpus
cos
cosi
costa
cote
cou
could
council
count
counter
countries
country
county
coupe
course
court
courtney
cov
cover
coververze
covid
covidu
cox
coz
cp
cpu
cq
cr
craig
crash
crater
crazy
crc
creation
creative
credit
creed
creek
cretaceous
crew
crime
crimson
crisis
critical
critics
cro
croatia
croix
cross
crown
cruz
cry
crystal
cs
csa
csad
csav
csc
csd
csfd
csfotbal
csfr
cska
csl
csn
csr
css
cssd
cssr
cstv
csu
ct
cte
cteme
ctenar
ctenare
ctenari
ctenaru
cteni
cti
ctibor
ctihodny
ctk
ctnost
ctnosti
ctrnact
ctrnacteho
ctrnacti
ctverce
ctverecnich
ctverice
ctvrt
ctvrta
ctvrte
ctvrteho
ctvrtek
ctvrtem
ctvrtfinale
ctvrti
ctvrtina
ctvrtine
ctvrtinu
ctvrtiny
ctvrtleti
ctvrtou
ctvrty
ctvrtym
ctyr
ctyrech
ctyrem
ctyrhra
ctyrhre
ctyrhru
ctyrhry
ctyri
ctyricatych
ctyricet
ctyriceti
ctyrikrat
ctyrlete
ctyrmi
ctyry
cu
cuba
cukr
cukrovar
cukrovaru
cukru
cult
cultural
culture
cum
cung
cuni
cup
cupu
currendo
current
curtis
curych
curychu
cut
cuzk
cv
cviceni
cvicne
cvicny
cvut
cw
cx
cy
cycle
cycling
cyclingnews
cyklista
cyklistice
cyklisticke
cyklistika
cyklisty
cyklostezka
cyklotrasa
cyklu
cyklus
cykly
cyril
cyrila
cyrilice
cyrilici
cytuj
cz
cze
czech
d
d0
d1
d2
d3
d4
d5
d6
d7
d8
d9
da
dabel
daber
dabing
dabingforum
dabingu
dabla
dac
dachau
dacice
dagmar
daily
daimler
daisy
daji
dakota
dal
dala
dalce
dale
daleka
daleke
daleko
dalekohled
dalekohledu
dali
dalibor
dalkove
dalkovy
dalku
dalky
dallas
dalmacie
dalnic
dalnice
dalnici
dalnicni
dalo
dalsi
dalsich
dalsiho
dalsim
dalsimi
dalsimu
daly
dam
dama
damasku
dame
damou
damu
damy
dan
dana
dance
dancing
dane
daneho
danek
danem
dangerous
dani
daniel
daniela
danielem
danny
dano
danou
danove
danovy
danovych
dans
danska
danske
danskeho
danskem
dansko
danskou
dansku
dansky
danstina
dante
dany
danych
danym
dar
darce
darek
darem
dari
darilo
darja
dark
darkness
darky
darmo
darmstadt
daroval
darovala
darren
darryl
daru
darwin
dary
das
dat
data
database
databaze
databazeknih
databazi
databazich
datace
date
datech
datem
dates
dati
dativ
datovan
datovana
datovani
datovany
datove
datovy
datovych
datu
datuje
datuji
datum
daty
dav
dava
davaji
daval
davala
davali
davat
dave
davek
davem
david
davida
davidem
davidova
davidson
davies
davis
daviscup
davka
davku
davky
davna
davne
davno
davnych
davu
davy
dawn
day
days
db
dbat
dc
dcer
dcera
dceri
dcerina
dcerine
dcerou
dceru
dcery
dd
ddr
de
dead
deadline
deal
dean
death
debata
debate
debaty
debian
deblove
deblovy
deborah
debut
debutoval
debutovala
debutove
debutu
dec
december
dech
dechem
dechove
dechu
decin
decina
decine
decko
ded
deda
dedecek
dedecka
dedek
dedic
dedice
dedicem
dedici
dedicke
dedickou
dedicne
dedicneho
dedicny
dedicove
dedictvi
dedictvim
dedicu
dediny
dee
deep
def
default
defence
defense
definice
definici
definition
definitivne
definitivni
definoval
definovan
definovana
definovane
definovany
definovat
definuje
deformace
degli
dei
dej
deje
dejepis
dejepisu
deji
dejin
dejinach
dejinam
dejinami
dejiny
dejistem
dejstvi
dejstvich
dejte
dejvice
dekade
dekady
dekan
dekana
dekanat
dekanatu
dekanem
dekanstvi
deklarace
deklaraci
deklinace
dekorace
dekoraci
dekorativni
dekret
dekretem
dekretu
dekuji
del
dela
delaji
delal
delala
delali
delat
delati
delaware
delce
dele
delegace
delegaci
delegatu
delek
deleni
delenim
delhi
deli
delil
delila
delit
delka
delkou
delku
delky
dell
della
delle
delnice
delnici
delnicka
delnicke
delnickeho
delnickou
delnickych
delnik
delniku
delniky
delo
delostrelecke
delostrelectva
delostrelectvo
delsi
delsim
delta
dely
dem
demek
demi
demisi
demo
democracy
democratic
demografickeho
demokracie
demokracii
demokrat
demokrate
demokraticka
demokraticke
demokratickeho
demokratickou
demokraticky
demokratickych
demokratu
demokraty
demolice
demolici
demon
demonstrace
demonstraci
demonu
den
dendrologie
deni
denik
deniku
deniky
denis
denisa
denise
denmark
denne
denni
dennich
denniho
dennik
dennim
dennis
denver
departement
departementu
department
depo
deprese
depresi
der
derby
derek
derivace
derivaty
des
desate
desaty
desce
description
desek
desert
deset
deseti
desetileti
desetiletich
desetkrat
design
designated
designer
designu
desire
desitek
desiti
desitkach
desitky
desk
deska
deskach
deskami
deskou
desku
desky
desna
desne
dest
deste
destem
desti
destinaci
destiny
destove
destruction
destu
det
detail
detailni
details
detailu
detaily
detekce
detekci
detektiv
detektivni
detem
deti
detmi
detroit
detska
detske
detskeho
detskem
detskou
detsky
detskych
detstvi
deus
deutsch
deutsche
deutschen
deutscher
deutsches
deutschland
deux
dev
devadesat
devadesatych
devata
devate
devatenact
devatenacteho
devatenacti
devaty
devcata
devcatko
devce
development
devet
device
devil
devils
devin
deviti
devon
dexter
df
dg
dgr
dh
di
dia
diagram
diagramu
dialekt
dialektu
dialekty
dialog
dialogu
dialogy
diamant
diamantu
diamanty
diamond
diana
diane
diaz
dick
dictionary
did
didier
die
dieceze
diecezi
diecezni
diego
dies
diesel
diesely
dieter
dietrich
diferencialni
different
digest
digital
digitalizovana
digitalni
digitalnich
digitalniho
digitalniknihovna
dik
diktator
diktatury
diky
dil
dila
dilci
dilcich
dile
dilech
dilem
dilen
dilia
dilli
dilna
dilne
dilnu
dilny
dilo
dilu
dilum
dily
dim
dimenze
dimenzi
din
dinamo
dino
dinosaur
dinosaura
dinosauri
dinosauria
dinosaurs
dinosauru
dinosaurus
dinosaurusblog
dio
diplom
diplomacie
diplomacii
diplomat
diplomaticke
diplomatickych
diplomova
dir
dira
direct
director
directory
dirigent
dirigenta
dirigentem
dirigoval
dirty
diry
dis
disc
disciplin
disciplina
disciplinach
discipline
discipliny
disco
discogs
discovery
disease
diseases
disertacni
disident
disk
diskem
diskografie
diskriminace
diskriminaci
disku
diskuse
diskusi
diskusni
diskuze
diskuzi
disky
disney
display
displaystyle
displej
disponoval
disponuje
dispozice
dispozici
distance
distribuce
distribuci
distribucni
distribution
district
distriktu
dit
dite
ditek
ditete
ditetem
diteti
ditky
ditrichstejna
div
diva
divaci
divadel
divadelni
divadelnich
divadelniho
divadelnim
divadla
divadle
divadlech
divadlem
divadlo
divadlu
divak
divaka
divaku
divakum
divaky
dival
divat
divce
divci
dive
divek
diversity
divil
divis
divise
division
divize
divizi
divka
divkou
divku
divky
divne
divny
divoce
divoka
divoke
divokeho
divokou
divoky
divokych
divu
divy
dj
djokovic
djvu
dk
dl
dlan
dlane
dlani
dle
dlouha
dlouhe
dlouheho
dlouhem
dlouho
dlouhodoba
dlouhodobe
dlouhodobeho
dlouhodobem
dlouhodobou
dlouhodoby
dlouhodobym
dlouholete
dlouholetou
dlouholety
dlouholetym
dlouhou
dlouhy
dlouhych
dlouhym
dlouhymi
dlouze
dluh
dluhu
dluhy
dluznik
dluzno
dm
dmitrij
dn
dna
dne
dnech
dnem
dnes
dneska
dnesni
dnesnich
dnesniho
dnesnim
dni
dno
dnu
dny
do
dob
doba
dobach
dobe
dobehl
dobes
dobou
dobove
dobovych
dobra
dobre
dobreho
dobrem
dobremu
dobri
dobris
dobro
dobrodruzny
dobrodruzstvi
dobrou
dobrovolna
dobrovolne
dobrovolnici
dobrovolnik
dobrovolniku
dobrovolny
dobrovolnych
dobrovskeho
dobrovsky
dobry
dobrych
dobrym
dobrymi
dobu
doby
dobyl
dobyla
dobyli
dobyt
dobyta
dobytek
dobyti
dobytka
dobyto
dobyvani
doc
docasne
docasnemu
docasny
docela
docent
docentem
dochazelo
dochazet
dochazi
dochoval
dochovala
dochovalo
dochovaly
dochovana
dochovane
dochovany
dochovanych
dockal
dockala
docs
doctor
document
documents
dodal
dodala
dodani
dodano
dodany
dodat
dodatecne
dodatek
dodatku
dodatky
dodava
dodavaji
dodaval
dodavat
dodavatele
dodavatelem
dodavek
dodavku
dodavky
dodnes
dodrzovani
dodrzovat
does
dog
dogs
dohled
dohledem
dohledu
dohlizel
dohod
dohoda
dohode
dohodl
dohodli
dohodly
dohodou
dohodu
dohody
dohromady
doi
dojde
dojel
dojela
dojem
dojit
dojmem
dojmu
dojmy
dokazal
dokazala
dokazali
dokazaly
dokazat
dokaze
dokazi
dokazou
dokazuje
dokazuji
doklad
doklada
dokladaji
dokladem
dokladu
doklady
dokola
dokonala
dokonale
dokonalosti
dokonaly
dokonave
dokonce
dokoncen
dokoncena
dokonceni
dokoncenim
dokonceno
dokonceny
dokoncil
dokoncila
dokoncit
dokoran
doktor
doktora
doktorat
doktorem
doktorka
doktorske
doktoru
dokud
dokument
dokumentace
dokumentaci
dokumentarni
dokumentarnich
dokumentech
dokumentu
dokumenty
dol
dolar
dolaru
dole
dolech
dolejsi
dolet
doleva
dolezal
dolina
doline
doliny
dolni
dolnich
dolniho
dolnim
dolny
dolozen
dolozena
dolozeno
dolozeny
dolozil
dolozit
dolu
doly
dom
doma
domaci
domacich
domaciho
domacim
domacimi
domacimu
domacnost
domacnostech
domacnosti
domain
domazlic
domazlice
dome
domech
domek
domem
domena
domenico
domenu
domeny
dominanta
dominantni
dominantnim
dominantou
domingo
domini
dominic
dominik
dominika
dominikanska
dominique
domino
dominuje
dominuji
domku
domky
domnele
domneni
domnenka
domniva
domnivaji
domnival
domnivali
domorodci
domorodcu
domorode
domorodych
domov
domova
domove
domovem
domovni
domovska
domovske
domovskych
domovu
domovy
domu
domy
don
dona
donald
donalda
done
donna
donu
donucen
donutil
doom
doopravdy
door
dopad
dopadl
dopadla
dopadlo
dopadne
dopadu
dopady
dopis
dopise
dopisem
dopisu
dopisy
doplnek
doplnen
doplnena
doplnene
doplneni
doplnenim
doplneno
doplneny
doplnil
doplnit
doplnkove
doplnku
doplnky
doplnovacich
doplnuje
doplnuji
doplnujici
dopoledne
doporuceni
doporucil
doporucuje
doposud
doprava
dopravce
dopravci
dopravcu
doprave
dopravit
dopravni
dopravnich
dopravniho
dopravnim
dopravou
dopravu
dopravy
dopredu
doprovazel
doprovazela
doprovazena
doprovazi
doprovod
doprovodem
doprovodne
doprovodny
doprovodu
dopustil
dora
dorazi
dorazil
dorazila
dorazili
dorazily
doris
dorostu
dorota
dorothea
dorothy
dort
dortmund
dorusta
dorustaji
dorustajici
dos
dosah
dosahl
dosahla
dosahli
dosahlo
dosahly
dosahne
dosahnout
dosahoval
dosahovala
dosahovat
dosahu
dosahuje
dosahuji
dosahujici
dosavadni
dosavadnich
dosavadniho
dosavadnim
dosazen
dosazeni
dosazeno
dosel
dosla
dosli
doslo
doslov
doslova
doslovne
dosly
dospel
dospela
dospelci
dospele
dospeleho
dospeli
dospelosti
dospely
dospelych
dospivajici
dospivani
dost
dostal
dostala
dostali
dostalo
dostaly
dostane
dostaneme
dostanou
dostat
dostatecne
dostatecnou
dostatecny
dostatek
dostati
dostava
dostavaji
dostaval
dostavali
dostavame
dostavat
dostavena
dostavil
dostep
dosti
dostup
dostupna
dostupne
dostupnost
dostupnosti
dostupny
dostupnych
dosud
dot
dotace
dotaci
dotaz
dotazu
dotazy
dotceneho
dotceny
dotisk
dotyka
double
doubles
doubrava
doubravice
doubravy
doufa
doufal
doufam
doug
douglas
dovede
dovedel
dovedl
dovedla
dovednosti
dovedou
dovnitr
dovolena
dovolene
dovoleno
dovolenou
dovolil
dovolit
dovoluje
dovoz
dovozu
down
download
doyle
dozadu
dozil
dozivoti
dozivotni
dozor
dozorce
dozorci
dozoru
dozravaji
dozvedel
dozvi
dozvida
dp
dph
dq
dr
dra
draci
draft
draftovan
draftu
dragon
drah
draha
drahach
drahe
drahomira
drahos
drahou
drahu
drahy
drahych
drak
draka
drake
draku
drama
dramata
dramaticka
dramaticke
dramatickeho
dramatickem
dramaticky
dramatickych
dramatik
dramatika
dramatu
dramaturg
dramaturgie
dramma
drapy
draselny
drat
dratu
draw
drazbe
drazdan
drazdanech
drazdany
draze
drazni
drazsi
drbna
dream
dreams
drei
dres
dresden
dresu
dreva
dreve
drevem
drevena
drevene
dreveneho
drevenou
dreveny
drevenych
drevenym
drevenymi
drevin
drevina
dreviny
drevo
drew
driv
drive
drivejsi
drivejsich
drivejsiho
drivejsim
driver
drivi
drobna
drobne
drobneho
drobnejsi
drobnou
drobny
drobnych
drobnym
drobnymi
drog
droga
drogami
drogy
drop
drsc
drsne
drtiva
drtive
drubez
drubeze
drug
druh
druha
druhdy
druhe
druheho
druhem
druhemu
druhotne
druhou
druhove
druhu
druhum
druhy
druhych
druhym
drum
drusop
druzi
druzic
druzice
druzich
druzici
druzina
druziny
druzstev
druzstevni
druzstva
druzstvem
druzstvo
druzstvu
drze
drzel
drzela
drzeli
drzeni
drzet
drzeti
drzi
drzici
drzitel
drzitele
drzitelem
ds
dso
dt
du
dua
dub
duba
dubai
dube
duben
dublin
dublinu
dubna
dubnem
dubnu
dubove
dubsky
dubu
duby
duch
ducha
duchem
duchod
duchodcu
duchodu
duchove
duchovenstva
duchovni
duchovnich
duchovniho
duchovnim
duchu
duchy
due
duel
duelu
duet
duha
dukaz
dukazem
dukazu
dukazy
duke
dukla
dukladne
dukladnou
duklu
dukly
dul
dulezita
dulezite
dulezitejsi
dulezitost
dulezitosti
dulezitou
dulezity
dulezitych
dulezitym
dulezitymi
dulni
dulnich
dum
dunaj
dunaje
dunaji
dunajska
duncan
duo
dur
duraz
durazem
durazne
durch
durdik
during
dusan
dusana
duse
dusek
dusevne
dusevni
dusevnich
dusevniho
dusi
dusik
dusiku
dusledek
dusledkem
dusledku
dusledky
dusledne
dusseldorf
dusseldorfu
dustojne
dustojnici
dustojnik
dustojnika
dustojnikem
dustojniku
dustojniky
dustojnost
dustojnosti
dutch
dute
dutine
dutiny
duty
duvera
duverne
duveru
duvery
duvod
duvodem
duvodu
duvody
duznina
dv
dva
dvacateho
dvacaty
dvacatych
dvacet
dvaceti
dvakrat
dvakrate
dvanact
dvanacte
dvanacti
dvb
dvd
dve
dvema
dvere
dveri
dverich
dverim
dvermi
dvojcata
dvojce
dvoje
dvoji
dvojic
dvojice
dvojici
dvojim
dvojite
dvojity
dvojka
dvojnasobne
dvojnasobny
dvora
dvorak
dvoraka
dvorakova
dvorce
dvorcich
dvore
dvorec
dvorem
dvorni
dvorniho
dvornim
dvorske
dvorsky
dvoru
dvory
dvou
dvouhra
dvouhre
dvouhru
dvouhry
dvoukolove
dvoukolovym
dvoulete
dvouletou
dvoumistny
dvousetovem
dvur
dw
dx
dy
dychaci
dychacich
dychani
dyje
dyji
dyk
dylan
dym
dynamicke
dynamicky
dynamics
dynamo
dynastie
dynastii
dynasty
dz
dzban
dzungli
e
e0
e1
e2
e3
e4
e5
e6
e7
e8
e9
ea
eagle
earl
early
earth
earthquake
earthquakes
east
eastern
easy
eb
eberhard
ec
ecce
echo
eco
ecole
ecology
economia
economic
economics
economist
economy
ed
eddie
eden
edgar
edge
edice
edici
edicni
edinburgh
edinburghu
edison
edit
edita
edith
edition
editions
editor
editoru
edmond
edmonton
edmund
edouard
eds
edu
eduard
eduarda
eduardo
education
edvard
edvarda
edward
edwarda
edwards
edwin
ee
een
ef
efekt
efektivity
efektivne
efektivni
efektu
efekty
effect
effects
efl
eg
ego
egon
egypt
egypta
egyptane
egypte
egyptian
egyptska
egyptske
egyptskeho
egyptsky
egyptskych
eh
ei
eight
ein
eindhoven
eine
einer
eines
einstein
eishockey
ej
ejn
ek
eknih
ekologicka
ekologicke
ekologicky
ekologickych
ekologie
ekonom
ekonomice
ekonomicka
ekonomicke
ekonomickeho
ekonomickou
ekonomicky
ekonomickych
ekonomickym
ekonomie
ekonomii
ekonomika
ekonomiku
ekonomiky
ekosystemu
ekvador
ekvadoru
ekvivalent
ekvivalentni
el
eleanor
election
elections
electric
electronic
elefteriadu
elegantni
elektraren
elektrarna
elektrarne
elektrarnu
elektrarny
elektricka
elektricke
elektrickeho
elektrickou
elektricky
elektrickych
elektrickym
elektrifikovana
elektrina
elektrinu
elektriny
elektromagneticke
elektronicka
elektronicke
elektronickeho
elektronickem
elektronickou
elektronicky
elektronickych
elektronika
elektroniky
elektronu
elektrony
element
elementarni
elements
elementu
elementy
elena
eleonora
elfove
elfu
elh
eli
elias
elipticke
elisabeth
elise
eliska
elisky
elite
eliteprospects
elitni
elity
elizabeth
ella
elle
ellen
elliot
elliott
ellis
else
elsevier
elvis
em
ema
eman
emanuel
emanuela
emergency
emeritni
emerson
emi
emigrace
emigraci
emigroval
emil
emila
emile
emilia
emilie
emilio
emily
eminent
emirates
emiratu
emiraty
emise
emisi
emisni
emma
emmanuel
emmy
emoce
emoci
emocionalni
empire
en
enciklopedija
encyclopaedia
encyclopedia
encyclopædia
encyklopedia
encyklopedicke
encyklopedicky
encyklopedie
encyklopedii
end
enemy
energeticka
energeticke
energeticky
energetickych
energetiky
energie
energii
energy
eng
engel
engine
engineering
england
english
enrico
enrique
ensemble
enterprise
entertainment
entity
entomolog
entomologie
entry
environment
environmental
environmentalni
enzym
enzymu
enzymy
eo
ep
eparchie
epic
epidemie
epidemii
episode
epizod
epizoda
epizodach
epizode
epizodu
epizody
epocha
epos
eposu
eq
er
era
erasmus
erb
erbem
erben
erbu
erby
ere
eretz
eric
erica
erich
erik
erika
eriksson
ernest
ernst
ernsta
eroze
erozi
error
erste
ersten
eru
erupce
erupci
ervin
erwin
ery
es
esa
escape
esej
eseje
eseji
esejista
eso
espana
esperanta
esperanto
espn
essays
essential
essex
est
este
ester
esteticke
esteticky
esther
estonska
estonske
estonsko
estonsku
estonsky
estranky
et
eta
etap
etapa
etapach
etape
etapu
etapy
etc
ethan
ethernet
etienne
etika
etiky
etiopie
etiopii
etnicke
etnicky
etnickych
etnika
etnograf
etudes
etymologicky
eu
eugen
eugena
eugene
eugenie
eur
eura
euro
eurofotbal
euromedia
europa
europaea
europe
european
eurovision
eurozpravy
euweb
ev
eva
evakuace
evakuaci
evaluation
evan
evang
evangelia
evangelicka
evangelicke
evangelickeho
evangelicky
evangeliku
evangelista
evangelisty
evangelium
evans
eve
evelyn
even
evening
event
eventpage
events
ever
everest
every
everything
evfolyam
evidence
evidenci
evidencni
evidovano
evidovany
evil
evo
evoluce
evoluci
evolucni
evolution
evolutionary
evou
evropa
evropanu
evrope
evropou
evropska
evropske
evropskeho
evropskem
evropskou
evropsky
evropskych
evropskym
evropskymi
evropsti
evropu
evropy
evy
evzen
evzena
ew
ex
exc
exchange
exclusive
excurrendo
executive
exemplar
exemplare
exemplaru
exhibition
exilove
exilu
existence
existenci
existoval
existovala
existovalo
existovaly
existovat
existuje
existuji
existujici
existujicich
exit
exkluzivni
exodus
expanze
expanzi
expedice
expedici
experience
experiment
experimental
experimentalni
experimentu
experimenty
expert
explorer
exploze
explozi
expo
exponaty
export
exportni
exportu
expozice
expozici
expres
expresivne
express
expression
extended
exterieru
externe
externi
externich
extra
extragalactic
extraliga
extraligy
extralize
extreme
extremne
extremni
extremnich
ey
eye
eyes
ez
f
f0
f1
f2
f3
f4
f5
f6
f7
f8
f9
fa
faber
fabian
fabio
face
facebook
facebooku
faces
facr
fact
factbook
facto
factor
factory
facts
fair
faire
faith
fakt
fakta
faktech
faktem
fakticky
faktor
faktorem
faktoru
faktory
faktu
fakult
fakulta
fakulte
fakultni
fakultu
fakulty
falc
falco
falcon
falesne
falesny
fall
falls
false
fame
familia
families
family
famous
famu
fan
fang
fanny
fanousci
fanousku
fanousky
fans
fantasie
fantasy
fantazie
far
fara
faraona
farar
farare
fararem
farari
fare
farm
farma
farme
farmu
farmy
farni
farniho
farnim
farnost
farnosti
farou
faru
fary
fasada
fasade
fasadu
fasady
fashion
fasismu
faso
fast
fat
father
fatra
fauna
fauny
faust
favorit
faze
fazi
fazich
fb
fbc
fbi
fc
fchd
fd
fdb
fe
fear
feat
feature
features
featuring
feb
february
fed
fedcup
federace
federaci
federal
federalni
federalniho
federalnim
federation
federativni
federer
federico
feel
felice
felipe
felix
felixe
female
feminina
femme
feng
fenomen
ferdinand
ferdinanda
ferdinandem
ferdinandovi
ferenc
ferguson
fernandez
fernando
ferrari
ferrer
ferry
fest
festival
festivalech
festivalu
festivaly
feudalni
ff
fg
fh
fi
fia
fiala
fialova
fialove
fiat
fiba
fiction
fide
fidzi
fiedler
field
fields
fifa
fifth
fight
fighter
fighting
figur
figura
figuralni
figure
figury
fiktivni
fil
filadelfie
filadelfii
file
files
filharmonie
filharmonii
filialni
filip
filipa
filipem
filipinach
filipiny
filippo
film
filmar
filmech
filmem
filmova
filmove
filmoveho
filmovem
filmovou
filmovy
filmovych
filmovym
films
filmu
filmum
filmy
filolog
filologie
filologii
filosof
filosofa
filosoficka
filosoficke
filosoficky
filosofie
filosofii
filosofu
filozof
filozoficka
filozoficke
filozofickou
filozofie
filozofii
filtr
filtru
filtry
fin
final
finale
finalista
finalni
finalove
finalovem
finals
finance
financi
financial
financne
financni
financnich
financniho
financnim
financovana
financovani
find
fine
finland
finn
finska
finske
finskeho
finskem
finsko
finsku
finsky
finskych
finstina
fire
firefox
firem
firemni
firma
firmami
firme
firmou
firmu
firmy
first
fis
fischer
fischera
fiser
fish
fisher
fitness
five
fj
fjodor
fk
fl
flag
flags
flames
flash
fleet
fleming
fletcher
fletna
fletnu
fletny
flight
flora
florbal
florence
florencie
florencii
florian
floriana
florida
floride
flory
flotila
flotilu
flotily
flow
flowering
floyd
fly
flyers
flying
fm
fn
fo
focus
foglar
fojtik
fokker
folie
folk
folklorni
folkloru
foltyn
fond
fondu
fondy
foneticky
fontaine
fontana
fontany
food
foot
football
footballdatabase
for
fora
forall
forbes
force
forces
ford
foreign
forem
forest
forever
form
forma
formace
formach
formaci
formalne
formalni
formalnich
forman
format
formation
formatu
formaty
forme
former
formou
formovani
formu
formula
formulace
formule
formuli
formuloval
formy
forst
forster
fort
fortuna
fortune
forum
forward
fosilie
fosilii
fosilni
fosilnich
fossil
fossilworks
foster
fot
fotbal
fotbale
fotbalem
fotbalista
fotbaliste
fotbalistou
fotbalistu
fotbalova
fotbalove
fotbaloveho
fotbalovou
fotbalovy
fotbalovych
fotbalovym
fotbalu
fotky
foto
fotoaparat
fotoaparatu
fotogalerie
fotograf
fotografa
fotografek
fotografem
fotograficka
fotograficke
fotografickeho
fotografickou
fotograficky
fotografickych
fotografie
fotografiemi
fotografii
fotografiich
fotografka
fotografoval
fotografovani
fotografovat
fotografove
fotografu
fotografy
found
foundation
four
fourth
fox
fp
fq
fr
fra
frac
fragment
fragmentu
fragmenty
frakce
frakci
frame
framework
fran
franc
francais
francaise
france
frances
francesca
francesco
francie
francii
francis
francisca
francisco
franciscu
franciszek
franco
francois
francoise
francouz
francouze
francouzi
francouzska
francouzske
francouzskeho
francouzskem
francouzskemu
francouzsko
francouzskou
francouzsky
francouzskych
francouzskym
francouzskymi
francouzsti
francouzstina
francouzstine
francouzstiny
francouzu
franek
frank
franka
frankfurt
frankfurter
frankfurtu
franklin
frankove
franku
frans
franske
frant
franta
frantisek
frantiska
frantiskansky
frantiskanu
frantiskem
frantisku
franz
franze
fraser
frau
fraze
frazi
fred
freddie
frederic
frederick
frederik
frederika
free
freedom
freeman
fregat
fregata
fregaty
freiburg
freie
frekvence
frekvenci
french
freska
fresky
freud
fric
friday
fridrich
fridricha
fridrichem
friedman
friedrich
friedricha
friend
friends
fritz
from
frommert
front
fronta
fronte
frontman
frontu
fronty
frost
fry
frydek
frydku
frydlant
fs
fsv
ft
ftp
fu
fuchs
full
fun
function
fund
fungoval
fungovala
fungovalo
fungovaly
fungovani
fungovat
funguje
funguji
fungujici
funk
funkce
funkcemi
funkci
funkcich
funkcionar
funkcionari
funkcionaru
funkcni
funkcnich
funkcniho
funkcnost
fur
fury
futbal
future
fuze
fuzi
fußball
fv
fw
fx
fy
fyzice
fyzicka
fyzicke
fyzickou
fyzicky
fyzickych
fyzik
fyzika
fyzikalni
fyzikalnich
fyziku
fyziky
fyziologie
fyziologii
fz
g
g0
g1
g2
g3
g4
g5
g6
g7
g8
g9
ga
gabor
gabriel
gabriela
gabriele
gaga
gaia
gaius
gal
gala
galaxie
galaxii
galaxy
galen
galeria
galerie
galerii
galie
galil
galileji
galileo
gallery
gama
gambrinus
game
games
gamma
gang
gangu
gap
garaze
garcia
garda
garde
garden
gardens
gardner
gardy
garrigue
garros
gary
gas
gaston
gastronomie
gate
gates
gay
gaz
gaza
gazeta
gazette
gazetteer
gazy
gb
gc
gcatholic
gd
gdansk
ge
gejza
gemeinden
gemini
gen
gender
genderove
gene
genealogie
genealogy
generace
generaci
general
generala
generalem
generalmajor
generalmajora
generalni
generalniho
generalnim
generalove
generalporucik
generalu
generation
generator
generatoru
generovani
genesis
geneticke
geneticky
genetics
geni
genitiv
genius
genomu
genu
genus
geny
geodezie
geoffrey
geograf
geograficke
geograficky
geografie
geografii
geographic
geolog
geological
geologicka
geologicke
geologickeho
geologicky
geologickych
geologie
geologii
geology
geometricke
geometrie
geometrii
geomorfologicka
geomorfologicke
geomorfologickeho
geomorfologicky
geoportal
georg
georga
george
georgem
georges
georgia
georgie
georgii
georgij
ger
gerald
gerard
gerhard
germain
german
germanske
germanskych
germany
gerry
geschichte
gesellschaft
gestapa
gestapem
gestapo
gesto
get
gets
gf
gg
gh
ghana
ghetta
ghetto
ghost
ghz
gi
giacomo
giant
gibson
gil
gilbert
gilles
gilmour
giorgio
giovanni
giovanniho
girl
girls
giro
giulio
giuseppe
giv
give
gj
gk
gl
glasgow
glass
glee
glen
glenn
global
globalni
globalniho
globalsecurity
globator
globe
globus
gloria
glory
gm
gmbh
gmina
gminy
gn
gnome
gnu
go
goa
goal
god
gods
goes
goethe
going
gol
gold
goldberg
golden
golem
golf
golu
goly
gomez
gone
gong
gonzalez
good
google
gora
goran
gordon
gore
gorlitz
got
goteborgu
gotha
gothic
goticka
goticke
gotickeho
gotickem
gotickou
goticky
gotickych
gotiky
gott
gottfried
gottlieb
gottwald
gottwalda
gottwaldov
gould
gov
government
gp
gpl
gps
gq
gr
grace
grad
grada
graf
graficka
graficke
grafickeho
grafickou
graficky
grafickych
grafik
grafika
grafiku
grafiky
grafu
graham
gramatika
gramatiky
grammy
gramu
gran
granat
granatu
granaty
grand
grande
grandslam
grandslamove
grandslamovy
grandslamu
grant
grave
graves
gravitace
gravitacni
gray
graz
great
greatest
greece
greek
green
greene
greenpeace
greenwood
greg
gregor
gregorianskeho
gregory
gregr
greta
grey
griffin
gronska
gronsku
gros
gross
grosse
grosu
ground
group
groups
grove
growth
groß
große
grumman
grun
grupa
grupy
gruzie
gruzii
gruzinske
gruzinsky
gs
gsm
gt
gu
guard
guardian
guatemala
gubernie
guerre
guide
guido
guild
guillaume
guillermo
guinea
guineji
guitar
gun
gunnar
guns
gunter
gunther
guru
gus
gustav
gustava
gustave
gut
gutenberg
guverner
guvernera
guvernerem
guy
gv
gw
gx
gy
gymnasia
gymnasium
gymnazia
gymnaziu
gymnazium
gyorgy
gz
h
h0
h1
h2
h3
h4
h5
h6
h7
h8
h9
ha
haag
haagu
haaretz
haas
haase
haben
habilitoval
habsburkove
habsburku
habsburska
habsburske
habsburskeho
habsbursko
habsbursky
had
hada
hadi
hadu
haifa
haify
haiti
haj
haje
hajek
haji
hajil
hajit
hajni
hajny
hal
hala
hale
halek
halepova
half
halic
halice
halici
hall
halle
halo
halove
halovem
haly
ham
hamas
hamburg
hamburk
hamburku
hamilton
hamlet
hammer
hampl
hampshire
hamr
hamry
han
hana
hanak
hanba
hand
handbook
handbuch
hands
hane
hank
hanka
hanlive
hanna
hannah
hannibal
hannover
hannoveru
hanou
hans
hanse
hansen
hanus
hany
happy
har
harald
harbor
hard
hardcore
hardware
hardy
harfa
harmonie
harmonii
harmonika
harmony
harold
harper
harriet
harris
harrison
harry
harryho
hart
hartmann
hartmut
harvard
harvey
has
hasan
hasek
hasici
hasicska
hasicske
hasicsky
hasicu
hassan
hassler
hat
hate
hattrick
haus
haut
haute
hauts
havarie
havarii
havaroval
have
havel
havelka
haven
havilland
havirov
havla
havlicek
havlicka
havlickova
havlickove
havlickuv
havlik
havran
hawk
hawker
hay
hayes
hazene
hb
hbo
hc
hcl
hd
hdp
he
head
health
heart
hearts
heat
heather
heaven
heavy
hebraistika
hebrejske
hebrejsky
hebrejstina
hector
hedvabi
hedvabne
hedvika
heidelberg
heidelbergu
heinrich
heinricha
heinz
hej
hejna
hejt
hejtm
hejtman
hejtmana
hejtmanem
hejtmanstvi
hektaru
held
helen
helena
helene
helenka
helenou
heleny
helicopter
hell
heller
hello
helmut
help
helsinkach
helsinki
helsinky
henderson
henri
henrietta
henrik
henry
henryho
henryk
her
herald
herbaria
herbert
herce
hercegovina
hercegovine
hercegoviny
hercem
herci
hercu
here
herec
herecka
herecke
hereckou
herecku
herecky
herectvi
heritage
herman
hermana
hermanice
hermann
hermanna
hermes
herni
hernich
hero
heroes
herrmann
herschel
herzog
hes
hesel
hesensko
hesla
heslem
heslo
het
hey
heydricha
hezka
hezke
hezky
hf
hg
hh
hi
hidden
hierarchie
hierarchii
hierarchy
higgins
high
higher
highway
hiking
hill
hills
hilton
him
hip
hiphopdx
hiragana
hirsch
his
hispano
histoire
historia
historic
historica
historical
historici
historicka
historicke
historickeho
historickem
historicko
historickou
historicky
historickych
historickym
historickymi
historie
historii
historik
historika
historikove
historiku
historiky
historiografie
history
hit
hitem
hitler
hitlera
hitparade
hitparady
hits
hitu
hity
hiu
hiv
hj
hk
hl
hlad
hladce
hladem
hladina
hladine
hladinou
hladinu
hladiny
hladka
hladke
hladky
hladomor
hladu
hlas
hlasatel
hlasek
hlasem
hlaseni
hlasi
hlasil
hlasili
hlasilo
hlasite
hlaska
hlasky
hlasovalo
hlasovani
hlasovanim
hlasovat
hlasu
hlasy
hlav
hlava
hlavac
hlavacek
hlavackova
hlavami
hlave
hlavice
hlavici
hlavickou
hlavne
hlavni
hlavnich
hlavniho
hlavnim
hlavnimi
hlavnimu
hlavou
hlavu
hlavy
hle
hled
hleda
hledaji
hledal
hledala
hledali
hledani
hledat
hledate
hledati
hledel
hledela
hledeli
hledi
hlediska
hlediste
hlidac
hlidka
hlidky
hlina
hliniku
hlinka
hlinsko
hliny
hloubce
hloubeji
hloubetin
hloubi
hloubka
hloubkou
hloubku
hloubky
hloupe
hloupy
hlubin
hlubinnych
hluboce
hluboka
hluboke
hlubokeho
hlubokem
hluboko
hlubokou
hluboky
hlubokych
hlubokym
hlubsi
hlucne
hluk
hluku
hm
hmot
hmota
hmotne
hmotnost
hmotnosti
hmotnostni
hmotu
hmoty
hms
hmyz
hmyzem
hmyzu
hn
hnaci
hnal
hned
hneda
hnede
hnedeho
hnedou
hnedy
hnev
hnevem
hnevu
hnizda
hnizdeni
hnizdi
hnizdo
hnuti
hnutim
ho
hoboj
hoc
hoch
hocha
hochu
hockey
hockeydb
hod
hodi
hodil
hodin
hodina
hodinach
hodinami
hodine
hodinek
hodinky
hodinou
hodinovy
hodinovych
hodinu
hodiny
hodla
hodlal
hodna
hodne
hodnocen
hodnocena
hodnoceni
hodnost
hodnosti
hodnot
hodnota
hodnotach
hodnotami
hodnote
hodnoti
hodnotou
hodnotu
hodnoty
hodny
hodonin
hodu
hody
hof
hoffman
hoffmann
hofmann
hohenlohe
hojne
hojnost
hojnosti
hojny
hokej
hokeje
hokeji
hokejista
hokejova
hokejove
hokejoveho
hokejovou
hokejovy
hola
holandska
holandsko
holandsky
hold
holding
hole
holecek
holesov
holesovice
holi
holic
holice
holiday
holik
holka
holky
holland
hollar
holly
hollywood
hollywoodu
holmes
holocaust
holocaustu
holokaustu
holstynsko
holtz
holub
holuba
holubi
holubice
holubu
holy
home
homer
homera
homme
homo
homogenni
homolka
homosexualita
homosexuality
homosexualni
hon
honda
honduras
honem
hong
hongkong
hongkongu
honor
honore
honza
hood
hop
hope
hopkins
hor
hora
horacek
horach
horacka
horak
horakova
horakove
horami
horce
hore
horecka
horecky
horejsi
horeni
hori
horice
horici
horicich
horizon
horizont
horizontalni
horizontu
horka
horke
horko
horkou
horky
horkych
horlive
hormonu
horn
hornatina
hornet
horni
hornich
hornici
hornicka
hornicke
hornictvi
horniho
hornik
horniku
hornim
hornin
horniny
hornoluzicka
horolezci
horolezec
horolezectvi
hororu
horou
horovice
horror
horse
horsi
horska
horske
horskeho
horskem
horsky
horskych
horst
horu
horvath
hory
hosak
hosi
hospital
hospoda
hospodar
hospodareni
hospodari
hospodarska
hospodarske
hospodarskeho
hospodarskou
hospodarsky
hospodarskych
hospodarskym
hospodarstvi
hospode
hospodin
hospodina
hospodine
hospodinu
hospody
hospodyne
host
hosta
hoste
hostem
hosti
hostil
hostince
hostinci
hostinec
hostinsky
hostitele
hostivar
hostoval
hostovani
hostu
hostujici
hosty
hot
hotel
hotelu
hotely
hotov
hotova
hotove
hotovo
hotovosti
hotovy
houba
houby
hour
house
housenky
houska
housle
houslista
houston
houstonu
hovezi
hovor
hovori
hovoril
hovorit
hovorove
hovoru
hovory
how
howard
howe
hp
hq
hr
hra
hrabal
hrabat
hrabata
hrabe
hrabeci
hrabeciho
hrabenka
hrabenkou
hrabenky
hrabete
hrabetem
hrabeti
hrabstvi
hrac
hrace
hracek
hracem
hrach
hraci
hracka
hrackou
hracky
hracske
hracskou
hracu
hracum
hrad
hradba
hradbami
hradby
hradcanech
hradcany
hradce
hradci
hrade
hradeb
hradebni
hradec
hradecka
hradecky
hradek
hradem
hradisko
hradist
hradiste
hradisti
hradku
hradni
hradniho
hradu
hrady
hraje
hraji
hrajici
hral
hrala
hrali
hralo
hraly
hram
hrami
hran
hrana
hrane
hraneho
hranem
hrani
hranic
hranice
hranicemi
hranici
hranicich
hranicim
hranicni
hranicniho
hranolova
hranou
hrany
hrat
hraval
hraz
hraze
hrazi
hrbek
hrbet
hrbete
hrbetni
hrbetu
hrbety
hrbitov
hrbitova
hrbitove
hrbitovech
hrbitovem
hrbitovni
hrbitovu
hrbitovy
hrde
hrdina
hrdinou
hrdinove
hrdinstvi
hrdinu
hrdiny
hrdla
hrdlicka
hrdlo
hrdosti
hrdy
hre
hreben
hrebene
hrebenem
hrebeni
hrebenu
hrebeny
hrib
hrich
hrichu
hrichy
hridel
hridele
hriste
hristi
hrivnak
hrob
hrobce
hrobe
hrobem
hrobka
hrobku
hrobky
hrobu
hroby
hrochova
hrom
hromada
hromadne
hromadnou
hromadnym
hromady
hron
hrot
hroty
hrou
hrozba
hrozbou
hrozbu
hrozby
hrozi
hrozil
hrozilo
hrozne
hroznu
hrozny
hrsg
hru
hruba
hrube
hrubeho
hrubou
hruby
hrud
hrudi
hrudni
hruska
hruza
hruzou
hruzy
hry
hs
ht
htm
html
http
https
hu
huang
hub
hubacek
hubert
hudba
hudbe
hudbou
hudbu
hudby
hudebne
hudebni
hudebnich
hudebnici
hudebniho
hudebnik
hudebnika
hudebnikem
hudebniku
hudebniky
hudebnim
hudebnimi
hudec
hudson
huga
hugh
hughes
hugo
hul
hull
human
humanitarni
humanitni
humanitnich
humor
humoru
humpolec
hung
hungarian
hungaricana
hungary
hunt
hunter
hur
hure
hurikan
hurka
hurt
hus
husa
husak
husi
husite
husitska
husitske
husitskych
husitstvi
husitu
husity
husova
husove
husovi
husta
huste
hustopece
hustota
hustotu
hustoty
hustou
husty
hustych
husuv
husy
hut
hute
huti
hv
hvezd
hvezda
hvezdami
hvezdarna
hvezdicovy
hvezdna
hvezdne
hvezdnou
hvezdnych
hvezdokupa
hvezdokupy
hvezdou
hvezdu
hvezdy
hw
hx
hy
hybnosti
hybrid
hybridni
hyde
hydrologicky
hydroxidu
hymna
hymnu
hymny
hynek
hynka
hypoteza
hypotezu
hypotezy
hz
hzds
i
i0
i1
i2
i3
i4
i5
i6
i7
i8
i9
ia
iaaf
ian
iana
iata
iau
ib
ibm
ibn
ibrahim
ibu
ic
icao
ice
ich
ico
id
ida
idaho
ide
idea
ideal
idealni
idealnim
idealu
idealy
ideje
ideji
identification
identifikace
identifikaci
identifikacni
identifikator
identifikovat
identita
identitu
identity
ideologie
ideologii
idnes
idol
ids
ie
iec
ieee
if
ifsc
ig
ign
ignac
ignace
ignaz
igor
ih
ihned
ihre
ii
iihf
iii
iispp
ij
ik
ikar
ikony
il
ile
ilegalni
iliteratura
ilja
illinois
illustrated
ilona
ilustrace
ilustracemi
ilustraci
ilustrator
ilustroval
ilustrovana
iluze
iluzi
im
image
images
imdb
imigrantu
immunology
impact
imperia
imperial
imperium
implementace
implementaci
implications
import
impuls
imslp
imunitni
imunitniho
imunitu
imunity
in
ina
inc
incident
incidentu
including
independence
independent
index
indexu
india
indian
indiana
indianapolis
indiani
indianske
indianu
indiany
indicka
indicke
indickeho
indickem
indicky
indickych
indie
indies
indii
indikativu
individual
individualne
individualni
individualnich
individualnim
indonesia
indonesie
indonesii
industrial
industrialni
industries
industry
infarkt
infekce
infekci
infekcni
infinitivu
inflace
info
informace
informacemi
informaci
informacim
informacni
informacnich
informacniho
informacnim
informatice
informatika
informatiky
information
informoval
informovat
informuje
infrastruktura
infrastrukturu
infrastruktury
infty
ing
ingrid
inicialova
iniciativa
iniciativu
iniciativy
iniciatorem
inicioval
inn
innsbruck
innsbrucku
inode
inovace
inovaci
input
ins
inscenace
inscenaci
inscenacich
insee
inside
insider
inspekce
inspektor
inspektora
inspektorem
inspirace
inspiraci
inspiroval
inspirovala
inspirovan
inspirovana
inspirovane
inspirovany
inspirovat
instagram
instagramu
instalace
instalaci
instalovan
instalovana
instalovany
instance
instanci
instituce
institucemi
instituci
institucich
institut
institute
institution
institutu
instrukce
instrukci
instruktor
instrumental
instrumentalni
int
integrace
integraci
integral
integrovana
integrovane
integrovaneho
integrovany
intel
intelektualni
inteligence
inteligenci
inteligentni
intelligence
intenzita
intenzity
intenzivne
intenzivni
inter
interactive
interakce
interakci
interaktivni
interface
interier
interieru
interiery
international
internationale
internet
internetova
internetove
internetoveho
internetovy
internetovych
internetu
interni
internovan
interpret
interpretace
interpretaci
interpretovat
interpretu
interval
intervalech
intervalu
intervence
intervenci
interview
intimni
into
intonace
intranzitivni
introduction
inu
invaze
invazi
invazni
inventory
investic
investice
investicni
investigation
investor
investovat
inzenyr
inzenyra
inzenyrem
inzenyrske
inzenyrstvi
inzenyru
io
ion
iontu
ionty
ios
iowa
ip
ipa
ipac
ipcc
iphone
ipv
iq
ir
ira
iracke
irak
iraku
iran
iranske
iransky
iranu
ireland
irena
irene
irina
iris
irish
iron
irozhlas
irska
irske
irskeho
irsko
irsku
irsky
irving
is
isaac
isabel
isabela
isabella
isabelle
isabely
isbn
isis
islam
islamske
islamskeho
islamsky
islamskych
islamu
island
islands
islandske
islandsky
islandu
isle
iso
isport
israel
israeli
iss
issn
issue
issues
ist
istanbul
istanbulu
isthmian
istvan
it
ita
itable
ital
italia
italian
italiana
italie
italii
italove
italska
italske
italskeho
italskem
italsko
italskou
italsky
italskych
italskym
italstina
italstine
italstiny
italy
item
itf
its
itunes
iu
iucn
iuzlu
iuzly
iv
iva
ivan
ivana
ivanem
ivanov
ivanovic
iveta
ivo
iw
ix
iy
iz
izolace
izolaci
izolovane
izotopu
izrael
izraele
izraelem
izraeli
izraelska
izraelske
izraelskeho
izraelskem
izraelskou
izraelsky
izraelskych
izraelskym
izraelsti
j
j0
j1
j2
j3
j4
j5
j6
j7
j8
j9
ja
jablek
jablka
jablko
jablon
jablonce
jablonci
jablonec
jachym
jachyma
jachymov
jack
jacka
jackie
jackson
jacob
jacqueline
jacques
jacquese
jader
jaderna
jaderne
jaderneho
jadernou
jaderny
jadernych
jadra
jadre
jadrem
jadro
jadru
jagellonsky
jaguar
jahn
jahody
jahr
jahre
jahrhundert
jak
jaka
jakakoli
jakakoliv
jakasi
jake
jakeho
jakehokoli
jakehokoliv
jakehosi
jakekoli
jakekoliv
jakem
jakesi
jakkoli
jakkoliv
jakmile
jako
jakob
jakoby
jakosti
jakou
jakoukoli
jakoukoliv
jakousi
jakoz
jakozto
jaksi
jakub
jakuba
jakubem
jaky
jakych
jakychkoli
jakychkoliv
jakykoli
jakykoliv
jakym
jakymi
jakymsi
jakysi
jakz
jal
jala
jam
jama
james
jamese
jamesem
jamie
jamu
jamy
jan
jana
janacek
janacka
janackova
janak
janda
jane
janecek
janeiro
janek
janem
janet
jang
janis
janko
janos
janousek
janov
janova
janove
janovi
janovic
janovice
janu
januar
january
janusz
jany
japan
japanese
japonci
japonska
japonske
japonskeho
japonskem
japonsko
japonskou
japonsku
japonsky
japonskych
japonskym
japonstina
jar
jara
jare
jarmila
jarni
jarnich
jaro
jaromer
jaromir
jaromira
jaros
jaroslav
jaroslava
jaroslavem
jary
jas
jasan
jasna
jasne
jasneho
jasno
jasnost
jasnosti
jasnou
jasny
jasnych
jasnym
jason
jasu
jat
jater
jatra
java
javier
javor
javornik
jawa
jay
jazyce
jazycich
jazyk
jazyka
jazykem
jazykova
jazykove
jazykovede
jazykovedec
jazykovou
jazykovy
jazykovych
jazyku
jazyky
jazz
jazzove
jazzovy
jazzu
jb
jc
jd
jde
jdeme
jdete
jdi
jdou
jdouci
jdoucich
jdu
je
jean
jeana
jeanne
jed
jede
jedem
jeden
jedenact
jedenacte
jedenacti
jedenacty
jedenkrat
jedi
jedina
jedince
jedinci
jedincu
jedine
jedinec
jedinecne
jedinecny
jedineho
jedinem
jedinou
jediny
jedinym
jedinymi
jedla
jedle
jedli
jedlicka
jedna
jednak
jednal
jednalo
jednani
jednanich
jednanim
jednat
jednatelem
jednati
jedne
jedni
jednicka
jednickou
jednicku
jednicky
jednim
jedno
jednoducha
jednoduche
jednoducheho
jednoduchost
jednoduchou
jednoduchy
jednoduchych
jednoduchym
jednoduchymi
jednoduse
jednodussi
jednoho
jednokolejna
jednolete
jednolodni
jednom
jednomu
jednomyslne
jednopatrova
jednorazove
jednostranne
jednota
jednotce
jednote
jednotek
jednotka
jednotkach
jednotkam
jednotkami
jednotkou
jednotku
jednotky
jednotliva
jednotlivce
jednotlivci
jednotlivcu
jednotlive
jednotlivi
jednotlivych
jednotlivym
jednotlivymi
jednotna
jednotne
jednotneho
jednotnou
jednotny
jednotu
jednoty
jednou
jednoznacne
jednu
jedny
jedou
jedouci
jedovate
jedovaty
jedu
jeff
jefferson
jeffrey
jehlice
jehlicnate
jehly
jeho
jehoz
jehuda
jej
jeji
jejich
jejichz
jejiho
jejim
jejimi
jejimu
jejimz
jejiz
jejz
jekaterina
jel
jela
jelen
jelena
jeleni
jeli
jelikoz
jelinek
jemenu
jemna
jemne
jemnice
jemnou
jemny
jemnym
jemu
jemuz
jen
jena
jenik
jenkins
jennifer
jenny
jenom
jens
jensen
jensik
jenz
jenze
jerab
jerabek
jeremy
jerome
jeronym
jeronyma
jerry
jersey
jerusalem
jeruzalem
jeruzalema
jeruzaleme
jeruzalemskeho
jeruzalemsky
jeruzalemu
jerzy
jesenice
jesenik
jeseniku
jeskyne
jeskyni
jeskynni
jesse
jessica
jest
jeste
jester
jesterka
jestli
jestlize
jesto
jestrabi
jestrebi
jesus
jet
jev
jevem
jevgenij
jevi
jevil
jeviste
jevisti
jevistni
jevo
jevu
jevy
jewish
jews
jez
jezdce
jezdcem
jezdci
jezdcu
jezdec
jezdecke
jezdectva
jezdi
jezdil
jezdila
jezdily
jezdit
jezek
jezer
jezera
jezere
jezerem
jezerni
jezero
jezeru
jezirko
jezis
jezise
jezisi
jezisova
jezka
jezto
jezu
jezuita
jezuite
jezuitske
jezuitskeho
jezuitsky
jezuitu
jf
jfk
jg
jh
ji
jicchak
jich
jichz
jicin
jicina
jicine
jidel
jidelna
jidis
jidla
jidle
jidlem
jidlo
jidlu
jih
jihlava
jihlave
jihlavske
jihlavy
jihoafricka
jihoafricke
jihoafricky
jihoceska
jihoceske
jihoceskeho
jihoceskem
jihocesky
jihomoravske
jihomoravskeho
jihomoravskem
jihomoravsky
jihovychod
jihovychode
jihovychodne
jihovychodni
jihovychodnim
jihovychodu
jihozapad
jihozapade
jihozapadne
jihozapadni
jihozapadnim
jihozapadu
jihu
jilek
jilemnice
jilji
jill
jilm
jilove
jim
jima
jimi
jimiz
jimmy
jimz
jin
jina
jinak
jinam
jinde
jindra
jindrich
jindricha
jindrichem
jindrichova
jindrichove
jindrichovi
jindrichu
jindrichuv
jindy
jine
jineho
jinem
jinemu
jing
jini
jinoch
jinonice
jinou
jiny
jinych
jinym
jinymi
jira
jirasek
jiraska
jiraskova
jiri
jiriho
jirik
jirim
jirimu
jirina
jirka
jiskra
jiskry
jisra
jist
jista
jiste
jisteho
jistem
jisti
jisto
jistotou
jistotu
jistoty
jistou
jisty
jistych
jistym
jit
jiti
jitka
jitra
jitro
jiz
jizby
jizda
jizde
jizdenky
jizdni
jizdnich
jizdniho
jizdnim
jizdu
jizdy
jizerou
jizerske
jizerskych
jizne
jizni
jiznich
jizniho
jiznim
jizto
jj
jk
jl
jm
jmen
jmena
jmenem
jmeni
jmeniny
jmenne
jmenny
jmeno
jmenoval
jmenovala
jmenovalo
jmenovan
jmenovana
jmenovane
jmenovaneho
jmenovani
jmenovany
jmenovanych
jmenovat
jmenovite
jmenu
jmenuje
jmenuji
jmeny
jn
jo
joachim
joan
joannes
joao
job
joe
joel
joey
johan
johana
johann
johanna
johannes
johansson
john
johna
johnem
johnny
johns
johnson
johnston
join
joins
joint
jon
jonas
jonathan
jones
jong
jordan
jordansko
jordanu
jorge
jos
jose
josef
josefa
josefem
josefov
josefu
joseph
josepha
josh
joshua
josip
jost
jota
jou
journal
journey
joy
joyce
jozef
jozefa
jozsef
jp
jpg
jq
jr
js
jsa
jse
jsem
jsi
jsme
jsou
jsouc
jsouce
jste
jstor
jt
ju
juan
juana
juandev
jubilejni
juda
judaismu
judaismus
judas
judem
judista
judith
judo
judoinside
judr
judu
judy
jugoslavie
jugoslavii
jugoslavske
jugoslavsky
jul
jules
julia
julian
juliana
julie
julien
julii
julio
julius
july
jump
jun
junak
june
jung
jungmann
junior
juniorske
juniorskem
juniorsky
junioru
junius
junkers
juno
jupiter
jupiteru
jura
juraj
jurassic
jurgen
jurij
jurisdikci
jury
just
justice
justicni
justin
juventus
juz
jv
jw
jx
jy
jz
jzd
k
k0
k1
k2
k3
k4
k5
k6
k7
k8
k9
ka
kabaret
kabat
kabel
kabelu
kabely
kabina
kabinet
kabinetu
kabinou
kabiny
kachna
kachny
kadan
kadane
kadani
kadlec
kadru
kafka
kafky
kahire
kai
kaiser
kaja
kajetan
kal
kaleidoskop
kalendar
kalendare
kalendari
kalendarium
kalhoty
kalich
kalicha
kalifornie
kalifornii
kalifornske
kalifornskem
kalina
kalisni
kalousek
kalvarie
kalvoda
kam
kamarad
kamarada
kamaradi
kamarady
kamen
kamene
kamenec
kamenem
kameni
kamenice
kamenici
kamenicky
kamenna
kamenne
kamenneho
kamennem
kamennou
kamenny
kamennych
kamennym
kamennymi
kamenu
kameny
kamer
kamera
kameraman
kamerou
kameru
kamerunu
kamery
kamil
kamila
kamna
kampan
kampane
kampani
kampusu
kan
kanada
kanade
kanadska
kanadske
kanadskeho
kanadskem
kanadsky
kanadskych
kanady
kanal
kanale
kanalem
kanalizace
kanalu
kanaly
kancelar
kancelare
kancelari
kancelarske
kancler
kanclere
kanclerem
kandidat
kandidata
kandidatce
kandidatem
kandidati
kandidatka
kandidatku
kandidatky
kandidatni
kandidatu
kandidaturu
kandidaty
kandidoval
kandidovala
kandidovat
kandzi
kane
kang
kanon
kanonem
kanonickeho
kanonu
kanony
kanovnik
kanovnikem
kanovniku
kansas
kant
kantata
kanton
kantonu
kantor
kao
kap
kapacita
kapacitou
kapacitu
kapacity
kapalina
kapaliny
kapel
kapela
kapele
kapelnik
kapelnikem
kapelou
kapelu
kapely
kapesni
kapital
kapitalismu
kapitalu
kapitan
kapitana
kapitanem
kapitol
kapitola
kapitole
kapitolu
kapitoly
kapitula
kapitulace
kapitulaci
kapitule
kapitulni
kapituly
kapky
kaplan
kaplanem
kaple
kapli
kaplicka
kaplicky
kapse
kapsy
kar
kara
karate
kardinal
kardinala
kardinalem
kardinalu
karel
karen
karet
kari
karibik
karibiku
kariera
kariere
karierni
karierou
karieru
kariery
karin
karl
karla
karlem
karlik
karlin
karline
karlo
karlova
karlovarska
karlovarske
karlovarskeho
karlovarskem
karlovarsky
karlove
karlovi
karlovy
karlovych
karlsruhe
karlstejn
karlu
karluv
karmel
karmelitanske
karol
karolina
karoline
karolinum
karoliny
karosa
karoserie
karoserii
karpat
karpatech
karpaty
karta
karte
kartograf
kartografie
kartou
kartu
karty
karvina
karvine
kasaren
kasarna
kase
kasik
kasna
kasny
kaspar
kassel
kastel
kastilie
kastilsky
kat
kata
katalansky
katalog
katalogove
katalogu
katalogy
katalyzatoru
katar
katarina
katastr
katastralni
katastralnich
katastralniho
katastralnim
katastrofa
katastrofalni
katastrofe
katastrofy
katastru
kate
katedra
katedrala
katedrale
katedralni
katedralu
katedraly
katedre
katedru
katedry
kategorie
kategorii
kategoriich
katerina
katerine
katerinou
katerinu
kateriny
katherine
kathleen
katie
katol
katolici
katolicismu
katolicka
katolicke
katolickeho
katolickem
katolickou
katolicky
katolickych
katolickym
katolictvi
katolik
katoliku
katoliky
katy
kauza
kauze
kauzy
kava
kavarna
kavarne
kavarny
kavkaz
kavkaze
kavkazu
kavu
kavy
kawasaki
kay
kazachstan
kazachstanu
kazal
kazan
kazani
kazatel
kazatele
kazatelna
kazda
kazde
kazdeho
kazdem
kazdemu
kazdodenni
kazdodenniho
kazdopadne
kazdorocne
kazdorocni
kazdou
kazdy
kazdych
kazdym
kaze
kazimierz
kazimir
kazimira
kb
kc
kcs
kct
kd
kde
kdekoli
kdesi
kdez
kdezto
kdo
kdokoli
kdokoliv
kdosi
kdoz
kdu
kdy
kdyby
kdybych
kdybychom
kdybys
kdybyste
kdykoli
kdykoliv
kdys
kdysi
kdyz
ke
kedd
keep
keith
keller
kelly
keltske
kemp
ken
kena
keni
kennedy
kennedyho
kenneth
kenny
kent
kentu
kentucky
kepler
ker
keramicke
keramika
keramiky
kere
keri
kernel
keru
kevin
kew
key
kez
kf
kfar
kfs
kg
kgb
kh
khan
khl
khz
ki
kib
kibuc
kibucu
kid
kids
kiki
kill
killed
killer
killing
kilogramu
kilometr
kilometru
kilometry
kim
kin
kina
kind
kindred
kinech
kinematografie
king
kingdom
kings
kino
kinoboxu
kinsky
kinskych
kirche
kirjat
kirk
kirsten
kiss
kit
kitty
kj
kk
kl
klad
klade
kladen
kladeni
kladivem
kladivo
kladl
kladna
kladne
kladno
kladny
kladou
kladu
klam
klan
klani
klanu
klara
klarinet
klas
klasicismu
klasicistni
klasicka
klasicke
klasickeho
klasickem
klasickou
klasicky
klasickych
klasickym
klasifikace
klasifikaci
klasifikovan
klasifikovana
klasiku
klast
klaster
klastera
klastere
klasterec
klasterem
klasterni
klasternich
klasterniho
klasternim
klasteru
klastery
klatovech
klatovy
klaus
klause
klavesista
klavesnice
klavesnici
klavesove
klavesy
klavir
klavirista
klavirni
klaviru
kldr
klec
klece
kleci
klein
kleine
klement
klementa
klen
klenba
klenbou
klenbu
klenby
klenotu
klenoty
klesa
klesaji
klesajici
klesat
klesl
klesla
klic
klice
klicem
klici
klicova
klicove
klicovou
klicovy
klicovych
klicovym
klicu
klid
klidne
klidny
klidu
klient
klienta
klientu
klienty
klima
klimaticke
klimatickych
klimatu
kliment
klimenta
klimes
klin
kline
klinice
klinicke
klinickych
klinika
kliniky
klip
klipu
klobouk
klobouku
klobouky
kloubu
klub
klubech
klubem
klubove
klubu
kluby
kluci
kluk
kluka
kluwer
km
kmen
kmene
kmenem
kmeni
kmenove
kmenovych
kmenu
kmeny
kmotr
kn
knapp
kneset
knesetu
knez
kneze
knezem
knezi
knezim
kneziste
knezna
kneznou
knezny
knezske
knezskeho
knezstvi
knight
knights
knih
kniha
knihach
knihami
knihkupectvi
knihou
knihoven
knihovna
knihovne
knihovnictvi
knihovnik
knihovnou
knihovnu
knihovny
knihu
knihy
knizat
knizata
knizaty
knize
knizeci
knizeciho
knizectvi
knizete
knizetem
knizeti
knizka
knizku
knizky
knizne
knizni
kniznich
know
knowledge
known
ko
koalice
koalici
koalicni
koberce
koberec
kobra
kocar
kocaru
kocek
koch
koci
kocici
kocka
kocku
kocky
kocour
kod
kodan
kodani
kodem
kodex
kodexu
kodovani
kodu
kody
koeficient
kognitivni
koho
kohout
kohoutek
kol
kola
kolar
kolarova
kole
kolech
kolega
kolegia
kolegou
kolegove
kolegu
kolegy
kolej
koleje
koleji
kolejich
kolejiste
kolejnice
kolekce
kolekci
kolektiv
kolektivni
kolektivu
kolem
kolena
koleno
kolik
kolikrat
kolin
kolina
koline
kolisa
kolizi
kollar
kolmo
koln
kolo
kolonialni
kolonie
kolonii
koloniich
kolonizace
kolonizaci
kolovrat
kolowrat
kolumbie
kolumbii
kolumbijske
koly
kom
komander
komarek
kombinace
kombinaci
kombinovane
kombinovat
kombinuje
komedialni
komedie
komedii
komenskeho
komensky
komentar
komentare
komentator
komentoval
komercne
komercni
komercnich
komercnim
kometa
komety
komicka
komicke
komik
komiks
komiksu
komin
komisar
komisare
komisarem
komise
komisi
komnata
komnaty
komor
komora
komore
komori
komorim
komorni
komornik
komorou
komoru
komory
kompaktni
kompatibilni
kompetence
kompetenci
kompilace
kompilaci
kompilacni
komplet
kompletne
kompletni
komplex
komplexni
komplexnich
komplexu
komplexy
komplikace
komplikaci
komponent
komponenty
komponoval
kompozice
kompozici
komprese
kompromis
komtur
komu
komunalni
komunalnich
komunikace
komunikaci
komunikacich
komunikacni
komunikacnich
komunikovat
komunismu
komunismus
komuniste
komunisticka
komunisticke
komunistickeho
komunistickem
komunistickou
komunisticky
komunistickych
komunistickym
komunistu
komunisty
komunit
komunita
komunite
komunitni
komunitou
komunitu
komunity
kon
kona
konaji
konal
konala
konalo
konaly
konane
konaneho
konanem
konani
konany
konanych
konat
konati
konce
koncem
koncentrace
koncentraci
koncentracni
koncentracnich
koncentracniho
koncentracnim
koncepce
koncepci
koncept
konceptu
koncepty
koncern
koncernu
koncert
koncerte
koncertech
koncertni
koncertnich
koncertnim
koncertu
koncerty
koncetin
koncetiny
konci
koncich
koncici
koncil
koncila
koncilu
koncove
koncovky
koncu
kone
konec
konecna
konecne
konecneho
konecnem
konecnou
konecny
konecnych
konecnym
konfederace
konference
konferenci
konfigurace
konfiguraci
konfiskaci
konflikt
konfliktu
konflikty
konfrontaci
kong
kongo
kongregace
kongregaci
kongres
kongresu
koni
konicek
konich
konig
konjugace
konkretne
konkretni
konkretnich
konkretniho
konkretnim
konkurence
konkurenci
konkurencni
konkurovat
konkurzu
konmi
konopi
konrad
konrada
konske
konstanta
konstantin
konstantina
konstantinopole
konstantinopoli
konstantni
konstanty
konstatoval
konstitucni
konstrukce
konstrukci
konstrukcne
konstrukcni
konstrukter
konstrukteru
kontakt
kontaktni
kontaktu
kontakty
konte
kontejneru
kontext
kontextu
kontinent
kontinentalni
kontinentu
konto
kontrabas
kontrabasista
kontrakt
kontraktu
kontrast
kontrastu
kontrola
kontrole
kontrolni
kontrolniho
kontrolou
kontrolovat
kontrolu
kontroluje
kontroly
kontroverze
kontroverzni
konvence
konvencni
konvent
konventu
konverze
konverzi
konvoj
konzervativni
konzervator
konzervatore
konzervatori
konzole
konzoli
konzul
konzumace
konzumaci
koordinace
koordinaci
kop
kopal
kopane
kopce
kopcem
kopci
kopcu
kopec
kopecek
kopecky
kopi
kopie
kopii
kopinate
kopirovani
kopiruje
kopriva
koprivnice
kopu
kopule
kor
koran
koranu
korea
korean
koreje
koreji
korejska
korejske
korejsky
korejstina
koren
korene
koreni
korenu
koreny
korespondence
korespondenci
koridor
koridoru
korinek
korist
koristi
korn
koronaviru
korporace
korporaci
korpus
korun
koruna
korune
korunni
korunnich
korunniho
korunou
korunovace
korunovaci
korunovacni
korunovan
korunovani
korunu
koruny
korupce
korupci
koryta
koryto
korzar
kos
kose
kosic
kosice
kosicich
kosik
kosile
kosili
kosmicka
kosmicke
kosmickeho
kosmickou
kosmickych
kosmodromu
kosmonaut
kosmonauti
kosmonautika
kosmonautiky
kosmonautu
kosmu
kosova
kosovo
kosovu
kost
kostel
kostela
kostelci
kostele
kostelec
kostelem
kostelik
kostelni
kostelu
kostely
kosti
kostka
kostky
kostni
kostnice
kostra
kostry
kostymu
kostymy
kotel
kotle
kotlina
kotline
kotliny
kotlu
kotouc
kouc
koudelka
koukal
koule
kouli
koupaliste
koupani
koupe
koupi
koupil
koupila
koupili
koupit
kour
koure
koureni
kousek
kousku
kousky
kout
koute
kouzel
kouzelna
kouzelne
kouzelnik
kouzelny
kouzla
kouzlo
kov
kovac
kovar
kovari
kovarik
kovova
kovove
kovovou
kovovy
kovovych
kovu
kovy
koz
koza
kozak
kozel
kozi
kozni
kozy
kp
kpt
kq
kr
krabice
kracel
kraci
kradez
kradeze
kraj
kraje
krajem
kraji
krajich
krajin
krajina
krajinach
krajine
krajinna
krajinne
krajinou
krajinu
krajiny
krajne
krajni
krajska
krajske
krajskeho
krajskem
krajsky
krajskych
krajskym
kraju
krakov
krakova
krakove
krakow
kral
krale
kralem
krali
kralik
kralova
kralove
kralovehradecke
kralovehradeckeho
kralovehradeckem
kralovehradecky
kralovice
kralovna
kralovne
kralovnou
kralovnu
kralovny
kralovo
kralovska
kralovske
kralovskeho
kralovskem
kralovskou
kralovsky
kralovskych
kralovskym
kralovstvi
kralovstvim
kralu
kralupy
kraluv
kramar
kramer
kramerius
kras
krasa
krase
kraska
krasna
krasne
krasneho
krasnou
krasny
krasnych
krasnym
krasobrusleni
krasou
krasu
krasy
krat
kratce
krater
krateru
kratka
kratke
kratkeho
kratkem
kratko
kratkodobe
kratkou
kratky
kratkych
kratkym
kratkymi
kratochvil
kratsi
kraus
krause
krav
krava
kravar
kravy
krbu
krc
krcmar
kreativni
krehke
krejcaru
krejci
krejcikova
kremlu
kresba
kresbou
kresbu
kresby
kreseb
kresel
kresla
kresleni
kreslil
kreslir
kreslo
krest
krestan
krestane
krestanska
krestanske
krestanskeho
krestansko
krestanskou
krestansky
krestanskych
krestanskym
krestanstvi
krestanu
krestany
krestni
krev
krevni
krevniho
kricel
krici
kridel
kridla
kridle
kridlech
kridlem
kridlo
kridly
kridy
krik
kriminalka
kriminalni
krista
kristem
kristian
kristiana
kristina
kristof
kristova
kristu
kristus
kristyna
kriteria
kriterii
kriterium
kritice
kritici
kriticka
kriticke
kriticky
kritik
kritika
kritikou
kritiku
kritiky
kritizoval
kritizovali
kritizovan
kritizovana
kritizuje
krive
krivka
krivky
krivoklat
kriz
krizaci
krizacke
krize
krizek
krizem
krizeni
krizenim
krizi
krizku
kriznik
krizniku
krizniky
krizova
krizovatce
krizovatka
krizovatkou
krizovatky
krizove
krizovniku
krizovou
krizovy
krizovych
krizu
krk
krkonos
krkonose
krkonosich
krku
krmeni
krmi
krnov
krok
krokem
kroku
kroky
krom
krome
kromeriz
kromerize
kromerizi
kronice
kronik
kronika
kronikar
kroniky
kroupa
krouzek
krouzku
krouzky
krovi
krtitel
krtitele
krtitelnice
krtu
kruchta
krucifix
kruh
kruhem
kruhova
kruhove
kruhoveho
kruhovy
kruhu
kruhy
krumlov
krumlova
krumlove
krupka
krusne
krusnych
kruta
krute
kruty
kruzich
kruznice
krvaceni
krvava
krvave
krvavy
krve
krvi
kryci
kryje
kryl
krym
krymske
krymu
krypte
krystalu
krystaly
krystof
krystofa
kryt
kryta
kryte
kryti
krytu
kryty
krzysztof
ks
ksc
kscm
ksinan
kss
kt
ktera
kterak
kteraz
ktere
ktereho
kterehoz
kterem
kteremu
kterez
kterezto
kteri
kteriz
kterou
kterouz
ktery
kterych
kterym
kterymi
kteryz
kteryzto
kto
ku
kuang
kuba
kubanske
kubansky
kubat
kube
kubicek
kubin
kubu
kuby
kuca
kucera
kuchar
kuchyne
kuchyni
kudy
kuhn
kukurice
kul
kulate
kulaty
kulomet
kulometu
kulomety
kulovite
kult
kultivar
kultivaru
kultivary
kultovni
kultu
kultur
kultura
kulturach
kulture
kulturne
kulturni
kulturnich
kulturniho
kulturnim
kulturou
kulturu
kultury
kun
kuna
kundera
kung
kunst
kunstatu
kuo
kupce
kupci
kupe
kupec
kupni
kupole
kupoli
kuprikladu
kupuje
kur
kura
kurat
kurator
kure
kurfirt
kurfirta
kurie
kurii
kurs
kurt
kuru
kury
kurz
kurzu
kurzy
kus
kuse
kusu
kusy
kutna
kutne
kuvajt
kuze
kuzel
kuzi
kv
kvadru
kvalifikace
kvalifikaci
kvalifikacni
kvalifikacnim
kvalifikoval
kvalifikovan
kvalifikovana
kvalita
kvalitativni
kvalite
kvalitni
kvalitnich
kvalitou
kvalitu
kvality
kvantitativni
kvantove
kvapil
kvapne
kvartet
kvarteto
kvet
kveta
kvete
kvetech
kvetem
kveten
kvetena
kvetene
kveteni
kvetenstvi
kvetenstvich
kvetin
kvetina
kvetiny
kvetna
kvetnem
kvetni
kvetnu
kvetou
kvetouci
kvetu
kvety
kvintet
kviti
kvitova
kvuli
kw
kx
ky
kychot
kyjev
kyjeva
kyjeve
kyjevske
kyjov
kyle
kym
kypr
kypru
kysela
kysele
kyselin
kyselina
kyselinou
kyselinu
kyseliny
kyslik
kyslikem
kysliku
kytara
kytarista
kytaristou
kytaristy
kytaru
kytary
kytice
kz
kɔ
l
l0
l1
l2
l3
l4
l5
l6
l7
l8
l9
la
lab
labe
label
labelu
labem
labi
labor
laborator
laboratore
laboratori
laboratorich
laboratorni
laboratory
labut
labuti
labyrint
lac
lacroix
lada
ladeni
ladies
ladislav
ladislava
ladislavem
lady
lago
laguna
lahev
lahve
lahvi
laichter
laka
lake
lala
laloky
lam
lama
lambda
lambert
lampa
lampy
lan
lana
lancaster
lance
lancer
lancia
land
lander
landing
landscape
lane
lang
lange
langer
langle
language
languages
lanka
lano
lanova
lanove
lanovka
lanovky
lany
lara
large
larry
lars
larvy
las
lasce
laser
laska
laskave
lasko
laskou
lasku
lasky
last
laszlo
lat
late
latek
later
latest
latin
latina
latine
latinka
latinska
latinske
latinskeho
latinskem
latinsky
latinskych
latinskym
latiny
latka
latkami
latkou
latku
latky
launch
launches
laura
lauren
laurence
laurent
laurie
lausanne
lavicce
lavice
lavici
lavka
lavky
lavy
law
lawrence
lazar
lazara
lazenske
lazensky
lazenskych
lazio
lazne
lazni
laznich
lb
lc
ld
ldots
le
lea
lead
leader
leaders
league
learning
leave
leben
lebka
lebku
lebky
lec
lecba
lecbe
lecbu
lecby
lecebne
lecebny
leceni
lech
leci
lecit
leciv
leciva
lecive
lecivych
led
leda
ledaze
lede
ledec
ledem
leden
ledna
lednem
ledni
lednice
ledniho
lednim
lednu
ledova
ledovce
ledovcu
ledove
ledovec
ledu
ledvin
lee
leeds
left
legacy
legal
legalni
legend
legenda
legendarni
legendarniho
legende
legends
legendu
legendy
legie
legii
legion
legionar
legionari
legionaru
legislativa
legislativni
legislativy
legitimni
lego
lehce
lehci
lehka
lehke
lehkeho
lehkou
lehky
lehkych
lehkym
leicester
leiden
leigh
leipzig
lek
lekar
lekare
lekarem
lekari
lekarka
lekarna
lekarska
lekarske
lekarskeho
lekarskou
lekarsky
lekarskych
lekarstvi
lekaru
lekce
lektor
leku
leky
lem
len
lena
length
lenin
lenina
leningrad
leningradu
lenka
lenni
lennon
leno
leo
leon
leona
leonard
leonarda
leonardo
leone
leonid
leopard
leopold
leopolda
leos
leose
lepe
lepsi
lepsich
lepsiho
lepsim
lepsimu
leq
les
lesa
lese
lesem
lesich
lesk
leskla
leskle
leskly
lesku
leslie
lesna
lesni
lesnich
lesnicka
lesnicke
lesnictvi
lesniho
lesnim
lesu
lesy
let
leta
letadel
letadla
letadle
letadlem
letadlo
letadlova
letadlove
letadlovych
letadly
letajici
letal
letani
letat
letci
letcu
lete
letec
letech
letecka
letecke
leteckeho
leteckem
leteckou
letecky
leteckych
leteckym
letectva
letectvi
letectvo
letectvu
leteho
letel
letem
leti
letist
letiste
letistem
letisti
letka
letky
letnany
letne
letni
letnich
letniho
letnim
leto
letohradek
letopisy
letopocet
letopoctem
letopoctu
letos
letosni
letou
letoun
letounem
letounu
letouny
letov
letove
letovisko
letovy
letter
letters
letu
letum
lety
lev
leva
leve
leveho
level
levem
levi
levice
levici
levicove
levin
levne
levnejsi
levo
levostranny
levou
levy
levym
lewis
lex
lexikon
lez
lezak
leze
lezec
lezel
lezela
lezelo
lezely
lezeni
lezet
lezi
lezici
lezicich
leziciho
lezicim
lf
lg
lgbt
lh
lhota
lhote
lhotka
lhoty
lhuta
lhute
lhuty
li
liang
liao
lib
liba
libal
libanon
libanonu
libava
liben
liber
liberal
liberalne
liberalni
liberalu
liberation
liberce
liberci
liberec
libereckeho
libereckem
liberecky
liberty
libi
libilo
libni
libor
libosti
libovolne
libovolny
library
libreta
libreto
libri
libuse
libye
libyi
lic
lice
licence
licenci
licencni
liceni
license
lichtenburka
lichtenstejna
lici
lid
lida
lide
lidech
lidem
lidi
lidice
lidmi
lidova
lidove
lidoveho
lidovem
lidovky
lidovou
lidovy
lidovych
lidovym
lidr
lidra
lidrem
lidska
lidske
lidskeho
lidskem
lidskosti
lidskou
lidsky
lidskych
lidskym
lidstva
lidstvo
lidu
lie
liebe
liechtenstein
lietuvos
life
liga
ligandu
ligandy
light
lightning
lights
ligova
ligove
ligoveho
ligovem
ligovy
ligovych
ligu
ligue
ligy
lihovar
like
likud
likvidace
likvidaci
lil
lilie
lille
lily
lim
lima
limit
limited
limitu
limity
lin
lina
lince
linci
lincoln
linda
linde
lindsay
line
linearni
linek
lines
ling
lingvista
lingvistiky
linhart
linie
linii
link
linka
linkach
linkami
linkou
linkove
linku
linky
linnaeus
linne
linux
linuxu
linz
lion
lionel
lions
liou
lip
lipa
lipe
lipnice
lipnik
lipou
lipova
lippe
lipska
lipsko
lipsku
liptovsky
lipy
lis
lisa
lisabon
lisabonu
lisci
lisi
lisily
lisit
liska
liskova
lisky
list
liste
listech
listek
listem
listen
listeny
lister
listi
listin
listina
listinach
listine
listinou
listinu
listiny
listku
listky
listnate
listnatych
listopad
listopadu
listove
listu
listy
lit
lite
liten
litera
literarne
literarni
literarnich
literarniho
literarnim
literary
literatur
literatura
literature
literaturou
literaturu
literatury
litevska
litevske
litevskeho
litevsky
litevskych
litevstina
lithium
lito
litomeric
litomerice
litomericich
litomericke
litomerickeho
litomericky
litomysl
litomysle
litomysli
litost
litosti
litovel
litru
little
liturgicke
liturgie
liturgii
litva
litve
litvinov
litvy
liu
live
liverpool
liverpoolu
lives
living
livius
liz
liza
lize
lj
ljubljana
lk
ll
llc
lloyd
lm
ln
lo
loajalni
lobkovic
lobkowicz
loc
local
lockheed
lod
lode
lodemi
lodenice
lodenici
lodi
lodich
lodim
lodni
lodstva
lodstvo
lodyha
lodyhy
log
logan
logicke
logicky
logika
logiky
logo
loh
loire
lokal
lokalit
lokalita
lokalitach
lokalite
lokalitou
lokalitu
lokality
lokalne
lokalni
lokalnich
loket
lokomotiv
lokomotiva
lokomotivu
lokomotivy
lokte
lom
lomnice
lomu
lomy
london
londyn
londyna
londyne
londynske
londynskeho
londynskem
lonely
long
loni
look
looking
lopez
lord
lorda
lordem
lordu
lorenz
lorenzo
lorraine
los
lost
lot
lothar
lotrinska
lotrinsky
lotus
lotysska
lotysske
lotyssko
lotyssku
lotyssky
lotystina
lou
louce
louceni
louci
loucky
louis
louisa
louise
louisiana
louka
loukach
louky
loun
lounech
louny
loupeznik
louvre
lov
lovce
lovci
lovcu
love
lovec
lovecke
lovecky
lovers
lovi
lovit
lovosice
lovu
low
lowe
lower
loze
lozi
lozisek
loziska
lozisko
loznice
lp
lq
lr
ls
lsti
lt
ltd
lu
lublan
lublani
lubomir
lubomira
lubor
lubos
luc
luca
lucas
lucemburska
lucemburskeho
lucembursko
lucembursky
lucerna
lucernou
lucia
lucie
lucien
lucii
lucius
lucky
lucni
lucy
ludek
ludmila
ludmily
ludovit
ludvik
ludvika
ludvikem
ludwig
ludwiga
luftwaffe
luh
luigi
luis
luisa
luise
luisy
luk
luka
lukas
lukase
luke
lukes
lumir
lun
luna
lundy
lune
lung
luo
lupa
luther
lutych
lux
luxembourg
luxusni
luzek
luzice
luzici
luzicke
luzickych
luzka
luzko
luzku
luznici
lv
lva
lvem
lvi
lvov
lvove
lvu
lw
lx
ly
lyceum
lydia
lymfocytu
lymfocyty
lynch
lynn
lynx
lyon
lyonu
lyricke
lysa
lyse
lyzar
lyzarska
lyzarske
lyzarsky
lyzich
lyzovani
lz
lze
lzi
m
m0
m1
m2
m3
m4
m5
m6
m7
m8
m9
ma
mac
macbeth
macdonald
macek
mach
macha
machac
machacek
machine
machova
machuv
mackenzie
mackovcin
macmillan
mad
madagaskar
madagaskaru
madame
madari
madarska
madarske
madarskeho
madarskem
madarsko
madarskou
madarsku
madarsky
madarskych
madarskym
madarstina
madaru
made
madeleine
madison
madona
madonna
madony
madrid
madridu
mafie
mafra
mag
magazin
magazine
magazinu
magda
magdalena
magdaleny
maggie
magic
magicke
magie
magii
magisterske
magistersky
magistrala
magistrat
magistratu
magna
magneticke
magnetickeho
magneticky
magnum
magnus
magyar
magyarorszag
mahren
mai
maiden
mail
mailu
main
maine
maison
maj
maja
majak
majaku
maje
majetek
majetkem
majetkove
majetkovych
majetku
majetky
maji
majic
majice
majici
majitel
majitele
majitelem
majiteli
majitelu
major
majora
mak
make
makedonie
makedonii
makedonske
makedonsky
makes
making
mal
mala
malajsie
malajsii
malawi
malba
malbami
malbe
malbou
malbu
malby
malcolm
male
maleb
maleho
malek
malem
malemu
mali
malik
malina
malir
malire
malirem
maliri
malirka
malirske
malirstvi
maliru
malmo
malo
malokdy
malostranske
malou
maloval
malovane
malovani
malovany
malovat
malta
malte
malty
maly
malych
malym
malymi
mam
mama
mame
maminka
maminko
mammals
man
mana
management
managementu
manager
manazer
manazera
manazerem
manchester
manchesteru
mandat
mandatni
mandatu
mandaty
manes
manfred
manga
manhattan
manhattanu
manifest
manipulace
manipulaci
manipulacni
mann
mans
manual
manualni
manuel
manuela
many
manz
manzel
manzela
manzelce
manzele
manzelek
manzelem
manzelka
manzelkou
manzelku
manzelky
manzelovi
manzelske
manzelstvi
manzelu
manzelum
mao
map
mapa
mapach
mape
maple
mapovani
mapovy
maps
mapu
mapy
mar
mara
marais
marathon
maraton
maratonu
marc
marca
marcel
marcela
marcelo
march
marche
marcin
marco
marcos
marcus
mare
marek
mares
margaret
marge
mari
maria
marian
mariana
marianne
marianske
marianskeho
mariansky
marianskych
marie
marii
marilyn
marin
marina
marine
marino
mario
marion
maritime
marius
mark
marka
markem
market
marketa
marketing
marketingu
marketou
markety
marko
markrabe
markrabete
markrabstvi
markus
markyz
markyze
marne
marnice
maroka
maroko
maroku
marriage
mars
marsal
marsala
marsalek
marseille
marshall
marsu
marta
martha
martin
martina
martine
martinec
martinek
martinem
martinez
martinic
martinu
marty
marvel
marx
marxismu
mary
maryland
mas
masa
masakr
masakru
masaryk
masaryka
masarykova
masarykove
masarykovo
masarykovy
masarykuv
masek
masem
masiv
masivni
masivu
maska
masku
maskulina
maskulinum
masky
masla
maslo
maso
mason
masove
mass
massa
massachusetts
master
masters
mat
mata
matce
match
matches
matciny
mate
matej
mateje
matek
matematice
matematicka
matematicke
matematicko
matematicky
matematickych
matematik
matematika
matematiku
matematiky
mater
material
materialem
materialni
materials
materialu
materialy
materska
materske
materskeho
materskou
matersky
materskych
math
mathbb
mathbf
mathcal
mathematical
mathematics
mathias
mathieu
mathrm
mati
matice
matici
matka
matko
matkou
matku
matky
matous
matouse
matousek
matrice
matricni
matrika
matriky
matrix
matt
matteo
matter
matthew
matthias
matti
maturite
maturitni
maturoval
matyas
matyase
matylda
maurice
mav
max
maxe
maxim
maxima
maximalne
maximalni
maximalnim
maximilian
maximum
maxmilian
maxmiliana
maxwell
may
mayer
mazani
mb
mba
mbox
mc
mccarthy
mccartney
mcdonald
mcdonnell
mcgraw
mclaren
mcr
md
me
mec
mece
mecem
mecenas
mech
mechanicka
mechanicke
mechanickou
mechanicky
mechanickych
mechanik
mechanika
mechaniky
mechanismem
mechanismu
mechanismus
mechanismy
mechu
meci
med
medaile
medaili
medailista
medailistu
medailon
medal
medals
medek
medene
medi
media
mediaguru
medialni
medical
medici
medicina
medicinal
medicine
medicinu
mediciny
medieval
medii
mediich
meditace
medium
medu
medved
medveda
medvedev
medvedi
meet
meeting
mega
megadeth
mehmed
meho
mein
meir
meissner
mej
mek
mekce
mekka
mekke
mekky
mekkych
meklenbursko
mel
mela
melanie
melantrich
melbourne
meli
melissa
melke
melnik
melnika
melo
melodie
melodii
mely
mem
member
members
membrane
membrany
memorandum
memorial
memoriam
memory
memu
men
mena
mene
meni
menici
menil
menila
menit
menove
mensi
mensich
mensiho
mensim
mensimi
mensin
mensina
mensiny
mentalni
menu
meny
mer
mercedes
mercury
mereni
meri
merici
meril
merit
meritko
meritku
merkur
merlin
merou
merriam
mes
mesic
mesice
mesicem
mesici
mesicich
mesicne
mesicni
mesicnik
mesicu
mesita
mesity
message
messier
mest
mesta
mestan
mestane
mestanske
mestansky
mestanskych
mestanu
meste
mestec
mestech
mestecka
mestecko
mestecku
mestem
mesto
mestska
mestske
mestskeho
mestskem
mestskou
mestsky
mestskych
mestskym
mestskymi
mestu
mestum
mesty
mestys
mestyse
mestysu
met
meta
metabolismu
metacritic
metainformacnim
metal
metallica
metallum
metalova
metalove
metalu
meteor
meteorologie
method
methods
metod
metoda
metodami
metode
metodej
metodeje
metodika
metodou
metodu
metody
metr
metra
metrech
metro
metropole
metropoli
metropolita
metropolitan
metropolitni
metru
metry
metuji
mexicka
mexicke
mexickeho
mexicky
mexico
mexika
mexiko
mexiku
meyer
mez
mezd
meze
mezera
mezery
mezi
mezich
mezinarodne
mezinarodni
mezinarodnich
mezinarodniho
mezinarodnim
mezinarodnimi
mezirici
mezitim
mezivalecne
mezivalecnem
mezivalecny
mezni
mezopotamie
mf
mff
mfk
mg
mgr
mh
mhc
mhd
mhz
mi
mia
miami
mic
mice
micha
michael
michaela
michaelem
michail
michaila
michajlov
michajlovic
michal
michala
michalek
michalem
michalovce
michał
michel
michele
michelle
michigan
mick
mickey
microsoft
micu
mid
middle
midi
midnight
midway
mig
migrace
migraci
migracni
migrantu
miguel
miji
mika
mike
miklos
mikolas
mikroregion
mikroregionu
mikulas
mikulase
mikulasi
mikulov
mikulove
mil
mila
milada
milady
milan
milana
milane
milanem
milano
mile
mileho
milena
milence
milenci
milenec
milenka
milenkou
milenky
miles
milevska
milevsko
mili
miliard
miliardy
milice
milimetru
milion
milionem
milionu
miliony
military
mill
millennium
miller
million
mills
milo
milos
milose
miloslav
miloslava
milosrdenstvi
milosrdnych
milost
milosti
milostne
milostny
milou
miloval
milovala
milovat
milton
miluje
miluji
milwaukee
mily
mimi
mimo
mimochodem
mimon
mimoradna
mimoradne
mimoradnou
mimoradny
mimoradnych
mimoradnym
mimoto
min
mina
mince
minci
mind
mine
mineni
mineral
mineralni
mineralnich
mineralu
mineraly
minerva
ming
mini
minil
minimalne
minimalni
minimum
minister
ministersky
ministerstva
ministerstvem
ministerstvo
ministerstvu
ministr
ministra
ministrem
ministri
ministru
ministry
ministryne
minneapolis
minnesota
minor
minsk
minsku
minula
minule
minuleho
minulem
minulost
minulosti
minuly
minulych
minus
minut
minuta
minutach
minute
minutu
minuty
mir
mira
mirage
miranda
mire
mirek
mirem
miri
miriam
mirka
mirko
mirne
mirneho
mirnem
mirny
mirnym
miro
miroslav
miroslava
miroslavem
mirou
mirova
mirove
mirovou
mirovych
mirror
miru
miry
mis
misa
miscellaneous
mise
misi
misie
misijni
misionar
misionari
miss
missa
missile
missing
mission
mississippi
missouri
mist
mista
miste
mistech
mistek
mistem
mistku
mistne
mistni
mistnich
mistniho
mistnim
mistnimi
mistnimu
mistnost
mistnostech
mistnosti
misto
mistodrzitelstvi
mistopis
mistopisne
mistopisny
mistopredseda
mistopredsedkyne
mistopredsedou
mistopredsedy
mistr
mistra
mistrem
mistri
mistrovske
mistrovsky
mistrovskych
mistrovstvi
mistrovstvich
mistru
mistry
mistryn
mistryne
mistryni
mistu
mistum
misty
mit
mitchell
miti
mitinku
mitrovic
mitsubishi
mittelalter
miva
mivaji
mival
mix
mixed
mizi
mj
mk
ml
mlada
mladat
mladata
mlade
mladeho
mladem
mlademu
mladenec
mladez
mladeze
mladezi
mladeznicke
mladeznicky
mladeznickych
mladi
mladik
mladika
mladou
mladsi
mladsich
mladsiho
mladsim
mlady
mladych
mladym
mladymi
mlcel
mlceni
mlci
mlcky
mld
mlecne
mleka
mlekem
mleko
mlha
mlhovina
mlhoviny
mlhy
mls
mluv
mluvci
mluvcich
mluvciho
mluvcim
mluve
mluvi
mluvici
mluvicich
mluvil
mluvila
mluvili
mluvilo
mluvime
mluvit
mluviti
mluvnice
mlyn
mlyna
mlynar
mlyne
mlynem
mlynsky
mlynu
mlyny
mlze
mm
mn
mne
mnich
mnicha
mnichov
mnichova
mnichove
mnichovo
mnichovske
mnichu
mnichy
mnisi
mno
mnoha
mnohdy
mnohe
mnohem
mnoho
mnohokrat
mnohy
mnohych
mnohym
mnohymi
mnou
mnozi
mnozin
mnozina
mnozinu
mnoziny
mnozne
mnozneho
mnozstvi
mnozstvim
mnv
mo
mobil
mobile
mobilizace
mobilni
mobilnich
moc
mocenske
moci
mocna
mocnarstvi
mocne
mocneho
mocnost
mocnosti
mocnostmi
mocnou
mocny
mocnych
mocnym
mod
moda
mode
model
modelem
modelka
modelovani
models
modelu
modely
moderator
moderatorka
modern
moderna
moderne
modernejsi
moderni
modernich
moderniho
modernim
modernimi
modernizace
modernizaci
modernizovana
moderny
moderoval
modifikace
modifikaci
modli
modlil
modlitba
modlitbe
modlitbu
modlitby
modliteb
modni
modra
modrany
modre
modreho
modrem
modrou
modry
modrych
modrym
modu
modul
modulu
moduly
mody
moh
mohamed
mohanem
mohelnice
mohl
mohla
mohli
mohlo
mohly
mohou
mohu
mohutna
mohutne
mohutnou
mohutny
mohutnym
moi
moje
moji
mojmir
mojo
mojzis
mokra
mokrady
mokre
mol
moldavska
moldavsko
molecular
molekul
molekula
molekularni
molekuly
moll
molly
moment
momentalne
momentu
mon
mona
monaco
monarchie
monarchii
monde
money
mongolska
mongolske
mongolsko
mongolsku
mongolsky
monica
monika
monitor
monitoring
monkey
monografie
monografii
monopol
monroe
mons
monster
mont
montana
montaz
monte
montgomery
month
monthly
montpellier
montreal
montrealu
monument
monumentalni
moon
moore
mor
mora
moralku
moralky
moralni
morava
moravce
morave
moravec
moravek
moravia
moravou
moravska
moravske
moravskeho
moravskem
moravsko
moravskoslezska
moravskoslezske
moravskoslezskeho
moravskoslezskem
moravskoslezsky
moravskou
moravsky
moravskych
moravskym
moravsti
moravu
moravy
more
morem
moreno
moreplavec
morfologie
morgan
mori
moric
morice
moritz
morning
morris
morrison
morska
morske
morskeho
morskem
morskou
morsky
morskych
mort
moru
mosav
mosavu
moscow
mose
moselle
moser
moskevske
moskevskeho
moskevsky
moskva
moskve
moskvy
moss
mosse
most
moste
mostem
mostu
mosty
mother
motion
motiv
motivace
motivaci
motivem
motivu
motivy
motocykl
motocyklovy
motocyklu
motocykly
motor
motorem
motorova
motorove
motorovy
motorovych
motors
motorsport
motoru
motory
motto
motyl
motyli
motylu
mou
mouchy
moudre
moudrost
moudrosti
moudry
mouky
mount
mountain
mountains
mouse
mov
move
movement
movie
movies
mozaika
mozaiky
mozart
mozarta
mozek
mozilla
mozkove
mozku
mozna
mozne
mozneho
moznemu
mozno
moznost
moznosti
moznou
mozny
moznych
moznym
mp
mpeg
mq
mr
mrak
mrakodrap
mraku
mraky
mramor
mramoru
mravenci
mravni
mravu
mraz
mrazek
mrazu
mrizi
mrna
mrs
mrtev
mrtva
mrtve
mrtveho
mrtvi
mrtvici
mrtvola
mrtvolu
mrtvoly
mrtvy
mrtvych
ms
mse
msfl
msi
msk
msmt
mt
mtv
mu
mucednik
mucedniku
muceni
much
mucha
mudr
muhammad
muj
muk
muka
muller
multi
multimedialni
multiple
mumie
munchen
muni
munice
munici
municipal
munster
mura
murder
murphy
murray
mus
musa
musea
musee
museji
musejni
musel
musela
museli
muselo
musely
museo
muset
museu
museum
musi
music
musica
musical
musicserver
musik
musil
musila
musili
musilo
musim
musime
musique
musis
musite
muslim
muslimove
muslimske
muslimskych
muslimu
muslimy
must
mustafa
mustang
mustek
mustku
mutace
mutaci
muz
muze
muzea
muzeem
muzei
muzejni
muzem
muzeme
muzes
muzete
muzeu
muzeum
muzi
muzickych
muzik
muzika
muzikal
muzikalu
muzikant
muzikolog
muzou
muzove
muzska
muzske
muzskeho
muzskou
muzsky
muzskych
muzstev
muzstva
muzstvem
muzstvo
muzstvu
muzu
muzum
mv
mvcr
mw
mx
my
myanmar
mych
mylne
mym
mys
mysi
mysl
myslel
mysleli
myslence
myslenek
mysleni
myslenka
myslenkach
myslenkami
myslenkou
myslenkove
myslenku
myslenky
myslet
mysli
myslil
myslila
myslim
myslis
myslite
myslitel
mysliti
myslivec
myslivna
myspace
mysql
mystery
mysu
myth
myto
mytologie
mytologii
mytu
mytus
myty
mz
mzda
mzdu
mzdy
mzp
n
n0
n1
n2
n3
n4
n5
n6
n7
n8
n9
na
nabidce
nabidka
nabidkou
nabidku
nabidky
nabidl
nabidla
nabidne
nabidnout
nabizeji
nabizel
nabizela
nabizet
nabizi
naboj
naboje
naboju
nabozenska
nabozenske
nabozenskeho
nabozenskou
nabozensky
nabozenskych
nabozenskym
nabozenskymi
nabozenstvi
nabozenstvim
nabrezi
nabude
nabyl
nabyla
nabytek
nabyti
nabytku
nabyva
nac
nacelnik
nacelnika
nacelnikem
nacez
nach
nachal
nachazeji
nachazejici
nachazejicich
nachazel
nachazela
nachazelo
nachazely
nachazet
nachazi
nachazime
nachod
nachoda
nachode
nachrichten
nacini
nacional
nacionalismu
nacionalismus
nacionalni
nacismu
naciste
nacisticke
nacistickeho
nacisticky
nacistickych
nacistickym
nacistu
nacisty
nad
nada
nadace
nadaci
nadacni
nadal
nadale
nadani
nadany
nadarmo
nadchazejici
nade
nadech
nadeje
nadeji
nadezda
nadherne
nadherny
nadmerne
nadmorska
nadmorske
nadmorskou
nadmorskych
nadnarodni
nadob
nadoba
nadobi
nadobro
nadoby
nador
nadoru
nadporucik
nadra
nadrazi
nadrazim
nadrazni
nadrz
nadrze
nadrzi
nadsene
nadseni
nadsenim
nadseny
nadvlade
nadvladou
nadvladu
nadvlady
nadvori
nadzemni
nagy
naha
nahe
nahlas
nahle
nahled
nahoda
nahodne
nahodou
nahon
nahore
nahorni
nahoru
nahrada
nahradi
nahradil
nahradila
nahradili
nahradilo
nahradily
nahradit
nahradni
nahradnik
nahradou
nahradu
nahrady
nahral
nahrala
nahrali
nahrana
nahrano
nahravaci
nahravani
nahravat
nahravek
nahravka
nahravku
nahravky
nahrazen
nahrazena
nahrazeni
nahrazeno
nahrazeny
nahrazuje
nahrobek
nahrobku
nahrobky
nahrobni
naivni
najal
najde
najdeme
najdete
najdou
najednou
najemce
najemni
najevo
najezdu
najezdy
najit
nakazenych
nakazy
naked
nakl
naklad
nakladani
nakladatel
nakladatelstvi
nakladatelstvim
nakladem
nakladne
nakladni
nakladnich
nakladu
naklady
naklonnost
nakonec
nakratko
nakreslil
nakup
nakupni
nakupu
nalada
naladu
nalady
nalehani
nalet
naletu
nalety
nalevo
nalez
naleza
nalezaji
nalezame
nalezeji
nalezejici
nalezel
nalezela
nalezelo
nalezely
nalezen
nalezena
nalezene
nalezeni
nalezeno
nalezeny
nalezenych
nalezi
nalezici
naleziste
nalezite
nalezl
nalezla
nalezli
nalezne
nalezneme
naleznete
nalezt
nalezti
nalezu
nalezy
nam
namahani
namaloval
name
named
names
namest
namestek
namesti
namestim
namestka
namestkem
namet
nametem
nametu
namety
nami
namibie
namisto
namitky
namluvil
namnoze
namorni
namornich
namornici
namornictva
namornictvo
namornictvu
namorniho
namornik
namorniku
namornim
nan
nancy
nanebevzeti
nanejvys
nantes
naomi
naopak
napad
napada
napaden
napadena
napadeni
napadl
napadla
napadli
napadlo
napadne
napadnout
napadu
napady
napajeci
napajeni
napaji
napeti
napetim
napis
napisem
napisu
napisy
napln
naplnena
naplneni
naplni
naplno
napoj
napoje
napojen
napojena
napojeni
napoju
napojuje
napoleon
napoleona
napoleonskych
napomaha
naposled
naposledy
napotom
napovida
napr
naprava
napravo
napravu
napravy
napred
napric
napriklad
naprosta
naproste
naprosto
naprostou
naproti
napsal
napsala
napsali
napsan
napsana
napsane
napsani
napsano
napsany
napsat
napul
nar
naradi
naramne
naraz
narazi
narazil
narazila
narazu
nareci
narecne
narek
naridil
narizeni
narizenim
narizeno
narocna
narocne
narocnejsi
narocnost
narocnosti
narocny
narod
naroda
narode
narodem
narodi
narodil
narodila
narodili
narodilo
narodily
narodne
narodni
narodnich
narodniho
narodnim
narodnimi
narodnimu
narodnost
narodnosti
narodnostni
narodnostnich
narodopisne
narodove
narodu
narodum
narody
narok
naroku
naroky
narozen
narozena
narozeni
narozenim
narozenin
narozeninam
narozeniny
narozeny
narozenych
narozi
narozni
naruc
naruci
naruseni
narust
narustu
nas
nasa
nasadil
nasazen
nasazena
nasazene
nasazeni
nasazenim
nasazenou
nasazeny
nasbiral
nase
naseho
nasel
nasem
nasemu
nash
nashville
nasi
nasich
nasili
nasilim
nasilne
nasim
nasimi
naskok
naskokem
nasl
nasla
nasledek
nasledkem
nasledku
nasledky
nasledna
nasledne
naslednem
naslednictvi
naslednik
naslednika
naslednikem
naslednou
nasledny
naslednych
naslednym
nasledoval
nasledovala
nasledovali
nasledovalo
nasledovaly
nasledovat
nasledovne
nasleduje
nasleduji
nasledujici
nasledujicich
nasledujiciho
nasledujicim
nasledujicimi
nasli
naslo
nasly
nasobeni
nassau
nastal
nastala
nastalo
nastaly
nastane
nastat
nastava
nastaveni
nastavit
nastenne
nastesti
nastin
nastoleni
nastoupil
nastoupila
nastoupili
nastoupilo
nastoupit
nastrilel
nastroj
nastroje
nastrojem
nastroji
nastroju
nastudovani
nastup
nastupce
nastupcem
nastupci
nastupem
nastupiste
nastupni
nastupnictvi
nastupoval
nastupu
nastupuje
nastupujici
nat
natacel
nataceni
natacet
natalia
natalie
nathan
nation
national
nationale
nationally
nations
native
natlak
natlaku
nato
natocen
natocena
natoceno
natoceny
natocil
natocila
natocili
natocit
natolik
natrvalo
natur
natura
natural
naturalis
nature
nauceni
nauci
naucil
naucila
naucili
naucit
naucna
naucne
naucnem
naucny
nauk
nauka
nauku
nauky
naval
navazal
navazala
navazani
navazat
navaznosti
navazoval
navazovala
navazuje
navazuji
navazujici
navenek
naves
navesti
navestidla
navic
navigacni
navigator
navod
navraceni
navrat
navratem
navratil
navratu
navrh
navrhar
navrhem
navrhl
navrhla
navrhli
navrhne
navrhnout
navrhoval
navrhu
navrhuje
navrhy
navrsi
navrzen
navrzena
navrzene
navrzeno
navrzeny
navsi
navstev
navsteva
navsteve
navstevnici
navstevnik
navstevniku
navstevnikum
navstevniky
navstevnost
navstevnosti
navstevou
navstevoval
navstevovala
navstevovali
navstevovat
navstevu
navstevuje
navstevuji
navstevy
navstiveni
navstiveno
navstivi
navstivil
navstivila
navstivili
navstivilo
navstivit
navy
navypedia
navyrecognition
navyseni
navzajem
navzdory
navzdy
nazev
nazi
nazionale
nazivu
nazky
naznacuje
naznacuji
nazor
nazoru
nazory
nazpet
nazpival
nazpivala
nazval
nazvali
nazvan
nazvana
nazvane
nazvanou
nazvany
nazvech
nazvem
nazvoslovi
nazvu
nazvy
nazyva
nazyvaji
nazyval
nazyvala
nazyvali
nazyvame
nazyvan
nazyvana
nazyvane
nazyvaneho
nazyvani
nazyvano
nazyvany
nazyvat
nb
nba
nbc
nc
ncbi
nd
ndr
ne
neaktualni
neal
neapol
neapole
neapoli
near
nearabske
neb
nebe
nebem
nebes
nebesa
nebeska
nebeske
nebeskeho
nebesky
nebeskych
nebezpecenstvi
nebezpeci
nebezpecim
nebezpecna
nebezpecne
nebezpecnou
nebezpecny
nebezpecnych
nebi
nebo
neboli
nebot
nebraska
nebude
nebudeme
nebudes
nebudou
nebudu
nebyl
nebyla
nebyli
nebylo
nebyly
nebyt
nebyva
nec
necas
neceho
necekane
necele
necely
necelych
necem
necemu
nech
necha
nechaji
nechal
nechala
nechali
nechat
nechava
nechce
nechceme
nechci
necht
nechte
nechteji
nechtel
nechtela
nechteli
nechtelo
nechybi
necim
neckar
neco
ned
neda
nedal
nedala
nedaleke
nedalekeho
nedalekem
nedaleko
nedalekych
nedalo
nedari
nedarilo
nedavne
nedavno
nedbal
nedel
nedela
nedele
nedeli
nedelni
nedilnou
nedlouho
nedochazelo
nedochazi
nedochovaly
nedojde
nedokazal
nedokazala
nedokazali
nedokaze
nedokonave
nedokoncil
nedosahl
nedoslo
nedostal
nedostala
nedostatecna
nedostatecne
nedostatek
nedostatkem
nedostatku
nedostatky
nedostupny
need
neexistovala
neexistuje
neexistuji
neexistujici
neformalni
nefunguje
nefunkcni
negativne
negativni
negativnich
negativnim
neho
nehod
nehoda
nehode
nehodi
nehodu
nehody
nehoz
nehral
neil
neill
nej
nejak
nejaka
nejake
nejakeho
nejakem
nejakemu
nejakou
nejaky
nejakych
nejakym
nejasne
nejasny
nejbeznejsi
nejblize
nejblizsi
nejblizsich
nejblizsiho
nejblizsim
nejbohatsi
nejbohatsich
nejcasteji
nejcastejsi
nejcastejsim
nejcennejsi
nejde
nejdele
nejdelsi
nejdelsim
nejdrazsi
nejdriv
nejdrive
nejdulezitejsi
nejdulezitejsich
nejdulezitejsim
nejedleho
nejedly
nejedna
nejednalo
nejednou
nejen
nejenom
nejhlubsi
nejhorsi
nejiste
nejjasnejsi
nejjednodussi
nejjiznejsi
nejkrasnejsi
nejkrasnejsich
nejkratsi
nejlepe
nejlepsi
nejlepsich
nejlepsiho
nejlepsim
nejlepsimi
nejmene
nejmensi
nejmensich
nejmensim
nejmladsi
nejmladsim
nejmocnejsi
nejnizsi
nejnizsim
nejnovejsi
nejnovejsich
nejoblibenejsi
nejpocetnejsi
nejpopularnejsi
nejpouzivanejsi
nejpozdeji
nejprve
nejradeji
nejrozsahlejsi
nejrozsirenejsi
nejrozsirenejsim
nejruznejsi
nejruznejsich
nejrychleji
nejrychlejsi
nejsem
nejsevernejsi
nejsi
nejsilnejsi
nejslavnejsi
nejslavnejsich
nejslavnejsim
nejsme
nejsou
nejspis
nejspise
nejstarsi
nejstarsich
nejstarsiho
nejstarsim
nejste
nejsvetejsi
nejsvetejsiho
nejtezsi
nejuspesnejsi
nejuspesnejsich
nejuspesnejsim
nejvetsi
nejvetsich
nejvetsiho
nejvetsim
nejvetsimi
nejvhodnejsi
nejvic
nejvice
nejvlivnejsich
nejvyraznejsi
nejvyse
nejvyssi
nejvyssich
nejvyssiho
nejvyssim
nejvyssimu
nejvyznamnejsi
nejvyznamnejsich
nejvyznamnejsim
nejvyznamnejsimi
nejz
nejznamejsi
nejznamejsich
nejznamejsim
nekam
nekde
nekdejsi
nekdejsiho
nekdejsim
nekdo
nekdy
nekoho
nekolik
nekolika
nekolikrat
nekolikrate
nekomu
nekonecna
nekonecne
nekonecny
nekrolog
nektar
nektera
nektere
nektereho
nekterem
nekteri
nekterou
nektery
nekterych
nekterym
nekterymi
nekym
nelegalni
nelibi
nelibilo
nelisi
nellie
nelson
nelze
nem
nema
nemaji
nemale
nemalo
nemam
nemame
nemas
nemate
nemazte
nemce
nemci
nemcina
nemcine
nemcinu
nemciny
nemcova
nemcove
nemcu
nemcum
nemec
nemecek
nemecka
nemecke
nemeckeho
nemeckem
nemeckemu
nemecko
nemeckou
nemecku
nemecky
nemeckych
nemeckym
nemeckymi
nemecti
nemel
nemela
nemeli
nemelo
nemely
nemene
nemeni
nemluvi
nemoc
nemoci
nemocna
nemocne
nemocneho
nemocni
nemocnic
nemocnice
nemocnici
nemocnicich
nemocnicni
nemocny
nemocnych
nemoha
nemohl
nemohla
nemohli
nemohlo
nemohly
nemohou
nemohu
nemovita
nemovite
nemovitosti
nemovitych
nemozne
nemu
nemusel
nemusi
nemuz
nemuze
nemuzeme
nemy
nemz
nenachazeji
nenachazi
nenapadne
nenasel
nenasla
nenastoupil
nenavidi
nenavist
nenavisti
neni
neo
neobsahuje
neobvykle
neobvykly
neobycejne
neobycejnou
neodpovida
neoficialne
neoficialni
neolitu
neomezene
neopravnene
nepal
nepalu
nepatri
nepatrne
nepatrny
neplati
neplatne
neplatny
nepochybne
nepocitatelne
nepodari
nepodarilo
nepokoje
nepokoju
nepomuckeho
nepomuk
neposkvrneneho
neposledni
nepostoupil
nepotrebuje
nepouzitych
nepouziva
nepratel
nepratele
neprateli
nepratelske
nepratelskeho
nepratelsky
nepratelskych
nepratelstvi
nepratelum
nepravem
nepravidelne
neprechylene
nepresne
nepresnosti
nepretrzite
neprijal
neprijemne
neprilis
neprime
neprimo
neprisel
nepristupny
nepritel
nepritele
nepritelem
nepriteli
nepritomnosti
nepriznive
neprodlene
neprosadil
nerad
nerekl
nero
nerovnost
nerovnosti
nerozhodne
nerozumi
neruci
neruda
nervove
nervu
nervy
nes
neschopnost
neschopnosti
nese
neshody
nesl
nesla
nesli
neslo
nesly
neslysel
nesmeji
nesmel
nesmeli
nesmi
nesmime
nesmirne
nesnazi
nesou
nesouci
nesouhlas
nesouhlasi
nesouhlasil
nespokojenost
nespravedlive
nespravne
nest
nestabilni
nestaci
nestacil
nestacila
nestacilo
nestal
nestala
nestalo
nestane
nestastna
nestastne
nestastnou
nestastny
nestejne
nestesti
nestoji
nestor
nestranik
nestupnovatelne
net
neter
neteri
netflix
netherlands
netoliko
netopyr
netradicni
netreba
netrvalo
netvori
network
networks
neu
neue
neues
neumann
neumannova
neumi
neuspech
neuspechu
neuspel
neuspela
neuspesne
neuspesnem
neuspesny
neuspesnych
neustadt
neustale
neutra
neutralne
neutralni
neutrum
neuvadi
neuveritelne
nevada
nevadi
neve
nevede
nevedel
nevedela
nevedeli
nevedi
nevelke
never
neveri
neveril
nevesta
nevestu
nevesty
nevhodne
nevi
nevidel
nevidela
nevideli
nevidi
neviditelny
nevim
nevime
nevinne
nevis
nevite
nevladni
nevlastni
nevoli
nevrati
nevratil
nevyhnutelne
nevyhodou
nevyhody
nevyhovujici
nevyskytuje
nevyskytuji
nevyzaduje
new
newcastle
newman
newport
news
newton
newyorske
newyorskem
next
nez
nezadouci
nezakonne
nezalezi
nezamestnanost
nezamestnanosti
nezasahl
nezavisla
nezavisle
nezavisleho
nezavisli
nezavislost
nezavislosti
nezavislou
nezavisly
nezavislych
nezavislym
nezbylo
nezbytna
nezbytne
nezbytnou
nezbyva
neziskal
neziskala
neziskova
neziskove
nezivotneho
nezivotny
nezli
nezna
neznal
neznam
neznama
nezname
neznameho
neznamena
neznamo
neznamou
neznamy
neznamych
neznamym
nezne
nezridka
nezvykle
nf
nfl
ng
ngc
nguyen
nh
nhl
ni
nic
niccolo
nice
niceho
nicem
nicemu
niceni
nich
nicholas
nicht
nichz
nici
nicim
nick
nicmene
nico
nicola
nicolas
nicole
nie
nielsen
nigel
niger
nigerie
nigerii
night
nigra
nih
nijak
nik
nikam
nikde
nikdo
nikdy
nikita
nikoho
nikola
nikolaj
nikolaje
nikolajevic
nikolaus
nikoli
nikoliv
nikomu
nikterak
nikym
nil
nilsson
nilu
nim
nimi
nimiz
nimz
nina
nine
ning
nino
nintendo
nisou
nit
niti
nitra
nitre
nitru
niva
nivy
niz
nize
nizin
nizina
nizinach
nizine
niziny
nizka
nizke
nizkeho
nizkem
nizko
nizkopodlazni
nizkou
nizky
nizkych
nizkym
nizkymi
nizozemci
nizozemi
nizozemska
nizozemske
nizozemskeho
nizozemskem
nizozemsko
nizozemskou
nizozemsku
nizozemsky
nizozemskych
nizozemstina
nizsi
nizsich
nizsiho
nizsim
nj
nk
nkp
nkvd
nl
nlm
nln
nm
nme
nn
no
noah
nobel
nobelova
nobelovu
nobelovy
noble
noc
noci
nocni
nocnich
nocniho
nocnim
node
noe
noel
noha
nohach
nohama
nohou
nohu
nohy
noir
nokia
nom
nomenclature
nominace
nominaci
nominalni
nominativ
nominoval
nominovan
nominovana
non
nor
nora
norbert
nord
norem
norfolk
norimberk
norimberku
norma
normalizace
normalne
normalni
normalnich
normalniho
norman
normandie
normandii
normy
norska
norske
norskeho
norskem
norsko
norsku
norsky
norskych
norstina
north
northern
northrop
norton
norway
nos
nosek
nosem
noseni
nosi
nosic
nosice
nosicu
nosil
nosila
nosili
nosit
nositel
nositele
nositelem
nositelich
nositelu
nosna
nosne
nosni
nosu
not
notar
note
notes
nothing
notre
nottingham
noty
nou
nous
nouvelle
nouze
nouzi
nouzove
nov
nova
novacek
novak
novaka
novakova
nove
noveho
novejsi
novejsich
novel
novela
novelizovano
novelu
novely
novem
november
novemu
novi
novin
novinach
novinar
novinare
novinari
novinarka
novinaru
novinkou
novinky
noviny
novo
novodobe
novorenesancni
novosti
novotna
novotneho
novotny
novou
novovek
novoveku
novozelandsky
novy
novych
novym
novymi
now
nowy
noze
nozem
np
npr
npu
nq
nr
ns
nsdap
nt
nu
nucen
nucena
nucene
nuceni
nuclear
nula
null
nulove
nulovy
nuly
number
numbers
nur
nuti
nutna
nutne
nutno
nutnost
nutnosti
nutnou
nutny
nuz
nuze
nv
nw
nx
ny
nybrz
nymburk
nynejsi
nynejsiho
nynejsim
nyni
nytimes
nz
o
o0
o1
o2
o3
o4
o5
o6
o7
o8
o9
oa
ob
oba
obal
obalka
obalky
obalkyknih
obalu
obama
obav
obava
obaval
obavam
obavy
obcan
obcana
obcane
obcanem
obcanska
obcanske
obcanskeho
obcanskou
obcansky
obcanskych
obcanskym
obcanstvi
obcanu
obcanum
obcany
obcas
obcasne
obce
obcemi
obcerstveni
obchazi
obchod
obchode
obchodech
obchodem
obchodni
obchodnich
obchodnici
obchodniho
obchodnik
obchodnika
obchodniku
obchodniky
obchodnim
obchodovani
obchodu
obchody
obchvat
obci
obcich
obcim
obcina
obciny
obdelna
obdelnikovy
obdelny
obdiv
obdoba
obdobi
obdobich
obdobim
obdobna
obdobne
obdobny
obdobou
obdrzel
obdrzela
obdrzeli
obdrzelo
obdrzely
obdrzene
obdrzi
obe
obec
obecenstva
obecenstvo
obecna
obecne
obecneho
obecnem
obecni
obecnich
obecniho
obecnim
obecnou
obecny
obecnych
obecnym
obed
obeh
obehu
obejit
obelisk
obema
oberlandrat
oberliga
obet
obetem
obeti
obetmi
obetoval
obezne
obeznou
obhajce
obhajcem
obhajil
obhajila
obhajit
obhajkyni
obhajoval
obiha
obili
obituary
obj
object
objects
objednal
objednala
objednalo
objednana
objednavku
objednavky
objekt
objektech
objektem
objektiv
objektivni
objektivu
objektu
objekty
objem
objemem
objemu
objeti
objev
objeven
objevena
objevene
objeveni
objeveno
objeveny
objevi
objevil
objevila
objevili
objevilo
objevily
objevit
objevitel
objevoval
objevovaly
objevovat
objevu
objevuje
objevuji
objevy
obkliceni
obklopen
obklopena
obklopeny
obklopuje
obklopuji
oblak
oblaku
oblast
oblastech
oblastem
oblasti
oblastmi
oblastni
oblastniho
obleceni
oblehani
oblek
obleku
oblezeni
oblibe
oblibena
oblibene
oblibenou
oblibeny
oblibenych
oblibenym
oblibil
oblibou
oblibu
oblicej
obliceje
obliceji
obloha
oblohou
oblohu
oblohy
oblouk
obloukem
oblouku
oblouky
obloze
obnova
obnove
obnoven
obnovena
obnovene
obnoveni
obnoveno
obnoveny
obnovil
obnovila
obnovit
obnovu
obnovy
oboji
obojzivelniku
obor
obora
obore
oborech
oborem
oboru
obory
obou
oboupohlavne
oboustranne
obr
obracene
obraceni
obraceny
obraci
obrad
obradni
obradu
obrady
obrana
obrance
obranci
obrancu
obrane
obranna
obranne
obrannou
obranny
obrannych
obranu
obrany
obrat
obratem
obrati
obratil
obratila
obratili
obratit
obratlovcu
obratne
obratu
obraz
obraze
obrazech
obrazek
obrazem
obrazku
obrazky
obrazova
obrazovce
obrazove
obrazovky
obrazovych
obrazu
obrazy
obri
obrim
obrnene
obrnenych
obrovska
obrovske
obrovskeho
obrovskou
obrovsky
obrovskych
obrovskym
obrozeni
obsadil
obsadila
obsadili
obsadilo
obsadily
obsadit
obsah
obsahem
obsahoval
obsahovala
obsahovalo
obsahovaly
obsahovat
obsahove
obsahu
obsahuje
obsahuji
obsahujici
obsahujicich
obsazen
obsazena
obsazene
obsazeni
obsazeno
obsazeny
obsazenych
observator
observatore
observatori
observatory
observer
obsluha
obsluhu
obsluhuje
obsluhy
obstina
obtize
obtizi
obtizne
obtiznost
obtiznosti
obuv
obuvi
obvinen
obvineni
obvinil
obvinila
obvod
obvode
obvodech
obvodem
obvodni
obvodove
obvodu
obvody
obvykla
obvykle
obvykly
obvyklych
obvyklym
obycej
obyceje
obycejne
obycejneho
obycejny
obycejnych
obydlenych
obydli
obytna
obytne
obytny
obytnych
obyv
obyva
obyvaji
obyvajici
obyval
obyvali
obyvatel
obyvatele
obyvateli
obyvatelstva
obyvatelstvem
obyvatelstvo
obyvatelstvu
obyvatelu
obyvatelum
obzaloby
obzalovany
obzivy
obzor
obzoru
obzvlast
obzvlaste
oc
ocas
ocasem
ocasni
ocasu
ocean
oceanem
oceanie
oceanu
ocekava
ocekaval
ocekavali
ocekavalo
ocekavani
ocekavat
ocel
ocelari
oceli
ocelova
ocelove
ocelovy
ocelovych
ocenen
ocenena
oceneni
ocenil
och
ochoten
ochotne
ochotni
ochoz
ochrana
ochrance
ochrane
ochranit
ochranna
ochranne
ochranneho
ochrannou
ochranny
ochrannych
ochranou
ochranu
ochrany
oci
ocich
ocima
ocitl
ocitla
ocka
ocko
ockovani
oclc
ocni
oct
october
od
oda
odbocka
odbocky
odbocuje
odboj
odbojar
odboje
odboji
odbojove
odbor
odborna
odborne
odborneho
odbornem
odbornici
odbornik
odborniku
odborniky
odbornou
odborny
odbornych
odbornym
odborove
odboru
odbory
odbyl
odcestoval
odchazel
odchazi
odchod
odchodem
odchodu
odchovancem
odchylky
odchytal
odd
oddal
oddanost
oddelen
oddelena
oddelene
oddeleni
oddelenim
oddeleny
oddelenych
oddelil
oddelila
oddelit
oddeluje
oddelujici
oddenku
oddenky
oddil
oddilem
oddilu
oddily
ode
odebral
odehral
odehrala
odehrali
odehralo
odehraly
odehrane
odehranych
odehrat
odehrava
odehravaji
odehravajici
odehraval
odejde
odejit
odeon
oder
odesel
odesla
odeslan
odesli
odev
odevu
odevy
odevzdal
odhad
odhadem
odhadnout
odhadovana
odhadu
odhaduje
odhady
odhalen
odhalena
odhaleni
odhali
odhalil
odhalila
odhalit
odhaluje
odhodlani
odjel
odjela
odjeli
odjet
odjezdu
odjizdi
odkaz
odkazal
odkazem
odkazu
odkazuje
odkazuji
odkazujici
odkazy
odkladu
odkoupil
odkoupila
odkud
odkudz
odliseni
odlisit
odlisna
odlisne
odlisnosti
odlisnou
odlisny
odlisnych
odlisnym
odlisuje
odlisuji
odlouceni
odm
odmena
odmenu
odmeny
odmita
odmitaji
odmital
odmitala
odmitali
odmitl
odmitla
odmitli
odmitlo
odmitne
odmitnout
odmitnuti
odnesl
odneti
odolna
odolne
odolnost
odolnosti
odpad
odpadni
odpadnich
odpadu
odpocinek
odpocinku
odpoledne
odpoledni
odpor
odporem
odporu
odpoved
odpovedel
odpovedela
odpovedet
odpovedi
odpovednost
odpovednosti
odpovedny
odpovi
odpovida
odpovidaji
odpovidajici
odpovidal
odpovidala
odpovidalo
odpovidat
odpurce
odpurci
odpurcu
odpust
odpusteni
odra
odrazel
odrazi
odrou
odrud
odruda
odrudy
odry
ods
odskodneni
odsoudil
odsouzen
odsouzena
odsouzeni
odsouzeny
odst
odstartoval
odstartovala
odstavce
odstavci
odstavec
odstehoval
odstehovala
odstinu
odstiny
odstoupeni
odstoupil
odstoupila
odstoupit
odstranen
odstranena
odstraneni
odstraneny
odstrani
odstranil
odstranit
odstranovani
odstupem
odsud
odsunu
odtamtud
odteka
odtok
odtrzeni
odtud
oduvodnenim
odvadi
odvahu
odvahy
odveden
odvedl
odvete
odvetil
odvetvi
odvetvich
odvezen
odvezl
odvezla
odviji
odvodit
odvolaci
odvolal
odvolan
odvolani
odvolat
odvozen
odvozena
odvozene
odvozeno
odvozeny
odvozuje
odvratil
odysseus
odznak
odznaku
odznaky
oe
oecd
of
ofenziva
ofenzivu
ofenzivy
off
offenbach
office
official
oficial
oficialne
oficialni
oficialnich
oficialniho
oficialnim
ofm
og
oh
ohen
ohio
ohlas
ohlasil
ohlasy
ohledech
ohledem
ohledne
ohledu
ohne
ohnem
ohni
ohnive
ohnivy
ohradni
ohranicena
ohre
ohri
ohromne
ohromny
ohrozen
ohrozena
ohrozene
ohrozeni
ohrozeny
ohrozenych
ohrozit
ohrozuje
oi
oil
oise
oj
ojedinele
ok
oka
okamzeni
okamzik
okamziku
okamziky
okamzite
okd
okem
oken
okenka
okenko
okenni
oklahoma
okna
okne
oknech
oknem
okno
oknu
okny
oko
okoli
okolim
okolni
okolnich
okolniho
okolnim
okolnimi
okolnost
okolnosti
okolo
okr
okraj
okraje
okrajem
okraji
okrajich
okrajove
okrajovych
okrasna
okrasne
okrasnych
okres
okrese
okresech
okresem
okresni
okresnich
okresniho
okresnim
okresu
okresy
okrouhle
okrsek
okrsku
okruh
okruhu
okruhy
okruzni
oku
okupace
okupaci
okupacni
okveti
ol
olaf
old
oldfield
oldrich
oldricha
ole
oleg
olej
oleje
olejem
olesnice
olga
olgy
oliva
oliver
olivia
olivier
olivove
olomouc
olomouce
olomouci
olomoucka
olomoucke
olomouckeho
olomouckem
olomoucky
olomouckym
olova
olovo
olsanskych
olse
olsen
olsi
oltar
oltare
oltarem
oltari
oltarni
oltaru
olympedia
olympia
olympiada
olympiade
olympiady
olympic
olympics
olympijska
olympijske
olympijskeho
olympijskem
olympijskou
olympijsky
olympijskych
olympijskym
olympique
om
omacka
oman
omar
omega
omezen
omezena
omezene
omezeni
omezenim
omezeno
omezenou
omezeny
omezenym
omezil
omezit
omezovani
omezuje
omluvil
omyl
omylem
omylu
on
ona
onb
once
ondra
ondrej
ondreje
ondrejicka
one
onech
onemocnel
onemocneni
onemocnenim
onen
oni
online
only
ono
onoho
onom
ont
ontario
onu
onv
ony
oo
op
opacne
opacnem
opacny
opacnym
opadave
opadavy
opak
opakem
opakoval
opakovane
opakovani
opakovat
opakuje
opakuji
opat
opata
opatem
opatren
opatrena
opatreni
opatrenim
opatreny
opatril
opatrne
opatrnosti
opatrny
opatstvi
opava
opave
opavske
opavsky
opavy
opci
opcine
opciny
opel
open
oper
opera
operace
operaci
operacich
operacni
operacnich
operacniho
operacnim
operation
operations
operator
operatorname
operatoru
opere
opereni
opereta
operety
operni
opernich
operniho
operou
operu
opery
opet
opetne
opetovne
opevnene
opevneni
opic
opice
opici
opily
opinion
opira
opis
oplatku
opodal
oporou
oporu
opousteji
opousti
opozice
opozici
opozicni
oprav
oprava
opravach
opravdove
opravdu
oprave
opraven
opravena
opraveny
opravit
opravite
opravnen
opravnene
opravneni
opravnenych
opravu
opravy
oproti
opticke
opticky
optickych
optimalizace
optimalni
opus
opusten
opustena
opustene
opusteni
opusteny
opustenych
opusti
opustil
opustila
opustili
opustilo
opustit
opyleni
opylovany
oq
or
oral
orange
oranzova
oranzove
oratorium
orbis
orbitalni
orchestr
orchestra
orchestralni
orchestrem
orchestru
orden
ordens
order
orders
ordinace
ordinaci
ordo
ordre
orechy
oregon
orel
org
organ
organech
organem
organic
organicka
organicke
organickych
organisace
organisaci
organisation
organismu
organismus
organismy
organizace
organizacemi
organizaci
organizacich
organizacne
organizacni
organization
organizator
organizatorem
organizatori
organizoval
organizovana
organizovane
organizovani
organizovany
organizovat
organizuje
organu
organum
organy
orient
orientace
orientaci
orientacni
orientacnim
orientalni
orientovana
orientovane
orientovany
orientovanych
orig
origin
original
originale
originalni
originalnim
originalu
origins
orion
orla
orlando
orleans
orli
orlice
orlici
orlicke
orlickych
orlik
orlova
orlove
orne
oro
orp
ortodoxni
ortsbuch
os
osa
osad
osada
osade
osadka
osadnici
osadniku
osadniky
osadou
osadu
osady
osaka
osamele
osamely
osamostatneni
osamostatnila
osazen
osazena
osazeny
oscar
oscara
ose
osek
osel
osetreni
osidlena
osidlene
osidleni
osidleno
osidlovani
oskar
oskara
osla
oslabeni
oslav
oslava
oslave
oslavil
oslavou
oslavu
oslavy
oslo
osloveni
oslovil
oslu
osm
osma
osman
osmanska
osmanske
osmanskeho
osmanskou
osmdesat
osmdesatych
osme
osmem
osmi
osmifinale
osmnact
osmnacteho
osmnacti
osmy
osn
osob
osoba
osobam
osobami
osobe
osobitne
osobne
osobni
osobnich
osobniho
osobnim
osobnost
osobnostem
osobnosti
osobnostmi
osobou
osobu
osoby
osou
ost
ostatku
ostatky
ostatne
ostatni
ostatnich
ostatnim
ostatnimi
osteni
ostepem
osterreich
osterreichische
osterreichischen
osterreichisches
ostra
ostrava
ostrave
ostravska
ostravske
ostravsko
ostravy
ostre
ostrelovani
ostri
ostrice
ostrohu
ostrou
ostrov
ostrova
ostrove
ostrovech
ostrovem
ostrovni
ostrovu
ostrovy
ostruvek
ostruvku
ostruvky
ostry
ostrym
osu
osud
osudem
osudove
osudu
osudy
osvedceni
osvedcil
osveta
osvetimi
osvetleni
osvety
osviceni
osvicenstvi
osvobodil
osvobodit
osvobozen
osvobozene
osvobozeni
oswald
osy
ot
ota
otacek
otaceni
otaci
otakar
otakara
otazal
otazce
otazek
otazka
otazkach
otazkam
otazkami
otazkou
otazku
otazky
otce
otcem
otci
otcova
otcove
otcovy
otcu
otcuv
otec
oteplovani
otevira
otevre
otevrel
otevrela
otevreli
otevrelo
otevrely
otevren
otevrena
otevrene
otevreneho
otevrenem
otevreni
otevrenim
otevreno
otevrenou
otevreny
otevrenych
otevrenym
otevrit
other
otisk
otisky
oto
otocil
otokar
otrava
otravy
otroci
otroctvi
otrokovice
otroku
otroky
ottawa
otto
ottova
ottove
ottovo
ottuv
otvira
otvor
otvorem
otvoru
otvory
oty
ou
ouest
our
out
ov
ova
ovalne
ovce
ovci
ovdovela
ove
over
overeni
overit
overovani
overview
ovi
ovlada
ovladaci
ovladal
ovladali
ovladana
ovladane
ovladani
ovladat
ovladl
ovladla
ovladli
ovladnout
ovladnuti
ovlivnen
ovlivnena
ovlivneni
ovlivneno
ovlivneny
ovlivnil
ovlivnila
ovlivnilo
ovlivnily
ovlivnit
ovlivnovat
ovlivnuje
ovlivnuji
ovoce
ovocem
ovocne
ovocny
ovocnych
ovsem
ovzdusi
ow
owen
own
ox
oxford
oxfordu
oxid
oxidace
oxidaci
oxidacni
oxidu
oy
oz
ozbrojene
ozbrojeny
ozbrojenych
ozdobne
ozdoby
ozdrojovan
ozdrojovana
ozenil
ozenit
oziveni
oznacen
oznacena
oznacene
oznaceni
oznacenim
oznaceno
oznaceny
oznacil
oznacila
oznacili
oznacit
oznacoval
oznacovan
oznacovana
oznacovane
oznacovani
oznacovano
oznacovany
oznacovat
oznacuje
oznacujeme
oznacuji
oznacujici
oznamen
oznamena
oznameni
oznameno
oznami
oznamil
oznamila
oznamili
oznamilo
oznamovaciho
oznamuje
ozval
ozyva
p
p0
p1
p2
p3
p4
p5
p6
p7
p8
p9
pa
pablo
pace
pachatel
pachatele
pacient
pacienta
pacienti
pacientu
pacienty
pacific
pacifiku
pacina
pack
pacner
pad
pada
padaji
padem
padesat
padesati
padesatych
padl
padla
padli
padlo
padly
padlych
padlym
padne
padu
paduanskeho
page
pages
pahorek
pahorkatina
pahorkatine
pahorkatiny
pahorku
pain
painting
pak
paka
paketu
pakistan
pakistanu
pakli
pakt
paktu
paky
pal
pala
palac
palace
palacem
palaci
palackeho
palacky
palacu
palais
palazzo
palbou
palbu
palby
palce
palcu
palec
palecek
paleni
paleontolog
paleontology
palermo
palestina
palestine
palestinske
palestinskych
palestiny
pali
palisty
paliv
paliva
palivo
palivove
palm
palma
palmer
palmy
palube
palubni
palubu
paluby
palustris
pam
pamatce
pamatek
pamatka
pamatkami
pamatkou
pamatkova
pamatkove
pamatkoveho
pamatkovou
pamatkovy
pamatkovykatalog
pamatku
pamatky
pamatne
pamatnik
pamatniku
pamatny
pamatnych
pamatuji
pamela
pamet
pameti
pametihodnosti
pametni
pametove
pan
pana
panama
panbuh
pancerovani
pancir
panda
pandemie
pandemii
pane
panek
panel
panelu
panely
panem
panenka
panenske
panev
pani
pankrac
pankraci
panna
panne
pannu
panny
panorama
panoval
panovani
panove
panovi
panovnici
panovnik
panovnika
panovnikem
panovnikovi
panovniku
panovniky
panska
panske
panskeho
pansky
panskych
panstvi
panstvim
panther
panthera
panthers
panton
panu
panuje
panujici
panum
panve
panvi
pany
paolo
papa
paper
papers
papez
papeze
papezem
papezi
papezove
papezska
papezske
papezskeho
papezsky
papezu
papir
papire
papirove
papiru
papiry
papousek
paprsek
paprsku
paprsky
par
para
paradise
paradox
paradoxne
paraguay
paralelne
paralelni
parametr
parametru
parametry
parc
parcich
pardubic
pardubice
pardubicich
pardubicke
pardubickeho
pardubickem
pardubicky
parem
pareni
paribas
paris
pariz
parize
parizi
parizska
parizske
parizskeho
parizskem
parizsky
parizskych
park
parkem
parker
parkoviste
parks
parku
parky
parlament
parlamentem
parlamentni
parlamentnich
parlamentniho
parlamentu
parliament
parma
parni
parnich
parnik
parniku
parodie
parodii
parsons
part
parta
partial
partie
partii
partiich
partitury
partner
partnera
partnerem
partneri
partnerkou
partners
partnerstvi
partneru
partnery
party
partyzanske
partyzanu
paru
pary
pas
pasa
pasaz
pasaze
pasazeru
pasazi
pascal
pasek
paseka
paseky
pasem
pasivni
paska
pasku
pasky
pasma
pasmo
pasmu
pass
past
pasti
pastor
pastviny
pastyr
pastyre
pasu
pasy
pat
pata
pate
pateho
patek
patem
patent
patentu
pater
patera
patere
path
patnact
patnacteho
patnacti
patocka
patou
patra
patrani
patre
patrech
patrem
patri
patriarcha
patriarchatu
patriarchy
patrici
patricia
patrick
patrik
patril
patrila
patrili
patrilo
patrily
patrit
patrna
patrne
patrno
patrny
patro
patrol
patron
patrona
patronem
patronu
patrova
paty
patym
paul
paula
paulem
pauline
paulo
paulus
pauly
pausanias
pavel
pavilon
pavilonu
pavla
pavlem
pavlicek
pavlik
pavlikova
pavlina
pavlov
pavlova
pavlovic
pavlovice
pavlu
pavol
pavouci
pavouk
pavouku
pay
payne
pays
paz
paze
pazi
pb
pc
pcheng
pchin
pching
pci
pcr
pd
pdf
pe
peace
peak
peakbagger
pearl
pearson
pec
pece
pecet
peceti
pechota
pechotni
pechoty
peci
pecivo
pecka
pecky
peclive
pedagog
pedagoga
pedagogicka
pedagogicke
pedagogickou
pedagogicky
pedagogickych
pedagogika
pedagogiky
pedagozka
pedro
peer
peerage
pej
pejchar
pejcoch
pekar
peking
pekingu
pekla
pekle
peklo
pekna
pekne
peknou
pekny
pelc
pelhrimov
pelikan
pen
pena
penalty
penez
penezi
penezich
penezni
peneznich
penguin
penguins
peniz
penize
penn
pennsylvania
penny
pensylvanie
pensylvanii
penze
people
per
pera
percy
pere
perez
perfect
performance
peri
period
periodik
periodika
periodikum
periody
perkins
perkuse
perl
perla
perly
pernstejna
pero
perry
persie
persii
perska
perske
perskeho
persky
person
personal
personalni
personalu
perspective
perspectives
perspektivy
peru
perut
perute
peruti
pes
pesek
pesi
pesich
pesiho
pesina
pesky
pest
pesti
pestovan
pestovana
pestovane
pestovani
pestovany
pestovat
pestra
pestre
pestry
pestuje
pestuji
pet
pete
peter
petera
peterem
peters
petersburg
peterson
peti
petice
peticetne
petici
petit
petkrat
petr
petra
petrem
petrohrad
petrohrade
petrohradske
petrohradu
petrov
petrova
petrovi
petrovic
petrovice
petru
petrus
peugeot
pevce
pevci
pevec
pevecke
peveckeho
pevecky
pevkyne
pevna
pevne
pevneho
pevnem
pevnine
pevniny
pevnost
pevnosti
pevnostni
pevnou
pevny
pevnych
pevnym
pf
pg
ph
phantom
phase
phd
phdr
phi
phil
philadelphia
philip
philipp
philippe
phillips
philosophy
phoenix
phone
photo
photographer
photographers
photographic
photographie
photographs
photography
photos
php
phylogenetic
phylogeny
phys
physical
physics
pi
pia
pianista
piano
piazza
pic
picasso
picea
pick
picture
pictures
pid
pie
pierce
pierra
pierre
pieta
pieter
pietni
pietro
pije
pil
pila
pilar
pilastry
pilat
pile
pili
pilir
pilire
piliri
piliru
pilne
pilot
pilota
pilotem
piloti
pilotni
pilotu
piloty
pily
pin
ping
pink
pinus
pinyin
pioneer
piotr
piper
pirati
piratska
piratu
piraty
pisa
pisar
piscite
pise
pisecne
pisek
pisem
pisemna
pisemne
pisemnictvi
pisemnosti
pisemnych
pisen
pisi
pisici
piskem
piskovce
piskovcove
piskovec
pisku
pisky
pism
pisma
pismem
pismen
pismena
pismene
pismenem
pismeno
pismeny
pismo
pismu
pisne
pisnemi
pisni
pisnicek
pisnich
pisnicka
pisnickar
pisnicku
pisnicky
pistole
pistoli
pistu
pit
pitchfork
piti
pitne
pittsburgh
pius
piva
pivni
pivo
pivovar
pivovaru
pivovary
pixelu
piz
pj
pk
pkp
pl
pla
plac
place
placek
placem
placene
placeni
places
plachty
plachy
plakala
plakat
plakatu
plakaty
plamen
plameny
plan
plana
plane
planech
planem
planet
planeta
planetarni
planetary
planete
planetek
planetka
planetky
planetu
planety
plani
planina
planine
planiny
planoval
planovala
planovana
planovane
planovaneho
planovani
planovano
planovanou
planovany
planovanych
plant
plants
planu
planuje
plany
plast
plaste
plastem
plasti
plastic
plasticke
plastik
plastika
plastiky
plastove
plastu
plat
plata
platby
platebni
platform
platforma
platforme
platformu
platformy
plati
platil
platila
platilo
platinum
platit
platky
platna
platne
platnem
platni
platno
platnost
platnosti
platny
platnych
platon
platu
platy
plavani
plavba
plavbe
plavbu
plavby
plavebni
plavec
plavecky
plavidel
plavidla
plavidlo
play
player
players
playoff
playstation
plaz
plaza
plaze
plazi
plazu
plechu
plemen
plemena
plemene
plemeno
ples
plesa
pleso
plesu
pleti
plic
plice
plicni
pliskova
plk
pln
plna
plne
plneho
plnem
plneni
plni
plnil
plnila
plnit
plno
plnou
plny
plnych
plnym
ploch
plocha
plochach
plochami
ploche
plochou
plochu
plochy
plod
plodem
plodi
plodin
plodiny
plodnice
plodnosti
plodolistu
plodu
plody
plos
plose
plosina
plosine
plosinu
plosiny
plosne
plot
plotu
ploty
ploutve
plovouci
pluk
plukovnik
plukovnika
pluku
pluky
plural
pluralu
plus
pluto
plyn
plyne
plynem
plynne
plynouci
plynove
plynu
plynule
plyny
plzen
plzenska
plzenske
plzenskeho
plzenskem
plzensky
plzne
plzni
pm
pmatrix
pmc
pmcid
pmez
pmid
pn
pnas
pneumatiky
png
po
pobalti
pobliz
pobocek
pobocka
pobocku
pobocky
pobrezi
pobrezni
pobreznich
pobyt
pobytu
pobyty
pobyval
pobyvala
poc
pocal
pocala
pocali
pocalo
pocaly
pocasi
pocatcich
pocatecni
pocatecnich
pocatecnim
pocatek
pocatkem
pocatku
pocatky
pocest
pocet
poceti
pocetna
pocetne
pocetni
pochazeji
pochazejici
pochazejicich
pochazel
pochazela
pochazeli
pochazely
pochazi
poche
pochod
pochoden
pochodu
pochody
pochopeni
pochopi
pochopil
pochopit
pochopitelne
pochovan
pochovana
pochvy
pochybnost
pochybnosti
pochyby
pocin
pocina
pocinaje
pocinani
pocit
pocita
pocitac
pocitace
pocitacem
pocitaci
pocitacich
pocitacova
pocitacove
pocitacoveho
pocitacovy
pocitacovych
pocitacu
pocitaji
pocital
pocitalo
pocitani
pocitat
pocitu
pocity
pockat
pockej
pocket
pocta
pocte
poctem
poctive
poctu
poctvrte
pocty
pod
poda
podal
podala
podali
podana
podani
podari
podaril
podarilo
podat
podati
podava
podavaji
podaval
podavani
podavat
podbarveni
podcast
podceled
podceledi
podcelek
podcelku
poddane
poddani
poddanstvi
poddanych
poddanym
poddruh
poddruhu
poddruhy
pode
podebrad
podebradech
podebrady
podekoval
podekovani
podel
podelne
podepsal
podepsala
podepsali
podepsalo
podepsan
podepsana
podepsani
podepsat
podezrele
podezrely
podezreni
podhradi
podhuri
podil
podileji
podilel
podilela
podileli
podilelo
podilely
podilem
podilet
podili
podilu
podily
podiu
podium
podival
podivat
podivejte
podivna
podivne
podivny
podjestedi
podkarpatske
podklad
podklade
podkladem
podkladu
podklady
podkrkonosi
podlaha
podlahu
podlahy
podlaze
podlazi
podle
podleha
podlehaji
podlehl
podlehla
podlehli
podlesi
podlouhle
podlozi
podminek
podminene
podminka
podminkach
podminkam
podminkami
podminkou
podminku
podminky
podnebi
podnes
podnet
podnetem
podnetu
podnety
podnicich
podnik
podnikal
podnikani
podnikat
podnikatel
podnikatele
podnikatelem
podnikatelske
podnikatelu
podnikem
podnikl
podniku
podniky
podoba
podobaji
podobe
podobenstvi
podobizna
podobna
podobne
podobneho
podobnem
podobnost
podobnosti
podobnou
podobny
podobnych
podobnym
podobnymi
podobou
podobu
podoby
podoli
podpis
podpisem
podpisu
podplukovnik
podplukovnika
podpora
podpore
podporil
podporila
podporili
podporit
podporou
podporoval
podporovala
podporovali
podporovan
podporovana
podporovane
podporovany
podporovat
podporu
podporuje
podporuji
podporujici
podpory
podpurne
podrizena
podrizene
podrizeni
podrizeny
podrobil
podrobna
podrobne
podrobneho
podrobneji
podrobnejsi
podrobnosti
podrobny
podruhe
podrzel
podstata
podstate
podstatna
podstatne
podstatneho
podstatnou
podstatnych
podstatou
podstatu
podstaty
podstavce
podstavci
podstavec
podstoupil
podstoupit
podsveti
podtitulem
podvod
podvodu
podvozek
podvozkem
podvozku
podvozky
podzemi
podzemni
podzemnich
podzim
podzimni
podzimu
poe
poems
poesie
poesii
poetry
poezie
poezii
pohadek
pohadka
pohadky
pohanejici
pohanel
pohanen
pohanena
pohaneny
pohani
pohanske
pohanskych
pohanstvi
pohar
poharech
poharu
pohary
pohl
pohlavi
pohlavne
pohlavni
pohlavnich
pohlavniho
pohled
pohledavky
pohledem
pohledl
pohlednice
pohledu
pohledy
pohlizel
pohnuti
pohodli
pohodlne
pohon
pohonem
pohonna
pohonne
pohonny
pohonnych
pohonu
pohori
pohorim
pohranici
pohranicni
pohranicnich
pohrben
pohrbena
pohrbeni
pohrbeno
pohrbeny
pohrbivani
pohrbu
pohreb
pohrebiste
pohrebni
pohromade
pohyb
pohybem
pohyblive
pohyblivy
pohyboval
pohybovala
pohybovat
pohybove
pohybu
pohybuje
pohybuji
pohybujici
pohyby
point
points
pojal
pojd
pojdte
pojednani
pojednava
pojednou
pojem
pojeti
pojetim
poji
pojisteni
pojistne
pojistovna
pojistovny
pojme
pojmem
pojmenoval
pojmenovali
pojmenovan
pojmenovana
pojmenovane
pojmenovani
pojmenovano
pojmenovany
pojmu
pojmy
pokani
pokazde
pokedexu
pokemon
poklad
poklada
pokladaji
pokladal
pokladan
pokladny
pokladu
poklady
pokles
poklesl
poklesla
poklesu
pokoj
pokoje
pokoji
pokojne
pokoju
pokoleni
pokorna
pokorny
pokousel
pokousela
pokouseli
pokousi
pokracoval
pokracovala
pokracovali
pokracovalo
pokracovaly
pokracovani
pokracovanim
pokracovat
pokracuje
pokracuji
pokracujici
pokraji
pokrm
pokrmu
pokrmy
pokrocile
pokrok
pokrokove
pokroku
pokrten
pokryt
pokryta
pokryte
pokryti
pokryty
pokryva
pokryvaji
pokud
pokus
pokusech
pokusem
pokuseni
pokusi
pokusil
pokusila
pokusili
pokusit
pokusu
pokusy
pokuta
pokutu
pokuty
pokyn
pokynu
pokyny
pol
pola
polabi
polacek
polaci
polak
polaku
polaky
poland
polar
polarni
polarnich
pole
poledne
poledni
polem
polevka
polevky
poli
polibek
police
policejni
policejnich
policejniho
policejnim
polich
policie
policii
policista
policiste
policistu
policisty
policka
policy
polish
political
politice
politici
politicka
politicke
politickeho
politickem
politickemu
politickou
politicky
politickych
politickym
politickymi
politics
politicti
politik
politika
politikem
politikou
politiku
politiky
politolog
politologie
polivka
polka
poll
polna
polne
polni
polnich
polniho
polnim
polo
polocas
poloh
poloha
polohach
polohou
polohu
polohy
polokoule
polokouli
polomer
polomeru
poloostrov
poloostrova
poloostrove
polovice
polovici
polovicni
polovina
polovine
polovinou
polovinu
poloviny
poloze
polozek
polozen
polozena
polozene
polozeni
polozeny
polozenych
polozi
polozil
polozila
polozili
polozka
polozky
polska
polske
polskeho
polskem
polski
polskie
polsko
polskou
polsku
polsky
polskych
polskym
polsti
polstina
polstine
polstiny
polu
pomaha
pomahaji
pomahal
pomahala
pomahali
pomahat
pomale
pomaleji
pomalejsi
pomalu
pomaly
pomer
pomerech
pomerem
pomerne
pomeru
pomerum
pomery
pomezi
pomnik
pomniku
pomniky
pomnozne
pomoc
pomoci
pomocna
pomocne
pomocnik
pomocniku
pomocny
pomocnych
pomocnym
pomohl
pomohla
pomohli
pomohlo
pomohly
pomozte
pomsta
pomstit
pomstu
pomsty
pomucek
pomucka
pomucky
pomuze
pomyslil
pondeli
pone
ponechal
ponechana
ponechat
ponejprv
ponekud
ponevadz
ponorek
ponorka
ponorky
pont
pop
pope
popel
popela
popelem
popelka
popira
popis
popisem
popisoval
popisovan
popisovanym
popisu
popisuje
popisuji
popisujici
popisy
popl
poplatek
poplatku
poplatky
popolazione
popove
popr
poprad
poprava
poprave
popraven
popraveni
popravit
popravu
popravy
popredi
popripade
poprve
popsal
popsala
popsan
popsana
popsane
popsano
popsany
popsat
poptavka
poptavky
popud
populace
populaci
populacni
popular
popularita
popularite
popularitu
popularity
popularizaci
popularne
popularni
popularnich
popularnim
population
populations
por
porad
porada
poradaji
poradal
poradala
poradana
poradane
poradani
poradany
poradat
poradatele
poradce
poradcem
porade
poradech
poradek
poradem
poradenstvi
poradi
poradil
poradku
poradne
poradni
poradu
porady
poraneni
porazce
porazek
porazen
porazena
porazene
porazeni
porazeny
porazi
porazil
porazila
porazili
porazilo
porazit
porazka
porazkou
porazku
porazky
porcelanu
porici
poridil
poridit
porizen
porizena
porizenem
porizeni
porizeny
porn
porod
porodila
porodni
porodu
porost
porostla
porostle
porostu
porosty
porota
poroty
porovnani
porozumeni
porozumet
porsche
port
porta
portal
portalem
portalu
portaly
porte
porter
portfolio
portland
porto
portrait
portret
portretni
portretu
portrety
portu
portugal
portugalci
portugalska
portugalske
portugalskeho
portugalskem
portugalsko
portugalsku
portugalsky
portugalstina
portuguesas
porty
poruba
poruch
porucha
poruchami
poruchou
poruchu
poruchy
porucik
porucika
porucil
poruseni
porusil
porusovani
poryni
posadce
posadek
posadil
posadka
posadkou
posadku
posadky
poschodi
posel
poselstvi
posila
posilat
posileni
posilil
posilit
posilovani
posily
position
poskodil
poskodit
poskozen
poskozena
poskozene
poskozeni
poskozeno
poskozeny
poskytl
poskytla
poskytne
poskytnout
poskytnuti
poskytoval
poskytovala
poskytovani
poskytovat
poskytovatele
poskytuje
poskytuji
poskytujici
posla
poslal
poslala
poslali
poslan
poslana
poslance
poslancem
poslanci
poslancu
poslanec
poslanecka
poslanecke
poslaneckeho
poslaneckou
poslanecky
poslani
poslanim
poslankyne
poslankyni
poslat
posle
posledne
posledni
poslednich
posledniho
poslednim
poslednimi
poslednimu
poslez
posleze
poslouchal
poslouchat
posloupnost
posloupnosti
poslove
posluchace
posluchaci
posluchacu
poslusne
poslusnost
poslusnosti
posly
posmrtne
posouzeni
pospisil
pospolu
possible
post
posta
postaral
postav
postava
postavami
postave
postaven
postavena
postavene
postaveneho
postaveni
postavenim
postaveno
postavenou
postaveny
postavenych
postavi
postavil
postavila
postavili
postavilo
postavit
postaviti
postavou
postavu
postavy
poste
postel
postele
posteli
postgradualni
postihl
postihla
postizene
postizeni
postizenim
postizeny
postizenych
postoj
postoje
postoji
postoju
postou
postoupil
postoupila
postoupili
postoupilo
postoupily
postoupit
postovni
postovnich
postrada
postranni
postrannich
postu
postup
postupem
postupne
postupnemu
postupny
postupnym
postupoval
postupovala
postupovat
postupu
postupuje
postupuji
postupujici
postupy
posty
posud
posun
posunu
posunul
posunula
posuzovani
posvatna
posvatne
posvatny
pot
potaji
potapeni
potazmo
pote
potencial
potencialne
potencialni
potencialu
potential
poteseni
potize
potizi
potka
potkal
potkala
potkava
potlaceni
potlacit
potlacovani
potoce
potok
potoka
potokem
potoku
potoky
potom
potomci
potomek
potomka
potomkem
potomku
potomkum
potomky
potomstva
potomstvo
potopena
potopeni
potopil
potopila
potrava
potravin
potravinami
potraviny
potravou
potravu
potravy
potreb
potreba
potrebam
potrebami
potrebe
potrebi
potrebna
potrebne
potrebnou
potrebny
potrebnych
potreboval
potrebovali
potrebovat
potrebu
potrebuje
potrebujeme
potrebuji
potreby
potrestan
potrestani
potreti
potrubi
potter
potucek
potud
potvrdil
potvrdila
potvrdili
potvrdilo
potvrdily
potvrdit
potvrzen
potvrzena
potvrzeni
potvrzeno
potvrzuje
potvrzuji
pouceni
pouha
pouhe
pouhou
pouhy
pouhych
pouhym
poukazal
poukazuje
poukazuji
poulicni
pounorovy
pour
poust
pouste
poustevnik
pousti
poustni
pout
pouta
poute
pouti
poutni
poutnici
poutniho
poutnik
poutniku
poutnim
pouzar
pouzdra
pouzdro
pouze
pouzije
pouzil
pouzila
pouzili
pouzit
pouzita
pouzite
pouziteho
pouziti
pouzitim
pouzito
pouzity
pouzitych
pouziva
pouzivaji
pouzivajici
pouzival
pouzivala
pouzivali
pouzivalo
pouzivaly
pouzivan
pouzivana
pouzivane
pouzivani
pouzivano
pouzivanou
pouzivany
pouzivanych
pouzivanym
pouzivat
povaha
povahou
povahu
povahy
povalecne
povalecnem
povalecny
povalecnych
povaze
povazoval
povazovala
povazovali
povazovan
povazovana
povazovani
povazovano
povazovany
povazovat
povazuje
povazuji
povede
povedel
povedlo
povedomi
poveren
poverena
povereni
poveril
povest
povesti
povetri
povetsinou
povez
povi
povida
povidal
povidam
povidani
povidce
povidek
povidka
povidku
povidky
povim
povinen
povinna
povinne
povinni
povinnost
povinnosti
povinnou
povinny
povoden
povodi
povodne
povodni
povolal
povolan
povolani
povolanim
povolen
povolena
povoleni
povoleno
povoleny
povolil
povrch
povrchem
povrchove
povrchovych
povrchu
povstal
povstala
povstalci
povstalcu
povstani
povysen
povysena
povyseni
povysil
povzneseni
powell
power
pozada
pozadal
pozadala
pozadali
pozadat
pozadavek
pozadavkem
pozadavku
pozadavkum
pozadavky
pozadi
pozadoval
pozadovala
pozadovali
pozadovane
pozadovat
pozaduje
pozar
pozarem
pozarni
pozaru
pozary
pozde
pozdeji
pozdejsi
pozdejsich
pozdejsiho
pozdejsim
pozdne
pozdni
pozdnich
pozdniho
pozdnim
pozdrav
pozehnani
pozemcich
pozemek
pozemkove
pozemku
pozemky
pozemni
pozemnich
pozemniho
pozemske
pozic
pozice
pozici
pozicich
poziti
pozitivne
pozitivni
pozn
pozna
poznal
poznala
poznali
poznamek
poznamenal
poznamka
poznamky
poznan
poznani
poznat
poznati
poznatku
poznatky
poznava
poznavaci
poznavani
pozor
pozorne
pozornost
pozornosti
pozorovaci
pozoroval
pozorovan
pozorovana
pozorovani
pozorovany
pozorovat
pozorovatel
pozorovatele
pozoruhodne
pozoruhodny
pozoruje
pozorujeme
pozustalost
pozustalosti
pozustatek
pozustatkem
pozustatku
pozustatky
pozval
pozvan
pozvani
pozve
pozvolna
pp
pq
pr
pra
prace
pracemi
prach
prachatic
prachatice
prachaticich
prachem
prachu
praci
pracich
pracim
pracoval
pracovala
pracovali
pracovalo
pracovat
pracovati
pracovist
pracoviste
pracovisti
pracovne
pracovni
pracovnice
pracovnich
pracovnici
pracovniho
pracovnik
pracovnika
pracovnikem
pracovniku
pracovniky
pracovnim
practice
pracuje
pracuji
pracujici
pracujicich
pradla
pradlo
prag
praga
prager
prague
prah
praha
prahou
prahu
prahy
prakticka
prakticke
praktickeho
praktickou
prakticky
praktickych
praktik
praktiky
pral
prala
prales
pralesa
pramen
pramene
pramenech
pramenem
prameni
pramenici
pramenu
prameny
prani
pranic
pranim
prapor
praporu
prapory
prasat
prasata
prase
prasek
prasniky
prat
pratel
pratele
prateli
pratelske
pratelskem
pratelsky
pratelstvi
pratelum
pratt
prav
prava
pravda
pravde
pravdepodobne
pravdepodobnost
pravdepodobnosti
pravdive
pravdivost
pravdou
pravdu
pravdy
prave
pravech
praveho
pravek
praveke
praveku
pravem
pravi
pravice
pravici
pravicove
pravidel
pravidelna
pravidelne
pravidelneho
pravidelnou
pravidelny
pravidelnych
pravidelnym
pravidla
pravidlem
pravidlo
pravidly
pravil
pravila
pravili
pravim
pravne
pravni
pravnich
pravnicka
pravnicke
pravnickou
pravnickych
pravniho
pravnik
pravnika
pravniku
pravnim
pravnimi
pravo
pravomoc
pravomoci
pravopis
pravopisem
pravopisu
pravoslavi
pravoslavna
pravoslavne
pravoslavny
pravoslavnych
pravostranny
pravou
pravu
pravum
pravy
pravych
pravym
praxe
praxi
prazak
prazane
prazdna
prazdne
prazdneho
prazdnin
prazdninach
prazdniny
prazdny
praze
prazska
prazske
prazskeho
prazskem
prazskemu
prazskou
prazsky
prazskych
prazskym
prazskymi
prazsti
prchal
pre
prebira
prebor
preboru
prec
prece
precetl
prechazeji
prechazi
prechod
prechodem
prechodne
prechodnik
prechodu
prechody
precist
preclik
prectete
pred
preda
predal
predala
predan
predana
predani
predany
predat
predator
predatory
predava
predavani
predbezne
predcasne
predce
predchazejici
predchazela
predchazi
predchozi
predchozich
predchoziho
predchozim
predchudce
predchudcem
predchudci
predchudcu
predci
prede
predehra
predek
predem
predesle
predesleho
predeslych
predevsim
predhradi
predka
predkem
predklada
predkola
predkole
predkolo
predkove
predku
predky
predlitavska
predlohou
predlohy
predlozil
predmesti
predmet
predmetem
predmetu
predmety
predmluva
predmosti
prednasek
prednasel
prednasi
prednaska
prednasky
predne
prednesl
predni
prednich
predniho
prednim
prednimi
prednost
prednosta
prednosti
prednostne
predpis
predpisu
predpisy
predpoklad
predpoklada
predpokladaji
predpokladal
predpokladalo
predpokladaneho
predpokladat
predpokladem
predpokladu
predpoklady
predpony
predposledni
predpovedi
predseda
predsedal
predsedkyne
predsedkyni
predsednictva
predsednictvi
predsednictvo
predsedou
predsedovi
predsedu
predsedy
predsin
predsini
predstav
predstava
predstaven
predstavena
predstaveni
predstavenich
predstavenstva
predstaveny
predstavi
predstavil
predstavila
predstavili
predstavit
predstavitel
predstavitele
predstavitelem
predstaviteli
predstavitelu
predstavitelum
predstavoval
predstavovala
predstavovali
predstavovalo
predstavovaly
predstavovat
predstavu
predstavuje
predstavuji
predstavujici
predstavy
predtim
predu
predvecer
predvedl
predvolebni
prefektura
prefekture
prefektury
preference
preferencnich
preferuje
prehistoric
prehled
prehledne
prehledu
prehlidka
prehlidky
prehrada
prehradni
prehrady
prehral
prehrala
preis
prejde
preje
prejezdu
preji
prejit
prejmenoval
prejmenovala
prejmenovan
prejmenovana
prejmenovani
prejmenovano
prejmenovany
prekazek
prekazkou
prekazku
prekazky
preklad
preklada
prekladal
prekladatel
prekladatele
prekladatelka
prekladem
prekladu
preklady
prekonal
prekonala
prekonani
prekonat
prekonava
prekracuje
prekroceni
prekrocil
prekrocila
prekrocit
prekvapen
prekvapeni
prekvapenim
prekvapive
prel
prelomu
prelozen
prelozena
prelozeno
prelozeny
prelozil
prelozila
prelozili
prelozit
premena
premene
premenen
premenena
premenou
premeny
premier
premiera
premiere
premierem
premierove
premierovou
premierovy
premieru
premiery
premio
premisten
premistena
premisteni
premysl
premysla
premyslel
premyslovcu
prenaset
prenasi
prenechal
prenesen
prenesena
prenesene
preneseni
preneseno
preneseny
prenesl
prenest
prenos
prenosu
prepadeni
prepis
prepisu
prepoctu
prepracovane
preprava
preprave
prepravni
prepravu
prepravy
prerov
prerova
prerove
prerusen
prerusena
preruseni
prerusil
prerusila
prerusit
pres
presahuje
presahujici
presbytar
presbytare
presbytarem
presbytari
presel
present
president
presidenta
presidential
presidlil
presla
presli
preslo
presly
presmerovano
presna
presne
presneji
presnejsi
presnost
presnosti
presnou
presny
presov
presove
press
presse
prestal
prestala
prestali
prestalo
prestaly
prestane
prestat
prestava
prestavba
prestavbe
prestavbou
prestavbu
prestavby
prestavce
prestavel
prestaven
prestavena
prestaveny
prestavet
prestavkami
prestavkou
prestehoval
prestehovala
prestehovali
prestehovani
prestehovat
prestiz
prestizni
presto
prestoupil
prestoze
prestup
prestupni
prestupu
presun
presunout
presunte
presunu
presunul
presunula
presunuli
presunulo
presunut
presunuta
presunuti
presunuty
presvedcen
presvedceni
presvedci
presvedcil
presvedcit
presvedcive
pretty
prevahou
prevahu
prevazna
prevazne
prevazuje
prevazuji
preveden
prevedena
prevedeni
prevedeny
prevedl
prevedte
prevelen
prevence
prevenci
preventivni
prevest
prevezen
prevezeny
prevezme
prevlada
prevladaji
prevod
prevodovka
prevodovkou
prevodovky
prevodu
prevracenych
prevrat
prevratu
prevyseni
prevysuje
prevzal
prevzala
prevzali
prevzalo
prevzaly
prevzat
prevzata
prevzato
prevzaty
prevzeti
prevzit
prezdivany
prezdivka
prezdivkou
prezdivku
prezentace
prezentaci
prezentoval
prezentuje
prezident
prezidenta
prezidentem
prezidentka
prezidentovi
prezidentske
prezidentsky
prezidentskych
prezidentu
prezidia
prezije
prezil
prezila
prezili
prezit
preziti
prezivsi
prezivsich
prf
pri
pribeh
pribehem
pribehu
pribehy
pribezich
pribira
priblizeni
priblizil
priblizila
priblizit
priblizne
priblizuje
pribram
pribrami
pribuzna
pribuzne
pribuzneho
pribuzni
pribuzny
pribuznych
pribuznym
pribuznymi
pribyl
pribyla
pribylo
pribyly
pribyslav
pribytku
pribyva
pricce
price
pricemz
pricesti
prichazeji
prichazejici
prichazel
prichazeli
prichazi
prichod
prichodem
prichodu
prichozi
pricin
pricina
pricine
pricinenim
pricinou
pricinu
priciny
pricka
pricku
pricky
pricne
prida
pridal
pridala
pridali
pridame
pridan
pridana
pridani
pridanim
pridany
pridat
pridava
pridavaji
pridavat
pridavne
pridavneho
pride
pridejte
pridelen
pridelena
prideleni
prideleno
prideleny
pridi
pridomek
priest
prievidza
prihlaseni
prihlasil
prihlasila
prihlasili
prihlasilo
prihlasky
prihlednutim
prihoda
prihodilo
prihody
prijal
prijala
prijali
prijalo
prijat
prijata
prijate
prijati
prijato
prijaty
prijde
prijdou
prijdu
prijede
prijel
prijela
prijeli
prijem
prijemce
prijemne
prijemny
prijeti
prijetim
prijezd
prijezdu
prijima
prijimaci
prijimaji
prijimani
prijimat
prijit
prijiti
prijizdi
prijme
prijmeni
prijmenim
prijmout
prijmu
prijmy
prikaz
prikazal
prikazani
prikazem
prikazu
prikazy
priklad
prikladem
prikladu
priklady
priklonil
prikop
prikopem
prikopu
prikopy
prikre
pril
prileha
prilehajici
prilehle
prilehlych
prilezitost
prilezitostech
prilezitosti
prilezitostne
prilis
prilisne
priliv
prilivu
priloha
prilohy
priloze
prima
primarne
primarni
primarnim
primary
primas
primator
primatora
primatorem
prime
primeho
primel
primem
primera
primerene
primeri
primesi
primestske
primet
primitivni
primluvu
primo
primorske
primou
primus
primy
primych
primym
prinaseji
prinasi
princ
prince
princem
princess
princeton
princezna
princezne
princeznou
princeznu
princezny
princi
princip
principal
principem
principles
principu
principy
prinejmensim
prinese
prinesl
prinesla
prinesli
prineslo
prinesly
prinest
prinos
prinosem
print
prinucen
prinutil
priority
prip
pripad
pripada
pripade
pripadech
pripadem
pripadl
pripadla
pripadlo
pripadly
pripadne
pripadnou
pripadny
pripadu
pripady
pripis
pripisuje
pripojen
pripojena
pripojene
pripojeni
pripojenim
pripojeno
pripojeny
pripoji
pripojil
pripojila
pripojili
pripojit
pripojuje
pripomina
pripominaji
pripominajici
pripominal
pripominan
pripominat
pripomnel
pripona
priponou
pripony
pripousti
priprav
priprava
priprave
pripraven
pripravena
pripravene
pripraveni
pripraveno
pripraveny
pripravi
pripravil
pripravila
pripravili
pripravit
pripravku
pripravky
pripravne
pripravou
pripravoval
pripravovala
pripravovali
pripravovane
pripravovat
pripravu
pripravuje
pripravuji
pripravy
pripsal
pripsala
pripsali
priroda
prirode
prirodni
prirodnich
prirodniho
prirodnim
prirodnimi
prirodou
prirodovedec
prirodovedecka
prirodovedecke
prirodovedna
prirodu
prirody
prirozena
prirozene
prirozeneho
prirozenem
prirozenosti
prirozenou
prirozeny
prirozenych
prirozenym
prirucka
prirucni
prirustek
prisaha
prisahu
prisahy
prisedle
prisel
prisla
prisli
prislibil
prislo
prislovi
prislusenstvi
prislusenstvim
prislusi
prislusna
prislusne
prislusneho
prislusnici
prislusnik
prislusnikem
prislusniku
prislusnikum
prislusniky
prislusnost
prislusnosti
prislusnou
prislusny
prislusnych
prislusnym
prisly
prisna
prisne
prisny
prispel
prispela
prispeli
prispelo
prispely
prispeni
prispet
prispevek
prispevkova
prispevku
prispevky
prispiva
prispivaji
prispival
prispivat
pristal
pristala
pristali
pristani
pristat
pristav
pristavaci
pristavem
pristavena
pristavni
pristavu
pristavy
priste
pristehovalci
pristehovalcu
pristi
pristich
pristiho
pristim
pristoupil
pristoupila
pristroj
pristroje
pristroji
pristroju
pristup
pristupem
pristupna
pristupne
pristupny
pristupu
pristupuje
pristupy
pritahl
priteka
pritel
pritele
pritelem
priteli
pritelkyne
pritelkyni
pritok
pritokem
pritoku
pritoky
pritom
pritomen
pritomna
pritomne
pritomneho
pritomni
pritomnost
pritomnosti
pritomny
pritomnych
privadi
private
privatizace
privatizaci
privatni
privede
privedl
privedla
privedli
privest
privezl
privilegia
privilegii
privilegium
privlastnovaci
privoz
privrzenci
prix
prize
prizemi
prizemni
prizen
prizi
prizna
priznaku
priznaky
priznal
priznala
priznani
priznat
priznava
prizne
prizni
priznivce
priznivci
priznivcu
priznive
priznivy
prizpusobeni
prizpusobit
prizvuk
prkna
pro
probehl
probehla
probehlo
probehly
probehne
probehnout
probiha
probihaji
probihajici
probihal
probihala
probihalo
probihaly
probihat
problem
problematice
problematicke
problematika
problematikou
problematiku
problematiky
problemech
problemem
problems
problemu
problemum
problemy
probojoval
probojovala
probost
probosta
probostem
proboststvi
probouzi
probudi
probudil
probuzeni
proc
proceedings
procent
procenta
procentni
procento
proces
procesech
procesem
procesi
procesni
procesor
procesoru
procesory
process
procesu
procesy
procez
prochazeji
prochazejici
prochazel
prochazela
prochazet
prochazi
prochazka
prochazkova
prochazku
prochazky
procyclingstats
prodal
prodala
prodali
prodalo
prodan
prodana
prodano
prodany
prodanych
prodat
prodava
prodavaji
prodaval
prodavat
prodej
prodejce
prodeje
prodejem
prodeji
prodejna
prodejni
prodejny
prodelal
prodlouzena
prodlouzeni
prodlouzil
prodlouzit
producent
producenta
producentem
producenti
producenty
product
production
productions
products
produkce
produkci
produkcni
produkoval
produkovat
produkt
produktem
produktu
produkty
produkuje
produkuji
prof
profese
profesi
profesionalne
profesionalni
profesionalnich
profesionalniho
profesionalnim
profesne
profesni
profesor
profesora
profesorem
profesori
profesorka
profesoru
professional
professor
professorem
profil
profile
profilu
profily
profous
profutbal
program
programator
programech
programem
programme
programming
programovaci
programovacich
programovani
programove
programu
programy
progresivni
progress
prohlasen
prohlasena
prohlaseni
prohlasenim
prohlaseno
prohlasil
prohlasila
prohlasili
prohlasuje
prohlednout
prohlidce
prohlidka
prohlidky
prohlizec
prohlizece
prohodil
prohra
prohral
prohrala
prohrali
prohre
prohru
prohry
projde
project
projednani
projednavani
projekce
projekci
projekt
projektech
projektem
projektoval
projektu
projekty
projel
projev
projevem
projevi
projevil
projevila
projevilo
projevily
projevit
projevoval
projevovat
projevu
projevuje
projevuji
projevy
projit
prokazal
prokazala
prokazaly
prokazana
prokazano
prokazat
prokazatelne
prokleti
prokop
prokopa
prokurator
promena
promenach
promeni
promenil
promenila
promenna
promenne
promennou
promennych
promeny
prometheus
promitani
promluvil
promo
promoval
pronajmu
pronasledovani
pronesl
pronika
pronikl
pronikla
proniknout
propadl
propadla
propagace
propagaci
propagacni
propaganda
propagandy
propagoval
propast
propasti
properties
propojena
propojeni
propojeny
propojuje
propracoval
propujcil
propusten
propustena
propusteni
propustil
proroctvi
prorok
proroka
proroku
pros
prosadil
prosadila
prosadit
prosazeni
prosazoval
prosazovani
prosazovat
prosazuje
prosby
prosek
prosel
prosi
prosil
prosila
prosim
prosime
prosince
prosinci
prosinec
prosla
proslavil
proslavila
prosli
proslo
proslul
proslula
proslule
prosluly
prosly
prospech
prospechu
prospesne
prosta
proste
prosteho
prostejov
prostejova
prostejove
prostor
prostorach
prostorem
prostorove
prostoru
prostory
prostranstvi
prostred
prostredek
prostredi
prostredim
prostredkem
prostredku
prostredky
prostredni
prostrednictvim
prosty
prostym
protection
protein
proteinu
proteiny
protejsi
proteka
protekajici
protektorat
protektoratni
protektoratu
protest
protestantske
protestantsky
protestantskych
protestni
protestu
protesty
proti
protikladu
protilatek
protilatky
protiletadlove
protina
protinacistickeho
protivnik
protivnika
proto
protocol
protokol
protokolu
protokoly
proton
prototyp
prototypu
prototypy
protoz
protoze
proud
proudem
proudeni
proudi
proudovy
proudu
proudy
prouzky
prov
provadeji
provadel
provadela
provadeli
provadena
provadene
provadeni
provadeny
provadet
provadi
provaz
provazel
provazi
provazku
provdala
provdana
provede
proveden
provedena
provedene
provedeni
provedenim
provedeno
provedeny
provedenych
provedl
provedla
provedli
provence
provest
provesti
province
provincie
provincii
provinciich
provincni
provineni
provizorni
provoz
provozem
provozni
provoznich
provozoval
provozovala
provozovan
provozovana
provozovane
provozovani
provozovany
provozovat
provozovatel
provozovatele
provozovatelem
provozu
provozuje
provozuji
proza
prozaik
prozatim
prozatimni
prozatimniho
proze
prozil
prozila
prozkoumal
prozkoumat
prozradi
prozradil
prozy
prsa
prsi
prsou
prst
prstem
prsten
prstenu
prstu
prsty
prsu
prubeh
prubehem
prubehu
prubezne
pruceli
prucelim
prucha
pruchod
pruchodu
prudce
prudke
prudky
prudkym
pruh
pruhem
pruhonice
pruhu
pruhy
prujezd
prujezdu
prukaz
prukazu
prukopnik
prukopnikem
pruliv
prulivu
prulom
prumer
prumerem
prumerna
prumerne
prumernou
prumerny
prumernym
prumeru
prumysl
prumyslem
prumyslnik
prumyslova
prumyslove
prumysloveho
prumyslovou
prumyslovy
prumyslovych
prumyslovym
prumyslu
prunus
pruplav
pruplavu
prurez
prurezu
pruska
pruske
pruskeho
pruskem
prusko
prusku
prusky
prusmyk
prusmyku
prutok
prutoku
pruvod
pruvodce
pruvodci
pruvodem
pruvodu
pruzkum
pruzkumne
pruzkumny
pruzkumu
pruzkumy
pruzne
prva
prve
prvek
prvem
prvenstvi
prvkem
prvku
prvky
prvne
prvni
prvnich
prvniho
prvnim
prvnimi
prvnimu
prvocisel
prvocisla
prvocislo
prvotni
prvovystup
prvy
pry
pryc
pryskyrice
ps
psa
psal
psala
psali
psan
psana
psane
psani
psanim
psano
psany
psanych
psat
psati
psem
psenice
pseudonym
pseudonymem
pseudonymy
psg
pshowpagedoc
psi
psp
psu
psy
psychiatr
psychiatricke
psychiatrie
psychicke
psychicky
psycholog
psychologicke
psychologicky
psychologie
psychologii
psychology
pt
pta
ptacek
ptaci
ptactva
ptactvo
ptak
ptaka
ptaku
ptaky
ptal
ptala
ptolemaios
pu
pub
pubchem
public
publication
publications
publicista
publicistka
publika
publikace
publikaci
publikacich
publikacni
publikoval
publikovala
publikovan
publikovana
publikovane
publikovani
publikovano
publikovany
publikovanych
publikovat
publiku
publikuje
publikum
published
publishers
publishing
puc
pud
puda
pudach
pude
pudni
pudorys
pudorysem
pudorysu
pudou
pudu
pudy
puerto
pujcky
pujde
pujdu
pul
puli
pulnoci
pulnocni
pulrocni
pum
puma
pumy
punk
pupeny
purkrabi
purkyne
purple
purpurove
pusek
push
puska
pusku
pusky
pusobeni
pusobenim
pusobi
pusobici
pusobicich
pusobil
pusobila
pusobili
pusobilo
pusobily
pusobiste
pusobit
pusobnost
pusobnosti
pust
pusta
puste
pusti
pustil
pustili
pustit
pusty
put
putin
putina
putoval
putovani
puvod
puvodce
puvodcem
puvodem
puvodne
puvodni
puvodnich
puvodniho
puvodnim
puvodnimi
puvodnimu
puvodu
pv
pw
px
py
pycha
pyl
pyramid
pyramida
pyramidy
pyrenees
python
pz
q
q0
q1
q2
q3
q4
q5
q6
q7
q8
q9
qa
qatar
qb
qc
qd
qe
qf
qg
qh
qi
qj
qk
ql
qm
qn
qo
qp
qq
qr
qs
qt
qu
quad
quai
qualifying
quality
quantum
quarterly
quartet
que
quebec
queen
queens
queer
quentin
quercus
query
quest
question
questions
qui
quick
quijote
quinn
quo
qv
qw
qx
qy
qz
r
r0
r1
r2
r3
r4
r5
r6
r7
r8
r9
ra
rabi
rabin
rabina
rac
race
racek
rachel
racil
racing
racionalni
racte
rad
rada
radach
radami
radar
radaru
radce
rade
radech
radeji
radek
radem
radhostem
radi
radia
radikalne
radikalni
radikalu
radil
radila
radili
radim
radio
radioaktivni
radiove
radit
radiu
radka
radku
radky
radne
radneho
radni
radnice
radnici
radnim
radny
radnych
radnym
radomir
radoslav
radost
radosti
radostne
radou
radova
radovan
radove
radovy
radovych
radsi
radu
rady
raf
rafael
ragby
rage
rai
rail
railway
rain
rainbow
rainer
raj
raje
raji
rajon
rajonu
rak
raket
raketa
rakete
raketoplan
raketoplanu
raketove
raketovy
raketovych
rakety
rakev
rakous
rakousich
rakouska
rakouske
rakouskeho
rakouskem
rakousko
rakouskou
rakousku
rakousky
rakouskych
rakouskym
rakousy
rakovina
rakovinou
rakovinu
rakoviny
rakovnik
rakovnika
rakusane
rakve
rakvi
ralf
rally
rallye
ralph
ram
rama
ramat
ramce
ramci
rame
ramec
ramen
ramena
ramene
ramenem
rameni
rameno
rameny
ramon
ramos
ramu
ramy
ran
rana
random
randy
rane
raneho
ranem
ranen
ranenych
range
rangers
rangle
ranking
rankings
ranni
rannich
rano
ranou
ranu
rany
ranych
rap
rapid
rapikate
rapiky
rapper
rare
ras
rasa
raseliniste
rasismu
rasove
rastislav
rasu
rasy
rat
rate
rating
ratings
ratolesti
raul
raven
raw
ray
raymond
raz
raze
razem
razen
razena
razeni
razeny
razi
razne
razu
rb
rc
rca
rceni
rci
rd
re
reach
reaction
reactions
read
reader
reading
ready
reagan
reagoval
reagovala
reagovat
reaguje
reaguji
reakce
reakci
reakcni
reaktivni
reaktor
reaktoru
reaktory
real
realce
realismu
realismus
realisticke
realita
realite
realitu
reality
realizace
realizaci
realizoval
realizovan
realizovana
realizovany
realizovat
realizuje
really
realna
realne
realneho
realnem
realnou
realny
realnych
realu
reb
rebecca
rebel
rec
rece
receno
recent
receny
recenze
recenzi
recept
receptor
receptoru
receptory
reci
recka
recke
reckeho
reckem
recko
reckokatolicke
reckokatolicky
reckou
recku
recky
reckych
reckym
reckymi
recnik
record
recording
recordings
records
rectina
rectiny
red
redakce
redakci
redakcni
redaktor
redaktora
redaktorem
redaktorka
redigoval
reditel
reditele
reditelem
rediteli
reditelka
reditelkou
reditelstvi
redukce
redukci
reed
reedice
ref
referat
reference
referenci
referencni
referenda
referendu
referendum
reflex
reflexe
reforem
reforma
reformace
reformaci
reformator
reforme
reformni
reformou
reformu
reformy
reg
regenerace
regent
regia
regiment
regina
regio
region
regional
regionalni
regionalnich
regionalniho
regionalnim
regionech
regionem
regions
regionu
regiony
register
registr
registrace
registraci
registrovane
registrovanych
registru
registry
regulace
regulaci
regulacni
rehabilitace
rehak
rehole
reholni
reholnice
reholnich
rehor
rehore
reich
reid
reihe
reilly
reiner
reinhard
reinhold
rej
rejstrik
rejstriku
rejzek
rek
reka
rekach
rekami
rekl
rekla
reklama
reklame
reklamni
reklamu
reklamy
rekli
rekne
rekneme
reknete
rekni
reknu
rekonstrukce
rekonstrukci
rekonstruovan
rekonstruovana
rekord
rekordni
rekordnich
rekordu
rekordy
rekou
rekove
rekreaci
rekreacni
rektor
rektora
rektorem
reku
reky
relace
relaci
related
relations
relativity
relativne
relativni
release
releases
relevantni
relief
reliefem
reliefni
reliefu
reliefy
religion
religious
relikvie
remains
remesel
remesla
remeslnici
remeslniku
remeslo
remix
remiza
remize
remizou
remizu
remizy
renaissance
renata
renault
rene
renesance
renesanci
renesancni
renesancnich
renesancniho
renesancnim
reorganizace
reorganizaci
repa
repertoar
repertoaru
replika
report
reportaz
reportaze
reporter
reports
reprezentace
reprezentaci
reprezentacni
reprezentacnich
reprezentacniho
reprezentacnim
reprezentant
reprezentantem
reprezentanti
reprezentantka
reprezentantu
reprezentativni
reprezentoval
reprezentovala
reprezentovalo
reprezentovat
reprezentuje
reprezentuji
reprezentujici
reprint
repriz
reprodukce
reprodukci
repubblica
republic
republice
republik
republika
republikanske
republike
republikou
republiku
republiky
repunitova
repy
requiem
res
research
reseni
resenim
reserve
resi
resil
resistance
resit
resolution
resort
resource
resources
resp
respekt
respektive
respektovat
response
restaurace
restauraci
restaurator
restaurovani
restituci
result
results
ret
retez
retezce
retezci
retezcu
retezec
retezem
retezu
retezy
retrieved
retro
retrospektivni
return
returns
reunion
reuters
rev
reva
revealed
reveals
review
reviews
reviru
revised
revitalizace
revize
revizi
revoluce
revoluci
revolucionar
revolucni
revolucnich
revolucniho
revolucnim
revolution
revolver
revue
revy
rex
rey
reynolds
rez
rezbar
rezervace
rezervaci
rezervni
rezervy
rezidence
rezidenci
rezidencni
rezie
rezignace
rezignaci
rezignoval
rezii
rezim
rezimem
rezimu
rezimy
reziroval
reziser
rezisera
reziserem
reziserka
reziseru
rezistence
rezne
reznik
rezoluce
rezoluci
rezu
rf
rfc
rg
rh
rho
rhone
ri
ria
riaa
rican
ricany
ricardo
rice
rich
richard
richarda
richardem
richards
richardson
richie
richmond
richter
rici
rick
ricka
ricky
ricni
ricnich
ricnim
rict
ridce
ridceji
ride
ridge
ridi
ridic
ridice
ridici
ridicich
ridiciho
ridicim
ridil
ridila
ridit
ridke
rieger
riga
right
rightarrow
rights
rigorozni
riha
rijen
rijna
rijnem
rijnove
rijnu
rika
rikaji
rikal
rikala
rikali
rikalo
rikam
rikame
rikat
riley
rim
rima
rimane
rimanu
rimanum
rimany
rime
rimem
rimsa
rimska
rimske
rimskeho
rimskem
rimsko
rimskokatolicka
rimskokatolicke
rimskokatolickeho
rimskokatolicky
rimskou
rimsky
rimskych
rimskym
rimskymi
rimsou
rimsti
ring
rio
riot
rip
ris
risa
rise
risi
rising
risk
risska
risske
risskeho
risskem
risskou
rissky
risskych
risskym
rita
ritter
ritu
ritual
ritualni
ritualu
ritualy
riu
river
rize
rizen
rizena
rizene
rizeni
rizenim
rizeny
rizenych
rizik
rizika
rizikem
riziko
rizky
rj
rk
rka
rl
rm
rn
rna
rndr
ro
road
rob
robbie
robert
roberta
robertem
roberto
roberts
robertson
robin
robinson
robot
robota
robotu
roboty
robustni
roc
roce
rocenka
rocha
roche
rock
rocket
rockova
rockove
rockovou
rockovy
rockovych
rocku
rocky
rocne
rocni
rocnich
rocnicich
rocniho
rocnik
rocnikem
rocniku
rocniky
rocnim
rod
rodak
rodaka
rode
rodech
rodem
rodi
rodice
rodici
rodicu
rodicum
rodin
rodina
rodinach
rodinam
rodinami
rodine
rodinna
rodinne
rodinneho
rodinnem
rodinnou
rodinny
rodinnych
rodinou
rodinu
rodiny
rodiste
rodisti
rodne
rodneho
rodnem
rodny
rodnych
rodnym
rodokmen
rodove
rodoveho
rodovy
rodovych
rodrigo
rodriguez
rodu
rody
roger
rogera
rogers
roh
rohac
rohan
rohu
rohy
roi
roj
rok
roka
rokem
rokle
rokli
roku
roky
rokycany
rokytnice
rokytnou
roland
role
rolf
roli
rolich
roll
rolling
rolls
rolnici
rolnicke
rolnik
rolniku
rom
roma
romadzi
roman
romana
romance
romanech
romanem
romania
romano
romanopisec
romanska
romanske
romanskeho
romansky
romanticka
romanticke
romanticky
romantismu
romanu
romany
rome
romeo
romove
romske
romu
ron
ronald
ronaldo
ronnie
room
roosevelt
root
ropa
ropid
ropne
ropy
ros
rosa
rose
rosenberg
roses
rosice
ross
rossi
roste
rostislav
rostl
rostla
rostlin
rostlina
rostlinach
rostlinami
rostline
rostlinne
rostlinnych
rostlinou
rostlinu
rostliny
rostly
rostou
rostouci
rostoucich
rostoucim
rosy
rot
rota
rotace
rotaci
rotacni
roth
rotoru
rotten
rotterdam
rotunda
roty
roucha
roucho
roudnice
roudnici
rouge
rouna
round
rousseau
route
routledge
roven
rover
rovina
rovine
rovinou
rovinu
roviny
rovna
rovne
rovneho
rovnez
rovnic
rovnice
rovnici
rovniku
rovnobezne
rovnomerne
rovnost
rovnosti
rovnou
rovnovaha
rovnovahu
rovnovahy
rovny
rovnych
rovnym
row
roy
royal
royale
royce
roz
rozbor
rozboru
rozcesti
rozcestnik
rozchod
rozchodu
rozdelen
rozdelena
rozdelene
rozdeleni
rozdelenim
rozdeleno
rozdeleny
rozdelenych
rozdeli
rozdelil
rozdelila
rozdelili
rozdelit
rozdeluje
rozdeluji
rozdil
rozdilem
rozdilne
rozdilnych
rozdilu
rozdily
rozena
rozene
rozenou
rozesel
rozesli
rozeznat
rozhlas
rozhlase
rozhlasem
rozhlasova
rozhlasove
rozhlasoveho
rozhlasovy
rozhlasovych
rozhlasu
rozhled
rozhledna
rozhledny
rozhledy
rozhodci
rozhodciho
rozhodl
rozhodla
rozhodli
rozhodlo
rozhodly
rozhodne
rozhodnou
rozhodnout
rozhodnuti
rozhodnutim
rozhodnuto
rozhodoval
rozhodovani
rozhodovat
rozhoduje
rozhoduji
rozhodujici
rozhodujicim
rozhovor
rozhovoru
rozhovory
rozhrani
rozich
rozkaz
rozkazovaciho
rozkazu
rozkazy
rozklad
rozklada
rozkladaji
rozkladajici
rozkladala
rozkladu
rozkos
rozkosi
rozkvet
rozkvetu
rozlehle
rozlicne
rozlicnych
rozliseni
rozlisenim
rozlisit
rozlisovat
rozlisuje
rozlisujeme
rozlisuji
rozloha
rozlohou
rozlohu
rozlohy
rozlouceni
rozloucil
rozloze
rozlozeni
rozmach
rozmachu
rozmanite
rozmanitost
rozmanitosti
rozmanitych
rozmberka
rozmer
rozmerech
rozmeru
rozmery
rozmezi
rozmisteni
rozmital
rozmnozovani
rozmnozuje
rozmrza
roznov
rozpad
rozpada
rozpadem
rozpadla
rozpadu
rozpeti
rozpocet
rozpoctem
rozpoctu
rozpor
rozporu
rozpory
rozpousti
rozpoznat
rozpravy
rozprostira
rozpustena
rozpusteni
rozpustil
rozrostla
rozs
rozsah
rozsahem
rozsahla
rozsahle
rozsahleho
rozsahlejsi
rozsahlou
rozsahly
rozsahlych
rozsahlym
rozsahlymi
rozsahu
rozsiren
rozsirena
rozsirene
rozsireni
rozsirenim
rozsireno
rozsirenou
rozsireny
rozsiril
rozsirila
rozsirili
rozsirilo
rozsirily
rozsirit
rozsirovani
rozsirovat
rozsiruje
rozsiruji
rozstrelu
rozsudek
rozsudku
roztok
roztoku
roztoky
roztrousene
rozum
rozumel
rozumem
rozumet
rozumi
rozumne
rozumu
rozvedl
rozvedli
rozvijejici
rozvijel
rozvijela
rozvijeni
rozvijet
rozviji
rozvinul
rozvod
rozvodem
rozvodi
rozvodu
rozvoj
rozvoje
rozvojem
rozvoji
rozvojove
rozvojovych
rp
rpg
rq
rr
rs
rsd
rsssf
rt
rtu
rty
ru
ruben
rubin
rublu
rubriky
rubu
ruby
ruce
ruch
ruchu
rucne
rucni
rucnich
rud
ruda
rude
rudeho
rudem
rudi
rudolf
rudolfa
rudolfem
rudou
rudy
rudych
rue
rugby
ruian
ruiny
ruka
rukach
rukama
rukavice
rukl
rukojmi
rukopis
rukopisu
rukopisy
rukou
ruku
ruky
rule
rules
rum
rumburk
rumunska
rumunske
rumunskeho
rumunskem
rumunsko
rumunsku
rumunsky
rumunstina
run
runner
running
rus
ruseni
rush
rusi
ruska
ruske
ruskeho
ruskem
ruskemu
rusko
ruskou
rusku
rusky
ruskych
ruskym
ruskymi
rusove
russell
russia
russian
rust
rustem
rusti
rustina
rustine
rustiny
rustu
rusu
rusy
ruth
ruze
ruzena
ruzi
ruzice
ruzici
ruzicka
ruzkova
ruzna
ruzne
ruzneho
ruzni
ruznorode
ruznou
ruzny
ruznych
ruznym
ruznymi
ruzomberok
ruzova
ruzove
ruzovy
ruzyne
rv
rw
rx
ry
ryan
ryb
ryba
rybami
rybar
rybari
rybarske
rybarsky
rybarstvi
rybi
rybka
rybnicek
rybnik
rybnika
rybnikem
rybniku
rybniky
rybolov
rybolovu
ryby
rychla
rychle
rychleho
rychleji
rychlejsi
rychlem
rychlemu
rychlik
rychlobruslar
rychlobrusleni
rychlost
rychlosti
rychlostni
rychlou
rychly
rychlych
rychlym
rychnov
rychtar
rychtare
ryn
ryna
rynem
rys
rysem
rysu
rysy
rytec
rytir
rytire
rytirem
rytiri
rytirske
rytirskeho
rytirsky
rytiru
rytmicka
rytmu
rytmus
ryze
ryzi
rz
s
s0
s1
s2
s3
s4
s5
s6
s7
s8
s9
sa
saab
sabbath
sabina
sabine
sablona
sablony
sachista
sachove
sachovy
sachovych
sachsen
sachsische
sachty
sachu
sachy
sad
sada
sade
sadech
sadu
sady
safari
safarik
safarova
safety
saga
sage
sah
saha
sahaji
sahajici
sahl
said
saint
sainte
saints
saison
saj
sakralni
sakristie
sakristii
sal
sala
salat
salcburku
sale
salek
salem
sales
salisbury
sally
salm
salomon
salon
salonu
salt
salu
salvador
salvatore
saly
salzburg
sam
sama
samantha
samce
samci
samcu
same
samec
sameho
samek
samem
samemu
sametove
sami
samic
samice
samici
samicka
samicky
samo
samohlasky
samosprava
samospravne
samospravnych
samospravu
samospravy
samostatna
samostatne
samostatneho
samostatnost
samostatnosti
samostatnou
samostatny
samostatnych
samostatnym
samota
samote
samotna
samotne
samotneho
samotnem
samotnemu
samotnou
samotny
samotnych
samotnym
samoty
samou
samovolne
samozrejme
sampion
sampionat
sampionatech
sampionatu
sampionem
samson
samsung
samu
samuel
samuela
samy
samych
samym
san
sance
sanchez
sancho
sanci
sanda
sander
sanders
sandor
sandra
sandy
sane
sang
sanghaji
sani
sankce
sankci
sankt
sans
sant
santa
santi
santiago
santo
santos
sao
sar
sara
sarah
sarajevo
sarajevu
sardinie
sarka
sarlota
saron
sars
sas
sasa
sasek
saska
saskatchewan
saske
saskeho
saskem
sasko
sasku
sasky
sat
satan
satech
satek
satelit
satelitni
satelitu
satellite
satu
saturday
saturn
saty
saudi
saudska
saudske
saul
saunders
sauropod
sav
sava
savage
savci
savcu
save
savli
savojska
savojsky
saxofon
saxofonista
say
says
sazava
sazavou
sazavy
sazba
sazby
sazka
sb
sber
sberatel
sberatele
sbernice
sberu
sbira
sbiral
sbirat
sbirce
sbirek
sbirka
sbirkach
sbirkou
sbirku
sbirky
sbohem
sbor
sborem
sbormistr
sbornik
sborniku
sboru
sbory
sc
scala
scale
scen
scena
scenach
scenar
scenare
scenari
scenarista
scenaristka
scenaru
scene
scenograf
scenou
scenu
sceny
schazeli
schazi
schema
schematu
schiller
schindler
schlesien
schmid
schmidt
schneider
schodech
schodiste
schodistem
schodisti
schodu
schody
school
schopen
schopna
schopne
schopni
schopno
schopnost
schopnosti
schopnostmi
schopny
schranka
schranky
schubert
schulz
schumacher
schuster
schuz
schuzce
schuze
schuzi
schuzka
schuzku
schuzky
schvalen
schvalena
schvaleni
schvaleno
schvaleny
schvalil
schvalila
schvalilo
schwarz
schwarzenberg
schwarzenbergu
schweiz
sci
science
sciences
scientific
scientists
scitani
score
scotland
scott
scotta
scottish
scout
screen
scriptstyle
sd
sdb
sdeleni
sdeli
sdelil
sdh
sdilel
sdileni
sdilet
sdili
sdruzene
sdruzeni
sdruzenim
sdruzenych
sdruzuje
sdruzujici
se
sea
seal
sean
search
season
seat
seattle
seattlu
sebastian
sebastiana
sebastien
sebe
sebestiana
sebevedomi
sebevrazdu
sebou
sebral
sebrane
sec
secese
secesni
second
secret
secrets
section
security
sed
seda
sedadel
sedadla
sedan
sede
sedel
sedela
sedeli
sedesat
sedesati
sedesatych
sedet
sedi
sedici
sedimentech
sedimentu
sedimenty
sedivy
sedl
sedla
sedlacek
sedlaci
sedlak
sedlaka
sedlaku
sedlcany
sedle
sedlec
sedlem
sedlo
sedlovou
sedm
sedma
sedmdesat
sedmdesatych
sedme
sedmeho
sedmem
sedmi
sedmilete
sedmkrat
sedmnact
sedmnacteho
sedmnacti
sedmou
sedmy
sedou
seds
sedy
see
sef
sefa
sefem
sefer
sefredaktor
sefredaktora
sefredaktorem
segment
segmentu
sehnal
sehnat
sehral
sehrala
seifert
sein
seine
seiny
seite
sejm
sejmu
sekce
sekci
sekera
sekretar
sekretare
sekretarem
sekretariat
sekretariatu
sektor
sektoru
sekty
sekularni
sekund
sekundarni
sekundu
sekundy
sekvence
sekvenci
sel
select
selected
selem
self
selhal
selhani
seligman
selma
selmy
selske
selskeho
sem
semafor
semen
semena
semenik
semeno
semeny
semifinale
semily
seminar
seminare
seminari
sen
sena
senat
senatni
senatnich
senator
senatora
senatorem
senatori
senatoru
senatu
senegal
seng
senica
senior
seniorske
seniory
seno
senov
sense
sep
sepsal
sepsana
sepsani
september
sequence
ser
sera
serena
serge
sergej
sergeje
sergejevic
sergio
serial
serialech
serialu
serialy
serialzone
serie
series
serii
seriich
seriova
seriove
seriovy
seriovych
serm
sermir
server
serveru
servery
service
services
servis
servisni
servisu
ses
sesazen
sesel
sesit
seskupeni
sesla
sesli
seslo
session
sest
sesta
sestava
sestavajici
sestavala
sestave
sestavena
sestaveni
sestaveny
sestavil
sestavila
sestavit
sestavu
sestavy
seste
sesteho
sestem
sester
sesterskou
sesti
sestidenni
sestkrat
sestnact
sestnacteho
sestnacti
sestou
sestoupil
sestra
sestrami
sestre
sestrenice
sestrenici
sestrou
sestru
sestry
sestup
sestupu
sesty
sestym
set
setech
seth
setka
setkal
setkala
setkali
setkani
setkat
setkava
setkavaji
setkavame
setkavani
setreni
setrval
setrvala
setrvani
sets
setu
sety
sev
sevcik
seven
sever
severne
severni
severnich
severniho
severnim
severo
severoamericke
severoceske
severovychod
severovychode
severovychodne
severovychodni
severovychodnim
severovychodu
severozapad
severozapade
severozapadne
severozapadni
severozapadnich
severozapadnim
severozapadu
severske
severskych
severu
sevilla
seville
sex
sexu
sexual
sexuality
sexualne
sexualni
sexualnich
sexualniho
sexy
seymour
sezeni
seznam
seznameni
seznami
seznamil
seznamila
seznamit
seznamu
seznamuje
seznamy
seznamzpravy
sezon
sezona
sezonach
sezone
sezonni
sezonou
sezonu
sezony
sf
sfere
sfery
sg
sh
shadow
shadows
shakespeara
shakespeare
shanghai
shannon
share
shark
sharks
sharon
sharp
shaw
she
sheet
sheffield
shell
sherman
shield
shift
ship
ships
shirley
shledal
shoda
shode
shodna
shodne
shodny
shodou
shoduje
shoduji
shody
shooting
shop
shora
short
shot
should
show
shows
shrnuje
shrnul
shrnuti
shromazdeni
shromazdenim
shromazdil
shromazdovani
si
sia
siang
siao
sibir
sibire
sibiri
sic
sice
sich
sicilie
sicilii
sicilska
sicilske
sicilsky
sid
side
sidel
sidelni
sidelnim
sidla
sidle
sidlem
sidli
sidlici
sidlil
sidlila
sidlili
sidlilo
sidlist
sidliste
sidlisti
sidlo
sidney
sie
siecle
siegfried
siemens
sien
sierra
sifrovani
sigma
sigmund
sigmunda
sign
signal
signalizace
signalu
signaly
signs
sije
siji
sikmo
sil
sila
silach
silam
silami
sile
silence
silene
silenstvi
silent
sileny
silna
silne
silneho
silnejsi
silnemu
silnic
silnice
silnici
silnicich
silnicni
silnicnich
silnicniho
silnicnim
silnou
silny
silnych
silnym
silnymi
silou
silu
silva
silver
silvia
sily
sim
sima
simacek
simak
simbad
simek
simon
simona
simone
simple
simpson
simpsonovi
simpsonovych
simpsons
simulace
simulator
sin
since
sinclair
sindelar
sine
sing
singapore
singapur
singapuru
singer
singh
singl
single
singlem
singles
singlove
singlovy
singlu
singly
singularu
sini
sinojaponske
sio
sion
sip
sipky
sipu
sipy
sir
sira
sirce
sire
sirem
sirena
sireni
sireny
siri
siril
sirila
sirit
sirka
sirku
sirky
siroce
siroka
siroke
sirokeho
sirokem
sirokou
siroky
sirokych
sirokym
sirokymi
sirotci
sirsi
sirsiho
sirsim
siry
sirym
sis
sister
sisters
sisyfos
sit
sitcomu
site
sites
siti
sitich
sitove
situace
situaci
situacich
situovan
situovana
six
size
sj
sjednocena
sjednocene
sjednoceni
sjednotit
sjezd
sjezdu
sk
ska
skal
skala
skalach
skale
skalice
skalici
skalicka
skalka
skalnate
skalnatych
skalni
skalnich
skalniho
skalnim
skalou
skalu
skaly
skandal
skandalu
skandinavie
skandinavii
skaut
skautingu
skautske
skautu
skc
skeptiku
ski
skin
skla
sklad
sklada
skladaji
skladajici
skladal
skladala
skladani
skladat
skladatel
skladatele
skladatelem
skladateli
skladatelka
skladatelu
skladba
skladbach
skladbami
skladbe
skladbou
skladbu
skladby
skladeb
skladiste
skladovani
skladu
sklady
sklani
sklarny
sklarske
sklem
sklenene
sklenenych
sklenice
sklenici
sklenikovych
sklep
sklepa
sklepe
sklepeni
sklepy
sklizen
sklo
sklon
sklonem
sklonku
sklonovani
sklonu
sklony
skocil
skod
skoda
skodi
skodlive
skodu
skody
skok
skokan
skokem
skoku
skoky
skol
skola
skolach
skolami
skole
skoleni
skolni
skolnich
skolniho
skolnim
skolou
skolske
skolskych
skolstvi
skolu
skoly
skonceni
skonci
skoncil
skoncila
skoncili
skoncilo
skoncily
skoncit
skopje
skore
skoro
skoroval
skot
skotska
skotske
skotskeho
skotskem
skotsko
skotsku
skotsky
skotu
skrabal
skrec
skrin
skrine
skrini
skript
skrivan
skromne
skryta
skryte
skryty
skryva
skryval
skrz
skrze
skslovan
skupin
skupina
skupinach
skupinam
skupinami
skupine
skupinou
skupinove
skupinu
skupiny
skutecna
skutecne
skutecneho
skutecnost
skutecnosti
skutecnou
skutecny
skutecnych
skutecnym
skutek
skutku
skutky
skvela
skvele
skvely
skvrn
skvrna
skvrnami
skvrny
sky
sl
sla
slaba
slabe
slabost
slabosti
slabou
slabsi
slaby
slabych
sladce
sladek
sladka
sladke
sladkou
sladkovodni
sladky
slalom
slalomu
slam
slama
slamu
slamy
slane
slaneho
slanem
slang
slangove
slany
slaskie
slatina
slava
slave
slavi
slavia
slavicek
slavie
slavii
slavik
slavil
slavkov
slavkova
slavna
slavne
slavneho
slavnem
slavnost
slavnostech
slavnosti
slavnostne
slavnostni
slavnostniho
slavnostnim
slavnou
slavny
slavnych
slavnym
slavoj
slavomir
slavonice
slavou
slavu
slavy
slayer
slechta
slechte
slechtic
slechtice
slechtici
slechticke
slechtickeho
slechticky
slechtickych
slechticna
slechticu
slechtou
slechtu
slechty
slecna
slecno
slecny
sled
sledoval
sledovalo
sledovane
sledovani
sledovanost
sledovanosti
sledovat
sledu
sleduje
sleduji
sleep
slepa
slepe
slepice
slepy
slesvicko
slezska
slezske
slezskeho
slezskem
slezsko
slezsku
slezsky
slezskych
sli
slib
slibil
sliboval
slibu
slibuje
sliby
slitin
slitiny
sliznice
slo
sloh
slohove
slohu
slon
slona
sloni
slonoviny
slonu
sloucena
slouceni
sloucenim
sloucenin
sloucenina
slouceniny
slouceny
sloup
sloupce
sloupec
sloupku
sloupky
sloupu
sloupy
slouzi
slouzici
slouzil
slouzila
slouzili
slouzilo
slouzily
slouzit
slouziti
slov
slova
slovaci
slovacka
slovacko
slovak
slovakia
slovaku
slovan
slovane
slovanska
slovanske
slovanskeho
slovanskou
slovansky
slovanskych
slovanu
slovany
slovart
slove
slovech
slovem
slovenia
slovenije
slovenska
slovenske
slovenskeho
slovenskej
slovenskem
slovensko
slovenskou
slovensku
slovensky
slovenskych
slovenskym
slovensti
slovenstina
sloves
slovesa
slovesnost
sloveso
slovincu
slovinska
slovinske
slovinskeho
slovinsko
slovinsku
slovinsky
slovinstina
slovni
slovnik
slovnikove
slovniku
slovniky
slovo
slovu
slovum
slovy
slow
slozek
slozen
slozena
slozene
slozeni
slozenim
slozenina
slozeno
slozenou
slozeny
slozenych
slozil
slozila
slozili
slozit
slozita
slozite
slozitejsi
slozitost
slozitosti
slozity
slozitych
slozka
slozkami
slozkou
slozku
slozky
sluch
sluchu
sluha
sluhu
sluje
slunce
sluncem
slunci
slunecni
slunecnich
slunecniho
slunecnim
slusi
slusne
sluzba
sluzbach
sluzbam
sluzbami
sluzbe
sluzbou
sluzbu
sluzby
sluzeb
sluzebni
sluzebnici
sluzebnik
sluzka
sly
slys
slysel
slysela
slyseli
slyseni
slyset
slyseti
slysi
slysim
slz
slza
slzami
slzy
sm
smal
small
smart
sme
smeje
smeji
smejkal
smel
smele
smeli
smely
smer
smerech
smerem
smernice
smerovala
smerovani
smerovat
smeru
smeruje
smeruji
smerujici
smery
smes
smesi
smetana
smetanova
smetany
smi
smich
smichem
smichov
smichove
smichu
smid
smil
smirci
smireni
smisena
smisene
smiseny
smisenych
smisenym
smith
smithsonian
smlouva
smlouve
smlouvou
smlouvu
smlouvy
smluv
smluvni
smluvnich
smolik
smrk
smrkem
smrku
smrt
smrtelne
smrti
smrtici
sms
smutecni
smutek
smutku
smutna
smutne
smutny
smycce
smyccove
smyccovy
smycka
smycky
smysl
smyslem
smysleni
smyslu
smysly
sn
snad
snadne
snadneji
snadnejsi
snadno
snah
snaha
snaham
snahou
snahu
snahy
snasi
snatek
snatkem
snatku
snatky
snaze
snazeni
snazi
snazil
snazila
snazili
snazily
snazit
snazsi
snb
snehem
snehova
snehove
snehu
snem
sneme
snemovna
snemovne
snemovni
snemovny
snemu
snemy
sneni
snese
snezne
sni
snidane
snidani
snih
snimani
snimcich
snimek
snimku
snimky
snizen
snizena
snizeni
snizenim
snizenou
snizi
snizil
snizila
snizit
snizovani
snizovat
snizuje
snizuji
snk
snklhu
snow
snp
snr
sns
sntl
snu
sny
so
soa
sobe
sobeslav
sobota
sobotka
sobotu
soc
soccer
soccerway
soch
socha
sochami
sochar
sochare
socharem
sochari
socharka
socharska
socharske
socharstvi
socharu
sochou
sochu
sochy
soci
social
socialismu
socialismus
socialiste
socialisticka
socialisticke
socialistickeho
socialistickou
socialisticky
socialistickych
socialistu
socialne
socialni
socialnich
socialniho
socialnim
socialnimi
societe
society
sociolog
sociologicke
sociologicky
sociologie
sociologii
sociology
sodneho
sodny
sofia
sofie
sofii
soft
software
softwarove
softwaru
sojka
sojuz
sojuzu
sok
soka
soklu
sokol
sokola
sokolov
sokolske
soku
sol
sola
solar
solaris
solarni
solc
soldier
soli
solidarity
solo
solomon
solova
solove
solovou
solovy
solovych
som
some
something
sommer
son
sona
sonata
sond
sonda
sondy
song
songs
sonic
sonny
sons
sony
sopecne
sopek
sophia
sophie
sopka
sopky
sopran
sor
sos
soska
sosky
sotva
sou
soubezne
souboj
souboje
souboji
soubojich
soubor
souborem
souborne
soubornem
souboru
soubory
soucasna
soucasne
soucasneho
soucasnem
soucasnost
soucasnosti
soucasnou
soucasny
soucasnych
soucasnym
soucast
soucastek
soucasti
soucastky
soucek
soucet
soucin
soucit
souctu
soud
soudce
soudcem
soudci
soudcu
soude
soudem
soudi
soudil
soudit
souditi
soudni
soudnich
soudnictvi
soudniho
soudnim
soudobe
soudobych
soudu
soudy
souhlas
souhlasem
souhlasi
souhlasil
souhlasila
souhlaska
souhlasky
souhlasu
souhrn
souhrnne
souhvezdi
soukroma
soukrome
soukromeho
soukromem
soukromi
soukromou
soukromy
soukromych
soukromym
soukup
soul
souladu
soulu
soumrak
soumraku
sound
soundtrack
soundtracku
souostrovi
souper
soupere
souperem
souperi
soupis
soupisu
souprav
souprava
soupravy
souradnic
souradnice
source
sources
sourozence
sourozenci
sourozencu
sous
soused
souseda
sousede
sousedi
sousedici
sousedni
sousednich
sousedniho
sousednim
sousednimi
sousedstvi
sousedu
sousedy
sousi
sousosi
soustav
soustava
soustavach
soustave
soustavne
soustavou
soustavu
soustavy
soustredena
soustredeni
soustredi
soustredil
soustredila
soustredit
soustreduje
soutez
souteze
soutezi
soutezich
soutezici
soutezni
south
southampton
southern
soutok
soutokem
soutoku
souvisejici
souvisejicich
souvisi
souvisle
souvislost
souvislosti
souvisly
souvrstvi
souzen
souziti
sova
soveti
sovetska
sovetske
sovetskeho
sovetskem
sovetskemu
sovetskou
sovetsky
sovetskych
sovetskym
sovetskymi
sovetu
soviet
sp
spa
space
spacek
spacex
spachal
spachani
spacilova
spad
spada
spadaji
spadajici
spadala
spadl
spadla
spadne
spain
spal
spalene
spaleny
spali
spalovaci
spalovani
span
spanek
spanel
spanele
spanelska
spanelske
spanelskeho
spanelskem
spanelsko
spanelskou
spanelsku
spanelsky
spanelskych
spanelskym
spanelstina
spanelstine
spanelstiny
spani
spanish
spanku
spark
sparta
spartak
sparte
spartou
spartu
sparty
spaseni
spasitele
spasy
spat
spatna
spatne
spatneho
spatnem
spatnemu
spatnou
spatny
spatnych
spatnym
spatri
spatril
spatrila
spatrili
spatrit
spd
spechal
special
specialista
specialiste
specializace
specializaci
specializoval
specializovane
specializovany
specializovanych
specializuje
specializujici
specialne
specialni
specialnich
specialniho
specialnim
specialnimi
species
specificka
specificke
specifickou
specificky
specifickych
specifickym
specifikace
specifikaci
spectrum
speed
speedskatingnews
spektra
spektralni
spektru
spektrum
spekulace
spekulaci
spencer
sperku
sperky
spesne
spi
spicak
spicate
spicce
spici
spicka
spickou
spicku
spicky
spider
spiegel
spielbericht
spieler
spiknuti
spin
spiralni
spirit
spiritual
spis
spise
spisech
spisovatel
spisovatele
spisovatelem
spisovateli
spisovatelka
spisovatelky
spisovatelu
spisovne
spisovneho
spisska
spisske
spisu
spisy
spital
spitalu
spjata
spjaty
split
splneni
splneny
splnil
splnit
splnovat
splnuje
splyva
spn
spo
spociva
spocivajici
spocival
spocivala
spock
spodni
spodnich
spodniho
spodnim
spoj
spoje
spojen
spojena
spojence
spojencem
spojenci
spojencu
spojencum
spojene
spojenecke
spojeneckych
spojenectvi
spojeneho
spojenem
spojeni
spojenim
spojeno
spojenou
spojeny
spojenych
spojenym
spojenymi
spoji
spojil
spojila
spojili
spojily
spojit
spojitost
spojitosti
spojka
spojky
spojnici
spojovaci
spojovala
spojovan
spojovana
spojovani
spoju
spojuje
spojuji
spojujici
spokojen
spokojene
spokojeni
spol
spolecenska
spolecenske
spolecenskeho
spolecenskem
spolecenskou
spolecensky
spolecenskych
spolecenskym
spolecenstev
spolecenstva
spolecenstvi
spolecenstvim
spolecenstvo
spolecna
spolecne
spolecneho
spolecnem
spolecnici
spolecnik
spolecnikem
spolecniky
spolecnost
spolecnostech
spolecnostem
spolecnosti
spolecnostmi
spolecnou
spolecny
spolecnych
spolecnym
spolehlive
spolehlivost
spolehlivosti
spolek
spolkem
spolkova
spolkove
spolkoveho
spolkovy
spolkovych
spolku
spolky
spolu
spoluautor
spoluautorem
spoluhraci
spoluprace
spolupraci
spolupracoval
spolupracovala
spolupracovali
spolupracovat
spolupracovnici
spolupracovnik
spolupracovnikem
spolupracovniku
spolupracovniky
spolupracuje
spolupracuji
spoluzakladal
spoluzakladatel
spoluzakladatelem
spoluzaky
spoluzalozil
spontanni
sponzora
spor
sporadicky
sporech
sporitelna
sporitelni
sporitelny
sporne
sport
sportech
sporting
sportovce
sportovci
sportovcu
sportovec
sportovni
sportovnich
sportovniho
sportovnim
sports
sportu
sporty
sporu
sporum
spory
spot
spotreba
spotrebitele
spotrebni
spotrebu
spotreby
spousta
spousti
spoustu
sprache
spratelil
sprava
spravce
spravcem
spravci
spravcu
sprave
spravedlive
spravedlivy
spravedlnost
spravedlnosti
spravna
spravne
spravneho
spravni
spravnich
spravniho
spravnim
spravnost
spravnou
spravny
spravou
spravoval
spravovala
spravovali
spravovana
spravovat
spravu
spravuje
spravy
spring
springer
springfield
springfieldu
springs
sprint
sprinter
sprintu
spusobem
spusten
spustena
spusteni
spusti
spustil
spustila
spustit
sputnik
spy
spz
sq
sql
sqrt
squad
squadron
square
sr
sramek
srazce
srazek
srazil
srazky
srb
srbochorvatstina
srbove
srbska
srbske
srbskeho
srbskem
srbsko
srbskou
srbsku
srbsky
srbskych
srbstina
srbu
srby
srdce
srdcem
srdci
srdecne
srdecni
sri
srn
srostle
srostly
srouby
srov
srovnani
srovnatelne
srovnavaci
srovnej
srp
srpen
srpna
srpnu
srst
srsti
srub
srubu
srv
ss
ssc
ssm
ssr
sssr
st
sta
stab
stabilita
stabilitu
stability
stabilizaci
stabilni
stabilniho
stabni
stabu
staci
stacil
stacilo
stada
stade
stadia
stadion
stadionu
stadiu
stadium
stado
stadt
stafeta
stafete
stafety
staff
stage
stahl
stahla
stahli
stahnout
stahovani
staj
staje
staji
stal
stala
stale
staleho
staleti
staletich
stali
stalin
stalina
stalo
stalou
staly
stalych
stalym
stan
stand
standard
standardem
standardne
standardni
standardnich
standardniho
standardnim
standardu
standardy
stane
stanek
stanford
stani
stanic
stanice
stanicemi
stanici
stanicich
stanicni
stanislav
stanislava
stanisław
stanku
stanley
stanou
stanov
stanoven
stanovena
stanovene
stanoveni
stanoveno
stanoveny
stanovenych
stanovi
stanovil
stanovila
stanoviska
stanovisko
stanovist
stanoviste
stanovisti
stanovistich
stanovit
stanovuje
stanovy
stanu
stanul
star
stara
staral
starala
starat
starce
starci
stare
starec
stareho
starem
staremu
stari
stark
starnuti
starobyle
starobyleho
staroceske
staromestske
staromestskem
staroreckeho
starorecky
starost
starosta
starosti
starostou
starostove
starostu
starosty
starou
starovek
staroveke
starovekeho
starovekem
staroveku
staroveky
starovekych
starozitnosti
stars
starsi
starsich
starsiho
starsim
starsimi
start
startem
startoval
startovala
startovat
startovni
startu
startuje
starty
stary
starych
starym
starymi
stasten
stastna
stastne
stastni
stastnou
stastny
stat
statcich
state
statech
statecne
statecnost
statecny
statek
statem
statement
states
stati
static
staticke
staticky
station
statistical
statisticka
statisticke
statistickeho
statisticky
statisticni
statistics
statistik
statistika
statistiky
statkar
statkem
statku
statky
statna
statne
statni
statnich
statniho
statnik
statnim
statnimi
statnimu
statny
statopravni
stats
statu
statum
status
statusu
statut
statutarni
statutarniho
statutu
staty
stav
stava
stavaji
stavajici
stavajicich
stavajiciho
staval
stavala
stavalo
stavaly
stavba
stavbach
stavbami
stavbe
stavbou
stavbu
stavby
staveb
stavebne
stavebni
stavebnich
stavebnictvi
stavebniho
stavebnim
stavel
stavela
staveli
stavely
stavem
stavena
staveni
staveny
stavet
stavi
stavitel
stavitele
stavitelem
stavitelstvi
stavka
stavky
stavove
stavovske
stavovskeho
stavovskem
stavu
stavum
stavy
stay
stazeni
stb
ste
steam
stech
stedry
steel
stefan
stefana
stefano
stehlik
stehovani
stein
steiner
stejna
stejne
stejneho
stejnem
stejnemu
stejnojmenna
stejnojmenne
stejnojmenneho
stejnojmennem
stejnojmennou
stejnojmenny
stejnopohlavni
stejnou
stejny
stejnych
stejnym
stejnymi
stejskal
steka
stella
stem
sten
stena
stenach
stenami
stene
stenografickych
stenou
stenprot
[...]
