!
"
#
##0
##1
##10
##11
##12
##13
##14
##15
##16
##17
##18
##19
##2
##20
##21
##22
##23
##24
##25
##26
##27
##28
##29
##3
##30
##31
##32
##33
##34
##35
##36
##37
##38
##39
##4
##40
##41
##42
##43
##44
##45
##46
##47
##48
##49
##5
##50
##51
##52
##53
##54
##55
##56
##57
##58
##59
##6
##60
##61
##62
##63
##64
##65
##66
##67
##68
##69
##7
##70
##71
##72
##73
##74
##75
##76
##77
##78
##79
##8
##80
##81
##82
##83
##84
##85
##86
##87
##88
##89
##9
##90
##91
##92
##93
##94
##95
##96
##97
##98
##99
$
%
&
'
(
)
*
+
,
-
.
/
0
00
000
001
002
003
004
005
007
01
010
02
020
03
04
05
050
051
057
06
060
063
064
065
066
067
068
07
070
071
072
073
074
075
076
078
08
080
081
082
083
084
085
086
087
088
089
09
090
091
092
093
094
095
096
097
098
099
1
10
100
1000
101
1016
102
103
1038
104
105
106
107
108
1080
109
11
110
1100
111
1111
112
113
114
115
116
117
118
119
12
120
1200
121
1210
1212
122
123
1230
124
1240
1241
125
1250
1253
126
1260
127
1278
128
129
1290
13
130
1300
1305
131
1310
1318
132
1320
133
1330
134
1340
1346
1347
1348
1349
135
1350
1352
1355
1356
1358
136
1360
1361
1365
1368
137
1370
1371
1378
1379
138
1380
1384
139
1390
1397
1399
14
140
1400
1402
1405
1406
1409
141
1410
1412
1414
1415
1419
142
1420
1421
1422
1423
1424
1425
1427
143
1430
1431
1433
1434
1435
1436
1437
144
1440
145
1450
1453
1454
1455
1457
146
1460
1462
1464
1465
1466
1467
1468
147
1470
1471
1475
148
1480
1483
1485
1487
149
1490
1492
1493
1494
1495
1496
1497
1498
1499
15
150
1500
1501
1502
1503
1504
1505
1506
1507
1508
1509
151
1510
1511
1512
1513
1514
1515
1516
1517
1518
1519
152
1520
1521
1522
1523
1524
1525
1526
1527
1528
1529
153
1530
1531
1532
1533
1534
1535
1536
1537
1538
1539
154
1540
1541
1542
1543
1544
1545
1546
1547
1548
1549
155
1550
1551
1552
1553
1554
1555
1556
1557
1558
1559
156
1560
1561
1562
1563
1564
1565
1566
1567
1568
1569
157
1570
1571
1572
1573
1574
1575
1576
1577
1578
1579
158
1580
1581
1582
1583
1584
1585
1586
1587
1588
1589
159
1590
1591
1592
1593
1594
1595
1596
1597
1598
1599
16
160
1600
1601
1602
1603
1604
1605
1606
1607
1608
1609
161
1610
1611
1612
1613
1614
1615
1616
1617
1618
1619
162
1620
1621
1622
1623
1624
1625
1626
1627
1628
1629
163
1630
1631
1632
1633
1634
1635
1636
1637
1638
1639
164
1640
1641
1642
1643
1644
1645
1646
1647
1648
1649
165
1650
1651
1652
1653
1654
1655
1656
1657
1658
1659
166
1660
1661
1662
1663
1664
1665
1666
1667
1668
1669
167
1670
1671
1672
1673
1674
1675
1676
1677
1678
1679
168
1680
1681
1682
1683
1684
1685
1686
1687
1688
1689
169
1690
1691
1692
1693
1694
1695
1696
1697
1698
1699
17
170
1700
1701
1702
1703
1704
1705
1706
1707
1708
1709
171
1710
1711
1712
1713
1714
1715
1716
1717
1718
1719
172
1720
1721
1722
1723
1724
1725
1726
1727
1728
1729
173
1730
1731
1732
1733
1734
1735
1736
1737
1738
1739
174
1740
1741
1742
1743
1744
1745
1746
1747
1748
1749
175
1750
1751
1752
1753
1754
1755
1756
1757
1758
1759
176
1760
1761
1762
1763
1764
1765
1766
1767
1768
1769
177
1770
1771
1772
1773
1774
1775
1776
1777
1778
1779
178
1780
1781
1782
1783
1784
1785
1786
1787
1788
1789
179
1790
1791
1792
1793
1794
1795
1796
1797
1798
1799
18
180
1800
1801
1802
1803
1804
1805
1806
1807
1808
1809
181
1810
1811
1812
1813
1814
1815
1816
1817
1818
1819
182
1820
1821
1822
1823
1824
1825
1826
1827
1828
1829
183
1830
1831
1832
1833
1834
1835
1836
1837
1838
1839
184
1840
1841
1842
1843
1844
1845
1846
1847
1848
1849
185
1850
1851
1852
1853
1854
1855
1856
1857
1858
1859
186
1860
1861
1862
1863
1864
1865
1866
1867
1868
1869
187
1870
1871
1872
1873
1874
1875
1876
1877
1878
1879
188
1880
1881
1882
1883
1884
1885
1886
1887
1888
1889
189
1890
1891
1892
1893
1894
1895
1896
1897
1898
1899
19
190
1900
1901
1902
1903
1904
1905
1906
1907
1908
1909
191
1910
1911
1912
1913
1914
1915
1916
1917
1918
1919
192
1920
1921
1922
1923
1924
1925
1926
1927
1928
1929
193
1930
1931
1932
1933
1934
1935
1936
1937
1938
1939
194
1940
1941
1942
1943
1944
1945
1946
1947
1948
1949
195
1950
1951
1952
1953
1954
1955
1956
1957
1958
1959
196
1960
1961
1962
1963
1964
1965
1966
1967
1968
1969
197
1970
1971
1972
1973
1974
1975
1976
1977
1978
1979
198
1980
1981
1982
1983
1984
1985
1986
1987
1988
1989
199
1990
1991
1992
1993
1994
1995
1996
1997
1998
1999
2
20
200
2000
2001
2002
2003
2004
2005
2006
2007
2008
2009
201
2010
2011
2012
2013
2014
2015
2016
2017
2018
2019
202
2020
2021
2022
2023
2024
2025
203
2030
204
205
206
207
208
209
21
210
211
212
213
214
215
216
217
218
219
22
220
221
222
223
224
225
226
227
228
229
23
230
231
232
233
234
235
236
237
238
239
24
240
241
242
243
244
245
246
247
248
249
25
250
2500
251
252
253
254
255
256
257
258
259
26
260
261
262
263
264
265
266
267
268
269
27
270
271
272
273
274
275
276
277
278
279
28
280
281
282
283
284
285
286
287
288
289
29
290
291
292
293
294
295
296
297
298
299
3
30
300
3000
301
302
303
304
305
306
307
308
309
31
310
311
312
313
314
315
316
3166
317
318
319
32
320
321
322
323
324
325
326
327
328
329
33
330
331
332
333
334
335
336
337
338
339
34
340
341
342
343
344
345
346
347
348
349
35
350
3500
351
352
353
354
355
356
357
358
359
36
360
361
362
363
364
365
366
367
368
369
37
370
371
372
373
374
375
376
377
378
379
38
380
381
382
383
384
385
386
387
388
389
39
390
391
392
393
394
395
396
397
398
399
4
40
400
4000
401
402
403
404
405
406
407
408
409
41
410
411
412
413
414
415
416
417
418
419
42
420
421
422
423
424
425
426
427
428
429
43
430
431
432
433
434
435
436
437
438
439
44
440
441
442
443
444
445
446
447
448
449
45
450
451
452
453
454
455
456
457
458
459
46
460
461
462
463
464
465
466
467
468
469
47
470
471
472
473
474
475
476
477
478
479
48
480
481
482
483
484
485
486
488
49
490
491
493
494
495
496
498
499
5
50
500
5000
501
502
503
504
505
506
507
508
509
51
510
511
512
513
514
515
516
517
518
52
520
521
522
523
524
525
526
527
528
529
53
530
531
532
533
534
535
536
537
538
539
54
540
541
542
543
544
545
547
548
549
55
550
551
552
553
555
556
557
558
559
56
560
561
562
563
565
567
568
57
570
571
574
575
576
577
579
58
580
581
582
583
584
585
586
587
588
589
59
590
591
592
593
595
597
599
6
60
600
6000
601
602
603
604
605
606
607
608
609
61
610
611
612
613
614
615
616
617
618
62
620
621
622
623
624
625
626
627
628
629
63
630
633
634
635
636
638
639
64
640
641
642
645
65
650
655
656
66
660
666
667
668
67
670
672
675
68
680
69
690
7
70
700
7000
701
706
707
71
710
715
72
720
73
730
735
737
74
740
747
75
750
751
754
757
76
760
767
77
770
777
78
780
79
790
8
80
800
8000
802
81
810
815
82
820
83
84
840
85
850
86
860
87
870
88
880
89
9
90
900
91
911
92
93
94
95
950
96
960
97
978
98
99
999
:
;
<
=
>
?
@
\
^
_
`
a
aa
aaron
ab
aba
abatys
abba
abc
abcha
abd
abe
abeceda
abecedne
abecedni
abecedy
abi
abies
ablona
ablony
about
abraha
abraham
abs
absence
absenci
absolutne
absolutni
absolvent
absolventi
absolventu
absolvova
absolvoval
absolvovala
absolvovat
abstraktni
absurdni
abu
aby
abych
abychom
abys
abyste
ac
acade
academia
academy
access
accessed
ace
acer
ach
achista
achiste
achove
achovy
achty
achu
achy
act
acta
action
ad
ada
adalbert
adam
adama
adamec
adami
adams
adaptace
adaptaci
adatel
adatele
adatelu
adavek
adavku
adavky
ade
adech
adelaide
adem
adi
adic
adil
adila
adili
adilo
adit
adler
administra
administration
administrativne
administrativni
administrativy
admira
adni
adnic
adnice
adolf
adolfa
adoptivni
adou
adova
adoval
adovala
adovali
adovalo
adovane
adovany
adovat
adove
adovy
adres
adresa
adrese
adresu
adresy
adrian
adriana
adu
aduje
aduji
advanced
adventure
adventures
advoka
ady
ae
aero
af
afa
afar
afc
afe
afgha
afra
africa
african
africe
africka
africke
africky
afrika
afriku
afriky
afroameric
after
ag
aga
again
against
age
agency
agent
agenta
agenti
agentu
agentur
agentura
agenturou
agentury
ages
aglomerace
aglomeraci
agnes
agra
agrega
agresivni
ah
aha
ahl
ahmed
ai
aid
aids
aim
ain
air
airbus
aircraft
aires
airlines
airport
airways
ais
aise
aj
aja
ajax
aje
ak
aka
akademicka
akademicke
akademicky
akademie
akademii
akc
akce
akci
akcie
akcii
akciona
akciova
akciove
akciovou
ako
akov
akropolis
akt
akte
aktiv
aktiva
aktivace
aktivaci
aktivista
aktiviste
aktivistka
aktivistu
aktivit
aktivita
aktivitou
aktivitu
aktivity
aktivne
aktivni
aktu
aktua
aktuality
aktualizace
aktualizaci
aktualizova
aktualizovany
aktualne
akty
aku
akumula
akusticka
akusticke
akutni
akva
akvita
al
ala
alabama
alain
alan
alb
alba
albatros
albech
albem
albert
alberta
alberto
albi
albrecht
albrechta
albrechtice
albu
album
albums
ale
alegorie
alej
aleje
alena
ales
alespon
alessandro
alex
alexander
alexandr
alexandra
alexandre
alexandrem
alexandrie
alexandrii
alexandrovic
alexandru
alexej
alfa
alfons
alfonse
alfonso
alfre
alfred
alfreda
algoritmu
algoritmus
algoritmy
ali
aliance
alianci
alias
alice
align
alignbars
alison
alive
aljas
alka
alkohol
alkoholu
all
alla
allan
alle
allen
allgemeine
alliance
allmusic
alm
alma
almanach
almu
almy
alo
aloba
alobu
aloby
alois
aloise
alon
alone
alonso
alova
alovany
alp
alpa
alpes
alpha
alpske
alpsky
alpy
als
alt
alta
alternativa
alternativni
alto
alu
aludec
aludku
aly
alz
am
ama
amadeus
amanda
amate
amazon
ambasa
ambice
ambicio
ambroz
amd
ame
amen
americ
america
american
americe
americka
americke
americko
americkou
americky
amerika
ameriku
ameriky
amfitea
ami
aminokyselin
amnestie
amnestii
amor
amore
amos
amour
ampio
ampiona
amsterdam
amsterdamu
amu
amy
an
ana
analogicky
analogove
analy
analysis
analyticke
analyza
anatolij
anatomie
anc
ance
anci
ancient
and
anda
ande
anders
andersen
anderson
andersson
andi
andra
andre
andrea
andreas
andrej
andreje
andrew
andrews
android
andrzej
andy
ane
aneb
anebo
anech
anem
anexi
anez
ang
angaz
angel
angela
angeles
angelo
angels
anghaji
angl
anglic
anglicka
anglicke
anglickou
anglicky
anglie
anglii
anglika
anglo
anglosaske
anhaltsko
ani
anima
animace
animal
animals
anime
animovane
animovany
aniz
anjou
anka
ankete
ankety
ankou
anky
ann
anna
anne
annie
anno
annou
annu
annual
anny
ano
anoma
anonymni
another
anov
anova
anovske
ans
ansa
anska
anske
ansko
anskou
ansky
anstvi
ant
antarktide
antarktidy
ante
anthony
anti
anticke
anticky
antiky
antiochie
anto
antoine
antologie
antologii
anton
antona
antoni
antonia
antonie
antonio
antropolog
antropologie
antuce
antukovy
antverpa
anu
any
ao
aopk
ap
apara
apek
api
apka
aplikac
aplikace
aplikaci
aplikova
aplikovane
aplikovat
apod
apollo
apos
apple
april
ar
ara
arab
arabove
arabs
arabska
arabske
arabsky
arabu
araby
aragonske
aranz
arbitra
arch
archa
archande
archeolog
archeologicka
archeologicke
archeologicky
archeologie
archeologove
archi
architecture
architekt
architekta
architektem
architekti
architektonicke
architektonicky
architektu
architektur
architektura
architekturou
architekturu
architektury
architekty
archiv
archiva
archive
archives
archivni
archivu
archivy
arci
arcibiskup
arcibiskupa
arcibiskupem
arcibiskupove
arcibiskupske
arcibiskupstvi
arcibiskupu
arcidiece
arcive
are
area
arena
argentina
argentine
argentins
argentinske
argentinsky
argentiny
argo
argument
argumentu
argumenty
ari
aria
ariel
aris
aristokracie
arizona
arka
arky
arlota
arm
arma
arme
arms
armstrong
army
arne
arnold
arnos
arode
aromaticke
aron
arou
around
arova
arriva
arrondissement
ars
arsenal
arsenalu
arska
arske
arskem
arsko
arsku
arsky
art
arte
artefaktu
artefakty
arthur
arthura
article
articles
artist
artists
arts
artur
artus
aru
ary
as
asa
ase
asech
asem
ashley
asi
asia
asie
asii
asijske
asijsky
asistence
asistenci
asistent
asistenta
asistentem
asistentka
asna
asne
asni
asnost
asnosti
asnou
asny
asociace
asociaci
asopis
asopise
asopisech
asopisecky
asopisem
asopisu
asopisy
asova
asove
asovka
asovou
asovy
asp
aspekt
aspektu
aspekty
aspon
aspx
assisi
associated
association
ast
asta
aste
asten
astenstvi
asteroid
asti
astn
astna
astne
astni
astnil
astnila
astnili
astnilo
astnily
astnit
astnou
astny
asto
aston
astra
astronaut
astronauti
astronautu
astronom
astronomicke
astronomicky
astronomie
astronomii
astronomove
asty
asu
asy
at
ata
atari
atc
atci
atd
ate
atec
atech
ateiste
atek
atelie
atenta
athe
athletic
ati
atkem
atku
atky
atlanta
atlante
atlantic
atlantiku
atlantis
atlantske
atlas
atlasu
atle
atlet
atletice
atleticke
atleticky
atletika
atletka
atmosfe
ato
atom
atomove
atomovy
atomu
atomy
atp
atrakce
atrakci
atraktivni
atributu
atributy
attack
atu
aty
au
audi
audio
audiovizua
auf
august
augusta
auguste
augustin
augustina
augustinia
augustus
aukci
aurora
aus
auschwitz
austin
austra
australia
australian
australs
australska
australske
australsky
austria
aut
auta
autem
auto
autobiografie
autobus
autobusova
autobusove
autobusovou
autobusovy
autobusu
autobusy
automat
automaticke
automaticky
automobil
automobilka
automobilky
automobilove
automobilovy
automobilu
automobily
autonomie
autonomii
autonomni
autoportre
autor
autora
autorem
autorita
autoritu
autority
autorka
autorkou
autorky
autorovi
autorovy
autorska
autorske
autorsky
autorstvi
autoru
autory
auvergne
aux
av
ava
avantgardni
ave
avengers
aventinum
avenue
avia
aviation
aviv
avivu
avs
avske
avu
avy
award
awards
away
ax
axel
ay
az
azen
azena
azene
azeni
azeno
azeny
azova
azovaci
azte
azuje
azyl
b
ba
baba
babic
babis
baby
babylo
babylon
bac
bach
back
backgroundcolors
bad
badatele
badatelu
baden
bafta
bagda
bahenni
bahn
baji
bakala
baker
bakteria
bakterie
bakterii
baku
bal
bala
balada
balady
balbi
balduin
baleni
balet
baletni
baletu
bali
balka
balko
ball
balo
baltimore
baltske
balvan
balvany
bami
ban
bana
bance
band
bane
bang
banglade
bani
bank
banka
banke
bankovka
bankovky
bankovni
bankovnictvi
banku
banky
banska
banske
baptiste
bar
bara
barbara
barbora
barbory
barcelona
barcelone
barcelony
bardata
barev
barevna
barevne
barevnou
barevny
bari
barie
barika
baroka
barokne
barokni
baroko
baron
barona
barra
barrandov
barry
bart
barta
bartolome
barton
bartos
baru
barva
barvami
barve
barveni
barvi
barvou
barvu
barvy
baryton
bas
basa
base
based
basel
basic
basilej
basileji
basketbal
basketbalista
basketbaliste
basketball
basketbalova
basketbalove
basketbalovy
basketbalu
baskytara
baskytarista
basova
bass
basso
bat
baterie
baterii
bati
batman
battista
battle
bauer
bava
bave
bavi
bavlne
bavlny
bavne
bavni
bavny
bavor
bavorska
bavorske
bavorsko
bavorsku
bavorsky
bavu
bavy
bay
bayer
bayern
baz
baza
baze
bazilice
bazilika
baziliky
bb
bbc
bc
bd
bde
be
beach
bear
beat
beatles
beatrice
beatrix
beautiful
beauty
beaux
bec
bechyne
beck
becker
bedlive
bedna
bedne
bedr
beer
beethoven
before
begin
behind
bei
bejru
bejt
bek
bel
bela
belgic
belgicka
belgicke
belgicky
belgie
belgii
bell
bella
belle
bem
ben
bena
benda
bene
benedikt
benedikta
benediktinske
benes
benga
beni
benjamin
bennett
benny
beno
benou
beny
benz
benzi
ber
bera
beran
bere
berg
berger
berka
berkeley
berli
berlin
berliner
bern
bernard
bernarda
bernhard
berni
bernu
berou
beroun
beroune
berounky
berry
bert
bertrand
bes
beseda
besedy
beskydech
beskydy
best
bet
beta
bete
betle
betni
betonove
betonovy
betonu
better
betty
betu
between
bety
beverly
beyond
bez
bezbarie
bezboz
bezde
bezdra
beze
bezejmenny
bezma
beznade
bezobratly
bezpartijni
bezpec
bezpilotni
bezplatne
bezpochyby
bezpra
bezprostr
bezra
bezruc
bezu
bezve
bezvy
bf
bg
bh
bhu
bi
biatlonu
bible
bibli
biblicka
biblicke
biblicky
bibliografie
bic
bici
bie
biena
big
bii
bil
bila
bilance
bilanci
bild
bili
bill
billa
billboard
billie
billy
bilo
bin
bina
bio
biograficke
biograficky
biografie
biographie
biographisches
biography
biolib
biolog
biologicke
biologicky
biologie
biologii
biology
biotopu
bir
bird
birds
birmingham
birminghamu
bis
bisexua
biskup
biskupa
biskupem
biskupove
biskupovi
biskupska
biskupske
biskupsky
biskupstvi
biskupu
biskupy
bit
bitev
bitevni
biti
bitov
bitova
bitove
bitovech
bitovem
bitovni
bitovu
bitovy
bitu
bitva
bitve
bitvou
bitvu
bitvy
biz
bjo
bk
bka
bl
bla
black
blackhawks
blade
blaha
blaho
blahor
blahoslaveni
blahoslaveny
blake
blanc
blani
blanka
blansko
blatna
blatne
blaz
ble
blede
bledy
blesk
bleskem
blesku
blesky
bli
bliz
block
blog
blogu
blok
bloka
blokova
bloku
bloky
blood
blu
bludny
blue
blues
bluesovy
bly
bmw
bne
bni
bo
board
bob
boba
bobby
bobr
bobule
boc
boci
bod
bode
bodech
bodem
bodova
bodovaci
bodove
bodovy
bodu
body
boeing
boha
bohata
bohate
bohatou
bohats
bohatstvi
bohaty
bohdan
bohe
bohem
bohemia
bohemians
bohemica
bohosluz
bohove
bohu
bohumi
bohumil
bohumila
bohus
bohuslav
bohuslava
bohuz
bohy
bohyne
bohyni
bois
boj
boje
bojem
boji
bojis
bojova
bojoval
bojovala
bojovali
bojovat
bojove
bojovni
bojovou
bojovy
boju
bojuje
bojuji
bok
boku
boky
bol
boldsymbol
boleslav
boleslava
boleslavi
bolest
bolesti
bolestne
boletus
boli
bologna
bolon
bols
bomb
bomba
bombarde
bombardova
bombardovaci
bomby
bon
bonaparte
bond
bonifa
bonn
bonnu
bonus
bonusy
book
books
boom
bor
bora
bordeaux
borech
borek
borem
boris
borise
born
borna
borne
borny
borove
borovic
borovice
borovy
bors
borske
borsky
boru
bory
bos
bosa
bosch
bosenske
bosensky
boskovic
boskovice
bosn
bosna
bosne
bosny
boston
bostonu
bot
botanici
botanicka
botanicke
botanicky
botanik
botanika
bottom
boty
bou
bouda
boudy
boulevard
bour
bourbon
box
boxer
boxu
boy
boys
boz
bp
br
bra
brabec
brad
brada
bradech
bradley
bradli
brady
brain
bral
bram
brambor
brambory
brami
bran
branami
brand
brandy
branek
brani
braniborska
braniborske
braniborsko
braniborsky
branka
branku
branky
branne
branou
bras
bratislava
bratislave
bratislavske
bratislavy
bratr
bratra
bratrance
bratrancem
bratranec
bratrem
bratrovi
bratrska
bratrske
bratrstva
bratrstvi
bratrstvo
bratru
bratry
braun
brazi
brazil
brazils
brazilska
brazilske
brazilsky
brdy
bre
break
bretan
brian
bridge
briga
brisbane
bristol
brit
brita
britain
britannica
british
britove
brits
britska
britske
britsko
britskou
britsky
britu
brity
brna
brne
brni
brno
brnou
brny
bro
broadcasting
broadway
brod
brode
brodu
broken
bronz
bronzova
bronzove
bronzovi
bronzovou
bronzovy
bronzu
brooklyn
brooklynu
brooks
bros
brothers
brouc
brouk
brouku
brous
brown
browning
broz
bru
bruce
bruins
bruno
bruns
brunta
brusel
bruselu
bruta
bry
bryan
brz
brzda
brzdy
brzke
brzo
brzy
bs
bsd
bske
bsky
bt
bu
buben
bubenc
bubenec
bubeni
bubny
buc
buch
buchu
bud
budapes
budapest
buddha
buddhismu
buddhismus
buddhisticke
buddhisticky
bude
budeme
budes
budete
budi
budis
buditel
budiz
budou
budouci
budoucna
budoucnost
budoucnosti
budoucnu
budov
budova
budovami
budovat
budove
budovou
budovu
budovy
budu
budys
buenos
buffalo
bugatti
building
bujne
buk
bukove
buku
bukures
buky
bulhars
bulharska
bulharske
bulharsko
bulharsku
bulharsky
bull
bulletin
bulva
bun
bundesliga
bune
bur
bures
burgundske
burian
buriana
burke
burns
burton
burz
burza
burze
bus
bush
business
busta
but
butler
buzna
buzne
buzni
buzny
by
bych
bychom
bydlel
bydlela
bydleli
bydleni
bydli
bydlis
bydz
byl
byla
byli
bylin
bylina
bylinne
byliny
bylo
byly
bys
byste
bystr
bystre
bystrica
bystrici
byt
byte
bytek
bytem
byti
bytku
bytost
bytosti
bytove
bytovy
bytu
byty
byv
byzance
byzantska
byzantske
byzantsky
c
ca
cache
caesar
cafe
calais
calcio
cale
calgary
california
call
cambridge
camera
cameron
camille
camp
campbell
campo
can
canada
canadian
canadiens
cannes
canterbury
canton
canvas
cap
cape
capital
capitals
captain
car
cara
card
care
carex
cargo
carl
carla
carlo
carlos
carmen
carol
carolina
caroline
carroll
cars
carska
carske
carsko
carsku
carsky
carter
cas
casa
case
casey
cash
castle
castro
cat
catalina
catalogue
catherine
catholic
cb
cbs
cc
cca
ccd
cd
cdot
cdu
ce
cech
cechu
ceji
cek
cekra
cel
cela
cele
celek
celkem
celkova
celkove
celkovou
celkovy
celku
celky
cell
celni
celoroc
celosta
celosve
celou
celovec
celoz
cely
cem
cembalo
ceme
cen
cena
cene
ceni
cenina
ceniny
cenne
cenny
ceno
cenou
cenove
censtvi
center
centimetru
centra
central
centre
centrem
centru
centrum
century
cenu
ceny
ceremonia
cero
certifika
certifikaci
cesare
ceskatelevize
cest
cesta
cestami
ceste
cestou
cestova
cestoval
cestovat
cestovatel
cestovatele
cestovni
cestu
cestuji
cesty
cet
ceu
cf
cgi
ch
cha
chaci
chagall
chaj
chaji
chajim
chal
chala
chali
challenge
challenger
chaloupka
chalupa
chalupni
chalupy
champagne
champions
championship
championships
chan
chana
chane
chang
change
channel
chany
chao
chaos
chaosu
chapel
chapelle
chapter
charakter
charakterem
charakteristicka
charakteristicke
charakteristicky
charakteristika
charakteristiky
charakterizova
charakterizuje
charakteru
charitativni
charles
charlese
charlie
charlotte
chart
charty
charva
chase
chat
chata
chatu
chaty
chce
chceme
chces
chcete
chci
che
cheb
chebske
chebu
chelsea
chem
chemical
chemici
chemicka
chemicke
chemickou
chemicky
chemie
chemii
chemik
chemika
chemistry
chen
cheng
cher
chess
chi
chicaga
chicago
chicagu
child
children
chile
chilske
chilsky
chin
china
chinese
ching
chira
chirurg
chirurgicke
chirurgie
chirurgii
chko
chkoli
chl
chla
chladic
chladici
chladne
chladny
chlapce
chlapci
chlapcu
chlapec
chlapi
chlazeni
chlazeny
chle
chleba
chli
chloe
chlorid
chloridu
chlum
chlumec
chlumu
chlupate
chlupy
chmel
cho
chocen
chod
choda
chodba
chodby
chodce
chodcu
chode
chodem
chodi
chodil
chodila
chodili
chodit
chodne
chodni
chodoc
chodolabske
chodone
chodov
chodove
chodu
chody
choice
chomutov
chomutova
chomutove
chopil
chora
choreografie
chorob
choroba
chorobou
choroby
chorvats
chorvatska
chorvatske
chorvatsko
chorvatsku
chorvatsky
chorvatu
chot
chota
chote
choti
chotni
choty
chou
chov
chova
chovaji
choval
chovali
chovat
chove
chovice
chovna
chovne
chovny
chovske
chovu
chovy
chozi
chr
chra
chrabrost
chrana
chrane
chranna
chranne
chranny
chranu
chrany
chris
christ
christian
christiana
christie
christina
christine
christmas
christoph
christopher
chromozomu
chronicke
chronologicke
chronologicky
chronologie
chrudim
chrudimi
chte
chti
chto
chu
chua
chuang
chuck
chuda
chude
chudi
chudoba
chudobe
chudoby
chuds
chudy
chuej
chung
church
churchill
chut
chuti
chva
chvat
chvatu
chve
chvi
chvilku
chy
chyb
chyba
chybe
chybi
chybne
chybou
chybu
chyby
chym
chysta
chystal
chyta
chytil
chytre
chytry
chz
ci
cia
cibule
cidlinou
cie
cihel
cihelna
cihelny
cihla
cihly
cii
cika
cileti
cincinnati
cinema
cio
circle
circuit
cirkus
cis
cistercia
cit
cita
citace
citlive
citlivost
citlivosti
citlivy
citova
citove
citroe
citu
city
ciudad
civil
civilistu
civilizace
civilizaci
civilni
cizi
cizince
cizinci
cizincu
cizine
cizinec
ciziny
cizojazyc
ck
cka
cke
cko
ckou
cku
cky
cl
cla
claire
clam
clanek
clanky
clara
clarence
clark
clarke
class
classic
claude
claudia
claudius
clav
clava
clavem
clavovi
clavske
clavu
cle
cleveland
clinton
close
cloud
club
clubu
cm
cmi
cn
cna
cnb
cne
cni
cnn
cnost
cnosti
cnou
cnu
cny
co
coast
coat
coby
coco
code
codex
cohen
cokoli
cokoliv
col
cold
cole
colin
collection
college
collins
colloredo
color
colorado
colors
colts
columbia
columbus
com
come
comedy
comics
coming
comique
command
commentary
commission
committee
common
commons
commonwealthu
community
company
complete
computer
comte
con
concert
conde
conference
congress
connecticut
connor
conrad
contemporary
content
contest
continental
control
cook
cool
cooper
copa
copak
core
cornelius
corporation
corps
corpus
corte
cos
cosi
costa
council
country
county
coupe
court
cov
cova
cove
cover
coververze
covid
covidu
covky
covy
coz
cp
cpu
cr
craig
crazy
cre
creative
creed
creek
cretaceous
crew
crime
critics
croix
cross
crown
cruz
cry
crystal
cs
csc
csfd
cska
css
ct
cta
cte
cti
ctibor
ctileta
ctilete
ctilety
ctiva
ctka
ctkra
ctnosti
ctou
ctu
ctvi
cty
cu
cukr
cukra
cukrovar
cukrovaru
cukru
cultural
culture
cum
cuni
cup
cupu
currendo
curtis
curych
curychu
cv
cvic
cvik
cvikove
cviku
cvrc
cw
cx
cyklista
cykliste
cyklistice
cyklisticke
cyklisticky
cyklistika
cyklisty
cyklo
cyklotrasa
cyklu
cyklus
cykly
cyril
cyrila
cyrilici
cyrilometode
cz
cze
czech
d
da
dabe
dabing
dac
dachau
daci
dagesta
dagmar
daily
daj
daje
daji
dajne
dajny
daju
dakota
dal
dala
dale
daleka
daleke
daleko
dalekohled
dalekohledu
daleky
dali
dalibor
dallas
dalma
dalo
dals
daly
dam
damas
dame
dami
damu
dan
dana
dance
dane
dani
daniel
daniela
danny
danou
dans
dante
dany
dar
darem
dark
darkgrey
darova
daroval
darth
daru
darwin
dary
das
dat
data
databa
database
datace
date
datech
dateformat
datem
dati
datova
datove
datovy
datu
datuje
datum
daty
dav
dave
david
davida
davidem
davidova
davies
davis
davne
davny
davu
davy
dawn
day
days
db
dba
dc
dce
dcem
dcer
dcera
dcerou
dceru
dcery
dci
dcove
dcu
dd
ddr
de
dead
dean
death
debata
debaty
deblove
deblovy
debut
debutoval
debutovala
debutovalo
debutove
debutu
dec
december
dech
dechem
dechove
dechovy
dechu
decka
decke
decko
deckou
decky
dectvi
dee
deep
default
definic
definice
definici
definitivne
definitivni
definova
definoval
definovane
definovany
definovat
definuje
definuji
degli
dei
dej
dejte
dejvice
dejvici
dek
deka
deklarace
deklaraci
dekorace
dekoraci
dekorativni
dekret
dekretem
dekretu
del
dele
delega
delegace
delegaci
delfi
deli
dell
della
delle
delna
delni
delny
dels
delta
dem
dema
demisi
demo
demografie
demokracie
demokracii
demokrate
demokraticka
demokraticke
demokratickou
demokraticky
demokratu
demolice
demolici
demonstrace
demonstraci
den
deni
denik
denis
denne
denni
dennis
departementu
department
depo
deportova
depozita
deprese
depresi
der
derby
derek
deriva
derivace
deru
dery
des
desa
desce
description
desek
desert
deset
deseti
desetileti
desi
design
designe
designu
desk
deska
deskami
deskou
deskove
desku
desky
destic
destinaci
destiny
det
detail
detailne
detailni
detailu
detaily
detekce
detekci
detektiv
detektivni
detroit
detroitu
deutsch
deutsche
deutschen
deutscher
deutsches
deutschland
deux
deva
devadesa
devatena
deve
development
devi
devil
devils
dexu
dez
dh
dherne
dherny
di
dia
diagno
diagnostika
diagnostikova
diagona
diagram
diagramu
dialekt
dialektu
dialog
dialogu
dialogy
diamant
diamanty
diamond
diana
diane
dic
dice
dicem
dici
dick
dicke
dictionary
dictvi
dicu
die
diece
diego
diem
dies
diesel
diesely
dieter
dietrich
diferencia
digita
digital
dii
dikta
dil
dila
dili
dilli
dilo
dily
dimenze
dimenzi
din
dina
dinamo
dinosaur
dinosaura
dinosauria
dinosaurs
dinosauru
dio
diony
diove
diovy
diplom
diplomacie
diplomat
diplomate
diplomaticke
diplomaticky
diplomova
dir
direct
dirigent
dirigentem
dirigenti
dirty
dis
discipli
disciplina
disco
discogs
discovery
disertac
disk
diskem
diskografie
diskre
diskriminace
diskriminaci
disku
diskuse
diskusi
diskusni
diskuze
diskuzi
diskvalifikova
disky
disney
dispec
displej
disponuje
disponuji
dispozice
dispozici
distribuc
distribuce
distribuci
distribuova
distribution
district
distrikt
distriktu
dit
diti
ditrichs
diu
dium
div
diva
divadel
divadelni
divadla
divadle
divadlech
divadlem
divadlo
divadlu
dive
divi
divis
divisio
division
divize
divizi
divizni
divne
divoc
divoce
divoka
divoke
divokou
divoky
divu
divy
dj
djokovic
dk
dka
dkami
dke
dkem
dkou
dkova
dkove
dkovy
dku
dky
dkyne
dl
dla
dlani
dlant
dlantske
dlaz
dle
dlech
dlem
dlena
dlene
dleni
dleno
dleny
dli
dlil
dlila
dlili
dlilo
dlis
dlo
dlouha
dlouhe
dlouho
dlouhodobe
dlouhodobou
dlouhodoby
dlouholete
dlouholetou
dlouholety
dlouhou
dlouhy
dlouze
dlova
dlu
dluh
dluhu
dluhy
dluz
dly
dm
dmitrij
dna
dne
dnech
dnem
dnes
dni
dno
dnost
dnosti
dnou
dnouci
dnout
dnouti
dnu
dnuta
dnuti
dny
do
dob
doba
dobe
dobes
dobi
doborce
doborcu
doborec
dobou
dobove
dobovy
dobr
dobra
dobre
dobro
dobroc
dobrodruz
dobrou
dobrovolne
dobrovolni
dobrovolny
dobrovsky
dobrus
dobry
dobu
doby
dobyl
dobyla
dobyli
dobyt
dobyta
dobytek
dobyti
dobytka
doc
docela
docent
docentem
docha
dochova
dochoval
dochovala
dochovalo
dochovaly
dochovana
dochovane
dochovany
doci
doctor
doda
dodal
dodala
dodat
dodatec
dodatek
dodavatele
dodenni
dodnes
dodrz
dog
dohled
dohledem
dohledu
dohli
dohod
dohoda
dohode
dohodl
dohodli
dohodou
dohodu
dohody
dohra
dohromady
doi
dojde
dojel
dojela
dojem
doji
dojmem
dojmu
doka
dokazuje
dokazuji
dokla
doklad
dokladem
dokladu
doklady
dokonale
dokonalosti
dokonaly
dokonc
dokonce
doktor
doktora
doktorem
doktorske
doktri
dokud
dokument
dokumenta
dokumentace
dokumentaci
dokumentech
dokumentu
dokumenty
dol
dolar
dolaru
dole
dolech
dolejs
dolet
doleva
dolez
doli
dolina
doline
doliny
dolni
dolnorakouske
dolnoslezske
doloz
dolu
doly
dom
doma
domaci
domaz
dome
domech
domek
domem
domenico
domety
domi
domil
dominantni
dominantou
dominic
dominik
dominika
dominique
domino
dominuje
dominuji
domku
domky
domne
domni
domorodci
domorodcu
domorode
domorody
domosti
domov
domova
domove
domovem
domovni
domovska
domovske
domovsky
domovu
domu
domy
don
dona
donald
donalda
done
donna
donu
donucen
donutil
doom
door
dopa
dopad
dopadl
dopadu
dopady
dopingove
dopis
dopise
dopisu
dopisy
dopln
doplne
doplnil
doplnit
dopoledne
doporuc
doposud
dopous
dopr
doprava
dopravce
dopravci
dopravcu
doprave
dopravni
dopravou
dopravu
dopravy
doprova
doprovod
doprovodem
doprovodne
doprovodny
doprovodu
dopustil
dor
dora
dorazi
dorazil
dorazila
dorazili
dorazily
doroc
dortmund
doru
doruc
dory
dorys
dorysu
dos
dosa
dosah
dosahoval
dosahovala
dosahovat
dosahu
dosahuje
dosahuji
dosavadni
dosaz
dosazeni
dosi
doslov
doslova
doslovne
dospe
dospi
dost
dosta
dostac
dostal
dostala
dostali
dostalo
dostaly
dostane
dostaneme
dostanou
dostat
dostatec
dostatek
dostati
dostave
dostavil
dosti
dostr
dostup
dostupna
dostupne
dostupnost
dostupnosti
dostupny
dosud
dosve
dota
dotace
dotaci
dotaz
dotazu
dotc
doty
dotyc
dou
douard
double
doubrava
doubravy
douci
doufa
doufal
doug
douglas
doupe
dous
dova
dove
dovede
dovedl
dovednosti
dovi
dovnitr
dovola
dovolene
dovoleno
dovolenou
dovolil
dovolit
dovoluje
dovou
dovoz
dovozu
dovrs
dovy
down
doz
dozadu
dozor
dozorc
dozorce
dozra
dozve
dozvi
dp
dph
dr
dra
drac
draci
draftova
draftovani
draftu
dragon
drah
draha
drahanske
drahe
drahomi
drahos
drahy
drak
draka
drake
draku
drama
dramata
dramatic
dramatici
dramaticka
dramaticke
dramaticky
dramatik
dramatu
dramaturg
dramaturgie
dramma
draselny
drasli
dravy
draz
dre
dream
dreams
drem
dres
dresden
dresu
drive
dro
drobna
drobne
drobny
drog
droga
drogy
drove
drovy
drsc
drsne
drsny
drtive
dru
druh
druha
druhdy
druhe
druhem
druholigove
druhotne
druhou
druhove
druhu
druhy
druz
druzi
dry
drz
ds
dska
dske
dskem
dsko
dskou
dsku
dsky
dso
dt
du
dua
dub
duba
dubc
dube
duben
dublin
dublinu
dubna
dubnu
dubove
dubovy
dubrovni
dubu
duby
duch
ducha
duchem
duchove
duchovenstva
duchovni
duchu
duchy
duda
duel
duelu
duet
duka
duke
dukla
dukly
dunaj
dunaje
dunaji
dunajska
duncan
duo
dur
during
dus
dusi
dusic
dute
dutina
dutiny
duty
duz
dva
dvaca
dvacet
dvaceti
dvakra
dvana
dvb
dvd
dve
dver
dvi
dvojc
dvoje
dvojhve
dvoji
dvojic
dvojice
dvojici
dvojite
dvojity
dvojka
dvojna
dvor
dvora
dvorce
dvorci
dvorec
dvorem
dvorni
dvorske
dvorsky
dvoru
dvory
dvou
dvoude
dvoudi
dvouhr
dvouhra
dvouhry
dvoukr
dvoulete
dvoulety
dvoumi
dvouplos
dvousetove
dvoutisi
dvu
dx
dy
dycky
dyje
dyji
dyk
dylan
dynamicke
dynamicky
dynamo
dynastie
dynastii
dyt
dz
e
ea
eagle
earl
early
earth
east
eastern
eb
eba
ebas
ebaz
ebc
ebe
ebec
eben
ebene
ebenem
ebeni
ebenu
ebeny
eber
ebestia
ebi
ebic
ebis
ebitele
ebna
ebne
ebni
ebnic
ebnice
ebnici
ebnou
ebny
ebon
eboni
ebor
eboru
ebou
ebova
eboval
ebovali
ebove
ebr
ebra
ebu
ebudova
ebuje
ebuji
eby
ec
ecce
ece
ecek
ech
echa
echen
echna
echne
echno
echnu
echny
echo
echod
echodem
echodne
echodny
echodu
echody
echoslova
echou
echov
echova
echove
echu
echy
eci
ecka
ecke
ecko
eckokatolicke
eckou
ecku
ecky
eclav
eclavi
economic
economics
ectvi
ed
eda
edal
edala
edat
edbe
edc
edce
edcha
edchozi
edchu
edci
eddie
ede
edehra
edek
edem
eden
edes
edesa
edevs
edgar
edge
edhradi
edi
edic
edice
edici
edil
edila
edinburgh
edinburghu
ediska
ediskem
edisko
edisku
edit
editel
editele
editelem
editeli
editelka
editelkou
editelstvi
edith
edition
editor
edive
edivy
edka
edkem
edkla
edkola
edkole
edkolo
edkova
edkove
edku
edky
edlitavska
edlohou
edlohy
edloz
edme
edmluva
edmonton
edmosti
edmund
edna
edne
ednesl
edni
ednice
ednicke
ednictvi
ednost
ednosta
ednosti
ednostn
ednostne
edny
edo
edoc
edoevropske
edoevropsky
edohor
edojihu
edolabske
edomor
edos
edoseveru
edou
edove
edovy
edoza
edozemni
edpis
edpisu
edpisy
edpokla
edpoklad
edpokladem
edpokladu
edpoklady
edposledni
edpove
edpovi
eds
edseda
edsedal
edsedkyne
edsedkyni
edsednictva
edsednictvi
edsednictvo
edsedou
edsedove
edsedu
edsedy
edsi
edstav
edstava
edstaven
edstavena
edstavene
edstaveni
edstavenstva
edstaveny
edstavil
edstavila
edstavili
edstavit
edstavitel
edstavitele
edstavitelem
edstaviteli
edstavitelu
edstavoval
edstavovala
edstavovalo
edstavovaly
edstavovat
edstavu
edstavuje
edstavuji
edstavy
edsti
edti
edu
eduard
eduarda
education
edurc
edva
edvard
edvarda
edvec
edvedl
edvi
edvolebni
edward
edwarda
edwards
edwin
edy
ee
ef
efekt
efektivne
efektivni
efektu
efekty
effect
efl
egejske
ego
egon
egypt
egypta
egypte
egypts
egyptska
egyptske
egyptsky
eh
eha
ehem
ehke
ehky
ehle
ehled
ehledne
ehledu
ehli
ehna
ehnane
eho
eholni
eholnice
ehor
ehoz
ehr
ehra
ehrad
ehrada
ehrade
ehradni
ehradske
ehrady
ehu
ehy
ein
eindhoven
eine
einer
einstein
eishockey
ej
ejde
eje
ejem
eji
ejka
ejme
ejmenova
ejmenoval
ejmenovala
ejmenovana
ejn
ejna
ejne
ejni
ejnil
ejnila
ejnopra
ejnost
ejnosti
ejnou
ejny
ejov
ejs
eju
ek
eka
ekaji
ekal
ekala
ekali
ekami
ekane
ekat
ekl
ekla
eklad
ekladac
ekladatel
ekladatele
ekladatelka
ekladem
ekladu
eklady
ekli
ekne
eknih
eknu
ekologicke
ekologicky
ekologie
ekona
ekonal
ekonala
ekonat
ekonom
ekonomice
ekonomicka
ekonomicke
ekonomickou
ekonomicky
ekonomie
ekonomii
ekonomika
ekonomiku
ekonomiky
ekonomove
ekosyste
ekou
ekove
ekra
ekrac
ekroc
ekry
eku
ekva
ekvapeni
ekvapive
ekvivalent
ekvivalentni
eky
el
ela
elami
elar
elba
elbe
elbou
elbu
elby
elce
elcem
elci
elcu
ele
elec
elecka
elecke
elecky
electric
electronic
electva
electvo
eled
eledi
elegantni
elek
elektr
elektra
elektricka
elektricke
elektrickou
elektricky
elektromagneticke
elektronicka
elektronicke
elektronicky
elektronika
elektroniky
elektronove
elektronu
elektrony
elektrotechnicke
elem
element
elementa
elementu
elementy
elen
elena
elene
eleni
eleny
eleonora
eleza
elezna
elezne
eleznic
eleznice
eleznici
eleznou
elezny
elezo
elfove
elfu
eli
elia
elias
elice
elike
eliky
elil
elila
elili
elinis
elipticke
elis
elisabeth
elisti
elit
elite
elitni
elizabeth
elka
elkou
elku
elky
ellen
elliott
ellis
elmy
elne
elni
elnice
elnici
elny
elo
elomu
elou
elouc
elova
elove
elovi
elovy
eloz
else
elske
elsky
elst
elstvi
elu
elva
elvy
ely
em
ema
emanuel
emanuela
emble
eme
emen
emeritni
emes
emesel
emesla
emeslni
emeslo
emi
emic
emigrace
emigraci
emigranti
emigroval
emil
emila
emilia
emilie
emily
emira
emise
emisi
emisni
emma
emmanuel
emmy
emoce
emoci
emociona
emos
emoz
empi
empire
ems
emu
emuz
emy
emys
emysl
emysla
emyslovcu
emz
en
ena
enami
enat
enaty
ence
encem
enci
encu
encyclopaedia
encyclopedia
encyklopedie
encyklopedii
end
endemicky
endemity
ene
enec
enechal
energeticke
energeticky
energetiky
energie
energii
energy
enesen
enesena
enesene
eneseni
eneseny
enesl
eneve
eng
engine
engineering
england
english
eni
enic
enice
enich
enicha
enici
enie
enil
enin
enina
eniny
enit
enka
enkla
enko
enku
enky
eno
enos
enosny
enost
enosti
enosu
enou
enov
enove
enovy
ens
enska
enske
ensko
enskou
ensky
enstev
enstva
enstvi
enstvo
enterprise
entertainment
entomolog
enu
environmenta
eny
enzymu
enzymy
eo
eobecna
eobecne
eobecnou
eobecny
ep
epa
epadeni
eparchie
epel
epele
epi
epic
epice
epici
epidemie
epidemii
epis
episode
episu
epizod
epizoda
epizode
epizodu
epizody
eplavec
epln
eplne
epoc
epocha
epos
eposu
epracova
eprava
eprave
epravni
epravu
epravy
eptal
epu
epy
er
era
erb
erbem
erben
erbu
erby
erc
ere
erem
eric
erich
erik
erika
erm
erma
ermi
ermu
erna
erne
ernest
erni
ernice
erno
ernobi
ernohorske
ernohorsky
ernos
ernou
ernst
ernsta
erny
ero
eroti
eroticke
erov
erova
erove
erozde
eroze
erozi
erpa
erpaci
erpadla
erpal
erske
erstve
erstveni
erstvy
ert
ertova
ertu
eru
erupce
erupci
erus
erven
ervena
ervence
ervenci
ervene
ervenec
ervenka
erveno
ervenohne
ervenou
erveny
ervi
ervna
ervnu
erwin
ery
es
esa
esahuje
esahuji
ese
esej
eseje
esejista
esel
eseni
esi
eska
eskala
eske
esko
eskobratrske
eskobude
eskoc
eskomoravska
eskomoravske
eskoslovens
eskoslovenska
eskoslovenske
eskoslovensko
eskoslovenskou
eskoslovensku
eskoslovensky
eskou
esku
esky
esla
eslav
eslo
esme
esna
esne
esnost
esnosti
esnou
esny
eso
espan
essays
essex
est
esta
estal
estala
estali
estalo
estaly
estane
estavba
estavbe
estavbou
estavbu
estavby
estave
este
ester
esterha
esteticke
esteticky
esti
estidenni
estiva
estkra
estmi
estna
estne
estni
estny
esto
estonska
estonske
estonsko
estonsku
estonsky
estou
estoupil
estoz
estr
estranne
estup
estupni
estupu
esty
esu
esun
esunout
esunu
esunul
esunula
esunuli
esunut
esunuta
esve
esy
et
eta
etap
etapa
etape
etapu
etapy
etc
ete
etelne
etelny
etem
eti
etice
eticke
eticky
etika
etin
etina
etine
etinu
etiny
etiopie
etiopii
etiopske
etislav
etl
etla
etli
etna
etne
etni
etnicka
etnicke
etnicky
etnictvi
etnika
etnost
etnosti
etnou
etnuti
etny
etr
etrva
etrz
etu
etvor
ety
etymologie
eu
euge
eugen
eugene
eur
eura
euro
eurofotbal
europa
europe
european
eurovision
euweb
ev
eva
evahou
evahu
evakuaci
evakuova
evangeli
evangelia
evangelicka
evangelicke
evangelicky
evangelista
evangelisty
evangelium
evans
evar
evaz
evc
eve
eveden
evedena
evedeni
evedeny
evedl
evelen
evem
event
events
ever
everything
evezen
evi
evic
evicke
evidenc
evidence
evidenci
evidova
eviku
evil
evin
evina
eviny
evla
evnate
evne
evni
evo
evod
evodni
evodovka
evodu
evoluc
evoluce
evolution
evor
evra
evrat
evratu
evropa
evropanu
evrope
evropou
evropska
evropske
evropskou
evropsky
evropu
evropy
evu
evy
evys
evz
evzal
evzala
evzali
evzalo
evzaly
evzata
evzaty
evzeti
evzi
ex
example
excurrendo
exempla
exhibition
exilove
exilu
existence
existenci
existoval
existovala
existovalo
existovaly
existovat
existuje
existuji
exit
exkluzivni
expanze
expanzi
expedic
expedice
expedici
experiment
experimenta
experimentu
experimenty
expert
explorer
exploze
explozi
expo
expona
export
exportni
expozic
expozice
expozici
express
extended
exterie
externi
extra
extraliga
extraligy
extralize
extre
exulanti
eye
eyes
ez
eza
ezba
ezdi
ezem
ezen
ezi
ezina
ezkouma
ezna
ezne
ezni
eznice
ezno
eznu
ezova
ezove
ezu
ezy
f
fa
fabia
fabio
fac
face
facebook
facebooku
facto
factor
factory
fair
faith
fakt
fakta
faktech
fakticky
faktor
faktorem
faktoru
faktory
faktu
fakult
fakulta
fakulte
fakultni
fakultu
fakulty
falcke
falcon
fales
fall
falls
false
fame
family
famu
fan
fanous
fantasticke
fantasticky
fantasy
fantazie
far
fara
farma
farme
farmy
farni
farnost
farnosti
faru
fary
fas
fasa
fast
fat
fata
father
fatra
fauna
fauny
faust
favorit
fb
fbi
fc
fdb
fe
fear
feat
featuring
february
fed
federa
federace
federaci
federation
federativni
federer
federico
feel
felix
felixe
fem
feng
fenome
fer
ferdinand
ferdinanda
ferdinandem
ferenc
ferna
fernando
ferrari
festival
festivalech
festivalu
festivaly
feuda
ff
fi
fia
fiala
fialova
fialove
fialovy
fiat
fiba
fiction
fide
fidz
field
fifa
figur
figura
figury
fiktivni
filadelfii
file
files
filharmonie
filharmonii
filia
filip
filipa
filipem
filipi
film
filmar
filmech
filmem
filmografie
filmova
filmove
filmovi
filmovou
filmovy
films
filmu
filmy
filolog
filosof
filosoficke
filosoficky
filosofie
filosofii
filozof
filozoficka
filozoficke
filozoficky
filozofie
filozofii
filozofove
filtr
filtru
filtry
fin
fina
final
finalista
finalistka
finals
financ
finance
financi
financial
financova
find
fine
fins
finska
finske
finsko
finsku
finsky
fire
firem
firemni
firma
firme
firmou
firmu
firmy
first
fis
fischer
fish
fisher
fiska
five
fjodor
fk
fl
fla
flag
flames
flash
fle
flight
flo
flora
florbal
florence
florencie
florencii
floria
florian
florida
floride
flotila
flotilu
flotily
flow
floyd
fly
flyers
flying
fm
fn
fni
fo
focus
fojti
fokker
folk
folklo
fond
fondu
fondy
fonta
fontsize
food
football
footballdatabase
for
forall
forbes
force
ford
foreign
forem
forest
forever
forma
formace
formaci
format
formation
forme
formou
formova
formu
formula
formule
formuli
formy
fort
fortuna
forum
fosfa
fosilie
fosilni
foster
fotbal
fotbale
fotbalem
fotbalista
fotbaliste
fotbalistou
fotbalistu
fotbalova
fotbalove
fotbalovi
fotbalovou
fotbalovy
fotbalu
foto
fotoapara
fotogalerie
fotograf
fotografa
fotografek
fotografem
fotograficka
fotograficke
fotografickou
fotograficky
fotografie
fotografiemi
fotografii
fotografka
fotografova
fotografoval
fotografove
fotografu
fotoz
foundation
four
fox
fr
fra
frac
fragment
fragmenty
frakce
frakci
framework
franc
france
frances
francesca
francesco
francie
francii
francis
francisca
francisco
franciscu
franco
francouz
francouze
francouzi
francouzs
francouzska
francouzske
francouzsko
francouzskou
francouzsky
francouzu
frank
franka
frankfurt
frankfurtu
franklin
franku
frans
franske
frant
frantis
franz
franze
fras
fre
fred
fredaktor
fredaktorem
frederick
frederik
frederika
free
freedom
fregata
fregaty
freiburg
frekvenc
frekvence
frekvenci
french
frens
freska
fresky
freud
fri
fric
fridrich
fridricha
fridrichem
friedrich
friedricha
friends
fritz
fro
from
front
fronta
fronte
frontu
fronty
fru
fry
frys
fs
ft
fu
fuc
fuchs
full
fungova
fungoval
fungovala
fungovalo
fungovat
funguje
funguji
funk
funkc
funkce
funkci
funkciona
futbal
future
fußball
fw
fy
fyzice
fyzici
fyzicka
fyzicke
fyzickou
fyzicky
fyzik
fyzika
fyziku
fyziky
fyziologie
fyziologii
g
ga
gabriel
gabriela
gala
galaxie
galaxii
galaxy
gale
galerie
galerii
galie
galil
galilea
galileji
galileo
gallery
gama
gambrinus
game
games
gamma
gamu
gang
gangu
gara
garci
garcia
garda
garden
gardens
gardy
garrigua
garrigue
gary
gas
gaston
gate
gay
gaz
gazetteer
gazy
gb
gc
gdan
ge
gehrels
gel
gen
gender
genderove
gene
genealogie
genealogy
genera
generace
generaci
general
generation
generova
genesis
geneticke
geneticky
genia
genomu
genu
geny
geograf
geograficka
geograficke
geograficky
geografie
geolog
geologicka
geologicke
geologicky
geologie
geometricke
geometricky
geometrie
geometrii
geomorfologicke
geomorfologicky
geopark
georg
georga
george
georgem
georges
georgia
georgie
georgii
ger
gerald
gerard
gerhard
germa
germain
german
germany
geschichte
gesellschaft
gestapa
gestapem
gestapo
get
ghetta
ghetto
ghost
ghz
gi
giacomo
giant
gibson
gif
gil
gilbert
gilles
giorgio
giovanni
girl
girls
giro
giuseppe
giv
gl
glasgow
glass
glen
glenn
gliwice
glo
globa
global
gloria
glu
gluko
gm
gmbh
gmina
gminy
gnome
gnu
go
goa
goc
god
goes
goethe
gold
golden
golf
gone
gonza
good
google
gordon
got
gotha
goticka
goticke
gotickou
goticky
gotiky
gott
gottfried
gottwalda
gottwaldov
gov
government
gp
gps
gr
gra
grace
grada
graf
grafici
graficka
graficke
graficky
grafik
grafika
grafiku
grafiky
grafu
graham
gramatika
gramatiky
grammy
gramu
gran
grana
grand
grande
grandslam
grandslamove
grandslamovy
grandslamu
grant
graubu
gravitac
gravitace
gray
graz
gre
great
greatest
green
greenpeace
greg
gregor
gregoria
gregory
grey
gridcolor
gro
groeneveld
gros
gross
ground
group
grove
gru
grupa
gruzi
gruzie
gruzii
gs
gsm
gt
gu
guardian
gubernie
gue
guez
guide
guido
guillaume
guinea
guineji
guitar
gun
guns
gus
gusta
gustav
gustava
gustave
gut
guverne
guvernora
guy
gy
gymna
gymnasium
gyo
h
ha
haag
haagu
haas
habilitoval
habru
habsburkove
habsburku
habsburska
habsburske
habsbursko
habsbursky
hac
haci
had
hada
hadi
hadne
hadria
hadu
hady
hadz
haify
haiti
haji
hajny
hal
hala
hale
haleakala
half
hali
halic
hall
halle
halo
halove
halovy
hals
haly
ham
hama
hamburg
hamburk
hamburku
hamilton
hamlet
hammer
hampshire
hamr
hamry
hamu
han
hana
hand
handbook
handbuch
hane
hanga
hannah
hannibal
hannover
hannoveru
hans
hanse
hansen
hanus
hany
happy
har
harald
harbor
hard
hardware
hardy
hare
harmonicke
harmonicky
harmonie
harmonii
harmonika
harold
harper
harris
harrison
harry
harryho
hart
harvard
harvey
has
hasic
hat
hati
hattrick
haus
haute
hauts
hava
havarijni
havaroval
have
havel
havelka
havi
havilland
havla
havli
havra
havy
hawk
hawker
hbo
hc
hd
hdp
he
head
health
heart
heat
heather
heaven
heavy
hebrejs
hebrejske
hebrejsky
hedva
hedvika
heidelberg
height
heinrich
heinricha
heinz
hej
hejt
hejtm
hejtman
hejtmana
hejtmanem
hejtmanstvi
hektaru
hel
hele
helen
helena
heleny
helikopte
hell
hello
helmut
helni
helsinka
helsinky
hem
hen
henri
henrik
henry
henryho
henryk
her
herbert
herce
hercegovina
hercegovine
hercegoviny
hercem
herci
hercu
here
herec
herecka
herecke
hereckou
herecky
herectvi
heritage
herman
hermann
herni
hero
heroes
hers
herschel
hesel
hesensko
hesla
heslem
heslo
het
heterosexua
hev
hey
heydricha
hezke
hezky
hf
hg
hi
hierarchie
hierarchii
hierarchy
high
highway
hill
hills
hima
hip
hir
hiros
his
hispa
histoire
historia
historic
historical
historici
historicka
historicke
historicko
historickou
historicky
historie
historii
historik
historika
historikove
historiku
historiky
historiografie
history
hit
hitem
hitler
hitlera
hitpara
hits
hitu
hity
hiv
hk
hl
hla
hlad
hladce
hladem
hladi
hladina
hladine
hladinou
hladinu
hladiny
hladka
hladke
hladky
hladove
hlas
hlasem
hlasite
hlasity
hlasova
hlasovaci
hlasovalo
hlasove
hlasovy
hlasu
hlasy
hlav
hlava
hlavami
hlave
hlavic
hlavice
hlavici
hlavn
hlavne
hlavni
hlavou
hlavu
hlavy
hle
hled
hleda
hledaji
hledal
hledala
hledali
hledat
hlede
hledem
hledi
hledis
hlediska
hledne
hledny
hledu
hledy
hlejs
hlem
hli
hline
hlini
hlinka
hlo
hlou
hloubce
hloube
hloubi
hloubka
hloubku
hloubky
hloupe
hlu
hlubin
hlubinny
hluboc
hluboce
hluboka
hluboke
hluboko
hlubokou
hluboky
hlubs
hluc
hluk
hluku
hlus
hly
hm
hmen
hmot
hmota
hmotne
hmotnost
hmotnosti
hmotnostni
hmotny
hmotu
hmoty
hms
hmyz
hmyzem
hmyzu
hn
hna
hnaci
hne
hned
hni
hnou
hnouci
hnout
hnouti
hnu
hnul
hnuti
ho
hoboj
hoch
hochu
hockey
hockeydb
hod
hoda
hode
hodi
hodil
hodin
hodina
hodinami
hodine
hodinek
hodinky
hodinove
hodinovy
hodinu
hodiny
hodla
hodlal
hodna
hodne
hodnoceni
hodnoceny
hodnost
hodnosta
hodnosti
hodnot
hodnota
hodnotami
hodnote
hodnoti
hodnotou
hodnotu
hodnoty
hodnou
hodny
hodoni
hodou
hodu
hody
hof
hoffmann
hohenlohe
hojne
hojnost
hojny
hokej
hokeje
hokeji
hokejista
hokejiste
hokejova
hokejove
hokejovi
hokejovy
hokoli
hokoliv
hola
holandska
holandske
holandsky
holc
hold
holding
hole
holec
holes
holi
holic
holka
holky
holland
hollar
holly
hollywood
hollywoodu
holmes
holocaust
holocaustu
holokaustu
hols
holt
holub
holuba
holubi
holubu
holy
hom
home
homer
homera
homo
homogenni
homosexua
homosexualita
homosexuality
hon
honda
honem
hong
hongkong
hongkongu
honic
honora
honore
honu
hony
honza
honzi
hood
hop
hope
hopkins
hor
hora
horami
horaz
horec
horizont
horizonta
horizontu
horka
horke
horky
horlive
horlivy
hormonu
horn
horna
hornatina
hornet
horni
hornicke
hornictvi
hornin
hornina
horniny
hornosa
horolezci
horolezec
horolezecke
horolezecky
horolezectvi
hororove
hororu
horou
hors
horse
horska
horske
horsky
horst
horu
horva
hory
hos
hosa
hosi
hospital
hospitalizova
hospoda
hospodar
hospode
hospodin
hospodina
hospodine
hospodinu
hospody
hospodyne
host
hosta
hoste
hostem
hosti
hostince
hostinci
hostinec
hostinsky
hostitele
hostitelske
hostivar
hostova
hostoval
hostu
hostuji
hosty
hot
hotel
hotelu
hotely
hotenstvi
hotne
hotov
hotova
hotove
hotovosti
hotovy
hou
houba
houby
hous
house
housenky
housle
houslista
houston
houstonu
houten
houz
hova
hoval
hovala
hovalci
hovalcu
hovali
hovalo
hovat
hove
hovor
hovorove
hovoru
hovory
hovy
how
howard
hoz
hp
hr
hra
hrabat
hrabata
hrabe
hrabstvi
hrac
hraci
hrad
hrada
hradba
hradbami
hradby
hradc
hradce
hradci
hrade
hradeb
hradebni
hradec
hradecka
hradecke
hradecky
hradem
hradis
hradisko
hradne
hradni
hradou
hradu
hrady
hraje
hraji
hrami
hrana
hrane
hrani
hranic
hranice
hranicemi
hranici
hranolova
hrany
hrde
hrdelni
hrdina
hrdinou
hrdinove
hrdinstvi
hrdinu
hrdiny
hrdla
hrdlic
hrdlo
hrdy
hren
hrer
hrivna
hrn
hrnc
hrnem
hrob
hrobce
hrobe
hrobek
hrobka
hrobku
hrobky
hrobni
hrobu
hroby
hroma
hromada
hromade
hromadne
hromadny
hrou
hrozba
hrozbou
hrozbu
hrozby
hrozi
hrozil
hrozilo
hrozne
hroznu
hrozny
hrsg
hru
hruba
hrube
hruby
hrud
hrudi
hrudni
hrus
hry
hs
htm
html
http
https
hu
hub
huba
hubert
huc
hudba
hudbe
hudbou
hudbu
hudby
hudebne
hudebni
hudec
hudson
huga
hugh
hughes
hugo
huje
human
humanita
humanitni
humenne
humor
humoru
hun
hunt
hunter
hurika
hus
husa
husi
husite
husitska
husitske
husitsky
husitstvi
husitu
husova
husta
huste
hustopec
hustota
hustotu
hustoty
hustou
husty
husu
husy
hut
hute
huti
hutni
hve
hvi
hy
hybnosti
hybridni
hyde
hydraulicky
hydropla
hymna
hymnu
hymny
hynek
hynka
hypote
hz
hzds
i
ia
iaaf
ian
iang
iangu
iar
iau
ib
iba
ibe
ibi
ibli
ibliz
ibm
ibn
iby
ibyl
ibyla
ibylo
ibyly
ic
ica
ice
icemi
icet
iceti
icetileta
icetilete
ich
icha
ichem
ichni
icho
ichov
ichova
ichove
ichovi
ichovice
ichu
ichy
ici
icka
icke
ickni
icky
id
ida
idal
idala
idali
idat
idc
ide
idea
ideje
ideji
idenice
identifika
identifikac
identifikace
identifikaci
identifikova
identifikovat
identita
identitu
identity
ideologicky
ideologie
ideologii
idic
idla
idle
idli
idlic
idlice
idlo
idnes
idol
idovs
idovska
idovske
idovskou
idovsky
idruz
idrz
ids
idu
idy
ie
iec
ieee
ien
if
ifrova
igna
ignaz
igor
ih
iha
ihla
ihle
ihli
ihned
iho
ihodilo
ihra
ii
iihf
iii
ij
ija
ijal
ijala
ijali
ijalo
ijat
ijata
ijate
ijatelne
ijato
ijaty
ijde
ijdou
ije
ijel
ijela
ijeli
ijeme
ijeti
iji
ijme
ijmout
ijni
ik
ika
ikem
ikista
ikko
ikl
ikla
ikmo
ikony
ikova
ikra
ikroc
iku
iky
il
ila
ile
ilega
ilehle
ilehly
ilejs
ilete
ili
ilina
iline
ilinske
ilis
ilja
iljic
illinois
ilo
ilova
iloz
ilustra
ilustrace
ilustracemi
ilustraci
ilustroval
iluze
iluzi
ily
im
ima
image
images
imagesize
imdb
ime
imek
imem
img
imi
imigrantu
iml
imne
imon
imona
imov
impact
impaktni
impe
imperia
imperial
implementace
implementaci
implementova
impuls
imske
imu
imunitni
imunity
imy
in
ina
inami
inc
ince
inci
incident
incidentu
increment
incu
indela
independent
index
indexu
india
indian
indiana
indianapolis
indic
indicka
indicke
indicky
indie
indii
indika
individua
indoc
indone
indukc
industria
industrial
industries
ine
inec
inech
inejmens
inek
inem
inese
inesl
inesla
inesli
ineslo
inesly
infarkt
infekc
infekce
infekci
inflace
info
informac
informace
informacemi
informaci
informatice
informatika
informatiky
information
informova
informoval
informovat
informuje
infrac
infrastruktura
infrastruktury
infty
ing
ingrid
ini
inicia
iniciativa
iniciativu
iniciativy
inicioval
inidla
inidlo
inil
inila
inili
inilo
inily
init
initel
initele
initelu
initi
inka
inkem
inkova
inkoval
inkovala
inku
inkuji
inky
inn
inna
inne
innost
innosti
innou
innsbruck
innsbrucku
inny
ino
inoherni
inohry
inou
inova
inovace
inovaci
inovativni
inove
inovy
ins
inscenace
inscenaci
insee
inside
insignie
inske
insky
insolvenc
inspekce
inspektor
inspektora
inspirace
inspiraci
inspirova
inspiroval
inspirovala
inspirovane
inspirovany
instalace
instalaci
instalova
instance
instanci
instituce
institucemi
instituci
instituciona
institut
institute
institutu
instrukce
instrukci
instruktor
instrumenta
int
integra
integrace
integraci
integrova
integrovane
integrovany
intel
intelektua
inteligence
inteligenci
inteligentni
intelligence
intenzita
intenzity
intenzivne
intenzivni
inter
interactive
interakce
interakci
interaktivni
interface
interie
interkontinenta
interna
internaciona
international
internationale
internet
internetova
internetove
internetovy
internetu
interni
internova
interpret
interpretace
interpretaci
interpretova
interpretu
interu
interval
intervalech
intervalu
intervence
intervenci
interview
intimni
into
introduction
inu
invalidni
invaze
invazi
invazni
inventa
investic
investice
investici
investor
iny
inz
inzera
io
ion
iontu
ionty
ios
iowa
ip
ipada
ipadl
ipadla
ipadlo
ipadly
ipevne
iphone
ipisova
ipisuje
ipka
ipky
ipojen
ipojena
ipojene
ipojeni
ipojeno
ipojeny
ipoji
ipojil
ipojila
ipojili
ipojit
ipojuje
ipomi
ipomne
ipous
ipraven
ipravena
ipravene
ipraveni
ipraveno
ipraveny
ipravi
ipravil
ipravila
ipravili
ipravit
ipravova
ipravoval
ipravovala
ipravovane
ipravovat
ipravuje
ipravuji
ipsal
ipsala
ipu
ir
ira
ire
ireland
irena
irina
iris
iro
iroce
iroka
iroke
irokou
iroky
iron
irovna
irozena
irozene
irozenosti
irozenou
irozeny
irs
irska
irske
irsko
irsku
irsky
iru
iry
is
isa
isaac
isabela
isabely
isbn
ise
isedle
isek
iska
isko
isla
island
islands
islandske
islandsky
islandu
isli
ismu
iso
ispe
ispi
isport
israel
iss
issn
issue
ist
ista
istanbul
istanbulu
istave
iste
isti
isticke
isticky
istit
istoty
istou
istoupil
istva
isty
isve
it
ita
ital
italia
italie
italii
italove
itals
italska
italske
italskou
italsky
italy
itaz
ite
itec
itek
itel
itele
itelem
iteli
itelka
itelkou
itelky
itelna
itelne
itelni
itelnost
itelnosti
itelnou
itelny
itelske
itelsky
itelstvi
itelu
itf
iti
itkove
itku
itky
itne
itni
itnosti
ito
itom
itost
itostech
itosti
itostne
itostny
itou
its
itu
itunes
ity
iu
iucn
ius
iv
iva
ivan
ivana
ivanc
ivanem
ivanov
ivanovic
ivatel
ivatele
ivatelem
ivateli
ivatelske
ivatelsky
ivatelu
ive
ivedl
ivedla
ivelni
iven
iveni
iveta
ivezl
ivi
ivil
ivili
ivin
iviny
ivit
ivka
ivky
ivlu
ivna
ivne
ivnice
ivnostenske
ivnostensky
ivnosti
ivnostni
ivny
ivo
ivobyti
ivoc
ivoj
ivokla
ivost
ivosti
ivot
ivota
ivote
ivotech
ivotem
ivoti
ivotne
ivotni
ivotnost
ivotnosti
ivotopis
ivotopisne
ivotopisu
ivotopisy
ivotu
ivoty
ivou
ivs
ivu
ivy
ix
iz
iza
izna
iznal
izolac
izolace
izolaci
izolova
izolovane
izolovany
izotopu
izova
izoval
izovat
izpu
izrael
izraele
izraelem
izraeli
izraels
izraelska
izraelske
izraelskou
izraelsky
izuje
j
ja
jablka
jablko
jablon
jablonce
jablonci
jablonec
jablonne
jack
jacka
jackie
jackson
jacob
jacques
jader
jaderna
jaderne
jadernou
jaderny
jaderske
jagellonske
jaguar
jahre
jak
jaka
jake
jakkoli
jakkoliv
jakmile
jako
jakob
jakoby
jakosti
jakou
jakoukoli
jakoukoliv
jakousi
jakoz
jaksi
jakub
jakuba
jaky
jakz
jal
jam
james
jamese
jamesem
jamie
jamu
jan
jana
janc
janda
jane
janec
janeiro
janem
janet
jang
jani
janko
jankovic
janous
janov
janova
janove
janovi
janovice
janu
january
jany
japan
japanese
japonci
japons
japonska
japonske
japonskem
japonsko
japonskou
japonsku
japonsky
jar
jara
jarmila
jarni
jaro
jaroli
jarome
jaromi
jaros
jaroslav
jaroslava
jaroslavem
jas
jasan
jasna
jasne
jasnost
jasnou
jasny
jason
jater
jaterni
java
javor
javorni
jawa
jay
jazyce
jazyci
jazyk
jazyka
jazykem
jazykova
jazykove
jazykovy
jazyku
jazyky
jazz
jazzove
jazzovi
jazzovy
jazzu
jc
jce
jcem
jci
jcu
jde
jdeme
jdi
jdou
jdouci
jdu
jdz
je
jean
jeana
jeanne
jec
jeci
jed
jede
jeden
jedena
jedenkra
jedi
jedina
jedince
jedinci
jedincu
jedine
jedinec
jedinou
jediny
jedle
jedli
jedlic
jedna
jednaci
jednaji
jednak
jednal
jednalo
jednat
jedne
jedni
jednic
jedno
jednoducha
jednoduche
jednoduchou
jednoduchy
jednodus
jednoho
jednolodni
jednom
jednomi
jednomu
jednora
jednosme
jednostranne
jednota
jednotce
jednote
jednotek
jednotka
jednotkami
jednotkou
jednotku
jednotky
jednotliva
jednotlivce
jednotlivci
jednotlivcu
jednotlive
jednotlivi
jednotlivy
jednotna
jednotne
jednotnou
jednotny
jednotu
jednoty
jednou
jednoznac
jednu
jedny
jedouci
jedovate
jedovaty
jedu
jeff
jefferson
jeffrey
jehlic
jehlice
jehly
jeho
jehoz
jehuda
jej
jeji
jejich
jejichz
jejz
jek
jekate
jel
jela
jelen
jelena
jeleni
jeli
jelikoz
jelo
jely
jem
jemce
jemci
jemcu
jemenu
jemna
jemne
jemni
jemnice
jemnosti
jemnou
jemny
jemu
jemuz
jen
jena
jene
jeni
jennifer
jenny
jeno
jenom
jens
jensen
jeny
jenz
jepis
jeptis
jer
jeremy
jerony
jerry
jersey
jerusalem
jeruzale
jerzy
jes
jeseni
jesenice
jeskyne
jeskyni
jeskynni
jesse
jessica
jest
jestli
jestliz
jestr
jesu
jesus
jet
jetr
jev
jevem
jevgenij
jevi
jevis
jevu
jevy
jewish
jez
jezd
jezdce
jezdcem
jezdci
jezdcu
jezdec
jezdecke
jezdecky
jezdem
jezdi
jezdil
jezdila
jezdily
jezdit
jezdni
jezdu
jezdy
jezer
jezera
jezerem
jezerni
jezero
jezeru
jezi
jezu
jezuite
jezuitske
jezuitsky
jezuitu
jf
jfk
jg
ji
jic
jicchak
jich
jichz
jih
jihlava
jihlave
jihlavske
jihlavy
jihoafricka
jihoafricke
jihoafricky
jihoamericky
jihoc
jihokorejske
jihomoravske
jihomoravsky
jihovy
jihoza
jihu
jil
jila
jilemnice
jili
jilji
jilo
jily
jim
jimec
jimi
jimiz
jimkou
jimku
jimky
jimmy
jimz
jin
jina
jinak
jinam
jinami
jinde
jindr
jindra
jindy
jine
jing
jini
jinoch
jinonice
jinou
jiny
jir
jira
jis
jiskra
jisra
jista
jiste
jistotou
jistotu
jistou
jisty
jit
jitka
jitr
jitra
jiz
jizerou
jizerske
jizersky
jka
jky
jm
jme
jmem
jmen
jmena
jmeni
jmeno
jmenova
jmenoval
jmenovala
jmenovane
jmenovany
jmenovat
jmenovite
jmenuje
jmenuji
jmove
jmovy
jmu
jmy
jna
jne
jnice
jnove
jnu
jny
jo
joa
joachim
joan
joe
joel
joey
johan
johana
johann
johanna
johannes
johansson
john
johna
johnem
johnny
johnson
jon
jona
jonas
jonathan
jones
jorda
jordan
jorge
jos
jose
josef
josefa
josefem
josefi
josefu
joseph
josepha
josh
joshua
jou
journal
journey
jov
jova
jove
jovic
jovice
jovici
jovicka
jovicke
jovicky
jovsky
jovy
joy
joyce
joz
jozef
jozefa
jpeg
jpg
jr
js
jsa
jsdh
jse
jsem
jsi
jska
jske
jsme
jsou
jsouc
jsouce
jste
jstvi
jte
ju
juan
juana
jubilejni
juda
judaismu
judaismus
judista
judiste
judith
judo
judoinside
judr
judu
judy
jugosla
jules
julia
julian
julie
julien
julii
julius
july
jump
jun
juna
june
jung
junior
juniorek
juniors
juniorska
juniorske
juniorsky
junioru
junkers
jupiter
jupiteru
jur
jura
juraj
jurassic
jurij
jurisdikci
jury
jus
just
justic
justice
justify
justin
justinia
jut
juventus
juventusu
juz
jv
jz
jzd
k
ka
kaba
kabel
kabelu
kabina
kabinet
kabinetu
kabiny
kac
kaci
kadan
kadani
kader
kadlec
kafka
kai
kaiser
kajeta
kaji
kal
kala
kalenda
kalhoty
kali
kalich
kalifornie
kalifornii
kalifornske
kalina
kalis
kalo
kalva
kaly
kam
kamara
kambodz
kamc
kamen
kamene
kamenem
kameni
kamenice
kamenici
kamenicke
kamenicky
kamenna
kamenne
kamennou
kamenny
kamenu
kameny
kamer
kamera
kameraman
kamerou
kameru
kamery
kami
kamil
kamila
kampa
kampan
kampane
kampani
kamufla
kamy
kan
kana
kanad
kanada
kanade
kanads
kanadska
kanadske
kanadsky
kanady
kanalizace
kancela
kanciona
kancle
kandida
kandidaturu
kandidoval
kandidovala
kandidovat
kane
kanem
kani
kano
kanonicke
kanovni
kansas
kanstvi
kant
kanta
kanton
kantonu
kantor
kao
kap
kapacita
kapacitou
kapacitu
kapacity
kapalina
kapaliny
kapalne
kapel
kapela
kapele
kapelni
kapelou
kapelu
kapely
kapesni
kapita
kapitalismu
kapitol
kapitola
kapitole
kapitolu
kapitoly
kapitula
kapitulace
kapitulaci
kapitulni
kapituly
kapky
kaplan
kaple
kapli
kaplic
kapsy
kapuci
kar
kara
karante
karas
karate
karbura
karcinom
kardina
karel
karen
karet
karibiku
karibske
karie
karin
karl
karla
karlem
karli
karlo
karlova
karlovarske
karlovarsky
karlove
karlovi
karlovy
karls
karlsruhe
karlu
karmel
karmelita
karol
karoli
karolina
karolinum
karosa
karoserie
karoserii
karpat
karpatech
karpaty
karta
karte
kartu
kartus
karty
karvina
karvine
kas
kasa
kaska
kaspicke
kassel
kastilske
kastilsky
kat
kata
katala
katalog
katalogu
katalogy
katalyza
kataru
katastr
katastra
katastrofa
katastrofy
katastru
kate
katedr
katedra
katedry
kategorie
kategorii
kater
kati
katie
katol
katoli
katolic
katolicka
katolicke
katolickou
katolicky
katolictvi
katy
kauc
kauza
kauze
kauzy
kava
kavali
kave
kavka
kavkaz
kavkazu
kaz
kazachsta
kazan
kazas
kazatel
kazatele
kazatelna
kazem
kazimi
kazimierz
kazni
kazu
kazy
kb
kc
kd
kde
kdejs
kdesi
kdez
kdo
kdoz
kdu
kdy
kdyby
kdybych
kdybychom
kdybys
kdykoli
kdykoliv
kdysi
kdyz
ke
keith
kej
keller
kelly
keltske
keltsky
kem
ken
kena
kend
kendu
keni
kennedy
kennedyho
kenneth
kenny
kent
kentu
kentucky
ker
kera
keramicke
keramicky
keramika
keramiky
kere
kerou
kery
kety
kevin
key
kez
kf
kfar
kg
khl
khz
ki
kib
kibuc
kibucu
kid
kids
kill
kilogramu
kilometr
kilometru
kilometry
kim
kin
kina
kinech
kinematografie
king
kingdom
kings
kino
kinsky
kirche
kirjat
kirk
kis
kiss
kista
kit
kitt
kjo
kju
kk
kke
kky
kl
kla
klad
klade
kladech
kladem
kladen
kladeni
kladenske
kladi
kladivo
kladl
kladna
kladne
kladni
kladno
kladnou
kladnu
kladny
kladou
kladove
kladovy
kladu
klady
klan
klane
klanu
klarinet
klasicismu
klasicistni
klasicka
klasicke
klasickou
klasicky
klasifikace
klasifikaci
klasifikova
klatovech
klatovy
klaus
klause
klavi
kle
klec
kleci
klein
klement
klementa
klenba
klenbou
klenbu
klenby
klenkova
klenku
klenoty
kles
klesa
klesaji
klesl
klesla
klet
kli
klic
klid
klidne
klidny
klidu
klient
klienta
klientu
klienty
klima
klimaticke
klimaticky
klimatu
kliment
klimenta
klimes
klinicke
klinicky
klinika
kliniky
klip
klobouk
klobouku
klobouky
klokoc
klon
klonnost
kloubu
klub
klubech
klubem
klubova
klubove
klubovy
klubu
kluby
kluc
kluci
kluk
klusa
kluza
km
kmen
kmene
kmenem
kmeni
kmenove
kmenovy
kmenu
kmeny
kmitoc
kmotr
kn
kna
kne
kneset
knesetu
kni
knight
knights
knih
kniha
knihkupectvi
knihou
knihoven
knihovna
knihovne
knihovni
knihovnou
knihovnu
knihovny
knihu
knihy
kniz
knize
kno
knofli
knou
know
kny
ko
koalic
koalice
koalici
kobayashi
kobra
koc
koch
kocour
kod
koda
kodan
kodani
kode
kodex
kodexu
kodi
kodil
kodit
kodlive
kodlivy
kodne
kodu
kody
koeficient
kognitivni
koho
kohout
kojeti
kokor
kol
kola
kole
kolec
kolech
kolega
kolegia
kolegou
kolegove
kolegu
kolegy
kolej
koleje
koleji
kolejis
kolejnice
kolejova
kolejovy
kolekce
kolekci
kolektiv
kolektivni
kolem
kolena
koleni
koli
kolik
kolika
kolikana
kolikra
koliv
kolizi
kolka
kolky
kolla
kolme
kolmo
kolni
kolo
kolobe
kolona
kolonia
kolonie
kolonii
kolonizace
kolonizaci
kolou
kolove
kolovrat
kolowrat
kols
kolska
kolske
kolsky
kolstvi
kolu
kolumbie
kolumbii
kolumbijske
koly
kom
koma
komande
kombinace
kombinaci
kombinovane
kombinuje
kombinuji
komedia
komedie
komedii
komenske
komensky
komenta
komerc
kometa
komety
komi
komik
komiks
komiksovy
komiksu
komisar
komise
komisi
komnata
komnaty
komor
komora
komorni
komory
kompaktni
kompatibilni
kompetence
kompetenci
kompilac
kompilace
kompilaci
komplet
kompletne
kompletni
komplex
komplexni
komplexu
komplexy
komplikace
komplikaci
komplikovane
komponent
komponenty
komponoval
kompozic
kompozice
kompozici
kompresni
kompresor
komtur
komu
komuna
komunikac
komunikace
komunikaci
komunikovat
komunismu
komuniste
komunisticka
komunisticke
komunistickou
komunisticky
komunistu
komunisty
komunit
komunita
komunite
komunitni
komunitu
komunity
kon
kona
konaji
konal
konala
konalo
konaly
konane
konany
konat
konc
konce
koncem
koncentrac
koncentrace
koncentraci
koncepc
koncepce
koncepci
koncept
konceptu
konceptua
koncernu
koncert
koncerte
koncertech
koncertni
koncertu
koncerty
konci
koncil
koncilu
koncipova
koncove
koncovy
kondenza
kone
konec
konech
konem
konfederac
konfederace
konferenc
konference
konferenci
konfigurace
konfiguraci
konfiskaci
konflikt
konfliktu
konflikty
konfrontaci
konfucia
kong
kongo
kongregace
kongregaci
kongres
kongresu
koni
konkre
konkurenc
konkurence
konkurenci
konkurzu
konna
konne
konni
konnost
konnosti
konnou
konny
konoda
konopi
konra
konrad
kons
konspirac
konstanta
konstantin
konstantina
konstantinopole
konstantinopoli
konstantni
konstanty
konstatoval
konstituc
konstrukc
konstrukce
konstrukci
konstrukte
konstruova
kontakt
kontaktni
kontaktu
kontakty
konte
kontejneru
kontext
kontextu
kontinent
kontinenta
kontinentu
kontinua
konto
kontrabas
kontrabasista
kontrakt
kontraktu
kontrastu
kontrola
kontrole
kontrolni
kontrolou
kontrolovat
kontrolu
kontroluje
kontroly
kontroverze
kontroverzni
konu
konvenc
konvence
konvent
konventu
konverzi
kony
konz
konzervativni
konzervator
konzole
konzoli
konzula
konzumace
konzumaci
koordina
koordinac
koordinace
koordinaci
kop
kopa
kopane
kopce
kopci
kopcu
kope
kopec
kopecky
kopem
kopi
kopie
kopii
kopinate
kopni
kopr
kopu
kopy
kor
kora
korc
korea
koreje
koreji
korejska
korejske
korejsky
korespondence
korespondenci
koridor
koridoru
korlevic
koronaviru
korporace
korporaci
korun
koruna
korune
korunni
korunou
korunova
korunovac
korunovace
korunovaci
korunu
koruny
korupce
korupci
korutanske
korvi
kory
koryta
koryto
kos
kosi
kosmicka
kosmicke
kosmicky
kosmodromu
kosmonaut
kosmonauti
kosmonautika
kosmonautu
kosmu
kosova
kosovo
kosovu
kost
kostel
kostela
kostelci
kostele
kostelec
kostelem
kosteli
kostelni
kostelu
kostely
kosterni
kosti
kostka
kostky
kostni
kostnice
kostr
kostra
kostry
kosty
kot
kote
kotel
kotle
kotlina
kotline
kotliny
kotlu
kotni
kotouc
kou
kouc
koule
kouli
koupa
koupalis
koupe
koupi
koupil
koupila
koupili
koupit
kour
kousek
kousky
kouzelne
kouzelni
kouzelny
kouzla
kouzlo
kov
kova
kovaci
koval
kovane
kovany
kovar
kove
kovec
kovem
kovi
kovic
kovice
kovici
kovite
koviti
kovity
kovo
kovou
kovova
kovove
kovovy
kovska
kovske
kovsky
kovu
kovy
koz
koza
kozen
kozena
kozene
kozeni
kozeno
kozeny
kozi
kozli
kozova
kozy
kp
kpt
kr
kra
krabic
kraj
kraje
krajem
kraji
krajin
krajina
krajine
krajinna
krajinne
krajinou
krajinu
krajiny
krajne
krajni
krajska
krajske
krajsky
kraju
krako
krakov
krakova
krakove
kralupy
krama
kramerius
kran
kras
krasobruslar
krasobrusleni
krasu
kratochvi
krats
kraus
krav
kravar
krbu
krc
kre
kreativni
krejc
kres
kresba
kresbu
kresby
kreseb
kresleni
kresli
krev
krevni
kri
krimina
kris
krista
kristem
kristia
kristina
kristova
kristovy
kristu
kristus
kristy
krite
kritice
kritici
kriticka
kriticke
kriticky
kritik
kritika
kritikou
kritiku
kritiky
kritizova
kritizoval
kritizuje
krize
krizi
krk
krkonos
krku
krmeni
krmi
krnov
kro
kroc
kroci
kroj
krok
krokem
krokody
kroku
kroky
krom
krome
kronice
kronika
kroniky
kropa
kroupa
krouz
krov
krovu
krs
kru
kruchta
krucifix
kruh
kruhem
kruhove
kruhovy
kruhu
kruhy
krumlov
krumlova
krumlove
krus
krute
kruty
kruz
kruzi
krva
krvava
krvave
krvavy
krve
krvi
kry
kryci
kryje
krym
krymske
krymu
krypte
krys
krystalu
krystaly
kryt
kryta
kryte
kryti
krytu
kryty
ks
ksc
kss
ksss
kt
kter
ktera
kterak
ktere
kterou
kterouz
ktery
ku
kuang
kuba
kube
kubi
kubis
kuby
kuc
kuchar
kuchyn
kuchyne
kuchyni
kud
kudy
kuji
kukac
kukur
kulate
kulaty
kuli
kulic
kulomet
kulometu
kulomety
kulovite
kult
kultivary
kultovni
kultu
kultur
kultura
kulturne
kulturni
kulturou
kulturu
kultury
kun
kuna
kunc
kung
kuns
kunst
kuo
kup
kupci
kupe
kupec
kupni
kupole
kupoli
kupr
kupu
kupuji
kupy
kur
kura
kurfir
kurie
kurii
kurs
kurt
kury
kurz
kurzu
kurzy
kus
kusu
kusy
kutna
kutne
kuz
kuzne
kv
kva
kvalifikac
kvalifikace
kvalifikaci
kvalifikant
kvalifikantka
kvalifikoval
kvalifikovane
kvalifikovany
kvalita
kvalitativni
kvalite
kvalitne
kvalitni
kvalitou
kvalitu
kvality
kvantitativni
kvantova
kvantove
kvapil
kvartet
kvarteto
kvas
kve
kvete
kveteni
kvetouci
kvi
kvintet
kvitova
kvo
kvu
kw
ky
kyc
kyjev
kyjeva
kyjeve
kyjevske
kyjov
kyle
kyne
kypr
kypru
kyrgyzsta
kysele
kyselin
kyselina
kyselinou
kyselinu
kyseliny
kysely
kysli
kytara
kytarista
kytariste
kytaristou
kytaristy
kytaru
kytary
kytice
l
la
labe
label
labelu
labem
labi
laborator
laboratorni
labske
labut
labuti
labyrint
lac
laci
lad
lada
lade
ladies
ladislav
ladislava
lady
lahvi
laj
laji
lake
lal
lala
lali
lalo
laloc
laly
lambda
lambert
lampa
lampy
lan
lana
lance
lancia
land
lands
landske
landsky
landu
lane
lang
langer
langle
language
lanosti
lanovka
lanovky
lans
lany
lapa
lara
large
larry
lars
larva
larvy
las
laser
laskave
last
lat
late
latera
lati
latin
latina
latine
latinska
latinske
latinsky
latiny
laura
laurea
lauren
laurent
lausanne
lava
lave
lavic
lavice
lavici
lavy
law
lawrence
layer
laz
lazara
lb
lc
lce
lcem
lci
lcove
lcovy
lcu
ld
ldots
le
lea
league
learning
leben
lebka
lebky
lec
lech
lechta
lechte
lechtic
lechtice
lechtici
lechticke
lechticky
lechticu
lechtile
lechtou
lechtu
lechty
lecka
lecke
leckopru
leckou
lecky
led
leda
ledaz
lede
ledec
leden
ledna
ledni
lednu
ledolezeni
ledova
ledovce
ledovcu
ledove
ledovec
ledovy
ledu
ledvin
lee
left
lega
legacy
legend
legenda
legendy
legie
legii
legiona
legislativa
legislativni
legislativy
legitimni
leha
lehc
lehce
lehka
lehke
lehkou
lehky
lehrad
lehrade
lehradu
leipzig
lej
leji
lejs
lek
lekce
lel
lela
leli
lelo
lely
lem
lemi
lemova
len
lena
lence
lene
lenek
lenem
leni
lenil
lenin
lenina
lenit
lenka
lenkami
lenkou
lenkove
lenku
lenky
lenna
lenne
lenni
lennon
lennou
lenny
leno
lenost
lenosti
lenou
lenove
lenska
lenske
lensky
lenstvi
lenu
leny
leo
leon
leonard
leonarda
leonardo
leone
leonid
leopold
leopolda
leopoldina
leos
leps
leq
ler
les
lesa
lese
lesem
lesi
lesk
leskle
leskly
leslie
lesna
lesne
lesni
lesnicke
lesnictvi
lesnou
lesny
leso
lesu
lesvicko
lesy
let
leta
letadel
letadla
letadlem
letadlo
letadlova
letadlove
letadlovy
letci
letcu
lete
letec
letech
letecka
letecke
leteckou
letecky
letectva
letectvi
letectvo
letectvu
letem
leti
letis
letka
letky
letn
letne
letni
letnic
letohra
letopisy
letopoc
letos
letou
letoun
letounem
letounu
letouny
letov
letove
letovy
letters
letu
lety
lev
leva
leve
level
levi
levice
levici
levicove
levicovy
levne
levo
levoc
levostranny
levou
levy
lewis
lex
lexikon
lez
lezce
lezci
lezec
lezem
lezeni
lezu
lezy
lf
lgbt
lha
lhota
lhotka
lhoty
lhu
li
lia
liao
lib
liba
libanon
libanonske
libanonu
libava
libe
liben
liber
libera
liberce
liberci
liberec
liberecke
liberecky
liberty
libni
libor
libovolne
libovolny
library
libreta
libreto
libri
libus
libye
libyi
lic
lice
licenc
licence
licenci
lichtens
lici
lid
lide
lidech
lidem
lidi
lidmi
lidova
lidove
lidovky
lidovou
lidovy
lidska
lidske
lidskosti
lidskou
lidsky
lidstva
lidstvo
lidu
lidus
lie
liebe
life
liga
ligandu
ligandy
light
lightgrey
lightning
ligova
ligove
ligovou
ligovy
ligu
ligue
ligy
lii
lik
like
likvidace
likvidaci
lil
lila
lili
lilie
lille
lilo
lily
lim
limit
limited
limitu
limity
lin
lina
lince
lincoln
linda
line
linea
linear
linek
lines
ling
lingvista
lingviste
linhart
linie
linii
link
linka
linkami
linkou
linkove
linku
linky
linne
linux
linuxu
liny
lion
liou
lip
lipe
lipni
lipova
lippe
lipska
lipske
lipsko
lipsku
liptovske
liptovsky
lis
lisa
lisabon
lisabonu
list
lista
liste
listech
listem
listeny
listi
listin
listina
listine
listinu
listiny
listnaty
listopad
listopadu
listove
listu
listy
lit
lite
liten
litera
literatur
literatura
literature
literaturu
literatury
litevs
litevska
litevske
litevsky
liti
litome
litomys
litovel
litr
litru
little
liturgicke
liturgicky
liturgie
liturgii
litva
litve
litvi
litvy
lius
liv
liva
live
livem
liverpool
liverpoolu
lives
living
livius
livost
livosti
livou
livu
livy
lix
liz
lize
lka
lkami
lke
lkem
lko
lkou
lkova
lkove
lkovin
lkoviny
lkovy
lkruhovy
lku
lky
lkyne
ll
ller
lloyd
lm
lmajor
lmajora
lme
ln
lna
lne
lni
lnic
lnice
lnici
lnicka
lnicke
lnicky
lnoc
lnoci
lnost
lnosti
lnou
lnu
lny
lo
loaja
lobkovic
lobkowicz
local
lockheed
locvic
lod
lode
lodi
lodni
lodyha
lodyhy
lodz
log
loga
logicke
logicky
logika
logiky
logo
loh
loha
lohorske
lohou
lohu
lohy
loire
loka
lokalit
lokalita
lokalite
lokalitou
lokalitu
lokality
lokdy
loket
lokomoti
lokomotiv
lokomotiva
lokomotivy
lom
lomeny
lomnice
lomu
lomy
lon
london
londy
loneos
long
look
lord
lorda
lordem
lordu
lorenz
lorenzo
loreta
lorus
loruska
loruske
lorusko
lorusku
lorusky
los
lost
lostech
lostem
losti
lostmi
lostr
lot
lotrinska
lotrinske
lotrinsky
lotus
lotys
lou
louc
louce
louis
louise
louka
louky
loun
lounech
louny
loupez
loutka
loutkove
loutky
louvre
lov
lova
lovaci
loval
lovat
lovc
lovce
lovci
lovcu
love
lovec
lovecke
lovecky
lovers
lovi
lovice
lovite
lovna
lovne
lovnou
lovnu
lovny
lovo
lovou
lovska
lovske
lovskou
lovsky
lovstvi
lovu
lovy
low
lower
loz
loze
lp
lporuc
lr
lroc
ls
lska
lske
lskem
lsko
lskou
lsku
lsky
lsti
lstvi
lt
ltd
lu
lublan
lublani
lubomi
lubos
luc
luca
lucas
lucemburska
lucemburske
lucembursko
lucembursky
lucerna
lucia
lucie
lucii
lucius
lucky
lucy
lude
ludmila
ludmily
ludvi
ludwig
ludwiga
luftwaffe
luhac
luigi
luis
luisa
luise
luje
luji
luk
luka
lukas
luke
lukes
lukostr
luky
lumi
lun
luna
lung
lunu
luny
lupic
lus
luta
lute
lutera
luther
luthera
lutou
luty
lutych
luxusni
luz
lva
lvem
lvi
lvov
lvove
lvovske
lvu
ly
lymfocytu
lymfocyty
lynn
lyon
lyonu
lyricke
lyricky
lysa
lyse
lyz
lz
lze
m
ma
mac
macek
mach
macha
machine
maci
macos
mad
madagaskaru
madame
made
madeleine
madison
madona
madonna
madony
madrid
madridu
mafia
mag
magazi
magazine
magda
magdale
magdalena
magdaleny
maggie
magic
magicke
magicky
magie
magii
magisterske
magistersky
magistra
magna
magneticke
magneticky
magnum
magnus
magyar
maha
mai
maiden
mail
main
maine
maison
maja
maje
majesta
majetek
majetkem
majetkove
majetkovy
majetku
majetky
maji
majitel
majitele
majitelem
majiteli
majitelu
major
majora
make
makedonie
makedonii
makedonske
makedonsky
making
mal
mala
malajsie
malajsii
malba
malbami
malbe
malbou
malbu
malby
malcolm
male
maleb
malec
males
mali
malic
malina
malmo
malo
malome
maloobchodni
malostranske
malou
malova
maloval
malovane
malovany
mals
malta
malte
malty
maly
maminka
man
mana
management
managementu
manaz
manchester
manchesteru
manda
mandz
mane
manfred
manga
mangy
manhattan
manhattanu
manice
manifest
manipulac
manipulace
manipulaci
mann
mans
manu
manua
manuel
manuela
many
manz
mao
map
mapa
mape
maple
mapova
mapovy
mapu
mapy
mar
mara
marais
marc
marca
marcel
marcela
marcelo
march
marco
marcus
mare
marek
mares
margaret
marge
mari
maria
marian
mariana
marianne
marie
marii
marilyn
marin
marina
marine
marino
mario
marion
maritime
marius
mark
marka
marke
markem
marker
market
marketing
marketingove
marketingu
marko
markrabe
markrabstvi
markus
marky
marne
maroka
maroko
maroku
mars
marseille
marshall
marsu
mart
marta
martha
marti
martin
martina
martine
martinec
martinem
martinic
martinu
marty
maru
marvel
marx
mary
maryland
mas
masa
masakr
masakru
masaryk
masaryka
masarykova
masarykove
masarykovo
masarykovy
masem
masi
masiv
masivni
masivu
maska
masky
maso
mason
masove
masovy
masoz
mass
massa
massachusetts
master
masters
mastny
mat
mata
matc
matce
match
mate
matek
matem
matematice
matematici
matematicka
matematicke
matematicko
matematicky
matematik
matematika
matematiku
matematiky
mater
materia
mathbb
mathbf
mathcal
mathrm
mati
matic
matice
matici
matka
matkou
matku
matky
matous
matric
matrice
matrika
matriky
matrix
matt
matteo
matthew
matthias
matu
maturite
maturitni
maturoval
matus
maty
matya
maurice
mauthausen
mava
mave
mavost
mavosti
mavou
mavy
max
maxe
maxim
maxima
maximilian
maximum
maxmilia
may
mayer
maz
maza
mb
mba
mberka
mbox
mc
mccartney
mcdonald
mce
mcem
mci
mclaren
mco
mcova
mcove
mcu
md
me
mec
mecena
mech
mechanicka
mechanicke
mechanicky
mechanik
mechanika
mechaniky
mechanismu
mechanismus
mechanismy
mechu
mecka
mecke
meckem
mecko
meckou
mecku
mecky
med
medaile
medaili
medailista
medailiste
medailistu
medailon
medailove
medal
medek
media
medical
medici
medicine
meditace
medium
medu
medve
medvede
mehmed
mein
mek
meklenbursko
mel
mela
melantrich
melbourne
melodie
melodii
mem
membra
memoria
memorial
memoriam
memory
men
mena
mene
meni
meno
mens
menta
menu
meny
mer
mercedes
mercury
merkur
merlin
mes
mesa
mesia
messe
messier
mesto
met
meta
metacritic
metal
metallum
metalova
metalove
metalu
meteor
meteorologicke
meteorologicky
method
metod
metoda
metodami
metode
metodou
metodu
metody
metr
metra
metrech
metro
metropole
metropoli
metropolita
metropolitan
metropolitni
metru
metry
metuji
mexic
mexicka
mexicke
mexicky
mexico
mexika
mexiko
mexiku
meyer
mez
meze
mezera
mezery
mezi
mezime
mezina
mezir
mezista
meziti
meziva
mezni
mezopota
mf
mfk
mg
mgr
mhc
mhd
mhz
mi
mia
miami
mic
micha
michael
michaela
michaelem
michail
michajlovic
michal
michala
michalovce
michel
michele
michelle
michigan
mick
mickey
microsoft
middle
midi
mie
mig
migrac
migrace
migraci
migrantu
migu
miguel
mii
mika
mike
mikola
mikroregion
mikroregionu
mikula
mikulov
mil
mila
milada
milan
milana
milano
mile
milena
milence
milenci
milenka
milenkou
milenky
miles
mili
miliard
miliarda
miliardy
milic
milice
milimetru
milio
milion
milionu
miliony
military
mill
miller
mills
milni
milo
milos
miloslav
miloslava
milosrdenstvi
milosrdny
milost
milosti
milostne
milostny
milova
miloval
milovane
milovni
milton
miluje
miluji
mily
mimo
mimon
mimor
mimou
mimozems
min
mina
mince
minci
mind
mine
minera
ming
mingske
mini
minima
minimum
minise
ministerske
ministersky
ministerstva
ministerstvem
ministerstvo
ministerstvu
ministr
ministra
ministrem
ministru
ministry
ministryne
minkou
minnesota
minor
minsk
minsku
minule
minulost
minulosti
minuly
minus
minut
minuta
minute
minutu
minuty
mir
mirage
mirka
miroslav
miroslava
miroslavem
mirror
mis
mise
misi
misie
misijni
misiona
miss
missa
mission
mississippi
missouri
mistr
mistra
mistrem
mistrovske
mistrovsky
mistrovstvi
mistru
mistry
mistryn
mistryne
mistryni
mit
mita
mitchell
mitky
mito
mitsubishi
mix
mixtape
miz
mizi
mj
mk
mka
mkami
mkem
mkoli
mkoliv
mkou
mkova
mku
mky
ml
mla
mlada
mlade
mladi
mladoc
mladou
mlads
mlady
mlc
mld
mle
mlha
mlhovina
mlhoviny
mlhy
mluv
mluva
mluvc
mluve
mluvene
mluvi
mluvil
mluvila
mluvili
mluvilo
mluvit
mluviti
mluvou
mluvu
mluvy
mly
mlyna
mlz
mm
mn
mne
mni
mnich
mnichov
mnichova
mnichove
mnichovo
mnichovske
mnichu
mnichy
mnis
mno
mnoha
mnohdy
mnohe
mnohem
mnoho
mnohokra
mnohona
mnohy
mnou
mnoz
mnozi
mnv
mo
mobile
mobilia
mobilizace
mobilni
moc
mocenske
mocensky
moci
mocna
mocne
mocnost
mocnosti
mocnostmi
mocny
mod
mode
model
modelem
modelka
modelky
modelova
modelu
modely
modera
modern
moderne
moderni
modernizace
modernizaci
modernizova
modifikace
modifikaci
modli
modlitba
modlitbe
modlitbu
modlitby
modliteb
modr
modra
modre
modrou
modry
modul
modula
modulu
moduly
mohamed
mohanem
mohl
mohla
mohli
mohlo
mohly
mohou
mohu
mohuc
mohutna
mohutne
mohutnou
mohutny
moje
moji
mojmi
mojz
mokr
mokre
mokry
mol
mola
moldavska
moldavske
molekul
molekula
molekuly
molie
moll
moment
momenta
momentu
mon
mona
monaco
monaka
monarchie
monarchii
monde
money
mongolska
mongolske
mongolsko
mongolsku
mongolsky
moni
monica
monika
monitor
monitorova
monografie
monografii
monopol
monroe
mons
monster
mont
monta
montana
monte
montre
montreal
montrealu
monu
monument
monumenta
moon
moore
mor
mora
morava
moravce
morave
moravec
moravia
moravou
moravs
moravska
moravske
moravsko
moravskoslezske
moravskoslezsky
moravskou
moravsky
moravu
moravy
more
morfologie
morgan
moritz
morning
morris
morrison
moru
morus
mos
moselle
moskevske
moskevsky
moskva
moskve
moskvy
mosse
most
moste
mostecke
mostem
mosti
mostni
mostu
mosty
mother
motion
motiv
motivace
motivaci
motivem
motivu
motivy
motocykl
motocyklovy
motocyklu
motocykly
motor
motorem
motoristicke
motorova
motorove
motorovy
motors
motoru
motory
moty
mou
mouc
moudre
moudrost
moudrosti
moudry
mouky
mount
mountain
mountains
mov
mova
move
movement
movi
movie
movna
movne
movni
movny
movou
movy
moz
mozaika
mozart
mozarta
mozek
mozilla
mozkove
mozkovou
mozku
mp
mr
mra
mrac
mrakodrap
mrakodrapy
mraku
mraky
mramor
mramorove
mramorovy
mramoru
mravenci
mravni
mravu
mrazu
mrs
mrsk
mrtev
mrti
mrtnost
mrtva
mrtve
mrtvi
mrtvici
mrtvy
ms
msa
msi
msj
mska
mske
mskokatolic
mskokatolicka
mskokatolicke
mskokatolicky
mskou
msky
msou
mt
mto
mtv
mu
muc
much
mucha
mudr
muhammad
muka
multi
multimedia
muni
munice
munici
murder
murphy
murray
mus
muse
musea
museji
musel
musela
museli
muselo
musely
museo
muset
museum
musi
music
musica
musical
musik
musil
musila
musili
muslimove
muslimske
muslimsky
muslimu
muslimy
mustafa
mutace
mutaci
muz
muzea
muzeem
muzei
muzejni
muzeu
muzeum
muzika
muzikolog
mv
mw
my
mylne
myokardu
mys
mysl
myslel
myslem
mysli
myslil
myslivec
myslne
myslni
myslova
myslove
myslovou
myslovy
myslu
myspace
mystery
mysu
mytologie
mytologii
mz
mzdy
n
na
naba
nabi
nabude
naby
nabyl
nabyla
nabyti
nac
nach
nacha
nachal
naci
naciona
nacional
nacionalismu
nacionalismus
nacionalisticke
nacismu
naciste
nacisticke
nacisticky
nacistu
nacisty
nad
nada
nadac
nadace
nadaci
nadal
nadany
nadarmo
nadc
nadcha
nade
nadme
nadmor
nadna
nadpisech
nadporuc
nadpr
nadr
nads
nadvla
nadz
nadzemni
nagy
naha
nahe
nahla
nahle
nahli
nahor
nahoru
nahra
nahradi
nahradil
nahradila
nahradili
nahradilo
nahradily
nahradit
nahrazen
nahrazena
nahrazeni
nahrazeno
nahrazeny
nahrazova
nahrazuje
nahrazuji
nahy
nainstalova
naivni
najde
najdeme
najdou
naje
najednou
najevo
naji
nakaz
nakl
nakla
nakladatel
nakladatele
nakladatelstvi
naklone
nakonec
nakra
nal
nala
nale
nalevo
nalezen
nalezena
nalezene
nalezeni
nalezeno
nalezeny
nalezis
nalezl
nalezli
nalezne
nalezneme
naleznete
nali
nalo
naloz
naly
nama
namaloval
name
nami
namluvil
namnoze
nan
nana
nancy
nanebevzeti
nanejvy
nantes
nanu
nany
naomi
naopak
napa
napada
napaden
napadeni
napadl
napadla
napadli
napadlo
napadne
napadnout
nape
napi
napla
napln
naplne
naplno
napoc
napojen
napojena
napojeni
napojuje
napoleon
napoleona
napoleonsky
napoma
napomi
naposled
naposledy
napovi
napr
napravo
naproste
naprosto
naprostou
naproti
napsa
napsal
napsala
napsali
napsana
napsane
napsany
napsat
napu
nar
nara
narazi
narazil
narodil
narodila
narodili
narodilo
narodily
narozen
narozena
narozene
narozeni
narozenin
narozenina
narozeniny
narozeny
naru
narus
nas
nasa
nasazen
nasazena
nasazene
nasazeni
nasazenou
nasazeny
nasazova
nasbi
nash
nashville
nasta
nastal
nastala
nastalo
nastaly
nastane
nastat
nastaveni
nastavit
naste
nastoleni
nastoupil
nastoupila
nastoupili
nastoupilo
nastoupit
nastr
nastudova
nastupoval
nastupuje
nastupuji
nasve
nat
nata
natalie
nataz
nate
nathan
nati
nation
national
nationale
nations
nato
natoc
natolik
natr
natrvalo
natura
natural
nature
naty
nauc
nauk
nauka
nauku
nauky
nava
naval
navazuje
navazuji
nave
navi
naviga
navigac
navra
navrhl
navrhla
navrhli
navrhnout
navrhova
navrhoval
navrhuje
navrz
navs
navy
navz
navza
navzdory
naz
nazi
naznac
nazpe
nazpi
nazva
nazval
nazvana
nazvane
nazvanou
nazvany
nazy
nb
nba
nbc
nbu
nc
nce
ncem
nchen
nchez
nci
ncu
nd
nde
nden
nder
ndez
ndr
ne
neapol
neapole
neapoli
neapolske
near
neat
neb
neba
nebe
nebem
nebes
nebesa
nebeske
nebesky
nebezpec
nebi
nebo
neboji
neboli
nebot
neboz
nebra
nebude
nebudou
nebudu
neby
nebyl
nebyla
nebyli
nebylo
nebyly
nec
necele
necely
nech
necha
nechal
nechala
nechali
nechat
nechce
nechci
necht
nechte
nechybe
neci
ned
neda
nedal
nedaleke
nedaleko
nedaleky
nedar
nedbal
nede
nedi
nedlouho
nedoc
nedocha
nedochovaly
nedodrz
nedojde
nedoka
nedokonc
nedoporuc
nedos
nedosa
nedospe
nedosta
nedostal
nedostala
nedostatec
nedostatek
nedostatkem
nedostatku
nedostatky
nedoz
nedu
nedve
need
neexistuje
neexistuji
neforma
nefunkc
negativne
negativni
nehod
nehoda
nehode
nehodu
nehody
nehra
neil
nej
nejasne
nejasny
nejbe
nejbli
nejbliz
nejbohats
nejc
nejcenne
nejda
nejde
nejdels
nejdr
nejdraz
nejdu
nejedle
nejedly
nejedna
nejednou
nejednoznac
nejen
nejenom
nejhlubs
nejhors
nejiste
nejisty
nejjasne
nejjednodus
nejjiz
nejkra
nejkrats
nejle
nejleps
nejlidnate
nejme
nejmens
nejmlads
nejmocne
nejmoderne
nejna
nejnavs
nejniz
nejnove
nejobli
nejpoc
nejpopula
nejpouz
nejpozde
nejpr
nejprestiz
nejproda
nejproduktivne
nejprve
nejrade
nejrozs
nejrozsa
nejru
nejrychleji
nejrychlejs
nejs
nejsem
nejseverne
nejsilne
nejslavne
nejsledovane
nejsme
nejsou
nejspi
nejstars
nejsve
nejte
neju
nejuz
nejve
nejvhodne
nejvi
nejvlivne
nejvy
nejvys
nejza
nejzaji
nejzna
nek
nekonec
nekrolog
nele
nelega
neli
nelis
nelson
nelze
nem
nema
nemaji
nemale
nemanz
neme
nemi
nemluvi
nemoc
nemoci
nemocne
nemocnic
nemocnice
nemocnici
nemocny
nemohl
nemohla
nemohli
nemohlo
nemohly
nemohou
nemohu
nemovite
nemovitosti
nemovity
nemoz
nemu
nemusel
nemusi
nemysli
nen
nena
nenacha
nenada
nenas
nenastoupil
nene
neni
neny
neo
neobsahuje
neobvykle
neobvykly
neobyc
neoc
neodpovi
neoficia
neohroz
neomezene
neopra
nepa
nepatr
nepatrne
nepatrny
neplati
neplatne
neplatny
nepoc
nepochybne
nepodar
nepokoje
nepokoju
nepomucke
nepomucky
nepomuk
nepor
neporus
nepos
neposkvrne
neposledni
neposlus
nepostoupil
nepotr
nepouz
nepovaz
nepr
nepra
nepravde
nepravidelne
nepravidelny
neprodlene
nepros
nepru
nepu
ner
nerad
nero
nerovnost
nerovnosti
nerozhodne
nerozume
nerozumi
neruda
nerus
nervove
nervovy
nervu
nes
nesc
neschopnost
neschopnosti
nese
neshody
nesl
nesla
nesli
neslo
neslouz
nesluc
nesly
neslys
nesme
nesmi
nesna
nesou
nesouci
nesouhlas
nesouhlasi
nesouhlasil
nespoc
nespokojenost
nespra
nesta
nestabilni
nestac
nestalo
nestoji
nestor
nestrani
net
nete
neter
netoliko
netopy
netr
netradic
netrpe
netus
netvor
network
nety
neu
neuc
neude
neudrz
neue
neumann
neumannova
neume
neumi
neumoz
neurc
neus
neuskutec
neuspe
neusta
neustadt
neutra
neuva
neuve
neuz
neuzna
nev
neva
nevada
neve
nevede
nevelke
never
nevhodne
nevhodny
nevi
nevide
nevidi
neviditelny
nevinne
nevinny
nevla
nevlastni
nevni
nevra
nevs
nevy
nevycha
nevydrz
nevyhnutelne
nevyhovuji
nevyhra
nevyr
nevys
nevyskytuje
nevyuz
nevyz
new
newcastle
newman
news
newton
newyorske
next
nez
neza
nezac
nezaji
nezame
nezar
nezasa
nezby
nezbytna
nezbytne
nezbytny
nezda
nezdar
nezi
neziskove
nezkus
nezletile
nezletily
nezme
nezmin
nezna
neznal
neznamena
nezpu
nezr
nezu
nezve
nezvla
nezvykle
nf
nfl
ng
ngc
nh
nhl
ni
nia
nic
nica
nice
nich
nicholas
nicht
nichz
nici
nick
nicka
nicke
nickou
nicky
nicme
nico
nicola
nicolas
nicole
nictva
nictvi
nictvo
nictvu
nie
nielsen
nig
nige
night
nii
nijak
nik
nika
nikde
nikdo
nikdy
nikem
nikoho
nikola
nikolaj
nikolajevic
nikoli
nikoliv
nikomu
nikterak
niku
niky
nil
nila
nili
nilo
nilsson
nilu
nily
nim
nimi
nimiz
nimz
nin
nina
nine
ning
nink
ninkove
ninku
nintendo
niny
nis
nisa
nisou
nista
nit
nite
niti
nitr
nitra
nitranske
niva
nive
nivy
niz
nizozemci
nizozemi
nizozems
nizozemska
nizozemske
nizozemsko
nizozemskou
nizozemsku
nizozemsky
njan
nk
nka
nkami
nkem
nko
nkou
nkova
nkove
nkovi
nkovy
nkp
nku
nkvd
nky
nl
nlive
nlivy
nm
nn
nna
nne
nner
nni
nnou
nny
no
nobelova
nobelovu
nobelovy
noc
noce
noci
noe
noeditsection
nograf
noha
nohama
nohou
nohu
nohy
noir
nokia
nom
nomenclature
nomina
nominace
nominaci
nominova
nominoval
non
nor
nora
norbert
nord
norem
norimberk
norimberku
norma
normalizace
norman
normandie
normandii
normy
norove
norovy
nors
norska
norske
norsko
norsku
norsky
north
northern
noru
nos
nosem
nosi
nosic
nosil
nosili
nosit
nositel
nositele
nositelem
nositelu
nosna
nosne
nosni
nosnost
nosny
nosoroz
nost
nostech
nostem
nosti
nostmi
nostni
nosu
nosy
not
nota
note
notes
nothing
notre
nou
nouze
nouzi
nouzove
nouzovy
nov
nova
novaci
novak
noval
novala
novali
novalo
novana
novane
novanou
novany
novat
nove
novel
novela
novely
november
novi
novice
novin
novina
novinkou
novinky
noviny
novite
novo
novodobe
novodoby
novogoticke
novome
novorenesanc
novotna
novotne
novotny
novou
novove
novoza
novoze
novske
novu
novy
now
noz
noze
np
npr
npu
nr
nrove
nru
nry
ns
nsdap
nska
nske
nskem
nsko
nskou
nsku
nsky
nstvi
nt
nter
nther
nu
nucen
nucena
nucene
nuceni
nuceny
nuclear
nuje
nuji
nuklea
nula
nulove
nulovy
number
nusli
nuti
nutna
nutne
nutno
nutnost
nutnosti
nutny
nuz
nv
nve
nvi
ny
nyi
nyj
nymburk
nyne
nyni
nz
o
oa
ob
oba
obal
obalu
obama
obava
obavy
obc
obce
obcemi
obcha
obchod
obchode
obchodem
obchodni
obchodova
obchodu
obchody
obchvat
obci
obdar
obde
obdiv
obdoba
obdobi
obdobne
obdobny
obdrz
obe
obec
obecenstvo
obecna
obecne
obecni
obecnou
obecny
obeji
obelisk
oberlandrat
oberliga
obes
obha
obhajoval
obhospodar
obi
obili
objasne
object
objedna
objednal
objednala
objekt
objektem
objektivni
objektivu
objektu
objekty
objem
objemem
objemu
objev
objeven
objevena
objevene
objeveni
objeveno
objeveny
objevi
objevil
objevila
objevili
objevilo
objevily
objevit
objevitel
objevovaly
objevovat
objevu
objevuje
objevuji
objevy
obji
obkli
obklopen
obklopena
obklopene
obklopeny
obklopuje
obklopuji
obla
oblak
oblaku
oblast
oblastech
oblasti
oblastmi
oblastni
oble
oblec
oblez
obli
oblibe
oblibu
oblic
oblohy
oblouk
obloukem
oblouku
oblouky
obloz
obloze
obme
obna
obnaz
obnova
obnove
obnoven
obnovena
obnovene
obnoveni
obnoveno
obnoveny
obnovil
obnovila
obnovit
obnovu
obnovy
oboji
obojz
obor
obora
oborech
oboru
obory
obou
oboupohlavne
obousme
oboustranne
obr
obra
obraci
obrana
obrane
obranne
obrannou
obranny
obranu
obrany
obrat
obratlovcu
obratne
obratu
obraz
obraza
obraze
obrazech
obrazem
obrazove
obrazovky
obrazovy
obrazu
obrazy
obrne
obrovska
obrovske
obrovskou
obrovsky
obrozeni
obs
obsa
obsadil
obsadila
obsadili
obsadilo
obsadily
obsadit
obsah
obsahem
obsahoval
obsahovala
obsahovalo
obsahovaly
obsahovat
obsahove
obsahu
obsahuje
obsahuji
obsaz
obsazen
obsazena
obsazene
obsazeni
obsazeno
obsazeny
obsazova
observator
obsluhu
obsluz
obstara
obte
obti
obuv
obuvi
obuvni
obvin
obvine
obvinil
obvod
obvode
obvodem
obvodni
obvodove
obvodu
obvody
obvykla
obvykle
obvykly
oby
obyc
obydleny
obydli
obytna
obytne
obytny
obyv
obyvatel
obyvatele
obyvateli
obyvatelstva
obyvatelstvem
obyvatelstvo
obyvatelstvu
obyvatelu
obz
obzor
obzoru
obzvla
oc
ocas
ocasem
ocasni
ocasu
ocea
ocean
ocel
ocela
oceli
ocelove
ocelovy
ocen
ocene
ocenil
och
ochoten
ochotne
ochotni
ochra
ochran
ochrana
ochrane
ochranna
ochranne
ochrannou
ochranny
ochranou
ochranu
ochrany
ocitl
ocitla
october
od
oda
odbe
odboc
odboj
odboja
odboje
odboji
odbojove
odbor
odbora
odborna
odborne
odborni
odbornou
odborny
odborove
odborovy
odboru
odbory
odby
odbyl
odc
odcestoval
odcha
odchod
odchodem
odchodu
odchylky
odchytal
odda
oddany
odde
oddi
ode
odebi
odebra
odebral
odec
odehra
odehrane
odehrany
odejde
odeji
odeon
odepr
oder
odes
odesi
odesla
odevzda
odevzdal
odhad
odhadova
odhadu
odhaduje
odhady
odhalen
odhalena
odhaleni
odhali
odhalil
odhalila
odhalit
odhla
odhodla
odjel
odjela
odjet
odjezdu
odji
odka
odkaz
odkazem
odkazu
odkazuje
odkazuji
odkazy
odkla
odkladu
odkoupil
odkud
odle
odlehc
odlete
odlis
odlouc
odloz
odme
odmi
odn
odna
odne
odnesl
odnoz
odola
odolne
odolnost
odolnosti
odolny
odpa
odpad
odpadni
odpadu
odpi
odpoc
odpoledne
odpoledni
odpor
odporem
odporu
odpove
odpovi
odpu
odpus
odpust
odr
odra
odraz
odrou
odru
odry
ods
odsoudil
odsouzen
odsouzena
odsouzene
odsouzeni
odsouzeny
odst
odstartoval
odstartovala
odstavce
odstavci
odstavec
odste
odsti
odstoupeni
odstoupil
odstoupila
odstoupit
odstr
odstran
odstrane
odstrani
odstranit
odstupem
odsud
odsunu
odta
odte
odtrz
odtud
odu
odumr
odva
odvahu
odvahy
odve
odvete
odvezl
odvi
odvodit
odvodn
odvola
odvolaci
odvolal
odvolat
odvozen
odvozena
odvozene
odvozeno
odvozeny
odvozuje
odvra
odvysi
odznak
odznaku
odznaky
of
ofenzi
off
office
official
oficia
ofie
og
oh
ohen
ohio
ohiu
ohla
ohlas
ohlasy
ohle
ohledech
ohledem
ohledne
ohledu
ohli
ohn
ohne
ohni
ohnis
ohnive
ohnivy
ohr
ohradni
ohranic
ohromne
ohromny
ohroz
ohrozit
ohy
oil
oilers
ois
oise
oizumi
ojedine
ok
oka
okamz
oke
okem
oken
okenni
oklahoma
okna
okne
oknem
okno
oknu
okny
oko
okola
okoli
okolni
okolnost
okolnosti
okolo
okr
okraj
okraje
okrajem
okraji
okrajove
okrajovy
okrasna
okrasne
okrasny
okres
okrese
okresech
okresem
okresni
okresu
okresy
okrouhle
okrsek
okrsku
okrsky
okruh
okruhu
okruhy
okruz
okta
oku
okupac
okupace
okupaci
okupovane
okve
ol
olaf
olafa
olc
old
oldfield
oldne
oldr
ole
oleg
olej
oleje
olejem
oles
olga
olgy
oliver
olivia
olivier
olivove
olomouc
olomouce
olomouci
olomoucka
olomoucke
olomoucky
olova
olove
ols
olta
olympia
olympic
olympijs
olympijska
olympijske
olympijskou
olympijsky
olympionici
olympique
om
oma
omberok
omega
omezen
omezena
omezene
omezeni
omezeno
omezenou
omezeny
omezit
omezova
omezuje
omezuji
omi
omyl
omylem
omylu
on
ona
onb
once
ondr
ondra
ondrej
ondrejic
one
onemocne
onen
ong
oni
online
only
ono
onoho
onom
ontario
onu
onv
ony
op
opa
opac
opadavy
opak
opakova
opakoval
opakovane
opakovany
opakovat
opakuje
opakuji
opat
opata
opatem
opatr
opatrne
opatrovni
opatstvi
opava
opave
opavske
opavsky
opavy
opc
opci
ope
opel
open
oper
opera
operac
operace
operaci
operatorname
opereta
operety
operni
operou
operu
operuji
opery
opevne
opi
opic
opice
opla
opoc
opoda
opolske
opotr
opous
opoz
opozic
opozice
opozici
opr
opra
oprav
oprava
opravdove
opravdovy
opravdu
oprave
opraven
opravena
opraveny
opravit
opravova
opravu
opravy
oproti
ops
opticke
opticky
optima
optimalizace
opus
opusti
opustil
opustila
opustili
opustilo
opustit
opylova
or
ora
orange
oranz
orator
oratorium
orbis
orbita
orchestr
orchestra
orchestrem
orchestru
order
ordina
ordinace
oregon
orel
org
orga
organicka
organicke
organicky
organisace
organisaci
organismu
organismus
organismy
organiza
organizac
organizace
organizacemi
organizaci
organization
organizova
organizoval
organizovane
organizovany
organizovat
organizuje
orient
orienta
orientac
orientace
orientaci
orientation
orientova
orientovana
orientovane
orientovany
orig
origin
origina
original
orion
orla
orlando
orle
orlea
orleans
orli
orlice
orlici
orlicke
orlicky
orlova
orp
ortodoxni
ortsbuch
os
osa
osad
osada
osade
osadni
osadou
osadu
osady
osame
osamostatne
osazen
osazena
osazeny
oscar
oscara
ose
osek
osel
osi
osir
oskar
osla
oslabeni
oslav
oslava
oslave
oslavil
oslavou
oslavu
oslavuji
oslavy
oslo
osloveni
oslovil
oslu
osm
osma
osmanska
osmanske
osmanskou
osmansky
osmdesa
osme
osmi
osmic
osmifina
osmna
osmy
osn
osob
osoba
osobami
osobe
osobitne
osobne
osobni
osobnost
osobnostem
osobnosti
osobnostmi
osobou
osobu
osoby
osou
ost
ostatku
ostatky
ostatne
ostatni
oste
ostr
ostrava
ostrave
ostravska
ostravske
ostravsko
ostravsky
ostravy
ostre
ostrohu
ostrov
ostrova
ostrove
ostrovech
ostrovem
ostrovni
ostrovu
ostrovy
ostroz
ostru
ostruz
ostry
osu
osud
osudem
osudu
osudy
osve
osvi
osvobodil
osvobodit
osvobozen
osvobozene
osvobozenecke
osvobozeni
osvojeni
oswald
osy
ot
ota
otakar
otakara
otc
otce
otcem
otci
otcova
otcove
otcovy
otcu
ote
otec
oteplova
otevi
otevr
other
otis
otisk
otisky
oto
otoc
otr
otra
otroci
otroctvi
otroka
otroku
otroky
ottawa
otto
ottove
ottu
otvi
otvor
otvorem
otvoru
otvory
oty
ou
our
out
ov
ova
ovac
ovaci
oval
ovala
ovali
ovalo
ovaly
ovana
ovane
ovanou
ovany
ovat
ovatce
ovatel
ovatele
ovati
ovatka
ovatkou
ovatky
ovc
ovce
ovci
ovdove
ove
ovec
ovem
over
ovi
ovic
ovice
ovici
ovicka
ovicke
ovicky
ovina
oviny
ovite
ovity
ovka
ovky
ovla
ovladac
ovlivn
ovlivne
ovlivnil
ovlivnila
ovlivnilo
ovlivnily
ovlivnit
ovna
ovne
ovni
ovny
ovo
ovoce
ovocem
ovocne
ovocny
ovou
ovs
ovska
ovske
ovsky
ovu
ovy
ovzdus
owen
oxford
oxfordske
oxfordu
oxid
oxidac
oxidace
oxidaci
oxidu
oz
oza
ozbrojene
ozbrojeny
ozdobne
ozdobny
ozna
oznac
oznamuje
ozval
ozve
ozy
p
pa
pablo
pac
pach
pachatel
pachatele
pacient
pacienta
pacienti
pacientu
pacienty
pacific
pacifiku
pad
pada
padaji
pade
padech
padek
padem
padesa
padku
padl
padla
padli
padlo
padly
padna
padne
padni
padnou
padny
padoc
padone
padu
padua
pady
page
pages
pahorek
pahorkatina
pahorkatine
pahorkatiny
pahorku
pak
paka
paketu
pal
pala
palace
palacke
palacky
palais
palazzo
palbou
palbu
palby
palce
palcu
palec
palem
paleontolog
paleontology
palermo
palestina
palestine
palestinske
palestinsky
palestiny
pali
palic
paliv
paliva
palivo
palivove
palivovy
palm
palma
palmer
palmy
palne
palomar
palube
palubni
palubu
pama
pame
pan
pana
panama
pance
panci
pandemie
pandemii
pane
panel
panelu
panely
panem
panenske
pani
panic
pankra
panna
panne
panny
panorama
panoramio
panova
panoval
panovni
panovnicke
panska
panske
pansky
panstvi
panther
panthers
panton
panu
panuje
panuji
paolo
papa
paper
papers
papez
papi
papous
paprsek
paprsku
paprsky
par
para
paradise
paradox
paradoxne
paraguay
paralelne
paralelni
parametr
parametru
parametry
paras
parc
parci
pardubic
pardubice
pardubici
pardubicke
pardubicky
paris
park
parkem
parker
parkovaci
parkovis
parku
parky
parlament
parlamentem
parlamentni
parlamentu
parma
parni
parodie
parodii
part
partial
partie
partii
partner
partnera
partnerem
partnerska
partnersky
partnerstvi
partneru
partnery
party
partyza
pas
pasa
pasaz
pascal
pase
pasech
paseka
pasem
pasivni
pasni
pasove
pass
past
pasti
pastor
pastora
pastorac
pastviny
pasty
pasu
pasy
pat
pata
patent
patentu
pater
path
pati
patna
patne
patnou
patny
patoc
patr
patra
patrech
patriarcha
patriarchy
patricia
patrick
patrik
patrna
patrne
patrno
patrny
patro
patron
patrona
patronem
patrova
patrovy
paty
paul
paula
paulem
paulo
pave
pavel
pavilon
pavilonu
pavla
pavlac
pavlem
pavli
pavlovic
pavol
pavouk
pavuc
paz
pb
pc
pching
pd
pdf
pe
pea
peace
peak
pearl
pec
pece
peci
peda
pedagog
pedagogicka
pedagogicke
pedagogickou
pedagogicky
pedagogika
pedagogiky
pedagogove
pedagoz
pedro
peer
pej
pejchar
pek
peka
pekar
peking
pekingu
pekla
peklo
pelc
pelhr
pelika
pelopone
pem
pen
pena
penaltove
penalty
penaty
pence
pencove
pencovy
pene
penec
penguins
peni
penny
pensylva
penze
people
pepr
per
pera
percy
perfect
performance
periferni
period
periodicke
periodicky
periodik
periodika
perk
perku
perkuse
perky
perns
pero
perry
pers
persie
perska
perske
persky
persona
personal
perspektivy
peru
perua
perut
perute
peruti
pes
pestr
pestre
pestry
pet
pete
peter
petera
peterem
peters
petic
petice
petici
petit
petr
petra
petrem
petrohrad
petrohrade
petrohradske
petrohradu
petrov
petrova
petrovi
petrovic
petrovice
petru
petrus
petrz
peugeot
pevna
pevne
pevnine
pevniny
pevnost
pevnosti
pevnostni
pevnou
pevny
pez
pf
pg
ph
phantom
phdr
phi
phil
philadelphia
philip
philipp
philippe
phillips
philosophy
phoenix
photo
photographer
photographie
photographs
photography
photos
php
phys
pi
pia
pianista
piano
piazza
pic
pice
pici
pick
picture
pictures
pid
pie
pierra
pierre
pies
pieta
pieter
pietni
pietro
pije
pil
pila
pilar
pilastry
pili
pilne
pilot
pilota
pilotem
piloti
pilotni
pilotu
piloty
pily
pin
ping
pink
pinus
pio
piona
piony
pira
pis
pisa
pise
pisem
pisky
pisne
pisni
pisny
pistole
pistoli
pisu
pisy
pit
pita
piti
pitne
pittsburgh
pius
piva
pivni
pivo
pivovar
pivovaru
pivovary
pixelu
piz
pka
pku
pky
pl
pla
plac
place
placene
placeni
placeny
plaka
plamen
plameny
plan
plana
plane
planet
planeta
planetary
planete
planetek
planetka
planetky
planetu
planety
planina
planiny
plant
planta
plants
plas
plaske
plastic
plasticke
plasticky
plastik
plastika
plastiky
plastove
plastu
plat
plata
platby
plate
platebni
platforma
platforme
platformu
platformy
plati
platil
platila
platilo
platit
platna
platne
platnost
platnosti
platny
plato
platu
platy
plav
plava
plavba
plavbe
plavbu
plavby
plavci
plavebni
plavec
plavecky
plavidel
plavidla
plavidlo
plavu
plavy
play
player
players
playoff
playstation
plaza
plazi
plazopa
plazu
ple
pleba
plechu
pleistoce
plemen
plemena
plemene
plemeno
ples
plesa
pleso
plesu
pleti
pli
plic
plicni
plk
pln
plna
plne
plni
plnil
plnit
plno
plnou
plny
plo
ploch
plocha
ploche
plochou
plochu
plochy
plod
plodem
plodi
plodin
plodiny
plodnice
plodnosti
plodolistu
plodu
plody
plos
plot
plotarea
plotdata
plotu
plouc
plova
plovouci
plu
pluji
pluk
plukovni
pluku
plus
plyn
plyna
plyne
plynem
plynne
plynouci
plynove
plynovy
plynu
plynule
plyny
plz
plzen
plzne
plzni
pm
pmatrix
pn
pne
pneumatiky
png
pni
po
pobe
pobi
pobli
poboc
pobor
pobour
poboz
pobr
poby
pobyt
pobytu
poc
pocha
poche
pochod
pochodu
pochopeni
pochopil
pochopit
pochopitelne
pochova
pochva
pochybnosti
pochyby
poci
pocit
pocitu
pocity
pocta
pocte
poctive
pod
poda
podal
podala
podali
podar
podat
podbarveni
podbor
podc
podcelek
podcelku
poddane
poddani
poddanstvi
poddany
poddruh
poddruhu
poddruhy
pode
podepr
podepsa
podepsal
podepsala
podepsali
podepsalo
podepsat
podezr
podhradi
podhu
podi
podivi
podivne
podivny
podjes
podkarpatske
podklad
podklade
podkladu
podklady
podkrkonos
podlaha
podlahy
podlaz
podlaze
podle
podlehl
podlehla
podlehli
podlesi
podlouhle
podloz
podma
podme
podmi
podmnoz
podmor
podne
podnebi
podnes
podni
podnici
podnik
podnika
podnikatel
podnikatele
podnikatelske
podnikatelsky
podnikatelu
podnikem
podnikl
podniku
podniky
podnoz
podoba
podobaji
podobe
podobizna
podobna
podobne
podobnost
podobnosti
podobnou
podobny
podobu
podoby
podoli
podpi
podpis
podpisem
podpisu
podplukovni
podpor
podpora
podporou
podporova
podporoval
podporovala
podporovali
podporovane
podporovany
podporovat
podporu
podporuje
podporuji
podpory
podpu
podr
podra
podrobil
podrobne
podrobnosti
podrobny
podruhe
podrz
podstata
podstate
podstatna
podstatne
podstatnou
podstatny
podstatou
podstatu
podstaty
podstavci
podstavec
podstoupil
podsve
podtr
podve
podvec
podvod
podvodni
podvodu
podvozek
podvozku
podvy
podzemi
podzemni
podzim
podzimni
podzimu
poe
poesie
poezie
poezii
poha
pohanske
pohansky
pohl
pohlavi
pohlavni
pohle
pohled
pohleda
pohledem
pohlednice
pohledu
pohledy
pohli
pohnuti
pohodli
pohodlne
pohon
pohonem
pohonna
pohonne
pohonny
pohonu
pohor
pohors
pohotovostni
pohr
pohranic
pohromade
pohyb
pohybem
pohyblive
pohyblivy
pohyboval
pohybovala
pohybovat
pohybove
pohybu
pohybuje
pohybuji
pohyby
point
poj
pojal
pojd
poje
pojedna
pojednou
pojem
pojeti
poji
pojis
pojistne
pojmem
pojmenova
pojmenoval
pojmenovana
pojmenovane
pojmenovany
pojmu
pojmy
poju
poka
pokaz
poke
pokla
poklad
pokladni
pokladny
pokladu
poklady
pokles
poklesl
poklesu
pokoj
pokoje
pokoji
pokojne
pokoju
pokoleni
pokor
pokorne
pokorny
pokous
pokoz
pokr
pokrac
pokraji
pokrm
pokrmu
pokrmy
pokroc
pokrok
pokrokove
pokroku
pokry
pokryt
pokryta
pokryte
pokryti
pokryty
pokud
pokus
pokusech
pokusem
pokusi
pokusil
pokusila
pokusili
pokusu
pokusy
pokutove
pokutu
pokuty
pokyn
pokyny
pol
pola
poland
pole
poledne
poledni
polem
poleps
poli
polic
police
policejni
policie
policii
policista
policiste
policistu
policisty
policy
politic
political
politice
politici
politicka
politicke
politickou
politicky
politics
politik
politika
politikou
politiku
politiky
politolog
politologie
polka
polna
polni
polo
poloc
poloh
poloha
polohu
polohy
polokoule
polokouli
polome
poloostrov
poloostrova
poloostrove
polovic
polovice
polovici
polovina
polovine
polovinou
polovinu
poloviny
polovodic
poloz
poloze
pols
polska
polske
polskem
polsko
polskou
polsku
polsky
polygona
polyne
poma
pomale
pomaleji
pomalejs
pomalu
pomaly
pome
pomeranc
pomezi
pomi
pomni
pomoc
pomoci
pomocna
pomocne
pomocni
pomocny
pomohl
pomohla
pomohli
pomohlo
pomohly
pomor
pomsta
pomsti
pomstu
pomu
pomy
pona
ponde
pone
ponecha
ponechal
ponechat
poni
ponic
poniz
ponor
ponorek
ponorka
ponorky
pont
pontifika
pony
pop
popa
pope
popel
popela
popelka
popi
popis
popisem
popisny
popisova
popisu
popisuje
popisuji
popisy
popl
poplatek
poplatku
poplatky
poplatni
popluz
popove
popr
poprad
poprava
poprave
popraven
popraveni
popraveny
popravy
poprve
popsa
popsal
popsane
popsany
popsat
popta
popud
popula
populac
populace
populaci
popularita
popularite
popularitu
popularity
populariza
por
pora
poradce
poradcem
poradenstvi
poradil
poradni
porady
porane
poraz
porazil
porazila
porazili
porazit
porcela
porne
porny
porodila
porodni
porodu
porost
porostle
porostu
porosty
porota
poroty
porouc
porovna
porozume
porsche
port
porta
portal
porte
porter
portfolio
portland
porto
portrait
portre
portu
portugal
portugalci
portugals
portugalska
portugalske
portugalsko
portugalsku
portugalsky
porty
poru
poruba
poruc
poruch
porucha
poruchou
poruchu
poruchy
porus
pory
pos
posa
poschodi
posel
poselstvi
posi
posilova
posily
position
poskytl
poskytla
poskytne
poskytnout
poskytnuti
poskytova
poskytoval
poskytovala
poskytovat
poskytuje
poskytuji
posla
poslal
poslala
poslali
poslance
poslancem
poslanci
poslancu
poslanec
poslanecka
poslanecke
poslanecky
poslankyne
poslat
posle
posledne
posledni
posloucha
poslouchal
posloupnost
posloupnosti
poslouz
posluchac
poslus
posme
posmrtne
posouzeni
pospi
post
postac
postaral
postav
postava
postavami
postave
postaven
postavena
postavene
postaveni
postaveno
postavenou
postaveny
postavi
postavic
postavil
postavila
postavili
postavilo
postavit
postavou
postavu
postavy
postele
posteli
postgradua
postihl
postihla
postiz
postoj
postoje
postoji
postoju
postoupil
postoupila
postoupili
postoupilo
postoupily
postoupit
postr
postra
postranni
postu
postup
postupem
postupne
postupny
postupoval
postupovat
postupu
postupuje
postupuji
postupy
posty
posud
posun
posunu
posunul
posunula
posuzova
posva
posve
pot
pota
potaz
pote
potencia
poti
potka
potkal
potlac
potoc
potoce
potok
potoka
potokem
potoku
potoky
potom
potomci
potomek
potomka
potomkem
potomku
potomky
potomstvo
potopena
potopeni
potopila
potr
potrava
potravin
potravina
potravinami
potraviny
potravni
potravou
potravu
potravy
potresta
potrubi
pots
potter
potu
potvrdil
potvrdila
potvrdilo
potvrdit
potvrzen
potvrzena
potvrzeni
potvrzeno
potvrzeny
potvrzuje
potvrzuji
poty
potyc
pou
pouc
pouha
pouhe
pouhou
pouhy
pouka
poukazuje
poukazuji
poulic
pour
pous
poustevni
pout
pouta
pouti
poutni
pouz
pouze
pova
povaha
povahou
povahu
povahy
povaz
povaze
pove
povede
povedlo
povi
povinen
povinna
povinne
povinni
povinnost
povinnosti
povinnou
povinny
povoden
povodi
povodne
povodni
povola
povolal
povolen
povolena
povoleni
povoleno
povoleny
povolil
povrch
povrchem
povrchove
povrchovy
povrchu
povs
povsta
povstal
povstalci
povstalcu
povstalecke
povy
powell
power
poz
pozadi
pozde
pozdne
pozdni
pozdrav
pozemci
pozemek
pozemkove
pozemkovy
pozemku
pozemky
pozemni
pozemske
pozemsky
pozic
pozice
pozici
pozitivne
pozitivni
pozme
pozn
pozna
poznal
poznala
poznali
poznamena
poznamenal
poznan
poznat
poznatku
poznatky
pozor
pozorne
pozornost
pozornosti
pozorova
pozorovaci
pozoroval
pozorovat
pozorovatel
pozorovatele
pozoruhodne
pozoruhodny
pozoruje
pozu
pozva
pozval
pozvolna
pp
pr
pra
pracemi
prach
prachatice
prachatici
prachu
praci
pracoval
pracovala
pracovali
pracovalo
pracovat
pracovis
pracovne
pracovni
pracovnice
pracuje
pracuji
prade
prag
praga
prager
prague
praha
prahou
prahu
prahy
prakticka
prakticke
prakticky
praktiky
pramen
pramene
pramenech
pramenem
prameni
pramenis
pramenu
prameny
prapor
praporu
prapory
prarodic
pras
prasat
prasata
prase
pratt
prav
prava
pravami
pravc
pravda
pravde
pravdive
pravdou
pravdu
pravdy
prave
pravi
pravice
pravici
pravicove
pravicovy
pravidel
pravidelna
pravidelne
pravidelnou
pravidelny
pravidla
pravidlem
pravidlo
pravidlu
pravidly
pravil
pravila
pravku
pravky
pravne
pravni
pravny
pravo
pravomoc
pravomoci
pravopis
pravopisu
pravoslavi
pravoslavna
pravoslavne
pravoslavni
pravoslavny
pravostranny
pravou
pravove
pravu
pravy
praxe
praxi
praz
praze
prchaji
pre
precli
preda
predika
prefektur
prefektura
prefektury
preferenc
preference
preferuje
prehistoric
prela
premie
premier
premonstra
pres
presbyta
president
presidenta
press
presse
prestiz
prevence
prevenci
preventivni
prezentace
prezentaci
prezentova
prezentoval
prezentuje
prezident
prezidenta
prezidentem
prezidenti
prezidentovi
prezidentske
prezidentsky
prezidentu
pri
price
pride
prima
prime
primera
primitivni
primus
princ
prince
princem
princess
princeton
princezna
princeznou
princeznu
princezny
princi
princip
principem
principu
principy
princove
print
pris
priva
private
privatizace
privatizaci
privilegia
privilegii
privilegium
prix
prize
pro
probe
probi
proble
problematice
problematicke
problematika
problematiku
problematiky
probojoval
probojovala
probos
probudi
probudil
probuzeni
proc
proceedings
procent
procenta
procentni
procento
proces
procesech
procesem
procesi
procesni
procesor
procesoru
procesory
process
procesu
procesy
procha
prod
proda
prodal
prodala
prodali
prodalo
prodany
prodat
prodavac
prode
prodej
prodeje
prodejem
prodeji
prodejna
prodejni
prodejny
prodleni
prodlouz
prodluz
producent
producenta
producentem
producenti
producenty
production
productions
produkc
produkce
produkci
produkova
produkoval
produkovat
produkt
produktem
produktu
produkty
produkuje
produkuji
prof
profese
profesi
profesiona
profesne
profesni
profesor
profesora
profesorem
profesorka
profesoru
professional
professor
profil
profile
profilu
profily
profutbal
program
programa
programech
programem
programova
programovaci
programove
programu
programy
progresivni
progress
prohla
prohlas
prohle
prohleda
prohli
prohr
prohra
prohrane
prohru
prohry
projde
project
projedna
projekce
projekci
projekt
projektech
projektem
projektova
projektu
projekty
projev
projevem
projevi
projevil
projevila
projevilo
projevily
projevoval
projevovat
projevu
projevuje
projevuji
projevy
proji
proka
prokazatelne
prokleti
prokop
prokopa
prokura
prole
proleta
proli
prome
promena
promi
prominentni
promlc
promluvil
promo
promoval
prona
pronaji
pronesl
pronika
pronikl
pronikla
proniknout
propada
propadl
propaga
propagac
propagace
propagaci
propaganda
propagandy
propast
propasti
propojena
propojeni
propojeny
propous
propu
propus
propustil
pror
proroctvi
prorok
proroka
proroku
pros
prosadil
prosadila
prosadit
prosazeni
prosazova
prosazoval
prosazovat
prosazuje
prosec
prosi
prosil
prosince
prosinci
prosinec
proslavil
proslavila
proslul
proslula
proslule
prosluly
prospe
prosperuji
prospi
prosta
proste
prosti
prostor
prostora
prostorem
prostorove
prostorovy
prostoru
prostory
prostr
prostranstvi
prosty
prota
protaz
prote
protein
proteinu
proteiny
protektora
protektorat
protest
protestants
protestantske
protestantsky
protestantu
protestni
protestu
protestuji
protesty
proti
protikomunisticke
protila
protiletadlove
protiletadlovy
protilodni
protinacisticke
protiu
protiva
protivi
protivni
protivzdus
proto
protocol
protokol
protokolu
protokoly
prototyp
prototypu
prototypy
protoz
proud
proude
proudem
proudi
proudove
proudovy
proudu
proudy
prouz
prova
provda
provdala
provdana
prove
provede
proveden
provedena
provedene
provedeni
provedeno
provedeny
provedl
provedla
provedli
provence
provinc
provincia
provincie
provincii
provizorni
provola
provoz
provozem
provozni
provozova
provozoval
provozovala
provozovane
provozovany
provozovat
provozovatel
provozovatele
provozovatelem
provozu
provozuje
provozuji
proz
prozaik
prozati
prozkouma
prozradi
prozradil
prs
prsa
prsni
prsou
prst
prsten
prstenu
prstu
prsty
prsu
pru
prudce
prudke
prudky
pruh
pruhem
pruhu
pruhy
prus
pruska
pruske
prusko
prusku
prusky
pruz
prve
prvek
prvenstvi
prvkem
prvku
prvky
prvne
prvni
prvoc
prvoligova
prvoligove
prvoligovy
prvotni
prvovy
prvy
pry
pryc
pryskyr
ps
psa
psaci
psal
psala
psali
psana
psane
psani
psany
pseudonym
pseudonymem
psi
psp
psu
psv
psy
psychiatr
psychiatricke
psychicke
psychicky
psycho
psychoanaly
psycholog
psychologicke
psychologicky
psychologie
psychologii
psychology
pt
pta
ptac
ptactva
ptakopa
ptal
ptala
ptolemaios
pu
public
publication
publications
publicista
publiciste
publika
publikac
publikace
publikaci
publikova
publikoval
publikovala
publikovane
publikovany
publikovat
publikuje
publikum
publishers
publishing
puc
pum
puma
pumy
punc
punk
punkove
pupeny
purkrabi
purkyne
purple
pus
pusta
puste
pusti
pustil
pustne
pusty
putin
putova
px
py
pyramida
pyramidy
pyre
pyrenejske
pys
python
pytla
pytli
q
qu
quad
que
quebec
queen
queens
quercus
qui
quijote
quinn
quo
r
ra
rabi
rabs
rac
race
racek
rachel
raci
racing
raciona
rad
rada
radar
radaru
rade
radek
radhos
radi
radia
radika
radim
radio
radioaktivni
radka
radni
radnic
radnice
radnici
radomi
radoslav
radost
radosti
radostne
radoti
radou
radovan
radu
rady
raf
rafael
rail
railway
rain
rainbow
rainer
rajc
raje
raji
rajo
rak
raket
raketa
rakete
raketopla
raketove
raketovy
rakety
rakev
rakous
rakousi
rakouska
rakouske
rakouskem
rakousko
rakouskou
rakousku
rakousky
rakousy
rakovina
rakovinu
rakoviny
rakovni
rakus
rakvi
ral
rala
rali
rally
rallye
ralo
ralph
raly
ram
ramat
ramen
ramena
ramene
rameni
rameno
rameny
rami
rampy
ran
rana
random
randy
rane
range
rangers
rangle
ranni
ranou
rany
rap
rapid
rapper
rard
ras
rasa
rasove
rasy
rat
ratel
ratele
ratelu
rati
ratibor
ration
rava
rave
raven
ravy
raw
ray
raymond
raz
razem
razi
razn
razna
razne
razni
raznil
raznou
razny
razu
razy
rb
rc
rca
rce
rcem
rci
rcu
rd
re
rea
reagoval
reagovala
reagovat
reaguje
reaguji
reakc
reakce
reakci
reaktivni
reaktor
reaktoru
reaktory
real
realismu
realismus
realisticke
realisticky
realita
realitu
reality
realizace
realizaci
realizova
realizoval
realizovat
realu
rebel
rec
recenze
recenzi
recept
receptor
receptoru
receptory
rech
record
recordings
records
red
redakc
redakce
redakci
redaktor
redaktorem
redaktorka
redigoval
redukc
redukce
redukci
reed
reedice
refera
referenc
reference
referencemi
referenda
referendu
referendum
reflex
reforem
reforma
reformace
reforme
reformni
reformou
reformu
reformy
regent
regiment
regina
region
regiona
regionech
regionu
regiony
registr
registrac
registrace
registraci
registrova
registrovane
registrovany
registru
regula
regulac
regulace
regulaci
regulova
reich
rejstr
rek
reklama
reklamni
reklamu
reklamy
rekonstrukce
rekonstrukci
rekonstruova
rekord
rekordni
rekordu
rekordy
rekreac
rektor
rektora
rektorem
relace
relaci
relations
relativity
relativne
relativni
release
relevantni
relie
religion
relikvia
rem
remes
remi
remix
ren
rena
renaissance
renata
renault
rene
renesanc
renesance
renesanci
renska
renske
rensky
renstvi
rentgenove
reorganizace
reorganizaci
repertoa
replika
report
reporta
reporte
reprezentac
reprezentace
reprezentaci
reprezentant
reprezentantem
reprezentanti
reprezentantka
reprezentantu
reprezentativni
reprezentova
reprezentoval
reprezentovala
reprezentovat
reprezentuje
reprezentuji
repri
reprint
reprodukc
reprodukce
reprodukci
republic
republice
republik
republika
republikou
republiku
republiky
requiem
rer
res
research
resp
respekt
respektive
respektova
restaura
restaurace
restauraci
restaurova
restituci
results
retrieved
return
rev
revi
review
revize
revizi
revoluc
revoluce
revoluci
revoluciona
revolution
revolver
revue
rex
rey
reykjavi
reynolds
rez
rezervace
rezervaci
rezervni
rezidenc
rezidence
rezidenci
rezignaci
rezignoval
rezistence
rezoluce
rezoluci
rf
rfc
rg
rgb
rgen
rh
rho
ri
ria
ric
rica
rich
richard
richarda
richardem
richards
richardson
richter
rick
ricke
ricky
ride
rie
rieger
riem
riga
right
rightarrow
rights
rigoro
rii
rik
riley
rina
ring
rio
riova
riove
riovy
ris
rise
rista
riste
ristka
rita
ritter
ritua
riu
rium
river
rivie
rize
rizik
rizika
riziko
riziku
rju
rk
rka
rkami
rkem
rkev
rkevni
rko
rkou
rkova
rkove
rkovy
rku
rkve
rkvi
rky
rl
rlitz
rm
rn
rna
rndr
rne
rni
rnice
rnici
rnil
rnila
rnili
rnost
rnosti
rnou
rnu
rnuti
rny
ro
road
rob
roba
robce
robcem
robci
robcu
robe
robek
robert
roberta
robertem
roberto
roberts
robin
robinson
robku
robky
robni
robot
robotu
roboty
robou
robu
robustni
roby
roc
roce
rocha
rock
rockova
rockove
rockovi
rockovy
rocku
rocky
rod
roda
rode
rodech
rodem
rodi
rodic
rodin
rodina
rodine
rodinna
rodinne
rodinnou
rodinny
rodinou
rodinu
rodiny
rodis
rodna
rodne
rodni
rodnost
rodnosti
rodnostni
rodnou
rodny
rodohospoda
rodokmen
rodopisne
rodou
rodove
rodovy
rodri
rodu
rody
roger
rogera
rogers
roh
roha
rohan
rohu
rohy
roi
rok
roka
rokem
rokle
rokli
roku
roky
rokycany
rokytnice
roland
role
rolf
roli
roll
rolling
rolls
rolni
rolnicke
rom
roma
roman
romana
romance
romanopisci
romanticka
romanticke
romanticky
romantismu
rome
romeo
romove
romske
romu
ron
ronald
room
root
ropa
ropne
ropny
ropy
ros
rosa
rose
roses
ross
rossi
roste
rostislav
rostl
rostla
rostlin
rostlina
rostlinami
rostlinne
rostlinny
rostlinou
rostlinu
rostliny
rostou
rostouci
rot
rota
rotac
rotace
rotaci
roth
rotoru
rotova
rotten
rotterdam
roty
rou
rouby
roucho
roudnice
roudnici
rouge
rouna
round
rous
route
routledge
rov
rova
rovaci
roval
rovala
rovany
rovat
rove
roven
rover
rovi
rovina
rovine
roviny
rovn
rovna
rovne
rovni
rovnic
rovnice
rovnici
rovnobe
rovnome
rovnopra
rovnost
rovnosti
rovnou
rovnova
rovny
rovou
rovy
roy
royal
royce
roz
roza
rozbe
rozbi
rozbor
rozc
rozcesti
rozcestni
rozcha
rozchod
rozchodu
rozda
rozde
rozdi
rozebi
rozebra
rozehra
rozena
rozene
rozenou
rozepr
rozes
rozestave
rozevr
rozezna
rozhlas
rozhlase
rozhlasova
rozhlasove
rozhlasovy
rozhlasu
rozhledna
rozhledny
rozhledy
rozhne
rozhodc
rozhodl
rozhodla
rozhodli
rozhodlo
rozhodly
rozhodne
rozhodnou
rozhodnout
rozhodnuti
rozhodnuto
rozhodny
rozhodova
rozhodovat
rozhoduje
rozhoduji
rozhor
rozhovor
rozhovoru
rozhovory
rozhrani
rozi
rozji
rozka
rozkaz
rozkazu
rozkazy
rozkla
rozklad
rozkladu
rozkos
rozkve
rozle
rozlehle
rozlehly
rozlic
rozlis
rozloha
rozlohou
rozlohu
rozlohy
rozlouc
rozloz
rozloze
rozmach
rozmachu
rozmanite
rozmanitost
rozmanitosti
rozmanity
rozme
rozmezi
rozmi
rozmnoz
rozna
rozpa
rozpad
rozpadla
rozpadu
rozpe
rozpi
rozpoc
rozporu
rozpory
rozpous
rozpozna
rozpoznat
rozpra
rozprosti
rozpty
rozpus
rozr
rozru
rozrus
rozs
rozsa
rozsah
rozsahem
rozsahu
rozstr
rozsudek
rozsudku
rozsvi
rozta
roztaz
roztoc
roztok
roztoku
roztoky
roztr
roztrous
roztrz
rozum
rozume
rozumi
rozumne
rozumu
rozva
rozve
rozvedli
rozvi
rozvinul
rozvinute
rozvinuty
rozvod
rozvodem
rozvodi
rozvodu
rozvoj
rozvoje
rozvojem
rozvoji
rozvojove
rozvojovy
rozz
rozzur
rp
rpg
rr
rs
rska
rske
rsko
rskou
rsku
rsky
rsssf
rst
rstvi
rt
rta
rtu
rtut
rty
ru
ruba
rubi
rublu
rubu
ruby
ruc
ruce
ruch
ruchu
rud
ruda
rude
rudi
rudolf
rudolfa
rudolfem
rudou
rudy
rue
ruiny
ruje
ruka
rukama
rukojmi
rukopis
rukopisu
rukopisy
rukou
ruku
ruky
rum
rumburk
rumuns
rumunska
rumunske
rumunsko
rumunsku
rumunsky
run
rus
rush
rusi
ruska
ruske
ruskem
rusko
ruskou
rusku
rusky
rusove
russell
russia
russian
rusu
rusy
ruth
ruz
rv
rva
ry
ryan
ryb
ryba
rybi
rybic
rybni
rybnic
rybolov
rybolovu
ryby
rychla
rychle
rychleji
rychlejs
rychli
rychlobruslar
rychlobrusleni
rychlost
rychlosti
rychlostni
rychlou
rychly
rychnov
rychta
rys
rysem
rysu
rysy
ryti
rytmu
rytmus
ryze
ryzi
rz
s
sa
sabbath
sabina
sabota
sabres
sachsen
sad
sada
sadami
sade
sadech
sadka
sadkove
sadku
sadne
sadni
sadou
sadu
sady
safety
sah
saha
sahaji
sahem
sahu
sahy
saint
sainte
saints
saji
sakra
sakristie
sakristii
sal
sala
salcburku
salesia
sally
salm
salo
salon
salonu
salt
salva
salvador
salzburg
sam
sama
samantha
samar
samc
samce
samci
samcu
same
samec
sametove
sami
samic
samice
samici
samo
samohla
samospra
samostatna
samostatne
samostatnost
samostatnosti
samostatnou
samostatny
samota
samote
samotna
samotne
samotnou
samotny
samoty
samou
samovolne
samozr
samsung
samuel
samuela
samy
san
sancho
sandra
sane
sankce
sankci
sankt
sant
santa
santiago
santo
santos
sao
sar
sara
sarah
sarajevo
sarajevu
sardinii
sarkofa
sars
sas
saska
saske
sasko
sasku
sasky
satan
satelitni
satelitu
saturn
sau
sauropodni
sav
savci
savcu
save
savojska
savojske
savojsky
saxofon
saxofonista
say
sazba
sazby
sb
sbe
sbi
sbli
sbohem
sbor
sborem
sbormistr
sborni
sborove
sborovy
sboru
sbory
sc
scala
scalemajor
scaleminor
sce
scena
scene
scha
sche
schmidt
schneider
scho
schodech
schodis
schodu
schody
school
schopen
schopna
schopne
schopni
schopno
schopnost
schopnosti
schopnostmi
schopny
schova
schra
schro
schu
schubert
schulz
schumacher
schuz
schva
schwarz
schwarzenberg
schwarzenbergu
sci
science
sciences
scientific
scott
scotta
scriptstyle
sd
sde
sdh
sdi
sdruz
se
sea
sean
search
season
seat
seattle
seattlu
sebastia
sebastian
sebe
sebeve
sebevraz
sebou
sebral
sebrane
sec
secese
secesni
seci
second
secret
section
security
seda
sedac
sedadla
sedan
sede
sedi
sedimentu
sedimenty
sedla
sedlc
sedle
sedlec
sedlem
sedlo
sedlovou
sedm
sedma
sedmdesa
sedme
sedmi
sedmic
sedmilete
sedmna
sedmou
sedmy
see
segment
segmentu
sehra
seifert
sein
seine
sek
seka
sekce
sekci
sekreta
sekretaria
sektor
sektoru
sekty
seku
sekula
sekund
sekunda
sekundu
sekundy
sekvence
sekvenci
seky
sel
selektivni
self
selha
selne
selny
selske
selsky
sem
semafor
semen
semena
semeni
semeny
semi
semifina
semily
semina
semna
semne
semnictvi
semnosti
semny
sen
sena
senica
senior
seniora
seniorske
seniory
sepsa
sepsal
september
ser
serafi
serena
sergej
sergeje
sergejevic
sergio
seria
serie
series
server
serveru
servery
servi
service
services
servis
servisni
servisu
serz
ses
sesazen
seskupeni
session
sesta
sestava
sestave
sestavena
sestaveni
sestaveny
sestavil
sestavila
sestavit
sestavova
sestavy
sester
sestoupil
sestr
sestra
sestrou
sestru
sestry
sestup
sestupu
set
setech
setka
setkal
setkala
setkali
setkat
setove
setr
setrva
setrvac
setrval
setu
sety
sev
seven
sever
severne
severni
severoamericke
severoamericky
severoc
severojiz
severovy
severoza
severske
seversky
severu
sevilla
sevr
sex
sexu
sexua
seymour
sez
sezeni
sezna
seznam
seznamu
seznamy
sezo
sezon
sezona
sezone
sezonou
sezonu
sezony
sf
sfe
sfondo
sfr
sg
sh
sha
shadow
shakespeara
shakespeare
shannon
sharon
shaw
she
shell
shield
shift
shl
shleda
shledal
shoda
shode
shodne
shodny
shoduje
shoduji
shor
shora
short
show
shrnuti
shroma
shromaz
si
sia
siao
sibir
sic
sice
sici
sicilske
sicilsky
sid
side
siding
sidney
sie
siegfried
siemens
sien
sierra
sigma
sigmund
sign
signa
signalizac
signalizace
signata
sii
sil
sila
silami
sili
silla
silna
silne
silni
silnic
silnice
silnici
silnou
silny
silo
silou
silva
silver
sily
sim
simon
simona
simone
simpson
simpsonovi
simpsonovy
simpsons
simula
simulace
sin
sinclair
sing
singapur
singapuru
singer
singl
single
singlem
singles
singlove
singlovy
singlu
singly
sio
sionisticke
sir
sira
sire
sirotc
sis
sit
site
situace
situaci
situova
sive
six
size
sj
sjedna
sjednocena
sjednocene
sjednoceni
sjednotit
sjezd
sjezdu
sji
sk
ska
skaji
skal
skala
skali
skalica
skalice
skalka
skalnate
skalnaty
skalni
skalo
skaly
skana
skanda
skandina
skane
skany
skat
skaut
skauti
skautske
skautu
skc
ske
skem
ski
skie
skla
sklad
skladatel
skladatele
skladatelem
skladateli
skladatelka
skladatelu
skladba
skladbe
skladbou
skladbu
skladby
skladeb
skladis
skladova
skladu
sklady
sklena
sklene
skleni
sklep
sklepy
skli
sklo
sklon
sklone
sklonku
sklony
sko
skoc
skok
skokan
skokem
skoku
skoky
skonc
skopje
skor
skoro
skot
skots
skotska
skotske
skotsko
skotsku
skotsky
skotu
skou
skova
skovce
skovcove
skovcovy
skove
skovec
skovy
skp
skr
skra
skrec
skromne
skromny
skry
skryta
skryte
skryty
skrz
skrze
skslovan
sku
skupin
skupina
skupinami
skupine
skupinou
skupinove
skupinovy
skupinu
skupiny
skutec
skutek
skutku
skutky
skve
skvrn
skvrnami
skvrny
sky
skyt
skytem
skytu
sl
sla
slaba
slabe
slabost
slabosti
slabs
slaby
sladka
sladke
sladkovodni
sladky
slalom
slalomu
slam
slamu
slane
slany
slatina
slav
slave
slavi
slavia
slavic
slavie
slavii
slavil
slavkov
slavkovske
slavkovsky
slavna
slavne
slavni
slavnost
slavnosti
slavnostne
slavnostni
slavnou
slavny
slavoj
slavomi
slavonice
sle
slec
slech
slechu
sled
sledci
sledek
sledkem
sledku
sledky
sledna
sledne
sledni
slednictvi
slednou
sledny
sledova
sledoval
sledovala
sledovali
sledovalo
sledovaly
sledovane
sledovany
sledovat
sledovne
sledovni
sledu
sleduje
sleduji
slem
slepa
slepe
slepic
slepice
slepy
slezska
slezske
slezsko
slezsku
slezsky
sli
slib
slibu
slibuje
sliby
slic
slice
slicemi
slitiny
sliznice
slo
sloh
slohu
slon
slona
sloni
slonoviny
slonu
slouc
sloup
sloupce
sloupci
sloupec
sloupky
sloupu
sloupy
slouz
slov
slova
slovakia
slovan
slovane
slovanem
slovanska
slovanske
slovansky
slovanu
slovany
slovart
slove
slovech
slovem
slovens
slovenska
slovenske
slovenskej
slovensko
slovenskou
slovensku
slovensky
sloves
slovesa
sloveso
slovi
slovins
slovinska
slovinske
slovinsko
slovinsku
slovinsky
slovky
slovne
slovni
slovnost
slovnosti
slovo
slovu
slovy
sloz
slu
sluc
sluch
slucha
sluchu
sluh
sluha
sluhou
sluhu
sluhy
sluje
slunce
sluncem
slunci
slunec
sluni
slus
sluz
sly
slys
slza
slzy
sm
sma
small
smart
smaz
sme
smec
smem
smen
smena
smene
smenem
smeno
smeny
smetana
smetanova
smetany
smi
smir
smith
smlouva
smlouve
smlouvou
smlouvu
smlouvy
smluv
smluvni
smo
smoli
smrc
smrk
smrkem
smrku
smrt
smrtelne
smrtelny
smrti
smrz
sms
smu
smutec
smutek
smutku
smutna
smutne
smutny
smy
smyc
smyk
smyku
smys
smysl
smyslem
smyslu
smysly
sn
sna
snad
snadne
snadno
snah
snaha
snahou
snahu
snahy
snaz
snaze
snazs
sne
sni
snic
snicka
snicke
snicky
snictvi
snil
sniz
snou
snow
snp
sns
sntl
snu
sny
so
sob
soba
sobe
sobek
sobem
soben
sobena
sobene
sobeni
sobeno
sobenou
sobeny
sobi
sobil
sobila
sobili
sobilo
sobilost
sobilosti
sobily
sobis
sobit
sobna
sobne
sobni
sobnost
sobnosti
sobnou
sobny
sobota
sobotka
sobotni
sobotu
sobova
sobovaci
sobovat
sobu
sobuje
sobuji
soby
soc
soccer
soccerway
soch
socha
sochami
sochar
sochou
sochu
sochy
socia
social
socialismu
socialismus
socialiste
socialisticka
socialisticke
socialistickou
socialisticky
socie
society
sociolog
sociologicke
sociologicky
sociologie
sociologii
socorro
sodi
sodne
sodny
sofia
sofie
sofii
soft
software
softwarove
softwaru
sojuz
sojuzu
soklu
sokol
sokola
sokolov
sokolske
sol
sola
soli
solidarity
solite
solo
solun
som
soma
some
sommer
son
sona
sonda
sondy
song
songs
sons
sony
sopec
sopek
sophie
sopka
sopky
sopra
sor
sos
sost
sotva
sou
soube
souboj
souboje
souboji
soubor
souborem
souborne
souboru
soubory
souc
soud
soudce
soudcem
soudci
soudcu
soudem
soudi
soudni
soudnictvi
soudobe
soudoby
soudrz
soudu
soudy
souhla
souhlas
souhlasem
souhlasi
souhlasil
souhlasila
souhlasu
souhrn
souhrnne
souhrnny
souhve
soukroma
soukrome
soukromi
soukromou
soukromy
soukup
soul
souladu
soulu
soume
soumrak
soumraku
sound
soundtrack
souostrovi
souper
soupis
soupiska
soupisky
soupisu
souprava
soupravy
sour
source
sourozence
sourozenci
sourozencu
sous
soused
sousede
sousedi
sousedni
sousedstvi
sousedu
sousedy
sousos
soustava
soustave
soustavne
soustavou
soustavu
soustavy
soustr
soute
south
southern
soutokem
soutoku
souviseji
souvisi
souvisle
souvislost
souvislosti
souvisly
souvrstvi
souz
sova
sove
sovy
sp
spa
space
spacewatch
spacex
spada
spadaji
spadala
spadl
spadla
spadne
spain
spal
spalova
spalovaci
spani
spart
sparta
spartak
spartaku
sparte
spartou
spartu
sparty
spaseni
spasitele
spatr
spd
spe
specia
special
specialista
specializace
specializaci
specializoval
specializovane
specializovany
specializuje
specializuji
species
specificka
specificke
specifickou
specificky
specifikace
specifikaci
spectrum
speed
spektra
spektrum
spekulace
spekulaci
spencer
spi
spider
spiegel
spielbericht
spiknuti
spin
spira
spirit
spiritua
spis
spisech
spisovatel
spisovatele
spisovatelem
spisovateli
spisovatelka
spisovatelky
spisovatelu
spisovne
spisu
spisy
spjata
spjaty
spla
split
spln
splne
splnil
splnit
sply
spn
spo
spoc
spodni
spoj
spoje
spojen
spojena
spojence
spojencem
spojenci
spojencu
spojene
spojenecke
spojenecky
spojenectvi
spojeni
spojeno
spojenou
spojeny
spoji
spojil
spojila
spojili
spojily
spojit
spojitost
spojka
spojky
spojova
spojovaci
spojovala
spoju
spojuje
spojuji
spokojen
spol
spole
spolec
spolehlive
spolehlivost
spolehlivosti
spolehlivy
spolek
spolkem
spolkova
spolkove
spolkovy
spolku
spolky
spolu
spoluautor
spoluautorem
spoluhra
spolupra
spolupracoval
spolupracovala
spolupracovali
spolupracovat
spolupracovni
spolupracuje
spolupracuji
spoluvlastni
spoluz
spoluzakla
spoluzakladatel
spoluzakladatelem
spoluzaloz
sponta
spor
sporech
sporne
sporny
sport
sportech
sportovce
sportovci
sportovcu
sportovec
sportovis
sportovni
sports
sportu
sportverlag
sporty
sporu
spory
spotr
spous
spousta
spoustu
spr
spra
spravedlive
spravedlivy
spravedlnost
spravedlnosti
spravova
spravoval
spravuje
spring
springer
springfield
sprint
sprinter
sprintu
spu
spus
spusti
spustil
spustila
spustit
sql
sqrt
square
sr
sra
sraz
srb
srbove
srbs
srbska
srbske
srbsko
srbskou
srbsku
srbsky
srbu
srdc
srdce
srdcem
srdci
srdec
sri
srn
srostle
srostly
srov
srovna
srovnatelne
srp
srpen
srpna
srpnu
srs
srst
srsti
srv
ss
ssc
ssd
sseldorf
sseldorfu
ssr
sssr
st
sta
stabilitu
stability
stabilizaci
stabilni
stac
staciona
stade
stadio
stadion
stadionu
stadiony
stadium
stadt
stage
stahova
staji
stal
stala
staleti
stali
stalin
stalina
stalo
stalost
stalosti
staly
stan
stand
standard
standardem
standardne
standardni
standardu
standardy
stane
stanford
stanic
stanice
stanicemi
stanici
stanislav
stanislava
stanisław
stanley
stanou
stanov
stanoven
stanovena
stanovene
stanoveni
stanoveno
stanoveny
stanovi
stanovil
stanovila
stanovis
stanoviska
stanovisko
stanovit
stanovuje
stanovy
stanu
stanul
star
stara
staral
starala
starat
stare
stark
starobyle
starobyly
staroc
staroda
starome
staror
staroslove
starost
starosta
starosti
starostou
starostove
starostu
starosty
starou
starove
staroz
staroza
stars
start
startem
startovaci
startoval
startovala
startovat
startovni
startu
startuji
starty
stary
stas
stat
statci
state
statec
statek
states
stati
staticke
staticky
station
statisticke
statisticky
statistik
statistika
statistiky
statka
statkem
statku
statky
status
statusu
statut
statuta
statutu
stav
stava
stavba
stavbami
stavbe
stavbou
stavbu
stavby
stave
staveb
stavebne
stavebni
stavebnictvi
stavech
stavem
staveni
stavi
stavis
stavitel
stavitele
stavitelem
stavitelstvi
stavni
stavoda
stavou
stavove
stavovske
stavovsky
stavu
stavy
staz
stb
stci
ste
stec
stech
stecke
stecky
steel
stefan
stehli
stein
steiner
stejna
stejne
stejnojmenna
stejnojmenne
stejnojmennou
stejnojmenny
stejnopohlavni
stejnosme
stejnou
stejny
stejskal
stek
stella
stem
stenograficky
stenprot
step
stephen
stepi
stepni
stern
sterreich
sterreichische
stev
steve
steven
stevens
stevni
stewart
stezce
stezka
stezky
sti
stic
stice
stidla
stihl
stil
stila
stili
still
stilo
stily
stin
stipendium
stit
stiz
stka
stkem
stkou
stku
stky
stlac
stmi
stna
stnance
stnanci
stnancu
stnanec
stnanost
stnanosti
stnany
stnavatele
stne
stni
stnost
stnostech
stnosti
stny
sto
stoc
stockholm
stockholmu
stodola
stodrz
stodu
stoji
stojne
stojni
stojnost
stojnosti
stokra
stol
stolce
stole
stolec
stoleti
stolic
stolice
stolici
stolni
stolu
stone
stones
stonku
stop
stopa
stopka
stopr
stopu
stopy
store
stories
storm
story
stoupa
stoupaji
stoupavost
stoupenci
stoupencu
stoupl
stoupla
stova
stovane
stovany
stovat
stove
stovek
stovky
stovy
stoz
str
stra
strach
strachem
strachu
strahovske
straka
strakonice
stran
strana
stranami
strane
strange
strani
stranicke
stranicky
stranou
stranu
strany
stras
strategicke
strategicky
strategie
strategii
stratovulka
strauss
stravova
stravy
straz
straße
stream
streda
street
stresu
strike
striktne
string
strme
strmy
strnad
stroj
stroje
strojem
stroji
strojni
strojove
stroju
strojvedouci
strom
strome
stromech
stromem
stromove
stromu
stromy
strop
stropni
stropu
stropy
stru
struc
structure
struktur
struktura
strukturni
strukturou
strukturu
struktury
struny
stry
strz
sts
stska
stske
stskou
stsky
stu
stuart
studa
stude
studena
studene
student
studenta
studenti
studentske
studentsky
studentu
studenty
studeny
studia
studie
studiem
studies
studii
studijni
studio
studios
studiova
studiove
studiovy
studiu
studium
studna
studny
studoval
studovala
studovat
studovne
studuje
studuji
study
stuha
stuje
stuji
stup
stupce
stupcem
stupci
stupcu
stupem
stupen
stupis
stupn
stupna
stupne
stupni
stupnice
stupnici
stupnictvi
stupny
stupove
stupovy
stupu
stupy
stuttgart
stuttgartu
stuz
stuze
stv
stva
stvem
stvi
stvo
stvor
stvu
sty
styk
styku
styky
styl
style
stylem
stylu
styly
stys
styse
su
sua
sub
subjekt
subjektivni
subjektu
subjekty
subkontinentu
subsp
substra
subtropicke
sucha
suchdol
suche
sucho
suchou
suchy
sud
sudek
sudet
sudetone
sudets
sudi
sue
sui
suita
suk
sullivan
sulta
sultan
sultana
sum
suma
summer
summit
sun
sunday
sung
super
superpoha
superstar
support
supraphon
sur
surove
surovin
suroviny
survey
sus
susan
sut
sutere
suvere
suz
suzanne
suzuki
sv
sva
svah
svahu
svahy
sval
svalove
svalu
svaly
svar
svata
svatba
svatbe
svatbu
svatby
svate
svatebni
svati
svatoja
svatopluk
svatopluka
svator
svatosta
svatou
svatova
svatovi
svaty
svatyne
svatyni
svaz
svazci
svazek
svazem
svazi
svazku
svazky
svazu
sve
sven
svet
svg
svi
svisle
svisly
svit
svita
svitavou
svitavske
svitavy
svitu
svle
svobod
svoboda
svobode
svobodna
svobodne
svobodni
svobodnou
svobodny
svobodova
svobodu
svobody
svoje
svoji
svola
svolal
svoleni
svou
svrchni
svrchovanost
svrchu
svrz
svu
svy
sw
swe
sweet
swift
swiss
sy
sydney
sylva
symbol
symbolem
symbolicke
symbolicky
symbolizuje
symbolizuji
symbolu
symboly
symetricky
symetrie
symfonicke
symfonicky
symfonie
symfonii
sympatie
symphony
symptomy
syn
syna
synagoga
synagogy
syndrom
synem
synonyma
synonymum
synovce
synove
synovec
synovi
synte
synteticke
synteticky
synteza
synu
syny
syrske
syrsky
syste
system
systematicke
systematicky
systems
syte
sz
sze
szlo
t
ta
tab
taba
table
tabulce
tabule
tabulek
tabuli
tabulka
tabulku
tabulky
tac
tachov
taci
tacitus
tadea
tadeusz
tady
tafeta
tafete
tafety
tag
tah
tahem
tahu
tahy
tai
taje
tajemne
tajemni
tajemny
tajemstvi
taji
tajna
tajne
tajnosti
tajnou
tajny
tak
take
takhle
takova
takove
takovi
takovou
takovy
takr
takte
takticke
takticky
taktika
taktiku
takto
taky
takz
takzvana
takzvane
takzvany
tal
tala
talent
talentu
tales
tali
talk
talo
taly
tam
tame
tami
tamni
tampere
tamte
tan
tana
tanc
tance
tanci
tancu
tane
tanec
tank
tankova
tankove
tankovy
tanku
tanky
tany
tao
tar
tas
tasma
tat
tata
tatar
tate
tater
tati
tato
tatra
tatran
tatry
tau
tave
tavy
taxi
taxon
taxonomie
taxonu
taxony
taylor
taz
tb
tbilisi
tc
tce
tch
tcha
tchaj
tchang
tchien
tci
tcp
tcu
te
team
teams
teatro
teau
tebe
tebou
tec
tech
technice
technicka
technicke
technickou
technicky
technik
technika
technikou
techniku
techniky
technologicke
technologicky
technologie
technologii
technology
ted
tedy
teen
tefa
tefan
tehda
tehdejs
tehdy
tehera
teina
tejn
tejna
tejne
tejnem
tejnove
tejnska
tejnske
tejnsky
tejnu
tek
tekouci
tekutiny
tel
telavivske
telc
tele
telefon
telefonni
telefonu
telefony
telegrafni
telegraph
telekomunikac
telem
television
televize
televizi
televizni
teli
telil
telkyne
telkyni
tell
telne
telny
telske
telskou
telsky
telstvi
telu
tely
tem
tematicke
tematicky
tematikou
teme
temna
temne
temnou
temny
templa
temple
tempo
ten
tena
tendence
tendenci
tene
teni
tenis
tenisova
tenisove
tenisovy
tenista
teniste
tenistka
tenistky
tenistu
tenisu
tenke
tenkra
tenky
tennessee
tennis
teno
tenor
tenstvi
tento
tentokra
tenty
teny
teolog
teologicka
teologicke
teologicky
teologie
teologii
teologove
teoretici
teoreticke
teoreticky
teoretik
teorie
teorii
tepelna
tepelne
tepelny
tepla
teple
teplejs
teplic
teplice
teplici
teplo
teplot
teplota
teplote
teplotni
teplotou
teplotu
teploty
teplou
teply
teprv
teprve
ter
tera
terapie
terapii
terasa
terasy
terc
tercia
tere
terem
teresa
tereza
terezi
terezia
terezie
terezii
terie
teritoria
teritorii
teritorium
terma
termi
termina
terminologie
terminologii
ternberk
ternberka
terni
teropodni
terorismu
teroristicke
teroristicky
teroru
terra
terry
terstu
teru
tery
tes
tesar
tesla
test
testech
testova
testovaci
testu
testy
tesu
tesy
teta
tetova
tetr
tety
tev
texas
texasu
text
textar
textdata
textech
textem
textil
textilie
textilii
textilni
textove
textovy
textu
texty
tez
tf
tg
th
tha
thajska
thajske
thajsko
thajsku
than
that
thdr
the
theater
theatre
their
theodor
theodora
theorie
theory
thepeerage
there
theta
they
thing
things
think
third
this
thomas
thomase
thompson
thomson
thor
thra
three
thriller
thrillery
through
thu
thumb
thun
thurn
ti
tibet
tibetske
tibetsky
tibetu
tibor
tic
tica
tice
ticha
tiche
ticho
tichomor
tichy
tici
tico
tie
tienne
tiger
tihodnosti
til
tila
tilete
tilety
tili
tilia
till
tilo
tily
tim
time
timeaxis
times
timi
timo
timothy
tin
tina
tinami
tine
tinou
tinu
tiny
tis
tisi
tisk
tiska
tiskar
tiskem
tiskova
tiskove
tiskovy
tisku
tisky
tit
tita
titan
titanic
titel
titele
titelnice
titi
title
tito
titou
titul
titula
titulem
titulky
titulni
titulu
tituly
titus
tiv
tiva
tive
tivy
tj
tk
tka
tkami
tkaniny
tke
tkem
tko
tkodobe
tkometra
tkou
tkova
tkove
tkovice
tkovou
tkovy
tkra
tku
tky
tl
tla
tlac
tlak
tlakem
tlakove
tlaku
tlana
tle
tlejs
tlem
tleni
tleny
tli
tlil
tlit
tlo
tlou
tlous
tlova
tluje
tluji
tlumic
tlumoc
tluste
tlusty
tly
tm
tma
tmava
tmave
tmavs
tmavy
tme
tmi
tmy
tn
tna
tne
tnem
tni
tnice
tnici
tno
tnost
tnosti
tnou
tnout
tnove
tnu
tnut
tnuta
tnuti
tny
to
tobe
tobia
tobolka
toc
toce
toci
today
todd
tof
tofa
tohle
toho
tohoto
tok
toka
tokem
tokijske
tokio
tokiu
toku
toky
tokyo
tol
tola
tolerance
toleranci
tolik
toliko
tolkien
tolske
tolsky
tolu
toly
tom
toma
toman
tomas
tomen
tommy
tomna
tomne
tomni
tomnost
tomnosti
tomny
tomte
tomto
tomu
tomuto
ton
tona
toni
tony
too
top
topeni
topic
topol
topola
topra
tor
tora
torem
torka
torkou
torky
torna
toronto
torontu
torovi
torpe
torre
torske
torsky
toru
tory
torzo
tos
toska
tost
tosti
tot
tota
total
totalitni
tote
totiz
toto
totoz
tou
touch
touha
touhou
touhu
touhy
toulouse
tour
tours
tous
touto
touz
tov
tova
tovac
toval
tovarys
tovat
tove
tovi
tovne
tovni
tovou
tovy
tower
town
toxicke
toxicky
toyota
toz
tozna
tp
tr
tra
traci
track
trade
tradic
tradice
tradici
trafika
trafiky
trage
tragicke
tragicky
train
traji
trakc
trakta
traktu
tral
trala
tramvaj
tramvaje
tramvaji
tramvajova
tramvajove
tramvajovy
trans
transakce
transakci
transfer
transfermarkt
transfermarktu
transforma
transformace
transformaci
transport
transporte
transportni
transportu
tranzitni
tras
trasa
trasburku
trase
trasou
trasu
trasy
trat
trate
trati
travel
travnate
travnaty
trc
tre
tree
trefil
trek
treku
trem
trenc
trend
trendu
trendy
trene
trent
trest
tresta
trestem
trestne
trestni
trestny
trestu
tresty
trevi
trevor
trh
trha
trhu
trhy
tri
tria
tribuna
tribute
trilogie
trinity
trio
tristan
triton
triumf
triumfa
triumfoval
triumfu
trna
trnava
trnave
trne
trni
trnostni
trny
tro
trochu
trofej
trofeje
trofeji
trois
troja
trojan
trojc
troji
trojice
trojici
trojlodni
trojna
trojrozme
troju
trolejbusove
trolejbusu
trolejbusy
tropech
trophy
tropicke
tropicky
tros
troska
trosky
trpasli
trpaslic
trpe
trpi
tru
trubek
trubic
trubice
trubka
trubku
trubky
true
truhla
trump
trumpetista
trup
trupem
trupu
trust
truth
trutnov
trva
trvaji
trval
trvala
trvale
trvalo
trvalou
trvaly
trvat
try
trz
trzi
ts
tska
tske
tsko
tskou
tsky
tstvi
tsunami
tt
tte
tter
tu
tuberkulo
tuc
tudi
tudy
tuha
tuhe
tuhle
tuhy
tuje
tukovy
tuku
tula
tulen
tun
tunel
tunelem
tunelu
tunely
tung
tunisko
tuny
tupe
tur
turbi
turbo
turc
turci
turec
turecka
turecke
turecko
tureckou
turecku
turecky
turek
turi
turismus
turiste
turisticka
turisticke
turistickou
turisticky
turistika
turistiky
turistu
turisty
turku
turky
turn
turnaj
turnaje
turnajem
turnaji
turnajove
turnajovou
turnaju
turne
turner
turnov
turnove
tus
tuto
tuz
tuze
tv
tva
tvar
tvarech
tvarem
tvarna
tvarne
tvarni
tvarnice
tvarny
tvaru
tvary
tve
tvene
tveny
tver
tverce
tvercove
tvercovy
tverec
tvi
tvic
tvoje
tvoji
tvor
tvorba
tvorbe
tvorbou
tvorbu
tvorby
tvoru
tvory
tvou
tvrda
tvrde
tvrdi
tvrdil
tvrdila
tvrdili
tvrdost
tvrdou
tvrdy
tvrt
tvrta
tvrte
tvrtek
tvrtfina
tvrti
tvrtine
tvrtiny
tvrtou
tvrty
tvrz
tvrze
tvrzeni
tvrzi
tvu
tvy
twitter
twitteru
two
ty
tyc
tygr
tyl
tyla
tyler
typ
type
typech
typem
typicka
typicke
typickou
typicky
typove
typovy
typu
typy
tyr
tyrolska
tyrolske
tyrolsku
tyrs
tyry
tys
tyto
tz
tzn
tzv
u
ua
uaj
ub
ubi
ubli
ubohe
ubohy
ubomi
ubra
ubuntu
uby
ubytova
ubytovaci
uc
uce
ucha
uchazec
ucho
uchova
uchra
uchva
uchy
uci
ucti
ud
uda
ude
uder
udi
udovi
udrz
udy
uefa
ufo
uh
uha
uhelne
uhelny
uher
uherc
uhers
uherska
uherske
uhersko
uhersku
uhersky
uhli
uhlic
uhlovodi
uhr
uhra
uj
ujal
ujala
uje
ujedna
ujeme
uji
ujis
ujme
uk
uka
ukazatel
ukazatele
ukazoval
ukazuje
ukazuji
ukla
ukonc
ukor
ukr
ukraine
ukrajina
ukrajinci
ukrajine
ukrajins
ukrajinska
ukrajinske
ukrajinskou
ukrajinsky
ukrajinu
ukrajiny
ukry
uku
uky
ul
ula
ulc
ule
ulehc
uli
ulic
ulice
ulicemi
ulici
ulove
ulovy
uloz
ulrich
ultima
ultimate
ultra
uly
um
umava
umave
umavske
umavy
ume
umi
umist
umoz
umperk
umr
umuc
un
una
und
under
underground
une
unesco
ung
unhos
uni
unic
unicode
unie
unii
unika
unikl
uniknout
union
unit
unita
united
univ
universal
universe
universita
universite
university
univerza
univerzit
univerzita
univerzite
univerzitni
univerzitou
univerzitu
univerzity
unix
unter
up
upa
upadl
upe
upevn
upevne
upi
uplatn
uplatne
uplatnil
uplatnit
uplynuti
upni
upomi
upouta
upozorn
upozorne
upozornil
upper
upr
upraven
upravena
upravene
upraveno
upraveny
upravil
upravit
upravova
upravuje
upravuji
uprchl
uprchli
uprchnout
upright
uprostr
upy
ur
ura
uran
uranu
uraz
urba
urban
urbana
urc
uri
url
urna
urnalista
urnalistiky
urovna
urs
uruguay
urychlene
us
usa
usadil
usadila
usadili
usaf
usb
usd
use
usedl
usedlost
usedlosti
user
usgs
usi
usiloval
usilovat
usiluje
usiluji
uskladne
uskupeni
uskutec
uslys
usma
usme
usmi
usnadn
usnadne
usneseni
uspe
uspokojeni
uspor
uss
usta
ustanoven
ustanovena
ustanoveni
ustanovil
ustavena
ustaveni
ustavic
ustavuji
ustoupil
ustoupit
ustupuji
usve
ut
uta
utah
utahu
utc
ute
utec
utekl
uti
utis
utka
utkal
utkalo
utkaly
utlac
utricularia
utrpe
utrpeni
utrz
utva
utvor
uv
uva
uvar
uvaz
uve
uveden
uvedena
uvedene
uvedeni
uvedeno
uvedeny
uvedl
uvedla
uvedli
uvedlo
uver
uvi
uvide
uvidi
uvnitr
uvoln
uvolne
uvolni
uz
uza
uzavi
uzavr
uzbekista
uzdraveni
uzel
uzlem
uzlu
uzly
uzna
uznal
uznala
uznat
uzpu
uzr
v
va
vac
vacek
vaci
vaculi
vad
vada
vadu
vady
vadz
vago
vagr
vah
vaha
vahu
vahy
vaje
vajec
vaji
vakci
val
vala
valas
valc
valds
vale
valem
valenou
valenta
valentin
valentina
valerij
vali
valka
valle
valley
valna
valne
valo
valois
valou
valu
value
valy
vami
van
vana
vanc
vancouver
vancouveru
vanda
vane
vani
vanou
vany
var
varech
varepsilon
varhan
varhana
varhani
varhanni
varhany
variabilni
variace
variaci
variant
varianta
variante
variantou
variantu
varianty
variety
varnsdorf
varova
varoval
varphi
vars
varu
varuje
vary
vas
vasilij
vasiljevic
vat
vati
vatika
vavr
vaz
vazba
vazbe
vazbou
vazbu
vazby
vazeb
vazek
vazku
vazky
vazne
vaznosti
vazny
vb
vc
vce
vcelku
vcem
vcha
vchod
vchodem
vchodu
vci
vcu
vda
vdala
vdana
vde
vdova
vdovou
vdovy
ve
vec
vece
vech
vecke
vecky
ved
veda
vede
veden
vedena
vedene
vedeni
vedenou
vedeny
vedl
vedla
vedle
vedlejs
vedli
vedlo
vedly
vedou
vedouci
vega
vegas
vegetac
vegetace
vegetaci
vegetaria
vej
vejc
vejce
vejci
vejde
vejk
vejte
vek
vektor
vektorove
vektorovy
vektoru
vektory
vel
velci
velekne
velel
veleni
veletrhu
veletrz
veli
velic
velice
velika
velike
velikonoc
velikost
velikosti
velikou
veliky
velitel
velitele
velitelem
veliteli
velitelske
velitelstvi
velitelu
velka
velke
velkodu
velkokni
velkokr
velkolepe
velkolepy
velkome
velkostatek
velkostatka
velkostatku
velkou
velkove
velky
velmi
velmistr
velmoci
velmoz
velryba
vels
velvet
velvyslance
velvyslancem
velvyslanci
velvyslanec
velvyslanectvi
vem
ven
vene
venezuela
veni
venkov
venkova
venkove
venkovni
venkovska
venkovske
venkovsky
venku
ventila
venus
veny
vepr
ver
vera
verdi
verein
verlag
verne
verner
verona
veronica
veronika
vers
versailles
version
versus
vertebrate
vertical
vertika
very
verze
verzi
ves
vesela
vesele
veseli
vesely
vesista
veslar
veslova
vesme
vesmi
vesnic
vesnice
vesnicemi
vesnici
vesnicke
vesnicky
vestave
vestfa
vesy
vetera
veterina
vetr
vever
vez
vezme
vf
vg
vhodna
vhodne
vhodnou
vhodny
vi
via
viadukt
vic
vice
vicemistr
viceprezident
vichr
vici
vickers
vicko
victor
victoria
vid
vida
vide
videa
videi
video
videoherni
videohra
videohry
videoklip
videoklipu
videoklipy
vidi
viditelna
viditelne
viditelny
vie
vienna
vietnam
vietnamske
vietnamu
view
vii
viii
vika
vikaria
viking
viktor
viktora
viktoria
viktorie
viktorii
vil
vila
vile
vilemi
vili
viliam
villa
village
ville
vilnius
vilo
vilu
vily
vin
vina
vinar
vincenc
vincence
vincent
vinci
vine
vini
vinic
vinice
vinici
vinne
vinny
vinohradech
vinohradske
vinohrady
vinou
vinu
viny
viola
violoncello
violu
virem
virgin
virginia
virginie
virginii
virove
virtua
virtual
viru
virus
viry
vis
visi
vision
visla
visle
visli
vislost
vislosti
vislou
visly
vist
vista
visti
visual
vit
vita
vitami
vitra
viz
vize
vizi
vizigo
vizua
vjac
vjezd
vjezdu
vk
vka
vkami
vkem
vkla
vkladu
vkou
vkova
vkove
vkovy
vkroc
vku
vkusu
vky
vkyne
vl
vla
vlach
vladar
vladimi
vladimir
vladimira
vladislav
vladislava
vladyka
vlajce
vlajek
vlajka
vlajkou
vlajku
vlajky
vlak
vlakem
vlakove
vlaku
vlaky
vlas
vlasa
vlast
vlasta
vlastenec
vlastenecke
vlastenecky
vlastenectvi
vlasti
vlastimil
vlastive
vlastne
vlastni
vlastnicke
vlastnictvi
vlastnil
vlastnila
vlastnili
vlastnost
vlastnosti
vlastnostmi
vlasu
vlasy
vlc
vlci
vle
vlec
vlevo
vlhke
vlhkost
vlhkosti
vlhky
vli
vliv
vlivem
vlivne
vlivny
vlivu
vlivy
vlk
vlka
vlku
vln
vlna
vlne
vlnou
vlnove
vlnu
vlny
vloz
vltava
vltave
vltavou
vltavy
vna
vne
vni
vnic
vnicka
vnicke
vnickou
vnicky
vnitr
vnitra
vnitrosta
vnitrozemi
vno
vnost
vnosti
vnou
vnuc
vnuk
vnuka
vnukem
vny
vo
voc
vod
voda
vodc
vodce
vodcem
vodci
vode
vodech
vodem
vodi
vodic
vodil
vodkyne
vodkyni
vodn
vodne
vodni
vodohospoda
vodopa
vodorovne
vodorovny
vodou
vodove
vodovi
vodovod
vodstvi
vodstvo
vodu
vody
voice
void
voj
voja
voje
vojem
vojens
vojenska
vojenske
vojenskou
vojensky
vojenstvi
vojevu
voji
vojna
vojnu
vojove
vojovy
vojsk
vojska
vojskem
vojsko
vojsku
vojsky
vojta
vojte
vojti
vojvodstvi
vok
voka
vol
vola
volaji
volal
volba
volbami
volbe
volbou
volbu
volby
volcano
voleb
volebni
volejbal
volen
voleni
voleny
volf
voli
volic
volit
volkswagen
volna
volne
volno
volnost
volnosti
volnostylar
volnou
volny
volume
volyn
vom
von
vondra
voni
vor
vorce
vors
vos
vou
vous
vova
voval
vovala
vovane
vovat
vove
vovy
voyager
voz
voze
vozech
vozem
vozi
vozidel
vozidla
vozidlo
vozove
vozovna
vozovy
vozu
vozy
vp
vpa
vpr
vpravo
vr
vra
vraceji
vracel
vraci
vrah
vraha
vranov
vrat
vrata
vrate
vratislav
vratislava
vratislavi
vratislavske
vratislavsky
vratne
vratu
vraty
vraz
vrazi
vrba
vrch
vrchem
vrchlabi
vrchni
vrchnost
vrchnosti
vrchol
vrcholem
vrcholi
vrcholku
vrcholne
vrcholny
vrcholove
vrcholovy
vrcholu
vrcholy
vrchovina
vrchovine
vrchoviny
vrchu
vrchy
vrh
vrha
vrhac
vrhem
vrhl
vrhu
vrhy
vrouci
vrs
vrstev
vrstevni
vrstva
vrstvami
vrstve
vrstvou
vrstvu
vrstvy
vrta
vrtule
vrtuli
vrtulni
vru
vry
vrz
vs
vseti
vsi
vska
vske
vskutku
vsky
vsta
vstal
vstoupi
vstoupil
vstoupila
vstoupili
vstoupilo
vstoupily
vstoupit
vstr
vstup
vstupem
vstupne
vstupni
vstupu
vstupuje
vstupuji
vstupy
vt
vta
vte
vter
vtip
vtipu
vtj
vtom
vu
vuelta
vuje
vuji
vulgaris
vulka
vulkanicke
vut
vv
vw
vy
vybaven
vybavena
vybavene
vybaveni
vybaveno
vybaveny
vybe
vybere
vybi
vybojoval
vybojovala
vybojovali
vybra
vybral
vybrala
vybrali
vybrana
vybrane
vybrany
vybrat
vybudova
vybudoval
vybudovali
vybudovane
vybudovany
vybudovat
vyc
vycha
vychodil
vychova
vycvic
vyd
vyda
vydal
vydala
vydali
vydalo
vydaly
vydana
vydane
vydany
vydat
vydavatel
vydavatele
vydavatelem
vydavatelstvi
vyde
vydi
vydr
vydra
vydrz
vyha
vyhla
vyhlas
vyhlazovaci
vyhleda
vyhli
vyhna
vyhnal
vyhnanstvi
vyhnout
vyhnul
vyhodnoceni
vyhodnocova
vyhor
vyhos
vyhove
vyhovuji
vyhozen
vyhr
vyhra
vyhrane
vyhrany
vyhroz
vyhy
vyhynuly
vyhynuti
vyja
vyjadr
vyjde
vyjedna
vyjel
vyji
vyjma
vyka
vykazuje
vykazuji
vykla
vykona
vykonal
vykonat
vykopa
vykor
vykr
vyle
vyleps
vyli
vylode
vylouc
vyloz
vyluc
vyma
vyme
vymezene
vymezeni
vymezeny
vymezuje
vymi
vymr
vymy
vymyslel
vyn
vyna
vynalezl
vynaloz
vynecha
vynesl
vynesla
vynika
vynikaji
vynikal
vynikl
vynor
vyobrazen
vyobrazeni
vypa
vypada
vypadaji
vypadal
vypadat
vypadl
vypadla
vype
vypi
vypla
vyplene
vypln
vyplne
vyply
vypoc
vypor
vypous
vypove
vypovi
vypra
vypracova
vypracoval
vyprave
vypravil
vypravova
vypravoval
vypravuje
vyprs
vypsa
vypu
vypukl
vypukla
vypuklo
vypukly
vypuknuti
vypus
vyr
vyra
vyraz
vyrazil
vyroben
vyrobena
vyrobene
vyrobeno
vyrobeny
vyrobil
vyrobila
vyrobit
vyrostl
vyrostla
vyrovna
vyrovnal
vyrovnane
vyrovnat
vyru
vyrus
vys
vysa
vysazova
vysi
vyskoc
vyskytovat
vyskytuje
vyskytuji
vysla
vyslal
vyslala
vyslancem
vyslanec
vyslouz
vyslovil
vyslovuje
vysly
vyslys
vysoc
vysoce
vysoka
vysoke
vysoko
vysokorychlostni
vysokos
vysokou
vysoky
vyspe
vystave
vystaven
vystavena
vystaveni
vystaveno
vystaveny
vystavova
vystavoval
vystavuje
vyste
vystoupeni
vystoupi
vystoupil
vystoupila
vystoupili
vystoupit
vystr
vystudoval
vystudovala
vystupova
vystupoval
vystupovala
vystupovali
vystupovat
vystupuje
vystupuji
vysus
vysve
vyta
vyte
vytesa
vyti
vytis
vytlac
vytr
vytrvala
vytrvale
vytrvalost
vytrvalostni
vytrvaly
vytrz
vytva
vytvor
vyty
vytyc
vyu
vyuc
vyuz
vyva
vyve
vyvi
vyvinout
vyvinul
vyvinula
vyvinuli
vyvinulo
vyvinuly
vyvinut
vyvinuta
vyvinute
vyvinuty
vyvola
vyvolal
vyvolala
vyvolalo
vyvolane
vyvolat
vyvra
vyvraz
vyvrcholeni
vyvy
vyz
vyzar
vyzbrojeny
vyzkous
vyzna
vyznac
vyznamena
vyznamenal
vyznavac
vyzra
vyztuz
vyzva
vyzval
vyzvala
vyzve
vyzy
vz
vza
vzadu
vzal
vzala
vzali
vzbour
vzbudil
vzbudila
vzda
vzdal
vzdala
vzdali
vzde
vzduch
vzduchem
vzduchu
vzdus
vzes
vzestup
vzestupu
vzhled
vzhledem
vzhledu
vzhu
vzi
vzkr
vzkve
vzle
vzletova
vzletu
vzna
vzne
vznes
vznik
vznika
vznikaji
vznikala
vznikaly
vznikat
vznikem
vznikl
vznikla
vznikle
vzniklo
vzniklou
vznikly
vznikne
vzniknout
vzniku
vzor
vzorce
vzorcem
vzorec
vzorek
vzorem
vzorku
vzorky
vzoru
vzory
vzpe
vzpi
vzpomi
vzpomne
vzpour
vzpoura
vzpouru
vzpoury
vzpr
vzrostl
vzrostla
vzrostly
vzru
vzrus
vztah
vztahem
vztahu
vztahuje
vztahuji
vztahy
vztaz
vztazi
vztyc
vzy
w
wa
waffen
wagner
wagnera
wales
walesu
walk
walker
wall
wallace
walt
walter
waltera
walther
wan
wanderers
wang
want
wanu
war
ward
warner
warren
wars
warszawa
was
washington
washingtonu
watch
water
waterloo
waters
watson
wave
way
wayne
wc
we
web
weber
webova
webove
webovy
website
webu
week
wehrmachtu
weiss
wej
wells
welt
wen
wenzel
were
werk
werner
wesley
west
western
weston
what
whc
when
where
whisky
white
whitney
who
why
wi
wide
width
wie
wien
wiener
wiki
wikimedia
wikipedie
wikipedii
wild
wilde
wildlife
wiley
wilhelm
wilhelma
will
willem
william
williama
williamem
williams
williamsova
willy
wilson
wimbledon
wimbledonu
win
wind
windows
wing
wings
winston
winter
wisconsin
with
without
wo
wolf
wolfgang
wolfganga
woman
women
wonder
wood
word
work
working
works
world
worldfootball
worlds
wp
wrc
wrestling
wright
ws
wta
wu
wwe
www
wz
x
xaver
xb
xbox
xi
xico
xii
xiii
xinglong
xiv
xix
xl
xml
xp
xs
xu
xv
xvi
xvii
xviii
xx
xxi
xxiii
xxx
y
ya
yale
yardu
year
years
yellow
yes
yo
york
yorku
you
young
your
youth
youtube
yu
yves
z
za
zabe
zabezpec
zabi
zabija
zabije
zabil
zabila
zabili
zabit
zabiti
zabito
zabity
zabra
zabran
zaby
zac
zacha
zacharia
zachova
zachoval
zachovala
zachovalo
zachovaly
zachovane
zachovany
zachovat
zachra
zachran
zachva
zachve
zachyceni
zachyceny
zachycuje
zachycuji
zachytil
zachytit
zad
zada
zadarmo
zadec
zadluz
zadni
zadrz
zagreb
zaha
zahajovaci
zahle
zahor
zahr
zahra
zahrad
zahrada
zahrade
zahradni
zahradnictvi
zahradou
zahradu
zahrady
zahranic
zahranicni
zahrnoval
zahrnovala
zahrnovalo
zahrnovaly
zahrnovat
zahrnuje
zahrnuji
zahrnuta
zahrnuty
zahynul
zahynula
zahynuli
zahynulo
zajat
zajatce
zajatci
zajatcu
zajati
zajaty
zajec
zajel
zajeti
zaji
zajis
zajiste
zajisti
zajistil
zajistila
zajistilo
zajistily
zajistit
zaka
zakazuje
zakazuji
zakla
zakladatel
zakladatele
zakladatelem
zakladateli
zakladatelu
zaklenuta
zakli
zakonc
zakor
zakoupeni
zakoupil
zakoupila
zakoupit
zakr
zakroc
zakry
zal
zala
zale
zalesne
zali
zalidne
zalo
zaloz
zaly
zame
zami
zamiloval
zamilovany
zamiluje
zamy
zamys
zana
zane
zanecha
zanechal
zanedba
zanedlouho
zani
zanika
zanikl
zanikla
zanikle
zaniklo
zanikly
zanou
zany
zaopatr
zapa
zapi
zapisova
zapisuje
zaplaceni
zaplati
zaplatil
zaplatit
zapoc
zapojeni
zapojeny
zapojil
zapojila
zapojit
zapomi
zapomne
zapotr
zapove
zapr
zapsa
zapsal
zapsane
zapsany
zapsat
zapu
zar
zara
zaregistrova
zaru
zaruc
zas
zasa
zasadil
zasahovat
zasahuje
zasahuji
zasaz
zase
zaseda
zasedal
zasedl
zasi
zaskoc
zasla
zasli
zaslouz
zasnoubeni
zasta
zastarale
zastaraly
zastave
zastaven
zastavena
zastaveni
zastaveny
zastavi
zastavil
zastavila
zastavili
zastavit
zastavuji
zasti
zastoupen
zastoupena
zastoupeni
zastoupeny
zastr
zastras
zastupitel
zastupitele
zastupitelem
zastupitelstev
zastupitelstva
zastupitelstvi
zastupitelstvo
zastupitelstvu
zastupitelu
zastupoval
zastupuje
zastupuji
zasve
zasypa
zat
zata
zatc
zate
zati
zatlac
zatme
zato
zaty
zau
zaujal
zaujala
zauji
zava
zavazuje
zave
zaveden
zavedena
zavedene
zavedeni
zavedeno
zavedeny
zavedl
zavedla
zavi
zavlaz
zavlec
zavola
zavolal
zavou
zavr
zavraz
zavrs
zavske
zavy
zaz
zazde
zaznamena
zaznamenal
zaznamenala
zaznamenany
zazne
zazni
zazpi
zbabe
zbarvena
zbarvene
zbarveni
zbarveny
zbaven
zbaveni
zbavil
zbavit
zbe
zbor
zboura
zboz
zbran
zbrane
zbrani
zbraslav
zbroj
zbroje
zbroji
zbrojni
zbrojnice
zbrojovka
zbrojovky
zbudova
zby
zbyla
zbyle
zbylo
zbyly
zbyne
zbys
zbytec
zbytek
zbytkem
zbytku
zbytky
zc
zce
zcela
zcha
zci
zcu
zd
zda
zdaleka
zdali
zdami
zdane
zdar
zdarma
zde
zdech
zdejs
zden
zdena
zdene
zdenek
zdenka
zdenky
zdi
zdic
zdicovy
zdis
zdiva
zdivo
zdna
zdne
zdni
zdniny
zdnou
zdny
zdo
zdoba
zdobe
zdobena
zdobene
zdobeny
zdobi
zdobou
zdobu
zdoby
zdokupa
zdokupy
zdola
zdolal
zdolala
zdou
zdra
zdrave
zdravi
zdravotne
zdravotni
zdravotnicka
zdravotnicke
zdravotnicky
zdravotnictvi
zdravy
zdroj
zdroje
zdrojem
zdroji
zdrojove
zdrojovy
zdroju
zdrz
zdu
zdvih
zdvojna
zdvor
zdy
ze
zealand
zec
zed
zedna
zedni
zef
zeit
zeitschrift
zeitung
zeji
zejm
zejme
zek
zel
zela
zelen
zelena
zelene
zeleni
zelenina
zeleniny
zelenka
zelenou
zeleny
zeli
zelo
zely
zem
zema
zeman
zemana
zeme
zemi
zemia
zemne
zemni
zempli
zemr
zemska
zemske
zemskou
zemsky
zen
zena
zene
zeni
zenka
zeno
zenou
zeny
zeppelin
zeptal
zerba
zero
zesi
zesilovac
zesnule
zesta
zet
zete
zeti
zeus
zev
zevne
zevni
zevnitr
zezadu
zfilmova
zhle
zhodnoceni
zhor
zhors
zhotoveni
zhotoveny
zhotovil
zhrouceni
zhruba
zi
zia
zicky
zie
zii
zikmund
zikmunda
zil
zila
zili
zilo
zima
zimbabwe
zime
zimni
zimu
zimy
zip
zisk
ziskem
zisku
zisky
zit
ziu
zium
zjednodus
zjev
zjeveni
zjevne
zjis
zjisti
zjistil
zjistila
zjistili
zjistilo
zjistit
zk
zka
zkamene
zkami
zkaz
zke
zklama
zko
zkomponoval
zkonfiskova
zkopodlaz
zkost
zkosti
zkou
zkouma
zkoumaji
zkoumal
zkoumat
zkous
zkova
zkove
zkovy
zkr
zkra
zkratka
zkratkou
zkratky
zkresleni
zku
zkum
zkumech
zkumem
zkumna
zkumne
zkumni
zkumny
zkumu
zkumy
zkus
zky
zl
zla
zlata
zlate
zlatem
zlatni
zlato
zlatou
zlaty
zle
zleps
zleva
zli
zlic
zlikvidova
zlive
zlo
zloc
zlode
zlom
zlomek
zlomil
zlomky
zlomu
zly
zma
zmar
zmatek
zmatku
zme
zmens
zmi
zmin
zmizel
zmizela
zmizely
zmizeni
zmizi
zmocne
zmocnil
zmocnili
zn
zna
znac
znaji
znak
znakem
znakove
znaku
znaky
znal
znalec
znali
znalost
znalosti
znam
zname
znamech
znamem
znamena
znamenaji
znamenal
znamenala
znamenalo
znamenat
znameni
znamenite
znamenity
znamna
znamne
znamni
znamnou
znamny
znamu
znamy
znatelne
zne
znec
znemoz
znepr
znes
zneuz
znevy
zni
znic
znice
znici
zniva
znivci
znivcu
znive
znivy
znojma
znojme
znojmo
znorode
znou
znova
znovu
zny
zo
zoba
zobecne
zobrazen
zobrazena
zobrazeni
zobrazeny
zobrazi
zobrazit
zobrazova
zobrazuje
zobrazuji
zodpove
zodpovi
zoh
zone
zoo
zoolog
zoologicke
zoologicky
zoologie
zopakoval
zor
zora
zorganizoval
zorn
zorne
zoru
zory
zou
zoufale
zoufalstvi
zova
zove
zovou
zovy
zoznam
zpa
zpe
zper
zpevne
zpi
zplos
zpoc
zpochybn
zpoplatne
zpove
zpoz
zpr
zpra
zpracova
zpracoval
zprava
zpravidla
zpravodaj
zpravodajske
zpravodajsky
zpravodajstvi
zpravy
zpros
zprostr
zprovozne
zprvu
zpu
zpustos
zr
zra
zrac
zrady
zrak
zrakem
zraku
zraky
zrale
zralosti
zrane
zranil
zrcadla
zrcadlo
zrekonstruova
zrna
zrodila
zrodu
zrovna
zrozeni
zruc
zrus
zrychleni
zs
zsj
zske
zsky
zslav
zslava
zstvi
zt
zte
zti
ztotoz
ztra
ztracena
ztracene
ztraceno
ztraceny
ztrati
ztratil
ztratila
ztratili
ztratilo
ztratily
ztuz
ztva
zu
zub
zubni
zubr
zubu
zuby
zum
zur
zus
zuz
zuzana
zv
zva
zvana
zvane
zvanou
zvany
zvaz
zve
zveda
zvedl
zvem
zvenc
zver
zvi
zvla
zvlne
zvolal
zvolala
zvolen
zvolena
zvolene
zvoleni
zvoleno
zvoleny
zvoli
zvolil
zvolila
zvolili
zvolit
zvolna
zvon
zvonar
zvonek
zvoni
zvonic
zvonice
zvonici
zvonu
zvony
zvoslovi
zvra
zvraceni
zvu
zvuc
zvuk
zvukem
zvukove
zvukovy
zvuku
zvuky
zvy
zvyk
zvykem
zvyklosti
zvyku
zvyky
zvys
zx
zy
zz
{
|
}
~
¡
£
§
©
«
­
®
°
±
²
³
´
µ
·
¹
º
»
¼
½
¾
×
ß
÷
ø
ı
ł
ƒ
ʹ
ʻ
ʼ
ʿ
ˈ
ˌ
ː
̀
́
̂
̃
̄
̆
̇
̈
̉
̊
̋
̌
̓
̔
̛
̣
̦
̧
̨
̱
͂
͡
α
β
γ
δ
ε
η
θ
ι
κ
λ
μ
ν
ο
π
ρ
ς
σ
τ
φ
ω
а
б
в
г
д
е
з
и
к
л
м
н
на
о
п
р
россии
с
т
у
ч
ъ
ь
ю
я
і
ְ
ֲ
ִ
ֵ
ֶ
ַ
ָ
ֹ
ּ
ׁ
א
ב
ג
ד
ה
ו
ח
י
כ
ל
ם
מ
ן
נ
ע
פ
ק
ר
ש
ת
ا
َ
ٔ
ं
क
त
न
म
र
ल
ा
ि
ी
ु
े
ो
्
া
ั
ิ
ี
่
้
์
་
​
‎
‐
‑
‒
–
—
―
‘
’
‚
“
”
„
‟
†
‡
•
…
‰
′
″
›
⁠
€
№
™
←
↑
→
↓
↔
↷
⇒
∈
−
∞
≈
≡
≤
≥
③
④
⑦
─
│
█
♭
⚭
✔
❊
⺀
⺄
⺆
⺈
⺊
⺌
⺕
⺝
⺸
⺼
⿰
⿱
⿲
⿳
⿴
⿵
⿶
⿷
⿸
⿹
⿺
⿻
〢
い
か
け
し
た
て
と
な
に
の
り
る
゙
゚
ア
イ
ウ
カ
キ
ク
コ
サ
シ
ス
タ
ッ
テ
ト
ハ
フ
マ
ユ
ラ
リ
ル
レ
ロ
ン
・
ー
㇁
㇂
㇄
㇇
㇈
㇉
㇓
㐁
㐄
㐅
㐌
㐫
㐬
㐭
㐮
㐱
㑒
㒵
㒸
㒼
㓁
㓞
㔾
㕛
㕣
㖾
㘝
㚅
㚇
㚔
㚘
㝉
㝡
㝴
㝵
㞋
㞢
㞷
㠩
㠭
㠯
㡀
㡭
㡿
㢲
㢴
㣇
㣺
㥯
㪅
㫄
㫐
㫒
㫺
㬅
㬎
㬥
㬰
㲋
㳄
㷠
㸒
㸚
㸦
㼌
㼲
㽞
㿟
䀠
䂞
䍃
䏍
䒑
䖍
䖒
䖝
䖵
䙴
䚻
䜌
䝿
䡛
䧹
䪞
一
丁
丂
七
丄
丅
丆
万
丈
三
上
下
丌
不
与
丏
丐
丑
专
且
丕
世
丘
丙
业
东
丞
丢
丣
两
严
並
丨
丩
个
丫
丬
中
丮
丰
丱
串
丵
丶
丷
丸
丹
为
主
丽
丿
乀
乂
乃
久
乆
乇
么
义
之
乌
乍
乎
乏
乐
乑
乔
乖
乗
乘
乙
乚
乛
乜
九
乞
也
习
乡
乳
乾
亀
亅
了
亇
予
争
事
二
亍
于
亏
亐
云
互
亓
五
井
亘
亚
亜
亞
亟
亠
亡
亢
交
亥
亦
产
亨
亩
享
京
亭
亮
亯
亰
亲
亳
亶
亷
人
亻
亼
亾
仁
今
介
仌
从
仐
仑
仒
仓
仕
他
付
仝
代
令
以
任
企
伊
伏
伐
休
会
伯
但
位
何
佘
余
作
佥
使
來
侈
侌
侖
侯
侵
便
保
俞
信
修
倉
倍
候
倠
備
僉
僕
儿
兀
允
兂
元
兄
充
兆
兇
先
光
兊
克
兌
免
兑
兒
兓
兔
党
兜
兟
入
全
兩
兪
八
公
六
兮
兰
共
关
兵
其
具
典
兹
兼
冀
冂
冃
冄
内
冈
冉
冊
冋
册
再
冎
冏
冐
冒
冓
冖
冗
冘
写
军
农
冝
冡
冥
冫
冬
冷
几
凡
凢
凵
凶
凷
凸
凹
出
函
凾
刀
刁
刂
刃
刄
刅
分
切
刍
刑
刕
刖
列
刘
则
初
別
利
别
到
制
刺
則
削
剌
前
剡
剽
劉
力
功
加
劦
助
劫
劳
劵
勃
勇
勉
勒
動
務
勞
勤
勹
勺
勻
勾
勿
匀
匂
包
匆
匈
匊
匋
匍
匕
化
北
匚
匝
匡
匪
匱
匸
匹
区
医
匽
匿
區
十
卂
千
卄
卅
卆
升
午
卉
半
卌
华
卑
卒
卓
单
卖
南
卜
卝
卞
占
卡
卢
卣
卤
卦
卩
卪
卬
卯
印
危
即
却
卵
卷
卸
卻
厂
厃
厄
历
厈
厉
厌
厓
厘
厚
原
厤
厥
厨
厭
厲
厶
厷
厸
去
厼
厽
叀
参
參
叅
又
叉
及
友
双
反
叐
发
叒
叔
叕
取
受
叚
叜
叟
口
古
句
另
叩
只
召
可
台
叱
史
右
叵
号
司
叹
吂
各
吅
合
吉
吊
吋
同
名
后
吏
向
吕
君
吝
吞
否
含
启
吳
吴
吹
吾
呂
呆
呈
告
员
呙
周
命
咅
和
咎
咠
咢
咨
咸
咼
哀
品
哉
員
哥
哲
唐
商
啇
問
啚
啬
啻
善
喜
喬
單
喿
嗇
噩
嚴
囊
囗
囘
囙
囚
四
回
囟
因
囧
囬
困
囱
囷
固
国
圂
圅
國
圍
圓
土
圡
圣
圥
在
圭
地
圶
圼
坐
坒
坚
坴
垂
型
垔
垚
埀
埋
埶
執
基
堂
堅
堆
堇
堯
塞
墨
壘
士
壬
壯
声
壳
壴
壹
壺
壽
夂
处
夅
夆
备
夊
夋
夌
复
夏
夒
夕
外
夗
夘
多
夜
夢
大
夨
天
太
夫
夬
夭
央
失
夲
头
夷
夸
夹
夻
夾
奂
奄
奇
奈
奉
奎
奏
奐
契
奓
奔
奚
奞
奠
奢
奥
奭
女
奴
奻
好
如
妄
妙
妟
妥
妻
妾
姑
委
姜
威
娄
婁
婴
嬰
嬴
子
孑
孔
孕
孖
字
存
孚
孛
孝
孟
季
孤
学
孫
孱
學
宀
宁
宂
它
宅
宇
守
安
宋
完
宏
宓
宗
官
定
宛
宜
宝
客
宣
室
宮
宰
害
家
容
宾
宿
寄
寅
密
富
寒
察
寧
審
寫
寬
寮
寸
对
寺
寻
寽
対
寿
封
尃
射
将
將
專
尉
尊
尋
尌
對
小
少
尒
尓
尔
尖
尗
尚
尞
尢
尣
尤
尧
尨
尭
就
尸
尹
尺
尻
尼
尽
尾
尿
局
居
屈
屋
屎
屏
屑
展
屖
屚
属
屠
屡
屬
屮
屯
屰
山
屵
屾
岁
岂
岑
岡
岩
岳
岸
峯
島
崇
崑
崔
崖
崙
崩
嵬
嶲
巂
巛
川
州
巟
巠
巢
巤
工
左
巧
巨
巩
巫
差
己
已
巳
巴
巷
巸
巽
巾
巿
帀
市
布
希
帚
帛
帝
带
師
席
帶
常
干
平
年
幵
并
幷
幸
幺
幻
幼
幽
幾
广
広
庄
床
底
店
庚
府
度
庫
庭
庶
康
庸
廉
廌
廛
廣
廩
廴
延
廷
建
廾
廿
开
弁
弃
弄
弇
弋
式
弓
弔
引
弗
弘
弜
弟
弥
弦
弱
張
強
强
彊
彌
彎
彐
彑
当
彔
录
彖
彗
彡
形
彥
彦
彧
彭
彳
役
彼
往
待
律
徒
得
徙
從
復
微
徵
心
忄
必
忌
忍
志
忝
忠
忩
快
念
忽
忿
思
怠
急
怱
恆
恒
恩
恭
息
悉
患
悤
悲
悶
惠
惡
惢
愁
愈
意
愛
感
慈
慧
慮
憂
憲
應
戀
戈
戉
戊
戋
戌
戍
戎
成
我
戒
戔
或
戚
戠
戢
截
戲
戶
户
戹
戼
戾
房
所
扁
扇
手
扌
才
打
托
执
承
折
拉
拜
拿
掌
推
提
摩
支
攴
攵
收
攸
改
放
政
敄
敏
敕
敖
敗
敝
敞
敢
散
敦
敫
敬
数
敷
數
斂
文
斉
斊
斗
斤
斥
斩
斬
斯
新
方
於
施
斿
旁
旋
族
无
旡
既
旣
日
旦
旧
旨
早
旬
旱
旲
时
旾
昆
昇
昌
昍
明
昏
易
昔
昗
昜
星
春
昬
是
昱
昴
昷
時
晃
晋
晏
普
景
晶
智
暑
暴
曇
曩
曰
曲
曳
更
曷
書
曹
曼
曾
替
最
朁
會
月
有
朋
服
朔
朕
朗
望
朝
木
朩
未
末
本
札
朮
术
朱
朵
朶
朿
杀
杏
杜
束
条
来
東
杲
杳
松
析
林
枚
果
枝
枲
枼
某
柔
查
柬
柰
柴
栗
桀
桑
桼
梁
條
梟
梨
棘
棠
棥
森
楚
業
楽
榮
樂
樊
欠
次
欣
欮
欲
欶
欽
款
歆
歇
歛
止
正
此
步
武
歨
歪
歮
歯
歰
歲
歴
歷
歸
歹
歺
死
殳
段
殷
殸
殹
殺
殻
殿
毋
毌
母
每
毒
比
毕
毚
毛
毳
氏
氐
民
气
氣
水
氵
氶
氷
永
氺
氾
求
汝
汞
江
沃
沓
沙
沝
泉
法
波
泣
泥
泰
洛
洪
活
派
流
浦
浪
浮
海
淡
淮
清
渚
渠
湯
滿
漸
火
灬
灭
灰
灵
灷
炅
炎
炏
炗
炙
炭
為
烈
烏
烝
焉
無
焦
焱
然
煞
熊
熏
燕
營
燮
爪
爫
爭
爯
爰
爱
爲
爵
父
爻
爽
爾
爿
片
牙
牚
牛
牜
牟
牢
牧
牪
牽
犀
犬
犭
犮
狂
狄
狊
独
狺
猋
猒
猪
献
獻
玄
率
玉
王
玟
玨
珎
班
琴
瑟
瑩
瓜
瓦
甘
甚
生
産
用
甫
甬
田
由
甲
申
电
甶
男
甸
甹
画
甾
畀
界
畏
畐
留
畜
畟
畢
畧
畨
番
畫
異
畱
當
畺
畾
疊
疋
疌
疑
疒
疾
癶
癸
癹
登
發
白
百
皀
皃
的
皆
皇
皋
皐
皕
皮
皷
皿
盃
盆
盇
盈
益
盍
盎
监
盒
盖
盛
盡
監
盤
盧
目
直
相
盾
省
眇
眉
看
眔
眞
真
眷
眼
眾
着
睘
睪
睿
瞏
瞢
瞿
矍
矛
矞
矢
矣
知
矦
短
石
破
碎
磊
磨
示
礻
礼
社
神
祟
票
祭
禀
禁
禸
禹
禺
离
禽
禾
禿
秀
秃
秉
秋
科
秝
秦
移
稟
穀
穌
穴
究
穹
空
穿
突
窄
窒
立
竒
竜
竝
竟
章
童
竹
笑
笠
筆
等
答
箕
算
箴
節
篤
篭
米
粉
粛
粟
粤
粦
粲
糞
糸
糹
系
約
納
素
索
紫
累
細
絜
絫
絲
維
綿
縣
繇
纍
纟
缶
网
罒
罔
罕
罗
罙
罡
罢
罪
署
罷
羅
羊
羌
羍
美
羔
羕
羗
羞
羡
羣
群
義
羲
羸
羽
翁
翏
習
翕
翟
翠
翼
老
耂
考
者
耆
而
耎
耑
耒
耳
耴
耶
耷
聂
聊
聖
聚
聶
聿
肀
肃
肅
肉
肖
肙
肥
肩
肯
育
肴
胃
背
胡
胥
能
脊
脩
膚
臣
臤
臧
自
臬
臭
臯
臱
至
致
臺
臼
臽
臾
臿
舀
舂
舄
與
興
舉
舌
舍
舛
舜
舞
舟
般
艦
艮
良
色
艸
艹
艾
芒
芔
芬
芮
花
芳
芺
芻
苔
苗
苟
若
苦
英
茶
茸
荅
草
荒
荣
荼
莆
莧
莫
莽
菆
菊
菐
華
萬
落
葉
著
葛
董
葵
蒙
蒦
蒼
蓋
蓬
蓺
蔑
蔡
蕉
蕭
薄
薛
薦
薰
藍
藏
藥
蘭
虍
虎
虐
虒
虔
處
虖
虗
虘
虚
虛
虜
虞
虫
虽
蚤
蚩
蜀
蜜
蟲
蠡
血
行
衍
衛
衣
衤
表
衮
衰
袁
袞
褭
褱
襄
襾
西
覀
要
覃
見
規
覓
覧
親
覽
见
角
解
言
訁
訇
計
詹
誩
諸
讠
谷
豆
豈
豊
豐
豕
豖
豙
象
豦
豩
豪
豸
貇
貝
貞
貟
負
貢
貧
貪
貫
責
貳
貴
買
費
賁
資
賈
賏
賓
賔
賛
賞
賢
賣
質
賴
贊
贝
贡
责
贯
贲
贵
赖
赞
赤
赦
走
越
足
路
蹇
身
躬
車
軍
軎
軟
輦
车
辛
辜
辟
辥
辰
辱
農
辵
辶
边
达
过
近
连
迷
追
退
送
逆
逐
通
速
造
逢
連
逮
進
遀
遂
過
道
達
遣
適
遷
遺
邊
邑
邕
那
邦
邪
郎
部
郭
都
鄉
酉
酋
配
酓
釆
采
里
重
野
量
金
釒
錢
钅
長
镸
长
門
閃
閉
開
閏
閑
閒
間
閔
閵
閻
闌
门
间
闷
阑
阜
阝
阿
降
陳
隆
隊
隋
隡
隨
隱
隶
隹
隺
隻
隼
隽
难
雀
雁
集
雈
雋
雍
雐
雔
雙
雚
雜
雝
離
難
雨
雩
雪
雲
零
雷
需
霍
霜
霝
霞
霸
靈
靑
青
非
靡
面
靣
革
韋
韦
韭
韯
韱
音
頁
頃
項
須
頗
頡
頻
顛
页
風
风
飛
飞
食
飠
養
饣
首
香
馬
馮
駦
马
骨
高
髟
鬥
鬯
鬲
鬼
魚
魯
鮮
鱼
鲁
鳥
鳳
鸟
鹵
鹿
麃
麗
麥
麦
麻
黃
黄
黍
黎
黑
黒
黨
黹
黽
黾
鼎
鼓
鼠
鼻
齊
齋
齐
齒
齿
龍
龙
龜
龟
龠
龰
龱
龴
龵
龶
龷
龸
龹
者
艹
﻿
，
？
𠀁
𠀃
𠀆
𠀉
𠀎
𠀐
𠁁
𠁣
𠂆
𠂇
𠂈
𠂉
𠂊
𠂋
𠂎
𠂒
𠂔
𠂛
𠂡
𠂢
𠂤
𠂬
𠂭
𠂹
𠃊
𠃋
𠃌
𠃍
𠃎
𠃑
𠃓
𠃔
𠃜
𠄌
𠄎
𠄠
𠄢
𠆢
𠆥
𠇍
𠈌
𠌵
𠓜
𠔉
𠔥
𠔼
𠔽
𠔿
𠕀
𠕁
𠕋
𠘧
𠘨
𠙻
𠙼
𠚏
𠚒
𠚤
𠚪
𠣏
𠤎
𠤕
𠥓
𠦄
𠦑
𠦝
𠧒
𠧗
𠧪
𠩺
𠪚
𠫓
𠫔
𠫤
𠬛
𠬝
𠬞
𠬢
𠬤
𠬶
𠮛
𠮦
𠮷
𠯑
𠱠
𠳮
𠷎
𡈼
𡉀
𡉵
𡌥
𡍮
𡏳
𡕒
𡕩
𡕰
𡖅
𡗗
𡗜
𡘆
𡘤
𡧱
𡨄
𡩧
𡬠
𡭽
𡰣
𡰥
𡰪
𡰯
𡰱
𡷈
𡸁
𡿨
𡿩
𡿪
𡿺
𢀖
𢀛
𢀩
𢁙
𢆉
𢆰
𢆶
𢇁
𢇇
𢉖
𢌬
𢌿
𢏚
𢑑
𢑚
𢖻
𢙣
𢛳
𢦏
𢦒
𢧵
𢼄
𢾕
𣁋
𣄼
𣅀
𣅽
𣍘
𣎳
𣎵
𣏋
𣏼
𣗥
𣥂
𣥖
𣦵
𣦼
𣧄
𣪊
𣪠
𣬉
𣳾
𣶒
𤇾
𤊽
𤐫
𤓰
𤔔
𤕨
𤣩
𤰇
𤰔
𤰞
𤴓
𤴔
𤽄
𥁑
𥁕
𥃦
𥃩
𥃭
𥇡
𥑟
𥘅
𥘈
𥝢
𥫗
𥱡
𦈢
𦉪
𦉬
𦉼
𦍌
𦍒
𦎧
𦐇
𦓔
𦔮
𦘒
𦙃
𦚏
𦣝
𦣞
𦣻
𦥑
𦥔
𦥯
𦨉
𦭝
𦰩
𧆞
𧈧
𧘇
𧰨
𧴪
𧴮
𧵩
𧾷
𨸏
𨾴
𩙿
𩠐
𩫏
𩵋
𪉷
𪜀
𪟽
𪠲
𪩲
𫇦
𫔭
𫜸
𫝀
𫠣
𫠩
𫢉
𫥞
𫩏
𫩠
𫪡
𫲽
𫶧
𬀷
𬐘
𬗌
𬙙
𬛸
𬜯
𬟩
𬯁
𬴘
𬺻
𬼉
𬼖
𭀰
𭁈
𭁨
𭅰
𭑈
𭕄
𭗼
𭤨
𭥫
𭻾
𮅕
𮊿
𮍌
𮍏
𮓗
𮥼
𮧮
廾
𰀁
𰀄
𰀈
𰀉
𰀕
𰀠
𰀡
𰀢
𰀪
𰁜
𰃮
𰆊
𰆘
𰋙
𰕎
𰢴
𰧭
𰯲
00--
000--
01--
02--
03--
04--
05--
100--
101--
102--
103--
104--
59--
64--
65--
66--
67--
68--
69--
70--
71--
72--
73--
74--
75--
76--
77--
78--
79--
80--
81--
82--
83--
84--
85--
86--
87--
88--
89--
90--
91--
92--
93--
94--
95--
96--
97--
98--
99--
a--
aa--
ab--
aba--
abd--
abe--
abi--
abs--
absol--
ac--
ace--
ach--
achil--
act--
ad--
ada--
adapt--
ade--
adi--
adop--
adven--
ae--
aero--
af--
ag--
aga--
agres--
agro--
ah--
aha--
ai--
air--
aj--
ak--
aka--
akcept--
akred--
akt--
aktiv--
aku--
al--
ala--
alb--
alde--
ale--
alego--
aleks--
alge--
algebra--
ali--
alky--
all--
alm--
alo--
alomou--
alp--
als--
alt--
alten--
alterna--
alu--
am--
ama--
ame--
ami--
amoni--
amu--
an--
ana--
anarc--
anatom--
anc--
and--
ane--
anekt--
ang--
anglo--
ani--
ann--
anna--
ano--
anony--
anorg--
ans--
ansko--
ant--
antarkt--
anti--
antuk--
anu--
any--
ao--
ap--
aplik--
apol--
aqu--
ar--
ara--
arago--
arbor--
are--
argen--
ari--
aris--
aristok--
arkt--
arm--
aroma--
ars--
art--
arte--
as--
asa--
asfalt--
asi--
asp--
assas--
assem--
ast--
astro--
asy--
asymetr--
at--
ata--
ate--
ato--
atom--
atri--
au--
auck--
audi--
audio--
augs--
augsbur--
aure--
aus--
aut--
auten--
autenti--
auto--
autobio--
av--
ava--
avant--
ave--
avig--
awa--
ax--
ay--
az--
azare--
b--
ba--
bac--
back--
bad--
bag--
baj--
bal--
bali--
bamb--
ban--
bansko--
bapt--
bar--
bart--
bas--
base--
baski--
bat--
baum--
bay--
baz--
bd--
be--
beau--
bec--
bei--
bek--
bel--
ben--
ber--
berg--
bern--
bert--
bes--
bet--
bez--
beze--
bh--
bi--
biat--
biatlon--
bie--
big--
bil--
bin--
bio--
bir--
bis--
bit--
biz--
bk--
bl--
bla--
black--
blaho--
ble--
bli--
blo--
blou--
blu--
bo--
bob--
boc--
bod--
bohd--
bohos--
bohu--
boj--
bol--
bon--
bor--
borom--
bos--
bot--
botsw--
bou--
boulder--
bow--
box--
br--
bra--
braban--
brad--
bran--
bratisla--
bre--
brent--
brig--
brigh--
bro--
broum--
bru--
bry--
brz--
bs--
bu--
bub--
buc--
buch--
bud--
buddh--
buff--
buk--
bulga--
bun--
bundes--
bur--
burgun--
bus--
but--
buzen--
buzn--
by--
byrok--
byt--
byza--
byzant--
c--
ca--
cala--
cald--
camb--
can--
cap--
car--
cas--
casa--
cat--
cc--
ce--
ceci--
cej--
cel--
cele--
cem--
ceme--
cen--
cerat--
cerem--
certif--
cet--
ch--
cha--
champ--
chan--
charl--
che--
chi--
chl--
chla--
chlor--
chlou--
cho--
chod--
chodo--
choreog--
chot--
chou--
chr--
chra--
chry--
chu--
chva--
chy--
ci--
cibu--
cie--
ciga--
cimb--
cimr--
cirku--
cis--
cit--
cizo--
ck--
cl--
cla--
cle--
clif--
cly--
cm--
co--
col--
com--
con--
conser--
cord--
corn--
corne--
corr--
cort--
cos--
coul--
coun--
cov--
cow--
cr--
craw--
cre--
cro--
crom--
cru--
cs--
ct--
cti--
cu--
cum--
cv--
cy--
cycl--
cykli--
cyklo--
cytok--
cz--
cze--
d--
da--
daj--
dal--
dam--
dan--
dar--
das--
dat--
data--
dav--
day--
dc--
de--
dec--
decko--
defe--
defi--
defin--
dei--
dej--
dek--
dekla--
del--
deli--
dem--
demo--
den--
depart--
der--
des--
det--
detek--
deva--
dex--
dez--
dh--
di--
dia--
dic--
didakt--
die--
diff--
dil--
dimit--
din--
dio--
direk--
diri--
dis--
disk--
disku--
dispo--
dit--
div--
dj--
dk--
dla--
dlo--
dm--
dni--
do--
dob--
dobro--
doc--
dog--
doka--
dol--
dolno--
dom--
dome--
domlu--
don--
dor--
doroz--
dos--
dotk--
dou--
doubra--
dove--
dovol--
down--
doy--
doz--
dp--
dr--
dra--
drah--
dre--
dro--
drob--
dru--
ds--
dt--
du--
dua--
dub--
duch--
dur--
dury--
dus--
dvoj--
dvou--
dy--
dynas--
dz--
e--
ea--
east--
eb--
ebe--
eber--
ebi--
ebr--
eby--
ec--
eccle--
ech--
echo--
ecko--
ed--
ede--
edi--
edlit--
edo--
eds--
edu--
ee--
ef--
eg--
eh--
eho--
ehr--
ehren--
ei--
eich--
ein--
eis--
eise--
ej--
eje--
ek--
eka--
ekl--
ekol--
ekolog--
eku--
ekva--
el--
ela--
ele--
elezo--
eli--
elipt--
elo--
em--
ema--
eme--
emi--
emlu--
emot--
empi--
emu--
emysl--
en--
ency--
end--
ene--
energ--
eng--
engel--
eno--
ens--
environ--
eo--
ep--
epa--
epi--
epis--
epla--
epra--
equ--
equi--
er--
era--
erb--
ere--
erno--
ero--
ert--
es--
esa--
esco--
ese--
esi--
esko--
eso--
esperant--
est--
esta--
esti--
estr--
et--
eta--
ete--
ether--
eti--
etno--
etr--
eu--
eucha--
euro--
euse--
ev--
eva--
eve--
ever--
evi--
evo--
evod--
evz--
ex--
excel--
exeku--
exhi--
exot--
expan--
exper--
explic--
explo--
expo--
expresion--
extra--
ey--
ez--
ezi--
f--
fa--
fabr--
fac--
faer--
fair--
fakt--
fal--
falc--
fan--
far--
fas--
fasci--
fat--
fc--
fe--
fed--
fejet--
feld--
fem--
femini--
fer--
fey--
ff--
fi--
fia--
figh--
filan--
filip--
fin--
fioren--
fire--
fis--
fitz--
fix--
fk--
fl--
fla--
fle--
flere--
flexi--
flo--
floren--
flori--
flu--
fluor--
fo--
foj--
folk--
fonet--
for--
formu--
fosf--
foto--
fra--
fre--
fred--
free--
fri--
fried--
fro--
fru--
fry--
ft--
fu--
func--
fund--
fy--
fylog--
fyziolog--
g--
ga--
gaj--
galakt--
gall--
gamb--
gard--
garr--
gas--
gay--
gaz--
ge--
gel--
gen--
gene--
genoc--
geode--
geoff--
geog--
geom--
geomorfo--
ger--
get--
gi--
giga--
gil--
gl--
glo--
glu--
gly--
gm--
go--
god--
gold--
gond--
good--
got--
gott--
gov--
gr--
gra--
gramm--
gramo--
gramofo--
gre--
greno--
grif--
gro--
groß--
gru--
gry--
gs--
gu--
guate--
gue--
guil--
gun--
gut--
guy--
gy--
h--
ha--
habs--
hac--
had--
haj--
hal--
ham--
han--
hand--
happ--
har--
hard--
hart--
has--
hat--
hava--
havl--
hay--
hd--
he--
hege--
hej--
hekt--
hel--
hell--
hem--
hen--
her--
heral--
hermi--
herrm--
hesen--
het--
hetero--
hex--
hey--
heydr--
hi--
hierarchi--
hig--
high--
hild--
hindu--
hip--
hir--
his--
historio--
hit--
hl--
hla--
hlas--
hle--
hli--
hlo--
hlou--
hm--
hmis--
hn--
hni--
hno--
ho--
hob--
hoch--
hod--
hof--
hohen--
hohenzo--
hohenzoller--
holz--
hom--
home--
homo--
hon--
hop--
hor--
hornos--
hos--
hot--
hou--
hous--
hr--
hra--
hrano--
hrdin--
hrom--
hrot--
hroz--
hru--
hs--
hu--
hub--
human--
humb--
humor--
hump--
hun--
hunga--
hus--
hut--
hy--
hyb--
hydra--
hydro--
hydroxy--
hygi--
hyper--
hyste--
i--
ia--
ian--
ib--
iba--
ibe--
iby--
ic--
ice--
id--
ide--
ident--
identif--
ideolog--
idlo--
ie--
if--
ig--
ignor--
ih--
iha--
iho--
ij--
ik--
ika--
ikl--
ikono--
ikou--
il--
ile--
ili--
illus--
ilo--
ilumi--
ilus--
ilustro--
im--
ima--
imagi--
imi--
impe--
implic--
impresion--
impro--
improviz--
imu--
imuno--
in--
inaugu--
inc--
indepen--
indi--
indo--
indu--
indus--
ine--
infan--
infi--
infin--
influ--
info--
ing--
inhi--
ini--
inkou--
inn--
ino--
ins--
int--
inte--
integr--
inten--
inter--
intu--
inu--
inver--
inves--
inz--
io--
ion--
ip--
ipo--
ipom--
ipu--
ir--
ira--
ire--
irku--
iro--
iron--
is--
isa--
ise--
iso--
ist--
istup--
isuz--
it--
ita--
ite--
iu--
iv--
ive--
ivo--
iz--
iza--
izom--
j--
ja--
jacque--
jag--
jagel--
jahrhun--
jak--
jal--
jam--
jamaj--
jan--
japo--
jar--
jas--
je--
jed--
jedno--
jem--
jen--
jer--
jes--
jet--
jev--
jez--
ji--
jih--
jihla--
jiho--
jihoa--
jihoamer--
jilem--
jim--
jin--
jir--
jis--
jiz--
jm--
jo--
joa--
jon--
jos--
jou--
jov--
joy--
js--
ju--
judis--
jun--
jung--
jur--
jut--
k--
ka--
kac--
kai--
kal--
kali--
kalifor--
kalku--
kam--
kan--
kano--
kap--
kapac--
kapitu--
kar--
kara--
karboxy--
karika--
karto--
kas--
kat--
kata--
kaufm--
kaz--
kb--
kc--
kde--
kdo--
ke--
kej--
kell--
kelt--
kem--
ken--
ker--
key--
ki--
kim--
kin--
kinemato--
kis--
kit--
kk--
kl--
kla--
klad--
kle--
kli--
klic--
klou--
klub--
km--
kn--
kne--
knih--
kno--
ko--
kobur--
koc--
kod--
kokos--
kokp--
kol--
kola--
kolo--
kom--
kombin--
komen--
komi--
komod--
kompati--
kompen--
kompli--
kompo--
komu--
kon--
konc--
koni--
konkur--
kons--
kontami--
kontra--
kontro--
konver--
konz--
konzer--
konzul--
koop--
koordin--
kop--
kopa--
kor--
korek--
kores--
kormi--
korou--
koruta--
kos--
kosmet--
kosmo--
kost--
kot--
kou--
kov--
koz--
kr--
kra--
kraj--
kras--
krc--
kre--
kres--
kri--
krie--
kris--
kro--
kru--
kry--
krys--
ks--
kt--
ku--
kud--
kulm--
kumu--
kun--
kunst--
kuo--
kup--
kur--
kus--
kutno--
kva--
kvalifi--
kvant--
kvas--
kve--
kvi--
kvo--
kw--
ky--
kytar--
l--
la--
labour--
lac--
lach--
lad--
lah--
laj--
lamb--
lamp--
lan--
land--
landes--
lang--
lapo--
las--
lat--
latinsko--
lau--
law--
laz--
lb--
lc--
ld--
le--
lea--
lec--
lech--
led--
leg--
legi--
legisla--
lehk--
leice--
lej--
lek--
lem--
len--
leo--
leon--
ler--
les--
leso--
let--
lete--
letor--
lev--
levo--
lex--
ley--
lez--
lf--
li--
lib--
liboch--
libre--
lic--
lich--
lid--
lie--
life--
lig--
lik--
lil--
lim--
limit--
lin--
ling--
lip--
lis--
list--
lit--
liti--
litog--
liv--
lju--
lko--
ll--
lm--
lo--
log--
loh--
lohor--
lom--
lon--
long--
lorr--
los--
lot--
lou--
lov--
lovo--
ls--
lt--
lu--
luc--
lucem--
luk--
luka--
lun--
lus--
lute--
lutoz--
luxem--
ly--
m--
ma--
mac--
mad--
mag--
magde--
magnet--
mai--
main--
maj--
maje--
makar--
makro--
mal--
mala--
male--
mali--
mallo--
malo--
man--
manipu--
manu--
mao--
map--
mar--
mari--
mark--
marx--
mas--
mat--
mauri--
mauz--
max--
may--
maz--
mb--
mber--
mc--
md--
me--
mec--
mech--
mechani--
med--
medie--
mega--
mek--
meklen--
mel--
melanc--
melod--
mem--
men--
mer--
mes--
met--
meta--
methy--
metr--
mez--
mezi--
mezzo--
mi--
mic--
michel--
mid--
mie--
mig--
mikro--
mikrosko--
mil--
mile--
mili--
milo--
mimo--
min--
mini--
minom--
mir--
mis--
mit--
mix--
miz--
mj--
mk--
ml--
mla--
mlho--
mluv--
mm--
mnoho--
mo--
moc--
mod--
mode--
modif--
mohy--
mol--
mon--
mongo--
monog--
mont--
monte--
moon--
mor--
mora--
morfo--
mos--
motiv--
motor--
mou--
mount--
mov--
moz--
mp--
mr--
mra--
ms--
mu--
mug--
multi--
mus--
muz--
my--
myan--
mys--
mytolog--
mz--
n--
na--
nac--
naci--
nad--
naft--
naj--
nakup--
nale--
nama--
nan--
nap--
napod--
napodob--
nar--
naru--
nas--
nasa--
nasy--
nat--
nata--
nava--
naz--
nb--
nc--
nd--
ne--
neb--
nec--
nech--
ned--
neda--
nedoc--
nedoko--
nedovo--
nega--
neh--
nej--
nejs--
nek--
nekom--
nekontro--
nekvalifi--
neli--
nem--
nemi--
nen--
nena--
nenas--
nene--
neo--
neob--
neobs--
neobsah--
neoby--
nepa--
nepo--
neporaz--
nepr--
nepro--
ner--
nerato--
nerealiz--
nero--
neroz--
nerud--
nes--
nesmr--
nesmrtel--
net--
nether--
netr--
neu--
neuro--
neus--
nev--
nevi--
nevol--
nevy--
nevztah--
new--
news--
newyo--
nez--
neza--
nezac--
nezi--
nf--
ng--
nh--
ni--
nic--
nie--
nietz--
nig--
nik--
nil--
nim--
nin--
nis--
nit--
nix--
nko--
nl--
nn--
no--
noc--
nom--
non--
nor--
nord--
norim--
nos--
not--
note--
nou--
nov--
novel--
novgo--
novo--
np--
nr--
ns--
nt--
nu--
nukle--
numer--
numis--
ny--
nymb--
nz--
o--
oa--
ob--
oba--
obc--
obdiv--
obe--
obec--
obi--
objev--
obme--
obo--
oboh--
obou--
obr--
obra--
obrat--
obroz--
obs--
obser--
obslu--
oby--
oc--
och--
octa--
od--
odc--
odchy--
odciz--
odda--
ode--
odhal--
odpa--
ods--
odsou--
odsuz--
odve--
odvoz--
ody--
of--
off--
offen--
og--
oh--
ohodn--
ohr--
ohrom--
ok--
okla--
oko--
okouz--
okr--
okrou--
oku--
ol--
old--
olden--
ole--
olim--
olive--
oly--
olymp--
om--
omlu--
on--
one--
op--
opa--
opat--
opatr--
open--
oper--
opi--
oplo--
opo--
opra--
opy--
or--
ora--
orchi--
orga--
ornit--
orto--
os--
osa--
osamostat--
ose--
osi--
osla--
oslo--
osm--
osmi--
osn--
ost--
osvoboz--
ot--
ota--
otc--
ote--
oto--
otroko--
ou--
our--
out--
ov--
ova--
over--
ovi--
ovo--
ovs--
oxy--
oz--
ozbro--
ozna--
ozub--
p--
pa--
pac--
pacif--
pad--
pado--
paint--
pak--
pal--
pala--
paleo--
palm--
palus--
pama--
pamp--
pan--
pana--
pane--
paprs--
par--
para--
parazit--
park--
parod--
pas--
past--
pat--
patog--
patolog--
patr--
patriar--
pavl--
pay--
paz--
pc--
pe--
pea--
pec--
pej--
pek--
pen--
penzi--
pept--
per--
pero--
perspec--
perspek--
pes--
pet--
petr--
pevni--
pez--
pf--
ph--
pho--
phylog--
pi--
pia--
pic--
pie--
pil--
pilot--
pin--
pio--
pis--
pit--
pix--
pl--
pla--
plas--
plat--
plav--
play--
ple--
pli--
plno--
plo--
plod--
plout--
plu--
pm--
pn--
pneum--
po--
poc--
pochy--
pochyb--
pochybo--
pod--
podc--
podgo--
podi--
podivu--
podla--
podr--
podvaz--
poe--
poha--
pohl--
pohod--
pohyb--
poj--
pojis--
poku--
pol--
pola--
pole--
poli--
polo--
poly--
poma--
pomp--
pop--
popl--
por--
porno--
pos--
posa--
posi--
posky--
posmr--
posou--
post--
postou--
posuz--
pot--
pou--
povol--
povz--
povzbu--
poz--
pozasta--
pozem--
pp--
pr--
pra--
prag--
praha--
prakt--
pras--
prav--
pravo--
pre--
prefer--
pres--
pri--
prior--
pro--
propa--
propra--
pros--
proti--
prst--
pru--
pruh--
prvo--
prvorepubli--
prvoroz--
ps--
pseu--
pseudo--
psy--
psyche--
psycho--
pt--
ptero--
ptole--
pu--
publi--
public--
puc--
pulit--
pum--
purk--
purpur--
pus--
py--
pyri--
q--
qu--
que--
qui--
r--
ra--
rac--
rad--
radio--
raf--
rag--
raj--
rak--
ral--
ram--
ran--
rap--
ras--
rat--
ratifi--
ray--
raz--
rb--
rc--
rd--
re--
rea--
reakt--
real--
rec--
recen--
red--
reduk--
refer--
reflekt--
reg--
regi--
regu--
reha--
rehabili--
rein--
rej--
rek--
relik--
rem--
remem--
remi--
ren--
rentg--
repu--
requi--
res--
resol--
retro--
rev--
revi--
rey--
rez--
rezer--
rf--
rg--
rh--
rhein--
rho--
rhy--
ri--
ric--
rid--
rie--
rik--
rima--
rio--
ris--
rk--
rko--
rl--
rm--
rn--
rni--
ro--
rob--
roc--
roche--
rock--
rod--
roh--
rok--
roky--
rom--
ron--
roose--
ros--
rose--
rot--
rou--
roubo--
rov--
rovn--
row--
roz--
rozdr--
rr--
rs--
rst--
rsten--
rt--
rttem--
ru--
rubr--
rud--
ruka--
rum--
run--
rus--
rv--
ry--
rychl--
rys--
rytmi--
rz--
s--
sa--
sacr--
sad--
sal--
salcb--
salis--
sam--
same--
samo--
san--
sar--
sas--
sati--
satur--
sau--
sauro--
sav--
sax--
sb--
sc--
scar--
sce--
sch--
sche--
schi--
schle--
schm--
scho--
schu--
schwe--
sci--
scien--
sco--
scot--
scri--
scul--
sd--
se--
sea--
sebe--
sec--
sedi--
sedmi--
see--
sek--
sel--
seleu--
sem--
semi--
sen--
sept--
ser--
ses--
set--
sev--
severo--
sex--
sey--
sez--
sf--
sg--
sgraf--
sh--
sha--
shake--
she--
ship--
shl--
sho--
shod--
show--
shut--
si--
sic--
sici--
sid--
sie--
sikor--
sil--
sim--
simul--
sin--
sio--
sir--
sis--
sit--
six--
sj--
sjed--
sjednoc--
sk--
ska--
ske--
skept--
ski--
skli--
sklo--
sko--
skr--
skrip--
sku--
skulp--
skvos--
sky--
sl--
sla--
sladk--
sle--
sled--
sli--
slib--
slo--
slu--
sm--
smalt--
sme--
smi--
smo--
smu--
smy--
sn--
sne--
sno--
snow--
so--
sob--
socio--
sol--
solo--
som--
some--
son--
sop--
sor--
sos--
sou--
soud--
sp--
spa--
spe--
specifi--
spekt--
spektros--
speku--
spi--
spis--
spla--
sply--
spo--
spoj--
spoko--
spol--
spolu--
sponzor--
spor--
spr--
spra--
spu--
spy--
squ--
sr--
srb--
srozumi--
srp--
ss--
st--
sta--
stabili--
stag--
stal--
stan--
star--
staro--
stav--
ste--
stej--
step--
stere--
steri--
sterl--
sti--
stift--
stimu--
stirl--
sto--
stol--
str--
stra--
strou--
stru--
stu--
stup--
stvrz--
sty--
styl--
su--
sub--
sucho--
sud--
sue--
suk--
sulej--
sulf--
sum--
sun--
sunder--
super--
sur--
survi--
sus--
sut--
sv--
sva--
sval--
svato--
sve--
svi--
svo--
svor--
svrat--
svrc--
sw--
swe--
sy--
sylves--
symbol--
symetr--
symfoni--
symp--
sympati--
syn--
synchr--
synchroni--
sz--
t--
ta--
tab--
tabul--
tac--
tafe--
tag--
tah--
tai--
taj--
tak--
tal--
tam--
tan--
tar--
tas--
tat--
tau--
tch--
te--
tech--
tek--
tel--
tele--
tem--
ten--
teoreti--
tepe--
ter--
termo--
termody--
teror--
terri--
tes--
test--
th--
tha--
the--
theod--
thero--
thu--
thy--
ti--
tiav--
tie--
til--
tim--
tin--
tis--
tisk--
tit--
tiv--
tk--
tka--
tkalc--
tko--
tl--
tla--
tle--
tli--
tlo--
tm--
tma--
tni--
to--
tok--
tol--
tom--
ton--
top--
topog--
tor--
tos--
tot--
tou--
tour--
tov--
toxi--
tr--
tra--
tragi--
tramp--
trans--
tranz--
traum--
traut--
tre--
trh--
tri--
triden--
trna--
tro--
troj--
trolej--
troub--
tru--
trubk--
try--
ts--
tt--
tting--
tu--
tuc--
tun--
tur--
turki--
tuze--
tv--
tva--
tvar--
tvrd--
tvrt--
twi--
ty--
tyl--
typ--
typog--
tyr--
tz--
u--
ua--
ub--
ubi--
uby--
uc--
uce--
ucho--
uchy--
ud--
uda--
udi--
uga--
uh--
uhel--
uhy--
uj--
uk--
uka--
uklid--
ukot--
ukr--
ukraj--
ul--
ule--
ultra--
um--
ume--
un--
una--
under--
une--
ung--
uni--
up--
upa--
upi--
uply--
upus--
ur--
ura--
urban--
urna--
uroz--
urs--
ury--
urychl--
us--
usa--
use--
usi--
usmr--
usou--
usta--
ustu--
usuz--
ut--
uta--
ute--
uti--
uv--
uva--
uz--
uzdra--
v--
va--
vac--
vad--
val--
van--
var--
varia--
vas--
vat--
vaz--
vc--
vdo--
ve--
vec--
ved--
veget--
vej--
vel--
velez--
velko--
ven--
venezu--
ver--
ves--
vez--
vi--
via--
vic--
vice--
vid--
video--
viditel--
vie--
vig--
viho--
vil--
ville--
vin--
viol--
violoncell--
viri--
vis--
vit--
viz--
vk--
vl--
vla--
vlaj--
vle--
vln--
vlta--
vni--
vo--
voc--
vod--
vodo--
voj--
vok--
vol--
volks--
von--
vor--
vorarlber--
vos--
voz--
vozi--
vp--
vpa--
vr--
vra--
vrb--
vrch--
vrh--
vrou--
vroz--
vs--
vstup--
vt--
vu--
vul--
vulka--
vv--
vy--
vyc--
vychy--
vyd--
vyho--
vyhod--
vyhub--
vyka--
vykres--
vyma--
vyme--
vymi--
vyn--
vypa--
vyple--
vypn--
vypu--
vyr--
vys--
vysa--
vysky--
vysoko--
vysta--
vystu--
vysvo--
vysy--
vytr--
vyva--
vyz--
vyzbro--
vyzdvi--
vz--
vzbu--
vzdor--
vzdy--
vzle--
vzor--
vzpama--
w--
wa--
wald--
wan--
war--
was--
way--
we--
web--
wehr--
wein--
weis--
well--
welling--
wen--
west--
westminste--
wett--
whe--
whi--
whis--
whit--
wi--
wie--
wiesb--
wiki--
wilf--
win--
wissens--
wittels--
wo--
wojci--
wol--
wolver--
wood--
wres--
wri--
ws--
wu--
wy--
wyo--
wł--
x--
xav--
xi--
xx--
y--
ya--
yo--
yu--
z--
za--
zablou--
zac--
zachy--
zad--
zago--
zaha--
zahr--
zaka--
zakot--
zame--
zami--
zamr--
zapa--
zaple--
zapoj--
zar--
zarea--
zas--
zasa--
zasnou--
zasta--
zastu--
zat--
zata--
zato--
zau--
zava--
zaz--
zby--
zci--
zd--
zda--
zde--
zdevas--
zdis--
zdlou--
zdo--
zdokumen--
zdy--
ze--
zej--
zel--
zem--
zen--
zesi--
zey--
zi--
zie--
zimm--
zk--
zko--
zkomp--
zkonstru--
zkr--
zkra--
zla--
zlato--
zle--
zli--
zlo--
zlom--
zma--
zmi--
zmoc--
zmr--
zn--
zna--
zne--
zni--
znojem--
znovu--
zo--
zoh--
zoo--
zor--
zota--
zou--
zpoma--
zpozor--
zpr--
zr--
zra--
zrca--
zredu--
zry--
zs--
zt--
zte--
ztros--
zu--
zub--
zuz--
zv--
zve--
zvi--
zvon--
zwe--
zwi--
zy--
đ--
ł--
ſ--
τ--
в--
д--
з--
и--
к--
л--
м--
н--
о--
п--
р--
с--
ск--
т--
י--
--0
--00
--01
--02
--03
--04
--05
--06
--07
--08
--09
--1
--10
--11
--12
--13
--14
--15
--16
--17
--18
--19
--2
--20
--21
--22
--23
--24
--25
--26
--27
--28
--29
--3
--30
--31
--32
--33
--34
--35
--36
--37
--38
--39
--4
--40
--41
--42
--43
--44
--45
--46
--47
--48
--5
--50
--52
--56
--59
--6
--60
--61
--63
--67
--7
--70
--8
--80
--86
--89
--9
--95
--98
--a
--ab
--able
--ac
--ace
--aceae
--ach
--aci
--ad
--ada
--adil
--adl
--ado
--ads
--adsky
--adu
--ae
--af
--age
--ah
--ai
--aille
--aj
--aji
--ak
--ake
--aki
--al
--ala
--ald
--ale
--ali
--all
--aly
--am
--ami
--amo
--an
--ana
--and
--ane
--ani
--ano
--ant
--anti
--anu
--any
--ao
--ap
--ar
--ara
--ard
--arda
--aro
--art
--aru
--ary
--as
--ast
--at
--ata
--ate
--atic
--aticke
--atika
--ation
--ations
--atu
--aturni
--aty
--au
--aurus
--av
--ava
--avde
--ave
--avi
--avil
--avit
--avne
--avou
--avu
--aw
--ay
--az
--b
--ba
--bal
--bc
--bce
--be
--bek
--ben
--berg
--bha
--bi
--bia
--bie
--bil
--bkou
--bky
--ble
--bne
--bni
--bny
--bo
--bor
--bou
--bova
--bove
--bovy
--box
--boy
--br
--bra
--bs
--bsd
--bu
--buje
--buji
--bune
--burg
--burgu
--burka
--burn
--bury
--bus
--by
--c
--ca
--cade
--cal
--can
--cations
--ce
--cea
--ceae
--cel
--cem
--cemi
--cen
--cer
--ces
--ch
--cha
--che
--chia
--chl
--chne
--cht
--chta
--chu
--chy
--ci
--cia
--cie
--cii
--cin
--cing
--cini
--cio
--cius
--ck
--cka
--cke
--cki
--cko
--ckou
--cku
--cky
--cl
--co
--con
--cott
--cova
--cove
--covite
--covou
--craft
--cs
--ct
--ction
--ctor
--cts
--ctva
--ctvi
--cu
--cuje
--cuji
--cum
--cus
--cy
--cz
--d
--da
--dad
--dae
--dal
--dat
--day
--de
--dea
--del
--dem
--den
--dena
--dene
--deno
--deny
--der
--des
--dge
--di
--dia
--die
--diho
--dii
--dil
--din
--dit
--dl
--dla
--dle
--dli
--dlo
--dlu
--dly
--dn
--dna
--dne
--dni
--dny
--do
--don
--dor
--dorf
--dorfu
--dou
--dov
--dr
--dra
--dry
--ds
--dt
--du
--duje
--dula
--dy
--dz
--dza
--e
--ea
--eae
--eau
--eb
--ec
--eca
--ech
--eck
--ecky
--ect
--ed
--edl
--ee
--een
--ef
--eg
--eho
--ei
--ej
--ek
--ekc
--ekce
--ekci
--el
--ela
--ele
--elem
--eli
--ell
--ella
--elle
--elli
--ello
--elna
--elne
--elnou
--elny
--els
--elu
--ely
--em
--emi
--en
--ena
--enburg
--enc
--end
--ene
--eni
--enne
--eno
--ens
--ensis
--enstein
--ent
--enta
--ents
--entu
--enu
--eny
--eo
--eon
--eova
--ep
--er
--era
--erg
--eri
--erie
--erk
--ern
--ers
--eru
--erva
--erve
--ervy
--ery
--es
--ese
--ess
--esse
--est
--et
--eta
--ete
--eto
--etou
--ets
--ett
--etta
--ette
--etti
--etu
--ety
--eu
--eum
--eus
--eux
--ev
--evic
--ew
--ex
--ey
--ez
--f
--fa
--fas
--fax
--fe
--feld
--ff
--fi
--fikace
--fly
--fni
--fo
--folia
--fon
--form
--fs
--ft
--ften
--fu
--ful
--fy
--g
--ga
--gaard
--gan
--gat
--gawa
--ge
--gem
--gen
--genni
--ger
--ges
--gg
--gh
--ght
--gi
--gia
--gie
--gii
--gin
--gina
--gio
--git
--gium
--gl
--gler
--gma
--gna
--gne
--gno
--gny
--go
--gon
--gona
--gos
--gova
--grad
--gradu
--gram
--graphic
--gro
--gs
--gu
--gy
--h
--ha
--hal
--ham
--han
--hc
--he
--heim
--hem
--hen
--her
--hes
--hi
--hia
--hic
--hie
--hieu
--him
--hin
--hion
--hip
--hl
--hla
--hle
--hli
--hly
--hn
--hne
--hny
--ho
--hof
--hol
--hou
--hov
--hova
--hovi
--hr
--hra
--hs
--hske
--ht
--hta
--hte
--http
--hty
--hu
--huje
--huji
--hva
--hve
--hy
--hybny
--hyn
--hyta
--i
--ia
--iac
--ial
--iam
--ian
--iana
--ianus
--ias
--ibus
--ic
--ica
--ical
--ice
--ich
--ici
--ick
--icka
--icke
--icko
--ickou
--icky
--ico
--ics
--icum
--icus
--id
--ida
--idae
--idni
--ido
--idu
--ie
--iel
--iem
--ier
--ies
--if
--ifikace
--ig
--igh
--ight
--iho
--ii
--ij
--ija
--ijske
--ijsky
--ik
--ika
--ikou
--iku
--iky
--il
--ila
--ile
--ili
--illa
--ille
--illy
--ilni
--ilo
--ils
--ilu
--ily
--im
--in
--ina
--inda
--ine
--ing
--ingu
--ini
--iniho
--ino
--inou
--ins
--insky
--inu
--inum
--iny
--io
--iologie
--ion
--ions
--ior
--ios
--ious
--iova
--iove
--iovy
--ip
--ipe
--ique
--ir
--ira
--ire
--iru
--is
--isch
--ische
--isches
--ise
--ish
--iska
--isku
--ism
--ismem
--ismu
--ismus
--ist
--ista
--iste
--isticka
--istickou
--isticky
--istika
--istiku
--istiky
--istka
--istky
--istor
--istou
--istu
--isty
--isu
--it
--ita
--ite
--iti
--itni
--itou
--itske
--itu
--ity
--itz
--iu
--ium
--ius
--iv
--iva
--ive
--ivita
--ivitu
--ivity
--ivne
--ivni
--ivy
--ix
--iz
--iza
--izac
--izace
--izaci
--ization
--ize
--izova
--izovana
--izovane
--izovany
--izuji
--j
--ja
--jan
--jaty
--jazyc
--jde
--je
--jeme
--jev
--jeva
--ji
--jk
--jn
--jne
--jni
--jo
--js
--jsko
--jsky
--jt
--jte
--ju
--juje
--k
--ka
--kami
--kc
--kce
--kci
--ke
--kel
--kem
--ker
--kes
--ket
--ki
--kie
--kij
--kl
--kla
--kli
--klo
--kly
--kne
--kni
--knuti
--ko
--koku
--kos
--kou
--kov
--kova
--kove
--kovy
--kr
--kra
--kripce
--ks
--kt
--kta
--ktivni
--ktor
--ktoru
--ktory
--ktu
--kty
--ku
--kuje
--kula
--kum
--kve
--ky
--kyn
--kyni
--kytuji
--l
--la
--lab
--lac
--lace
--lage
--lam
--lame
--lami
--land
--lar
--lav
--lc
--ld
--lda
--ldy
--le
--lem
--len
--ler
--les
--less
--let
--leta
--lete
--lety
--ley
--lf
--lh
--li
--lia
--lic
--licke
--licky
--lie
--liga
--lii
--lil
--lin
--lio
--lis
--lismu
--lismus
--lista
--liste
--listicke
--listicky
--listy
--lit
--lita
--lite
--litou
--litu
--lity
--lizac
--lizace
--lizaci
--lizova
--lizovat
--lizuje
--lizuji
--lk
--lka
--lky
--ll
--lla
--lle
--lli
--llo
--llu
--lly
--lna
--lne
--lni
--lny
--lo
--load
--lock
--log
--logie
--logii
--lor
--los
--lou
--lov
--lova
--love
--loz
--ls
--lt
--lta
--ltu
--lu
--luha
--luhy
--luje
--lum
--lus
--ly
--lyn
--lys
--m
--ma
--maa
--man
--mann
--manova
--mba
--mbo
--me
--mem
--men
--ment
--ments
--mi
--mic
--mid
--min
--mio
--mis
--ml
--mm
--mman
--mna
--mne
--mni
--mo
--mon
--mond
--mor
--mos
--mp
--mps
--ms
--mu
--muji
--mus
--my
--n
--na
--nac
--nace
--nae
--nais
--nant
--nar
--nau
--nay
--nberg
--nc
--nce
--nci
--ncia
--ncova
--ncu
--ncy
--nd
--nda
--nde
--ndi
--ndo
--ndorf
--nds
--ndu
--ndy
--ne
--nea
--nec
--nek
--nel
--nell
--nem
--nen
--ner
--nes
--ness
--net
--ney
--ng
--nga
--nge
--ngem
--ngen
--nger
--ngo
--ngu
--ni
--nia
--nic
--nice
--nici
--nie
--niho
--nii
--nik
--nil
--nin
--nis
--nismu
--nismus
--niste
--nistka
--nit
--nity
--nium
--nius
--nk
--nka
--nke
--nko
--nku
--nky
--nkyni
--nn
--nna
--nne
--nni
--nny
--no
--nos
--nost
--nosti
--nou
--nout
--nouti
--nov
--nova
--nove
--novi
--novy
--ns
--nsa
--nse
--nsis
--nska
--nske
--nski
--nsky
--nstein
--nstvi
--nt
--nta
--nte
--ntem
--ntes
--nti
--ntia
--ntin
--ntne
--ntni
--nto
--nton
--ntova
--nts
--ntske
--ntu
--nty
--nu
--nul
--nuli
--nulo
--num
--nus
--nut
--nuta
--nute
--nuti
--nuto
--nuty
--nx
--ny
--nz
--nza
--nze
--nzen
--o
--oa
--ob
--obe
--obi
--obni
--oc
--oce
--oci
--ock
--ocke
--ocky
--od
--oda
--ode
--odi
--odic
--odit
--ody
--oe
--of
--ofilni
--og
--ogenni
--ogie
--ogii
--ogo
--ogy
--oh
--oha
--ohor
--ohorni
--oi
--oidni
--oir
--oj
--oji
--ok
--oka
--oky
--ol
--ola
--oli
--olo
--olog
--ologie
--ologii
--ologove
--ology
--oloz
--olu
--oly
--om
--oma
--ome
--omor
--omu
--omy
--on
--ona
--onal
--one
--onem
--oni
--onickou
--onova
--onovy
--ons
--onske
--ont
--ontu
--onty
--onu
--ony
--oo
--oon
--op
--opis
--opisu
--opisy
--opol
--or
--ora
--ord
--ore
--orem
--ores
--orf
--ori
--oria
--orium
--oro
--ors
--ort
--ortu
--oru
--orum
--ory
--os
--osa
--osaurus
--osfe
--oso
--ost
--osta
--osti
--ot
--ota
--ote
--oth
--othe
--oti
--otka
--otky
--otny
--otu
--ou
--ouc
--ouci
--ough
--oun
--oupi
--ous
--out
--ouva
--ouz
--ov
--ova
--ovaci
--oval
--ovala
--ovali
--ovana
--ovane
--ovany
--ovat
--ovce
--ovci
--ovcu
--ove
--ovek
--ovi
--ovic
--oviti
--ovka
--ovkou
--ovku
--ovna
--ovne
--ovny
--ovo
--ovou
--ovova
--ovske
--ovsky
--ovu
--ovy
--ow
--owa
--owice
--ows
--owski
--ox
--oy
--oz
--p
--pa
--pal
--pc
--pce
--pe
--ped
--pedia
--pektivni
--pel
--pen
--peny
--pf
--ph
--phe
--pi
--pie
--pil
--pit
--pl
--pla
--plne
--ply
--pman
--pni
--pny
--po
--poc
--pol
--por
--port
--pp
--ppa
--ppe
--pr
--pra
--ps
--pse
--pt
--pte
--pton
--pty
--pu
--puji
--py
--q
--que
--r
--ra
--rage
--ral
--ram
--rba
--rc
--rch
--rd
--rda
--rdi
--rdo
--rdu
--rdy
--re
--rel
--rell
--rem
--ren
--res
--ret
--rett
--retu
--rg
--rge
--rgu
--ri
--ria
--rid
--ridu
--ridy
--rie
--rii
--rij
--rim
--rin
--rio
--ris
--rista
--rit
--rite
--ritou
--ritu
--rity
--riu
--rium
--rius
--rizace
--rizaci
--rk
--rka
--rks
--rle
--rly
--rm
--rma
--rman
--rn
--rna
--rne
--rni
--rny
--ro
--roc
--ron
--rop
--ror
--rou
--row
--roz
--rp
--rra
--rre
--rrow
--rry
--rs
--rsity
--rska
--rson
--rt
--rta
--rte
--rth
--rtni
--ru
--ruhu
--ruji
--rum
--rus
--ry
--rz
--s
--sa
--sage
--saurus
--sberg
--sburg
--sch
--sco
--script
--sdorf
--se
--sed
--see
--sem
--sen
--ser
--ses
--sey
--sh
--ship
--shire
--si
--sia
--sie
--sii
--sika
--siku
--sis
--sius
--sk
--ska
--ske
--ski
--skij
--sko
--skou
--sku
--sky
--sl
--sla
--slav
--sli
--slil
--sly
--sm
--smu
--smus
--sn
--sne
--sni
--sny
--so
--son
--sor
--sou
--sova
--sovi
--ss
--ssa
--sse
--ssi
--ssia
--sson
--st
--sta
--ste
--ster
--steru
--sti
--sticka
--sticke
--sticky
--stics
--stika
--stiku
--stiky
--stka
--ston
--stone
--stou
--str
--stu
--stva
--stvi
--stvo
--stvu
--stvy
--sty
--su
--suji
--sy
--sz
--sław
--t
--ta
--tac
--tace
--tal
--tan
--tar
--tas
--tav
--taxe
--tbou
--tc
--tce
--te
--ted
--tein
--tek
--tel
--tele
--teli
--telna
--telne
--telnou
--telny
--telu
--tem
--ten
--ter
--tes
--tet
--th
--thus
--thy
--ti
--tia
--tic
--ticka
--ticke
--tickou
--ticky
--tida
--tidy
--tie
--ties
--tiho
--tii
--tik
--tika
--tiku
--tiky
--til
--tila
--tin
--ting
--tio
--tion
--tions
--tis
--tisi
--tismu
--tismus
--tit
--tium
--tius
--tiv
--tiva
--tive
--tivne
--tivni
--tivou
--tivu
--tizace
--tizuji
--tka
--tku
--tky
--tl
--tla
--tna
--tne
--tni
--tnou
--tny
--to
--toc
--ton
--tonu
--tooth
--tor
--tore
--tors
--tou
--tova
--town
--tr
--tra
--tro
--tru
--trum
--try
--ts
--tsch
--tske
--tt
--tta
--tte
--tti
--tto
--tty
--tu
--tuji
--tum
--tur
--tura
--ture
--turu
--tury
--tus
--tva
--tvem
--tvi
--tvo
--tvu
--ty
--tyho
--tz
--tze
--tzer
--u
--ua
--uba
--uc
--uce
--uch
--uci
--ud
--udky
--udu
--ue
--uer
--uf
--ugh
--uha
--ui
--uj
--uje
--uji
--uk
--ul
--ula
--ulo
--ult
--ulu
--ulus
--um
--uma
--un
--ung
--unt
--unu
--uny
--up
--upu
--ur
--ura
--ure
--ures
--uru
--urus
--ury
--us
--use
--uske
--usky
--ust
--usu
--ut
--uti
--uto
--uty
--uv
--uvu
--ux
--uz
--uze
--uzi
--v
--va
--vac
--val
--vala
--vanske
--vansky
--vat
--vatel
--vatele
--vateli
--vatelu
--vc
--vce
--vci
--vcu
--ve
--vec
--vem
--ven
--vena
--vene
--veny
--vi
--via
--vic
--vice
--vil
--ville
--vin
--vio
--vit
--vite
--viti
--vity
--vka
--vky
--vla
--vn
--vna
--vne
--vni
--vny
--vo
--vost
--vosti
--vou
--vova
--vr
--vs
--vske
--vsko
--vsky
--vu
--vuje
--vuji
--vy
--w
--wa
--wald
--warovy
--way
--we
--web
--well
--wi
--wich
--wick
--witz
--wl
--wn
--wo
--wood
--worth
--ws
--wska
--wske
--wski
--wy
--x
--xa
--xe
--xid
--xidu
--xu
--xy
--y
--ya
--yc
--ych
--ye
--yer
--yho
--yi
--yk
--yl
--ym
--yn
--yna
--yne
--yni
--yon
--yova
--yr
--ys
--yslne
--yt
--yte
--yty
--yu
--yz
--z
--za
--zac
--zace
--zaci
--zan
--zano
--zd
--zdi
--ze
--zek
--zem
--zen
--zena
--zene
--zeni
--zeny
--zer
--zi
--zia
--zie
--zijni
--zil
--zin
--zing
--zio
--zione
--zit
--zka
--zl
--zne
--zni
--zo
--zog
--zova
--zoval
--zovat
--zr
--zs
--zt
--zu
--zuje
--zuji
--zy
--zyn
--zzi
--ß
--ße
--ł
--ła
--ław
--α
--ι
--ς
--υ
--а
--ва
--д
--е
--еи
--и
--ии
--к
--ка
--м
--н
--о
--ов
--р
--т
--та
--ь
--я
--ל
