!
"
#
##0
##1
##10
##11
##12
##13
##14
##15
##16
##17
##18
##19
##2
##20
##21
##22
##23
##24
##25
##26
##27
##28
##29
##3
##30
##31
##32
##33
##34
##35
##36
##37
##38
##39
##4
##40
##41
##42
##43
##44
##45
##46
##47
##48
##49
##5
##50
##51
##52
##53
##54
##55
##56
##57
##58
##59
##6
##60
##61
##62
##63
##64
##65
##66
##67
##68
##69
##7
##70
##71
##72
##73
##74
##75
##76
##77
##78
##79
##8
##80
##81
##82
##83
##84
##85
##86
##87
##88
##89
##9
##90
##91
##92
##93
##94
##95
##96
##97
##98
##99
$
%
&
'
(
)
*
+
,
-
.
/
0
00
000
000005
001
002
003
004
005
006
007
008
009
01
010
010771
011
012
013
014
015
016
017
018
019
02
020
021
022
024
025
026
03
030
034
0355
0356
037
04
040
048
049
05
050
051
06
07
072
0787
08
082
085
09
0911910
09209
093
1
10
100
1000
1001
1002
1007
101
1016
102
103
1038
104
105
1050
106
107
1075
108
1080
109
1093
11
110
1100
111
1111
112
113
114
115
116
117
118
119
12
120
1200
121
122
122462
123
12387
124
125
1250
126
127
128
129
1292
13
130
1300
131
132
133
134
135
136
137
138
139
14
140
1400
141
142
143
144
145
1450
146
147
148
149
1492
15
150
1500
151
152
1520
1521
1526
153
1530
154
1540
1547
155
1550
1555
1556
156
1560
157
1570
1571
1572
1573
158
1580
159
1590
1592
1595
1596
1597
1598
1599
16
160
1600
1603
1605
1609
161
1610
1611
1613
1616
1617
1618
162
1620
1621
1622
1623
1625
1626
163
1630
1632
1633
1634
1635
1636
1637
1638
1639
164
1640
1641
1642
1643
1644
1645
1646
1647
1648
1649
165
1650
1651
1652
1653
1654
1655
1656
1657
1658
166
1660
1661
1662
1664
1665
1666
1667
1668
167
1670
1672
1673
1674
1675
1676
1678
1679
168
1680
1681
1682
1683
1684
1685
1686
1687
1688
1689
169
1690
1691
1692
1693
1694
1695
1696
1697
1698
1699
17
170
1700
1701
1702
1703
1704
1705
1706
1707
1708
1709
171
1710
1711
1712
1713
1714
1715
1716
1717
1718
1719
172
1720
1721
1722
1723
1724
1725
17255
1726
1727
1728
1729
173
1730
1731
1732
1733
1734
1735
1736
1737
1738
1739
174
1740
1741
1742
1743
1744
1745
1746
1747
1748
1749
175
1750
1751
1752
1753
1754
1755
1756
1757
1758
1759
176
1760
1761
1762
1763
1764
1765
1766
1767
1768
1769
177
1770
1771
1772
1773
1774
1775
1776
1777
1778
1779
178
1780
1781
1782
1783
1784
1785
1786
1787
1788
1789
179
1790
1791
1792
1793
1794
1795
1796
1797
1798
1799
18
180
1800
1801
1802
1803
1804
1805
1806
1807
1808
1809
181
1810
1811
1812
1813
1814
1815
1816
1817
1818
1819
182
1820
1821
1822
1823
1824
1825
1826
1827
1828
1829
183
1830
1831
1832
1833
1834
1835
1836
1837
1838
1839
184
1840
1841
1842
1843
1844
1845
1846
1847
1848
1849
185
1850
1851
1852
1853
1854
1855
1856
1857
1858
1859
186
1860
1861
1862
1863
1864
1865
1866
1867
1868
1869
187
1870
1871
1872
1873
1874
1875
1876
1877
1878
1879
188
1880
1881
1882
1883
1884
1885
1886
1887
1888
1889
189
1890
1891
1892
1893
1894
1895
1896
1897
1898
1899
19
190
1900
1901
1902
1903
1904
1905
1906
1907
1908
1909
191
1910
1911
1912
1913
1914
1915
1916
1917
1918
1919
192
1920
1921
1922
1923
1924
1925
1926
1927
1928
1929
193
1930
1931
1932
1933
1934
1935
1936
1937
1938
1939
194
1940
1941
1942
1943
1944
1945
1946
1947
1948
1949
195
1950
1951
1952
1953
1954
1955
1956
1957
1958
1959
196
1960
1961
1962
1963
1964
1965
1966
1967
1968
1969
197
1970
1971
1972
1973
1974
1975
1976
1977
1978
1979
198
1980
1981
1982
1983
19839
1984
1985
1986
1987
1988
1989
199
1990
1991
1992
1993
1994
1995
1996
1997
1998
1999
2
20
200
2000
2001
2002
2003
2004
2005
2006
2007
2008
2009
201
2010
2011
2012
2013
2014
2015
2016
2017
2018
2019
202
2020
2021
2022
2023
2024
2025
203
2030
204
2047
205
2050
206
207
208
209
21
210
21053
211
212
213
214
2142
2144
215
216
217
218
219
22
220
22044
221
222
223
224
225
226
227
228
229
23
230
231
232
233
234
235
236
237
238
239
24
240
241
242
243
244
245
246
247
248
249
25
250
2500
251
252
253
254
255
256
257
258
259
26
260
2600
261
262
263
264
265
266
267
268
269
27
270
271
272
273
274
275
276
277
278
279
28
280
281
282
28228
283
284
285
286
287
288
289
29
290
291
292
2924
293
294
29400
295
296
297
298
299
3
30
300
3000
301
302
303
304
305
306
307
308
309
31
310
311
3110114515
312
313
314
315
316
3166
317
318
319
32
320
321
322
323
324
325
326
327
328
329
33
330
331
332
333
334
335
336
337
338
339
34
340
341
342
343
34361
344
345
346
347
348
349
35
350
3500
351
352
353
354
355
356
357
358
359
36
360
361
362
363
364
365
366
367
368
369
37
370
371
372
373
374
375
376
377
378
379
38
380
381
382
383
384
385
3852
386
387
388
389
39
390
391
392
393
394
395
396
397
398
399
4
40
400
4000
401
402
403
404
405
406
407
408
409
41
410
411
412
413
414
415
416
417
418
419
42
420
421
422
423
424
425
426
427
428
429
43
430
431
432
433
434
435
436
437
438
439
44
440
441
442
443
444
445
446
447
448
449
45
450
451
452
453
454
455
456
457
458
459
46
460
461
462
463
464
465
466
467
468
469
47
470
471
472
473
474
475
476
477
478
479
48
480
481
482
483
484
485
486
487
488
489
49
490
491
492
493
494
495
496
497
498
499
5
50
500
5000
501
502
503
504
505
506
507
508
509
51
510
5106
511
512
513
514
515
516
517
518
519
52
520
5202
521
522
523
524
525
526
527
528
529
53
530
531
532
5329
533
534
535
536
537
539
54
540
541
542
543
544
5446
545
546
547
548
549
55
550
5500
551
552
553
554
555
556
558
559
56
560
561
562
5627
563
565
566
567
57
570
571
572
573
575
576
577
578
579
58
580
581
582
583
584
585
586
588
589
59
590
593
595
597
6
60
600
6000
601
602
603
604
605
606
607
608
609
61
610
611
612
613
614
615
616
617
618
619
62
620
621
622
624
625
626
627
628
629
63
630
631
632
633
634
635
636
637
639
64
640
641
642
643
645
65
650
6501
651
652
653
655
656
657
66
660
661
662
663
664
6644
666
667
67
670
671
672
674
675
679
68
680
681
682
684
685
689
69
690
691
692
693
7
70
700
7000
701
705
707
708
71
710
711
7110
712
714
715
717
7188
719
72
720
721
725
727
73
730
731
734
735
737
74
740
741
745
746
747
749
75
750
754
757
758
76
760
765
767
768
77
770
771
773
775
777
78
780
785
787
79
790
792
796
8
80
800
8000
802
804
807
81
810
8108
813
814099
815
8160
8167
82
820
825
83
830
835
84
840
842
843
84832
85
850
8500
851
85177
85270
85368
855
857
86
860
86019
861
87
870
874
875
876
877
88
880
881
884
887
888
89
8920
8942
9
90
900
9000
9035
91
910
911
92
920
9221
923
9269
93
930
94
940
945
95
950
951
9511109618
952
96
960
963
97
97170
972
975
978
98
980
985
98673
99
990
99046
99075
99281
9985
999
:
;
<
=
>
?
@
[
\
]
^
_
`
a
aa
aadolf
aadolfin
aakkoset
aakkosja
aakkosten
aalberg
aale
aallon
aallot
aalto
aaltoja
aaltojen
aaltonen
aaltosen
aamiainen
aamu
aamulehden
aamulehti
aamulla
aamun
aamuna
aamupa
aamuyo
aan
aapeli
aapo
aarin
aarne
aarni
aarnio
aarno
aaro
aaron
aarre
aarteen
aasi
aasia
aasiaan
aasialainen
aasialaisia
aasian
aasiassa
aasiasta
aasit
aate
aatelin
aatelinen
aatelissa
aatelissuku
aateliston
aateloitiin
aatos
aatteen
aatteet
aatto
aatu
aavikko
aavikon
ab
abba
abbas
abbey
abbott
abc
abd
abdel
abdul
abdullah
abe
abel
abi
abies
ablatiivimuoto
about
above
abraham
abreu
abs
absolute
absoluuttinen
abstract
abstrakti
abu
abuse
ac
acade
academia
academic
academy
accept
access
accident
according
account
ace
acer
acid
acoustic
acquire
across
act
acta
action
active
activity
actor
actors
actress
ad
ada
adam
adams
adamsin
add
addendum
addis
addison
adds
ade
adel
adelaide
adele
adhd
adi
adjektiivi
adjektiivista
adjektiivit
adjutanttina
adler
admin
administration
administrative
admiral
adobe
adolf
adoptoi
adrian
adriano
adult
advance
advanced
adventure
adventures
adverbit
adw
ae
aero
aerospace
af
afc
affair
affairs
afganistan
afganistaniin
afganistanin
afganistanissa
afghanistan
afi
africa
african
afrika
afrikan
afrikassa
afrikasta
afrikka
afrikkaa
afrikkaan
afrikkalainen
afrikkalaisen
afrikkalaisten
afrique
after
aftonbladet
ag
aga
again
against
agatha
age
aged
agency
agent
agentit
agents
agentti
agenttina
ages
aggressiivinen
agi
agnes
ago
agora
agoran
agree
agreement
agricola
agricolan
agricultural
agriculture
agronomi
ah
ahead
ahkera
ahkerasti
ahl
ahlqvist
ahlstro
ahmad
ahmed
aho
ahokas
ahola
ahon
ahonen
ahti
ahtisaari
ahven
ahvenanmaa
ahvenanmaalla
ahvenanmaan
ahvenlampi
ai
aid
aidan
aidat
aidoissa
aidosti
aids
aiemmalta
aiemman
aiemmasta
aiemmat
aiemmin
aiemminkin
aiemmissa
aiemmista
aiempaa
aiempaan
aiempi
aiempia
aiempien
aihe
aiheen
aiheena
aiheensa
aiheeseen
aiheesta
aiheet
aiheinen
aiheisia
aiheisiin
aiheista
aiheita
aihetta
aiheuta
aiheuttaa
aiheuttaen
aiheuttaja
aiheuttama
aiheuttamaa
aiheuttamaan
aiheuttaman
aiheuttamasta
aiheuttamat
aiheuttamia
aiheuttamien
aiheuttamiin
aiheuttamista
aiheuttaneet
aiheuttanut
aiheuttava
aiheuttavan
aiheuttavat
aiheutti
aiheuttivat
aiheutuu
aik
aika
aikaa
aikaan
aikaansa
aikaansaamiseksi
aikain
aikainen
aikaiseen
aikaiseksi
aikaisemman
aikaisemmasta
aikaisemmat
aikaisemmin
aikaisemmista
aikaisempaa
aikaisempi
aikaisempia
aikaisempien
aikaisen
aikaisena
aikaisessa
aikaisesta
aikaisesti
aikaiset
aikaisia
aikaisin
aikaisintaan
aikaisista
aikaista
aikaisten
aikaja
aikajana
aikakaudella
aikakauden
aikakausi
aikakauskirja
aikakauslehti
aikakautensa
aikakone
aikalaiskirja
aikamme
aikana
aikanaan
aikansa
aikataulu
aikataulut
aikava
aikeet
aikeissa
aikio
aikoi
aikoihin
aikoina
aikoinaan
aikoja
aikojen
aikonut
aikoo
aikovansa
aikovat
aikuinen
aikuiseksi
aikuisen
aikuisena
aikuiset
aikuisia
aikuisilla
aikuisille
aikuista
aikuisten
aila
aili
aim
aime
aimo
ain
aina
ainakaan
ainakin
aine
aineen
aineena
aineenaan
aineesta
aineet
aineiden
aineista
aineisto
aineistoa
aineiston
aineistot
aineita
ainekset
aineksia
aines
ainesta
ainetta
aino
ainoa
ainoaksi
ainoan
ainoana
ainoastaan
ainoat
ainoita
ainugo
ainun
ainut
ainutlaatuinen
ainuttakaan
aio
aiotaan
air
aira
airaksinen
airbus
aircraft
aires
airin
airlines
airlinesin
airport
airways
ais
aise
aisti
aita
aitajuoksija
aitajuoksu
aitajuoksun
aitajuoksussa
aito
aitoa
aitoja
aitta
aivan
aivoissa
aivojen
aivot
aivota
aj
aja
ajaa
ajaen
ajaja
ajaksi
ajalla
ajallaan
ajalle
ajallisesti
ajalta
ajamaan
ajamalla
ajan
ajaneet
ajanjakso
ajanjakson
ajankohdan
ajankohta
ajankohtaisia
ajankohtaista
ajanlaskun
ajantasainen
ajanut
ajassa
ajasta
ajastaan
ajat
ajatella
ajatellaan
ajatellen
ajatellut
ajateltiin
ajateltu
ajattelee
ajattelemaan
ajatteli
ajattelija
ajattelijain
ajattelin
ajattelu
ajattelua
ajattelun
ajattelussa
ajatteluun
ajatukseen
ajatuksen
ajatuksena
ajatuksensa
ajatuksesta
ajatukset
ajatuksia
ajatuksiaan
ajatuksiin
ajatus
ajatusta
ajatusten
ajautui
ajautuivat
ajautunut
ajautuu
ajavat
ajax
ajetaan
ajettiin
ajettu
ajo
ajoi
ajoilta
ajoin
ajoissa
ajoista
ajoitetaan
ajoitettu
ajoittain
ajoittuu
ajoitus
ajoivat
ajon
ajoneuvo
ajoneuvoa
ajoneuvoja
ajoneuvojen
ajoneuvon
ajoneuvot
ajoon
ajossa
ajot
ak
aka
akaan
akademi
akademiens
akademin
akateemikko
akateeminen
akateemisen
akatemia
akatemiaan
akatemian
akatemiassa
akatemiasta
aki
akin
akira
akk
akka
akku
akkusatiivi
akkusatiivimuoto
akropoliin
akropolis
aks
aksel
akseli
akselilla
akselin
akseliva
akselivaltojen
akt
aktiivi
aktiivin
aktiivinen
aktiivisen
aktiivisena
aktiivisesti
aktiivisia
aktiivista
aktiivisuus
aktiiviuransa
aktivisti
aktivistien
aktivistit
aktivoi
aku
akun
akustinen
akuutti
akvaariossa
al
ala
alaa
alaan
alabama
alabaman
alaha
alaheimo
alaheimoon
alahuoneen
alaika
alain
alainen
alaiseksi
alaisen
alaisena
alaiset
alaisia
alaisuudessa
alaisuuteen
alaja
alajuoksulla
alajuoksun
alakoulu
alalajeja
alalaji
alalajia
alalla
alalle
alalta
alaltaan
alama
alan
alanen
alanko
alankomaalainen
alankomaat
alankomaiden
alankomaihin
alankomaissa
alansa
alaosa
alaosan
alapuolella
alapuolelle
alapuolelta
alarik
alaryhma
alas
alaska
alaskan
alaskassa
alaspa
alasta
alaston
alat
alatalo
alati
alatyylia
alavuden
alavus
alba
alban
albania
albanian
albany
albert
alberta
alberto
albin
albion
albrecht
album
albumeilla
albumeista
albumeita
albumeja
albumi
albumia
albumiaan
albumien
albumiin
albumiksi
albumilistalla
albumilistan
albumilla
albumillaan
albumille
albumilta
albumin
albumina
albuminsa
albumista
albumit
albums
alcohol
aldo
aldrich
ale
alec
alejandro
aleksander
aleksandr
aleksandra
aleksandriaan
aleksandrian
aleksandrovits
aleksanteri
aleksanterin
aleksei
aleksi
aleksis
alemmaksi
alemman
alemmas
alempaan
alempana
alempi
alempien
alentaa
alert
alessandro
aletaan
alettiin
alettu
alettua
alex
alexander
alexandra
alexandre
alexandria
alexis
alf
alfa
alfons
alfonso
alfred
alfredo
alfthan
algebra
algeria
algerian
algeriassa
algoritmi
alhaalla
alhaalta
alhainen
alho
ali
alia
alias
alice
alicia
alien
aligned
alija
alimentaire
alin
alina
alison
alissa
alistettiin
aliupseeri
aliupseeriksi
alivaltiosihteeri
alive
alk
alkaa
alkaen
alkaessa
alkamisen
alkamista
alkaneen
alkaneet
alkanut
alkava
alkavan
alkavat
alkeet
alkio
alkion
alko
alkoholi
alkoholia
alkoholin
alkoholinka
alkoi
alkoivat
alkon
alku
alkua
alkuaan
alkuaikoina
alkuaikojen
alkuaine
alkuaineen
alkuaineiden
alkuera
alkuerissa
alkujaan
alkukauden
alkukesa
alkula
alkulohko
alkulohkon
alkulohkossa
alkuluku
alkunsa
alkuosa
alkup
alkupa
alkupera
alkupuolella
alkupuolelle
alkupuolelta
alkupuolen
alkupuoliskolla
alkura
alkuteksti
alkuteos
alkuun
alkuvaiheessa
alkuvuodesta
alkuvuonna
alkuvuosina
all
alla
allah
allan
allas
alle
alleen
allegro
allekirjoitettiin
allekirjoittanut
allekirjoitti
allekirjoittivat
allen
allenin
alli
alliance
allianssi
allison
allma
allmers
allmovie
allmoviessa
allmusic
allsvenskan
allsvenskanin
allsvenskanissa
alma
almanakassa
almanakka
almanakkatoimisto
almeida
almost
aloilla
aloite
aloitetaan
aloitettiin
aloitettu
aloitettua
aloittaa
aloittaen
aloittamaan
aloittamista
aloittaneen
aloittanut
aloittavat
aloitteen
aloitteesta
aloitti
aloittivat
aloja
alojen
alone
along
alonso
alpeilla
alpes
alpesin
alpha
alphabet
alphonse
alpine
alpit
alpo
alppien
alppihiihdon
alppihiihta
alppihiihto
alppiyhdistetyssa
als
also
alt
alta
altaan
altaaseen
alter
alternative
altis
altistaa
altitudini
alto
alttari
alttarin
alttaritaulu
alue
alueeksi
alueella
alueelle
alueellinen
alueellisen
alueellisesti
alueelliset
alueellisia
alueellista
alueelta
alueen
alueena
alueensa
alueeseen
alueessa
alueesta
alueet
aluehallinnon
aluehallintouudistuksen
alueiden
alueilla
alueille
alueilta
alueisiin
alueista
alueita
alueittain
aluejako
aluejaon
aluepiirin
aluetta
aluetunnus
alueyksikko
alueyksiko
alukseen
aluksella
alukselle
alukselta
aluksen
aluksensa
aluksessa
aluksesta
alukset
aluksi
aluksia
aluksilla
aluksille
aluksista
alulle
alun
alus
alusluettelosta
alusluokat
alusluokka
alussa
alusta
alustalla
alustalle
alustan
alustavasti
alusten
alustoille
alvar
alves
alvin
always
alzheimerin
am
ama
amadeus
amalia
amanda
amateur
amato
amatsoni
amazing
amazon
amazonin
amber
amc
amd
ame
amelia
amen
america
american
americana
americans
amerikan
amerikanenglantia
amerikansuomalainen
amerikassa
amerikasta
amerikka
amerikkaa
amerikkaan
amerikkalainen
amerikkalaisen
amerikkalaisessa
amerikkalaiset
amerikkalaisia
amerikkalaista
amerikkalaisten
ami
amiga
amin
aminoff
amiraali
amiraalit
amiraliteetin
amk
ammatillinen
ammatillisen
ammatillista
ammatiltaan
ammatin
ammatteja
ammatti
ammattia
ammattija
ammattikorkeakoulu
ammattikorkeakoulun
ammattikorkeakoulussa
ammattilainen
ammattilaiseksi
ammattilaisena
ammattilaiset
ammattilaisten
ammattilaisuransa
ammattiliitto
ammattiliittojen
ammattiopisto
ammuksia
ammunta
ammuntapeli
ammutaan
ammuttiin
ammuttu
amnesty
amon
among
amor
amore
amorphis
amos
amour
amphibian
ampua
ampui
ampuivat
ampuja
ampuma
ampumaan
ampumahiihdon
ampumahiihta
ampumahiihto
ampumalla
ampuu
amsterdam
amsterdamin
amsterdamissa
amt
amurin
amy
an
ana
anaheim
analysis
analyysi
analyysin
analyyttinen
analyyttisen
anastasia
anatoli
anatomia
anatomiaan
anatomian
anatomy
anc
ancient
and
anderberg
anders
andersen
anderson
andersonin
andersson
anderssonin
andien
ando
andorra
andra
andre
andrea
andreas
andreeva
andrei
andrew
andrews
android
andrzej
andy
angel
angela
angeles
angelesiin
angelesin
angelesissa
angelo
angels
angiosperm
anglo
angola
angolan
angry
angus
anhava
ani
animaatio
animaatioelokuva
animaation
animaatiosarja
animaatiosarjan
animaatiosarjassa
animaattori
animal
animals
animated
animation
anime
anin
anissa
anita
anja
anjalan
ankan
ankara
ankaran
ankarasti
ankka
ankkuri
ann
anna
annala
annales
annan
annapolis
anne
anneli
annetaan
annettava
annette
annettiin
annettu
annettua
annetuista
annetun
annetussa
annetut
anni
annie
anniina
annika
annikki
anniversary
anno
annos
announce
announced
announces
annual
annukka
ano
anoi
another
ans
ansa
ansaan
ansainnut
ansaita
ansaitsee
ansaitsi
anselm
ansioista
ansioistaan
ansiomerkki
ansiosta
anssi
answer
answers
ant
antaa
antaen
antaisi
antakaa
antal
antama
antamaa
antamaan
antamalla
antaman
antamassaan
antamasta
antaminen
antamista
antaneet
antanut
antautui
antautuivat
antautumaan
antava
antavaan
antavan
antavat
ante
anteeksi
antero
anthem
anthems
anthology
anthony
anthropology
anti
antiikin
antiikkiin
antikainen
antila
antin
anto
antoi
antoine
antoivat
antologia
antologiassa
anton
antoni
antonia
antonio
antoniuksen
antonius
antonov
antony
antropologi
antti
anttila
anttilan
anttonen
antwerpenin
antwerpenissa
anu
any
anything
ao
ap
apache
apali
apartheid
apina
apo
apocalypse
apollo
apollodoros
apollon
apollonin
apostoli
apostolien
apostoliseksi
app
apple
applen
appleton
application
applications
applied
approach
apps
april
apt
apteekkari
apteekki
apu
apua
apulainen
apulaiseksi
apulaisena
apulaisprofessori
apulaisprofessorina
apulanta
apuna
apunaan
apuraha
apurahan
apuun
apuva
apuvalmentaja
apuvalmentajaksi
apuvalmentajana
apweb
aqua
ar
ara
arab
arabeja
arabia
arabiaa
arabiaksi
arabialainen
arabian
arabiassa
arabic
arabiemiirikunnat
arabien
arabit
aragonian
arc
arcade
arch
archaeological
archaeology
archaic
archbishop
archer
archie
architecture
archive
archived
archives
archivessa
arctic
are
area
arealstatistik
areas
areena
areenalla
areenan
areenassa
arena
arenalla
argentiina
argentiinaan
argentiinalainen
argentiinan
argentiinassa
argentina
argo
argumentti
arhinma
ari
aria
ariana
ariel
aristoteleen
aristoteles
aristotle
arizona
arizonan
arja
arjen
ark
arka
arkaaisella
arkaaisen
arkangelin
arkansas
arkea
arkeologi
arkeologian
arkeologinen
arkeologisen
arkeologisessa
arkeologiset
arkeologisia
arkeologisten
arki
arkiela
arkikielta
arkipa
arkisin
arkisto
arkistoitu
arkistolaitos
arkistolinkki
arkiston
arkistossa
arkistot
arkki
arkkihiippakunnan
arkkihiippakuntaan
arkkipiispa
arkkipiispaksi
arkkipiispan
arkkitehdiksi
arkkitehdin
arkkitehdit
arkkitehti
arkkitehtien
arkkitehtina
arkkitehtitoimisto
arkkitehtuuri
arkkitehtuuria
arkkitehtuuriin
arkkitehtuurin
arkkitehtuurissa
arkkitehtuurista
arkku
arktinen
arkun
arm
arma
armand
armas
arme
armed
armeija
armeijaa
armeijaan
armeijakunnan
armeijakunta
armeijalle
armeijan
armeijansa
armeijaryhma
armeijassa
armeijasta
armeijat
armenia
armenialainen
armenian
armfelt
armi
armo
armoa
armollinen
armon
armosta
armour
arms
armstrong
armstrongin
army
arne
arno
arnold
aro
aron
around
arponen
arrow
ars
arsenal
arsenalin
art
arte
artemis
arthur
arthurin
article
articles
artikkeleita
artikkeli
artikkelia
artikkelien
artikkelin
artikkelinsa
artikkelissa
artikkelissaan
artikkelista
artikkelit
artikla
artiklan
artist
artisteille
artisteja
artisti
artistien
artistin
artistit
artists
artja
arto
arts
arttu
artturi
artur
arturo
arvata
arvelee
arveli
arvellaan
arveltiin
arveltu
arvi
arvid
arvio
arvioi
arvioida
arvioidaan
arvioiden
arvioimaan
arvioinnin
arviointi
arviointiin
arvioita
arvioitiin
arvioitu
arvioivat
arviolta
arvion
arviossa
arviot
arviota
arvo
arvoa
arvoinen
arvoisen
arvoisia
arvoista
arvoitus
arvoja
arvojen
arvokas
arvokasta
arvokilpailuissa
arvokisoissa
arvokkaat
arvokkaimmaksi
arvokkain
arvokkaita
arvoksi
arvoltaan
arvon
arvonimen
arvonimet
arvonimi
arvonlisa
arvonsa
arvoon
arvopaperi
arvosana
arvosanaksi
arvosanan
arvossa
arvosta
arvostaa
arvostelee
arvosteli
arvostelija
arvostellut
arvosteltiin
arvosteltu
arvostelu
arvostelua
arvosteluja
arvostelun
arvostelussa
arvostelussaan
arvostelut
arvostettu
arvostetun
arvostus
arvostusta
arvot
as
asa
asahi
ase
aseella
aseen
aseena
aseenaan
aseensa
aseet
aseiden
aseisiin
aseista
aseistettu
aseistuksena
aseistus
aseistusta
aseita
aselevon
asema
asemaa
asemaan
asemaansa
asemakaava
asemakaavan
asemalla
asemalle
asemalta
asemamalli
aseman
asemansa
asemarakennus
asemassa
asemasta
asemat
asemesta
asemia
asemien
asemiin
asemista
asenne
asennettiin
asennettu
asennossa
asentaa
asento
asentoon
asessori
asetelma
asetetaan
asetettiin
asetettu
asetta
asettaa
asettama
asettamalla
asettanut
asetti
asettivat
asettua
asettui
asettuivat
asettuneet
asettunut
asettuu
asetuksella
asetuksen
asetuksessa
asetukset
asetus
asetuskokoelma
asevoimat
asevoimien
ash
ashes
ashley
ashton
asia
asiaa
asiaan
asiain
asiainministerio
asiakas
asiakasta
asiakirja
asiakirjat
asiakirjoissa
asiakirjoja
asiakirjojen
asiakkaan
asiakkaat
asiakkaiden
asiakkaille
asiakkaita
asialla
asiallinen
asiallisena
asiallisesti
asiamies
asian
asiana
asianajaja
asianajajana
asiansa
asiantuntija
asiantuntijana
asiantuntijat
asiantuntijoiden
asiantuntijoita
asiassa
asiasta
asiat
asikainen
asikkala
asikkalan
asioiden
asioihin
asioissa
asioista
asioita
ask
asked
askel
askeleen
askelta
asko
askola
asn
asnt
asp
aspergillus
aspx
ass
assa
assassin
assault
assembly
assessment
assistenttina
associated
association
associationin
associations
assyrian
asta
astana
aste
asteella
asteen
asteeseen
asteet
asteikko
asteikolla
asteikon
asteittain
asterix
asteroidi
asteroidivyo
astetta
asti
astia
astian
astioita
aston
astra
astrid
astro
astronautti
astronomical
astronomy
astua
astui
astuu
asu
asua
asuessaan
asui
asuin
asuinalue
asuinalueen
asuinaluetta
asuinpaikat
asuinpaikka
asuinrakennus
asuivat
asukas
asukasluku
asukasma
asukasta
asukastiheys
asukkaan
asukkaaseen
asukkaasta
asukkaat
asukkaiden
asukkaille
asukkaista
asukkaita
asumaan
asumaton
asuminen
asumisen
asun
asuneen
asuneet
asunnon
asunnossa
asunnot
asunto
asuntoa
asuntoja
asuntojen
asuntoon
asunut
asutettiin
asuttivat
asuttu
asutuksen
asutuksesta
asutukset
asutuksista
asutus
asutuskeskus
asutusta
asuu
asuun
asuva
asuvan
asuvat
asuvia
asuvien
at
ata
atari
ateena
ateenaan
ateenalainen
ateenalaiset
ateenan
ateenassa
ateenasta
ateismi
atena
ateneumin
ateria
atheism
athene
athenen
athens
athlete
athletes
athletic
athletics
atk
atkins
atkinson
atlanta
atlantaan
atlantan
atlantassa
atlantic
atlantilla
atlantin
atlantis
atlas
atle
atomi
atomic
atomien
atomin
atp
atpworldtour
ats
att
attack
attacks
atte
attica
attikan
attila
au
audi
audio
audiovisuaalinen
audrey
auer
auf
aug
augsburgin
august
augusta
auguste
augustin
augustinus
augusto
augustuksen
augustus
aukeaa
aukeama
auki
aukio
aukiolla
aukion
aukko
aukkoja
aukon
aukusti
aula
auli
aulikki
aulis
aune
aunuksen
aura
aurajoen
auran
aureja
aurelius
auringon
auringossa
auringosta
aurinko
aurinkoa
aurinkokunnan
aurora
aus
austin
australia
australiaan
australialainen
australialaisen
australian
australiassa
australiasta
austria
austrian
austriancharts
auta
author
authority
authors
autio
autism
auto
autoa
autoasema
autobiography
autoihin
autoilija
autoilla
autoissa
autoista
autoja
autojen
autolla
automaattinen
automaattisesti
automalli
automallit
automatic
automobile
auton
autona
autonomian
autonominen
autonomisen
autonsa
autoon
autosport
autossa
autosta
autot
autourheilija
auttaa
auttamaan
auttanut
auttavat
auttoi
auttoivat
autuas
autumn
auvinen
aux
av
ava
avaa
avaamaan
available
avaimen
avaimet
avain
avainluvut
avajaiset
avajaisissa
avalanche
avant
avantgarde
avaruuden
avaruudessa
avaruudesta
avaruus
avaruusalus
avaruusasemalle
avaruusaseman
avaruusja
avaruuteen
avasi
avasivat
avata
avataan
avatar
avattiin
avattu
avaus
avauskierroksella
avauskokoonpanossa
avausmaalin
avausottelussa
avautui
avautuu
avautuvat
ave
avec
avellan
avengers
avenue
average
avery
aviation
avio
avioero
avioeron
avioitui
avioituivat
avioliiton
avioliitossa
avioliitosta
avioliitostaan
avioliitot
avioliitto
avioliittoa
avioliittonsa
avioliittoon
aviomiehensa
aviomies
aviv
avn
avna
avo
avoimeen
avoimeksi
avoimen
avoimena
avoimessa
avoimesti
avoimet
avoimia
avoimissa
avoin
avoinna
avointa
avointen
avola
avtomobilnyh
avukseen
avuksi
avulla
avun
avustaa
avustaja
avustajana
avustamaan
avustamana
avusti
avustivat
avustuksella
award
awardin
awards
away
ax
axel
ay
az
azerbaidz
azerbaijan
b
ba
baari
bab
baba
baby
babylon
babylonian
bach
bachelor
bachin
back
backed
background
backman
backstreet
bacon
bad
badding
baden
bae
bafta
bag
bagdadin
bagh
baha
bahn
bahrain
bahrainin
baijerin
bailey
baker
bakteeri
bakteerien
bakteerin
bakteerit
baku
bakun
bal
balance
baldwin
baletin
baletti
balettitanssija
bali
balin
balkanilla
balkanin
ball
ballad
balladi
ballard
ballet
baltian
baltiassa
baltic
baltimore
bam
ban
banaani
banco
band
bandin
bandy
bang
bangkok
bangladesh
bangladeshin
banjo
bank
banks
baptiste
bar
bara
barack
barbara
barber
barcelona
barcelonan
barcelonassa
baritoni
barker
barks
barksin
barn
barnes
barney
barnsley
barokin
baron
barre
barrett
barrie
barrow
barry
bars
bart
barton
bas
basam
base
baseball
baseballin
baseballpelaaja
based
basel
baselin
basic
basil
basilika
basin
basisti
basistiksi
basistina
basket
basketball
baskimaan
bass
basso
bassoa
bassokitara
bastien
bat
bates
batista
batman
batmanin
battista
battle
battlefield
battles
battleships
bauer
baxter
bay
bayer
bayern
bayn
bazar
bb
bbc
bc
bd
bdfutbol
be
beach
bean
bear
bears
beast
beat
beatles
beatlesin
beatrice
beats
beautiful
beauty
beaux
beaver
bec
became
because
becin
beck
becker
become
becomes
bed
bee
been
beer
beethoven
beethovenin
befolkning
before
begin
beginning
begins
behavior
behind
bei
beijing
being
bel
belarus
belfast
belgia
belgiaan
belgialainen
belgialaisen
belgian
belgiassa
belgium
belgradin
belgradissa
believe
belisarius
bell
bella
belle
bellied
bellin
bello
below
belt
ben
benedict
benedictus
benetton
bengalin
bengt
bengtsson
beni
benin
beninin
benito
benjamin
bennett
benny
benson
bentley
benz
benzin
ber
bera
berg
bergen
bergenin
berger
bergh
bergin
berglund
bergman
bergmanin
bergroth
bergstro
berkeley
berliini
berliiniin
berliinin
berliinissa
berlin
berliner
bern
bernard
bernardo
bernd
berndt
berner
bernhard
bernie
bernin
bernstein
berry
bert
bertel
bertha
bertil
bertrand
bes
best
bet
beta
beth
betoni
better
betty
between
beverly
bevo
beyond
bez
bf
bfs
bhutan
bi
bianca
bible
bibliografia
bibliotek
bibliothe
bibliotheke
biden
bie
bieber
big
bigg
biggest
biisi
bilancio
bilbao
bild
bilder
bill
billboard
billboardin
billed
billie
billion
billy
bin
bina
bing
bio
biochemistry
biodiversity
biografia
biografiakeskus
biografiasampo
biografiskt
biographical
biographie
biography
biokemisti
biologi
biologia
biologiaan
biologian
biological
biologinen
biologisen
biology
bios
biosciences
bird
birdlife
birds
birger
birgit
birgitta
birmingham
birminghamin
birth
birthday
bis
bishop
bismarck
bissau
bit
bitch
bittinen
biz
bjo
bjørn
bk
bkt
bl
bla
blabbermouth
black
blackburn
blackhawks
blackhawksin
blackmore
blackwell
blade
blair
blake
blanc
blanche
blanco
blast
blaze
blind
blitz
block
blog
blogi
blogin
blogit
blogs
blogspot
blom
blomberg
blomqvist
blomstedt
blood
bloody
bloom
bloomberg
bloomsbury
blow
blu
blue
blues
bluesia
bluesiin
bluesin
bm
bmatrix
bmg
bmi
bmw
bo
board
boat
bob
bobby
body
boeing
bogota
bois
bok
boldsymbol
boli
bolivia
bolivian
boliviassa
bologna
bolognan
bols
bolt
bolton
bomb
bombardier
bon
bonaparte
bond
bone
bones
bonnie
bonnier
bono
bonsdorff
bonus
bonuskappale
boogie
book
booker
books
bookwell
boom
booth
bor
bora
bordeaux
border
bore
borealis
borg
borga
borgo
borgstro
boris
born
borough
borussia
borys
bos
bosch
bosnia
bosnian
boss
boston
bostonin
bostonissa
botanic
botanical
both
botnia
botswana
bottas
bouchard
boulevard
bourbon
bow
bowen
bowie
bowien
bowl
box
boxing
boxofficemojo
boxrec
boy
boyd
boyer
boys
boysin
bp
br
bra
brad
bradford
bradley
brady
brahe
brain
brand
brandenburg
brandenburgin
brander
brandon
brands
brandt
brasil
brasilia
brasiliaan
brasilialainen
brasilian
brasiliassa
brasiliasta
bratislava
braun
brave
bravo
brazil
bre
break
breaking
breaks
breasted
breath
breed
breeds
bremen
bremer
brenda
brendan
brennan
brenner
brent
brest
bret
bretagnen
brett
brewer
brewster
brez
brian
bride
bridge
bridges
brief
brien
bright
brighton
brigitte
brill
bring
brinkhoff
bristol
brita
britain
britannia
britanniaa
britanniaan
britannialle
britannian
britanniassa
britanniasta
britannica
british
britit
britney
britteinsaarille
britteja
britti
brittien
brittienglantia
brittila
bro
broadcast
broadcasting
broadway
broadwaylla
brock
broken
bronte
bronze
brook
brooke
brooklyn
brooklynissa
brooks
bror
bros
brother
brothers
brotherus
brown
browne
brownin
browning
browser
bru
bruce
bruins
bruinsin
brunei
bruno
bruttokansantuote
bruttokansantuotteesta
bruun
bryan
bryant
bryna
bryssel
brysselin
brysselissa
bt
btj
btob
bu
buchanan
buck
bud
budapest
budapestin
budapestissa
budavari
buddha
buddhalainen
buddhalaisuuden
buddhalaisuus
buddhan
buddy
budjetilla
budjetin
budjetti
budo
buenos
buffalo
buffon
buffy
bug
build
building
built
bulbuli
bulg
bulgaria
bulgarialainen
bulgarian
bulgariassa
bull
bullet
bulletin
bullin
bulls
bun
bundesamt
bundesliiga
bundesliigaan
bundesliigan
bundesliigassa
bureau
burger
burgess
burgos
burgundin
burke
burkina
burman
burn
burning
burns
burroughs
burt
burton
burtonin
burundi
bus
busch
bush
bushin
business
bussi
bussilla
bussit
buster
but
butler
butt
butterflies
butterfly
button
buy
buzz
bwv
by
bye
byrne
byron
bysantin
c
ca
cabi
cable
cadillac
caesar
caesarin
cafe
cage
cain
cajander
cal
calder
caldero
caldwell
calendar
calgary
calgaryn
california
call
callaghan
called
calling
calls
calvert
calvin
cam
cambodia
cambridge
cambridgen
came
camera
cameron
camilla
camille
camp
campaign
campbell
campo
campos
campus
can
canada
canadian
canadiens
canadiensin
canal
canavese
cancer
candy
canis
cannes
cannesin
cannon
canon
canterburyn
canth
canthin
canucks
cao
cap
cape
capital
capitals
capitol
captain
car
carbon
card
cardiff
cardinal
care
career
carex
carey
cargo
caribbean
carl
carla
carlin
carlo
carlos
carlson
carlsson
carmen
carnegie
carnival
carol
carolina
carolinan
carolinassa
caroline
carpelan
carpenter
carr
carrie
carrier
carriers
carroll
carry
cars
carson
carte
carter
carterin
cartoon
carvalho
cas
casa
case
cases
casey
cash
casino
cassell
cast
castel
castello
castelnuovo
castiglione
castillo
castle
castre
castro
cat
catalog
catalogue
catch
category
catharina
cathedral
catherine
catholic
cato
cats
cause
cave
cavendish
cb
cbc
cbs
cc
cccp
cd
cdc
cdot
cdots
ce
cecil
cecilia
celebration
celebrity
cell
celtic
census
center
centerin
centerissa
central
centralbyra
centraltryckeri
centre
centro
century
ceo
ceremony
ceres
cerro
certifications
cesare
cf
cfm
cgi
ch
cha
chad
chain
chains
challenge
challengessa
chamber
chamberlain
chambers
chamonix
champ
champagne
champion
champions
championship
championships
chan
chance
chandler
chang
change
changed
changes
changing
chania
channel
chaos
chaplin
chaplinin
chapman
chapter
character
characteristics
characters
charge
charles
charlie
charlotta
charlotte
charlton
chart
charter
charts
chase
chat
chatham
che
check
checklist
cheek
chef
chelsea
chelsean
chemblink
chemical
chemicals
chemistry
chen
cher
cherry
chess
chessgames
chesslab
chester
chevrolet
chi
chicago
chicagon
chicagoon
chicagossa
chicanef
chief
chieti
child
children
chile
chilela
chilen
chilessa
chili
chin
china
chinese
chip
chl
chloe
cho
choi
choice
choose
chopin
chow
chris
christ
christensen
christer
christian
christianity
christiansen
christie
christien
christina
christine
christmas
christoffer
christoph
christophe
christopher
chronicle
chronicles
chronology
chrysler
chu
chuck
chun
chung
church
churches
churchill
chydenius
ci
cia
cicero
ciceron
cid
cie
cincinnati
cindy
cine
cinema
cinematic
cio
circ
circle
circuit
circumstances
circus
cis
cisse
cite
cities
citizen
citroe
city
citya
cityn
citypopulation
cityssa
cityyn
ciudad
civil
civilization
civilsta
cjk
ck
cke
cken
cker
ckin
ckman
ckstro
cl
cla
claes
claim
claims
claire
clara
clare
clarence
clarendon
clark
clarke
clarkin
clash
class
classic
classical
classics
classification
claude
claudia
claudio
claudius
claus
clay
clayton
cle
clean
clear
clement
cleveland
cliff
clifford
climate
clinical
clint
clinton
clintonin
clio
clive
clock
close
closer
cloud
club
clubin
clyde
cm
cmx
cn
cnn
co
coach
coast
cobra
coca
cocker
coco
code
codex
cody
coe
coffee
cognita
cohen
cola
cold
coldplay
cole
coleman
colin
colle
collection
college
collegen
collegessa
collegesta
collider
collin
collins
colo
colombia
color
colorado
coloradon
colour
colt
columbia
columbian
columbus
com
combat
come
comeback
comedy
comes
comet
comic
comicbook
comics
comicsin
comin
coming
comissa
command
commander
commentary
commerce
commercial
commission
committee
commodore
common
commons
commonsissa
commonwealth
commune
communes
communication
communications
communities
community
como
companies
companion
company
companylta
companyn
comparateur
comparative
competition
competitions
complete
complex
component
composer
composers
composition
compounds
comprehensive
compton
computer
computers
computing
comte
comuni
con
conan
concacaf
concept
concert
concise
conde
conducted
conference
confirmed
confirms
conflict
congo
congress
connecticut
connection
connolly
connor
conomiques
conquer
conquest
conrad
consalen
conservation
consortium
conspiracy
constance
constant
constantin
constantine
constitution
construction
consulting
consumer
contact
conte
contemporary
content
contest
context
continental
contra
contract
control
convention
conway
cook
cooke
cool
cooper
cooperin
copa
copenhagen
copper
core
corey
cornelius
cornell
corner
corona
coronavirus
corp
corporate
corporation
corporationin
corps
corpus
corte
cortina
cos
cosmic
cost
costa
costello
cotton
could
council
count
counter
counties
countries
country
county
coupe
course
court
courtney
cover
covid
cowboy
cowboys
cox
coyotes
cp
cr
craig
crane
crash
crawford
crazy
crc
cre
cream
create
creation
creative
creator
credit
credits
creed
creek
crete
crew
crime
criminal
crimson
crisis
cristiano
cristina
cristo
critical
critics
croatia
crosby
cross
crossing
crossover
crow
crown
crowned
cru
cruise
cruz
cruzin
cry
crystal
cs
csi
css
ct
cthulhu
ctor
cu
cuba
cube
cuin
culex
cult
cultural
culture
cultures
cum
cunningham
cup
cupia
cupiin
cupin
cupissa
curie
curling
current
curriculum
curry
curse
curt
curtis
custom
cut
cv
cw
cyber
cycle
cycling
cyclingarchives
cyclingnews
cynthia
cyprus
cyril
cyrus
cz
czech
d
da
dacia
daddy
daegun
dag
dagbefolkning
dagbladet
dagens
dagestanin
dagmar
dahl
dahlstro
dai
daily
daimler
daisy
dakar
dakota
dal
dalai
dale
dali
dallape
dallas
dalton
daly
dam
damage
dame
damen
damon
dan
dana
dance
dancing
danger
dangerous
dani
daniel
daniela
danielin
danielle
daniels
danilo
danin
danish
danmarks
danny
dans
dansk
danske
dante
dar
daredevil
dario
dark
darkness
darling
darren
darth
darwin
darwinin
das
dassault
dat
data
dataa
database
databases
databasessa
datan
date
dates
datiivi
datiivimuoto
daughter
dauphine
dave
david
davidin
davidson
davies
davis
davisin
dawkins
dawn
dawson
day
days
db
dc
dd
dda
ddr
de
dead
deadline
deadly
deal
dean
dear
death
debate
debbie
deborah
debut
debytoi
debyytti
debyyttialbumi
debyyttialbuminsa
debyyttinsa
dec
decade
decca
december
decision
dee
deeann
deejaypromo
deep
def
default
defence
defense
definition
definitive
degli
dei
del
delfoin
delhi
delhin
dell
della
delle
deloksen
delta
deluxe
dem
demand
demi
deminutiivi
demo
democracy
democratic
demografico
demographic
demokraatti
demokraattien
demokraattinen
demokraattipoliitikko
demokraattisen
demokraattisessa
demokraattista
demokratia
demokratiaa
demokratian
demon
demoni
demons
demos
demoscope
den
denis
denise
denmark
dennis
denver
departementin
departementissa
departementti
department
deportivo
depression
der
derby
derek
derholm
derstro
derta
derz
des
descartes
description
desert
desibeli
design
desire
desmond
dessa
desta
destiny
destroyers
destruction
det
deta
detail
details
detective
detroit
detroitin
detroitissa
detta
dettiin
detty
deus
deutsch
deutsche
deutschen
deutscher
deutschland
deux
dev
developer
development
devil
devils
devilsin
devin
dexter
df
dh
dhabi
dhabin
di
dia
diabetes
diablo
diagnoosi
dialogi
dialogin
diamond
diamonds
diana
diane
diary
dias
diaz
dick
dickinson
dictionary
did
didier
didn
die
died
diego
dies
diesel
dieselmoottori
diet
dieter
dietrich
dietyylieetteriin
different
dig
digest
digi
digimon
digitaaliarkisto
digitaalinen
digitaalisen
digitaalisessa
digitaalisesti
digitaaliset
digitaalista
digitaalisten
digital
digitilaajille
digitoday
digitoitu
digitoituna
diktaattori
dikter
dimitri
dimotiki
din
dinamo
ding
dingo
dino
dinosaur
dinosaurs
dinosaurusten
dio
diodoros
diogenes
dion
dionysoksen
diplomaatti
diplomi
dir
dire
direct
direction
director
directors
directory
direktiivi
dirk
dirt
dirty
dis
disaster
disc
disco
discography
discogs
discogsissa
discover
discovery
disease
diseases
diskografia
disney
disneyn
disorder
disorders
display
displaystyle
distance
distribution
district
districts
dit
ditions
div
diversity
divine
divisio
division
divisioona
divisioonaa
divisioonaan
divisioonan
divisioonassa
divisioonasta
dixon
dj
djibouti
djurga
dk
dl
dm
dmitri
dn
dna
dneprin
do
doc
docendo
docs
doctor
document
documentary
documents
dodge
does
doesn
dog
dogg
dogs
dohan
doi
doing
doksen
dokumentin
dokumentissa
dokumentit
dokumentteja
dokumentti
dokumenttielokuva
dokumenttielokuvan
dokumenttien
doll
dollar
dollari
dollaria
dollariin
dollarilla
dollarin
dolly
dom
domain
dome
domenico
domestic
domingo
dominic
dominique
domino
don
donald
done
donetskin
dong
donin
donkey
donna
donne
donner
donnerin
donovan
doo
doom
door
doorilaista
doors
doping
dopingin
dora
doria
doris
dorog
dorothy
dortmund
dos
dosentti
dosenttina
dot
dots
douard
double
doug
douglas
dove
dover
down
downey
download
doyle
dr
dra
draama
draamaa
draamaelokuva
draaman
draamasarja
draamasarjassa
dracula
drae
draft
drag
dragon
dragons
drake
draken
drama
dramatic
dramaturgi
draw
dre
dream
dreams
dresden
dresdenin
dresdenissa
drew
drink
drive
driver
drivers
driving
dro
drop
drug
drugbank
drugs
drum
dry
ds
dt
dtm
du
dual
dub
dubai
dublin
dublinin
dublinissa
duck
ducks
dudenissa
due
duff
duke
dumas
duncan
dunn
duo
duodecim
duon
dupont
during
durra
durward
dus
dust
dustin
dutch
dutchcharts
duty
duuri
dvd
dw
dwight
dx
dy
dying
dyke
dyksi
dylan
dylanin
dyllinen
dyllisia
dyllista
dyn
dynaaminen
dynamic
dynamics
dynamo
dynastia
dynastian
dynasty
dynneta
dynnettiin
dynnetty
dynsi
dynta
dyssa
dyt
dytta
dyttiin
dytto
dz
e
ea
eaa
each
eagle
eagles
eagleson
earl
earliest
early
earth
earthquake
east
eastern
easy
eat
eau
eb
ebba
ebert
ebu
ec
echl
echo
eckero
eclipse
eco
ecological
ecology
economic
economics
economist
economy
ecuador
ecuadorin
ecuadorissa
ecw
ed
eddie
eddy
edella
edelle
edelleen
edelleenkin
edellinen
edelliseen
edellisella
edellisen
edellisena
edellisessa
edellisesta
edelliset
edellisista
edelliskauden
edellista
edellisten
edellisvuoden
edellyteta
edellytta
edellytti
edellytyksena
edellytykset
edellytyksia
edellytys
edelsi
edelta
eden
edenneet
edennyt
edes
edesmenneen
edessa
edesta
edestakaisin
edeta
edetessa
edgar
edge
edinburgh
edinburghin
edison
edista
edisti
edistys
edistyspuolueen
edit
edita
edited
edith
edition
editions
editor
editors
edlund
edmond
edmonton
edmontonin
edmund
edo
eds
edu
eduard
eduardo
education
educational
eduksi
edullinen
edun
eduskunnalle
eduskunnan
eduskunnassa
eduskunta
eduskuntaan
eduskuntaryhma
eduskuntavaaleissa
eduskuntavaalien
eduskuntavaalit
edustaa
edustaen
edustaja
edustajaa
edustajainhuoneen
edustajainhuoneeseen
edustajainhuoneessa
edustajaksi
edustajan
edustajana
edustajat
edustajia
edustajien
edustajista
edustalla
edustalle
edustamaan
edustanut
edustava
edustavan
edustavat
edustettuina
edusti
edustivat
edustus
edustusjoukkue
edustusjoukkueen
edustusjoukkueeseen
edustusjoukkueessa
edut
edvard
edvin
edward
edwardin
edwards
edwin
ee
eeli
eemeli
eemil
een
eerik
eerika
eero
eerola
eesti
eettinen
eetu
eeva
ef
effect
effects
efter
egean
egeanmeren
egg
egmont
ego
egon
egypt
egypti
egyptia
egyptian
egyptiin
egyptila
egyptin
egyptissa
egyptista
eh
ehc
ehdi
ehdittiin
ehditty
ehdoilla
ehdokas
ehdokasta
ehdokkaaksi
ehdokkaan
ehdokkaana
ehdokkaat
ehdokkaiden
ehdokkaista
ehdokkaita
ehdokkuuden
ehdokkuudet
ehdokkuus
ehdokkuutta
ehdolla
ehdolle
ehdolliseen
ehdot
ehdotettiin
ehdotettu
ehdoton
ehdottaa
ehdottanut
ehdotti
ehdottoman
ehdottomasti
ehdotuksen
ehdotuksesta
ehdotuksia
ehdotus
ehdotusta
ehja
ehka
ehrnrooth
ehti
ehtii
ehtineet
ehtinyt
ehtiva
ehto
ehtoja
ehtojen
ehtona
ei
eight
eiha
eija
eika
eiko
eila
eilen
ein
einar
einari
eine
einer
eino
einstein
einsteinin
eipa
eishockey
eiva
ej
ek
eka
ekberg
ekena
ekholm
eki
ekiksi
ekin
ekissa
ekki
ekkia
ekkila
ekkoslovakia
ekkoslovakian
ekkoslovakiassa
eklund
ekman
ekologia
ekologinen
ekonomi
ekonomisti
ekstro
el
ela
elaine
elama
elannon
elantonsa
elastinen
elder
ele
eleanor
elected
election
elections
electric
electronic
electronics
elektra
elektroneja
elektronien
elektroniikan
elektroniikka
elektronin
elektroninen
elektronisen
elektronista
elektronit
element
elementit
elements
elementteja
elementti
elena
eli
elia
elias
eliel
elima
elimisto
elin
elina
elinaikanaan
elinan
elinika
elinkautiseen
elinkeino
elinkeinoela
elinkeinoja
elinkeinojen
elinkeinoministerio
elinkeinot
elinta
elintarvike
elintarviketeollisuutta
elintarvikkeiden
elintarvikkeita
elinvoimainen
elinvoimaiseksi
elinympa
elio
eliot
elis
elisa
elisabet
elisabeth
elisabetin
elise
elite
eliteprospects
elitserien
elitserienin
elitserienissa
eliva
elizabeth
elka
ella
elle
ellei
ellen
eller
elli
ellie
elliot
elliott
ellis
ellonen
elmer
elo
elohopea
elokuu
elokuuhun
elokuun
elokuussa
elokuusta
elokuuta
elokuva
elokuvaa
elokuvaaja
elokuvaan
elokuvajuhlien
elokuvajuhlilla
elokuvaka
elokuvakerhojen
elokuvaksi
elokuvalla
elokuvalle
elokuvan
elokuvana
elokuvansa
elokuvantekija
elokuvaohjaaja
elokuvaohjaajaan
elokuvasa
elokuvasarjan
elokuvassa
elokuvasta
elokuvat
elokuvateattereissa
elokuvateatteri
elokuvatuottaja
elokuvauutiset
elokuvayhtio
elokuvia
elokuvien
elokuviin
elokuville
elokuvissa
elokuvista
elomaa
elon
elonet
elonetissa
eloon
eloonja
eloranta
elossa
elsa
else
elsevier
elstat
elta
elton
elu
elvi
elvis
elvytta
ely
em
ema
emanuel
embassy
emergency
emeritus
emeritusprofessori
emerson
emi
emil
emile
emilia
emilio
emily
emma
emmanuel
emme
emmi
emmy
emo
emoyhtio
emperor
empire
en
ena
enckell
encore
encyclopaedia
encyclopedia
encyclopædia
end
endangered
ende
ending
endless
endo
ends
endurance
enemma
enemmisto
enempa
enemy
energia
energiaa
energian
energiansa
energiasta
energy
eng
engel
engelin
engels
engine
engineering
engl
england
englanniksi
englannin
englanninkielinen
englanninkielisen
englanninkielisessa
englanninkielisesta
englanninkielisia
englanninkielista
englannissa
englannista
englanti
englantia
englantiin
englantilainen
englantilais
englantilaisen
englantilaiset
englantilaisia
englantilaista
englantilaisten
english
englund
enian
enije
enimma
enimmilla
enin
eninta
eniten
enjoen
enka
enkeli
enkelin
enkelit
enkenraali
enko
enkon
enligt
enliikkeen
enna
ennakkoon
ennallaan
ennalleen
ennalta
ennaltaehka
enne
ennemmin
ennen
ennenkin
ennenkuin
ennenna
ennesta
ennustaa
ennuste
ennusti
eno
enon
enontekio
enough
enpa
enpuolue
enpuolueen
enqvist
enrico
enrique
ensemble
ensi
ensiesiintyminen
ensiesiintymisensa
ensiesityksensa
ensiesitys
ensiksi
ensilento
ensilentonsa
ensima
ensimma
ensin
ensinka
ensinna
ensio
ensisijainen
ensisijaisesti
enso
enson
ensyklopedia
ent
enta
entalo
entalon
enter
enterprise
entertainment
entertainmentin
entinen
entiseen
entisella
entiselle
entisen
entisessa
entisesta
entiset
entisia
entisista
entiso
entista
entisten
entre
entry
entsiklopedija
entsiklopedits
entsyymi
entsyymin
entuudestaan
env
environment
environmental
enyhdistyksen
enyhdistys
enzo
eos
ep
epa
epeiroksen
epic
epidemia
episode
episodi
eppu
epressi
epsilon
er
era
erasmus
ere
erha
eri
eria
eric
erich
erickson
ericsson
erik
erika
erikoinen
erikoisen
erikoisla
erikoista
erikoistui
erikoistuneet
erikoistunut
erikoisuus
erikseen
eriksen
eriksson
erilainen
erilaisen
erilaiset
erilaisia
erilaisiin
erilaisilla
erilaisille
erilaisissa
erilaisista
erilaista
erilaisten
erilla
erilleen
erillinen
erilliseen
erilliseksi
erillisella
erillisen
erillisena
erilliset
erillisia
erillisina
erillista
erimielisyydet
erimielisyyksia
erimielisyyksien
erin
erina
erinomainen
erinomaisen
erinomaisesti
erista
erit
eritoten
eritrea
eritrean
eritta
erityinen
erityisen
erityisesti
erityisia
erityista
eriva
erja
erkanee
erkani
erkka
erkki
erkkila
erkko
erkon
erna
ernest
ernesto
erno
ernst
ero
eroa
eroaa
eroamaan
eroavansa
eroavat
eroja
erola
erolla
eron
erona
eronen
eronneet
eronnut
eroon
eros
erosi
erosivat
erossa
erot
erota
erotetaan
erotettiin
erotettu
erottaa
erottamaan
erottaminen
erottavat
erotti
erottua
erottuaan
erottuu
erottuvat
erotuksena
erotus
error
ers
erste
erwin
es
esa
esan
esbo
escape
esctoday
esi
esihistoria
esihistoriallinen
esiin
esiinny
esiintya
esiintyen
esiintyessa
esiintyi
esiintyiva
esiintyja
esiintyjia
esiintyma
esiintyminen
esiintymisalue
esiintymisen
esiintymisensa
esiintymisesta
esiintymiset
esiintymisia
esiintymista
esiintyneet
esiintynyt
esiintyva
esiintyvia
esiintyvien
esiintyy
esikoisalbumi
esikoisalbuminsa
esikoisromaani
esikoisteos
esikunnan
esikunnassa
esikunta
esikuntaan
esikuntapa
esikuva
esikuvana
esilla
esille
esim
esimerkiksi
esimerkin
esimerkkeina
esimerkkeja
esimerkki
esimerkkia
esimerkkina
esimiehena
esimies
esine
esineen
esineet
esineiden
esineista
esineisto
esineita
esinelo
esinetta
esipuhe
esipuheen
esite
esitella
esitelma
esiteltiin
esitelty
esiteta
esitetta
esitettiin
esitetty
esitettya
esitetyn
esitetyssa
esitetyt
esitta
esittelee
esittelema
esitteleva
esitteli
esittelija
esittely
esittelyssa
esitti
esittiva
esitykseen
esityksen
esityksessa
esityksesta
esitykset
esityksia
esityksissa
esitys
esitysta
esitysten
esitystuotanto
eskaja
eskelinen
eski
esko
eskola
eslav
esp
espan
espanja
espanjaa
espanjaan
espanjaksi
espanjalainen
espanjalaisen
espanjalaiset
espanjalaista
espanjalaisten
espanjalle
espanjan
espanjassa
espanjasta
espe
espn
espoo
espoon
espooseen
espoossa
esports
ess
essa
essays
essee
esseisti
esseita
essen
essential
essex
essi
est
esta
estadi
estate
este
esteban
esteet
esteita
estejuoksussa
ester
estetiikan
estetta
esther
esti
estimates
estiva
esto
estonia
estonian
et
eta
etanoliin
etapilla
etapin
etappien
etc
eteen
eteenpa
eteensa
etela
etenee
etenema
eteneminen
etenemisen
etenemista
eteneva
eteni
eteniva
etenkin
eternal
eternity
eteva
ethan
ethics
ethiopia
ethnic
ethnobotanical
ethnologue
etiikan
etiikka
etiopia
etiopian
etiopiassa
etko
etninen
etnisen
etnisesti
etniset
etnisia
etnisten
ets
etsi
etsia
etsien
etsiessa
etsii
etsija
etsima
etsinna
etsinta
etsita
etsittiin
etsiva
ett
etta
ette
ettei
etteiva
etteko
etten
etu
etua
etuja
etujen
etuka
etuliite
etuna
etunimet
etunimi
etunimikirja
etupa
etusivu
etymologinen
etymologisessa
eu
euboian
euge
eugen
eugene
eugenen
eur
eura
euraasian
eurajoen
euran
euripides
euro
euroa
eurobasket
eurocup
eurogamer
eurohockey
euroliiga
euroliigan
eurolla
euron
euroon
euroopan
euroopassa
euroopasta
eurooppa
eurooppaa
eurooppaan
eurooppalainen
eurooppalaisen
eurooppalaiset
eurooppalaisia
eurooppalaista
eurooppalaisten
europa
europarlamentaarikko
europe
european
euroviisuissa
euroviisujen
euroviisut
eurovision
eurovoix
ev
eva
evakuoitiin
evaluation
evan
evankelinen
evankelis
evankelisluterilainen
evankelista
evankeliumi
evankeliumin
evans
evansin
eve
eveliina
evelyn
even
evening
event
events
ever
everett
eversti
everstiksi
everstiluutnantiksi
everstiluutnantti
evert
every
everybody
everysport
everything
evic
evidence
evija
evikit
evikkien
evil
evira
evl
evo
evolution
evolutionary
evoluutio
evoluution
evon
evs
evts
ew
ewrc
ex
excel
exchange
exclusive
exd
executive
exhibition
exit
expansion
expedition
experience
experiment
experimental
expert
exploration
explorer
expo
export
express
expressen
extended
extension
extra
extraliga
extraligan
extreme
ey
eye
eyed
eyes
ez
f
fa
faarao
faber
fabian
fabio
face
facebook
facebookin
facebookissa
faces
facility
fact
facta
factbook
factfinder
facto
factor
factory
facts
factsheet
fagerholm
failure
fair
fairey
faith
fakta
falco
falcon
falk
fall
fallen
falling
fallout
falls
false
falun
falunin
fame
fameen
famelle
families
familjebok
family
famous
fan
fanien
fanit
fanny
fans
fantasia
fantastic
fantasy
fao
faq
far
farewell
farm
farmakologia
farmer
farmijoukkue
farmijoukkueessa
farrell
fartyg
fashion
faso
fason
fast
fat
fatal
fate
fates
father
fauna
faust
favorite
fazer
fazerin
fb
fbi
fc
fci
fe
fear
feat
feature
features
featuring
feb
february
fed
federaation
federal
federalnaja
federation
federatsii
federer
federico
feel
feeling
feet
feige
felipe
felix
fellow
female
feminiini
feminiinimuoto
feminiinin
feminiininen
feministi
femme
fen
fender
fennia
fennica
fer
ferdinand
ferenc
ferguson
ferna
fernandes
fernando
ferrari
ferrarin
ferreira
ferry
fest
festivaaleilla
festivaali
festivaalilla
festivaalin
festival
fever
ff
fi
fia
fiat
fiba
fiction
fide
fidel
fidz
field
fields
fifa
fifan
fifth
fight
fighter
fighters
fighting
figure
figures
fiktiivinen
fil
fila
file
files
filharmonikkojen
filip
filippiineilla
filippiinien
filippiinila
filippiinit
filippo
filippos
film
filmfare
filmi
filmihullu
filmin
filming
films
filologian
filosofi
filosofia
filosofiaa
filosofiaan
filosofian
filosofiassa
filosofiasta
filosofien
filosofinen
filosofisen
filosofisia
filosofit
fimea
fin
fina
finaaleihin
finaaleissa
finaali
finaaliin
finaalin
finaaliottelussa
finaalissa
final
finale
finally
finals
finance
financial
finavia
finch
find
finder
finds
fine
fineli
finland
finlandia
finlandin
finlands
finlaysonin
finlex
finn
finna
finnair
finnairin
finne
finnish
finnkino
finnlevy
finnmusic
finnpanel
finsk
finska
finto
fiona
fire
firenze
firenzen
firenzessa
first
fis
fischer
fish
fishbase
fisher
fishes
fist
fit
fitness
fitzgerald
five
fja
fjodor
fk
fl
fla
flag
flags
flame
flames
flamesin
flanderin
flash
flat
flavius
fle
fleet
fleming
flemingin
flesh
fletcher
flight
flint
flo
flood
floor
flora
floran
florence
flores
florian
florida
floridaan
floridan
floridassa
flow
flower
flowers
floyd
fly
flyers
flyersin
flying
flynn
fm
fn
fo
focus
fokker
fokus
folk
folklore
folkma
follow
following
fonetiikka
fono
fontaine
fontana
foo
food
foods
fool
foorumi
foot
football
for
forbes
force
forces
ford
fordin
foreign
forest
forever
forget
forgotten
form
format
formation
former
formula
forrest
forsberg
forsius
forsman
forss
forssa
forssan
forssell
forsstro
fort
fortum
fortuna
fortune
forum
forward
fossiileja
fossiilit
fossil
foster
foucault
found
foundation
foundationin
foundations
founder
four
fourth
fowler
fox
foxin
fp
fps
fr
fra
frac
frame
franc
francaise
france
francen
frances
francesca
francesco
francis
francisco
franciscon
franciscossa
franck
franco
francon
frank
frankenstein
frankfurt
frankfurtin
frankie
frankin
frankkien
franklin
frans
franz
franze
fraser
fre
freak
fred
freddie
freddy
frederic
frederick
frederik
fredrik
fredrika
free
freedom
freelance
freeman
freestyle
fregatti
frehley
frei
frekventatiivinen
french
frenckell
fresh
freud
freudin
frey
frida
friday
friedman
friedrich
friend
friends
friman
fritz
fro
froese
from
front
frontier
frost
frosterus
frozen
fru
fruit
fry
fs
fsb
ft
ftet
fu
fuchs
fuck
fuel
fuji
fulbeja
full
fuller
fun
function
fund
funeral
fungorum
funk
funktio
funktioiden
funktion
funktiot
funny
further
furuhjelm
fury
fusion
futsal
future
futuuri
futuurin
fver
fw
fx
fysiikan
fysiikanpalkinnon
fysiikassa
fysiikka
fysiikkaa
fysiikkaan
fysiologia
fysiologian
fyysikko
fyysinen
fyysisen
fyysisesti
fyysisia
fyysista
g
ga
gaala
gaalassa
gabon
gabriel
gabriele
gabrielle
gaga
gaius
gal
gala
galaksi
galaksin
galaxy
gale
galilei
galileo
gallagher
gallen
galleria
gallery
gallia
gallian
gama
gambia
gambiitti
game
gamefaqs
gamer
gamerankings
games
gamesin
gamespot
gaming
gamla
gamma
gan
gandhi
gang
gao
gap
gar
garage
garci
garcia
garde
garden
gardens
gardiner
gardner
garfield
garland
garmisch
garrett
garry
gary
gas
gaston
gate
gates
gateway
gaudeamus
gaulle
gavin
gay
gazan
gazette
gazetteer
gb
gbif
gbrathletics
gc
gdan
ge
gear
geeni
geenien
geenin
geenit
geforce
gel
gematsu
gemeinden
gemini
gen
gender
gene
genealogy
geneettinen
geneettisesti
general
generalnyi
generation
genes
genesis
genetic
genetics
genetiivi
genetiivimuoto
geneve
geneven
genevessa
geni
genius
genom
genomes
genre
gent
genus
geo
geoff
geoffrey
geografia
geographic
geography
geologi
geologia
geologian
geological
geologinen
geology
geometria
geometrian
georg
george
georgen
georges
georgi
georgia
georgialainen
georgian
georgiassa
ger
gerald
gerard
gerd
gerda
gerhard
germaaninen
germain
german
germania
germany
gerry
gerundi
geschichte
gesellschaft
get
gets
getting
gg
ghana
ghanan
ghetto
ghost
ghosts
ghz
gi
gia
giacomo
gianni
giant
giants
gibraltar
gibraltarille
gibraltarin
gibson
gideon
gif
gift
gigatavua
gil
gilbert
gilberto
giles
gill
gillan
gilles
gimme
gin
gina
ginger
gion
giorgio
gios
giovanni
girl
girls
giro
giuliano
giulio
giuseppe
give
given
gives
gks
gl
gla
glam
glasgow
glass
gle
glee
glen
glenn
gli
glo
global
globalsecurity
globe
globen
gloria
glory
glottolog
glover
glu
gm
gmander
gmbh
gnome
gnu
go
goa
goal
goals
god
goda
gods
godzilla
goes
goethe
gogh
going
gold
goldberg
golden
goldman
goldstein
goldwyn
golf
golfaaja
gomes
gomez
gon
gone
gong
gonna
gonza
good
goodbye
goodman
goodmanin
google
googlen
goran
gorbats
gordon
gore
gorilla
goroda
gorodam
gorodskogo
gospel
gosudarstvennoi
got
gott
gottfried
gottlieb
gou
gould
gov
govaerts
government
governor
gp
gps
gr
gra
graafikko
graafinen
graafisen
grace
gradu
graf
graface
grafiikan
grafiikka
grafiikkaa
graham
grahn
grammaa
grammy
gran
granada
grand
grande
granfelt
granger
granlund
grano
grant
grantin
graphics
grass
grave
graves
gravity
gray
grayson
graz
gre
great
greater
greatest
greece
greek
green
greene
greenin
greenpeace
greenwich
greenwood
greg
gregg
gregoriaanisen
gregorius
gregory
gren
greta
gretzky
grey
greyn
grid
griffin
griffith
grigori
grimberg
gripen
gripenberg
gro
groove
gross
grotenfelt
ground
group
groupe
groupin
groups
grove
grow
growing
growth
gru
gruyter
gs
gsm
gsmarena
gt
gtk
gu
guard
guardian
guardians
guatemala
guatemalan
gue
guerra
guest
guez
guggenheim
guide
guides
guido
guild
guillaume
guillermo
guinea
guinean
guineassa
guinness
guitar
gulf
gummeruksen
gummerus
gun
gundam
gunn
gunnar
guns
guru
gus
gustaf
gustafsson
gustav
gustava
gustave
gustavo
gut
gutenberg
gutie
guy
gw
gyo
h
ha
haag
haaga
haagan
haagin
haakon
haamu
haanpa
haapa
haapaja
haapakoski
haapala
haapama
haapanen
haara
haaraan
haaran
haarautuu
haartman
haas
haastaa
haastattelu
haastatteluja
haastattelun
haastattelussa
haaste
haasteen
haasteet
haasteita
haastoi
haataja
haavan
haavikko
haavio
haavisto
haavoittui
haavoittunut
habitat
habsburgien
hackman
had
hadith
hae
haetaan
haettiin
haettu
hagen
hagman
hahl
hahmo
hahmoa
hahmoihin
hahmoista
hahmoja
hahmojen
hahmon
hahmona
hahmonsa
hahmoon
hahmosta
hahmot
hahn
hai
haikara
hair
haitallisia
haitallista
haitari
haiti
haitin
haittaa
haittavaikutuksia
haittoja
haja
hajallaan
hajoaa
hajoaminen
hajoamisen
hajoamista
hajonnut
hajosi
hajota
hajotettiin
hajottaa
hajotti
hajottua
haju
haka
hakala
hakan
hakanen
hakea
hakee
hakemaan
hakemisto
hakenut
hakeutui
haki
hakkapeliitta
hakkarainen
hakola
haku
hakulinen
hakusana
hakuteoksessa
hakuteos
hakutulos
hal
hale
halen
half
halikon
halkaisija
halkaisijaltaan
halki
hall
halla
halle
halli
hallikilpailuissa
hallin
hallinnan
hallinnassa
hallinnasta
hallinneen
hallinneet
hallinnoi
hallinnollinen
hallinnollisen
hallinnollisesti
hallinnolliset
hallinnon
hallinnossa
hallinnosta
hallinnut
hallinta
hallintaa
hallintaan
hallintaansa
hallintaja
hallinto
hallintoa
hallintoalue
hallintoalueella
hallintokeskus
hallintoneuvoston
hallintoon
hallintopita
hallissa
hallita
hallitsee
hallitsema
hallitsemaan
hallitseva
hallitsevan
hallitsevat
hallitsi
hallitsija
hallitsijaksi
hallitsijan
hallitsijana
hallitsijasuvun
hallitsijat
hallitsijoiden
hallitsivat
hallitukseen
hallitukselle
hallitukselta
hallituksen
hallituksensa
hallituksessa
hallituksesta
hallitukset
hallituksissa
hallitus
hallitusta
hallitusten
halloween
hallussa
hallussaan
halme
halo
halonen
haloo
halosen
halpa
halt
haltija
halttunen
haltuun
haltuunsa
halu
halua
haluaa
haluaisi
haluamansa
haluan
haluat
haluavansa
haluavat
halukas
halunneet
halunnut
halusi
halusivat
haluta
halutaan
halutessaan
haluttiin
haluttu
halventava
ham
hamburg
hamburger
hamilton
hamiltonin
hamina
haminan
haminassa
hamlet
hammas
hammasla
hammer
hammond
hampaat
hampaiden
hampaita
hampshire
hampton
hampuri
hampurin
hampurissa
han
hana
hancock
hand
handball
handbook
handle
hands
hangon
hangossa
hank
hankala
hankalaa
hankama
hankasalmi
hanke
hanketta
hanki
hankinta
hankittiin
hankittu
hankkeen
hankkeeseen
hankkeessa
hankkeesta
hankkeita
hankki
hankkia
hankkii
hankkijan
hankkimaan
hankkiminen
hankkinut
hankkivat
hanko
hanna
hannah
hanne
hannele
hannes
hannibal
hannikainen
hannover
hannoverin
hannu
hannula
hannus
hanoi
hans
hansen
hanska
hanski
hansson
hapan
hapen
happea
happened
happi
happiness
happo
happonen
happy
har
hara
harakka
harald
hard
hardcore
harding
hardy
hare
harhaan
harja
harjavallan
harjoitella
harjoitellaan
harjoitetaan
harjoitettiin
harjoitettu
harjoittaa
harjoittavat
harjoittelemaan
harjoitteli
harjoittelu
harjoittelua
harjoittelun
harjoitti
harjoittivat
harjoitukset
harjoituksia
harjoituksiin
harjoituksissa
harjoitus
harjoitusleirin
harjoitusten
harju
harjula
harjun
harjunpa
harkitsi
harkovan
harley
harlow
harmaa
harmaan
harmaapa
harmaat
harmaata
harmaja
harmonia
harmonikka
harmony
harold
harper
harrastaa
harrastaja
harrastajat
harrastajien
harrastanut
harrasti
harrastuksiin
harrastus
harri
harriet
harris
harrisin
harrison
harrisonin
harry
harryn
hart
hartford
hartikainen
hartin
hartman
hartmann
hartola
hartwall
harva
harvaan
harvakseltaan
harvard
harvardin
harvat
harvemmin
harvest
harvey
harvinainen
harvinaisen
harvinaisena
harvinaisia
harvinaista
harvoin
harvoista
harvoja
has
hasan
hash
hassan
hat
hatanpa
hate
hattu
hattula
hattulan
hattutempun
haudalla
haudan
haudasta
haudat
haudattiin
haudattu
hauhon
hauki
haukilampi
haukiputaan
haukka
haulla
hausja
hauska
hauskaa
haut
hauta
hautaa
hautaan
hautajaiset
hautajaisiin
hautajaisissa
hautala
hautama
hautausmaa
hautausmaalla
hautausmaalle
hautausmaan
haute
hautoja
hautojen
hautoo
havaiji
havaijilla
havaijin
havainnot
havainto
havaintoja
havaintojen
havaita
havaitaan
havaitsee
havaitsi
havaitsivat
havaittavissa
havaittiin
havaittu
have
haven
havilland
havu
havumetsa
hawaii
hawk
hawker
hawking
hawkins
hawks
hay
hayes
hayley
haynes
hazard
hbo
hc
hd
hda
hde
hdekoodin
hdeksi
hdella
hden
hdessa
hdesta
hdet
hdeta
hdetta
hdettiin
hdettya
hdista
hdisto
hditta
hdo
hdyksen
hdyksessa
hdyksia
hdys
hdysma
hdysta
hdytta
he
head
headed
heads
health
hear
heard
heart
hearts
heat
heath
heather
heaven
heavy
heavyweight
hector
hedberg
hedelma
hedelmia
hedelmien
hedelmo
hedgehog
hedman
hedvig
heep
heettila
hehtaaria
hehtaarin
hei
heida
heidi
heights
heihin
heijastaa
heikel
heikensi
heikenta
heikentynyt
heikin
heikinheimo
heikkenee
heikkeni
heikki
heikkila
heikkinen
heikko
heikkoa
heikkoja
heikkous
heikommin
heikompi
heikon
heikosti
heikot
heilla
heille
heilta
heimo
heimoa
heimoja
heimojen
heimon
heimoon
heimossa
heimot
heina
heine
heinen
heini
heininen
heino
heinola
heinolan
heinolassa
heinonen
heinrich
heinz
heiseen
heisen
heisessa
heisesti
heiset
heisia
heiskanen
heista
heisyydessa
heisyydesta
heisyyteen
heita
heiteta
heitettiin
heitetty
heitta
heitti
hekka
hel
hela
helander
held
helen
helena
helenan
helene
helenius
helga
helge
heli
helikopteri
helikopterin
helin
helina
helio
helismaa
helka
hell
hella
helle
hellenic
hellenistisella
hellenistisen
hellman
hello
hellstro
helluntaihera
helluntaiseurakunta
helmer
helmet
helmi
helmia
helmikuu
helmikuuhun
helmikuun
helmikuussa
helmikuusta
helmikuuta
helminen
helmut
help
helpommin
helpompaa
helpompi
helposti
helpottaa
helpottamaan
helpottamiseksi
helpotti
helppo
helppoa
helsingfors
helsingin
helsingissa
helsingista
helsinki
helsinkia
helsinkiin
helsinkila
helta
heltat
helvetin
helvetti
helvettiin
helvi
hem
hemingway
hemma
hemmin
hemminkin
hemmissa
hemmista
hemmisto
hemmo
hempa
hempi
hempia
hempien
hempiin
hempina
hen
henderson
hendon
hendrik
hendrix
henee
henema
heneminen
heneva
hengelle
hengellinen
hengellisen
hengellisia
hengellista
hengen
hengessa
henget
hengilta
hengissa
hengitta
heni
heniva
henkea
henkeen
henkensa
henki
henkien
henkiin
henkilo
henkinen
henkisen
henkisesti
henkista
henna
henneta
hennettiin
henning
henri
henrik
henrikin
henriksson
henry
henryn
hensi
hensley
henta
hentila
hentynyt
hepburn
hepr
heprean
her
hera
herakleen
herakles
herald
heraldiikkaan
herbert
hercules
here
herge
heritage
herka
herkka
herlin
herman
hermann
hermes
hermione
hermoston
herna
hero
herodes
herodotos
heroes
herra
herraa
herran
herrasta
herrasva
herrat
herrera
hertha
hertsegovina
hertsegovinan
hertta
herttoniemen
herttu
herttua
herttuakunnan
herttuakunta
herttuan
herttuatar
hertzen
hes
heska
hessen
hessenin
hessu
hestya
hestyessa
hestyi
hestymistapa
hestyva
hestyy
het
heta
heteta
hetetta
hetettiin
hetetty
heti
hetin
hetkea
hetkeksi
hetkella
hetkellisesti
hetken
hetkessa
hetket
hetki
hetkia
hetta
hetti
hettila
hettiva
hettyvilla
hetyksen
hetyksessa
hetykset
hetyksia
hetyksissa
hetys
hetyssaarnaaja
hetysseura
hetysseuran
hetysta
hetysten
hetysto
hetystyo
hevonen
hevosella
hevosen
hevoset
hevosia
hevosta
hevosten
hevosvoimaa
hevosvoiman
hey
hf
hi
hialueen
hialueeseen
hidas
hidasta
hidastaa
hidden
hide
hiekan
hiekka
hiekkaa
hiekkanen
hieman
hieno
hienoa
hienoja
hienon
hienosti
hierarchy
hieronymus
hieta
hietala
hietanen
hietaniemen
hifk
higashi
higgins
high
highbeam
higher
highlights
highway
hiihdon
hiihdossa
hiihta
hiihti
hiihto
hiihtoliitto
hiihtotavan
hiilen
hiili
hiilidioksidi
hiilidioksidia
hiilidioksidin
hiilta
hiippakunnan
hiippakunnassa
hiippakunta
hiippakuntaan
hiipui
hiirella
hiiren
hiiri
hilary
hilda
hilde
hilja
hiljaa
hiljainen
hiljaiset
hiljaista
hiljaisuuden
hiljaisuudessa
hiljaisuus
hiljalleen
hiljattain
hilkka
hill
hillary
hillin
hillita
hills
hilma
hilton
hiltunen
him
himalajan
himma
himmea
himpa
hin
hina
hinattiin
hindu
hindustan
hine
hinna
hinnalla
hinnan
hinnasta
hinnat
hinta
hintaa
hintaan
hintikka
hintoja
hintojen
hio
hip
hippos
hiragana
hirn
hiroshi
hiroshiman
hirssi
hirtta
hirvea
hirven
hirvensalmi
hirvi
hirvija
hirvio
hirvitta
hirvonen
his
hisham
hiso
hispania
hist
histo
histoire
historia
historiaa
historiaan
historiallinen
historiallis
historialliseen
historiallisen
historiallisessa
historiallisesta
historiallisesti
historialliset
historiallisia
historiallisissa
historiallisista
historiallista
historiallisten
historian
historiansa
historiantutkija
historiassa
historiasta
historiateos
historic
historica
historical
historiikki
historioitsija
historioitsijat
historisches
history
hit
hitaammin
hitaasti
hitchcock
hitchcockin
hitellen
hiten
hitiksi
hitin
hitit
hitler
hitlerin
hitparade
hits
hitta
hitteja
hitti
hiukan
hiukkanen
hiukkasen
hiukkaset
hiukkasten
hiukset
hiusten
hiv
hiympa
hja
hjalmar
hjelt
hjk
hjo
hk
hka
hkina
hkino
hkm
hkms
hko
hkyla
hl
hlberg
hle
hlen
hler
hlinkan
hls
hm
hma
hman
hmas
hmcs
hmdb
hms
hn
hneensa
hneet
hnen
hnyt
ho
hockey
hockeyallsvenskan
hockeydb
hockeyn
hockeysverige
hodgson
hoffman
hoffmann
hofmann
hofsten
hogan
hoi
hoidetaan
hoidettavaksi
hoidettiin
hoidon
hoidossa
hoidosta
hoikka
hoitaa
hoitaja
hoitajana
hoitamaan
hoitamiseen
hoitanut
hoitavat
hoiti
hoito
hoitoa
hoitoon
hokej
hokkaido
hokkanen
hokki
hold
holden
holding
holdings
hole
holger
holic
holiday
holl
holland
hollanniksi
hollannin
hollannissa
hollanti
hollantilainen
hollantilaisen
hollantilaiset
hollantilaisten
hollo
hollola
hollolan
hollow
holly
hollywood
hollywoodiin
hollywoodin
hollywoodissa
holm
holma
holmberg
holmes
holmesin
holmstro
holocaust
holopainen
holotyypin
holstein
holt
holy
home
homepage
homer
homeroksen
homeros
homma
homme
homo
homoseksuaali
hon
honda
hondan
honduras
hondurasin
honey
hong
hongan
hongkong
hongkongin
hongkongissa
honka
honkala
honkanen
honkavaara
honor
honore
honour
honshu
hood
hook
hop
hope
hopea
hopeaa
hopeaan
hopealla
hopealle
hopeamitalin
hopean
hopeinen
hopkins
hoppu
horace
horizon
horn
hornet
horror
horse
horst
horton
hos
hospital
host
hot
hotel
hotelleja
hotelli
hotellin
hotellissa
houghton
houkutella
houkuttelee
houkutteli
hour
hours
house
housen
housing
houston
houstonin
housut
hovi
hoviin
hovin
hovioikeuden
hovioikeudenneuvos
hovioikeudessa
hovioikeus
hovissa
how
howard
howardin
howe
hp
hpk
hps
hr
hra
hren
hrer
hrt
hrus
hs
hsl
ht
hta
htea
htee
hteeksi
hteen
hteena
hteenma
hteessa
hteesta
hteet
hteiden
hteilla
hteisiin
hteissa
hteista
hteita
htema
htena
hteneen
hteneet
htenyt
hteva
hti
htia
htien
htiessa
htiin
htinen
htitaivas
htitiede
htitieteellinen
htitieteen
htitieteeseen
htitieteilija
htiva
htivaeltaja
htm
html
hto
http
https
hty
htya
htyi
htyna
htyva
htyy
hu
hua
hubbard
hubble
hubert
hudson
huff
huffington
hufvudstadsbladet
hugh
hughes
hugo
huhta
huhtala
huhtama
huhtanen
huhti
huhtikuu
huhtikuuhun
huhtikuun
huhtikuussa
huhtikuusta
huhtikuuta
huhu
huhuja
huhut
hui
huijaus
huilu
huima
huipentui
huippu
huippua
huippunopeus
huipulla
huipulle
huipun
huiput
huittinen
huittisten
hukkaan
hukkui
hulde
hulk
hull
hullu
hullun
humalassa
human
humanistinen
humanististen
humans
hume
humoristinen
humphrey
humppa
hun
hung
hungarian
hungary
hunger
hunt
hunter
hunting
huolehti
huolehtia
huolehtii
huolehtimaan
huolehtivat
huolellisesti
huolen
huoli
huolimatta
huolissaan
huollettavaksi
huollon
huolta
huolto
huoltopa
huom
huomaa
huomaamatta
huomaavat
huomannut
huomasi
huomasin
huomasivat
huomata
huomattava
huomattavaa
huomattavan
huomattavasti
huomattavia
huomattavimpia
huomattavin
huomattiin
huomattu
huomattuaan
huomauttaa
huomautti
huomenna
huomenta
huomio
huomioida
huomioita
huomioitu
huomion
huomionsa
huomioon
huomiota
huomiotta
huone
huoneen
huoneenla
huoneeseen
huoneessa
huoneesta
huoneet
huoneita
huonekaluja
huonetta
huono
huonoa
huonoin
huonoja
huonojen
huonolla
huonommin
huonompi
huonon
huonoon
huonossa
huonosta
huonosti
huonot
huotari
huovinen
hur
hurja
hurley
hurme
hurmerinta
hurricane
hurricanes
hurriganes
hurrikaani
hurt
hus
hussein
husseinin
huttunen
huudahti
huulet
huuliharppu
huumeiden
huumeita
huumori
huumoria
huumorin
huusi
huusko
huutaa
huuto
huvila
huvilan
huvina
huvipuisto
hv
hy
hybrid
hyde
hydra
hyginus
hyke
hyketta
hykkeella
hykkeen
hykkeeseen
hyla
hylja
hylka
hylky
hylyn
hyminuuttia
hymni
hymy
hymyileva
hyn
hynninen
hyo
hypa
hypo
hyppa
hyppy
hyppyrima
hysta
hyto
hytti
hyttinen
hyundai
hyva
hyve
hyvia
hyvien
hyvin
hyvinka
hyvinkin
hyvinvoinnin
hyvinvointi
hyvinvointia
hyvissa
hyvista
hyvo
hywa
hyyppa
hyytia
hz
i
ia
iaaf
iaea
iai
ian
iata
iau
ib
ibc
iberian
ibm
ibn
ibrahim
ibrahimovic
ibu
ic
icao
ice
iceland
ich
ichi
icon
id
ida
idaho
ide
idea
ideaa
idean
ideana
ideas
ideat
iden
idensa
identification
identiteetin
identiteetti
identiteettia
identity
identtinen
ideograph
ideoiden
ideoita
ideologia
idille
idilleen
idilta
idin
idinkielen
idinkielena
idinkieli
idista
idit
idman
idmanin
idol
idols
ie
iec
ieee
ien
if
ifk
ifpi
ig
iglesias
ign
ignatius
igor
ih
iha
ihaili
ihalainen
ihan
ihana
ihanaa
ihastui
ihastunut
ihastuu
ihin
ihinsa
ihitta
ihitti
ihl
ihme
ihmeellinen
ihmeen
ihmeita
ihminen
ihmis
ihmiseen
ihmiseksi
ihmisella
ihmiselle
ihmisen
ihmisena
ihmisessa
ihmisesta
ihmiset
ihmisia
ihmisiin
ihmisilla
ihmisille
ihmisista
ihmiskunnan
ihmiskunta
ihmisoikeudet
ihmisoikeuksien
ihmisoikeusja
ihmista
ihmisten
ihmisyytta
iho
ihoa
ihon
ii
iida
iihf
iii
iik
iin
iina
iiris
iiro
iisakki
iisalmen
iisalmi
iitin
iitti
iivana
iivari
iivo
ija
ik
ika
ikaalinen
ikaalisten
ike
ikea
iki
ikin
ikina
ikka
ikko
ikkuna
ikkunan
ikkunasta
ikkunat
ikkunoiden
ikkunoita
ikl
iko
ikonen
ikoni
iksi
ikuinen
ikuisen
ikuisesti
il
ila
ilari
ile
ilee
ilema
ileva
ili
ilias
ilija
ilijo
ilio
iliva
ilja
iljus
ilkea
ilkka
illa
illalla
illan
illat
ille
illen
illinois
illinoisin
illusion
illustrated
illyt
ilm
ilma
ilmaa
ilmaan
ilmaantui
ilmahyo
ilmailu
ilmailun
ilmailuun
ilmainen
ilmaisee
ilmaiseksi
ilmaiseva
ilmaisi
ilmaista
ilmaistaan
ilmaisu
ilmaisua
ilmaisun
ilmaja
ilmajoen
ilmajoki
ilmakeha
ilman
ilmapiiri
ilmari
ilmarinen
ilmassa
ilmasta
ilmasto
ilmaston
ilmastonmuutoksen
ilmastonmuutos
ilmastoon
ilmatieteen
ilmatorjunta
ilmaus
ilmavalokuvassa
ilmavoimat
ilmavoimien
ilmavoimille
ilmavoimissa
ilme
ilmeisesti
ilmenee
ilmeneva
ilmeni
ilmenta
ilmentyma
ilmestya
ilmestyessa
ilmestyi
ilmestyiva
ilmestymisen
ilmestyneen
ilmestyneessa
ilmestyneet
ilmestynyt
ilmestyttya
ilmestyva
ilmestyy
ilmeta
ilmi
ilmio
ilmo
ilmoitetaan
ilmoitettava
ilmoitettiin
ilmoitettu
ilmoittaa
ilmoittanut
ilmoittautui
ilmoitti
ilmoittivat
ilmoituksen
ilmoitus
ilo
iloa
iloinen
ilomantsi
ilomantsin
ilon
ilona
ilpo
ilta
iltaa
iltaan
iltaisin
iltalehden
iltalehti
iltana
iltanen
iltansa
iltapa
iltasanomat
iltiin
ilty
iltyna
ilvekseen
ilveksen
ilveksessa
ilves
ilvesta
ily
ilya
ilyi
ilyiva
ilyn
ilyneet
ilyneita
ilynyt
ilysta
ilyteta
ilytetta
ilytettiin
ilytta
ilytti
ilyttiva
ilyva
ilyy
im
ima
imaami
image
images
imatra
imatralla
imatran
imdb
imee
imen
imet
imetta
imeva
imf
imia
imiin
imilla
imille
imista
imisto
imma
immanuel
imme
immonen
immortal
immuunija
imo
impact
imperatiivin
imperfekti
imperfektiivinen
imperfektimuoto
imperfektin
imperial
imperiumi
imperiumin
impi
implications
important
impossible
in
ina
inari
inarin
inaturalist
inc
including
incredible
ind
indefiniittinen
indeksi
indeksin
indelning
indelningen
independence
independent
index
india
indian
indiana
indianan
indianapolis
indians
indie
indikatiivin
individual
indonesia
indonesian
indonesiassa
indoor
indus
industrial
industries
industry
indy
ine
ineen
inen
inf
inferior
inferno
infinitiivi
infinitiivin
infinity
inflaatio
influence
info
informaatio
informaation
informaatiota
information
informatise
infty
ing
inga
inge
ingeborg
inger
ingman
ingmar
ingrid
inha
inhimillinen
inhimillisen
inin
inio
initiative
inja
inka
inkeri
inkerila
inkerin
inkin
inkinen
inla
inn
inna
inner
innin
innocentius
innoittamana
innokas
innokkaasti
innostui
innostunut
innovation
innsbruckin
ino
inorganic
ins
insee
inside
insider
insino
inspiraation
instagram
instat
institut
institute
institution
institutions
instituto
instituut
instituutin
instituutissa
instituutti
instruktiivimuoto
instrumentaali
instrumental
instruments
insurance
int
inta
intarha
intarhan
inte
integrated
integroitu
intel
intelin
intelligence
inten
inter
interactive
intercontinental
interest
intereuropean
internacional
internal
international
internationale
internationalin
internet
internetiin
internetin
internetissa
internetista
internetsivut
interpret
interview
interviews
inti
intia
intiaa
intiaan
intiaaneja
intiaanien
intiaanit
intialainen
intialaisen
intialaiset
intian
intiassa
intiasta
intiede
intieteen
intieteilija
into
intro
introducing
introduction
inv
inva
invasion
invastoin
inventointi
inventory
investigation
investment
invisible
inyt
io
ioa
ioc
iommi
ion
ioni
ionien
ionit
ioniyhdiste
ios
iowa
ip
ipa
iphone
ipk
ir
ira
irak
irakiin
irakin
irakissa
iran
iraniin
iranilainen
iranin
iranissa
iraq
irc
ireland
irene
iriko
irina
irinta
irio
iris
irish
irita
iritseva
irja
irlannin
irlannissa
irlannista
irlanti
irlantiin
irlantilainen
irlantilaisen
irma
irmeli
iron
irrottaa
irtautui
irti
irtisanoutui
irtoaa
irtosi
irving
irwin
is
isa
isaac
isabel
isabella
isabelle
isak
isaksson
isbn
ise
isee
iseen
iseksi
isella
iselle
iselta
isema
isemiseksi
isemma
isemmin
isempa
isempi
isempia
isen
isena
isensa
isessa
isesta
isesti
iset
iseva
ishaq
ishockeyfo
isi
isia
isien
isiin
isiko
isiksi
isilla
isille
isilta
isimma
isimmin
isin
isina
isis
isisin
isissa
isista
isiva
isja
iska
iskansojen
iskea
iskee
iskelma
iskema
iski
iskiva
iskoulu
isku
iskua
iskuja
iskujen
iskun
iskussa
iskusta
iskut
isl
isla
islam
islamia
islamic
islamiin
islamilainen
islamilaisen
islamilaisessa
islamin
islamissa
island
islanders
islandersin
islandilla
islandin
islands
islanniksi
islannin
islannissa
islanti
islantilainen
isle
islehden
islehti
islennost
isma
ismail
ismo
iso
isoa
isoisa
isoja
isojen
isokokoinen
isola
isolla
isoma
isompi
ison
isonvihan
isoon
isossa
isosta
isot
isotalo
isoveli
isoveljensa
ispainos
israel
israeli
israelia
israeliin
israelilainen
israelin
israelissa
iss
issa
issf
issn
issue
issues
issyntyinen
issyo
ist
ista
istanbul
istanbulin
istanbulissa
istat
isten
isteos
istituto
isto
istorija
istua
istui
istuimen
istuin
istuivat
istumaan
istumapaikkaa
istunut
istutettu
istuu
istuva
istuvan
istva
istya
istyi
istymisen
istymista
istyttya
isu
isva
isy
isyydella
isyydelle
isyydelta
isyyden
isyydesta
isyydet
isyyksia
isyys
isyyspa
isyyteen
isyytensa
isyytta
it
ita
ital
italia
italiaa
italiaan
italiaksi
italialainen
italialais
italialaisen
italialaiset
italialaisia
italialaista
italialaisten
italian
italiana
italiano
italiassa
italiasta
italy
ite
iteta
itetta
itettiin
itetty
itf
iti
itia
itiin
itini
itinsa
itio
itis
itke
itki
itkonen
ito
its
itse
itsea
itseensa
itsehallinnon
itsehallintoalue
itseka
itsekin
itsekka
itsekseen
itsella
itselleen
itselleni
itselta
itsema
itsemurha
itsemurhaa
itsemurhan
itsena
itseni
itsensa
itseoppinut
itsepa
itsessa
itsesta
itsija
itta
itteen
itteet
itteiden
itteita
itteli
itten
itti
ittiva
itunes
itv
ity
itya
ityma
itymisen
itynyt
iu
iucn
iucnredlist
iupac
ius
iv
iva
ivan
ivanov
ivanovits
ivar
ivi
ivia
ivien
iviin
ivilla
iville
ivin
ivina
ivio
ivisin
ivista
ivitetta
ivitetty
ivitta
ivitys
ivo
ivrea
ivy
iwa
ix
iz
izdatelstvo
j
ja
jaa
jaakko
jaakkola
jaakobin
jaakola
jaan
jaana
jaardia
jaarli
jaarlin
jaatinen
jaavan
jack
jackets
jackie
jackin
jackson
jacksonin
jacob
jacobin
jacobs
jacqueline
jacques
jade
jae
jaetaan
jaettiin
jaettu
jaettuna
jaetulle
jaetun
jag
jagger
jaguar
jai
jaime
jak
jakaa
jakaantui
jakaantuu
jakamaan
jakamalla
jakaminen
jakamista
jakanut
jakauma
jakautui
jakautuivat
jakautuminen
jakautumista
jakautunut
jakautuu
jakautuvat
jakavat
jake
jakelu
jako
jakoa
jakob
jakobson
jakobsson
jakoi
jakoivat
jakovaihe
jakovaiheen
jakovlev
jaksa
jaksaa
jakso
jaksoa
jaksoisesti
jaksoissa
jaksoista
jaksoja
jaksojen
jakson
jaksoon
jaksossa
jaksosta
jaksot
jakub
jalalla
jalan
jalanja
jalansijaa
jalas
jalasja
jalat
jalava
jalka
jalkaa
jalkaan
jalkanen
jalkansa
jalkapallo
jalkapalloa
jalkapalloilija
jalkapalloilun
jalkapallojoukkue
jalkapallokirja
jalkapalloliiton
jalkapalloliitto
jalkapallomaajoukkue
jalkapallomaajoukkueen
jalkapallomaajoukkueessa
jalkapallomaalivahti
jalkapallon
jalkapalloseura
jalkapallossa
jalkapallostadion
jalkapallovalmentaja
jalkava
jalkoihin
jalkojen
jalmari
jalo
jalonen
jalostettu
jalostuksen
jalostus
jam
jamaica
jamaika
jamaikalainen
jamaikan
james
jamesin
jamie
jan
jana
janakkala
janakkalan
jane
janeiro
janeiron
janeirossa
janet
jani
janne
jansen
jansson
janssonin
jantunen
januari
january
janvarja
jaon
jaossa
jap
japan
japanese
japani
japania
japaniin
japaniksi
japanilainen
japanilaisen
japanilaiset
japanilaisia
japanilaista
japanilaisten
japanin
japanissa
japanista
jar
jared
jari
jarkko
jarl
jarmo
jarno
jaro
jaroslav
jarrut
jas
jaska
jason
jasper
jatka
jatkaa
jatkaen
jatkamaan
jatkanut
jatkavat
jatketaan
jatkettiin
jatkettu
jatko
jatkoa
jatkoaika
jatkoajalla
jatkoajan
jatkoi
jatkoivat
jatkoon
jatkopelit
jatkosodan
jatkosodassa
jatkosopimuksen
jatkosopimuksia
jatkosopimusta
jatkosotaan
jatkossa
jatkosta
jatkua
jatkui
jatkuivat
jatkunut
jatkuu
jatkuva
jatkuvaa
jatkuvan
jatkuvassa
jatkuvasti
jatkuvat
jauhiainen
jauhoja
java
javier
jay
jazeera
jazyki
jazz
jazzia
jazzin
jazzmuusikko
je
jean
jeanne
jedi
jee
jeesuksen
jeesus
jeesusta
jeff
jefferson
jeffrey
jehovan
jelena
jemenin
jen
jengi
jengin
jenkins
jenna
jenni
jennifer
jennings
jenny
jens
jensen
jere
jeremy
jericho
jernstro
jerome
jerry
jersey
jerseyn
jerseyssa
jerusalem
jerusalemiin
jerusalemin
jerusalemissa
jerzy
jesper
jesse
jessica
jessie
jesu
jesus
jet
jethro
jets
jevgeni
jewish
jews
jhk
ji
jia
jien
jiensa
jihad
jiin
jiksi
jill
jilla
jille
jilta
jim
jime
jimi
jimmy
jin
jina
jir
jiri
jissa
jista
jiten
jjk
jk
jne
jo
joa
joachim
joakim
joan
joanna
joaqui
job
jobs
joca
jocu
joe
joel
joella
joelle
joen
joensuu
joensuuhun
joensuun
joensuussa
joessa
joesta
joet
joey
joh
johan
johann
johanna
johanneksen
johannes
johansson
johanssonin
johda
johdannon
johdanto
johdattaa
johdatti
johdatus
johdetaan
johdettu
johdolla
johdollaan
johdon
johdos
johdossa
johdosta
john
johnin
johnny
johns
johnson
johnsonin
johnston
johon
johonkin
johtaa
johtaisi
johtaja
johtajaa
johtajaksi
johtajan
johtajana
johtajansa
johtajat
johtajia
johtajien
johtajista
johtama
johtamaa
johtamaan
johtaman
johtamana
johtamansa
johtamassa
johtamat
johtamien
johtaminen
johtamisen
johtaneen
johtaneet
johtanut
johtanutta
johtava
johtavaa
johtavan
johtavana
johtavat
johtavia
johtavien
johtavista
johti
johtivat
johto
johtoa
johtohahmo
johtohenkilo
johtokunnan
johtokunnassa
johtokunta
johtokuntaan
johtoon
johtopa
johtoryhma
johtotehta
johtua
johtuen
johtui
johtuneen
johtuu
johtuva
johtuvan
johtuvat
joi
joiden
joidenkin
joihin
joihinkin
joilla
joillain
joillakin
joille
joillekin
joilta
join
joinakin
joins
joint
joissa
joissain
joissakin
joista
joistakin
joita
joitain
joitakin
jok
joka
jokainen
jokaiseen
jokaisella
jokaiselle
jokaisen
jokaisessa
jokaisesta
jokaista
jokapa
jokea
jokeen
jokela
jokelan
jokereiden
jokereihin
jokereissa
jokeri
jokerien
jokerit
joki
jokia
jokien
jokiin
jokin
jokinen
jokioisten
jokipii
jokisen
joko
jokseenkin
joksi
joksikin
joku
jolla
jollain
jollakin
jolle
jollei
jollekin
jolloin
jolta
jon
jona
jonakin
jonas
jonathan
jones
jonesin
jong
joni
jonka
jonkin
jonkinlainen
jonkinlaisen
jonkinlaista
jonkun
jonna
jonne
jonnekin
jono
jonsson
joo
joona
joonas
joosef
jooseppi
jopa
jope
jordan
jordania
jordanian
jordanin
jorge
jori
jorma
joroinen
jos
jose
josef
josefina
joseph
josh
joshua
josif
joskaan
joskin
joskus
jospa
joss
jossa
jossain
jossakin
josta
jostain
jostakin
jota
jotain
jotakin
jotakuta
joten
jotenkin
jotka
jotkin
jotkut
jotta
jottei
joudutaan
jouduttiin
jouduttu
jouduttua
jouduttuaan
joukko
joukkoa
joukkoihin
joukkoineen
joukkoja
joukkojaan
joukkojen
joukkoliikenteen
joukkoliikenteeseen
joukkonsa
joukkoon
joukkue
joukkueella
joukkueelle
joukkueen
joukkueena
joukkueenjohtajaksi
joukkueenjohtajana
joukkueensa
joukkueeseen
joukkueessa
joukkueesta
joukkueet
joukkueiden
joukkueissa
joukkueista
joukkueita
joukkueittain
joukkuekilpailu
joukkuekilpailun
joukkuekilpailussa
joukkuema
joukkuetakaa
joukkuetoverinsa
joukkuetta
jouko
joukoille
joukoissa
joukoista
joukon
joukossa
joukossaan
joukosta
joukot
joulu
joulua
joulukuu
joulukuuhun
joulukuun
joulukuussa
joulukuusta
joulukuuta
joulun
jouluna
joulupukki
jouni
journal
journalismin
journalisti
journey
jousi
jousiammunta
jousiampuja
joutsa
joutsen
joutsenon
joutua
joutuessaan
joutui
joutuisi
joutuivat
joutuneen
joutuneet
joutunut
joutuu
joutuvat
jovi
joy
joyce
jp
jpg
jpl
jr
js
jstor
ju
juan
judas
judge
judith
judo
judoinside
judoka
judy
jugend
jugoslavia
jugoslavian
jugoslaviassa
juha
juhan
juhana
juhani
juhla
juhlaa
juhlaan
juhlakirja
juhlan
juhlapa
juhlassa
juhlat
juhli
juhlia
juhlien
juhlii
juhliin
juhlissa
juhlitaan
juhlittiin
juho
juice
jukka
jukola
jukolan
jukureiden
jukurit
jul
jules
julia
julian
julie
julien
juliet
julin
julio
julistaa
julistanut
julistautui
julistettiin
julistettu
julisti
julistivat
julistuksen
julistus
julius
julk
julkaisee
julkaisema
julkaisemaan
julkaisemalla
julkaiseman
julkaisemassa
julkaisematon
julkaiseminen
julkaisemisen
julkaisemista
julkaisi
julkaisija
julkaisivat
julkaisseet
julkaissut
julkaista
julkaistaan
julkaistiin
julkaistu
julkaistua
julkaistuista
julkaistuja
julkaistulla
julkaistun
julkaistussa
julkaistusta
julkaistut
julkaistuun
julkaisu
julkaisua
julkaisuarkisto
julkaisuissa
julkaisuja
julkaisujen
julkaisun
julkaisunsa
julkaisupa
julkaisusarja
julkaisussa
julkaisusta
julkaisut
julkaisuun
julki
julkinen
julkiseen
julkisen
julkisessa
julkisesti
julkiset
julkisia
julkisilla
julkisissa
julkisista
julkisivu
julkisivun
julkista
julkisten
julkistettiin
julkistettu
julkisti
julkisuuden
julkisuudessa
julkisuudesta
julkisuuteen
julkisuutta
julma
july
jumala
jumalaa
jumalaan
jumalalle
jumalalta
jumalan
jumalana
jumalasta
jumalat
jumalatar
jumalattaren
jumalia
jumalien
jumalten
jump
jun
juna
junaa
junalla
junan
junassa
junat
june
jung
jungle
junia
junien
junior
junioreiden
junioreihin
junioreissa
juniori
juniorien
juniorina
juniorit
junkers
junnila
juno
junttila
juntunen
juo
juoda
juokse
juoksee
juoksemaan
juoksi
juoksija
juoksu
juoksua
juoksulla
juoksun
juoksussa
juoma
juomaa
juomaan
juoman
juomiin
juonen
juonesta
juoni
juonipaljastukset
juonsi
juonta
juontaa
juontaja
juontajana
juontuu
juossut
juosta
juova
juovat
jupiter
jupiterin
jurassic
juri
juristi
jurkka
jurva
jus
jusle
jussi
jussila
jussin
jussit
just
justice
justin
justinianus
justus
jutila
jutta
juttu
juttuja
jutun
jutussa
jutut
juurella
juurensa
juuret
juuri
juuria
juurikaan
juuso
juusto
juustoa
juuston
juutalainen
juutalaiseen
juutalaisen
juutalaiset
juutalaisia
juutalaisista
juutalaista
juutalaisten
juutalaisuuden
juutilainen
juva
juvan
juventus
juvonen
jvg
jylha
jymy
jymyn
jyp
jypin
jyra
jyri
jyrka
jyrki
jyrkka
jyrsija
jyrsijo
jyu
jyva
jørgen
k
ka
kaa
kaaduttua
kaakkois
kaakkoisosassa
kaakkoispa
kaakkoispuolella
kaakkoon
kaakon
kaakossa
kaakosta
kaani
kaanin
kaaos
kaaoszine
kaapata
kaapeli
kaapo
kaappasi
kaappaus
kaappi
kaaren
kaareva
kaari
kaarina
kaarinan
kaarle
kaarlen
kaarlo
kaarna
kaarti
kaartin
kaartinen
kaasu
kaasua
kaasuja
kaasukeha
kaasun
kaataa
kaatoi
kaatui
kaatuneiden
kaatunut
kaatuu
kaava
kaavaa
kaavailtiin
kaavalla
kaavan
kadettikoulun
kadonneen
kadonneet
kadonnut
kadonnutta
kaduilla
kadulla
kadulle
kadun
kadunnimet
kadut
kah
kahdeksaan
kahdeksalla
kahdeksan
kahdeksanneksi
kahdeksannen
kahdeksantoista
kahdeksas
kahdeksassa
kahdeksasta
kahdeksi
kahdeksikossa
kahdella
kahdelle
kahden
kahdenkymmenen
kahdentoista
kahdessa
kahdesta
kahdestatoista
kahdesti
kahdestoista
kahdet
kahn
kahta
kahteen
kahtena
kahtia
kahvi
kahvia
kahvila
kahvin
kai
kaija
kaiken
kaikenlaisia
kaikenlaista
kaikessa
kaikesta
kaikilla
kaikille
kaikilta
kaikin
kaikissa
kaikista
kaikk
kaikkea
kaikkeen
kaikkein
kaikkensa
kaikkeuden
kaikki
kaikkia
kaikkiaan
kaikkialla
kaikkialle
kaikkien
kaikkiin
kaikkina
kaikkonen
kaiku
kaila
kailas
kain
kaino
kainulainen
kainuu
kainuun
kainuussa
kaipaa
kaipuu
kairon
kairossa
kaisa
kaiser
kaisu
kaivaa
kaivaukset
kaivauksia
kaivauksissa
kaiverrettu
kaivettiin
kaivettu
kaivo
kaivoksen
kaivos
kaj
kajaani
kajaanin
kajaanissa
kajava
kakko
kakkonen
kakkosen
kakkosessa
kakkosta
kaks
kaksi
kaksikerroksinen
kaksikielinen
kaksikko
kaksikon
kaksikymmenta
kaksin
kaksinkertainen
kaksinpelin
kaksinpelissa
kaksiosainen
kaksipa
kaksissa
kaksisuuntaisen
kaksitoista
kaksivuotisella
kaksivuotisen
kaksoista
kaksoset
kal
kala
kalaa
kalajoen
kalajoki
kalalaji
kalan
kalastaja
kalastuksen
kalastus
kalastusta
kalat
kalentereissa
kalenteri
kalenteriin
kalenterin
kalenterissa
kalervo
kaleva
kalevala
kalevalan
kalevan
kalevi
kalifi
kalifornia
kaliforniaan
kalifornian
kaliforniassa
kalju
kallas
kalle
kallein
kallela
kallelan
kallen
kalliiksi
kalliita
kallikrates
kallio
kallioinen
kallioja
kallioma
kalliomaalaus
kallion
kallioniemi
kallioon
kalliopera
kallis
kallista
kallo
kallon
kalmarin
kalmbergin
kaloihin
kaloja
kalojen
kalpa
kalpan
kaltainen
kaltaiset
kaltaisia
kaltaista
kaltaisten
kalu
kaluja
kalujen
kalusto
kalustoa
kaluston
kalut
kamala
kamari
kamarimusiikkia
kambodz
kamera
kameran
kamerun
kamerunin
kampanja
kampanjan
kampin
kamppailu
kamppailun
kampus
kamts
kan
kana
kanaalin
kanada
kanadaa
kanadaan
kanadalainen
kanadalais
kanadalaisen
kanadan
kanadassa
kanadasta
kanava
kanavaa
kanavalla
kanavalle
kanavan
kanavat
kanavia
kanavien
kanavilla
kandidaatiksi
kandidaatin
kandidaatti
kane
kanerva
kang
kangas
kangasala
kangasalan
kangasalla
kangasniemen
kangasniemi
kankaalle
kankaan
kankaanpa
kankkunen
kannabiksen
kannaksella
kannaksen
kannalla
kannalle
kannalta
kannan
kannankehitys
kannas
kannat
kannata
kannattaa
kannattaja
kannattajat
kannattajia
kannattajien
kannattanut
kannattava
kannattavaa
kannattavat
kannatti
kannattivat
kannatuksen
kannatus
kannatusta
kannel
kannella
kannelle
kannen
kannessa
kannet
kannustaa
kannusti
kansa
kansaa
kansaan
kansain
kansainliiton
kansainva
kansainyhteiso
kansakoulu
kansakoulun
kansakoulunopettaja
kansakunnan
kansakunnat
kansakuntien
kansalainen
kansalaisen
kansalaisesta
kansalaiset
kansalaisia
kansalaisille
kansalaisja
kansalaisten
kansalaisuuden
kansalaisuus
kansalle
kansallinen
kansallis
kansallisarkisto
kansallisarkiston
kansallisbiografia
kansalliseen
kansallisella
kansallisen
kansallisessa
kansalliset
kansallisfilmografia
kansallisgalleria
kansallisgallerian
kansallisia
kansalliskirjasto
kansalliskirjaston
kansalliskirjastossa
kansalliskokouksen
kansalliskokous
kansallislaulu
kansallislaulun
kansallismuseo
kansallismuseon
kansallisoopperan
kansallispuisto
kansallispuiston
kansallispuistoon
kansallispuistossa
kansallissosialistisen
kansallista
kansallisteatteri
kansallisteatterin
kansallisteatterissa
kansallisten
kansan
kansana
kansanedustaja
kansanedustajaa
kansanedustajaksi
kansanedustajan
kansanedustajana
kansanedustajat
kansanedustajien
kansanela
kansanka
kansankulttuuri
kansanmusiikin
kansannousu
kansannousun
kansanopiston
kansanperinteen
kansanpuolue
kansanpuolueen
kansansa
kansantalouden
kansantasavallan
kansantasavalta
kansanvaltuuskunnan
kansas
kansasin
kansasta
kansat
kansi
kansikuva
kansleri
kanslia
kanslian
kansliapa
kansoja
kansojen
kanssa
kanssaan
kanssaka
kanssani
kant
kanta
kantaa
kantaesitettiin
kantaesitys
kantaisa
kantakaupungin
kantama
kantamaan
kantaman
kantapa
kantatie
kantava
kantavan
kantavat
kanteen
kantele
kanto
kantoi
kantoja
kantola
kantonin
kantonissa
kanttori
kanye
kap
kapanen
kapari
kapasiteetti
kapea
kapean
kapeat
kapeita
kapellimestari
kapellimestarina
kapina
kapinaa
kapinaan
kapinalliset
kapinallisia
kapinallisten
kapinan
kapinoi
kapinoivat
kapitalismin
kaplan
kapoor
kappalainen
kappale
kappaleeksi
kappaleella
kappaleellaan
kappaleelle
kappaleen
kappaleena
kappaleensa
kappaleeseen
kappaleessa
kappaleesta
kappaleet
kappaleiden
kappaleilla
kappaleisiin
kappaleissa
kappaleista
kappaleita
kappaleitaan
kappaletta
kappeli
kappelin
kappeliseurakunta
kappelissa
kapteeni
kapteeniksi
kapteenin
kapteenina
kar
kara
karate
kardinaali
kardinaaliluku
kare
karel
karelia
karelija
karen
karhu
karhuja
karhulan
karhuma
karhun
karhunen
karhut
kari
karibian
karille
karin
karisto
kariston
karja
karjaa
karjala
karjalaan
karjalainen
karjalais
karjalaisen
karjalaisia
karjalaisten
karjalan
karjalankannaksella
karjalassa
karjalasta
karjan
karjanhoito
karkaa
karkasi
karkea
karkeasti
karkkilan
karkotettiin
karkottaa
karkotti
karkuun
karl
karlsson
karma
karoliina
karolina
karppinen
karri
karsinnan
karsinnassa
karsinnat
karsinnoissa
karsinnoista
karsintaan
karsintaottelussa
karsintasarjan
karsintoihin
karsintojen
karsiutui
karsten
kart
kartalla
kartalle
kartan
kartano
kartanoa
kartanon
kartanoon
kartanossa
kartanosta
kartassa
kartasto
kartastossa
kartat
karthagon
karting
kartoissa
kartta
karttaa
karttaan
karttakeskus
karttalinkki
karttapaikka
karttapalvelu
karttapalvelussa
karttoja
karttunen
karu
karva
karvainen
karvaisia
karvapeite
karvinen
karvonen
kas
kasaan
kasetti
kasila
kasimir
kaski
kaskinen
kasparov
kasper
kasperi
kassa
kassu
kaste
kasteen
kastettiin
kastilian
kasva
kasvaa
kasvaessa
kasvain
kasvamaan
kasvaneen
kasvaneet
kasvanut
kasvatetaan
kasvatettiin
kasvatettu
kasvattaa
kasvattajaseura
kasvattajaseuraansa
kasvattajaseuransa
kasvattamaan
kasvattanut
kasvatti
kasvattivat
kasvatuksen
kasvatus
kasvatusta
kasvatustieteen
kasvatustieteiden
kasvava
kasvavaa
kasvavan
kasvavat
kasvavia
kasveihin
kasveilla
kasveille
kasveissa
kasveista
kasveja
kasvi
kasvia
kasviatlas
kasvien
kasvilaji
kasvillisuuden
kasvillisuus
kasvillisuutta
kasvimuseo
kasvin
kasvinsyo
kasvio
kasvissyo
kasvisuku
kasvit
kasvitiede
kasvitieteellinen
kasvitieteen
kasvitieteilija
kasvoi
kasvoihin
kasvoivat
kasvoja
kasvojen
kasvojenkohotuksen
kasvonsa
kasvot
kasvu
kasvua
kasvun
kasvussa
kasvuun
kat
kata
katainen
kataja
katakana
katalaaniksi
katalonian
katalyyttina
katariina
katariinan
katarina
katastrofi
kate
katedraali
katedraalin
kategoriassa
katettu
kath
katherine
kathleen
kathryn
kati
katie
katja
katkaisi
katkaista
katkelma
katkelmia
katkera
katkesi
kato
katoaa
katolinen
katolisen
katolisessa
katoliset
katolisia
katolista
katolisten
katolla
katolle
katon
katosi
katosivat
katri
katriina
katsaus
katse
katseen
katselee
katseli
katsella
katso
katsoa
katsoen
katsoi
katsoivat
katsoja
katsojaa
katsojan
katsojat
katsojia
katsojien
katsomaan
katsomalla
katsomassa
katsomo
katsonut
katsoo
katsotaan
katsottiin
katsottu
katsottuna
katsotuimmat
katsotuin
katsovat
kattaa
kattava
kattavalla
kattavan
kattavat
katto
kattoi
kattoja
kattoon
katu
katua
katuja
katujen
katy
kauan
kauas
kaudeksi
kaudella
kaudellaan
kaudelle
kaudelta
kauden
kaudessa
kaudesta
kaudestaan
kaudet
kauemmaksi
kauemmas
kauemmin
kauempana
kaufman
kauhajoen
kauhajoki
kauhanen
kauhava
kauhavan
kauhea
kauhu
kauhuelokuva
kauhun
kaukaa
kaukainen
kaukana
kaukasian
kaukasuksen
kauko
kaukoida
kaukola
kaukonen
kaukoranta
kaula
kaulan
kaulassa
kaunasin
kaunein
kauneuden
kauneus
kauneutta
kauniainen
kauniaisten
kauniin
kauniisti
kauniit
kauniita
kaunis
kaunista
kaunisto
kauno
kaunokirjallisuuden
kaunotar
kaupaksi
kaupallinen
kaupallisen
kaupallisesti
kaupalliset
kaupallisia
kaupallista
kaupan
kaupanka
kaupassa
kaupasta
kaupat
kaupattiin
kaupoissa
kauppa
kauppaa
kauppaan
kauppakeskuksen
kauppakeskus
kauppakorkeakoulu
kauppakorkeakoulun
kauppala
kauppalan
kauppalehti
kauppaneuvoksen
kauppaneuvos
kauppapaikka
kauppasi
kauppatieteiden
kauppi
kauppiaan
kauppiaat
kauppiaiden
kauppiaita
kauppias
kauppila
kauppinen
kauppoja
kaupungeissa
kaupungeista
kaupungiksi
kaupungilla
kaupungille
kaupungilta
kaupungin
kaupunginhallituksen
kaupunginhallitus
kaupunginjohtaja
kaupunginkirjasto
kaupunginkirjaston
kaupunginmuseo
kaupunginoikeudet
kaupunginosa
kaupunginosaa
kaupunginosaan
kaupunginosan
kaupunginosassa
kaupunginosasta
kaupunginosat
kaupunginosien
kaupunginosista
kaupungintalo
kaupungintalon
kaupunginteatteri
kaupunginteatterin
kaupunginteatterissa
kaupunginvaltuusto
kaupunginvaltuuston
kaupunginvaltuustoon
kaupunginvaltuustossa
kaupunginvaltuutettu
kaupungissa
kaupungista
kaupungit
kaupunkeihin
kaupunkeja
kaupunki
kaupunkia
kaupunkialueen
kaupunkien
kaupunkiin
kaupunkikunta
kaupunkilaiset
kaupunkilaisten
kaupunkimainen
kaupunkina
kaupunkinsa
kaupunkioikeudet
kaupunkipiirit
kaupunkiseudulla
kaupunkiseudun
kaupunkivaltio
kaupunkivaltion
kaurisma
kausi
kausia
kausien
kausilla
kausina
kausittain
kaustisen
kauteen
kautena
kautensa
kautta
kauttaaltaan
kauttaan
kauvan
kaveri
kavi
kawasaki
kay
kayano
kazakstan
kazakstanin
kazakstanissa
kazan
kazanin
kb
kbfd
kc
kd
ke
kea
keaine
keaineiden
keaton
kee
keele
keen
keep
keet
kegg
keha
kehiteta
kehitetta
kehitettiin
kehitetty
kehitta
kehitteli
kehitti
kehittiva
kehittya
kehittyessa
kehittyi
kehittyiva
kehittyma
kehittyminen
kehittymiseen
kehittymisen
kehittymista
kehittyneen
kehittyneet
kehittynyt
kehittyva
kehittyy
kehitykseen
kehitykselle
kehityksen
kehityksessa
kehityksesta
kehitys
kehitysta
kehitystyo
kehitysyhteistyo
keho
kehon
kehottaa
kehotti
kehra
kehui
kehuja
kei
keiha
keijo
keika
keikalla
keikan
keikka
keikkaili
keikkoja
keikoilla
keina
keino
keinoa
keinoin
keinoja
keinon
keinot
keinotekoinen
keisari
keisaria
keisariksi
keisarikunnan
keisarikunta
keisarille
keisarillinen
keisarillisen
keisarillisessa
keisarin
keisarinna
keisarit
keisto
keita
keiteleen
keith
keitta
keittio
keitto
keka
keke
kekkonen
kekkosen
kekselia
keksi
keksia
keksii
keksija
keksima
keksinno
keksinto
keksinyt
keksittiin
keksitty
keksiva
kel
kela
kelaitoksen
kelan
kellarissa
keller
kellerta
kello
kelloa
kellon
kellot
kellotapuli
kellotorni
kelly
kelpaa
kelpo
kelpoinen
kelta
keltainen
keltaisen
keltaiset
keltaisia
keltaista
kelttila
kema
kemi
kemia
kemiaa
kemiaan
kemiallinen
kemiallisen
kemiallisesti
kemiallisia
kemiallisten
kemian
kemianpalkinnon
kemiassa
kemiin
kemija
kemijoen
kemikaalikortti
kemikaalit
kemila
kemin
kemio
kemissa
kemisti
kempeleen
kemppainen
kemppi
kemppinen
kemyksen
kemyksensa
kemykset
kemyksia
kemys
kemysta
ken
kendo
kenelle
kenelleka
kenen
kenenka
kenga
kenia
kenialainen
kenian
keniassa
kenka
kenkia
kennedy
kennedyn
kennel
kennelliitto
kenneth
kenny
kenraali
kenraalikuverno
kenraaliluutnantti
kenraalimajuri
kenraalimajuriksi
kenraalin
kenraalit
kent
kenta
kenties
kentin
kentta
kentucky
kenya
kepa
kepler
ker
kera
keramiikan
keramiikka
keramiikkaa
kerava
keravan
kerho
kerhon
kerima
kerja
kerkko
kerma
kerman
kernel
kero
kerr
kerralla
kerrallaan
kerrallinen
kerran
kerrassa
kerrassaan
kerrasto
kerrat
kerro
kerroilla
kerroin
kerrokseen
kerroksen
kerroksessa
kerros
kerrosta
kerrostaloja
kerrotaan
kerrottiin
kerrottu
kerry
kersantti
kerta
kertaa
kertaakaan
kertaalleen
kertaan
kertainen
kertaka
kertoa
kertoi
kertoivat
kertoja
kertojana
kertomaan
kertomalla
kertoman
kertomuksen
kertomukset
kertomuksia
kertomus
kertomusta
kertomusten
kertoneet
kertonut
kertoo
kertosa
kertova
kertovan
kertovat
kerttu
kerttunen
kertyi
kertynyt
kertyy
kes
kesa
kesk
keskeinen
keskeisen
keskeisena
keskeisessa
keskeisesti
keskeiset
keskeisia
keskeisimma
keskeisimpia
keskeisin
keskeisista
keskeista
keskella
keskelle
keskelta
kesken
keskena
keskenera
keskeytettiin
keskeytta
keskeytti
keskeytyi
keski
keskiaika
keskiaikainen
keskiaikaisen
keskiajalla
keskiajalta
keskiajan
keskiarvo
keskiarvolla
keskiarvon
keskikenta
keskikentta
keskikokoinen
keskikoulu
keskikoulun
keskila
keskiluokan
keskima
keskimatkalla
keskimatkojen
keskimma
keskina
keskinen
keskio
keskiosa
keskiosan
keskiosassa
keskiosissa
keskipa
keskipiste
keskipitka
keskisarjan
keskisen
keskisessa
keskisuomalainen
keskisyvyys
keskitalo
keskitetty
keskitta
keskittya
keskittyi
keskittyiva
keskittyma
keskittyneet
keskittynyt
keskittyva
keskittyy
keskityta
keskivaiheilla
keskiviikkona
keskivirtaama
keskiyo
keskkonnaministeerium
keskkonnaregister
kesko
keskonnainfo
keskukseen
keskukseksi
keskuksen
keskuksena
keskuksessa
keskuksesta
keskukset
keskuksia
keskus
keskushallinnon
keskushyo
keskusja
keskuskomitean
keskuskyla
keskusliiton
keskusliitto
keskusmuseo
keskuspaikka
keskuspankin
keskuspankki
keskuspuolustaja
keskussairaala
keskusta
keskustaa
keskustaajama
keskustaajaman
keskustaan
keskustan
keskustapuolueen
keskustassa
keskustasta
keskustele
keskustelemaan
keskustella
keskusteltiin
keskustelu
keskustelua
keskusteluja
keskustelun
keskustelussa
keskustelut
keskusteluun
keskuudessa
keskuuteen
kesta
kesti
kestila
kestiva
kesto
ket
keta
ketiede
ketiedetta
ketieteellinen
ketieteellisen
ketieteen
ketieteeseen
ketieteessa
ketju
ketjun
ketka
keto
ketola
ketonen
ketta
kettera
kettu
kettunen
keuhkokuumeeseen
keuhkosyo
keula
keulan
keupa
keuruu
keuruulla
keuruun
keva
kevea
keventa
kevin
kevyempi
kevyen
kevyesti
kevyt
kevytta
kew
key
keys
kf
kg
kgb
kh
khalifa
khan
khanin
khl
kho
khz
ki
kia
kiasma
kick
kid
kidivisioona
kidivisioonan
kido
kids
kie
kiehtova
kiehumispiste
kiekko
kiekkoa
kiekkoilija
kiekkoilun
kiekkojoukkue
kiekkokirja
kiekkoliiton
kiekkoliitto
kiekkomaajoukkue
kiekkomaalivahti
kiekkopuolustaja
kiekkoseura
kiekkovalmentaja
kiekon
kiekonheitossa
kiekonheitta
kiekossa
kiekosta
kiel
kieleen
kieleksi
kielella
kielelle
kielen
kielena
kielenka
kielensa
kielessa
kielesta
kielet
kieli
kielia
kieliin
kielikello
kielikone
kielilla
kielille
kieliopin
kielioppi
kieliryhma
kielissa
kielista
kielitiede
kielitieteen
kielitieteeseen
kielitieteilija
kielitoimiston
kielitunnus
kiellettiin
kielletty
kiellettya
kiellettyja
kiellon
kielsi
kielsiva
kielta
kielteinen
kielteisesti
kielten
kielto
kieltolain
kien
kienna
kierra
kierroksella
kierrokselle
kierroksen
kierros
kierrosta
kiersi
kierta
kierto
kiertoradalle
kiertue
kiertueella
kiertueelle
kiertueen
kiertueilla
kiertuetta
kihlakunnan
kihlakunta
kihlakuntaan
kihloissa
kihnio
kihyppa
kihyppy
kihypyn
kii
kiihdytta
kiihkea
kiihtyi
kiihtyva
kiikalan
kiilta
kiiltomato
kiin
kiina
kiinaa
kiinaan
kiinaksi
kiinalainen
kiinalaisen
kiinalaiset
kiinalaisia
kiinalaista
kiinalaisten
kiinan
kiinassa
kiinasta
kiinni
kiinniteta
kiinnitetta
kiinnitettiin
kiinnitetty
kiinnitettyna
kiinnitta
kiinnitti
kiinnittyva
kiinnittyy
kiinnitys
kiinnostaa
kiinnostava
kiinnosti
kiinnostui
kiinnostuksen
kiinnostuksensa
kiinnostuneita
kiinnostunut
kiinnostus
kiinnostusta
kiintea
kiinteisto
kiinteita
kiintio
kiipea
kiire
kiiski
kiiskinen
kiista
kiistaa
kiistan
kiistanalainen
kiistelty
kiisti
kiita
kiitos
kiitosta
kiitotie
kiitta
kiitti
kiivaasti
kija
kijoukko
kikka
kila
kiljunen
kill
killa
killan
kille
killed
killer
killers
killinen
killing
killisesti
kills
kilo
kiloa
kilogrammaa
kilogramman
kiloisissa
kiloisten
kilometri
kilometria
kilometrien
kilometriin
kilometrilla
kilometrin
kilon
kilpa
kilpailee
kilpailemaan
kilpailevan
kilpailevat
kilpaili
kilpailija
kilpailijaa
kilpailijan
kilpailijansa
kilpailijat
kilpailijoiden
kilpailijoita
kilpailivat
kilpailla
kilpaillaan
kilpaillut
kilpailtiin
kilpailu
kilpailua
kilpailuiden
kilpailuihin
kilpailuissa
kilpailuista
kilpailuja
kilpailujen
kilpailukiellon
kilpailun
kilpailussa
kilpailusta
kilpailut
kilpailutapahtumat
kilpailuun
kilpaka
kilpapurjehtija
kilpauransa
kilpela
kilpi
kilpinen
kilpisja
kilta
kiltti
kiluku
kilukuarviot
kiluvuksi
kiluvultaan
kiluvun
kilven
kim
kimberly
kimi
kimmo
kimppuun
kimppuunsa
kin
kina
kind
kinen
king
kingdom
kingin
kings
kingsin
kingston
kinin
kinks
kinna
kinnunen
kinnusen
kino
kinta
kinto
kioski
kioton
kiova
kiovan
kiovassa
kipea
kipina
kiprusoff
kipu
kipua
kira
kirby
kirea
kiri
kirill
kirista
kirj
kirja
kirjaa
kirjaan
kirjailija
kirjailijaan
kirjailijaksi
kirjailijaliiton
kirjailijamatrikkelissa
kirjailijan
kirjailijana
kirjailijanimi
kirjailijat
kirjailijoiden
kirjailijoista
kirjailijoita
kirjaimella
kirjaimellisesti
kirjaimen
kirjaimet
kirjaimia
kirjaimilla
kirjaimiston
kirjain
kirjainta
kirjainten
kirjakauppa
kirjakerho
kirjakielen
kirjalainen
kirjallinen
kirjallisen
kirjallisesti
kirjalliset
kirjallisia
kirjallista
kirjallisuuden
kirjallisuudentutkija
kirjallisuudessa
kirjallisuudesta
kirjallisuus
kirjallisuuskriitikko
kirjallisuuspalkinnon
kirjallisuuspalkinto
kirjallisuusseura
kirjallisuustieto
kirjallisuusvuosi
kirjallisuuteen
kirjallisuutta
kirjan
kirjana
kirjanpita
kirjansa
kirjapaino
kirjapainon
kirjapaja
kirjasampo
kirjasarja
kirjasarjan
kirjasarjassa
kirjassa
kirjassaan
kirjasta
kirjasto
kirjastoa
kirjastojen
kirjaston
kirjastonhoitaja
kirjastoon
kirjastopalvelu
kirjastossa
kirjastosta
kirjastot
kirjastovirma
kirjat
kirjattiin
kirjattu
kirjautumisen
kirjava
kirjayhtyma
kirje
kirjeen
kirjeenvaihtajana
kirjeessa
kirjeet
kirjeita
kirjelma
kirjetta
kirjo
kirjoihin
kirjoissa
kirjoista
kirjoita
kirjoitetaan
kirjoitettiin
kirjoitettu
kirjoitettua
kirjoitettuja
kirjoitettuna
kirjoitetun
kirjoittaa
kirjoittaja
kirjoittajan
kirjoittajana
kirjoittajat
kirjoittajien
kirjoittama
kirjoittamaan
kirjoittamalla
kirjoittaman
kirjoittamansa
kirjoittamassa
kirjoittamia
kirjoittaminen
kirjoittamiseen
kirjoittamisen
kirjoittamista
kirjoittaneen
kirjoittaneet
kirjoittanut
kirjoittavat
kirjoitti
kirjoittivat
kirjoituksen
kirjoituksessa
kirjoitukset
kirjoituksia
kirjoituksissa
kirjoituksissaan
kirjoituksista
kirjoitus
kirjoitusasu
kirjoitusja
kirjoitusta
kirjoitusten
kirjoja
kirjojen
kirk
kirka
kirkas
kirkasta
kirkkaan
kirkkaus
kirkko
kirkkoa
kirkkoherra
kirkkoherran
kirkkoherrana
kirkkoihin
kirkkoja
kirkkojen
kirkkonummen
kirkkonummi
kirkkoon
kirkkorakennus
kirkoissa
kirkoista
kirkoksi
kirkolla
kirkolle
kirkollinen
kirkolliskokoukseen
kirkolliskokouksen
kirkolliskokous
kirkon
kirkonkyla
kirkossa
kirkosta
kirkot
kirottu
kirous
kirovin
kirsi
kirsten
kirsti
kirurgi
kirurgian
kirves
kirykmentin
kirykmentti
kis
kisa
kisaa
kisaan
kisalmen
kisan
kisassa
kisat
kisen
kisin
kisoihin
kisoissa
kisoista
kisoja
kisojen
kiss
kissa
kissan
kissat
kissin
kissojen
kista
kit
kita
kitara
kitaraa
kitaran
kitarat
kitaristi
kitaristiksi
kitaristin
kitaristina
kitchen
kitee
kiteen
kiteista
kittila
kitty
kiuru
kiuruveden
kiva
kivallan
kivallasta
kivalta
kivaltaa
kivaltaan
kivaltainen
kivea
kiveen
kiveka
kivela
kiven
kivenna
kivesta
kivet
kivi
kivia
kivien
kivija
kivikaudella
kivikauden
kivima
kivinen
kiviniemi
kiviranta
kivista
kivisto
kivun
kjell
kk
kka
kkeella
kkeelle
kkeen
kkeena
kkeet
kkeiden
kkeista
kkeita
kkeja
kki
kkia
kkien
kkiin
kkija
kkila
kkimiehen
kkimies
kkinen
kkisen
kko
kkyla
kl
kla
klaani
klaanin
klaipe
klar
klarinetti
klas
klassikko
klassikot
klassinen
klassisella
klassisen
klassisesta
klassista
klaus
klein
klemens
klemetti
kleopatra
klikkaamalla
klinge
klm
klo
klubi
klubilla
klubin
kluge
km
kn
kniga
knight
knights
knm
know
knowledge
known
knows
knox
knut
knuuttila
ko
koala
kobayashi
koch
koda
kodeissa
kodin
kodissa
koe
koehenkilo
koelenta
koetaan
koettaa
koetti
koettiin
koettu
kohdalla
kohdalle
kohdalta
kohdan
kohdannut
kohdassa
kohdasta
kohdat
kohdata
kohde
kohden
kohderyhma
kohdetta
kohdin
kohdissa
kohdista
kohdistaa
kohdistui
kohdistunut
kohdistuu
kohdistuva
kohdistuvaa
kohdistuvan
kohdistuvat
kohoaa
kohoavat
kohonen
kohonnut
kohosi
kohottaa
kohta
kohtaa
kohtaamaan
kohtaaminen
kohtaan
kohtaavat
kohtainen
kohtaiseen
kohtaisella
kohtaisen
kohtaisessa
kohtaisesti
kohtaiset
kohtaisia
kohtaista
kohtaisten
kohtalaisen
kohtalaisesti
kohtalo
kohtalon
kohtalosta
kohtana
kohtasi
kohtasivat
kohtauksen
kohtauksessa
kohtaukset
kohtauksia
kohtaus
kohteeksi
kohteen
kohteena
kohteeseen
kohteesta
kohteet
kohteiden
kohteisiin
kohteista
kohteita
kohti
kohtia
kohtiin
kohtuullisen
kohu
kohua
kohun
koi
koija
koillis
koilliseen
koillisessa
koillisosassa
koillispuolella
koino
koira
koiraa
koiraalla
koiraan
koiraat
koiran
koirarotu
koiras
koirasta
koirat
koiria
koirien
koistinen
koittaa
koivisto
koiviston
koivu
koivula
koivun
koivunen
koivuniemi
kojo
kok
kokea
kokee
kokeellinen
kokeellisen
kokeen
kokeessa
kokeet
kokeiden
kokeilemaan
kokeili
kokeilla
kokeiltiin
kokeilu
kokeita
kokema
kokemuksen
kokemukset
kokemuksia
kokemuksistaan
kokemus
kokemusta
kokemusten
kokeneet
kokenut
kokevat
koki
kokivat
kokki
kokko
kokkola
kokkolan
kokkolassa
kokkonen
kokla
koko
kokoa
kokoaa
kokoamaan
kokoelma
kokoelmaa
kokoelmaan
kokoelmalevy
kokoelmalla
kokoelman
kokoelmassa
kokoelmasta
kokoelmat
kokoelmia
kokoelmien
kokoelmiin
kokoelmissa
kokoelmista
kokoinen
kokoisen
kokoisia
kokonaan
kokonainen
kokonais
kokonaisen
kokonaisia
kokonaiskilpailun
kokonaiskilpailussa
kokonaisluku
kokonaisma
kokonaispinta
kokonaispisteissa
kokonaispituus
kokonaista
kokonaisuudeksi
kokonaisuuden
kokonaisuudessaan
kokonaisuus
kokonaisuuteen
kokonaisuutena
kokonaisuutta
kokonsa
kokoomuksen
kokoomus
kokoon
kokoonpano
kokoonpanolla
kokoonpanon
kokoonpanoon
kokoonpanossa
kokoonpanosta
kokoonpanot
kokoontui
kokoontuivat
kokoontunut
kokoontuu
kokoontuvat
kokopa
kokopitka
kokosi
kokoukseen
kokouksen
kokouksessa
kokouksia
kokouksissa
kokous
kokousta
kola
kolari
kolarin
kolaritestista
kolehmainen
koli
kolibri
kolikoita
kolikot
kollegansa
kollektiivinen
kolmanneksen
kolmanneksi
kolmannella
kolmannelle
kolmannen
kolmannes
kolmannessa
kolmannesta
kolmanteen
kolmantena
kolmas
kolmasosa
kolmasosaa
kolmasosan
kolmasti
kolmastoista
kolmatta
kolme
kolmea
kolmeen
kolmeksi
kolmekymmenta
kolmella
kolmelle
kolmelta
kolmen
kolmena
kolmenkymmenen
kolmessa
kolmesta
kolmesti
kolmetoista
kolmikko
kolmiloikassa
kolmiloikkaaja
kolminaisuuden
kolminkertainen
kolmio
kolmion
kolmiosainen
kolmipa
kolmivuotisen
kolmonen
kolumbia
kolumbialainen
kolumbian
kolumbiassa
kolumbus
kolumneja
kolumnisti
kom
komarov
kombat
komea
komedia
komediaelokuva
komedian
komediasarjassa
komediassa
komeetta
komennettiin
komensi
komentaja
komentajaksi
komentajan
komentajana
komentama
komento
komentoonsa
komi
komin
komisario
komissaari
komissio
komission
komitea
komitean
komitet
kommentit
kommentoi
kommentteja
kommentti
kommodori
kommun
kommune
kommuner
kommunismi
kommunismin
kommunisteja
kommunisti
kommunistien
kommunistinen
kommunistipuolueen
kommunistiseen
kommunistisen
kommunistit
kommunvis
komparatiivi
komparatiivimuoto
komponentit
komponentteja
komponentti
komponenttien
komppania
komppaniaan
komppanian
komppanianpa
komppaniassa
komulainen
kon
konditionaalin
kone
koneella
koneelle
koneen
koneeseen
koneessa
koneesta
koneet
koneiden
koneilla
koneisiin
koneissa
koneista
koneita
konekiva
konepaja
konepajan
konetta
konetyypin
konetyyppi
konfederaation
konferenssi
konferenssin
konferenssissa
konflikti
konfliktin
kong
kongo
kongon
kongressi
kongressin
kongressissa
konjunktiivin
konkurssiin
konkurssin
konna
konnegaatiomuoto
konrad
konsekraattorina
konsepti
konserni
konserniin
konsernin
konserteissa
konsertin
konsertissa
konsertit
konsertoi
konsertteja
konsertti
konserttia
konserttien
konsertto
konservatiivien
konservatiivinen
konservatorion
konservatoriossa
konsolin
konsta
konstaapeli
konstantin
konstantinopoliin
konstantinopolin
konstantinos
konstantinus
konsulaatti
konsuli
kontiainen
kontio
kontiolahden
kontioma
kontra
kontrabasso
konttinen
konttori
konttorin
kontula
koo
koodi
koodia
koodin
koodipaikka
kookas
kookoo
kookoon
kooksi
koolle
kooltaan
koomikko
koon
koonnut
koordinaatit
koordinoi
koossa
koosta
koostui
koostuivat
koostumus
koostunut
koostuu
koostuva
koostuvan
koostuvat
koota
kootaan
koottiin
koottu
kootut
koovee
kop
kopio
kopioita
kopiota
koponen
kor
koraani
koraanin
koraanissa
koran
korea
koreaa
koreaan
koreaksi
korealainen
korean
koreassa
koreografi
korfun
korhonen
korhosen
kori
korihait
korin
korintin
koripallo
koripalloa
koripalloilija
koripalloliitto
koripallon
koripallovalmentaja
korisliiga
korisliigan
korisliigassa
koriste
koristekasvina
koristeltu
korjaa
korjaamaan
korjasi
korjata
korjattavaksi
korjattiin
korjattu
korjauksia
korjaus
korkea
korkeaa
korkeaan
korkeakoulu
korkeakoulujen
korkeakoulun
korkeakoulussa
korkeakoulusta
korkeakoulututkinnon
korkeaksi
korkealla
korkealle
korkeammalla
korkeammalle
korkeamman
korkeampi
korkeampia
korkean
korkeassa
korkeasta
korkeat
korkeiden
korkeimmalla
korkeimmalle
korkeimman
korkeimmassa
korkeimmat
korkeimmillaan
korkeimpaan
korkein
korkeinta
korkeintaan
korkeita
korkeudella
korkeudelle
korkeuden
korkeudessa
korkeudesta
korkeus
korkeushyppa
korkeushyppy
korkeushypyssa
korkeuteen
korkeutta
korko
korkuinen
korona
koronaviruksen
koronaviruspandemian
korostaa
korostetaan
korosti
korostuu
korotettiin
korpela
korpi
korpisela
korppi
korpraali
korrigerad
korruptio
korruption
korruptiosta
korruptiota
kortelainen
kortesuo
kortilla
kortin
kortit
kortteja
kortteli
korttelin
korttelit
kortti
korttia
korttien
koruja
korva
korvaa
korvaajaksi
korvaamaan
korvannut
korvasi
korvasivat
korvat
korvata
korvataan
korvattiin
korvattu
korvauksen
korvauksia
korvaus
korvausta
korven
korvetti
kos
koska
koskaan
koske
koskea
koskee
koskela
koskelan
kosken
koskenkyla
koskenniemi
koskenut
kosketinsoitin
kosketinsoittaja
kosketinsoittimet
koskettaa
koskettimet
kosketus
kosketusna
koskeva
koskevaa
koskevan
koskevassa
koskevat
koskevia
koskevien
koskevissa
koskevista
koski
koskien
koskimies
koskinen
koskisen
koskivat
kosmonautti
kosmos
kosola
kosonen
kosovo
kosovon
kostaa
kostea
kosteat
kosteilla
kosteus
kosteutta
kosti
kostiainen
kosto
kostoa
kostoksi
koston
kota
kotelo
koti
kotia
kotiela
kotiin
kotiinsa
kotikatu
kotikaupungissaan
kotikaupunkiinsa
kotikaupunkinsa
kotikenta
kotikentta
kotikyla
kotilainen
kotimaa
kotimaahan
kotimaahansa
kotimaan
kotimaansa
kotimaassa
kotimaassaan
kotimainen
kotimaisen
kotimaiset
kotimaisia
kotimaista
kotimaisten
kotinsa
kotiottelunsa
kotiottelussa
kotipaikka
kotisatama
kotiseutu
kotiseutumuseo
kotiseutuyhdistys
kotisivu
kotisivuilla
kotisivut
kotiteollisuus
kotivuori
kotka
kotkan
kotkassa
kotoa
kotoaan
kotobank
kotoisin
kotoistus
kotona
kotonaan
kotopera
kotus
kou
koukku
koulu
koulua
kouluihin
kouluika
kouluissa
kouluja
koulujen
koulukunnan
koulukunta
koulukuntaan
koululla
koululle
koulun
koulunka
koulunsa
koulurakennus
koulussa
koulusta
koulut
koulutettiin
koulutettu
kouluttaa
kouluttaja
kouluttajana
koulutti
koulutukseen
koulutukseltaan
koulutuksen
koulutuksensa
koulutuksessa
koulutuksesta
koulutus
koulutusja
koulutuskeskus
koulutusohjelma
koulutusta
kouluun
kouvola
kouvolaan
kouvolan
kouvolassa
kov
kova
kovaa
kovac
kovalainen
kovalla
kovan
kovassa
kovasti
kovat
kovia
kovin
kovinkaan
kovuus
koz
kp
kpl
kpv
kqkq
kr
kra
kraatteri
kraft
kramer
kreeta
kreetan
kreik
kreikaksi
kreikan
kreikankielinen
kreikassa
kreikasta
kreikka
kreikkaa
kreikkaan
kreikkalainen
kreikkalais
kreikkalaisen
kreikkalaisessa
kreikkalaisesta
kreikkalaiset
kreikkalaisia
kreikkalaista
kreikkalaisten
kreis
kreivi
kreivikunnan
kreivikunnassa
kreivikunta
kreivin
kreivita
kremlin
krenato
kriisi
kriisiin
kriisin
kriitikko
kriitikoiden
kriitikoilta
kriitikot
kriittinen
kriittisen
kriittisesti
kriittista
krimin
kris
krista
kristen
krister
kristian
kristiina
kristillinen
kristillisdemokraatit
kristillisdemokraattien
kristillisen
kristillisessa
kristilliset
kristillisia
kristillista
kristillisten
kristin
kristina
kristinusko
kristinuskoa
kristinuskon
kristinuskoon
kristitty
kristittyja
kristittyjen
kristityn
kristityt
kristoffer
kristuksen
kristus
kriteerit
kritiikin
kritiikki
kritiikkia
kritisoi
kritisoitiin
kritisoitu
kro
kroaattien
kroatia
kroatiaksi
kroatialainen
kroatian
kroatiassa
krohn
kroll
kronikan
kronikka
kru
kruunattiin
kruunu
kruunua
kruunulle
kruunun
kruununperija
kruununprinssi
kruunusta
ks
kseen
ksella
ksen
ksena
kseni
ksenofon
ksensa
ksessa
ksesta
kset
ksi
ksia
ksiin
ksika
ksinen
ksissa
ksista
ksja
ksma
ksml
ksy
ksya
ksyi
ksyiva
ksylaskussa
ksyma
ksyminen
ksyn
ksyneet
ksynna
ksynta
ksynyt
ksyta
ksytta
ksyttiin
ksytty
ksyttya
ksyva
ksyy
kt
ktp
kts
ku
kuala
kuha
kuhmo
kuhmoinen
kuhmoisissa
kuhmoisten
kuhmon
kuhunkin
kui
kuikka
kuin
kuinka
kuisma
kuitenkaan
kuitenkin
kuiva
kuivaa
kuivan
kuivana
kuivat
kuivia
kuivilla
kuivuus
kujala
kuka
kukaan
kukan
kukat
kukin
kukinto
kukistaa
kukistamaan
kukistettiin
kukistettuaan
kukisti
kukistivat
kukistui
kukistuttua
kukka
kukkaa
kukkia
kukkien
kukkii
kukko
kukkonen
kukkula
kukkulalla
kukkulalle
kukkulan
kukkulat
kukoisti
kulje
kuljetetaan
kuljetettiin
kuljettaa
kuljettaja
kuljettajaa
kuljettajan
kuljettajana
kuljettajat
kuljettajien
kuljettamaan
kuljettamiseen
kuljettavat
kuljetti
kuljettivat
kuljetukseen
kuljetus
kulkea
kulkee
kulkemaan
kulkenut
kulkeva
kulkevaa
kulkevan
kulkevat
kulki
kulkivat
kulku
kulkua
kulkuri
kulkurin
kulkuva
kullakin
kullan
kullekin
kullervo
kulloinkin
kulma
kulmaa
kulmaan
kulmala
kulman
kulmassa
kulmasta
kulmat
kulmia
kulmien
kulmista
kulosaaren
kulta
kultaa
kultaan
kultainen
kultaisella
kultaisen
kultaiset
kultaista
kultamitalia
kultamitalin
kultaseppa
kultin
kultti
kulttuureissa
kulttuuri
kulttuuria
kulttuuriela
kulttuurien
kulttuurihistoria
kulttuurihistoriallisesti
kulttuuriin
kulttuurikeskus
kulttuurimaisema
kulttuuriministerio
kulttuurin
kulttuurinen
kulttuuriperinno
kulttuuriperinto
kulttuurirahaston
kulttuurisesti
kulttuurissa
kulttuurista
kulttuurit
kulttuuritalo
kulttuuriympa
kultur
kuluessa
kului
kulun
kulunut
kulut
kuluttaa
kuluttaja
kuluttajien
kuluttajille
kuluttua
kulutuksen
kulutus
kulutusta
kuluu
kumar
kumi
kumma
kummallakin
kummallekin
kummankin
kummassakin
kummastakin
kummatkin
kummeli
kumminaan
kumminkin
kummiseta
kummitus
kumosi
kumota
kumottiin
kumpaakin
kumpaankin
kumpi
kumpikaan
kumpikin
kumppani
kumppaninsa
kumppanit
kumpulainen
kun
kung
kunhan
kuni
kuningas
kuningaskunnan
kuningaskunnassa
kuningaskunta
kuningaskuntaa
kuningaskuntaan
kuningasta
kuningatar
kuningattaren
kuninkaaksi
kuninkaalle
kuninkaallinen
kuninkaalliseen
kuninkaallisen
kuninkaallisessa
kuninkaalliset
kuninkaallisten
kuninkaan
kuninkaana
kuninkaat
kuninkaiden
kunkin
kunnaksi
kunnalle
kunnallinen
kunnallisliitto
kunnallisneuvos
kunnallisvaakunat
kunnallisvaaleissa
kunnallisvaalit
kunnallisyksikko
kunnallisyksiko
kunnan
kunnanjohtaja
kunnanvaltuusto
kunnanvaltuuston
kunnanvaltuustossa
kunnas
kunnassa
kunnasta
kunnat
kunnes
kunnia
kunniaa
kunniaja
kunniakseen
kunniaksi
kunniamaininta
kunniamerkin
kunniamerkit
kunniamerkki
kunnian
kunnianosoitus
kunniatohtori
kunniatohtorin
kunnioittaa
kunnioitusta
kunnissa
kunnista
kunnittain
kunnolla
kunnon
kunnossa
kunnostettiin
kunnostettu
kunnostus
kunst
kunta
kuntaa
kuntaan
kuntajakolain
kuntajaon
kuntakeskus
kuntalaisten
kuntaliitoksen
kuntauudistuksessa
kuntavaaleissa
kuntavaalit
kuntayhtyma
kuntia
kuntien
kuntiin
kunto
kuntoon
kuokkanen
kuolan
kuole
kuolee
kuolema
kuolemaa
kuolemaan
kuolemaansa
kuoleman
kuolemansa
kuolemantuomion
kuolemasta
kuolematon
kuolettavasti
kuolevat
kuoli
kuoliaaksi
kuolinilmoitus
kuolinpa
kuolivat
kuolla
kuolleeksi
kuolleen
kuolleena
kuolleet
kuolleiden
kuolleista
kuolleisuus
kuolleita
kuollessa
kuollessaan
kuollut
kuollutta
kuoltua
kuoltuaan
kuono
kuopio
kuopion
kuopioon
kuopiossa
kuoppa
kuoppama
kuoren
kuori
kuoriutuvat
kuorma
kuoro
kuoron
kuoronjohtaja
kuortaneen
kuosmanen
kupari
kuparia
kuparin
kupeessa
kupera
kupiainen
kupla
kups
kurikan
kurikka
kurja
kurki
kurkku
kuronen
kurri
kursivointi
kursseja
kurssi
kurssia
kurssilla
kurssin
kurssit
kurt
kurtto
kuru
kurun
kus
kussakin
kustaa
kustakin
kustannuksella
kustannukset
kustannuksia
kustannus
kustannuskiila
kustannusliike
kustannusosakeyhtio
kustannusten
kustannusyhtio
kustansi
kustantaja
kustantajan
kustantamana
kustantamo
kustantamon
kustantanut
kustavi
kusti
kutakin
kuten
kutoja
kuts
kutsu
kutsua
kutsui
kutsuivat
kutsumaan
kutsun
kutsunut
kutsutaan
kutsuttiin
kutsuttu
kutsuttua
kutsuttuja
kutsutun
kutsutut
kutsuu
kutsuvat
kuu
kuuba
kuubalainen
kuuban
kuubassa
kuudeksi
kuudella
kuuden
kuudenneksi
kuudennella
kuudennen
kuudennessa
kuudentena
kuudes
kuudessa
kuudesta
kuudesti
kuuhun
kuukaudeksi
kuukauden
kuukaudessa
kuukaudet
kuukausi
kuukausia
kuukausien
kuukausittain
kuukautta
kuula
kuulan
kuulantyo
kuule
kuulee
kuulemaan
kuuli
kuulin
kuulla
kuullaan
kuullessaan
kuullut
kuulostaa
kuultava
kuultiin
kuultu
kuultuaan
kuulu
kuulua
kuului
kuuluisa
kuuluisaksi
kuuluisan
kuuluisi
kuuluisia
kuuluisien
kuuluisimpia
kuuluisin
kuuluisuuteen
kuuluivat
kuuluneen
kuuluneet
kuuluneita
kuulunut
kuuluu
kuuluva
kuuluvaa
kuuluvaksi
kuuluvalla
kuuluvan
kuuluvana
kuuluvassa
kuuluvasta
kuuluvat
kuuluvia
kuuluvien
kuuluviksi
kuuluvilla
kuuluville
kuuluvista
kuuma
kuumaa
kuuman
kuumat
kuume
kuumennettaessa
kuumentamalla
kuumia
kuun
kuunnella
kuunnelma
kuuntele
kuuntelemaan
kuunteli
kuunteluohjeet
kuurojen
kuusamo
kuusamon
kuusamossa
kuusankosken
kuusankoski
kuusela
kuusen
kuusi
kuusinen
kuusisto
kuusitoista
kuussa
kuusta
kuut
kuuta
kuuteen
kuutiokilometria
kuutiometria
kuutta
kuutti
kuv
kuva
kuvaa
kuvaaja
kuvaajana
kuvaajassa
kuvaamaan
kuvaan
kuvaannollisesti
kuvaava
kuvaavan
kuvaavat
kuvailee
kuvaili
kuvaillaan
kuvaillut
kuvailtiin
kuvailtu
kuvalehden
kuvalehti
kuvan
kuvannut
kuvanveista
kuvasi
kuvasivat
kuvassa
kuvasta
kuvastaa
kuvat
kuvata
kuvataan
kuvataiteen
kuvataiteilija
kuvataiteilijamatrikkeli
kuvattiin
kuvattu
kuvattuna
kuvauksen
kuvaukset
kuvauksia
kuvauksissa
kuvaus
kuvausta
kuvausten
kuvernementin
kuvernementti
kuverno
kuvia
kuvien
kuvin
kuvio
kuvioita
kuvion
kuviot
kuvissa
kuvista
kuvitella
kuvitettu
kuvittaja
kuvittanut
kuvitteellinen
kuvitteelliseen
kuvitus
kuwait
kuwaitin
kv
kva
kvaak
kvartetti
kw
ky
kya
kyenneet
kyennyt
kyeta
kyetty
kyi
kykene
kykenee
kykenema
kykeneva
kykeni
kykeniva
kyky
kykya
kykyja
kykynsa
kyla
kyle
kylia
kylie
kylien
kyliin
kylissa
kylista
kyljessa
kylkeen
kylla
kyllikki
kyllin
kyllo
kylma
kylmia
kylpyla
kylva
kylvo
kyma
kymen
kymenlaakson
kymenlaaksossa
kymi
kymia
kymijoen
kymin
kymmene
kymmeneen
kymmenella
kymmenen
kymmenenneksi
kymmenennen
kymmenes
kymmenessa
kymmenesta
kymmenia
kymmenien
kymmenisen
kymmenkunta
kymmenta
kyna
kynnet
kynnyksella
kynsiveden
kynta
kynttila
kynyt
kyo
kyoto
kypa
kyppi
kyproksella
kyproksen
kypros
kypsa
kyrillinen
kyrka
kyro
kyse
kyseenalaistaa
kyseessa
kyseinen
kyseiseen
kyseisella
kyseisen
kyseisena
kyseisessa
kyseisesta
kyseiset
kyseista
kyselyn
kyselyssa
kysy
kysya
kysyi
kysyin
kysyma
kysymykseen
kysymyksen
kysymyksessa
kysymykset
kysymyksia
kysymyksiin
kysymyksissa
kysymyksista
kysymys
kysymysta
kysymysten
kysynna
kysynta
kysyta
kysyttiin
kysyy
kyta
kytkea
kytkenta
kytketty
kytkin
kytko
kyto
kytta
kyu
kyva
kyvia
kyviin
kyvin
kyvissa
kyvyn
kyvyt
kyvytto
kyvyys
kyvyytta
kyy
kyydissa
kyyhky
kyyna
kyynel
kyyneleet
kyyro
kyytiin
kz
kɑ
l
la
laadittiin
laadittu
laadun
laadusta
laaja
laajaa
laajaan
laajalla
laajalle
laajalti
laajan
laajassa
laajasta
laajasti
laajat
laajemman
laajemmin
laajempaa
laajempaan
laajempi
laajenee
laajeneminen
laajeni
laajennettiin
laajennettu
laajennuksen
laajennus
laajensi
laajentaa
laajentamaan
laajentamalla
laajentunut
laajimmillaan
laajin
laajoja
laajuinen
laajuus
laakkonen
laakso
laaksoa
laakson
laaksonen
laaksoon
laaksossa
laaksosta
laamanni
laati
laatia
laatikko
laatima
laatimaan
laatinut
laativat
laatokan
laatokka
laatta
laatu
laatua
laatuun
lab
label
labor
laboratorio
laboratorion
laboratoriossa
laboratory
labour
lac
lada
ladata
ladattavana
ladattavia
ladattavissa
ladies
lady
laella
laertios
laga
lago
lagus
lahden
lahdessa
lahdesta
lahja
lahjakas
lahjaksi
lahjan
lahjoitettiin
lahjoittaa
lahjoitti
lahjoja
lahko
lahkon
lahkoon
lahna
lahtea
lahteen
lahti
lahtinen
lai
laidalla
laidan
laidassa
laiha
laihia
laihian
laiho
laiksi
laila
lailla
laillinen
laillisen
laillisesti
laillista
laiminlyo
lain
laina
lainaa
lainalla
lainalle
lainan
lainasana
lainasi
lainasopimuksella
lainattiin
lainattu
lainaus
laine
laineen
lainen
lainkaan
lainoja
lainsa
laiska
laissa
laista
lait
laita
laitaan
laitahyo
laitapuolustaja
laite
laitetaan
laitetta
laitettiin
laitettu
laitila
laitilan
laitinen
laitokseen
laitoksella
laitoksen
laitoksessa
laitoksesta
laitokset
laitoksia
laiton
laitonta
laitos
laitosta
laitosten
laittaa
laitteen
laitteessa
laitteesta
laitteet
laitteiden
laitteissa
laitteisto
laitteiston
laitteita
laittoi
laittomasti
laituri
laiva
laivaa
laivaan
laivalla
laivan
laivanvarustaja
laivassa
laivasta
laivasto
laivastoa
laivastolle
laivaston
laivastontelakalta
laivastoon
laivastossa
laivat
laivoihin
laivoilla
laivoja
laivojen
laivue
laivueen
laivueeseen
lajeihin
lajeilla
lajeissa
lajeista
lajeja
laji
lajia
lajien
lajiin
lajikkeita
lajiksi
lajilla
lajille
lajin
lajina
lajinsa
lajintuntemuksen
lajissa
lajissaan
lajista
lajit
lajitietokeskus
lajityypin
lajunen
lake
lakeja
lakers
lakes
laki
lakia
lakien
lakiin
lakikorkeus
lakimies
lakimiesliiton
lakin
lakisa
lakitieteen
lakkaa
lakkasi
lakkautettiin
lakkautettu
lakkauttaa
lakkauttamisen
lakkauttamista
lakkautti
lakki
lakko
lakon
lalli
lam
lama
laman
lamar
lamb
lambda
lambert
lammas
lammella
lammen
lammi
lammin
lampaan
lampaat
lampaita
lampe
lampea
lampi
lampia
lampinen
lamppu
lampun
lan
lana
lancaster
lance
lancia
land
landareal
lander
landestopografie
landing
lands
landscape
landtdagen
lane
lang
lange
langin
language
languages
langue
lanham
lanka
lankan
lankinen
lantma
laos
laosin
lapa
lapin
lapinja
lapinlahden
lapissa
lapista
lappaja
lappalainen
lappeenrannan
lappeenrannassa
lappeenranta
lappeenrantaan
lappi
lappia
lappiin
laps
lapselle
lapsen
lapsena
lapseni
lapsensa
lapsesta
lapset
lapsi
lapsia
lapsiaan
lapsiin
lapsilla
lapsille
lapsina
lapsista
lapsuuden
lapsuudenysta
lapsuudessaan
lapsuudesta
lapsuus
lapsuutensa
lapua
lapualla
lapuan
lara
large
largest
lari
larin
larry
lars
larsen
larson
larsson
las
laser
lasi
lasia
lasin
lasit
laske
laskea
laskee
laskemaan
laskemalla
laskeminen
laskennan
laskenta
laskenut
lasker
lasketa
lasketaan
laskettiin
laskettu
laskettuna
laskeutua
laskeutui
laskeutuu
laskeva
laskevan
laskevat
laski
laskien
laskivat
lasku
laskua
laskujoki
laskun
laskuoja
laskussa
laskuun
lasse
lassen
lassi
lassila
last
lasta
lastaan
lasten
lastenkirjailija
lastensa
lat
lataus
lataussivu
late
later
latest
latin
latina
latinaa
latinaksi
latinalainen
latinalaisen
latinalaisessa
latinan
latinankielinen
lattia
lattialla
lattialle
lattian
latva
latvala
latvia
latviaksi
latvialainen
latvian
latviassa
lau
lauantai
lauantain
lauantaina
laudan
laukaa
laukaan
laukaisi
laukaista
laukaistiin
laukaisu
laukauksen
laukaus
laukausta
laukkanen
laukoo
laula
laulaa
laulaen
laulaja
laulajaa
laulajaan
laulajaksi
laulajan
laulajana
laulajat
laulajia
laulamaan
laulanut
laulava
laulavat
lauletaan
lauloi
lauloivat
laulu
laulua
lauluista
lauluja
laulujen
laulukilpailu
laulukilpailun
laulukilpailussa
laulukilpailuun
laulukirja
laulun
lauluntekija
laulussa
laulusta
laulut
lauluun
lauma
lauman
launch
launches
laura
laure
laurell
lauren
laurence
laurent
lauri
laurie
laurila
laurin
lausanne
lause
lauseen
lauseessa
lauseet
lauseita
lauseke
lausekkeessa
lausetta
lausua
lausui
lausunnon
lausunto
lausuntoja
lausutaan
lausuu
lauta
lautakunnan
lautakunta
lautta
lauttasaaren
lava
laval
lavalla
lavalle
lavan
lavastaja
lavastus
law
lawrence
lawrencen
laws
lawson
lay
layout
lb
lc
ld
lder
ldin
le
lea
lead
leader
leaders
leadership
leading
leads
leaf
leafs
leafsin
league
leaguen
leaguessa
lean
leander
learn
learning
least
leave
leaves
leben
lech
leclerc
led
lee
leeds
leen
leena
leevi
left
legacy
legal
legend
legenda
legendaarinen
legendaarisen
legendan
legendary
legendat
legends
legio
legion
legioona
legioonan
lego
lehdelle
lehden
lehdessa
lehdesta
lehdet
lehdissa
lehdista
lehdisto
lehdon
lehikoinen
lehma
lehmann
lehmus
lehtea
lehteen
lehti
lehtia
lehtien
lehtiin
lehtima
lehtimies
lehtinen
lehtipuu
lehtisen
lehto
lehtola
lehtonen
lehtori
lehtorina
lehtosen
lehva
lei
leicester
leiden
leif
leigh
leijona
leijonan
leijonat
leijonien
leikata
leikataan
leikattiin
leikattu
leikin
leikit
leikkaa
leikkasi
leikkauksen
leikkaus
leikki
leikkia
leikkimielinen
leikola
leila
leimaa
leimasi
lein
leino
leinon
leinonen
leipa
leipomo
leipzig
leipzigin
leipzigissa
leiri
leiriin
leirilla
leirille
leirin
leirinta
leissa
leiva
leiviska
leivo
leja
lek
leksikon
lel
lemmen
lemmikki
lemminka
lempa
lempea
lempi
lempia
lempinimella
lempinimelta
lempinimen
lempinimi
len
lena
lenin
leningrad
leningradin
leningradissa
leninin
lenna
lennart
lennettiin
lennolla
lennon
lennonin
lennot
lensi
lensiva
lenta
lento
lentoa
lentoaika
lentoasema
lentoasemaa
lentoasemalla
lentoasemalle
lentoasemalta
lentoaseman
lentoasemat
lentoja
lentojen
lentokenta
lentokentta
lentokone
lentokoneen
lentokoneet
lentokoneiden
lentokoneita
lentokonetta
lentolaivue
lentoma
lentomatka
lentoon
lentoonla
lentopallo
lentopalloilija
lentopalloliitto
lentopallon
lentotukialus
lentotukikohta
lentoyhtio
leo
leon
leona
leonard
leonardo
leone
leonen
leonid
leopard
leopold
lepa
lepidoptera
lepinka
lepisto
lepo
leppa
leq
ler
leroy
les
leskeksi
lesken
leski
leskinen
leskisen
lesley
leslie
less
lessons
lester
let
letter
letters
lev
leva
levea
leveita
level
leveys
leveytta
levi
levia
levikki
levin
levine
levinneet
levinneisyys
levinneisyysalue
levinneisyysalueen
levinnyt
levisi
levisiva
levita
levitta
levitti
levon
levoton
levottomuudet
levottomuuksia
levottomuuksien
levy
levya
levyarvio
levyarvostelu
levyilla
levyinen
levyista
levyja
levyjen
levykauppa
levylla
levylle
levylta
levymerkilla
levymerkille
levymerkki
levyn
levyna
levynsa
levypalloa
levysta
levyt
levytetty
levytta
levytti
levytykset
levytyksia
levytys
levytyssopimuksen
lewandowski
lewis
lewisin
lex
lexicon
lexikon
lez
lg
lgussa
li
lia
liaikainen
liaikaiseksi
liaikaisen
liaikaisena
liaikaisesti
liam
lian
lib
libanon
libanonin
libanonissa
libe
liber
liberaali
liberaalien
liberaalit
liberal
liberation
liberia
liberian
liberty
libraries
library
libretto
libya
libyan
libyassa
liczbach
liddell
lie
liechtenstein
liechtensteinin
lied
liedon
liekehtiva
liekki
lieksa
lieksan
lien
liene
lienee
lieneva
liera
lieriin
lierio
lierissa
lies
liesja
lieto
liettua
liettuaksi
liettualainen
liettuan
liettuassa
lieva
lieventa
lievitta
life
liga
ligan
ligassa
light
lightning
lights
ligue
liha
lihaa
lihakset
lihan
lihansyo
lihas
lihasten
lihava
lihavointi
lihavoitu
liiaksi
liiallinen
liian
liiga
liigaa
liigaan
liigacup
liigacupin
liigadebyyttinsa
liigajoukkue
liigajoukkueen
liigajoukkueessa
liigamestaruuden
liigan
liigaottelua
liigaottelussa
liigassa
liigasta
liigauransa
liika
liikaa
liikanen
liike
liikehdinta
liikema
liikemies
liikenne
liikennepaikka
liikennetta
liikenneva
liikennevirasto
liikenno
liikenteelle
liikenteen
liikenteeseen
liikenteessa
liikenteesta
liiketaloustiede
liiketoiminnan
liiketoiminta
liiketoimintaa
liiketta
liikevaihdosta
liikevaihto
liikkeella
liikkeelle
liikkeen
liikkeeseen
liikkeessa
liikkeesta
liikkeet
liikkeiden
liikkeista
liikkeita
liikkua
liikkui
liikkuivat
liikkumaan
liikkuminen
liikkumisen
liikkumista
liikkuu
liikkuva
liikkuvan
liikkuvat
liikkuvia
liiku
liikunnan
liikunta
liikuntaa
liikuttaa
liimatainen
liin
liina
liisa
liisan
liita
liite
liiteta
liitetta
liitettiin
liitetty
liiton
liitossa
liitosta
liitot
liitta
liitti
liitto
liittoa
liittojen
liittolainen
liittolaisia
liittoon
liittopa
liittotasavallan
liittouma
liittouman
liittoutui
liittoutuneet
liittoutuneiden
liittovaltio
liittovaltion
liittya
liittyen
liittyi
liittyiva
liittyma
liittyminen
liittymista
liittyneen
liittyneet
liittynyt
liittyva
liittyvia
liittyvien
liittyviin
liittyvissa
liittyvista
liittyy
liity
liityttya
liivi
liivila
liivinmaan
lika
likainen
like
liki
likimain
liko
likohtaus
likolampi
lil
lilius
lilja
lilla
lille
lillehammerin
lillehammerissa
lilli
lillisesti
lilly
lilta
lily
lim
lima
limaa
limerella
limerelle
limeren
limerkki
limingan
limit
limited
limits
lin
lina
lincoln
lincolnin
lind
linda
lindahl
lindberg
lindblom
linde
lindell
lindelo
lindeman
linder
lindfors
lindgren
lindgrenin
lindh
lindholm
lindholmin
lindman
lindqvist
lindroos
lindsay
lindstro
line
lineaarinen
lineen
lineena
lineet
lineiden
lineisiin
lineissa
lineita
linen
lines
ling
lingua
linja
linjaa
linjalaiva
linjalla
linjalle
linjan
linjasta
linjat
linjoilla
linjoja
linjojen
link
linkedin
linkin
linkit
linkkeja
linkki
linko
linkola
links
linna
linnaa
linnaan
linnaeus
linnake
linnakkeen
linnala
linnan
linnanma
linnassa
linnasta
linnavuori
linne
linnoituksen
linnoituksia
linnoitus
linnoitusta
linnuille
linnuista
linnun
linnunradan
linnuntieta
linnut
linpita
linsa
lintu
lintua
lintuihin
lintuja
lintujen
lintulaji
lintulajia
lintulajien
lintusuku
lintutieteilija
lintutieto
linus
linux
lio
lion
lionel
lions
liperi
liperin
lipponen
lipposen
lippu
lippua
lippuja
lippulaiva
lippulaivana
lipun
lipunkantajana
lipussa
liput
liquid
lirauhan
lis
lisa
lisarjan
liseen
liseksi
lisella
liselle
liselta
lisen
lisena
lisensiaatiksi
lisensiaatti
lisenssilla
lisenssin
lisessa
lisesta
lisesti
liset
lisia
lisiin
lisilla
lisissa
lisista
lisko
lissa
lissabon
lissabonin
lissabonissa
list
lista
listaa
listalla
listalle
listalta
listan
listasi
listasijoitus
listassa
listattu
listaykko
listen
listing
listo
listoilla
listoille
listojen
lists
lit
lita
literary
literature
lithuania
litmanen
lito
litraa
litrainen
litran
litta
littea
litteratursa
litti
little
litto
lityksella
litys
liu
liukene
liukenee
liukkonen
liuottimiin
liv
live
livealbumi
livena
liverpool
liverpoolin
liverpoolissa
lives
living
livius
lix
liz
lja
lje
ljella
ljelle
ljen
ljenno
ljessa
ljet
ljilla
ljilta
ljitta
ljy
ljya
ljyn
ljysta
ljyva
lk
lka
lkea
lkeen
lkeenkin
lkeenpa
lkeensa
lkeinen
lkeiseen
lkeisen
lkeisena
lkeisessa
lkeiset
lkeista
lkela
lken
lkerung
lki
lkia
lkika
lkimma
lkipuoliskolla
lkisanat
lko
ll
lla
llainen
llaisen
llaisessa
llaisesta
llaiset
llaisia
llaista
llaisten
llc
lle
lleen
llekka
llen
ller
llerin
lli
llikko
lliko
llin
llinen
lliseen
lliseksi
llisen
llisena
llisessa
llisesta
llisesti
lliset
llisia
llisin
llisista
llissodan
llissodassa
llissota
llissotaa
llissotaan
llista
llisten
llisti
llisyyden
llisyys
llisyytta
llo
lloyd
llskapet
llstro
lly
llysta
llystetty
llysto
llytetty
llytta
lm
lmo
ln
lnin
lnissa
lo
local
locale
location
lock
locke
locken
lockheed
loeb
log
logan
logic
logiikan
logiikka
logistiikka
logo
logos
lohi
lohika
lohja
lohjalla
lohjan
lohko
lohkojen
lohkon
lohkonsa
lohkoon
lohkossa
loi
loimaa
loimaan
loimijoen
loire
loiren
loiri
lois
loistaa
loistava
loistavan
loisto
loivat
lok
loka
lokakuu
lokakuuhun
lokakuun
lokakuussa
lokakuusta
lokakuuta
loki
lokki
lokomotiv
lola
loma
lomassa
lombardian
london
lonely
long
lontoo
lontoon
lontooseen
lontoossa
lontoosta
looginen
look
looking
looks
loose
lopen
lopetettiin
lopetettu
lopetettua
lopetettuaan
lopettaa
lopettamaan
lopettamisen
lopettamisesta
lopettamista
lopettanut
lopettavansa
lopetti
lopettivat
lopez
loponen
loppi
loppu
loppua
loppuela
loppui
loppuivat
loppujen
loppukaudeksi
loppukaudella
loppukauden
loppukesa
loppukilpailussa
loppukilpailusta
loppukilpailuun
loppunut
loppuosa
loppuottelu
loppuotteluissa
loppuottelun
loppuottelussa
loppuotteluun
loppupa
loppupisteissa
loppupuolella
loppupuolelle
lopputulokseen
lopputuloksena
lopputuloksissa
lopputulos
lopputurnaukseen
lopputurnauksessa
loppuu
loppuun
loppuvaiheessa
loppuvuodesta
loppuvuonna
lopuksi
lopulla
lopulle
lopullinen
lopulliseen
lopullisen
lopullisesti
lopullista
lopulta
lopun
lopussa
lopusta
loput
loputtua
lord
lordi
lordin
lords
lorenz
lorenzo
los
lose
loss
lost
lot
lothar
lotta
lotus
lou
loud
louhi
louhivuori
louis
louise
louisiana
louisianan
louisin
louisissa
loukkaantui
loukkaantumisen
loukkaantumisista
loukkaantumisten
loukkaantunut
loukkasi
lounaaseen
lounaassa
lounais
lounaisosassa
lounaispuolella
lounas
lounasheimo
love
lovecraft
lovecraftin
lover
lovers
loves
loviisa
loviisan
lovin
loving
lovisa
low
lowe
lowell
lower
lp
ls
lsa
lsd
lsi
lsiva
lska
lt
lta
ltd
lti
lto
ltta
ltti
ltyi
ltyva
ltyy
lu
luc
luca
lucas
lucia
lucian
luciano
lucien
lucius
luck
lucky
lucy
ludvig
ludwig
lue
luennoi
luennoitsijana
luennot
luento
luentoja
luetaan
luetellaan
lueteltu
luettavaa
luettavissa
luettelo
luettelon
luetteloon
luettelossa
luettelot
luettiin
luettu
luettuna
luftwaffen
lui
luigi
luis
luisa
luita
luiz
luja
lujasti
luka
lukas
luke
lukea
lukee
lukema
lukemaan
lukemalla
lukemattomia
lukemin
lukeminen
lukemisen
lukemista
lukenut
lukeutui
lukeutuu
lukeutuvat
lukevat
luki
lukien
lukija
lukijaa
lukijan
lukijat
lukijoiden
lukio
lukion
lukioon
lukiossa
lukiosta
lukiota
lukkari
lukko
lukkoa
lukkoon
lukon
luku
lukua
lukuisat
lukuisia
lukuisiin
lukuisissa
lukuisista
lukuisten
lukuja
lukujen
lukuma
lukutaidon
lukutaito
lukuun
lukuvuoden
lukuvuonna
lulea
lumen
lumi
lumia
lumme
lumo
luna
lunar
lunasti
lund
lunda
lundberg
lundell
lundin
lundstro
lunta
luo
luoda
luodaan
luodattu
luoden
luoja
luojan
luokalla
luokan
luokassa
luokasta
luokat
luokissa
luokitella
luokitellaan
luokitellut
luokiteltiin
luokiteltu
luokitteli
luokittelu
luokittelun
luokituksen
luokitus
luokka
luokkaa
luokkaan
luokkansa
luokkia
luokkien
luokkiin
luokse
luokseen
luola
luolaan
luolan
luolassa
luoma
luomaan
luomalla
luoman
luomassa
luominen
luomiseen
luomisen
luomista
luomus
luona
luoneet
luonne
luonnehdittu
luonnehti
luonnehtii
luonnetta
luonnollinen
luonnollisen
luonnollisesti
luonnollisia
luonnollista
luonnon
luonnonpuisto
luonnonsuojelualue
luonnonsuojeluliitto
luonnontieteellinen
luonnontieteellisen
luonnontieteiden
luonnontieteilija
luonnonvaraisena
luonnonvarojen
luonnos
luonnossa
luonnosta
luonnostaan
luontainen
luontaisesti
luonteeltaan
luonteen
luonteensa
luonteesta
luonto
luontoa
luontoon
luontoportti
luonut
luopua
luopui
luopumaan
luopunut
luopuu
luostari
luostariin
luostarin
luostarinen
luostarissa
luostarit
luota
luotaimen
luotain
luoteeseen
luoteessa
luoteis
luoteisosassa
luoteispa
luoteispuolella
luotettava
luotettavia
luotettavuus
luoti
luotiin
luoto
luotsasi
luottaa
luottamuksen
luottamus
luottamusta
luottamustehta
luotti
luotu
luova
luovan
luovat
luovutettiin
luovutettu
luovuttaa
luovuttamaan
luovutti
luovuttiin
lupa
lupaa
lupasi
lupauksen
lupaus
lurker
lut
luterilainen
luterilaiseen
luterilaisen
luther
lutheran
lutherin
lutz
luu
luuk
luukka
luukkaan
luukkanen
luukkonen
luulaja
luulajan
luulee
luulen
luuli
luulin
luulivat
luultavasti
luultiin
luuma
luun
luuranko
luusua
luut
luuta
luutnantiksi
luutnantti
luvalla
luvan
luvannut
luvassa
luvattiin
luvattu
luvuilla
luvuilta
luvuin
luvulla
luvulle
luvulta
luvun
luvussa
luvusta
luvut
lux
luxemburg
luxemburgin
luz
lv
lvarez
lvaro
lvi
lvia
ly
lya
lydia
lyh
lyhenne
lyhenneluettelo
lyhennetta
lyhennetty
lyhennettyna
lyhenta
lyhentyma
lyhyeksi
lyhyella
lyhyemma
lyhyemmin
lyhyempi
lyhyempia
lyhyen
lyhyessa
lyhyesti
lyhyet
lyhyita
lyhyt
lyhytaikainen
lyhytelokuva
lyhytika
lyhytta
lyijy
lyka
lykka
lymysto
lyn
lynch
lynn
lynx
lyo
lyon
lyonin
lypuhelin
lyriikkaa
lys
lyseo
lyseon
lyseossa
lyseosta
lytta
lytys
lyyli
lyytika
lyytinen
m
ma
maa
maahan
maahanmuuton
maahanmuuttajia
maahanmuuttajien
maahanmuutto
maahenki
maaherra
maaherran
maahockey
maahockeypelaaja
maailma
maailmaa
maailmaan
maailmalla
maailmalle
maailman
maailmancup
maailmancupin
maailmancupissa
maailmanenna
maailmanhistoria
maailmanhistorian
maailmankaikkeuden
maailmankaikkeus
maailmanlaajuinen
maailmanlaajuisen
maailmanlaajuisesti
maailmanlaajuista
maailmanlistalla
maailmanlistan
maailmanmestari
maailmanmestarit
maailmanmestaruuden
maailmanmestaruus
maailmanmestaruuskilpailuihin
maailmanmestaruuskilpailuissa
maailmanmestaruuskilpailujen
maailmanmestaruuskilpailut
maailmanmestaruuskisoissa
maailmanmestaruutensa
maailmanmestaruutta
maailmanna
maailmanperinto
maailmansodan
maailmansodassa
maailmansota
maailmansotaa
maailmansotaan
maailmansotien
maailmassa
maailmasta
maailmojen
maajoukkue
maajoukkuedebyyttinsa
maajoukkueen
maajoukkueeseen
maajoukkueessa
maajoukkueet
maajoukkueissa
maajoukkuetasolla
maajoukkuetta
maaka
maakaasun
maakunnan
maakunnassa
maakunnasta
maakunnat
maakunnissa
maakunnista
maakunnittain
maakunta
maakuntaa
maakuntaan
maakuntamuseo
maakuntien
maalaama
maalaiskunnan
maalaiskunnassa
maalaiskunnasta
maalaiskunnat
maalaiskunta
maalaiskuntaa
maalaiskuntaan
maalaisliiton
maalaisliitto
maalannut
maalari
maalasi
maalata
maalattiin
maalattu
maalauksen
maalauksessa
maalaukset
maalauksia
maalaus
maalausta
maalaustaiteen
maalausten
maalein
maaleja
maali
maalia
maalien
maaliero
maaliin
maalikuninkuuden
maalilla
maalillaan
maalin
maalinsa
maalintekija
maalinteossa
maalipo
maalis
maaliskuu
maaliskuuhun
maaliskuun
maaliskuussa
maaliskuusta
maaliskuuta
maalisyo
maalit
maalivahdiksi
maalivahdin
maalivahti
maalivahtina
maalivahtivalmentaja
maalla
maalle
maallinen
maallisen
maalta
maamerkki
maamme
maan
maana
maanalainen
maanantai
maanantaina
maanja
maanka
maankohoamisen
maankohoumiin
maanmiehensa
maanmittaushallitus
maanmittauslaitoksen
maanmittauslaitos
maanosaliittojen
maanosan
maanpa
maanpakoon
maanpaossa
maanpetoksesta
maanpinnan
maansa
maanteitse
maantie
maantieajon
maantieajossa
maantiede
maantien
maantiepyo
maantieteellinen
maantieteellisen
maantieteellisesti
maantieteen
maantieteeseen
maantieteilija
maanviljelija
maanviljelijo
maanviljely
maanviljelya
maanviljelyn
maanviljelysneuvos
maao
maaottelua
maaotteluissa
maaottelun
maaottelunsa
maaottelussa
maapa
maapallo
maapalloa
maapallolla
maapallon
maapera
maapinta
maaria
maarian
maarianhamina
maarianhaminan
maarit
maaseudulla
maaseudulle
maaseudun
maaseutukaupunki
maassa
maasta
maasto
maastoa
maastohiihdon
maastohiihta
maastohiihto
maastojuoksun
maastokartalla
maaston
maastoon
maastopyo
maastossa
maat
maata
maataan
maatalouden
maataloudessa
maatalous
maataloutta
maatila
maatilaa
maatilalla
maatilan
maatunnus
maavoimat
maavoimien
mac
macdonald
macedonia
mach
machine
machines
macintosh
mack
mackenzie
macmillan
mad
madagaskarin
madame
madden
made
madeleine
madison
madness
madonna
madonnan
madrid
madridia
madridiin
madridin
madridissa
madsen
mae
mafia
mafian
mag
magazine
magazines
magdalena
maggie
magic
magna
magneettikenta
magneettikentta
magneettinen
magneettisen
magnetic
magnum
magnus
magyar
maha
mahdollinen
mahdolliseksi
mahdollisen
mahdollisena
mahdollisesta
mahdollisesti
mahdolliset
mahdollisia
mahdollisimman
mahdollisista
mahdollista
mahdollistaa
mahdollistanut
mahdollistavat
mahdollisten
mahdollisti
mahdollistivat
mahdollisuuden
mahdollisuudesta
mahdollisuudet
mahdollisuuksia
mahdollisuuksien
mahdollisuus
mahdollisuutta
mahdoton
mahdotonta
mahdottomaksi
mahmud
mahtava
mahti
mahtui
mahtunut
mahtuu
mai
maiden
maidenin
maidon
maier
maihin
maihinnousu
maihinnousua
maihinnousun
maija
maijala
maijanen
maiju
mail
maila
mailia
mailin
mailla
maille
mailta
main
maine
maineen
maineensa
maineeseen
mainen
mainetta
maininnut
maininta
mainintoja
mainio
mainita
mainitaan
mainitsee
mainitsi
mainittakoon
mainittiin
mainittu
mainittua
mainittuja
mainittujen
mainittuun
mainituista
mainitun
mainitussa
mainitusta
mainitut
mainoksia
mainoksissa
mainonnan
mainonta
mainos
mainstream
maire
maisema
maisemaa
maisemat
maisemia
maissa
maissi
maista
maisteri
maisteriksi
maisterin
maita
maito
maitoa
maittain
maj
maja
majaan
majakan
majakka
majan
majassa
maji
major
majuri
majuriksi
mak
makaa
makasi
make
makea
makean
makedonia
makedonian
makedoniassa
maker
makes
maki
making
makkonen
maksa
maksaa
maksamaan
maksan
maksanut
maksavat
maksetaan
maksettava
maksettiin
maksettu
maksim
maksimissaan
maksoi
maksoivat
maksu
maksua
maksuja
maksullinen
maksun
maku
makua
mal
malakan
malawi
malaysia
malcolm
male
malesia
malesian
malesiassa
mali
malik
malin
malinen
malissa
malja
maljan
malleihin
malleissa
malleista
malleja
malli
mallia
mallien
malliin
mallilla
mallin
mallina
malline
mallinen
mallissa
mallista
malliston
mallit
mallorca
malm
malmberg
malmi
malmin
malmivaara
malmo
malmste
malone
malta
maltalla
maltalle
maltan
malto
mama
mamma
mammal
mammals
mamrud
man
mana
management
manager
manageri
managerina
manchester
manchesterin
mancini
mandela
mandoliini
manfred
manga
mangassa
manhattan
manhattanilla
manhattanin
mania
manifesti
manifestin
manin
manitoba
mann
manner
mannerheim
mannerheimin
mannerja
mannerkoski
manninen
manning
mannisen
mans
mansikka
mansin
manson
mantere
mantereella
mantereelle
mantereelta
mantereen
mants
manu
manual
manuel
manufacturing
many
mao
maon
map
maple
maps
mar
mara
maradona
marathon
maraton
maratonilla
maratonin
marc
marca
marcel
marcello
marcelo
march
marco
marcos
marcus
mare
marek
margareeta
margaret
margareta
margit
margot
marguerite
mari
maria
marian
marianna
marianne
marie
marija
marika
marilyn
marin
marina
marine
marino
marinon
mario
marion
marita
maritime
marius
marja
marjaana
marjama
marjat
marjatta
marjo
marjoja
marjukka
marjut
mark
markan
market
marketing
marketta
markiisi
markka
markkaa
markkanen
markkina
markkinat
markkinoi
markkinoiden
markkinoilla
markkinoille
markkinoilta
markkinoinnin
markkinointi
markkinoita
markku
markkula
marko
marks
markuksen
markus
marley
marokko
marokon
marokossa
maroon
marras
marraskuu
marraskuuhun
marraskuun
marraskuussa
marraskuusta
marraskuuta
marriage
mars
marsalkka
marseille
marsh
marshall
marsin
marssi
marssin
marssivat
mart
marta
martha
marti
martial
martikainen
martin
martina
martinez
martini
martinin
martino
martins
martiskainen
martta
martti
marttila
marttinen
marttyyri
marty
marvel
marvelin
marvin
marx
marxin
mary
maryland
marylandin
mas
masa
masennuksen
masennus
masennusla
mask
maskuliinimuoto
maskuliinin
maskuliininen
maskun
mason
mass
massa
massaa
massachusetts
massachusettsin
massachusettsissa
massacre
massan
massasta
massiivinen
massimo
massive
master
masteroija
masters
mat
mata
matala
matalaa
matalalla
matalampi
matalan
matalat
matalia
match
matches
mate
matelijat
matemaatikko
matemaattinen
matemaattis
matemaattisen
matematiikan
matematiikassa
matematiikka
matematiikkaa
matematiikkaan
materiaaleja
materiaali
materiaalia
materiaalien
materiaalin
materiaalina
materiaalista
materiaalit
material
materials
materialy
math
mathbb
mathbf
mathcal
mathematical
mathematics
mathias
mathieu
mathilda
mathrm
matias
matikainen
matilda
matin
matinkyla
matka
matkaa
matkaan
matkaansa
matkailijoita
matkailu
matkailukohde
matkailun
matkalla
matkallaan
matkalle
matkalta
matkan
matkansa
matkaopas
matkapuhelin
matkasi
matkassa
matkasta
matkat
matkoilla
matkoja
matkojen
matkustaa
matkustaja
matkustajaa
matkustajama
matkustajat
matkustajia
matkustajien
matkusteli
matkusti
matkustivat
mato
matriisi
matriisin
matrikkeli
matrix
mats
matt
matteo
matter
matteuksen
matthew
matthews
matthias
matti
mattias
mattila
mattilan
matto
mattsson
mau
maun
mauno
maunu
mauretania
mauri
maurice
mauritius
mauritz
maurizio
mauro
max
maxi
maxim
maxima
maximilian
maximum
maximus
maxwell
maxwellin
may
maya
maybe
mayer
mayo
mayor
mazda
mb
mba
mberg
mbox
mc
mcallister
mccarthy
mccartney
mccartneyn
mccoy
mcdonald
mcdonnell
mcfarland
mcgraw
mcgregor
mclaren
mclarenin
mcmahon
mcrae
mcu
md
me
mea
mead
mean
meaning
means
meat
mechanics
mecklenburg
med
medal
medesta
media
mediaa
mediaan
mediaani
mediakasvatus
median
mediassa
mediat
medical
medici
medicina
medicine
medien
medieval
medina
mediterranean
medium
meen
meenkyro
meenlinna
meenlinnaan
meenlinnan
meenlinnassa
meessa
meet
meeting
meets
mega
megadeth
megan
megapikselia
megapikselin
mehila
mehmed
mei
meida
meier
meiji
meilla
meille
meilta
mein
meista
meita
mekaaninen
mekaanisen
mekaniikan
mekanismi
meksiko
meksikolainen
meksikon
meksikoon
meksikossa
meksikosta
mel
mela
melanie
melbourne
melbournen
melbournessa
melin
melissa
melkein
melko
mella
melodia
melody
melonta
melua
member
members
memorial
memoriam
memories
memory
memphis
men
mendes
mene
menee
menehtyi
meneilla
menema
menen
menestya
menestyi
menestyiva
menestykseen
menestykseka
menestyksekka
menestyksella
menestyksen
menestyksesta
menestyneet
menestyneimmista
menestyneimpia
menestynein
menestynyt
menestys
menestysta
menestyva
menestyy
menetelma
menetelmia
menetelmien
menetelmin
menetettiin
menetetty
menetettya
menetta
menetti
menettiva
menetys
meneva
meni
menin
menisi
meniva
menna
mennander
menneen
menneet
menneisyyden
menneisyydesta
menneisyys
menneisyyteen
menneisyytta
mennessa
menninka
mennyt
mennytta
meno
menoa
menossa
menot
mens
mensa
ment
menta
mental
mentya
mer
mercedes
mercer
merck
mercury
mercy
meredith
mereen
merella
merelle
merelta
meren
merenka
merenkulku
merenkulun
merenpinnan
merenpinnasta
meressa
meresta
meri
meriin
merijalkava
merikapteeni
merila
merimies
merirosvojen
merirosvot
merita
merivoimat
merivoimien
merja
merkeissa
merkiksi
merkilla
merkille
merkin
merkinna
merkinnyt
merkinta
merkinto
merkisto
merkit
merkita
merkitsee
merkitsema
merkitseva
merkitsi
merkitta
merkittiin
merkitty
merkityksen
merkityksensa
merkityksessa
merkityksesta
merkitykset
merkityksetto
merkityksia
merkityksista
merkitys
merkitysta
merkityt
merkkeja
merkki
merkkia
merkkien
merkkihenkilo
merkkina
merlin
merriam
merry
merta
merten
mervi
mes
mesa
mesopotamia
mesopotamian
messa
message
messerschmitt
messi
messier
messu
messuilla
messukyla
mesta
mestareiden
mestareita
mestari
mestaria
mestarien
mestariksi
mestarin
mestarina
mestarit
mestaruuden
mestaruudesta
mestaruudet
mestaruuksia
mestaruus
mestaruuskilpailuissa
mestaruuskilpailujen
mestaruuskilpailut
mestaruuskisoissa
mestaruussarja
mestaruussarjaan
mestaruussarjan
mestaruussarjassa
mestaruuteen
mestaruutensa
mestaruutta
mestaruuttaan
mestiksen
mestiksessa
mestis
met
meta
metabolome
metacritic
metal
metalia
metalin
metalleja
metalli
metallia
metallica
metallican
metallien
metallimusiikin
metallin
metallinen
metallista
metalliyhtye
metallum
metaphysics
meteli
method
methods
metres
metri
metria
metrien
metriin
metrilla
metrilta
metrin
metrinen
metrissa
metrista
metro
metroasema
metroaseman
metron
metropolia
metropolitan
mets
metsa
metsia
metsien
metsissa
metsista
metso
metta
meurman
mexico
meyer
mez
mf
mg
mgm
mhz
mi
mia
miami
michael
michaelin
michal
michel
michelangelo
michele
michelin
michelle
michigan
michiganin
michiganissa
mick
mickey
micro
microsoft
microsoftin
mid
middle
midi
midnight
mie
mieheen
mieheksi
miehella
miehelle
miehelta
miehen
miehena
miehensa
miehesta
miehet
miehetto
miehia
miehilla
miehille
miehista
miehisto
miehitetty
miehitettya
miehitta
miehitti
miehittiva
miehityksen
miehitys
miekan
miekka
miekkaa
miekkailija
miekkailu
miekkojen
mieleen
mielella
mielen
mieleni
mielenkiinnon
mielenkiintoinen
mielenkiintoista
mielenosoittajat
mielenosoittajia
mielenosoituksen
mielenosoitukset
mielenosoituksia
mielenosoitus
mielenosoitusten
mielensa
mielenterveyden
mielessa
mielesta
mieleto
mieli
mielialaha
mielihyva
mielikuvituksen
mielikuvitus
mielin
mielipide
mielipidetta
mielipiteen
mielipiteensa
mielipiteet
mielipiteita
miellytta
mielta
mieluiten
mieluummin
mien
miensa
mies
miespa
miespuolinen
miespuolisia
miessivuosa
miesta
miesten
mietinto
mieto
mietteita
miettia
miettima
miettinen
mig
might
mighty
miguel
mihail
mihin
mihinka
miia
miika
miikka
miin
miina
miinaan
miinanraivaaja
mija
mika
mikael
mikaelin
mike
miki
mikkeli
mikkelin
mikkelissa
mikki
mikko
mikkola
mikkolan
mikkonen
mikro
miks
miksaaja
miksaus
miksei
miksi
mil
mila
milan
milano
milanon
milanossa
mile
miles
miley
milita
military
milj
miljardi
miljardia
miljardilla
miljardin
miljardo
miljo
miljona
miljoona
miljoonaa
miljoonaan
miljoonalla
miljoonan
miljoonasade
miljoonasta
miljoonia
miljoonien
milk
mill
milla
millainen
millaisia
millaista
mille
millennium
miller
millerin
millimetria
millimetrin
million
milloin
milloinkaan
mills
milos
milta
miltei
milton
milwaukee
min
mina
minardi
minas
mind
minds
mine
minen
mineraali
minerva
ming
mini
mining
minisarja
minisarjassa
minister
ministeri
ministeria
ministeriksi
ministerin
ministerina
ministerio
ministerit
ministry
minka
minna
minne
minnesota
minnesotan
minnesotassa
minogue
minor
minregion
minsk
minskin
minskissa
minttu
minua
minulla
minulle
minulta
minun
minusta
minut
minute
minutes
minuun
minuutilla
minuutillaan
minuutin
minuutissa
minuutit
minuuttia
mio
mir
mira
miracle
mirage
miranda
miriam
mirja
mirjam
mirko
miro
miroslav
mirror
mis
miseen
miseksi
misella
miselle
misen
misessa
misesta
misha
miska
miskeskus
miss
missa
misse
missile
missing
mission
missions
mississippi
mississippin
missouri
missourin
mist
mista
misto
mit
mita
mitaleille
mitaleita
mitaleja
mitali
mitalia
mitalilla
mitalin
mitalinsa
mitalisti
mitalistit
mitalit
mitat
mitata
mitataan
mitattiin
mitattu
mitattuna
mitch
mitchell
miten
mitenka
mitka
mitra
mitran
mitsubishi
mitsui
mitt
mitta
mittaa
mittaan
mittainen
mittaiseksi
mittaisella
mittaisen
mittaisia
mittakaavassa
mittari
mittaritutkimus
mittaus
mittavan
mittayksikko
mix
mixed
miyamoto
mjo
mk
ml
mlb
mlk
mls
mm
mma
mme
mmekka
mmen
mmenta
mmin
mminta
mmitta
mmittelija
mmitys
mmo
mn
mo
mob
mobiili
mobile
mobot
mobygamesissa
mod
mode
model
models
modern
moderni
modernia
modernin
modernismin
modo
moe
mogens
mohamed
mohammad
mohammed
moi
moilanen
moisio
mojo
mokoma
mol
moldova
moldovan
molecular
molekyyli
molekyylien
molekyylin
molemmat
molemmilla
molemmille
molemmin
molemmissa
molemmista
molempia
molempien
molempiin
molina
molli
molly
molotov
mom
moment
momentin
momentissa
moments
momentti
mon
mona
monaco
monacon
monacossa
monarkia
monarkian
monarkki
monday
monde
mondo
moneen
monella
monelle
monen
monenlaisia
monessa
monesta
monesti
monet
money
mongolia
mongolian
mongoliassa
mongolien
mongolit
moni
monia
monica
monien
moniin
monika
monikko
monikkoa
monikkomuoto
monikollinen
monikon
monikossa
monilla
monille
monilta
monimuotoisuuden
monimutkainen
monimutkaisia
monin
moninkertainen
monipuolinen
monipuolisesti
monipuolista
monissa
monista
monitor
monivuotinen
monk
monkey
mono
mononen
monroe
monroen
monsp
monster
monsters
mont
monta
montana
montanan
monte
montenegro
montenegron
montgomery
month
monthly
months
montpellier
montre
montreal
montrealin
montrealissa
monty
monument
monuments
monumentti
monza
moody
moolimassa
moon
moonlight
moore
mooren
moos
mooseksen
mooses
moottoreiden
moottoreita
moottori
moottoria
moottorien
moottorilla
moottorin
moottorina
moottoripyo
moottoriradalla
moottorista
moottorit
moottoritie
moottoritien
moottoriurheilija
moottoriurheiluun
mora
moraali
moraalin
moraalinen
moral
morales
moran
more
moreeni
moreno
morgan
mori
moritz
moritzin
morning
moro
morphin
morris
morrison
morrow
morse
morsiamen
morsian
mort
mortal
morten
morton
morvan
mos
mosambikin
moscow
moses
moskeija
moskeijan
moskova
moskovaan
moskovan
moskovassa
moskovasta
moskva
moss
mossberg
most
mot
mother
moths
motiivi
motion
moto
motogp
motor
motorola
motors
motorsin
motorsport
motorsports
motta
motti
motto
mou
mouhija
moukarinheitta
mount
mountain
mountains
mouse
mouth
move
movement
moves
movie
movies
moving
mozambique
mozart
mozartin
mozilla
mp
mpa
mpelo
mpi
mpia
mpima
mpimin
mpo
mppa
mpy
mr
mrd
mrs
ms
msa
msn
msu
mt
mtv
mtvuutiset
mu
mua
muassa
much
muhammad
muhammadin
muhammed
muhammedin
muhoksen
muiden
muidenkin
muihin
muihinkin
muilla
muillakin
muille
muillekin
muilta
muina
muinainen
muinaisen
muinaisessa
muinaisesta
muinaiset
muinaisia
muinaisja
muinaiskreikaksi
muinaiskreikan
muinaista
muinaisten
muinoin
muissa
muissakin
muista
muistaa
muistan
muistatko
muistelee
muisteli
muistelmat
muistelmia
muistelmissaan
muistetaan
muisti
muistia
muistiin
muistiinpanoja
muistin
muistinsa
muisto
muistoa
muistoja
muistojen
muistokirjoitus
muistokivi
muistoksi
muistolaatta
muistolle
muistomerkeista
muistomerkin
muistomerkit
muistomerkkeja
muistomerkki
muistomerkkien
muistomitali
muistopa
muistot
muistoturnauksessa
muistuttaa
muistuttava
muistuttavan
muistuttavat
muistuttavia
muistutti
muistuttivat
muita
muitakin
muka
mukaa
mukaan
mukaansa
mukainen
mukaiseksi
mukaisen
mukaisessa
mukaisesti
mukaiset
mukaisia
mukaista
mukana
mukanaan
mukava
mulla
mullan
mulle
multa
multi
multimedia
multiple
mummo
mun
muna
munaa
munan
munat
munck
mundo
munia
munich
municipal
municipalities
municipality
munii
munitsipalnogo
munkit
munkki
munkkiniemen
munuaisten
muodin
muodoissa
muodoista
muodollinen
muodollisesti
muodoltaan
muodon
muodossa
muodossaan
muodosta
muodostaa
muodostaen
muodostama
muodostamaa
muodostamaan
muodostaman
muodostaminen
muodostaneet
muodostanut
muodostavat
muodostetaan
muodostettiin
muodostettu
muodosti
muodostivat
muodostua
muodostui
muodostuivat
muodostuminen
muodostumista
muodostuneen
muodostuneet
muodostunut
muodostuu
muodostuva
muodostuvat
muodot
muokata
muokattiin
muokattu
muokkaa
muokkasi
muori
muoti
muotiin
muotisuunnittelija
muoto
muotoa
muotoilija
muotoiltu
muotoilu
muotoilun
muotoinen
muotoisen
muotoisia
muotoja
muotojen
muotokuva
muotokuvia
muotona
muotonsa
muotoon
muotoonsa
muovi
muovista
mur
murder
murha
murhaa
murhaaja
murhaan
murhan
murhasi
murhasta
murhat
murhata
murhattiin
murhe
murhena
murmanskin
muropaketti
murphy
murray
murre
murretta
murros
mursi
murtaa
murteellinen
murteen
murteet
murteiden
murteissa
murteita
murto
murtui
mus
musa
muse
museo
museoiden
museon
museona
museoon
museossa
museot
museota
museovirasto
museoviraston
museum
music
musica
musical
musicin
musicissa
musiikillinen
musiikillisesti
musiikin
musiikinopettaja
musiikissa
musiikista
musiikki
musiikkia
musiikkiaan
musiikkialbumiin
musiikkiin
musiikkikappale
musiikkikappaleeseen
musiikkilistoilla
musiikkina
musiikkinsa
musiikkiopistossa
musiikkipedagogi
musiikkisingleen
musiikkitietosanakirja
musiikkituottaja
musiikkituottajat
musiikkivideo
musiikkivideolla
musiikkivideon
musiikkivideot
musiikkiyhtyeeseen
musik
musikaali
musikaalin
musikaalissa
muslim
muslimeja
muslimi
muslimien
muslimit
mussolini
mussolinin
must
musta
mustaa
mustaan
mustafa
mustaine
mustaja
mustakallio
mustaksi
mustalampi
mustalla
mustan
mustang
mustanmeren
mustapa
mustasaaren
mustasta
mustat
mustavalkoinen
mustia
mustien
mustonen
mut
mutanen
mutant
mutkan
mutkassa
mutt
mutta
muttei
muu
muualla
muuallakin
muualle
muualta
muuan
muuhun
muukalainen
muukin
muulla
muulle
muulloin
muumi
muumilaakson
muumipeikko
muumit
muun
muunkielisen
muunnelma
muunnelmia
muunnin
muunnos
muuntaa
muura
muuri
muurien
muurin
muurinen
muurit
muurmannin
muusikko
muusikkona
muusikkoon
muusikoiden
muusikoita
muusikon
muusikot
muussa
muusta
muut
muuta
muutakin
muutama
muutamaa
muutamaan
muutamalla
muutaman
muutamassa
muutamasta
muutamat
muutamia
muutamien
muutamilla
muutamissa
muutamista
muuten
muutenkin
muutetaan
muutettiin
muutettu
muutettua
muutettuaan
muutkin
muutoin
muutokseen
muutoksen
muutoksesta
muutokset
muutoksia
muutoksiin
muutoksista
muutos
muutosta
muutosten
muutosto
muutostyo
muuttaa
muuttamaan
muuttamalla
muuttaminen
muuttamisesta
muuttamista
muuttaneet
muuttanut
muuttavat
muutti
muuttivat
muutto
muuttua
muuttuessa
muuttui
muuttuivat
muuttuja
muuttujan
muuttumaan
muuttuminen
muuttuneen
muuttuneet
muuttunut
muuttuu
muuttuva
muuttuvat
muutu
mv
mvp
mw
mx
my
myanmar
myanmarin
myanmarissa
myers
myi
myiva
mykenela
mykero
mykka
myksen
mylla
mylly
myllyja
myllykosken
myllykoski
myllyla
myllyma
myllyn
myna
myo
mypa
myrkky
myrkkya
myrkyllinen
myrkyllisia
myrkyllista
myrkytta
myrsky
myrskyla
myrskyn
myrskyssa
mys
myself
myspace
myspacessa
mysta
mystery
mystic
mystinen
myth
mythology
mytologia
mytologiaan
mytologian
mytologiassa
myy
myyda
myyden
myydesta
myydyimma
myydyin
myyja
myyma
myynnin
myynnissa
myynnista
myynti
myyntia
myyntiin
myynyt
myyra
myyrma
myys
myysaste
myyta
myyteen
myytiin
myytit
myytta
myytti
myyttinen
myyty
myytya
myyva
mɑ
n
na
naama
naamio
naantali
naantalin
naantalissa
naapuri
naapurikunnat
naapurin
naapurissa
naapurit
naaraalla
naaraan
naaraat
naaraiden
naaraita
naaras
nach
nacional
nad
nadal
nadia
naganon
nagy
nahka
nai
naimisiin
naimisissa
nainen
nais
naiseksi
naisella
naiselle
naisen
naisena
naisesta
naiset
naisia
naisiin
naisilla
naisille
naisista
naisja
naisna
naispa
naispuolinen
naispuolisia
naissivuosa
naista
naisten
naisysta
naja
najavnoho
nakajima
nakamura
naked
nalle
nam
name
named
names
namibia
namibian
nan
nana
nancy
nantaja
nantajan
nantajat
nao
naomi
napa
napapiirin
napoleon
napoleonin
napoli
napolin
napolissa
nappasi
nappula
naraamat
nare
narta
narva
narvan
narvanjoen
nas
nasa
nasan
nasdaq
naselenija
naselennja
naseljonnyh
nash
nashville
nastik
nat
natalia
natalie
natalja
natasha
nate
nathan
nation
national
nationale
nationalencyklopedin
nations
native
nato
naton
natsi
natsien
natsit
nattbefolkning
natur
natura
natural
naturalis
nature
naturhistoriska
naudat
nauha
nauhoitettiin
nauhoitettu
nauhoitti
naulan
nauraa
nauroi
nauru
naurun
nautti
nauttia
nauttii
nauttivat
naval
navara
navarro
nave
naver
navy
naxos
nazi
nazionale
nba
nbc
nberg
nc
ncaa
ncap
ncbi
nchen
ncheniin
nchenin
nchenissa
nchez
nd
nda
nde
nden
nder
ndez
ndi
ndin
ndissa
ndo
ndor
ndsk
ndska
ne
nea
neal
near
nebraska
nebula
nec
ned
nee
need
needs
neella
neelle
neen
neena
neensa
neeseen
neessa
neesta
neet
negatiivinen
negatiivisen
negatiivisesti
negatiivisia
negative
neiden
neidon
neil
neill
neista
neita
neiti
neito
neitsyt
nek
nekin
nekka
nekosken
nekoski
nel
nelinkertainen
nelinpelin
nelinpelissa
nelio
nelja
nella
nelle
nelli
nellie
nelonen
nelosella
nelosen
nelosessa
nelson
nelsonin
nelta
nemo
nen
nena
nenkannattaja
nenonen
nensa
neo
neon
nepal
nepalin
nepalissa
neptunuksen
ner
nero
neron
nes
nessa
nesta
neste
nesteen
nestema
nestetta
nestettiin
nesti
nestiva
nestor
nestyksella
nestyksen
nestyksessa
nestys
nestysta
net
netflix
netherlands
netin
netissa
neto
netti
nettisivut
netto
network
networks
neu
neucha
neue
neuer
neumann
neutraali
neutri
neutrin
neuvoa
neuvoi
neuvoja
neuvonantaja
neuvonantajana
neuvonen
neuvoo
neuvos
neuvosto
neuvostoaikana
neuvostojoukkojen
neuvostojoukot
neuvostoliitolle
neuvostoliiton
neuvostoliitossa
neuvostoliitosta
neuvostoliitto
neuvostoliittoa
neuvostoliittolainen
neuvostoliittolaisen
neuvostoliittolaiset
neuvostoliittolaisten
neuvostoliittoon
neuvoston
neuvostoon
neuvostossa
neuvostotasavallan
neuvostotasavalta
neuvotella
neuvottelemaan
neuvotteli
neuvotteluihin
neuvotteluissa
neuvotteluja
neuvottelujen
neuvottelukunnan
neuvottelukunta
neuvottelut
neva
nevada
nevadan
nevala
nevalainen
nevan
nevanlinna
never
neville
new
newcastle
newman
newport
news
newsme
newton
newtonin
next
nexus
nez
nfl
ng
nga
ngc
ngd
ngden
nge
ngel
ngelma
ngen
nger
ngin
ngna
ngo
nguye
nh
nha
nheiton
nheitossa
nheitta
nheitto
nhl
nhoitaja
nholm
ni
nia
nialaltaan
nic
nica
nicaragua
nice
nicholas
nichols
nicholson
nicht
nick
nicky
niclas
nico
nicola
nicolas
nicole
nid
nide
nie
niels
nielsen
niemela
niemella
niemen
niemi
niemimaa
niemimaalla
niemimaalle
niemimaalta
niemimaan
nieminen
niemisen
nien
nietzsche
nig
nigel
niger
nigeria
nigerialainen
nigerian
nigeriassa
nigerin
night
nightmare
nights
nightwish
nigra
nih
nihon
niiden
niihin
niilin
niilla
niille
niilo
niilta
niin
niina
niinika
niiniluoto
niinisto
niinka
niinkin
niinkuin
niinpa
niiranen
niissa
niista
niita
niitta
niityilla
niityt
nijn
nik
nikertaiset
niki
nikita
nikkanen
nikki
nikkila
niklas
niko
nikola
nikolai
nikolajevits
nikolaoksen
nikolaus
nikon
nikov
niksen
nikula
nilla
nille
nils
nilsia
nilsson
nilvia
nima
nimea
nimeen
nimekka
nimekseen
nimeksi
nimella
nimelle
nimellisesti
nimelta
nimen
nimena
nimenhaltijaa
nimennyt
nimenomaan
nimensa
nimesi
nimesiva
nimessa
nimesta
nimet
nimeta
nimeto
nimettiin
nimetto
nimetty
nimetyn
nimi
nimia
nimiaineistot
nimien
nimiin
nimiinsa
nimikappale
nimike
nimilla
nimimerkilla
nimimerkki
niminen
nimipa
nimipalvelu
nimiseen
nimiseksi
nimisella
nimiselle
nimisen
nimisena
nimisessa
nimisesta
nimisia
nimismies
nimissa
nimista
nimisto
nimiteta
nimitettiin
nimitetty
nimitta
nimitti
nimityksen
nimitykset
nimityksia
nimitys
nimitysta
nin
nina
nine
ninen
ninja
nino
ninrovasti
nintendo
nintendon
nio
nioikeuden
nioikeus
nippon
nirvana
nis
nisa
nisen
nishi
nishida
niska
niskala
niskan
niskanen
niskavuoren
nissa
nissan
nissila
nissinen
nista
nit
nite
nitearkisto
nitearkistossa
nitetietokanta
nitettiin
nitetty
nitiedostojen
nitta
nitti
nitykset
nityksia
nitys
niukasti
nivala
nixon
niz
nizza
nj
nja
njoen
njohtaja
njoki
nk
nka
nkasvu
nkatu
nkehitys
nkielinen
nkin
nkka
nkko
nko
nkohtaukseen
nkohtauksen
nkosken
nkp
nkuin
nkvd
nkyla
nkymmenen
nl
nla
nlainen
nlaisen
nlaisena
nlaisia
nlaista
nlampi
nlannin
nlannissa
nlaskennan
nlaskennassa
nlaskenta
nlaskentavirasto
nlm
nlund
nm
nma
nmaa
nmaallinen
nmaallisen
nmaan
nme
nmky
nn
nna
nndb
nne
nneen
nneet
nneksen
nneksi
nnella
nnelle
nnen
nner
nnes
nnessa
nnesta
nnesva
nneta
nnetta
nnettiin
nnetty
nnettya
nnettyna
nnetyt
nni
nniemen
nnin
nninen
nnis
nnista
nnisto
nnite
nnitta
nnitteen
nnitys
nnityselokuva
nnitysta
nno
nnqvist
nnrot
nnrotin
nnstro
nny
nnykka
nnyn
nnyt
nnytta
no
noaa
noah
nobel
nobelin
nobelprize
noble
nobody
node
noe
noel
noi
noidan
noiden
noihin
noin
noir
noise
noista
noita
nojaa
nojalla
nokan
nokia
nokialla
nokian
nokka
nolan
nolla
nom
nomainen
nominaalimuodot
nominatiivi
nominatiivimuoto
nominations
nominees
nomo
nomos
non
none
noora
noot
nopea
nopeaa
nopeaan
nopeammin
nopeampi
nopean
nopeasti
nopeat
nopeimman
nopeimmin
nopein
nopeinta
nopeita
nopeudella
nopeuden
nopeus
nopeutta
nopeuttaa
nor
nora
nord
nordea
norden
nordenskio
nordenstreng
nordic
nordin
nordisk
nordiska
nordlund
nordrhein
nordstro
norfolk
norge
norges
norj
norja
norjaa
norjaan
norjaksi
norjalainen
norjalaisen
norjalaiset
norjan
norjassa
norjasta
norma
normaali
normaalia
normaaliin
normaalima
normaalimatkalla
normaalin
normaalista
normaalisti
normal
norman
normandian
norra
norris
norrko
norsk
norske
norsunluurannikko
norsunluurannikon
north
northern
norton
norway
norwegian
norwegiancharts
norwich
nos
nostaa
nostamaan
nostamassa
nostanut
nostetaan
nostettiin
nostettu
nosti
nostivat
not
notariaatti
note
notes
nothing
noton
notre
nottingham
notto
nottoa
nou
noudatetaan
noudatettava
noudattaa
noudattaen
noudattamaan
noudattavat
noudatti
nous
nouse
nousee
nousemaan
nouseva
nousevan
nousevat
nousi
nousiainen
nousivat
nousseen
nousseet
noussut
nousta
nousten
noustessa
noustua
noustuaan
nousu
nousua
nousun
nousussa
noususta
nousuun
noutamaan
nouveau
nouvelle
nov
nova
novaja
novak
nove
novel
novelleja
novelli
novellikokoelma
novellin
novellit
november
novgorod
novgorodin
novi
novo
novosti
novyi
now
nowhere
np
npa
npr
nr
nra
nrikiksi
nrikki
nrj
nrk
nro
nroos
ns
nsa
nsaaren
nsi
nsimaiden
nsimainen
nsimaisen
nsimaissa
nsimaista
nsiosan
nsiosassa
nsiosissa
nsipa
nsipuolella
nsipuolelle
nsipuolelta
nsirannalla
nsirannan
nsirannikolla
nsirannikon
nsiva
nska
nssdc
nsson
nsstyrelsen
nster
nt
nta
ntapa
ntasaajan
nteen
nteet
nteiden
nteinen
nteisen
nteisesti
nteiset
nteisia
nteista
nteisten
nteita
ntekeva
ntekija
ntekijo
ntely
nten
ntena
nter
ntgensa
nther
nti
ntia
ntie
ntien
ntin
ntinen
ntiseen
ntisella
ntisen
ntisessa
ntista
nto
ntoista
ntsa
ntta
ntti
ntto
nty
ntya
ntyessa
ntyharju
ntyharjulla
ntyharjun
ntyi
ntyiva
ntyla
ntyma
ntyminen
ntymiseen
ntymisen
ntymista
ntyneen
ntyneet
ntynyt
ntyo
ntyva
ntyy
nu
nuclear
nuevo
nukke
nukkua
nukkui
nukkumaan
nukkuu
nuku
num
number
numbered
numbers
numero
numeroa
numeroiduista
numeroin
numeroita
numeroja
numerolla
numeron
numerossa
numerot
nummela
nummelin
nummen
nummi
numminen
nunna
nuo
nuolen
nuoli
nuoreen
nuoreksi
nuorella
nuorelle
nuoremman
nuoremmat
nuorempaa
nuorempana
nuorempi
nuoren
nuorena
nuoresta
nuoret
nuori
nuoria
nuoriin
nuorilla
nuorille
nuorimpana
nuorin
nuoriso
nuorisoja
nuorisolle
nuorisomaajoukkueissa
nuorison
nuorisoseura
nuorisotyo
nuorissa
nuorista
nuorta
nuorten
nuortenkirjailija
nuorteva
nuorukainen
nuoruuden
nuoruudessaan
nuoruus
nuoruutensa
nuotio
nuotteja
nur
nurin
nurmeksen
nurmen
nurmes
nurmi
nurmija
nurminen
nurmio
nurmon
nus
nutrition
nuts
nuutinen
nva
nvidia
nvuotiaana
ny
nya
nyberg
nyga
nyheter
nyi
nyk
nyka
nyky
nykya
nykyaikaan
nykyaikainen
nykyaikaisen
nykyaikaiset
nykyaikana
nykyajan
nykyinen
nykyiseen
nykyisella
nykyiselle
nykyisen
nykyisessa
nykyisesta
nykyiset
nykyisia
nykyisin
nykyisinkin
nykyisista
nykyista
nykyisten
nykypa
nykypolven
nykysuomen
nykytaiteen
nylander
nylund
nyman
nyo
nyrkkeilija
nyrkkeily
nyrkkeilyn
nystro
nyt
nytimes
nytka
nytkin
nytta
nyttemmin
nz
o
oak
oakland
oasis
ob
obama
obaman
oberstdorfin
obi
obituary
object
objects
objekti
oblast
oblasti
observatorio
observatorion
observatory
observer
ocean
och
oclc
oct
october
od
odd
ode
oder
odessa
odessan
odin
odotetaan
odotettavissa
odotettiin
odotettu
odotettua
odottaa
odottamaan
odottavat
odotti
odottivat
odotukset
odotuksia
odotus
odysseus
odyssey
oecd
oeis
of
off
office
official
officialcharts
officially
og
oh
ohella
ohessa
ohi
ohio
ohion
ohiossa
ohitse
ohittaa
ohitti
ohj
ohjaa
ohjaaja
ohjaajaksi
ohjaajan
ohjaajana
ohjaajat
ohjaama
ohjaamaan
ohjaaman
ohjaamana
ohjaamassa
ohjaamat
ohjaamo
ohjaamon
ohjaavat
ohjannut
ohjasi
ohjasivat
ohjata
ohjataan
ohjattiin
ohjattu
ohjauksen
ohjauksessa
ohjauksesta
ohjaus
ohjausta
ohjaustyo
ohje
ohjeen
ohjeet
ohjeiden
ohjeita
ohjelma
ohjelmaa
ohjelmaan
ohjelmalla
ohjelman
ohjelmassa
ohjelmasta
ohjelmat
ohjelmia
ohjelmien
ohjelmissa
ohjelmista
ohjelmisto
ohjelmistoa
ohjelmistoja
ohjelmistojen
ohjelmiston
ohjelmistoon
ohjelmistossa
ohjelmointi
ohjelmointikieli
ohjesa
ohjuksen
ohjukset
ohjuksia
ohjus
ohjusta
ohjusten
ohl
ohlig
ohuita
ohut
oi
oik
oikea
oikeaa
oikeaan
oikeaksi
oikealla
oikealle
oikealta
oikean
oikeana
oikeassa
oikeasta
oikeastaan
oikeasti
oikeat
oikein
oikeisto
oikeiston
oikeita
oikeuden
oikeudenka
oikeudenmukaisuus
oikeudessa
oikeudesta
oikeudet
oikeuksia
oikeuksien
oikeuksista
oikeus
oikeusja
oikeuska
oikeuskansleri
oikeusministeri
oikeusministerio
oikeusneuvos
oikeustiede
oikeustiedetta
oikeustieteen
oikeustutkinnon
oikeuteen
oikeutettu
oikeutta
oikeuttaa
oil
oilers
oilersin
oili
oinonen
oireet
oireiden
oireita
oireyhtyma
ois
oise
oisi
oittinen
oiva
oja
ojaa
ojala
ojan
ojanen
ojanpera
ojat
ojia
ok
oka
oklahoma
oksa
oksala
oksanen
oksat
ol
ola
olaf
olan
olav
olavi
olavin
olcon
old
oldest
ole
oleellinen
oleellisesti
oleellista
oleg
olekaan
oleksandr
olemaan
olemassa
olemassaolo
olemassaoloa
olemassaolon
olemassaolosta
olemasta
oleminen
olemisen
olemme
olemus
olen
olennainen
olennaisesti
olennaista
olennon
olennot
olento
olentoja
olentojen
oleskeli
olet
oletetaan
oletettavasti
oletettiin
oletettu
oletko
olettaa
olette
oleva
olevaa
olevaan
olevalla
olevalle
olevan
olevansa
olevassa
olevasta
olevat
olevia
olevien
oleviin
olevilla
oleville
olevissa
olevista
olga
oli
olihan
oliivio
olikin
oliko
olimme
olin
olio
olipa
olis
olisi
olisikaan
olisikin
olisiko
olisin
olisivat
olit
olivat
olivatkin
olive
oliveira
oliver
olivia
olivier
olkaa
olkapa
olkoon
olla
ollaan
ollakseen
olle
olleen
olleensa
olleeseen
olleessa
olleesta
olleet
olleiden
olleista
olleita
ollen
ollenkaan
ollessa
ollessaan
olli
ollikainen
ollila
ollut
ollutkaan
ollutta
olo
oloa
olof
oloihin
oloissa
oloista
oloja
olojen
olon
olonsa
olosuhteet
olosuhteiden
olosuhteisiin
olosuhteissa
olosuhteista
olosuhteita
olot
ols
olsen
olson
olsson
oltava
oltiin
oltu
oltua
oltuaan
oluen
olut
olutta
olympedia
olympia
olympiad
olympiaedustajat
olympiaenna
olympiahopeaa
olympiakisat
olympiakisoissa
olympiakisojen
olympiakomitea
olympiakomitean
olympiakultaa
olympialaiset
olympialaisia
olympialaisiin
olympialaisissa
olympialaisista
olympialaisten
olympiamitalisti
olympian
olympiapronssia
olympiastadionilla
olympiavoittaja
olympiavoittajat
olympic
olympics
olympique
olympus
om
oma
omaa
omaan
omaava
omaela
omaha
omaisuuden
omaisuus
omaisuutensa
omaisuutta
omakseen
omaksi
omaksui
omaksuivat
omakustanne
omalla
omalle
omalta
oman
omana
omanin
omansa
omapera
omar
omassa
omasta
omat
omatunto
omega
omena
omia
omiaan
omien
omiin
omiksi
omilla
omille
omin
ominainen
ominaisia
ominaista
ominaisuuden
ominaisuudet
ominaisuuksia
ominaisuuksien
ominaisuuksiin
ominaisuuksiltaan
ominaisuuksista
ominaisuus
ominaisuutta
omissa
omista
omistaa
omistaja
omistajaa
omistajaksi
omistajan
omistajana
omistajat
omistajia
omistajien
omistama
omistaman
omistanut
omistautui
omistavat
omistettu
omisti
omistivat
omistukseen
omistukseensa
omistuksessa
omistus
omituinen
omniglot
ompi
on
once
one
ones
ongelma
ongelmaa
ongelmaan
ongelmaksi
ongelman
ongelmana
ongelmat
ongelmia
ongelmien
ongelmiin
ongelmista
onhan
onkin
onko
online
only
onnea
onneksi
onnela
onnellinen
onnen
onneton
onnettomuuden
onnettomuudessa
onnettomuudesta
onnettomuus
onnettomuuteen
onnettomuutta
onni
onnistu
onnistua
onnistui
onnistuivat
onnistumatta
onnistuminen
onnistumisen
onnistuneen
onnistuneesti
onnistuneet
onnistunut
onnistuttiin
onnistuttu
onnistuttua
onnistuu
onnistuvat
ono
onpa
ontario
ontarion
ontariossa
oo
oon
oona
ooppera
oopperaa
oopperalaulaja
oopperan
oopperassa
oopperoita
oot
op
opas
opastaa
ope
opel
open
openin
opening
openissa
opens
opera
operaatio
operaation
operaatiossa
operaatiota
operaattori
operating
operation
operations
operatorname
operoi
opetella
opetetaan
opetettiin
opettaa
opettaja
opettajaa
opettajaksi
opettajan
opettajana
opettajansa
opettajat
opettajia
opettajien
opettamaan
opettanut
opetteli
opetti
opettivat
opetukseen
opetuksen
opetuksessa
opetuksesta
opetuksia
opetus
opetushallitus
opetusministeri
opetusministerio
opetussuunnitelman
opetusta
opetustyo
opi
opin
opinion
opinna
opinnot
opinto
opintoihin
opintoja
opintojaan
opintojen
opintojensa
opintomatk
opintomatkoja
opintonsa
opiskelee
opiskelemaan
opiskeli
opiskelija
opiskelijaa
opiskelijaja
opiskelijan
opiskelijat
opiskelijoiden
opiskelijoille
opiskelijoista
opiskelijoita
opiskella
opiskellessaan
opiskellut
opiskeltuaan
opiskelu
opiskelua
opiskeluaikanaan
opiskelun
opiskeluun
opissa
opisto
opiston
opistossa
opit
oppaassa
oppeja
oppi
oppia
oppien
oppii
oppiin
oppikirja
oppikirjoja
oppilaaksi
oppilaan
oppilaana
oppilaansa
oppilaat
oppilaiden
oppilaille
oppilaista
oppilaita
oppilaitoksen
oppilaitoksessa
oppilaitoksissa
oppilaitos
oppilas
oppilasma
oppilasta
oppima
oppimaan
oppimateriaalit
oppiminen
oppimiseen
oppimisen
oppimista
oppimisympa
oppineet
oppinut
oppivat
oppositio
opposition
ops
optimus
optinen
optio
option
opus
or
ora
oracle
oral
orange
oranssi
oras
orava
orchestra
ord
ordbokissa
order
orders
ore
oregon
oregonin
org
orgaaninen
orgaanisen
orgaaniset
orgaanisia
orgaanisiin
orgaanisten
organ
organic
organisaatio
organisaatioiden
organisaation
organisaatioon
organisaatiossa
organisaatiot
organisaatiota
organisation
organisoi
organization
ori
orient
oriental
orienteering
origin
original
origins
orimattila
orimattilan
orion
oripa
orivedella
oriveden
orivesi
orja
orjan
orjat
orjia
orjien
orjuuden
orjuus
orkesteri
orkesteria
orkesterille
orkesterin
orkesterissa
orlando
orle
orleans
orlov
orneero
oro
orp
orpo
ort
ortega
orter
ortiz
ortodoksi
ortodoksinen
ortodoksisen
ortodoksisessa
orvokki
os
osa
osaa
osaaminen
osaamisen
osaamista
osaan
osaavat
osainen
osaka
osakan
osakas
osake
osakeyhtio
osakilpailu
osakilpailua
osakilpailun
osakilpailussa
osakilpailut
osakilpailuun
osakkaana
osakkeet
osakkeiden
osakkeista
osakkeita
osakseen
osaksi
osakunnan
osakunta
osalla
osalle
osallisena
osallistu
osallistua
osallistuen
osallistui
osallistuivat
osallistujat
osallistujia
osallistujien
osallistumaan
osallistuminen
osallistumisen
osallistumisesta
osallistumista
osallistuneet
osallistuneiden
osallistunut
osallistuu
osallistuvat
osallisuudesta
osalta
osaltaan
osama
osan
osana
osannut
osansa
osapuolen
osapuolet
osapuoli
osapuolten
osasi
osassa
osasta
osasto
osastoa
osastoja
osastojen
osastolla
osastolle
osaston
osastoon
osastopa
osastossa
osastot
osat
osata
osavaltio
osavaltioiden
osavaltioissa
osavaltion
osavaltioon
osavaltiossa
osavaltiosta
osavaltiot
osborne
osbourne
osbournen
oscar
oscarin
oseanian
osia
osien
osiin
osin
osio
osion
osiossa
osissa
osista
osittain
osittainen
oskar
oskari
osku
oslo
oslon
oslossa
osmanien
osmanit
osmo
osoite
osoitettu
osoittaa
osoittamaan
osoittaneet
osoittanut
osoittautui
osoittautuivat
osoittautunut
osoittautuu
osoittavat
osoitteessa
osoitti
osoittivat
osoituksena
osoitus
osprey
oss
ossi
ossian
osta
ostaa
ostaja
ostakovits
ostamaan
ostamalla
ostanut
ostettiin
ostettu
ostettua
osti
ostivat
osto
ostoskeskus
osui
osuma
osumallaan
osuman
osuu
osuudella
osuuden
osuudet
osuuksia
osuus
osuuskaupan
osuuskauppa
osuuskunnan
osuuskunta
osuusliike
osuutensa
osuutta
oswald
ot
ota
otan
otava
otavamedia
otavan
ote
otepa
oteta
otetaan
otettaessa
otettava
otettiin
otettu
otettua
other
others
othmer
ots
otsa
otsikko
otsikolla
otso
ottaa
ottaen
ottama
ottamaan
ottamalla
ottamatta
ottaminen
ottamista
ottaneet
ottanut
ottavat
ottawa
otteeseen
otteita
ottelemaan
otteli
ottelu
ottelua
otteluaan
otteluakaan
otteluiden
otteluissa
otteluista
otteluita
ottelujen
ottelun
ottelunsa
otteluseuranta
ottelussa
ottelussaan
ottelusta
ottelut
ottelutilastot
otteluun
otteluvoitoin
otti
ottivat
otto
ottomaanien
otus
ou
oudon
ouest
oulu
ouluja
oulujoen
oululainen
oulun
oulunkyla
oulussa
oulusta
ouluun
our
out
outi
outo
outoa
outoja
outokummun
outokumpu
outside
ov
ova
ovat
ovatkin
ovatko
ove
ovea
ovelle
oven
ovensa
over
overline
overseas
overview
ovesta
ovet
ovi
ovia
ovidius
ovien
ovin
owat
owen
owens
owl
own
oxford
oxfordin
oy
oyj
oz
ozzy
p
pa
paalupaikalta
paalupaikka
paalupaikkaa
paananen
paasikiven
paasikivi
paasilinna
paasonen
paavali
paavalin
paavi
paaviksi
paavilainen
paavin
paavina
paaviuden
paavo
paavola
paavolainen
pablo
pac
pace
pacific
pack
padasjoen
padasjoki
padon
paenneet
paennut
paeta
page
pages
paha
pahaa
pahan
pahasta
pahasti
pahat
pahimmillaan
pahin
pahoin
pahoinpitelysta
pahoja
paholainen
paholaisen
pahuuden
pai
paidan
paidassa
paikaksi
paikalla
paikallaan
paikalle
paikalleen
paikallinen
paikalliseen
paikallisen
paikallisessa
paikallisesta
paikallisesti
paikalliset
paikallisia
paikallisiin
paikallisissa
paikallisista
paikallislehti
paikallispa
paikallista
paikallisten
paikalta
paikan
paikannimet
paikannimia
paikassa
paikasta
paikat
paikka
paikkaa
paikkaamaan
paikkaan
paikkaansa
paikkainen
paikkakunnalla
paikkakunnalle
paikkakunnan
paikkakunnilla
paikkakunta
paikkakuntien
paikkala
paikkana
paikkansa
paikkatietopalvelu
paikkeilla
paikkoihin
paikkoja
paikkojen
paikoilla
paikoillaan
paikoille
paikoilleen
paikoin
paikoissa
paikoista
paikoitellen
paimen
paimion
pain
painaa
painajainen
painamalla
painatuskeskus
painava
painavat
paine
paineen
paineessa
painetaan
painetta
painettiin
painettu
painettuna
painetut
paini
painija
painin
painissa
paino
painoa
painoi
painoksen
painoksesta
painoluokassa
painon
painonnostaja
painonnosto
painopiste
painos
painosta
painostuksen
painostuksesta
painottaa
painotti
painottuu
paint
paistaa
paita
paitaan
paitsi
paja
pajala
pajari
paju
pajukallio
pajunen
pak
pakarinen
pakenee
pakenemaan
pakenevat
pakeni
pakenivat
paketin
paketti
pakinoita
pakinoitsija
pakistan
pakistanin
pakistanissa
pakkala
pakkanen
pakkasen
pakkaus
pakko
pakkotyo
pako
pakolaisia
pakolaisten
pakollinen
pakollista
pakoon
pakotettiin
pakotettu
pakottaa
pakotti
pakottivat
paksu
paksuus
pal
pala
palaa
palaamaan
palaamassa
palaavan
palaavat
palace
palais
palamaan
palander
palannut
palanut
palasi
palasivat
palat
palata
palaten
palatessa
palatessaan
palatsi
palatsiin
palatsin
palatsissa
palattua
palattuaan
palau
palautetta
palautettiin
palauttaa
palauttamaan
palauttamista
palautti
palautui
palava
palazzo
pale
palestiinalaisten
palestiinan
palestiinassa
palgrave
palin
paljain
paljastaa
paljastavat
paljastettiin
paljastettu
paljasti
paljastui
paljastuu
paljo
paljoa
paljoakaan
paljolti
paljon
paljonko
palkan
palkat
palkattiin
palkinnoksi
palkinnolla
palkinnon
palkinnot
palkinto
palkintoa
palkintoja
palkintojen
palkintokorokkeelle
palkintoon
palkitsi
palkittiin
palkittu
palkitut
palkka
palkkaa
palkkasi
palkkio
palkkion
pallas
pallo
palloa
palloilija
palloilijat
palloliiton
palloliitto
pallomainen
pallon
pallonlyo
pallonpuoliskolla
pallonpuoliskon
palloon
palloseura
palloseuraa
palloseuraan
palloseuran
palloseurassa
pallossa
palm
palma
palmas
palme
palmer
palmgren
palmroth
palmu
palmun
palmuo
palo
paloasema
paloheimo
paloi
paloja
palokunta
palola
paloma
palon
palossa
palsta
palustris
paluu
paluumatkalla
paluun
paluusta
paluuta
paluutaan
palvelee
palvelemaan
palvelevat
palveli
palvelija
palvelin
palvelivat
palvella
palvellut
palvelu
palvelua
palveluiden
palveluihin
palveluikkuna
palveluista
palveluita
palveluja
palvelujen
palvelukseen
palveluksen
palveluksessa
palveluksesta
palvelun
palveluska
palvelussa
palvelusta
palvelut
palveluun
pam
pamela
pan
panagi
panama
panaman
panda
pandemian
pandora
pane
panee
pani
panic
panimo
panimon
pankin
pankinjohtaja
pankissa
pankit
pankki
pankkien
pankkiiri
panna
pannaan
pannonia
pannut
panos
panostaa
panssaridivisioona
panssarikansiristeilija
panssarivaunu
panssarivaunua
panther
panthers
pantiin
pantu
panu
panzer
paolo
papa
paper
paperi
paperia
paperille
paperin
paperit
paperitehdas
paperitehtaan
papers
papiksi
papin
papisto
papiston
papit
pappa
pappeja
pappi
pappia
pappien
pappiin
pappila
pappilan
pappina
papua
papukaija
par
para
parade
paradise
paraguay
paraguayn
paraisten
paralympic
paramount
paranee
parani
paranneltu
parannettiin
parannettu
parannuksia
paransi
parantaa
parantamaan
parantaminen
parantamiseen
parantamiseksi
parantunut
paras
parasta
paratiisi
paratiisin
parc
pareittain
paremmaksi
paremman
paremmat
paremmin
parempaa
parempaan
parempana
parempi
parempia
parhaaksi
parhaalle
parhaan
parhaana
parhaasta
parhaat
parhaiden
parhaillaan
parhaimmaksi
parhaimman
parhaimmillaan
parhaimmista
parhain
parhaista
parhaita
parhaiten
pari
paria
pariin
pariisi
pariisiin
pariisin
pariisissa
pariisista
parikka
parikkalan
parikymmenta
parilla
parille
parin
parina
parinsa
paris
parish
pariskunnalla
pariskunnan
pariskunta
parisprintissa
parissa
parista
parit
park
parkano
parkanon
parker
parkerin
parkin
parkinsonin
parkissa
parkkinen
parkkonen
parks
parlamentin
parlamentissa
parlamentti
parlamenttiin
parlamenttivaaleissa
parlamenttivaalit
parliament
parnasso
parodia
paroni
parsons
part
parta
partaalla
partanen
parti
partial
parties
partio
partisiipin
partitiivi
partitiivimuoto
partner
partners
parts
parturi
party
parvi
parviainen
pas
pasanen
pasasen
pascal
pasi
pasilan
paska
pass
passenger
passes
passi
passiivin
passion
past
pastori
pasuuna
pat
pata
pataljoona
pataljoonaan
pataljoonan
pate
patentin
patentti
path
patients
pato
patologia
patria
patriarkka
patrice
patricia
patrick
patrik
patruuna
patsaan
patsaat
patsaita
patsas
patteri
patterin
patteristo
patterson
patti
patton
pau
paukku
paul
paula
paulaharju
pauli
pauliina
paulin
pauline
paulo
paulon
pauly
pausanias
pave
pavel
paviljonki
pay
payne
pays
paz
pbs
pc
pci
pdf
pe
pea
peace
peak
pearl
pearson
peda
pedagogi
pedersen
pederso
pedon
pedro
peer
peggy
pehkonen
pehmea
pehr
peili
peilin
peilipalvelin
peipsija
peitossa
peitsamo
peitta
peitti
peking
pekingin
pekingissa
pekka
pekkala
pekkanen
pekkarinen
pekko
pela
pelaa
pelaaja
pelaajaa
pelaajakortti
pelaajaksi
pelaajalla
pelaajalle
pelaajan
pelaajana
pelaajaprofiili
pelaajasta
pelaajat
pelaajatilastot
pelaajauransa
pelaajia
pelaajien
pelaajille
pelaajista
pelaamaan
pelaamalla
pelaamassaan
pelaaminen
pelaamiseen
pelaamisen
pelaamissaan
pelaamista
pelaava
pelaavaa
pelaavaan
pelaavan
pelaavat
pelanneen
pelanneeseen
pelanneet
pelannut
pelasi
pelasivat
pelastaa
pelastaakseen
pelastamaan
pelasti
pelastui
pelastus
pelata
pelataan
pelaten
pelatessaan
pelattava
pelattiin
pelattu
pelattuaan
pelatun
pelatussa
pele
peleihin
peleissa
peleista
peleja
peli
pelia
peliaika
peliaikaa
peliajan
pelicans
pelicansin
pelien
peliin
pelikiellon
peliksi
pelille
pelimiehet
pelin
pelina
pelinsa
pelipaikaltaan
pelipaikka
pelipaikkansa
pelipuu
pelisarja
pelisarjan
pelissa
pelista
pelit
peliuransa
pelja
pelka
pelkista
pelkka
pelkkia
pelko
pelkoa
pelkonen
pelle
pellervo
pellice
pellinen
pello
pellon
pellot
pelon
peloponnesoksen
peloponnesolaissota
peloton
pelto
peltoa
peltoja
peltojen
peltola
peltomaa
peltomaata
peltonen
peltoniemi
peltosen
pembroke
pen
penalty
penelope
penguin
penguins
penguinsin
penhamina
penhaminan
penhaminassa
penn
pennanen
pennin
pennsylvania
pennsylvanian
pennsylvaniassa
penny
pensaita
pensas
pentika
pentti
penttila
penttinen
people
peoples
pepe
pepper
peppers
peppi
per
pera
percy
perehtyi
perehtynyt
pereira
perepis
perez
perf
perfect
perfekti
perfektiivinen
perfektin
performance
perhe
perheelle
perheen
perheenja
perheensa
perheeseen
perheessa
perheesta
perheet
perheiden
perheineen
perheita
perhetta
perho
perhonen
perhoset
perhosten
perhostutkijain
perhosuinnissa
peri
peria
periaate
periaatetta
periaatteella
periaatteen
periaatteessa
periaatteet
periaatteiden
periaatteita
perija
periksi
perilla
perille
perillinen
perima
perimma
perin
perinne
perinnetta
perinno
perinteen
perinteeseen
perinteessa
perinteet
perinteiden
perinteinen
perinteiseen
perinteisella
perinteisen
perinteisessa
perinteisesta
perinteisesti
perinteiset
perinteisia
perinteisiin
perinteisista
perinteista
perinteisten
perinteita
perinto
perinyt
period
periytyva
perjantai
perjantain
perjantaina
perkele
perkins
perkussiot
permin
pernio
pero
perosa
perry
pers
perseus
persia
persialainen
persialaiset
persialaisten
persian
persianlahden
person
persona
personal
personality
persoona
persoonallisuuden
persoonallisuus
persoonan
persoonapronomini
perspective
perspectives
persson
pertti
perttu
perttunen
pertunmaa
peru
perua
perui
perumaan
perun
peruna
perus
peruska
peruskartassa
peruskartta
peruskorjattiin
peruskorjaus
peruskoulu
peruskoulun
perusopetuksen
perussa
perussuomalaiset
perussuomalaisten
perusta
perustaa
perustaja
perustajaja
perustajan
perustajana
perustajat
perustajia
perustajista
perustama
perustamaan
perustamalla
perustaman
perustamansa
perustamassa
perustaminen
perustamiseen
perustamisen
perustamisessa
perustamisesta
perustamista
perustan
perustana
perustaneet
perustanut
perustava
perusteella
perusteellisesti
perusteena
perusteet
perustein
perusteita
perusteli
perustella
perustetaan
perustettiin
perustettu
perustettua
perustettuun
perustetun
perustetussa
perustetusta
perusti
perustietoja
perustivat
perustu
perustua
perustuen
perustui
perustuivat
perustunut
perustuslaillinen
perustuslain
perustuslaissa
perustuslaki
perustuslakia
perustuu
perustuva
perustuvaa
perustuvan
perustuvassa
perustuvat
perustuvia
peruttiin
peruutettiin
pesa
pesii
pesima
pesinta
pesis
pesiva
pesonen
pesta
pesti
pestin
pesu
pet
peta
pete
peter
peterburg
peterin
peters
petersburg
petersen
peterson
petit
peto
petoela
petos
petr
petra
petri
petro
petroskoi
petroskoin
petrov
petrovic
petrozavodsk
petrus
pets
petsamo
petsamon
petta
petter
petteri
pettersson
petti
pettymys
pettynyt
peugeot
peura
pez
pf
pg
pga
pgn
ph
phane
phantom
pharma
phase
phd
pherobase
phi
phil
philadelphia
philadelphian
philadelphiassa
philip
philipp
philippe
philips
phillip
phillips
philosophical
philosophie
philosophy
phoebe
phoenix
phone
photo
photos
php
phu
phyllanthus
phylogeny
physical
physics
phytochemical
pi
pia
pian
pianisti
pianistina
piano
pianoa
pianokonsertto
pianolle
pianon
pianonsoiton
pianonsoittoa
piazza
picasso
pick
pico
picture
pictures
picturesin
pida
pidemma
pidempa
pidempi
pidempia
pidenta
pideta
pidetta
pidettiin
pidetty
pidettya
pidettyyn
pidetyissa
pidetyn
pidetyssa
pidetyt
pidon
pidot
pie
piece
pieces
pieksa
pielaveden
pieleen
pielisja
piemonte
piemonten
pien
pieneen
pienehko
pieneksi
pienella
pienelle
pienemma
pienempa
pienempi
pienempia
pienempien
pienempiin
pienen
pienena
pienenee
pieneneva
pieneni
pienenta
pienentynyt
pienessa
pienesta
pienet
pieni
pienia
pieniin
pienikokoinen
pieniksi
pienilla
pienille
pienimma
pienin
pienina
pienissa
pienista
pienoiskiva
pienta
pienten
pienviljelija
pier
pierce
piero
pierre
pietari
pietariin
pietarin
pietarinen
pietarissa
pietarista
pietarsaaren
pietarsaaressa
pietarsaari
pieter
pietika
pietila
pietro
piha
pihalla
pihalle
pihan
pihkala
pihkovan
pihlaja
pihlajama
pihlajaveden
pihlstro
pihoilla
pihtipudas
pii
piia
piika
piikkeja
piikki
piikkio
piiloon
piilossa
piilotettu
piima
piin
piippo
piipponen
piippu
piipun
piirainen
piireihin
piireissa
piiri
piiria
piirien
piiriin
piirija
piirikunnan
piirikunnassa
piirikunnasta
piirikunnat
piirikunnista
piirikunta
piirikuntaan
piirikuntiin
piirila
piirin
piirissa
piirista
piirit
piiritta
piirittiva
piirityksen
piiritys
piirre
piirreta
piirretty
piirrokset
piirroksia
piirros
piirsi
piirta
piirteet
piirtein
piirteita
piirustukset
piirustuskoulussa
piirustusten
piispa
piispaksi
piispan
piispana
piispat
piispojen
pik
pika
pikaisesti
pikajuoksija
pikakilpailussa
pikaluistelija
pikaluistelu
pikemmin
pikemminkin
pikkarainen
pikku
pikkuhiljaa
pikkuja
pikkuplaneetoista
pikkuplaneetta
pikkusisko
pikkuveli
pila
pilapiirta
pilot
pilots
pilven
pilvenpiirta
pilvet
pilvi
pilvien
pimea
pimeyden
pimeys
pimitaltaan
pimitta
pimurron
pimurto
pimurtonsa
pin
pina
pine
pinerolo
ping
pingin
pings
pink
pinka
pinkka
pinnalla
pinnalle
pinnalta
pinnan
pinnassa
pinnasta
pino
pinta
pintaa
pintaan
pinto
pinus
pinyin
pio
pioneer
pioneeri
piper
piquet
pirate
pirates
pirhonen
pirinen
pirjo
pirkanmaalla
pirkanmaan
pirkka
pirkkala
pirkkalan
pirkko
pirttija
piru
pis
pisa
pisimma
pisimpa
pisin
pispalan
pista
piste
pisteella
pisteen
pisteensa
pisteeseen
pisteessa
pisteesta
pisteet
pisteiden
pisteille
pistein
pisteissa
pisteita
pistekilpailun
pistema
pistemies
pistepo
pistetta
pisti
pistooli
pit
pita
pitchfork
pitemma
pitempa
pitempi
piti
pitiva
pitka
pitkia
pitkien
pitkiksi
pitkilla
pitkin
pitkitta
pito
pitoisuudet
pitoisuus
pitoon
pitt
pitta
pittsburgh
pituinen
pituisen
pituisia
pituudeltaan
pituuden
pituudesta
pituus
pituushyppa
pituushyppy
pituushypyn
pituushypyssa
pituutta
pius
pizza
pj
pjotr
pk
pl
pla
place
places
plain
plan
planck
planckin
plane
planeetalla
planeetalle
planeetan
planeetat
planeetta
planeettaa
planeettojen
planespotters
planet
planetary
planets
planning
plans
plant
plants
plasma
plastic
platei
platform
platinaa
platinum
plato
platon
platonin
play
playboy
player
players
playing
playoff
plays
playstation
plaza
plc
please
pleiades
plia
plinius
plo
plos
plots
plus
plutarkhos
pluto
plymouth
plzen
pm
pmid
po
pocket
podcast
poe
poems
poetry
pohdimme
pohja
pohjaa
pohjaan
pohjainen
pohjalainen
pohjalaisia
pohjalla
pohjalle
pohjalta
pohjan
pohjana
pohjanlahden
pohjanmaa
pohjanmaalla
pohjanmaalle
pohjanmaalta
pohjanmaan
pohjanmeren
pohjanta
pohjassa
pohjasta
pohjautui
pohjautuu
pohjautuva
pohjautuvan
pohjautuvat
pohjava
pohjimmiltaan
pohjoinen
pohjois
pohjoiseen
pohjoisella
pohjoisempana
pohjoisen
pohjoisessa
pohjoisesta
pohjoiset
pohjoisin
pohjoismaiden
pohjoismainen
pohjoismaisen
pohjoismaissa
pohjoismaista
pohjoisosa
pohjoisosan
pohjoisosassa
pohjoisosiin
pohjoisosissa
pohjoispa
pohjoispuolella
pohjoispuolelle
pohjoispuolelta
pohjoisrannalla
pohjoisrannikolla
pohjoissaameksi
pohjoista
pohjoisten
pohjola
pohjolan
pohjolassa
pohjonen
pohti
pohtia
pohtii
pohtimaan
poija
poika
poikaa
poikaansa
poikana
poikanen
poikani
poikansa
poikaset
poikasia
poikasten
poikaysta
poiketa
poiketen
poikia
poikien
poikkeaa
poikkeava
poikkeavat
poikkeavia
poikkesi
poikkeuksellinen
poikkeuksellisen
poikkeuksellisesti
poikkeuksen
poikkeuksena
poikkeuksetta
poikkeuksia
poikkeus
poikki
point
points
pois
poison
poispa
poissa
poistaa
poistamaan
poistamalla
poistaminen
poistamista
poistetaan
poistettiin
poistettu
poisti
poisto
poistua
poistui
poistuivat
poistumaan
poistunut
poistuu
poistuvat
pojaksi
pojalle
pojalleen
pojan
pojanpoika
pojasta
pojastaan
pojat
pojille
pojista
poke
poker
pokka
poko
pol
poland
polar
polaris
pole
poleis
poli
police
policy
poliiseja
poliisi
poliisia
poliisien
poliisilaitoksen
poliisilaitos
poliisille
poliisin
poliisipa
poliisit
poliitikko
poliitikkoja
poliitikkojen
poliitikkoon
poliitikot
poliittinen
poliittiseen
poliittisen
poliittisena
poliittisessa
poliittisesta
poliittisesti
poliittiset
poliittisia
poliittisiin
poliittisista
poliittista
poliittisten
polin
polis
polish
political
politics
politiikan
politiikassa
politiikasta
politiikka
politiikkaa
politiikkaan
polku
polkuja
polkupyo
polmar
polo
polska
poltettiin
poltettu
polttaa
poltti
polttivat
polttoaine
polttoaineen
polttoaineena
polttoaineiden
polttoainesa
polttoainetta
polven
polveutuu
polvi
polvija
polygon
pommeja
pommerin
pommi
pommia
pommikone
pommin
pommituksissa
pomo
pomus
pont
ponte
pontus
pony
pool
poor
pop
pope
popeda
poplaulaja
popp
popper
populaarimusiikin
populaatio
populaation
popular
population
populations
por
pori
poriin
porin
porissa
porkkalan
pormestari
pormestariksi
pormestarin
pormestarina
pornona
poro
porsche
port
porta
portaali
portaat
portable
portaita
portal
porte
porter
portin
portit
portland
porto
portrait
portti
porttia
portugal
portugali
portugalia
portugaliin
portugaliksi
portugalilainen
portugalilaiset
portugalilaisten
portugalin
portugalissa
porvari
porvarissa
porvariston
porvoo
porvoon
porvoossa
poseidon
positiivinen
positiivisen
positiivisesti
positiivisia
positiivista
position
positive
posjolkam
possessiivinen
possible
post
posti
postia
postin
postuumisti
pot
potential
potilaan
potilaat
potilaiden
potilailla
potilaista
potilaita
potilas
potilasta
potkut
potter
poulos
poulsen
pour
poutiainen
powell
power
powers
powiat
poznan
pp
ppa
ppi
ppo
ppp
pr
pra
practical
practice
pradesh
pradeshin
praha
prahaan
prahan
prahassa
pratt
prayer
pre
predator
predators
prees
preesens
preesensin
preesensmuoto
prefektuuri
prefektuuriin
prefektuurin
prefektuurissa
prefektuuritason
prehistoric
preis
premier
premiere
premio
premium
prentice
present
presents
preservation
president
presidential
presidentiksi
presidentille
presidentin
presidentinvaaleissa
presidentinvaalien
presidentinvaalissa
presidentinvaalit
presidentit
presidentti
presidenttia
presidenttiehdokas
presidenttiehdokkaaksi
presidenttien
presidenttina
presley
press
pressure
preston
preteritin
pretty
preussi
preussin
prevention
preview
prey
pri
price
pride
priest
prikaati
prikaatikenraali
prikaatin
prima
primary
prime
primera
primetime
primo
prince
princess
princeton
princetonin
principles
prinsessa
prinsessan
prinssi
prinssin
print
prisma
prison
private
prix
prize
prnl
pro
problem
problems
proceedings
process
processing
procope
procyclingstats
product
production
productions
products
prof
profeetan
profeetta
professional
professor
professori
professoriksi
professoriliitto
professorin
professorina
professorit
profiili
profil
profile
profiles
program
programme
programming
progress
progressiivinen
progressiivisen
progressiivista
project
projects
projekt
projekteja
projekti
projektia
projektiin
projektin
projektio
projektissa
projektista
projektit
prometheus
promo
pronssi
pronssia
pronssiin
pronssikaudella
pronssikauden
pronssille
pronssimitalin
pronssin
pronssinen
pronssiottelussa
pronssista
proosaa
propaganda
propagandaa
properties
property
prophet
prosentilla
prosentin
prosentista
prosentti
prosenttia
prosenttiin
prosenttisesti
prosesseja
prosessi
prosessia
prosessien
prosessin
prosessissa
prosessit
prosessori
prospects
prost
protection
proteiineja
proteiini
proteiinia
proteiinien
proteiinin
protein
protocol
protokoll
proton
prototyypin
prototyyppi
proud
provence
providence
province
provinces
provincia
provinssi
provinssien
provinssiin
provinssin
provinssissa
provinssit
ps
psa
pseudo
psg
psi
psija
psv
psy
psychiatry
psycho
psychological
psychology
psykiatri
psykiatrian
psykologi
psykologia
psykologiaa
psykologian
psykologinen
pt
ptolemaios
pu
pub
pubchem
public
publication
publications
publique
published
publishers
publishing
pubmed
pudasja
pudonnut
pudota
pudotettiin
pudottaa
pudotti
pudottua
pudotus
pudotuspeleihin
pudotuspeleissa
pudotuspelien
pudotuspeliottelua
pudotuspelit
pudotusta
puerto
puh
puhakka
puhaltaa
puhdas
puhdasta
puhdistaa
puhdistus
puhe
puheen
puheenjohtaja
puheenjohtajaksi
puheenjohtajan
puheenjohtajana
puheenjohtajat
puheensa
puheessa
puheessaan
puheet
puheita
puhekielessa
puhekielta
puhelimen
puhelimessa
puhelin
puhemieheksi
puhemiehena
puhemies
puhetta
puhjettua
puhkesi
puhtaaksi
puhtaan
puhtaana
puhtaasti
puhu
puhua
puhui
puhuivat
puhuja
puhujaa
puhujan
puhujana
puhujat
puhujia
puhuma
puhumaan
puhunut
puhutaan
puhuttaessa
puhuttava
puhuttiin
puhuttu
puhuu
puhuva
puhuvat
puiden
puijon
puinen
puissa
puista
puisto
puistoa
puistoissa
puiston
puistoon
puistossa
puita
puitteissa
pujottelun
pujottelussa
pukeutunut
pukeutuu
pukki
pukkila
puku
pula
pulaa
pulitzer
pulkkinen
pulla
pulli
pulliainen
pullo
pullon
pulp
puna
punainen
punaiseen
punaiseksi
punaisella
punaisen
punaisessa
punaisesta
punaiset
punaisia
punaista
punaisten
punakaartin
punapa
punaruskea
punch
punertava
punk
punkin
punnalla
punnan
punta
puntaa
puol
puola
puolaa
puolaan
puolaksi
puolalainen
puolalaisen
puolalaiset
puolalaisia
puolalaisten
puolan
puolassa
puolasta
puoleen
puoleensa
puoleinen
puoleksi
puolella
puolelle
puolelleen
puolelta
puolen
puolena
puolensa
puolentoista
puolessa
puolessava
puolesta
puolestaan
puolet
puoli
puolia
puoliintumisaika
puoliksi
puolilla
puolille
puolilta
puolin
puolinen
puolisen
puoliskolla
puoliso
puolison
puolisonsa
puolisot
puolitoista
puolitse
puoliva
puolta
puolue
puolueeksi
puolueen
puolueensa
puolueeseen
puolueessa
puolueesta
puolueet
puolueeton
puolueiden
puolueista
puolueita
puoluekokouksessa
puoluesihteeri
puoluetta
puolustaa
puolustaja
puolustajaksi
puolustajan
puolustajana
puolustajat
puolustajien
puolustamaan
puolustanut
puolustava
puolusti
puolustukseen
puolustuksen
puolustus
puolustusministeri
puolustusministerio
puolustusta
puolustusvoimain
puolustusvoimat
puolustusvoimien
puolustusvoimissa
pure
puretaan
purettiin
purettu
purje
purjehdus
purjehti
purkaa
purkaminen
purkaus
purkautui
purkautuu
purki
puro
puron
purple
purplen
pursiainen
pus
push
pussi
put
putin
putinin
putkeen
putken
putki
putnam
putoaa
putoavat
putosi
putosivat
putous
puu
puuhun
puukirkko
puukko
puumala
puun
puupa
puusepa
puuseppa
puussa
puusta
puustinen
puut
puuta
puutarha
puutarhaan
puutarhaliiton
puutarhan
puutarhassa
puutarhoissa
puutavara
puutavaraa
puutavaran
puute
puutetta
puutteen
puutteessa
puutteesta
puutteita
puuttua
puuttuessa
puuttui
puuttuminen
puuttuu
puuttuvat
puuvilla
puvun
pv
px
py
pyeongchang
pyeongchangin
pyha
pyhia
pyhien
pyhimys
pyhitetty
pyhitta
pyhta
pyka
pyla
pylkka
pylva
pyo
pyramid
pyramidi
pyramidin
pyre
pyreneiden
pyrinno
pyrinto
pyrita
pyrittiin
pyritty
pyrki
pyrkia
pyrkiessa
pyrkii
pyrkimyksena
pyrkimyksia
pyrkimys
pyrkinyt
pyrkiva
pyrsto
pyry
pysa
pysty
pystya
pystyi
pystyisi
pystyiva
pystyneet
pystynyt
pystyssa
pystyta
pystytettiin
pystytetty
pystytta
pystyttiin
pystytty
pystyva
pystyy
pystyyn
pysy
pysya
pysyi
pysyiva
pysyma
pysynyt
pysyva
pysyvia
pysyy
python
pyy
pyyda
pyydeta
pyydettiin
pyydysta
pyykko
pyynikin
pyynno
pyynto
pyysi
pyysiva
pyyta
q
qatar
qatarin
qi
qin
qing
qmjhl
qquad
qt
qu
qua
quad
qualification
qualifying
quality
quan
quantum
quarter
quarterly
quartet
que
quebec
quebecin
queen
queens
quentin
quercus
quest
question
questions
qui
quick
quickfacts
quiet
quijote
quinn
quintus
r
ra
raa
raahe
raahen
raajat
raaka
raakao
raamattu
raamattua
raamatun
raamatunka
raamatussa
raamatusta
raaseporin
raatihuone
raatikainen
rabbi
rabbit
rac
race
races
rachel
racing
rad
radalla
radalle
radalta
radan
radar
radat
radiation
radical
radikaali
radikaalin
radio
radioamato
radioasema
radiohead
radiola
radion
radioon
radiopuhelimet
radiossa
radiotoimittaja
radoilla
rae
raevuori
raf
rafael
rage
ragnar
raha
rahaa
rahalla
rahama
rahan
rahansa
rahasta
rahasto
rahaston
rahat
rahayksikko
rahikainen
rahkonen
rahman
rahoittaa
rahoitti
rahoituksen
rahoituksesta
rahoitus
rahoitusta
rahoja
rahojen
rahtia
rai
raid
raidat
raide
raider
raija
rail
raili
railroad
railway
raimo
rain
rainbow
rainer
rainio
raino
raion
raiona
raionam
raisa
raisio
raision
raita
raitio
raittila
raittinen
raivio
raivo
raja
rajaa
rajala
rajalla
rajalle
rajalta
rajama
rajan
rajana
rajat
rajaton
rajattu
rajautuu
rajavartiolaitoksen
rajoilla
rajoitettu
rajoittaa
rajoittavat
rajoitti
rajoittui
rajoittuu
rajoitukset
rajoituksia
rajoja
rajojen
raju
rajusti
rak
rakas
rakasta
rakastaa
rakastaja
rakastan
rakastettu
rakasti
rakastui
rakastunut
rakastuu
rakenne
rakennelma
rakennetaan
rakennetta
rakennettiin
rakennettu
rakennettua
rakennettuja
rakennettuun
rakennetuista
rakennetun
rakennetussa
rakennetut
rakennukseen
rakennuksen
rakennuksessa
rakennuksesta
rakennukset
rakennuksia
rakennuksiin
rakennuksissa
rakennuksista
rakennus
rakennusalan
rakennusinsino
rakennuskanta
rakennuskulttuuri
rakennuslehti
rakennusmestari
rakennusperinto
rakennusta
rakennusten
rakennusto
rakennustyo
rakennuttama
rakennutti
rakensi
rakensivat
rakentaa
rakentaja
rakentama
rakentamaan
rakentamalla
rakentaminen
rakentamiseen
rakentamiseksi
rakentamisen
rakentamisessa
rakentamisesta
rakentamista
rakentanut
rakentavat
rakenteeltaan
rakenteen
rakenteeseen
rakenteessa
rakenteesta
rakenteet
rakenteiden
rakenteilla
rakenteita
rakentuu
raketin
raketti
rakkauden
rakkaudesta
rakkaus
rakkautensa
rakkautta
ral
rale
ralf
ralli
ralliautoilija
rallin
rallissa
rally
ralph
ram
rama
rambo
rami
ramo
ramone
ramos
ramsay
ramses
ramsey
ran
rand
randall
randolph
random
randy
rangaista
rangaistuksen
rangaistuksia
rangaistus
rangaistusta
rangan
rangattomia
range
ranger
rangereiden
rangerit
rangers
rangersin
rank
ranking
rankingissa
rankings
rannalla
rannalle
rannalta
rannan
rannassa
rannasta
rannat
rannikko
rannikkoa
rannikkotykisto
rannikoilla
rannikolla
rannikolle
rannikolta
rannikon
rannikosta
rannoilla
rannoille
ransk
ranska
ranskaa
ranskaan
ranskaksi
ranskalainen
ranskalais
ranskalaiseen
ranskalaisen
ranskalaisessa
ranskalaisesta
ranskalaiset
ranskalaisia
ranskalaista
ranskalaisten
ranskalle
ranskan
ranskankielinen
ranskassa
ranskasta
rant
ranta
rantaa
rantaan
rantala
rantanen
rantaviiva
rantaviivaa
rantaviivan
rantoja
rantojen
raoul
rap
raphael
rapid
rapids
raportin
raportissa
raportoi
raportoitiin
raportoitu
raportteja
raportti
rard
rare
ras
rasilainen
rasismi
rask
raskaaksi
raskaan
raskaana
raskaansarjan
raskaasti
raskaat
raskaiden
raskaita
raskas
raskasta
raskauden
rasmus
rasmussen
rastas
rasva
rasvaa
rat
rata
rataa
ratamoottoripyo
rataosalla
rataosuus
ratapyo
rataverkon
ratchet
rate
rates
rateyourmusic
ratings
ration
ratkaisee
ratkaisemaan
ratkaiseva
ratkaisevan
ratkaisevasti
ratkaisi
ratkaista
ratkaistaan
ratkaistiin
ratkaisu
ratkaisua
ratkaisuja
ratkaisun
ratkaisut
ratkaisuun
ratkesi
ratojen
rats
ratsastaa
ratsastaja
ratsastus
ratsu
ratsuva
rau
raudan
rauha
rauhaa
rauhaan
rauhala
rauhallinen
rauhallisesti
rauhallista
rauhan
rauhanpalkinnon
rauhanpalkinto
rauhanpuolustajat
rauhansopimuksen
rauhansopimus
rauhassa
rauhasta
rauhoitettu
raukka
raul
rauli
rauma
raumalla
rauman
rauni
raunio
raunioita
rauniot
rauno
rauste
rauta
rautaa
rautalammin
rautateiden
rautateihin
rautatie
rautatieasema
rautatieasemalla
rautatieasemalle
rautatieasemalta
rautatieaseman
rautatiela
rautatieliikennepaikat
rautatieliikennepaikka
rautatieliikenteeseen
rautatien
rautatiet
rautatieta
rautatieyhtio
rautavaara
rautavaaran
rautiainen
rautio
rautja
raven
ravinnokseen
ravinnoksi
ravinnon
ravinnosta
ravinteita
ravinto
ravintoa
ravintola
ravintolaa
ravintolan
ravintolassa
ravintolat
ravintoloissa
ravintoloita
ravintoon
raw
ray
raymond
razmes
rb
rbund
rbundet
rc
rca
rd
rda
rden
rdenin
rdens
rdin
rdoba
re
rea
reach
read
reader
reading
readme
ready
reagan
reaganin
reagoi
reagoida
reagoivat
reaktio
reaktioissa
reaktioita
reaktiolla
reaktion
reaktiossa
reaktiot
reaktiota
reaktorin
real
realismi
realismin
realistinen
reality
really
reason
rebecca
rebekka
rebel
rebellion
rebels
rebro
rec
recensement
recent
reconstruction
record
recording
recordings
records
recordsille
recordsin
red
redaktor
redemption
reed
reeder
reen
reenpa
reetta
reeves
ref
reference
refl
reflections
reform
reggae
regia
regina
reginald
region
regional
regions
register
registry
regular
regulation
rehellinen
reheva
rehevo
rehn
rehtori
rehtorin
rehtorina
rei
reia
reich
reid
reiden
reign
reihin
reijo
reika
reilla
reilly
reilun
reilusti
reilut
reima
reiman
rein
reina
reinhard
reinhold
reinikainen
reinin
reino
reipas
reisja
reissa
reista
reita
reitilla
reitille
reitin
reitit
reitteja
reitti
reittia
reittien
reja
rekiaro
rekisteri
rekisterihallitus
rekisteriin
rekisterikeskus
rekisterissa
rekistero
rekola
rela
relander
relanderin
related
relations
relay
release
released
releases
reliance
reliefweb
religion
religions
religious
rella
relle
remains
remember
remes
remix
remixes
remo
remontin
remontoitiin
remontti
remu
ren
rena
renaissance
renault
rence
rene
renessanssin
rengas
rening
reningen
renkaan
renkaat
renkaiden
renkaita
renki
renno
rensa
renta
rentola
renvall
repea
repo
repola
reponen
report
reporter
reports
repoveden
republic
republikaanien
republikaanipoliitikko
republikaanisen
requiem
rer
res
rescue
research
researchgate
reserve
reserviin
reservila
reservin
resident
resiina
resistance
resolution
resort
resource
resources
response
respubliki
ressa
rest
resta
result
resultats
results
resursseja
resurssien
resurssit
ret
retkeilija
retkeilykasvio
retkella
retken
retket
retki
retkia
retkikunnan
retkikunta
reto
retoromaaniksi
retrieved
retro
retto
return
returns
reuna
reunaa
reunaan
reunalla
reunan
reunassa
reunat
reunoilla
reunustavat
reuter
reuters
rev
reveal
revealed
reveals
revenge
review
reviews
revised
revisited
revival
revolution
rex
rey
reyes
reykjavi
reyn
reynolds
rez
reza
rf
rfc
rg
rga
rgen
rgios
rgph
rha
rhi
rho
rhode
rhodes
rhythm
ri
ria
riaa
riajo
riajon
riajossa
rialiupseeri
ric
rica
rican
ricardo
ricassa
riccardo
ricciardo
rice
rich
richard
richardin
richards
richardson
richie
richin
richissa
richmond
richter
rick
ricky
rico
ridderskap
ride
rider
ridge
ridley
rie
riemu
rien
rienta
rif
riga
right
rightarrow
rights
rii
riian
riianlahdella
riiassa
riidan
riihima
riik
riika
riikka
riikonen
riin
riina
riippuen
riippui
riippumaton
riippumatta
riippumattomia
riippuu
riippuvainen
riippuvaisia
riippuvat
riippuvuus
riisi
riisia
riisin
riista
riita
riitaa
riitta
riitti
rija
rika
rikapteeni
rikas
rikhard
rikka
rikkaan
rikkaat
rikkaiden
rikkain
rikki
rikkinen
rikkoa
rikkoi
rikkomisesta
rikkonut
rikkoo
rikokseen
rikoksen
rikoksesta
rikokset
rikoksia
rikoksista
rikollinen
rikollisia
rikollisuuden
rikollisuus
rikomppaniaan
rikos
rikoslain
rikoslaki
rikosten
riksi
riksmuseet
riku
ril
rila
rilar
rilehti
riley
riliitto
rilla
rille
rilleen
rilta
riluutnantti
rima
rimajuri
rimerkki
rimma
rin
rina
rinen
ring
ringo
rings
ringsgren
rinka
rinnakkain
rinnakkainen
rinnakkaismuoto
rinnalla
rinnalle
rinnan
rinnassa
rinne
rinsa
rinta
rintaan
rintakeha
rintala
rintama
rintamalla
rintamalle
rintaman
rintasyo
rintauinnissa
rinteella
rinteen
rinteessa
rinteet
rinteilla
rio
rion
riot
ripa
ripataljoona
ripataljoonaan
ripataljoonan
rirykmentin
ris
risa
rise
risen
riset
risia
rising
risk
riskeja
riski
riskia
riskin
rislakki
rissa
rissanen
rista
ristea
risteilija
risteilijo
risteykseen
risteyksessa
risteyma
risteys
risti
ristia
ristiin
ristija
ristima
ristin
ristiretkela
ristiretken
ristiretki
ristiriidassa
ristiriitaisia
ristiriitoja
risto
ristyksen
ristyksessa
ristys
rit
rita
ritari
ritariksi
ritarikunnan
ritarikunta
ritarin
ritarit
ritchie
ritella
ritellyt
ritelma
riteltiin
ritelty
riteta
ritetty
rito
ritta
rittelee
rittelema
ritteleva
ritteli
rittely
ritter
ritti
ritual
ritva
ritykselta
ritys
riutta
riva
riveihin
riveissa
river
rivera
rivers
rivi
rivia
riviera
rivin
rivissa
rivit
rja
rje
rjen
rjessa
rjesta
rjestad
rjestelma
rjestelmia
rjestelmien
rjestelmiin
rjestelmissa
rjestelmista
rjestely
rjestelyt
rjesteta
rjestetta
rjestettiin
rjestetty
rjestettyyn
rjestetyissa
rjestetyn
rjestetyssa
rjesti
rjestiva
rjesto
rjestykseen
rjestyksen
rjestyksessa
rjestyksesta
rjestys
rjestysluku
rjestysta
rjet
rk
rka
rkea
rkeen
rkeiden
rkeimma
rkeimmista
rkeimpa
rkeimpia
rkeimpien
rkeimpiin
rkein
[...]
