!
"
#
##0
##1
##10
##11
##12
##13
##14
##15
##16
##17
##18
##19
##2
##20
##21
##22
##23
##24
##25
##26
##27
##28
##29
##3
##30
##31
##32
##33
##34
##35
##36
##37
##38
##39
##4
##40
##41
##42
##43
##44
##45
##46
##47
##48
##49
##5
##50
##51
##52
##53
##54
##55
##56
##57
##58
##59
##6
##60
##61
##62
##63
##64
##65
##66
##67
##68
##69
##7
##70
##71
##72
##73
##74
##75
##76
##77
##78
##79
##8
##80
##81
##82
##83
##84
##85
##86
##87
##88
##89
##9
##90
##91
##92
##93
##94
##95
##96
##97
##98
##99
$
%
&
'
(
)
*
+
,
-
.
/
0
00
000
001
002
003
004
005
006
007
01
010
02
03
04
05
050
06
07
08
09
1
10
100
1000
1001
101
102
103
104
105
1050
106
107
108
1080
109
11
110
1100
111
112
113
114
115
1150
116
117
118
119
12
120
1200
1204
121
122
122462
123
124
125
1250
126
127
128
129
13
130
1300
131
132
133
134
135
1350
136
137
138
139
14
140
1400
141
142
143
144
145
1450
146
147
1470
148
149
1490
1492
15
150
1500
151
1510
1516
1519
152
1520
1521
1522
1523
1526
153
1530
1536
154
1540
1547
155
1550
1552
1553
1554
1555
1556
1557
1558
1559
156
1560
1563
1568
1569
157
1570
1571
1572
1577
158
1580
1582
1583
1587
159
1590
1592
1593
1595
1596
1597
1598
1599
16
160
1600
1601
1602
1603
1604
1605
1606
1608
1609
161
1610
1611
1612
1613
1614
1615
1616
1617
1618
1619
162
1620
1621
1622
1623
1625
1626
1627
1628
1629
163
1630
1631
1632
1633
1634
1635
1636
1637
1638
1639
164
1640
1641
1642
1643
1644
1645
1646
1647
1648
1649
165
1650
1651
1652
1653
1654
1655
1656
1657
1658
1659
166
1660
1661
1662
1663
1664
1665
1666
1667
1668
1669
167
1670
1671
1672
1673
1674
1675
1676
1678
1679
168
1680
1681
1682
1683
1684
1685
1686
1687
1688
1689
169
1690
1691
1692
1693
1694
1695
1696
1697
1698
1699
17
170
1700
1701
1702
1703
1704
1705
1706
1707
1708
1709
171
1710
1711
1712
1713
1714
1715
1716
1717
1718
1719
172
1720
1721
1722
1723
1724
1725
1726
1727
1728
1729
173
1730
1731
1732
1733
1734
1735
1736
1737
1738
1739
174
1740
1741
1742
1743
1744
1745
1746
1747
1748
1749
175
1750
1751
1752
1753
1754
1755
1756
1757
1758
1759
176
1760
1761
1762
1763
1764
1765
1766
1767
1768
1769
177
1770
1771
1772
1773
1774
1775
1776
1777
1778
1779
178
1780
1781
1782
1783
1784
1785
1786
1787
1788
1789
179
1790
1791
1792
1793
1794
1795
1796
1797
1798
1799
18
180
1800
1801
1802
1803
1804
1805
1806
1807
1808
1809
181
1810
1811
1812
1813
1814
1815
1816
1817
1818
1819
182
1820
1821
1822
1823
1824
1825
1826
1827
1828
1829
183
1830
1831
1832
1833
1834
1835
1836
1837
1838
1839
184
1840
1841
1842
1843
1844
1845
1846
1847
1848
1849
185
1850
1851
1852
1853
1854
1855
1856
1857
1858
1859
186
1860
1861
1862
1863
1864
1865
1866
1867
1868
1869
187
1870
1871
1872
1873
1874
1875
1876
1877
1878
1879
188
1880
1881
1882
1883
1884
1885
1886
1887
1888
1889
189
1890
1891
1892
1893
1894
1895
1896
1897
1898
1899
19
190
1900
1901
1902
1903
1904
1905
1906
1907
1908
1909
191
1910
1911
1912
1913
1914
1915
1916
1917
1918
1919
192
1920
1921
1922
1923
1924
1925
1926
1927
1928
1929
193
1930
1931
1932
1933
1934
1935
1936
1937
1938
1939
194
1940
1941
1942
1943
1944
1945
1946
1947
1948
1949
195
1950
1951
1952
1953
1954
1955
1956
1957
1958
1959
196
1960
1961
1962
1963
1964
1965
1966
1967
1968
1969
197
1970
1971
1972
1973
1974
1975
1976
1977
1978
1979
198
1980
1981
1982
1983
1984
1985
1986
1987
1988
1989
199
1990
1991
1992
1993
1994
1995
1996
1997
1998
1999
2
20
200
2000
2001
2002
2003
2004
2005
2006
2007
2008
2009
201
2010
2011
2012
2013
2014
2015
2016
2017
2018
2019
20190406
202
2020
2021
2022
2023
2024
2025
203
2030
204
205
2050
206
207
208
209
21
210
2100
211
212
213
214
215
216
217
218
219
22
220
221
222
223
224
225
226
227
228
229
23
230
2300
231
232
233
234
235
236
237
238
239
24
240
241
242
243
244
245
246
247
248
249
25
250
2500
251
252
253
254
255
256
257
258
259
26
260
2600
261
262
263
264
265
266
267
268
269
27
270
271
272
273
274
275
276
277
278
279
28
280
281
282
283
284
285
286
287
288
289
29
290
291
292
293
294
295
296
297
298
299
3
30
300
3000
301
302
303
304
305
306
307
308
309
31
310
311
312
313
314
315
316
3166
317
318
319
32
320
3200
321
322
323
324
325
326
327
328
329
33
330
331
332
333
334
335
336
337
338
339
34
340
341
342
343
344
345
346
347
348
349
35
350
3500
351
352
353
354
355
356
357
358
359
36
360
361
362
363
364
365
366
367
368
369
37
370
371
372
373
374
375
376
377
378
379
38
380
381
382
383
384
385
386
387
388
389
39
390
391
392
393
394
395
396
397
398
399
4
40
400
4000
401
402
403
404
405
406
407
408
409
41
410
411
412
413
414
415
416
417
418
419
42
420
421
422
423
424
425
426
427
428
429
43
430
431
432
433
434
435
436
437
438
439
44
440
441
442
443
444
445
446
447
448
449
45
450
451
452
453
454
455
456
457
458
459
46
460
461
462
463
464
465
466
467
468
469
47
470
471
472
473
474
475
476
478
479
48
480
481
482
483
484
485
486
487
488
49
490
492
493
494
495
496
498
499
5
50
500
5000
501
502
503
504
505
506
507
508
509
51
510
511
512
514
515
516
518
52
520
521
522
524
525
526
527
528
529
53
530
531
532
533
534
535
536
539
54
540
541
542
544
545
546
55
550
551
552
553
555
56
560
563
565
57
570
571
575
576
578
58
580
581
582
584
585
586
59
590
593
6
60
600
6000
601
602
603
604
605
607
609
61
610
611
612
615
616
617
618
62
620
621
622
625
626
627
628
629
63
630
632
634
635
636
639
64
640
641
642
645
65
650
656
66
660
661
662
666
667
67
670
675
68
680
685
69
690
691
7
70
700
7000
701
705
707
71
710
711
715
717
72
720
725
727
73
730
737
74
740
746
747
75
750
757
76
760
767
768
77
770
775
777
78
780
787
79
790
8
80
800
8000
802
804
81
810
813
815
82
820
825
83
830
84
840
85
850
851
855
86
860
87
870
88
880
888
89
9
90
900
9000
9059
91
910
911
92
920
923
925
93
930
94
945
95
950
951
952
96
960
97
978
98
980
99
990
99046
999
:
;
<
=
>
?
@
\
^
_
`
a
aa
aaa
aadolf
aadolfin
aahi
aakkoset
aakkosja
aalberg
aale
aallon
aallot
aalto
aaltoja
aaltojen
aaltonen
aaltosen
aamu
aamulehden
aamulehti
aamulla
aamun
aamuna
aamupa
aamuyo
aan
aapeli
aapo
aarin
aarne
aarni
aarnio
aarno
aaro
aaron
aaronin
aarre
aarteen
aasi
aasia
aasiaan
aasialainen
aasialaisia
aasian
aasiassa
aasiasta
aasit
aate
aateli
aatelin
aatelinen
aateliset
aatelissa
aatelissuku
aateliston
aateloitiin
aatos
aatteen
aatteet
aatu
aave
aavikko
aavikolla
aavikon
ab
abba
abbas
abbasidien
abbey
abbott
abc
abd
abdel
abdul
abdullah
abe
abel
abhasian
abigail
abortin
about
above
abraham
abrahamin
abs
absoluuttinen
abstrakti
abu
ac
acade
academic
academy
access
accident
ace
acer
acid
acoustic
across
act
acta
action
active
actors
ad
ada
adam
adams
adamsin
addis
ade
adel
adelaide
adele
adhd
adin
adjutanttina
adler
administration
admiral
adobe
adolf
adolphe
adoptoi
adrian
adrianmeren
advance
advanced
adventure
adventures
adw
ae
aero
aerospace
af
afa
afc
affairs
afganistan
afganistaniin
afganistanin
afganistanissa
africa
african
afrikan
afrikassa
afrikasta
afrikka
afrikkaa
afrikkaan
afrikkalainen
afrikkalaisen
afrikkalaiset
afrikkalaisia
afrikkalaisten
afroamerikkalainen
afroamerikkalaiset
afroamerikkalaisia
afrodite
after
ag
aga
again
against
agatha
age
agency
agent
agentit
agents
agentti
agenttina
ages
aggressiivinen
agi
agnes
agora
agoran
agricola
agricolan
agriculture
agronomi
ah
ahkera
ahkerasti
ahl
ahlqvist
ahlstro
ahmad
ahmed
aho
ahola
ahon
ahonen
ahti
ahtisaari
ahven
ahvenanmaa
ahvenanmaalla
ahvenanmaan
ai
aid
aidan
aidat
aidoissa
aidosti
aids
aiemmalta
aiemman
aiemmasta
aiemmat
aiemmin
aiemminkin
aiemmissa
aiemmista
aiempaa
aiempaan
aiempi
aiempia
aiempien
aiempiin
aihe
aiheen
aiheena
aiheensa
aiheeseen
aiheesta
aiheet
aiheinen
aiheisia
aiheisiin
aiheista
aiheita
aihetta
aiheuta
aiheuttaa
aiheuttaen
aiheuttaja
aiheuttama
aiheuttamaa
aiheuttamaan
aiheuttaman
aiheuttamasta
aiheuttamat
aiheuttamia
aiheuttamien
aiheuttamiin
aiheuttamista
aiheuttaneen
aiheuttaneet
aiheuttanut
aiheuttava
aiheuttavan
aiheuttavat
aiheutti
aiheuttivat
aiheutui
aiheutunut
aiheutuu
aiheutuvat
aik
aika
aikaa
aikaan
aikaansa
aikaansaamiseksi
aikain
aikainen
aikaiseen
aikaiseksi
aikaisemman
aikaisemmasta
aikaisemmat
aikaisemmin
aikaisemmista
aikaisempaa
aikaisempi
aikaisempia
aikaisempien
aikaisen
aikaisena
aikaisessa
aikaisesta
aikaisesti
aikaiset
aikaisia
aikaisin
aikaisintaan
aikaisista
aikaista
aikaisten
aikaja
aikajana
aikakaudella
aikakauden
aikakausi
aikakauskirja
aikakauslehden
aikakauslehdet
aikakauslehti
aikakautensa
aikakautta
aikakone
aikalaiskirja
aikamme
aikana
aikanaan
aikansa
aikataulu
aikataulun
aikava
aikavyo
aikeet
aikeissa
aikio
aikoi
aikoihin
aikoina
aikoinaan
aikoja
aikojen
aikonut
aikoo
aikovansa
aikovat
aikuinen
aikuiseksi
aikuisen
aikuisena
aikuiset
aikuisia
aikuisilla
aikuisille
aikuista
aikuisten
aila
aili
aim
aimo
ain
aina
ainakaan
ainakin
aine
aineeksi
aineen
aineena
aineenaan
aineesta
aineet
aineiden
aineista
aineisto
aineistoa
aineiston
aineistot
aineita
aineja
aineksen
ainekset
aineksia
aines
ainesta
ainetta
aino
ainoa
ainoaksi
ainoan
ainoana
ainoastaan
ainoat
ainoita
ainut
ainutlaatuinen
ainuttakaan
aio
aiotaan
aiottiin
air
airbus
aircraft
aires
airin
airlines
airlinesin
airport
airways
airwaysin
ais
aise
aisti
aita
aitajuoksija
aitajuoksijat
aitajuoksu
aitajuoksun
aitajuoksussa
aito
aitoa
aitoja
aitta
aivan
aivoihin
aivoissa
aivojen
aivot
aivota
aj
aja
ajaa
ajaen
ajaja
ajaksi
ajalla
ajallaan
ajalle
ajallisesti
ajalta
ajamaan
ajamalla
ajan
ajaneen
ajaneet
ajanjakso
ajanjakson
ajankohdan
ajankohta
ajankohtaisia
ajankohtaista
ajanlaskumme
ajanlaskun
ajanut
ajassa
ajasta
ajastaan
ajat
ajatella
ajatellaan
ajatellen
ajatellut
ajateltiin
ajateltu
ajattelee
ajattelemaan
ajatteli
ajattelija
ajattelu
ajattelua
ajattelun
ajattelussa
ajatteluun
ajatukseen
ajatuksen
ajatuksena
ajatuksensa
ajatuksesta
ajatukset
ajatuksia
ajatuksiaan
ajatuksiin
ajatus
ajatusta
ajatusten
ajautui
ajautuivat
ajautunut
ajautuu
ajavat
ajax
ajaxin
ajetaan
ajettiin
ajettu
ajettua
ajettuaan
ajetun
ajo
ajoi
ajoilta
ajoin
ajoissa
ajoista
ajoitetaan
ajoitettu
ajoittain
ajoittuu
ajoittuvat
ajoitus
ajoivat
ajojen
ajon
ajoneuvo
ajoneuvoa
ajoneuvoja
ajoneuvojen
ajoneuvon
ajoneuvot
ajoon
ajossa
ajot
ak
aka
akaan
akademi
akademin
akateemikko
akateeminen
akateemisen
akatemia
akatemiaan
akatemian
akatemiassa
akatemiasta
akbar
akhaian
aki
akin
akira
akka
akku
akropoliin
akropolis
aks
aksel
akseli
akselia
akselilla
akselin
akseliva
akselivaltojen
aktiivi
aktiivinen
aktiivisen
aktiivisena
aktiivisesti
aktiivisia
aktiivista
aktiivisuus
aktiiviuransa
aktivisti
aktivistien
aktivistit
aktivoi
aku
akun
akustinen
akustisen
akuutti
akvaariossa
al
ala
alaa
alaan
alabama
alabaman
alaha
alaheimo
alaheimon
alaheimoon
alahuoneen
alaika
alain
alainen
alaiseksi
alaisen
alaisena
alaiset
alaisia
alaisuudessa
alaisuuteen
alaja
alajuoksulla
alajuoksun
alakoulu
alalajeja
alalaji
alalajia
alalajin
alalajit
alalla
alallaan
alalle
alalta
alaltaan
alama
alan
alanen
alanko
alankomaalainen
alankomaalaisen
alankomaalaiset
alankomaat
alankomaiden
alankomaihin
alankomaissa
alankomaita
alansa
alaosa
alaosan
alaosassa
alapuolella
alapuolelle
alapuolelta
alarik
alaryhma
alas
alaska
alaskan
alaskassa
alaspa
alasta
alaston
alat
alatalo
alatalon
alati
alavuden
alavus
alba
alban
albania
albanian
albany
albert
alberta
albertan
albertin
alberto
albin
albrecht
album
albumeilla
albumeista
albumeita
albumeja
albumi
albumia
albumiaan
albumien
albumiin
albumiksi
albumilistalla
albumilistan
albumilla
albumillaan
albumille
albumilta
albumin
albumina
albuminsa
albumista
albumit
albums
albus
aldo
ale
alec
alehin
alejandro
aleksander
aleksandr
aleksandra
aleksandriaan
aleksandrialainen
aleksandrian
aleksandriassa
aleksandrovits
aleksanteri
aleksanterin
aleksei
aleksi
aleksis
alemmaksi
alemman
alemmas
alemmat
alemmissa
alempaan
alempana
alempi
alempien
alentaa
alert
alessandro
aletaan
alettiin
alettu
alettua
alex
alexander
alexandra
alexandre
alexin
alexis
alf
alfa
alfons
alfonso
alfred
alfredo
alfthan
algebra
algeria
algerian
algeriassa
algoritmi
alhaalla
alhaalta
alhainen
alhaisempi
alhaisen
alho
ali
alia
alias
alice
alicia
alien
align
alija
alikersantti
alin
alina
alipa
alison
alissa
alistettiin
aliupseeri
aliupseeriksi
alive
alk
alkaa
alkaen
alkaessa
alkamisajat
alkamisen
alkamista
alkaneen
alkaneessa
alkaneet
alkanut
alkanutta
alkava
alkavan
alkavat
alkio
alkion
alkoholi
alkoholia
alkoholin
alkoholinka
alkoi
alkoikin
alkoivat
alkon
alku
alkua
alkuaan
alkuaikoina
alkuaikojen
alkuaine
alkuaineet
alkuaineiden
alkuera
alkuerissa
alkujaan
alkukaudella
alkukauden
alkukesa
alkula
alkulohko
alkulohkon
alkulohkoon
alkulohkossa
alkulohkossaan
alkulohkot
alkuluku
alkuna
alkunsa
alkuosa
alkup
alkupa
alkupera
alkupuolella
alkupuolelle
alkupuolelta
alkupuolen
alkupuoliskolla
alkusarjan
alkuteksti
alkuteos
alkuun
alkuvaiheen
alkuvaiheessa
alkuvaiheet
alkuvaiheissa
alkuvuodesta
alkuvuodet
alkuvuonna
alkuvuosina
all
alla
allah
allan
allas
alle
alleen
allegro
allekirjoitettiin
allekirjoittamaan
allekirjoittanut
allekirjoitti
allekirjoittivat
allen
allenin
alli
alliance
allianssi
allison
allmers
allmusic
allsvenskan
allsvenskaniin
allsvenskanin
allsvenskanissa
alma
almanakassa
aloilla
alois
aloite
aloitetaan
aloitettiin
aloitettu
aloitettua
aloittaa
aloittaen
aloittaessa
aloittamaan
aloittamisesta
aloittamista
aloittaneen
aloittaneet
aloittanut
aloittavat
aloitteen
aloitteesta
aloitti
aloittivat
aloja
alojen
alone
alonso
alonson
alpeilla
alpes
alpesin
alpha
alphonse
alpit
alpo
alppien
alppihiihdon
alppihiihta
alppihiihto
alppiyhdistetyssa
als
also
alt
alta
altaan
altaaseen
altaassa
alter
alternative
altis
altistaa
altistuminen
altonan
alttari
alttarin
alttaritaulu
alttaritaulun
alttoviulu
alue
alueeksi
alueella
alueellaan
alueelle
alueellinen
alueellisen
alueellisesti
alueelliset
alueellisia
alueellista
alueelta
alueen
alueena
alueensa
alueeseen
alueessa
alueesta
alueet
aluehallinnon
aluehallintouudistuksen
alueiden
alueilla
alueille
alueilta
alueisiin
alueista
alueita
alueittain
aluejako
aluejaon
aluepiirin
aluepiirissa
aluetta
aluetunnus
alueyksikko
alueyksiko
alukseen
aluksella
alukselle
alukselta
aluksen
aluksensa
aluksessa
aluksesta
alukset
aluksi
aluksia
aluksilla
aluksille
aluksista
alulle
alumiini
alumiinia
alumnien
alun
alus
alusluettelosta
alusluokka
alussa
alusta
alustalla
alustalle
alustan
alustavasti
alusten
alustoille
alvar
alves
alvin
always
alzheimerin
am
ama
amadeus
amalia
amanda
amato
amazing
amazon
amazonin
amber
amc
amd
ame
amelia
amen
america
american
americans
amerikan
amerikansuomalainen
amerikansuomalaiset
amerikassa
amerikasta
amerikka
amerikkaa
amerikkaan
amerikkalainen
amerikkalaisen
amerikkalaisessa
amerikkalaiset
amerikkalaisia
amerikkalaista
amerikkalaisten
ami
amiga
amin
aminoff
amiraali
amiraalit
amiraliteetin
amk
ammatillinen
ammatillisen
ammatillista
ammatiltaan
ammatin
ammatit
ammatteja
ammatti
ammattia
ammattija
ammattikorkeakoulu
ammattikorkeakoulun
ammattikorkeakoulussa
ammattilainen
ammattilaiseksi
ammattilaisena
ammattilaiset
ammattilaisten
ammattilaisura
ammattilaisuraansa
ammattilaisurallaan
ammattilaisuransa
ammattiliitto
ammattiliittojen
ammattiopisto
ammuksia
ammunta
ammuntapeli
ammutaan
ammuttiin
ammuttu
amnesty
amon
among
amor
amore
amos
amour
ampua
ampui
ampuivat
ampuja
ampujan
ampujat
ampuma
ampumaan
ampumahiihdon
ampumahiihta
ampumahiihto
ampumalla
ampunut
ampuu
amsterdam
amsterdamin
amsterdamissa
amurin
amy
an
ana
anaheim
anakin
analysis
analyysi
analyysin
analyyttinen
analyyttisen
anastasia
anatoli
anatomia
anatomian
anc
anchor
ancient
and
anders
andersen
andersin
anderson
andersonin
andersson
anderssonin
andien
andorra
andorran
andra
andre
andrea
andreas
andrei
andrew
andrews
android
andrzej
andy
angel
angela
angeles
angelesiin
angelesin
angelesissa
angelo
angels
angiosperm
anglo
angolan
angry
angus
ani
animaatio
animaatioelokuva
animaatioelokuvassa
animaatioelokuvat
animaation
animaatiosarja
animaatiosarjan
animaatiosarjassa
animaatiosarjat
animaatiossa
animaattori
animal
animals
animated
animation
anime
animessa
anin
anissa
anita
anja
anjalan
ankan
ankara
ankaraa
ankaran
ankarasti
ankka
ankkurissa
ann
anna
annala
annan
anne
anneli
annetaan
annettava
annette
annettiin
annettu
annettua
annetuista
annetulla
annetun
annetussa
annetut
anni
annie
annika
annikki
anniversary
annoksen
annos
annual
ano
anoi
anonyymi
another
ans
ansa
ansaan
ansainnut
ansaita
ansaitsee
ansaitsi
anselm
ansioista
ansioistaan
ansiomerkki
ansiosta
ansiot
ansiota
anssi
answers
ant
antaa
antaen
antaisi
antama
antamaa
antamaan
antamalla
antaman
antamassaan
antamasta
antamat
antamia
antamien
antaminen
antamista
antaneen
antaneet
antanut
antauduttua
antautui
antautuivat
antautumaan
antautumisen
antava
antavaan
antavan
antavat
ante
anteeksi
antenni
antero
anthem
anthology
anthony
anti
antigonos
antiikin
antiikki
antila
antin
antiokhos
antiokian
anto
antoi
antoine
antoinette
antoivat
antologia
antologiassa
antologioissa
anton
antoni
antonia
antonio
antoniuksen
antonius
antonov
antony
antropologi
antti
anttila
anttilan
anttonen
antwerpenin
antwerpenissa
anu
any
ao
ap
apache
apartheid
apina
apo
apocalypse
apollo
apollodoros
apollon
apollonin
apostoli
apostolien
apostoliseksi
app
apple
applen
approx
april
apteekkari
apteekki
apu
apua
apul
apulainen
apulaiseksi
apulaisena
apulaisjohtaja
apulaispa
apulaisprofessori
apulaisprofessorina
apulanta
apuna
apunaan
apuraha
apurahan
apuun
apuva
apuvalmentaja
apuvalmentajaksi
apuvalmentajana
apweb
aq
aqua
ar
ara
arab
arabeja
arabia
arabiaa
arabiaksi
arabialainen
arabian
arabiassa
arabien
arabit
aragonian
arc
arcade
arch
archbishop
archer
archie
architecture
archive
archives
arctic
arctica
are
area
areena
areenalla
areenan
areenassa
arena
arenalla
argentiina
argentiinaan
argentiinalainen
argentiinalaiset
argentiinan
argentiinassa
argentina
argo
argoksen
argumentti
ari
aria
arian
ariane
ariel
aristoteleen
aristoteles
arizona
arizonan
arizonassa
arja
arjen
ark
arka
arkaainen
arkaaisella
arkaaisen
arkadian
arkangelin
arkansas
arkea
arkeologi
arkeologian
arkeologinen
arkeologisen
arkeologisessa
arkeologiset
arkeologisia
arkeologisten
arkeologit
arkiela
arkin
arkipa
arkisin
arkisto
arkistoitu
arkiston
arkistossa
arkistot
arkki
arkkiherttua
arkkihiippakunnan
arkkihiippakuntaan
arkkipiispa
arkkipiispaksi
arkkipiispan
arkkipiispat
arkkitehdiksi
arkkitehdin
arkkitehdit
arkkitehti
arkkitehtien
arkkitehtina
arkkitehtitoimisto
arkkitehtuuri
arkkitehtuuria
arkkitehtuuriin
arkkitehtuurin
arkkitehtuurissa
arkkitehtuurista
arkku
arktinen
arktisen
arkun
arm
armand
armas
arme
armeija
armeijaa
armeijaan
armeijakunnan
armeijakunta
armeijalle
armeijan
armeijansa
armeijaryhma
armeijassa
armeijasta
armeijat
armeijoiden
armenia
armenialainen
armenialaiset
armenialaisten
armenian
armfelt
armi
armin
armo
armoa
armollinen
armon
armor
armosta
arms
armstrong
armstrongin
army
arne
arno
arnold
aro
aron
around
arponen
arrow
ars
arsenal
arsenalin
art
arte
artemiin
artemis
arthur
arthurin
article
articles
artikkeleita
artikkeli
artikkelia
artikkelin
artikkelissa
artikkelissaan
artikkelista
artikkelit
artikla
artiklan
artist
artisteille
artisteista
artisteja
artisti
artistien
artistin
artistina
artistit
artists
artja
arto
arts
artsin
arttu
artturi
artur
arturo
arvelee
arveli
arvellaan
arveltiin
arveltu
arvi
arvid
arvio
arvioi
arvioida
arvioidaan
arvioiden
arviointi
arviointiin
arvioinut
arvioita
arvioitiin
arvioitu
arvioivat
arviolta
arvion
arviossa
arviot
arviota
arvo
arvoa
arvoinen
arvoisen
arvoisia
arvoista
arvoitus
arvoja
arvojen
arvokas
arvokasta
arvokilpailuissa
arvokisoissa
arvokkaan
arvokkaimmaksi
arvokkain
arvokkaita
arvoksi
arvolla
arvoltaan
arvon
arvonimea
arvonimen
arvonimet
arvonimi
arvonlisa
arvonsa
arvoon
arvosana
arvosanaksi
arvosanan
arvossa
arvosta
arvostaa
arvostelee
arvosteli
arvostelija
arvostelijat
arvostelivat
arvostellut
arvosteltiin
arvosteltu
arvostelu
arvostelua
arvosteluja
arvostelun
arvostelussa
arvostelussaan
arvostelut
arvosteluun
arvostettiin
arvostettu
arvostettuja
arvostetun
arvosti
arvostus
arvostusta
arvot
arvottiin
as
asa
ase
aseella
aseellinen
aseellisen
aseen
aseena
aseenaan
aseensa
aseet
aseiden
aseilla
aseisiin
aseista
aseistettu
aseistuksena
aseistus
aseistusta
aseita
aseka
aselepo
aselevon
asema
asemaa
asemaan
asemaansa
asemakaava
asemakaavan
asemalla
asemalle
asemalta
aseman
asemansa
asemapa
asemarakennuksen
asemarakennus
asemassa
asemasta
asemastaan
asemat
asemesta
asemia
asemien
asemiin
asemilla
asemissa
asemista
asenne
asennettiin
asennettu
asennossa
asentaa
asento
asentoon
asessori
asetelma
asetetaan
asetettiin
asetettu
asetetut
asetta
asettaa
asettama
asettamalla
asettaman
asettanut
asetti
asettivat
asettua
asettui
asettuivat
asettuneet
asettunut
asettuu
asettuvat
asetuksella
asetuksen
asetuksessa
asetukset
asetus
asetuskokoelma
asevelvollisuuden
asevoimat
asevoimien
ash
ashin
ashley
ashton
asia
asiaa
asiaan
asiain
asiainministerio
asiakas
asiakasta
asiakirja
asiakirjan
asiakirjat
asiakirjoissa
asiakirjoja
asiakirjojen
asiakkaan
asiakkaat
asiakkaiden
asiakkaille
asiakkaita
asialla
asiallinen
asiallisena
asiallisesti
asiamiehena
asiamies
asian
asiana
asianajaja
asianajajana
asianajajat
asianomaisen
asiantuntija
asiantuntijana
asiantuntijat
asiantuntijoiden
asiantuntijoita
asiassa
asiasta
asiat
asiatekstit
asikainen
asikkalan
asioiden
asioihin
asioissa
asioista
asioita
ask
askel
askeleen
askelta
asko
asnt
asp
aspx
ass
assa
assadin
assassin
assault
assembly
assistentti
assistenttina
associated
association
associationin
assyrian
asta
astana
aste
asteekkien
asteella
asteen
asteeseen
asteet
asteikko
asteikolla
asteikon
asteittain
asteriski
asterix
asteroidi
asteroidin
asteroidit
asteroidivyo
astetta
asti
astia
astian
astioita
aston
astra
astrid
astronautti
astua
astui
astunut
astuu
asu
asua
asuessaan
asui
asuin
asuinalue
asuinalueen
asuinalueet
asuinaluetta
asuinpaikan
asuinpaikat
asuinpaikka
asuinpaikkoja
asuinrakennukset
asuinrakennus
asuintalo
asuintaloja
asuivat
asukas
asukasluku
asukasluvultaan
asukasluvun
asukasma
asukasta
asukastiheys
asukkaan
asukkaaseen
asukkaasta
asukkaat
asukkaiden
asukkaille
asukkaista
asukkaita
asumaan
asumaton
asuminen
asumisen
asun
asuneen
asuneet
asunnon
asunnossa
asunnot
asunto
asuntoa
asuntoja
asuntojen
asuntoon
asunut
asutettiin
asuttama
asuttivat
asuttu
asutuksen
asutuksesta
asutukset
asutuksista
asutus
asutusalueilla
asutuskeskukset
asutuskeskuksia
asutuskeskus
asutusta
asutut
asuu
asuun
asuva
asuvan
asuvat
asuvia
asuvien
at
atari
atatu
ateena
ateenaan
ateenalainen
ateenalaiset
ateenalaisten
ateenan
ateenassa
ateenasta
atena
ateneumin
athene
athenen
athens
athlete
athletes
athletic
athletics
atk
atkins
atlanta
atlantan
atlantassa
atlantic
atlantiksen
atlantilla
atlantin
atlantis
atlas
atle
atomi
atomic
atomien
atomin
atomit
atp
att
attack
atte
attikan
attila
au
audi
audio
audrey
auer
auf
aug
augsburgin
august
augusta
auguste
augustin
augustinus
augusto
augustuksen
augustus
aukeaa
auki
aukio
aukiolla
aukion
aukko
aukkoja
aukon
aukusti
aula
auli
aulikki
aulis
aune
aunuksen
aura
aurajoen
auran
aureja
aurelius
auringon
auringossa
auringosta
aurinko
aurinkoa
aurinkokunnan
aurora
aus
austin
austinin
australia
australiaa
australiaan
australialainen
australialaisen
australialaiset
australian
australiassa
australiasta
austria
auta
author
authority
autio
autism
auto
autoa
autoasema
autobottien
autoihin
autoilija
autoilla
autoissa
autoista
autoja
autojen
autolla
automaattinen
automaattisesti
automalli
automobile
auton
autona
autonomian
autonominen
autonomisen
autonsa
autoon
autossa
autosta
autot
autourheilija
autourheilijat
auttaa
auttaakseen
auttamaan
auttanut
auttavat
auttoi
auttoivat
autumn
auvinen
aux
av
ava
avaa
avaamaan
avaaminen
avaimen
avaimet
avain
avajaiset
avajaisissa
avalanche
avalanchen
avant
avaruuden
avaruudessa
avaruudesta
avaruus
avaruusaluksen
avaruusalus
avaruusasemalle
avaruusaseman
avaruusja
avaruuslennot
avaruuslenta
avaruustoiminta
avaruuteen
avasi
avasivat
avata
avataan
avatar
avattiin
avattu
avauksessa
avaus
avauskierroksella
avauskokoonpanossa
avausmaali
avausmaalin
avausottelussa
avautui
avautuu
avautuvat
ave
avec
avellan
avenger
avengers
avenue
avery
aviation
avio
avioero
avioeron
avioitui
avioituivat
avioliiton
avioliitossa
avioliitosta
avioliitostaan
avioliitot
avioliitto
avioliittoa
avioliittonsa
avioliittoon
aviomiehen
aviomiehensa
aviomies
aviv
avoimeen
avoimeksi
avoimen
avoimena
avoimessa
avoimesti
avoimet
avoimia
avoimissa
avoin
avoinna
avointa
avointen
avro
avukseen
avuksi
avulla
avun
avusta
avustaa
avustaja
avustajana
avustamaan
avustamana
avustava
avusti
avustivat
avustuksella
award
awardin
awards
away
ax
axel
ay
ayk
ayrton
az
azerbaidz
b
ba
baari
baarissa
bab
baba
baby
babylon
babylonian
babylonin
bach
bachelor
bachin
back
backman
backstreet
bacon
bad
badding
baden
bae
bafta
bag
bagdadin
bagh
bahn
bahrain
bahrainin
baijerin
baikalian
bailey
baker
bakerin
bakteereja
bakteeri
bakteerien
bakteerin
bakteerit
bakun
bal
baldwin
baletin
baletti
balettitanssija
balin
balkanilla
balkanin
ball
ballad
balladi
ballard
ballet
baltian
baltiassa
baltic
baltimore
ban
banco
band
bandin
bane
bang
bangkok
bangladeshin
banjo
bank
banks
baptiste
bar
bara
barack
barbara
barber
barcelona
barcelonaan
barcelonan
barcelonassa
baritoni
barker
barksin
barn
barnes
barney
barokin
baron
barre
barrett
barrichello
barrie
barrow
barry
bars
bart
barton
bas
base
baseball
baseballin
baseballpelaaja
based
basel
baselin
basic
basil
basilika
basisti
basistiksi
basistina
basistit
basket
basketball
baskimaan
bass
basso
bassoa
bassokitara
basson
bastien
bat
bates
batista
batman
batmanin
battista
battle
battlefield
bauer
baxter
bay
bayer
bayern
bayn
bb
bbc
bc
bd
bdfutbol
be
beach
beachin
bean
bear
bears
beast
beat
beatles
beatlesin
beatrice
beats
beautiful
beauty
beaux
beaver
bec
because
becin
beck
becker
bed
bee
been
beer
beethoven
beethovenin
before
begin
beginning
behind
bei
being
bel
belarus
belgia
belgiaan
belgialainen
belgialaisen
belgialaiset
belgian
belgiassa
belgradin
belgradissa
believe
belisarius
bell
bella
bellan
belle
bellin
bello
ben
benedict
benedictus
bengalin
bengt
bengtsson
benin
beninin
benito
benjamin
bennett
benny
benson
bentley
benz
benzin
ber
bera
berg
bergen
bergenin
berger
bergh
bergholm
bergin
berglund
bergman
bergmanin
bergroth
bergstro
berkeley
berliini
berliiniin
berliinin
berliinissa
berliinista
berlin
berliner
bern
bernard
bernardo
bernd
berndt
berner
bernhard
bernie
bernin
bernstein
berry
bert
bertel
bertha
bertil
bertrand
bes
best
bet
beta
beth
better
betty
between
beverly
beyond
bf
bhutanin
bi
bianca
bias
bible
bibliografia
bibliotheke
big
bigg
bild
bill
billboard
billboardin
billie
billy
bin
bina
bing
bio
biodiversity
biografia
biographical
biography
biokemisti
biologi
biologia
biologian
biologinen
biologisen
biosciences
bird
birdlife
birds
birger
birgit
birgitta
birmingham
birminghamin
birminghamissa
birth
birthday
bis
bishop
bismarck
bismarckin
bit
bittinen
bjo
bjørn
bk
bkt
bl
bla
blabbermouth
black
blackburn
blackhawks
blackhawksin
blackin
blackmore
blackwell
blade
blair
blake
blanc
blanche
blanco
blast
blaze
blind
blitz
bloch
block
blog
blogi
blogspot
blokin
blom
blomberg
blomqvist
blomstedt
blood
bloody
bloom
blow
blu
blue
blues
bluesia
bluesiin
bluesin
bluesissa
bmatrix
bmg
bmi
bmw
bo
board
boat
bob
bobby
bodom
body
boeing
bogota
boije
bois
boldsymbol
bolivia
bolivian
boliviassa
bologna
bolognan
bols
bolt
bolton
bomb
bombardier
bon
bonaparte
bonaparten
bond
bondin
bone
bones
bonnie
bonnier
bono
bonsdorff
bonuksella
bonus
bonuskappale
bonuskappaleet
boogie
book
booker
books
boom
booth
bootleg
bor
bora
bordeaux
border
bore
borealis
borg
borga
borgstro
boris
born
borneon
borussia
bosch
bosnia
bosnian
boss
boston
bostonin
bostonissa
both
botin
botnia
bottas
bottom
bouchard
boulevard
bourbon
bow
bowie
bowien
bowl
box
boxing
boxrec
boy
boyd
boys
boysin
bp
br
bra
brad
bradford
bradley
brady
brahe
brahen
brain
brand
brandenburg
brandenburgin
brander
brandon
brandt
brasilia
brasiliaan
brasilialainen
brasilialaisen
brasilialaiset
brasilian
brasiliassa
brasiliasta
bratislava
bratislavan
braun
brave
bravo
brazil
break
breaking
breath
breathe
breeds
bremen
bremenin
bremer
brendan
brennan
brennanin
brent
brest
brestin
bret
bretagnen
brett
brewster
brez
brian
bride
bridge
brief
brien
bright
brighton
bring
bristol
brita
britain
britannia
britanniaa
britanniaan
britannialle
britannian
britanniassa
britanniasta
britannica
briteille
british
britit
britney
britteinsaarilla
britteinsaarille
britteja
britti
brittien
brittila
bro
broadcasting
broadway
broadwaylla
brock
broken
bronte
brook
brooke
brooklyn
brooklynissa
brooks
brooksin
bror
bros
brosin
brother
brothers
brothersin
brotherus
brown
browne
brownin
browser
bru
bruce
bruins
bruinsin
bruno
bruttokansantuote
bruttokansantuotteesta
bruun
bryan
bryant
bryna
bryssel
brysselin
brysselissa
bs
bsd
btob
bu
buck
buckley
bud
budapest
budapestin
budapestissa
buddha
buddhalainen
buddhalaiset
buddhalaisia
buddhalaisuuden
buddhalaisuus
buddhan
buddy
budjetilla
budjetin
budjetti
budo
buenos
buffalo
buffy
bug
buick
building
bukarest
bukarestin
bulgaria
bulgarialainen
bulgarialaiset
bulgarian
bulgariassa
bull
bullet
bulletin
bullin
bulls
bun
bundesliiga
bundesliigaan
bundesliigan
bundesliigassa
bunny
bureau
burgess
burgundin
burke
burkina
burman
burn
burning
burns
burroughs
burt
burton
burtonin
bus
busch
bush
bushin
bushman
business
buster
but
butch
butler
butlerin
butt
butterflies
butterfly
button
buzz
bwv
by
bye
byrne
byron
bysantin
bysantti
bysanttilainen
bysanttilaiset
c
ca
cabi
cadillac
caesar
caesarin
cafe
cage
cain
cajander
cal
calais
calder
calgary
calgaryn
calgaryssa
california
call
callaghan
called
calling
calvert
calvin
cam
cambridge
cambridgen
cambridgessa
came
cameo
camera
cameron
cameronin
camilla
camille
camp
campbell
campbellin
campeonato
campo
campos
can
canada
canadian
canadiens
canadiensin
canal
cancer
candy
canis
cannesin
cannon
canon
canterburyn
canth
canthin
canucks
canucksin
cap
capablanca
cape
capital
capitals
capitalsin
capitol
cappella
captain
car
caravan
card
cardiff
care
career
carex
carey
cargo
caribbean
carl
carla
carlin
carlo
carlos
carlson
carlsson
carmen
carnegie
carnival
carol
carolina
carolinan
carolinassa
caroline
carpelan
carpenter
carr
carrie
carroll
cars
carson
carter
carterin
cartoon
cas
casa
casablanca
case
cases
casey
cash
casino
cassidy
cassius
cast
castello
castillo
castle
castre
castro
castron
cat
catch
category
catharina
cathedral
catherine
catholic
cato
cats
cave
cb
cbc
cbs
cc
cd
cdot
cdots
ce
cecil
cecilia
cell
celtic
census
center
centerin
centerissa
central
centraltryckeri
centre
century
cesare
cf
cfm
cgi
ch
cha
chad
chain
chains
challenge
challengessa
chamber
chamberlain
chambers
chamonix
champ
champagne
champion
champions
championship
championships
chan
chance
chandler
chang
change
changes
chania
channel
channelin
chaos
chapelle
chaplin
chaplinin
chapman
chapter
charles
charlesin
charlie
charlien
charlotta
charlotte
charlton
chart
charts
chase
chat
chathamin
che
cheek
chelsea
chelsean
chemblink
chemical
chemistry
chen
cher
cherry
chess
chester
chevrolet
chi
chicago
chicagon
chicagoon
chicagossa
chief
child
children
chile
chilela
chilen
chilessa
chili
chin
china
chinese
chip
chl
chloe
cho
chocolate
choi
choice
chopin
chow
chris
christ
christensen
christer
christian
christie
christien
christina
christine
christmas
christoffer
christoph
christophe
christopher
chronicle
chronicles
chrysler
chu
chuck
chun
church
churchill
chydenius
ci
cia
cicero
ciceron
cid
cie
cincinnati
cindy
cine
cinema
cinematic
cio
circ
circle
circuit
circumstances
circus
cis
cite
cities
citizen
citroe
city
citya
cityn
citypopulation
cityssa
cityyn
ciudad
civil
civilization
ck
cke
cken
cker
ckin
ckman
ckstro
cl
cla
claes
claire
clancy
clara
clarence
clark
clarke
clarkin
clash
class
classic
classical
classics
claude
claudia
claudio
claudius
claus
clay
clayton
cle
clear
clement
cleveland
cliff
clifford
climate
clint
clinton
clintonin
clive
clock
clone
close
cloud
club
clubin
clyde
cm
cmx
cn
cnn
co
coa
coach
coast
coat
coats
cobra
coca
coco
code
codex
cody
coffee
cohen
col
cola
cold
cole
coleman
colin
collan
colle
collection
college
collegeen
collegen
collegessa
collegesta
collins
colo
color
colorado
coloradon
coloradossa
colors
colt
columbia
columbian
columbus
com
combat
come
comeback
comedy
comes
comic
comics
comicsin
comin
coming
comissa
command
commander
commercial
commission
committee
commodore
common
communication
communications
community
como
companion
company
companylta
companyn
competition
complete
complex
compounds
computer
comte
con
conan
concacaf
concept
concert
concerto
conference
config
congress
connecticut
connecticutin
connection
connolly
connor
conquer
conrad
constance
constantin
construction
contemporary
content
continental
contra
contract
control
convention
conway
cook
cooke
cookin
cool
cooper
cooperin
copa
core
corey
cornelius
cornell
cornellin
corner
corona
corporation
corporationin
corpus
corte
cortina
cos
cosmic
costa
costello
cotton
could
council
count
counter
countries
country
county
coupe
course
court
cover
covid
cowboy
cowboys
cox
coyotes
coyotesin
cp
cr
craig
crane
crash
crawford
crazy
cre
cream
creation
creative
creed
creek
creekin
crew
crime
criminal
crimson
crisis
cristiano
cristina
cristo
critical
critics
crosby
cross
crossing
crossover
crow
crown
cru
cruise
cruz
cruzin
cry
crystal
cs
csi
css
ct
cthulhu
ctor
cu
cube
cuin
culex
cult
cultural
culture
cum
cunningham
cup
cupia
cupiin
cupin
cupissa
curie
current
curse
curt
curtis
custom
cut
cv
cw
cyber
cycling
cynthia
cyril
cyrus
cyrusin
cz
d
da
daavidin
daddy
daegun
dag
dagens
dagestanin
dagmar
dahl
dahlstro
dai
daily
daimler
daisy
dakar
dakota
dakotan
dal
dalai
dale
dali
dallape
dallas
dallasin
dallasissa
dalton
damaskoksen
dame
damen
damon
dan
dana
dance
dancing
danger
dangerous
dani
daniel
daniela
danielin
danielle
daniels
danielson
danin
danny
dannyn
dans
danske
dante
dar
dareios
dark
darkness
darren
darth
darwin
darwinin
das
dash
dassault
data
dataa
database
databases
databasessa
datan
date
daughter
dauphine
dave
david
davidin
davidson
davies
davis
davisin
davosin
dawn
dawson
day
dayn
days
db
dc
dd
ddr
de
dea
dead
deadly
deal
dean
dear
death
debbie
deborah
debytoi
debyytti
debyyttialbumi
debyyttialbumin
debyyttialbuminsa
debyyttikaudellaan
debyyttinsa
dec
decca
december
dee
deep
def
default
defence
defense
dei
dekaani
del
delfoin
delhi
delhin
dell
della
delle
deloksen
delta
deluxe
dem
demi
demo
democracy
democratic
demokraatit
demokraatti
demokraattien
demokraattinen
demokraattipoliitikko
demokraattipoliitikot
demokraattisen
demokraattisessa
demokraattista
demokratia
demokratiaa
demokratian
demon
demoni
demons
demos
demot
den
deng
denis
denise
dennis
densetsu
denver
departementin
departementissa
departementti
department
deportivo
der
derby
derbyn
derek
derholm
derstro
derta
des
descartes
desert
desibeli
design
desire
desmond
dessa
desta
destiny
destruction
det
deta
detail
details
detroit
detroitin
detroitissa
detta
dettiin
detty
detyn
deus
deutsche
deutschen
deutscher
deutschland
deux
development
devil
devils
devilsin
devin
dexter
df
dh
dhabin
di
dia
diabeteksen
diabetes
diablo
diagnoosi
diagnoosin
diagnosoitiin
dialogi
dialogin
diamond
diamonds
diana
diane
diary
diaz
dick
dickinson
dictionary
did
didier
die
diego
diegon
dies
diesel
dieselmoottori
dieter
dietrich
dietyylieetteriin
different
dig
digi
digimon
digimonien
digitaalinen
digitaalisen
digitaalisessa
digitaalisesti
digitaaliset
digital
digitoituna
diktaattori
dikter
dimitri
dimotiki
din
dinamo
ding
dingo
dino
dinosaurusten
dio
diodoros
diogenes
dion
dionysios
dionysoksen
dionysos
diplomaatit
diplomaatti
diplomi
dir
dire
direct
direction
director
dirk
dirty
dis
disc
disco
discogs
discovery
disease
diskografia
diskografiat
disney
disneyn
display
distribution
district
div
diversity
divine
divisio
division
divisioona
divisioonaa
divisioonaan
divisioonan
divisioonassa
divisioonasta
dixon
dizzy
dj
djurga
dk
dl
dm
dmitri
dna
dneprin
do
doc
doctor
document
documents
dodge
does
dog
dogg
dogs
dohan
doi
doksen
dokumentin
dokumentissa
dokumentit
dokumentteja
dokumentti
dokumenttielokuva
dokumenttielokuvan
dokumenttielokuvat
dokumenttien
doll
dollar
dollaria
dollariin
dollarilla
dollarin
dolls
dolly
dom
domain
dome
domenico
domingo
dominic
dominique
domino
don
donald
done
donetskin
dong
donin
donkey
donna
donner
donnerin
donovan
doo
doom
door
doorilaista
doors
doping
dopingin
dopingrikkomuksesta
dora
doria
doris
dorothea
dorothy
dortmund
dos
dosentti
dosenttina
dot
dots
douard
double
doug
douglas
douglasin
down
download
doyle
dp
dr
dra
draama
draamaa
draamaelokuva
draamaelokuvassa
draamaelokuvat
draaman
draamasarja
draamasarjassa
draamasarjat
draamassa
dracula
drag
dragon
dragons
dragsfja
drake
draken
drama
dramaturgi
dre
dream
dreams
dresden
dresdenin
dresdenissa
drew
drive
driver
dro
drop
drug
drugbank
drugs
drum
drums
dry
ds
dsc
dt
dtm
du
dub
dubai
dublin
dublinin
dublinissa
duck
ducks
ducksin
due
duetto
duff
duke
dukla
dumas
dumbledore
dumbledoren
duncan
dunn
duo
duodecim
duon
dupont
duran
during
durra
durward
dus
dust
dustin
dutch
duty
duuman
duuri
dv
dvd
dwight
dx
dy
dying
dyke
dyksi
dylan
dylanin
dyllinen
dyllisia
dyllista
dyn
dynamo
dynamon
dynastia
dynastian
dynasty
dynneta
dynnettiin
dynnetty
dynsi
dynta
dyssa
dyt
dytta
dytti
dyttiin
dytto
dz
e
ea
eaa
eagle
eagles
earl
early
earth
east
eastern
eastin
easy
eat
eb
ebba
ebel
ebert
ebu
ec
echl
echo
eckero
eclipse
ecm
eco
economic
economics
economy
ecuador
ecuadorin
ecuadorissa
ecw
ed
eddie
eddy
edelfelt
edella
edelle
edelleen
edelleenka
edelleenkin
edellinen
edelliseen
edellisella
edellisen
edellisena
edellisessa
edellisesta
edelliset
edellisista
edelliskauden
edellista
edellisten
edellisvuoden
edellyteta
edellytta
edellytti
edellytyksena
edellytykset
edellytyksia
edellytys
edelsi
edelta
eden
edenneet
edennyt
edes
edesmenneen
edesmennyt
edessa
edesta
edestakaisin
edeta
edetessa
edgar
edge
edinburgh
edinburghin
edison
edista
edisti
edistyspuolueen
edit
edita
edith
edition
editor
edlund
edmond
edmonton
edmontonin
edmund
edo
eds
edu
eduard
eduardo
education
educational
eduksi
edullinen
edun
eduskunnalle
eduskunnan
eduskunnassa
eduskunnasta
eduskunta
eduskuntaan
eduskuntaryhma
eduskuntavaaleissa
eduskuntavaalien
eduskuntavaalit
edusta
edustaa
edustaen
edustaja
edustajaa
edustajainhuoneen
edustajainhuoneeseen
edustajainhuoneessa
edustajaksi
edustajan
edustajana
edustajat
edustajia
edustajien
edustajista
edustalla
edustalle
edustamaan
edustaneen
edustaneet
edustanut
edustava
edustavan
edustavat
edustettuina
edustettuna
edusti
edustivat
edustus
edustusjoukkue
edustusjoukkueen
edustusjoukkueeseen
edustusjoukkueessa
edut
edvard
edvin
edward
edwardin
edwards
edwardsin
edwin
ee
eeli
eemeli
eemil
een
eerik
eerika
eero
eerola
eesti
eettinen
eetu
eeva
ef
efesoksen
effect
effects
egean
egeanmeren
egmont
ego
egon
egypt
egypti
egyptia
egyptiin
egyptila
egyptin
egyptissa
egyptista
ehc
ehdi
ehdittiin
ehditty
ehdoilla
ehdokas
ehdokasta
ehdokkaaksi
ehdokkaan
ehdokkaana
ehdokkaat
ehdokkaiden
ehdokkaista
ehdokkaita
ehdokkuuden
ehdokkuudet
ehdokkuuksia
ehdokkuus
ehdokkuutta
ehdolla
ehdolle
ehdolliseen
ehdonalaiseen
ehdot
ehdotettiin
ehdotettu
ehdoton
ehdottaa
ehdottanut
ehdotti
ehdottivat
ehdottoman
ehdottomasti
ehdotukseen
ehdotuksen
ehdotuksesta
ehdotukset
ehdotuksia
ehdotus
ehdotusta
ehja
ehka
ehrensva
ehrnrooth
ehrstro
ehti
ehtii
ehtineet
ehtinyt
ehtiva
ehto
ehtoja
ehtojen
ehtona
ehtoollisen
ei
eight
eiha
eija
eika
eiko
eila
eilen
ein
einar
einari
eine
einer
eino
einstein
einsteinin
eintracht
eipa
eisenhower
eishockey
eiva
ej
ek
eka
ekena
ekholm
ekin
ekissa
ekki
ekkia
ekkila
ekkoslovakia
ekkoslovakialainen
ekkoslovakialaiset
ekkoslovakian
ekkoslovakiassa
eklund
ekman
ekologia
ekologinen
ekonomi
ekonomisti
ekstro
el
ela
elaine
elannon
elantonsa
elastinen
elder
ele
eleanor
electric
electronic
electronics
elektra
elektroneja
elektronien
elektroniikan
elektroniikka
elektronin
elektroninen
elektronisen
elektronista
elektronit
elementit
elements
elementteja
elementti
elementtien
elena
elenan
eli
elia
elias
eliel
eliitin
elijah
elima
elimet
elimia
elimisto
elin
elina
elinaikanaan
elinan
elinia
elinika
elinkautiseen
elinkeino
elinkeinoela
elinkeinoja
elinkeinojen
elinkeinoministerio
elinkeinot
elinta
elintarvike
elintarviketeollisuutta
elintarvikkeiden
elintarvikkeita
elintavat
elinten
elinvoimainen
elinvoimaiseksi
elinympa
elio
elis
elisa
elisabet
elisabeth
elisabetin
elise
elite
eliteprospects
eliteprospectshttps
elitserien
elitserieniin
elitserienin
elitserienissa
eliva
elizabeth
ella
elle
ellei
elleiva
ellen
eller
elli
ellie
elliot
elliott
ellis
elmer
elo
elohopea
elokuu
elokuuhun
elokuun
elokuussa
elokuusta
elokuuta
elokuva
elokuvaa
elokuvaaja
elokuvaan
elokuvajuhlat
elokuvajuhlien
elokuvajuhlilla
elokuvaka
elokuvaksi
elokuvalla
elokuvalle
elokuvan
elokuvana
elokuvansa
elokuvantekija
elokuvaohjaaja
elokuvaohjaajat
elokuvasa
elokuvasarjan
elokuvasarjassa
elokuvassa
elokuvasta
elokuvat
elokuvateattereissa
elokuvateatteri
elokuvatuottaja
elokuvatuottajat
elokuvayhtio
elokuvia
elokuvien
elokuviin
elokuville
elokuvissa
elokuvista
elomaa
elon
elonet
eloon
eloonja
eloranta
elossa
elsa
else
elta
elton
elviksen
elvis
elvytta
ely
em
ema
emanuel
emblem
emeritus
emeritusprofessori
emerson
emi
emiiri
emil
emile
emilia
emilie
emilio
emily
emin
emma
emman
emmanuel
emme
emmi
emmy
emo
emoyhtio
emperor
empire
en
ena
enckell
encore
encyclopaedia
encyclopedia
encyclopædia
end
endless
endurance
enemma
enemmisto
enempa
enemy
eneneva
energia
energiaa
energian
energianla
energiansa
energiasta
energiayhtio
energy
eng
engel
engelin
engels
engine
engineering
engl
england
englanniksi
englannin
englanninkielinen
englanninkielisen
englanninkielisessa
englanninkieliset
englanninkielisia
englanninkielista
englannissa
englannista
englanti
englantia
englantiin
englantilainen
englantilais
englantilaisen
englantilaiset
englantilaisia
englantilaista
englantilaisten
english
englund
engstro
enian
enimma
enimmilla
enin
eninta
eniten
enja
enjoen
enka
enkeli
enkelin
enkelit
enkenraali
enko
enkon
enliikkeen
enluokan
enna
ennakkoon
ennallaan
ennalleen
ennalta
ennaltaehka
ennemmin
ennemminkin
ennen
ennenaikaisesti
ennenkin
ennenkuin
ennenna
ennesta
ennustaa
ennuste
ennusti
eno
enon
enonsa
enontekio
enough
enpa
enpuolue
enpuolueen
enqvist
enrico
enrique
ensemble
ensi
ensiesiintyminen
ensiesiintymisensa
ensiesityksensa
ensiesitys
ensiksi
ensilento
ensilentonsa
ensima
ensimma
ensin
ensinna
ensio
ensisijainen
ensisijaisesti
enso
enson
ensyklopedia
ent
enta
entalo
entalolla
entalon
entalot
enter
enterprise
entertainment
entertainmentin
entinen
entiseen
entisella
entiselle
entisen
entisessa
entisesta
entiset
entisia
entisista
entiso
entista
entisten
entsyymi
entsyymin
entuudestaan
environment
environmental
enyhdistyksen
enyhdistys
eo
eos
ep
epa
epeiroksen
epic
epidemia
epidemian
episode
episodi
eppu
epsilon
er
era
erasmus
ere
eredivisiessa
eri
eria
eric
erich
ericsson
erik
erika
erikoinen
erikoisen
erikoisia
erikoisjoukkojen
erikoiskokeella
erikoisla
erikoista
erikoistui
erikoistuneen
erikoistuneet
erikoistunut
erikoisuus
erikoisuutena
erikseen
eriksson
erikssonin
erilainen
erilaisen
erilaiset
erilaisia
erilaisiin
erilaisilla
erilaisille
erilaisin
erilaisissa
erilaisista
erilaista
erilaisten
erilla
erilleen
erillinen
erilliseen
erilliseksi
erillisella
erillisen
erillisena
erillisessa
erillisesta
erilliset
erillisia
erillisina
erillista
erimielisyydet
erimielisyyksia
erimielisyyksien
erimielisyyksiin
erin
erina
erinomainen
erinomaisen
erinomaisesti
erista
eristetty
eritasoliittyma
eritoten
eritrean
eritta
erityinen
erityisen
erityisesti
erityiset
erityisia
erityista
erityyppisia
eriva
erkanee
erkani
erkka
erkki
erkkila
erkko
erkon
ernest
ernesto
erno
ernobylin
ernst
ero
eroa
eroaa
eroamaan
eroavansa
eroavat
eroja
erola
erolla
eron
erona
eronen
eronneen
eronneet
eronnut
eroon
eros
erosi
erosivat
erossa
erosta
erot
erota
erotetaan
erotettiin
erotettu
erottaa
erottamaan
erottaminen
erottamista
erottavat
erotti
erottua
erottuaan
erottuu
erottuvat
erotuksena
erotus
ers
erste
erwin
es
esa
esan
escape
esi
esiasennettuna
esihistoria
esihistorialliset
esiin
esiinny
esiintya
esiintyen
esiintyessa
esiintyi
esiintyiva
esiintyja
esiintyjia
esiintyma
esiintyminen
esiintymisalue
esiintymisen
esiintymisensa
esiintymisesta
esiintymiset
esiintymisia
esiintymista
esiintyneen
esiintyneet
esiintynyt
esiintyva
esiintyvia
esiintyvyys
esiintyy
esikoisalbumi
esikoisalbuminsa
esikoisalbumit
esikoisromaani
esikoisteos
esikunnan
esikunnassa
esikunta
esikuntaan
esikuntapa
esikuva
esikuvana
esilla
esille
esim
esimerkiksi
esimerkin
esimerkkeina
esimerkkeja
esimerkki
esimerkkia
esimerkkina
esimiehena
esimies
esine
esineen
esineet
esineiden
esineista
esineisto
esineita
esinelo
esinetta
esipuhe
esite
esitella
esitellyt
esitelma
esiteltiin
esitelty
esiteta
esitetta
esitettiin
esitetty
esitettya
esitettyja
esitetyn
esitetyssa
esitetyt
esitta
esittelee
esittelema
esitteleva
esitteli
esittelija
esittely
esitti
esittiva
esitykseen
esityksen
esityksessa
esityksesta
esitykset
esityksia
esityksissa
esitys
esitysta
esitysten
eska
eskelinen
esko
eskola
eslav
esp
espan
espanja
espanjaa
espanjaan
espanjaksi
espanjalainen
espanjalaisen
espanjalaiset
espanjalaisia
espanjalaista
espanjalaisten
espanjalle
espanjan
espanjassa
espanjasta
espe
espn
espoo
espoon
espooseen
espoossa
essa
essays
essee
esseisti
esseita
essen
essential
essi
est
esta
este
esteban
esteena
esteet
esteita
estejuoksussa
ester
estetta
estettiin
esti
estiva
esto
estonia
estonian
et
eta
etanoliin
etapilla
etapin
etappi
etappien
etc
eteen
eteenpa
eteensa
etela
etenee
etenema
eteneminen
etenemisen
etenemista
eteneva
eteni
etenija
eteniva
etenkin
eternal
eteva
ethan
ethnobotanical
etiikan
etiikka
etiopia
etiopian
etiopiassa
etko
etninen
etnisen
etnisesti
etniset
etnisia
etnisten
ets
etsi
etsia
etsien
etsiessa
etsii
etsija
etsima
etsinna
etsinta
etsita
etsittiin
etsiva
ett
etta
ette
ettei
etteiva
etten
etu
etua
etualalla
etuja
etujen
etuka
etukameran
etuna
etunimena
etunimet
etunimi
etupa
etupuolella
etusiiven
etusivu
etymologia
eu
euboian
euge
eugen
eugene
eugenen
eulerin
euraasian
eurajoen
euran
euripides
euro
euroa
eurobasket
eurocup
euroliigan
eurolla
euron
euroon
euroopan
euroopassa
euroopasta
eurooppa
eurooppaa
eurooppaan
eurooppalainen
eurooppalaiseen
eurooppalaisen
eurooppalaiset
eurooppalaisia
eurooppalaista
eurooppalaisten
europa
europarlamentaarikko
europarlamentaarikot
europarlamenttivaaleissa
europe
european
euroviisuedustajat
euroviisuedustuskappaleet
euroviisuissa
euroviisujen
eurovision
eusebios
ev
eva
evakuoitiin
evan
evankelinen
evankelis
evankelisen
evankelista
evankeliumi
evankeliumin
evans
evansin
eve
eveliina
evelyn
even
evening
event
events
ever
everett
eversti
everstiksi
everstiluutnantiksi
everstiluutnantti
everstit
evert
every
everybody
everything
evic
evidence
evija
evikit
evikkien
evil
evin
evo
evolution
evoluutio
evoluution
evon
evp
evts
ex
exchange
executive
exit
exodus
experience
experiment
experimental
explorer
express
ext
extended
extra
extraliga
extraligan
extraligassa
extreme
ey
eye
eyed
eyes
ez
f
fa
faarao
faaraon
faber
fabian
fabio
fabricius
fabritius
face
facebook
facebookissa
facelift
faces
facility
fact
facta
facto
factor
factory
facts
fagerholm
fair
fairey
faith
fakta
falcon
falk
falklandin
fall
fallen
falling
fallout
falls
false
falun
falunin
fame
fameen
famelle
famen
familjebok
family
famous
fan
fanien
fanit
fanny
fantasia
fantastic
fantasy
fao
faq
far
farm
farmer
farmijoukkue
farmijoukkueessa
farmissa
farrell
fashion
fasismin
fason
fast
fat
fatal
fate
father
fauna
faust
fazer
fazerin
fbi
fc
fci
fe
fear
feat
feature
features
featuring
february
fed
federaation
federal
federation
federer
federico
feel
feeling
feeniksin
feet
felipe
felix
female
feministi
feministit
femme
fender
fennia
fennica
fennoskandian
fer
ferdinand
ferdinandin
ferenc
ferguson
ferna
fernando
ferrari
ferrarin
ferreira
ferry
festivaaleilla
festivaali
festivaalilla
festivaalin
festival
fever
ff
fi
fia
fiat
fiba
fiction
fide
fidel
fidz
field
fields
fiemmen
fifa
fifan
fifth
fight
fighter
fighters
fighting
fiktiivinen
fil
fila
file
files
filharmonikkojen
filip
filippiineilla
filippiinien
filippiinila
filippiinit
filippo
filippos
film
filmfare
filmi
filmihullu
filmin
filmografia
films
filologian
filosofi
filosofia
filosofiaa
filosofiaan
filosofian
filosofiassa
filosofiasta
filosofien
filosofinen
filosofisen
filosofiset
filosofisia
filosofit
fin
finaaleihin
finaaleissa
finaali
finaaliin
finaalin
finaaliottelussa
finaalissa
finaalit
final
financial
find
fine
fingers
finland
finlandia
finlandin
finlands
finlaysonin
finlex
finn
finna
finnair
finnairin
finne
finnish
finnlevy
finnmusic
finnvox
finska
finto
fiona
fire
firenze
firenzen
firenzessa
first
fis
fischer
fish
fisher
fisherin
fisichella
fitness
fitzgerald
five
fja
fjodor
fk
fl
flag
flame
flames
flamesin
flanderin
flash
flavius
fle
fleet
fleetwood
fleming
flemingin
flesh
fletcher
flight
flo
flood
floor
flora
floran
florence
flores
florida
floridaan
floridan
floridassa
flow
flower
flowers
floyd
floydin
fly
flyers
flyersin
flying
flynn
fm
fn
fo
focke
focus
fokker
folk
follow
fono
fontaine
fontana
fontsize
foo
food
fool
foot
football
for
forbes
force
forces
ford
fordin
foreign
forest
forever
forget
forgotten
form
formaatti
format
former
formula
forrest
forsberg
forsell
forselles
forsius
forsman
forss
forssa
forssan
forssell
forsstro
fort
fortum
fortuna
fortune
forum
forward
fossiileja
fossiilit
foster
found
foundation
foundationin
four
fox
foxin
fps
fr
fra
frac
frame
franc
france
francen
frances
francesca
francesco
francis
francisco
franciscon
franciscoon
franciscossa
franck
franco
francon
frank
frankenstein
frankfurt
frankfurtin
frankfurtissa
frankie
frankin
frankkien
franklin
franklinin
frans
franz
franze
fraser
frazier
fre
freak
fred
freddie
freddy
frederick
frederik
fredi
fredrik
fredrika
fredrikin
free
freedom
freelance
freeman
freestyle
fregatit
fregatti
frehley
french
frenckell
fresh
freud
freudin
frey
friday
friedman
friedrich
friend
friends
friman
frithiof
fritz
fro
from
front
frontier
frost
frosterus
frozen
fry
fs
fsb
ft
ftet
fu
fuck
fuji
fukuokan
fulbeja
full
fuller
fun
function
fund
funeral
funk
funktio
funktioiden
funktioita
funktion
funktiona
funktiot
funny
furuhjelm
fury
fusion
fusionissa
futsal
future
fuusioitiin
fver
fw
fx
fysiikan
fysiikanpalkinnon
fysiikassa
fysiikka
fysiikkaa
fysiikkavalmentaja
fysikaalinen
fysiologian
fyysikko
fyysikot
fyysinen
fyysisen
fyysisesti
fyysiset
fyysisia
fyysista
g
ga
gaala
gaalassa
gabriel
gabrielin
gabrielle
gaddafin
gaga
gagarin
gaius
gal
gala
galaksi
galaksin
galaxy
gale
galilei
galileo
gallagher
gallen
galleria
gallery
gallian
gallimard
game
gamecube
games
gamesin
gamessa
gamla
gamma
gan
gandalf
gandhi
gandhin
gang
garage
garci
garcia
garde
garden
gardenissa
gardiner
gardner
gare
garfield
garland
garmisch
garrett
gary
gas
gaston
gate
gates
gaudeamus
gaulle
gaussin
gavin
gay
gaz
gazan
gb
gbif
gdan
ge
gear
geeni
geenien
geenin
geenit
gemini
gen
gender
gene
geneettinen
geneettisesti
general
generalnyi
generation
genes
genesis
geneve
geneven
genevessa
geni
genius
genomes
genren
gent
genus
geo
geoff
geoffrey
geografia
geografika
geographic
geologi
geologia
geologian
geologinen
geometria
geometrian
geometrinen
georg
george
georgen
georges
georgi
georgia
georgiaan
georgialainen
georgialaiset
georgian
georgiassa
ger
gerald
gerard
gerd
gerda
gerhard
germain
german
germany
gerry
gertrude
geschichte
get
gets
getting
gg
ghana
ghanan
ghetto
ghost
ghosts
ghz
gi
gia
giacomo
gianni
giant
giants
gibraltar
gibraltarille
gibraltarin
gibson
gibsonin
gideon
gif
gift
gigatavua
gigatavun
gil
gilbert
giles
gill
gillan
gilles
gimme
gin
gina
ginger
giorgio
gios
giovanni
girl
girls
giro
giulio
giuseppe
give
gl
gla
glam
glasgow
glass
gle
glee
glen
glenn
glo
global
globe
globen
gloria
glory
glover
gm
gmbh
gnu
go
goa
goal
god
gods
godzilla
goes
goethe
going
goku
gold
goldberg
golden
goldwyn
golf
golfaaja
gomez
gon
gondorin
gone
gong
gongin
gonna
gonza
good
goodbye
goodman
goodmanin
google
googlen
gootit
goottien
goran
gorbats
gordon
gordonin
gore
gorilla
gospel
got
gotham
gotlannin
gott
gotta
gottfried
gottlieb
gould
gov
government
gp
gpl
gps
gr
gra
graafikko
graafinen
graafisen
grace
gradu
graf
grafiikan
grafiikka
grafiikkaa
graham
grammaa
gramman
grammy
gran
granada
granadan
grand
grande
granfelt
granlund
grano
grant
grantin
grass
grave
graves
gravity
gray
grayson
graz
gre
great
greatest
greek
green
greene
greenin
greenpeace
greenwich
greenwood
greg
gregg
gregor
gregoriaanisen
gregorius
gregory
gren
greta
gretzky
grey
greyn
gri
griffin
griffith
grigori
grimberg
gripenberg
gro
groove
grosjean
gross
grotenfelt
ground
group
groupin
grove
growth
gru
gs
gsm
gt
gu
guard
guardian
guardians
guatemala
guatemalan
gue
guez
guggenheim
guide
guido
guild
guillaume
guillermo
guinea
guinean
guineassa
guitar
gummeruksen
gummerus
gun
gundam
gunn
gunnar
guns
guru
gus
gustaf
gustafsson
gustav
gustava
gustave
gustavo
gutenberg
gutie
guy
gw
gwh
gyo
h
ha
haaga
haagan
haagin
haagissa
haakon
haamu
haanpa
haapaja
haapakoski
haapala
haapama
haapanen
haapaniemi
haapasalo
haapaveden
haara
haaraan
haaran
haarat
haarautuu
haarla
haartman
haas
haastaa
haastamaan
haastattelu
haastatteluja
haastattelun
haastattelussa
haaste
haasteen
haasteita
haastoi
haataja
haavan
haavio
haavisto
haaviston
haavoittui
haavoittuneita
haavoittunut
haavoittunutta
habsburgien
hackman
had
hadith
hadrianuksen
haetaan
haettiin
haettu
hagen
hagman
hahmo
hahmoa
hahmoihin
hahmoista
hahmoja
hahmojen
hahmoksi
hahmolla
hahmon
hahmona
hahmonsa
hahmoon
hahmossa
hahmosta
hahmot
hahn
hai
hair
haitallisia
haitallista
haitari
haitat
haitin
haittaa
haittasi
haittavaikutukset
haittavaikutuksia
haittoja
haja
hajaa
hajallaan
hajanainen
hajoaa
hajoaminen
hajoamiseen
hajoamisen
hajoamista
hajoavat
hajonnut
hajosi
hajota
hajotessa
hajotettiin
hajottaa
hajotti
hajottua
haju
haka
hakala
hakan
hakanen
hakattu
hakea
hakee
hakemaan
hakemassa
hakemuksen
hakenut
hakeutui
haki
hakijan
hakivat
hakkapeliitta
hakkarainen
hakola
haku
hakulinen
hakusana
hakuteokset
hal
hale
halen
half
halikon
halkaisija
halkaisijaltaan
halki
hall
halla
hallan
halle
halli
hallikilpailuissa
hallin
hallinnan
hallinnassa
hallinnasta
hallinneen
hallinneet
hallinnoi
hallinnollinen
hallinnollisen
hallinnollisesti
hallinnolliset
hallinnollisia
hallinnon
hallinnossa
hallinnosta
hallinnut
hallinta
hallintaa
hallintaan
hallintaansa
hallinto
hallintoa
hallintoalue
hallintoalueella
hallintokeskus
hallintoneuvoston
hallintonsa
hallintoon
hallintopita
hallissa
hallita
hallitsee
hallitsema
hallitsemaan
hallitseman
hallitseva
hallitsevaa
hallitsevan
hallitsevana
hallitsevat
hallitsi
hallitsija
hallitsijaksi
hallitsijan
hallitsijana
hallitsijasuku
hallitsijasuvun
hallitsijat
hallitsijoiden
hallitsijoita
hallitsivat
hallitukseen
hallitukselle
hallitukselta
hallituksen
hallituksensa
hallituksessa
hallituksesta
hallitukset
hallituksissa
hallitus
hallitusta
hallitusten
halloween
hallussa
hallussaan
hallussapidosta
halme
halo
halonen
haloo
halosen
halpa
haltija
halttunen
haltuun
haltuunsa
halu
halua
haluaa
haluaisi
haluamansa
haluan
haluavansa
haluavat
halukas
halunneet
halunnut
halunsa
halusi
halusivat
halutaan
halutessaan
haluttiin
haluttu
ham
hamburg
hamburger
hamilton
hamiltonin
hamina
haminan
haminassa
hamlet
hammasla
hammer
hammond
hampaat
hampaiden
hampaita
hampshire
hampton
hampuri
hampurin
hampurissa
han
hancock
hand
handbook
handle
hands
hangon
hangossa
hank
hankala
hankalaa
hankama
hanke
hanketta
hankinnan
hankinta
hankittiin
hankittu
hankittua
hankkeen
hankkeeseen
hankkeessa
hankkeesta
hankkeet
hankkeita
hankki
hankkia
hankkii
hankkimaan
hankkimalla
hankkiminen
hankkinut
hankkivat
hanko
hanna
hannah
hannele
hannes
hannibal
hannikainen
hannover
hannoverin
hannu
hannula
hanoi
hans
hansa
hansen
hanski
hansson
hapen
haploryhma
happea
happi
happiness
happo
happonen
happy
har
hara
harald
hard
hardcore
hardy
hare
harja
harjavallan
harjoitella
harjoitetaan
harjoitettiin
harjoitettu
harjoittaa
harjoittajat
harjoittamaan
harjoittanut
harjoittavat
harjoittelemaan
harjoitteli
harjoittelu
harjoittelua
harjoittelun
harjoitti
harjoittivat
harjoitukset
harjoituksia
harjoituksiin
harjoituksissa
harjoitus
harjoitusleirille
harjoitusleirin
harjoitusottelussa
harjoitusten
harju
harjula
harjun
harjunpa
harkitsi
harkovan
harley
harlow
harmaa
harmaan
harmaat
harmaata
harmonia
harmonikka
harmony
harold
harper
harrastaa
harrastaja
harrastajat
harrastajien
harrastanut
harrasti
harrastus
harri
harriet
harris
harrisin
harrison
harrisonin
harry
harryn
hart
hartford
hartikainen
hartin
hartman
hartolan
hartwall
harva
harvaan
harvakseltaan
harvard
harvardin
harvat
harvemmin
harvest
harvey
harvinainen
harvinaisempia
harvinaisen
harvinaisena
harvinaisia
harvinaista
harvoin
harvoista
harvoja
has
hasan
hassan
hat
hatanpa
hate
hattu
hattulan
hattutempun
haudalla
haudan
haudassa
haudasta
haudat
haudattiin
haudattu
haudoista
hauhon
haukat
hauki
haukiputaan
haukka
hausja
hauska
hauskaa
hauta
hautaa
hautaan
hautajaiset
hautajaisiin
hautajaisissa
hautakivi
hautala
hautama
hautaus
hautausmaa
hautausmaalla
hautausmaalle
hautausmaan
hautausmaat
haute
hautoja
hautoo
havaijilla
havaijin
havainnon
havainnot
havainnut
havainto
havaintoja
havaintojen
havaita
havaitaan
havaitsee
havaitsi
havaitsivat
havaittavissa
havaittiin
havaittu
have
haven
havilland
havumetsa
hawk
hawker
hawking
hawkins
hawks
hawkwind
hay
hayes
hbo
hc
hd
hda
hde
hdekoodin
hdeksi
hdella
hden
hdessa
hdesta
hdet
hdetta
hdettiin
hdettya
hdista
hdisto
hditta
hdo
hdyksen
hdyksessa
hdyksesta
hdyksia
hdys
hdysma
hdysta
hdytta
hdytteinen
he
head
health
hear
heart
hearts
heat
heath
heather
heaven
heavy
heavyweight
hector
hedberg
hedelma
hedelmia
hedelmien
hedelmista
hedelmo
hedgehog
hedman
hedvig
heep
heettila
hehtaaria
hehtaarin
hei
heida
heidegger
heidi
height
heihin
heijastaa
heijastuu
heikel
heikensi
heikenta
heikentynyt
heikin
heikinheimo
heikkenee
heikkeneminen
heikkeni
heikki
heikkila
heikkinen
heikkisen
heikko
heikkoa
heikkoja
heikkous
heikoin
heikommin
heikompi
heikon
heikosti
heikot
heilla
heille
heilta
heimo
heimoa
heimoja
heimojen
heimon
heimoon
heimossa
heimot
heina
heine
heinen
heininen
heino
heinola
heinolan
heinolassa
heinon
heinonen
heinrich
heinz
heiseen
heisen
heisessa
heisesta
heisesti
heiset
heisia
heiskanen
heista
heisten
heisyydessa
heisyydesta
heisyyteen
heita
heiteta
heitettiin
heitetty
heitta
heitti
heittojen
hekka
hel
hela
helander
helen
helena
helenan
helene
heleniuksen
helenius
helga
helge
heli
helikopteri
helikopterin
helin
helina
helismaa
helismaan
hell
hella
helle
hellenistisella
hellenistisen
hellman
hello
hellstro
helluntaihera
helluntaiseurakunta
helmet
helmi
helmia
helmikuu
helmikuuhun
helmikuun
helmikuussa
helmikuusta
helmikuuta
helminen
helmut
help
helpommin
helpompaa
helpompi
helposti
helpottaa
helpottamaan
helpottamiseksi
helpotti
helppo
helppoa
helsingfors
helsingin
helsingissa
helsingista
helsinki
helsinkia
helsinkiin
helsinkila
helta
heltat
helvetin
helvetti
helvettiin
helvi
hemingway
hemma
hemmin
hemminkin
hemmissa
hemmista
hemmisto
hemmo
hempa
hempi
hempia
hempien
hempiin
hempina
hen
henderson
hendrik
hendrix
henee
henema
heneminen
heneva
hengelle
hengellinen
hengellisen
hengellisia
hengellista
hengen
hengessa
hengesta
henget
hengilta
hengissa
hengitta
hengityksen
heni
heniva
henkea
henkeen
henkensa
henki
henkien
henkiin
henkilo
henkinen
henkirikoksen
henkirikosten
henkisen
henkisesti
henkisia
henkista
henna
henneta
hennettiin
henning
henri
henrik
henrikin
henriksson
henry
henryn
hensi
hensley
henta
hentila
hentynyt
hepburn
heprean
her
hera
herakleen
herakles
herald
herbert
hercules
here
herge
heritage
herka
herkka
herkkia
herlin
herman
hermann
hermes
hermione
hermoston
herna
hero
herodes
herodotoksen
herodotos
heroes
herra
herraa
herran
herrasta
herrasva
herrat
hershey
hertsegovinan
hertta
herttoniemen
herttua
herttuakunnan
herttuakunta
herttuan
herttuatar
hertzen
hes
heska
hessen
hessenin
hessu
hestya
hestyessa
hestyi
hestymistapa
hestytta
hestyva
hestyy
het
heta
heteita
heteta
hetetta
hetettiin
hetetty
heti
hetin
hetkea
hetkeksi
hetkella
hetkellisesti
hetken
hetkessa
hetket
hetki
hetkia
hetta
hetti
hettila
hettiva
hettyvilla
hetyksen
hetyksessa
hetykset
hetyksia
hetyksissa
hetys
hetyssaarnaaja
hetyssaarnaajat
hetysseura
hetysseuran
hetysta
hetysten
hetysto
hetystyo
hevonen
hevosella
hevosen
hevoset
hevosia
hevosta
hevosten
hevosvoimaa
hevosvoimaan
hevosvoimainen
hevosvoiman
hey
hf
hi
hialue
hialueen
hialueeseen
hidas
hidasta
hidastaa
hidasti
hidden
hide
hiekan
hiekka
hiekkaa
hieman
hieno
hienoa
hienon
hienosti
hierarchy
hieta
hietala
hietanen
hietaniemen
hifk
higashi
higgins
high
highbeam
higher
highway
hiihdon
hiihdossa
hiihta
hiihti
hiihto
hiihtotavan
hiilen
hiili
hiilidioksidi
hiilidioksidia
hiilidioksidin
hiilidioksidipa
hiilta
hiippakunnan
hiippakunnassa
hiippakunnat
hiippakunta
hiippakuntaan
hiipua
hiipui
hiiren
hiiret
hiiri
hilary
hilda
hilde
hilja
hiljaa
hiljainen
hiljaista
hiljaisuus
hiljalleen
hiljattain
hilkka
hill
hillary
hillin
hillita
hills
hilma
hilton
hiltunen
him
himalajan
himma
himmea
himpa
hin
hina
hinattiin
hinna
hinnalla
hinnan
hinnasta
hinnat
hinta
hintaa
hintaan
hintikka
hintoja
hintojen
hio
hip
hiroshiman
hirssi
hirtettiin
hirtta
hirvea
hirven
hirvi
hirvio
hirvitta
hirvonen
his
hisham
hissi
hist
histo
histoire
historia
historiaa
historiaan
historiallinen
historiallis
historialliseen
historiallisella
historiallisen
historiallisena
historiallisessa
historiallisesta
historiallisesti
historialliset
historiallisia
historiallisiin
historiallisissa
historiallisista
historiallista
historiallisten
historian
historiansa
historiantutkija
historiassa
historiasta
historiateos
historic
historical
historiikki
historioitsija
historioitsijat
history
hit
hitaammin
hitaasti
hitchcock
hitchcockin
hitellen
hiten
hitiksi
hitin
hitit
hitler
hitlerin
hits
hitta
hitteja
hitti
hittia
hiukan
hiukkanen
hiukkasen
hiukkaset
hiukkasia
hiukkasten
hiuksensa
hiukset
hiusten
hiv
hiympa
hja
hjalmar
hjelt
hjk
hjo
hk
hka
hkina
hkino
hko
hkyla
hl
hlberg
hlbergin
hler
hlinkan
hm
hman
hmas
hmcs
hmdb
hms
hn
hneensa
hneet
hnyt
ho
hobitti
hockey
hockeyallsvenskan
hockeydb
hockeyn
hodgson
hoffman
hoffmann
hofmann
hogan
hoidetaan
hoidettavaksi
hoidettiin
hoidon
hoidossa
hoidosta
hoikka
hoitaa
hoitaja
hoitajana
hoitamaan
hoitamiseen
hoitanut
hoitavat
hoiti
hoitivat
hoito
hoitoa
hoitoon
hokejova
hokkaido
hokkanen
hold
holden
holder
holding
hole
holger
holiday
holland
hollannin
hollannissa
hollanti
hollantilainen
hollantilaisen
hollantilaiset
hollantilaisten
hollo
hollola
hollolan
hollow
holloway
holly
hollywood
hollywoodiin
hollywoodin
hollywoodissa
holm
holma
holmberg
holmes
holmesin
holmin
holmstro
holokaustin
holopainen
holotyypin
holstein
holsteinin
holt
holy
home
homer
homerin
homeroksen
homeros
homme
homo
homoseksuaali
homoseksuaalisuus
hon
honda
hondan
honduras
hondurasin
honey
hong
hongan
hongkong
hongkongin
hongkongissa
honka
honkanen
honor
honshu
hood
hook
hop
hope
hopea
hopeaa
hopeaan
hopealla
hopealle
hopeamitalin
hopean
hopeinen
hopeisen
hopen
hopkins
horace
horatio
horizon
horizontal
horn
hornet
hornin
horror
horse
horst
horton
hos
hospital
hot
hotel
hotelli
hotellin
hotellissa
hotellit
houkutella
houkuttelee
houkuttelevat
houkutteli
houkutus
hour
hours
house
housen
houston
houstonin
housut
hovi
hoviin
hovin
hovioikeuden
hovioikeudenneuvos
hovioikeudessa
hovioikeus
hovissa
how
howard
howardin
howe
hp
hpk
hr
hra
hrer
hrus
hs
hsl
ht
hta
htea
htee
hteeksi
hteen
hteena
hteenma
hteessa
hteesta
hteet
hteiden
hteilla
hteina
hteisiin
hteissa
hteista
hteita
htema
htena
hteneen
hteneet
htenyt
hteva
hti
htia
htien
htiessa
htiin
htitiede
htitieteen
htitieteilija
htiva
htm
html
htmlhttp
hto
http
https
hty
htya
htyi
htyna
htynyt
htyva
htyy
hu
hua
hubert
hudson
hufvudstadsbladet
hugh
hughes
hughesin
hugo
huhta
huhtala
huhtama
huhti
huhtikuu
huhtikuuhun
huhtikuun
huhtikuussa
huhtikuusta
huhtikuuta
huhu
huhuja
huhut
huhuttiin
hui
huijari
huijaus
huilu
huilulle
huipentui
huippu
huippua
huippunopeus
huippunsa
huipulla
huipulle
huipun
huiput
huittinen
huittisten
hukkaan
hukkui
hulda
hulde
hulk
hull
hullu
hullun
humalassa
human
humanistinen
humanististen
hume
humoristinen
humphrey
hun
hunt
hunter
hunterin
huolehti
huolehtia
huolehtii
huolehtimaan
huolehtivat
huolellisesti
huolen
huoli
huolimatta
huolissaan
huollettavaksi
huollon
huolta
huoltaja
huolto
huoltoa
huoltopa
huom
huomaa
huomaamatta
huomaavat
huomannut
huomasi
huomasivat
huomata
huomattava
huomattavaa
huomattavan
huomattavasti
huomattavia
huomattavimpia
huomattavin
huomattiin
huomattu
huomattuaan
huomauttaa
huomautti
huomautukset
huomautuksia
huomenna
huomio
huomioida
huomioita
huomioitiin
huomioitu
huomiolle
huomion
huomionsa
huomioon
huomiota
huomiotta
huone
huoneen
huoneenla
huoneeseen
huoneessa
huoneesta
huoneet
huoneita
huonekaluja
huonetta
huono
huonoa
huonoin
huonoja
huonojen
huonolla
huonommin
huonompi
huonon
huonoon
huonossa
huonosta
huonosti
huonot
huopalahden
huotari
huovinen
hurja
hurley
hurme
hurmerinta
hurricane
hurricanes
hurricanesin
hurriganes
hurriganesin
hurrikaani
hurt
hus
hussein
husseinin
huttunen
huudahti
huulet
huuliharppu
huumeiden
huumeita
huumori
huumoria
huumorin
huusi
huutaa
huuto
huutokaupassa
huvila
huvilan
huvina
huvipuisto
hv
hy
hyde
hydra
hyke
hyketta
hykkeella
hykkeen
hykkeeseen
hykkeet
hyla
hylja
hylka
hylky
hylyn
hylyt
hyminuutteja
hyminuuttia
hymni
hymy
hyn
hynninen
hyo
hypa
hypo
hyppa
hyppy
hyppyrima
hypyn
hysta
hyto
hytti
hyttinen
hyundai
hyva
hyvia
hyvien
hyvin
hyvinka
hyvinkin
hyvinvoinnin
hyvinvointi
hyvinvointia
hyvissa
hyvista
hyvo
hywa
hyytia
hz
i
ia
iaaf
iaea
iaido
ian
iang
iau
ib
ibc
iberian
ibm
ibn
ibrahim
ic
ice
ich
ichi
id
ida
ide
idea
ideaa
idean
ideana
ideat
iden
idensa
identiteetin
identiteetti
identiteettia
identity
identtinen
ideoiden
ideoita
ideologia
idille
idilleen
idilta
idin
idinkielen
idinkielena
idista
idit
idman
idmanin
idol
idols
ie
iec
ieee
ien
if
ifk
iggy
ign
ignatius
igor
iha
ihaili
ihan
ihana
ihastui
ihastunut
ihastuu
ihin
ihinsa
ihitta
ihitti
ihl
ihme
ihmeellinen
ihmeen
ihmeita
ihmetteli
ihminen
ihmis
ihmiseen
ihmiseksi
ihmisella
ihmiselle
ihmisen
ihmisena
ihmisessa
ihmisesta
ihmiset
ihmisia
ihmisiin
ihmisilla
ihmisille
ihmisilta
ihmisissa
ihmisista
ihmiskunnan
ihmiskunta
ihmisoikeudet
ihmisoikeuksia
ihmisoikeuksien
ihmisoikeusja
ihmista
ihmisten
iho
ihoa
ihon
ihteiden
ii
iida
iihf
iii
iijoen
iin
iiris
iiro
iisakki
iisalmen
iisalmi
iitin
iivana
iivari
ija
ik
ika
ikaalisten
ike
ikea
ikin
ikina
ikka
ikko
ikkuna
ikkunan
ikkunasta
ikkunat
ikkunoiden
ikkunoita
ikl
iko
ikonen
ikoni
ikosen
iksi
ikuinen
ikuisen
ikuisesti
il
ila
ilari
ile
ilee
ilema
ileva
ili
ilias
ilija
ilijo
ilin
ilio
iliva
ilja
iljus
ilkea
ilkka
illa
illalla
illan
illassa
ille
illen
illinois
illinoisin
illusion
illustrated
illyt
ilma
ilmaa
ilmaan
ilmaantui
ilmaantuu
ilmahyo
ilmailu
ilmailun
ilmainen
ilmaisee
ilmaiseksi
ilmaisemaan
ilmaisevat
ilmaisi
ilmaissut
ilmaista
ilmaistaan
ilmaisu
ilmaisua
ilmaisun
ilmaja
ilmajoen
ilmajoki
ilmakeha
ilmakuva
ilman
ilmapiiri
ilmari
ilmarinen
ilmassa
ilmasta
ilmasto
ilmaston
ilmastonmuutoksen
ilmastonmuutos
ilmastoon
ilmastossa
ilmatieteen
ilmatorjunta
ilmavoimat
ilmavoimien
ilmavoimille
ilmavoimissa
ilme
ilmeen
ilmeisen
ilmeisesti
ilmeista
ilmenee
ilmeneva
ilmeni
ilmennyt
ilmenta
ilmentyma
ilmestya
ilmestyessa
ilmestyi
ilmestyiva
ilmestyma
ilmestymisen
ilmestymista
ilmestyneella
ilmestyneen
ilmestyneessa
ilmestyneet
ilmestynyt
ilmestyttya
ilmestyva
ilmestyy
ilmeta
ilmi
ilmio
ilmoitetaan
ilmoitettava
ilmoitettiin
ilmoitettu
ilmoittaa
ilmoittamaan
ilmoittanut
ilmoittautui
ilmoitti
ilmoittivat
ilmoituksen
ilmoitus
ilo
iloa
iloinen
ilomantsin
ilon
ilona
ilpo
ilta
iltaa
iltaan
iltaisin
iltalehden
iltalehti
iltana
iltansa
iltapa
iltasanomat
iltiin
ilty
iltyna
ilvekseen
ilveksen
ilveksessa
ilves
ilvesta
ily
ilya
ilyi
ilyiva
ilyja
ilyn
ilyneen
ilyneet
ilyneista
ilyneita
ilynyt
ilyssa
ilyt
ilyteta
ilytetta
ilytettiin
ilytta
ilytti
ilyttiva
ilyva
ilyy
im
ima
imaami
image
images
imatra
imatralla
imatran
imdb
imee
imen
imet
imetta
imeva
imeytyy
img
imia
imiin
imilla
imille
imissa
imista
imisto
imma
immanuel
immonen
immortal
immuunija
impact
imperial
imperiumi
imperiumin
impi
imre
in
ina
inari
inarin
inaturalist
inc
increment
indeksi
independence
independent
index
india
indian
indiana
indianan
indianapolis
indians
indie
indonesia
indonesialainen
indonesian
indonesiassa
indus
industrial
industries
industry
indy
ine
ineen
inen
inferno
infinity
inflaatio
info
informaatio
informaation
informaatiota
information
infrastruktuuri
infty
inga
inge
ingeborg
inger
ingis
ingman
ingmar
ingrid
inhimillinen
inhimillisen
inin
inio
inja
inka
inkeri
inkerila
inkerin
inkin
inkinen
inkojen
inkoon
inla
inn
inner
innin
innocent
innocentius
innoissaan
innoittamana
innoitti
innokas
innokkaasti
innostui
innostunut
innovation
innsbruckin
innsbruckissa
ino
inside
insino
inspiraation
instagram
institut
institute
instituten
instituutin
instituutissa
instituutti
instrumentaali
instrumental
instrumentit
int
inta
intarha
intarhan
inte
integrated
integroitu
intel
intelin
intelligence
inten
intendentti
inter
interactive
intercontinental
interin
internacional
international
internationale
internationalin
internet
internetiin
internetin
internetissa
internetista
internetsivut
interview
inti
intia
intiaa
intiaan
intiaaneja
intiaanien
intiaanit
intialainen
intialaisen
intialaiset
intian
intiassa
intiasta
intieteen
intieteilija
into
intro
introduction
invasion
invastoin
investointeja
inyt
io
ioa
iommi
ion
ioneja
ioni
ionien
ionin
ionit
ioniyhdiste
ios
iowa
ip
iphone
ir
ira
irak
irakiin
irakin
irakissa
iraklionin
iran
iraniin
iranilainen
iranilaiset
iranin
iranissa
irc
ireland
irene
irina
irinna
irinta
irio
iris
irish
irita
iritsema
iritseva
irja
irlannin
irlannissa
irlannista
irlanti
irlantia
irlantiin
irlantilainen
irlantilaisen
irlantilaiset
irma
irmeli
irokeesien
iron
irrotettiin
irrottaa
irtautui
irti
irtisanoi
irtisanoutui
irtoaa
irtosi
irving
irwin
is
isa
isaac
isabel
isabella
isabellan
isabelle
isak
isasukkaita
isbn
ise
isee
iseen
iseksi
isella
iselle
iselta
isema
isemiseksi
isemma
isemmin
isempa
isempi
isempia
isen
isena
isensa
isessa
isesta
isesti
iset
iseva
ishaq
isi
isia
isien
isiin
isiko
isiksi
isilla
isille
isilta
isimma
isimmin
isin
isina
isis
isisin
isissa
isista
isiva
isja
isk
iska
iskansat
iskansojen
iskea
iskee
iskelma
iskema
iski
iskiva
iskoulu
isku
iskua
iskuista
iskuja
iskujen
iskun
iskussa
iskusta
iskut
iskutilavuus
isl
isla
islam
islamia
islamiin
islamilainen
islamilaisen
islamilaisessa
islamilaiset
islamilaista
islamilaisten
islamin
islamissa
islamista
island
islanders
islandersin
islandilla
islandin
islands
islannin
islannissa
islanti
islantiin
islantilainen
islantilaiset
isle
isma
ismail
ismo
ismon
iso
isoa
isoisa
isoja
isojen
isojoen
isokokoinen
isolla
isompi
ison
isonvihan
isoon
isossa
isosta
isot
isoveli
isoveljensa
israel
israelia
israeliin
israelilainen
israelilaiset
israelilaisten
israelin
israelissa
iss
issa
issf
issn
issue
issyntyinen
ist
ista
istanbul
istanbulin
istanbulissa
isten
isto
istua
istui
istuimen
istuin
istuivat
istumaan
istumapaikkaa
istunnossa
istunut
istutettiin
istutettu
istuu
istuva
istuvan
istuvat
istva
istya
istyi
istyiva
istyminen
istymisen
istymista
istyttya
isva
isy
isyydella
isyydelle
isyydelta
isyyden
isyydesta
isyydet
isyyksia
isyyksien
isyyn
isyys
isyysja
isyyspa
isyyteen
isyytensa
isyytta
it
ita
italia
italiaa
italiaan
italiaksi
italialainen
italialais
italialaisen
italialaiset
italialaisia
italialaista
italialaisten
italialle
italian
italiassa
italiasta
italy
ite
iteta
itetta
itettiin
itetty
itf
iti
itia
itiin
itina
itini
itinsa
itio
itis
itki
itkonen
ito
its
itse
itsea
itseensa
itsehallinnon
itsehallinto
itsehallintoalue
itseka
itsekin
itsekka
itsekseen
itsella
itselleen
itselta
itsema
itsemurha
itsemurhaa
itsemurhan
itsena
itsensa
itseoppinut
itsepa
itsessa
itsesta
itsija
itta
itteen
itteet
itteiden
itteita
itteli
itten
itti
ittiva
itunes
itv
ity
itya
ityi
ityma
itynyt
iu
iucn
ius
iv
iva
ivan
ivanov
ivanovic
ivanovits
ivar
ivi
ivia
ivien
iviin
ivilla
iville
ivilta
ivin
ivina
ivio
ivisin
ivista
ivitettiin
ivitetty
ivitta
ivityksen
ivitys
ivo
ivy
iwa
ix
iz
j
ja
jaa
jaakko
jaakkola
jaakob
jaakobin
jaakon
jaan
jaana
jaardia
jaardin
jaarli
jaarlin
jaatinen
jaavan
jack
jackets
jacketsin
jackie
jackin
jackson
jacksonin
jacob
jacobin
jacobs
jacqueline
jacques
jade
jae
jaetaan
jaettiin
jaettu
jaettuna
jaetulla
jaetulle
jaetun
jag
jagger
jaguar
jaime
jak
jakaa
jakaantui
jakaantuu
jakamaan
jakamalla
jakaminen
jakamisesta
jakamista
jakanut
jakauma
jakautui
jakautuivat
jakautuminen
jakautumista
jakautunut
jakautuu
jakautuvat
jakavat
jake
jakelu
jako
jakoa
jakob
jakobson
jakobsson
jakoi
jakoivat
jakovaihe
jakovaiheen
jakovlev
jakso
jaksoa
jaksoisesti
jaksoissa
jaksoista
jaksoja
jaksojen
jaksolla
jakson
jaksoon
jaksossa
jaksosta
jaksot
jalalla
jalan
jalanja
jalansijaa
jalas
jalasja
jalat
jalava
jalka
jalkaa
jalkaan
jalkanen
jalkansa
jalkapallo
jalkapalloa
jalkapalloilija
jalkapalloilijat
jalkapalloilun
jalkapallojoukkue
jalkapalloliiton
jalkapalloliitto
jalkapallomaajoukkue
jalkapallomaajoukkueen
jalkapallomaajoukkueessa
jalkapallomaalivahdit
jalkapallomaalivahti
jalkapallon
jalkapallosarjojen
jalkapalloseura
jalkapalloseurat
jalkapallossa
jalkapallostadion
jalkapallostadionit
jalkapallovalmentaja
jalkapallovalmentajat
jalkava
jalkoihin
jalkojen
jalmari
jalo
jaloissa
jalonen
jalostettu
jalostuksen
jalostus
jam
jamaikalainen
jamaikalaiset
jamaikan
james
jamesin
jamie
jan
jana
janakkalan
janan
jane
janeiro
janeiron
janeirossa
janet
jani
janne
jansen
jansson
janssonin
jantunen
january
jaon
jaossa
japan
japanese
japani
japania
japaniin
japaniksi
japanilainen
japanilaisen
japanilaisessa
japanilaiset
japanilaisia
japanilaista
japanilaisten
japanille
japanin
japaninkielinen
japanissa
japanista
jar
jared
jari
jarkko
jarl
jarmo
jarno
jaro
jaroslav
jaroslavlin
jarrut
jas
jaska
jason
jasper
jatka
jatkaa
jatkaen
jatkamaan
jatkamista
jatkanut
jatkavan
jatkavansa
jatkavat
jatke
jatketaan
jatkettiin
jatkettu
jatko
jatkoa
jatkoaika
jatkoajalla
jatkoajan
jatkoi
jatkoivat
jatkoon
jatkosodan
jatkosodassa
jatkosopimuksen
jatkosopimusta
jatkosota
jatkosotaan
jatkossa
jatkosta
jatkua
jatkuessa
jatkui
jatkuivat
jatkuneen
jatkunut
jatkuu
jatkuva
jatkuvaa
jatkuvan
jatkuvassa
jatkuvasti
jatkuvat
jatkuvia
jauhiainen
jauhoja
java
javier
jay
jazz
jazzia
jazzin
jazzmuusikko
je
jean
jeanne
jedi
jee
jeep
jeesuksen
jeesus
jeesusta
jeff
jefferson
jeffrey
jehovan
jekaterina
jelena
jeltsin
jeltsinin
jemenin
jemenissa
jen
jengi
jengin
jenkins
jenna
jenni
jennifer
jennings
jenny
jens
jensen
jenson
jere
jeremy
jericho
jerome
jerry
jersey
jerseyn
jerseyssa
jerusalem
jerusalemiin
jerusalemin
jerusalemissa
jerzy
jesper
jesse
jessica
jesu
jesuiittojen
jesus
jet
jethro
jets
jetsin
jevgeni
jewish
ji
jia
jiang
jiddis
jien
jiensa
jiin
jiksi
jill
jilla
jille
jilta
jim
jime
jimi
jimmy
jin
jina
jinin
jinja
jir
jiri
jissa
jista
jjk
jk
jne
jo
joa
joachim
joakim
joan
joanna
job
joca
jocu
joe
joel
joella
joelle
joen
joensuu
joensuuhun
joensuun
joensuussa
joessa
joesta
joet
joey
joh
johan
johann
johanna
johanneksen
johannes
johansson
johanssonin
johda
johdanto
johdattaa
johdatti
johdatus
johdetaan
johdettiin
johdettu
johdolla
johdollaan
johdon
johdossa
johdosta
john
johnin
johnny
johns
johnson
johnsonin
johnston
johon
johonkin
joht
johtaa
johtaen
johtaisi
johtaja
johtajaa
johtajaksi
johtajalle
johtajan
johtajana
johtajanaan
johtajansa
johtajat
johtajia
johtajien
johtajista
johtama
johtamaa
johtamaan
johtaman
johtamana
johtamansa
johtamassa
johtamat
johtamien
johtaminen
johtamisen
johtaneen
johtaneet
johtanut
johtanutta
johtava
johtavaa
johtavan
johtavana
johtavat
johtavia
johtavien
johtavista
johti
johtivat
johto
johtoa
johtohahmo
johtohenkilo
johtokunnan
johtokunnassa
johtokunta
johtokuntaan
johtoon
johtopa
johtoryhma
johtotehta
johtua
johtuen
johtui
johtuivat
johtuneen
johtunut
johtuu
johtuva
johtuvan
johtuvat
joi
joiden
joidenkin
joihin
joihinkin
joilla
joillain
joillakin
joille
joillekin
joilta
joinakin
joint
joissa
joissain
joissakin
joista
joistakin
joita
joitain
joitakin
jok
joka
jokainen
jokaiseen
jokaisella
jokaiselle
jokaisen
jokaisessa
jokaisesta
jokaista
jokapa
jokea
jokeen
jokela
jokelan
jokereiden
jokereihin
jokereissa
jokereita
jokeri
jokerien
jokerin
jokerit
joki
jokia
jokien
jokin
jokinen
jokioisten
jokipii
jokisen
joko
jokseenkin
joksi
joksikin
joku
jolla
jollain
jollainen
jollaisia
jollakin
jolle
jollei
jollekin
jolloin
jolta
jon
jona
jonakin
jonas
jonathan
jones
jonesin
jong
joni
jonka
jonkin
jonkinlainen
jonkinlaisen
jonkinlaista
jonkun
jonna
jonne
jonny
jonsson
joona
joonas
joonatan
joonian
joosef
joosefin
jooseppi
jopa
jope
jordan
jordania
jordanian
jordanin
jorge
jori
jorma
jos
jose
josef
josefina
joseph
josh
joshua
josif
joskaan
joskin
joskus
jospa
jossa
jossain
jossakin
josta
jostain
jostakin
jota
jotain
jotakin
joten
jotenkin
jotka
jotkin
jotkut
jotta
jottei
joudutaan
jouduttiin
jouduttu
jouduttua
jouduttuaan
joukko
joukkoa
joukkoihin
joukkoineen
joukkoja
joukkojaan
joukkojen
joukkojensa
joukkoliikenteen
joukkonsa
joukkoon
joukkue
joukkueella
joukkueelle
joukkueen
joukkueena
joukkueenjohtaja
joukkueenjohtajaksi
joukkueenjohtajana
joukkueenjohto
joukkueensa
joukkueeseen
joukkueessa
joukkueesta
joukkueet
joukkueiden
joukkueissa
joukkueista
joukkueita
joukkuekilpailu
joukkuekilpailun
joukkuekilpailussa
joukkuema
joukkuetakaa
joukkuetoverinsa
joukkuetta
jouko
joukoille
joukoissa
joukoista
joukon
joukossa
joukossaan
joukosta
joukot
joulu
joulua
jouluaattona
joulukuu
joulukuuhun
joulukuun
joulukuussa
joulukuusta
joulukuuta
joulun
jouluna
joulupa
joulupukki
jouni
journal
journalismin
journalisti
journey
jousen
jouset
jousi
jousiampuja
jousikvartetto
jousiorkesterille
joutsan
joutsen
joutsenon
joutua
joutuessaan
joutui
joutuisi
joutuivat
joutuneen
joutuneensa
joutuneet
joutunut
joutuu
joutuvat
jovi
joy
joyce
jp
jpeg
jpg
jpl
jr
js
ju
juan
judas
judge
judith
judo
judoka
judokat
judon
judy
jugend
jugoslavia
jugoslaviaa
jugoslavialaiset
jugoslavian
jugoslaviassa
juha
juhana
juhanan
juhani
juhla
juhlaa
juhlaan
juhlan
juhlapa
juhlassa
juhlat
juhli
juhlia
juhlien
juhliin
juhlimaan
juhlissa
juhlittiin
juho
juice
jukka
jukolan
jukureiden
jukurit
jules
julia
julian
julie
julien
juliet
julin
julio
julistaa
julistanut
julistautui
julistettiin
julistettu
julisti
julistivat
julistuksen
julistus
julius
julk
julkaisee
julkaisema
julkaisemaan
julkaisemalla
julkaiseman
julkaisemassa
julkaisemat
julkaisematon
julkaisematta
julkaiseminen
julkaisemisen
julkaisemista
julkaisi
julkaisija
julkaisijana
julkaisivat
julkaisseet
julkaissut
julkaista
julkaistaan
julkaistavaksi
julkaistiin
julkaistu
julkaistua
julkaistuista
julkaistuja
julkaistujen
julkaistulla
julkaistulle
julkaistun
julkaistussa
julkaistusta
julkaistut
julkaistuun
julkaisu
julkaisua
julkaisuissa
julkaisuista
julkaisuja
julkaisujen
julkaisun
julkaisunsa
julkaisupa
julkaisussa
julkaisusta
julkaisut
julkaisuun
julki
julkinen
julkiseen
julkisella
julkisen
julkisessa
julkisesti
julkiset
julkisia
julkisiin
julkisissa
julkisista
julkisivu
julkisivun
julkista
julkisten
julkistettiin
julkisti
julkisuuden
julkisuudessa
julkisuudesta
julkisuuteen
julkisuutta
julma
july
jumala
jumalaa
jumalaan
jumalalle
jumalalta
jumalan
jumalana
jumalanpalveluksen
jumalanpalveluksia
jumalasta
jumalat
jumalatar
jumalattaren
jumalia
jumalien
jumalista
jumalten
jump
jun
juna
junaa
junaan
junalla
junan
junassa
junat
june
jung
jungle
junia
junien
junior
junioreiden
junioreihin
junioreissa
juniori
juniorien
junioriliigan
juniorina
juniorit
junioriura
junkers
junnila
juno
junttila
juntunen
juo
juoda
juoksee
juoksemaan
juoksi
juoksija
juoksijat
juoksu
juoksua
juoksulla
juoksun
juoksussa
juoma
juomaa
juomaan
juoman
juomat
juonen
juoni
juonsi
juonta
juontaa
juontaja
juontajana
juontajat
juontanut
juontuu
juossut
juosta
juova
juovat
jupiter
jupiterin
jurassic
juri
juristi
juristit
jurkka
jurva
jus
jussi
jussila
jussin
jussit
just
justice
justin
justinianus
justus
jutta
juttu
juttuja
jutun
jutussa
juudan
juurella
juurensa
juuret
juuri
juuria
juurikaan
juuso
juusto
juustoa
juuston
juutalainen
juutalaiseen
juutalaisen
juutalaiset
juutalaisia
juutalaisille
juutalaisista
juutalaista
juutalaisten
juutalaisuuden
juutalaisuus
juutilainen
juva
juvan
juventuksen
juventus
juvonen
jvg
jylha
jymy
jymyn
jyp
jypin
jypissa
jyra
jyri
jyrka
jyrki
jyrkka
jyrkkia
jyrsija
jyrsijo
jyva
k
ka
kaaduttua
kaakkois
kaakkoisosassa
kaakkoispa
kaakkoispuolella
kaakkoon
kaakossa
kaakosta
kaani
kaanin
kaaoksen
kaaoszine
kaapata
kaapeli
kaappasi
kaappasivat
kaappauksen
kaappaus
kaaren
kaareva
kaari
kaarina
kaarinan
kaarle
kaarlen
kaarlo
kaarna
kaarti
kaartiin
kaartin
kaasu
kaasua
kaasuja
kaasukeha
kaasun
kaataa
kaatoi
kaatui
kaatuivat
kaatumisen
kaatuneet
kaatuneiden
kaatuneina
kaatunut
kaatunutta
kaatuu
kaava
kaavaa
kaavailtiin
kaavalla
kaavan
kaavin
kaavio
kaavion
kabulin
kadettikoulun
kadoksissa
kadonneen
kadonneet
kadonnut
kadonnutta
kaduilla
kaduille
kadulla
kadulle
kadun
kadut
kahdeksaan
kahdeksalla
kahdeksan
kahdeksanneksi
kahdeksannella
kahdeksannen
kahdeksantoista
kahdeksas
kahdeksassa
kahdeksasta
kahdeksi
kahdeksikossa
kahdella
kahdelle
kahdelta
kahden
kahdenkymmenen
kahdentoista
kahdessa
kahdesta
kahdestatoista
kahdesti
kahdestoista
kahdet
kahn
kahta
kahteen
kahtena
kahtia
kahvi
kahvia
kahvila
kahvin
kai
kaija
kaiken
kaikenlaisia
kaikessa
kaikesta
kaikilla
kaikille
kaikilta
kaikin
kaikissa
kaikista
kaikk
kaikkea
kaikkeen
kaikkein
kaikkensa
kaikkeuden
kaikki
kaikkia
kaikkiaan
kaikkialla
kaikkialle
kaikkien
kaikkiin
kaikkina
kaikkonen
kaiku
kaila
kain
kainulainen
kainuu
kainuun
kainuussa
kaipaa
kairon
kairossa
kaisa
kaiser
kaisu
kaivaa
kaivaukset
kaivauksia
kaivauksissa
kaiverrettu
kaivettiin
kaivettu
kaivo
kaivoksen
kaivokset
kaivos
kaj
kajaani
kajaanin
kajaanissa
kakko
kakkonen
kakkoseksi
kakkosen
kakkosessa
kakkosjoukkueessa
kakkosmaalivahtina
kakkosta
kaks
kaksi
kaksikerroksinen
kaksikielinen
kaksikko
kaksikon
kaksikymmenta
kaksin
kaksinkertainen
kaksinkertaisen
kaksinpeli
kaksinpelin
kaksinpelissa
kaksiosainen
kaksiosaisen
kaksipa
kaksissa
kaksisuuntaisen
kaksitoista
kaksivuotisella
kaksivuotisen
kaksoista
kaksoset
kala
kalaa
kalajoen
kalajoki
kalalajeja
kalalaji
kalan
kalastaja
kalastuksen
kalastus
kalastusta
kalat
kalentereissa
kalenteri
kalenterin
kalenterissa
kalervo
kaleva
kalevala
kalevalan
kalevan
kalevi
kalifi
kalifin
kalifornia
kaliforniaan
kalifornian
kaliforniassa
kaliforniasta
kalju
kallaveden
kalle
kallein
kallela
kallelan
kallen
kalliiksi
kalliita
kallikrates
kallio
kallioja
kallioma
kalliomaalaukset
kalliomaalaus
kallion
kallioon
kalliopera
kalliossa
kalliota
kallis
kallista
kallo
kallon
kalmarin
kalmbergin
kalmisto
kaloja
kalojen
kalpa
kalpan
kaltainen
kaltaisen
kaltaiset
kaltaisia
kaltaista
kaltaisten
kalu
kaluja
kalujen
kalusto
kalustoa
kaluston
kalustona
kalut
kalvan
kalvon
kamari
kamarimusiikkia
kambodz
kamera
kameran
kamerat
kamerun
kamerunin
kammion
kampanja
kampanjaa
kampanjan
kampanjoi
kampin
kamppailu
kamppailua
kamppailun
kamppailussa
kampuksella
kampus
kamts
kan
kana
kanaalin
kanada
kanadaa
kanadaan
kanadalainen
kanadalais
kanadalaisen
kanadalaiset
kanadan
kanadassa
kanadasta
kanava
kanavaa
kanavalla
kanavalle
kanavan
kanavat
kanavia
kanavien
kanavilla
kandidaatiksi
kandidaatin
kandidaatti
kane
kanen
kanerva
kang
kangas
kangasala
kangasalan
kangasalla
kangasniemen
kangasniemi
kankaalle
kankaan
kankaanpa
kankkunen
kannabiksen
kannaksella
kannaksen
kannalla
kannalle
kannalta
kannan
kannankehitys
kannas
kannat
kannata
kannattaa
kannattaja
kannattajat
kannattajia
kannattajien
kannattamaan
kannattaneet
kannattanut
kannattavaa
kannattavat
kannatti
kannattivat
kannatuksen
kannatus
kannatusta
kannella
kannelle
kannen
kannessa
kannet
kannustaa
kannusti
kansa
kansaa
kansaan
kansain
kansainliiton
kansainva
kansainyhteiso
kansak
kansakoulu
kansakoulua
kansakoulujen
kansakoulun
kansakoulunopettaja
kansakunnan
kansakunnat
kansakuntien
kansalainen
kansalaisen
kansalaisesta
kansalaiset
kansalaisia
kansalaisille
kansalaisja
kansalaisten
kansalaisuuden
kansalaisuus
kansalaisuutta
kansalle
kansallinen
kansallis
kansallisbiografia
kansalliseen
kansallisella
kansallisen
kansallisessa
kansallisesta
kansallisesti
kansalliset
kansallisia
kansalliskaartin
kansalliskirjasto
kansalliskirjaston
kansalliskirjastossa
kansalliskokouksen
kansalliskokous
kansallislaulu
kansallislaulun
kansallismuseon
kansallisoopperan
kansallisoopperassa
kansallispuisto
kansallispuistoa
kansallispuiston
kansallispuistoon
kansallispuistossa
kansallispuistot
kansallissosialistien
kansallissosialistisen
kansallista
kansallisteatteri
kansallisteatterin
kansallisteatterissa
kansallisten
kansan
kansana
kansanedustaja
kansanedustajaa
kansanedustajaksi
kansanedustajan
kansanedustajana
kansanedustajat
kansanedustajien
kansanela
kansanka
kansanmusiikin
kansannousu
kansannousun
kansanopiston
kansanperinne
kansanperinteen
kansanpuolue
kansanpuolueen
kansanrunouden
kansansa
kansantalouden
kansantasavallan
kansantasavalta
kansanvaltuuskunnan
kansas
kansasin
kansasta
kansat
kansatieteilija
kansi
kansikuva
kansikuvan
kansilehti
kansitaide
kansleri
kanslia
kanslian
kansliapa
kanslisti
kansoja
kansojen
kanssa
kanssaan
kanssaka
kant
kanta
kantaa
kantaesitettiin
kantaesitys
kantaisa
kantaja
kantakaupungin
kantama
kantamaan
kantaman
kantanut
kantapa
kantatie
kantava
kantavan
kantavat
kanteen
kantele
kantin
kanto
kantoi
kantoivat
kantoja
kantola
kantoni
kantonin
kantonissa
kantoraketilla
kanttori
kanye
kap
kapanen
kapasiteetti
kapea
kapeampi
kapean
kapearaiteinen
kapeat
kapeita
kapellimestari
kapellimestarina
kapellimestarit
kapenee
kapina
kapinaa
kapinaan
kapinalliset
kapinallisia
kapinallisten
kapinan
kapinat
kapinoi
kapinoita
kapinoivat
kapitalismin
kaplan
kapoor
kappalainen
kappale
kappaleeksi
kappaleella
kappaleellaan
kappaleelle
kappaleen
kappaleena
kappaleensa
kappaleeseen
kappaleessa
kappaleesta
kappaleet
kappaleiden
kappaleiksi
kappaleilla
kappaleisiin
kappaleissa
kappaleista
kappaleita
kappaleitaan
kappalelista
kappaletta
kappeli
kappelin
kappeliseurakunta
kappelissa
kapteeni
kapteeniksi
kapteenin
kapteenina
kapteenistoon
kar
kara
karan
karate
kardinaali
kardinaalit
kare
karel
karelia
karen
karhu
karhua
karhuja
karhujen
karhula
karhulan
karhuma
karhun
karhunen
karhut
kari
karibian
karille
karin
karisto
kariutui
karja
karjaa
karjaan
karjala
karjalaan
karjalainen
karjalais
karjalaisen
karjalaiset
karjalaisia
karjalaisten
karjalan
karjalankannaksella
karjalassa
karjalasta
karjan
karjanhoito
karkaa
karkasi
karkea
karkeasti
karkkilan
karkotettiin
karkottaa
karkotti
karkottivat
karkun
karkuun
karl
karlsson
karma
karoliina
karolina
karppinen
karri
karsimaan
karsinnan
karsinnassa
karsinnat
karsinnoissa
karsinnoista
karsinta
karsintaan
karsintakierroksella
karsintakierros
karsintaottelussa
karsintasarjan
karsintoihin
karsintojen
karsiutui
karsten
kart
kartalla
kartan
kartano
kartanoa
kartanon
kartanoon
kartanossa
kartanosta
kartanot
kartassa
kartastossa
kartat
karthagon
karting
kartoissa
kartta
karttaa
karttaan
karttoja
karttojen
karttunen
karu
karva
karvainen
karvaisia
karvapeite
karvinen
karvoja
karvonen
kas
kasaan
kasaarien
kasakat
kasetti
kashmirin
kasimir
kaski
kaskinen
kasparov
kasper
kasperi
kaspianmeren
kassa
kassu
kastajan
kaste
kasteen
kastettiin
kastilian
kasva
kasvaa
kasvaessa
kasvain
kasvamaan
kasvaneen
kasvaneet
kasvanut
kasvatetaan
kasvatettiin
kasvatettu
kasvattaa
kasvattajaseura
kasvattajaseuraansa
kasvattajaseuransa
kasvattajaseurassaan
kasvattamaan
kasvattaminen
kasvattanut
kasvattavat
kasvatti
kasvattivat
kasvatuksen
kasvatus
kasvatusta
kasvatustieteen
kasvatustieteiden
kasvatustieteilija
kasvava
kasvavaa
kasvavan
kasvavat
kasvavia
kasveilla
kasveissa
kasveista
kasveja
kasvi
kasvia
kasviatlas
kasvien
kasviheimot
kasvilaji
kasvillisuuden
kasvillisuus
kasvillisuutta
kasvimuseo
kasvin
kasvinsyo
kasvio
kasvissyo
kasvisuku
kasvit
kasvitieteellinen
kasvitieteen
kasvitieteilija
kasvoi
kasvoihin
kasvoivat
kasvoja
kasvojen
kasvojenkohotuksen
kasvonsa
kasvot
kasvu
kasvua
kasvun
kasvussa
kasvusta
kasvuun
kat
kata
katainen
kataja
katajan
katajanokan
katalonian
katalyyttina
katariina
katariinan
katarina
katastrofi
kate
katedraali
katedraalin
kategoriaan
kategoriassa
katen
katettu
katherine
kathleen
kati
katie
katja
katkaisee
katkaisi
katkaista
katkeaa
katkelma
katkelmia
katkera
katkesi
katkesivat
kato
katoaa
katoaminen
katoavat
katolinen
katoliseen
katolisen
katolisessa
katoliset
katolisia
katolista
katolisten
katolla
katolle
katon
katosi
katosivat
katri
katriina
katsaus
katse
katseli
katsella
katso
katsoa
katsoen
katsoi
katsoivat
katsojaa
katsojaluvut
katsojama
katsojan
katsojat
katsojia
katsojien
katsomaan
katsomalla
katsomassa
katsomo
katsomon
katsonut
katsoo
katsotaan
katsottiin
katsottu
katsottuna
katsotuin
katsovat
kattaa
kattamaan
kattava
kattavalla
kattavan
kattavat
katto
kattoi
kattoja
kattoon
katu
katua
katuja
katujen
kauan
kauas
kaudeksi
kaudella
kaudellaan
kaudelle
kaudelta
kauden
kaudessa
kaudesta
kaudestaan
kaudet
kauemmaksi
kauemmas
kauemmin
kauempaa
kauempana
kauhajoen
kauhajoki
kauhanen
kauhavan
kauhu
kauhuelokuva
kauhuelokuvat
kauhujen
kauhun
kaukaa
kaukaloihin
kaukana
kaukasian
kaukasuksen
kauko
kaukoida
kaukola
kaukonen
kaula
kaulaan
kaulan
kaulassa
kaunasin
kaunein
kauneuden
kauneus
kauneutta
kauniainen
kauniaisten
kauniin
kauniisti
kauniit
kauniita
kaunis
kaunista
kauno
kaunokirjallisuuden
kaunotar
kaupallinen
kaupallisen
kaupallisesti
kaupalliset
kaupallisia
kaupallista
kaupan
kaupanka
kaupassa
kaupasta
kaupat
kaupattiin
kauppa
kauppaa
kauppaan
kauppakeskuksen
kauppakeskus
kauppakomppanian
kauppakorkeakoulu
kauppakorkeakoulun
kauppakorkeakoulussa
kauppakoulun
kauppala
kauppalan
kauppalat
kauppalehti
kauppaneuvoksen
kauppaneuvokset
kauppaneuvos
kauppapaikka
kauppasi
kauppatieteiden
kauppi
kauppiaan
kauppiaat
kauppiaiden
kauppiaita
kauppias
kauppila
kauppinen
kauppoja
kauppojen
kaupungeissa
kaupungeista
kaupungiksi
kaupungilla
kaupungille
kaupungilta
kaupungin
kaupunginhallituksen
kaupunginhallitus
kaupunginjohtaja
kaupunginjohtajana
kaupunginjohtajat
kaupunginkirjasto
kaupunginkirjaston
kaupunginmuseo
kaupunginoikeudet
kaupunginorkesterin
kaupunginosa
kaupunginosaa
kaupunginosaan
kaupunginosan
kaupunginosassa
kaupunginosat
kaupunginosien
kaupunginosista
kaupungintalo
kaupungintalon
kaupunginteatteri
kaupunginteatterin
kaupunginteatterissa
kaupunginvaltuusto
kaupunginvaltuuston
kaupunginvaltuustoon
kaupunginvaltuustossa
kaupunginvaltuutettu
kaupunginvaltuutetut
kaupungissa
kaupungista
kaupungit
kaupunkeihin
kaupunkeja
kaupunki
kaupunkia
kaupunkialueen
kaupunkien
kaupunkiin
kaupunkikunta
kaupunkilaiset
kaupunkilaisten
kaupunkimainen
kaupunkina
kaupunkinsa
kaupunkioikeudet
kaupunkiseudulla
kaupunkiseudun
kaupunkiva
kaupunkivaltio
kaupunkivaltion
kaurisma
kausi
kausia
kausien
kausilla
kausina
kausittain
kausittainen
kaustisen
kauteen
kautena
kautensa
kautta
kauttaaltaan
kauttaan
kauvan
kaveri
kay
kazakstan
kazakstanin
kazakstanissa
kazan
kazanin
kb
kbfd
kd
ke
kea
keaine
keaineiden
keaton
kee
keen
keep
kegg
keha
kehiteta
kehitetta
kehitettiin
kehitetty
kehitetyt
kehitta
kehitteilla
kehitteli
kehitti
kehittiva
kehittya
kehittyessa
kehittyi
kehittyiva
kehittyma
kehittyminen
kehittymiseen
kehittymisen
kehittymista
kehittyneen
kehittyneet
kehittyneita
kehittynyt
kehittyva
kehittyy
kehitykseen
kehitykselle
kehityksen
kehityksessa
kehityksesta
kehitys
kehitysmaiden
kehitysmaissa
kehitysta
kehitystyo
kehitysyhteistyo
keho
kehon
kehoon
kehossa
kehotettiin
kehottaa
kehotti
kehotuksesta
kehra
kehui
kehuja
kehuttiin
kei
keiha
keijo
keika
keikalla
keikan
keikka
keikkaa
keikkaili
keikkansa
keikkoja
keikoilla
keina
keino
keinoa
keinoin
keinoja
keinon
keinona
keinot
keinotekoinen
keinotekoisesti
keisari
keisaria
keisariksi
keisarikunnan
keisarikunnassa
keisarikunta
keisarikuntaa
keisarikuntaan
keisarille
keisarillinen
keisarillisen
keisarillisessa
keisarin
keisarinna
keisarit
keisto
keita
keiteleen
keith
keitta
keittio
keka
keke
kekkonen
kekkosen
kekselia
keksi
keksia
keksii
keksija
keksima
keksinno
keksinto
keksinyt
keksittiin
keksitty
keksiva
kela
kelaitoksen
kelan
kelin
kellarissa
keller
kellerta
kello
kelloa
kellon
kellot
kellotapuli
kellotorni
kelly
kellyn
kelpaa
kelpo
kelpoinen
keltainen
keltaisella
keltaisen
keltaiset
keltaisia
keltaista
kelttila
kelvin
kema
kemi
kemia
kemiaa
kemiallinen
kemiallisen
kemiallisesti
kemialliset
kemiallisia
kemiallisten
kemian
kemianpalkinnon
kemiassa
kemiin
kemija
kemijoen
kemikaaleja
kemikaalien
kemila
kemin
kemio
kemissa
kemisti
kemistit
kempeleen
kemppainen
kemppi
kemyksen
kemyksensa
kemykset
kemyksia
kemys
kemysta
ken
kendo
kenelleka
kenen
kenenka
kenga
kenia
kenialainen
kenialaiset
kenian
keniassa
kenka
kenkia
kennedy
kennedyn
kennelliitto
kenneth
kenny
kenraali
kenraalieversti
kenraalikuverno
kenraaliluutnantti
kenraalimajuri
kenraalimajuriksi
kenraalin
kenraalit
kent
kenta
kenties
kentin
kentissa
kentta
kenttia
kenttien
kentucky
kepa
kepler
ker
kera
keramiikan
keramiikka
keramiikkaa
kerava
keravan
kerho
kerhon
kerima
kerja
kerman
kero
kerr
kerralla
kerrallaan
kerrallinen
kerran
kerrassa
kerrassaan
kerrasto
kerrat
kerro
kerroilla
kerroin
kerrokseen
kerroksen
kerroksessa
kerros
kerrosta
kerrostalo
kerrostaloja
kerrotaan
kerrottiin
kerrottu
kerry
kersantti
kerta
kertaa
kertaakaan
kertaalleen
kertaan
kertainen
kertaisesti
kertaka
kertaluvun
kertoa
kertoen
kertoi
kertoivat
kertoja
kertojana
kertomaan
kertomalla
kertoman
kertomansa
kertomuksen
kertomukset
kertomuksia
kertomus
kertomusta
kertomusten
kertoneet
kertonut
kertoo
kertosa
kertova
kertovan
kertovat
kertovia
kerttu
kertyi
kertyma
kertynyt
kertyy
kesa
kesk
keskeinen
keskeiseksi
keskeisen
keskeisena
keskeisessa
keskeisesti
keskeiset
keskeisia
keskeisimma
keskeisimpia
keskeisin
keskeisista
keskeista
keskella
keskelle
keskelta
kesken
keskena
keskenera
keskeytettiin
keskeytta
keskeytti
keskeyttiva
keskeytyi
keski
keskiaika
keskiaikainen
keskiaikaisen
keskiaikaiset
keskiajalla
keskiajalta
keskiajan
keskiarvo
keskiarvolla
keskiarvon
keskikenta
keskikentta
keskikokoinen
keskikoulu
keskikoulun
keskila
keskiluokan
keskima
keskimatkalla
keskimatkojen
keskimma
keskina
keskinen
keskio
keskiosa
keskiosan
keskiosassa
keskiosissa
keskipa
keskipiste
keskipitka
keskisarja
keskisarjan
keskisen
keskisessa
keskisuomalainen
keskisyvyys
keskitalo
keskitettiin
keskitetty
keskitta
keskitti
keskittya
keskittyi
keskittyiva
keskittyma
keskittyneet
keskittynyt
keskittyva
keskittyy
keskityta
keskivaiheilla
keskiviikkona
keskivirtaama
keskiylivirtaama
keskiyo
keskukseen
keskukseksi
keskuksen
keskuksena
keskuksessa
keskuksesta
keskukset
keskuksia
keskuksista
keskus
keskushallinnon
keskushermoston
keskushyo
keskusja
keskuskomitean
keskuskyla
keskusliiton
keskusliitto
keskusmuseo
keskuspaikka
keskuspankin
keskuspankki
keskuspuolustaja
keskussairaalan
keskusta
keskustaa
keskustaajama
keskustaajaman
keskustaan
keskustan
keskustapuolue
keskustapuolueen
keskustassa
keskustasta
keskustelemaan
keskustelevat
keskusteli
keskustella
keskusteltiin
keskustelu
keskustelua
keskusteluja
keskustelun
keskustelussa
keskustelut
keskusteluun
keskuudessa
keskuuteen
kesta
kesti
kestila
kestiva
kesto
keta
ketiede
ketiedetta
ketieteellinen
ketieteellisen
ketieteen
ketieteessa
ketju
ketjun
ketjussa
ketjuun
ketka
keto
ketola
ketonen
ketta
kettera
kettu
kettunen
keuhkokuumeeseen
keuhkosyo
keula
keulahahmo
keulan
keupa
keuruu
keuruulla
keuruun
keva
kevea
keventa
kevin
kevyemma
kevyempi
kevyen
kevyesti
kevyet
kevyita
kevyt
kevytsarjan
kevytta
key
keyhtio
keys
kg
kgb
kh
khalifa
khan
khanin
khl
khz
ki
kia
kianto
kick
kid
kidivisioona
kidivisioonan
kido
kids
kiehumispiste
kiekko
kiekkoa
kiekkoilija
kiekkoilijat
kiekkoilun
kiekkojoukkue
kiekkokirja
kiekkoliiton
kiekkoliitto
kiekkomaajoukkue
kiekkomaalivahdit
kiekkomaalivahti
kiekkopuolustaja
kiekkoseura
kiekkoseurat
kiekkovalmentaja
kiekkovalmentajat
kiekon
kiekonheitossa
kiekonheitta
kiekonheitto
kiekossa
kieleen
kieleksi
kielella
kielelle
kielen
kielena
kielenka
kielensa
kielessa
kielesta
kielet
kieli
kielia
kieliin
kielilla
kielille
kielin
kielinen
kieliopin
kielioppi
kieliryhma
kielissa
kielista
kielitieteen
kielitieteilija
kiellettiin
kielletty
kiellettya
kiellettyja
kiellon
kielsi
kielsiva
kielta
kielteinen
kielteisen
kielteisesti
kielten
kielto
kieltoa
kieltolain
kien
kienna
kierra
kierroksella
kierrokselle
kierroksen
kierros
kierrosta
kiersi
kiersiva
kierta
kierteisesti
kierteli
kierto
kiertoaika
kiertoradalla
kiertoradalle
kiertue
kiertueella
kiertueelle
kiertueen
kiertueensa
kiertueilla
kiertueita
kiertuetta
kihlakunnan
kihlakunta
kihlakuntaan
kihloissa
kihnio
kihyppa
kihyppy
kihypyn
kiihdytta
kiihkea
kiihtyi
kiihtyva
kiihtyvyys
kiikalan
kiilta
kiimingin
kiina
kiinaa
kiinaan
kiinalainen
kiinalaisen
kiinalaiset
kiinalaisia
kiinalaista
kiinalaisten
kiinan
kiinassa
kiinasta
kiinni
kiinniteta
kiinnitetta
kiinnitettiin
kiinnitetty
kiinnitettyna
kiinnitta
kiinnitti
kiinnittyva
kiinnittyy
kiinnostaa
kiinnosti
kiinnostui
kiinnostuksen
kiinnostuksensa
kiinnostuneet
kiinnostuneita
kiinnostunut
kiinnostus
kiinnostusta
kiintea
kiinteisto
kiinteita
kiintio
kiipea
kiire
kiiski
kiiskinen
kiista
kiistaa
kiistan
kiistanalainen
kiistat
kiistelty
kiisti
kiistoja
kiita
kiitos
kiitosta
kiitotie
kiitotien
kiitta
kiitti
kiivaasti
kiivas
kija
kijoukko
kikirikilpailun
kikka
kila
kiljunen
kill
killa
killan
kille
killer
killers
killinen
killing
killisesti
kiloa
kilogrammaa
kilogramman
kiloisissa
kiloisten
kilometreja
kilometri
kilometria
kilometrien
kilometriin
kilometrilla
kilometrin
kilon
kilpa
kilpailee
kilpailemaan
kilpailevan
kilpailevat
kilpaili
kilpailija
kilpailijaa
kilpailijan
kilpailijansa
kilpailijat
kilpailijoiden
kilpailijoita
kilpailivat
kilpailla
kilpaillaan
kilpaillut
kilpailtiin
kilpailu
kilpailua
kilpailuiden
kilpailuihin
kilpailuissa
kilpailuista
kilpailuja
kilpailujen
kilpailukiellon
kilpailun
kilpailunsa
kilpailussa
kilpailusta
kilpailut
kilpailuun
kilpaka
kilpapurjehtija
kilpapurjehtijat
kilpauransa
kilpela
kilpi
kilpinen
kilpirauhasen
kilpisja
kilta
kiltti
kiluku
kiluvuksi
kiluvultaan
kiluvun
kilven
kim
kimberly
kimi
kimin
kimmo
kimppuun
kimppuunsa
kin
kind
kinen
king
kingdom
kingin
kings
kingsin
kingston
kinin
kinks
kinna
kinnunen
kinnusen
kino
kinta
kinto
kioski
kioton
kiova
kiovan
kiovassa
kipea
kipina
kipu
kipua
kirby
kirea
kiri
kirill
kirista
kirj
kirja
kirjaa
kirjaan
kirjaansa
kirjailija
kirjailijaksi
kirjailijaliiton
kirjailijan
kirjailijana
kirjailijanimi
kirjailijat
kirjailijoiden
kirjailijoista
kirjailijoita
kirjaimella
kirjaimellisesti
kirjaimen
kirjaimet
kirjaimia
kirjaimilla
kirjaimisto
kirjaimiston
kirjain
kirjainta
kirjainten
kirjakauppa
kirjakauppias
kirjakielen
kirjallinen
kirjallisen
kirjallisesti
kirjalliset
kirjallisia
kirjallista
kirjallisuuden
kirjallisuudentutkija
kirjallisuudessa
kirjallisuudesta
kirjallisuus
kirjallisuuskriitikko
kirjallisuuspalkinnon
kirjallisuuspalkinto
kirjallisuusvuosi
kirjallisuuteen
kirjallisuutta
kirjan
kirjana
kirjanpita
kirjansa
kirjapaino
kirjapainon
kirjapaja
kirjasampo
kirjasarja
kirjasarjan
kirjasarjassa
kirjassa
kirjassaan
kirjasta
kirjasto
kirjastoa
kirjastojen
kirjaston
kirjastonhoitaja
kirjastoon
kirjastossa
kirjastosta
kirjastot
kirjat
kirjattiin
kirjattu
kirjava
kirjayhtyma
kirje
kirjeen
kirjeenvaihtajana
kirjeenvaihtoa
kirjeessa
kirjeet
kirjeiden
kirjeissa
kirjeita
kirjelma
kirjetta
kirjo
kirjoihin
kirjoissa
kirjoissaan
kirjoista
kirjoitetaan
kirjoitettiin
kirjoitettu
kirjoitettua
kirjoitettuja
kirjoitettuna
kirjoitetun
kirjoittaa
kirjoittaessaan
kirjoittaja
kirjoittajan
kirjoittajana
kirjoittajat
kirjoittajien
kirjoittama
kirjoittamaan
kirjoittamalla
kirjoittaman
kirjoittamansa
kirjoittamassa
kirjoittamat
kirjoittamia
kirjoittaminen
kirjoittamiseen
kirjoittamisen
kirjoittamista
kirjoittaneen
kirjoittaneet
kirjoittanut
kirjoitti
kirjoittivat
kirjoituksen
kirjoituksessa
kirjoitukset
kirjoituksia
kirjoituksissa
kirjoituksissaan
kirjoituksista
kirjoitus
kirjoitusja
kirjoitusta
kirjoitusten
kirjoja
kirjojen
kirk
kirka
kirkas
kirkasta
kirkkaan
kirkkaus
kirkko
kirkkoa
kirkkoherra
kirkkoherraksi
kirkkoherran
kirkkoherrana
kirkkoihin
kirkkoisa
kirkkoja
kirkkojen
kirkkonummella
kirkkonummen
kirkkonummi
kirkkoon
kirkkopita
kirkkorakennukset
kirkkorakennus
kirkoissa
kirkoista
kirkoksi
kirkolla
kirkolle
kirkollinen
kirkollisen
kirkolliskokoukseen
kirkolliskokouksen
kirkolliskokouksessa
kirkolliskokous
kirkon
kirkonkirjapiiri
kirkonkyla
kirkossa
kirkosta
kirkot
kirottu
kirouksen
kirous
kirovin
kirsi
kirsti
kirurgi
kirurgian
kirves
kirykmentin
kirykmentti
kis
kisa
kisaa
kisaan
kisalmen
kisan
kisassa
kisasta
kisat
kisen
kisin
kisoihin
kisoissa
kisoista
kisoja
kisojen
kiss
kissa
kissaela
kissan
kissat
kissin
kissojen
kista
kit
kita
kitara
kitaraa
kitaran
kitarasoolo
kitarat
kitaristi
kitaristiksi
kitaristin
kitaristina
kitaristit
kitaroita
kiteen
kiteista
kittila
kitty
kiuru
kiuruveden
kiva
kivallan
kivallasta
kivalta
kivaltaa
kivaltaan
kivaltainen
kivaltaisen
kivaltaisesti
kivaltaisia
kivea
kiveen
kiveka
kivela
kiven
kivenna
kivesta
kivet
kivi
kivia
kivien
kivija
kivikaudella
kivikauden
kivikirkot
kivilla
kivima
kivinen
kiviniemi
kiviranta
kivista
kivisto
kivun
kjell
kk
kka
kkeella
kkeelle
kkeen
kkeena
kkeet
kkeiden
kkeilla
kkeista
kkeita
kkeja
kki
kkia
kkien
kkiin
kkija
kkila
kkimiehen
kkimies
kkinen
kkisen
kko
kkyla
klaani
klaanin
klaipe
klarinetille
klarinetti
klas
klassikko
klassinen
klassiseen
klassisella
klassisen
klassisessa
klassisesta
klassisia
klassismin
klassista
klaus
klein
klemens
klemetti
kleopatra
kleopatran
kliinisen
klinge
klo
klubi
klubilla
klubin
km
kn
knight
knights
knm
knorring
know
knowledge
knox
knut
ko
kobayashi
koch
koda
kodeissa
kodin
kodissa
koe
koehenkilo
koelenta
koetaan
koettaa
koetteli
koetti
koettiin
koettu
kognitiivinen
kohdalla
kohdalle
kohdalta
kohdan
kohdannut
kohdassa
kohdasta
kohdat
kohdata
kohde
kohden
kohderyhma
kohdetta
kohdin
kohdissa
kohdista
kohdistaa
kohdistui
kohdistuivat
kohdistunut
kohdistuu
kohdistuva
kohdistuvaa
kohdistuvan
kohdistuvat
kohoaa
kohoavat
kohonen
kohonnut
kohosi
kohottaa
kohta
kohtaa
kohtaamaan
kohtaaminen
kohtaan
kohtaavat
kohtainen
kohtaiseen
kohtaisella
kohtaisen
kohtaisessa
kohtaisesti
kohtaiset
kohtaisia
kohtaisista
kohtaista
kohtaisten
kohtalaisen
kohtalaisesti
kohtalo
kohtaloa
kohtalon
kohtalosta
kohtana
kohtasi
kohtasivat
kohtauksen
kohtauksessa
kohtaukset
kohtauksia
kohtaus
kohteeksi
kohteen
kohteena
kohteeseen
kohteesta
kohteet
kohteiden
kohteina
kohteisiin
kohteista
kohteita
kohti
kohtia
kohtien
kohtiin
kohtuullisen
kohu
kohua
kohun
koi
koija
koillis
koilliseen
koillisessa
koillisesta
koillisosassa
koillispuolella
koino
koira
koiraa
koiraalla
koiraan
koiraat
koiran
koirarodut
koirarotu
koiras
koirasta
koirat
koiria
koirien
koistinen
koittaa
koitti
koitui
koivisto
koivistoinen
koiviston
koivu
koivula
koivun
koivunen
koivuniemi
kojo
kok
kokea
kokee
kokeellinen
kokeellisen
kokeen
kokeessa
kokeet
kokeiden
kokeili
kokeilla
kokeiltiin
kokeilu
kokeissa
kokeita
kokema
kokemuksen
kokemukset
kokemuksia
kokemuksiin
kokemuksistaan
kokemus
kokemusta
kokemusten
kokeneet
kokenut
kokevat
koki
kokivat
kokki
kokko
kokkola
kokkolan
kokkolassa
kokkonen
koko
kokoa
kokoaa
kokoamaan
kokoelma
kokoelmaa
kokoelmaan
kokoelmalevy
kokoelmalla
kokoelman
kokoelmassa
kokoelmasta
kokoelmat
kokoelmia
kokoelmien
kokoelmiin
kokoelmissa
kokoelmista
kokoinen
kokoisen
kokoisia
kokoista
kokonaan
kokonainen
kokonais
kokonaisen
kokonaisia
kokonaiskilpailu
kokonaiskilpailun
kokonaiskilpailussa
kokonaisluku
kokonaisma
kokonaispinta
kokonaispisteissa
kokonaispituus
kokonaista
kokonaistilanne
kokonaisuudeksi
kokonaisuuden
kokonaisuudessaan
kokonaisuus
kokonaisuuteen
kokonaisuutena
kokonaisuutta
kokonsa
kokoomuksen
kokoomus
kokoon
kokoonpano
kokoonpanoissa
kokoonpanolla
kokoonpanon
kokoonpanoon
kokoonpanossa
kokoonpanosta
kokoonpanot
kokoontui
kokoontuivat
kokoontunut
kokoontuu
kokoontuvat
kokopa
kokopitka
kokosi
kokosivat
kokoukseen
kokouksen
kokouksessa
kokouksessaan
kokoukset
kokouksia
kokouksiin
kokouksissa
kokous
kokousta
kolari
kolarin
kolaritestista
kolaroi
kolehmainen
kolikoita
kolikot
kollega
kollegansa
kolmanneksen
kolmanneksi
kolmannella
kolmannelle
kolmannelta
kolmannen
kolmannes
kolmannessa
kolmannesta
kolmanteen
kolmantena
kolmas
kolmasosa
kolmasosaa
kolmasosan
kolmasti
kolmastoista
kolmatta
kolme
kolmea
kolmeen
kolmeksi
kolmekymmenta
kolmella
kolmelle
kolmelta
kolmen
kolmena
kolmenkymmenen
kolmessa
kolmesta
kolmesti
kolmetoista
kolmi
kolmikko
kolmikon
kolmiloikassa
kolmiloikka
kolmiloikkaaja
kolmiloikkaajat
kolminaisuuden
kolminkertainen
kolmio
kolmion
kolmiosainen
kolmipa
kolmissa
kolmivuotisella
kolmivuotisen
kolmonen
kolumbia
kolumbialainen
kolumbian
kolumbiassa
kolumbuksen
kolumbus
kolumneja
kolumnisti
kom
kombat
komea
komedia
komediaelokuva
komediaelokuvat
komedian
komediasarjassa
komediasarjat
komediassa
komediat
komeetta
komennettiin
komennossa
komensi
komentaja
komentajaksi
komentajan
komentajana
komentajat
komentama
komentoonsa
komin
komisario
komissaari
komissio
komission
komitea
komitean
komm
kommentoi
kommentteja
kommodori
kommunismin
kommunisteja
kommunisti
kommunistien
kommunistinen
kommunistipuolueen
kommunistiseen
kommunistisen
kommunistit
kompleksi
komponentit
komponentteja
komponentti
komponenttien
komppania
komppaniaan
komppanian
komppanianpa
komppaniassa
komulainen
kon
kone
koneella
koneen
koneeseen
koneessa
koneesta
koneet
koneiden
koneilla
koneisiin
koneissa
koneista
koneisto
koneita
konekiva
konepaja
konepajan
konetta
konetyypin
konetyyppi
konfederaation
konferenssi
konferenssiin
konferenssin
konferenssissa
konflikti
konfliktiin
konfliktin
kong
kongo
kongon
kongressi
kongressin
kongressissa
konkurssi
konkurssiin
konkurssin
konrad
konsala
konsekraattorina
konsepti
konserni
konsernia
konserniin
konsernin
konserteissa
konsertin
konsertissa
konsertista
konsertit
konsertoi
konsertteja
konsertti
konserttia
konserttien
konserttitallenteet
konsertto
konservatiivien
konservatiivinen
konservatiivipuolueen
konservatiivisen
konservatiivit
konservatorion
konservatoriossa
konsolin
konsonantit
konsta
konstaapeli
konstantin
konstantinopoliin
konstantinopolin
konstantinos
konstantinus
konsulaatti
konsuli
konsulina
konsulttina
kontiainen
kontio
kontiolahden
kontioma
kontra
kontrabasso
konttinen
konttori
konttorin
kontula
koo
koodi
koodia
koodin
koodit
kookas
kookoon
kooksi
koolle
kooltaan
koomaan
koomikko
koomikot
koon
koonnut
koordinaatit
koordinoi
koossa
koosta
koostui
koostuivat
koostumus
koostunut
koostuu
koostuva
koostuvan
koostuvat
koota
kootaan
koottiin
koottu
kootut
koovee
kop
kopio
kopioita
kopion
kopiota
koponen
kor
koraani
koraanin
koraanissa
korea
koreaa
koreaan
korealainen
korealaisen
korealaiset
korean
koreassa
koreografi
korfun
korhonen
korhosen
kori
koriin
korin
korintin
koripallo
koripalloa
koripalloilija
koripalloilijat
koripalloliitto
koripallon
koripallovalmentaja
koripallovalmentajat
korisliiga
korisliigan
korisliigassa
koriste
koristekasvina
koristeltu
korjaa
korjaamaan
korjasi
korjata
korjattavaksi
korjattiin
korjattu
korjauksia
korjaus
korjausto
korkea
korkeaa
korkeaan
korkeaja
korkeakoulu
korkeakoulujen
korkeakoulun
korkeakoulussa
korkeakoulusta
korkeakoulut
korkeakoulututkinnon
korkeakoulututkinto
korkeaksi
korkealla
korkealle
korkeammalla
korkeammalle
korkeamman
korkeammat
korkeampaa
korkeampi
korkeampia
korkean
korkeassa
korkeasta
korkeat
korkeiden
korkeimmalla
korkeimmalle
korkeimman
korkeimmassa
korkeimmasta
korkeimmat
korkeimmillaan
korkeimpaan
korkein
korkeinta
korkeintaan
korkeita
korkeudella
korkeudelle
korkeuden
korkeudessa
korkeudesta
korkeus
korkeushyppa
korkeushyppy
korkeushypyssa
korkeuteen
korkeutta
korko
korkuinen
koron
koronaviruksen
koronaviruspandemian
korostaa
korostavat
korostetaan
korostettiin
korosti
korostuu
korotettiin
korpela
korpi
korpilahden
korpisela
korppi
korpraali
korruptio
korruption
korruptiosta
korruptiota
korsikan
kortelainen
kortesja
kortilla
kortin
kortit
kortteja
kortteli
korttelin
kortti
korttia
korttien
koruja
korva
korvaa
korvaajaksi
korvaamaan
korvan
korvannut
korvasi
korvasivat
korvat
korvata
korvataan
korvaten
korvattiin
korvattu
korvauksen
korvaukset
korvauksia
korvaus
korvausta
korven
korvetit
korvetti
kos
kosin
koska
koskaan
koske
koskea
koskee
koskela
koskelan
koskemaan
kosken
koskenkorvan
koskenkyla
koskenniemi
koskenut
kosket
kosketinsoitin
kosketinsoittaja
kosketinsoittimet
koskettaa
koskettimet
kosketus
kosketusna
koskeva
koskevaa
koskevan
koskevassa
koskevasta
koskevat
koskevia
koskevien
koskeviin
koskevissa
koskevista
koski
koskien
koskimies
koskinen
koskisen
koskivat
kosmonautti
kosmos
kosola
kosonen
kosovo
kosovon
kostaa
kostajat
kostea
kosteat
kosteilla
kosteissa
kosteuden
kosteus
kosteutta
kosti
kosto
kostoa
kostoksi
koston
kota
kotelo
koti
kotia
kotiela
kotiin
kotiinsa
kotijoukkue
kotikaupungissaan
kotikaupunki
kotikaupunkiinsa
kotikaupunkinsa
kotikenta
kotikentta
kotikyla
kotilainen
kotimaa
kotimaahan
kotimaahansa
kotimaan
kotimaansa
kotimaassa
kotimaassaan
kotimainen
kotimaisen
kotimaiset
kotimaisia
kotimaista
kotimaisten
kotinsa
kotiottelunsa
kotiottelussa
kotipaikka
kotisatama
kotisatamaksi
kotiseutumuseo
kotisivu
kotisivuilla
kotisivut
kotitalouksien
kotiteollisuus
kotivuori
kotka
kotkaan
kotkan
kotkassa
kotoa
kotoaan
kotoisin
kotona
kotonaan
kotopera
kou
koulu
koulua
kouluihin
kouluika
kouluissa
kouluja
koulujen
koulukunnan
koulukunta
koulukuntaan
koululla
koululle
koulun
kouluneuvos
koulunka
koulunsa
koulurakennus
koulussa
koulusta
koulut
koulutettiin
koulutettu
kouluttaa
kouluttaja
kouluttajana
koulutti
koulutukseen
koulutukseltaan
koulutuksen
koulutuksensa
koulutuksessa
koulutuksesta
koulutus
koulutusaliupseerina
koulutusja
koulutuskeskus
koulutusohjelma
koulutusta
kouluun
kouvola
kouvolan
kouvolassa
kov
kova
kovaa
kovalainen
kovalla
kovan
kovassa
kovasta
kovasti
kovat
kovia
kovin
kovinkaan
kovuus
kp
kpl
kpv
kr
kra
kraatteri
kraatterin
kraft
kramer
kreeta
kreetalla
kreetan
kreikaksi
kreikan
kreikankielinen
kreikassa
kreikasta
kreikka
kreikkaa
kreikkaan
kreikkalainen
kreikkalais
kreikkalaiseen
kreikkalaisen
kreikkalaisessa
kreikkalaisesta
kreikkalaiset
kreikkalaisia
kreikkalaista
kreikkalaisten
kreivi
kreivikunnan
kreivikunnassa
kreivikunta
kreivin
kreivita
kremlin
krenato
kriisi
kriisiin
kriisin
kriitikko
kriitikoiden
kriitikoilta
kriitikot
kriittinen
kriittisen
kriittisesti
kriittista
krimin
kris
krista
kristen
kristian
kristiina
kristiinan
kristiinankaupungin
kristillinen
kristillisdemokraatit
kristillisdemokraattien
kristilliseen
kristillisen
kristillisessa
kristilliset
kristillisia
kristillista
kristillisten
kristin
kristina
kristinusko
kristinuskoa
kristinuskon
kristinuskoon
kristinuskossa
kristitty
kristittyja
kristittyjen
kristityn
kristityt
kristoffer
kristuksen
kristus
kriteerit
kritiikin
kritiikki
kritiikkia
kritisoi
kritisoinut
kritisoitiin
kritisoitu
kritisoivat
kro
kroaatit
kroaattien
kroatia
kroatiaa
kroatialainen
kroatialaiset
kroatian
kroatiassa
krohn
kronikan
kronikka
krooninen
kruunattiin
kruunu
kruunua
kruunulle
kruunun
kruununperija
kruununprinssi
kruunusta
ks
kseen
kseksi
ksella
ksen
ksena
kseni
ksenofon
ksensa
ksentekoon
ksenteon
ksessa
ksesta
kset
ksi
ksia
ksiin
ksika
ksinen
ksissa
ksista
ksja
ksma
ksy
ksya
ksyi
ksyiva
ksylasku
ksylaskussa
ksyma
ksyminen
ksymista
ksyn
ksyneet
ksynna
ksynta
ksynyt
ksyta
ksytta
ksyttiin
ksytty
ksyttya
ksytyn
ksyva
ksyy
kt
ktm
ktp
kts
ku
kuala
kubica
kuha
kuhmoisissa
kuhmoisten
kuhmon
kuhunkin
kuikka
kuin
kuinka
kuisma
kuitenkaan
kuitenkin
kuiva
kuivaa
kuivan
kuivana
kuivat
kuivia
kuivilla
kuivuus
kujala
kuka
kukaan
kukan
kukat
kukin
kukinnot
kukinto
kukistaa
kukistamaan
kukistettiin
kukistettuaan
kukisti
kukistivat
kukistui
kukistumisen
kukistuttua
kukka
kukkaa
kukkia
kukkien
kukkii
kukko
kukkonen
kukkula
kukkulalla
kukkulalle
kukkulan
kukkulat
kukoisti
kulje
kuljetetaan
kuljetettiin
kuljettaa
kuljettaja
kuljettajaa
kuljettajan
kuljettajana
kuljettajat
kuljettajien
kuljettamaan
kuljettamiseen
kuljettanut
kuljettavat
kuljetti
kuljettivat
kuljetukseen
kuljetuksen
kuljetus
kulkea
kulkee
kulkemaan
kulkenut
kulkeutuu
kulkeva
kulkevaa
kulkevan
kulkevat
kulki
kulkivat
kulku
kulkua
kulkuri
kulkurin
kulkuva
kullakin
kullan
kullasta
kullekin
kullervo
kulloinkin
kulma
kulmaa
kulmaan
kulmala
kulman
kulmassa
kulmasta
kulmat
kulmia
kulmien
kulmista
kulosaaren
kulta
kultaa
kultaan
kultainen
kultaisella
kultaisen
kultaiset
kultaista
kultalevy
kultalevyn
kultamitali
kultamitalia
kultamitalin
kultaseppa
kultin
kultti
kulttuureissa
kulttuuri
kulttuuria
kulttuuriela
kulttuurien
kulttuurihistoriallisesti
kulttuuriin
kulttuurikeskus
kulttuuriministerio
kulttuurin
kulttuurinen
kulttuuriperinno
kulttuuriperinto
kulttuurirahaston
kulttuurisesti
kulttuurissa
kulttuurista
kulttuurit
kulttuuritalo
kulttuuriympa
kuluessa
kului
kulun
kulunut
kulut
kuluttaa
kuluttaja
kuluttajien
kuluttajille
kuluttua
kulutuksen
kulutus
kulutusta
kuluu
kummallakin
kummallekin
kummankin
kummassakin
kummastakin
kummatkin
kummeli
kumminaan
kumminkin
kummiseta
kummitus
kumosi
kumota
kumottiin
kumpaakin
kumpaankin
kumpi
kumpikaan
kumpikin
kumppaneita
kumppani
kumppanin
kumppaninsa
kumppanit
kumpulainen
kun
kung
kunhan
kuni
kuningas
kuningaskunnan
kuningaskunnassa
kuningaskunnat
kuningaskunta
kuningaskuntaa
kuningaskuntaan
kuningasta
kuningatar
kuningattaren
kuninkaaksi
kuninkaalle
kuninkaallinen
kuninkaalliseen
kuninkaallisen
kuninkaallisessa
kuninkaalliset
kuninkaallisten
kuninkaan
kuninkaana
kuninkaat
kuninkaiden
kuninkaista
kuninkaita
kunkin
kunnaksi
kunnalla
kunnalle
kunnallinen
kunnallisen
kunnallisneuvos
kunnallispolitiikassa
kunnallisvaaleissa
kunnallisvaalit
kunnallisyksikko
kunnallisyksiko
kunnan
kunnanjohtaja
kunnantalo
kunnanvaltuusto
kunnanvaltuuston
kunnanvaltuustossa
kunnanvaltuutetut
kunnas
kunnassa
kunnasta
kunnat
kunnes
kunnia
kunniaa
kunniaja
kunniakseen
kunniaksi
kunniamaininta
kunniamerkin
kunniamerkit
kunniamerkki
kunnian
kunnianosoitukset
kunnianosoituksia
kunnianosoitus
kunniaristi
kunniatohtori
kunniatohtoriksi
kunniatohtorin
kunnioittaa
kunnioitusta
kunnissa
kunnista
kunnolla
kunnon
kunnossa
kunnostautui
kunnostettiin
kunnostettu
kunnostus
kunst
kunta
kuntaa
kuntaan
kuntajakolain
kuntajakoselvitta
kuntajaon
kuntakeskus
kuntalaisten
kuntaliitoksen
kuntauudistuksessa
kuntavaaleissa
kuntayhtyma
kuntia
kuntien
kuntiin
kunto
kuntoon
kuntoutus
kuokkanen
kuolan
kuole
kuolee
kuolema
kuolemaa
kuolemaan
kuolemaansa
kuoleman
kuolemanrangaistuksen
kuolemansa
kuolemanta
kuolemantuomion
kuolemasta
kuolematon
kuolettavasti
kuolevan
kuolevat
kuoli
kuoliaaksi
kuolinilmoitus
kuolinvuosi
kuolivat
kuolla
kuolleeksi
kuolleen
kuolleena
kuolleet
kuolleiden
kuolleista
kuolleisuus
kuolleita
kuollessa
kuollessaan
kuollut
kuollutta
kuolonsyo
kuoltua
kuoltuaan
kuono
kuopio
kuopion
kuopioon
kuopiossa
kuoppa
kuoppama
kuoren
kuori
kuoriutuvat
kuorma
kuoro
kuorolle
kuoron
kuoronjohtaja
kuortaneen
kuosmanen
kupari
kuparia
kuparin
kupeessa
kupera
kupiainen
kupla
kupoli
kups
kuraattori
kurdien
kurikan
kurikka
kurja
kurki
kurkku
kuronen
kurri
kursseja
kurssi
kurssin
kurssit
kurt
kuru
kurun
kus
kussakin
kustaa
kustaan
kustakin
kustannuksella
kustannukset
kustannuksia
kustannus
kustannusliike
kustannusosakeyhtio
kustannusten
kustannusyhtio
kustansi
kustantaja
kustantajan
kustantama
kustantamana
kustantamo
kustantamon
kustantanut
kusti
kutakin
kuten
kuts
kutsu
kutsua
kutsui
kutsuivat
kutsumaan
kutsun
kutsunut
kutsusta
kutsutaan
kutsuttiin
kutsuttu
kutsuttua
kutsuttuja
kutsuttuun
kutsutun
kutsutussa
kutsutut
kutsuu
kutsuvat
kuu
kuuba
kuubaan
kuubalainen
kuubalaiset
kuuban
kuubassa
kuudeksi
kuudella
kuuden
kuudenneksi
kuudennella
kuudennen
kuudennessa
kuudentena
kuudes
kuudessa
kuudesta
kuudesti
kuuhun
kuukaudeksi
kuukauden
kuukaudessa
kuukausi
kuukausia
kuukausien
kuukausina
kuukausittain
kuukautta
kuula
kuulan
kuulantyo
kuule
kuulee
kuulemaan
kuuli
kuulin
kuulivat
kuulla
kuullaan
kuullessaan
kuullut
kuulostaa
kuultavissa
kuultiin
kuultu
kuultuaan
kuulu
kuulua
kuului
kuuluisa
kuuluisaksi
kuuluisan
kuuluisat
kuuluisi
kuuluisia
kuuluisien
kuuluisimmista
kuuluisimpia
kuuluisin
kuuluisuuteen
kuuluivat
kuulumaan
kuuluneen
kuuluneet
kuuluneita
kuulunut
kuulunutta
kuulusteluissa
kuuluu
kuuluva
kuuluvaa
kuuluvaan
kuuluvaksi
kuuluvalla
kuuluvan
kuuluvana
kuuluvassa
kuuluvasta
kuuluvat
kuuluvia
kuuluvien
kuuluviksi
kuuluvilla
kuuluvista
kuuma
kuumaa
kuuman
kuumat
kuume
kuumennettaessa
kuumentamalla
kuumia
kuun
kuunnella
kuunnelma
kuuntelemaan
kuunteli
kuusamo
kuusamon
kuusamossa
kuusankosken
kuusankoski
kuusela
kuusen
kuusi
kuusinen
kuusisen
kuusisto
kuusitoista
kuusivuotiaana
kuussa
kuusta
kuut
kuuta
kuuteen
kuutio
kuutiokilometria
kuutiometria
kuution
kuutta
kuv
kuva
kuvaa
kuvaaja
kuvaajana
kuvaajassa
kuvaamaan
kuvaamiseen
kuvaan
kuvaava
kuvaavan
kuvaavat
kuvagalleria
kuvailee
kuvaili
kuvaillaan
kuvaillut
kuvailtiin
kuvailtu
kuvalehden
kuvalehti
kuvan
kuvanka
kuvannut
kuvanveista
kuvasi
kuvasivat
kuvassa
kuvasta
kuvastaa
kuvat
kuvata
kuvataan
kuvataide
kuvataiteen
kuvataiteilija
kuvataiteilijamatrikkeli
kuvattiin
kuvattu
kuvattuna
kuvatun
kuvauksen
kuvauksesta
kuvaukset
kuvauksia
kuvauksissa
kuvaus
kuvausta
kuvausten
kuvernementin
kuvernementti
kuverno
kuvia
kuvien
kuvio
kuvioita
kuvion
kuviot
kuviota
kuvissa
kuvista
kuvitella
kuvitettu
kuvittaja
kuvittajat
kuvittanut
kuvitteellinen
kuvitteelliset
kuvitteellisia
kuvitti
kuvitus
kuwait
kuwaitin
kv
kvartetti
kw
kwh
ky
kya
kyenneet
kyennyt
kyeta
kyetty
kyi
kyiva
kyja
kykene
kykenee
kykenema
kykeneva
kykeni
kykenisi
kykeniva
kykladien
kyky
kykya
kykyja
kykyjenetsija
kykynsa
kykyyn
kyla
kyle
kylia
kylie
kylien
kyliin
kylissa
kylista
kyljessa
kylkeen
kylla
kyllikki
kyllin
kyllo
kylma
kylmia
kylpyla
kylva
kylvo
kyma
kymen
kymenlaakson
kymenlaaksossa
kymi
kymia
kymijoen
kymin
kymmene
kymmeneen
kymmeneksi
kymmenella
kymmenen
kymmenenneksi
kymmenennen
kymmenes
kymmenessa
kymmenesta
kymmenia
kymmenien
kymmenisen
kymmenkunta
kymmenottelija
kymmenta
kyna
kynnet
kynnyksella
kynsiveden
kynta
kynttila
kynttilo
kynyt
kyo
kyokushin
kyokushinin
kyoto
kypa
kyproksella
kyproksen
kypros
kypsa
kyrka
kyro
kyse
kyseenalaistaa
kyseessa
kyseinen
kyseiseen
kyseisella
kyseisen
kyseisena
kyseisessa
kyseisesta
kyseiset
kyseista
kyseisten
kyselyn
kyselyssa
kysy
kysya
kysyi
kysyma
kysymykseen
kysymyksen
kysymyksessa
kysymykset
kysymyksia
kysymyksiin
kysymyksissa
kysymyksista
kysymys
kysymysta
kysymysten
kysynna
kysynta
kysyttiin
kysyy
kyta
kytkea
kytkenta
kytketa
kytketty
kytkin
kytko
kyto
kytta
kyu
kyva
kyvia
kyviin
kyvin
kyvissa
kyvyn
kyvysta
kyvyt
kyvytto
kyvyys
kyvyytta
kyy
kyydissa
kyyna
kyynel
kyyneleet
kyyro
kyytiin
kyyveden
l
la
laadittiin
laadittu
laadun
laadusta
laaja
laajaa
laajaan
laajalla
laajalle
laajalti
laajan
laajassa
laajasta
laajasti
laajat
laajemmalle
laajemman
laajemmin
laajempaa
laajempaan
laajempi
laajenee
laajeneminen
laajeni
laajennettiin
laajennettu
laajennuksen
laajennus
laajensi
laajentaa
laajentamaan
laajentuminen
laajentunut
laajimmillaan
laajin
laajoja
laajojen
laajuinen
laajuista
laajuus
laakkonen
laakso
laaksoa
laakson
laaksonen
laaksoon
laaksossa
laaksosta
laaksot
laamanni
laasonen
laatan
laati
laatia
laatikko
laatikon
laatima
laatimaan
laatiman
laatinut
laativat
laatokan
laatokka
laatta
laatu
laatua
laatuun
lab
label
laboratorio
laboratorion
laboratoriossa
laboratory
lac
lada
ladata
ladattavana
ladattavia
ladattavissa
ladies
lady
laella
laertios
laga
lago
lagus
lahdella
lahden
lahdessa
lahdesta
lahdet
lahja
lahjakas
lahjaksi
lahjan
lahjat
lahjoitettiin
lahjoittaa
lahjoitti
lahjoja
lahko
lahkon
lahkoon
lahna
lahtea
lahteen
lahti
lahtinen
lai
laidalla
laidassa
laiho
laiksi
laila
lailla
laillinen
laillisen
laillisesti
laillista
laiminlyo
lain
laina
lainaa
lainalla
lainalle
lainan
lainasi
lainasopimuksella
lainattiin
lainattu
lainaus
laine
laineen
lainen
lainkaan
lainoja
lainsa
laissa
laista
lait
laita
laitaan
laitahyo
laitapuolustaja
laite
laitetaan
laitetta
laitettiin
laitettu
laitila
laitilan
laitinen
laitokseen
laitoksella
laitoksen
laitoksessa
laitoksesta
laitokset
laitoksia
laiton
laitonta
laitos
laitosta
laitosten
laittaa
laitteen
laitteessa
laitteesta
laitteet
laitteiden
laitteille
laitteissa
laitteisto
laitteiston
laitteita
laittoi
laittoman
laittomasti
laittomia
laituri
laiva
laivaa
laivaan
laivalla
laivan
laivanvarustaja
laivassa
laivasta
laivasto
laivastoa
laivastolle
laivaston
laivastontelakalta
laivastoon
laivastossa
laivastosta
laivat
laivoilla
laivoja
laivojen
laivue
laivueen
laivueeseen
lajeihin
lajeilla
lajeissa
lajeista
lajeja
laji
lajia
lajien
lajiin
lajikkeita
lajiksi
lajilla
lajille
lajin
lajina
lajinsa
lajintuntemuksen
lajissa
lajissaan
lajista
lajit
lajitietokeskus
lajityypin
lakanneet
lakannut
lake
lakeja
lakers
lakersin
laki
lakia
lakien
lakiin
lakimiehena
lakimies
lakin
lakisa
lakitieteen
lakkaa
lakkasi
lakkautettiin
lakkautettu
lakkautetun
lakkautetut
lakkauttaa
lakkauttaminen
lakkauttamisen
lakkauttamista
lakkautti
lakki
lakko
lakon
lalli
lama
laman
lamb
lambda
lambert
lamborghini
lammas
lammella
lammen
lammi
lammin
lampaat
lampaita
lampea
lampeen
lampela
lampi
lampia
lampinen
lamppu
lampun
lan
lana
lancaster
lance
lancia
land
lands
landtdagen
lane
lang
lange
langin
language
languages
lanka
lankan
lankinen
lanseerasi
laos
laosin
lapa
lapin
lapinja
lapinlahden
lapinlahti
lapissa
lapista
lappaja
lappalainen
lappeen
lappeenrannan
lappeenrannassa
lappeenranta
lappeenrantaan
lappi
lappia
lappiin
lapselle
lapsen
lapsena
lapsenlapsi
lapsensa
lapsesta
lapset
lapsi
lapsia
lapsiaan
lapsiin
lapsilla
lapsille
lapsina
lapsista
lapsuuden
lapsuudenysta
lapsuudessaan
lapsuudesta
lapsuudestaan
lapsuus
lapsuutensa
lapua
lapualla
lapuan
lapuanliikkeen
lara
large
lari
larin
larry
lars
larsen
larsson
larssonin
las
laser
lasi
lasia
lasin
lasit
lasitehtaan
laske
laskea
laskee
laskemaan
laskemalla
laskeminen
laskennan
laskenta
laskenut
lasker
lasketa
lasketaan
laskettiin
laskettu
laskettuna
laskeutua
laskeutui
laskeutuu
laskeva
laskevan
laskevat
laski
laskien
laskiessa
laskivat
lasku
laskua
laskujoki
laskun
laskuoja
laskussa
laskuun
lasse
lassen
lassi
lassila
last
lasta
lastaan
lasten
lastenkirja
lastenkirjailija
lastensa
lat
lataus
late
later
latin
latina
latinaa
latinaksi
latinalainen
latinalaisen
latinalaisessa
latinan
latinankielinen
lattia
lattialla
lattialle
lattian
latva
latvala
latvia
latvialainen
latvialaiset
latvian
latviassa
lauantai
lauantain
lauantaina
laudan
laukaan
laukaisee
laukaisi
laukaista
laukaistiin
laukaisu
laukaisun
laukauksen
laukaus
laukausta
laukkanen
laukoi
laukoo
laula
laulaa
laulaen
laulaja
laulajaa
laulajaksi
laulajan
laulajana
laulajat
laulajia
laulajien
laulamaan
laulanut
laulava
laulavat
lauletaan
lauloi
lauloivat
laulu
laulua
lauluista
lauluja
laulujen
laulukilpailu
laulukilpailun
laulukilpailussa
laulukilpailuun
laulun
laulunsa
lauluntekija
laulussa
laulusta
laulut
lauluun
lauma
lauman
launch
laura
lauran
laure
laurell
lauren
laurence
laurent
lauri
laurie
laurila
laurin
lausanne
lausannen
lause
lauseen
lauseet
lauseita
lauseke
lausetta
lausua
lausui
lausunnon
lausunto
lausuntoja
lausutaan
lausuu
lautakunnan
lautakunta
lautta
lauttasaaren
lava
laval
lavalla
lavalle
lavan
lavastaja
lavastus
law
lawrence
lawrencen
laws
lawson
lay
layer
layout
lb
lc
ld
ldin
le
lea
lead
leader
leaf
leafs
leafsin
league
leaguen
leaguessa
lean
leander
learning
leave
leaves
leben
lech
leclerc
led
lee
leeds
leen
leena
leevi
left
legacy
legal
legend
legenda
legendaarisen
legendan
legendat
legends
legio
legion
legioona
legioonan
lego
lehdelle
lehden
lehdessa
lehdesta
lehdet
lehdissa
lehdista
lehdisto
lehdon
lehikoinen
lehma
lehmus
lehtea
lehteen
lehti
lehtia
lehtien
lehtiin
lehtilapa
lehtima
lehtimies
lehtinen
lehtisen
lehto
lehtola
lehtoma
lehtonen
lehtori
lehtorina
lehtosen
lehva
leia
leicester
leiden
leif
leigh
leijona
leijonan
leijonat
leikata
leikataan
leikattiin
leikattu
leikit
leikkaa
leikkaaja
leikkaavat
leikkasi
leikkaukseen
leikkauksen
leikkaus
leikkausta
leikki
leikkia
leikola
leila
leimaa
leimasi
lein
leino
leinon
leinonen
leipa
leipomo
leipzig
leipzigin
leipzigissa
leiri
leiriin
leirilla
leirille
leirin
leirinta
leissa
leita
leiva
leiviska
leivo
leja
leksands
lemmen
lemmikki
lemmikkiela
lemminka
lempa
lempea
lempi
lempia
lempinimella
lempinimelta
lempinimen
lempinimi
len
lena
lenin
leningrad
leningradin
leningradissa
leninin
lenna
lennart
lennettiin
lennolla
lennon
lennonin
lennossa
lennoston
lennot
lenny
lensi
lensiva
lenta
lento
lentoa
lentoaika
lentoasema
lentoasemaa
lentoasemalla
lentoasemalle
lentoasemalta
lentoaseman
lentoasemat
lentoema
lentoja
lentojen
lentokenta
lentokentta
lentokone
lentokoneella
lentokoneen
lentokoneet
lentokoneiden
lentokoneita
lentokonetehdas
lentokonetehtaan
lentokonetta
lentolaivue
lentoma
lentoon
lentoonla
lentopallo
lentopalloilija
lentopalloilijat
lentopallon
lentorykmentti
lentotukialukset
lentotukialus
lentotukikohta
lentoyhtio
leo
leon
leonard
leonardo
leonardon
leone
leonen
leonid
leopard
leopold
lepa
lepidoptera
lepisto
leppa
leq
leroy
les
lesboksen
leskeksi
lesken
leski
leskinen
leskisen
leslie
less
lester
let
letter
letters
lev
leva
levea
leveita
level
leveys
leveytta
levi
levia
levikki
levin
levine
levinneet
levinneisyys
levinneisyysalue
levinneisyysalueen
levinnyt
levisi
levisiva
levita
leviteta
levitettiin
levitta
levitti
levittiva
levon
levoton
levottomuudet
levottomuuksia
levottomuuksien
levy
levya
levyarvio
levyarvostelu
levyilla
levyinen
levyista
levyja
levyjen
levylla
levylle
levylta
levymerkilla
levymerkille
levymerkin
levyn
levyna
levynsa
levypalloa
levysta
levyt
levytettiin
levytetty
levytta
levytti
levytykset
levytyksia
levytys
levytyssopimuksen
levytyssopimus
lewis
lewisin
lex
lexikon
lez
lg
li
lia
liaikainen
liaikaiseksi
liaikaisen
liaikaisena
liaikaisesti
liajoin
liam
libanon
libanonin
libanonissa
liber
liberaali
liberaalien
liberaalit
liberian
liberty
library
libreton
libretto
libya
libyan
libyassa
lie
liebe
liechtensteinin
lied
liedon
liekehtiva
liekki
lieksa
lieksan
lien
liene
lienee
lieneva
liepa
liepeilla
liera
lierien
lieriin
lierio
lierissa
lies
lieto
liettua
liettualainen
liettualaiset
liettuan
liettuassa
lieva
lieventa
lievitta
life
liga
ligaenin
ligan
ligassa
light
lightning
lightningin
lights
ligue
liha
lihaa
lihakset
lihan
lihansyo
lihasten
lihavoitu
liiaksi
liiallinen
liian
liiga
liigaa
liigaan
liigacup
liigacupin
liigadebyyttinsa
liigajoukkue
liigajoukkueen
liigajoukkueeseen
liigajoukkueessa
liigamestaruuden
liigan
liigaottelua
liigaottelunsa
liigaottelussa
liigasopimuksen
liigassa
liigasta
liigauransa
liikaa
liike
liikehdinta
liikema
liikemiehet
liikemies
liikemiesten
liikenne
liikennema
liikenneonnettomuudessa
liikennepaikka
liikennetta
liikenneva
liikenneyhteydet
liikenno
liikenteelle
liikenteen
liikenteeseen
liikenteessa
liikenteesta
liiketoiminnan
liiketoiminta
liiketoimintaa
liiketta
liikevaihdosta
liikevaihto
liikkeella
liikkeelle
liikkeen
liikkeeseen
liikkeessa
liikkeesta
liikkeet
liikkeiden
liikkeista
liikkeita
liikkua
liikkui
liikkuivat
liikkumaan
liikkuminen
liikkumisen
liikkumista
liikkuu
liikkuva
liikkuvan
liikkuvat
liikkuvia
liikunnan
liikunta
liikuntaa
liikuttaa
liimatainen
liin
liina
liisa
liisan
liita
liite
liiteta
liitetta
liitettiin
liitetty
liito
liiton
liitossa
liitosta
liitot
liitta
liitteena
liitti
liitto
liittoa
liittojen
liittokansleri
liittokunnan
liittolainen
liittolaisensa
liittolaiset
liittolaisia
liittolaisten
liittoon
liittopa
liittotasavallan
liittotasavalta
liittouma
liittouman
liittoutui
liittoutuivat
liittoutuneet
liittoutuneiden
liittovaltio
liittovaltion
liittya
liittyen
liittyessa
liittyi
liittyiva
liittyma
liittyminen
liittymisen
liittymisesta
liittymista
liittyneen
liittyneet
liittynyt
liittyva
liittyvia
liittyvien
liittyviin
liittyvissa
liittyvista
liittyy
liity
liitynta
liityttya
liivila
liivinmaan
lika
like
liki
likimain
liko
likohtaus
lil
lilevyn
lilius
lilja
lilla
lille
lillehammerin
lillehammerissa
lilli
lillisesti
lilly
lilta
lily
lim
lima
limerella
limerelle
limeren
limingan
limit
limited
lin
lina
lincoln
lincolnin
lind
linda
lindberg
lindblom
linde
lindell
linden
linder
lindfors
lindgren
lindgrenin
lindh
lindholm
lindholmin
lindqvist
lindroos
lindsay
lindsey
lindstro
line
lineaarinen
lineena
lineet
lineiden
lineissa
lineita
linen
lines
ling
linja
linjaa
linjaan
linjalaiva
linjalaivat
linjalla
linjalle
linjan
linjasta
linjat
linjaus
linjoilla
linjoja
linjojen
link
linkin
linkki
linko
linkola
linna
linnaa
linnaan
linnaeus
linnake
linnakkeen
linnala
linnan
linnanma
linnassa
linnasta
linnat
linnavuori
linne
linnoitettu
linnoitukseen
linnoituksen
linnoitukset
linnoituksia
linnoitus
linnoitusta
linnuista
linnun
linnunradan
linnuntieta
linnut
linpita
linsa
lintu
lintua
lintuja
lintujen
lintulajeja
lintulaji
lintulajia
lintusuku
lintutieteilija
linus
linux
linuxin
lio
lion
lionel
lions
liperin
lipponen
lipposen
lippu
lippua
lippuja
lippujen
lippulaiva
lippulaivana
lipun
lipunkantajana
lipussa
liput
liquid
lirauhan
lis
lisa
lisan
lisarjan
liseen
liseksi
lisella
liselle
liselta
lisen
lisena
lisensiaatiksi
lisensiaatti
lisenssi
lisenssilla
lisenssin
lisessa
lisesta
lisesti
liset
lisia
lisiin
lisilla
lisille
lisissa
lisista
lisko
lissa
lissabon
lissabonin
lissabonissa
list
lista
listaa
listalla
listalle
listalta
listan
listasi
listasijoitukset
listasijoitus
listassa
listattu
listautui
listaviikollaan
listaykko
listen
listo
listoilla
listoille
listojen
lists
lit
lita
lite
literary
literature
litmanen
lito
litraa
litrainen
litran
litta
littea
litteratursa
litti
little
litto
lityksella
litys
liu
liukene
liukenee
liukkonen
liuottimiin
liv
live
livealbumi
livealbumit
livena
liverc
liverpool
liverpooliin
liverpoolin
liverpoolissa
lives
living
livius
lix
liz
lja
lje
ljella
ljelle
ljen
ljenno
ljessa
ljet
ljilla
ljilta
ljitta
ljy
ljya
ljyn
ljysta
ljyva
lk
lka
lkea
lkeen
lkeenkin
lkeenpa
lkeensa
lkeinen
lkeiseen
lkeisen
lkeisena
lkeisessa
lkeiset
lkeisina
lkeista
lkela
lken
lkensa
lki
lkia
lkika
lkimma
lkipuoliskolla
lko
ll
lla
llainen
llaisen
llaisessa
llaisesta
llaiset
llaisia
llaisissa
llaista
llaisten
llc
lle
lleen
llekka
ller
llerin
lli
llikko
llikkyyden
lliko
llin
llinen
lliseen
lliseksi
llisen
llisena
llisessa
llisesta
llisesti
lliset
llisia
llisiin
llisin
llisista
llissodan
llissodassa
llissota
llissotaa
llissotaan
llista
llisten
llisti
llisyyden
llisyys
llisyytensa
llisyytta
llo
lloyd
llskapet
llstro
lly
llysta
llystetty
llysto
llytetty
llytta
lm
lmo
ln
lnin
lnissa
lo
local
loch
lock
locke
locken
lockheed
loeb
log
logan
logic
logiikan
logiikka
logiikkaa
logo
logon
lohi
lohika
lohja
lohjalla
lohjan
lohko
lohkojen
lohkolla
lohkon
lohkonsa
lohkoon
lohkossa
lohkovaiheeseen
loi
loikkasi
loimaa
loimaan
loimijoen
loire
loiren
loiri
loirin
lois
loistaa
loistava
loistavan
loistavasti
loisto
loitsun
loivat
lok
loka
lokakuu
lokakuuhun
lokakuun
lokakuussa
lokakuusta
lokakuuta
loki
lokki
lokomotiv
lola
loma
lomassa
lombardian
london
lonely
long
lontoo
lontoon
lontooseen
lontoossa
lontoosta
looginen
look
looking
loose
lopen
lopetettiin
lopetettu
lopetettua
lopetettuaan
lopettaa
lopettamaan
lopettaminen
lopettamisen
lopettamisesta
lopettamista
lopettanut
lopettavansa
lopetti
lopettivat
lopez
loppu
loppua
loppuela
loppuessa
loppui
loppuivat
loppujen
loppukaudeksi
loppukaudella
loppukauden
loppukaudesta
loppukesa
loppukeva
loppukilpailu
loppukilpailussa
loppukilpailusta
loppukilpailuun
loppunut
loppuosa
loppuottelu
loppuotteluissa
loppuottelun
loppuottelussa
loppuottelut
loppuotteluun
loppupa
loppupisteet
loppupisteissa
loppupuolella
loppupuolelle
loppupuolelta
lopputekstien
lopputulokseen
lopputuloksena
lopputulokset
lopputuloksissa
lopputulos
lopputurnaukseen
lopputurnauksessa
loppuu
loppuun
loppuvaiheessa
loppuvuodesta
loppuvuonna
lopuksi
lopulla
lopulle
lopullinen
lopulliseen
lopullisen
lopullisesta
lopullisesti
lopulliset
lopullista
lopulta
lopun
lopussa
lopusta
loput
loputkin
loputtua
lord
lordi
lordin
lords
lorentz
lorenz
lorenzo
los
lose
lost
lot
lothar
lotta
lotus
lou
loud
louhen
louhi
louhivuori
louis
louise
louisiana
louisianan
louisin
louisissa
loukkaantui
loukkaantumisen
loukkaantumiset
loukkaantumisista
loukkaantumisten
loukkaantuneen
loukkaantunut
loukkasi
lounaaseen
lounaassa
lounaasta
lounais
lounaisosassa
lounaispuolella
lounasheimo
love
lovecraft
lovecraftin
lover
lovers
loves
loviisa
loviisan
lovin
loving
lovisa
low
lowe
lowell
lower
lp
ls
lsd
lsi
lsiva
lska
lsson
lt
lta
ltd
lti
lto
ltta
ltti
ltyi
ltyva
ltyy
lu
luc
luca
lucas
lucasin
lucia
lucian
luciano
lucien
lucius
luck
lucky
lucy
ludvig
ludwig
lue
luennoi
luennoitsijana
luentoja
luetaan
lueteltu
luettavissa
luettelo
luetteloitu
luettelon
luetteloon
luettelossa
luettelot
luettiin
luettu
luettuna
luffy
luftwaffen
luhanskin
lui
luiden
luigi
luis
luita
luja
luka
lukas
luke
lukea
lukee
lukema
lukemaan
lukemalla
lukemattomia
lukemiin
lukemin
lukeminen
lukemisen
lukemista
luken
lukenut
lukeutui
lukeutuivat
lukeutuu
lukeutuvat
lukevat
luki
lukien
lukija
lukijaa
lukijan
lukijat
lukijoiden
lukio
lukion
lukioon
lukiossa
lukiosta
lukiot
lukiota
lukkari
lukko
lukkoa
lukkoon
lukon
lukossa
luku
lukua
lukuisat
lukuisia
lukuisiin
lukuisilla
lukuisissa
lukuisista
lukuisten
lukuja
lukujen
lukuma
lukuun
lukuvuoden
lukuvuonna
lulea
lumen
lumi
lumme
luna
lunasti
lund
lunda
lundan
lundberg
lundell
lundin
lundstro
lunta
luo
luoda
luodaan
luodakseen
luodattu
luoden
luodin
luodon
luoja
luojan
luokalla
luokalle
luokan
luokassa
luokasta
luokat
luokissa
luokitella
luokitellaan
luokitellut
luokiteltiin
luokiteltu
luokittelee
luokitteli
luokittelu
luokittelun
luokituksen
luokitus
luokka
luokkaa
luokkaan
luokkansa
luokkia
luokkien
luokkiin
luokse
luokseen
luola
luolaan
luolan
luolassa
luolasta
luolat
luoma
luomaan
luomalla
luoman
luomassa
luomat
luominen
luomiseen
luomisen
luomisessa
luomisesta
luomista
luona
luonaan
luoneet
luonne
luonnehdittu
luonnehti
luonnehtii
luonnetta
luonnollinen
luonnollisen
luonnollisesti
luonnolliset
luonnollisia
luonnollista
luonnollisten
luonnon
luonnonpuisto
luonnonsuojelualue
luonnonsuojelualueet
luonnonsuojeluliitto
luonnontieteellinen
luonnontieteellisen
luonnontieteiden
luonnontieteilija
luonnonvaraisena
luonnonvarat
luonnonvarojen
luonnos
luonnossa
luonnosta
luonnostaan
luontainen
luontaisesti
luonteeltaan
luonteen
luonteensa
luonteesta
luonto
luontoa
luontoarvoja
luontoon
luontoportti
luonut
luopua
luopui
luopuivat
luopumaan
luopumista
luopunut
luopuu
luopuvansa
luostari
luostariin
luostarin
luostarissa
luostarista
luostarit
luota
luotaimen
luotain
luoteeseen
luoteessa
luoteesta
luoteis
luoteisosassa
luoteispa
luoteispuolella
luotettava
luotettavasti
luotettavia
luotettavuus
luoti
luotiin
luoto
luotsasi
luottaa
luottamuksen
luottamus
luottamusta
luottamustehta
luottamustoimet
luotti
luotu
luova
luovan
luovat
luovutettiin
luovutettu
luovutettujen
luovuttaa
luovuttamaan
luovuttanut
luovutti
luovuttiin
luovuttivat
luovuttu
luovutus
lupa
lupaa
lupaava
lupasi
lupasivat
lupauksen
lupaus
lurker
lut
luterilainen
luterilaiseen
luterilaisen
luterilaisessa
luterilaiset
luther
lutherin
luu
luukkaan
luukkonen
luulajan
luulee
luulen
luuli
luulivat
luultavasti
luultiin
luuma
luun
luuranko
luusua
luut
luuta
luutnantiksi
luutnantti
luvalla
luvan
luvannut
luvattiin
luvattu
luvuilla
luvuille
luvuilta
luvuin
luvulla
luvulle
luvulta
luvun
luvussa
luvusta
luvut
lux
luxemburg
luxemburgin
luxemburgissa
lv
lvia
ly
lya
lydia
lyh
lyhenne
lyhennetta
lyhennettiin
lyhennetty
lyhennettyna
lyhensi
lyhenta
lyhenteet
lyhyeen
lyhyeksi
lyhyella
lyhyemma
lyhyemmin
lyhyempi
lyhyempia
lyhyen
lyhyessa
lyhyesti
lyhyet
lyhyiden
lyhyita
lyhyt
lyhytaikainen
lyhytelokuva
lyhytelokuvat
lyhytika
lyhytta
lyijy
lyka
lykka
lymysto
lyn
lynch
lyndon
lynn
lynx
lyo
lyon
lyonin
lypuhelin
lyriikkaa
lys
lyseo
lyseon
lyseossa
lyseosta
lytta
lytys
lyyli
lyytika
lyytinen
m
ma
maa
maahan
maahanmuuton
maahanmuuttajat
maahanmuuttajia
maahanmuuttajien
maahanmuutto
maaherra
maaherran
maaherrat
maahockeypelaaja
maahockeypelaajat
maailma
maailmaa
maailmaan
maailmalla
maailmalle
maailman
maailmancup
maailmancupin
maailmancupissa
maailmanenna
maailmanhistoria
maailmanja
maailmankaikkeuden
maailmankaikkeus
maailmanlaajuinen
maailmanlaajuisen
maailmanlaajuisesti
maailmanlaajuista
maailmanlistalla
maailmanlistan
maailmanmestari
maailmanmestarin
maailmanmestarit
maailmanmestaruuden
maailmanmestaruudesta
maailmanmestaruus
maailmanmestaruuskilpailuihin
maailmanmestaruuskilpailuissa
maailmanmestaruuskilpailujen
maailmanmestaruuskilpailut
maailmanmestaruuskisoissa
maailmanmestaruuteen
maailmanmestaruutensa
maailmanmestaruutta
maailmanna
maailmanperinto
maailmansodan
maailmansodassa
maailmansodasta
maailmansota
maailmansotaa
maailmansotaan
maailmansotien
maailmassa
maailmasta
maailmojen
maajoukkue
maajoukkuedebyyttinsa
maajoukkueen
maajoukkueeseen
maajoukkueessa
maajoukkueet
maajoukkueissa
maajoukkuemaalinsa
maajoukkuetasolla
maajoukkuetilastot
maajoukkuetta
maajoukkueura
maajoukkueuransa
maaka
maakaasun
maaksi
maakunnan
maakunnassa
maakunnasta
maakunnat
maakunnissa
maakunnista
maakunta
maakuntaa
maakuntaan
maakuntien
maalaama
maalaiskunnan
maalaiskunnassa
maalaiskunnasta
maalaiskunnat
maalaiskunta
maalaiskuntaa
maalaiskuntaan
maalaisliiton
maalaisliitto
maalannut
maalari
maalasi
maalata
maalattiin
maalattu
maalauksen
maalauksessa
maalaukset
maalauksia
maalauksissa
maalauksista
maalaus
maalausta
maalaustaiteen
maalausten
maalein
maaleja
maali
maalia
maalien
maalienna
maaliero
maaliin
maalikuninkuuden
maalilla
maalillaan
maalin
maalinsa
maalintekija
maalinteossa
maalipo
maalis
maaliskuu
maaliskuuhun
maaliskuun
maaliskuussa
maaliskuusta
maaliskuuta
maalissa
maalisyo
maalit
maalivahdiksi
maalivahdin
maalivahdit
maalivahti
maalivahtina
maalivahtivalmentaja
maalla
maalle
maallinen
maallisen
maalta
maamme
maan
maana
maanalainen
maanalaisen
maanantai
maanantaina
maanja
maanka
maankohoamisen
maanmiehensa
maanosaliittojen
maanosan
maanpa
maanpakoon
maanpaossa
maanpetoksesta
maanpinnan
maansa
maanteitse
maantie
maantieajon
maantieajossa
maantiede
maantien
maantiepyo
maantieteellinen
maantieteellisen
maantieteellisesti
maantieteen
maantieteilija
maantietoa
maanviljelija
maanviljelijo
maanviljely
maanviljelya
maanviljelyn
maanviljelys
maanviljelysneuvos
maanvyo
maaottelu
maaottelua
maaotteluissa
maaotteluita
maaottelun
maaottelunsa
maaottelussa
maapa
maapallo
maapalloa
maapallolla
maapallon
maapera
maapinta
maaria
maarian
maarianhamina
maarianhaminan
maarit
maaseudulla
maaseudulle
maaseudun
maaseutua
maaseutukaupunki
maassa
maasta
maasto
maastoa
maastohiihdon
maastohiihta
maastohiihto
maastojuoksun
maaston
maastoon
maastopyo
maastossa
maat
maata
maataan
maatalouden
maataloudessa
maatalous
maataloutta
maatila
maatilaa
maatilalla
maatilan
maatiloja
maavoimat
maavoimien
mac
macbeth
maccabi
macdonald
mach
machine
macintosh
mack
mackenzie
maclean
macmillan
macos
mad
madagaskarin
madame
madden
made
madeiran
madeleine
madison
madness
madonna
madonnan
madrid
madridia
madridiin
madridin
madridissa
madsen
mae
mafia
mafian
magazine
magdalena
maggie
magic
magna
magneettikenta
magneettikentta
magneettinen
magneettisen
magnum
magnus
mahdollinen
mahdolliseksi
mahdollisen
mahdollisena
mahdollisesta
mahdollisesti
mahdolliset
mahdollisia
mahdollisimman
mahdollisista
mahdollista
mahdollistaa
mahdollistanut
mahdollistavat
mahdollisten
mahdollisti
mahdollistivat
mahdollisuuden
mahdollisuudesta
mahdollisuudet
mahdollisuuksia
mahdollisuuksien
mahdollisuus
mahdollisuutta
mahdoton
mahdotonta
mahdottomaksi
mahmud
mahtava
mahti
mahtui
mahtunut
mahtuu
mai
maiden
maidenin
maidon
maihin
maihinnousu
maihinnousua
maihinnousun
maihinnousuun
maija
maijanen
maiju
mail
maila
mailia
mailin
mailla
maille
mailta
main
maine
maineen
maineensa
maineeseen
mainen
mainetta
maininnat
maininnut
maininta
mainintaa
mainintoja
mainio
mainita
mainitaan
mainitse
mainitsee
mainitsevat
mainitsi
mainittakoon
mainittiin
mainittu
mainittua
mainittuja
mainittujen
mainittuun
mainituista
mainitun
mainitussa
mainitusta
mainitut
mainoksia
mainoksissa
mainonnan
mainonta
mainos
maire
maisema
maisemaa
maisemat
maisemia
maison
maissa
maissi
maissia
maista
maisteri
maisteriksi
maisterin
maita
maito
maitoa
maittain
maj
maja
majaan
majakan
majakka
majan
majassa
major
majuri
majuriksi
makaa
makasi
make
makea
makean
makedonia
makedonian
makedoniassa
maker
makes
maki
making
makkonen
maksa
maksaa
maksamaan
maksan
maksanut
maksassa
maksavat
maksetaan
maksettava
maksettiin
maksettu
maksim
maksimissaan
maksoi
maksoivat
maksu
maksua
maksuja
maksullinen
maksun
maksuva
maku
makua
mal
malakan
malcolm
male
malesia
malesian
malesiassa
mali
malik
malin
malinen
malissa
malja
maljan
malleihin
malleissa
malleista
malleja
malli
mallia
mallien
malliin
malliksi
mallilla
mallin
mallina
mallinen
mallissa
mallista
mallisto
malliston
mallit
mallorca
malm
malmberg
malmi
malmin
malmivaara
malmo
malmste
malone
malta
maltalla
maltalle
maltan
malto
mama
mamma
man
mana
management
manager
manageri
manageriksi
managerina
manchester
manchesterin
manchesterissa
mandela
mandoliini
manfred
manga
mangassa
manhattan
manhattanilla
manhattanin
mania
manifesti
manifestin
manin
manitoba
manitoban
mann
manner
mannerheim
mannerheimin
mannerja
mannin
manninen
manning
mannisen
mans
mansell
mansin
manson
mantere
mantereella
mantereelle
mantereelta
mantereen
mantereeseen
mantereesta
mants
manu
manual
manuel
many
mao
maon
map
maple
maps
mar
mara
maradona
marat
maraton
maratonilla
maratonin
marc
marca
marcel
marcello
marcelo
march
marco
marcos
marcus
mare
marek
margareeta
margaret
margareta
marge
margit
marguerite
mari
maria
marian
marianna
marianne
marie
marien
marija
marika
marilyn
marin
marina
marine
marino
marinon
mario
marion
marita
maritime
marius
marja
marjama
marjat
marjatta
marjo
marjoja
mark
markalla
markan
market
markiisi
markin
markka
markkaa
markkanen
markkina
markkinaosuus
markkinat
markkinoi
markkinoiden
markkinoilla
markkinoille
markkinoilta
markkinoinnin
markkinointi
markkinoita
markku
markkula
marko
markuksen
markus
marley
marlon
marokko
marokkolainen
marokon
marokossa
marras
marraskuu
marraskuuhun
marraskuun
marraskuussa
marraskuusta
marraskuuta
mars
marsalkka
marseille
marseillen
marsh
marshall
marshallin
marsin
marssi
marssin
marssivat
marta
martha
marti
martikainen
martin
martina
martinez
martini
martinin
martta
martti
marttila
marttinen
marttyyri
marty
marvel
marvelin
marvin
marx
marxin
mary
maryland
marylandin
maryn
mas
masa
masennuksen
masennus
masennusla
masennusta
mask
maskun
mason
mass
massa
massaa
massachusetts
massachusettsin
massachusettsissa
massacre
massan
massasta
massiivinen
master
masteroija
masterointi
masters
mat
mata
matala
matalaa
matalalla
matalampi
matalan
matalassa
matalat
matalia
match
matelijat
matemaatikko
matemaatikot
matemaattinen
matemaattis
matemaattisen
matemaattiset
matematiikan
matematiikassa
matematiikka
matematiikkaa
materiaaleista
materiaaleja
materiaali
materiaalia
materiaalien
materiaalin
materiaalina
materiaalista
materiaalit
mathbb
mathbf
mathcal
mathematics
mathias
mathieu
mathilda
mathrm
matias
matikainen
matilda
matin
matinkyla
matka
matkaa
matkaan
matkaansa
matkailijoita
matkailu
matkailukohde
matkailun
matkalla
matkallaan
matkalle
matkalta
matkan
matkansa
matkapuhelimet
matkapuhelin
matkasi
matkasta
matkat
matkoilla
matkoja
matkojen
matkustaa
matkustaja
matkustajaa
matkustajama
matkustajan
matkustajat
matkustajia
matkustajien
matkustamaan
matkustavat
matkusteli
matkusti
matkustivat
mato
matriisi
matriisin
matrikkeli
matrix
mats
matsissa
matt
matteo
matter
matteuksen
matthew
matthews
matthias
matti
mattias
mattila
mattilan
mattsson
maun
mauno
maunu
mauri
maurice
mauritanian
mauritz
max
maxi
maxim
maximilian
maximus
maxwell
maxwellin
may
maya
mayer
mayerin
mayojen
mazda
mb
mba
mberg
mbox
mc
mccarthy
mccartney
mccartneyn
mccoy
mcdonald
mcdonnell
mcgregor
mclaren
mclarenin
mcmahon
mcrae
mcu
md
mdma
me
mea
mead
mean
mechelin
mecklenburg
med
medal
media
mediaa
mediaani
median
mediassa
mediawikiinterwikimap
medical
medici
medicine
medieval
medina
medioissa
medium
medvedev
medves
meen
meenkyro
meenlinna
meenlinnaan
meenlinnan
meenlinnassa
meessa
meet
meeting
meets
mega
megadeth
megadethin
megan
megapikselia
megapikselin
megawattia
megazordin
mehila
mehmed
meida
meijeri
meiji
meilla
meille
meilta
mein
meista
meita
mekaanikko
mekaaninen
mekaanisen
mekaanisesti
mekaniikan
mekanismi
meksiko
meksikolainen
meksikolaiset
meksikon
meksikoon
meksikossa
meksikosta
mel
mela
melanie
melbourne
melbournen
melbournessa
melin
melissa
melkein
melko
mellakoita
melodia
melody
melojat
melonta
melvin
members
memorial
memoriam
memories
memory
memphis
men
mendes
mene
menee
menehtyi
meneilla
menema
menestya
menestyi
menestyiva
menestykseen
menestykseka
menestyksekka
menestyksella
menestyksen
menestyksensa
menestyksesta
menestyneet
menestyneimma
menestyneimmista
menestyneimpia
menestynein
menestyneita
menestynyt
menestys
menestysta
menestyva
menestyy
menetelma
menetelmia
menetelmien
menetelmilla
menetelmin
menetettiin
menetetty
menetettya
menetta
menettely
menetti
menettiva
menetyksen
menetykset
menetys
meneva
meni
menin
menisi
meniva
menna
menneen
menneet
menneisyyden
menneisyydessa
menneisyydesta
menneisyyteen
menneisyytta
mennessa
menninka
mennyt
mennytta
meno
menoa
menossa
menot
mens
mensa
menta
mental
mentya
mer
mercedeksen
mercedes
mercury
mercy
meredith
mereen
merella
merelle
merelta
meren
merenka
merenkulun
merenpinnan
merenpinnasta
meressa
meresta
meri
merialueella
meriitit
merija
merijalkava
merikanto
merikapteeni
merila
merimies
merirosvojen
merirosvot
merita
merivoimat
merivoimien
merja
merkein
merkeissa
merkiksi
merkilla
merkille
merkin
merkinna
merkinnyt
merkinta
merkinto
merkisto
merkit
merkita
merkitsee
merkitsema
merkitseva
merkitsi
merkitta
merkittiin
merkitty
merkityksen
merkityksensa
merkityksessa
merkityksesta
merkityksetto
merkityksia
merkitys
merkitysta
merkityt
merkkeja
merkki
merkkia
merkkien
merkkihenkilo
merkkina
merlin
merry
merta
merten
mervi
mes
mesa
mesopotamian
mesopotamiassa
messa
message
messerschmitt
messi
messier
messu
messuilla
messukyla
messun
messut
mesta
mestareiden
mestareita
mestari
mestaria
mestarien
mestariksi
mestarin
mestarina
mestarit
mestaruuden
mestaruudesta
mestaruudet
mestaruuksia
mestaruus
mestaruuskilpailuihin
mestaruuskilpailuissa
mestaruuskilpailujen
mestaruuskilpailut
mestaruuskisoissa
mestaruussarja
mestaruussarjaan
mestaruussarjan
mestaruussarjassa
mestaruuteen
mestaruutensa
mestaruutta
mestaruuttaan
mestikseen
mestiksen
mestiksessa
mestis
met
meta
metabolome
metacritic
metal
metalia
metalin
metalleja
metalli
metallia
metallica
metallican
metallien
metallimusiikin
metallin
metallinen
metallista
metallit
metallityo
metalliyhtye
metalliyhtyeet
metallurg
method
metreja
metria
metriin
metrilla
metrilta
metrin
metrinen
metrissa
metrista
metro
metroasema
metroaseman
metroasemat
metron
metropolialueen
metropolitan
metsa
metsia
metsien
metsissa
metsista
metso
metta
meurman
mexico
mexicon
meyer
meyerin
mez
mezzosopraano
mf
mg
mgm
mhq
mhz
mi
mia
miami
miamin
miamissa
michael
michaelin
michaels
michal
michel
michelangelo
michele
michelin
michelle
michigan
michiganin
michiganissa
mick
mickey
micro
microsoft
microsoftin
mid
middle
midi
midnight
mie
mieheen
mieheksi
miehella
miehelle
miehelta
miehen
miehena
miehensa
miehesta
miehet
miehetto
miehia
miehiin
miehikka
miehilla
miehille
miehista
miehisto
miehitetty
miehitettya
miehitta
miehitti
miehittiva
miehityksen
miehitys
miehitysta
miekalla
miekan
miekat
miekka
miekkaa
miekkailija
miekkailijat
miekkojen
mieleen
mielella
mielen
mielenkiinnon
mielenkiintoa
mielenkiintoinen
mielenosoittajat
mielenosoittajia
mielenosoituksen
mielenosoitukset
mielenosoituksia
mielenosoitus
mielenosoitusten
mielensa
mielenterveyden
mielessa
mielesta
mieli
mielialaha
mielihyva
mielin
mielipide
mielipidetta
mielipiteen
mielipiteensa
mielipiteet
mielipiteita
mielisairaalaan
mielissa
miellytta
mielta
mieluiten
mieluummin
mien
miensa
mies
miesna
miespa
miespuolinen
miespuolisia
miessivuosa
miessivuosan
miesta
miesten
miesysta
mietinno
mietinto
mieto
miettima
miettinen
mig
might
mighty
miguel
mihail
mihin
mihinka
miia
miika
miikka
miin
miina
miinaan
miinanraivaaja
miinanraivaajat
mija
mika
mikael
mikaelin
mike
miki
mikin
mikkeli
mikkeliin
mikkelin
mikkelissa
mikki
mikko
mikkola
mikkolan
mikkonen
mikro
miks
miksaaja
miksaus
miksi
mil
mila
milan
milanin
milano
milanon
milanossa
mile
miles
miley
military
milj
miljardi
miljardia
miljardilla
miljardin
miljardo
miljo
miljona
miljoona
miljoonaa
miljoonaan
miljoonalla
miljoonan
miljoonasade
miljoonasta
miljoonia
miljoonien
milk
mill
milla
millainen
millaisia
millaista
mille
millennium
miller
millerin
millimetria
millimetrin
million
milloin
milloinkaan
mills
milos
milta
miltei
milton
milwaukee
mimi
mimmi
min
mina
minas
mind
mine
minen
mineraaleja
minerva
ming
mini
minisarja
minisarjassa
minister
ministeri
ministeria
ministeriksi
ministerin
ministerina
ministerio
ministerit
ministry
minka
minna
minne
minnesota
minnesotan
minnesotassa
minoguen
minor
minsk
minskin
minskissa
minua
minulla
minulle
minulta
minun
minusta
minut
minutes
minuun
minuutilla
minuutillaan
minuutin
minuutissa
minuutit
minuuttia
mio
mir
mira
miracle
mirage
miranda
miriam
mirja
mirjam
miro
miroslav
mirror
mis
miseen
miseksi
misella
miselle
misen
misessa
misesta
misha
miska
miskeskus
miss
missa
misse
missing
mission
mississippi
mississippin
missouri
missourin
mista
misto
mit
mita
mitaleille
mitaleita
mitaleja
mitali
mitalia
mitalilla
mitalin
mitalinsa
mitalisti
mitalistit
mitalit
mitalitaulukko
mitat
mitata
mitataan
mitattiin
mitattu
mitattuna
mitch
mitchell
mitchellin
miten
mitenka
mithridates
mitka
mitsubishi
mitt
mitta
mittaa
mittaaminen
mittaamiseen
mittaan
mittainen
mittaiseksi
mittaisella
mittaisen
mittaisia
mittakaavassa
mittari
mittasuhteet
mittaus
mittausten
mittava
mittavan
mix
mixtape
mixtapet
mk
ml
mlb
mlk
mls
mm
mma
mmajunkie
mme
mmekka
mmen
mmenta
mmin
mminta
mmitetta
mmitta
mmittelija
mmitys
mmo
mn
mo
mob
mobile
mobilia
mobot
mobygamesissa
mod
mode
model
modern
moderni
modernia
modernin
modernismin
modo
moe
mohamed
mohammad
mohammed
moi
moilanen
moisio
moitti
mokoma
moksen
mol
molander
moldova
moldovan
molekyyleja
molekyyli
molekyylien
molekyylin
molekyylit
molemmat
molemmilla
molemmille
molemmin
molemmissa
molemmista
molempia
molempien
molempiin
molli
molly
molotov
moment
momentin
momentissa
momentti
mon
mona
monaco
monacon
monacossa
monarkia
monarkian
monday
monde
mondo
moneen
monella
monelle
monen
monenlaisia
monessa
monesta
monesti
monet
money
mongolia
mongolian
mongoliassa
mongolien
mongolit
moni
monia
monica
monien
moniin
monika
monikansallisen
monikon
monilla
monille
monilta
monimuotoisuuden
monimutkainen
monimutkaisia
monin
moninkertainen
moniottelijat
moniottelussa
monipuolinen
monipuolisesti
monipuolista
monissa
monista
monivuotinen
monk
monkey
mono
mononen
monroe
monroen
monsp
monster
monsters
mont
monta
montana
montanan
monte
montenegro
montenegron
montgomery
montpellier
montre
montreal
montrealin
montrealissa
montreux
monty
monumentti
moody
moog
moolimassa
moon
moonlight
moore
mooren
moos
mooseksen
mooses
moottoreiden
moottoreilla
moottoreita
moottori
moottoria
moottorien
moottoriin
moottorilla
moottorin
moottorina
moottoripyo
moottoriradalla
moottorissa
moottorista
moottorit
moottoritie
moottoritien
moottoritiet
moottoriurheilija
moottoriurheilu
mora
moraali
moraalin
moraalinen
morales
moran
more
moreeni
moreno
morgan
mori
moritz
moritzin
mormonin
morning
morphin
morris
morrison
morrisonin
morse
morsiamen
morsian
mort
mortal
morten
morton
mos
mosambikin
mosambikissa
moscow
moses
moskeija
moskeijan
moskova
moskovaa
moskovaan
moskovan
moskovassa
moskovasta
moss
most
mot
mother
moths
motiivi
motion
moto
motogp
motor
motorola
motors
motorsin
motorsport
motto
mou
mouhija
moukarinheitta
mount
mountain
mountains
mouse
mouth
move
movement
movie
movies
mozart
mozartin
mozilla
mp
mpa
mpelo
mpi
mpia
mpima
mpimin
mpo
mppa
mpy
mq
mr
mrd
mrs
ms
msa
mt
mtk
mtv
mu
mua
muassa
much
muhammad
muhammadin
muhammed
muhammedin
muhoksen
muiden
muidenkin
muihin
muihinkin
muilla
muillakin
muille
muillekin
muilta
muina
muinainen
muinaisen
muinaisessa
muinaisesta
muinaiset
muinaisia
muinaisja
muinaista
muinaisten
muinoin
muissa
muissakin
muista
muistaa
muistakin
muistan
muistelee
muisteli
muistelmat
muistelmia
muistelmissaan
muistetaan
muisti
muistia
muistiin
muistiinpanoja
muistin
muistinsa
muisto
muistoa
muistoja
muistojen
muistokirjoitus
muistokivi
muistoksi
muistolaatat
muistolaatta
muistolle
muistomerkeista
muistomerkin
muistomerkit
muistomerkkeja
muistomerkki
muistomitali
muistona
muistopa
muistot
muistoturnauksessa
muistuttaa
muistuttanut
muistuttava
muistuttavan
muistuttavat
muistuttavia
muistutti
muistuttivat
muita
muitakin
muka
mukaa
mukaan
mukaansa
mukainen
mukaiseksi
mukaisen
mukaisesti
mukaiset
mukaisia
mukaista
mukana
mukanaan
mulla
mulle
multa
multi
multimedia
mummo
mun
muna
munaa
munan
munat
munck
mundo
munia
munii
munkit
munkki
munkkien
munkkiniemen
munuaisten
muodin
muodoissa
muodoista
muodollinen
muodollisesti
muodoltaan
muodon
muodossa
muodossaan
muodosta
muodostaa
muodostaen
muodostama
muodostamaa
muodostamaan
muodostaman
muodostaminen
muodostaneet
muodostanut
muodostavan
muodostavat
muodostetaan
muodostettiin
muodostettu
muodosti
muodostivat
muodostua
muodostui
muodostuivat
muodostuminen
muodostumiseen
muodostumista
muodostuneen
muodostuneet
muodostunut
muodostuu
muodostuva
muodostuvat
muodot
muokata
muokattiin
muokattu
muokkasi
muolaan
muoti
muotisuunnittelija
muoto
muotoa
muotoaan
muotoihin
muotoilija
muotoiltu
muotoilu
muotoilun
muotoinen
muotoisen
muotoiset
muotoisia
muotoja
muotojen
muotokuva
muotokuvan
muotokuvia
muotona
muotonsa
muotoon
muotoonsa
muotoutui
muovista
murder
murha
murhaa
murhaaja
murhaajan
murhaajat
murhaan
murhan
murhasi
murhasivat
murhasta
murhat
murhata
murhattiin
murhe
murhena
murhia
murhista
murmanskin
murphy
murphyn
murray
murrayn
murre
murretta
mursi
murtaa
murtautui
murteella
murteen
murteet
murteiden
murteissa
murteita
murto
murtui
mus
musa
muse
museo
museoiden
museoissa
museoita
museon
museona
museoon
museossa
museot
museota
museovirasto
museoviraston
museum
music
musica
musical
musicin
musicissa
musiikillinen
musiikillisen
musiikillisesti
musiikin
musiikinopettaja
musiikissa
musiikissaan
musiikista
musiikki
musiikkia
musiikkiaan
musiikkialan
musiikkiin
musiikkikappale
musiikkikappaleet
musiikkina
musiikkinsa
musiikkiopistossa
musiikkipedagogi
musiikkipedagogit
musiikkiteokset
musiikkitieteilija
musiikkituottaja
musiikkituottajat
musiikkityyli
musiikkivideo
musiikkivideoita
musiikkivideolla
musiikkivideon
musiikkivideot
musiikkivideota
musik
musikaali
musikaalin
musikaalissa
muslimeja
muslimi
muslimien
muslimit
mussolini
mussolinin
must
musta
mustaa
mustaan
mustafa
mustaine
mustaja
mustakallio
mustaksi
mustalla
mustalle
mustan
mustana
mustang
mustanmeren
mustasaaren
mustasta
mustat
mustavalkoelokuvat
mustavalkoinen
mustia
mustien
mustonen
mut
mutaatio
mutant
mutkan
mutkassa
mutt
mutta
muttei
muu
muualla
muuallakin
muualle
muualta
muuan
muuhun
muukalainen
muukin
muulla
muulle
muulloin
muumi
muumilaakson
muumipeikko
muumit
muun
muunnelma
muunnelmia
muunnoksia
muunnos
muunnosta
muuntaa
muuramen
muuri
muuria
muurien
muurin
muurit
muurmannin
muusikko
muusikkona
muusikoiden
muusikoita
muusikon
muusikot
muussa
muusta
muut
muuta
muutakin
muutama
muutamaa
muutamaan
muutamaksi
muutamalla
muutaman
muutamassa
muutamasta
muutamat
muutamia
muutamien
muutamilla
muutamissa
muutamista
muuten
muutenkin
muutetaan
muutettiin
muutettu
muutettua
muutettuaan
muutkin
muutoin
muutoinkin
muutokseen
muutoksen
muutoksesta
muutokset
muutoksia
muutoksiin
muutoksista
muuton
muutos
muutosta
muutosten
muutosto
muutostyo
muuttaa
muuttamaan
muuttamalla
muuttaminen
muuttamisesta
muuttamista
muuttaneen
muuttaneet
muuttanut
muuttavat
muutti
muuttivat
muutto
muuttoa
muuttoliike
muuttua
muuttuessa
muuttui
muuttuivat
muuttuja
muuttujan
muuttumaan
muuttumattomana
muuttuminen
muuttuneen
muuttuneet
muuttunut
muuttuu
muuttuva
muuttuvat
muutu
mv
mvp
mw
mx
my
myanmarin
myanmarissa
myers
myi
myiva
mykenela
mykero
mykka
myksen
mylla
mylly
myllykosken
myllykoski
myllyla
myllyma
myllyn
myna
myo
mypa
myrkky
myrkkya
myrkyllinen
myrkylliset
myrkyllisia
myrkyllista
myrkytta
myrsky
myrskyla
myrskyn
myrskyssa
mys
myself
myspace
mysta
mystery
mystic
mystikko
mystinen
mytologia
mytologian
mytologiassa
myy
myyda
myyden
myydesta
myydyimma
myydyin
myyja
myyma
myynnin
myynnissa
myynnista
myynti
myyntia
myyntiin
myyntimenestys
myynyt
myyra
myyrma
myys
myysaste
myyta
myyteen
myytiin
myytin
myytit
myytta
myytti
myyttinen
myyty
myytya
myyva
n
na
naamio
naantali
naantalin
naantalissa
naapuri
naapurikunnat
naapurin
naapurissa
naaraalla
naaraan
naaraat
naaraiden
naaraita
naaras
naarasta
nabla
nach
nacional
nad
nadal
nadja
naganon
nagoya
nagy
nahka
nai
naimisiin
naimisissa
nainen
nais
naiseen
naiseksi
naisella
naiselle
naisen
naisena
naisesta
naiset
naisia
naisiin
naisilla
naisille
naisista
naisja
naisna
naispa
naispuolinen
naispuolisia
naissivuosa
naissivuosan
naista
naisten
naisysta
naked
nalle
nam
name
named
names
namibia
namibian
namibiassa
nan
nana
nancy
nantaja
nantajan
nantajat
nao
naomi
napa
napapiirin
napole
napoleon
napoleonin
napoli
napolin
napolissa
nappasi
nara
narnian
naruto
narva
narvan
narvanjoen
nas
nasa
nasan
nash
nashville
nastolan
nasty
nat
natalia
natalie
natasha
nate
nathan
nathaniel
nation
national
nationale
nationalismi
nations
native
nato
naton
natoon
natsi
natsien
natsit
natura
natural
naturalis
nature
naudat
nauha
nauhoitettiin
nauhoitettu
nauhoitti
nauhoitukset
nauhoitus
naulan
nauraa
nauroi
nauru
naurun
nautti
nauttia
nauttii
nauttivat
naval
navarran
navarro
navy
naxos
nba
nbc
nberg
nblom
nc
ncaa
ncap
ncbi
nchen
ncheniin
nchenin
nchenissa
nchez
nd
nda
nde
nder
ndez
ndi
ndiin
ndin
ndissa
ndit
ndo
ndor
ne
nea
neal
near
nebraska
nec
ned
need
neella
neelle
neen
neena
neensa
neeseen
neessa
neesta
neet
negatiivinen
negatiivisen
negatiivisesti
negatiivisia
negatiivista
neiden
neidon
neil
neill
neille
neissa
neista
neita
neiti
neito
neitsyt
nek
nekin
nekka
nekosken
nekoski
nelinkertainen
nelinpeli
nelinpelin
nelinpelissa
nelio
nelivuotisen
nelja
nella
nelle
nelonen
nelosella
nelosen
nelosessa
nelosketjun
nelson
nelsonin
nelta
nen
nena
nenkannattaja
nenonen
nensa
neo
neon
nepal
nepalin
nepalissa
neptunuksen
ner
nero
neron
nes
nessa
nesta
neste
nesteen
nestema
nestetta
nestettiin
nesti
nestiva
nestor
nestykseen
nestyksella
nestyksen
nestyksessa
nestys
nestysta
net
netflix
netin
netissa
neto
nettisivut
netto
network
networkin
networks
neue
neumann
neutraali
neuville
neuvoa
neuvoi
neuvoja
neuvonantaja
neuvonantajana
neuvonen
neuvoo
neuvos
neuvosto
neuvostoaikana
neuvostojoukkojen
neuvostojoukot
neuvostoliitolle
neuvostoliiton
neuvostoliitossa
neuvostoliitosta
neuvostoliitto
neuvostoliittoa
neuvostoliittolainen
neuvostoliittolaisen
neuvostoliittolaiset
neuvostoliittolaisten
neuvostoliittoon
neuvoston
neuvostoon
neuvostossa
neuvostotasavallan
neuvostotasavalta
neuvotella
neuvottelemaan
neuvotteli
neuvotteluihin
neuvotteluissa
neuvotteluja
neuvottelujen
neuvottelukunnan
neuvottelukunta
neuvottelut
neva
nevada
nevadan
nevala
nevalainen
nevan
nevanlinna
never
neville
new
newcastle
newcastlen
newman
newport
news
newton
newtonin
next
nexus
nez
nfl
ng
nga
ngc
ngel
ngelma
ngen
nger
ngin
ngna
ngo
nguye
nh
nha
nheitossa
nheitta
nheitto
nhl
nhoitaja
nholm
ni
nia
nialaltaan
nicaraguan
nice
nicholas
nicholson
nicht
nick
nicky
niclas
nico
nicola
nicolai
nicolas
nicole
nid
nie
niels
nielsen
niemela
niemella
niemen
niemi
niemimaa
niemimaalla
niemimaalle
niemimaalta
niemimaan
nieminen
niemisen
nien
nig
nigel
niger
nigeria
nigerialainen
nigerialaiset
nigerian
nigeriassa
nigerin
night
nightmare
nights
nightwish
nih
niiden
niihin
niilin
niilla
niille
niilo
niilta
niin
niina
niinika
niiniluoto
niinima
niinisto
niinka
niinkin
niinkuin
niinpa
niissa
niista
niita
niityilla
niityt
nijn
nik
nikertaiset
niki
nikita
nikkanen
nikki
nikkila
niklas
niko
nikola
nikolai
nikolain
nikolajevits
nikolaoksen
nikolaus
nikon
nikov
niksen
nikula
nilla
nille
nils
nilsia
nilsson
nilvia
nima
nimea
nimeen
nimekka
nimekseen
nimeksi
nimella
nimelle
nimellisesti
nimelta
nimen
nimena
nimennyt
nimenomaan
nimensa
nimesi
nimesiva
nimessa
nimesta
nimet
nimeta
nimeto
nimettiin
nimetto
nimetty
nimetyn
nimi
nimia
nimien
nimiin
nimiinsa
nimikappale
nimikkeella
nimilla
nimimerkilla
nimimerkki
niminen
nimipa
nimiseen
nimiseksi
nimisella
nimiselle
nimisen
nimisena
nimisessa
nimisesta
nimiset
nimisia
nimismies
nimismiespiiri
nimissa
nimista
nimisto
nimiteta
nimitettiin
nimitetty
nimitta
nimitti
nimityksella
nimityksen
nimitykset
nimityksia
nimitys
nimitysta
nin
nina
nine
ninen
ninja
nino
ninrovasti
nintendo
nintendon
nio
nioikeuden
nioikeus
nioikeutta
nippon
nirooleissa
nirooleja
nirvana
nis
nisa
nisen
nishi
nisja
niska
niskan
niskanen
niskavuoren
niskavuori
nissa
nissan
nissinen
nista
nit
nite
nitettiin
nitetty
nitta
nitteita
nitti
nitykset
nityksia
nitys
nitysten
niukasti
nivala
nixon
nixonin
niz
nizza
nja
njoen
njohtaja
njohtajana
njoki
nk
nka
nkasvu
nkatu
nkehitys
nkielinen
nkin
nkko
nko
nkohtaukseen
nkohtauksen
nkosken
nkp
nkuin
nkvd
nkyla
nkymmenen
nkyyn
nl
nla
nlahden
nlainen
nlaisen
nlaisena
nlaisia
nlaista
nlannin
nlannissa
nlaskennan
nlaskennassa
nlaskenta
nm
nma
nmaa
nmaallinen
nmaallisen
nmaan
nmky
nmurtaja
nn
nna
nne
nneen
nneet
nnekohta
nneksella
nneksen
nneksi
nnella
nnelle
nnelta
nnen
nner
nnes
nnessa
nnesta
nnesva
nneta
nnetta
nnettiin
nnetty
nnettya
nnettyna
nni
nniemen
nnin
nninen
nnis
nnista
nnisto
nnit
nnite
nnitetta
nnitta
nnitteen
nnitteet
nnitteita
nnityksen
nnitys
nnityselokuva
nnityselokuvat
nnitysta
nno
nnrot
nnrotin
nnstro
nnyn
nnyt
nnytta
no
noah
nobel
nobelin
noble
nobody
node
noe
noel
noidan
noihin
noin
noir
noise
noista
noita
nojaa
nojalla
nokan
nokia
nokialla
nokian
nokka
nolan
nolla
nollan
nollapelia
nollapelin
nollasta
nomainen
nomos
non
none
noora
nopea
nopeaa
nopeaan
nopeammin
nopeampaa
nopeampi
nopean
nopeasti
nopeat
nopeimman
nopeimmin
nopein
nopeinta
nopeita
nopeudella
nopeuden
nopeus
nopeuteen
nopeutta
nopeuttaa
nor
nora
nord
nordenskio
nordic
nordin
nordisk
nordlund
nordrhein
nordstro
norfolk
norja
norjaa
norjaan
norjalainen
norjalaisen
norjalaiset
norjalaisten
norjan
norjassa
norjasta
norma
normaali
normaalia
normaaliin
normaalima
normaalimatkalla
normaalin
normaalista
normaalisti
normal
norman
normandian
norra
norris
norrko
norsk
norske
norsunluurannikon
north
northern
norton
norway
norwegian
norwich
nos
nostaa
nostamaan
nostamalla
nostamassa
nostanut
nostatti
nostavat
nostetaan
nostettiin
nostettu
nosti
nostivat
not
notaari
note
notes
nothing
notoc
noton
notre
nottingham
notto
nottoa
noudatetaan
noudatettava
noudattaa
noudattaen
noudattamaan
noudattamista
noudattavat
noudatti
nous
nouse
nousee
nousemaan
nouseva
nousevan
nousevat
nousi
nousiainen
nousijajoukkue
nousivat
nousseen
nousseet
noussut
nousta
nousten
noustessa
noustua
noustuaan
nousu
nousua
nousun
nousussa
noususta
nousuun
noutamaan
nov
nova
novaja
novak
nove
novel
novelleja
novelli
novellikokoelma
novellin
novellit
november
novgorod
novgorodin
novi
now
nowhere
np
npa
nr
nra
nrikiksi
nrikki
nro
nroos
ns
nsa
nsaaren
nsi
nsimaat
nsimaiden
nsimainen
nsimaisen
nsimaissa
nsimaista
nsiosa
nsiosan
nsiosassa
nsiosissa
nsipa
nsipuolella
nsipuolelle
nsipuolelta
nsirannalla
nsirannan
nsirannikolla
nsirannikolle
nsirannikon
nsiva
nsson
nt
nta
ntapa
ntasaajan
nteen
nteet
nteiden
nteinen
nteisen
nteisesti
nteiset
nteisia
nteista
nteisten
nteita
ntekeva
ntekija
ntekijo
ntely
nten
ntena
nter
ntgensa
nther
nti
ntia
ntie
ntien
ntin
ntinen
ntiseen
ntisella
ntisen
ntisessa
ntiset
ntista
ntisten
nto
ntoista
ntsa
ntta
ntti
ntto
nty
ntya
ntyessa
ntyharjulla
ntyharjun
ntyi
ntyiva
ntyla
ntyma
ntyminen
ntymiseen
ntymisen
ntymisesta
ntymista
ntyneen
ntyneet
ntynyt
ntyo
ntyva
ntyy
nu
nuclear
nuevo
nukke
nukkui
nukkumaan
nukkuu
nuku
null
number
numbered
numbers
numero
numeroa
numeroiden
numeroiduista
numeroin
numerointi
numeroita
numeroja
numerolla
numeron
numerossa
numerot
nummela
nummelin
nummen
nummi
numminen
nunna
nuo
nuolen
nuoli
nuoreen
nuoreksi
nuorella
nuorelle
nuoremman
nuoremmat
nuorempaa
nuorempana
nuorempi
nuorempia
nuoren
nuorena
nuoresta
nuoret
nuori
nuoria
nuoriin
nuorilla
nuorille
nuorimpana
nuorin
nuoriso
nuorisoja
nuorisolle
nuorisomaajoukkueissa
nuorison
nuorisoseura
nuorisoseuran
nuorisotyo
nuorissa
nuorista
nuorta
nuorten
nuortenkirjailija
nuortenkirjailijat
nuorteva
nuorukainen
nuorukaisen
nuoruuden
nuoruudessaan
nuoruus
nuoruutensa
nuotio
nuotteja
nur
nurmeksen
nurmen
nurmes
nurmi
nurmija
nurminen
nurmio
nurmon
nuts
nuutinen
nva
nvaiheet
nvuotiaana
ny
nya
nyberg
nyga
nyheter
nyi
nyk
nyka
nyko
nyky
nykya
nykyaika
nykyaikaan
nykyaikainen
nykyaikaisen
nykyaikaiset
nykyaikana
nykyajan
nykyinen
nykyiseen
nykyisella
nykyiselle
nykyisen
nykyisessa
nykyisesta
nykyiset
nykyisia
nykyisin
nykyisinkin
nykyisissa
nykyisista
nykyista
nykyisten
nykypa
nykytaiteen
nylander
nylund
nyman
nyo
nyrkkeilija
nyrkkeily
nyrkkeilyn
nystro
nyt
nytimes
nytka
nytkin
nytta
nyttemmin
o
oak
oakland
oasis
ob
obama
obaman
oberstdorfin
obi
object
observatorio
observatorion
observer
ocean
och
octavianus
october
odd
oder
odessan
odin
odotetaan
odotettavissa
odotettiin
odotettu
odotettua
odottaa
odottamaan
odottavat
odotti
odottivat
odotukset
odotuksia
odotusten
odysseuksen
odysseus
odyssey
oecd
of
off
office
official
og
oh
ohella
ohessa
ohi
ohio
ohion
ohiossa
ohitse
ohittaa
ohittamaan
ohitti
ohj
ohjaa
ohjaaja
ohjaajaksi
ohjaajan
ohjaajana
ohjaajat
ohjaama
ohjaamaan
ohjaaman
ohjaamana
ohjaamassa
ohjaamat
ohjaamo
ohjaamon
ohjaavat
ohjannut
ohjasi
ohjasivat
ohjata
ohjataan
ohjattiin
ohjattu
ohjauksen
ohjauksessa
ohjauksesta
ohjaus
ohjausja
ohjauspyo
ohjausta
ohjaustyo
ohje
ohjeet
ohjeiden
ohjeita
ohjelma
ohjelmaa
ohjelmaan
ohjelmalla
ohjelman
ohjelmassa
ohjelmasta
ohjelmat
ohjelmia
ohjelmien
ohjelmiin
ohjelmissa
ohjelmista
ohjelmisto
ohjelmistoa
ohjelmistoja
ohjelmistojen
ohjelmiston
ohjelmistoon
ohjelmistossa
ohjelmistot
ohjelmointi
ohjesa
ohjuksen
ohjukset
ohjuksia
ohjus
ohjusta
ohjusten
ohl
ohuita
ohut
oi
oik
oikea
oikeaa
oikeaan
oikeaksi
oikealla
oikealle
oikealta
oikean
oikeana
oikeassa
oikeasta
oikeastaan
oikeasti
oikeat
oikein
oikeisto
oikeiston
oikeita
oikeuden
oikeudenka
oikeudenmukaisuuden
oikeudenmukaisuus
oikeudessa
oikeudesta
oikeudet
oikeuksia
oikeuksien
oikeuksista
oikeus
oikeusja
oikeuska
oikeuskansleri
oikeusministeri
oikeusministerio
oikeusneuvos
oikeusosaston
oikeustiedetta
oikeustieteen
oikeustieteilija
oikeustutkinnon
oikeuteen
oikeutensa
oikeutettu
oikeutta
oikeuttaa
oikeuttavan
oil
oilers
oilersin
oinonen
oireet
oireiden
oireita
oireyhtyma
ois
oise
oiva
oja
ojaa
ojala
ojan
ojanen
ojat
ojia
ojien
ok
oklahoma
oklahoman
oksa
oksala
oksanen
oksat
ol
ola
olaf
olarin
olaus
olav
olavi
olavin
olcon
old
ole
oleellinen
oleellisesti
oleellista
oleg
olekaan
olemaan
olemalla
olemassa
olemassaolo
olemassaoloa
olemassaolon
olemassaolosta
olemasta
olemisen
olemme
olemus
olen
olennainen
olennaisesti
olennaista
olennon
olennot
olento
olentoa
olentoja
olentojen
oleskeli
olet
oletetaan
oletettavasti
oletettiin
oletettu
oletko
olettaa
olette
oletti
oleva
olevaa
olevaan
olevalla
olevalle
olevan
olevansa
olevassa
olevasta
olevat
olevia
olevien
oleviin
olevilla
oleville
olevissa
olevista
olga
oli
olihan
oliivio
olikin
oliko
olimme
olin
olio
olion
oliot
olipa
olis
olisi
olisikaan
olisikin
olisiko
olisin
olisivat
olit
olivat
olivatkin
oliveira
oliver
olivia
olivier
olkapa
olkoon
olla
ollaan
ollakseen
olle
olleelle
olleen
olleensa
olleeseen
olleessa
olleesta
olleet
olleiden
olleista
olleita
ollen
ollenkaan
ollessa
ollessaan
olli
ollikainen
ollila
ollut
ollutkaan
ollutta
olo
oloa
olof
oloihin
oloissa
oloista
oloja
olojen
olon
olonsa
olosuhteet
olosuhteiden
olosuhteisiin
olosuhteissa
olosuhteista
olosuhteita
olot
ols
olsen
olsson
oltava
oltiin
oltu
oltua
oltuaan
oluen
olut
olutta
olympia
olympiaenna
olympiahopeaa
olympiakisoissa
olympiakisojen
olympiakomitea
olympiakomitean
olympiakultaa
olympialaiset
olympialaisia
olympialaisiin
olympialaisissa
olympialaisista
olympialaisten
olympiamitalisti
olympiamitalistit
olympian
olympiapronssia
olympiastadionilla
olympiaturnaukseen
olympiavoittaja
olympiavoittajat
olympic
olympics
olympique
om
oma
omaa
omaan
omaava
omaavat
omaela
omaha
omaisuuden
omaisuudesta
omaisuus
omaisuutensa
omaisuutta
omakseen
omaksi
omaksui
omaksuivat
omaksunut
omakustanne
omakuva
omalla
omalle
omalta
oman
omana
omanin
omansa
omapera
omar
omassa
omasta
omat
omega
omena
omia
omiaan
omien
omiin
omiksi
omilla
omille
omin
ominainen
ominaisia
ominaista
ominaisuuden
ominaisuudet
ominaisuuksia
ominaisuuksien
ominaisuuksiin
ominaisuuksiltaan
ominaisuuksista
ominaisuus
ominaisuutta
omissa
omista
omistaa
omistaja
omistajaa
omistajaksi
omistajalle
omistajan
omistajana
omistajat
omistajia
omistajien
omistama
omistaman
omistamansa
omistamassa
omistamia
omistanut
omistautui
omistavat
omistettu
omisti
omistivat
omistukseen
omistukseensa
omistuksessa
omistuksesta
omistus
ompi
on
once
one
ones
ongelma
ongelmaa
ongelmaan
ongelmaksi
ongelman
ongelmana
ongelmat
ongelmia
ongelmien
ongelmiin
ongelmista
onhan
onkin
onko
online
only
onnea
onneksi
onnellinen
onnen
onnensa
onneton
onnettomuuden
onnettomuudessa
onnettomuudesta
onnettomuudet
onnettomuuksia
onnettomuus
onnettomuuteen
onnettomuutta
onni
onnistu
onnistuen
onnistui
onnistuikin
onnistuivat
onnistumatta
onnistuminen
onnistumisen
onnistumisprosentti
onnistuneen
onnistuneena
onnistuneesti
onnistuneet
onnistunut
onnistunutta
onnistuttiin
onnistuttu
onnistuttua
onnistuu
onnistuvat
ono
onpa
ontario
ontarion
ontariossa
oo
oon
oona
ooppera
oopperaa
oopperaan
oopperalaulaja
oopperalaulajat
oopperan
oopperasa
oopperassa
oopperasta
oopperat
oopperoita
oot
op
opas
ope
opel
open
openin
openissa
opera
operaatio
operaatioita
operaation
operaatioon
operaatiossa
operaatiosta
operaatiot
operaatiota
operation
operations
operatorname
operoi
opetetaan
opetettiin
opettaa
opettaja
opettajaa
opettajaksi
opettajan
opettajana
opettajansa
opettajat
opettajia
opettajien
opettamaan
opettanut
opetteli
opetti
opettivat
opetukseen
opetuksen
opetuksessa
opetuksesta
opetukset
opetuksia
opetus
opetusministeri
opetusministerio
opetusta
opetustyo
opin
opinna
opinnot
opinto
opintoihin
opintoja
opintojaan
opintojen
opintojensa
opintomatk
opintomatkoja
opintonsa
opisk
opiskelee
opiskelemaan
opiskeli
opiskelija
opiskelijaa
opiskelijaja
opiskelijan
opiskelijat
opiskelijoiden
opiskelijoille
opiskelijoista
opiskelijoita
opiskella
opiskellessaan
opiskellut
opiskeltuaan
opiskelu
opiskelua
opiskeluaikanaan
opiskelun
opiskeluun
opissa
opisto
opiston
opistossa
opit
oppaassa
oppeja
oppi
oppia
oppien
oppii
oppiin
oppikirja
oppikirjat
oppikirjoja
oppikirjojen
oppilaaksi
oppilaan
oppilaana
oppilaansa
oppilaat
oppilaiden
oppilaille
oppilaista
oppilaita
oppilaitoksen
oppilaitoksessa
oppilaitokset
oppilaitoksissa
oppilaitos
oppilaitosten
oppilas
oppilasma
oppilasta
oppima
oppimaan
oppiminen
oppimisen
oppimista
oppimisympa
oppineet
oppineiden
oppinsa
oppinut
oppivat
oppositio
opposition
oppositioon
ops
optimus
optinen
optio
option
opus
or
ora
orange
oranssi
orava
orchestra
orchestran
order
oregon
oregonin
org
orgaaninen
orgaanisen
orgaaniset
orgaanisia
orgaanisiin
orgaanisten
organ
organic
organisaatio
organisaatioiden
organisaation
organisaatioon
organisaatiossa
organisaatiot
organisaatiota
organisation
organisoi
organization
ori
orientation
origin
original
origins
orimattila
orimattilan
orin
orion
oripa
orivedella
oriveden
orivesi
orja
orjan
orjat
orjia
orjien
orjiksi
orjuuden
orjuus
orkesteri
orkesteria
orkesterille
orkesterin
orkesterinjohtaja
orkesterissa
orlando
orle
orleans
orleansin
ornitologit
oro
orp
orpo
orson
ort
ortiz
ortodokseja
ortodoksi
ortodoksinen
ortodoksiseen
ortodoksisen
ortodoksisessa
ortodoksiset
orvokki
os
osa
osaa
osaaminen
osaamisen
osaamista
osaan
osaavat
osainen
osaka
osakan
osakas
osakassa
osake
osakeyhtio
osakilpailu
osakilpailua
osakilpailuissa
osakilpailun
osakilpailussa
osakilpailut
osakilpailuun
osakkaana
osakkeet
osakkeiden
osakkeista
osakkeita
osakseen
osaksi
osakunnan
osakunta
osalla
osalle
osallisena
osallistu
osallistua
osallistuen
osallistui
osallistuivat
osallistujat
osallistujia
osallistujien
osallistumaan
osallistumasta
osallistuminen
osallistumisen
osallistumisesta
osallistumista
osallistuneen
osallistuneet
osallistuneiden
osallistunut
osallistuu
osallistuvat
osallisuudesta
osalta
osaltaan
osama
osan
osana
osannut
osansa
osaottelut
osapuolen
osapuolet
osapuoli
osapuolten
osasi
osassa
osasta
osasto
osastoa
osastoja
osastojen
osastolla
osastolle
osaston
osastoon
osastopa
osastossa
osastot
osat
osata
osavaltio
osavaltioiden
osavaltioissa
osavaltion
osavaltioon
osavaltiossa
osavaltiosta
osavaltiot
osbourne
osbournen
oscar
oscarin
oseanian
osia
osien
osiin
osin
osio
osion
osiossa
osissa
osista
osittain
osittainen
oskar
oskari
osku
oslo
oslon
oslossa
osmanien
osmanit
osmo
osoite
osoitettiin
osoitettu
osoittaa
osoittamaan
osoittaneet
osoittanut
osoittautui
osoittautuivat
osoittautunut
osoittautuu
osoittavat
osoitteessa
osoitti
osoittivat
osoituksena
osoitus
oss
ossi
ossian
ostaa
ostaja
ostakovits
ostamaan
ostamalla
ostanut
ostettiin
ostettu
ostettua
osti
ostivat
osto
ostoskeskus
osui
osuivat
osuma
osumaa
osumallaan
osuman
osunut
osuu
osuudella
osuuden
osuudesta
osuudet
osuuksia
osuus
osuuskaupan
osuuskauppa
osuuskunnan
osuuskunta
osuusliike
osuutensa
osuutta
oswald
ot
ota
otava
otavan
ote
otella
otellut
otepa
oteta
otetaan
otettaessa
otettava
otettiin
otettu
otettua
otetut
other
othmer
otis
otp
otsa
otsikko
otsikolla
otso
ottaa
ottaen
ottaisi
ottamaan
ottamalla
ottamasta
ottamatta
ottaminen
ottamista
ottaneen
ottaneet
ottanut
ottavat
ottawa
otteeseen
otteet
otteita
ottelemaan
otteli
ottelu
ottelua
otteluaan
otteluakaan
otteluiden
otteluissa
otteluista
otteluita
ottelujen
ottelun
ottelunsa
ottelusarjan
ottelussa
ottelussaan
ottelusta
ottelut
otteluun
otteluvoitoin
otti
ottivat
otto
ottomaanien
otus
ou
oudon
oulu
ouluja
oulujoen
oululainen
oulun
oulunkyla
oulussa
oulusta
ouluun
our
out
outi
outille
outin
outo
outoa
outoja
outokummun
outokumpu
ov
ova
ovat
ovatkin
ovatko
ovea
ovelle
oven
ovensa
over
overline
overview
ovesta
ovet
ovi
ovia
ovidius
ovien
ovin
owat
owen
owens
own
oxford
oxfordin
oxfordissa
oy
oyj
oz
ozzy
p
pa
paalupaikalle
paalupaikalta
paalupaikan
paalupaikka
paalupaikkaa
paananen
paasikiven
paasikivi
paasilinna
paasonen
paavali
paavalin
paavi
paaviksi
paavilainen
paavin
paavina
paavit
paavo
paavola
paavolainen
pablo
pac
pacific
pack
padasjoen
padon
padot
paenneet
paennut
paeta
page
pages
paha
pahaa
pahaksi
pahan
pahasta
pahasti
pahat
pahimmillaan
pahin
pahoin
pahoinpitelysta
pahoja
paholainen
paholaisen
pahuuden
pai
paidan
paidassa
paikaksi
paikalla
paikallaan
paikalle
paikalleen
paikallinen
paikalliseen
paikallisen
paikallisessa
paikallisesta
paikallisesti
paikalliset
paikallishallinnon
paikallisia
paikallisiin
paikallisille
paikallisissa
paikallisista
paikallislehti
paikallispa
paikallista
paikallisten
paikallisvastustaja
paikalta
paikan
paikassa
paikasta
paikat
paikka
paikkaa
paikkaamaan
paikkaan
paikkaansa
paikkainen
paikkakunnalla
paikkakunnalle
paikkakunnan
paikkakunnat
paikkakunnilla
paikkakunta
paikkana
paikkansa
paikkeilla
paikkoihin
paikkoja
paikkojen
paikoilla
paikoillaan
paikoille
paikoilleen
paikoin
paikoissa
paikoista
paikoitellen
paimen
paimion
pain
painaa
painajainen
painamalla
painava
painavat
paine
paineen
paineessa
painetaan
painetta
painettiin
painettu
paini
painija
painijat
painin
painissa
paino
painoa
painoi
painoksen
painoksessa
painoksesta
painokset
painoksia
painoluokassa
painon
painonnostaja
painonnostajat
painonnosto
painopiste
painopisteen
painos
painosta
painosti
painostuksen
painostuksesta
painottaa
painotti
painottuu
painovoima
painovoiman
paint
paistaa
paita
paitaan
paitsi
paja
pajukallio
pajunen
pak
pakarinen
pakenee
pakenemaan
pakenevat
pakeni
pakenivat
paketin
paketti
pakilan
pakinoita
pakinoitsija
pakistan
pakistaniin
pakistanin
pakistanissa
pakkala
pakkanen
pakkasen
pakkaus
pakko
pakkolaskun
pakkotyo
pako
pakolaiset
pakolaisia
pakolaisten
pakollinen
pakollista
pakoon
pakotettiin
pakotettu
pakottaa
pakotti
pakottivat
paksu
paksun
paksut
paksuus
pal
pala
palaa
palaamaan
palaamassa
palaavan
palaavansa
palaavat
palace
palais
palaisi
palamaan
palander
palanneet
palannut
palanut
palasi
palasivat
palat
palata
palaten
palatessa
palatessaan
palatsi
palatsia
palatsiin
palatsin
palatsissa
palattiin
palattua
palattuaan
palautetta
palautettiin
palautettu
palauttaa
palauttamaan
palauttaminen
palauttamista
palautti
palautui
palautuu
palava
palavan
palazzo
pale
palestiinaan
palestiinalaisten
palestiinan
palestiinassa
paljain
paljastaa
paljastanut
paljastettiin
paljastettu
paljasti
paljastui
paljastunut
paljastuu
paljo
paljoa
paljoakaan
paljolti
paljon
palkan
palkat
palkata
palkattiin
palkattu
palkinnoksi
palkinnolla
palkinnon
palkinnot
palkinto
palkintoa
palkintogaalassa
palkintoja
palkintojen
palkintokorokkeelle
palkintoon
palkintosijaa
palkitsi
palkittiin
palkittu
palkitut
palkka
palkkaa
palkkasi
palkkio
palkkioksi
palkkion
pallas
pallo
palloa
palloilija
palloilijat
pallokerho
pallokerhon
pallokerhoon
palloliiton
palloliitto
pallomainen
pallon
pallonlyo
pallonpuoliskolla
pallonpuoliskon
palloon
palloseura
palloseuraa
palloseuraan
palloseuran
palloseurassa
pallossa
palm
palma
palme
palmer
palmgren
palmroth
palmu
palmun
palmuo
palo
paloa
paloasema
paloheimo
paloi
paloja
palokunta
palola
paloma
palon
palossa
palpatine
palpatinen
palsta
paltamon
paluu
paluumatkalla
paluun
paluunsa
paluusta
paluuta
paluutaan
palv
palvelee
palvelemaan
palvelevat
palveli
palvelija
palvelivat
palvella
palvelleet
palvellut
palvelu
palvelua
palveluiden
palveluihin
palveluista
palveluita
palveluja
palvelujen
palvelukseen
palveluksen
palveluksessa
palveluksesta
palvelun
palvelus
palveluska
palvelussa
palvelusta
palvelut
palveluun
pam
pamela
pan
panagi
panama
panaman
panamassa
panda
pandemian
panee
pani
panic
panimo
panimon
pankin
pankinjohtaja
pankissa
pankit
pankki
pankkien
pankkiiri
panna
pannaan
pannut
panorama
panoramio
panos
panostaa
panssaridivisioona
panssarivaunu
panssarivaunua
panssarivaunuja
panssarivaunujen
panssarivaunut
panssarointi
panther
panthers
panthersin
pantiin
pantu
panu
panzer
paolo
papa
paper
paperi
paperia
paperille
paperin
paperit
paperitehdas
paperitehtaan
papers
papiksi
papin
papisto
papiston
papit
pappa
pappeja
pappi
pappia
pappien
pappila
pappilan
pappina
pappissa
papua
par
para
parade
paradise
paraguay
paraguayn
paraisten
paramount
paranee
parani
paranivat
paranneltu
parannettiin
parannettu
parannuksia
paransi
parantaa
parantamaan
parantaminen
parantamiseen
parantamiseksi
parantavat
parantunut
paras
parasta
paratiisi
paratiisin
parc
pareittain
paremmaksi
paremman
paremmat
paremmin
parempaa
parempaan
parempana
parempi
parempia
parhaaksi
parhaalla
parhaalle
parhaan
parhaana
parhaansa
parhaasta
parhaat
parhaiden
parhaillaan
parhaimmaksi
parhaimman
parhaimmillaan
parhaimmista
parhain
parhaista
parhaita
parhaiten
pari
paria
parien
pariin
pariisi
pariisiin
pariisin
pariisissa
pariisista
parikka
parikkalan
pariksi
parikymmenta
parilla
parin
parina
parinaan
parinsa
paris
parish
pariskunnalla
pariskunnan
pariskunta
parisprintissa
parissa
parista
parit
park
parkanon
parker
parkerin
parkin
parkinsonin
parkissa
parkkinen
parks
parlamentin
parlamentissa
parlamentti
parlamenttiin
parlamenttivaaleissa
parlamenttivaalit
parliament
parnasso
parodia
paroni
parsons
part
parta
partaalla
partaalle
partanen
partial
partio
partners
parturi
party
parviainen
pas
pasanen
pasasen
pascal
pasi
pasila
pasilan
pass
passi
passin
passion
past
pastori
pasuuna
pat
pataljoona
pataljoonaa
pataljoonaan
pataljoonan
pate
patentin
patentoi
patentti
path
pato
patoja
patria
patriarkka
patrice
patricia
patrick
patrik
patruuna
patruunan
patsaan
patsaat
patsaita
patsas
patsasta
patteri
patterin
patteristo
patteriston
patterson
patti
patton
paul
paula
pauli
pauliina
paulin
pauline
paulo
paulon
paulus
pausanias
pave
pavel
paviljonki
pay
payne
pays
paz
pc
pci
pdf
pe
pea
peace
peak
pearl
pearson
pedagogi
pedersen
pederso
pedon
pedro
peer
peggy
pehkonen
pehmea
pehr
peili
peilin
peipsija
peitetty
peitossa
peitsamo
peitsamon
peitta
peitti
pekan
peking
pekingin
pekingissa
pekka
pekkala
pekkanen
pekkarinen
pela
pelaa
pelaaja
pelaajaa
pelaajakortti
pelaajaksi
pelaajalla
pelaajalle
pelaajan
pelaajana
pelaajaprofiili
pelaajasta
pelaajat
pelaajatilastot
pelaajaura
pelaajaurallaan
pelaajauran
pelaajauransa
pelaajia
pelaajien
pelaajille
pelaajista
pelaamaan
pelaamalla
pelaamassa
pelaamassaan
pelaamatta
pelaaminen
pelaamiseen
pelaamisen
pelaamissaan
pelaamista
pelaava
pelaavaa
pelaavaan
pelaavan
pelaavat
pelanneen
pelanneeseen
pelanneet
pelannut
pelannutta
pelasi
pelasivat
pelastaa
pelastaakseen
pelastamaan
pelastettua
pelasti
pelastivat
pelastui
pelastus
pelata
pelataan
pelaten
pelatessa
pelatessaan
pelattava
pelattavana
pelattiin
pelattu
pelattuaan
pelatun
pelatussa
pelatut
pele
peleihin
peleissa
peleista
peleja
peli
pelia
peliaika
peliaikaa
peliajalla
peliajan
pelicans
pelicansia
pelicansin
pelien
peliin
pelikiellon
peliksi
pelille
pelin
pelina
pelinrakentaja
pelinsa
pelipaikaltaan
pelipaikka
pelipaikkansa
pelisarja
pelisarjan
pelisarjassa
pelissa
pelista
pelit
pelityyli
peliuransa
pelka
pelkista
pelkka
pelkkia
pelko
pelkoa
pelkonen
pelle
pellervo
pellon
pellonpa
pellot
pelon
peloponnesoksen
peloponnesolaissodan
peloponnesolaissota
pelossa
pelto
peltoa
peltoja
peltojen
peltola
peltomaata
peltonen
peltosen
pembroke
pen
penelope
penguin
penguins
penguinsin
penhamina
penhaminaan
penhaminan
penhaminassa
penn
pennanen
pennin
pennsylvania
pennsylvanian
pennsylvaniassa
penny
pensaita
pensas
pentika
pentium
pentti
penttila
penttinen
people
pepe
pepper
peppi
per
pera
percy
perehtyi
perehtynyt
pereira
perfect
performance
perhe
perheelle
perheelleen
perheen
perheenja
perheensa
perheeseen
perheessa
perheesta
perheet
perheiden
perheineen
perheita
perhetta
perheva
perho
perhonen
perhoset
perhosten
perhosuinnissa
peri
peria
periaate
periaatetta
periaatteella
periaatteen
periaatteessa
periaatteet
periaatteiden
periaatteita
perija
periksi
perilla
perille
perillinen
perima
perimma
perin
perinne
perinnetta
perinno
perinteen
perinteeseen
perinteessa
perinteesta
perinteet
perinteiden
perinteinen
perinteiseen
perinteisella
perinteisen
perinteisessa
perinteisesta
perinteisesti
perinteiset
perinteisia
perinteisiin
perinteisista
perinteista
perinteisten
perinteita
perinto
perinyt
period
periytyva
periytyy
perjantai
perjantain
perjantaina
perkins
perkussiot
permannolla
permin
pernio
pero
perry
perseus
persia
persiaa
persialainen
persialaiset
persialaisia
persialaisten
persian
persianlahden
persiassa
person
persona
personal
persoona
persoonallisuuden
persoonallisuus
persoonan
persson
pertti
perttu
perttunen
peru
perua
perui
perulainen
perumaan
perun
peruna
perunan
perus
peruskartassa
peruskorjattiin
peruskorjauksen
peruskorjaus
peruskoulu
peruskoulun
peruskoulut
perussa
perussuomalaiset
perussuomalaisten
perusta
perustaa
perustaja
perustajaja
perustajan
perustajana
perustajat
perustajia
perustajista
perustama
perustamaan
perustamalla
perustaman
perustamansa
perustamassa
perustaminen
perustamiseen
perustamiseksi
perustamisen
perustamisessa
perustamisesta
perustamista
perustan
perustana
perustaneet
perustanut
perustava
perusteella
perusteellisesti
perusteena
perusteet
perustein
perusteita
perusteli
perustella
perusteltiin
perusteltu
perustelut
perustetaan
perustettaessa
perustettiin
perustettu
perustettua
perustettuun
perustetun
perustetussa
perustetusta
perustetut
perusti
perustivat
perustu
perustua
perustuen
perustui
perustuivat
perustunut
perustuslaillinen
perustuslain
perustuslaissa
perustuslaki
perustuslakia
perustuslakiin
perustutkinto
perustuu
perustuva
perustuvaa
perustuvan
perustuvassa
perustuvat
perustuvia
peruttiin
peruutettiin
peruutti
pesa
pesii
pesima
pesinta
pesis
pesiva
pesonen
pesta
pesti
pestin
pet
peta
pete
peter
peterin
peters
petersen
peterson
petit
peto
petoela
petr
petra
petri
petro
petroskoi
petroskoin
petrov
petrovic
petrus
pets
petsamo
petsamon
petta
petter
petteri
pettersson
petti
pettymykseksi
pettymys
pettynyt
peugeot
peura
pez
pg
pga
ph
phane
phantom
phase
pherobase
phi
phil
philadelphia
philadelphian
philadelphiassa
philip
philipp
philippe
philips
phillip
phillips
philosophical
philosophy
phoebe
phoenix
phone
photo
php
phyllanthus
phylogeny
physical
physics
phytochemical
pi
pia
pian
pianisti
pianistina
pianistit
piano
pianoa
pianokonsertto
pianolle
pianon
pianonsoiton
pianonsoittoa
piazza
picasso
pick
picture
pictures
picturesin
pida
pidemma
pidempa
pidempi
pidempia
pidennettiin
pidenta
pideta
pidetta
pidettiin
pidetty
pidettya
pidettyja
pidettyjen
pidettyyn
pidetyissa
pidetyn
pidetyssa
pidetyt
pidon
pidosta
pidot
pie
piece
pieksa
pielaveden
pieleen
pielisja
piemonten
pien
pieneen
pienehko
pieneksi
pienella
pienelle
pienemma
pienemmiksi
pienemmissa
pienempa
pienempi
pienempia
pienempien
pienempiin
pienen
pienena
pienenee
pieneneva
pieneni
pienenta
pienentynyt
pienessa
pienesta
pienet
pieni
pienia
pieniin
pienikokoinen
pienikokoisia
pieniksi
pienilla
pienille
pienimma
pienimuotoista
pienin
pienina
pienissa
pienista
pienois
pienoiskiva
pienoiskuva
pienta
pientaajamat
pientaajamia
pientaajamista
pienten
pienviljelija
pierce
piero
pierre
pietari
pietariin
pietarin
pietarissa
pietarista
pietarsaaren
pietarsaaressa
pietarsaari
pieter
pietika
pietila
pietro
piha
pihalla
pihalle
pihan
pihkala
pihkovan
pihlaja
pihlajama
pihlajaveden
pihtiputaan
pii
piikit
piikkeja
piikkio
piiloon
piilossa
piilotettu
piima
piin
piipun
piirainen
piireihin
piireissa
piireista
piireja
piiri
piiria
piirien
piiriin
piirija
piirikunnan
piirikunnassa
piirikunnasta
piirikunnat
piirikunnista
piirikunta
piirikuntaan
piirikuntatason
piirikuntiin
piirila
piirin
piirissa
piirista
piirit
piiritta
piiritti
piirittiva
piirityksen
piiritys
piirre
piirreta
piirretty
piirrokset
piirroksia
piirros
piirrossarjat
piirsi
piirta
piirteet
piirtein
piirteita
piirustukset
piirustuksia
piirustuskoulussa
piirustusten
piispa
piispaksi
piispan
piispana
piispanistuin
piispat
piispojen
pik
pika
pikaisesti
pikajuoksija
pikajuoksijat
pikakilpailussa
pikaluistelija
pikaluistelijat
pikaluistelu
pikaluistelun
pikemmin
pikemminkin
pikkarainen
pikku
pikkuhiljaa
pikkuja
pikkuplaneetoista
pikkuplaneetta
pikkusisko
pikkuveli
pilapiirta
pilot
pilven
pilvenpiirta
pilvet
pilvi
pilvia
pilvien
pimea
pimeyden
pimeys
pimitaltaan
pimitta
pimurron
pimurto
pimurtonsa
pin
pina
pine
ping
pingin
pingissa
pings
pink
pinkka
pinnalla
pinnalle
pinnalta
pinnan
pinnassa
pinnasta
pinnat
pinta
pintaa
pintaan
pinto
pinus
pinyin
pio
pioneer
pioneeri
pioneerikomppaniaan
piper
piquet
pirate
pirates
pireuksen
pirinen
pirjo
pirkanmaalla
pirkanmaan
pirkka
pirkkala
pirkkalan
pirkko
pirttija
piru
pisimma
pisimpa
pisin
pispalan
pista
piste
pisteella
pisteen
pisteensa
pisteeseen
pisteessa
pisteesta
pisteet
pisteiden
pisteilla
pisteille
pistein
pisteissa
pisteita
pistekilpailun
pistema
pistemies
pistepo
pistetta
pisti
pistooli
pit
pita
pitchfork
pitemma
pitempa
pitempi
piti
pitiva
pitka
pitkia
pitkien
pitkiin
pitkiksi
pitkilla
pitkin
pitkista
pitkitta
pito
pitoisuudet
pitoisuus
pitoon
pitt
pittsburgh
pituinen
pituiseksi
pituisen
pituisia
pituudeksi
pituudeltaan
pituuden
pituudesta
pituudet
pituus
pituushyppa
pituushyppy
pituushypyn
pituushypyssa
pituutta
pius
pizza
pj
pjotr
pk
pl
pla
place
places
plan
planck
planckin
planeetalla
planeetalle
planeetan
planeetat
planeetta
planeettaa
planeettoja
planeettojen
planet
planets
plant
plants
plastic
platina
platinaa
platinum
plato
platon
platonin
play
playboy
player
players
playing
playoff
plays
playstation
plaza
please
plia
plinius
plo
plots
plus
plutarkhoksen
plutarkhos
pluto
plymouth
plzen
pm
pmatrix
pmmp
png
po
pocket
podcast
poe
poems
poetry
pohja
pohjaa
pohjaan
pohjainen
pohjaiset
pohjalainen
pohjalaisia
pohjalla
pohjalle
pohjalta
pohjan
pohjana
pohjanlahden
pohjanmaa
pohjanmaalla
pohjanmaalle
pohjanmaalta
pohjanmaan
pohjanmeren
pohjanta
pohjassa
pohjasta
pohjautui
pohjautuu
pohjautuva
pohjautuvan
pohjautuvat
pohjava
pohjimmiltaan
pohjoinen
pohjois
pohjoiseen
pohjoisella
pohjoisempana
pohjoisen
pohjoisessa
pohjoisesta
pohjoiset
pohjoisin
pohjoismaiden
pohjoismainen
pohjoismaisen
pohjoismaiset
pohjoismaissa
pohjoismaista
pohjoisosa
pohjoisosaan
pohjoisosan
pohjoisosassa
pohjoisosat
pohjoisosien
pohjoisosiin
pohjoisosissa
pohjoispa
pohjoispuolella
pohjoispuolelle
pohjoispuolelta
pohjoisrannalla
pohjoisrannikolla
pohjoista
pohjoisten
pohjola
pohjolan
pohjolassa
pohjonen
pohti
pohtii
pohtimaan
poika
poikaa
poikaansa
poikaba
poikana
poikanen
poikani
poikansa
poikaset
poikasia
poikasta
poikasten
poikaysta
poiketa
poiketen
poikia
poikien
poikittain
poikkeaa
poikkeava
poikkeavaa
poikkeavat
poikkeavia
poikkesi
poikkesivat
poikkeuksellinen
poikkeuksellisen
poikkeuksellisesti
poikkeuksellista
poikkeuksen
poikkeuksena
poikkeuksetta
poikkeuksia
poikkeus
poikki
point
poirot
pois
poison
poispa
poissa
poistaa
poistamaan
poistamalla
poistaminen
poistamiseksi
poistamista
poistetaan
poistettiin
poistettu
poisti
poisto
poistua
poistui
poistuivat
poistumaan
poistuneet
poistunut
poistuttua
poistuu
poistuvat
pojaksi
pojalle
pojalleen
pojan
pojanpoika
pojasta
pojastaan
pojat
pojille
pojista
poke
poker
pokeriammattilainen
poko
pol
poland
polar
polaris
pole
poli
police
policy
poliiseja
poliisi
poliisia
poliisien
poliisilaitoksen
poliisilaitos
poliisille
poliisin
poliisipa
poliisit
poliitikko
poliitikkoja
poliitikkojen
poliitikot
poliittinen
poliittiseen
poliittiseksi
poliittisen
poliittisena
poliittisessa
poliittisesta
poliittisesti
poliittiset
poliittisia
poliittisiin
poliittisista
poliittista
poliittisten
polin
polis
political
politics
politiikan
politiikassa
politiikasta
politiikka
politiikkaa
politiikkaan
polku
polkuja
polkupyo
polo
polska
poltettiin
poltettu
polttaa
poltti
polttivat
poltto
polttoaine
polttoaineen
polttoaineena
polttoaineiden
polttoainesa
polttoainetta
polttova
polun
polven
polvensa
polveutuu
polveutuvat
polvi
polvija
polvivamman
poly
polydor
pommeja
pommerin
pommi
pommia
pommikone
pommikoneet
pommin
pommitti
pommittivat
pommitukset
pommituksissa
pommitusten
pomo
pont
pontus
pony
pool
poor
pop
pope
popeda
popin
poplaulaja
popp
populaarikulttuurissa
populaarimusiikin
populaatio
populaation
popular
population
popyhtyeet
por
pori
poriin
porin
porissa
porkkalan
pormestari
pormestariksi
pormestarin
pormestarina
pormestarit
pornona
porsche
port
portaali
portaalin
portaat
portable
portaita
portal
porte
porter
portin
portit
portland
porto
portrait
portsmouthiin
portsmouthin
portsmouthissa
portti
porttia
portugal
portugali
portugalia
portugaliin
portugalilainen
portugalilaiset
portugalilaisten
portugalin
portugalissa
porvarissa
porvariston
porvoo
porvoon
porvooseen
porvoossa
poseidon
poseidonin
positiivinen
positiivisen
positiivisesti
positiivisia
positiivista
position
posse
post
posti
postia
postimerkki
postin
postuumisti
pot
potentiaali
potilaalle
potilaan
potilaat
potilaiden
potilailla
potilaista
potilaita
potilas
potilasta
potkut
potter
potterin
pour
poutiainen
powell
powellin
power
powers
poznan
pp
ppa
ppenin
ppi
ppila
pr
pra
practice
pradeshin
praha
prahaan
prahan
prahassa
pratt
prayer
pre
predator
predators
predatorsin
prefektuuri
prefektuuriin
prefektuurin
prefektuurissa
prefektuurit
prefektuuritason
premier
premium
present
presents
president
presidential
presidentiksi
presidentille
presidentin
presidentinvaaleihin
presidentinvaaleissa
presidentinvaalien
presidentinvaalissa
presidentinvaalit
presidentit
presidentti
presidenttia
presidenttiehdokas
presidenttiehdokkaaksi
presidenttien
presidenttina
presley
presleyn
press
preston
pretty
preussi
preussin
pri
price
pride
priest
prikaati
prikaatikenraali
prikaatin
prima
prime
primen
primera
primetime
primus
prince
princess
princeton
princetonin
principles
prinsessa
prinsessan
prinssi
prinssin
print
prisma
private
prix
prize
pro
problem
problems
process
procope
product
production
productions
productionsin
products
prof
profeetan
profeetta
professional
professor
professori
professoriksi
professorin
professorina
professorit
profiili
profile
program
programme
progress
progressiivisen
progressiivista
project
projekt
projekteja
projekti
projektia
projektiin
projektin
projektio
projektissa
projektista
projektit
proletariaatin
prologin
prometheus
promo
promootio
promoottori
pronssi
pronssia
pronssiin
pronssikaudella
pronssikauden
pronssille
pronssimitalin
pronssin
pronssinen
pronssiottelu
pronssiottelussa
pronssista
proosaa
propaganda
propagandaa
propagandan
properties
prosentilla
prosentin
prosentissa
prosentista
prosentti
prosenttia
prosenttiin
prosenttisesti
prosesseja
prosessi
prosessia
prosessien
prosessin
prosessissa
prosessit
prosessori
prospects
prost
protagonisti
protagonistin
protection
proteiineja
proteiini
proteiinia
proteiinien
proteiinin
proteiinit
protestantteja
protestanttien
protocol
protokoll
proton
protonin
prototyypin
prototyyppi
provence
providence
provinssi
provinssia
provinssien
provinssiin
provinssin
provinssissa
provinssit
prunus
ps
psa
pseudo
psg
psi
psv
psycho
psychology
psykiatri
psykiatrian
psykoanalyysin
psykologi
psykologia
psykologiaa
psykologian
psykologinen
pt
ptolemaioksen
ptolemaios
pts
pu
pub
pubchem
public
publications
published
publishers
publishing
puccini
puccinin
pudasja
pudonneen
pudonnut
pudota
pudotettiin
pudottaa
pudotti
pudottua
pudotus
pudotuspeleihin
pudotuspeleissa
pudotuspelien
pudotuspeliottelua
pudotuspeliottelussa
pudotuspelit
pudotusta
puerto
puh
puhakka
puhaltaa
puhdas
puhdasta
puhdistaa
puhdistus
puhe
puheen
puheenjohtaja
puheenjohtajaksi
puheenjohtajan
puheenjohtajana
puheenjohtajat
puheensa
puheessa
puheessaan
puheet
puheita
puhekielessa
puhelimen
puhelimessa
puhelin
puhelina
puhelun
puhemieheksi
puhemiehen
puhemiehena
puhemies
puhetta
puhjettua
puhkesi
puhtaaksi
puhtaan
puhtaana
puhtaasti
puhu
puhua
puhui
puhuivat
puhuja
puhujaa
puhujana
puhujat
puhujia
puhuma
puhumaan
puhunut
puhutaan
puhuttaessa
puhuttiin
puhuttu
puhuu
puhuva
puhuvat
puiden
puijon
puinen
puisen
puiset
puisia
puissa
puista
puisto
puistoa
puistoissa
puiston
puistoon
puistossa
puistot
puita
puitteissa
pujottelu
pujottelun
pujottelussa
pukeutuneena
pukeutunut
pukeutuu
puki
pukki
puku
pula
pulaa
pulitzer
pulkkinen
pulli
pulliainen
pullo
pulp
puna
punainen
punaiseen
punaiseksi
punaisella
punaisen
punaisessa
punaisesta
punaiset
punaisia
punaista
punaisten
punakaartin
punaruskea
punch
punertava
punk
punkin
punnalla
punnan
punta
puntaa
puola
puolaa
puolaan
puolalainen
puolalaisen
puolalaiset
puolalaisia
puolalaisten
puolalle
puolan
puolassa
puolasta
puoleen
puoleensa
puoleinen
puoleksi
puolella
puolelle
puolelleen
puolelta
puolen
puolena
puolensa
puolentoista
puolessa
puolessava
puolesta
puolestaan
puolet
puoli
puolia
puoliajalla
puoliintumisaika
puoliksi
puolilla
puolille
puolilta
puolin
puolinen
puolisen
puoliskolla
puoliskon
puoliso
puolison
puolisonsa
puolisot
puolitoista
puolitse
puoliva
puolta
puolue
puolueeksi
puolueella
puolueelle
puolueen
puolueensa
puolueeseen
puolueessa
puolueesta
puolueet
puolueeton
puolueiden
puolueista
puolueita
puoluejohtaja
puoluekokouksessa
puoluekokous
puoluesihteeri
puoluetta
puolustaa
puolustaja
puolustajaksi
puolustajan
puolustajana
puolustajat
puolustajia
puolustajien
puolustamaan
puolustanut
puolustava
puolusti
puolustivat
puolustukseen
puolustuksen
puolustus
puolustusministeri
puolustusministerio
puolustusta
puolustusvoimain
puolustusvoimat
puolustusvoimien
puolustusvoimissa
pure
purettiin
purettu
purje
purjehdus
purjehti
purjehtija
purjehtivat
purkaa
purkamaan
purkaminen
purkamista
purkauksen
purkaus
purkautui
purkautuu
purki
purkivat
puro
puron
purple
purplen
pus
push
put
putin
putinin
putkeen
putken
putki
putoaa
putoaminen
putoamiseen
putoamisen
putoavat
putosi
putosivat
putous
puu
puuhun
puukirkko
puulaveden
puun
puupa
puusepa
puuseppa
puussa
puusta
puustinen
puut
puuta
puutarha
puutarhaan
puutarhan
puutarhassa
puutarhat
puutarhoissa
puutarhuri
puutavara
puutavaraa
puutavaran
puute
puutetta
puutteen
puutteessa
puutteesta
puutteita
puuttua
puuttuessa
puuttui
puuttuivat
puuttuminen
puuttunut
puuttuu
puuttuvat
puuvilla
puuvillaa
puvun
puvussa
pv
px
py
pyeongchangin
pyha
pyhia
pyhien
pyhimykset
pyhimys
pyhitetty
pyhitta
pyhta
pyka
pyla
pylkka
pylva
pyo
pyramid
pyramidi
pyramidin
pyre
pyreneiden
pyrinno
pyrinto
pyrita
pyrittiin
pyritty
pyrki
pyrkia
pyrkien
pyrkiessa
pyrkii
pyrkimyksena
pyrkimyksia
pyrkimys
pyrkimysta
pyrkineet
pyrkinyt
pyrkiva
pyrsto
pyry
pysa
pysty
pystya
pystyi
pystyisi
pystyiva
pystyneet
pystynyt
pystyssa
pystyta
pystytettiin
pystytetty
pystytta
pystytti
pystyttiin
pystytty
pystyva
pystyy
pystyyn
pysya
pysyi
pysyisi
pysyiva
pysyma
pysynyt
pysytteli
pysyva
pysyvia
pysyy
pythagoraan
python
pyyda
pyydeta
pyydettiin
pyydysta
pyykko
pyynikin
pyynno
pyynto
pyysi
pyysiva
pyyta
q
qaidan
qatar
qatarin
qi
qin
qing
qmjhl
qquad
qt
quad
quality
quan
quantum
quartet
que
quebec
quebecin
queen
queenin
queens
quentin
quercus
quest
qui
quick
quiet
quinn
quintus
r
ra
raa
raahe
raahen
raajat
raaka
raakao
raamattu
raamattua
raamattuun
raamatun
raamatunka
raamatussa
raamatusta
raaseporin
raatihuone
raatikainen
rabbi
rabbit
race
rachel
rachelin
racing
racingin
radalla
radalle
radalta
radan
radasta
radat
radikaali
radikaalin
radikaalisti
radio
radioamato
radioasema
radioasemat
radiola
radion
radiossa
radiotoimittaja
radoilla
rae
raf
rafael
rage
ragnar
raha
rahaa
rahalla
rahama
rahan
rahansa
rahasta
rahasto
rahaston
rahat
rahayksikko
rahayksiko
rahman
rahoilla
rahoittaa
rahoitti
rahoituksen
rahoituksesta
rahoitus
rahoitusta
rahoja
rahojen
rahtia
rai
raid
raidat
raide
raiden
raija
rail
raili
railroad
railway
raimo
rain
rainbow
rainer
rainio
raion
raisio
raision
raita
raitio
raitoja
raittila
raittinen
raittiuden
raivattu
raivio
raivoissaan
raja
rajaa
rajala
rajalla
rajalle
rajallinen
rajalta
rajama
rajan
rajana
rajasta
rajat
rajaton
rajattu
rajautuu
rajavartiolaitoksen
rajavartioston
rajoilla
rajoitettiin
rajoitettu
rajoitetun
rajoittaa
rajoittamaan
rajoittavat
rajoitti
rajoittui
rajoittuu
rajoitukset
rajoituksia
rajoja
rajojen
raju
rajusti
rak
rakas
rakasta
rakastaa
rakastaja
rakastajatar
rakastan
rakastavansa
rakastettu
rakasti
rakastui
rakastunut
rakastuu
rakenne
rakennelma
rakennelmat
rakennelmia
rakennetaan
rakennetta
rakennettiin
rakennettu
rakennettua
rakennettuja
rakennettuun
rakennetuista
rakennetun
rakennetussa
rakennetusta
rakennetut
rakennukseen
rakennuksen
rakennuksessa
rakennuksesta
rakennukset
rakennuksia
rakennuksiin
rakennuksissa
rakennuksista
rakennus
rakennusalan
rakennuskanta
rakennusmestari
rakennusta
rakennusten
rakennusto
rakennustyo
rakennuttaa
rakennuttama
rakennutti
rakennuttivat
rakensi
rakensivat
rakentaa
rakentaja
rakentama
rakentamaan
rakentamalla
rakentaminen
rakentamiseen
rakentamiseksi
rakentamisen
rakentamisessa
rakentamisesta
rakentamista
rakentanut
rakentavat
rakenteeltaan
rakenteen
rakenteeseen
rakenteessa
rakenteesta
rakenteet
rakenteiden
rakenteilla
rakenteita
rakentuu
raketin
raketti
rakkauden
rakkaudesta
rakkaus
rakkautensa
rakkautta
ralf
ralli
rallia
ralliautoilija
rallin
rallissa
rally
ralph
ram
rama
rambo
rami
ramo
ramone
ramos
ramsay
ramses
ramsey
ramstedt
ran
rand
randall
random
randy
rangaista
rangaistukseksi
rangaistuksen
rangaistuksena
rangaistukset
rangaistuksia
rangaistus
rangaistuspotkukilpailussa
rangaistusta
rangan
rangattomat
rangattomia
range
ranger
rangereiden
rangerin
rangerit
rangers
rangersiin
rangersin
rangersissa
ranking
rankingissa
rannalla
rannalle
rannalta
rannan
rannassa
rannasta
rannat
rannikko
rannikkoa
rannikkotykisto
rannikoilla
rannikolla
rannikolle
rannikolta
rannikon
rannikosta
rannoilla
rannoille
ransk
ranska
ranskaa
ranskaan
ranskaksi
ranskalainen
ranskalais
ranskalaiseen
ranskalaisen
ranskalaisessa
ranskalaisesta
ranskalaiset
ranskalaisia
ranskalaista
ranskalaisten
ranskalle
ranskan
ranskankielinen
ranskassa
ranskasta
ranta
rantaa
rantaan
rantala
rantanen
rantasalmen
rantautui
rantaviiva
rantaviivaa
rantaviivan
rantoja
rantojen
ranuan
raoul
rap
raphael
rapid
rapids
raportin
raportissa
raportoi
raportoitiin
raportoitu
raportteja
raportti
rard
rare
ras
rask
raskaaksi
raskaan
raskaana
raskaansarjan
raskaassa
raskaasti
raskaat
raskaiden
raskaita
raskas
raskasta
raskauden
raskaus
rasmus
rasmussen
rasva
rasvaa
rat
rata
rataa
ratamoottoripyo
rataosalla
rataosuus
ratapyo
rataverkon
ratchet
ration
ratkaisee
ratkaisemaan
ratkaisemiseksi
ratkaiseva
ratkaisevan
ratkaisevassa
ratkaisevasti
ratkaisi
ratkaista
ratkaistaan
ratkaistiin
ratkaisu
ratkaisua
ratkaisuja
ratkaisuksi
ratkaisun
ratkaisuna
ratkaisut
ratkaisuun
ratkesi
ratoja
ratojen
ratsastaa
ratsastaja
ratsastajat
ratsastus
ratsuva
rattus
rau
raudan
rauha
rauhaa
rauhaan
rauhala
rauhallinen
rauhallisesti
rauhallista
rauhan
rauhanpalkinnon
rauhanpalkinto
rauhansopimuksen
rauhansopimuksessa
rauhansopimus
rauhanyhdistys
rauhassa
rauhasta
rauhoitettu
raukka
raul
rauli
rauma
raumalla
rauman
rauni
raunio
raunioita
[...]
