!
"
#
##a
##aa
##ab
##ac
##ad
##ae
##af
##ag
##ah
##ai
##aj
##ak
##al
##am
##an
##ao
##ap
##aq
##ar
##as
##at
##au
##av
##aw
##ax
##ay
##az
##b
##ba
##bb
##bc
##bd
##be
##bf
##bg
##bh
##bi
##bj
##bk
##bl
##bm
##bn
##bo
##bp
##bq
##br
##bs
##bt
##bu
##bv
##bw
##bx
##by
##bz
##c
##ca
##cb
##cc
##cd
##ce
##cf
##cg
##ch
##ci
##cj
##ck
##cl
##cm
##cn
##co
##cp
##cq
##cr
##cs
##ct
##cu
##cv
##cw
##cx
##cy
##cz
##d
##da
##db
##dc
##dd
##de
##df
##dg
##dh
##di
##dj
##dk
##dl
##dm
##dn
##do
##dp
##dq
##dr
##ds
##dt
##du
##dv
##dw
##dx
##dy
##dz
##e
##ea
##eb
##ec
##ed
##ee
##ef
##eg
##eh
##ei
##ej
##ek
##el
##em
##en
##eo
##ep
##eq
##er
##es
##et
##eu
##ev
##ew
##ex
##ey
##ez
##f
##fa
##fb
##fc
##fd
##fe
##ff
##fg
##fh
##fi
##fj
##fk
##fl
##fm
##fn
##fo
##fp
##fq
##fr
##fs
##ft
##fu
##fv
##fw
##fx
##fy
##fz
##g
##ga
##gb
##gc
##gd
##ge
##gf
##gg
##gh
##gi
##gj
##gk
##gl
##gm
##gn
##go
##gp
##gq
##gr
##gs
##gt
##gu
##gv
##gw
##gx
##gy
##gz
##h
##ha
##hb
##hc
##hd
##he
##hf
##hg
##hh
##hi
##hj
##hk
##hl
##hm
##hn
##ho
##hp
##hq
##hr
##hs
##ht
##hu
##hv
##hw
##hx
##hy
##hz
##i
##ia
##ib
##ic
##id
##ie
##if
##ig
##ih
##ii
##ij
##ik
##il
##im
##in
##io
##ip
##iq
##ir
##is
##it
##iu
##iv
##iw
##ix
##iy
##iz
##j
##ja
##jb
##jc
##jd
##je
##jf
##jg
##jh
##ji
##jj
##jk
##jl
##jm
##jn
##jo
##jp
##jq
##jr
##js
##jt
##ju
##jv
##jw
##jx
##jy
##jz
##k
##ka
##kb
##kc
##kd
##ke
##kf
##kg
##kh
##ki
##kj
##kk
##kl
##km
##kn
##ko
##kp
##kq
##kr
##ks
##kt
##ku
##kv
##kw
##kx
##ky
##kz
##l
##la
##lb
##lc
##ld
##le
##lf
##lg
##lh
##li
##lj
##lk
##ll
##lm
##ln
##lo
##lp
##lq
##lr
##ls
##lt
##lu
##lv
##lw
##lx
##ly
##lz
##m
##ma
##mb
##mc
##md
##me
##mf
##mg
##mh
##mi
##mj
##mk
##ml
##mm
##mn
##mo
##mp
##mq
##mr
##ms
##mt
##mu
##mv
##mw
##mx
##my
##mz
##n
##na
##nb
##nc
##nd
##ne
##nf
##ng
##nh
##ni
##nj
##nk
##nl
##nm
##nn
##no
##np
##nq
##nr
##ns
##nt
##nu
##nv
##nw
##nx
##ny
##nz
##o
##oa
##ob
##oc
##od
##oe
##of
##og
##oh
##oi
##oj
##ok
##ol
##om
##on
##oo
##op
##oq
##or
##os
##ot
##ou
##ov
##ow
##ox
##oy
##oz
##p
##pa
##pb
##pc
##pd
##pe
##pf
##pg
##ph
##pi
##pj
##pk
##pl
##pm
##pn
##po
##pp
##pq
##pr
##ps
##pt
##pu
##pv
##pw
##px
##py
##pz
##q
##qa
##qb
##qc
##qd
##qe
##qf
##qg
##qh
##qi
##qj
##qk
##ql
##qm
##qn
##qo
##qp
##qq
##qr
##qs
##qt
##qu
##qv
##qw
##qx
##qy
##qz
##r
##ra
##rb
##rc
##rd
##re
##rf
##rg
##rh
##ri
##rj
##rk
##rl
##rm
##rn
##ro
##rp
##rq
##rr
##rs
##rt
##ru
##rv
##rw
##rx
##ry
##rz
##s
##sa
##sb
##sc
##sd
##se
##sf
##sg
##sh
##si
##sj
##sk
##sl
##sm
##sn
##so
##sp
##sq
##sr
##ss
##st
##su
##sv
##sw
##sx
##sy
##sz
##t
##ta
##tb
##tc
##td
##te
##tf
##tg
##th
##ti
##tj
##tk
##tl
##tm
##tn
##to
##tp
##tq
##tr
##ts
##tt
##tu
##tv
##tw
##tx
##ty
##tz
##u
##ua
##ub
##uc
##ud
##ue
##uf
##ug
##uh
##ui
##uj
##uk
##ul
##um
##un
##uo
##up
##uq
##ur
##us
##ut
##uu
##uv
##uw
##ux
##uy
##uz
##v
##va
##vb
##vc
##vd
##ve
##vf
##vg
##vh
##vi
##vj
##vk
##vl
##vm
##vn
##vo
##vp
##vq
##vr
##vs
##vt
##vu
##vv
##vw
##vx
##vy
##vz
##w
##wa
##wb
##wc
##wd
##we
##wf
##wg
##wh
##wi
##wj
##wk
##wl
##wm
##wn
##wo
##wp
##wq
##wr
##ws
##wt
##wu
##wv
##ww
##wx
##wy
##wz
##x
##xa
##xb
##xc
##xd
##xe
##xf
##xg
##xh
##xi
##xj
##xk
##xl
##xm
##xn
##xo
##xp
##xq
##xr
##xs
##xt
##xu
##xv
##xw
##xx
##xy
##xz
##y
##ya
##yb
##yc
##yd
##ye
##yf
##yg
##yh
##yi
##yj
##yk
##yl
##ym
##yn
##yo
##yp
##yq
##yr
##ys
##yt
##yu
##yv
##yw
##yx
##yy
##yz
##z
##za
##zb
##zc
##zd
##ze
##zf
##zg
##zh
##zi
##zj
##zk
##zl
##zm
##zn
##zo
##zp
##zq
##zr
##zs
##zt
##zu
##zv
##zw
##zx
##zy
##zz
$
%
&
'
(
)
*
+
,
-
.
/
0
00
000
0000
0004
001
002
0022
003
004
005
006
007
008
009
01
010
01000
011
012
013
014
0140
015
016
0167
017
018
019
02
020
021
024
0261
028
03
0333
0362
04
05
050
0500
06
06000
067
07
08
08000
082
088
09
09100
0a
0b
0c
0d
0e
0f
0g
0h
0i
0j
0k
0l
0m
0n
0o
0p
0q
0r
0s
0t
0u
0v
0w
0x
0y
0z
1
10
100
1000
1001
1002
1006
1007
101
1016
1017
102
1021
1023
1024
1029
103
1037
1038
104
1046
105
106
1066
107
1073
108
1080
1086
1088
109
1093
1097
1098
11
110
1100
1103
111
1111
112
1126
113
1136
114
1146
115
116
1167
117
1177
118
1186
119
12
120
1200
121
122
123
124
125
1250
126
127
128
129
13
130
1300
131
132
133
1333
134
135
1353
136
1365
137
1371
138
139
14
140
1400
141
142
1429
143
1430
1431
144
145
1450
1453
146
147
148
149
1492
15
150
1500
151
1511
1515
1517
152
1520
1521
1525
1526
153
1530
154
155
1550
156
157
1570
1571
158
159
16
160
1600
1603
161
1613
162
1620
163
1633
164
1640
1644
165
1650
166
1660
1667
167
168
1680
169
17
170
1700
1707
171
172
173
174
1740
175
1750
1755
1758
176
1760
1763
177
1770
1771
1774
1775
1776
1778
178
1780
1782
1783
1784
1785
1786
1787
1788
1789
179
1790
1791
1792
1793
1794
1795
1796
1797
1798
1799
18
180
1800
1801
1802
1803
1804
1805
1806
1807
1808
1809
181
1810
1811
1812
1813
1814
1815
1816
1817
1818
1819
182
1820
1821
1822
1823
1824
1825
1826
1827
1828
1829
183
1830
1831
1832
1833
1834
1835
1836
1837
1838
1839
184
1840
1841
1842
1843
1844
1845
1846
1847
1848
1849
185
1850
1851
1852
1853
1854
1855
1856
1857
1858
1859
186
1860
1861
1862
1863
1864
1865
1866
1867
1868
1869
187
1870
1871
1872
1873
1874
1875
1876
1877
1878
1879
188
1880
1881
1882
1883
1884
1885
1886
1887
1888
1889
189
1890
1891
1892
1893
1894
1895
1896
1897
1898
1899
19
190
1900
1901
1902
1903
1904
1905
1906
1907
1908
1909
191
1910
1911
1912
1913
1914
1915
1916
1917
1918
1919
192
1920
1921
1922
1923
1924
1925
1926
1927
1928
1929
193
1930
1931
1932
1933
1934
1935
1936
1937
1938
1939
194
1940
1941
1942
1943
1944
1945
1946
1947
1948
1949
195
1950
1951
1952
1953
1954
1955
1956
1957
1958
1959
196
1960
1961
1962
1963
1964
1965
1966
1967
1968
1969
197
1970
1971
1972
1973
1974
1975
1976
1977
1978
1979
198
1980
1981
1982
1983
1984
1985
1986
1987
1988
1989
199
1990
1991
1992
1993
1994
1995
1996
1997
1998
1999
1a
1b
1c
1d
1e
1f
1g
1h
1i
1j
1k
1l
1m
1n
1o
1p
1q
1r
1s
1t
1u
1v
1w
1x
1y
1z
2
20
200
2000
2001
2002
2003
2004
20040616075334
2005
2006
2007
2008
2009
201
2010
2011
2012
2013
2014
2015
2016
2017
2018
2019
202
2020
202006
202009
202012
202015
202018
2021
2022
2023
2024
2025
203
2030
204
205
206
207
208
209
21
210
211
212
213
214
215
216
217
218
219
22
220
221
222
223
224
225
226
227
228
229
23
230
2305
2307
231
232
233
234
235
236
237
238
239
24
240
241
242
243
244
245
246
247
248
249
25
250
2500
251
252
253
254
255
256
257
258
259
26
260
261
262
263
264
265
266
267
268
269
27
270
271
272
273
274
275
276
277
278
279
28
280
281
282
283
284
285
286
287
288
289
29
290
291
292
293
294
295
296
297
298
299
2a
2b
2c
2d
2e
2f
2g
2h
2i
2j
2k
2l
2m
2n
2o
2p
2q
2r
2s
2t
2u
2v
2w
2x
2y
2z
3
30
300
3000
301
302
303
304
305
306
307
3077
308
309
31
310
311
312
313
314
315
316
317
318
319
32
320
321
322
323
324
325
326
327
328
329
33
330
331
332
333
3333
334
335
336
337
338
339
34
340
341
342
343
344
345
346
347
348
349
35
350
3500
351
352
353
354
355
356
357
358
359
36
360
361
362
363
364
365
366
3667
367
368
369
37
370
371
372
373
374
375
376
377
378
379
38
380
381
382
383
384
385
386
387
388
389
39
390
391
392
393
394
395
396
397
398
399
3a
3b
3c
3d
3e
3f
3g
3h
3i
3j
3k
3l
3m
3n
3o
3p
3q
3r
3s
3t
3u
3v
3w
3x
3y
3z
4
40
400
4000
401
402
403
404
405
406
407
408
409
41
410
411
412
413
414
415
416
417
418
419
42
420
421
422
423
424
425
426
427
428
429
43
430
43000
431
432
433
4331
434
435
436
437
438
439
44
440
441
442
443
444
445
446
447
448
449
45
450
4500
451
452
453
454
455
456
457
458
459
46
460
461
462
463
464
465
466
467
468
469
47
470
471
472
473
474
475
476
477
478
479
48
480
481
482
483
484
485
486
487
488
489
49
490
491
492
493
494
495
496
497
498
499
4a
4b
4c
4d
4e
4f
4g
4h
4i
4j
4k
4l
4m
4n
4o
4p
4q
4r
4s
4t
4u
4v
4w
4x
4y
4z
5
50
500
5000
501
502
503
504
505
506
507
508
509
51
510
511
512
513
514
515
516
517
518
519
52
520
521
522
523
524
525
526
527
528
529
53
530
531
532
533
534
535
536
537
538
539
54
540
541
542
543
544
545
546
547
548
549
55
550
5500
551
552
553
554
555
556
557
559
56
560
561
562
563
564
565
566
5667
567
568
569
57
570
571
572
573
574
575
576
578
58
580
581
582
583
584
585
586
587
588
589
59
590
593
594
595
596
597
599
5a
5b
5c
5d
5e
5f
5g
5h
5i
5j
5k
5l
5m
5n
5o
5p
5q
5r
5s
5t
5u
5v
5w
5x
5y
5z
6
60
600
6000
601
602
603
604
605
606
607
608
609
61
610
611
612
613
614
615
616
6167
617
618
62
620
621
622
624
625
626
627
628
629
63
630
631
632
633
634
635
636
637
638
639
64
640
641
642
643
644
645
646
65
650
651
652
653
654
655
656
66
660
661
663
664
665
666
667
668
669
67
670
671
672
6736
674
675
679
68
680
681
682
683
684
685
686
687
688
69
690
691
695
6a
6b
6c
6d
6e
6f
6g
6h
6i
6j
6k
6l
6m
6n
6o
6p
6q
6r
6s
6t
6u
6v
6w
6x
6y
6z
7
70
700
7000
701
705
707
709
71
710
711
712
715
7167
717
72
720
723
725
727
73
730
732
733
737
74
740
742
745
747
75
750
7500
751
752
754
757
759
76
760
767
768
77
770
775
777
78
780
782
783
786
7864
787
79
790
7a
7b
7c
7d
7e
7f
7g
7h
7i
7j
7k
7l
7m
7n
7o
7p
7q
7r
7s
7t
7u
7v
7w
7x
7y
7z
8
80
800
8000
801
8018
802
81
810
8160
817
82
820
8248
825
83
830
833
84
840
85
850
8500
852
853
86
860
867
87
870
87021
88
880
883
89
890
8a
8b
8c
8d
8e
8f
8g
8h
8i
8j
8k
8l
8m
8n
8o
8p
8q
8r
8s
8t
8u
8v
8w
8x
8y
8z
9
90
900
9000
902
91
910
911
912
917
92
922
93
930
94
940
95
950
96
960
962
963
965
967
97
970
971
975
978
979
98
980
981
983
985
987
99
990
999
9a
9b
9c
9d
9e
9f
9g
9h
9i
9j
9k
9l
9m
9n
9o
9p
9q
9r
9s
9t
9u
9v
9w
9x
9y
9z
:
;
<
=
>
?
@
[
[CLS]
[MASK]
[PAD]
[SEP]
[UNK]
\
]
^
_
`
a
a0
a1
a2
a3
a4
a5
a6
a7
a8
a9
aa
aac
aamir
aargau
aaron
ab
aba
abad
abadi
abah
abang
abangnya
abas
abauj
abba
abbas
abbasiyah
abbasiyyah
abbey
abbott
abbreviation
abby
abc
abd
abdel
abdi
abdillah
abdomen
abdul
abdulaziz
abdulla
abdullah
abdulrahman
abdurrahman
abe
abel
aberdeen
abhishek
abi
abidin
abigail
ability
abim
abjad
abkhazia
able
aborigin
aboriginal
about
above
abpbh
abraham
abrams
abroad
abruzzo
abs
abstract
abstrak
abu
abul
abuse
ac
acad
academia
academic
academie
academy
acara
accepted
access
accessdate
accessed
accessmonthday
accessyear
accident
according
account
accounts
accused
ace
aceh
aces
achaemenid
acheh
achievement
achmad
aci
acid
acids
acoustic
acp
acquired
acquires
acquisition
acre
across
acs
acsarol
act
acta
acting
action
active
activist
activities
activity
actor
actors
actress
acts
actually
actueel
acuan
acute
ad
ada
adab
adakah
adakalanya
adakan
adalah
adam
adams
adanya
adaptasi
adaptation
adapun
adat
add
added
addison
addition
additional
address
adds
ade
adegan
adelaide
adele
aden
adham
adhd
adi
adib
adibah
adidas
adik
adiknya
adil
adinda
adipati
adit
aditya
adiwira
adjusted
adli
admin
administrasi
administration
administrative
admiral
adnan
adobe
adolf
adrian
adriana
aduan
adult
adults
adun
adunan
advance
advanced
advances
advent
adventure
adventures
advertiser
advertising
advice
advisory
advocate
adzam
ae
aeon
aerial
aeril
aero
aeroangkasa
aeroflot
aeronautik
aerospace
af
afa
afar
afc
afdlin
aff
affair
affairs
affan
affected
affleck
afghan
afghanistan
afi
afiq
afonso
afp
africa
african
afrika
afro
after
ag
again
against
agak
agam
agama
agamanya
agar
agb
agdam
age
aged
agen
agence
agencies
agency
agenda
agensi
agent
agents
ages
agglomeration
agihan
agm
agnes
ago
agong
agra
agraria
agree
agreement
agregat
agresif
agricultural
agriculture
agrikultur
aguero
aguilar
agung
agus
agustin
agustus
ah
ahad
ahead
ahli
ahlinya
ahmad
ahmadi
ahmar
ahmed
ahn
ai
aichi
aid
aida
aidil
aidiladha
aidilfitri
aids
aika
aim
aiman
aims
ain
aina
aini
ainu
aip
air
airasia
airbender
airborne
airbus
aircraft
airdisaster
aires
airline
airliner
airlineroute
airlines
airnya
airport
airports
airways
ais
aisha
aishah
aishwarya
aiskrim
aisne
aisyah
aizat
aizen
aj
ajai
ajaib
ajak
ajal
ajar
ajaran
ajax
ajay
aji
ajil
ajk
ajl
ak
aka
akad
akademi
akademik
akal
akan
akar
akari
akasia
akatsuki
akaun
akauntan
akb
akbar
akhbar
akhir
akhiran
akhirat
akhirnya
akhlak
akhtar
aki
akibat
akibatnya
akidah
akil
akim
akimoto
akira
akita
akmal
akne
akrab
akronim
aksara
akses
aksesi
aksesori
akshay
aksi
akta
aktif
aktivis
aktiviti
aktobe
aktor
aktres
aktuelle
aku
akuatik
akui
akur
akustik
akut
al
ala
alabama
aladdin
alaf
alahan
alai
alain
alam
alamat
alami
alan
alang
alas
alasan
alaska
alat
alatan
alauddin
alba
albacete
albania
albanian
albany
albar
albatros
albert
alberta
alberto
albion
albirex
album
albumnya
albums
albuquerque
albus
alec
alejandro
aleksandr
alel
aleppo
alert
alessandria
alessandro
alex
alexa
alexander
alexandra
alexandre
alexandria
alexis
alfa
alfonso
alfred
alfredo
alga
algebra
algeria
algiers
algoritma
ali
alia
aliabad
alias
alicante
alice
alicia
alien
alif
aliff
alih
alihan
alik
alim
aliran
alisa
alison
alive
aliyah
aljazeera
alkali
alkimia
alkitab
alkohol
all
alla
allah
allahyarham
allan
allen
alley
alliance
allied
allier
allies
allison
allkpop
allmovie
allmusic
allowed
ally
alma
almanac
almarhum
almari
almaty
almeria
almost
aloi
alone
along
alonso
alor
alp
alpes
alpha
alphabet
alpine
alps
already
als
alsace
also
alt
altantuya
alternatif
alternative
although
altimet
altitud
alto
alu
alue
alukan
aluminium
alumni
alun
alur
alvarez
alvaro
alvin
always
alwi
alya
alyssa
alzheimer
am
amal
amalan
amali
aman
amanah
amanat
amanda
amani
amar
amaran
amat
amateur
amatlah
amatur
amazing
amazon
ambang
ambassador
amber
ambil
ambon
ambrose
ambulans
amd
ame
amelia
amelina
amer
america
american
americans
americas
amerika
amfibia
ami
amid
amin
amina
aminah
amino
aminuddin
amir
amira
amirul
amitabh
amman
ammar
ammonia
amn
amnesia
amnesty
amnya
among
amor
amorphophallus
amos
amp
ampang
ampar
ampas
ampat
ampuan
amr
amran
amri
amsterdam
amt
amy
amzah
an
ana
anai
anak
anakanda
anakku
anaknya
analisa
analisis
analog
analysis
anam
anan
anand
ananda
anas
anatolia
anatomi
anatomy
anc
ancaman
ancestry
anchor
ancient
and
anda
andai
andaian
andalas
andalus
andalusia
andaman
anderlecht
anders
andersen
anderson
andersson
andes
andhra
andi
andorra
andre
andrea
andreas
andreeva
andrei
andres
andrew
andrews
android
andromeda
andy
aneh
aneka
anemia
anfield
ang
angan
angel
angela
angeles
angelina
angeline
angelo
angels
anggap
anggapan
anggaran
anggerik
anggota
anggotanya
anggun
anggur
angin
angka
angkara
angkasa
angkasawan
angkat
angkatan
angkatnya
angkor
angkutan
anglican
anglikan
anglo
angola
angry
angsa
angus
anhalt
anhui
ani
anil
animal
animals
animasi
animated
animation
animax
anime
aniplex
anis
anita
anjakan
anjing
anjung
anjuran
ankara
ann
anna
annals
annapolis
anne
annex
annie
anniversary
annotated
announce
announced
announcement
announces
annual
annuar
another
ansar
anson
ansur
ansuran
answer
answers
ant
antagonis
antar
antara
antarabandar
antarabangsa
antaramuka
antaranya
antarctic
antartik
antartika
antena
anthem
anthology
anthony
anthropology
anti
antibiotik
antibodi
antigen
antigua
antik
antillen
antioch
antioquia
antiquity
antlers
antoine
antologi
anton
antonim
antonio
antonov
antony
antropologi
antu
antwerp
anu
anuar
anugerah
anumerta
anutan
anwar
any
anything
anzac
ao
aoa
aoi
aol
ap
apa
apabila
apache
apakah
apalagi
apapun
apart
aparteid
apartmen
apartment
apatah
apec
apek
apes
api
apink
apj
aplikasi
apm
apocalypse
apollo
apostolik
app
appeal
appear
appearance
appeared
appears
appendix
apple
appleton
application
applications
applied
appointed
appoints
approach
approaches
approval
approved
approves
apps
apr
april
apulia
aq
aqidah
aqilah
aqmar
aqsa
aquila
aquino
aquitaine
ar
ara
arab
arabia
arabian
arabic
arabs
arafat
aragon
arah
arahan
arahannya
arak
aram
aramia
arang
ararat
aras
arau
arbor
arc
arca
arcade
arch
archaeological
archaeology
archbishop
archer
archibald
archipelago
architects
architectural
architecture
archive
archived
archives
arctic
ardabil
ardeche
ardenne
ardennes
ardija
are
area
areas
arena
ares
argentina
argentine
argon
argument
argus
ari
aria
ariana
ariege
ariel
arif
ariff
ariffin
arifin
aris
arisaema
aristotle
aritmetik
arizona
arjun
arjuna
ark
arka
arkansas
arked
arkeologi
arkib
arkitek
arlington
arm
armada
arman
armando
armed
armee
armenia
armenian
armies
armm
armor
armored
armour
arms
armstrong
army
arnab
arnhem
arnold
aroma
arondissement
around
arrancar
arrest
arrested
arrives
arrow
arroyo
ars
arsenal
arshad
arsip
art
arte
arteri
arthur
arti
article
articles
artifak
artificial
artik
artikel
artikulasinya
artileri
artillery
artinya
artis
artist
artistik
artists
arts
arturo
aru
aruba
aruhan
arun
arus
arwah
arxiv
arya
aryan
as
asa
asagı
asahan
asahi
asal
asalkan
asalnya
asam
asap
asas
asasi
asasnya
ascii
asean
asem
aset
ash
asha
ashaari
ashari
ashgate
ashley
ashraf
ashton
asia
asian
asiana
asiaone
asiatic
asid
asimov
asin
asing
ask
askar
askara
asked
aslan
asli
aslinya
asma
asmah
asmara
asp
aspects
aspek
aspirasi
aspx
asrama
asri
ass
assam
assault
assembly
assessment
assessors
asset
assets
assistance
assistant
associated
associates
association
associations
assyria
astaka
astana
asteroid
asti
aston
astra
astro
astroawani
astrologi
astronaut
astronomi
astronomical
astronomy
astrophysical
astrophysics
asturias
asuhan
asuka
aswad
asy
asyik
asyikin
asyraf
at
atak
atalanta
atan
atap
atari
atas
atasan
atasnya
ataturk
atau
ataupun
ateis
athena
athens
athlete
athletes
athletic
athletics
ati
atikah
atkins
atkinson
atlanta
atlantic
atlantik
atlantique
atlantiques
atlantis
atlas
atlet
atletico
atm
atmosfera
atmosphere
atmospheric
atol
atom
atomic
atp
atr
atribut
atrium
atsuko
attack
attacks
attempt
attention
attorney
atur
aturan
aturcara
au
aube
aubrey
auckland
aude
audi
audience
audio
audit
auditorium
audrey
auf
aug
augsburg
august
augustine
augustus
aung
auns
aur
aura
aurora
aus
austen
austin
australasia
australia
australian
australis
austria
austrian
austronesia
austronesian
author
authorities
authority
authors
auto
autobiografi
autobiography
automatic
automatik
automobil
automobile
automotif
automotive
autonomi
autonomous
autosport
autumn
auvergne
aux
av
available
avalon
avant
avatar
ave
avec
avengers
avenue
average
aveyron
avi
aviation
avicennia
avila
avispa
aviv
aw
awak
awakening
awal
awalan
awalnya
awam
awan
awang
awani
award
awarded
awards
away
awesome
awi
awie
ax
axel
axis
ay
aya
ayah
ayahanda
ayahandanya
ayahnya
ayaka
ayam
ayat
ayatollah
ayda
ayer
ayob
ayu
ayub
ayumi
ayutthaya
az
azab
azad
azalea
azam
azan
azerbaijan
azeri
azhan
azhar
azhari
azilah
azim
azimat
azira
aziz
azizah
azizan
azizi
azlan
azlee
azlina
azman
azmi
azmin
aznil
azreen
azri
aztek
azul
azur
azura
azwan
azzam
b
b0
b1
b2
b3
b4
b5
b6
b7
b8
b9
ba
bab
baba
babad
babak
babel
babi
babu
baby
babylon
babylonia
baca
bacaan
bach
bachchan
bachelor
bachik
bachok
back
background
bacolod
bacon
bad
badai
badajoz
badak
badam
badan
badang
badannya
badar
badawi
bade
baden
badlishah
badminton
badrul
badul
bae
baek
baekje
bafta
bag
bagai
bagaikan
bagaimana
bagaimanakah
bagaimanapun
bagan
bagasi
bagh
baghdad
bagi
bagian
baginda
baginya
bagong
bagus
bah
baha
bahagi
bahagia
bahagian
bahamas
bahan
bahar
baharin
baharom
baharu
baharuddin
bahas
bahasa
bahau
bahawa
bahaya
bahkan
bahrain
bahru
bahtera
bahu
bahwa
bai
baidu
baiduri
baik
baiknya
bailey
baird
bait
baitul
baitulmuqaddis
baix
baizura
baja
bajau
bajet
baju
bak
baka
bakal
bakar
bakat
bakatnya
bakau
baker
bakhtiari
baki
bako
bakong
bakri
bakteria
bakti
baku
bakul
bala
balada
balai
balak
balance
balang
balangan
balapan
balas
balasan
baldwin
bale
balet
bali
baligh
balik
balikpapan
baling
balistik
balkan
ball
ballad
ballon
balochistan
balok
balqis
baltik
baltimore
balu
bam
bambang
bamboo
bambu
ban
banana
banarsidass
banci
bancian
band
banda
bandai
bandar
bandara
bandaran
bandaraya
banding
bandingan
bands
banduan
bandung
banerjee
bang
bangalore
bangau
bangga
banggai
banggol
bangi
bangka
bangkai
bangkit
bangkok
bangku
bangladesh
banglo
bangsa
bangsal
bangsar
bangsawan
bangun
bangunan
bangunannya
bani
banjar
banjaran
banjarmasin
banjir
bank
banking
banks
banned
banner
banska
bantahan
bantal
bantam
banten
banting
bantu
bantuan
bantul
banu
banyak
banyaknya
banyumas
banyuwangi
bao
bapa
bapak
bapanya
baptist
bar
bara
barack
barah
barak
baram
baran
barang
barangan
barangay
barangkali
baranya
barat
barbados
barbar
barbara
barbarossa
barber
barbera
barbie
barbuda
barca
barcelona
barclays
barda
bardejov
bare
bari
baris
barisan
barito
barker
barli
barnes
baro
baron
baroque
barr
barrett
barrier
barron
barry
bart
bartlett
barton
baru
barulah
barunya
bas
basah
base
baseball
based
basel
basf
bash
bashir
basic
basikal
basil
basin
basis
basket
basketball
basque
basri
bass
basse
bat
bata
batak
batal
batalion
batam
batang
batas
batasan
batavia
batch
bateri
bates
bath
batik
batin
batista
batman
baton
battalion
battery
battle
battles
battleship
battleships
batu
batuan
batubara
batuk
bau
bauer
bavaria
bawa
bawaan
bawah
bawahan
bawahnya
bawang
baxter
bay
bayam
bayan
bayang
bayangan
bayar
bayaran
bayer
bayerisches
bayern
bayi
bayonet
bayu
bazaar
bazar
bb
bbc
bc
bce
bd
bdfutbol
be
bea
beach
beam
bean
bear
bears
beast
beasts
beat
beatles
beatrice
beats
beau
beaufort
beaumont
beautiful
beauty
beban
bebas
beberapa
bebola
beca
became
because
becc
beck
becker
beckham
become
becomes
becoming
bed
bedah
bedil
bedilan
bee
been
beer
beethoven
before
beg
began
begawan
begin
begini
beginning
begins
begitu
begitulah
begum
behavior
behavioral
behaviour
behind
behrang
bei
beijing
being
beirut
bek
bekalan
bekas
bekasi
bekerja
bekerjasama
beku
bel
bela
belacan
belah
belahan
belait
belajar
belakang
belakangnya
belalang
belanda
belang
belanja
belanjawan
belantara
belarus
belas
belatuk
belayar
belfast
belfort
belgian
belgium
belgrade
beli
belia
beliau
belief
believe
belimbing
belitung
beliung
belize
bell
bella
bellamy
belle
bellmare
belok
belon
below
belt
belud
belukar
belum
beluran
bemban
ben
benang
benar
bencana
benci
benda
bendahara
bendahari
bendalir
bendang
bendera
bendigo
benedict
benefits
bener
benesov
benfica
beng
bengal
bengali
benggala
bengkak
bengkel
bengkok
bengkulu
beni
benigno
benih
benin
benito
benjamin
bennett
bennington
benny
benson
bentara
benteng
bentley
bentong
bentuk
bentuknya
benua
benut
benz
benzema
beom
ber
bera
berabad
beracun
berada
beradik
beradiknya
beragama
berahi
berair
beraja
berakar
berakas
berakhir
berakhirnya
berakhlak
beraksi
beralih
beralkohol
beramai
beramal
berambut
beranak
beranang
beraneka
berang
berangan
beranggapan
berangka
berangkat
berani
beransur
berantai
berapa
berapi
berarak
berarti
beras
berasa
berasal
berasas
berasaskan
berasid
berasingan
berasrama
berat
beratnya
beratus
berau
berautonomi
berazam
berbadan
berbagai
berbahagia
berbahasa
berbahaya
berbakat
berbakti
berbalik
berbanding
berbangga
berbangsa
berbaring
berbaris
berbasikal
berbatasan
berbatu
berbau
berbayar
berbeda
berbentuk
berber
berbeza
berbicara
berbilang
berbincang
berbisa
berbuah
berbual
berbuat
berbukit
berbulan
berbulu
berbunga
berbunyi
bercabang
bercadang
bercahaya
bercakap
bercampur
bercanggah
bercangkerang
bercantum
bercas
bercerai
bercerita
bercetak
bercinta
bercirikan
bercita
bercorak
bercuti
berdaftar
berdagang
berdamai
berdarah
berdasarkan
berdaulat
berdaya
berdedikasi
berdekatan
berdepan
berdiam
berdikari
berdiri
berdirinya
berdisiplin
berdoa
berdosa
berdua
berduet
berdurasi
berduri
beredar
bereg
beregu
berehat
berek
berekor
berempat
berenang
berendam
berenjin
berentak
berentap
bererti
berevolusi
berfahaman
berfikir
berfikiran
berfokus
berfungsi
berg
bergabung
bergaduh
bergambar
bergamo
berganda
berganding
bergandingan
berganti
bergantung
bergaul
bergaya
bergegas
bergelar
bergelut
bergen
bergenre
berger
bergerak
bergetar
bergiat
bergigi
bergilir
berguna
bergunung
berguru
berhad
berhadapan
berhak
berhala
berhaluan
berhampiran
berharap
berharga
berhasil
berhasrat
berhati
berhenti
berhias
berhijrah
berhimpun
berhormat
berhubung
berhubungan
berhujah
berhutang
beri
beribadah
beribadat
beribu
berikan
berikat
beriklim
berikrar
berikut
berikutan
berikutnya
berilmu
beriman
beringin
berinteraksi
berirama
beris
berisi
berisiko
berita
berjadual
berjaga
berjalan
berjalur
berjangkit
berjanji
berjarak
berjasa
berjaya
berjemaah
berjenama
berjiran
berjuang
berjudul
berjumlah
berjumpa
berjuta
berkabung
berkadar
berkahwin
berkait
berkaitan
berkaki
berkala
berkali
berkaliber
berkanun
berkarya
berkas
berkat
berkata
berkawan
berkebolehan
berkecimpung
berkecuali
berkedudukan
berkekalan
berkelajuan
berkelakuan
berkelayakan
berkeley
berkeliaran
berkelompok
berkeluasan
berkelulusan
berkemahiran
berkemampuan
berkembang
berkembar
berkempen
berkemungkinan
berkenaan
berkenalan
berkenan
berkepala
berkepentingan
berkeras
berkerja
berkesan
berkesudahan
berketinggian
berketurunan
berkhidmat
berkilat
berkisar
berkisarkan
berkolaborasi
berkomputer
berkomunikasi
berkongsi
berkonsepkan
berkorban
berkshire
berkualiti
berkuasa
berkuat
berkuatkuasa
berkuda
berkulit
berkumpul
berkumpulan
berkunjung
berkurang
berkurangan
berlabuh
berlainan
berlakon
berlaku
berlakunya
berlalu
berlandaskan
berlanggar
berlangsung
berlangsungnya
berlanjutan
berlapis
berlari
berlarutan
berlatar
berlatarkan
berlatih
berlawan
berlawanan
berlayar
berlebihan
berleluasa
berlepas
berlesen
berlian
berlin
berlindung
berlumba
bermacam
bermain
bermakna
bermaksud
bermalam
bermanfaat
bermasalah
bermastautin
bermata
bermesyuarat
bermimpi
berminat
bermotor
bermuda
bermula
bermulalah
bermulanya
bermuncul
bermusim
bermusuhan
bermutu
bern
bernafas
bernam
bernama
bernard
bernardo
bernasib
bernaung
bernhard
berniaga
berniat
bernikah
bernilai
bernombor
bernyanyi
bernyawa
beroda
berongga
beroperasi
berorientasikan
beroun
berpacaran
berpakaian
berpaling
berpandu
berpandukan
berpangkalan
berpangkat
berpanjangan
berparlimen
berpasangan
berpasir
berpasukan
berpatutan
berpecah
berpegang
berpeluang
berpendapat
berpendapatan
berpendidikan
berpenduduk
berpengalaman
berpengaruh
berpenghuni
berperanan
berperang
berperingkat
berperisa
berperisai
berperlembagaan
berpihak
berpindah
berpisah
berpotensi
berprestasi
berprestij
berprofil
berpuas
berpuasa
berpuluh
berpunca
berpura
berpusat
berpusing
berputar
berputus
berry
berryz
bersabda
bersahabat
bersaing
bersaiz
bersalah
bersalin
bersama
bersamaan
bersamanya
bersambung
bersandar
bersara
bersarang
bersatu
bersaudara
bersayap
bersebelahan
bersedia
bersejarah
bersekolah
bersekutu
berselang
berselisih
bersemangat
bersemayam
bersembunyi
bersempadan
bersempena
bersemuka
bersendirian
bersenjata
bersenjatakan
bersentuhan
bersepadu
berserta
bersesuaian
bersetuju
bersiap
bersiaran
bersidang
bersifat
bersih
bersikap
bersilang
bersimpati
bersinar
bersiri
berskala
berstatus
berstruktur
bersuara
bersumpah
bersungguh
bersurat
bersyarat
bersyukur
bert
bertaburan
bertahan
bertahun
bertajuk
bertali
bertam
bertambah
bertanda
bertanding
bertanggung
bertanggungjawab
bertanya
bertapak
bertaraf
bertarikh
bertarung
bertaubat
bertauliah
bertekad
bertekanan
berteknologi
bertelur
bertema
bertemakan
bertembung
bertempat
bertempur
bertemu
bertenaga
bertengkar
bertentangan
bertepatan
berteraskan
berterusan
bertiga
bertindak
bertindih
bertingkat
bertiup
bertolak
bertopeng
bertrand
bertuah
bertudung
bertugas
bertujuan
bertukar
bertulang
bertulis
bertumbuh
bertumpu
bertunang
berturut
bertutur
beruang
beruas
berubah
berucap
beruk
berukuran
berulang
berumur
berunding
berundur
beruniform
berunsur
beruntung
berupa
berupaya
berurusan
berus
berusaha
berusia
bervariasi
berwarna
berwibawa
bes
besar
besaran
besarnya
besbol
beserta
besi
best
bestari
besut
bet
beta
betapa
betawi
beth
betik
betina
beting
betis
beto
betong
better
betty
betul
between
beverly
bevolkerung
bevolkerungsstandes
bevolkingsontwikkeling
bewarna
bey
beyonce
beyond
beza
bezos
bf
bg
bh
bhai
bhakti
bharat
bharian
bharu
bhatia
bhatt
bhd
bhg
bhp
bhutan
bi
biak
biar
biara
biarkan
biarpun
bias
biasa
biasanya
biasiswa
biawak
biaya
bibcode
bibi
bibir
bible
bibleverse
biblical
bibliografi
bibliography
bicara
bicol
bid
bidaan
bidadari
bidak
bidan
bidang
bidayuh
biden
bidin
bidor
bieber
bien
big
bigbang
bigger
biggest
bihar
bijak
bijaksana
bijan
biji
bijian
bijih
bijirin
bikin
bikini
bil
bila
bilah
bilal
bilang
bilangan
bilangannya
bilbao
bilik
bilion
bilis
bill
billah
billboard
billie
billion
billy
bima
bimbang
bimbingan
bimbit
bin
bina
binaan
binary
binatang
bing
bingkai
binh
binjai
bintang
binti
bintik
bintulu
bintuni
bio
biodata
biodiesel
biodiversiti
biodiversity
biografi
biographical
biographies
biography
biokimia
biol
biola
biologi
biological
biology
biotechnology
bioteknologi
bir
biran
birch
bird
birdlife
birds
bireuen
biri
birit
birmingham
biro
birokrasi
birth
birthday
biru
bis
bisa
biscay
biseksual
bishop
bisikan
bising
biskop
biskut
bismarck
bisnes
bisnis
bissau
bisu
bit
bitburg
bitcoin
biz
bj
bjork
bjorn
bk
bl
black
blackberry
blackburn
blackpink
blackwell
blade
blair
blake
blanc
blanche
blanchett
blang
blank
blansko
blast
bleach
blind
blizzard
block
blockbuster
blockchain
blog
blogger
blogs
blogspot
blok
blood
bloody
bloom
bloomberg
bloomington
bloomsbury
blow
blu
blue
blues
blunt
bm
bmg
bmi
bmj
bmw
bn
bo
board
boat
bob
bobby
boboiboy
boca
bocey
bocor
bodies
bodoh
body
boeing
boer
bogel
bogor
bogota
bohemia
bohol
boikot
bois
bojong
bok
boku
bola
bolagh
bolak
bolasepak
bold
boleh
bolehlah
boleslav
boling
bolivar
bolivia
bolkiah
bollywood
bologna
bolos
bolshevik
bolt
bolton
bom
bomb
bomba
bombardier
bombay
bomber
bombing
bomoh
bon
bonaparte
bond
bonda
bondi
bone
boneka
bones
bong
bongkah
bongkok
bongsu
bonjol
bonn
bonnie
bonus
boo
book
booker
books
boom
boon
boost
boot
booth
booty
bor
borang
bordeaux
border
borders
borhan
boris
born
borneo
borobudur
borong
borough
borsod
borussia
boruto
borys
bos
bosan
bosch
bose
bosnia
boss
boston
bosworth
bot
bota
botak
botani
botanic
botanical
botaninya
botany
both
botol
botswana
bottom
bouches
boulder
boulevard
bound
boundaries
boundary
bourgogne
bourne
bow
bowen
bowers
bowl
bowling
box
boxer
boxing
boxofficeindia
boy
boyaca
boyce
boyd
boyfriend
boyle
boys
boyz
bp
bpr
bps
bq
br
brad
bradford
bradley
brady
brahma
brahman
braille
brain
bram
branch
brand
brandenburg
brandon
brands
brandt
brasil
bratislava
braun
brave
bravo
brazil
brazilian
break
breaking
breaks
breed
breeding
breeds
brek
bremen
brenda
brendan
brent
brescia
bretagne
brett
brian
brickfields
bride
bridge
bridges
bridgit
brie
brief
brien
brig
brigade
brigadier
briged
brigedier
bright
brighton
brill
brilliance
bring
bringing
brings
brisbane
bristol
brit
britain
britania
britannia
britannica
british
britney
brittany
brn
brno
bro
broad
broadcast
broadcasting
broadway
brock
brod
broke
broken
broker
bront
bronx
bronze
brooke
brooklyn
brooks
bros
brother
brothers
brought
brown
browning
browser
brt
bruce
brugge
brunei
bruno
brunswick
brussel
brussels
bryan
bryant
bs
bsj
bst
bt
btng
bts
bu
buah
buahan
buahnya
bual
buana
buang
buangan
buat
buatan
buaya
bubur
buchanan
bucharest
buck
buckingham
bucu
budak
budapest
budaya
buddha
buddhism
buddhisme
buddhist
buddy
budejovice
budget
budi
budiey
budiman
budu
buenavista
buenos
buffalo
bug
bugis
bugs
buih
build
building
buildings
built
bujang
bujur
buka
bukaan
bukan
bukanlah
bukannya
bukau
bukhari
bukit
bukti
buku
bukunya
bulan
bulanan
bulat
bulatan
buleleng
buletin
bulgaria
bulgarian
buli
bull
bullet
bulletin
buloh
bulu
buluh
bulunya
bum
bumbu
bumbung
bumi
bumiputera
bumiputra
bun
bunda
bundar
bundesliga
bundeswehr
bung
bunga
bunganya
bungku
bungkusan
bungo
bunian
bunker
bunkface
buntar
bunting
buntu
bunuh
bunut
bunyi
bunyinya
bupati
burden
bureau
burger
burgos
burhanuddin
buritan
burke
burkina
burma
burn
burnett
burning
burns
bursa
burst
burton
buru
buruan
buruh
buruj
buruk
burundi
burung
bus
busan
busana
bush
business
businessweek
busuk
busur
but
buta
butang
butik
butir
butiran
butler
butter
butterflies
butterfly
butterworth
button
buurten
buy
buys
buzz
bv
bw
bwf
bx
by
bye
byrne
byron
bystrica
byung
byzantine
byzantium
bz
c
c0
c1
c2
c3
c4
c5
c6
c7
c8
c9
ca
cabang
cabaran
cabinet
cable
cabutan
cacar
cacat
caceres
cache
cacing
cadangan
cadiz
caesar
caf
cafe
cagayan
cage
cagliari
cahaya
cai
cain
cair
cairan
cairns
cairo
caj
cakap
cakar
cake
cakera
cakerawala
cakung
calabarzon
calabria
calais
calamus
calcio
calcutta
caldwell
caledonia
calendar
calgary
california
call
called
calling
calls
calon
calvados
calvin
cam
camar
cambodia
cambridge
came
cameo
camera
cameron
cameroon
camille
camp
campaign
campaigns
campania
campbell
campo
campos
campur
campuran
campus
can
canada
canadian
canal
canary
canberra
cancels
cancer
candi
candidate
candidates
candu
candy
cane
canggih
cangjie
cangkerang
cangkuk
canid
canine
canis
cannes
cannon
cannot
canon
canselor
cantabria
cantal
canterbury
cantik
canton
canyon
cao
cap
capacity
capai
capaian
capcom
cape
capita
capital
capitol
capo
capt
captain
capture
captured
car
cara
caraga
caranya
carbon
carcass
card
cardiff
cardinal
cards
care
career
carey
cargo
cari
carian
caribbean
carl
carla
carlo
carlos
carlton
carmen
carnegie
carnivora
carol
carolina
caroline
carolyn
carpenter
carr
carrie
carrier
carriers
carroll
carry
cars
carson
carta
carter
carthage
cartoon
cartoons
cas
casa
casablanca
case
cases
casey
cash
casino
caspian
cassell
cassini
cast
castellon
castile
castillo
casting
castle
castro
casts
casualties
cat
catalan
catalog
catalogue
catalonia
catania
catatan
catch
cate
catechism
category
cathay
cathedral
catherine
catholic
cathy
cats
cattle
catur
caucasus
caught
cause
caused
causes
cave
cavendish
caves
cawan
cawang
cawangan
cay
cb
cbc
cbd
cbn
cbs
cc
cctv
cd
cdc
cdot
ce
cebisan
cebu
cecair
cecil
cecilia
cedera
cedric
cek
cekak
cekap
cekup
celah
celcom
celebrate
celebrates
celebration
celebrities
celebrity
celestial
celik
celine
cell
cells
celsius
celt
celtic
cemas
cemburu
cemerlang
cemetery
cempaka
cempedak
cendawan
cendekiawan
cenderamata
cenderawasih
cenderung
cengkaman
cengkih
census
censuses
censusindia
centenario
centennial
center
centers
central
centre
centro
centuries
century
ceo
cepat
cerah
cerai
ceramah
cerap
cerdas
cerdik
cereka
ceremony
cerezo
cergas
ceri
ceria
cerita
ceritanya
cermin
cern
cerpen
certain
certificate
certification
certifications
certified
cerun
cesar
ceska
ceske
cest
cet
cetak
cetakan
cetek
cetera
cetusan
ceylon
cf
cfm
cg
cgi
ch
cha
chacha
chad
chae
chah
chaharmahal
chai
chain
chairman
chakra
chakri
chakura
challenge
challenger
challenges
cham
chamber
chamberlain
chambers
champa
champagne
champion
champions
championship
championships
chan
chance
chancellor
chandler
chandra
chang
change
changed
changes
changi
changing
changkat
changsha
channel
channels
chao
chaos
chapel
chapelle
chaplin
chapman
chapter
chapters
chapterurl
char
character
characteristics
characters
charente
charentes
charge
charged
charges
charity
charles
charlie
charlotte
charlton
charok
chart
charter
chartered
charters
charts
chase
chastain
chat
chateau
chau
chavez
che
cheah
check
checklist
chee
cheese
cheetah
chef
chelonians
chelsea
chem
chemical
chemicals
chemistry
chemor
chen
cheng
chengdu
chennai
cheol
cheon
cheong
chepa
cher
cheras
cherry
cheryl
cheshmeh
chess
chester
cheung
chevrolet
chew
chi
chia
chiang
chiba
chicago
chicken
chief
chien
chik
child
childhood
children
chile
chin
china
chinatown
chinese
ching
chini
chip
chisholm
chiu
chloe
cho
chocolate
choe
choi
choice
chok
chola
chonburi
chong
chongqing
choo
choon
choong
choose
chopra
chorus
chosen
chosun
chou
chow
chris
christ
christchurch
christian
christianity
christians
christie
christina
christine
christmas
christoph
christophe
christopher
chrisye
chrome
chronicle
chronicles
chronology
chrudim
chu
chua
chuan
chuck
chukai
chul
chulalongkorn
chun
chung
church
churches
churchill
ci
cia
ciamis
cianjur
cibubur
cicak
cicakman
cicit
cid
cik
cikgu
cili
cilik
cimb
cina
cincang
cincin
cindai
cinderella
cindy
cine
cinema
cinemas
cinematic
cinta
cintaku
cintamu
cintanya
cip
cipayung
cipinang
cipta
ciptaan
ciptaannya
ciracas
circle
circuit
circular
circulation
circus
cirebon
ciri
cirit
cis
cit
cita
citarasa
citation
cite
cited
cites
cities
citizen
citizens
citizenship
citra
citrus
city
ciudad
civic
civil
civilization
civilizations
cj
ck
cl
claim
claims
claire
clan
clara
clare
clarence
clarendon
clark
clarke
clash
class
classic
classical
classics
classification
claude
claudia
claudio
claudius
claus
clay
claymore
clayton
clean
clear
clement
cleopatra
cleveland
click
cliff
clifford
climate
clinic
clinical
clint
clinton
clio
clip
clive
clock
close
closed
closer
closing
cloud
clouds
clover
club
clubs
cluster
clyde
cm
cms
cn
cna
cnbc
cnet
cnn
co
coach
coalition
coast
coastal
coauthors
cobra
coca
cochrane
coco
cocos
code
codes
cody
coffee
cog
cogan
cognitive
cohen
coin
coins
coke
coklat
col
cola
cold
coldplay
cole
coleman
coli
colin
collaboration
collantine
collapse
collar
collected
collection
collections
college
collider
collie
collins
cologne
colombia
colombo
colonel
colonial
colony
color
colorado
colors
colour
colt
columbia
columbus
column
com
combat
combined
comcast
come
comeback
comedy
comel
comes
comet
comic
comics
coming
command
commander
comment
commentary
comments
commerce
commercial
commission
commissioner
committee
common
commons
commonwealth
communaute
commune
communication
communications
communist
communities
community
como
comoros
compact
companies
companion
company
comparative
comparison
competition
competitions
compilation
compiled
complete
completed
completes
complex
component
composer
composition
compound
compounds
comprehensive
computer
computers
computing
comte
comunas
comune
con
conan
concacaf
concepcion
concept
concepts
concern
concerning
concerns
concert
concise
conde
condition
conditions
condong
condor
confederate
confederation
conference
confirm
confirmed
confirms
conflict
cong
congo
congress
congressional
conmebol
connect
connecticut
connection
connell
connor
conquest
conrad
consadole
consent
consequences
conservation
conservative
considered
consolidated
consortium
conspiracy
constance
constant
constantine
constantinople
constantinus
constellation
constellations
constitution
constitutional
construction
consumer
consumption
contact
contador
containing
contains
conte
contemporary
content
contents
contest
context
continental
continue
continued
continues
continuum
contoh
contohnya
contract
contribution
contributions
control
controlled
controversial
controversy
convent
convention
conversation
conversion
convert
conway
cook
cookie
cooking
cool
cooper
cooperation
cop
copa
copenhagen
copies
coppa
cops
copy
copyright
corak
coral
corbett
cordillera
cordoba
core
corey
cork
cornelius
cornell
corner
cornwall
corona
coronation
coronavirus
corong
corp
corporate
corporation
corps
corpus
correze
corruption
corse
corsica
cortes
coruna
cos
cosenza
cosgrove
cosmic
cosmos
cost
costa
costs
cot
cote
cotes
cotton
could
council
count
countdown
counter
countess
countries
country
county
coup
coupe
couple
courage
courier
course
court
courtney
courts
cov
cove
cover
coverage
covers
covid
cox
cp
cpu
cq
cr
craft
craig
crane
crash
crashes
crawford
crazy
crc
cream
create
created
creating
creation
creative
creator
credit
credits
creek
cremona
crescent
crest
cretaceous
crete
creuse
crew
cricket
crime
crimea
crimes
criminal
crisis
cristiano
cristina
critic
critical
criticism
critics
croat
croatia
croatian
crop
crops
crore
cross
crossing
crossroads
crouch
crow
crowd
crown
crowned
cruise
cruiser
crunchyroll
crusades
crush
cruz
cry
crystal
crystalyn
cs
csi
css
ct
cth
cu
cuaca
cub
cuba
cubaan
cube
cuci
cucu
cucunya
cuenca
cuisine
cuka
cukai
cukup
cult
cultural
culture
cultures
cum
cuma
cummings
cumulative
cun
cuneo
cunningham
cup
curah
curahan
curam
cure
curi
curiga
curlie
currency
current
currently
curry
curse
curtis
curtiss
curve
customs
cut
cuti
cuts
cv
cw
cx
cy
cyber
cyberjaya
cyborg
cycle
cycling
cyclone
cynthia
cyprus
cyril
cyrus
cz
czech
czechoslovakia
d
d0
d1
d2
d3
d4
d5
d6
d7
d8
d9
da
dad
dada
dadah
daddy
dadu
dae
daegu
daemonorops
daeng
daerah
daewoo
dafif
daftar
dagang
dagangan
daging
dah
dahan
dahari
dahi
dahlan
dahlia
dahsyat
dahulu
dahulunya
dai
daihatsu
daily
daim
daimyo
dairy
daisuke
daisy
dakota
daku
dakwaan
dakwah
dakwat
dal
dalai
dalam
dalaman
dalamannya
dalamnya
dalan
dalang
dalat
dale
dali
dalil
dallas
dalmatia
dalton
daly
dam
damage
damai
damansara
damar
damascus
dame
damian
damon
damping
damsyik
dan
dana
danau
danbi
dance
dancing
dang
dangdut
danger
dangerous
dani
dania
danial
daniel
danielle
daniels
danish
danny
dans
dante
danube
dao
dap
dapat
dapati
dapatkan
dapodik
dapur
dar
dara
darab
darah
darat
daratan
darby
darfur
dari
daring
darinya
daripada
daripadanya
darius
darjah
darjat
dark
darkness
darling
darlinghurst
daro
darreh
darren
darul
darurat
darussalam
darwin
das
dasar
dasarnya
dash
dashboard
dasht
dassault
data
database
datang
datangnya
datar
dataran
date
dated
datenverarbeitung
dates
datin
dating
dato
datoh
datok
datu
datuk
datuknya
daud
daughter
daulah
daum
daun
daunnya
davao
dave
david
davidson
davies
davis
dawai
dawkins
dawn
dawson
day
daya
dayak
dayana
dayang
days
dayton
dayung
db
dbkl
dbp
dc
dd
ddg
de
dead
deadline
deadly
deadurl
deal
deals
dean
dear
death
deaths
deb
debat
debate
deborah
debt
debu
debunga
debut
debutnya
debuts
dec
decade
decades
deccan
december
decided
decision
decisions
declaration
declared
declares
decline
dedah
deddy
dedicated
dedikasi
dee
deen
deep
def
default
defeat
defence
defendan
defender
defense
deficit
defined
definisi
definition
definitions
definitive
defisit
defn
degree
deh
dei
dek
dekad
dekan
dekat
deklarasi
dekri
del
delapan
delaware
delay
delegasi
delhi
deli
delima
delivered
delivery
dell
della
delle
delta
deluxe
dem
demak
demam
demand
demi
demikian
demo
democracy
democratic
demografi
demographic
demographics
demokrasi
demokrat
demokratik
demon
demonstrasi
den
denai
denda
dendam
dendang
deng
dengan
dengannya
dengar
denggi
dengkil
denis
denise
denmark
dennis
denominasi
denpasar
density
denver
denyutan
deok
deol
depan
depannya
departemen
department
depok
deposit
depot
depression
deps
dept
depth
deputy
der
dera
deras
derby
derek
deretan
deria
dering
derita
derma
dermaga
dermatology
dermawan
des
desa
desakan
descendants
described
description
desember
desert
design
designed
designer
desire
desk
desktop
desmond
despite
destinasi
destination
destinations
destiny
destroy
destroyer
destruction
det
detail
detailed
details
detection
detective
detektif
determination
detik
detroit
deutsche
deutschen
deutscher
deutschland
deux
dev
devdas
develop
developed
developer
developing
development
developmental
developments
devgn
devi
device
devices
devil
devon
dewa
dewan
dewasa
dewi
dezember
df
dfb
dg
dh
dhabi
dhaka
dhani
dharma
di
dia
diabadikan
diabaikan
diabetes
diadakan
diadaptasi
diadaptasikan
diagihkan
diagnosis
diagnostik
diagram
diajar
diajarkan
diajukan
diakhiri
diakibatkan
diakritik
diakses
diaktifkan
diakui
dialah
dialami
dialek
dialih
dialihkan
dialog
dialogue
diam
diamalkan
diamanahkan
diamati
diambil
diameter
diamond
dian
diana
diancam
diane
dianggap
dianggarkan
dianggotai
diangkat
diangkut
dianjurkan
diantara
diantaranya
dianugerahi
dianugerahkan
diarah
diarahkan
diari
diaries
diarkib
diarkibkan
diary
diasaskan
diasingkan
diaspora
diatas
diatasi
diatur
diawasi
diaz
dibaca
dibacakan
dibagi
dibahagi
dibahagian
dibahagikan
dibaiki
dibakar
dibalut
dibandingkan
dibangkitkan
dibangun
dibangunkan
dibantah
dibantu
dibatalkan
dibatasi
dibawa
dibawah
dibawakan
dibayangkan
dibayar
dibebaskan
dibekalkan
dibela
dibelakang
dibelanjakan
dibeli
dibenarkan
dibenci
dibentangkan
dibentuk
diberhentikan
diberi
diberikan
diberitahu
dibersarakan
dibersihkan
dibesarkan
dibezakan
dibiakbakakan
dibiakkan
dibiarkan
dibiayai
dibicarakan
dibina
dibinanya
dibincangkan
dibintangi
dibuang
dibuat
dibubarkan
dibuka
dibuktikan
dibungkus
dibunuh
diburu
dicabar
dicadangkan
dicalonkan
dicampur
dicampurkan
dicapai
dicaprio
dicari
dicat
dicatat
dicatatkan
dicemari
diceritakan
dicetak
dicetuskan
dicipta
diciptakan
dicirikan
dick
dickens
dickinson
dickson
dictionaries
dictionary
diculik
dicuri
did
didaftarkan
didagangkan
didahului
didakwa
didalam
didapati
didasarkan
didatangi
didatangkan
didedahkan
didedikasikan
didefinisikan
didenda
didengar
didengari
didi
didiagnosis
didiami
dididik
didier
didih
didik
didikan
didirikan
didn
didominasi
didorong
diduduki
diduga
didukung
die
died
diedarkan
diego
dieja
dieksport
dielakkan
dies
diesel
diet
dieter
difahami
difahamkan
difailkan
difference
differences
different
difficult
difikirkan
difilemkan
digabung
digabungkan
digalakkan
digali
digambarkan
digandingkan
diganggu
diganti
digantikan
digantung
digayakan
digelar
digelarkan
digemari
digerakkan
digest
digi
digimon
digit
digital
digolongkan
digoreng
digubah
digubal
digugurkan
digulingkan
diguna
digunakan
digunapakai
dihabiskan
dihadapan
dihadapi
dihadapkan
dihadiahkan
dihadiri
dihadkan
dihalang
dihalau
dihancurkan
dihantar
dihapuskan
diharamkan
diharap
diharapkan
dihargai
dihasilkan
dihentikan
dihiasi
dihidang
dihidangkan
dihidupkan
dihiris
dihitung
dihormati
dihoskan
dihubungi
dihubungkan
dihukum
dihuni
dihuraikan
diikat
diiktiraf
diikuti
diilhamkan
diimport
diingati
diingini
diinginkan
diinspirasikan
diiringi
diisi
diisytiharkan
diizinkan
dijadikan
dijadual
dijadualkan
dijaga
dijajah
dijalankan
dijamin
dijana
dijangka
dijangkakan
dijangkiti
dijanjikan
dijaringkan
dijatuhi
dijatuhkan
dijelaskan
dijemput
dijenamakan
dijk
dijual
dijumpai
dikaitkan
dikaji
dikalahkan
dikalangan
dikarang
dikatakan
dikategorikan
dikawal
dikawasan
dikebumikan
dikecam
dikecualikan
dikehendaki
dikejar
dikejutkan
dikekalkan
dikelaskan
dikelilingi
dikelirukan
dikelola
dikeluarkan
dikemas
dikemaskini
dikembalikan
dikembangkan
dikemukakan
dikenakan
dikenal
dikenali
dikenalpasti
dikenang
dikendali
dikendalikan
dikepung
dikerahkan
dikeringkan
dikesan
diketahui
diketengahkan
diketepikan
diketuai
dikhabarkan
dikhaskan
dikhuatiri
dikhususkan
dikir
dikira
dikirim
diklasifikasikan
dikongsi
dikosongkan
dikreditkan
dikritik
diktator
dikuasai
dikuasakan
dikuatkuasakan
dikukus
dikumpul
dikumpulkan
dikunjungi
dikurangkan
dikurniakan
dikurung
dikutip
dil
dilabel
dilabelkan
dilahirkan
dilakonkan
dilaksanakan
dilakukan
dilakukannya
dilalui
dilambangkan
dilampirkan
dilancarkan
dilanda
dilanggar
dilangsungkan
dilanjutkan
dilantik
dilaporkan
dilarang
dilatih
dilawati
dilayan
dilekatkan
dilema
dilengkapi
dilengkapkan
dilepaskan
dilesenkan
diletak
diletakkan
diletupkan
dilihat
dilindungi
dilipat
diliputi
dilitupi
dillon
diluar
dilucutkan
dilukis
diluluskan
dilupakan
dimahkotakan
dimainkan
dimajukan
dimakamkan
dimakan
dimaklumkan
dimaksudkan
dimana
dimanfaatkan
dimansuhkan
dimas
dimasak
dimasukkan
dimenangi
dimensi
dimension
dimeterai
dimiliki
dimilikinya
diminati
diminta
diminum
dimuat
dimuatkan
dimulai
dimulakan
dimusnahkan
din
dina
dinafikan
dinaik
dinaiki
dinaikkan
dinaiktaraf
dinamai
dinamakan
dinamik
dinamo
dinar
dinas
dinasihatkan
dinasti
dinding
ding
dingin
dini
dinikmati
dinilai
dinner
dino
dinobatkan
dinosaur
dinosaurs
dinyalakan
dinyanyikan
dinyatakan
dioksida
diolah
dion
dioperasikan
dipadamkan
dipadankan
dipakai
dipaksa
dipamerkan
dipanaskan
dipancarkan
dipandang
dipandu
dipanggang
dipanggil
dipanjangkan
dipantau
dipaparkan
dipasang
dipasangkan
dipasarkan
dipastikan
dipatahkan
dipatuhi
dipecah
dipecahkan
dipecat
dipegang
dipelajari
dipelihara
dipelopori
dipendekkan
dipengaruhi
dipengerusikan
dipenjara
dipenjarakan
dipentaskan
dipenuhi
diperakui
diperbadankan
diperbaharui
diperbaiki
diperbesarkan
diperbuat
dipercayai
diperdebatkan
dipergunakan
diperhatikan
diperiksa
diperintah
diperintahkan
diperkatakan
diperkenalkan
diperkirakan
diperlihatkan
diperluas
diperluaskan
diperlukan
diperoleh
diperolehi
dipersembahkan
dipersetujui
dipersoalkan
dipertahankan
dipertandingkan
dipertanggungjawabkan
dipertikaikan
dipertimbangkan
dipertingkatkan
dipertontonkan
dipertua
dipertuan
diperuntukkan
dipesan
dipetik
dipilih
dipimpin
dipinda
dipindah
dipindahkan
dipinjam
dipinjamkan
dipisahkan
diploma
diplomacy
diplomasi
diplomat
diplomatic
diplomatik
diponegoro
dipopularkan
dipotong
dipromosikan
diproses
dipterokarp
dipuji
dipujuk
dipukul
dipulangkan
dipulihkan
diputerakan
diputuskan
dir
diraih
diraikan
diraja
dirakam
dirakamkan
diramalkan
dirampas
dirancang
dirancangkan
dirasai
dirasakan
dirasmikan
dirawat
dirayakan
direbus
direct
directed
direction
director
directors
directory
direka
direkabentuk
direkodkan
direkrut
direktorat
direktori
direndam
diri
dirilis
diringkaskan
dirinya
diriwayatkan
dirk
dirobohkan
dirty
dirujuk
dis
disabitkan
disahkan
disajikan
disaksikan
disalah
disalin
disalurkan
disamakan
disambung
disambungkan
disambut
disampaikan
disamping
disana
disandang
disangka
disanjung
disarankan
disasarkan
disaster
disatukan
disayangi
disc
disco
discography
discogs
discover
discovered
discovery
discussion
disease
diseases
disebabkan
disebalik
disebarkan
disebelah
disebut
disebutkan
disedari
disediakan
disegani
disejukkan
disekat
disekitar
diseksa
diselamatkan
diselaraskan
diselenggarakan
diselesaikan
diselubungi
diseluruh
disemadikan
disemak
disembah
disember
disembunyikan
disempurnakan
disenangi
disenaraikan
disengajakan
disentuh
diserahkan
diserang
diserap
diserapkan
disertai
disertakan
disesuaikan
disetujui
disewa
dish
disiapkan
disiarkan
disiasat
disifatkan
disimpan
disimpulkan
disingkat
disingkatkan
disingkirkan
disini
disiplin
disirikan
disitu
disk
diskograf
diskografi
diskriminasi
disney
disneyland
disoal
disokong
disorder
disorders
display
displayauthors
displaystyle
dispute
distance
distinguished
distributed
distribution
distributor
distributors
district
districts
distrik
disuarakan
disukai
disumbangkan
disunting
disuruh
disusuli
disusun
disyaki
disyorkan
ditabalkan
ditadbir
ditafsirkan
ditahan
ditahbiskan
ditaja
ditakdirkan
ditakluk
ditakluki
ditakrifkan
ditamatkan
ditambah
ditambahkan
ditampilkan
ditanam
ditanda
ditandai
ditandakan
ditandatangani
ditandingi
ditangani
ditangguhkan
ditanggung
ditangkap
ditanya
ditapis
ditarik
ditauliahkan
ditawan
ditawarkan
ditayang
ditayangkan
ditekan
ditekankan
ditelan
ditemani
ditembak
ditempah
ditempat
ditempatkan
ditemui
ditemukan
ditengah
ditenggelamkan
ditentang
ditentukan
diterajui
diterangkan
diterapkan
diterbangkan
diterbit
diterbitkan
diterima
diterimanya
diterjemah
diterjemahkan
diternak
diterokai
diteruskan
ditetapkan
ditewaskan
ditikam
ditimbulkan
ditimpa
ditindas
ditinggalkan
ditingkatkan
ditolak
ditonjolkan
ditonton
dituai
ditubuhkan
dituduh
ditugaskan
ditujukan
ditukar
ditukarkan
ditulis
ditunda
ditunjuk
ditunjukkan
dituntut
diturunkan
ditutup
ditutupi
ditutur
dituturkan
diubah
diubahsuai
diucapkan
diuji
diukir
diukur
diulang
diumumkan
diundang
diundi
diungkapkan
diupah
diurus
diuruskan
diusahakan
diusir
diusulkan
diutamakan
div
diva
diversity
divided
divine
diving
divisi
division
divisions
divisyen
diwajibkan
diwakili
diwarisi
diwartakan
diwujudkan
dixit
dixon
diyakini
dj
djibouti
dk
dki
dkk
dl
dll
dlm
dm
dn
dna
dns
do
doa
doc
docs
doctor
doctors
doctrine
document
documentary
documentation
documents
does
doesn
dog
dogs
doh
doha
doi
doing
dok
doktor
doktrin
dokumen
dokumentari
dokumentasi
dol
dolar
dolby
doll
dolla
dollah
dollar
dolores
dom
domain
domazlice
dome
domestic
domestication
domestik
dominan
dominasi
domingo
dominic
dominica
dominika
dominion
dominique
domino
don
donald
done
donetsk
dong
donga
dongeng
donggala
donna
donovan
doo
doom
door
doosan
dora
doraemon
dordogne
doris
dorongan
dorothy
dorsal
dortmund
dos
dosa
dot
double
doubleday
doubs
doug
douglas
dove
dover
dow
down
download
downloaded
downtown
doyle
dozen
dozens
dp
dpr
dq
dr
draco
draf
draft
dragon
dragons
drake
dram
drama
dramatik
dramatis
drastik
draw
drawings
draws
drc
dream
dreams
dreamworks
dress
drew
drift
drink
drive
driver
driving
drome
drop
drops
drs
drug
drugs
drum
drummer
dry
ds
dsb
dsp
dt
du
dua
dual
duanya
dub
dubai
dublin
dubrovnik
dubur
duchess
duchy
duck
duda
duduk
due
duet
duffy
dugaan
duit
duka
duke
dukuh
dukun
dukungan
dulang
duli
dulu
duluan
dulunya
dumbledore
dun
duncan
dundee
dune
dung
dungun
dunia
duniawi
dunkirk
dunn
duo
duplicates
duren
durham
duri
durian
during
dushanbe
dust
dusun
duta
dutch
duterte
dutt
dutta
duty
duyong
duyung
dv
dvb
dvd
dw
dwarf
dwi
dwibahasa
dwight
dx
dy
dylan
dymm
dynamic
dynamics
dynamo
dynasty
dz
e
e0
e1
e2
e3
e4
e5
e6
e7
e8
e9
ea
each
eagle
earl
earlier
earliest
early
earth
earthquake
east
eastbourne
easter
eastern
easy
eat
eater
eating
eb
ebert
ebola
ec
echo
eckernforde
eclipse
eco
ecole
ecological
ecology
economic
economics
economist
economy
ecuador
ed
edaran
eddie
eddy
eden
edgar
edge
edi
edinburgh
edisi
edison
edit
edited
edith
edition
editions
editor
editorial
editors
edmonton
edmund
edo
edry
eds
edu
eduard
eduardo
education
educational
edward
edwards
edwin
ee
een
ef
efek
efektif
effect
effective
effects
effendi
effort
efforts
efisien
eg
egan
egg
ego
egypt
egyptian
eh
ehime
ehsan
ehwal
ei
eiffel
eight
eilish
ein
eindhoven
eine
einstein
einwohnerzahlen
eisenhower
either
eizlan
ej
eja
ejaan
ejen
ek
eka
ekar
eko
ekologi
ekonomi
ekonominya
ekor
ekoran
ekornya
ekosistem
eksekutif
eksklusif
eksotik
ekspatriat
ekspedisi
eksperimen
eksploitasi
ekspo
eksport
ekspres
ekspresi
ekstrak
ekstrem
ekuinoks
ekuiti
ekzos
el
ela
elaine
elaun
elder
eleanor
elected
election
elections
electoral
electric
electrical
electricity
electronic
electronics
elektrik
elektrod
elektromagnet
elektron
elektronik
elemen
element
elementary
elements
elena
elephant
eletrik
eleven
elf
eli
elias
eliot
elisabeth
elit
elite
elizabeth
ella
elle
ellen
ellie
elliot
elliott
ellis
elly
elok
elsa
else
elsevier
elvis
elyana
em
ema
email
emak
emas
embassy
embrio
embun
emerald
emergence
emergency
emerging
emeritus
emerson
emi
emil
emile
emilia
emilio
emily
emir
emirates
emiriah
emma
emmanuel
emmy
emosi
empangan
empat
empayar
emperor
empire
empires
employment
emporda
emporis
empress
empty
emu
en
enak
enakmen
enam
enamel
encik
encyclopaedia
encyclopedia
encyclopædia
end
endah
endangered
endau
ende
ended
endemik
ending
endo
ends
enemy
energy
enewsworld
eng
enggan
enggang
engine
engineer
engineering
engineers
engines
engkau
engku
engl
england
english
enigma
enix
enjin
enough
enrico
enrique
ensemble
ensiklopedia
entah
enter
enterprise
enterprises
enters
entertain
entertainment
entire
entiti
entri
entries
entry
enumerated
environment
environmental
enzim
eo
eon
eosentomon
ep
epa
epal
epce
epic
epik
episod
episode
episodes
eps
epsilon
eq
equal
equipe
equipment
equity
equus
er
era
erat
erdogan
eredivisie
eresources
eri
eric
erich
ericsson
erik
erika
erin
eritrea
erma
ernest
ernie
ernst
eropa
eropah
eros
erotik
erra
error
erti
ertinya
eruption
erwin
es
esa
escape
esei
esok
espana
especially
esperanto
espn
esposito
essay
essays
essential
essex
essonne
est
established
establishment
estadio
estate
este
ester
estet
estetik
estetika
esther
estima
estimate
estimated
estimates
estonia
estrada
et
etanol
etat
etc
eternal
ethan
ethics
ethiopia
ethiopian
ethnic
ethnicity
ethnologue
etienne
etika
etimologi
etnik
etymology
eu
euclid
eugene
euler
eumhun
eun
eurasia
eure
eureka
euro
eurocopter
eurofighter
eurogamer
euronews
europa
europe
european
eurosport
eurovision
eusebius
ev
eva
evaluation
evan
evans
eve
evelyn
even
evening
event
events
ever
everest
everett
everton
every
everybody
everyday
everyone
everything
evidence
evil
evo
evolusi
evolution
evolutionary
ew
ex
examination
example
examples
excellence
excellent
except
excerpt
exchange
exclusive
exco
executive
exercise
exhibition
exile
exist
exists
exit
exodus
expanded
expands
expansion
expected
expedition
experience
experiment
experimental
experiments
expert
experts
explained
explains
explanation
explicit
exploration
explore
explorer
exploring
explosion
expo
export
express
expression
expressway
extended
extension
extensive
external
extinction
extra
extraordinary
extremadura
extreme
ey
eye
eyed
eyes
ez
eza
ezra
f
f0
f1
f2
f3
f4
f5
f6
f7
f8
f9
fa
faa
faber
fabian
fabio
fabrik
face
facebook
faces
facilities
fact
factbook
facto
factor
factors
factory
facts
factsheet
faculty
fadil
fadzil
faedah
fahad
faham
fahaman
fahd
fahmi
fahrenheit
fahrin
fai
fail
failed
failure
fair
fairfax
fairuz
fairy
faisal
faisalabad
faith
faiz
faizal
fajar
fake
fakir
faks
fakta
faktor
fakultas
fakulti
falah
falak
falcon
falkland
fall
fallen
falling
falls
falsafah
false
fam
fame
famili
families
family
famous
fan
fana
fancy
fandi
fandom
fang
fans
fantasi
fantasia
fantastic
fantasy
fao
faq
far
fara
farah
faraj
fardhu
fardu
farewell
farhan
farhana
farid
farida
faridah
farihad
faris
farish
fariz
farm
farmaseutikal
farmasi
farmer
faroe
farouk
farquhar
farrel
farrell
fars
fas
fasa
fasal
fasha
fashion
fasih
fasiliti
fasis
faso
fast
fat
fatah
fatal
fate
fathaniyah
father
fatihah
fatima
fatimah
fatin
fattah
fatty
fatwa
fauna
faust
fauzi
fauziah
favorite
favourite
fax
fazenda
fazira
fazura
fb
fbi
fc
fd
fda
fe
fear
fearless
fears
feat
feature
featured
features
featuring
feb
februari
february
federal
federation
federico
feed
feel
feeling
feet
fei
felcra
felda
felipe
felix
fellow
fellows
fellowship
felo
female
feminin
feminist
fendi
feng
fenomena
ferdinand
ferguson
feri
feride
fernandes
fernandez
fernando
ferrari
ferreira
ferry
fest
festival
fesyen
feudal
fever
few
feynman
ff
ffm
fg
fh
fi
fia
fiat
fiction
fidel
field
fields
fifa
fifi
fifth
fifty
figc
fight
fighter
fighters
fighting
figure
figures
fih
fiji
fikir
fikiran
fikirannya
fikri
fiksyen
fil
file
filem
filemnya
files
filipina
filipino
film
filmfare
filmindonesia
filming
filmografi
filmography
films
filum
filzah
fin
final
finale
finalis
finally
finals
finance
financial
finas
find
finding
finds
fine
finish
finistere
finland
finn
finnish
fiona
fiorentina
fiqh
firaun
firdaus
fire
firefly
firefox
fires
firm
firma
firman
first
fiscal
fischer
fish
fishbase
fisher
fisheries
fisiologi
fiskal
fist
fit
fitnah
fitri
fitzgerald
fius
fiuslaj
five
fixed
fixtures
fizik
fizikal
fizikalnya
fizz
fj
fk
fl
flag
flags
flame
flanders
flash
flat
fleet
fleksibel
fleming
flensburg
fletcher
flies
flight
flightglobal
flightradar
flights
flinders
flizzow
flood
floods
floor
flora
florence
flores
florida
flow
flower
flowers
floyd
flu
fluorida
fly
flying
flynn
flyscoot
fm
fn
fo
focke
focus
fokker
fokus
folk
folklore
follow
following
follows
fon
fonem
fonetik
fong
fonologi
font
fontaine
foo
food
foods
fool
foot
footage
football
footballers
for
forbes
forbidden
force
forced
forces
ford
foreign
forensik
forest
forestry
forests
forever
forget
forgotten
form
formal
formasi
format
formation
formed
former
formerly
forms
formula
forrest
forster
fort
fortress
fortschreibung
fortune
forty
forum
forward
fosfat
fosforus
fosil
foss
fossil
foster
foto
fotograf
fotografi
foton
fotosintesis
found
foundation
foundations
founded
founder
founding
four
fourth
fowler
fox
fp
fq
fr
fra
frac
frame
framework
fran
franc
franca
francais
francaise
france
frances
francesco
franche
franchise
francis
francisco
franco
francois
frank
frankfurt
frankie
franklin
franz
frasa
fraser
fred
freddie
frederic
frederick
free
freedom
freeman
freistaates
frekuensi
fremantle
french
frequency
frequently
fresh
freshwater
fribourg
friday
fried
friedman
friedrich
friend
friendly
friends
friendship
frigat
frigate
fritz
friuli
frog
from
front
frontale
frontier
frontiers
frosinone
frost
frozen
frs
fruit
fruits
fry
fs
ft
fu
fuad
fuel
fuhrer
fuji
fujian
fujimoto
fukuda
fukuoka
fukushima
fulham
full
fullbottle
fuller
fully
fun
function
functional
functions
fund
fundamental
fundamentals
funding
funeral
fung
fungsi
fungsinya
funimation
funk
funny
fur
furious
further
fury
fusic
fusion
fussballdaten
futbol
futsal
future
fuzhou
fv
fw
fx
fy
fz
g
g0
g1
g2
g3
g4
g5
g6
g7
g8
g9
ga
gaara
gab
gabenor
gabon
gabriel
gabungan
gadang
gaddafi
gading
gadis
gadong
gaga
gagah
gagak
gagal
gagasan
gah
gai
gaia
gail
gain
gaisha
gaius
gajah
gaji
gakuen
gal
gala
galactic
galactica
galah
galak
galakan
galaksi
galang
galanya
galas
galaxy
gale
galeri
gali
galian
galicia
galileo
gallagher
gallen
gallery
gallipoli
galur
gam
gama
gamba
gambang
gambar
gambaran
gambia
gambir
gamble
gambut
game
gamelan
gamer
games
gamespot
gaming
gamma
gampong
gan
ganang
ganas
ganda
gandar
gandhi
gandingan
gandum
gang
gangguan
gangnam
gangsa
gangster
gani
ganja
ganjar
ganjaran
ganjil
gansu
gantang
ganti
gantian
gantikanlah
gantung
gantungan
gao
gaon
gap
gapena
gara
garaj
garam
garang
garcia
gard
garde
garden
gardens
gardiner
gardner
gareth
garfield
garis
garisan
garison
garland
garonne
garrett
garuda
garut
gary
gas
gasing
gatal
gatas
gate
gates
gateway
gau
gauge
gaul
gaulle
gaung
gave
gavin
gawai
gawang
gay
gaya
gayo
gayong
gayung
gayvn
gaza
gazetir
gazette
gazetteer
gb
gc
gd
gdp
ge
gear
gebang
gede
gedong
gedung
geek
gegar
gegaran
geiger
gejala
gel
geladak
gelam
gelang
gelanggang
gelap
gelar
gelaran
gelarannya
gelas
gelembung
gelombang
gelora
gelugor
gelung
gema
gemar
gemas
gembala
gembira
gemeente
gemeinden
gemencheh
gemilang
gemini
gempa
gempak
gempakstarz
gempur
gemuk
gemuruh
gen
genap
gencatan
gendang
gender
gene
genealogy
genera
general
generalleutnant
generally
generalmajor
generaloberst
generals
generasi
generation
generations
generik
genes
genesis
genetic
genetics
genetik
geneva
geng
genghis
genie
genitif
genius
genji
genoa
genocide
genom
genome
genre
gentian
genting
gentleman
genus
geo
geoff
geoffrey
geografi
geographic
geographical
geography
geologi
geological
geology
geometri
geometry
geonames
geonet
geopark
geophysical
georg
george
georges
georgetown
georgia
georgian
georgie
gerabak
gerai
gerak
gerakan
gerald
geraldine
geran
gerard
gerbang
gerd
gereja
gergaji
gergasi
gerhana
gerhard
gerik
gerila
germain
german
germany
gers
gersang
gesa
geschichte
geseran
get
getah
getaran
gets
getting
geum
geun
gf
gg
gh
ghafar
ghaib
ghana
ghani
ghazal
ghazali
ghazi
ghost
ghulam
gi
gia
giacomo
giant
giants
giat
gibbs
gibraltar
gibson
gif
gift
gifu
gig
gigi
gigih
gigitan
gil
gila
gilan
gilbert
gilda
giles
gilgamesh
gilir
giliran
gill
gim
gimnasium
gimnastik
gin
gina
gincu
gini
ginjal
ginny
giorgio
giovanni
gipuzkoa
giri
girl
girlfriend
girls
giro
girona
gironde
gita
gitar
gitaris
giulia
giuseppe
give
given
gives
giving
gj
gk
gl
glance
glasgow
glasier
glass
glee
glen
glenn
global
globalisasi
globalization
globalsecurity
globe
glock
gloria
glorious
glory
glossary
glotis
glover
glukosa
gm
gma
gmail
gmbh
gmt
gn
gnome
gnu
go
goa
goal
goals
god
goddard
goddess
goddesses
gods
godzilla
goes
goeslaw
gogh
goguryeo
goh
going
gojek
gojong
gol
gold
goldberg
golden
goldman
goldstein
golestan
golf
golkar
golok
golongan
gombak
gomes
gomez
gon
gone
gong
gonzalez
goo
good
goodbye
goodman
goodreads
goods
goodwin
google
gook
gopal
gopeng
gorbachev
gordon
gore
goreng
goresan
goring
gorman
gorontalo
goryeo
gosip
gospel
gossip
got
goth
gothic
goto
gotong
gould
gov
governance
government
governo
governor
govt
gowa
goyang
gp
gpk
gprs
gps
gq
gr
grabby
grace
grade
graduan
graduate
graf
grafik
graham
grail
gram
gramedia
grammar
grammy
grampus
gran
granada
grand
grande
granit
grant
graphics
graubunden
grave
graves
graviti
gravity
gray
grc
great
greater
greatest
gred
greece
greek
green
greene
greenland
greenpeace
greenwich
greenwood
greg
gregorius
gregory
greifswald
grenada
gresik
grey
grid
griffin
griffith
griffiths
gripen
gross
ground
group
groups
grove
grover
grow
growing
grown
growth
grumman
grundlage
grup
gruyter
gryffindor
gs
gsm
gst
gt
gu
gua
guadalajara
guam
guaman
guan
guangdong
guangxi
guangzhou
guar
guard
guardian
guardians
guatemala
gubahan
gubernur
gudang
guerra
guerrero
guest
gugur
gugusan
gui
guiana
guidance
guide
guidelines
guides
guild
guilin
guillaume
guillermo
guilty
guinea
guinness
guitar
guizhou
gujarat
gujarati
guk
gula
gulai
gulf
gulung
gulungan
gum
gun
guna
gunaan
gunakan
gunawan
gundam
gundik
gunma
gunong
guns
gunther
gunting
gunung
guo
gupta
gurdwara
gurkha
gurney
guru
guruh
gurun
gurunya
gus
gusi
gustav
gustavo
gusti
gutawa
gutenberg
gutierrez
guy
guyana
guys
guzman
gv
gw
gwang
gx
gy
gyeonggi
gyor
gyu
gz
h
h0
h1
h2
h3
h4
h5
h6
h7
h8
h9
ha
haag
haaretz
hab
haba
habib
habibie
habis
habitat
hablur
habsah
habsburg
habsyah
habuk
had
hadapan
hadapannya
hadapi
hades
hadi
hadiah
hadid
hadir
hadirin
hadis
hadith
hadits
hae
hafidz
hafiz
hagrid
hague
hahn
hai
haid
haidar
haikal
haikou
hail
hain
hainan
hair
hairi
hairul
haiti
haiwan
haj
hajah
hajar
hajat
haji
hajime
hajj
hajjah
hajji
hak
hakikat
hakikatnya
hakim
hakisan
hakka
haknya
hal
hala
halaju
halal
halaman
halamannya
halangan
hale
half
halia
halim
halimah
halimunan
hall
halloween
halnya
halo
haluan
halus
ham
hama
hamad
hamadan
hamas
hamba
hamburg
hamburger
hamdan
hamid
hamidah
hamidi
hamil
hamilton
hamka
hamlet
hammer
hammond
hampar
hamparan
hampir
hampshire
hamzah
han
hana
hanafi
hanani
hancinema
hancur
hand
handal
handbook
handelsblad
hands
hang
hangat
hangeul
hangul
hangus
hangzhou
hani
hanif
hanifah
hanim
hanis
hanisah
hanja
hank
hanna
hannah
hannibal
hanoi
hanover
hans
hansard
hansen
hantar
hantaran
hantu
hanya
hanyalah
hanyu
hanyut
hao
happened
happiness
happy
haq
har
hara
harafiah
harakah
harakahdaily
harald
haram
harap
harapan
harbor
harbour
harcourt
hard
hardcore
hardcover
harding
hardware
hardy
hare
harem
harfiah
harfiahnya
harga
harganya
hari
harian
haribulan
harimau
harinya
haris
harith
hariz
harmoni
harmony
harold
haron
harper
harpercollins
harrier
harriet
harris
harrison
harry
hart
harta
hartanah
hartawan
haru
haruka
harum
harun
haruna
harus
haruslah
harv
harvard
harvest
harvey
haryana
haryati
has
hasan
hasanuddin
hashim
hasil
hasilan
hasilnya
haslam
hasmah
hasnah
hasnan
hasrat
hasratnya
hassan
hassanal
hastings
hasutan
hasyim
hat
hate
hati
hatiku
hatimu
hatinya
hatrik
hatta
hattan
haus
haut
haute
hautes
havana
have
haven
havilland
having
havlickuv
hawa
hawai
hawaii
hawaiian
hawk
hawker
hawking
hawkins
hay
hayashi
hayat
hayate
hayati
hayatnya
hayden
hayes
haymarket
hazama
hazard
hazards
haze
hazel
haziq
hb
hbo
hc
hd
hdl
hdtv
he
head
headed
headline
headquarters
heads
healing
health
healthcare
healthy
hear
heard
hearing
heart
hearts
heat
heath
heathcote
heather
heaven
heavy
hebat
hebei
hebrew
hector
hee
heer
hei
heian
heidelberg
heider
heidi
height
heights
heinemann
heinrich
heinz
hektar
helah
helai
helaian
helang
held
helen
helena
helicopter
helikopter
heliport
helium
hell
hello
helm
helmi
help
helped
helsinki
hem
hemisfera
hemoglobin
hempedu
hemsworth
hen
hendak
hendaklah
hendap
henderson
hendrix
heng
henri
henry
henson
hentaman
henti
hentian
heo
hepatitis
hepburn
her
hera
herald
herault
herba
herbert
hercules
here
heritage
herman
hermann
hermes
hermione
hernandez
hernia
hero
herodotus
heroes
heroin
heroines
herrera
herschel
herzegovina
hess
hesse
het
heteroseksual
hetty
hey
hf
hg
hh
hi
hiasan
hibrid
hiburan
hicom
hidangan
hidayah
hidayat
hidden
hide
hideyoshi
hidraulik
hidro
hidroelektrik
hidrogen
hidrokarbon
hidroksida
hidung
hidup
hidupan
hidupnya
hierarki
hieroglif
higgins
high
higher
highest
highland
highlands
highlights
highly
highway
hijab
hijau
hijaz
hijjaz
hijrah
hijriah
hikari
hikaru
hikayat
hikmah
hikmet
hilal
hilang
hilary
hilir
hill
hillary
hills
hilmi
hilton
him
himalaya
himpunan
himself
hin
hina
hinata
hindenburg
hindi
hindia
hindraf
hindu
hinduism
hinduisme
hindustan
hingar
hingga
hinggakan
hinggalah
hip
hipotesis
hiragana
hirisan
hiro
hiroshi
hiroshima
hiroyuki
his
hisham
hishammuddin
hishamuddin
histoire
historia
historian
historic
historical
histories
history
hisyam
hit
hitam
hitler
hitomi
hits
hitsugaya
hitz
hiv
hj
hjh
hk
hkcn
hkt
hl
hlm
hm
hmetro
hms
hn
ho
hoa
hobart
hobbit
hobi
hoc
hock
hockey
hodgkins
hodonin
hoe
hoffman
hogan
hogwarts
hoi
hokage
hoki
hokkaido
hokkien
hold
holden
holding
holdings
holds
hole
holiday
holidays
holland
hollow
holly
hollyhock
hollywood
holmes
holocaust
holokus
holstein
holt
holy
home
homepage
homer
homes
homestay
homo
homoseksual
homosexuality
hon
honda
honduras
honey
hong
honolulu
honor
honorary
honors
honour
honours
honshu
hoo
hood
hoogtebestand
hook
hooker
hoon
hoover
hop
hope
hopes
hopkins
hora
horace
horizon
horizons
hormat
hormon
hormozgan
horn
hornet
horni
horror
horse
horses
hos
hoseynabad
hospital
host
hosted
hosting
hosts
hot
hotel
hotels
hotspur
hou
houghton
hound
hour
hours
house
household
houses
housing
houston
how
howard
howe
howell
however
hp
hq
hr
hradec
hradiste
hs
hsbc
hsien
ht
htm
html
http
https
hu
hua
huang
huat
huawei
hub
hubble
hubei
hubert
hubung
hubungan
hubungannya
hud
huda
hudgens
hudson
huelva
huesca
huffington
huge
hugh
hughes
hugman
hugo
hui
hujah
hujan
hujung
hujungnya
hukum
hukuman
hull
hulu
hulubalang
hum
human
humanities
humans
hume
humor
hun
hunan
hundred
hundreds
hung
hungama
hungarian
hungary
hunger
hunt
hunter
hunting
huntington
huraian
hurairah
hurricane
hurt
huru
huruf
husain
husaini
husband
husein
husin
husna
husni
hussain
hussein
hussin
hut
hutama
hutan
hutang
hutchinson
hv
hw
hwa
hwan
hwang
hx
hy
hyang
hybrid
hyde
hyderabad
hye
hyeon
hyo
hyogai
hyuga
hyuk
hyun
hyundai
hyung
hz
i
i0
i1
i2
i3
i4
i5
i6
i7
i8
i9
ia
iaitu
ialah
ian
iana
ianya
iata
iau
ib
ibadah
ibadat
iban
ibarat
iberia
ibid
iblis
ibm
ibn
ibni
ibnu
ibrahim
ibrani
ibtidaiyah
ibu
ibubapa
ibukota
ibukotanya
ibunda
ibunya
ic
icao
ice
iceland
ichi
ichigo
ichiro
icon
ict
icu
id
ida
idaho
idaman
idayu
ide
idea
ideal
ideas
identification
identified
identifier
identiti
identitinya
identity
ideologi
ideology
idf
idham
idi
ido
idol
idola
idris
idrus
ie
iec
ieee
ieyasu
if
ifa
iflix
ifpi
ig
ign
ignatius
ignored
igor
ih
ihsan
ii
iida
iii
iiss
ij
ijazah
ijn
ijok
ik
ika
ikan
ikat
ikatan
ikhlas
ikhwan
iklan
iklim
ikon
ikonik
ikram
ikrar
ikut
ikutan
il
ila
ilahi
ilam
ilbo
ile
ilham
ilir
ill
ille
illegal
illinois
illustrated
illustrations
ilmiah
ilmu
ilmuwan
ilocos
iloilo
ilusi
ilustrasi
ilya
ilyas
ilyushin
im
image
images
imagination
imagine
imaging
imam
iman
imax
imbangan
imbas
imbasan
imbuhan
imdb
imej
imelda
imf
img
imigran
imigrasi
imigresen
immigration
impact
impacts
impak
impeachment
imperial
imperialisme
impian
impiannya
implementation
implications
implikasi
import
importance
important
impossible
imran
imun
in
ina
inas
inaugural
inc
inca
incheon
inci
incidence
incident
include
included
includes
including
income
incorporated
increase
increased
incredible
ind
indah
indeks
independence
independent
indera
index
india
indian
indiana
indianapolis
indians
indiatimes
indie
indies
indiewire
indigenous
indigo
indira
individu
individual
individuals
indo
indochina
indonesia
indonesian
indosiar
indra
indramayu
indre
induced
induk
induknya
indulgensi
indus
industri
industrial
industries
industry
inersia
inews
infantri
infantry
infection
infections
infectious
inferno
infinite
infinity
inflasi
influence
influential
influenza
info
informasi
information
infotaip
infra
inframerah
infrastructure
infrastruktur
ing
ingat
ingatan
ingatlah
inggeris
inggerisnya
inggris
ingin
inginkan
ini
inilah
inisiatif
initial
initiative
injap
injil
injured
injury
inn
inner
innocence
innocent
innovation
inorganic
inoue
inovasi
inovatif
input
inquirer
inquiry
ins
insaf
insan
insani
insee
insentif
inside
insiden
insider
insight
insights
insignia
inskripsi
inspector
inspektor
inspirasi
inspiration
inspired
instagram
instead
institusi
institut
institute
institution
institutions
instituto
instrumen
instrument
instrumental
instruments
insulin
insurance
insurans
int
intan
inteam
integer
integrasi
integrated
integration
integriti
intel
intelek
intelektual
intellectual
intelligence
intensif
inter
interaction
interactive
interaksi
interaktif
intercontinental
interest
interface
interim
interior
internal
internasional
international
internationale
internazionale
internet
interpol
interpretation
interstellar
interview
interviews
inti
intim
intipati
into
intro
introduced
introduces
introducing
introduction
inuyasha
invalid
invasion
invention
inventori
investigation
investment
investor
invisible
involved
io
ioc
iodin
ion
ios
iowa
ip
ipa
ipad
ipar
iparnya
ipc
ipcc
iphone
ipin
ipo
ipod
ipoh
ipv
iq
iqbal
ir
ira
irama
iran
iranian
iranica
iraq
iraqi
ireland
irene
irfan
iri
iringan
iris
irish
irma
iron
irvine
irving
irwan
irwin
is
isa
isaac
isabel
isabela
isabella
isbn
isere
isfahan
ishak
ishaq
ishida
ishikawa
isi
isidro
isih
isinya
isipadu
isis
iskandar
iskandariah
isla
islam
islamabad
islami
islamiah
islamic
islamiyah
island
islands
isle
isma
ismail
isn
isnin
iso
isotop
israel
israeli
iss
issn
issue
issued
issues
ist
istana
istanbul
istat
isteri
isterinya
istiadat
istilah
istimewa
istimewanya
istri
isu
isuzu
isyarat
it
ita
itachi
itali
italia
italian
italiana
italic
italik
italy
itam
item
ithaca
itik
itis
ito
its
itself
itu
itulah
itunes
itv
iu
iucn
iupac
iv
ivan
iverson
ivoire
ivory
ivy
iw
iwan
iwata
ix
ixodes
iy
iz
izham
izin
izwan
izzah
j
j0
j1
j2
j3
j4
j5
j6
j7
j8
j9
ja
jaafar
jabatan
jabor
jabung
jack
jackass
jackie
jackson
jaclyn
jacob
jacobs
jacqueline
jacques
jade
jadi
jadian
jadikan
jadinya
jadual
jae
jaen
jaga
jagaan
jaguar
jaguh
jagung
jah
jahan
jahat
jaheaik
jahit
jahitan
jai
jail
jailani
jaime
jain
jais
jajahan
jajaran
jakal
jakarta
jakartatimur
jake
jaket
jakim
jakob
jaksa
jaktim
jakun
jal
jala
jalal
jalaluddin
jalan
jalanan
jalanraya
jalil
jalilabad
jalinan
jalur
jam
jama
jamaah
jamaica
jamak
jamal
jamaluddin
jamalullail
jambak
jambatan
jambi
jambu
jambul
jamek
james
jamie
jamil
jamin
jaminan
jammu
jampi
jamuan
jan
jana
janakuasa
janda
jane
janeiro
janet
jang
jangan
janganlah
janggut
jangka
jangkaan
jangkauan
jangkitan
janice
janin
janji
janjinya
janna
jannah
jansen
jantan
jantina
jantung
januari
january
japan
japanese
jarak
jaraknya
jarang
jared
jari
jaring
jaringan
jarum
jas
jasa
jasad
jasanya
jasin
jasmani
jasmay
jasmin
jasmine
jason
jasper
jassim
jassin
jata
jati
jatinegara
jatuh
jatuhnya
jauh
jauhnya
java
javascript
javed
javier
jawa
jawab
jawapan
jawatan
jawatankuasa
jawatannya
jaweon
jawi
jay
jaya
jayanya
jayapura
jazeera
jazz
jb
jc
jd
jdt
je
jean
jeanne
jebat
jed
jeddah
jedi
jef
jeff
jefferson
jeffrey
jefri
jejak
jejaka
jejambat
jejari
jeju
jelai
jelajah
jelapang
jelas
jelata
jelebu
jeli
jelita
jelmaan
jelutong
jem
jemaah
jembal
jempol
jemputan
jen
jenaka
jenama
jenayah
jenazah
jenazahnya
jendela
jenderal
jeneral
jengka
jeniang
jenis
jenkins
jennifer
jenny
jens
jensen
jenson
jentera
jeon
jeong
jeonju
jepang
jepara
jepun
jerai
jeram
jerami
jerantut
jerebu
jeremy
jericho
jering
jeritan
jerman
jermanik
jernih
jerome
jerry
jersey
jersi
jerteh
jeruk
jerung
jerusalem
jesse
jesselton
jessica
jessie
jesuit
jesus
jet
jeti
jets
jetstar
jewel
jewish
jews
jf
jg
jh
jharkhand
ji
jia
jian
jiang
jiangsu
jiangxi
jibril
jicin
jie
jihad
jihlava
jika
jikalau
jikan
jil
jilid
jill
jim
jimenez
jimmy
jin
jinak
jindrichuv
jing
jingga
jins
jintan
jiraiya
jiran
jirannya
jirim
jisim
jit
jiten
jitra
jitu
jiwa
jj
jk
jkkn
jkr
jkt
jl
jln
jm
jma
jmpl
jn
jo
joachim
joan
joanna
joao
joaquin
job
jobs
jodi
jodoh
joe
joel
joey
joget
johan
johann
johannes
johannesburg
johansson
johar
johari
john
johnny
johns
johnson
johnston
johol
johor
join
joined
joins
joint
jojo
joker
joko
jokowi
jolokan
jom
jombang
jon
jonas
jonathan
jones
jong
joo
joon
joong
joongang
jordan
jorge
jose
josef
joseon
joseph
josephine
josh
joshi
joshua
journal
journalism
journalist
journals
journey
joy
joyce
joyo
jp
jpg
jpl
jpn
jq
jr
js
jstor
jt
jtbc
jtwc
ju
jua
juadah
jual
jualan
juan
juara
jubah
jubilee
jubilo
jubin
jubli
judah
judaism
jude
judge
judi
judith
judo
judul
judy
juga
jugalah
juice
jujukan
jujur
jujutsu
jul
julai
julat
julau
jules
juli
julia
julian
juliana
julie
julien
juliet
julio
julius
julukan
julung
july
jumaat
jumlah
jumlahnya
jump
jumpa
jun
junction
june
jung
jungle
juni
junid
junior
juno
junta
jupiter
jura
jurang
jurassic
jure
jurgen
juri
jurnal
jurong
juru
jurucakap
jurugambar
jurulatih
jururawat
jurus
jurusan
juruteknik
jurutera
juruterbang
jury
jus
jusoh
just
justera
justeru
justice
justification
justifikasi
justin
juta
jutaan
jutawan
jutsu
juventus
juwita
juzuk
jv
jw
jx
jy
jyp
jyutping
jz
k
k0
k1
k2
k3
k4
k5
k6
k7
k8
k9
ka
kaabah
kaamatan
kabar
kabel
kabhi
kabin
kabinet
kabir
kabul
kabupaten
kabur
kabus
kabushiki
kabut
kaca
kacak
kacang
kacau
kacukan
kad
kadang
kadangkala
kadar
kadazan
kadazandusun
kader
kadet
kadi
kadir
kadokawa
kaedah
kafa
kafe
kafir
kagoshima
kagum
kah
kahar
kaherah
kahwin
kai
kain
kaisar
kaisen
kaiser
kait
kaitan
kajang
kaji
kajian
kajol
kak
kaka
kakak
kakaknya
kakaktua
kakao
kakashi
kaki
kakinya
kakitangan
kaku
kal
kala
kalah
kalam
kalangan
kalanya
kalau
kalbajar
kalendar
kali
kalian
kaliber
kaligrafi
kalimah
kalimantan
kalimat
kalinya
kalis
kalium
kalkulus
kallang
kalong
kalori
kalsium
kalung
kam
kama
kamakura
kamal
kamar
kamariah
kamaruddin
kamarudin
kamarul
kambing
kamen
kameo
kamera
kami
kamikaze
kamil
kamila
kampar
kampong
kampung
kampungnya
kampus
kamu
kamunting
kamus
kan
kana
kanada
kanagawa
kanak
kanaknya
kanan
kanang
kanannya
kanazawa
kancah
kancil
kand
kanda
kandang
kandi
kandung
kandungan
kandungannya
kandungnya
kane
kang
kangar
kangsar
kangxi
kanji
kannada
kano
kanon
kanowit
kansai
kansas
kanser
kant
kanta
kantin
kanto
kanton
kantonis
kantor
kantung
kanu
kanun
kanvas
kanwa
kao
kaohsiung
kaori
kaoru
kap
kapak
kapal
kapalnya
kapanlagi
kapar
kapas
kapasiti
kapit
kapita
kapitalis
kapitalisme
kapitan
kaplan
kapoor
kapor
kaps
kapsul
kapten
kapuas
kapur
kar
kara
karabakh
karachi
karak
karakter
karam
karan
karang
karangan
karangasem
karangkraf
karaoke
karat
karate
karawang
karbin
karbohidrat
karbon
karbonat
kardinal
kareena
karel
karen
karena
kargo
kari
kariah
karib
karier
kariernya
karies
karim
karin
karina
karisma
karl
karlovy
karma
karnataka
karnival
karnivor
karno
karo
karpal
kart
kartanegara
kartel
kartika
kartini
kartun
kartunis
karun
karya
karyanya
karyawan
kasar
kasarnya
kaset
kashima
kashiwa
kashmir
kasih
kasihan
kasim
kasino
kassim
kasta
kastam
kasturi
kasus
kasut
kat
kata
katak
katakan
katakana
katalog
katanya
kate
katedral
kategori
katherine
kathleen
kathmandu
katholik
kathryn
kathy
kati
katie
katil
katniss
kato
katolik
katrij
katrina
katup
katy
katz
kau
kaufman
kaukasus
kaum
kaumnya
kaunseling
kaunselor
kaunter
kaunti
kaur
kavalri
kawad
kawah
kawal
kawalan
kawan
kawanan
kawannya
kawasaki
kawasan
kawasannya
kawi
kay
kaya
kayan
kayangan
kayu
kazakh
kazakhstan
kazan
kaze
kb
kbbi
kbs
kc
kd
kdn
kdnk
ke
keabadian
keadaan
keadaannya
keadilan
keagamaan
keagungan
keahlian
keajaiban
keakhiran
keamanan
keamatan
kean
keanggotaan
kearah
keat
keatas
kebahagiaan
kebaikan
kebajikan
kebakaran
kebaktian
kebal
kebanggaan
kebangkitan
kebangsaan
kebanyakan
kebanyakannya
kebanyakkan
kebanyakkannya
kebarangkalian
kebawah
kebaya
kebebasan
kebelakangan
kebenaran
kebencian
keberadaan
keberanian
keberatan
keberkesanan
kebersihan
kebesaran
kebetulan
kebiasaan
kebiasaannya
kebiasaanya
kebijakan
kebijaksanaan
kebimbangan
kebocoran
kebolehan
kebolehannya
kebon
kebudayaan
kebuk
kebuluran
kebun
kecacatan
kecaman
kecamatan
kecantikan
kecederaan
kecekapan
kecelakaan
kecemasan
kecemerlangan
kecenderungan
kecerahan
kecerdasan
kecergasan
kecewa
kechil
kecil
kecilan
kecilnya
kecondongan
kecuali
kecurian
kedah
kedai
kedalam
kedalaman
kedamaian
kedatangan
kedaulatan
kedengaran
kediaman
kediamannya
kedidi
kediri
kedoktoran
kedua
keduanya
kedudukan
kedudukannya
kedutaan
kee
keemasan
keempat
keempatnya
keenam
keengganan
keep
keeping
keesokan
kefahaman
kegagalan
keganasan
kegelapan
kegemaran
kegemarannya
kegembiraan
kegemilangan
kegiatan
kegilaan
keguguran
kegunaan
kegunaannya
kehabisan
kehadiran
kehadirannya
kehakiman
kehamilan
kehancuran
keharmonian
kehebatan
kehendak
kehidupan
kehidupannya
kehijauan
kehilangan
kehormat
kehormatan
kei
keimanan
keindahan
keinginan
keistimewaan
keita
keith
keizinan
kejadian
kejahatan
kejam
kejar
kejatuhan
kejayaan
kejayaannya
kejiranan
kejohanan
keju
kejuaraan
kejururawatan
kejuruteraan
kejutan
kek
kekacang
kekacauan
kekadang
kekal
kekalahan
kekangan
kekasih
kekasihnya
kekayaan
kekebalan
kekecewaan
kekecohan
kekejaman
kekeliruan
kekeluargaan
kekerapan
kekerasan
kekhalifahan
kekhanan
kekisi
kekosongan
kekuasaan
kekuasaannya
kekuatan
kekuatannya
kekunci
kekuningan
kekurangan
kelab
kelabnya
kelabu
keladi
kelahiran
kelahirannya
kelainan
kelajuan
kelak
kelakuan
kelam
kelamaan
kelamin
kelana
kelang
kelangsungan
kelantan
kelapa
kelapan
kelaparan
kelas
kelasi
kelasnya
kelautan
kelawar
kelayakan
kelaziman
keldai
kelebihan
keledar
kelemahan
kelembapan
kelengkapan
kelenjar
keletihan
kelewatan
keli
kelicap
kelihatan
kelihatannya
keliling
kelima
kelinci
keling
keliru
keller
kellogg
kelly
kelolaan
kelompok
kelopak
keluang
keluar
keluaran
keluarga
keluarganya
keluarkan
keluasan
keluli
kelulusan
kelulut
kelurahan
kelvin
kem
kemaharajaan
kemahiran
kemahuan
kemajuan
kemakmuran
kemal
kemalangan
kemalia
kemaman
kemampuan
kemampuannya
kemang
kemangkatan
kemanusiaan
kemaraan
kemarahan
kemarau
kemas
kemaskini
kemasukan
kemasyarakatan
kemasyhuran
kematangan
kematian
kematiannya
kembali
kembalinya
kembang
kembangan
kembar
kembara
kembarnya
kemboja
kembung
kemeja
kemelesetan
kemelut
kemenangan
kemenangannya
kementerian
kemerahan
kemerdekaan
kemerdekaannya
kemerosotan
kemewahan
kemiskinan
kempen
kemudahan
kemudi
kemudian
kemudiannya
kemuliaan
kemuncak
kemuncaknya
kemunculan
kemunculannya
kemungkinan
kemungkinannya
kemuning
kemurungan
kemusnahan
ken
kena
kenaikan
kenal
kenalan
kenali
kenamaan
kenangan
kenapa
kencana
kencang
kencing
kendali
kendalian
kendall
kenderaan
kendiri
kendrick
kenduri
kenegaraan
keng
keningau
kenji
kenkyuusei
kennedy
kennel
kenneth
kenny
kensington
kent
kental
kentang
kentucky
kenya
kenyah
kenyalang
kenyataan
kenyataannya
keong
kepada
kepadaku
kepadamu
kepadanya
kepadatan
kepahiang
kepak
kepakaran
kepala
kepalanya
kepanjangan
kepantasan
kepastian
kepatuhan
kepayang
kepekaan
kepekatan
kepelbagaian
kepemimpinan
kependekan
kependudukan
kepentingan
kepentingannya
kepercayaan
keperibadian
keperluan
kepimpinan
keping
kepingan
kepintaran
kepler
kepolisian
kepong
kepuasan
kepujian
kepulangan
kepulauan
kepungan
kepunyaan
kepupusan
keputeraan
keputusan
keputusannya
kera
kerabat
keracunan
keradangan
keraguan
kerahan
keraian
kerajaan
kerajaannya
kerak
kerakyatan
kerala
keramaian
keramat
kerana
keranda
kerang
kerangka
kerani
keranjang
kerap
keras
keratan
keraton
keratong
kerbau
kerdil
kerelatifan
kerepek
kereta
keretanya
keretapi
kerian
kerinci
kering
keris
kerja
kerjanya
kerjasama
kerjaya
kerjayanya
kerncijfers
keroh
kerohanian
keroncong
keropok
kerosakan
kerpasan
kerr
kerry
kershaw
kertas
kerteh
kerugian
keruing
kerumitan
keruntuhan
kerusi
kes
kesabaran
kesahihan
kesakitan
kesaksamaan
kesal
kesalahan
kesamaan
kesan
kesang
kesannya
kesateria
kesatria
kesatuan
kesayangan
kesebelas
kesebelasan
kesedaran
kesedihan
kesehatan
keseimbangan
kesejahteraan
keseksaan
keselamatan
keselesaan
keseluruhan
keseluruhannya
kesembilan
kesempatan
kesempurnaan
kesemua
kesemuanya
kesenangan
kesengsaraan
kesenian
kesepakatan
kesepuluh
keserasian
keseronokan
kesesakan
kesesuaian
kesetiaan
keshogunan
kesihatan
kesihatannya
kesilapan
kesimpulan
kesinambungan
kesinambungannya
kestabilan
kesuburan
kesucian
kesukaran
kesulitan
kesultanan
kesuma
kesungguhan
kesusahan
kesusasteraan
kesyukuran
ketagihan
ketahanan
ketahui
ketakutan
ketam
ketapang
ketara
ketat
ketawa
ketebalan
ketegangan
ketenangan
ketenteraan
ketenteraman
ketentuan
ketepatan
keterangan
ketereh
keterlaluan
ketersediaan
ketetapan
ketiadaan
ketibaan
ketidakadilan
ketidakpuasan
ketidakstabilan
ketidakupayaan
ketiga
ketiganya
ketika
ketil
ketinggalan
ketinggian
ketinggiannya
ketua
ketuanan
ketuhanan
ketuhar
ketujuh
ketulan
ketumbar
ketumbukan
ketumpatan
ketupat
keturunan
keturunannya
keuangan
keugamaan
keunggulan
keunikan
keuntungan
keupayaan
keupayaannya
keusahawanan
keuskupan
keutamaan
kevin
kew
kewajiban
kewajipan
kewangan
kewarganegaraan
kewartawanan
kewibawaan
kewujudan
kewujudannya
key
keyakinan
keyboard
keys
kezaliman
kf
kfc
kg
kh
khabar
khachmaz
khadijah
khai
khairi
khairiah
khairil
khairuddin
khairul
khairy
khalayak
khaled
khalid
khalifa
khalifah
khalil
khamis
khan
khanna
khas
khasiat
khasnya
khat
khatib
khatijah
khattab
khatulistiwa
khayalan
khazanah
khemah
kher
khidmat
khiladi
khilafah
khinzir
khir
khmer
khoo
khoon
khuatir
khusus
khususnya
khutbah
khz
ki
kia
kiamat
kian
kiara
kiasan
kiat
kiblat
kiblatnya
kicap
kick
kicker
kid
kidal
kido
kids
kidul
kiev
kii
kijal
kijang
kilang
kilas
kilasan
kilat
kilau
kill
killed
killer
killing
kills
kilogram
kilometer
kim
kimberley
kimberly
kimchi
kimi
kimia
kimura
kin
kinabalu
kinabatangan
kincir
kind
kinetik
king
kingdom
kingdoms
kings
kingston
kini
kinmen
kinrara
kinta
kipas
kira
kiraan
kirana
kirby
kiri
kiribati
kiriman
kirinya
kirk
kisah
kisahnya
kisar
kishimoto
kiss
kit
kita
kitab
kitakyushu
kitar
kitaran
kitchen
kitts
kitty
kiub
kiva
kj
kk
kl
klad
kladno
klan
klang
klasifikasi
klasik
klasikal
klatovy
klaus
klausa
klawang
klcc
klein
klender
klia
klien
klik
klinik
klinikal
klip
klm
klon
klorida
klorin
kluang
kluster
km
kn
knew
knight
knights
knock
knopf
knot
know
knowledge
known
knox
ko
kobayashi
kobe
koch
kochi
kod
kodansha
kode
kodiang
koes
kofu
kognitif
koh
koharu
koi
koir
koji
kojima
kok
koko
kokpit
kokurikulum
kol
kolaborasi
kolam
kolar
kolej
koleksi
kolektif
kolera
kolin
kolkata
kolonel
koloni
kolonial
kolumnis
koma
komandan
komander
komando
komanwel
kombat
kombinasi
komedi
komen
komersial
komersil
komet
komik
komited
komitmen
komoditi
komodo
kompas
kompeni
kompetitif
kompilasi
komplek
kompleks
komplikasi
komplot
komponen
komposer
komposisi
komposit
komprehensif
kompromi
komputer
komun
komune
komunikasi
komunis
komunisme
komunitas
komuniti
komunyang
komuter
kon
konco
kondisi
kondo
kondom
kondominium
konduktor
kondusif
konfederasi
konfidan
konfiden
konfigurasi
konflik
konfrontasi
konfusianisme
kong
konglomerat
kongo
kongres
kongsi
konkrit
kono
konoha
kononnya
konsensus
konsep
konser
konsert
konservatif
konsesi
konsili
konsisten
konsol
konsonan
konsortium
konspirasi
konsul
konsulat
konteks
kontemporari
kontena
kontinjen
kontrak
kontraknya
kontraktor
kontras
kontroversi
konvensional
konvensyen
konvoi
koo
kool
koon
koordinasi
koordinat
koperal
koperasi
kopi
koppen
kor
koran
korban
kordata
kordinate
korea
korean
korek
koreografi
koridor
korona
koronavirus
korporat
korps
korupsi
korus
korvet
kos
kosa
kosice
kosmetik
kosmik
kosmo
kosmologi
kosmos
kosong
kosovo
kostum
kot
kota
kotabaru
kotak
kotaku
kotanya
kotawaringin
koto
kotor
kotoran
koubou
kovalen
kp
kpk
kpl
kpm
kpop
kq
kr
kraf
kraftangan
krai
kralove
kramat
kramer
krau
krause
kreatif
kreativiti
kredit
kreis
kremlin
kren
krew
kri
kriegsmarine
kriket
krim
krimea
kris
krisdayanti
krishna
krishnan
krisis
krismas
kristal
kristen
kristian
kristin
kristus
kriteria
kritik
kritikal
kritikan
kritis
krl
kroll
kromeriz
kromosom
kronik
kronologi
kru
krueng
kruiser
ks
ksk
kt
ktm
ktmb
ku
kua
kuah
kuala
kuali
kualiti
kuan
kuang
kuantan
kuantiti
kuantum
kuar
kuarantin
kuari
kuark
kuarza
kuasa
kuasanya
kuat
kubah
kubang
kubis
kubor
kubu
kubur
kuch
kuching
kucing
kuda
kudat
kudeta
kudus
kue
kugiran
kuh
kuih
kuil
kuiz
kuku
kukuh
kukus
kul
kulai
kulat
kuliah
kulim
kulit
kulitnya
kulon
kultivar
kultur
kultus
kum
kumamoto
kuman
kumar
kumbahan
kumbang
kumpulan
kumpulannya
kun
kunak
kunci
kundang
kung
kuning
kuningan
kunjungan
kunming
kuno
kuntau
kuntum
kunyit
kuo
kuomintang
kuota
kupang
kuprum
kupu
kura
kurang
kurangnya
kurau
kurdi
kurdish
kurdistan
kurikulum
kurma
kurnia
kurniaan
kursus
kurt
kurun
kurung
kurungan
kurus
kusuma
kuta
kutai
kutip
kutipan
kutna
kutu
kutub
kuwait
kv
kw
kwak
kwan
kwang
kwee
kwok
kwon
kwong
kx
ky
kyai
kyi
kyiv
kyle
kylie
kyo
kyodo
kyoiku
kyoto
kyrgyz
kyrgyzstan
kyu
kyun
kyung
kyushu
kz
l
l0
l1
l2
l3
l4
l5
l6
l7
l8
l9
la
lab
labah
label
labels
labem
labi
labis
labor
laboratory
labour
labrador
labs
labu
labuan
lachin
lack
lada
ladam
ladang
laden
ladies
lady
ladyana
lafaz
laga
lagak
lagenda
lagi
lagu
laguna
lagunya
lah
lahad
lahan
lahar
lahir
lahirlah
lahirnya
lahn
lahore
lai
laila
lain
lainnya
laju
lajur
lakaran
lake
lakes
laki
lakon
lakonan
lakonannya
laksa
laksamana
laksana
laku
lakukan
lal
lala
lalai
lalang
lalat
lalu
laluan
lam
lama
laman
lamanya
lamb
lambak
lambang
lambat
lambda
lambert
lambor
lambung
lampau
lampiran
lampu
lampung
lan
lana
lanao
lanas
lancar
lancaster
lance
lancer
lancet
lanchang
land
landak
landasan
landau
landes
landesamt
landing
landmark
lands
landscape
landschaft
landskap
lane
lang
langat
langganan
langgar
langit
langka
langkah
langkap
langkawi
langsat
langsung
language
languages
languedoc
lanham
lanjut
lanjutan
lanka
lanskap
lantai
lantang
lantaran
lantas
lantikan
lanun
lanzhou
lao
laos
lap
lapan
lapang
lapangan
lapar
lapis
lapisan
lapok
laporan
lapuk
lara
larang
larangan
laras
laravel
large
largest
lari
larian
laris
larkin
larry
lars
larsen
larson
larut
larutan
larva
las
lasak
laser
laskar
last
lastauthoramp
lat
lata
latar
late
later
lateral
latest
latif
latifah
latiff
latihan
latin
latitud
latitude
latvia
lau
lauk
launch
launched
launches
laura
laurel
lauren
laurence
laurent
laurie
lausanne
laut
lautan
lautnya
lava
law
lawak
lawan
lawang
lawannya
lawas
lawatan
lawe
lawrence
laws
lawson
lawyer
lay
layak
layanan
layang
layar
layer
lazim
lazimnya
lazio
lb
lbf
lc
lccn
lcd
ld
ldg
ldp
le
lea
lead
leader
leaders
leadership
leading
leads
leaf
league
leah
leap
learn
learned
learning
least
leave
leaves
leaving
lebah
lebai
lebak
lebanon
lebar
lebarnya
lebat
lebih
lebihan
lebong
lebuh
lebuhraya
lebur
lecce
lecture
lectures
led
ledakan
ledang
ledger
lee
leeds
left
leftenan
leg
lega
legacy
legal
legales
legar
legasi
legend
legenda
legendary
legends
legifotok
legion
legislatif
legislation
legislative
lego
leher
lehernya
lei
leicester
leiden
leigh
leipzig
leisure
lejang
lek
lekir
lekor
lekukan
lela
lelaki
lelakinya
lelangit
leluhur
lemah
lemak
lemas
lembab
lembaga
lembah
lembangan
lembap
lembaran
lembing
lembu
lembut
lemon
lempeng
len
lena
lencana
leng
lengan
lenggong
lengkap
lengkung
lengkungan
length
lenin
leningrad
lennon
lens
lenyap
leo
leon
leonard
leonardo
leone
leong
leonid
leopard
leopold
lepas
lepasan
leper
lepus
lereng
lerik
leroy
les
lesbian
lesen
lesley
leslie
lesotho
less
lesser
lesson
lessons
lestari
leste
lester
lesung
let
letak
letakkan
letaknya
letter
letters
letupan
letusan
leung
levant
level
levels
lever
leverkusen
levi
levice
levine
levy
lewat
lewis
lex
lexicon
lexington
leyte
lf
lg
lgbt
lh
lhasa
li
lia
liabiliti
liam
lian
liang
liao
liar
liat
liberal
liberalisme
liberation
liberec
liberia
liberty
libraries
library
libreto
libya
license
licik
licin
licuala
lidah
liddell
lie
liechtenstein
liege
lies
lieutenant
liew
lif
life
lifestyle
lifetime
lift
liga
light
lightning
lights
ligue
liguria
lihat
likas
like
likely
liku
lil
lilin
lilitan
lille
lillian
lily
lim
lima
limah
limau
limbang
limbungan
limfa
limit
limited
limits
limousin
limpahan
lin
lina
lincah
lincoln
linda
lindsay
lindungan
line
linear
liner
lines
lineup
ling
lingga
linggi
lingkaran
lingkungan
lingua
linguistic
linguistics
linguistik
link
linked
linkin
links
linnaeus
lintah
lintang
lintas
lintasan
linus
linux
lion
lionel
liong
lions
lionsgate
lip
lipa
lipas
lipat
lipatan
lipid
lipis
lippincott
lipur
liputan
liquid
lirik
liriknya
lisa
lisan
lisbon
list
lista
listed
listen
listing
listrik
lists
lit
litar
lite
liter
literal
literary
literature
lithuania
litium
litomerice
little
littlefield
liturgi
liu
liur
live
lived
liverpool
livery
lives
living
liwat
liyana
liz
liza
lj
lk
lktp
ll
llc
lleida
lloyd
lm
ln
lo
loan
lobak
lobi
local
localpovertyphilippines
located
location
locations
loceng
lock
locke
lockhart
lockheed
lodge
log
logam
logan
logaritma
loghat
logi
logic
logik
logistics
logistik
logo
logos
loh
lohong
loi
loir
loire
loiret
lois
loji
lok
lokal
lokasi
lokasinya
loke
loki
lokman
lokomotif
lola
lomba
lombard
lombardy
lombok
lombong
lompat
lompatan
london
lone
lonely
long
longer
longest
longgar
longitud
longman
longtitude
lonjakan
lontar
loo
look
looking
looks
loong
lopes
lopez
lor
lord
lords
lore
lorenzo
lori
lorong
lorraine
los
lose
loses
loss
losses
lost
lot
lotte
lotus
lou
louis
louise
louisiana
lounge
lourdes
louvre
lovato
love
loved
lover
lovers
loves
loving
low
lowe
lower
loy
lozere
lp
lq
lr
lrt
ls
lt
lta
ltd
lu
lua
luahan
luak
luang
luar
luaran
luas
luasnya
lubang
lubnan
lubok
lubuk
luc
luca
lucah
lucas
lucerne
lucia
lucius
luck
lucky
lucu
lucy
ludwig
ludwigslust
luftwaffe
luger
lugo
luhur
lui
luigi
luis
luiz
luka
lukas
luke
lukis
lukisan
lukut
lulu
lulus
lulusan
lumayan
lumba
lumpuh
lumpur
lumut
lun
luna
lunar
lunas
luncur
lundang
lundu
lung
luo
lupa
lupin
lupus
luqman
lurah
luruh
lurus
lut
luther
lutheran
lutut
luv
lux
luxembourg
luz
luzon
lv
lw
lwn
lx
ly
lydia
lynch
lynn
lynx
lyon
lyons
lyrical
lyrics
lz
m
m0
m1
m2
m3
m4
m5
m6
m7
m8
m9
ma
maa
maaf
maahad
maal
maand
maarof
mabuk
mac
macam
macapagal
macarthur
macau
macbeth
macdonald
macedon
macedonia
macfarlane
mach
machang
machi
machine
machines
mack
mackay
mackenzie
macmillan
macquarie
macrobrachium
mad
mada
madagascar
madagaskar
madame
madara
made
madhya
madinah
madison
madness
madonna
madras
madrasah
madrid
madu
madura
madya
mae
maeda
mael
maembong
maestro
mafia
mag
magazine
magazines
magdalena
magellan
maggie
maghrib
maghribi
magic
magical
magik
magis
magma
magna
magnesium
magnet
magnetic
magnetik
magnificent
magnitud
magnitude
magnum
magnus
magsaysay
maguindanao
mah
maha
mahabharata
mahadi
mahal
mahalleh
mahang
maharaja
maharani
maharashtra
mahasiswa
mahathir
mahawangsa
mahayana
mahdi
maher
mahesh
mahir
mahkamah
mahkota
mahligai
mahmood
mahmoud
mahmud
mahsuri
mahu
mahukan
mahupun
mai
maia
maid
maiden
maidin
mail
maimonides
maimunah
main
mainan
maine
mainkan
mainstream
maint
maintenance
mainz
maisarah
maj
maja
majalah
majalengka
majapahit
majesty
majid
majikan
majistret
majlis
majmuk
major
majoriti
majoritinya
majority
maju
mak
maka
makalah
makam
makan
makanan
makanannya
makassar
makau
make
makedonia
maker
makes
makhluk
maki
makin
making
makkah
maklum
maklumat
makmal
makmur
makna
maknanya
makoto
makro
maksima
maksimum
maksud
maksudnya
maktab
maktoum
mal
mala
malabar
malacca
malaga
malah
malahan
malaikat
malaka
malam
malang
malangnya
malapetaka
malar
malaria
malas
malawi
malay
malaya
malayalam
malayan
malayik
malaysia
malaysiaairlines
malaysiakini
malaysian
malcolm
maldives
maldonado
male
malek
malformed
malfoy
malhotra
mali
malik
maliki
malim
malin
malinau
malindo
mall
mallorca
malta
malu
maluku
mama
mamak
mamalia
mamat
mambo
mami
mamluk
mammal
mammals
mampan
mampatan
mampu
mampukah
man
mana
manado
manaf
management
manager
managing
manajemen
manakah
manakala
manan
manatsu
mancha
manche
manchester
manchu
manchuria
mandala
mandarin
mandat
mandela
mandi
mandiri
manfaat
mang
manga
mangaka
mangan
mangga
manggis
mangkat
mangku
mangkuk
mangsa
mangsanya
manhattan
mani
mania
manifestasi
manifesto
manik
manila
manipulasi
manis
manisan
manja
manjung
manly
mann
manning
mano
manoj
manor
mansor
mansur
mantan
mantap
mantel
mantera
mantin
mantra
manu
manual
manuel
manufacturing
manuscript
manusia
manuskrip
many
mao
maori
map
mapan
maplandia
mapper
mapping
maps
mar
mara
maradona
marah
maran
marang
marathi
marathon
maraton
marc
marcel
marcelo
march
marche
marco
marconi
marcos
marcus
mardi
mare
maret
marga
margaret
margin
marhum
mari
maria
mariah
mariam
marian
mariana
mariani
mariano
marie
marikh
mariko
marilyn
marin
marina
marine
marinir
marino
marinos
mario
marion
marissa
maritim
maritime
maritimes
marius
mark
markah
markas
market
marketing
markets
marks
markup
markus
marley
marmar
marne
maroubra
marquis
marriage
married
marriott
mars
marseille
marsh
marsha
marshal
marshall
marsyal
mart
marta
martabat
martapura
martha
martial
martian
martin
martinez
martins
marty
maru
maruah
marudi
marudu
marvel
marvin
marwan
marx
marxisme
mary
maryam
maryland
marzuki
mas
masa
masai
masak
masakan
masaki
masalah
masam
masanya
masashi
masehi
mashima
masih
masihi
masin
masing
masjid
masjidil
mask
masked
maskot
maskulin
mason
mass
massa
massachusetts
massacre
massive
master
masterchef
mastering
masterpiece
masters
mastif
mastura
masuk
masukan
masukkan
maswings
masyarakat
masyhur
mat
mata
matahari
matang
matanya
mataram
matawang
match
matches
mate
matematik
mateo
material
materials
math
mathbf
mathematical
mathematics
mathrm
mati
matius
matlamat
matlamatnya
mato
matra
matriks
matrikulasi
matrix
matsui
matsumoto
matsuri
matt
matter
matters
matthew
matthews
matthias
mau
maulana
maupun
maurice
mauritania
mauritius
maut
maverick
mawar
mawas
mawi
max
maxim
maximilian
maximum
maximus
maxis
maxwell
may
maya
mayang
mayat
mayatnya
maybank
mayenne
mayer
mayo
mayor
mayors
mayu
mazda
mazhab
mazlan
mazlein
mazraeh
mb
mbc
mbox
mbpj
mc
mca
mccarthy
mccartney
mccune
mcdonald
mcdonnell
mcfarland
mcgill
mcgraw
mclaren
mcmahon
md
mdb
me
mead
meals
mean
meaning
means
measure
measurement
measures
meat
mecca
mecha
mechanical
mechanics
mechanism
mechanisms
mecklenburg
mecklenburgische
med
medal
medals
medan
medang
media
mediacorp
median
medianet
medical
medicinal
medicine
medien
medieval
medina
meditasi
mediterranean
medium
medley
mee
meet
meeting
meets
meg
mega
megah
megan
megasite
megat
megawati
meghan
megumi
mehdi
mehmed
mehta
mei
meiji
mein
meja
mejar
mek
mekah
mekanik
mekanikal
mekanisma
mekanisme
mekar
mekong
mel
melabur
melahirkan
melainkan
melaka
melakar
melakonkan
melaksanakan
melakukan
melakukannya
melalui
melaluinya
melamar
melambangkan
melambatkan
melampau
melampaui
melanau
melancarkan
melancong
melanda
melanggar
melangkah
melangkaui
melangsungkan
melanie
melanjutkan
melantik
melapor
melaporkan
melarang
melarikan
melati
melatih
melawan
melawat
melawati
melayakkan
melayan
melayani
melayari
melayu
melbourne
melebihi
meledak
melegakan
melekat
melemahkan
melemparkan
melencongkan
melengkapi
melengkapkan
melengkung
melepasi
melepaskan
melesenkan
melestarikan
meletak
meletakkan
meletakkannya
meletop
meletup
meletupkan
meletus
meletusnya
melewati
melibatkan
melies
melihat
melihatkan
melihatnya
melimpah
melindungi
melindunginya
melintang
melintas
melintasi
meliputi
melissa
melitupi
melly
melodi
melody
melompat
melon
melonjak
melonjakkan
melor
meluahkan
meluangkan
meluas
meluaskan
melukis
meluluskan
melumpuhkan
meluncur
melupakan
melur
melvin
memacu
memadai
memadamkan
memahami
memainkan
memajukan
memakai
memakan
memaklumkan
memaksa
memaksanya
memaksudkan
memalukan
memanah
memanaskan
memancarkan
memancing
memandang
memandangkan
memandu
memanfaatkan
memang
memanggil
memanggilnya
memangku
memanipulasi
memanjang
memanjangkan
memanjat
memansuhkan
memantapkan
memantau
memaparkan
memasak
memasang
memasarkan
memastikan
memasuki
memasukkan
mematahkan
mematikan
mematuhi
membabitkan
membaca
membahagi
membahagikan
membahayakan
membaiki
membakar
membalas
membaling
membandingkan
membanggakan
membangkitkan
membangun
membangunkan
membanjiri
membantah
membantu
membantunya
membara
membasmi
membasuh
membatalkan
membatasi
membawa
membawakan
membawanya
membayangkan
membayar
membebaskan
membekalkan
membeku
membela
membelah
membelanjakan
membeli
membenarkan
membenarkannya
membenci
membendung
membentang
membentangkan
membentuk
member
memberangsangkan
memberhentikan
memberi
memberikan
memberikannya
memberinya
memberitahu
memberitahunya
memberontak
members
membership
membersihkan
membesar
membesarkan
membetulkan
membezakan
membezakannya
membiak
membiarkan
membiayai
membicarakan
membimbangkan
membimbing
membina
membinasakan
membincangkan
membintangi
membolehkan
membolehkannya
membongkar
membran
membuahkan
membuang
membuat
membuatkan
membuatnya
membubarkan
membuka
membuktikan
membunuh
membunuhnya
memburu
memburukkan
meme
memecah
memecahkan
memecat
memegang
memelihara
memeluk
memenangi
memenanginya
memenangkan
mementingkan
memenuhi
memerangi
memerangkap
memerhati
memerhatikan
memerihalkan
memerikan
memeriksa
memerintah
memerintahkan
memerlukan
memesan
memeterai
memetik
memfailkan
memfokuskan
memihak
memikat
memikirkan
memikul
memilih
memiliki
memimpin
meminati
meminda
memindahkan
meminjam
meminjamkan
meminta
memintas
meminum
memisahkan
memohon
memoir
memoirs
memorandum
memori
memorial
memories
memory
memotong
mempamerkan
mempelajari
mempelam
mempengaruhi
mempengerusikan
memperbaharui
memperbaiki
mempercayai
mempercepatkan
mempergunakan
memperincikan
memperingati
memperjuangkan
memperkasakan
memperkenalkan
memperkuat
memperkukuhkan
memperlahankan
memperlihatkan
memperluas
memperluaskan
memperoleh
memperolehi
mempersembahkan
mempersiapkan
mempersoalkan
mempertahankan
mempertaruhkan
mempertikaikan
mempertimbangkan
mempertingkatkan
memperuntukkan
memphis
mempopularkan
mempromosi
mempromosikan
memproses
mempunyai
memuaskan
memuat
memuatkan
memudahkan
memuji
memujuk
memukul
memulai
memulakan
memulangkan
memulihkan
memuncak
memungkinkan
memungut
memupuk
memusnahkan
memutuskan
men
menafikan
menahan
menaik
menaiki
menaikkan
menaja
menakjubkan
menakluk
menakluki
menaklukkan
menakutkan
menamakan
menamakannya
menamatkan
menambah
menambahkan
menambahkannya
menampakkan
menampilkan
menampung
menanam
menandakan
menandatangani
menang
menangani
menanggalkan
menangguhkan
menanggung
menangis
menangkap
menangkis
menanti
menantu
menanyakan
menapis
menara
menari
menarik
menariknya
menaruh
menasihati
menasihatkan
menawan
menawarkan
menayangkan
mencabar
mencabut
mencadangkan
mencakup
mencakupi
mencalonkan
mencampurkan
mencapai
mencari
mencatat
mencatatkan
menceburi
mencecah
mencederakan
mencegah
menceraikan
menceritakan
mencerminkan
menceroboh
mencetak
mencetuskan
mencintai
mencipta
menciptakan
mencirikan
mencium
mencuba
mencuci
mencukupi
menculik
mencuri
mendadak
mendaftar
mendaftarkan
mendahului
mendaki
mendakwa
mendalam
mendalami
mendapat
mendapati
mendapatkan
mendarat
mendatang
mendatangkan
mendatar
mendedahkan
mendefinisikan
mendekati
mendendangkan
mendengar
menderita
menderma
mendes
mendesak
mendiami
mendiang
mendidih
mendidik
mendirikan
mendler
mendominasi
mendorong
mendoza
menduduki
mendukung
menebus
menegak
menegakkan
menegaskan
menekan
menekankan
menelan
menelefon
meneliti
menemani
menembak
menembusi
menempa
menempah
menempati
menempatkan
menempuh
menemui
menemukan
menenangkan
menengah
menenggelamkan
menentang
menentu
menentukan
menepati
menerajui
menerangkan
menerapkan
menerbangkan
menerbitkan
menerima
menerimanya
meneroka
menerus
menerusi
meneruskan
menetap
menetapkan
menetas
menewaskan
meng
mengabaikan
mengacarakan
mengadakan
mengadap
mengadaptasi
mengadu
mengagumkan
mengahwini
mengaitkan
mengajak
mengajar
mengajarkan
mengaji
mengajukan
mengakhiri
mengakibatkan
mengakses
mengaktifkan
mengaku
mengakui
mengalah
mengalahkan
mengalami
mengalih
mengalihkan
mengalir
mengalirkan
mengalu
mengamalkan
mengambil
mengambilnya
mengamuk
menganalisis
mengancam
mengandung
mengandungi
menganggap
menganggapnya
menganggarkan
menganggotai
mengangkat
mengangkut
menganjur
menganjurkan
mengantikan
menganugerahkan
menganut
mengapa
mengarah
mengarahkan
mengarang
mengasaskan
mengasingkan
mengatakan
mengatasi
mengatur
mengaut
mengawal
mengawan
mengawasi
mengebom
mengecam
mengecewakan
mengecualikan
mengedarkan
mengehadkan
mengejar
mengejek
mengejut
mengejutkan
mengekalkan
mengekang
mengekori
mengeksport
mengelak
mengelakkan
mengelaskan
mengelilingi
mengelirukan
mengeluarkan
mengembalikan
mengembang
mengembangkan
mengembangkannya
mengembara
mengemukakan
mengena
mengenai
mengenainya
mengenakan
mengenal
mengenali
mengenalpasti
mengenang
mengendali
mengendalikan
mengepung
mengerikan
mengerjakan
mengerti
mengesahkan
mengesan
mengesyaki
mengesyorkan
mengetahui
mengetengahkan
mengetepikan
mengetuai
menggabungkan
menggaji
menggalakkan
menggalas
menggali
menggambarkan
menggambarkannya
mengganggu
mengganti
menggantikan
menggantikannya
menggantung
menggariskan
menggelar
menggelarkan
menggemari
menggerakkan
menggesa
menggigit
menggoda
menggoreng
menggubah
menggubal
menggugurkan
menggulingkan
mengguna
menggunakan
menggunakannya
menghabiskan
menghadap
menghadapi
menghadiahkan
menghadiri
menghadkan
menghala
menghalang
menghalangnya
menghalau
menghampiri
menghancurkan
menghantar
menghantarnya
menghapuskan
mengharamkan
mengharapkan
menghargai
mengharungi
menghasilkan
menghasut
menghayati
menghembuskan
menghendaki
menghentam
menghentikan
menghiasi
menghiburkan
menghidap
menghidapi
menghidupkan
menghilang
menghilangkan
menghimpunkan
menghina
menghindari
menghiraukan
menghisap
menghitung
menghormati
menghubungi
menghubungkan
menghukum
menghulurkan
menghuni
menghuraikan
mengikat
mengiktiraf
mengikut
mengikuti
mengimbangi
mengimbas
mengimport
menginap
mengingat
mengingati
mengingatkan
menginginkan
mengingkari
mengira
mengirim
mengirimkan
mengiringi
mengisahkan
mengisi
mengistiharkan
mengisytiharkan
mengizinkan
mengkaji
mengkhianati
mengkhusus
mengkhususkan
mengklasifikasikan
mengkritik
mengkuang
mengoperasikan
mengorak
mengorbankan
mengorbit
menguasai
menguatkan
menguatkuasakan
mengubah
mengubahsuai
mengubati
mengucapkan
mengugut
menguji
mengukuhkan
mengukur
mengulangi
mengulas
mengumpul
mengumpulkan
mengumumkan
mengunakan
mengunci
mengundang
mengundi
mengundurkan
mengungguli
mengungkapkan
mengunjungi
menguntungkan
mengupah
mengurangi
mengurangkan
mengurniakan
mengurus
menguruskan
mengusahakan
mengusir
mengusulkan
mengutamakan
mengutip
mengutuk
menikah
menikahi
menikam
menikmati
menilai
menimba
menimbulkan
menimpa
menindas
meninggal
meninggalkan
meninggalkannya
meningkat
meningkatkan
meningkatnya
meninjau
menipu
meniru
meniti
meniup
menjabat
menjadi
menjadikan
menjadikannya
menjaga
menjajah
menjalani
menjalankan
menjalar
menjalin
menjalinkan
menjamin
menjana
menjangka
menjangkakan
menjangkau
menjangkiti
menjanjikan
menjarah
menjaringkan
menjatuhkan
menjauhi
menjauhkan
menjawab
menjawat
menjayakan
menjejak
menjejaki
menjejaskan
menjelajah
menjelang
menjelaskan
menjelma
menjemput
menjerit
menjimatkan
menjual
menjualnya
menjuarai
menjulang
menjumpai
menjunam
menjunjung
menjurus
menolak
menolaknya
menolong
menon
menonjol
menonjolkan
menonton
mensasarkan
menstabilkan
mentadbir
mentafsirkan
mentah
mentakab
mentakrifkan
mental
mentari
mentega
menteng
menteri
menterjemah
menterjemahkan
mentor
menu
menuai
menubuhkan
menuduh
menugaskan
menuju
menukar
menukarkan
menular
menulis
menumpang
menumpaskan
menumpu
menumpukan
menunaikan
menundukkan
menunggang
menunggu
menunjuk
menunjukan
menunjukkan
menuntut
menurun
menurunkan
menurut
menuruti
menurutnya
menutup
menutupi
menyahut
menyajikan
menyakitkan
menyaksikan
menyala
menyalahgunakan
menyalahi
menyalahkan
menyalakan
menyalin
menyalurkan
menyamai
menyamakan
menyaman
menyamar
menyambung
menyambungkan
menyambut
menyampaikan
menyandang
menyangka
menyangkal
menyanyi
menyanyikan
menyapu
menyara
menyarankan
menyasarkan
menyatakan
menyatukan
menyayangi
menyebabkan
menyebabkannya
menyebar
menyebarkan
menyebelahi
menyeberang
menyeberangi
menyebut
menyebutkan
menyebutnya
menyedari
menyediakan
menyekat
menyelam
menyelamat
menyelamatkan
menyelamatkannya
menyelaras
menyelaraskan
menyelenggarakan
menyelesaikan
menyelia
menyeluruh
menyemak
menyembah
menyembuhkan
menyembunyikan
menyempurnakan
menyenangkan
menyenaraikan
menyentuh
menyerah
menyerahkan
menyerang
menyerap
menyerbu
menyerlah
menyertai
menyertainya
menyertakan
menyeru
menyerupai
menyesal
menyesuaikan
menyetujui
menyewa
menyiapkan
menyiarkan
menyiasat
menyifatkan
menyimpan
menyimpang
menyimpulkan
menyingkirkan
menyoal
menyokong
menyuarakan
menyukai
menyukarkan
menyumbang
menyumbangkan
menyunting
menyuruh
menyusahkan
menyusul
menyusun
menyusup
menyusuri
menziarahi
meor
mer
meragut
merah
merahsiakan
meraih
meraikan
merak
merakam
merakamkan
meramalkan
merampas
merancang
merangin
merangka
merangkap
merangkul
merangkumi
merangsang
merantau
meranti
merapatkan
merasa
merasai
merasakan
merasmikan
merata
merawat
merayakan
merayu
merbah
merbahaya
merbau
merbok
mercedes
merchant
merck
mercu
mercury
mercy
merdeka
mere
merealisasikan
merebak
merebut
meredakan
meredith
mereka
merekodkan
merekrut
merempuh
merendahkan
merentas
merentasi
mereput
merger
meri
meriah
meriam
meridian
meringankan
merit
merlimau
merlin
mermaid
merokok
merompak
meronda
merong
merosakkan
merosot
merpati
merriam
merrill
merry
mers
mersing
merta
mertajam
mertua
mertuanya
meru
merugikan
merujuk
merumuskan
merupakan
mesej
mesin
mesingan
mesir
mesjid
meski
meskipun
mesopotamia
mesra
message
messenger
messi
messier
messina
mesti
mestilah
mesto
mesyuarat
met
meta
metabolisme
metacritic
metadata
metafora
metal
metallica
metana
meteor
meteorologi
meteorological
meteorology
meter
method
methodist
methods
metode
metodologi
metrik
metro
metropolis
metropolitan
meunasah
meurthe
meuse
mewah
mewajibkan
mewakili
mewarisi
mewujudkan
mexican
mexico
meyakinkan
meyer
mf
mg
mgm
mh
mhz
mi
mia
miami
mian
mic
michael
michel
michele
michelle
michigan
mick
mickey
micro
microbiology
microsoft
mid
middle
middleton
midi
midland
midnight
midway
mie
mifflin
mig
might
mighty
migrasi
migration
miguel
mika
mikael
mikail
mike
mikhail
miki
mikoyan
mikro
mikrob
mikrobiologi
mikrofon
mikroorganisma
mikropemproses
mikroskop
mil
mila
milan
milano
mile
milenium
miles
milik
miliki
miliknya
milimeter
militan
military
militer
militia
milk
mill
millennium
miller
million
millionaire
millions
mills
milo
milton
mimaropa
mimi
mimpi
min
mina
minah
minahasa
minami
minamoto
minang
minangkabau
minas
minat
minatnya
minato
mind
minda
mindanao
mine
minecraft
mineral
mines
ming
minggu
mingguan
minh
mini
minima
minimum
mining
minister
ministers
ministry
minit
minneapolis
minnesota
minogue
minor
minoriti
minority
minsk
mint
minta
minum
minuman
minute
minutes
minyak
mio
mir
mira
miracle
mirage
mirai
miranda
miri
miriam
mirip
mirror
mirza
mis
misa
misaki
misalnya
misbach
misbun
misc
mischa
misha
mishra
misi
misil
misinya
miskin
miss
missile
missiles
missing
mission
missions
mississippi
missouri
misteri
mistik
mistral
mit
mitchell
mito
mitochondrial
mitologi
mitos
mitra
mitsubishi
mitsui
mix
mixed
miyagi
miyamoto
miyazaki
miyuki
mizal
mizan
mizuki
mj
mk
ml
mlada
mm
mmc
mms
mn
mnc
mnet
mo
mob
mobil
mobile
mochtar
mockingjay
mod
modal
mode
model
modeling
models
modem
moden
modena
modern
modi
modul
module
moe
mogadishu
mogok
moh
mohamad
mohamed
mohammad
mohammed
mohan
mohd
mohon
mohor
mojang
mojo
mok
mokhtar
mol
moldova
molecular
molek
molekul
molina
molly
mom
momen
moment
moments
momentum
momo
mon
mona
monaco
monaghan
monarchy
monarki
monchengladbach
monday
monde
monetary
money
mong
mongol
mongolia
monica
monier
monitor
monitoring
monkey
mono
monogatari
monographs
monoksida
monopoli
monorail
monorel
monroe
monster
monsters
monsun
mont
montana
montane
monte
montedio
montenegro
montes
montevideo
montgomery
month
monthly
months
montreal
monumen
monument
monumental
monuments
monyet
moo
mood
moody
moon
moonlight
moor
moore
moovit
moral
morales
moravia
morbihan
more
moreno
morfologi
morgan
mori
morning
moro
morocco
morowali
morphology
morris
morrison
morse
mortal
mortality
mortar
morton
moscow
moselle
moses
moshe
moson
mosque
moss
most
mosul
mother
motif
motilal
motion
motivasi
moto
motor
motorola
motors
motosikal
motto
mou
mount
mountain
mountains
mourinho
mouse
mouth
moutong
move
moved
movement
movements
moves
movie
movies
moving
moyang
mozambique
mozart
mozilla
mp
mpeg
mph
mpr
mps
mq
mr
mrs
mrsm
mrt
ms
msc
msg
msk
msn
msnbc
mssd
mstar
mt
mtv
mu
muadzam
muafakat
muar
muara
muaro
muat
muatan
muawiyah
mubaligh
mubarak
much
muda
mudah
mudanya
mueller
muflis
mufrad
mufti
mugabe
muggle
mughal
muhamad
muhammad
muhammadiyah
muharam
muhd
muhibbah
muhyiddin
mui
mujahidin
muka
mukah
mukanya
mukerji
mukherjee
mukhriz
mukim
mukjizat
mukmin
muko
muktamad
muktamar
mula
mulai
mulan
mulanya
mulia
muller
multan
multi
multimedia
multinasional
multiple
mulut
mulutnya
mulya
mumbai
mun
munafik
munasabah
munchen
muncul
munculnya
muncung
mundo
mundur
mungkin
munich
municipal
municipality
munir
munisipaliti
munshi
muntah
murad
murah
murai
mural
murder
murdoch
murid
muridnya
murni
murphy
murray
murtad
murung
murut
mus
musa
musang
muscat
muscle
muse
musee
museum
museums
musi
music
musica
musical
musik
musim
musk
muslihat
muslim
muslimin
muslims
musnah
mussolini
must
mustafa
mustaffa
mustahil
mustang
mustapha
mustard
mustaza
mustika
musuh
musuhnya
musume
musytari
mutalib
mutasi
mutiara
mutlak
mutu
mutual
muzaffar
muzik
muzikal
muziknya
muzium
mv
mw
mwave
mx
my
myanmar
mycensus
mydin
myers
myinfotaip
mymetro
myparlimen
myspace
mysterious
mystery
myt
myth
mythology
myths
myung
myx
mz
n
n0
n1
n2
n3
n4
n5
n6
n7
n8
n9
na
naa
nabi
nabil
nabila
nach
nacional
nad
nada
nadi
nadia
nadim
nadine
nadir
nadu
nafas
nafi
nafsu
naga
nagano
nagar
nagari
nagasaki
nagato
nagorno
nagoya
nahas
nahu
nai
naib
naik
naim
nair
nairobi
najam
najib
najis
najiy
najwa
nak
nakajima
nakal
nakamura
naked
nakhoda
nakhon
naluri
nam
nama
namanya
namco
name
named
names
namibia
namida
nampak
nampaknya
namun
nan
nana
nanas
nancy
nang
nanga
nanggroe
nangka
nani
naning
nanjing
nanning
nano
nanoha
nantes
nanti
nanyang
naomi
naples
napoleon
napoli
nara
narathiwat
naratif
narayan
narendra
narita
narnia
narrative
naruto
nas
nasa
nasdaq
nash
nasha
nashville
nasi
nasib
nasihat
nasional
nasionalis
nasionalisme
nasir
nasiruddin
naskah
naskhah
nasr
nassau
nasser
nast
nasution
nasyid
nat
natal
natalia
natalie
natasha
nate
nath
nathan
nation
national
nationale
nationalism
nations
native
nato
natrah
natrium
natsu
natsuki
natsumi
natur
natural
naturalis
nature
naungan
nauru
nautika
nautikal
naval
navarre
naver
navigasi
navigation
navy
nawab
nawawi
nawi
naza
nazel
nazi
nazim
nazionale
nazir
nazmi
nazri
nazrin
nb
nba
nbc
nc
nd
ndtv
ne
neal
near
nearly
nebraska
nebula
necessary
ned
nederland
nee
need
needed
needs
neelofa
negara
negaraku
negaranya
negarawan
negatif
negative
negeri
negerinya
negro
negros
nehru
neighborhood
neighbourhoods
neil
neill
nekad
nel
nelayan
nellie
nelson
nelydia
nenas
nenek
neneknya
neo
neolitik
neon
nepal
neppol
neptun
neptune
neraka
nerang
nero
nerus
nest
nestle
nestor
net
netanyahu
netflix
netherlands
netizen
network
networks
neumann
neural
neurologi
neuron
neuroscience
neutral
neutron
nevada
never
neville
nevis
new
newark
newcastle
newfoundland
newly
newman
newport
news
newsasia
newsen
newsletter
newspaper
newspapers
newsroom
newsweek
newton
next
nexus
nf
nfl
ng
nga
ngah
ngan
ngasri
ngc
ngeri
ngo
ngurah
nguyen
nh
nhat
nhk
nhs
ni
nia
niaga
nias
niat
niatnya
nibong
nicaragua
nice
nicholas
nichols
nicholson
nick
nickelodeon
nico
nicol
nicola
nicolas
nicole
nicolson
niedersachsen
nielsen
nievre
nigel
niger
nigeria
night
nightmare
nights
nih
nihon
niigaki
niigata
nik
nikah
nike
nikel
nikita
nikkei
nikki
nikmat
nikola
nikolai
nikon
nil
nila
nilai
nilainya
nilam
nimitz
nin
nina
nine
nineteenth
ning
ningbo
ninja
nino
nintendo
niosh
nipah
nipis
nippon
nisan
nisbah
nissan
nist
nitra
nitrat
nitrogen
nixon
nizam
nizar
nj
nk
nl
nlb
nm
nmb
nme
nmi
nn
no
noaa
noah
nobel
nobelprize
nobita
noble
nobody
nobunaga
noc
nod
node
noel
noh
noi
noir
noise
nok
nokia
nolan
nom
nomad
nombor
nomenclature
nominal
nominated
nomination
nominations
nominees
nomor
non
nona
nong
noor
noordin
nor
nora
noraini
noraniza
nord
nordiana
nordic
nordin
norfolk
norhayati
norma
normah
normal
norman
normandie
normandy
norris
norse
norte
north
northern
northrop
northwest
norton
norway
norwegian
norwich
nos
nostalgia
not
nota
notasi
note
notes
nothing
notice
notices
notis
notre
nottingham
nov
nova
nove
novel
novelis
novelnya
november
novi
novo
novy
now
np
npr
npsn
nq
nr
ns
nscb
nso
nss
nst
nsw
nt
ntv
nu
nuclear
nueva
nuevo
nuh
nui
nukilan
nuklear
nukleus
number
numbers
numeric
nun
nunukan
nur
nuremberg
nurfaizah
nurhaliza
nuri
nurin
nurul
nus
nusa
nusantara
nut
nutrien
nutrition
nv
nw
nx
ny
nya
nyah
nyahkekaburan
nyamuk
nyanyi
nyanyian
nyanyiannya
nyaris
nyata
nyatakan
nyatoh
nyawa
nyawanya
nyior
nymburk
nyong
nyonya
nyse
nytimes
nyu
nz
o
o0
o1
o2
o3
o4
o5
o6
o7
o8
o9
oa
oak
oakland
oasis
ob
obama
oberst
obesiti
obituary
object
objects
objek
objektif
oblast
obor
observations
observatory
observer
oc
occitan
occupation
occupational
ocean
oceania
oceanic
och
oclc
oct
octavia
october
od
oda
odd
oder
odyssey
oe
oecd
of
ofc
off
offensive
offer
offers
office
officer
officers
official
officially
officials
often
og
ogawa
ogg
ogo
ogos
oh
ohio
oi
oic
oil
oise
oita
oj
ok
okada
okayama
okezone
okinawa
oklahoma
okolie
okres
oksida
oksigen
okt
oktober
oku
ol
ola
olah
olahraga
old
older
oldest
ole
oleh
olehnya
olga
olimpico
olimpik
olive
oliveira
oliver
olivia
olivier
olok
olomouc
olsen
olson
olya
olympic
olympics
olympique
olympus
om
oman
omar
ombak
omboh
omega
omiya
omnibus
on
once
one
ones
oneworld
ong
online
only
onn
onna
ono
ontario
oo
ooi
oort
op
opal
opava
open
opened
opening
opens
openstreetmap
opera
operasi
operasinya
operating
operation
operational
operations
operator
opinion
opposition
ops
optical
optik
optimum
option
options
oq
or
oracle
oral
orang
orange
orangnya
orb
orbit
orbital
orchestra
orde
order
ordered
orders
ordinan
ordinary
ordo
oregon
oren
org
organ
organic
organik
organisasi
organisation
organising
organisma
organisme
organization
organizations
oricon
orient
oriental
orientales
orientasi
orientation
origin
original
originally
origins
orihime
orion
orissa
orkestra
orkid
orlando
orleans
orlici
orne
oro
orochimaru
orthodox
ortodoks
os
osaka
osama
osamu
osborne
oscar
oscars
osen
oshima
osiris
oslo
osman
osprey
ossetia
ost
oswald
ot
otak
other
others
othman
oto
otot
ottawa
otto
ottoman
ou
oum
our
ourense
out
outbreak
outer
outline
outlook
output
outside
outstanding
ov
ova
ovari
over
overall
overseas
overview
ow
owen
owl
own
owned
owner
ownership
ox
oxford
oy
oya
oz
ozon
p
p0
p1
p2
p3
p4
p5
p6
p7
p8
p9
pa
pablo
pac
pacat
pace
pacific
pack
package
packard
pact
pacuan
pad
pada
padahal
padamu
padan
padanan
padang
padanya
padat
padawan
paddington
paderi
padi
padilla
padma
padu
padua
paduan
paduka
pagan
pagar
pagaruyung
page
pageant
pages
pagi
pagoda
pagoh
pah
paha
pahang
pahat
pahit
pahlawan
pai
paid
pain
painted
painting
paip
pair
pais
pajak
pajakan
pak
paka
pakai
pakaian
pakar
pakatan
pakej
paket
pakistan
paksa
paksaan
paksi
paku
pal
pala
palace
palais
palam
palang
palarae
palas
palatinate
palau
palawan
palembang
palencia
paleolitik
palermo
palestin
palestine
palestinian
palgrave
pali
paling
pallava
palm
palma
palmas
palmer
palmyra
palo
paloh
palong
palsu
palu
pam
pamah
pamela
pameran
pampasan
pan
panah
panama
panas
panasonic
panca
pancaragam
pancaran
pancasila
panchayat
panchor
pancut
panda
pandai
pandak
pandan
pandang
pandangan
pandangannya
pandeglang
pandemic
pandemik
pandey
pandora
pandu
panduan
panel
pang
pangeran
panggang
panggil
panggilan
panggung
pangkal
pangkalan
pangkat
pangkor
pangkuan
panglima
pangsa
pangsapuri
panic
panik
panitia
panjang
panjangnya
panji
pankreas
panorama
pantai
pantang
pantas
panther
panthera
pantulan
pantun
panzer
pao
paolo
pap
papa
papan
papar
paparan
paper
paperback
papers
papua
par
para
parade
paradigma
paradise
paraguay
parah
paralimpik
parallel
paralympic
parameswara
parameter
parameters
paramount
parang
paranormal
paras
parasit
parcel
parchim
pardubice
parents
pari
parigi
paris
parit
park
parker
parkes
parkinson
parkir
parks
parliament
parliamentary
parlimen
parma
parodi
paroi
paroki
parramatta
parrot
parsi
parsons
part
partai
parthia
parti
partial
participation
particular
parties
partikel
partinya
partisan
partner
partners
partnership
parts
party
paru
paruh
parut
pas
pasai
pasal
pasang
pasangan
pasangannya
pasar
pasaran
pasaraya
pasca
pascal
paser
pasha
pashto
pasif
pasifik
pasir
paskah
paskal
pasport
pass
passage
passenger
passengers
passes
passion
passport
past
pasta
pasti
pastikan
pastinya
pastor
pastri
pasu
pasukan
pasukannya
pat
patah
patani
patel
paten
patent
path
pati
patient
patients
patinggi
patogen
patologi
patria
patricia
patrick
patriot
patriotik
patrol
pattani
pattern
patterns
patterson
patton
patuh
patung
patut
pau
pauh
paul
paula
pauline
paulo
paultan
paulus
paun
paus
pautan
pavel
pavia
pavilion
pawagam
pawang
pay
paya
payah
payne
payong
pays
payudara
payung
paz
pb
pbb
pbs
pbt
pc
pd
pdf
pdrm
pe
peace
peach
peak
pearce
pearl
pearson
pecah
pecahan
pecan
pecinta
peck
pecut
pecutan
pedagang
pedalaman
pedang
pedas
pedati
pedoman
pedro
peduli
peel
peer
pegang
pegangan
pegawai
peguam
pegun
pegunungan
pehin
pei
pejabat
pejabatnya
pejal
pejalan
pejuang
pek
peka
pekak
pekaka
pekali
pekan
pekanbaru
pekat
pekebun
pekeliling
pekerja
pekerjaan
pekerjaannya
pekerjanya
pekin
peking
pelabuhan
pelabur
pelaburan
pelacur
pelacuran
peladang
pelajar
pelajaran
pelajarannya
pelajarnya
pelakon
pelaksana
pelaksanaan
pelaku
pelampau
pelan
pelancar
pelancaran
pelancarannya
pelancong
pelancongan
pelanduk
pelanggan
pelanggannya
pelanggaran
pelangi
pelantar
pelantikan
pelapik
pelapis
pelari
pelarian
pelarut
pelatih
pelatihan
pelaut
pelawak
pelawat
pelayan
pelayanan
pelayar
pelayaran
pelbagai
pele
peledak
pelekat
pelengkap
pelepah
pelepasan
pelesenan
peletakan
pelhrimov
peliharaan
pelik
pelincir
pelindung
pelita
pellegrini
pelombong
pelopor
peluang
peluasan
pelukis
pelumba
peluncur
pelupusan
peluru
pemacu
pemadam
pemahaman
pemain
pemaju
pemakai
pemakaian
pemakaman
pemakan
pemakanan
pemalar
pemalu
pemanah
pemanas
pemanasan
pemancar
pemandangan
pemandu
pemanduan
pemangkin
pemangku
pemangsa
pemanis
pemansuhan
pemantauan
pemasangan
pemasaran
pematang
pematuhan
pembabitan
pembaca
pembacaan
pembahagian
pembaharuan
pembaikan
pembakar
pembakaran
pembalakan
pembalasan
pembangkang
pembangun
pembangunan
pembantu
pembantunya
pembaptisan
pembasmian
pembatalan
pembawa
pembayaran
pembebasan
pembedahan
pembekal
pembekalan
pembekuan
pembela
pembelaan
pembelahan
pembelajaran
pembelajinakan
pembeli
pembelian
pembentangan
pembentukan
pemberhentian
pemberi
pemberian
pemberita
pemberitahuan
pemberontak
pemberontakan
pembersih
pembersihan
pembesar
pembesaran
pembetulan
pembezaan
pembiakan
pembiakbakaan
pembiayaan
pembikin
pembikinan
pembina
pembinaan
pembinaannya
pembinasa
pemboleh
pembolehubah
pembuangan
pembuat
pembuatan
pembubaran
pembuka
pembukaan
pembukaannya
pembuluh
pembungkusan
pembunuh
pembunuhan
pemburu
pemburuan
pemecah
pemecahan
pemecatan
pemegang
pemekaran
pemeliharaan
pemenang
pementasan
pemeran
pemergian
pemerhati
pemerhatian
pemeriksa
pemeriksaan
pemerintah
pemerintahan
pemerintahannya
pemerolehan
pemetaan
pemikir
pemikiran
pemilih
pemilihan
pemilik
pemilikan
pemiliknya
pemimpin
peminat
peminatnya
pemindahan
pemintas
pemisah
pemisahan
pemodelan
pemodenan
pemohon
pemotongan
pemproses
pemprosesan
pemuda
pemuisi
pemujaan
pemula
pemulihan
pemuliharaan
pemusnah
pemusnahan
pemuzik
pen
pena
penaga
penahan
penahanan
penaik
penaja
penajaan
penakluk
penaklukan
penalti
penalty
penamaan
penamat
penamatan
penambahan
penambahbaikan
penampang
penampilan
penampilannya
penan
penanaman
penanda
penandaan
penang
penangguhan
penangkapan
penantian
penapaian
penapis
penapisan
penara
penarafan
penari
penarik
penarikan
penasihat
penat
penaung
penawanan
penawar
penawaran
pencahayaan
pencakar
pencalonan
pencaman
pencapaian
pencari
pencarian
pence
pencegahan
pencemar
pencemaran
pencen
pencerahan
penceramah
pencerapan
pencerita
penceritaan
pencernaan
penceroboh
pencerobohan
pencetak
pencetakan
pencetus
pencinta
pencipta
penciptaan
pencuci
penculikan
pencuri
pendaftar
pendaftaran
pendahulu
pendahuluan
pendahulunya
pendaki
pendakian
pendakwa
pendakwaan
pendakwah
pendang
pendapat
pendapatan
pendaraban
pendarahan
pendarat
pendaratan
pendatang
pendedahan
pendek
pendekar
pendekatan
pendengar
pendengaran
penderaan
penderia
penderitaan
penderma
pendeta
pendidik
pendidikan
pendidikannya
pendingin
pendiri
pendirian
pendorong
penduduk
pendudukan
penduduknya
pendukung
penebangan
penebat
penekanan
penelitian
penembak
penembakan
penembusan
penempatan
penemuan
penemuannya
penentang
penentangan
penentu
penentuan
peneraju
penerangan
penerapan
penerbangan
penerbit
penerbitan
penerbitannya
penerima
penerimaan
peneroka
penerokaan
penerus
penetapan
peng
pengacara
pengadil
pengadilan
pengagihan
pengairan
pengajar
pengajaran
pengajian
pengajiannya
pengakap
pengakhiran
pengakuan
pengalaman
pengalamannya
pengalir
pengaliran
pengamal
pengaman
pengambaran
pengambilalihan
pengambilan
pengampunan
penganalisis
pengangguran
pengangkut
pengangkutan
penganiayaan
penganjur
penganjuran
pengantar
pengantara
pengantin
penganugerahan
penganut
pengarah
pengarahan
pengarahnya
pengarang
pengaruh
pengaruhnya
pengasas
pengasasan
pengasasnya
pengasingan
pengasuh
pengatur
pengaturan
pengaturcara
pengaturcaraan
pengawal
pengawalan
pengawas
pengawasan
pengebom
pengeboman
pengebumian
pengecaman
pengecualian
pengedar
pengedaran
pengedarnya
pengekalan
pengekodan
pengeksport
pengelasan
pengelola
pengeluar
pengeluaran
pengeluarannya
pengembalian
pengembangan
pengembara
pengembaraan
pengenalan
pengendali
pengendalian
pengepala
pengepungan
pengeringan
pengertian
pengerusi
pengesahan
pengesan
pengesanan
pengetahuan
pengetua
penggabungan
penggal
penggalian
penggambaran
pengganas
pengganti
penggantian
penggantinya
penggantungan
penggemar
penggerak
penggiat
penggilingan
penggubah
penggubalan
pengguguran
pengguna
penggunaan
penggunaannya
penggunanya
penghakiman
penghalang
penghantar
penghantaran
penghapusan
pengharaman
penghargaan
penghasil
penghasilan
penghibur
penghijrahan
penghinaan
penghormatan
penghubung
penghujung
penghulu
penghuni
pengikat
pengiklanan
pengiktirafan
pengikut
pengikutnya
pengilang
pengilangan
pengimbas
pengimejan
penginapan
pengintip
pengintipan
pengiraan
pengiran
pengiring
pengisi
pengisian
pengisytiharan
pengkaji
pengkajian
pengkalan
pengkhianat
pengkhianatan
pengkhususan
pengkomputeran
pengkritik
penglibatan
penglibatannya
penglihatan
pengoksidaan
pengolahan
pengoperasian
pengorbanan
pengsan
penguasa
penguasaan
penguat
penguatkuasa
penguatkuasaan
pengubahan
pengubahsuaian
penguin
pengujian
pengukuhan
pengukuran
pengulas
pengumpul
pengumpulan
pengumuman
pengunaan
pengundi
pengundian
pengunduran
pengunjung
penguraian
pengurangan
pengurus
pengurusan
pengusaha
pengusiran
pengutip
penh
peniaga
penilaian
penindasan
pening
peninggalan
peningkatan
peninjau
peninjauan
peninsula
peninsular
penipu
penipuan
penjadualan
penjaga
penjagaan
penjahat
penjaja
penjajah
penjajahan
penjajap
penjana
penjanaan
penjara
penjaring
penjawat
penjelajah
penjelajahan
penjelasan
penjelmaan
penjenamaan
penjenayah
penjimatan
penjodoh
penjual
penjualan
penjuru
penn
pennsylvania
penny
penolakan
penolong
penonton
pensijilan
penske
penstriman
penstrukturan
penswastaan
pensyarah
pentadbir
pentadbiran
pentadbirannya
pentagon
pentarikhan
pentas
penterjemah
penterjemahan
penternak
penternakan
penting
pentingnya
penubuhan
penubuhannya
penuding
penuh
penuhnya
penukar
penukaran
penularan
penulis
penulisan
penulisannya
penumpang
penumpuan
penunggang
penunjuk
penuntut
penurunan
penutup
penutupan
penutur
penyair
penyajak
penyakit
penyalahgunaan
penyamaran
penyambung
penyambungan
penyampai
penyampaian
penyamun
penyandang
penyanyi
penyapu
penyata
penyataan
penyatuan
penyayang
penyebab
penyebaran
penyedia
penyediaan
penyejuk
penyejukan
penyeksaan
penyelam
penyelamat
penyelamatan
penyelaras
penyelarasan
penyelenggaraan
penyelesaian
penyelewengan
penyelia
penyeliaan
penyelidik
penyelidikan
penyeludupan
penyembahan
penyembelihan
penyembuhan
penyempangan
penyenaraian
penyepit
penyerahan
penyerang
penyerangan
penyerapan
penyertaan
penyesuaian
penyewa
penyiar
penyiaran
penyiasat
penyiasatan
penyihir
penyimpanan
penyingkiran
penyokong
penyokongnya
penyu
penyucian
penyulingan
penyumbang
penyunting
penyuntingan
penyusun
penyusunan
people
peoples
pep
pepatah
pepe
pepejal
peperangan
peperiksaan
pepijat
pepper
pepsi
per
perabot
peradaban
peraduan
peragaan
peragawati
perah
perahu
perai
perairan
perajurit
perak
perakam
perakaunan
perakuan
peralatan
peralihan
perampas
peran
peranakan
peranan
peranannya
perancang
perancangan
perancis
perang
perangai
peranginan
perangkaan
perangkap
perangsang
perantara
perantaraan
perantau
peranti
perarakan
perasa
perasaan
perasaannya
perasan
perasmian
peraturan
peratus
peratusan
perawan
perawatan
perayaan
perbadanan
perbahasan
perbaikan
perbalahan
perbandaran
perbandingan
perbankan
perbarisan
perbatasan
perbedaan
perbelanjaan
perbendaharaan
perbezaan
perbicaraan
perbincangan
perbualan
perbuatan
perbuatannya
percakapan
percanggahan
percaya
percent
percentage
perceraian
percetakan
percikan
percintaan
percival
percubaan
percuma
percutian
percy
perdagangan
perdamaian
perdana
perdananya
perdebatan
perduaan
perebutan
peredaran
pereira
pereka
perempat
perempuan
perempuannya
perenang
perenggan
pereputan
perez
perfect
perfileman
perform
performance
performer
performing
pergaduhan
pergam
pergelangan
pergelutan
pergerakan
pergi
pergigian
pergolakan
pergunungan
perguruan
perhambaan
perhatian
perhatikan
perhentian
perhiasan
perhimpunan
perhitungan
perhubungan
perhutanan
peribadi
peribadinya
peribahasa
peribumi
perigi
perihal
perikanan
perikatan
perilaku
perincian
perindustrian
peringatan
peringkat
perintah
perintis
period
periode
perisa
perisai
perisian
perisik
perisikan
peristiwa
perisytiharan
periuk
perjalanan
perjalanannya
perjanjian
perjuangan
perjuangannya
perjudian
perjumpaan
perkadaran
perkahwinan
perkahwinannya
perkaitan
perkakas
perkakasan
perkampungan
perkapalan
perkara
perkarangan
perkasa
perkataan
perkauman
perkebunan
perkembangan
perkembangannya
perkenan
perkhemahan
perkhidmatan
perkhidmatannya
perkilangan
perkins
perkiraan
perkongsian
perkuburan
perkumpulan
perkusi
perladangan
perlahan
perlaksanaan
perlakuan
perlambangan
perlanggaran
perlantikan
perlawanan
perlembagaan
perletakan
perlindungan
perlis
perlombongan
perlu
perluasan
perlukan
perlulah
perlumbaan
perlunya
permai
permaidani
permainan
permainannya
permaisuri
permanent
permasalahan
permata
permatang
permintaan
permit
permodalan
permohonan
permukaan
permukaannya
permulaan
permulaannya
permusuhan
pernafasan
pernah
perniagaan
perniagaannya
pernikahan
pernyataan
perodua
perolakan
perolehan
perompak
peronda
perosak
perpaduan
perpatih
perpecahan
perperangan
perpindahan
perpisahan
perpuluhan
perpustakaan
perry
pers
persada
persahabatan
persaingan
persamaan
persaraan
persaraannya
persatuan
persaudaraan
persediaan
persefahaman
persegi
persekitaran
persekitarannya
persekolahan
persekolahannya
persekutuan
perselisihan
persembahan
persembahannya
persembunyian
persempadanan
persendirian
persengketaan
persenjataan
persenyawaan
perseorangan
persepsi
persetubuhan
persetujuan
perseus
persia
persian
persiapan
persiaran
persidangan
persilatan
persimpangan
persinggahan
persisiran
persoalan
person
persona
personal
personaliti
personality
personnel
persons
perspective
perspectives
perspektif
persuratan
pertabalan
pertahanan
pertalian
pertama
pertamanya
pertambahan
pertandingan
pertanian
pertanyaan
pertaruhan
pertarungan
pertelingkahan
pertembungan
pertempuran
pertemuan
pertengahan
pertengkaran
pertentangan
perth
pertiga
pertikaian
pertimbangan
pertiwi
pertolongan
pertua
pertuan
pertuanan
pertubuhan
pertuduhan
pertukangan
pertukaran
pertumbuhan
pertunangan
pertunjukan
pertuturan
peru
perubahan
perubatan
perumah
perumahan
perumian
peruncit
peruncitan
perundangan
perunding
perundingan
peruntukan
perusahaan
perusuh
perut
perutusan
perwakilan
perwatakan
perwira
pes
pesaing
pesaingnya
pesaka
pesakit
pesalah
pesan
pesanan
pesantren
pesara
pesat
pesawat
peserta
pesisir
pesisiran
peso
pesona
pest
pesta
pesuruhjaya
pet
peta
petai
petak
petala
petaling
petanda
petang
petani
pete
petempatan
peter
peters
petersburg
petersen
peterson
peti
petik
petikan
petir
petisyen
petit
petra
petrokimia
petrol
petroleum
petronas
petrus
petua
petualangan
petugas
petunjuk
pewaris
pewarisan
pewarna
pewdiepie
pf
pfa
pg
pga
ph
phantom
pharmaceutical
phase
phat
phd
phi
phil
philadelphia
philatlas
philip
philipp
philippe
philippine
philippines
philips
phillip
phillips
philosophical
philosophy
phineas
phnom
phoenicia
phoenix
phone
phonetic
photo
photographic
photographs
photography
photos
php
phra
phraya
phu
phuket
phylogenetic
phylogeny
phys
physical
physics
physiology
pi
pia
piagam
piala
piano
piatu
piawai
piawaian
pibg
pic
picardie
picardy
piccadilly
pick
pickford
picks
pictorial
picture
pictures
pidato
pie
piece
pieces
piedmont
pierce
pierre
pietro
pig
pigeon
pigmen
pihak
pihaknya
pike
pikiran
piksel
pil
pilah
pilar
pilih
pilihan
pilihannya
pilihanraya
pilin
pilot
pilots
pimpinan
pin
pinang
pindaan
pindah
pine
pineda
ping
pingat
pinggan
pinggang
pinggir
pinggiran
pinggul
pinjam
pinjaman
pink
pinocchio
pintar
pintas
pintasan
pinto
pintu
pinyin
pioneer
piper
pipi
pipit
pir
piramid
pirate
pirates
piring
pisa
pisang
pisangan
pisau
pistol
pit
pita
pitas
pitch
pitt
pittsburgh
pius
piwaian
pixar
pizza
pj
pjk
pk
pki
pkm
pkns
pkp
pkr
pks
pl
pla
place
placed
places
plag
plain
plaintif
plak
plan
planck
plane
planes
planet
planetarium
planetary
planets
planned
planning
plans
plant
plants
plasma
plasmodium
plastic
plastik
plat
plata
plate
platform
platinum
plato
platun
play
playboy
played
player
players
playhouse
playing
plays
playstation
plaza
plc
please
pleistosen
plo
plos
plot
plumbum
plus
pluto
plymouth
plzen
pm
pmc
pmid
pmr
pn
pnas
pneumonia
png
po
pob
poblacion
pocket
pod
podcast
podium
poe
poems
poet
poetic
poetry
poh
pohon
point
points
poitou
pokal
pokemon
poket
pokok
pol
pola
poland
polar
pole
police
policies
policy
polimer
polinesia
polis
polish
polisi
politeknik
political
politico
politics
politik
politiknya
poll
pollution
polo
polri
polygon
pomerania
pompeii
pompey
pondok
pong
pont
pontian
pontianak
pony
pooja
pool
poor
pop
pope
poppy
popular
populariti
popularitinya
popularity
populasi
populasinya
population
populations
populer
por
porn
pornografi
porselin
port
portable
portais
portal
porter
portfolio
portland
porto
portrait
portsmouth
portugal
portugis
portuguese
pos
poseidon
posisi
positif
position
positions
positive
poskod
poso
possible
post
postal
postcodebase
postcodes
poster
postman
posts
postscript
pot
potensi
potential
potong
potongan
potret
potter
poultry
pound
pour
poverty
pow
powell
power
powerful
powers
powiat
pp
ppd
ppdk
ppm
ppp
pps
ppsmi
pq
pr
pra
prabu
practical
practice
practices
pradesh
praeger
prague
prairie
prajurit
prakash
praktik
praktikal
pramugari
pramuka
prancis
prasad
prasangka
prasarana
prasasti
prasejarah
prasekolah
pratonton
pratt
prayer
prc
pre
prebet
precision
prefecture
prefektur
preferred
pregnancy
preliminary
prem
premier
premiere
premieres
premis
premium
prentice
prep
prerov
presbyterian
presence
present
presentation
presented
presents
preservation
presiden
presidency
presidennya
president
presidential
presidents
presint
presov
press
presse
pressreader
pressure
prestasi
preston
pretty
preve
prevention
preview
previous
prey
pria
pribadi
pribram
pribumi
price
prices
pride
priest
prihatin
prima
primary
prime
primer
primera
primetime
primitif
prince
princes
princess
princeton
principal
principe
principle
principles
prinsip
print
printed
printing
prior
priscilla
prisma
prison
prisoner
privasi
private
prix
priya
priyanka
prize
prk
pro
probably
probe
problem
problems
proc
procedure
procedures
proceedings
process
processes
processing
produce
produced
producer
producers
product
production
productions
products
produk
produknya
produksi
produktif
produktiviti
produser
prof
profesion
profesional
profesionalnya
profesor
professional
professor
profil
profile
profiles
profit
progo
program
programme
programming
programs
progresif
progress
progressive
project
projecthello
projects
projek
prometheus
promise
promo
promosi
promote
promotion
pronunciation
proof
propaganda
proper
properties
property
prophet
proposal
proposed
propulsion
proquest
prosa
prosedur
proses
prosiding
prospects
prospek
prostejov
protagonis
protect
protection
protege
protein
protes
protest
protestan
protesters
protests
proto
protocol
protokol
proton
prototaip
proud
provence
provide
provided
providence
provides
province
provinces
provincia
provinsi
provisional
proyek
prs
pru
prum
prusia
ps
psa
pseudo
psg
psgc
psi
psikiatri
psikologi
psm
psp
psv
psychiatry
psychological
psychology
pt
pte
ptolemy
pts
pty
pu
puak
puaka
puan
puas
puasa
pub
public
publication
publications
publik
published
publisher
publishers
publishing
publisiti
pucat
puchong
pucuk
pudar
puding
pudu
puerto
puing
puisi
puisinya
puja
pujaan
pujangga
puji
pujian
pukal
pukul
pukulan
pula
pulai
pulang
pulangan
pulau
pulih
pulo
pulogebang
pulpa
pulse
puluh
puluhan
pulut
puma
pun
punai
punca
puncak
puncaknya
punch
punctuation
pundi
pune
punggung
pungutan
punjab
punjabi
punk
punta
punya
pupus
pura
purana
purata
purba
purchase
pure
puri
purnama
purple
purpose
pursuit
purwakarta
pusaka
pusara
pusat
pusatnya
push
pusing
pusingan
puspa
pustaka
put
putar
putaran
puteh
putera
puteranya
puteri
putih
putin
puting
putnam
putra
putrajaya
putri
puts
putus
puy
puyuh
pv
pw
pwtc
px
py
pyaar
pyo
pyongyang
pyotr
pyramid
pyrenees
python
pz
q
q0
q1
q2
q3
q4
q5
q6
q7
q8
q9
qa
qadir
qaeda
qaleh
qamari
qantas
qarah
qariah
qasim
qassam
qatar
qatarairways
qayum
qb
qc
qd
qe
qeshlaq
qf
qg
qh
qi
qian
qin
qing
qingdao
qj
qk
ql
qm
qn
qo
qp
qq
qr
qs
qt
qu
quad
quake
qualification
qualifiers
qualifying
quality
quan
quang
quantum
quanzhou
quarter
quarterly
quay
quba
que
quebec
queen
queens
queensland
quentin
quenya
quest
question
questions
quezon
qui
quick
quickstats
quidditch
quiet
quincy
quinn
quits
quo
quot
quote
quoted
quotes
qur
quraisy
quran
qv
qw
qx
qy
qz
r
r0
r1
r2
r3
r4
r5
r6
r7
r8
r9
ra
raaf
rab
rabai
rabbani
rabbi
rabbit
rabi
rabu
rabung
race
races
rachel
racial
racing
racun
radang
radar
raden
radhi
radiasi
radiation
radical
radikal
radin
radio
radioaktif
radius
radzi
rae
raf
rafael
rafale
raffles
rafi
rafidah
rafiq
raga
ragam
ragbi
rage
raging
ragu
rah
rahang
rahasia
rahayu
rahib
rahim
rahimah
rahmah
rahman
rahmaniah
rahmat
rahmatullah
rahsia
rahul
rai
raid
raifal
raih
raihan
raikkonen
rail
railroad
railway
rain
rainbow
rainfall
rais
raise
raising
raj
raja
rajah
rajamangala
rajanya
rajasthan
rajawali
rajesh
rajin
rajiv
raju
rak
rakaat
rakam
rakaman
rakan
rakannya
rakit
rakovnik
raksa
raksasa
rakyat
rakyatnya
ralat
rally
ralph
ram
rama
ramachandran
ramadan
ramadhan
ramah
ramai
ramakrishna
ramalan
raman
ramayana
rambai
rambut
rambutan
rambutnya
ramen
rami
ramirez
ramlah
ramlee
ramli
ramlie
ramon
ramona
ramos
rampai
rampasan
ramsay
ramsey
ramuan
ran
rana
ranau
ranbir
rancak
rancangan
rancangannya
rand
randall
random
randwick
randy
rang
range
ranger
rangers
rangga
rangka
rangkaian
rangkap
rangsangan
rangup
rani
rania
ranjau
rank
ranked
ranking
rankings
ranks
rantai
rantaian
rantau
ranting
rao
rap
rapat
rape
raphael
rapi
rapid
rapidkl
rapper
rappler
rapuh
rare
ras
rasa
rasanya
rashid
rashidi
rasional
rasmi
rasminya
rasuah
rasul
rasulullah
rasyidin
rat
rata
rate
rates
rather
rating
ratings
ratna
ratu
ratus
ratusan
raub
raul
raven
ravi
raw
rawa
rawak
rawamangun
rawan
rawang
rawas
rawatan
ray
raya
raymond
rayon
rayuan
rayyan
razak
razaleigh
razali
razi
razif
razlan
rb
rc
rca
rcti
rd
re
reach
reaches
reaction
read
reader
readers
reading
ready
reagan
reaksi
reaktif
reaktor
real
realistik
realiti
reality
really
reap
reason
reasons
rebecca
rebel
rebellion
reben
rebus
rebusan
rec
receive
received
receives
recent
recipe
recipes
recognition
recognized
recommendations
reconstruction
record
recorded
recording
records
recovery
red
reda
redang
reddit
rediff
reds
reduction
redzuan
reed
reeder
reef
rees
reeves
ref
reference
references
referendum
referred
reflections
reform
reformasi
reformis
refugees
regarding
regent
reggae
reggio
regime
regimen
regiment
regina
reginald
regio
region
regional
regions
register
registered
registration
registry
regular
regulation
regulations
rehat
rei
reich
reid
reign
reigns
reilly
reina
reis
reischauer
rejab
rejang
rejects
rejim
rejimen
reka
rekaan
rekabentuk
rekod
rekreasi
rektor
rel
rela
related
relatif
relating
relation
relations
relationship
relationships
relau
release
released
releases
relevan
relief
religion
religions
religious
rem
remain
remains
remaja
remake
reman
remarks
rembau
remember
remembering
remington
remix
remote
rempah
rempit
remy
ren
rena
renaissance
renang
renault
rencana
rendah
rendang
rendsburg
rene
renek
rengas
renggam
renjer
renji
rentak
rentang
rentas
rentetan
rep
replace
replaced
replika
reply
report
reported
reporter
reporters
reports
representation
representative
representatives
reprint
reprinted
reptile
reptiles
reptilia
republic
republica
republican
republik
republika
republikan
reput
reputasi
request
required
requirements
requires
res
resah
resam
rescue
research
reseptor
reserve
residen
residence
resident
residents
resigns
resin
resipi
resistance
resmi
resolusi
resolution
resort
resorts
resource
resources
respect
respiratory
respon
responden
respons
response
responsibility
rest
restaurant
restoran
restoration
restu
result
results
resume
resumes
resurrection
retail
retak
retina
retorik
retrieved
retro
return
returns
reunion
reuters
rev
reveal
revealed
reveals
revenge
revenue
review
reviews
revised
revision
revisited
revival
revolt
revolusi
revolusioner
revolution
revolutionary
revolver
revuca
rex
rey
reyes
reynolds
reysol
reza
rezeki
rf
rfc
rg
rh
rhein
rhin
rhine
rhineland
rhode
rhodes
rhodesia
rhodin
rhone
rhu
rhythm
ri
ria
riaa
riadah
riang
riau
riayat
riba
ribu
ribuan
ribut
rica
ricardo
rice
rich
richard
richards
richardson
richest
richmond
richter
rick
ricky
rico
ride
rider
riders
ridge
riding
ridley
ridzuan
ridzwan
rie
rifle
rig
riga
right
rights
rihanna
rika
riley
rim
rima
rimau
rimba
rin
rina
rindu
ring
ringan
ringgit
ringkas
ringkasan
ringkasnya
rings
rintangan
rio
rioja
riot
rip
risa
risalah
risau
rise
rises
rishi
risikan
risiko
rising
risk
risks
rita
ritter
ritual
ritus
rival
river
rivera
rivers
riwayat
riyadh
riz
riza
rizab
rizal
rj
rk
rl
rlts
rm
rmk
rn
rna
ro
road
roads
rob
robbie
robbins
robert
roberto
roberts
robertson
robin
robinson
robot
robotik
robson
roc
roche
rochester
rock
rockefeller
rockers
rocket
rocks
rockwell
rocky
rod
roda
rodensia
rodgers
rodney
rodrigo
rodrigues
rodriguez
roekiah
roger
rogers
rogol
rogue
roh
rohana
rohani
rohingya
roi
rojak
rok
roket
rokiah
rokok
roland
role
roles
roll
roller
rolling
rolls
rom
roma
romagna
romaji
roman
romance
romania
romanian
romano
romantic
romantik
romantis
romawi
rombakan
rombongan
rome
romeo
romero
rommel
rompak
rompakan
rompin
ron
ronald
ronaldo
rondaan
rong
rongga
ronnie
rookie
room
rooney
roosevelt
root
roots
roque
ros
rosa
rosak
rosario
rosberg
rose
rosemary
rosen
rosenberg
roses
rosetta
roshan
roslan
rosli
rosmah
rosnah
ross
rossa
rossi
rossiya
rosso
rostock
rosyam
rotan
rotation
roth
roti
rotikaya
rotor
rotten
rotterdam
rouge
rough
round
roussillon
route
routes
routesonline
routledge
rover
rovers
row
rowan
rowling
rowman
roxas
roy
royal
royale
royalti
royce
royong
rozita
rp
rpg
rpm
rq
rr
rrc
rri
rs
rss
rsssf
rt
rte
rtgs
rtm
ru
ruang
ruangan
rubah
rubber
ruben
rubik
rubin
rubus
ruby
rud
rudd
rudolf
rudolph
rudy
rue
ruffedge
rugby
rugi
ruiz
ruji
rujuk
rujukan
rukh
rukia
rukun
rule
rulers
rules
ruling
rum
rumah
rumahnya
rumahtangga
rumbia
rumble
rumi
rumit
rumpai
rumpun
rumput
rumus
rumusan
run
runcing
runcit
rundingan
rungus
runner
running
runtuh
runtuhan
runut
rupa
rupanya
rupert
rural
rus
rusa
rusev
rush
rusia
ruslan
rusli
russel
russell
russia
russian
russo
rustam
rusuhan
rusuk
rute
rutgers
ruth
rutherford
rutin
rv
rw
rwanda
rx
ry
ryan
rychnov
ryo
ryu
ryukyu
rz
s
s0
s1
s2
s3
s4
s5
s6
s7
s8
s9
sa
saab
saad
saale
saari
saat
saba
sabah
sabahan
sabak
saban
sabang
sabar
sabda
saber
sabha
sabit
sabri
sabrina
sabtu
sabu
sabun
sachs
sachsen
sacred
sad
sadat
saddam
sado
saduran
sae
saeed
safa
safar
safari
safe
safety
saga
sagan
sage
sagu
sah
sahabat
sahabatnya
sahaja
saham
sahamnya
sahara
sahib
sahih
sahsiah
sai
said
saidin
saidina
saif
saifuddin
saiful
saigon
sailor
saing
saingan
sains
sainsnya
saint
sainte
saintifik
saintifiknya
saintis
saints
saitama
saito
saiz
saiznya
saja
sajak
sajian
saka
sakai
sake
sakhalin
saki
sakinah
sakit
sakramen
saksama
saksi
sakti
sakura
sal
sala
salaam
salad
salah
salahuddin
salak
salam
salamah
salamanca
salasilah
salazar
sale
saleem
saleh
saleha
salem
salerno
sales
salib
salih
salim
salina
salinan
saling
saliran
salji
salju
salle
salleh
sallehuddin
sally
salma
salmah
salman
salmon
saloma
salon
salonga
salt
salur
saluran
salvador
sam
sama
samaada
samad
samada
samah
samak
saman
samantha
samar
samarahan
samaran
samarinda
samawi
sambal
sambar
sambas
sambil
sambilan
sambung
sambungan
sambutan
same
sami
samoa
sampa
sampah
sampai
sampan
sampdoria
sampel
samping
sampingan
sample
sampul
samseng
samsudin
samsung
samudera
samuel
samurai
samy
san
sana
sanchez
sanctuary
sand
sandakan
sandaran
sanders
sandha
sandiwara
sandra
sands
sandwic
sandwich
sandy
sanfrecce
sang
sanga
sangat
sanggup
sangka
sangkar
sanglang
sani
sanjay
sans
sanskerta
sanskrit
sant
santa
santai
santan
santander
santapan
santiago
santo
santos
santubong
sanusi
sanya
sao
saone
sap
sapi
sapporo
sapu
saputra
sar
sara
saraf
sarah
sarajevo
sarana
saranan
sarang
sarapan
saraswati
sarat
saratok
sarawak
sardinia
sari
sarikei
sarimah
saringan
sarip
sarjan
sarjana
sarolangun
sars
sarthe
sarung
sas
sasaran
sassanid
sassuolo
sastera
sasterawan
sastra
sasuke
sat
satah
satar
sate
satelit
satellite
satira
sato
satoshi
satria
sattar
satu
satunya
saturday
saturn
sauber
saud
saudagar
saudara
saudaranya
saudi
saujana
saul
saunders
savage
save
saved
saving
savoie
saw
sawa
sawah
sawan
sawat
sawit
sawyer
saxon
saxony
say
saya
sayaka
sayang
sayangnya
sayap
sayapnya
sayembara
saying
sayonara
sayong
says
sayur
sayuran
sayyaf
sayyid
sazali
sazavou
sb
sbg
sbp
sbs
sc
scale
scan
scandal
scandinavia
scarecrow
scarlet
scarlett
scene
scenes
scha
schalke
schedule
scheduled
schedules
scheme
schleswig
schmidt
schneider
scholar
scholars
school
schools
schott
schumacher
schuster
schwartz
schwarzenegger
sci
science
sciences
scientific
scientist
scientists
scoot
score
scores
scorsese
scotia
scotland
scots
scott
scottish
scout
scream
screen
scribner
script
sctv
sd
sdn
sds
se
sea
seakan
seal
seals
sean
seandainya
seangkatan
search
sears
seas
season
seasons
seat
seattle
seawal
sebab
sebabkan
sebabnya
sebagai
sebagaimana
sebagainya
sebagi
sebagian
sebahagian
sebahagiannya
sebaik
sebalik
sebaliknya
sebang
sebanyak
sebarang
sebaris
sebastian
sebastien
sebatang
sebatian
sebaya
sebegini
sebegitu
sebelah
sebelas
sebelum
sebelumnya
sebenar
sebenarnya
sebentar
seberang
seberapa
seberat
sebesar
sebidang
sebiji
sebilah
sebilangan
sebuah
sebulan
sebulat
sebut
sebutan
sebutir
sec
secara
secepat
second
secondary
secret
secretariat
secretary
secrets
section
sector
secukupnya
secure
securities
security
sedalam
sedan
sedang
sedangkan
sedap
sedar
sedarkan
sedekad
sedemikian
sederhana
sedia
sedih
sedikit
sedili
sedunia
see
seeb
seed
seek
seekor
seeks
seen
seenplatte
sees
sega
segala
segalanya
segamat
segar
segelintir
segenap
segera
segi
segitiga
segmen
segovia
sehala
sehari
seharian
seharusnya
sehelai
sehingga
sehinggakan
sehinggalah
sehubungan
sei
seimbang
sein
seindah
seine
seiras
seiring
seishun
seiyu
sejagat
sejahtera
sejajar
sejak
sejam
sejarah
sejarahnya
sejarahwan
sejarawan
sejati
sejauh
sejenis
sejong
sejuk
sejumlah
sejurus
sejuta
sek
sekadar
sekala
sekali
sekaligus
sekalipun
sekarang
sekata
sekatan
sekawan
sekejap
sekelas
sekeliling
sekelilingnya
sekelompok
sekeluarga
sekembalinya
sekeping
sekerja
seketika
sekian
sekiranya
sekitar
sekitarnya
sekolah
sekolahnya
sekretariat
seks
seksi
seksual
seksualiti
seksyen
sektor
sekuel
sekular
sekumpulan
sekunder
sekurang
sekuriti
sekutu
sekutunya
sel
selagi
selain
selaku
selalu
selalunya
selam
selama
selamanya
selamat
selamatkan
selang
selangor
selanjutnya
selaras
selari
selasa
selasih
selat
selatan
selatannya
selawat
selayang
selebar
selebihnya
selebriti
select
selected
selection
selekoh
selena
selendang
selenggaraan
selepas
selepasnya
selera
selesa
selesai
selesema
selewat
self
seli
selia
seliaan
selidik
selim
selimut
seljuk
sell
selling
sells
selo
seluar
seluas
selular
seluma
seluruh
seluruhnya
sem
semacam
semai
semak
semakan
semakin
semalam
seman
semang
semangat
semanggol
semantik
semarak
semarang
semasa
semata
sembah
sembahyang
sembang
sembilan
sembilu
semboyan
sembuh
semburan
sememangnya
semenanjung
semenjak
sementara
semenyih
semerah
semesta
semester
semestinya
semi
semikonduktor
seminar
seminggu
seminit
semitik
semoga
sempadan
sempadannya
sempat
sempena
sempit
semporna
sempurna
semua
semuanya
semula
semulajadi
semusim
semut
sen
sena
senai
senaman
senandung
senang
senapang
senarai
senario
senat
senate
senator
senawang
senayan
senbatsu
send
sendai
sendeng
sendi
sendiri
sendirian
sendirinya
senegal
seng
sengaja
sengit
sengsara
seni
senibina
seniman
seninya
senior
seniwati
senja
senjata
senoi
senrose
sensasi
sense
sensitif
sensor
sent
sentai
sentiasa
sentimen
sentimeter
sentinel
sentosa
sentral
sentuh
sentuhan
sentul
senyap
senyum
seo
seok
seolah
seon
seong
seorang
seoul
sep
sepadan
sepah
sepahtu
sepak
sepakan
sepakat
sepanduk
sepang
sepanjang
sepanyol
separa
separate
separuh
sepasang
sepasukan
sepasukannya
sepat
sepatutnya
sepenuh
sepenuhnya
seperti
sepertiga
sepertimana
sepertinya
sepi
sept
september
sepucuk
sepuluh
sepunya
sepupu
sepupunya
seputar
sequel
sequence
ser
sera
seragam
serai
seram
seramai
serambi
seramik
serang
serangan
serangga
serangkaian
serantau
serapan
serasi
serat
serata
seratus
serb
serba
serbaguna
serbaneka
serbia
serbian
serbuan
serbuk
serdahana
serdang
serebrum
seremban
serena
serendah
serentak
serge
sergei
sergey
sergio
seri
serial
serian
seribu
serie
series
serigala
serikat
sering
seringkali
seringnya
serious
serius
serong
seronok
serpihan
serta
sertai
serting
seru
seruan
seruling
serum
serumpun
serupa
servant
serve
served
server
service
services
servis
sesaat
sesak
sesama
sesaran
sesat
sesawang
sesebuah
sesekali
seseorang
sesetengah
sesetengahnya
sesi
sesiapa
session
sesuai
sesuatu
sesudah
sesungguhnya
sesyen
set
setahun
setakat
setan
setanding
setapak
setar
setara
setaraf
setebal
setelah
setem
setempat
setengah
seterusnya
seth
setia
setiap
setiausaha
setiawan
setibanya
setinggan
setinggi
setiu
sets
setting
settlement
setuju
seumpama
seumpamanya
seumur
seung
seven
seventeen
seventh
several
severe
severus
sevilla
seville
sevres
sewa
sewah
sewajarnya
sewaktu
sex
sexual
sexuality
sexy
seychelles
seymour
sezaman
sf
sfera
sfn
sg
sh
sha
shaari
shadow
shadows
shaffer
shafie
shah
shahab
shaheizy
shahid
shahrak
shahril
shahrukh
shahrul
shaikh
shake
shakespeare
shakhtar
shakti
shall
shalla
sham
shamsuddin
shamsudin
shamsul
shan
shandong
shane
shang
shanghai
shangri
shankar
shannon
shantou
shaolin
shape
shaped
sharafuddin
share
shared
shares
sharif
sharifah
shariff
sharing
sharingan
sharjah
shark
sharma
sharmila
sharon
sharp
sharpe
shashi
shauki
shaun
shaw
shawn
shazryn
she
sheen
sheet
sheets
sheffield
sheikh
sheila
shek
sheldon
shell
shelley
shen
sheng
shenyang
shenzhen
shepherd
sheridan
sheriff
sherlock
sherman
sherry
shetty
shi
shibuya
shield
shift
shih
shik
shikamaru
shila
shim
shima
shimbun
shimizu
shin
shine
shing
shinhwa
shinichi
shinigami
shinji
shinoda
shinto
shiori
ship
shipping
shippuden
ships
shire
shirley
shiro
shirt
shiva
shizuoka
sho
shock
shogakukan
shogun
shojo
shonan
shonen
shoot
shooting
shop
shopping
shore
short
shot
shotaro
shoten
shotgun
should
shout
show
showbiz
showcase
showing
shown
shows
shtml
shu
shueisha
shuffle
shuhaimi
shui
shuib
shukor
shukri
shun
shut
shuttle
si
sia
siah
siak
siam
siang
sianida
siap
siapa
siapakah
siar
siaran
siarannya
siasat
siasatan
siber
siberia
sibu
sibuk
sic
sichuan
sicilia
sicily
sid
sidang
siddiq
side
sidek
sides
sidi
sidney
siege
siem
siemens
sierra
siew
sifar
sifat
sifatnya
sify
sig
sight
sigma
sign
signal
signature
signed
significance
significant
signifikan
signing
signs
sihat
sihir
sijil
sik
sikap
sikapnya
sikh
siklon
sikorsky
siku
sil
sila
silam
silang
silap
silara
silat
silence
silent
silentera
silesia
silicon
silikon
silinder
siling
silk
silkair
silla
silva
silver
sim
sima
simbad
simbol
simbolik
sime
simen
simetri
simfoni
similar
simmons
simon
simone
simpan
simpanan
simpang
simpati
simple
simply
simpson
simpsons
simptom
sims
simulasi
simunjan
sin
sina
sinai
sinar
sinaran
sinarharian
sinatra
since
sinclair
sindang
sindh
sindiket
sindrom
sinema
sinematek
sinematografi
sinetron
sing
singa
singapore
singaporeair
singapura
singer
singgah
singh
singing
singkat
singkatan
singkatannya
singkil
single
singles
sinha
sini
sinilah
sino
sinonim
sinopsis
sins
sintesis
sintetik
sinus
siong
sipitang
siput
sir
sirajuddin
sirap
siregar
siri
sirih
sirip
sirius
sis
sisa
sisi
sisik
sisinya
sisipan
sistem
sistematik
sister
sisters
siswa
siswazah
sit
sita
site
sites
siti
sitiawan
sitkom
situ
situasi
situation
situlah
situs
siu
siva
sivik
sivil
six
sixth
size
sj
sjk
sjkc
sk
skala
skandal
ske
skema
sketsa
ski
skies
skills
skim
skin
skirt
skop
skor
skrin
skrip
skru
skuad
skuadron
skuasy
skudai
skull
skuter
sky
skyteam
sl
slam
slamet
slanga
slate
slave
slavery
slavik
slayer
sleep
sleman
slide
slim
slogan
slot
slovak
slovakia
slovenia
slow
slytherin
sm
sma
small
smallville
sman
smart
smash
sme
smg
smile
smith
smithsonian
smjk
smk
smka
smoke
smp
smpn
sms
sn
snake
snap
snape
snek
snow
snyder
so
soal
soalan
soap
soc
soccer
soccerbase
soccernet
soccerway
soccsksargen
social
socialist
sociedad
societe
societies
society
sociology
soda
sodium
soe
soeharto
soekarno
sofea
sofia
sofla
soft
software
soh
soi
soil
soket
sokong
sokongan
sokongannya
sol
solar
solat
sold
soldier
soldiers
sole
soleh
solekan
solid
solidariti
solo
solok
solomon
solonya
solothurn
solstis
solution
solutions
som
somali
somalia
sombong
some
someone
somerset
something
sometimes
somme
somogy
son
sonam
sonar
sonata
song
songkhla
songs
songsang
sonia
sonic
sonny
sons
sony
soo
sook
soompi
soon
sop
sopa
sopan
sophia
sophie
soprano
sopron
sora
soraya
soria
sorong
sorotan
sorry
sos
sosej
sosial
sosialis
sosialisme
sosio
sosioekonomi
sosiologi
soto
sotong
soul
souls
sound
sounds
soundtrack
source
sources
sous
south
southampton
southeast
southern
southwest
souza
sovereign
sovereignty
soviet
soya
soyuz
sp
spa
space
spacecraft
spain
spam
span
spaniel
spanish
spark
sparks
sparta
spartacus
speak
speaker
speaking
speaks
spears
special
specialist
species
specific
specifications
specified
specify
spectrum
speech
speed
spektrum
spekulasi
spelling
spencer
sperma
spesies
spesifik
spesifikasi
spesimen
spesis
spice
spider
spiegel
spielberg
spies
spike
spin
spirit
spiritual
split
spm
spoken
spongebob
sponsor
spontan
spora
sport
sporting
sports
spot
spotify
spotlight
spp
spr
spread
spring
springer
springfield
springs
sprint
sprm
spy
sq
sqrt
squad
squadron
square
squarepants
sr
src
sri
srikandi
srilankan
srivijaya
sriwijaya
srjk
srk
ss
ssc
st
sta
stabil
stability
stable
stacy
stad
stade
stadio
stadion
stadium
staf
staff
stage
stages
stail
stake
stalin
stalingrad
stallion
stamford
stan
stand
standard
standards
standing
stanford
stanley
star
stara
starbucks
starcraft
stark
starr
starring
stars
start
started
starting
starts
startup
starz
stasiun
stat
state
stated
statement
statements
states
statesman
statik
station
stations
statistical
statistics
statistik
statistisches
statline
statoids
stats
statue
status
statusnya
statut
stay
steam
steel
stefan
stefano
stein
steinfeld
stele
stella
stellar
stem
step
stephan
stephanie
stephen
stephens
steps
stereo
stereotaip
sterling
stern
steroid
stesen
stesyen
steve
steven
stevens
stevenson
stewart
stick
stigma
stik
still
stim
stm
stock
stockholm
stok
stoke
stone
stones
stop
stor
storage
storan
store
stores
storey
storia
stories
storm
story
stpm
straight
strain
strait
straits
straitstimes
strakonice
strange
stranger
strasbourg
strategi
strategic
strategies
strategik
strategis
strategy
strauss
strawberi
stream
streamed
streaming
street
streets
strength
stress
strike
striker
strikes
strim
string
strip
strok
stroke
strong
structurae
structural
structure
structures
struggle
struktur
sts
stuart
stub
student
students
studi
studies
studio
studios
study
stuff
stuttgart
style
styles
su
sua
suai
suaka
suami
suamiku
suaminya
suapan
suar
suara
suaranya
suarez
suasana
suatu
sub
subang
subbandar
subdaerah
subdistrict
subfamili
subgenus
subject
subjects
subjek
subkelas
subkeluarga
submarine
suborder
subramaniam
subscription
subset
subsidi
subsidiari
subspesies
substrat
subtropika
subuh
subur
suburb
suburbs
subway
success
successful
such
suci
suco
sud
sudah
sudahpun
sudan
sudi
sudin
sudirman
sudu
sudut
sue
suez
suffian
sufi
sufian
sugar
suggested
suhaimi
suharto
suhu
sui
suicide
suis
suit
suite
sujud
suk
suka
sukabumi
sukan
sukar
sukarela
sukarelawan
sukarno
sukatan
sukhoi
suki
sukma
sukses
suku
sul
sulaiman
sulawesi
suleiman
sulfat
sulfur
sulit
sulla
sullivan
sulong
sultan
sultanah
sulu
suluk
sulung
sulungnya
sum
sumatera
sumatra
sumbang
sumbangan
sumbangannya
sumbangsih
sumbawa
sumber
sumbu
sumedang
sumeria
sumitomo
summary
summer
summit
sumpah
sumpahan
sun
sunah
sunan
sunat
sunda
sundance
sunday
sunderland
sung
sungai
sungei
sungguh
sungguhpun
sungkai
sunil
sunnah
sunni
sunny
sunrise
sunset
sunshine
suntikan
sunting
suntingan
sunway
suny
sunyi
sup
supaya
super
superhero
superior
superman
supernatural
supernova
supersonik
superstar
supersusunan
supp
suppl
supplement
supply
support
supporting
supports
supreme
sur
sura
surabaya
surah
surakarta
surat
suratkhabar
surau
suraya
suresh
surf
surface
surga
surgery
suri
suria
surihani
suriname
surprise
surrey
suru
suruhan
suruhanjaya
surut
survey
survival
survivor
surya
susah
susan
sushi
susilo
suspect
suspek
suspended
suspends
sussex
sustainable
susu
susuk
susukan
susulan
susun
susunan
susur
susut
sut
sutan
sutera
sutherland
sutra
sutradara
sutton
suu
suv
suvarnabhumi
suwito
suzana
suzanne
suzuki
sv
sveriges
svitavy
sw
swami
swan
swansea
swasta
sweden
swedish
swee
sweet
swift
swimming
swing
swiss
switch
switzerland
sword
sworn
swt
sx
sy
syaaban
syafi
syafie
syafil
syafinaz
syafiq
syah
syahid
syair
syaitan
syam
syamsul
syarahan
syarak
syarat
syariah
syariat
syarif
syarikat
syarikatnya
syawal
syazwan
sydney
syed
syeikh
syekh
syi
syiah
syifa
syiling
syirik
sylvia
symbol
symbols
symphony
symposium
symptoms
syndrome
synopsis
synthesis
syor
syracuse
syria
syrian
system
systematic
systematics
systems
syukur
syura
syurga
sz
szabolcs
szatmar
t
t0
t1
t2
t3
t4
t5
t6
t7
t8
t9
ta
taal
taat
tab
tabah
tabalong
tabanan
tabari
tabel
tabiat
tabir
table
tables
tablet
tabloid
tabor
tabu
tabung
taburan
tactical
tactics
tadah
tadahan
tadbir
tadi
tadika
tae
taejo
taekwondo
tafsir
tafsiran
tag
tagalog
tagore
taha
tahan
tahanan
tahap
tahfiz
tahi
tahir
tahiti
tahniah
tahrir
tahu
tahun
tahunan
tahunnya
tai
taib
tail
taip
taipei
taiping
taira
taiwan
taj
tajaan
tajam
tajik
tajikistan
tajuddin
tajuk
tajul
tak
takaful
takagi
takahashi
takashi
takat
takdir
take
takeda
taken
takes
takeshi
takeuchi
takhta
taking
takkan
taklimat
taklukan
takraw
takrif
takrifan
takson
taksonomi
taktik
taktikal
takumi
takungan
takut
takuya
takwim
takziah
takzim
tal
talak
talang
tale
talent
tales
tali
talian
talib
taliban
talk
talking
talks
tall
talmud
tam
tama
tamadun
tamak
taman
tamar
tamat
tamatnya
tambah
tambahan
tambahkan
tambak
tambang
tambun
tambunan
tamiang
tamil
taming
tampak
tampaknya
tampan
tampar
tamparan
tamparuli
tampil
tampin
tampuk
tamu
tan
tana
tanah
tanahair
tanahnya
tanaka
tanam
tanaman
tanda
tandas
tandatangan
tanduk
tang
tangan
tangannya
tangerang
tangga
tanggal
tanggapan
tanggung
tanggungan
tanggungjawab
tangisan
tangkai
tangkak
tangkap
tangkapan
tangkas
tangki
tanglung
tani
tania
tanjong
tanjung
tank
tankobon
tanks
tanpa
tanya
tanzania
tao
taoisme
tap
tapa
tapah
tapai
tapak
tapanuli
tape
tapi
tappeh
taqwa
tar
tara
taraf
tarakan
target
targets
tari
tarian
tarif
tarik
tarikan
tarikh
taring
tariq
tarmizi
tarn
taro
tarragona
tartar
tarzan
tasawuf
tasbih
tasek
tasha
tashkent
tasik
tasikmalaya
task
tasmania
taste
tat
tata
tatabahasa
tatacara
tatanama
tatar
tatarajah
tate
tatkala
tatu
tau
taufan
taufik
taufiq
tauge
tauhid
tauhu
tauke
tauliah
taurat
tauris
taurus
tawanan
tawar
tawaran
tawau
tax
taxi
taxonomic
taxonomy
tay
tayang
tayangan
tayangannya
tayar
taylor
tb
tbilisi
tbs
tc
tcm
td
te
tea
teacher
teachers
teaching
team
teams
tears
teaser
teater
teatro
tebal
tebing
tebo
tebrau
tebu
tebusan
tech
techcrunch
technical
technique
techniques
technologies
technology
teck
ted
teddy
tedung
tee
teen
teenage
teeuw
tegak
tegal
tegang
tegar
tegas
teguh
teh
tehran
teik
teja
tek
teka
tekad
tekak
tekan
tekanan
teki
teknik
teknikal
teknologi
teks
teksi
tekstil
tekstur
tektonik
tekun
tel
teladan
telaga
telah
telahpun
telecom
telefilem
telefon
telegraf
telegram
telegraph
telekom
telekomunikasi
telemovie
telenovela
telephone
telescope
teleskop
televisi
television
televisyen
telinga
teliti
tell
tells
telok
telor
telstra
telugu
teluk
telupid
telur
telus
tema
teman
temannya
temasek
temasya
tembaga
tembak
tembakan
tembakau
tembikai
tembikar
tembok
temburong
temenggong
temenggung
temerloh
tempahan
tempat
tempatan
tempatnya
tempe
temperature
templat
template
templates
temple
tempo
tempoh
temporal
tempur
tempurung
temu
temuan
temubual
temui
temuramah
temurun
ten
tenaga
tenang
tenasia
tencent
tendangan
tender
tenerife
teng
tengah
tengahari
tengahnya
tenggara
tenggelam
tenggol
tengkorak
tengku
tengkujuh
tenis
tennessee
tennis
tenom
tenor
tentang
tentangan
tentara
tentera
tenteranya
tentu
tenusu
teo
teochew
teoh
teologi
teorem
teori
teorinya
tepat
tepatnya
tepi
tepu
tepung
ter
tera
teragung
teraju
terakhir
terakhirnya
teramat
terancam
terancang
terang
terangan
terap
terapi
terapung
teras
terasa
terasing
teratai
teratas
teratur
terawal
terbabit
terbahagi
terbaharu
terbaik
terbakar
terbalik
terbang
terbanyak
terbaru
terbarunya
terbatas
terbawah
terbenam
terbentang
terbentuk
terbentuknya
terbesar
terbesarnya
terbiar
terbilang
terbina
terbit
terbitan
terbongkar
terbuat
terbuka
terbukti
terbunuh
terburuk
tercalon
tercapai
tercatat
tercedera
tercemar
tercetus
tercetusnya
tercinta
tercipta
terdahulu
terdahulunya
terdampar
terdapat
terdapatnya
terdedah
terdekat
terdengar
terdesak
terdidik
terdiri
terence
terendah
terendak
terengganu
teres
teresa
terestrial
terganggu
tergantung
tergelincir
tergesa
tergolong
terhad
terhadap
terhadapnya
terhalang
terhasil
terhebat
terhempas
terhenti
terhingga
terhormat
terier
terikat
terima
terindah
teringat
terjadi
terjadinya
terjamin
terjatuh
terjebak
terjejas
terjemahan
terjual
terjumpa
terjun
terkait
terkandas
terkandung
terkawal
terkaya
terkecil
terkejut
terkeluar
terkemudian
terkemuka
terkena
terkenal
terkesan
terkini
terkorban
terkuat
terkumpul
terlalu
terlambat
terlampau
terlarang
terlaris
terlarut
terlatih
terlebih
terlepas
terletak
terletaknya
terlibat
terlihat
terlindung
terluka
term
terma
termahal
termaju
termaktub
termasuk
termasuklah
termasyhur
terminal
terminator
termodinamik
terms
termuda
ternak
ternakan
ternama
ternampak
ternate
ternyata
terowong
terpadu
terpakai
terpaksa
terpanjang
terpantas
terpelihara
terpencil
terpengaruh
terpenting
terperangkap
terperinci
terpilih
terpisah
terpuji
terputus
terra
terrace
terrestrial
terrier
territoire
territorial
territories
territory
terror
terrorism
terrorist
terry
tersebar
tersebut
tersedia
terselamat
tersembunyi
tersenarai
tersendiri
tersenyum
terserempak
tersergam
terserlah
tersibuk
tersilap
tersimpan
tersingkir
tersirat
tersisa
tersohor
tersusun
tertakluk
tertarik
tertekan
tertentu
tertera
tertib
tertinggal
tertinggi
tertua
tertubuhnya
tertuduh
tertulis
tertumpu
tertutup
teruel
teruja
teruk
terukir
terulung
terumbu
terung
terunggul
terus
terusan
teruskan
terutama
terutamanya
tes
tesco
tesis
tesla
test
testament
testing
tests
tet
tetamu
tetangga
tetap
tetapan
tetapi
tetingkap
teuku
tewas
texas
text
textbook
texts
tezuka
tf
tfrac
tg
th
tha
thai
thailand
thaksin
thaler
thales
thames
than
thanh
thani
thank
thanks
that
the
theater
theatre
thebes
theft
their
them
theme
themselves
then
theo
theodor
theodore
theology
theoretical
theories
theory
therapy
there
theresa
thermal
these
thesis
thestar
thesundaily
theta
they
thief
thing
things
think
thinking
third
thirty
this
tho
thomas
thompson
thomson
thong
thor
thorne
thornton
those
though
thought
thoughts
thousand
thousands
thrash
threat
threatened
three
threshold
thriler
thriller
thrips
thrones
through
throughout
thunder
thuringen
thursday
thus
thuwunna
ti
tiada
tiadanya
tian
tiananmen
tiang
tianjin
tiap
tiara
tiba
tibet
tibetan
ticino
ticket
tidak
tidaklah
tidung
tidur
tie
tien
ties
tiffany
tiga
tiger
tigerair
tigers
tigris
tikar
tiket
tiktok
tikus
tilawah
till
tim
timah
timbal
timbalan
timbalannya
timbang
timber
timbul
timbulnya
timbunan
time
timeline
times
timetable
timor
timothy
timun
timur
tin
tina
tindak
tindakan
tindakannya
ting
tinggal
tinggalan
tinggalkan
tinggi
tingginya
tingkah
tingkap
tingkat
tingkatan
tinjauan
tinju
tintin
tiny
tio
tioman
tiong
tionghoa
tip
tipikal
tipis
tips
tipu
tirai
tiram
tirana
tiri
tirinya
tiruan
tirus
tisu
tita
titah
titan
titanic
titanium
titans
titi
titian
titik
titisan
titiwangsa
title
titled
titles
tito
titsingh
titus
tiub
tiupan
tiz
tj
tk
tl
tldm
tm
tn
tnb
tni
tnt
to
toba
tobacco
tobago
tobias
toby
tochigi
today
todd
toei
together
togo
toh
tohoku
toi
tojo
tok
toki
toko
tokoh
tokong
toksik
toksin
tokugawa
tokusatsu
tokushima
tokyo
tol
tolak
told
toledo
toleransi
tolkien
toll
tolna
tolok
tolombeh
tolong
tom
tomas
tomato
tomatoes
tomb
tombak
tome
tommy
tomok
tomomi
tomorrow
tompok
ton
tone
tong
tonga
tonggak
tongkang
tongkat
toni
tonight
tonton
tontonan
tony
too
took
tool
tools
top
topeng
topi
topic
topics
topik
topografi
topologi
tops
tor
tora
torah
torch
tori
torino
tornado
toro
toronto
torpedo
torre
torres
tortoise
tosu
total
tottenham
tottori
touch
tough
toulouse
tour
tourism
tourist
tournament
tours
toward
towards
tower
towers
town
towns
township
toy
toyama
toyo
toyol
toyota
toys
tp
tq
tr
tra
track
tracking
tracks
tracy
trade
trading
tradisi
tradisinya
tradisional
tradition
traditional
traditions
traffic
trafik
tragedi
tragedy
trail
trailer
train
training
trainor
trains
trak
tran
trang
trans
transactions
transaksi
transcript
transfer
transformasi
transformation
transformers
transgender
transit
transitif
transition
transjakarta
transkripsi
translated
translation
translator
translit
transliterasi
transmisi
transmission
transport
transportation
transylvania
trap
trauma
travel
traveller
travels
travis
treasure
treasury
treat
treatise
treatment
treaty
trebic
trebisov
tree
trees
trek
treler
trem
tren
trencin
trend
trends
trent
trentino
tres
trevor
tri
trial
trials
triang
triangle
tribe
tribunal
tribune
tribunnews
tribute
trick
trier
trigonometri
trilion
trilogi
trilogy
trinidad
trinita
trinity
trio
trip
triple
tripoli
trisha
tristan
triumph
trnava
trofi
trojan
trong
troops
trophy
tropical
tropika
trouble
troy
truck
trudeau
true
truly
truman
trump
trust
truth
try
trying
ts
tsanawiyah
tsar
tse
tsu
tsubasa
tsunade
tsunami
tsunku
tsushima
tt
tu
tua
tuah
tualang
tuan
tuang
tuanku
tuannya
tuanya
tuaran
tuas
tube
tuberculosis
tuberkulosis
tubuh
tubuhnya
tucker
tudm
tudor
tuduhan
tudung
tuesday
tugas
tugasan
tugasnya
tugu
tuhan
tuisyen
tujahan
tuju
tujuan
tujuannya
tujuh
tuk
tukang
tukar
tukaran
tukul
tulang
tular
tulen
tulis
tulisan
tulisannya
tum
tumbang
tumbuh
tumbuhan
tumor
tumpat
tumpuan
tun
tuna
tunai
tunang
tunangnya
tunas
tunda
tunduk
tune
tung
tunggal
tunggu
tunggul
tungku
tunis
tunisia
tunjang
tunjuk
tunku
tuntutan
tupai
tupolev
turbin
turbo
turet
turin
turing
turk
turkey
turki
turkik
turkish
turkmen
turkmenistan
turks
turn
turnbull
turned
turner
turning
turnout
turns
turtle
turtles
turun
turunan
turus
turut
turutan
tuscany
tutong
tutor
tutorial
tuttle
tutup
tv
tvb
tvn
tvri
tw
tweet
twelve
twentieth
twenty
twice
twilight
twin
twinkle
twins
twist
twitch
twitter
two
tx
ty
tyler
type
types
typhoon
tyson
tz
u
u0
u1
u2
u3
u4
u5
u6
u7
u8
u9
ua
uae
uang
ub
ubah
ubat
ubatan
uber
ubi
ubuntu
uc
ucapan
ucapannya
uchiha
uci
ucla
ud
uda
udang
udara
udaranya
udine
udinese
udon
ue
uefa
uf
ufo
ufti
ufuk
ug
ugama
uganda
ugly
ugutan
uh
uherske
uhf
uhm
ui
uiam
uitm
uj
ujang
uji
ujian
ujibakat
ujong
ujung
uk
ukiran
ukm
ukraine
ukrainian
ukur
ukuran
ul
ulam
ulama
ulamak
ulang
ulangan
ulangtahun
ular
ulasan
ulat
ulrich
ulsan
ultimate
ultra
ultraman
ultratop
ulu
ulum
ulung
um
uma
umar
umat
umayyah
umbi
umbrella
umi
umie
umm
ummah
ummi
ummu
umno
umpamanya
umpan
umrah
umum
umumnya
umur
umurnya
un
una
uncle
uncommon
und
undang
undangan
under
underground
understand
understanding
undi
undian
undp
undur
une
unesco
unggas
unggul
ungkapan
ungku
ungu
uni
unic
unicef
unicode
uniform
unihan
unik
union
unique
unit
united
units
unity
univ
universal
universe
universidad
universitas
universite
universiti
universities
university
unix
unjuran
unknown
unlimited
unofficial
unplugged
unrecognized
unsur
unta
until
untitled
untold
untuk
untukmu
untuknya
untung
unveiled
unveils
unwin
uo
up
upacara
upah
upahan
upanishad
uparrow
upaya
upcoming
update
updated
updates
upi
upin
upko
upm
upon
upper
ups
upsr
uq
uqasha
ur
ura
ural
uranium
uranus
urat
urawa
urban
urbanized
urdu
uri
url
uruguay
urus
urusan
urutan
us
usa
usaf
usage
usaha
usahanya
usahasama
usahawan
usang
usb
usd
usda
use
used
user
users
uses
usgs
usia
usianya
using
usj
uskup
usm
usman
usno
usop
uss
ussr
ustaz
ustazah
usti
usually
usul
usulan
usulnya
usus
ut
uta
utah
utama
utamanya
utan
utara
utarid
utc
ute
utf
uthman
uthmaniyah
uthmaniyyah
utiliti
utilities
utk
utm
utopia
utrecht
uttar
utuh
utusan
uu
uum
uv
uw
uwe
ux
uy
uyghur
uz
uzbek
uzbekistan
uzumaki
uzur
v
v0
v1
v2
v3
v4
v5
v6
v7
v8
v9
va
vaccine
vaganza
vaksin
vakum
val
valais
vale
valencia
valentin
valentine
valerie
valid
valladolid
valle
valley
value
values
valve
vampire
van
vancouver
vanessa
vanguard
vanilla
vanity
vanuatu
var
varese
vargas
variable
varian
variant
variasi
variation
varieti
varieties
variety
various
varley
vary
vas
vasa
vasco
vatican
vatikan
vaucluse
vaud
vb
vc
vcd
vd
ve
vec
veda
vedanta
vega
vegalta
vegas
vegetarian
vehicle
vehicles
vektor
velky
vellu
velvet
vena
vendee
vendegvaro
veneto
venezia
venezuela
vengeance
venice
ventforet
ventrikel
venture
ventures
venue
venus
ver
vera
verde
verdi
verdy
verge
verlag
verma
vermont
vernacular
vernakular
vernon
verona
veronica
versailles
verse
versi
version
versions
versus
vertebra
vertebrat
vertebrata
vertebrate
very
ves
veszprem
veteran
veterinar
veterinary
vettel
vf
vg
vh
vhs
vi
via
viacom
vic
vice
vicente
vicenza
vickers
vicky
victim
victims
victor
victoria
victorian
victorious
victory
vida
video
videonya
videos
vidya
vie
vienna
vienne
vientiane
viet
vietnam
vietnamese
view
viewers
views
vii
viii
vijay
viking
vikram
viktor
vila
vilaine
villa
village
villages
villarreal
ville
villeneuve
vince
vincent
vinci
vintage
viola
violence
violent
violet
vip
viral
virgin
virginia
virtual
virus
viruses
visa
visayas
viscount
vishnu
visi
vision
visit
visitors
vissel
vista
vistara
visual
vita
vitamin
viva
vivekananda
vivian
vivo
vixx
viz
vj
vk
vl
vladimir
vm
vn
vo
voc
vocal
vocaloid
vocals
vogue
voice
voices
vokal
vokalis
vokalnya
vokasional
vol
volcanic
volcano
voldemort
volga
volkswagen
vols
voltan
volume
volumes
volvo
von
voor
vorpommern
vortis
vosges
vote
votes
voting
vox
voyage
voyager
vp
vq
vr
vs
vsetin
vt
vu
vulture
vv
vw
vx
vy
vyskov
vysocina
vz
w
w0
w1
w2
w3
w4
w5
w6
w7
w8
w9
wa
wabak
wacana
wad
wada
wadah
wade
wadi
wafat
waffen
wagner
wah
wahab
wahai
wahid
wahyu
wai
wain
wait
waiting
waja
wajah
wajahnya
wajar
wajib
wak
wakaf
wake
wakil
waktu
waktunya
wal
walau
walaubagaimanapun
walaupun
wales
wali
walid
walk
walker
walking
wall
wallace
walls
walsh
walt
walter
walters
walther
walton
wan
wanda
wanderers
wang
wangi
wangian
wangsa
wani
wanita
wanitanya
wanna
want
wanted
wants
wap
war
waran
ward
warden
warfare
warga
warganegara
waris
warisan
warm
warna
warnanya
warner
warni
warning
warren
warrior
warriors
wars
warsaw
warship
warta
wartawan
warung
warwick
was
washington
wasiat
waste
wat
watak
wataknya
watan
watanabe
wataniah
watashi
watch
water
waterloo
waters
waterschapshuis
wathoniyah
wati
watkins
watson
watt
watts
wau
wave
waverley
waves
wawa
wawancara
wawasan
way
wayang
wayar
wayback
wayne
ways
wazir
wb
wc
wd
wdt
we
wealth
weapon
weapons
wear
weasley
weather
weaver
web
webb
webber
webcitation
webcite
weber
webpage
website
webster
wedding
wednesday
wee
week
weekend
weekly
weeks
wehrmacht
wei
weight
weimar
weinstein
weir
weiss
welcome
welcomes
welcoming
welfare
well
welle
wellington
wells
welsh
wembley
wen
wendy
went
wenzhou
were
werner
wesley
west
western
westerwaldkreis
westfield
westland
westminster
westphalia
westport
wet
wetan
wf
wg
wh
whale
wharf
what
wheel
wheeler
when
where
whether
which
while
white
whitney
who
whois
whole
whom
whose
why
wi
wib
wide
widodo
widow
wien
wife
wigan
wii
wijaya
wijken
wiki
wikimedia
wikipedia
wikivoyage
wiktionary
wil
wilayah
wilayahnya
wild
wilde
wildlife
wiley
wilfred
wilhelm
wilkins
wilkinson
will
willem
william
williams
williamson
willie
willis
willy
wilson
wimbledon
win
winchester
wind
window
windows
windsor
wine
wing
wings
winner
winners
winnie
winning
wins
winston
winter
wira
wire
wired
wireless
wisata
wisconsin
wisdom
wise
wish
wisma
wisnu
witch
with
within
without
witness
wizard
wizards
wj
wk
wl
wm
wn
wo
wolf
wolfe
wolff
wolfgang
wolfram
wolves
woman
women
won
wonder
wonderful
wonderland
wonders
wong
woo
wood
woods
woodward
woody
wook
woon
woong
word
wordpress
words
work
workers
working
works
workshop
world
worldcat
worlds
worldwide
worst
worth
would
wounded
wow
wozniacki
wp
wq
wr
wrap
wrestling
wright
write
writer
writers
writing
writings
written
wrong
wrote
ws
wsj
wt
wto
wu
wuhan
wujud
wujudnya
wurttemberg
wv
ww
wwe
wwf
wwii
www
wx
wy
wyatt
wyoming
wz
x
x0
x1
x2
x3
x4
x5
x6
x7
x8
x9
xa
xavier
xb
xbox
xc
xd
xe
xf
xg
xh
xi
xia
xiamen
xian
xiang
xiao
xie
xii
xiii
xin
xing
xinhua
xinjiang
xiv
xj
xk
xl
xlsx
xm
xml
xn
xo
xp
xpdc
xq
xr
xs
xt
xtra
xu
xuan
xv
xvi
xw
xx
xxx
xy
xz
y
y0
y1
y2
y3
y4
y5
y6
y7
y8
y9
ya
yaacob
yaakob
yaakub
yab
yagami
yah
yahaya
yahoo
yahudi
yahya
yai
yaitu
yak
yakin
yakni
yale
yam
yama
yamada
yamagata
yamaguchi
yamaha
yamamoto
yaman
yamashita
yamato
yamtuan
yan
yana
yang
yangon
yangtze
yani
yankees
yao
yap
yard
yash
yasin
yasmin
yassin
yasushi
yat
yatim
yaya
yayasan
yazid
yb
ybhg
yc
yd
ye
yeah
year
yearbook
years
yee
yeh
yellow
yemen
yen
yeo
yeoh
yeol
yeon
yeong
yerevan
yes
yesus
yet
yeung
yew
yf
yg
yh
yi
yin
ying
yj
yk
yl
ym
yn
yo
yoga
yogi
yogurt
yogyakarta
yohanes
yoko
yokohama
yom
yomi
yon
yong
yonhap
yonne
yoo
yoon
yoritomo
york
yorker
yorkshire
yoshida
you
young
younger
your
yours
yourself
youth
youtube
youtuber
yp
yq
yr
ys
yt
yu
yuan
yudhoyono
yue
yuen
yugoslav
yugoslavia
yui
yuichi
yuji
yuk
yuka
yuki
yuko
yulis
yume
yun
yuna
yunani
yung
yunnan
yunos
yunus
yuran
yuri
yus
yusa
yusof
yusoff
yusry
yusuf
yv
yvelines
yves
yvonne
yw
yx
yy
yz
z
z0
z1
z2
z3
z4
z5
z6
z7
z8
z9
za
zac
zach
zachary
zack
zagreb
zahar
zaharah
zahari
zahid
zahir
zahirah
zahiril
zahra
zaid
zaidi
zain
zainab
zainal
zaini
zainuddin
zainul
zaiton
zaitun
zakar
zakaria
zakat
zaki
zakri
zala
zaleha
zalim
zaloga
zam
zaman
zamani
zamannya
zambia
zamboanga
zambry
zamora
zamri
zanpakuto
zanzibar
zap
zapin
zara
zaragoza
zarah
zarina
zarul
zat
zayed
zayn
zb
zc
zd
zdar
ze
zealand
zee
zelda
zemplen
zen
zendaya
zensus
zeppelin
zero
zeta
zeus
zf
zg
zh
zhang
zhao
zhejiang
zheng
zhi
zhong
zhou
zhu
zhuyin
zi
ziana
ziarah
zidian
zika
zikir
zilina
zim
zimbabwe
zin
zink
zip
zirafah
zizan
zj
zk
zl
zlin
zm
zn
znojmo
zo
zodiak
zoe
zombi
zombie
zon
zone
zoo
zoologi
zoological
zoology
zp
zq
zr
zs
zt
zu
zubir
zuhal
zuhrah
zul
zulaikha
zulkaedah
zulkarnain
zulkifli
zulu
zum
zur
zuriat
zurich
zv
zw
zx
zy
zz
{
|
}
~
¡
¢
£
¥
§
¨
©
«
¬
®
¯
°
±
²
³
´
µ
·
¸
¹
º
»
¼
½
¾
¿
×
ß
æ
ð
÷
ø
þ
đ
đinh
ħ
ı
ł
ŋ
œ
ɐ
ɑ
ɒ
ɓ
ɔ
ɕ
ɖ
ɗ
ə
ɚ
ɛ
ɜ
ɟ
ɡ
ɣ
ɤ
ɦ
ɨ
ɪ
ɫ
ɬ
ɭ
ɯ
ɰ
ɲ
ɴ
ɵ
ɹ
ɾ
ʀ
ʁ
ʂ
ʃ
ʈ
ʊ
ʋ
ʌ
ʎ
ʏ
ʐ
ʑ
ʒ
ʔ
ʕ
ʝ
ʰ
ʲ
ʷ
ʹ
ʻ
ʼ
ʾ
ʿ
ˀ
ˁ
ˇ
ˈ
ˊ
ˋ
ˌ
ː
˙
ˠ
ˤ
˥
˧
˨
˩
α
β
γ
δ
ε
ζ
η
θ
ι
κ
λ
μ
ν
ξ
ο
π
ρ
ς
σ
τ
υ
φ
χ
ψ
ω
ϕ
ϵ
а
б
в
г
д
е
ж
з
и
к
л
м
н
на
о
п
р
с
т
у
ф
х
ц
ч
ш
щ
ъ
ы
ь
э
ю
я
є
і
ј
њ
ћ
қ
ү
ҳ
ә
ө
ա
բ
գ
դ
ե
զ
թ
ի
լ
խ
կ
հ
ղ
մ
յ
ն
շ
ո
ս
վ
տ
ր
ց
ւ
ք
א
ב
ג
ד
ה
ו
ז
ח
ט
י
ך
כ
ל
ם
מ
ן
נ
ס
ע
ף
פ
צ
ק
ר
ש
ת
،
ء
ا
ال
الله
ان
ب
بن
ة
ت
ث
ج
ح
خ
د
دان
ذ
ر
ز
س
سورة
سينونيم
ش
ص
ض
ط
ظ
ع
عبد
غ
ـ
ف
في
ق
ك
ل
م
محمد
من
ن
ه
و
ى
ي
يڠ
١
٢
ٱ
پ
چ
ڠ
ڤ
ڨ
ک
ڬ
گ
ں
ڽ
ھ
ہ
ی
ۏ
ے
ە
۲
ܐ
ݢ
ߊ
अ
आ
ए
क
ख
ग
घ
च
ज
ट
ड
ण
त
थ
द
ध
न
प
ब
भ
म
य
र
ल
व
श
ष
स
ह
ক
গ
জ
ট
ণ
ত
দ
ন
প
ব
ম
য
র
ল
শ
ষ
স
হ
ਰ
ર
அ
ஆ
இ
எ
க
ங
ச
ஜ
ட
ண
த
ந
ன
ப
ம
ய
ர
ற
ல
ள
ழ
வ
ஸ
ర
ക
ก
ข
ค
ง
จ
ฉ
ช
ซ
ญ
ฎ
ฐ
ฒ
ณ
ด
ต
ถ
ท
ธ
น
บ
ป
ผ
ฝ
พ
ฟ
ภ
ม
ย
ร
ฤ
ล
ว
ศ
ษ
ส
ห
อ
ฮ
ฯ
ะ
า
ำ
เ
แ
โ
ใ
ไ
ๆ
ກ
ງ
ນ
ວ
າ
་
ག
ད
བ
མ
འ
ར
ལ
ས
က
ခ
င
စ
ဆ
ည
တ
ထ
န
ပ
ဖ
မ
ယ
ရ
လ
သ
အ
ა
ბ
გ
დ
ე
ვ
თ
ი
კ
ლ
მ
ნ
ო
რ
ს
ტ
უ
ქ
ხ
ᄀ
가
간
감
강
개
거
건
걸
게
격
결
경
계
고
곡
공
과
관
광
교
구
국
군
권
규
그
극
글
금
기
김
ᄁ
까
ᄂ
나
남
내
너
네
녀
년
노
눈
뉴
는
늘
능
니
닝
ᄃ
다
단
달
당
대
더
덕
데
도
독
돌
동
두
듀
드
들
등
디
ᄄ
ᄅ
라
랑
래
러
런
레
려
력
로
루
룹
류
를
리
린
림
립
ᄆ
마
만
말
매
맨
메
멤
면
명
모
무
문
물
뮤
미
민
ᄇ
바
박
반
발
방
배
백
버
번
범
변
별
보
복
본
부
분
불
뷔
뷰
브
블
비
빅
빈
ᄈ
ᄉ
사
산
상
새
생
서
석
선
설
성
세
소
속
손
송
쇼
수
숙
순
스
승
시
식
신
실
심
ᄊ
씨
ᄋ
아
악
안
애
앨
야
약
양
어
언
업
에
엔
여
역
연
열
영
예
오
온
올
와
완
왕
외
요
용
우
운
울
워
원
월
위
유
윤
으
은
을
음
의
이
인
일
임
입
ᄌ
자
작
장
재
저
적
전
점
정
제
조
종
주
준
중
즈
지
직
진
집
ᄍ
째
ᄎ
차
창
채
처
천
철
첫
청
체
초
최
추
출
측
치
친
ᄏ
카
캐
컴
케
코
콘
크
클
키
ᄐ
타
탄
태
터
토
통
투
트
특
틀
티
팅
ᄑ
파
판
페
편
평
포
표
프
플
피
핑
ᄒ
하
학
한
함
합
항
해
행
현
형
혜
호
홍
화
확
환
활
황
회
효
후
훈
희
ᅡ
ᅢ
ᅣ
ᅥ
ᅦ
ᅧ
ᅨ
ᅩ
ᅪ
ᅫ
ᅬ
ᅭ
ᅮ
ᅯ
ᅰ
ᅱ
ᅲ
ᅳ
ᅴ
ᅵ
ᆨ
ᆩ
ᆫ
ᆭ
ᆮ
ᆯ
ᆰ
ᆷ
ᆸ
ᆹ
ᆺ
ᆻ
ᆼ
ᆽ
ᆾ
ᇀ
ᇁ
ᇂ
ም
ት
ን
ក
គ
ង
ច
ជ
ដ
ត
ទ
ន
ប
ព
ម
យ
រ
ល
វ
ស
ហ
អ
ᠠ
ᨕ
ᵝ
ᵻ
‐
‑
–
—
―
‘
’
“
”
„
†
‡
•
‥
…
‧
′
″
‹
›
※
⁄
⁴
⁵
⁵⁵
⁻
ⁿ
₁
₂
₩
€
₱
₹
℃
ℏ
ℓ
№
™
ⅱ
←
↑
→
↔
↷
∂
∇
∈
∑
−
∗
√
∞
∫
∼
≈
≡
≤
≥
⋅
⋯
⏟
①
②
③
④
⑦
■
▪
▲
▼
○
●
★
☆
☉
♀
♠
♡
♥
♦
♪
⟨
⟩
⟶
ⴰ
⹁
⺀
⺄
⺆
⺈
⺊
⺌
⺕
⺝
⺸
⺼
⿰
⿱
⿲
⿳
⿴
⿵
⿶
⿷
⿸
⿹
⿺
⿻
、
。
々
〇
〈
〉
《
》
「
」
『
』
【
】
〜
〢
ぁ
あ
ぃ
い
ぅ
う
ぇ
え
お
か
き
く
け
こ
さ
さん
し
す
せ
そ
た
ち
っ
つ
て
と
な
に
ぬ
ね
の
は
ひ
ふ
へ
ほ
ま
み
む
め
も
ゃ
や
ゅ
ゆ
ょ
よ
ら
り
る
れ
ろ
わ
ゐ
を
ん
ゝ
ァ
ア
アニメ
アルハムランキンク
ィ
イ
ゥ
ウ
ェ
エ
ォ
オ
カ
キ
ク
ケ
コ
サ
シ
ション
ス
セ
ソ
タ
チ
ッ
ツ
テ
ト
ナ
ニ
ヌ
ネ
ノ
ハ
ヒ
フ
ヘ
ホ
マ
ミ
ム
メ
メイキンク
モ
ャ
ヤ
ュ
ユ
ョ
ヨ
ラ
ライタ
ランキンク
リ
ル
レ
ロ
ヮ
ワ
ヰ
ヱ
ヲ
ン
ヵ
ヶ
・
ー
ヽ
ㄇ
ㄌ
ㄕ
ㄚ
ㄢ
ㄣ
ㄥ
ㄧ
ㄨ
ㄩ
㇁
㇂
㇄
㇇
㇈
㇉
㇓
㐁
㐄
㐅
㐌
㐫
㐬
㐭
㐮
㐱
㑒
㒵
㒸
㒼
㓁
㓞
㔾
㕛
㕣
㖾
㘝
㚅
㚇
㚔
㚘
㝉
㝡
㝴
㝵
㞋
㞢
㞷
㠩
㠭
㠯
㡀
㡭
㡿
㢲
㢴
㣇
㣺
㥯
㪅
㫄
㫐
㫒
㫺
㬅
㬎
㬥
㬰
㲋
㳄
㷠
㸒
㸚
㸦
㼌
㼲
㽞
㿟
䀠
䂞
䍃
䏍
䒑
䖍
䖒
䖝
䖵
䙴
䚻
䜌
䝿
䡛
䧹
䪞
一
丁
丂
七
丄
丅
丆
万
丈
三
上
下
丌
不
与
丏
丐
丑
专
且
丕
世
丘
丙
业
东
丞
両
丢
丣
两
严
並
丨
丩
个
丫
丬
中
丮
丰
丱
串
丵
丶
丷
丸
丹
为
主
丽
举
丿
乀
乂
乃
久
乆
乇
么
义
之
乌
乍
乎
乏
乐
乑
乔
乖
乗
乘
乙
乚
乛
乜
九
乞
也
习
乡
书
乱
乳
乾
亀
亅
了
亇
予
争
事
二
亍
于
亏
亐
云
互
亓
五
井
亘
亚
亜
亞
亟
亠
亡
亢
交
亥
亦
产
亨
亩
享
京
亭
亮
亯
亰
亲
亳
亶
亷
人
亻
亼
亾
亿
什
仁
今
介
仌
从
仐
仑
仒
仓
仔
仕
他
付
仙
仝
代
令
以
们
仮
仲
件
任
份
企
伊
伏
伐
休
会
伝
伟
传
伯
但
位
住
佐
佑
体
何
佘
余
佛
作
你
佥
佳
使
來
侈
例
侌
侖
供
依
侨
侯
侵
便
係
俊
保
俞
信
修
倉
個
倍
們
倒
候
倠
倫
偉
做
健
偵
備
催
傳
傷
僉
像
僕
儀
億
優
儿
兀
允
兂
元
兄
充
兆
兇
先
光
兊
克
兌
免
児
兑
兒
兓
兔
党
兜
兟
入
內
全
兩
兪
八
公
六
兮
兰
共
关
兴
兵
其
具
典
兹
兼
冀
冂
冃
冄
内
円
冈
冉
冊
冋
册
再
冎
冏
冐
冒
冓
冖
冗
冘
写
军
农
冝
冠
冡
冥
冫
冬
冰
冷
准
凍
几
凡
凢
凵
凶
凷
凸
凹
出
函
凾
刀
刁
刂
刃
刄
刅
分
切
刊
刍
刑
划
刕
刖
列
刘
则
创
初
判
別
利
别
到
制
刺
則
削
剌
前
剛
剡
剣
剧
副
創
剽
劇
劉
力
办
功
加
务
劦
动
助
劫
劳
劵
勃
勇
勉
勒
動
務
勝
勞
勤
勹
勺
勻
勾
勿
匀
匂
包
匆
匈
匊
匋
匍
匕
化
北
匚
匝
匡
匪
匱
匸
匹
区
医
匽
匿
區
十
卂
千
卄
卅
卆
升
午
卉
半
卌
华
协
卑
卒
卓
協
单
卖
南
単
博
卜
卝
卞
占
卡
卢
卣
卤
卦
卩
卪
卫
卬
卯
印
危
即
却
卵
卷
卸
卻
厂
厃
厄
历
厈
厉
厌
厓
厘
厚
原
厤
厥
厦
厨
厭
厲
厶
厷
厸
去
厼
厽
县
叀
参
參
叅
又
叉
及
友
双
反
収
叐
发
叒
叔
叕
取
受
变
叚
叜
叟
口
古
句
另
叩
只
叫
召
可
台
叱
史
右
叵
叶
号
司
叹
吂
各
吅
合
吉
吊
吋
同
名
后
吏
向
吕
君
吝
吞
否
含
启
吳
吴
吹
吾
呂
呆
呈
告
员
呙
周
呪
味
呼
命
咅
和
咎
咠
咢
咨
咲
咸
咼
哀
品
哈
哉
員
哥
哲
唄
唐
唱
商
啇
問
啓
啚
啬
啻
善
喜
喬
單
喿
嗇
嘉
嘴
器
噩
嚴
囊
囗
囘
囙
囚
四
回
囟
因
团
団
囧
囬
园
困
囱
図
囷
固
国
图
圂
圅
圆
國
圍
園
圓
圖
團
土
圡
圣
圥
在
圭
地
圶
场
圼
址
坂
均
坊
坐
坒
坚
坡
坴
垂
型
垔
垚
垣
埀
埋
城
域
埶
執
基
堂
堅
堆
堇
堯
報
場
塔
塚
塞
境
墓
増
增
墨
壘
士
壬
壮
壯
声
売
壳
壴
壹
壺
壽
夂
处
夅
夆
备
変
夊
夋
夌
复
夏
夒
夕
外
夗
夘
多
夜
夢
大
夨
天
太
夫
夬
夭
央
失
夲
头
夷
夸
夹
夻
夾
奂
奄
奇
奈
奉
奎
奏
奐
契
奓
奔
奖
奚
奞
奠
奢
奥
奭
女
奴
奶
奻
好
如
妃
妄
妈
妖
妙
妟
妥
妹
妻
妾
始
姐
姑
委
姜
姫
威
娄
娘
婁
婚
婴
媒
嬰
嬴
子
孑
孔
孕
孖
字
存
孙
孚
孛
孝
孟
季
孤
学
孫
孱
學
宀
宁
宂
它
宅
宇
守
安
宋
完
宏
宓
宗
官
宙
定
宛
宜
宝
实
実
客
宣
室
宮
宰
害
家
容
宾
宿
寄
寅
密
富
寒
察
實
寧
審
寫
寬
寮
寶
寸
对
寺
寻
导
寽
対
寿
封
尃
射
将
將
專
尉
尊
尋
尌
對
導
小
少
尒
尓
尔
尖
尗
尚
尞
尢
尣
尤
尧
尨
尭
就
尸
尹
尺
尻
尼
尽
尾
尿
局
居
屈
届
屋
屎
屏
屑
展
屖
屚
属
屠
屡
屬
屮
屯
屰
山
屵
屾
岁
岂
岑
岛
岡
岩
岳
岸
峯
峰
島
崇
崎
崑
崔
崖
崙
崩
嵬
嶝
嶲
嶼
巂
巛
川
州
巟
巠
巢
巤
工
左
巧
巨
巩
巫
差
己
已
巳
巴
巷
巸
巻
巽
巾
巿
帀
市
布
师
希
帚
帛
帝
带
師
席
帯
帰
帶
常
幕
干
平
年
幵
并
幷
幸
幺
幻
幼
幽
幾
广
庁
広
庄
庆
床
应
底
店
庚
府
度
座
庫
庭
庶
康
庸
廉
廌
廛
廣
廩
廴
延
廷
建
廻
廾
廿
开
弁
弃
弄
弇
弋
式
弓
弔
引
弗
弘
弜
弟
张
弥
弦
弱
張
強
强
弾
彊
彌
彎
彐
彑
当
彔
录
彖
彗
彡
形
彥
彦
彧
彩
彭
影
彳
役
彼
往
征
待
律
後
徐
徒
得
徙
從
御
復
微
徳
徵
德
徹
心
忄
必
忌
忍
志
忘
応
忝
忠
忩
快
念
忽
忿
思
怠
急
性
怪
怱
总
恆
恋
恐
恒
恩
恭
息
恵
悉
悟
悠
患
悤
您
悪
悲
悶
情
惑
惠
惡
惢
想
愁
愈
意
愛
感
慈
慧
慮
慶
憂
憲
憶
應
戀
戈
戉
戊
戋
戌
戍
戎
成
我
戒
戔
或
战
戚
戠
戢
戦
截
戰
戲
戶
户
戸
戹
戼
戾
房
所
扁
扇
手
扌
才
打
托
执
批
承
技
投
抗
折
抜
报
披
抱
担
拉
拓
拜
拳
拿
持
指
挑
挙
振
授
掌
排
探
接
推
描
提
揭
援
摩
撃
播
撮
操
支
攴
攵
收
攸
改
攻
放
政
敄
故
敏
救
敕
敖
敗
教
敝
敞
敢
散
敦
敫
敬
数
整
敵
敷
數
斂
文
斉
斊
斗
料
斤
斥
斩
斬
斯
新
方
於
施
斿
旁
旅
旋
族
无
旡
既
旣
日
旦
旧
旨
早
旬
旱
旲
时
旾
昆
昇
昌
昍
明
昏
易
昔
昗
昜
星
映
春
昬
昭
是
昱
昴
昷
時
晃
晋
晏
晓
晚
普
景
晴
晶
智
暑
暴
曇
曜
曩
曰
曲
曳
更
曷
書
曹
曼
曾
替
最
朁
會
月
有
朋
服
朔
朕
朗
望
朝
期
木
朩
未
末
本
札
朮
术
朱
朴
朵
朶
机
朿
杀
权
杉
李
杏
村
杜
束
条
来
杨
杯
東
杲
杳
松
板
极
析
林
枚
果
枝
枲
架
枼
某
染
柔
查
柬
柰
柳
柴
査
栄
标
栗
校
株
样
根
格
桀
桂
桃
案
桐
桑
桜
桼
梁
梅
條
梟
梦
梨
棘
棠
棥
森
植
検
楊
楚
業
極
楼
楽
概
榜
榮
構
様
樂
樊
標
横
樹
橋
橘
機
欠
次
欢
欣
欮
欲
欶
欽
款
歆
歇
歌
歛
歡
止
正
此
步
武
歨
歩
歪
歮
歯
歰
歲
歳
歴
歷
歸
歹
歺
死
残
殳
段
殷
殸
殹
殺
殻
殿
毅
毋
毌
母
毎
每
毒
比
毕
毚
毛
毳
氏
氐
民
气
気
氣
水
氵
氶
氷
永
氺
氾
求
汉
汕
汝
汞
江
池
決
沃
沈
沓
沖
沙
沝
沢
河
油
治
泉
法
波
泣
泥
注
泰
洋
洛
洞
津
洪
洲
活
派
流
浅
济
浜
浦
浩
浪
浮
海
消
涙
涼
淡
淮
深
添
清
渚
渠
渡
温
港
游
湖
湯
湾
満
源
準
溪
滅
滿
演
漢
漫
漸
潘
潮
澤
澳
激
濟
瀬
灣
火
灬
灭
灯
灰
灵
灷
炅
炎
炏
炒
炗
炙
炭
点
為
烈
烏
烝
焉
無
焦
焱
然
焼
煞
照
熊
熏
熱
燕
營
燮
爆
爪
爫
爭
爯
爰
爱
爲
爵
父
爻
爽
爾
爿
片
版
牌
牙
牚
牛
牜
牟
牢
牧
物
牪
特
牽
犀
犬
犭
犮
状
狂
狄
狊
狐
狗
独
狺
狼
猋
猒
猪
猫
献
獄
獎
獣
獨
獻
玄
率
玉
王
玟
玨
环
现
玲
珎
珠
班
現
球
理
琴
瑞
瑟
瑩
瓜
瓦
甘
甚
生
産
用
甫
甬
田
由
甲
申
电
甶
男
甸
甹
町
画
甾
畀
界
畏
畐
留
畜
畟
畢
略
畧
畨
番
畫
異
畱
當
畺
畾
疆
疊
疋
疌
疑
疒
疾
病
症
癶
癸
癹
発
登
發
白
百
皀
皃
的
皆
皇
皋
皐
皕
皮
皷
皿
盃
盆
盇
盈
益
盍
盎
监
盒
盖
盛
盟
盡
監
盤
盧
目
直
相
盾
省
眇
眉
看
県
眔
眞
真
眷
眼
眾
着
睘
督
睪
睿
瞏
瞢
瞿
矍
矛
矞
矢
矣
知
矦
短
石
砂
研
破
确
碎
磊
磨
示
礻
礼
社
祈
祐
祖
祝
神
祟
祥
票
祭
禀
禁
福
禮
禸
禹
禺
离
禽
禾
禿
秀
私
秃
秉
秋
科
秒
秘
秝
秦
称
移
程
稟
種
穀
穂
穌
積
穴
究
穹
空
穿
突
窄
窒
立
竒
站
竜
竝
竟
章
童
端
竹
笑
笠
第
筆
等
答
策
简
箕
算
管
箴
節
篇
篤
篭
籍
米
粉
粛
粟
粤
粦
粲
精
糕
糞
糸
糹
系
紀
約
紅
納
純
紗
紙
級
素
索
紫
累
細
紹
終
組
経
結
絜
絫
統
絲
絵
絶
經
継
続
維
網
綾
綿
総
緒
線
編
縣
總
繇
織
纍
纟
红
约
级
纪
线
组
经
统
维
编
缶
网
罒
罔
罕
罗
罙
罡
罢
罪
置
署
罷
羅
羊
羌
羍
美
羔
羕
羗
羞
羡
羣
群
義
羲
羸
羽
翁
翏
習
翔
翕
翟
翠
翼
耀
老
耂
考
者
耆
而
耎
耑
耒
耳
耴
耶
耷
聂
聊
职
联
聖
聚
聞
聯
聲
聶
聿
肀
肃
肅
肉
肖
肙
股
肥
肩
肯
育
肴
肺
胃
背
胞
胡
胥
胸
能
脊
脩
腾
膚
臣
臤
臧
臨
自
臬
臭
臯
臱
至
致
臺
臼
臽
臾
臿
舀
舂
舄
與
興
舉
舌
舍
舛
舜
舞
舟
航
般
舰
船
艦
艮
良
色
艸
艹
艺
艾
节
芒
芔
芬
芮
花
芳
芸
芺
芻
苏
苑
苔
苗
苟
若
苦
英
范
茜
茶
茸
荅
草
荒
荣
荼
莆
莉
莊
莧
莫
获
莽
菅
菆
菊
菐
菓
菜
華
菱
萌
营
萬
落
葉
著
葛
董
葬
葵
蒙
蒦
蒼
蓋
蓬
蓮
蓺
蔑
蔡
蔵
蕉
蕭
薄
薛
薦
薰
藍
藏
藝
藤
藥
蘇
蘭
虍
虎
虐
虒
虔
處
虖
虗
虘
虚
虛
虜
虞
號
虫
虯
虽
蚤
蚩
蛇
蛋
蜀
蜜
融
螭
蟲
蠡
血
行
衍
術
街
衛
衣
衤
表
衮
衰
袁
袞
被
装
裏
裕
製
褭
褱
襄
襾
西
覀
要
覃
見
規
覓
視
覚
覧
親
観
覽
见
观
视
角
解
言
訁
訇
計
訊
記
設
許
詞
詩
話
詹
誌
認
誕
語
誠
誩
說
説
読
課
調
談
論
諸
講
謝
識
警
議
護
讠
计
议
讯
记
许
论
设
词
话
语
说
课
调
谢
谷
豆
豈
豊
豐
豕
豖
豙
象
豦
豩
豪
豸
貇
貝
貞
貟
負
財
貢
貧
販
貪
貫
責
貳
貴
買
費
賀
賁
資
賈
賊
賏
賓
賔
賛
賞
賢
賣
質
賴
贊
贝
贡
财
责
贯
贲
贵
资
赖
赛
赞
赤
赦
走
起
超
越
足
跡
路
蹇
身
躬
車
軍
軎
軟
転
軽
載
輔
輝
輦
輪
车
辛
辜
辞
辟
辣
辥
辰
辱
農
辵
辶
边
辺
达
过
迎
运
近
返
这
进
连
迷
追
退
送
逆
选
透
逐
通
速
造
逢
連
逮
週
進
遀
遁
遂
遇
遊
運
過
道
達
遠
遣
遥
適
遷
選
遺
遼
還
邊
邑
邕
那
邦
邪
郎
郑
郡
部
郭
郷
都
鄉
鄭
酉
酋
配
酒
酓
酸
釆
采
里
重
野
量
金
釒
鈴
鉄
銀
錄
錢
録
鍾
鏡
鐵
鑑
钅
铁
银
镇
長
镸
长
門
閃
閉
開
閏
閑
閒
間
閔
関
閣
閵
閻
闌
闘
關
门
间
闷
闻
阑
阜
阝
队
阪
防
阳
阿
际
陆
陈
降
限
院
除
陳
陵
陸
険
陽
隆
隊
隋
際
隡
隨
隱
隶
隹
隺
隻
隼
隽
难
雀
雁
雄
雅
集
雈
雋
雍
雐
雔
雙
雚
雜
雝
離
難
雨
雩
雪
雲
零
雷
電
需
震
霍
霜
霝
霞
霧
露
霸
靈
靑
青
靖
静
非
靡
面
靣
革
韋
韓
韦
韩
韭
韯
韱
音
響
頁
頂
頃
項
順
須
頗
領
頡
頭
頻
題
顔
願
顛
類
页
顺
领
频
题
風
风
飛
飞
食
飠
飯
養
餘
館
饣
馆
首
香
馬
馮
駦
騎
马
骨
體
高
髟
鬥
鬯
鬲
鬼
魂
魅
魏
魔
魚
魯
鮮
鱼
鲁
鳥
鳳
鳴
鶴
鸟
鹵
鹿
麃
麗
麥
麦
麵
麻
麼
黃
黄
黍
黎
黑
黒
黨
黹
黽
黾
鼎
鼓
鼠
鼻
齊
齋
齐
齒
齿
龍
龙
龜
龟
龠
龰
龱
龴
龵
龶
龷
龸
龹
ꜜ
ꦏ
ꦒ
ꦗ
ꦠ
ꦢ
ꦤ
ꦥ
ꦧ
ꦩ
ꦪ
ꦫ
ꦭ
ꦮ
ꦱ
ꦲ
者
艹
ﷲ
ﺍ
ﺎ
ﺑ
ﺪ
ﺮ
ﻘ
ﻟ
ﻠ
ﻣ
ﻤ
ﻦ
ﻧ
ﻨ
ﻪ
ﻮ
ﻲ
ﻳ
ﻴ
？
･
￼
𐌰
𐌹
𐍃
𝗮
𝗻
𝘼
𠀁
𠀃
𠀆
𠀉
𠀎
𠀐
𠁁
𠁣
𠂆
𠂇
𠂈
𠂉
𠂊
𠂋
𠂎
𠂒
𠂔
𠂛
𠂡
𠂢
𠂤
𠂬
𠂭
𠂹
𠃊
𠃋
𠃌
𠃍
𠃎
𠃑
𠃓
𠃔
𠃜
𠄌
𠄎
𠄠
𠄢
𠆢
𠆥
𠇍
𠈌
𠌵
𠓜
𠔉
𠔥
𠔼
𠔽
𠔿
𠕀
𠕁
𠕋
𠘧
𠘨
𠙻
𠙼
𠚏
𠚒
𠚤
𠚪
𠣏
𠤎
𠤕
𠥓
𠦄
𠦑
𠦝
𠧒
𠧗
𠧪
𠩺
𠪚
𠫓
𠫔
𠫤
𠬛
𠬝
𠬞
𠬢
𠬤
𠬶
𠮛
𠮦
𠮷
𠯑
𠱠
𠳮
𠷎
𡈼
𡉀
𡉵
𡌥
𡍮
𡏳
𡕒
𡕩
𡕰
𡖅
𡗗
𡗜
𡘆
𡘤
𡧱
𡨄
𡩧
𡬠
𡭽
𡰣
𡰥
𡰪
𡰯
𡰱
𡷈
𡸁
𡿨
𡿩
𡿪
𡿺
𢀖
𢀛
𢀩
𢁙
𢆉
𢆰
𢆶
𢇁
𢇇
𢉖
𢌬
𢌿
𢏚
𢑑
𢑚
𢖻
𢙣
𢛳
𢦏
𢦒
𢧵
𢼄
𢾕
𣁋
𣄼
𣅀
𣅽
𣍘
𣎳
𣎵
𣏋
𣏼
𣗥
𣥂
𣥖
𣦵
𣦼
𣧄
𣪊
𣪠
𣬉
𣳾
𣶒
𤇾
𤊽
𤐫
𤓰
𤔔
𤕨
𤣩
𤰇
𤰔
𤰞
𤴓
𤴔
𤽄
𥁑
𥁕
𥃦
𥃩
𥃭
𥇡
𥑟
𥘅
𥘈
𥝢
𥫗
𥱡
𦈢
𦉪
𦉬
𦉼
𦍌
𦍒
𦎧
𦐇
𦓔
𦔮
𦘒
𦙃
𦚏
𦣝
𦣞
𦣻
𦥑
𦥔
𦥯
𦨉
𦭝
𦰩
𧆞
𧈧
𧘇
𧰨
𧴪
𧴮
𧵩
𧾷
𨸏
𨾴
𩙿
𩠐
𩫏
𩵋
𪉷
𪜀
𪟽
𪠲
𪩲
𫇦
𫔭
𫜸
𫝀
𫠣
𫠩
𫢉
𫥞
𫩏
𫩠
𫪡
𫲽
𫶧
𬀷
𬐘
𬗌
𬙙
𬛸
𬜯
𬟩
𬯁
𬴘
𬺻
𬼉
𬼖
𭀰
𭁈
𭁨
𭅰
𭑈
𭕄
𭗼
𭤨
𭥫
𭻾
𮅕
𮊿
𮍌
𮍏
𮓗
𮥼
𮧮
廾
𰀁
𰀄
𰀈
𰀉
𰀕
𰀠
𰀡
𰀢
𰀪
𰁜
𰃮
𰆊
𰆘
𰋙
𰕎
𰢴
𰧭
𰯲
0--
000--
011--
013--
019--
02--
03--
04--
05--
06--
07--
08--
09--
1--
101--
120--
123--
143--
146--
2--
2011--
3--
4--
5--
55--
57--
59--
6--
604--
605--
606--
607--
608--
609--
64--
65--
67--
69--
7--
70--
71--
72--
73--
74--
75--
76--
77--
78--
79--
8--
80--
81--
82--
83--
84--
85--
86--
87--
88--
89--
9--
90--
91--
92--
93--
94--
95--
96--
967--
97--
978--
97802--
97803--
97804--
97805--
97807--
97808--
978967--
98--
983--
99--
a--
aa--
ab--
aba--
abd--
abe--
abi--
abs--
absol--
abu--
ac--
accele--
accu--
ace--
achi--
activ--
ad--
ada--
add--
ade--
adi--
adje--
adop--
advan--
ae--
aero--
af--
aff--
ag--
aggr--
agro--
agui--
ah--
ai--
air--
ais--
aj--
ak--
aka--
aki--
aku--
al--
ala--
alder--
alek--
alge--
algo--
ali--
all--
alleg--
alp--
als--
alt--
alter--
alu--
am--
ame--
amend--
ami--
amp--
an--
ana--
anc--
and--
ang--
ani--
ankylos--
ann--
anna--
anom--
anon--
ant--
anti--
anu--
any--
ao--
ap--
apa--
api--
apol--
app--
appoint--
approxi--
aq--
aqua--
aqui--
ar--
ara--
arbit--
arch--
are--
argen--
ari--
ark--
arm--
ars--
art--
as--
asa--
ash--
asia--
asim--
ask--
asp--
ass--
assass--
astro--
asy--
at--
ati--
atta--
atten--
attract--
au--
audio--
aur--
aus--
auti--
auto--
av--
ave--
avi--
aw--
ax--
ay--
ayu--
az--
b--
ba--
bab--
back--
bact--
bad--
bag--
bah--
bai--
bak--
bala--
ball--
balm--
balt--
bam--
ban--
bang--
bar--
bas--
bat--
batu--
bau--
bay--
bb--
bc--
be--
bea--
beau--
bed--
bee--
beg--
bei--
bek--
bel--
bela--
ben--
beng--
ber--
bera--
berem--
berg--
berke--
bern--
bert--
berum--
bes--
bet--
bey--
bh--
bhag--
bi--
bibl--
biblio--
bid--
big--
bil--
bila--
bin--
bio--
bir--
bis--
bit--
biz--
bl--
black--
blos--
blu--
blue--
bm--
bn--
bo--
bob--
body--
bok--
bold--
bon--
boo--
bor--
bos--
bot--
boul--
bour--
bous--
bout--
bow--
box--
boy--
bp--
br--
brad--
break--
bren--
bres--
brew--
brez--
bro--
brook--
bs--
bt--
bu--
bug--
bukh--
bulu--
bum--
bun--
burg--
bus--
but--
buy--
by--
ca--
caf--
cai--
calc--
cald--
cali--
cam--
can--
cap--
car--
cara--
care--
cari--
carni--
cas--
casa--
cast--
cat--
caul--
cay--
cb--
cc--
cd--
ce--
cele--
celebr--
cend--
ceng--
cent--
cere--
cerv--
cet--
cf--
cg--
ch--
cha--
cham--
chan--
chao--
char--
che--
chelo--
chem--
chen--
chi--
chin--
cho--
chond--
chry--
chu--
ci--
cia--
cik--
cinn--
cip--
cis--
cit--
citeref--
city--
cl--
clim--
cm--
cn--
co--
cock--
col--
com--
come--
commemo--
con--
concent--
confess--
confi--
confu--
const--
consul--
cook--
coor--
cop--
cora--
corb--
cord--
corn--
corr--
corres--
corv--
cos--
cosmo--
cot--
coul--
coun--
cour--
cp--
cr--
cran--
cres--
crim--
crist--
crit--
croc--
crocod--
crom--
crusa--
cry--
cs--
ct--
cu--
cum--
cumber--
cun--
cup--
cust--
cut--
cy--
cyber--
cycl--
cz--
d--
da--
dae--
dah--
dai--
dal--
dam--
dan--
dap--
dar--
das--
data--
date--
day--
db--
dc--
dd--
de--
dead--
deb--
dec--
decor--
dee--
deep--
def--
degr--
deh--
dei--
dek--
del--
dem--
demen--
den--
depen--
der--
deriv--
des--
det--
detec--
deter--
dev--
df--
dh--
di--
dia--
diagn--
dica--
dican--
dice--
did--
didoku--
die--
dieks--
dift--
dige--
dihi--
dihim--
dija--
dike--
dikh--
dil--
dilem--
din--
dios--
diper--
dir--
dirah--
dis--
discip--
diseleng--
disem--
disen--
disepa--
disum--
ditam--
dite--
ditum--
div--
diver--
dj--
dl--
dm--
dn--
do--
doc--
dog--
dok--
dol--
dom--
don--
dong--
dorl--
dos--
dot--
dow--
down--
dp--
dr--
drea--
dream--
dres--
ds--
du--
dua--
dub--
duck--
dun--
duss--
dv--
dw--
dwi--
dy--
dz--
ea--
earn--
east--
eb--
eber--
ec--
eco--
ed--
edu--
ee--
ef--
effi--
eg--
eh--
ei--
eich--
ein--
eisen--
ej--
ek--
eka--
eko--
eksp--
ekst--
el--
ela--
elec--
elek--
elet--
eleva--
elf--
eli--
em--
embr--
emiss--
emot--
emplo--
en--
end--
endo--
ener--
eng--
entrep--
eo--
ep--
epide--
epidemio--
epig--
eq--
equa--
equi--
er--
era--
eri--
es--
esco--
espan--
est--
et--
etno--
eu--
eun--
euph--
euro--
ev--
eva--
ever--
ew--
ex--
exce--
execut--
exhi--
expe--
expect--
explo--
expo--
extra--
ey--
eye--
ez--
f--
fa--
fabr--
fair--
fam--
fan--
far--
fas--
fasil--
fat--
fc--
fe--
feb--
fei--
feld--
feli--
fell--
ferr--
fert--
fi--
fift--
figu--
fil--
film--
fin--
fire--
fit--
fk--
fl--
flav--
flor--
flot--
flu--
fly--
fm--
fn--
fo--
fon--
foot--
for--
foren--
foto--
four--
fox--
fp--
fr--
fra--
fred--
free--
frei--
fres--
fruh--
fry--
fs--
ft--
fu--
fuji--
full--
fun--
fur--
fy--
fz--
ga--
gab--
gah--
gai--
gal--
gam--
game--
gan--
gang--
garri--
gas--
gau--
gazz--
gb--
gc--
gd--
ge--
gel--
gen--
geng--
geo--
germ--
gesc--
get--
gf--
gh--
gi--
gia--
gig--
gil--
gim--
gin--
gl--
glad--
glam--
glen--
glos--
gm--
gn--
go--
goal--
god--
gol--
gold--
gomb--
gon--
good--
got--
goul--
gour--
gov--
gover--
gp--
gr--
grad--
grand--
grap--
green--
gren--
grey--
grim--
grind--
gron--
gros--
gs--
gu--
gua--
guan--
guer--
gui--
gum--
gun--
gus--
guth--
gw--
gy--
gyeongs--
gymn--
ha--
hab--
hack--
had--
hae--
hai--
hak--
hal--
hall--
ham--
han--
hana--
hand--
har--
hard--
hart--
has--
hat--
haun--
hay--
hc--
hd--
he--
head--
hege--
hei--
heli--
hell--
hem--
hen--
her--
het--
hey--
hi--
hidro--
high--
him--
hin--
hip--
hiper--
his--
hit--
hk--
hl--
hm--
ho--
hodg--
holl--
holo--
holz--
home--
homo--
hon--
hong--
hoo--
hop--
horn--
hort--
hos--
hot--
hou--
hr--
hs--
ht--
hu--
hua--
hub--
hui--
hum--
humph--
hun--
hut--
hwa--
hy--
hydr--
hyo--
hyper--
ia--
ib--
ibu--
ic--
ichi--
id--
ident--
ie--
if--
ig--
ign--
ih--
ii--
ij--
ik--
il--
ill--
illumi--
illus--
im--
imag--
immig--
impro--
improve--
in--
ina--
inaug--
inc--
incor--
incre--
ind--
indep--
indis--
indo--
infan--
infe--
info--
ing--
ini--
inn--
ins--
inscrip--
instruc--
insur--
int--
integ--
inten--
inter--
inve--
inves--
io--
ip--
iq--
ir--
ira--
iri--
is--
isa--
ishi--
isi--
iso--
ist--
it--
iu--
iv--
iw--
ix--
iy--
iz--
izzu--
ja--
jah--
jai--
jal--
jam--
jamadil--
jan--
jas--
jati--
jay--
jaya--
jb--
jc--
je--
jem--
jen--
jet--
jh--
ji--
jia--
jin--
jj--
jk--
jo--
jon--
jong--
jp--
js--
ju--
judg--
jul--
jun--
jung--
juru--
juve--
jy--
k--
ka--
kad--
kah--
kai--
kal--
kala--
kali--
kam--
kama--
kan--
kang--
kap--
kar--
kartog--
kash--
kast--
kat--
kata--
kate--
kau--
kawa--
kay--
kazu--
kb--
kc--
kd--
ke--
keboleh--
kece--
kecu--
kee--
kei--
keju--
kek--
kele--
keli--
kem--
kemah--
kemen--
kemun--
ken--
kera--
kerong--
kert--
keru--
kes--
keseder--
keset--
kesus--
ketak--
ketidak--
kew--
key--
kf--
kg--
kh--
khal--
khar--
khaw--
khoj--
khom--
khor--
khura--
khuz--
ki--
kid--
kim--
kin--
kirc--
kirk--
kirs--
kit--
kita--
kk--
kl--
kloro--
km--
kn--
knox--
ko--
kod--
koh--
koi--
kok--
kol--
komm--
komp--
kon--
konfe--
konst--
kor--
kos--
kot--
kota--
kp--
kr--
kras--
kredi--
kreu--
kri--
kru--
ks--
kt--
ku--
kuan--
kul--
kum--
kun--
kv--
kw--
ky--
kyo--
kyu--
l--
la--
lab--
labyr--
lal--
lam--
lan--
land--
lang--
lap--
las--
lat--
lau--
laugh--
law--
lay--
laza--
lc--
ld--
le--
lea--
led--
lee--
left--
leg--
lei--
lek--
lemb--
len--
leng--
les--
let--
leuk--
lex--
lf--
lg--
lh--
li--
lia--
liao--
libr--
lie--
life--
light--
lil--
lim--
lin--
lip--
lit--
liu--
live--
lj--
lk--
ll--
lo--
lock--
log--
lok--
long--
loo--
lor--
los--
lot--
lou--
love--
low--
loy--
lp--
ls--
lt--
lu--
luc--
luft--
lun--
lut--
lv--
lx--
ly--
lycaen--
m--
ma--
maa--
mac--
mad--
mae--
mag--
mah--
maha--
mai--
main--
maj--
mak--
makro--
mal--
mala--
mamb--
man--
mani--
mano--
manu--
map--
mar--
mara--
margu--
mari--
marjo--
marlb--
mas--
masa--
mat--
mata--
mau--
may--
mb--
mc--
mca--
mccl--
mcco--
md--
me--
med--
media--
medit--
meg--
mega--
mei--
mek--
mel--
melam--
melem--
melen--
meman--
memb--
membant--
membeng--
meme--
memf--
memo--
memp--
mempel--
memper--
memu--
men--
menaf--
menam--
mence--
mener--
meng--
menghi--
menu--
menya--
menyan--
menye--
menyelu--
menyi--
menyo--
menyu--
mer--
mere--
meso--
met--
meta--
metro--
mh--
mi--
mia--
mic--
micro--
mid--
mig--
mikro--
mil--
mill--
min--
mini--
mio--
mir--
mis--
miss--
mit--
mithr--
mix--
miya--
mizu--
mk--
ml--
mm--
mn--
mo--
moe--
moh--
mok--
mol--
mom--
mon--
mono--
mont--
mort--
motor--
mou--
mp--
mr--
ms--
mt--
mu--
muham--
muka--
mukh--
mukt--
mull--
multi--
mun--
muqa--
murs--
mus--
muta--
mutt--
mw--
my--
mygeo--
myst--
n--
na--
naga--
nagy--
nai--
nak--
nam--
nan--
nano--
narc--
nark--
narr--
nas--
nasa--
nat--
naviga--
nb--
nc--
nd--
ne--
nee--
negotia--
neig--
nel--
neo--
net--
neur--
neuros--
neus--
new--
news--
nf--
ng--
nga--
nh--
ni--
nieu--
nik--
nil--
nin--
nj--
nk--
no--
noc--
nok--
nom--
non--
noor--
nor--
nord--
nos--
not--
note--
nouv--
now--
nr--
ns--
nt--
nu--
nukl--
nur--
nut--
ny--
nya--
nz--
oa--
ob--
ober--
observa--
obst--
oc--
occas--
occiden--
occu--
oct--
od--
oe--
of--
off--
og--
oh--
oi--
oj--
ok--
okt--
ol--
old--
ole--
olig--
olim--
olym--
om--
omni--
on--
one--
ono--
oo--
op--
open--
opport--
or--
orig--
ornitho--
oro--
orto--
os--
ost--
osteo--
oster--
ot--
oto--
ou--
our--
out--
ov--
over--
ow--
ox--
oy--
oz--
p--
pa--
pac--
pad--
pada--
page--
pai--
pak--
pal--
paleo--
pam--
pan--
panca--
pang--
pap--
par--
para--
paren--
pari--
pas--
pasca--
pass--
pat--
path--
pavl--
pay--
pb--
pc--
pd--
pe--
peder--
pedia--
pek--
peka--
pele--
peli--
pelu--
peman--
pemb--
pembag--
pembai--
pembang--
pemben--
pember--
peme--
pemen--
pemer--
pemin--
pemu--
pen--
pena--
penca--
peneb--
pener--
penet--
peng--
pengem--
penggu--
pengke--
penya--
penyah--
penye--
penyeleng--
penyi--
pep--
per--
percept--
peren--
perke--
pers--
peru--
pes--
pet--
pf--
pg--
ph--
phen--
phi--
phil--
phono--
pi--
pia--
pic--
pie--
pil--
pin--
pir--
pit--
pk--
pl--
pla--
play--
plea--
plei--
pm--
pn--
po--
pod--
pol--
polig--
politic--
polyg--
pop--
por--
pos--
posit--
post--
pot--
pow--
power--
pp--
pr--
pra--
pre--
predict--
prim--
primor--
prit--
priv--
pro--
proc--
prost--
proto--
pru--
ps--
psi--
psiko--
psyc--
psychi--
pt--
pu--
pub--
pucc--
pull--
pulm--
pun--
purw--
put--
py--
qa--
qara--
qe--
qi--
qo--
qr--
qu--
quan--
quat--
que--
qui--
qur--
r--
ra--
rabiul--
rach--
radio--
rah--
rai--
rain--
raj--
raja--
rak--
ram--
rama--
ran--
rang--
rap--
ras--
rat--
raw--
ray--
rc--
re--
real--
rec--
recep--
recom--
recon--
recre--
red--
ref--
rei--
rel--
rem--
ren--
rep--
reper--
repos--
republi--
res--
rest--
reti--
retri--
rev--
rever--
rh--
ri--
ricc--
rie--
rig--
rim--
rin--
rio--
riz--
rj--
rm--
ro--
rob--
rock--
rod--
roh--
rom--
ron--
ros--
rose--
rott--
row--
rp--
rs--
rt--
ru--
rud--
rum--
run--
rus--
ry--
ryo--
ryu--
s--
sa--
saar--
sacr--
sad--
sae--
sah--
sai--
saka--
sakh--
sal--
salva--
sam--
san--
sanct--
sand--
sang--
sap--
sar--
sari--
sas--
sat--
savi--
say--
sb--
sc--
scar--
sche--
schi--
schl--
schn--
scho--
schr--
schu--
schw--
scor--
scud--
scul--
sd--
se--
sea--
sec--
sedi--
see--
sei--
seja--
sek--
sel--
seleu--
seli--
sem--
semi--
sen--
seneg--
seng--
seni--
seo--
sep--
seper--
ser--
set--
sex--
sf--
sh--
sha--
shah--
sham--
she--
shi--
shin--
ship--
sho--
show--
shu--
si--
sia--
sic--
sid--
siddh--
side--
sieg--
sig--
sik--
sil--
sim--
simul--
sin--
sing--
sino--
sir--
sis--
sit--
siu--
siva--
six--
sj--
sk--
ske--
sky--
skysc--
sl--
sm--
smart--
sn--
snap--
snow--
so--
soc--
socio--
soe--
soft--
soh--
soi--
sol--
som--
some--
son--
song--
soo--
sop--
sos--
sp--
spa--
space--
spec--
spek--
spy--
sq--
squa--
sr--
sri--
ss--
st--
sta--
stack--
stall--
stan--
star--
sten--
stir--
strat--
stri--
stur--
su--
sub--
sud--
suff--
sugg--
sugi--
suk--
suka--
suku--
sul--
sum--
sun--
sup--
super--
sur--
susp--
susta--
sut--
sv--
sw--
sy--
syah--
syam--
syll--
sylv--
synd--
synt--
syuh--
sz--
t--
ta--
tab--
tae--
tag--
tai--
taj--
tak--
take--
tal--
tam--
tan--
tang--
tao--
tap--
tar--
tat--
tata--
tau--
tay--
tc--
te--
tea--
tech--
techno--
ted--
teh--
tek--
tel--
temb--
temp--
ten--
teng--
ter--
tera--
terje--
tes--
tet--
th--
tha--
the--
theo--
thie--
thir--
tho--
thur--
ti--
tim--
time--
timesof--
tin--
tip--
tj--
tl--
tm--
tn--
to--
toi--
tok--
tol--
tom--
ton--
tong--
too--
top--
tor--
toxi--
tr--
tra--
trans--
treb--
tri--
trom--
trop--
trot--
ts--
tsu--
tt--
tu--
tua--
tum--
tun--
tung--
tv--
tw--
ty--
tz--
ua--
ub--
ubi--
uc--
ud--
ue--
ug--
uh--
ui--
uj--
uji--
uk--
ul--
ultra--
um--
un--
una--
under--
uni--
univer--
unter--
up--
ur--
ura--
us--
usa--
ut--
uv--
uw--
uy--
uz--
va--
vacat--
val--
van--
var--
vas--
vb--
ve--
vec--
veget--
velo--
vend--
vene--
vent--
ver--
ves--
vi--
vic--
vie--
view--
villa--
viro--
visi--
vitt--
vl--
vn--
vo--
voc--
vol--
volun--
vr--
vt--
vu--
vulg--
vulk--
vy--
wa--
wad--
wah--
wai--
wak--
wal--
wali--
wan--
war--
was--
wat--
water--
way--
wb--
wc--
we--
web--
wei--
welt--
wen--
west--
wet--
wh--
whis--
whit--
white--
wi--
wies--
wiki--
wil--
wild--
win--
wind--
wira--
with--
witt--
wm--
wo--
won--
wood--
world--
wors--
wr--
ws--
wu--
wy--
xa--
xant--
xe--
xeno--
xh--
xi--
xiao--
xin--
xl--
xo--
xp--
xu--
xx--
ya--
yak--
yama--
yan--
yang--
yasu--
yb--
ye--
yes--
yi--
ym--
yo--
yoko--
yon--
yong--
yoshi--
you--
yp--
ys--
yu--
yus--
za--
zam--
zang--
zap--
zb--
zd--
ze--
zee--
zen--
zh--
zhi--
zhu--
zi--
zim--
zip--
zl--
zm--
zo--
zoo--
zs--
zu--
zul--
zur--
zw--
zwei--
zy--
²--
³--
æ--
đ--
ŋ--
ɕ--
ə--
ɛ--
ɡ--
ɪ--
ɾ--
ʃ--
ʒ--
ʔ--
τ--
а--
в--
г--
д--
з--
и--
м--
н--
о--
п--
р--
рос--
с--
т--
י--
ا--
اح--
اس--
ال--
او--
اي--
ب--
با--
بر--
بو--
ت--
تا--
تو--
ج--
ح--
د--
دا--
ر--
س--
سو--
ش--
ع--
ف--
ق--
ك--
ل--
لا--
م--
ما--
مل--
مو--
ن--
ه--
و--
ي--
ٱ--
ڤ--
ڤو--
ک--
کا--
کو--
ก--
ง--
ด--
น--
ม--
ย--
ว--
อ--
า--
เ--
แ--
ไ--
ᄀ--
ᄁ--
ᄂ--
ᄃ--
ᄄ--
ᄅ--
ᄆ--
ᄇ--
ᄈ--
ᄉ--
ᄊ--
ᄋ--
ᄌ--
ᄍ--
ᄎ--
ᄏ--
ᄐ--
ᄑ--
ᄒ--
⁵--
あ--
い--
え--
か--
き--
く--
け--
こ--
さ--
し--
す--
せ--
そ--
た--
ち--
つ--
て--
と--
な--
に--
の--
は--
ひ--
ま--
み--
ら--
れ--
ア--
イ--
ウ--
ウルト--
エ--
オ--
カ--
キ--
キャ--
ク--
コ--
サ--
シ--
シャ--
シン--
ス--
セ--
タ--
チ--
テ--
ト--
ナ--
ニ--
ハ--
ヒ--
フ--
ヘ--
ホ--
マ--
ミ--
メ--
ラ--
リ--
ル--
レ--
--0
--0
--00
--01
--02
--03
--04
--05
--06
--07
--08
--09
--1
--1
--10
--11
--12
--13
--14
--15
--16
--17
--18
--19
--2
--2
--20
--21
--22
--23
--24
--25
--26
--27
--28
--29
--3
--3
--30
--31
--32
--33
--34
--35
--36
--37
--38
--39
--4
--4
--40
--41
--42
--43
--44
--45
--46
--47
--48
--49
--5
--5
--50
--51
--52
--53
--54
--55
--56
--57
--58
--59
--6
--6
--60
--61
--62
--63
--64
--65
--66
--67
--68
--69
--7
--7
--70
--71
--72
--73
--74
--75
--76
--77
--78
--79
--8
--8
--80
--81
--82
--83
--84
--85
--86
--87
--88
--89
--9
--9
--90
--91
--92
--93
--94
--95
--96
--97
--98
--99
--a
--aa
--aah
--aan
--aat
--ab
--abad
--able
--ac
--aca
--aceae
--ach
--ache
--achi
--acion
--ack
--aco
--acy
--ad
--ada
--adah
--adang
--ade
--ado
--ador
--ados
--adu
--ae
--ael
--aer
--af
--afe
--ag
--aga
--agan
--agawa
--age
--agh
--agi
--agne
--agui
--agukan
--ah
--aha
--ahak
--ahan
--ahat
--ahi
--ahkan
--ahu
--ai
--aian
--aic
--aik
--ail
--ain
--air
--aire
--aj
--aja
--aji
--aju
--ak
--aka
--akan
--ake
--akh
--aki
--akkan
--ako
--al
--ala
--alakkan
--ale
--ales
--ali
--alih
--alkan
--all
--ally
--aly
--am
--ama
--aman
--ami
--an
--ana
--ance
--and
--ane
--ang
--angi
--ani
--ank
--annya
--ano
--ans
--ant
--ants
--anya
--ao
--ap
--apa
--apkan
--apuk
--apur
--aput
--aq
--ar
--ara
--aran
--ard
--ardjo
--are
--ari
--aries
--aro
--arpus
--aruddin
--ary
--arı
--as
--asah
--ase
--asi
--asih
--ast
--at
--ata
--atan
--ate
--ated
--ates
--ath
--athan
--ati
--ating
--ation
--ations
--ative
--atkan
--ato
--ator
--atories
--ators
--ats
--att
--atu
--atul
--atus
--au
--auan
--aud
--aum
--aun
--aut
--av
--ava
--aw
--awa
--awar
--ax
--ay
--aya
--ayan
--az
--b
--ba
--back
--bad
--bah
--bai
--bak
--bal
--balas
--ban
--band
--bank
--bar
--bas
--bat
--bb
--be
--beat
--bel
--berg
--bh
--bi
--bia
--biah
--bie
--bility
--ble
--bles
--bly
--bo
--bol
--bola
--bolik
--book
--bot
--box
--boy
--bra
--bre
--bria
--bs
--bu
--buan
--buch
--buh
--buk
--bul
--bur
--buran
--burg
--buri
--bury
--bus
--but
--by
--c
--ca
--caceae
--cah
--cak
--cal
--can
--car
--card
--cas
--cat
--ce
--cea
--ceae
--ced
--cel
--cen
--cent
--cer
--ces
--cey
--ch
--cha
--chaft
--charts
--che
--ches
--chi
--cht
--chy
--ci
--cia
--cial
--cies
--cing
--cio
--cion
--cious
--ck
--cle
--cles
--co
--cock
--coe
--com
--con
--core
--croft
--cs
--ct
--ction
--ctive
--cts
--cu
--cular
--culum
--cup
--cus
--cut
--cy
--d
--da
--dad
--dae
--dag
--dah
--daily
--dak
--dale
--dam
--dan
--dar
--das
--dat
--data
--dau
--daw
--day
--ddin
--de
--dea
--ded
--del
--den
--der
--des
--dez
--dge
--dha
--di
--dia
--dik
--din
--dir
--dis
--dit
--dita
--dium
--dj
--dle
--dler
--dli
--dman
--do
--dog
--dom
--don
--dor
--dorf
--dou
--dra
--ds
--dt
--du
--duct
--duga
--duk
--dul
--dum
--dur
--dus
--dy
--dya
--e
--ea
--ead
--eal
--ean
--eas
--eau
--eb
--ebar
--eburg
--ebut
--ec
--ecas
--ecast
--ech
--echt
--ecil
--eck
--ect
--ects
--ecut
--ed
--eda
--edar
--edes
--ee
--eed
--eel
--eem
--een
--eep
--eer
--ees
--ef
--eg
--ega
--egas
--eged
--egur
--eh
--ehan
--ei
--eia
--eim
--ein
--eira
--eiro
--ej
--ek
--eki
--el
--ela
--eld
--ele
--ell
--elli
--ello
--elo
--elope
--els
--ely
--em
--emudi
--en
--ena
--enburg
--ence
--ency
--end
--ene
--ened
--eng
--eni
--ening
--enium
--enne
--eno
--enon
--ens
--ense
--ensen
--ensi
--ensis
--ent
--entia
--ento
--ents
--enz
--enza
--eo
--eot
--eous
--ep
--epi
--eq
--er
--era
--erang
--eras
--ere
--eren
--eres
--eret
--erg
--eri
--ern
--ero
--ers
--erse
--ert
--eru
--erus
--ery
--es
--ese
--esh
--esha
--esi
--esis
--ess
--est
--estan
--et
--eta
--etan
--etar
--ete
--eter
--eth
--eti
--eto
--ets
--etsu
--ett
--etta
--ette
--etti
--eu
--eum
--eur
--eus
--eux
--ev
--ew
--ews
--ex
--ey
--eye
--ez
--f
--fa
--fah
--fan
--fc
--fe
--feld
--fen
--fer
--ff
--fi
--fied
--field
--fikasi
--film
--fir
--fix
--fm
--fo
--fon
--ford
--fore
--frey
--fs
--ft
--fu
--ful
--fy
--g
[...]
