!
"
#
##0
##1
##10
##11
##12
##13
##14
##15
##16
##17
##18
##19
##2
##20
##21
##22
##23
##24
##25
##26
##27
##28
##29
##3
##30
##31
##32
##33
##34
##35
##36
##37
##38
##39
##4
##40
##41
##42
##43
##44
##45
##46
##47
##48
##49
##5
##50
##51
##52
##53
##54
##55
##56
##57
##58
##59
##6
##60
##61
##62
##63
##64
##65
##66
##67
##68
##69
##7
##70
##71
##72
##73
##74
##75
##76
##77
##78
##79
##8
##80
##81
##82
##83
##84
##85
##86
##87
##88
##89
##9
##90
##91
##92
##93
##94
##95
##96
##97
##98
##99
$
%
&
'
(
)
*
+
,
-
.
/
0
00
000
0000
0001
0003
0004
0006
001
002
0022
003
004
005
006
007
008
009
01
010
01000
011
012
013
014
0140
015
016
0167
017
018
019
02
020
021
022
024
025
026
0261
028
03
030
032
033
0333
0362
04
040
046
05
050
0500
052
054
056
06
06000
06300
0667
067
068
07
07000
08
08000
082
083
0833
084
087
088
089
09
09100
1
10
100
1000
1001
1002
1006
1007
101
1016
1017
102
1021
1023
1024
1029
103
1037
1038
1039
104
1046
105
1050
1051
1056
106
1063
1066
107
1073
108
1080
1086
1088
109
1093
1095
1097
1098
1099
11
110
1100
1101
1103
111
1111
112
1126
1128
113
1130
1136
114
1146
115
116
1163
1167
117
1177
118
1186
119
12
120
1200
1204
121
122
123
124
125
1250
126
127
128
1280
129
13
130
1300
131
132
133
1333
134
135
1350
1353
136
1365
1367
1368
137
1371
138
139
1392
14
140
1400
141
1415
142
1420
1428
1429
143
1430
1431
144
1440
145
1450
1453
146
1460
14651858
1469
147
1471
148
1485
149
1492
15
150
1500
1509
151
1511
1512
1515
1516
1517
1519
152
1520
1521
1522
1524
1525
1526
1528
153
1530
154
1540
1541
1542
1545
155
1550
1552
156
1560
1565
157
1570
1571
1573
158
1580
159
1590
1592
1598
16
160
1600
1602
1603
1605
161
1610
1613
1616
162
1620
1623
1625
163
1630
1633
164
1640
1641
1642
1644
1645
1648
1649
165
1650
1659
166
1660
1665
1667
167
1670
168
1680
16800
1683
1688
1689
169
1690
1699
17
170
1700
1701
1703
1707
171
1710
1714
172
1720
173
1730
1736
174
1740
1743
1745
1749
175
1750
1753
1755
1756
1758
1759
176
1760
1761
1762
1763
1765
1766
1767
1768
1769
177
1770
1771
1772
1773
1774
1775
1776
1777
1778
1779
178
1780
1781
1782
1783
1784
1785
1786
1787
1788
1789
179
1790
1791
1792
1793
1794
1795
1796
1797
1798
1799
18
180
1800
1801
1802
1803
1804
1805
1806
1807
1808
1809
181
1810
1811
1812
1813
1814
1815
1816
1817
1818
1819
182
1820
1821
1822
1823
1824
1825
1826
1827
1828
1829
183
1830
1831
1832
1833
1834
1835
1836
1837
1838
1839
184
1840
1841
1842
1843
1844
1845
1846
1847
1848
1849
185
1850
1851
1852
1853
1854
1855
1856
1857
1858
1859
186
1860
1861
1862
1863
1864
1865
1866
1867
1868
1869
187
1870
1871
1872
1873
1874
1875
1876
1877
1878
1879
188
1880
1881
1882
1883
1884
1885
1886
1887
1888
1889
189
1890
1891
1892
1893
1894
1895
1896
1897
1898
1899
19
190
1900
1901
1902
1903
1904
1905
1906
1907
1908
1909
191
1910
1911
1912
1913
1914
1915
1916
1917
1918
1919
192
1920
1921
1922
1923
1924
1925
1926
1927
1928
1929
193
1930
1931
1932
1933
1934
1935
1936
1937
1938
1939
194
1940
1941
1942
1943
1944
1945
1946
1947
1948
1949
195
1950
1951
1952
1953
1954
1955
1956
1957
1958
1959
196
1960
1961
1962
1963
1964
1965
1966
1967
1968
1969
197
1970
1971
1972
1973
1974
1975
1976
1977
1978
1979
198
1980
1981
1982
1983
1984
1985
1986
1987
1988
1989
199
1990
1991
1992
1993
1994
1995
1996
1997
1998
1999
2
20
200
2000
2001
2002
2003
2004
20040616075334
2005
2006
2007
2008
2009
201
2010
2011
2012
2013
2014
2015
2016
2017
2018
2019
202
2020
202006
202009
202012
202015
202018
2021
2022
2023
2024
2025
2026
203
2030
2032
204
205
2050
206
207
208
209
21
210
2100
211
212
21200
213
21300
214
215
216
21600
2167
217
21700
218
219
22
220
22000
221
222
223
224
225
226
227
228
229
23
230
23000
2305
2307
231
232
233
2333
234
235
236
237
238
239
24
240
241
242
243
244
245
246
247
248
249
25
250
2500
251
252
253
254
255
256
257
258
259
26
260
261
262
263
264
265
266
2667
267
268
269
27
270
271
272
273
274
275
276
277
278
279
28
280
28000
281
282
283
2833
284
285
286
287
288
289
29
290
291
292
293
294
295
296
297
298
299
3
30
300
3000
301
302
303
304
305
306
307
3077
308
309
31
310
311
312
313
314
315
316
3166
3167
317
318
319
32
320
32000
321
322
323
324
325
326
327
328
32800
329
33
330
331
332
333
3333
334
335
336
337
338
339
34
340
341
342
343
344
345
346
347
348
349
35
350
3500
351
352
353
354
355
356
357
358
359
36
360
3603
3604
361
362
363
364
365
3654
366
3667
367
368
369
37
370
371
372
373
3731
374
375
376
377
378
379
38
380
381
382
383
384
385
386
387
388
389
39
390
391
392
393
394
395
396
397
398
399
4
40
400
4000
401
402
403
404
405
406
407
408
409
41
410
411
412
413
414
415
416
4167
417
418
419
42
420
421
422
423
424
425
426
427
428
429
43
430
43000
431
432
433
4331
4333
434
435
436
437
43700
438
439
44
440
441
442
443
444
445
446
447
448
449
45
450
4500
451
452
453
454
455
456
4563
457
458
459
46
460
461
462
463
464
465
466
4667
467
468
469
47
470
471
472
473
474
475
476
477
478
479
48
480
481
482
483
4833
484
485
486
487
488
489
49
490
491
492
493
494
495
496
497
498
499
5
50
500
5000
501
502
503
504
505
506
507
508
509
51
510
511
512
513
514
515
516
5167
517
518
519
52
520
521
522
523
524
525
526
527
528
529
53
530
531
532
533
5333
534
535
536
537
538
539
54
540
541
542
543
544
545
546
547
548
549
55
550
5500
551
552
553
554
555
556
557
55750
558
559
56
560
561
562
563
564
565
566
5667
567
568
569
57
570
571
572
573
574
575
576
577
578
579
58
580
581
582
583
5833
584
585
586
587
588
589
59
590
591
59114
592
593
594
595
596
597
598
599
6
60
600
6000
601
602
603
604
605
606
607
608
609
61
610
611
612
613
614
615
616
6167
617
618
619
62
620
621
622
62265494
623
624
625
626
627
628
629
63
630
631
632
633
6333
634
635
636
637
638
639
64
640
641
642
643
644
645
646
647
648
649
65
650
6500
651
652
653
654
655
656
657
658
659
66
660
661
662
663
664
665
666
6667
667
668
669
67
670
671
672
673
6736
674
675
676
677
678
679
68
680
681
682
683
6833
684
685
686
687
688
689
69
690
691
692
693
694
695
696
697
698
699
7
70
700
7000
701
702
703
704
705
706
707
708
709
71
710
711
712
713
714
715
716
7167
717
718
719
72
720
721
722
723
724
725
726
727
728
729
73
730
731
732
7321
733
7333
736
737
739
74
740
741
742
743
7432
744
745
747
748
749
75
750
7500
751
752
753
754
755
756
757
758
759
76
760
763
764
765
766
7667
767
768
769
77
770
771
772
774
775
776
777
778
78
780
781
782
783
7833
784
785
786
7864
787
788
789
79
790
791
792
794
795
796
797
8
80
800
8000
801
8014
8018
802
803
804
8047
805
806
807
808
809
81
810
8108
811
812
813
814
815
816
8160
817
818
819
82
820
821
822
8221
823
824
8248
825
827
828
83
830
832
833
8333
835
839
84
840
841
84176
842
843
845
847
848
8493
85
850
8500
851
852
853
855
86
860
861
864
865
8667
867
869
87
870
87021
871
874
875
876
877
88
880
881
882
883
8833
884
885
887
888
89
890
892
893
894
895
899
9
90
900
9000
901
902
903
907
91
910
911
912
913
914
915
9167
917
918
919
92
920
921
922
923
925
929
93
930
931
933
9333
935
936
94
940
942
944
945
946
947
94700
95
950
9500
951
953
954
957
96
960
96000
961
962
963
964
965
9667
967
968
969
97
970
971
972
973
974
975
976
977
978
979
98
980
981
983
9833
984
985
987
988
989
99
990
991
995
996
997
9971
999
:
;
<
=
>
?
@
[
\
]
^
_
`
a
aa
aac
aamir
aan
aargau
aaron
ab
aba
abad
abadi
abah
abang
abangnya
abas
abau
abba
abbas
abbasiyah
abbasiyyah
abbey
abbott
abbreviation
abby
abc
abd
abdallah
abdel
abdi
abdillah
abdomen
abdu
abdul
abdulaziz
abdulla
abdullah
abdulrahman
abdur
abdurrahman
abe
abel
aberdeen
abhishek
abi
abidin
abigail
ability
abim
abjad
abkhazia
able
abo
aborigin
aboriginal
about
above
abp
abpbh
abraham
abrams
abroad
abruzzo
abs
absolute
abstract
abstrak
abu
abul
abuse
abyss
ac
acad
acade
academia
academic
academy
acar
acara
accepted
access
accessdate
accessed
accessmonthday
accessyear
accident
accord
according
account
accounting
accounts
accused
ace
aceh
aces
achaemenid
acheh
achievement
achik
achmad
aci
acid
acids
acm
acne
acoustic
acp
acquire
acquired
acquires
acquisition
acre
across
acs
acsa
act
acta
acting
action
actions
active
activision
activist
activists
activities
activity
actor
actors
actress
acts
actual
actually
actueel
acuan
acute
ad
ada
adab
adakah
adakala
adakalanya
adakan
adalah
adam
adams
adanya
adaptasi
adaptation
adapun
adat
add
addams
added
addison
addition
additional
additions
address
adds
ade
adegan
adelaide
adele
aden
adenan
adha
adham
adhd
adi
adib
adibah
adidas
adik
adiknya
adil
adinda
adipati
adira
adit
aditya
adiwira
adjektif
adjusted
adler
adli
adlin
admin
administrasi
administratif
administration
administrative
admiral
admits
adnan
adobe
adolf
adopted
adrian
adriana
ads
adu
aduan
adult
adults
adulyadej
adun
adunan
advance
advanced
advances
advantage
advent
adventure
adventures
advertiser
advertising
advice
advisory
advocate
advokasi
adzam
adzim
ae
aegean
aeon
aerial
aeril
aero
aeroangkasa
aerodinamik
aerodrome
aeroflot
aeronautical
aeronautics
aeronautik
aeroroutes
aerospace
af
afa
afar
afc
afdlin
aff
affair
affairs
affan
affandi
affected
affendi
affleck
afghan
afghanistan
afi
afif
afiq
afonso
afp
africa
african
afrika
afrikaans
afro
after
aftermath
afzan
ag
aga
again
against
agak
agam
agama
agamanya
agar
agatha
agb
agdam
age
aged
agen
agence
agencies
agency
agenda
agensi
agent
agents
ages
agglome
agihan
agm
agnes
ago
agong
agra
agraria
agree
agreement
agrees
agregat
agresif
agricultural
agriculture
agrikultur
agro
agu
aguilar
agung
agus
agustin
agustus
ah
ahad
ahead
ahl
ahli
ahlinya
ahmad
ahmadabad
ahmadi
ahmar
ahmed
ahn
ai
aichi
aid
aida
aidan
aidil
aidiladha
aidilfitri
aidit
aids
aik
aika
aim
aiman
aims
ain
aina
aini
ainu
aip
air
airasia
airbender
airborne
airbus
airchina
aircraft
airdisaster
aired
aires
airi
airline
airliner
airlineroute
airlines
airnya
airport
airports
airways
ais
aise
aisha
aishah
aishwarya
aiskrim
aisne
aisyah
aizat
aizen
aj
aja
ajai
ajaib
ajak
ajal
ajang
ajar
ajaran
ajax
ajay
aji
ajil
ajk
ajl
ak
aka
akad
akademi
akademik
akal
akan
akane
akar
akari
akarnya
akasia
akatsuki
akaun
akauntan
akb
akbar
akbari
akc
akhbar
akhir
akhiran
akhirat
akhirnya
akhlak
akhtar
aki
akibat
akibatnya
akidah
akiko
akil
akim
akimoto
akira
akita
akmal
akmar
akne
ako
akp
akrab
akram
akreditasi
akrilik
akronim
aksara
akses
aksesi
aksesori
akshay
aksi
aksiom
akta
aktif
aktivis
aktivisme
aktiviti
aktobe
aktor
aktres
aktuari
aktuelle
aku
akuarium
akuatik
akui
akur
akustik
akut
al
ala
alabama
aladdin
alaf
alah
alahan
alai
alain
alam
alamat
alami
alamiah
alan
alang
alarm
alas
alasan
alaska
alat
alatan
alauddin
alawi
alba
albacete
albania
albanian
albany
albar
albatros
albert
alberta
alberto
albion
albirex
albrecht
album
albumnya
albums
albuquerque
albus
alcohol
aldo
ale
alec
alegre
alejandro
aleksander
aleksandr
alel
aleppo
alert
alessandria
alessandro
alex
alexa
alexander
alexandra
alexandre
alexandria
alexei
alexis
alfa
alfian
alfonso
alfred
alfredo
alga
algebra
algeria
algiers
algoritma
alhamdulillah
alhijrah
ali
alia
aliabad
alias
alibaba
alicante
alice
alicia
alien
alif
aliff
alih
alihan
alik
alim
aliran
alireza
alisa
alison
alita
alive
aliyah
aljazeera
alkali
alkimia
alkitab
alkohol
all
alla
allah
allahyarham
allahyarhamah
allan
alleged
allen
allergy
alley
alliance
allianz
allied
allier
allies
allison
allkpop
allmovie
allmusic
allow
allowed
allrovi
ally
alma
almanac
almarhum
almari
almaty
almeida
almeri
almost
alo
alocasia
aloi
alone
along
alonso
alor
alp
alpes
alpha
alphabet
alpine
alps
already
als
alsace
also
alstonia
alt
alta
altantuya
altar
altenkirchen
alter
alternatif
alternative
although
altimet
altitud
alto
alu
alue
alukan
aluminium
alumni
alun
alunan
alur
alvarez
alves
alvin
always
alwi
alya
alyah
alyssa
alzheimer
am
ama
amai
amal
amalan
amali
aman
amanah
amanat
amanda
amani
amar
amaran
amasya
amat
amateur
amatlah
amatur
amazing
amazon
ambang
ambassador
amber
ambil
ambon
ambrose
ambulans
amc
amd
amdan
ame
amelia
amelina
amer
america
american
americana
americans
americas
amerika
amerul
amfibia
ami
amid
amin
amina
aminah
amino
aminuddin
amir
amira
amirah
amirul
amit
amitabh
ammad
amman
ammar
ammo
ammonia
ammonium
amn
amnesia
amnesty
amnya
among
amor
amorphophallus
amos
amount
amour
amp
ampang
ampar
ampas
ampat
amplitud
ampuan
ampun
amr
amran
amri
amry
amsterdam
amt
amuk
amy
amyra
amzah
an
ana
anai
anak
anakanda
anakku
anaknya
analisa
analisis
analog
analogi
analysis
anam
anan
anand
ananda
anas
anatolia
anatomi
anatomy
anc
ancaman
ancestor
ancestry
anchor
ancient
and
anda
andai
andaian
andak
andalas
andalus
andalusia
andaman
anderlecht
anders
andersen
anderson
andersson
andes
andhra
andi
andika
andjar
ando
andorra
andra
andrade
andre
andrea
andreas
andreeva
andrei
andres
andrew
andrews
android
andromeda
andy
aneh
aneka
anemia
anfield
ang
angan
angel
angela
angeles
angelica
angelin
angelina
angeline
angelo
angels
anger
anggap
anggapan
anggaran
anggerik
anggota
anggotanya
anggun
anggur
angie
angin
angka
angkara
angkasa
angkasapuri
angkasawan
angkat
angkatan
angkatnya
angkor
angkuh
angkutan
angle
anglican
anglikan
anglo
angola
angry
angsa
angsana
angus
anhalt
anhui
ani
anil
animal
animals
animasi
animated
animation
animator
animax
anime
animisme
anion
aniplex
anis
anissa
anita
anjakan
anjal
anjali
anjing
anjir
anjung
anjuran
ankara
ann
anna
annales
annals
annapolis
annapurna
anne
annette
annex
annie
anniversary
annotated
announce
announced
announcement
announces
annual
annuar
annurev
anom
anon
anonymous
another
ans
ansar
ansari
anson
ansur
ansuran
answer
answers
ant
anta
antagonis
antalya
antar
antara
antarabandar
antarabangsa
antarabangsanya
antaramuka
antaranya
antarctic
antartik
antartika
antena
anterior
anthem
anthology
anthony
anthropology
anti
antibiotik
antibodi
antigen
antigua
antik
antillen
antilles
anting
antioch
antioquia
antique
antiquity
antivirus
antlers
anto
antoine
antologi
anton
antonim
antonio
antonius
antonov
antony
antropologi
antu
antwerp
anu
anuar
anugerah
anum
anumerta
anupam
anushka
anutan
anwar
any
anya
anyaman
anyar
anyone
anything
anzac
ao
aoa
aoi
aoki
aol
aomori
ap
apa
apabila
apache
apakah
apalagi
apapun
apart
aparteid
apartmen
apartment
apatah
apc
ape
apec
apek
apes
apg
aphrodite
api
apin
apink
apj
apl
aplikasi
apm
apo
apocalypse
apollo
apostolik
app
appeal
appear
appearance
appearances
appeared
appears
appendix
apple
appleton
application
applications
applied
applikasi
appointed
appointment
appoints
approach
approaches
approval
approved
approves
approximately
apps
apr
april
apulia
aq
aqidah
aqilah
aqmar
aqs
aqsa
aqua
aquila
aquino
aquitaine
ar
ara
arab
arabi
arabia
arabian
arabic
arabs
arad
arafah
arafat
aragatsotn
aragon
arah
arahan
arahannya
arak
aram
aramia
arang
ararat
aras
arau
arbor
arc
arca
arcade
arcadia
arch
archaeological
archaeology
archbishop
archer
archibald
archie
archipelago
architect
architects
architectural
architecture
archive
archived
archives
arctic
ardabil
arde
ardenne
ardennes
ardija
are
area
areas
aren
arena
ares
arf
argentina
argentine
argon
argumen
argument
argus
ari
aria
ariana
arie
arief
ariel
arif
ariff
ariffin
arifin
aril
aris
arisa
arisaema
aristotle
aritmetik
arizona
arjun
arjuna
ark
arka
arkansas
arked
arkeologi
arkib
arkitek
arlington
arm
armada
arman
armand
armando
arme
armed
armenia
armenian
armies
armm
armor
armored
armour
armoured
arms
armstrong
army
arnab
arnaz
arnhem
arnold
aro
aroma
aromatik
aron
arondissement
around
arqam
arrancar
arrangement
array
arrest
arrested
arrival
arrive
arrives
arrow
arroyo
ars
arsenal
arshad
arsip
arslan
art
artakus
arte
artemis
arteri
arthur
arti
article
articles
artifak
artificial
artik
artikel
artikulasi
artikulasinya
artileri
artillery
artinya
artis
artist
artistik
artists
arts
arturo
aru
aruba
aruhan
arumugam
arun
arus
arva
arwah
arxiv
arya
aryan
aryana
as
asa
asad
asahan
asahi
asajaya
asal
asalkan
asalnya
asam
asami
asap
asas
asasi
asasnya
asbestos
ascii
asean
asem
aset
asetik
ash
asha
ashaari
ashari
asher
ashgate
ashley
ashok
ashraf
ashton
asi
asia
asiah
asian
asiana
asians
asiaone
asiatic
asid
asif
asimilasi
asimov
asin
asing
asisten
ask
askar
askara
askarnya
asked
asks
aslan
asli
aslinya
asma
asmah
asmara
asmat
aso
asp
aspects
aspek
aspirasi
aspx
asrama
asri
ass
assad
assam
assassin
assassination
assault
assembly
assessment
assessors
asset
assets
assistance
assistant
associate
associated
associates
association
associations
assyria
astaka
astana
astara
asteroid
asteroids
asti
aston
astra
astrid
astro
astroawani
astrofizik
astrologi
astronaut
astronauts
astronomi
astronomical
astronomy
astrophysical
astrophysics
asturias
asuhan
asuka
asw
aswad
asy
asyik
asyikin
asylum
asyraf
at
ata
atak
atalanta
atan
atap
atari
atas
atasan
atasnya
atatu
atau
ataupun
ateis
athena
athens
athirah
athlete
athletes
athletic
athletics
ati
atikah
atkins
atkinson
atlanta
atlantic
atlantik
atlantique
atlantiques
atlantis
atlas
atle
atlet
atm
atmosfera
atmosphere
atmospheric
atol
atom
atomic
atp
atr
atribut
atrium
atsuko
atsushi
atta
attack
attacks
attas
attempt
attend
attention
attorney
atur
aturan
aturcara
atv
au
aube
aubrey
auckland
aude
audi
audience
audio
audiovisual
audit
audition
auditorium
audrey
auf
aug
augsburg
august
augusta
auguste
augustine
augusto
augustus
aulia
aun
aung
auns
aur
aura
aurel
aurora
aus
austen
austin
australasia
australia
australian
australis
austria
austrian
austro
austronesia
austronesian
author
authorities
authority
authors
autisme
auto
autobiografi
autobiography
automatic
automatik
automobil
automobile
automotif
automotive
autonomi
autonomous
autoritarian
autosport
autumn
auvergne
aux
av
ava
available
avalon
avant
avatar
ave
avec
avellino
avengers
avenue
average
avery
aveyron
avi
avian
aviation
avicennia
avionik
avispa
aviv
avn
avoid
avon
aw
awak
awakening
awal
awalan
awalnya
awam
awan
awang
awani
award
awarded
awards
awareness
awas
away
awesome
awi
awie
ax
axel
axiata
axis
ay
aya
ayah
ayahanda
ayahandanya
ayahnya
ayaka
ayam
ayat
ayatollah
ayda
aye
ayer
ayman
ayob
ayu
ayub
ayumi
ayunan
ayurveda
ayutthaya
az
azab
azad
azahari
azalea
azam
azan
azean
azerbaijan
azeri
azfa
azhan
azhar
azhari
azilah
azim
azimat
azira
aziz
azizah
azizan
azizi
azkaban
azlan
azlee
azlina
azman
azmeer
azmi
azmin
aznan
aznil
azreen
azri
azrul
azteca
aztek
azul
azur
azura
azwan
azzam
azərbaycan
b
ba
bab
baba
babad
babak
babakan
babbage
babel
babi
babu
baby
babylon
babylonia
bac
baca
bacaan
bach
bachchan
bachelor
bachik
bachok
back
background
backs
bacolod
bacon
bad
bada
badai
badajoz
badak
badam
badan
badang
badannya
badar
badaruddin
badawi
bade
baden
badge
badlishah
badminton
badrul
badul
badung
badwi
bae
baek
baekje
bafta
bag
bagai
bagaikan
bagaimana
bagaimanakah
bagaimanapun
bagan
bagasi
bagh
baghdad
bagi
bagian
bagimu
baginda
baginya
bagong
bags
bagus
bah
baha
bahagi
bahagia
bahagian
bahagiannya
bahamas
bahan
bahang
bahar
bahari
baharin
baharom
baharu
baharuddin
baharudin
baharunya
bahas
bahasa
bahasanya
bahau
bahawa
bahawasanya
bahaya
bahiyah
bahkan
bahrain
bahri
bahrin
bahru
bahtera
bahu
bahwa
bai
baidu
baiduri
baik
baiknya
bailey
baird
bait
baitul
baitulmuqaddis
baix
baizura
baja
bajau
bajet
baji
baju
bak
baka
bakal
bakar
bakat
bakatnya
bakau
baker
bakhtiar
bakhtiari
baki
bakinya
bako
bakong
bakr
bakri
bakshi
bakso
bakteria
bakti
baku
bakul
bal
bala
balada
balai
balak
balan
balance
balang
balangan
balapan
balas
balasan
baldwin
bale
balearic
balet
balhae
bali
baligh
balik
balikpapan
baling
balistik
balkan
balkans
ball
ballad
ballantine
ballet
ballon
balmain
balochistan
balok
balqis
baltic
baltik
baltimore
balto
balu
balung
bam
bambang
bamboo
bambu
ban
bana
banana
banarsidass
banci
bancian
band
banda
bandai
bandar
bandara
bandaran
bandaraya
bandarnya
banding
bandingan
bandingkan
bands
banduan
bandung
banerjee
bang
bangalore
bangau
bangga
banggai
banggol
bangi
bangka
bangkai
bangkit
bangkok
bangku
bangladesh
banglo
bangsa
bangsal
bangsar
bangsawan
bangun
bangunan
bangunannya
bani
banjar
banjaran
banjarmasin
banjarnegara
banjir
bank
banking
banks
banned
banner
bans
banska
bantah
bantahan
bantal
bantam
banten
banteng
banting
bantu
bantuan
bantul
banu
banyak
banyaknya
banyumas
banyuwangi
bao
bapa
bapak
bapanya
baptist
baptiste
baqarah
bar
bara
barack
barah
barak
baram
baran
barang
barangan
barangay
barangkali
barangsiapa
baranya
barat
baratdaya
barbados
barbar
barbara
barbarossa
barbeku
barber
barbera
barbie
barbuda
barcelona
barclays
bard
barda
bardejov
bare
bari
baris
barisan
barito
barium
barker
barli
barlow
barmm
barnabas
barnes
barnet
barnett
barney
baro
baron
baroque
barr
barrett
barrichello
barrier
barron
barrow
barry
barrymore
bars
bart
bartlett
barton
bartın
baru
barulah
barunya
bas
basa
basah
basahan
base
baseball
based
basel
basf
bash
bashir
basic
basics
basikal
basil
basilicata
basilika
basin
basis
basket
basketball
basque
basri
bass
basse
bastien
basu
bat
bata
batak
batal
batalion
batam
batang
batangas
batangnya
batas
batasan
batavia
batch
bateri
bates
bath
bathin
bathurst
batik
batin
batista
batman
bato
baton
battalion
battery
battle
battlefield
battles
battleship
battleships
battlestar
batu
batuan
batubara
batuk
bau
bauer
bautista
bavaria
bawa
bawaan
bawah
bawahan
bawahannya
bawahnya
bawang
baxter
bay
bayam
bayan
bayang
bayangan
bayar
bayaran
bayer
bayerisches
bayern
bayi
bayonet
bayt
bayu
baz
bazaar
bazar
bb
bbc
bc
bce
bd
bdfutbol
be
bea
beach
beacon
beagle
beam
bean
bear
bears
beast
beasts
beat
beatles
beatrice
beats
beau
beaufort
beaumont
beautiful
beauty
beaver
bebaling
beban
bebanan
bebas
bebe
beberapa
bebiri
bebola
bec
beca
became
because
becc
bechah
beck
becker
beckham
become
becomes
becoming
bed
bedah
bedford
bedi
bedil
bedilan
bedong
bee
beef
been
beer
beethoven
before
beg
began
begawan
begin
begini
beginning
begins
begitu
begitulah
begum
behavior
behavioral
behaviour
behind
behrang
bei
beijing
being
beirut
bek
bekalan
bekas
bekasi
bekerja
bekerjasama
beku
bel
bela
belacan
beladiri
belaga
belah
belahan
belait
belajar
belakang
belakangan
belakangnya
belalang
belanda
belang
belanga
belanja
belanjawan
belantara
belarus
belas
belasan
belatuk
belayar
belenggu
belfast
belfort
belgian
belgium
belgrade
beli
belia
belian
beliau
belief
beliefs
believe
believed
belimbing
belitung
beliung
belize
bell
bella
bellamy
belle
bellmare
belo
belok
belon
below
belt
belud
belukar
belum
beluran
belut
bemban
ben
benang
benar
bencana
benci
benda
bendahara
bendahari
bendalir
bendang
bender
bendera
bendigo
bendungan
benedict
benefit
benefits
bener
benes
benfica
beng
bengal
bengali
benggala
benggali
bengkak
bengkel
bengkok
bengkulu
beni
benigno
benih
benin
benito
benjamin
bennett
bennington
benny
benson
benta
bentara
benteng
bentley
bento
bentong
bentuk
bentuknya
benua
benut
benz
benzema
beom
ber
bera
berabad
beracun
berada
beradik
beradiknya
beragam
beragama
berahi
berair
beraja
berakar
berakas
berakhir
berakhirnya
berakhlak
beraksi
beralamat
beralih
beralkohol
beralun
beramai
beramal
beramboi
berambut
beranak
beranang
beranda
beraneka
berang
berangan
beranggapan
berangka
berangkat
berani
beransur
berantai
berapa
berapi
berarak
berarti
beras
berasa
berasal
berasas
berasaskan
berasid
berasingan
berasrama
berat
beratap
beratapkan
beratnya
beratus
berau
berautonomi
berazam
berbadan
berbagai
berbahagia
berbahasa
berbahaya
berbaik
berbaju
berbakat
berbakti
berbalas
berbalik
berbanding
berbangga
berbangsa
berbaring
berbaris
berbasikal
berbatasan
berbatu
berbau
berbayar
berbeda
berbekalkan
berbelah
berbentuk
berber
berbeza
berbicara
berbilang
berbincang
berbintik
berbisa
berbohong
berbuah
berbual
berbuat
berbuka
berbukit
berbulan
berbulu
berbumbung
berbunga
berbunyi
berburu
bercabang
bercadang
bercahaya
bercakap
bercampur
bercanggah
bercangkerang
bercantum
bercas
bercengkerang
bercerai
bercerita
bercetak
bercinta
berciri
bercirikan
bercita
bercorak
bercucuk
bercuti
berdaftar
berdagang
berdakwah
berdamai
berdarah
berdasarkan
berdaulat
berdaun
berdaya
berdebat
berdedikasi
berdekatan
berdepan
berdiam
berdiameter
berdikari
berdinding
berdiri
berdirinya
berdisiplin
berdoa
berdosa
berdua
berduet
berdurasi
berduri
beredar
bereg
beregu
berehat
berek
berekor
bereksperimen
berempat
berenang
berendam
berenjin
berentak
berentap
bererti
beret
berevolusi
berfahaman
berfikir
berfikiran
berfirman
berfokus
berfungsi
berg
bergabung
bergaduh
bergambar
bergamo
berganda
berganding
bergandingan
berganti
bergantung
bergaul
bergaya
bergegas
bergelar
bergelora
bergelut
bergen
bergenre
berger
bergerak
bergetar
bergiat
bergigi
bergilir
bergkamp
bergman
bergolak
bergotong
berguna
bergunung
berguru
berhad
berhadapan
berhak
berhala
berhaluan
berhampiran
berhantu
berharap
berharga
berhasil
berhasrat
berhati
berhenti
berhias
berhijrah
berhimpun
berhormat
berhubung
berhubungan
berhujah
berhutang
beri
beribadah
beribadat
beribu
berikan
berikat
beriklim
berikrar
berikut
berikutan
berikutnya
berilmu
beriman
beringin
berinteraksi
berirama
beris
berisi
berisiko
berita
berjadual
berjaga
berjalan
berjalur
berjam
berjanggut
berjangkit
berjanji
berjarak
berjasa
berjauhan
berjaya
berjemaah
berjenama
berjinak
berjiran
berjiwa
berjuang
berjudul
berjumlah
berjumpa
berjuntai
berjuta
berkabung
berkadar
berkahwin
berkait
berkaitan
berkaki
berkala
berkali
berkaliber
berkanun
berkapasiti
berkarya
berkas
berkat
berkata
berkawan
berkayu
berkebolehan
berkecai
berkecimpung
berkecuali
berkedudukan
berkekalan
berkelah
berkelajuan
berkelakuan
berkelayakan
berkeley
berkeliaran
berkelompok
berkeluasan
berkelulusan
berkemahiran
berkemampuan
berkembang
berkembar
berkempen
berkemungkinan
berkenaan
berkenalan
berkenan
berkepala
berkepentingan
berkeputusan
berkeras
berkerja
berkerjasama
berkesan
berkesudahan
berketinggian
berketurunan
berkeupayaan
berkhemah
berkhidmat
berkilat
berkisar
berkisarkan
berkolaborasi
berkomputer
berkomunikasi
berkongsi
berkonsepkan
berkorban
berkshire
berkualiti
berkuasa
berkuat
berkuatkuasa
berkuda
berkulit
berkumpul
berkumpulan
berkunci
berkunjung
berkurang
berkurangan
berkurung
berlabuh
berlainan
berlakon
berlaku
berlakunya
berlalu
berlandaskan
berlanggar
berlangsung
berlangsungnya
berlanjut
berlanjutan
berlapis
berlari
berlarutan
berlatar
berlatarkan
berlatih
berlawan
berlawanan
berlayar
berlebihan
berleluasa
berlepas
berlesen
berlian
berlin
berlindung
berlipat
berlubang
berlumba
bermacam
bermain
bermakna
bermaksud
bermalam
bermanfaat
bermasalah
bermastautin
bermata
bermesyuarat
bermimpi
berminat
bermoral
bermotor
bermuda
bermula
bermulalah
bermulanya
bermuncul
bermusim
bermusuhan
bermutu
bern
bernafas
bernam
bernama
bernard
bernardo
bernasib
bernaung
bernd
bernhard
berniaga
berniat
bernie
bernikah
bernilai
bernombor
bernstein
bernyanyi
bernyawa
beroda
berongga
beroperasi
berorientasi
berorientasikan
beroun
berpacaran
berpakaian
berpakat
berpaling
berpandu
berpandukan
berpangkalan
berpangkat
berpanjangan
berparlimen
berpasangan
berpasir
berpasukan
berpatutan
berpaya
berpecah
berpegang
berpeluang
berpendapat
berpendapatan
berpendidikan
berpenduduk
berpengalaman
berpengaruh
berpengetahuan
berpenghuni
berpengkalan
berperan
berperanan
berperang
berperingkat
berperisa
berperisai
berperlembagaan
berpihak
berpindah
berpisah
berpotensi
berprestasi
berprestij
berprofil
berpuas
berpuasa
berpuluh
berpunca
berpura
berpusat
berpusing
berputar
berputus
berry
berryz
bersabda
bersahabat
bersahaja
bersaing
bersaiz
bersalah
bersalin
bersalut
bersama
bersamaan
bersamanya
bersambung
bersandar
bersandarkan
bersara
bersarang
bersatu
bersaudara
bersayap
bersebelahan
bersedia
bersejarah
bersekolah
bersekutu
berselang
berselerak
berselisih
bersemangat
bersemayam
bersembahyang
bersembunyi
bersempadan
bersempena
bersemuka
bersendirian
bersenjata
bersenjatakan
bersentuhan
bersepadu
bersepakat
berserta
bersesuaian
bersetuju
bersiap
bersiar
bersiaran
bersidang
bersifat
bersih
bersikap
bersilang
bersimpati
bersinar
bersiri
berskala
bersolat
berstatus
berstruktur
bersuara
bersubahat
bersudut
bersuhu
bersumpah
bersungguh
bersurat
bersyarat
bersyukur
bert
bertaburan
bertahan
bertahap
bertahun
bertajuk
bertakhta
bertali
bertam
bertambah
bertanda
bertanding
bertanduk
bertanggung
bertanggungjawab
bertanya
bertanyakan
bertapak
bertaraf
bertarikh
bertarung
bertaubat
bertauliah
berteduh
bertekad
bertekanan
berteknologi
bertelagah
bertelsmann
bertelur
bertema
bertemakan
bertembung
bertempat
bertempur
bertemu
bertenaga
bertengkar
bertentangan
bertepatan
berteraskan
berterima
berterusan
bertha
bertiga
bertindak
bertindih
bertingkat
bertiup
bertolak
bertopeng
bertrand
bertuah
bertudung
bertugas
bertujuan
bertukar
bertulang
bertulis
bertumbuh
bertumpu
bertunang
berturap
berturut
berturutan
bertutur
beruang
beruas
berubah
berucap
beruk
berukuran
berulang
berumur
berunding
berundur
beruniform
berunsur
beruntung
berupa
berupaya
berurusan
berus
berusaha
berusia
bervariasi
berwarna
berwawasan
berwibawa
bes
besar
besaran
besarnya
besbol
beseri
beserta
besi
best
bestari
besut
bet
beta
betapa
betawi
beth
betik
betina
beting
betis
beto
betong
better
betty
betul
between
beverly
bevo
bevolkingsontwikkeling
bewarna
bey
beyonce
beyond
beza
bezanya
bezos
bf
bfi
bg
bgy
bh
bha
bhagavad
bhai
bhakti
bharat
bharian
bharu
bhatia
bhatt
bhd
bhg
bhp
bhumibol
bhutan
bhutto
bi
bia
biak
bianca
biar
biara
biarawati
biarkan
biarlah
biarpun
bias
biasa
biasanya
biasiswa
biawak
biaya
bibcode
bibi
bibir
bibit
bible
bibleverse
biblical
bibliografi
bibliography
bibliothe
bicara
bicol
bid
bidaah
bidaan
bidadari
bidak
bidan
bidang
bidayuh
biden
bidin
bidor
bie
bieber
bien
big
bigbang
bigger
biggest
bihar
bihun
bijak
bijaksana
bijan
biji
bijian
bijih
bijinya
bijirin
bike
bikin
bikini
bil
bila
bilah
bilal
bilang
bilangan
bilangannya
bilateral
bilbao
bilik
biliknya
bilion
bilis
bill
billah
billboard
billie
billion
billionaire
billy
bilo
bima
bimbang
bimbingan
bimbit
bin
bina
binaan
binari
binary
binasa
binatang
bincang
bing
bingen
bingkai
bingung
bini
binjai
bintang
bintangi
bintangor
binti
bintik
bintulu
bintuni
bio
biochemistry
biodata
biodiesel
biodiversiti
biodiversity
biografi
biographical
biographies
biography
biokepelbagaian
biokimia
biol
biola
biologi
biological
biology
bioperubatan
biotechnology
bioteknologi
bir
birah
biran
birch
bird
birdlife
birds
bireuen
biri
birit
birmingham
biro
birokrasi
birth
birthday
biru
bis
bisa
bisaya
biscay
biseksual
bishan
bishkek
bishop
bisikan
bising
biskop
biskut
bismarck
bisnes
bisnis
bison
bissau
bisu
bit
bitburg
bitcoin
bite
bitter
biz
bj
bjo
bk
bl
black
blackberry
blackburn
blackpink
blackwell
blade
blair
blake
blanc
blanche
blanchett
blanco
blang
blank
blansko
blast
blasts
bleach
blica
blind
bliss
blitz
blitzkrieg
blizzard
bloch
block
blockbuster
blockchain
blocks
blog
blogger
blogs
blogspot
blok
blood
bloody
bloom
bloomberg
bloomington
bloomsbury
blow
blu
blue
blues
bluetooth
blunt
blust
bm
bmc
bmg
bmi
bmj
bmp
bmw
bn
bo
boa
board
boat
boats
bob
bobby
boboiboy
boca
bocey
bocor
bodies
bodoh
body
bodyguard
boeing
boelan
boer
bogel
bogor
bogota
boh
bohemia
bohol
bohr
bohsia
boikot
bois
bojong
bok
boku
bol
bola
bolaang
bolagh
bolak
bolango
bolasepak
bold
boldsymbol
boleh
bolehlah
boleslav
boli
boling
bolivia
bolkiah
bollywood
bologna
bolos
bolshevik
bolt
bolton
bolu
bom
bomb
bomba
bombardier
bombay
bomber
bombing
bombs
bomoh
bon
bonaparte
bond
bonda
bondanya
bondi
bone
boneka
bones
bong
bongkah
bongkok
bongor
bongsu
bonifacio
bonjol
bonn
bonnie
bono
bonus
boo
book
booker
books
boom
boon
boost
boot
booth
boots
booty
bor
bora
borang
bordeaux
borden
border
borders
borhan
boris
born
borneo
borobudur
boron
borong
boros
borough
borsod
borussia
boruto
borys
bos
bosan
bosch
bose
bosnia
bosniak
bosnian
boson
boss
boston
bosworth
bot
bota
botak
botani
botanic
botanical
botaninya
botany
both
botol
botswana
bottle
bottom
bouches
boulder
boulevard
bound
boundaries
boundary
bounty
bourbon
bourgogne
bourne
bournemouth
bow
bowen
bowers
bowie
bowl
bowling
bowman
box
boxer
boxing
boxofficeindia
boxofficemojo
boy
boyaca
boyce
boyd
boyfriend
boyle
boys
boyz
bp
bpk
bpr
bps
br
bra
brabant
brad
bradford
bradley
brady
brahma
brahman
braille
brain
bram
branch
brand
brandenburg
brandon
brands
brandt
bras
brasil
bratislava
braun
brave
bravo
bray
brazil
brazilian
bre
bread
break
breakfast
breaking
breaks
breakthrough
breathing
breed
breeding
breeds
brek
bremen
brenda
brendan
brennan
brent
brescia
bretagne
brett
brewster
brexit
brian
brickfields
bride
bridge
bridges
bridget
bridgit
brie
brief
briefing
brien
brig
brigade
brigadier
briged
brigedier
briggs
bright
brighton
brill
brilliance
brilliant
bring
bringing
brings
brisbane
bristol
brit
britain
britania
britannia
britannica
british
britney
brittany
brn
brno
bro
broad
broadband
broadcast
broadcasting
broadway
brock
brod
broke
broken
broker
brolin
bromwich
bront
bronx
bronze
brook
brooke
brooklyn
brooks
bros
brother
brotherhood
brothers
brought
brown
browne
browning
browser
brt
bru
bruce
brugge
brunei
bruno
brunswick
brunta
brussel
brussels
brutal
bryan
bryant
bs
bsj
bst
bt
btng
bts
bu
buah
buahan
buahnya
bual
buana
buang
buangan
buas
buat
buatan
buaya
bubar
bubur
buchanan
bucharest
buck
buckingham
buckley
bucu
buda
budak
budapest
budaya
buddha
buddhism
buddhisme
buddhist
buddy
bude
budget
budi
budiey
budiman
budu
buena
buenavista
buenos
buffalo
bug
bugis
bugs
buih
build
building
buildings
built
bujang
bujur
buka
bukaan
bukan
bukanlah
bukannya
bukau
bukhara
bukhari
bukit
bukti
buku
bukunya
bulan
bulanan
bulat
bulatan
buldog
buleleng
buletin
bulgaria
bulgarian
buli
bull
bullet
bulletin
buloh
bulu
buluh
bulungan
bulunya
bum
bumbu
bumbung
bumi
bumiputera
bumiputra
bun
bunda
bundar
bundesliga
bundestag
bundeswehr
bung
bunga
bunganya
bungku
bungkus
bungkusan
bungo
bunian
bunker
bunkface
bunny
bunson
buntar
bunting
buntu
bunuh
bunut
bunyi
bunyinya
buono
bupati
burbank
burden
bureau
burger
burgess
burgos
burgundy
burhanuddin
burial
buriram
buritan
burj
burke
burkina
burma
burmese
burn
burnett
burning
burns
burong
bursa
burst
burt
burton
buru
buruan
buruh
buruj
buruk
burundi
burung
bus
busan
busana
busch
bush
bushehr
business
businessweek
buster
busters
busuk
busur
but
buta
butang
butch
butik
butir
butiran
butler
buton
butt
butter
butterflies
butterfly
butterworth
button
buurten
buy
buyong
buys
buzz
bv
bwf
by
byakuya
bye
byrne
byron
bystrica
byul
byun
byung
byzantine
byzantium
c
ca
caac
cabang
cabaran
cabinet
cable
cabutan
cacar
cacat
cache
cacing
cadangan
caesar
caf
cafe
cafonline
cagayan
cage
cagliari
cahaya
cai
cain
caine
cair
cairan
cairns
cairo
caj
cakap
cakar
cake
cakera
cakerawala
cakra
cakung
cal
calabarzon
calabria
calais
calamus
calcio
calcutta
caldwell
caledonia
calendar
calgary
california
call
called
calling
calls
calon
calvados
calvin
cam
camar
camarines
cambodia
cambridge
came
camelia
cameo
camera
cameron
cameroon
camille
camp
campaign
campaigns
campania
campbell
campeonato
campo
campos
camps
campur
campuran
campus
can
canada
canadian
canal
canary
canberra
cancelled
cancels
cancer
candi
candidate
candidates
candu
candy
cane
canggih
cangjie
cangkerang
cangkuk
canid
canine
canis
cannes
cannon
cannot
canon
canselor
cantabria
cantal
canterbury
cantik
canton
canyon
cao
cap
capa
capacity
capai
capaian
capcom
cape
capita
capital
capitol
capo
capt
captain
capture
captured
car
cara
caracas
caraga
caranya
carbon
carcass
card
cardiff
cardinal
cards
care
career
carey
cargo
cari
carian
caribbean
carl
carla
carlo
carlos
carlson
carlton
carmen
carnegie
carnival
carnivora
carol
carole
carolina
caroline
carolyn
carpenter
carr
carrie
carried
carrier
carriers
carroll
carry
cars
carson
carta
carter
carthage
cartoon
cartoons
cartwright
carvalho
cary
cas
casa
casablanca
case
cases
casey
cash
casino
casis
caspian
cass
cassandra
cassell
cassidy
cassini
cast
castello
castile
castilla
castillo
casting
castle
castles
castro
casts
casualties
cat
catalan
catalog
catalogue
catalonia
catalunya
catania
catat
catatan
catch
catching
cate
catechism
categories
category
cathay
cathedral
catherine
catholic
cathy
cato
cats
cattle
catur
caucasus
caught
cause
caused
causes
cavalry
cave
cavendish
caves
cavite
cawan
cawang
cawangan
cay
cayman
cb
cbc
cbd
cbe
cbn
cbs
cc
cctv
cd
cdc
cdot
cdr
ce
cebisan
cebu
cecacing
cecair
cecil
cecilia
cedar
cedera
cedric
cek
cekak
cekap
cekup
celah
celcom
celebrate
celebrated
celebrates
celebrating
celebration
celebrities
celebrity
celestial
celik
celine
cell
cells
celsius
celt
celtic
cemas
cemburu
cemerlang
cemetery
cempaka
cempedak
cena
cendawan
cendekiawan
cenderamata
cenderawasih
cenderung
cengage
cengkaman
cengkerang
cengkih
census
censuses
censusindia
cent
centenario
centenary
centennial
center
centers
central
centre
centro
centuries
century
ceo
cepat
cerah
cerai
ceramah
cerap
cerapachys
cerapan
cerdas
cerdik
cereka
ceremony
ceres
cerezo
cergas
ceri
ceria
cerita
ceritanya
cermat
cermin
cern
cerpen
cerro
certain
certificate
certification
certifications
certified
ceruk
cerun
cesar
cest
cet
cetak
cetakan
cetek
cetera
cetusan
ceylon
cf
cfa
cfm
cg
cgi
ch
cha
chacha
chad
chae
chah
chaharmahal
chai
chain
chair
chairman
chak
chakra
chakri
chakura
chalet
challenge
challenger
challenges
cham
chamber
chamberlain
chambers
champ
champa
champagne
champion
champions
championship
championships
chan
chance
chancellor
chandan
chandler
chandra
chandran
chang
change
changed
changes
changi
changing
changkat
changsha
channel
channels
chao
chaos
chaozhou
chap
chapel
chapelle
chaplin
chapman
chapter
chapters
chapterurl
char
character
characteristics
characters
charente
charentes
charge
charged
charges
charity
charlemagne
charles
charlie
charlotte
charlton
charm
charok
chart
charter
chartered
charts
chase
chastain
chat
chatham
chatswood
chatterjee
chau
chauhan
chawla
che
cheah
chechnya
check
checklist
chee
cheese
cheetah
chef
chelodina
chelonian
chelonians
chelsea
chem
chemical
chemicals
chemie
chemistry
chemor
chempaka
chen
cheng
chengdu
chennai
cheol
cheon
cheong
chepa
cher
cheras
chernobyl
cherry
cheryl
cheshmeh
chess
chester
cheung
chevrolet
chew
chhattisgarh
chi
chia
chiang
chiba
chicago
chicken
chief
chiefs
chien
chievo
chik
child
childhood
children
chile
chili
chin
china
chinatown
chinese
ching
chini
chip
chisholm
chiu
chloe
cho
chocolate
chod
choe
choi
choice
chok
chola
cholera
chomel
chonburi
chondong
chong
chongqing
choo
choon
choong
choose
chopra
chor
chorus
chosen
chosun
chou
chow
choy
chris
christ
christchurch
christensen
christian
christianity
christians
christie
christina
christine
christmas
christoph
christophe
christopher
christy
chrisye
chrome
chronic
chronicle
chronicles
chronology
chrudim
chrysler
chu
chua
chuan
chuck
chukai
chul
chulalongkorn
chulan
chun
chung
chuping
church
churches
churchill
chye
ci
cia
ciamis
cianjur
cibubur
cicak
cicakman
cicero
cicit
cid
cie
cijantung
cik
cikarang
cikgu
cili
cilik
cimahi
cimb
cina
cincang
cincin
cincinnati
cindai
cinderella
cindy
cine
cinema
cinemas
cinematic
cinta
cintaku
cintamu
cintanya
cio
cip
cipayung
cipinang
cipta
ciptaan
ciptaannya
ciracas
circle
circuit
circular
circulation
circus
cirebon
ciri
cirinya
cirit
cis
cit
cita
citadel
citanya
citarasa
citation
cite
cited
cites
citeseerx
cities
citilink
citing
citizen
citizens
citizenship
citra
citrus
city
ciudad
civic
civil
civilian
civilians
civilization
civilizations
cj
ck
cl
claim
claimed
claims
clair
claire
clan
clancy
clannad
clara
clare
clarence
clarendon
clark
clarke
clarkson
clash
class
classes
classic
classical
classics
classification
classroom
claude
claudia
claudio
claudius
claus
clay
claymore
clayton
clc
cle
clean
clear
clemens
clement
cleopatra
cleveland
click
client
cliff
clifford
climate
clin
clinic
clinical
clint
clinton
clio
clip
clips
clive
clock
close
closed
closer
closes
closing
cloud
clouds
clover
club
clubs
cluj
cluster
clusters
clyde
cm
cmos
cms
cn
cna
cnbc
cnet
cnn
co
coach
coal
coalition
coast
coastal
coaster
coat
coauthors
cobra
coca
cochrane
coco
cocoa
cocos
code
codes
codeshare
cody
coen
coffee
coffs
cog
cogan
cognitive
cohen
coin
coins
coke
coklat
col
cola
cold
coldplay
cole
coleman
coli
colin
collaboration
collantine
collapse
collar
collected
collection
collections
collective
collector
college
collider
collie
collier
collins
collision
cologne
colombia
colombo
colonel
colonial
colony
color
colorado
colors
colour
colours
colt
columbia
columbus
column
com
combat
combined
comcast
come
comeback
comedy
comel
comes
comet
comets
comfort
comic
comics
coming
comingsoon
command
commander
commando
comment
commentary
comments
commerce
commercial
commission
commissioner
committee
commodore
common
commons
commonwealth
communaute
commune
communes
communication
communications
communism
communist
communities
community
como
comoros
compact
companies
companion
company
comparative
compared
comparison
compass
compendium
compete
competition
competitions
compilation
compiled
complete
completed
completely
completes
complex
component
components
composer
composition
compound
compounds
comprehensive
compton
computational
computer
computers
computing
comte
comunas
comune
con
conan
concacaf
concepcion
concept
concepts
concern
concerned
concerning
concerns
concert
concise
concordia
conde
condemns
condition
conditions
condong
condor
conduct
confederate
confederation
conference
confident
confirm
confirmed
confirms
conflict
conflicts
confucian
confucius
cong
congkak
congo
congress
congressional
conmebol
connect
connected
connecticut
connecting
connection
connections
connell
connelly
connery
connie
connor
conquer
conquest
conrad
consadole
consent
consequences
conservation
conservative
consider
considered
consolidated
consortium
conspiracy
constance
constant
constantine
constantinople
constantinus
constellation
constellations
constitution
constitutional
construction
consumer
consumption
contact
contador
container
containing
contains
conte
contemporary
content
contents
contest
contested
context
continental
continue
continued
continues
continuum
contoh
contohnya
contra
contract
contracts
contribution
contributions
control
controlled
controversial
controversy
convent
convention
conversation
conversations
conversion
convert
converted
conway
coogee
cook
cookbook
cooke
cookie
cooking
cooktown
cool
cooper
cooperation
cooperative
cop
copa
cope
copenhagen
copies
coppa
copper
cops
copy
copyright
corak
coral
corbett
cordillera
cordoba
cordon
core
corey
corinth
cork
corn
cornelius
cornell
corner
cornwall
corolla
corona
coronation
coronavirus
corong
corp
corporate
corporation
corps
corpus
corre
correspondence
correspondent
corrie
corruption
corse
corsica
corte
corun
corvette
cory
cos
cosenza
cosgrove
cosmic
cosmos
cost
costa
costs
costume
cot
cotabato
cottage
cotton
could
council
count
countdown
counter
countess
countries
country
county
coup
coupe
couple
courage
courant
courier
course
court
courtney
courts
cov
cove
coventry
cover
coverage
covering
covers
covid
cowan
cowboy
cox
cp
cpu
cr
cradle
craft
craig
crane
crash
crashes
crassus
crawford
crazy
crc
cre
cream
create
created
creates
creating
creation
creative
creator
creatures
credit
credits
creek
cremona
crescent
crest
cretaceous
crete
creuse
crew
cricket
crime
crimea
crimean
crimes
criminal
crimson
crisis
cristiano
cristina
cristo
criteria
critic
critical
criticism
critics
critique
croat
croatia
croatian
crocker
crocodile
croix
cromok
cromwell
crop
crops
crore
crosby
cross
crossing
crossover
crossroads
crouch
crow
crowd
crowe
crown
crowned
cruise
cruiser
crunchyroll
crusade
crusades
crush
cruz
cry
crystal
crystalyn
cs
csa
csi
csr
css
ct
cth
ctor
ctv
cu
cuaca
cub
cuba
cubaan
cuban
cube
cuci
cuckoo
cucu
cucunda
cucunya
cuenca
cuisine
cuka
cukai
cukup
cukur
culinary
cullen
cult
cultivated
cultural
culture
cultures
cum
cuma
cumberbatch
cummings
cumulative
cun
cundinamarca
cuneo
cunningham
cuora
cup
curah
curahan
curam
curang
cure
curi
curie
curiga
curious
curlie
currency
current
currently
curriculum
curry
curse
curtis
curtiss
curug
curup
curve
custom
customer
customs
cut
cuti
cuts
cv
cvn
cvt
cw
cx
cy
cyber
cyberjaya
cyborg
cycle
cycling
cyclone
cynthia
cyprus
cyril
cyrus
cz
czech
czechoslovakia
d
da
dad
dada
dadah
dadanya
daddy
dadih
dadu
dae
daegu
daemonorops
daeng
daerah
daewongun
daewoo
dafif
daftar
dag
dagang
dagangan
daging
dagingnya
dagu
dah
dahan
dahari
dahi
dahlan
dahlia
dahsyat
dahulu
dahului
dahulunya
dai
daigo
daihatsu
daik
daily
daim
daimler
daimyo
dairi
dairy
daisuke
daisy
dakar
dakota
daku
dakwa
dakwaan
dakwah
dakwat
dal
dalai
dalam
dalaman
dalamannya
dalamnya
dalan
dalang
dalat
dale
dali
dalil
dallas
dalmatia
dalton
daly
dam
damage
damai
daman
damansara
damar
damascus
dame
damian
damien
damit
damon
damping
damsyik
dan
dana
danau
danbi
dance
dancer
dancing
dane
dang
dangan
dangdut
danger
dangerous
dani
dania
danial
daniel
danielle
daniels
danish
danny
dans
dante
danube
dao
dap
dapat
dapati
dapatkan
daphne
dapodik
dapur
dar
dara
darab
darah
darahnya
darat
daratan
darby
dare
darfur
dari
daring
darinya
daripada
daripadanya
darius
darjah
darjat
dark
darkness
darling
darlinghurst
darma
daro
darreh
darren
dartmouth
darul
darulaman
darurat
darus
darussalam
darwin
das
dasar
dasarnya
dash
dashboard
dasht
dasima
dassault
dat
data
database
datang
datangnya
datar
dataran
date
dated
datenverarbeitung
dates
datin
dating
dato
datoh
datok
datu
datuk
datuknya
daud
daughter
daughters
daulah
daum
daun
daunnya
davao
dave
david
davidson
davies
davis
davy
dawai
dawkins
dawn
dawson
daxing
day
daya
dayak
dayana
dayang
days
dayton
dayung
db
dbkl
dbp
dc
dd
ddg
de
dead
deadline
deadly
deadurl
deal
deals
dean
dear
death
deaths
deb
debat
debate
debbie
debit
deborah
debt
debu
debug
debunga
debut
debutnya
debuts
dec
decade
decades
deccan
december
decided
decision
decisions
deck
declaration
declared
declares
decline
deco
decree
dedah
dedaun
deddy
dedicated
dedikasi
dee
deen
deep
deepak
deepika
deer
def
default
defeat
defence
defendan
defender
defense
deficit
defined
definisi
definition
definitions
definitive
defisit
defn
degil
degree
degrees
deh
dei
dek
dekad
dekan
dekat
deklarasi
dekri
del
delapan
delaware
delay
delayed
delays
delegasi
delhi
deli
delima
delivered
delivers
delivery
dell
della
delle
dello
delta
deluxe
dem
demak
demam
demand
dementieva
demi
demikian
demikianlah
demo
democracy
democratic
democrats
demografi
demographic
demographics
demokrasi
demokrat
demokratik
demon
demonstrasi
den
denai
denda
dendam
dendang
deng
denga
dengan
dengannya
dengar
dengeki
denggi
dengkil
dengue
denies
denis
denise
denmark
dennis
denny
denominasi
denpasar
density
dent
dental
denver
denyutan
deo
deok
deol
depan
depannya
departemen
department
depok
deportivo
deposit
depot
depp
deprecated
depression
deps
dept
depth
deputy
der
dera
deraman
deras
derby
derek
deretan
derhaka
deria
dering
derita
derived
derma
dermaga
dermatology
dermawan
des
desa
desakan
descendants
descent
described
describes
description
descriptions
desember
desert
desi
design
designasi
designed
designer
designs
desire
desk
desktop
desmond
desperate
despicable
despite
destinasi
destination
destinations
destiny
destroy
destroyed
destroyer
destruction
det
detail
detailed
details
detection
detective
detektif
determination
detik
detroit
deutsch
deutsche
deutschen
deutscher
deutschland
deux
dev
deva
devdas
develop
developed
developer
developers
developing
development
developmental
developments
devgn
devi
device
devices
devil
devon
dewa
dewan
dewasa
dewata
dewey
dewi
dezember
dfb
dfkl
dfl
dg
dgn
dh
dhabi
dhaka
dhani
dharma
dhoom
di
dia
diabadikan
diabaikan
diabetes
diabetis
diacarakan
diadakan
diadaptasi
diadaptasikan
diadili
diagihkan
diagnosis
diagnostic
diagnostik
diagram
diah
diajar
diajarkan
diajukan
diakhiri
diakibatkan
diakritik
diakses
diaktifkan
diakui
dialah
dialami
dialaminya
dialect
dialek
dialih
dialihkan
dialisis
dialog
dialogue
diam
diamalkan
diamanahkan
diamati
diambil
diameter
diamond
diamonds
dian
diana
diancam
diandaikan
diane
dianggap
dianggarkan
dianggotai
diangkat
diangkut
dianjurkan
dianne
diantara
diantaranya
dianugerahi
dianugerahkan
diapit
diarah
diarahkan
diari
diaries
diario
diarkib
diarkibkan
diary
dias
diasaskan
diasingkan
diaspora
diatas
diatasi
diatur
diawasi
diaz
dibaca
dibacakan
dibagi
dibahagi
dibahagian
dibahagikan
dibaiki
dibakar
dibalas
dibalut
dibandingkan
dibangkitkan
dibangun
dibangunkan
dibanjiri
dibantah
dibantu
dibatalkan
dibatasi
dibawa
dibawah
dibawakan
dibayangkan
dibayar
dibebaskan
dibekalkan
dibekukan
dibela
dibelakang
dibelanjakan
dibeli
dibenarkan
dibenci
dibentangkan
dibentuk
diberhentikan
diberi
diberikan
diberitahu
diberkati
dibersarakan
dibersihkan
dibesarkan
dibezakan
dibiakbakakan
dibiakkan
dibiarkan
dibiayai
dibicarakan
dibina
dibinanya
dibincangkan
dibintangi
dibolehkan
dibuang
dibuat
dibubarkan
dibubuh
dibuka
dibuktikan
dibuli
dibungkus
dibunuh
diburu
dicabar
dicabut
dicadangkan
dicalonkan
dicampur
dicampurkan
dicantumkan
dicapai
dicaprio
dicari
dicat
dicatat
dicatatkan
dicelup
dicemari
diceritakan
dicetak
dicetuskan
dicincang
dicipta
diciptakan
dicirikan
dick
dickens
dickinson
dickson
dictionaries
dictionary
diculik
dicuri
did
didaftarkan
didagangkan
didahului
didakwa
didalam
didapati
didasarkan
didatangi
didatangkan
didedahkan
didedikasikan
didefinisikan
didenda
didengar
didengari
didera
didi
didiagnosis
didiami
dididik
didie
didier
didih
didik
didikan
didirikan
didn
didokumenkan
didominasi
didorong
diduduki
diduga
didukung
die
died
diedarkan
diego
dieja
dieksport
diekstrak
dielakkan
dies
diesel
diet
dietary
dieter
dietrich
difahami
difahamkan
difailkan
difference
differences
different
differential
difficult
difikirkan
difilemkan
diftong
digabung
digabungkan
digalakkan
digali
digambarkan
digandingkan
diganggu
diganti
digantikan
digantung
digariskan
digayakan
digelar
digelarkan
digemari
digerakkan
digest
digi
digimon
digit
digital
digitised
digolongkan
digoreng
digubah
digubal
digugurkan
digulingkan
diguna
digunakan
digunakannya
digunapakai
dihabiskan
dihadapan
dihadapi
dihadapkan
dihadiahkan
dihadiri
dihadkan
dihalang
dihalau
dihancurkan
dihantar
dihapuskan
diharamkan
diharap
diharapkan
dihargai
dihasilkan
dihentikan
dihias
dihiasi
dihidang
dihidangkan
dihidupkan
dihiris
dihitung
dihormati
dihoskan
dihubungi
dihubungkan
dihukum
dihuni
dihuraikan
diikat
diiklankan
diiktiraf
diikuti
diilhamkan
diilustrasikan
diimport
diingati
diingatkan
diingini
diinginkan
diinspirasikan
diiringi
diisi
diisytihar
diisytiharkan
diizinkan
dijadikan
dijadual
dijadualkan
dijaga
dijajah
dijalankan
dijamin
dijana
dijangka
dijangkakan
dijangkiti
dijanjikan
dijaringkan
dijatuhi
dijatuhkan
dijejak
dijelaskan
dijemput
dijenamakan
dijk
dijual
dijuluki
dijumpai
dikagumi
dikaitkan
dikaji
dikalahkan
dikalangan
dikarang
dikatakan
dikategorikan
dikawal
dikawasan
dikebumikan
dikecam
dikecualikan
dikehendaki
dikejar
dikejutkan
dikekalkan
dikelaskan
dikelilingi
dikelirukan
dikelola
dikelolakan
dikelompokkan
dikeluarkan
dikemas
dikemaskini
dikembalikan
dikembangkan
dikemukakan
dikenakan
dikenal
dikenali
dikenalpasti
dikenang
dikendali
dikendalikan
dikepung
dikerahkan
dikeringkan
dikerjakan
dikesan
diketahui
diketengahkan
diketepikan
diketuai
dikhabarkan
dikhaskan
dikhianati
dikhuatiri
dikhususkan
dikibarkan
dikilangkan
dikir
dikira
dikirim
dikirimkan
dikisahkan
dikisar
diklasifikasikan
dikodkan
dikongsi
dikosongkan
dikreditkan
dikritik
diktator
dikuasai
dikuasakan
dikuatkuasakan
dikukus
dikumpul
dikumpulkan
dikunci
dikunjungi
dikurangkan
dikurniakan
dikurung
dikutip
dikutuk
dil
dilabel
dilabelkan
dilahirkan
dilakonkan
dilaksanakan
dilakukan
dilakukannya
dilalui
dilambangkan
dilampirkan
dilancarkan
dilanda
dilanggar
dilangsungkan
dilanjutkan
dilantik
dilapisi
dilaporkan
dilarang
dilatih
dilawati
dilayan
dilayani
dilekatkan
dilema
dilemma
dilemparkan
dilengkapi
dilengkapkan
dilepaskan
dilesenkan
diletak
diletakkan
diletupkan
dilihat
dilihatnya
dilindungi
dilipat
diliputi
dilitupi
dillon
diluar
dilucutkan
dilukis
diluluskan
dilupakan
dim
dimahkotakan
dimainkan
dimajukan
dimakamkan
dimakan
dimaklumkan
dimaksudkan
dimana
dimandatkan
dimanfaatkan
dimansuhkan
dimas
dimasak
dimasuki
dimasukkan
dimasyhurkan
dimatikan
dimenangi
dimensi
dimension
dimensions
dimeterai
dimiliki
dimilikinya
diminati
diminta
diminum
dimodelkan
dimuat
dimuatkan
dimuktamadkan
dimulai
dimulakan
dimusnahkan
din
dina
dinafikan
dinaik
dinaiki
dinaikkan
dinaiktaraf
dinamai
dinamakan
dinamik
dinamo
dinar
dinas
dinasihatkan
dinasti
dinda
dinding
ding
dingin
dinh
dini
dinikmati
dinilai
dinner
dino
dinobatkan
dinosaur
dinosaurs
dinyalakan
dinyanyikan
dinyatakan
dio
diod
dioksida
diolah
dion
dioperasikan
dioscorea
dipadamkan
dipadankan
dipakai
dipaksa
dipamerkan
dipanaskan
dipancarkan
dipandang
dipandu
dipanggang
dipanggil
dipanjangkan
dipantau
dipaparkan
dipasang
dipasangkan
dipasarkan
dipastikan
dipatahkan
dipatuhi
dipecah
dipecahkan
dipecat
dipegang
dipelajari
dipelihara
dipelopori
dipendekkan
dipengaruhi
dipengerusikan
dipenjara
dipenjarakan
dipentaskan
dipenuhi
diperakui
diperam
diperbadankan
diperbaharui
diperbaiki
diperbesarkan
diperbuat
dipercayai
diperdebatkan
dipergunakan
diperhatikan
diperihalkan
diperikan
diperiksa
diperingati
diperingkat
diperintah
diperintahkan
diperisakan
diperkatakan
diperkenalkan
diperkirakan
diperkuat
diperkukuhkan
diperlakukan
diperlihatkan
diperluas
diperluaskan
diperlukan
diperoleh
diperolehi
dipersalahkan
dipersembahkan
dipersetujui
dipersoalkan
dipertahankan
dipertandingkan
dipertanggungjawabkan
dipertikaikan
dipertimbangkan
dipertingkat
dipertingkatkan
dipertontonkan
dipertua
dipertuan
dipertuturkan
diperuntukkan
dipesan
dipetik
dipilih
dipimpin
dipinda
dipindah
dipindahkan
dipinjam
dipinjamkan
dipisahkan
diploma
diplomacy
diplomasi
diplomat
diplomatic
diplomatik
diponegoro
dipopularkan
dipotong
diproduksi
dipromosikan
diproses
dipterokarp
dipuji
dipujuk
dipukul
dipulangkan
dipulihkan
dipunyai
diputerakan
diputuskan
dir
dira
diragui
dirahsiakan
diraih
diraikan
diraja
dirakam
dirakamkan
diramalkan
dirampas
dirancang
dirancangkan
dirasai
dirasakan
dirasmikan
dirawat
dirayakan
direalisasikan
direbus
direct
directed
direction
directions
directly
director
directorate
directors
directory
direka
direkabentuk
direkodkan
direkrut
direktorat
direktori
direndam
diri
diriku
dirilis
dirimu
diringkaskan
dirinya
diriwayatkan
dirk
dirobohkan
dirombak
dirosakkan
dirty
dirujuk
dirumuskan
dis
disabitkan
disahkan
disaji
disajikan
disaksikan
disalah
disalin
disalurkan
disamakan
disambung
disambungkan
disambut
disampaikan
disamping
disana
disandang
disangka
disangkal
disanjung
disapu
disarankan
disasarkan
disaster
disatukan
disayangi
disc
disco
discography
discogs
discourse
discover
discovered
discoveries
discovery
discusses
discussion
disease
diseases
disebabkan
disebalik
disebarkan
disebelah
disebut
disebutkan
disedari
disediakan
disegani
disejukkan
disekat
disekitar
diseksa
disel
diselamatkan
diselaraskan
diselenggara
diselenggarakan
diselesaikan
diselia
diselitkan
diselubungi
diseluruh
disemadikan
disemak
disembah
disembelih
disember
disembunyikan
disempurnakan
disenangi
disenarai
disenaraikan
disengajakan
disentuh
disepadukan
disepanjang
diserahkan
diserang
diserap
diserapkan
disertai
disertakan
disesuaikan
disetujui
disewa
dish
dishes
disiapkan
disiarkan
disiasat
disifatkan
disimpan
disimpulkan
disingkat
disingkatkan
disingkirkan
disini
disiplin
disirikan
disitu
disk
diskaun
disko
diskograf
diskografi
diskret
diskriminasi
diskusi
disney
disneyland
disoal
disokong
disorder
disorders
display
displayauthors
displaystyle
dispute
dissertation
distance
distinguished
distributed
distribution
distributor
distributors
district
districts
distrik
disuarakan
disukai
disumbangkan
disumbat
disunting
disuruh
disusuli
disusun
disyaki
disyorkan
ditabalkan
ditadbir
ditafsirkan
ditahan
ditahbiskan
ditaja
ditakdirkan
ditakluk
ditakluki
ditakrifkan
ditakuti
ditamatkan
ditambah
ditambahkan
ditampilkan
ditanam
ditanda
ditandai
ditandakan
ditandatangani
ditandingi
ditangani
ditanggalkan
ditangguhkan
ditanggung
ditangkap
ditanya
ditapai
ditapis
ditarik
ditauliahkan
ditawan
ditawarkan
ditayang
ditayangkan
ditebang
ditekan
ditekankan
ditelan
diteliti
ditemani
ditembak
ditempa
ditempah
ditempat
ditempatkan
ditemui
ditemukan
ditengah
ditenggelamkan
ditentang
ditentukan
diterajui
diterangkan
diterapkan
diterbangkan
diterbit
diterbitkan
diterima
diterimanya
diterjemah
diterjemahkan
diternak
diterokai
diteruskan
ditetapkan
ditewaskan
ditikam
ditimbulkan
ditimpa
ditindas
ditinggalkan
ditingkatkan
ditions
ditipu
ditiru
ditiup
ditolak
ditonjolkan
ditonton
dituai
ditubuhkan
dituduh
ditugaskan
ditujukan
ditukar
ditukarkan
ditulis
ditumbuk
ditumpaskan
ditumpukan
ditunda
ditunjuk
ditunjukkan
dituntut
diturunkan
ditutup
ditutupi
ditutur
dituturkan
diubah
diubahsuai
diucapkan
diuji
diukir
diukur
diulang
diumumkan
diundang
diundi
diungkapkan
diupah
diurus
diuruskan
diusahakan
diusir
diusulkan
diutamakan
div
diva
dive
diverse
diversity
divided
divine
diving
divisi
divisio
division
divisions
divisyen
divorce
diwajibkan
diwakili
diwarisi
diwariskan
diwarnakan
diwartakan
diwujudkan
dixit
dixon
diy
diyakini
diz
dizahirkan
dj
djajakusuma
djibouti
dk
dki
dkk
dl
dll
dlm
dm
dmitry
dn
dna
dns
do
doa
doc
docs
doctor
doctors
doctrine
document
documentary
documentation
documents
dod
dodd
dodge
dodol
doenia
does
doesn
dog
dogcode
dogma
dogs
doh
doha
doi
doing
dok
dokter
doktor
doktrin
dokumen
dokumentari
dokumentasi
dol
dolar
dolby
doll
dolla
dollah
dollar
dolly
dolni
dolores
dolphin
dom
domain
domaz
domba
dome
domestic
domestication
domestik
dominan
dominasi
domingo
dominic
dominica
dominican
dominika
dominion
dominique
domino
don
donald
donaldson
donat
donau
done
donetsk
dong
donga
dongeng
donggala
donna
donny
donovan
doo
doodle
doom
door
doors
doosan
doping
dor
dora
doraemon
dordogne
doris
dorongan
dorothy
dorsal
dortmund
dos
dosa
dot
double
doubleday
doubs
doubt
doug
douglas
dove
dover
dow
down
downey
downing
download
downloaded
downloads
downs
downtown
doyle
dozen
dozens
dp
dpr
dprd
dq
dr
dra
draco
dracula
draf
draft
drag
dragon
dragons
drake
dram
drama
dramas
dramatic
dramatik
dramatis
drastik
draw
drawing
drawings
drawn
draws
drb
drc
dreadnought
dream
dreamcatcher
dreaming
dreams
dreamworks
dresden
dress
drew
drift
drink
drive
driven
driver
driving
drm
dro
drop
dropped
drops
drs
drug
drugs
drum
drummer
drums
dry
ds
dsb
dsm
dsp
dt
du
dua
dual
duanya
duarte
dub
dubai
dubey
dublin
dubrovnik
dubur
duc
duchess
duchy
duck
duda
dude
dudley
duduk
due
duel
duet
duffy
dugaan
duit
duk
duka
duke
dukuh
dukun
dukungan
dulang
duli
dulu
duluan
dulunya
dumbledore
dun
dunajska
duncan
dundee
dune
dung
dungun
dunia
duniawi
dunkirk
dunlop
dunn
duo
duplicates
durban
duren
durham
duri
durian
during
dushanbe
dust
dusun
duta
dutch
duterte
dutt
dutta
duty
duyong
duyung
dvb
dvd
dw
dwarf
dwayne
dwi
dwibahasa
dwight
dx
dy
dyer
dying
dylan
dymm
dynamic
dynamics
dynamo
dynasty
dz
e
ea
each
eaff
eagle
eagles
earl
earlier
earliest
early
earns
earth
earthquake
east
eastbourne
easter
eastern
eastwood
easy
eat
eater
eating
eb
ebert
ebi
ebola
ebrahim
ebu
ec
echo
eckernfo
eclav
eclipse
eco
ecological
ecology
economic
economics
economist
economy
ecuador
ed
edaran
eddie
eddy
eden
edgar
edge
edi
edinburgh
edisi
edison
edit
edited
edith
edition
editions
editor
editorial
editors
edmond
edmonton
edmund
edo
edry
eds
edu
eduard
eduardo
education
educational
edward
edwards
edwin
ee
een
eerdmans
ef
efek
efektif
effect
effective
effects
effendi
efficiency
effort
efforts
efisien
eg
egan
egg
eggs
ego
egypt
egyptian
eh
ehime
ehir
ehsan
ehwal
ei
eid
eiffel
eight
eighteenth
eighth
eiji
eilish
ein
eindhoven
eine
einstein
einwohnerzahlen
eisenhower
eisernen
either
eizlan
ej
eja
ejaan
ejen
ek
eka
ekar
eko
ekologi
ekonomi
ekonominya
ekor
ekoran
ekornya
ekosistem
eksekutif
eksklusif
eksotik
ekspatriat
ekspedisi
eksperimen
eksplisit
eksploitasi
eksplorasi
ekspo
eksponen
eksport
ekspres
ekspresi
ekstrak
ekstrem
ekstrim
ekuestrian
ekuinoks
ekuiti
ekzos
el
ela
elaine
elaun
elbasan
elder
eleanor
elected
election
elections
electoral
electric
electrical
electricity
electron
electronic
electronics
elektrik
elektrod
elektrolit
elektromagnet
elektron
elektronik
elemen
element
elementary
elements
elena
elephant
elephants
eletrik
eletronik
elevation
eleven
elf
eli
elias
elijah
eliot
elips
elisabeth
elise
elit
elite
eliza
elizabeth
elizad
ella
elle
ellen
ellie
elliot
elliott
ellis
ellison
elly
elo
elok
elon
elsa
else
elsevier
elton
elvis
elyana
em
ema
email
emak
emanuel
emas
embassy
emblem
embraer
embrio
embun
emel
emelda
emerald
emergence
emergency
emerging
emeritus
emerson
emery
emi
emil
emile
emilia
emilio
emily
emir
emirates
emiriah
emma
emmanuel
emmy
emoji
emosi
emotional
empangan
empat
empayar
emperor
empire
empires
employees
employment
empoli
emporda
emporis
empress
empty
emu
en
enak
enakmen
enam
enamel
encarta
encik
encore
encounter
encounters
encyclopaedia
encyclopedia
encyclopædia
end
endah
endang
endangered
endapan
endau
ende
ended
endemik
ending
endo
endowment
ends
enemy
energi
energy
enewsworld
eng
engadget
engaged
engagement
enggan
enggang
engine
engineer
engineering
engineers
engines
engkau
engkol
engku
engl
england
english
enigma
enix
enjin
enjoy
enough
enpr
enrico
enrique
enrolmen
ensembel
ensemble
ensiklopedia
ent
entah
enter
enterprise
enterprises
enters
entertain
entertainment
entire
entiti
entomology
entre
entrepreneur
entri
entries
entry
enumerated
environment
environmental
enzim
enzo
eo
eon
eosentomon
ep
epa
epal
epce
epic
epidemic
epidemiologi
epidemiology
epik
epilog
episod
episode
episodes
epok
eponim
eps
epsilon
epstein
equal
equality
equatorial
equipment
equity
equivalent
equus
er
era
erat
erdogan
eredivisie
eresources
eri
eric
erica
ericaceous
erich
erickson
ericsson
erik
erika
eriksson
erin
erina
eritrea
erma
ernest
ernesto
ernie
ernst
ero
eropa
eropah
eros
erotic
erotik
erov
erra
error
erti
ertinya
eruption
erwin
es
esa
escape
esei
eska
eske
esky
esok
espan
especially
esperanto
esplanade
espn
esports
esposito
essay
essays
essential
essentials
essex
essonne
est
esta
established
establishment
estadi
estadio
estado
estate
este
esteban
ester
estet
estetik
estetika
esther
estima
estimate
estimated
estimates
estonia
estrada
et
eta
etanol
etc
eternal
ethan
ethics
ethiopia
ethiopian
ethnic
ethnicity
ethnologue
etihad
etika
etimologi
etnik
etymology
eu
euclid
euge
eugene
eugenia
eui
euler
eun
eur
eurasia
eurasian
eure
eureka
euro
eurocopter
eurofighter
eurogamer
euronews
europa
europe
european
eurosport
eurovision
eusebius
eusoff
ev
eva
evac
evaluation
evan
evans
eve
evelyn
even
evening
event
events
eventually
ever
everest
everett
everton
every
everybody
everyday
everyone
everything
evic
evidence
evil
evo
evolusi
evolution
evolutionary
ew
ex
examination
examiner
example
examples
excel
excellence
excellent
except
excerpt
exchange
exclusive
exco
executive
exercise
exhibit
exhibition
exid
exile
exist
existence
existing
exists
exit
exo
exodus
exotic
expand
expanded
expands
expansion
expect
expected
expedition
experience
experiences
experiment
experimental
experiments
expert
experts
explained
explains
explanation
explicit
exploration
explore
explorer
exploring
explosion
explosive
expo
export
exposure
express
expression
expressway
extend
extended
extends
extension
extensive
external
extinct
extinction
extra
extraordinary
extremadura
extreme
extremely
eye
eyed
eyes
eyra
ez
eza
ezra
f
fa
faa
faber
fabian
fabio
fabrik
fabulous
fac
face
facebook
facelift
faces
facilities
facility
facing
fact
factbook
facto
factor
factors
factory
facts
factsheet
faculty
fad
fadhil
fadil
fadilah
fadlan
fadli
fadzil
faedah
fagiano
fahad
faham
fahaman
fahd
fahmi
fahrenheit
fahrin
fai
fail
failed
fails
failure
fair
fairchild
fairfax
fairuz
fairy
faisal
faisalabad
faith
faiz
faizal
faizul
fajar
fake
fakir
faks
fakta
faktor
fakultas
fakulti
falah
falak
falcon
falkland
fall
fallen
falling
falls
falsafah
false
fam
fame
famili
familiar
families
family
famitsu
famous
fan
fana
fanatic
fanatik
fancy
fandi
fandom
fang
fans
fantasi
fantasia
fantastic
fantasy
fao
faq
far
fara
faraday
farah
faraj
fardhu
fardu
farewell
fargo
farhan
farhana
farid
farida
faridah
farihad
faris
farish
fariz
farm
farmaseutikal
farmasi
farmer
farmers
faroe
farouk
farquhar
farrar
farrel
farrell
fars
fas
fasa
fasal
fasha
fashion
fasih
fasilitas
fasiliti
fasis
fasisme
faso
fassbender
fast
fastest
fat
fatah
fatal
fate
fathani
fathaniyah
father
fathers
fathia
fatih
fatihah
fatima
fatimah
fatin
fattah
fatty
fatwa
fault
fauna
faust
fauzi
fauziah
favorite
favourite
fax
fay
faye
fazenda
fazira
fazura
fb
fbi
fc
fci
fd
fda
fe
fear
fearless
fears
feast
feat
feature
featured
features
featuring
feb
februari
february
federal
federation
federico
fedora
fee
feed
feeding
feel
feeling
feet
fei
felcra
felda
feldman
felipe
felix
fell
fellow
fellows
fellowship
felo
felt
female
femina
feminin
feminis
feminisme
feminist
femme
fendi
feng
fenomena
fenotip
feral
ferb
ferdinand
ferguson
feri
feride
ferna
fernandes
fernandez
fernando
ferrari
ferreira
ferry
fes
fest
festival
festivals
fesyen
feudal
fever
few
feyenoord
feynman
ff
ffm
fi
fia
fiat
fiber
fibrosis
fiction
fidel
field
fields
fiesta
fifa
fifi
fifth
fifty
figc
fight
fighter
fighters
fighting
figura
figure
figures
fih
fiji
fikir
fikiran
fikirannya
fikri
fikry
fiksyen
fil
file
filem
filemkita
filemnya
filemografi
files
filipina
filipino
film
filmfare
filmindonesia
filming
filmografi
filmography
films
filogenetik
filsuf
filum
filzah
fin
fina
final
finale
finalis
finally
finals
finance
financial
finas
find
finding
finds
fine
finger
finish
finiste
finland
finn
finnish
fiona
fiorentina
fiqah
fiqh
firaun
firdaus
fire
fired
firefly
firefox
firenze
fires
firm
firma
firman
firmino
firms
first
firstpost
firth
fiscal
fischer
fish
fishbase
fisher
fisheries
fishes
fishing
fisik
fisiologi
fiskal
fist
fit
fitch
fitnah
fitness
fitrah
fitri
fitur
fitzgerald
fius
fiuslaj
five
fix
fixed
fixtures
fiza
fizik
fizikal
fizikalnya
fizz
fk
fl
fla
flag
flags
flagship
flame
flanders
flash
flat
fleet
fleksibel
fleming
flemish
flensburg
fletcher
fleur
flickr
flies
flight
flightaware
flightglobal
flightradar
flights
flinders
flint
flizzow
flo
floating
flood
floods
floor
flop
flora
florence
flores
florian
florida
flotilla
flow
flower
flowers
floyd
flu
fluid
fluks
fluorida
fly
flying
flynn
flyscoot
fm
fmc
fn
fnc
fo
focke
focus
fokker
fokus
folk
folklore
follow
followed
following
follows
fon
fonem
fonetik
fong
fonologi
font
fontaine
foo
food
foods
fook
fool
foot
footage
football
footballers
for
forbes
forbidden
force
forced
forces
ford
forecast
foreign
forensic
forensik
forest
forestry
forests
forever
forget
forgotten
form
formal
formasi
format
formation
formed
former
formerly
formosa
forms
formula
forrest
forster
fort
fortress
fortschreibung
fortune
forty
forum
forward
fosfat
fosforus
fosil
foss
fossil
foster
foto
fotograf
fotografi
foton
fotosintesis
found
foundation
foundations
founded
founder
founding
four
fourth
fowler
fox
fr
fra
frac
fragmen
frame
framework
fran
franc
franca
francais
france
frances
francesca
francesco
franche
franchise
francis
francisco
francissca
franco
francois
frank
frankfurt
frankie
franklin
frans
franz
frasa
fraser
fraud
fre
fred
freddie
frederic
frederick
free
freedom
freeman
freiburg
freiherr
freistaates
frekuensi
fremantle
french
frequency
frequently
fresh
freshwater
freud
fribourg
friday
fried
friedman
friedrich
friend
friendly
friends
friendship
frigat
frigate
fritz
friuli
frodo
frog
from
front
frontale
frontier
frontiers
frosinone
frost
frozen
frs
fru
fruhstorfer
fruit
fruits
fruktosa
fry
fs
ft
fte
ftse
fu
fuad
fuel
fuji
fujian
fujimoto
fujita
fujiwara
fukuda
fukuoka
fukushima
fulham
full
fullbottle
fuller
fulltext
fully
fun
function
functional
functions
fund
fundamental
fundamentals
funding
funds
funeral
fung
fungsi
fungsinya
funimation
funk
funny
furious
furry
further
furukawa
fury
fusic
fusion
fussballdaten
futsal
future
fuzhou
fv
fx
fy
g
ga
gaal
gaara
gab
gabenor
gabon
gabriel
gabriella
gabrielle
gabungan
gadabay
gadai
gadang
gaddafi
gading
gadis
gado
gadong
gael
gaga
gagah
gagak
gagal
gagasan
gah
gai
gaia
gail
gain
gainare
gaisha
gaius
gajah
gaji
gakuen
gal
gala
galactic
galactica
galah
galak
galakan
galaksi
galang
galanya
galas
galaxy
gale
galeri
gales
gali
galian
galicia
galileo
gallagher
gallen
gallery
gallipoli
galur
gam
gama
gamal
gamba
gambang
gambar
gambaran
gambarnya
gambia
gambir
gamble
gambut
game
gamelan
gamer
games
gamespot
gamet
gaming
gamma
gampong
gan
gana
ganang
ganas
ganda
gandaan
gandar
gandhi
gandingan
gandum
gang
gangguan
gangnam
gangsa
gangster
gani
ganja
ganjar
ganjaran
ganjil
gansu
gantang
ganti
gantian
gantikanlah
gantinya
gantung
gantungan
gantz
gao
gaon
gap
gapena
gara
garaj
garam
garang
garci
garcia
gard
garde
garden
gardens
gardiner
gardner
gareth
garfield
gari
garibaldi
garis
garisan
garison
garland
garner
garonne
garpu
garrett
garrison
garry
garuda
garut
gary
gas
gasing
gatal
gatas
gate
gates
gateway
gathering
gau
gauge
gaul
gaulle
gaun
gaung
gautama
gave
gavin
gawai
gawang
gay
gaya
gayo
gayong
gayung
gayvn
gaza
gazetir
gazette
gazetteer
gazprom
gazzetta
gb
gc
gd
gdp
ge
gear
gebang
gedang
gede
gedong
gedung
geek
gegar
gegaran
gegelung
geiger
gejala
gel
geladak
gelam
gelang
gelanggang
gelap
gelar
gelaran
gelarannya
gelas
gelembung
gelen
gelisah
gelombang
gelora
gelugor
gelung
gelungan
gem
gema
gemar
gemas
gembala
gembira
gemeente
gemeinden
gemencheh
gemilang
gemini
gemma
gempa
gempak
gempakstarz
gempur
gemuk
gemuruh
gen
genap
gencatan
gendang
gender
gene
genealogy
genera
general
generalfeldmarschall
generalleutnant
generally
generalmajor
generaloberst
generals
generasi
generation
generations
generator
generic
generik
genes
genesis
genetic
genetics
genetik
geneva
geng
genghis
genie
genitif
genius
genji
genk
genoa
genocide
genom
genome
genre
gentian
genting
gentleman
genus
geo
geocities
geoff
geoffrey
geografi
geografinya
geographic
geographical
geography
geologi
geological
geology
geometri
geometry
geon
geonames
geonet
geopark
geophysical
georg
george
georges
georgetown
georgia
georgian
georgie
ger
gerabak
gerai
gerak
gerakan
gerald
geraldine
geram
geran
gerard
gerbang
gerd
gereja
gergaji
gergasi
gerhana
gerhard
geri
gerik
gerila
gerimis
germain
german
germanic
germany
gerombolan
gerrard
gerry
gers
gersang
gertrude
gesa
geschichte
geschlecht
gesellschaft
geseran
get
getah
getaran
gets
getting
getty
gettysburg
geum
geun
geylang
gg
ghafar
ghaib
ghairah
ghana
ghani
ghau
ghaz
ghazal
ghazali
ghazi
ghibli
ghosh
ghost
ghosts
ghulam
gi
gia
giacomo
gian
giant
giants
gianyar
giat
gibbs
gibraltar
gibson
gie
gif
gifoto
gift
gifu
gig
gigi
gigih
gigitan
gil
gila
gilan
gilang
gilbert
gilda
giles
gilgamesh
gilir
giliran
gill
gilles
gillian
gilligan
gim
gimnasium
gimnastik
gin
gina
gincu
ginger
gini
ginjal
ginny
giorgio
giovanni
gipuzkoa
giri
girl
girlfriend
girls
giro
girona
gironde
gis
gish
gita
gitar
gitaris
giulia
giuseppe
give
given
gives
giving
gl
gladiator
gladys
glam
glamour
glance
glantz
glasgow
glasier
glass
glee
glen
glenn
glob
global
globalisasi
globalization
globalsecurity
globe
glock
gloria
glorious
glory
glosari
glossary
glotis
gloucester
glove
glover
glukosa
glut
glvertex
gm
gma
gmail
gmbh
gmmtv
gmt
gnome
gnu
go
goa
goal
goals
god
goddard
goddess
goddesses
godfrey
gods
godzilla
goes
goeslaw
goethe
gogh
goguryeo
goh
going
gojek
gojong
goku
gol
golan
gold
goldberg
golden
goldman
goldstein
goldwyn
golestan
golf
golkar
golok
golongan
gombak
gomes
gomez
gon
gone
gong
gonna
gonza
gonzales
gonzalez
gonzalo
goo
good
goodbye
goodman
goodreads
goods
goodwin
google
gook
goose
gopal
gopeng
goranboy
gorbachev
gordon
gore
goreng
goresan
gorman
gornja
gorontalo
goryeo
gosip
gospel
gossip
got
goth
gotha
gotham
gothic
goto
gotong
gottfried
goulburn
gould
gourmet
gov
governance
governing
government
governo
governor
governors
govt
gowa
goyang
gp
gpk
gprs
gps
gq
gr
gra
grabby
grace
grade
graduan
graduasi
graduate
graeme
graf
grafik
graham
grail
gram
gramedia
grammar
grammy
grampus
gran
granada
grand
grande
granger
granit
grant
graph
graphic
graphics
graptemys
grass
graubu
grave
graves
graviti
gravity
gray
grayson
grc
gre
great
greater
greatest
greco
gred
greece
greek
greeks
green
greene
greenland
greenpeace
greenwich
greenwood
greg
gregg
gregorius
gregory
greifswald
grenada
gresik
greta
grey
greyhound
grid
griffin
griffith
griffiths
grimmie
grimmjow
grindcore
gripen
gro
groningen
groove
gross
grossing
ground
grounds
group
groups
grove
grover
groves
grow
growing
grown
grows
growth
grs
gru
grumman
grundlage
grup
gruyter
gryffindor
gs
gsm
gst
gt
gu
gua
guadalajara
guadalupe
guadeloupe
guam
guaman
guan
guang
guangdong
guangxi
guangzhou
guar
guard
guardian
guardians
guards
guatemala
gubahan
gubernur
gudang
gue
guerra
guerre
guerrero
guest
guevara
guez
gugur
gugusan
gui
guiana
guidance
guide
guided
guidelines
guides
guido
guild
guilin
guillaume
guillermo
guilty
guinea
guinness
guitar
guiyang
guizhou
gujarat
gujarati
guk
gula
gulai
gulden
gulf
gulung
gulungan
gulzar
gum
gumpalan
gun
guna
gunaan
gunakan
gunawan
gundala
gundam
gundik
gung
gunma
gunong
guns
gunting
gunung
guo
gupta
gurdwara
gurion
gurkha
gurney
guru
guruh
gurun
gurunya
gus
gusi
gustav
gustavo
gusti
gutawa
gutenberg
guthrie
gutie
guy
guyana
guys
gva
gwang
gwangju
gwen
gye
gyeong
gyeonggi
gyo
gyu
h
ha
haag
haaretz
haasan
hab
haba
habib
habibah
habibie
habis
habisan
habitat
hablur
habsah
habsburg
habsyah
habuk
hack
had
hadapan
hadapannya
hadapi
hades
hadi
hadiah
hadid
hadir
hadirin
hadis
hadith
hadits
hadrian
hae
hael
hafidz
hafiz
hagrid
hague
hahn
hai
haid
haidar
haifa
haikal
haikou
hail
hain
hainan
hair
hairan
hairanlah
hairi
hairul
haiti
haiwan
haj
hajah
hajar
hajat
haji
hajime
hajj
hajjah
hajji
hajjiabad
hak
hakam
hakcipta
hakikat
hakikatnya
hakim
hakimi
hakisan
hakka
haknya
haku
hal
hala
halaju
halal
halaman
halamannya
halangan
hale
haley
half
halia
halifax
halim
halimah
halimunan
haliza
hall
halle
halloween
hallows
halmahera
halnya
halo
haluan
halus
ham
hama
hamad
hamadan
hamas
hamba
hambar
hamburg
hamburger
hamdan
hamid
hamidah
hamidi
hamidun
hamil
hamilton
hamka
hamlet
hammer
hammond
hammurabi
hampar
hamparan
hampir
hampshire
hamza
hamzah
han
hana
hanafi
hanafiah
hanani
hancinema
hancock
hancur
hand
handal
handalan
handbook
handed
handelsblad
hands
handy
haneda
hang
hangat
hangeul
hangul
hangus
hangzhou
hani
hanif
hanifah
haniff
hanim
hanis
hanisah
hanja
hank
hanks
hankyung
hanna
hannah
hannibal
hannover
hanoi
hanover
hans
hansard
hansen
hanson
hantar
hantaran
hanteo
hantu
hanya
hanyalah
hanyu
hanyut
hao
hap
happen
happened
happiness
happy
haq
haqiem
har
hara
harafiah
harakah
harakahdaily
harakat
harald
haram
harap
harapan
harbin
harbor
harbour
harcourt
hard
hardcore
hardcover
harding
hardware
hardy
hare
harem
harfiah
harfiahnya
harga
harganya
hari
harian
haribulan
harimau
harinya
hariri
haris
harith
hariz
harley
harmoni
harmony
harold
haron
harper
harpercollins
harrier
harriet
harrington
harris
harrison
harry
hart
harta
hartanah
hartanya
hartawan
haru
haruka
harum
harun
haruna
harus
haruslah
harv
harvard
harvest
harvey
haryana
haryati
has
hasan
hasanah
hasanuddin
hasbullah
hashim
hashimoto
hasil
hasilan
hasilkan
hasilnya
haslam
hasmah
hasnah
hasnan
hasnul
hasrat
hasratnya
hassan
hassanal
hasta
hastings
hasutan
haswendy
hasyim
hat
hate
hathaway
hati
hatiku
hatimu
hatinya
hatrik
hatta
hattan
haunted
hauptmann
haus
haut
haute
hautes
havana
havas
have
haven
havilland
having
havli
hawa
hawai
hawaii
hawaiian
hawari
hawk
hawke
hawker
hawking
hawkins
hay
hayashi
hayat
hayate
hayati
hayatnya
hayden
hayes
haymarket
haynes
hayward
hazama
hazard
hazards
haze
hazel
hazim
haziq
hb
hbo
hc
hd
hdl
hdmi
hdtv
he
head
headed
headline
headquarters
heads
healing
health
healthcare
healthy
hear
heard
hearing
hearst
heart
hearts
heat
heath
heathcote
heather
heathrow
heaven
heavy
hebat
hebatnya
hebei
hebrew
heckler
hector
hedgehog
hedges
hee
heer
hei
heian
heidelberg
heider
heidi
height
heights
heinemann
heinrich
heinz
hektar
helah
helai
helaian
helang
held
helen
helena
helicopter
helicopters
helikopter
heliks
heliport
helium
hell
hellas
heller
hello
helm
helmet
helmi
helmut
helo
help
helped
helping
helps
helsinki
hem
hemingway
hemisfera
hemoglobin
hempedu
hemsworth
hen
henan
hendak
hendaklah
hendap
henderson
hendra
hendrik
hendrix
heng
henley
henri
henrik
henry
henson
hentaman
henti
hentian
heo
heon
hepatitis
hepburn
her
hera
herald
herba
herbert
hercules
here
hering
heritage
herman
hermann
hermes
hermione
herna
hernandez
hernia
hero
herodotus
heroes
heroin
heroine
heroines
heron
herrera
herschel
herself
herzegovina
herzogtum
hess
hesse
het
heteroseksual
hetty
hewitt
hewlett
hey
hf
hh
hi
hias
hiasan
hibrid
hiburan
hicks
hicom
hidan
hidangan
hidayah
hidayat
hidden
hide
hiden
hideo
hideyoshi
hidraulik
hidro
hidroelektrik
hidrogen
hidrokarbon
hidroksida
hidung
hidup
hidupan
hidupnya
hierarki
hieroglif
higgins
high
higher
highest
highland
highlands
highlights
highly
highway
hijab
hijau
hijaz
hijjaz
hijrah
hijriah
hikari
hikaru
hikayat
hikmah
hikmat
hikmet
hilal
hilang
hilary
hilir
hill
hillary
hills
hilmi
hilton
him
himachal
himalaya
himmler
himpunan
himself
hin
hina
hinata
hind
hindenburg
hindi
hindia
hindraf
hindu
hinduism
hinduisme
hindustan
hing
hingar
hingga
hinggakan
hinggalah
hino
hip
hipotesis
hiragana
hirisan
hiro
hirohito
hiroki
hiroshi
hiroshima
hiroyuki
his
hisamuddin
hisham
hishammuddin
hishamuddin
hispania
hist
histeria
histo
histoire
historia
historian
historians
historic
historical
histories
historiography
history
hisyam
hit
hitam
hitchcock
hitler
hitomi
hits
hitsugaya
hitz
hiv
hizbullah
hizbut
hj
hjh
hk
hkcn
hkt
hl
hlm
hlmn
hm
hmetro
hmi
hms
ho
hoa
hobart
hobbit
hobi
hoboken
hoc
hock
hockey
hodder
hodgkins
hodoni
hoe
hoffman
hoffmann
hogan
hogwarts
hohenzollern
hoi
hok
hokage
hoki
hokkaido
hokkien
hoku
hold
holden
holding
holdings
holds
hole
holiday
holidays
holland
hollow
holly
hollyhock
hollywood
holm
holmes
holocaust
holokus
holstein
holt
holy
hom
homalomena
home
homecoming
homeland
homepage
homer
homes
homestay
homo
homoseksual
homosexuality
hon
honda
honduras
honey
hong
honolulu
honor
honorary
honors
honour
honours
honshu
hoo
hood
hoogtebestand
hook
hooker
hoon
hoover
hop
hope
hopea
hopes
hopkins
hor
hora
horace
horizon
horizons
hormat
hormon
hormozgan
horn
hornet
horni
horror
horse
horses
horst
hortikultur
horton
horus
hos
hoseynabad
hoshi
hospital
host
hostage
hosted
hosting
hosts
hot
hotel
hotels
hotspur
hotstar
hottest
hou
houghton
hound
hour
hours
house
household
houses
housewives
housing
houston
how
howard
howe
howell
however
howitzer
hoyle
hp
hq
hr
hradec
hradis
hrer
hrithik
hs
hsbc
hsien
hsu
ht
htm
html
http
https
hu
hua
huan
huang
huat
huawei
hub
hubble
hubei
hubert
hubung
hubungan
hubungannya
hud
huda
hudgens
hudson
hudud
hue
huelva
huesca
huey
huffington
huge
hugh
hughes
hugman
hugo
hui
hujah
hujan
hujung
hujungnya
hukum
hukuman
hula
hulagu
hulk
hull
hulu
hulubalang
hum
huma
human
humanitarian
humanities
humanity
humans
humboldt
hume
humor
humphrey
hun
hunan
hundred
hundreds
hung
hungama
hungarian
hungary
hunger
hunt
hunter
hunters
hunting
huntington
huraian
hurairah
hurikan
hurricane
hurst
hurt
huru
huruf
husain
husaini
husband
husein
husin
husna
husni
hussain
hussein
hussin
hut
hutama
hutan
hutang
hutchinson
hwa
hwan
hwang
hwi
hy
hyang
hybrid
hyde
hyderabad
hydrogen
hye
hyeon
hyo
hype
hyper
hyperactivity
hypothesis
hyuk
hyun
hyundai
hyung
hz
i
ia
iaaf
iaea
iain
iaitu
ialah
ian
iana
ianya
ias
iata
iatu
iau
ib
iba
ibadah
ibadat
iban
ibarat
iberia
ibid
iblis
ibm
ibn
ibni
ibnu
ibrahim
ibrani
ibtidaiyah
ibu
ibubapa
ibukota
ibukotanya
ibunda
ibunya
ic
ica
icao
icarus
icd
ice
iceland
icelandic
ich
ichi
ichigo
ichihara
ichiro
ichu
icon
iconic
icons
icrc
ict
icu
id
ida
idaho
idaman
idayu
ide
idea
ideal
ideas
identification
identified
identifier
identitas
identiti
identitinya
identity
ideologi
ideology
idf
idham
idi
ido
idol
idola
idris
idrus
ie
iec
ieee
ieyasu
if
ifa
iflix
ifpi
ig
ign
ignacio
ignatius
ignored
igor
ihram
ihsan
ii
iida
iii
iiss
ijazah
ijn
ijok
ik
ika
ikan
ikat
ikatan
ikeda
ikhlas
ikhsan
ikhwan
ikko
iklan
iklim
ikmal
ikon
ikonik
ikram
ikrar
iku
ikut
ikutan
il
ila
ilahi
ilam
ilbo
ile
ilham
ili
ilina
ilir
ill
ille
illegal
illinois
illness
illustrated
illustrations
ilm
ilmiah
ilmu
ilmuwan
ilo
ilocos
iloilo
ilusi
ilustrasi
ilya
ilyas
ilyushin
im
ima
image
images
imaginasi
imagination
imagine
imaging
imam
iman
imax
imbangan
imbas
imbasan
imbuhan
imdb
imej
imelda
imf
img
imigran
imigrasi
imigresen
immediately
immigration
immortal
imo
imov
imp
impact
impacts
impak
impeachment
imperial
imperialis
imperialisme
impian
impiannya
implan
implementation
implications
implikasi
import
importance
important
impossible
improve
improved
improvement
imran
imtiaz
imun
imunisasi
imuniti
in
ina
inanam
inang
inas
inaugural
inc
inca
incheon
inci
incidence
incident
include
included
includes
including
income
incorporated
increase
increased
increases
incredible
ind
indah
indeks
independence
independent
indera
index
india
indian
indiana
indianapolis
indians
indiatimes
indicators
indie
indies
indiewire
indigenous
indigo
indira
indische
individu
individual
individuals
indo
indochina
indomie
indonesia
indonesian
indosiar
indra
indramayu
indre
induced
induk
induknya
indulgensi
indus
industri
industrial
industries
industry
indy
ine
inersia
inews
inf
infant
infanterie
infantri
infantry
infection
infections
infectious
inferno
infinite
infiniti
infinity
inflasi
influence
influential
influenza
info
infobox
informa
informal
informasi
information
informer
infotaip
infra
inframerah
infrastructure
infrastruktur
ing
ingat
ingatan
ingatannya
ingatlah
inggeris
inggerisnya
inggris
ingin
inginkan
ingkar
ingrid
inh
inhaber
ini
inilah
inisiatif
initial
initialism
initiative
injap
injil
injured
injuries
injury
ink
inka
inkigayo
inklusif
inn
inner
innocence
innocent
innovation
ino
inorganic
inoue
inovasi
inovatif
input
inquirer
inquiry
ins
insaf
insan
insani
inscriptions
insee
insentif
inside
insiden
insider
insight
insights
insignia
inskripsi
inspector
inspektor
inspirasi
inspiration
inspired
instagram
instead
institusi
institut
institute
institutes
institution
institutional
institutions
instituto
instruction
instrumen
instrument
instrumental
instruments
insulin
insurance
insurans
int
intan
inteam
integer
integrasi
integrated
integration
integriti
integrity
intel
intelek
intelektual
intellectual
intelligence
intelligent
intensif
intensiti
inter
interaction
interactions
interactive
interaksi
interaktif
intercontinental
interest
interface
interim
interior
internacional
internal
internasional
international
internationale
internazionale
internet
interpol
interpretasi
interpretation
interstellar
intervention
interview
interviews
inti
intim
intipati
into
intro
introduced
introduces
introducing
introduction
introductory
inu
inuyasha
invalid
invasion
invention
inventor
inventori
invertebrat
invertebrata
investigation
investigations
investment
investments
investor
investors
invisible
involved
io
ioc
iodin
ioi
ion
ionia
ios
iowa
ip
ipa
ipad
ipar
iparnya
ipc
ipcc
ipg
iphone
ipin
ipo
ipod
ipoh
ipt
ipta
iptv
ipv
iq
iqbal
iqiyi
iqram
ir
ira
irama
iran
irani
iranian
iranica
iraq
iraqi
irawan
ireland
irene
irfan
iri
irian
iringan
iris
irish
irma
iron
irvine
irving
irwan
irwansyah
irwin
is
isa
isaac
isabel
isabela
isabella
isabelle
isaiah
isbn
ise
isfahan
ishak
ishaq
ishida
ishikawa
isi
isian
isidro
isih
isinya
isipadu
isis
iskandar
iskandariah
isla
islah
islam
islamabad
islami
islamiah
islamic
islamiyah
island
islands
isle
isma
ismail
ismailli
isn
isnin
iso
isomer
isotop
israel
israeli
iss
issn
issue
issued
issues
ist
istana
istanbul
istat
isteri
isterinya
istiadat
istilah
istimewa
istimewanya
istituto
istri
isu
isuzu
isyarat
it
ita
itachi
itali
italia
italian
italiana
italiano
italic
italik
italy
itam
itar
itbm
item
items
ithaca
itik
itis
itm
ito
its
itself
itsi
itu
itulah
itunes
itv
iu
iucn
iupac
iv
iva
ivan
iverson
ivoire
ivory
ivy
iwan
iwata
iwate
ix
ixa
ixodes
iya
iz
izara
izham
izin
izo
izumi
izwan
izz
izzah
izzat
izzuddin
izzue
j
ja
jaafar
jaan
jab
jabar
jabatan
jabi
jabor
jabung
jack
jackass
jackie
jackson
jaclyn
jacob
jacobs
jacobson
jacqueline
jacques
jade
jadi
jadian
jadikan
jadinya
jadual
jae
jafar
jaga
jagaan
jaguar
jaguh
jagung
jah
jahan
jahat
jaheaik
jahit
jahitan
jai
jail
jailani
jaime
jain
jais
jaja
jajahan
jajahannya
jajaran
jakal
jakarta
jakartatimur
jake
jaket
jakim
jakob
jaksa
jaktim
jakun
jal
jala
jalal
jalaluddin
jalan
jalanan
jalani
jalanraya
jali
jalil
jalilabad
jalinan
jalur
jam
jama
jamaah
jamadilakhir
jamaica
jamak
jamal
jamaluddin
jamaludin
jamalullail
jambak
jambatan
jambi
jambu
jambul
jamek
james
jami
jamie
jamil
jamilah
jamin
jaminan
jammu
jampi
jamuan
jan
jana
janaan
janakuasa
janda
jane
janeiro
janet
jang
jangan
janganlah
janggut
jangka
jangkaan
jangkauan
jangkitan
janice
janin
janji
janjinya
janna
jannah
jansen
janssen
jantan
jantina
jantung
januari
january
japan
japanese
jar
jarak
jaraknya
jarang
jared
jari
jaring
jaringan
jarum
jas
jasa
jasad
jasanya
jasin
jasmani
jasmay
jasmin
jasmine
jason
jasper
jassim
jassin
jata
jati
jatinegara
jatuh
jatuhnya
jauh
jauhnya
java
javanese
javascript
javed
javier
jawa
jawab
jawaharlal
jawapan
jawatan
jawatankuasa
jawatannya
jaweon
jawi
jay
jaya
jayanya
jayapura
jazeera
jazz
jb
jc
jd
jdt
je
jean
jeanne
jebat
jed
jeddah
jedi
jef
jeff
jefferson
jeffrey
jefri
jejak
jejaka
jejambat
jejari
jeju
jelai
jelajah
jelapang
jelas
jelasnya
jelata
jelebu
jeli
jelita
jelmaan
jelutong
jem
jemaah
jemaat
jembal
jembatan
jempol
jemput
jemputan
jemu
jen
jena
jenaka
jenama
jenayah
jenazah
jenazahnya
jendela
jenderal
jeneral
jengka
jeniang
jenis
jenisnya
jenjang
jenkins
jenna
jenner
jennifer
jennings
jenny
jens
jensen
jenson
jentera
jeolla
jeon
jeong
jeonju
jepang
jepara
jepun
jerai
jeram
jerami
jerangau
jerantut
jerat
jerebu
jeremiah
jeremy
jericho
jering
jeritan
jerman
jermanik
jernih
jerome
jerry
jersey
jersi
jerteh
jeruk
jerung
jerusalem
jervis
jess
jesse
jesselton
jessica
jessie
jesu
jesuit
jesus
jet
jeti
jets
jetstar
jewel
jewish
jews
jf
jg
jha
jharkhand
ji
jia
jian
jiang
jiangsu
jiangxi
jibril
jic
jie
jihad
jihan
jihlava
jika
jikalau
jikan
jil
jilid
jill
jim
jima
jimat
jimi
jimmy
jin
jinak
jindr
jing
jingga
jinjang
jinnah
jinping
jins
jintan
jiraiya
jiran
jirannya
jirim
jiro
jisim
jit
jiten
jitra
jitu
jiwa
jiwanya
jj
jk
jkkk
jkkn
jkr
jkt
jl
jln
jm
jma
jmpl
jo
joa
joachim
joan
joanna
joanne
joaquin
job
jobs
jocelyn
jodi
jodoh
joe
joel
joey
joget
johan
johann
johanna
johannes
johannesburg
johansson
johar
johari
john
johnny
johns
johnson
johnston
johol
johor
johore
join
joined
joining
joins
joint
jojo
joker
joko
jokowi
jolie
jolly
jolokan
jom
jombang
jomo
jon
jonah
jonas
jonathan
jones
jong
joo
joon
joong
joongang
jordan
jorge
jos
jose
josef
joseon
joseph
josephine
josh
joshi
joshua
josiah
journal
journalism
journalist
journalists
journals
journey
jov
jovice
joy
joyce
jp
jpg
jpl
jpm
jpn
jr
js
jsp
jstor
jtbc
jtl
jtwc
ju
jua
juadah
jual
jualan
juan
juang
juara
jubah
jubilee
jubin
jubli
judah
judaism
judas
judd
jude
judge
judges
judgment
judi
judicial
judith
judo
judul
judy
juga
jugalah
juice
juita
jujukan
jujur
jujutsu
jul
julai
julang
julat
julau
jules
juli
julia
julian
juliana
julie
julien
juliet
julio
julius
julukan
julung
july
jumaat
jumlah
jumlahnya
jump
jumpa
jumpaan
jun
junction
june
jung
jungle
juni
junid
junior
juno
junta
jupiter
jura
jurang
jurassic
jure
juri
jurina
jurnal
jurong
juru
juruanimasi
jurucakap
jurugambar
juruhebah
jurukamera
jurulatih
jururawat
jurus
jurusan
juruteknik
jurutera
juruterbang
juruukur
jury
jus
jusco
jusoh
just
justera
justeru
justice
justification
justifikasi
justin
jusuf
juta
jutaan
jutawan
jutsu
juvana
juventus
juwita
juzuk
jv
jw
jyp
jyutping
k
ka
kaa
kaabah
kaamatan
kab
kabar
kabel
kabhi
kabin
kabinet
kabir
kabul
kabupaten
kabur
kabus
kabushiki
kabut
kaca
kacak
kacang
kacau
kacukan
kad
kadang
kadangkala
kadangkalanya
kadar
kadaran
kadazan
kadazandusun
kader
kadet
kadi
kadir
kadokawa
kaedah
kaf
kafa
kafe
kafilah
kafir
kagawa
kagoshima
kagum
kaguya
kah
kahar
kaherah
kahn
kahwin
kai
kain
kaisar
kaisen
kaiser
kait
kaitan
kaitannya
kaito
kajang
kaji
kajian
kajiannya
kajol
kak
kaka
kakak
kakaknya
kakaktua
kakao
kakashi
kakawin
kaki
kakinya
kakitangan
kakitangannya
kaku
kal
kala
kalah
kalam
kalang
kalangan
kalanya
kalau
kalbajar
kalendar
kaler
kali
kalian
kaliber
kaligrafi
kalimah
kalimantan
kalimat
kalinya
kalis
kalium
kalkulator
kalkulus
kallang
kalong
kalori
kalsium
kalumpang
kalung
kam
kama
kamakura
kamal
kamala
kamar
kamariah
kamaruddin
kamarudin
kamarul
kambing
kamei
kamen
kameo
kamera
kami
kamikaze
kamil
kamila
kamiran
kampar
kampong
kampung
kampungnya
kampus
kamu
kamunting
kamus
kan
kana
kanaan
kanada
kanagawa
kanak
kanaknya
kanan
kanang
kanannya
kanazawa
kancah
kancil
kand
kanda
kandahar
kandang
kandi
kandis
kandung
kandungan
kandungannya
kandungnya
kane
kang
kangar
kangaroo
kangkar
kangkung
kangsar
kangxi
kani
kanji
kannada
kano
kanon
kanopi
kanowit
kansai
kansas
kanser
kant
kanta
kantin
kanto
kanton
kantonis
kantor
kantung
kanu
kanun
kanvas
kanwa
kao
kaohsiung
kaori
kaoru
kap
kapak
kapal
kapalnya
kapan
kapanlagi
kapar
kapas
kapasiti
kapcai
kapit
kapita
kapitalis
kapitalisme
kapitan
kaplan
kapoor
kapor
kaps
kapsul
kapten
kapuas
kapur
kar
kara
karabakh
karachi
karak
karakter
karam
karan
karang
karangan
karangasem
karangkraf
karaoke
karapas
karat
karate
karawang
karbala
karbin
karbohidrat
karbon
karbonat
kardinal
kardiovaskular
kareena
karel
karen
karena
kargo
kari
kariah
karib
karier
kariernya
karies
karikatur
karim
karin
karina
karisma
karl
karlovy
karlsruhe
karma
karmila
karnataka
karnival
karnivor
karno
karo
karpal
kart
kartanegara
kartel
kartika
kartina
kartini
kartografi
kartun
kartunis
karun
karut
karya
karyanya
karyawan
kas
kasa
kasai
kasar
kasarnya
kaset
kashima
kashiwa
kashmir
kasih
kasihan
kasim
kasino
kaspia
kassim
kasta
kastam
kastamonu
kastard
kasturi
kasual
kasus
kasut
kat
kata
katak
katakan
katakana
katakanlah
katalog
katanya
kate
katedral
kategori
katekismus
katering
katharine
katherine
kathir
kathleen
kathmandu
katholik
kathryn
kathy
kati
katie
katil
katniss
kato
katod
katolik
katrij
katrina
katup
katy
katz
kau
kaufman
kaukasus
kaum
kaumnya
kaunseling
kaunselor
kaunter
kaunti
kaur
kavalri
kawad
kawah
kawal
kawalan
kawan
kawanan
kawannya
kawasaki
kawasan
kawasannya
kawat
kawi
kawin
kay
kaya
kayan
kayangan
kayu
kazakh
kazakhstan
kazan
kaze
kb
kbbi
kbs
kc
kd
kdn
kdnk
kdymm
ke
keabadian
keadaan
keadaannya
keadilan
keagamaan
keagungan
keahlian
keajaiban
keakhiran
keamanan
keamatan
kean
keanggotaan
kearah
keaslian
keat
keatas
keb
kebahagiaan
kebaikan
kebajikan
kebakaran
kebaktian
kebal
kebanggaan
kebangkitan
kebangsaan
kebanyakan
kebanyakannya
kebanyakkan
kebanyakkannya
kebarangkalian
kebawah
kebaya
kebebasan
kebelakangan
kebenaran
kebencian
keberadaan
keberangkatan
keberanian
keberatan
kebergantungan
keberhasilan
keberkesanan
kebersihan
kebesaran
kebetulan
kebiasaan
kebiasaannya
kebiasaanya
kebijakan
kebijaksanaan
kebimbangan
kebocoran
kebolehan
kebolehannya
kebolehpercayaan
kebon
kebudayaan
kebuk
kebuluran
kebun
keburukan
kebutuhan
kecacatan
kecaman
kecamatan
kecantikan
kecederaan
kecekapan
kecelakaan
kecelaruan
kecemasan
kecemerlangan
kecenderungan
kecepatan
kecerahan
kecerdasan
kecergasan
keceriaan
kecerunan
kecewa
kechik
kechil
kecil
kecilan
kecilnya
kecoh
kecondongan
kecuaian
kecuali
kecurian
keda
kedah
kedai
kedalam
kedalaman
kedamaian
kedatangan
kedaulatan
kedayan
kedengaran
kediaman
kediamannya
kedidi
kediri
kedoktoran
kedondong
kedua
keduanya
kedudukan
kedudukannya
kedutaan
kee
keegan
keemasan
keempat
keempatnya
keen
keenam
keengganan
keep
keeper
keeping
keeps
keesokan
kefahaman
kegagalan
keganasan
kegelapan
kegemaran
kegemarannya
kegembiraan
kegemilangan
keghairahan
kegiatan
kegilaan
keguguran
kegunaan
kegunaannya
kehabisan
kehadapan
kehadiran
kehadirannya
kehakiman
kehamilan
kehancuran
keharmonian
kehebatan
kehendak
kehidupan
kehidupannya
kehijauan
kehilangan
kehitaman
kehormat
kehormatan
kei
keimanan
keindahan
keinginan
keinginannya
keistimewaan
keisuke
keita
keith
keizinan
kejadian
kejahatan
kejam
kejar
kejatuhan
kejayaan
kejayaannya
keji
kejiranan
kejohanan
kejora
keju
kejuaraan
kejujuran
kejuruan
kejururawatan
kejuruteraan
kejutan
kek
kekacang
kekacauan
kekadang
kekaisaran
kekal
kekalahan
kekangan
kekasih
kekasihnya
kekayaan
kekebalan
kekecewaan
kekecohan
kekejaman
kekeliruan
kekeluargaan
kekerapan
kekerasan
kekhalifahan
kekhanan
kekisi
kekosongan
kekuasaan
kekuasaannya
kekuatan
kekuatannya
kekunci
kekuningan
kekurangan
kel
kelab
kelabnya
kelabu
keladi
kelahiran
kelahirannya
kelainan
kelajuan
kelak
kelakar
kelakuan
kelam
kelamaan
kelamin
kelana
kelang
kelangsungan
kelantan
kelapa
kelapan
kelaparan
kelas
kelasi
kelasnya
kelautan
kelawar
kelayakan
kelaziman
keldai
kelebihan
keledar
keledek
kelemahan
kelembapan
kelengkapan
kelenjar
keletihan
kelewatan
keli
kelicap
kelihatan
kelihatannya
keliling
kelima
kelinci
keling
kelip
keliru
keller
kelley
kellogg
kelly
kelolaan
kelompok
kelopak
keluang
keluar
keluaran
keluarannya
keluarga
keluarganya
keluarkan
keluarnya
keluasan
keluasannya
kelubi
keluk
keluli
kelulusan
kelulut
kelurahan
kelvin
kem
kemaharajaan
kemahiran
kemahkotaan
kemahuan
kemajuan
kemakmuran
kemal
kemala
kemalangan
kemalia
kemaluan
kemaman
kemampuan
kemampuannya
kemandirian
kemang
kemangkatan
kemangkatannya
kemanusiaan
kemaraan
kemarahan
kemarau
kemas
kemasan
kemaskini
kemasukan
kemasyarakatan
kemasyhuran
kematangan
kematian
kematiannya
kembali
kembalinya
kembang
kembangan
kembar
kembara
kembarnya
kemboja
kembung
kemegahan
kemeja
kemelesetan
kemelut
kemenangan
kemenangannya
kementerian
kemerahan
kemerdekaan
kemerdekaannya
kemerosotan
kemewahan
kemiskinan
kemoterapi
kempas
kempen
kempennya
kemudahan
kemudi
kemudian
kemudiannya
kemuliaan
kemuncak
kemuncaknya
kemunculan
kemunculannya
kemunduran
kemungkinan
kemungkinannya
kemuning
kemunting
kemurungan
kemusnahan
ken
kena
kenaikan
kenal
kenalan
kenali
kenamaan
kenang
kenanga
kenangan
kenapa
kenari
kencana
kencang
kencing
kendali
kendalian
kendall
kenderaan
kendiri
kendrick
kenduri
kenegaraan
kenel
keng
kenichi
kening
keningau
kenji
kenkyuusei
kennedy
kennel
kenneth
kenny
kenpachi
kensington
kent
kental
kentang
kentucky
kenya
kenyah
kenyal
kenyalang
kenyataan
kenyataannya
keong
kepada
kepadaku
kepadamu
kepadanya
kepadatan
kepahiang
kepak
kepakaran
kepala
kepalanya
kepanasan
kepanjangan
kepantasan
kepastian
kepatuhan
kepausan
kepayang
kepekaan
kepekatan
kepelbagaian
kepemimpinan
kependekan
kependudukan
kepentingan
kepentingannya
keperangan
kepercayaan
keperibadian
keperluan
kepimpinan
kepimpinannya
keping
kepingan
kepintaran
kepler
kepolisan
kepolisian
kepong
kepopularan
keppel
kepresidenan
keprihatinan
kept
kepuasan
kepujian
kepulangan
kepulauan
kepungan
kepunyaan
kepupusan
keputeraan
keputusan
keputusannya
kera
kerabat
keracunan
keradangan
keragaman
keraguan
kerahan
kerahsiaan
keraian
kerajaan
kerajaannya
kerajinan
kerak
kerakyatan
kerala
keramaian
keramat
kerambit
kerana
keranda
kerang
kerangka
kerani
keranjang
kerap
kerapu
keras
keratan
keraton
keratong
kerbau
kerdil
kerelatifan
kerepek
kereta
keretakan
keretanya
keretapi
kerian
kerikil
kerinci
kering
keris
kerja
kerjanya
kerjasama
kerjaya
kerjayanya
kerncijfers
kernel
keroh
kerohanian
keroncong
kerongkong
keropok
kerosakan
kerpasan
kerr
kerry
kershaw
kertas
kerteh
kerubut
kerugian
keruh
keruing
kerumitan
keruntuhan
kerusi
kes
kesabaran
kesahihan
kesakitan
kesaksamaan
kesal
kesalahan
kesamaan
kesan
kesang
kesannya
kesateria
kesatria
kesatuan
kesayangan
kesayangannya
kesebelas
kesebelasan
kesedaran
kesederhanaan
kesediaan
kesedihan
kesehatan
keseimbangan
kesejahteraan
keseksaan
keselamatan
keselesaan
keseluruhan
keseluruhannya
kesembilan
kesempatan
kesempurnaan
kesemua
kesemuanya
kesenangan
kesengsaraan
kesenian
kesepakatan
kesepian
kesepuluh
keserasian
keseronokan
kesesakan
kesesuaian
kesetiaan
keshogunan
kesibukan
kesihatan
kesihatannya
kesilapan
kesimpulan
kesinambungan
kesinambungannya
kesipian
kestabilan
kesuburan
kesucian
kesudahan
kesukaan
kesukaran
kesulitan
kesultanan
kesuma
kesungguhan
kesusahan
kesusasteraan
kesyukuran
ketaatan
ketabahan
ketagihan
ketahanan
ketahui
ketakutan
ketam
ketangkasan
ketapang
ketara
ketat
ketawa
ketebalan
ketegangan
ketelusan
ketenangan
ketengah
ketenteraan
ketenteraman
ketentuan
ketepatan
keterangan
ketereh
keterlaluan
ketersediaan
ketetapan
ketiadaan
ketiak
ketibaan
ketidakadilan
ketidakpastian
ketidakpuasan
ketidakstabilan
ketidakupayaan
ketiga
ketiganya
ketika
ketil
ketinggalan
ketinggian
ketinggiannya
ketua
ketuai
ketuanan
ketuanya
ketuhanan
ketuhar
ketujuh
ketulan
ketumbar
ketumbukan
ketumpatan
ketupat
keturunan
keturunannya
keuangan
keugamaan
keunggulan
keunikan
keuntungan
keupayaan
keupayaannya
keusahawanan
keuskupan
keutamaan
keutuhan
kevin
kew
kewafatan
kewajiban
kewajipan
kewangan
kewarganegaraan
kewartawanan
kewibawaan
kewujudan
kewujudannya
key
keyakinan
keyboard
keynes
keys
kezaliman
kf
kfc
kg
kgb
kh
kha
khabar
khachmaz
khadijah
khai
khair
khairi
khairiah
khairil
khairuddin
khairul
khairy
khalayak
khaldun
khaled
khalid
khalifa
khalifah
khalil
khamis
khan
khanna
khao
kharkiv
khas
khasiat
khasnya
khat
khatib
khatijah
khattab
khatulistiwa
khayalan
khazanah
khemah
kheng
kher
khianat
khidmat
khidmatnya
khiladi
khilafah
khinzir
khir
khitan
khmer
kho
khomeini
khoo
khoon
khuatir
khurafat
khusus
khususnya
khutbah
khz
ki
kia
kiai
kiamat
kian
kiara
kiasan
kiat
kiblat
kiblatnya
kicap
kick
kicker
kicks
kid
kidal
kido
kids
kidul
kiev
kii
kijal
kijang
kikir
kil
kilang
kilas
kilasan
kilat
kilau
kilauan
kill
killed
killer
killing
kills
kilogram
kilometer
kim
kimanis
kimberley
kimberly
kimchi
kimetsu
kimi
kimia
kimpalan
kimura
kin
kinabalu
kinabatangan
kinase
kincir
kind
kindersley
kindle
kinenbi
kinetik
king
kingdom
kingdoms
kings
kingsley
kingston
kini
kinmen
kinrara
kinta
kipas
kira
kiraan
kirana
kiranya
kirby
kiri
kiribati
kiriman
kirinya
kirk
kisah
kisahnya
kisar
kishimoto
kiss
kit
kita
kitab
kitakyushu
kitar
kitaran
kitchen
kite
kitingan
kitts
kitty
kiub
kiva
kiwi
kj
kk
kl
klad
kladno
klan
klang
klasifikasi
klasik
klasikal
klatovy
klaus
klausa
klawang
klcc
klein
klender
klia
klien
klik
kling
klinik
klinikal
klinsmann
klip
klm
klon
klorida
klorin
klu
kluang
klub
klungkung
kluster
kluwer
km
kmn
kn
kne
knesset
knew
knight
knights
knock
knopf
knot
know
knowledge
known
knows
knox
knoxville
knuth
ko
kobayashi
kobe
koboi
koc
koch
kochi
kod
koda
kodansha
kode
kodiang
koes
kofu
kognitif
kogoro
koh
koharu
koi
koir
koji
kojima
kok
koko
kokpit
kokurikulum
kol
kola
kolaborasi
kolagen
kolam
kolar
kolej
koleksi
kolektif
kolera
kolesterol
koli
kolkata
kolonel
koloni
kolonial
kolum
kolumnis
kom
koma
komandan
komander
komando
komanwel
kombat
kombinasi
komedi
komen
komentar
komersial
komersil
komet
komik
komisi
komisioner
komite
komited
komitmen
komoditi
komodo
komp
kompak
kompang
kompas
kompeni
kompetitif
kompilasi
komplek
kompleks
komplikasi
komplot
komponen
komposer
komposisi
komposit
komprehensif
kompromi
komputer
komtar
komun
komune
komunikasi
komunis
komunisme
komunitas
komuniti
komunyang
komuter
kon
konami
konco
kondisi
kondo
kondom
kondominium
konduktor
kondusif
konfederasi
konfidan
konfiden
konfigurasi
konflik
konfrontasi
konfusianisme
kong
konga
konglomerat
kongo
kongres
kongsi
konkrit
kono
konoha
konon
kononnya
konotasi
konrad
konsensus
konsep
konser
konsert
konservasi
konservatif
konsesi
konsili
konsisten
konsol
konsonan
konsortium
konspirasi
konstabel
konstantin
konstantinopel
konstituen
konstitusi
konsul
konsulat
kontak
konteks
kontemporari
kontena
kontinjen
kontrak
kontraknya
kontraktor
kontras
kontroversi
kontroversial
konvensional
konvensyen
konvoi
konya
koo
kook
kool
koon
koordinasi
koordinat
koordinator
koperal
koperasi
kopi
kopitiam
kor
koran
korban
kord
kordata
kordinate
korea
korean
korek
koreografer
koreografi
koridor
kornea
korona
koronavirus
korporat
korps
korup
korupsi
korus
korvet
kos
kosa
kosakata
kosmetik
kosmik
kosmo
kosmologi
kosmos
kosong
kosovo
kostum
kot
kota
kotabaru
kotak
kotaku
kotamadya
kotanya
kotawaringin
koto
kotor
kotoran
kou
koubou
kov
kovalen
kowloon
koyak
koyote
kp
kpk
kpl
kpm
kpop
kr
kra
kraf
kraft
kraftangan
krai
krako
kramat
kramatjati
kramer
krau
krause
kreatif
kreativiti
kredibiliti
kredit
kreis
kremlin
kren
kreuznach
krew
kri
kriegsmarine
kriket
krim
krimea
kris
krisdayanti
krishna
krishnan
krisis
krismas
kristal
kristanto
kristen
kristian
kristin
kristus
kriteria
kriti
kritik
kritikal
kritikan
kritis
krl
kro
kroll
krome
kromosom
kronik
kronologi
krs
krti
kru
krueng
kruiser
krus
ks
ksk
kst
kt
ktm
ktmb
ku
kua
kuadratik
kuah
kuala
kuali
kualiti
kuan
kuang
kuantan
kuantitatif
kuantiti
kuantum
kuar
kuarantin
kuari
kuark
kuarters
kuarza
kuasa
kuasanya
kuat
kub
kubah
kubang
kubis
kubo
kubor
kubu
kubur
kuburan
kuch
kuching
kucing
kuda
kudat
kudeta
kudin
kudo
kudus
kue
kufah
kugiran
kuh
kui
kuih
kuil
kuiper
kuiz
kuku
kukuh
kukup
kukus
kul
kulai
kulat
kuli
kuliah
kulim
kulit
kulitnya
kulon
kultivar
kultur
kultus
kulup
kum
kumamoto
kuman
kumar
kumbahan
kumbang
kumpulan
kumpulannya
kun
kunak
kunci
kundang
kundasang
kung
kuning
kuningan
kunjungan
kunming
kuno
kuntau
kuntum
kunyit
kuo
kuomintang
kuota
kupang
kuprum
kupu
kura
kurang
kurangnya
kurator
kurau
kurdi
kurdish
kurdistan
kurikulum
kurma
kurnia
kurniaan
kurosaki
kursi
kursk
kursus
kurt
kurun
kurung
kurungan
kurus
kusatsu
kusta
kusuma
kusumi
kusyairy
kuta
kutai
kutip
kutipan
kutna
kutu
kutub
kutukan
kuwait
kv
kw
kwak
kwan
kwang
kwee
kwok
kwon
kwong
ky
kya
kyai
kyi
kyiv
kyle
kylie
kyo
kyodo
kyoto
kyrgyz
kyrgyzstan
kyu
kyubi
kyun
kyung
kyunghyang
kyushu
kz
kæn
l
la
lab
labah
label
labels
labem
labi
labis
labor
laboratories
laboratory
labour
labrador
labs
labu
labuan
labuhan
labuk
labyrinth
lac
lachin
lack
lada
ladam
ladang
laden
ladies
lady
ladyana
lafaz
laga
lagak
lagenda
lagi
lagoon
lagos
lagu
lagun
laguna
lagunya
lah
lahad
lahan
lahar
lahat
lahir
lahirlah
lahirnya
lahn
lahore
lai
laid
laila
lain
lainnya
laju
lajur
lak
lakaran
lake
lakes
laki
lakon
lakonan
lakonannya
laksa
laksamana
laksana
laktik
laku
lakukan
lal
lala
lalai
lalang
lalat
lali
lalu
laluan
laluannya
lam
lama
laman
lamanya
lamaran
lamb
lambak
lambang
lambat
lambda
lambert
lambor
lambung
lampau
lampiran
lampu
lampung
lan
lana
lanang
lanao
lanas
lancar
lancaran
lancaster
lance
lancer
lancet
lanchang
land
landak
landas
landasan
landau
landes
landesamt
landing
landkreis
landmark
lands
landscape
landschaft
landskap
lane
lang
langat
lange
langganan
langgar
langit
langka
langkah
langkap
langkasuka
langkat
langkawi
langsat
langsung
language
languages
languedoc
lanham
lanjut
lanjutan
lanka
lankaran
lanskap
lantai
lantang
lantaran
lantas
lantern
lantik
lantikan
lanun
lanzhou
lao
laos
lap
lapan
lapang
lapangan
lapar
lapis
lapisan
lapok
laporan
lapuk
laq
lar
lara
larang
larangan
laras
laravel
large
larger
largest
lari
larian
laris
larkin
larry
lars
larsen
larson
larut
larutan
larva
las
lasak
laser
laskar
last
lastauthoramp
lat
lata
latar
late
later
lateral
latest
latif
latifah
latiff
latihan
latin
latina
latino
latitud
latitude
latter
latvia
lau
lauenburg
laugh
lauk
laun
launch
launched
launches
launching
laura
laureates
laurel
lauren
laurence
laurent
laurie
lausanne
laut
lautan
lautnya
lava
lavender
law
lawak
lawan
lawang
lawannya
lawas
lawatan
lawe
lawrence
laws
lawson
lawyer
lay
layak
layan
layanan
layang
layar
layer
layla
layu
lazat
lazim
lazimnya
lazio
lb
lbf
lc
lcc
lccn
lcd
ld
ldg
ldp
le
lea
lead
leader
leaders
leadership
leading
leads
leaf
league
leah
leap
learn
learned
learning
lease
least
leave
leaves
leaving
lebah
lebai
lebak
lebam
lebanon
lebar
lebaran
lebarnya
lebat
lebih
lebihan
lebong
lebuh
lebuhraya
lebur
lecce
lecture
lectures
led
ledakan
ledang
ledger
lee
leeds
leela
left
leftenan
lefthanded
leg
lega
legacy
legal
legar
legasi
legeh
legend
legenda
legendary
legends
legion
legislatif
legislation
legislative
lego
leher
lehernya
lei
leicester
leiden
leigh
leipzig
leisure
lejang
lek
lekir
lekor
lekuk
lekukan
lela
lelah
lelaki
lelakinya
lelangit
lelongan
leluhur
lemah
lemak
leman
lemas
lembab
lembaga
lembah
lembangan
lembap
lembaran
lembing
lembu
lembut
lemon
lempeng
len
lena
lencana
lencongan
lendir
leng
lengan
lenggong
lengkap
lengkok
lengkuas
lengkung
lengkungan
length
lenin
leningrad
leninisme
lennon
lens
lensa
lent
lentera
lenyap
leo
leon
leonard
leonardo
leone
leong
leonid
leopard
leopold
lepa
lepar
lepas
lepasan
leper
lepidoptera
lepus
lereng
lerik
leroy
les
lesbian
lesen
lesley
leslie
lesotho
less
lesser
lesson
lessons
lestari
lestary
leste
lester
lesung
let
letak
letakkan
letaknya
lethal
letih
leto
letter
letters
letupan
letusan
leukemia
leung
lev
levant
level
levels
lever
leverkusen
levi
levice
levin
levine
levy
lew
lewat
lewis
lex
lexicon
lexington
ley
leyte
lez
lfp
lg
lgbt
lhasa
lhok
lhota
li
lia
liabiliti
liability
liam
lian
liang
liao
liaoning
liar
liat
lib
liberal
liberalisme
liberation
liberec
liberia
libertad
liberty
libraries
library
libre
libreto
librivox
libya
lice
license
licenses
licensing
licik
licin
licuala
lidah
liddell
lie
liechtenstein
liem
lies
lieutenant
liew
lif
life
lifestyle
lifetime
lift
liga
light
lightning
lights
ligue
liguria
lihat
lik
likas
like
likely
liku
lil
lili
lilin
lilit
lilitan
lille
lillian
lily
lim
lima
limah
limau
limbang
limbungan
limfa
limit
limited
limits
limousin
limpah
limpahan
lin
lina
lincah
lincoln
linda
lindsay
lindsey
lindung
lindungan
line
linear
liner
lines
lineup
ling
lingam
lingga
linggi
lingkaran
lingkungan
lingkup
lingua
linguistic
linguistics
linguistik
link
linked
linkedin
linkin
links
linnaeus
lintah
lintang
lintas
lintasan
linus
linux
lio
lion
lionel
liong
lions
lionsgate
lionsxii
lip
lipas
lipat
lipatan
lipid
lipis
lippincott
lips
liptovsky
lipur
liputan
liquid
lira
lirik
liriknya
lis
lisa
lisan
lisbon
list
lista
listed
listen
listing
listrik
lists
lit
litar
lite
liter
literacy
literal
literary
literasi
literature
lithuania
litium
lito
litome
little
littlefield
liturgi
liu
liur
live
lived
liverpool
livery
lives
livestock
living
livingstone
liwat
lix
liyana
liz
liza
lj
lkerung
lkerungsstandes
lktp
ll
lla
llc
lleida
ller
llorente
lloyd
lm
ln
lng
lni
lo
loan
lobak
lobi
lobus
loc
local
localpovertyphilippines
located
location
locations
loceng
lock
lockdown
locke
lockhart
lockheed
lodge
log
logam
logan
logaritma
loghat
logi
logic
logik
logistics
logistik
logo
logos
loh
lohong
loi
loir
loire
loiret
lois
loji
lok
lokal
lokasi
lokasinya
loke
loki
lokman
lokomotif
lola
loloq
lomba
lombard
lombardy
lombok
lombong
lompat
lompatan
lon
london
lone
lonely
long
longer
longest
longgar
longgokan
longitud
longman
longmans
longtitude
lonjakan
lontar
lontara
loo
look
looking
looks
loong
loop
lopes
lopez
lor
lord
lords
lore
lorentz
lorenz
lorenzo
lori
lorong
lorraine
los
lose
loses
losing
losong
loss
losses
lost
lot
loteri
lotte
lotus
lou
loud
louis
louisa
louise
louisiana
lounge
louny
lourdes
louvre
lovato
love
loved
lovely
lover
lovers
loves
loving
low
lowe
lower
loy
loyang
lozano
loze
lp
lpg
lr
lrt
ls
lsd
lt
lta
ltd
lte
lu
lua
luahan
luak
luang
luar
luaran
luarnya
luas
luasnya
lubang
lubis
lublin
lubnan
lubok
lubuk
luc
luca
lucah
lucas
lucerne
lucia
luciano
lucille
lucius
luck
lucky
lucu
lucy
ludwig
ludwigslust
luftwaffe
luger
lugo
luhur
lui
luigi
luis
luiz
luk
luka
lukas
luke
lukis
lukisan
lukman
lukut
lulu
lulus
lulusan
lumayan
lumba
lumpuh
lumpur
lumut
lun
luna
lunak
lunar
lunas
luncur
lund
lundang
lundu
lung
luo
lupa
lupin
lupus
luput
luqman
lurah
luruh
lurus
lut
luther
lutheran
lutsinar
lutut
luv
luwu
lux
luxembourg
luxury
luz
luzon
lv
lviv
lwn
ly
lycaenidae
lydia
lynch
lyndon
lynn
lynne
lynx
lyon
lyons
lyric
lyrical
lyrics
lı
m
ma
maa
maaf
maahad
maal
maand
maarof
mabel
mabini
mabuk
mac
macam
macapagal
macarthur
macau
macbeth
macdonald
macedon
macedonia
macfarlane
mach
machang
machap
machi
machida
machine
machines
macintosh
mack
mackay
mackenzie
macmillan
macpherson
macquarie
macrobrachium
macron
mad
mada
madagascar
madagaskar
madam
madame
madara
made
madeleine
madhuri
madhya
madinah
madison
madman
madness
madonna
madras
madrasah
madrid
madu
madura
maduro
madya
mae
maeda
mael
maembong
maestro
mafia
mag
magazine
magazines
magdalena
magelang
magellan
maggie
maghreb
maghrib
maghribi
magi
magic
magical
magik
magis
magma
magna
magnesium
magnet
magnetic
magnetik
magnificent
magnitud
magnitude
magnum
magnus
magsaysay
maguindanao
maguire
magyar
mah
maha
mahabharata
mahadi
mahaguru
mahal
mahalleh
mahang
mahani
maharaja
maharani
maharashtra
mahasiswa
mahathir
mahawangsa
mahayana
mahdi
maher
mahesh
mahfuz
mahir
mahkamah
mahkota
mahligai
mahmood
mahmoud
mahmud
mahram
mahsuri
mahu
mahukan
mahupun
mai
maia
maid
maiden
maidin
mail
maimonides
maimun
maimunah
main
mainan
maine
mainichi
mainkan
mainland
mainstream
maint
maintenance
mainz
mais
maisarah
maj
maja
majalah
majalengka
majapahit
majelis
majesty
maji
majid
majikan
majistret
majlis
majmuk
major
majoriti
majoritinya
majority
maju
majulah
mak
maka
makalah
makam
makan
makanan
makanannya
makasar
makassar
makati
makau
makcik
make
makedonia
maker
makers
makes
makhluk
maki
makin
making
makkah
maklum
maklumat
makmal
makmur
makna
maknanya
makoto
makro
maksiat
maksima
maksimum
maksud
maksudnya
maktab
maktoum
mal
mala
malabar
malacca
malah
malahan
malaikat
malaka
malam
malang
malangnya
malap
malapetaka
malar
malaria
malas
malawi
malay
malaya
malayalam
malayan
malayik
malays
malaysia
malaysiaairlines
malaysiakini
malaysian
malaysians
malcolm
maldives
maldonado
male
malek
malformed
malfoy
malhotra
mali
malik
maliki
malim
malin
malinau
malindo
mall
mallorca
malone
malta
malu
maluku
mama
mamak
mamalia
mamamoo
maman
mamat
mambang
mambo
mami
mamluk
mammal
mammalian
mammals
mampan
mampat
mampatan
mampu
mampukah
man
mana
manado
manaf
management
manager
managing
manajemen
manakah
manakala
manan
manap
manatsu
manau
mancha
manche
manchester
manchu
manchuria
manda
mandailing
mandala
mandalay
mandar
mandarin
mandat
mandatori
mandela
mandi
mandiri
mandy
mane
manfaat
manfred
mang
manga
mangaka
mangan
mangga
manggis
mangkat
mangkin
mangku
mangkuk
mangsa
mangsanya
manhattan
mani
mania
manifestasi
manifesto
manik
manila
manipulasi
manir
manis
manisan
manitoba
manja
manjung
manly
mann
manna
mannheim
manning
manny
mano
manoj
manor
mans
mansa
mansion
mansor
mansur
mantan
mantap
mantel
mantera
manteri
mantin
mantra
manu
manual
manuel
manufacturing
manuscript
manuscripts
manusia
manuskrip
many
mao
maori
map
mapan
maplandia
maple
mapo
mapper
mapping
maps
mar
mara
maradona
marah
marak
maran
marang
marathi
marathon
maraton
marc
marca
marcel
marcelo
march
marche
marcia
marco
marconi
marcos
marcus
mardi
mare
maret
marga
margaret
margin
margot
marguerite
marhum
mari
maria
mariah
mariam
marian
mariana
mariani
marianne
mariano
marie
marikh
mariko
marilyn
marin
marina
marine
mariner
marines
marinir
marino
marinos
mario
marion
marisa
marissa
maritim
maritime
maritimes
marius
marjorie
mark
markah
markas
market
marketing
markets
marko
marks
markup
markus
marley
marmar
marne
maro
maroubra
marquis
marriage
married
marriott
marry
mars
marsden
marseille
marsh
marsha
marshal
marshall
marsyal
mart
marta
martabat
martapura
martha
marti
martial
martian
martin
martinez
martinique
martins
martinus
marty
maru
maruah
marudi
marudu
marvel
marvin
marwan
marx
marxis
marxisme
mary
maryam
maryland
marzuki
mas
masa
masai
masak
masakan
masaki
masala
masalah
masalahnya
masally
masam
masanya
masashi
masbate
masehi
mashima
masih
masihi
masin
masing
masjid
masjidil
mask
masked
maskot
maskulin
mason
mass
massa
massachusetts
massacre
massimo
massive
master
masterchef
mastering
masterpiece
masters
mastif
mastura
masuk
masukan
masukkan
masuknya
maswings
masya
masyarakat
masyarakatnya
masyhur
mat
mata
matahari
matang
matanya
matapelajaran
mataram
matawang
match
matches
mate
matematik
mateo
material
materials
math
mathbf
mathematical
mathematics
mathias
mathrm
mati
matic
matilda
matius
matlamat
matlamatnya
mato
matra
matriks
matrikulasi
matrix
matsuda
matsui
matsumoto
matsuri
matsushita
matt
matteo
matter
matters
matthew
matthews
matthias
maturity
mau
maugham
maulana
maulidur
maung
maupun
maureen
maurice
mauricio
mauritania
mauritius
mauro
maut
maverick
mawar
mawas
mawi
max
maxim
maximilian
maximum
maximus
maxis
maxwell
may
maya
mayang
mayat
mayatnya
maybank
maybe
mayenne
mayer
mayo
mayor
mayors
mayu
mayudin
mayuri
maz
mazda
mazhab
mazlan
mazlein
mazmur
maznah
mazraeh
mb
mba
mbappe
mbc
mbox
mbpj
mc
mca
mcadams
mccarthy
mccartney
mccormick
mccune
mcdonald
mcdonnell
mcdowell
mcfarland
mcgill
mcgraw
mcgregor
mckay
mckenzie
mckinley
mclaren
mclean
mcmahon
mcnamara
mcnary
mcnulty
mcu
md
mdb
me
mead
meade
mean
meaning
means
measat
measure
measurement
measures
measuring
meat
mecca
mecha
mechanical
mechanics
mechanism
mechanisms
mecklenburg
mecklenburgische
med
medal
medals
medan
medang
media
mediacorp
median
medianet
mediawiki
medical
medicinal
medicine
medien
medieval
medina
meditasi
mediterranean
medium
medley
mee
meet
meeting
meets
meg
mega
megah
megan
megasite
megat
megawati
megawatt
meghan
megumi
mehdi
mehmed
mehmet
mehra
mehta
mei
meiji
mein
mej
meja
mejar
mek
mekah
mekanik
mekanikal
mekanisma
mekanisme
mekar
mekarjaya
mekarsari
mekong
mel
mela
melabur
melahirkan
melainkan
melaka
melakar
melakonkan
melaksanakan
melakukan
melakukannya
melalui
melaluinya
melamar
melambangkan
melambatkan
melambung
melampau
melampaui
melanau
melancarkan
melancong
melanda
melanggar
melangkah
melangkaui
melangsungkan
melanie
melanjutkan
melantik
melapor
melaporkan
melarang
melarikan
melati
melatih
melaungkan
melawan
melawat
melawati
melayakkan
melayan
melayani
melayari
melayu
melbourne
melebarkan
melebihi
meledak
melegakan
melekat
melemahkan
melemparkan
melencongkan
melengkapi
melengkapkan
melengkung
melepasi
melepaskan
melesenkan
melestarikan
meletak
meletakkan
meletakkannya
meletop
meletup
meletupkan
meletus
meletusnya
melewar
melewati
melibatkan
melihat
melihatkan
melihatnya
melimpah
melinda
melindungi
melindunginya
melintang
melintas
melintasi
meliputi
melisa
melissa
melitupi
melly
melobi
melodi
melody
melompat
melon
melonjak
melonjakkan
melontar
melor
meluahkan
meluangkan
meluas
meluaskan
melucutkan
melukis
meluluskan
melumpuhkan
meluncur
melupakan
melur
melville
melvin
mem
memaafkan
memacu
memadai
memadam
memadamkan
memahami
memainkan
memajukan
memakai
memakan
memakannya
memaklumkan
memaksa
memaksanya
memaksimumkan
memaksudkan
memalukan
memanah
memanaskan
memancarkan
memancing
memandang
memandangkan
memandu
memanfaatkan
memang
memanggil
memanggilnya
memangku
memanipulasi
memanjang
memanjangkan
memanjat
memansuhkan
memantapkan
memantau
memaparkan
memarahi
memartabatkan
memasak
memasang
memasarkan
memastikan
memasuki
memasukkan
mematahkan
mematikan
mematuhi
membabitkan
membaca
membacakan
membahagi
membahagikan
membahas
membahayakan
membaik
membaiki
membakar
membalas
membalikkan
membaling
membandingkan
membanggakan
membangkitkan
membangun
membangunkan
membanjiri
membantah
membanteras
membantu
membantunya
membara
membasmi
membasuh
membatalkan
membatasi
membawa
membawakan
membawanya
membayangkan
membayar
membebankan
membebaskan
membekalkan
membeku
membela
membelah
membelanjakan
membeli
membelinya
membelok
membenarkan
membenarkannya
membenci
membendung
membentang
membentangkan
membentuk
member
memberangsangkan
memberhentikan
memberi
memberikan
memberikannya
memberinya
memberitahu
memberitahunya
memberontak
members
membership
membersihkan
membesar
membesarkan
membetulkan
membezakan
membezakannya
membiak
membiarkan
membiayai
membicarakan
membida
membimbangkan
membimbing
membina
membinasakan
membincangkan
membintangi
memboikot
membolehkan
membolehkannya
membongkar
membran
membuahkan
membuang
membuat
membuatkan
membuatnya
membubarkan
membuka
membuktikan
membunuh
membunuhnya
memburu
memburukkan
meme
memecah
memecahkan
memecat
memecut
memegang
memelihara
memeluk
memenangi
memenanginya
memenangkan
memendekkan
mementingkan
memenuhi
memerang
memerangi
memerangkap
memerhati
memerhatikan
memerihalkan
memerikan
memeriksa
memerintah
memerintahkan
memerlukan
memesan
memeterai
memetik
memfailkan
memfokuskan
memihak
memikat
memikirkan
memikul
memilih
memiliki
memimpin
meminati
meminda
memindahkan
meminimumkan
meminjam
meminjamkan
meminta
memintanya
memintas
meminum
memisahkan
memo
memodenkan
memohon
memoir
memoirs
memorandum
memori
memorial
memories
memory
memotong
mempamerkan
mempelajari
mempelam
mempelbagaikan
mempelopori
mempengaruhi
mempengerusikan
memperbaharui
memperbaiki
mempercayai
mempercepat
mempercepatkan
mempergunakan
memperhatikan
memperincikan
memperingati
memperjuangkan
memperkasakan
memperkembangkan
memperkenalkan
memperkuat
memperkukuhkan
memperlahankan
memperlihatkan
memperluas
memperluaskan
memperoleh
memperolehi
mempersembahkan
mempersiapkan
mempersoalkan
mempertahankan
mempertaruhkan
mempertikaikan
mempertimbangkan
mempertingkatkan
memperuntukkan
memphis
mempopularkan
mempromosi
mempromosikan
memproses
memprotes
mempunyai
memuaskan
memuat
memuatkan
memudahkan
memudaratkan
memuja
memuji
memujuk
memukau
memukul
memulai
memulakan
memulangkan
memulihkan
memuncak
memungkinkan
memungut
memupuk
memusnahkan
memutuskan
men
menafikan
menafsirkan
menahan
menaik
menaiki
menaikkan
menaiktaraf
menaja
menakjubkan
menakluk
menakluki
menaklukkan
menakutkan
menamakan
menamakannya
menamatkan
menambah
menambahkan
menambahkannya
menampakkan
menampilkan
menampung
menanam
menandakan
menandatangani
menandingi
menang
menangani
menanggalkan
menangguhkan
menanggung
menangis
menangkap
menangkapnya
menangkis
menanti
menantu
menantunya
menanyakan
menapis
menara
menari
menarik
menariknya
menaruh
menasihati
menasihatkan
menawan
menawar
menawarkan
menayangkan
mencabar
mencabut
mencadangkan
mencakup
mencakupi
mencalonkan
mencampurkan
mencapai
mencari
mencarinya
mencatat
mencatatkan
menceburi
mencecah
mencederakan
mencegah
mencemarkan
menceraikan
menceritakan
mencerminkan
menceroboh
mencetak
mencetus
mencetuskan
mencintai
mencintaiku
mencintaimu
mencipta
menciptakan
mencirikan
mencium
mencuba
mencuci
mencukupi
menculik
mencuri
mendadak
mendaftar
mendaftarkan
mendahului
mendaki
mendakwa
mendalam
mendalami
mendapan
mendapat
mendapati
mendapatkan
mendarat
mendasari
mendatang
mendatangkan
mendatar
mendebarkan
mendedahkan
mendedikasikan
mendefinisikan
mendekati
mendel
mendendangkan
mendengar
menderita
menderma
mendermakan
mendes
mendesak
mendiami
mendiang
mendidih
mendidik
mendirikan
mendler
mendominasi
mendorong
mendoza
menduduki
mendukung
menebus
menegak
menegakkan
menegaskan
menegur
menekan
menekankan
menelan
menelefon
meneliti
menemani
menembak
menembusi
menempa
menempah
menempati
menempatkan
menempuh
menemui
menemukan
menenangkan
menendang
menengah
menengahnya
menenggelamkan
menentang
menentangnya
menentu
menentukan
menepati
menerajui
menerangkan
menerapkan
menerbangkan
menerbit
menerbitkan
menerima
menerimanya
meneroka
menerokai
menerus
menerusi
meneruskan
menetap
menetapkan
menetas
menewaskan
meng
mengabaikan
mengacarakan
mengadakan
mengadap
mengadaptasi
mengadili
mengadopsi
mengadu
mengagihkan
mengagumi
mengagumkan
mengahwini
mengaitkan
mengajak
mengajar
mengajarkan
mengajarnya
mengaji
mengajukan
mengakhiri
mengakibatkan
mengakses
mengaktifkan
mengaku
mengakui
mengalah
mengalahkan
mengalakkan
mengalami
mengalih
mengalihkan
mengalir
mengalirkan
mengalu
mengamalkan
mengamati
mengambang
mengambil
mengambilnya
mengamuk
menganalisis
mengancam
mengandaikan
mengandung
mengandungi
menganggap
menganggapnya
menganggarkan
menganggotai
mengangkat
mengangkut
menganjur
menganjurkan
mengantikan
menganugerahkan
menganut
mengapa
mengarah
mengarahkan
mengarang
mengasah
mengasaskan
mengasingkan
mengatakan
mengatasi
mengatur
mengaut
mengawal
mengawan
mengawasi
mengebom
mengecam
mengecewakan
mengecualikan
mengedar
mengedarkan
mengehadkan
mengejar
mengejek
mengejut
mengejutkan
mengekalkan
mengekang
mengekori
mengeksploitasi
mengeksport
mengelak
mengelakkan
mengelaskan
mengelilingi
mengelirukan
mengeluarkan
mengemas
mengembalikan
mengembang
mengembangkan
mengembangkannya
mengembara
mengemudi
mengemukakan
mengena
mengenai
mengenainya
mengenakan
mengenal
mengenali
mengenalpasti
mengenang
mengendahkan
mengendali
mengendalikan
mengepam
mengepung
mengerahkan
mengerikan
mengerjakan
mengerti
mengesahkan
mengesan
mengesyaki
mengesyorkan
mengetahui
mengetahuinya
mengetengahkan
mengetepikan
mengetuai
mengetuk
menggabungkan
menggagalkan
menggaji
menggalakkan
menggalas
menggali
menggambarkan
menggambarkannya
menggandakan
mengganggu
mengganti
menggantikan
menggantikannya
menggantung
menggariskan
menggelar
menggelarkan
menggemari
menggembirakan
menggerakkan
menggesa
menggigit
menggoda
menggoreng
menggubah
menggubal
menggugat
menggugurkan
menggulingkan
mengguna
menggunakan
menggunakannya
menghabiskan
menghadap
menghadapi
menghadiahkan
menghadiri
menghadkan
menghafal
menghala
menghalang
menghalangnya
menghalau
menghampiri
menghancurkan
menghantar
menghantarnya
menghapuskan
mengharamkan
mengharapkan
menghargai
mengharumkan
mengharungi
menghasilkan
menghasut
menghayati
menghembuskan
menghendaki
menghentam
menghentikan
menghiasi
menghiburkan
menghidangkan
menghidap
menghidapi
menghidupkan
menghilang
menghilangkan
menghimpunkan
menghina
menghindari
menghiraukan
menghisap
menghitung
menghormati
menghubungi
menghubungkan
menghukum
menghulurkan
menghuni
menghuraikan
mengidap
mengikat
mengiktiraf
mengikut
mengikuti
mengikutinya
mengilhamkan
mengimbangi
mengimbas
mengimport
menginap
mengingat
mengingati
mengingatkan
menginginkan
mengingkari
mengintegrasikan
mengintip
mengira
mengirim
mengirimkan
mengiringi
mengisahkan
mengisi
mengistiharkan
mengisytiharkan
mengizinkan
mengkagumkan
mengkaji
mengkhianati
mengkhusus
mengkhususkan
mengklasifikasikan
mengkritik
mengkuang
mengoperasikan
mengorak
mengorbankan
mengorbit
mengosongkan
menguasai
menguatkan
menguatkuasakan
mengubah
mengubahnya
mengubahsuai
mengubati
mengucapkan
mengugut
menguji
mengukir
mengukuhkan
mengukur
mengulang
mengulangi
mengulas
mengumpul
mengumpulkan
mengumumkan
mengunakan
mengunci
mengundang
mengundi
mengundur
mengundurkan
mengungguli
mengungkapkan
mengunjungi
menguntungkan
mengupah
mengurangi
mengurangkan
mengurniakan
mengurung
mengurus
menguruskan
mengusahakan
mengusir
mengusulkan
mengutamakan
mengutip
mengutuk
mengutus
menikah
menikahi
menikam
menikmati
menilai
menimba
menimbang
menimbulkan
menimpa
menindas
meninggal
meninggalkan
meninggalkannya
meninggikan
meningkat
meningkatkan
meningkatnya
meninjau
menipu
meniru
menitahkan
meniti
meniup
menjabat
menjadi
menjadikan
menjadikannya
menjaga
menjajah
menjalani
menjalankan
menjalar
menjalin
menjalinkan
menjamin
menjana
menjangka
menjangkakan
menjangkau
menjangkiti
menjanjikan
menjarah
menjaringkan
menjatuhkan
menjauhi
menjauhkan
menjawab
menjawat
menjayakan
menjejak
menjejaki
menjejaskan
menjelajah
menjelang
menjelaskan
menjelma
menjemput
menjerit
menjimatkan
menjual
menjualnya
menjuarai
menjulang
menjumpai
menjunam
menjunjung
menjurus
menolak
menolaknya
menolong
menon
menonjol
menonjolkan
menonton
mens
mensasarkan
menstabilkan
ment
mentadbir
mentafsir
mentafsirkan
mentah
mentakab
mentakrifkan
mental
mentari
mentega
menteng
menteri
menterinya
menterjemah
menterjemahkan
mentioned
mentol
mentor
mentua
menu
menuai
menubuhkan
menuduh
menugaskan
menuju
menukar
menukarkan
menular
menulis
menuliskan
menumbangkan
menumbuk
menumpang
menumpaskan
menumpu
menumpukan
menunaikan
menunda
menundukkan
menunggang
menunggu
menunjuk
menunjukan
menunjukkan
menuntut
menurun
menuruni
menurunkan
menurut
menuruti
menurutnya
menusuk
menutup
menutupi
menyahut
menyaingi
menyajikan
menyakinkan
menyakiti
menyakitkan
menyaksikan
menyala
menyalahgunakan
menyalahi
menyalahkan
menyalakan
menyalin
menyalurkan
menyamai
menyamakan
menyaman
menyamar
menyambung
menyambungkan
menyambut
menyampaikan
menyandang
menyangka
menyangkal
menyanyi
menyanyikan
menyapu
menyara
menyarankan
menyasarkan
menyatakan
menyatukan
menyayangi
menyebabkan
menyebabkannya
menyebar
menyebarkan
menyebelahi
menyeberang
menyeberangi
menyebut
menyebutkan
menyebutnya
menyedari
menyedarkan
menyediakan
menyedihkan
menyejukkan
menyekat
menyeksa
menyelam
menyelamat
menyelamatkan
menyelamatkannya
menyelaras
menyelaraskan
menyelenggara
menyelenggarakan
menyelesaikan
menyelia
menyelidik
menyelinap
menyelubungi
menyeluruh
menyemak
menyembah
menyembuhkan
menyembunyikan
menyempurnakan
menyenangkan
menyenaraikan
menyentuh
menyepi
menyerah
menyerahkan
menyerang
menyerap
menyerbu
menyerlah
menyerlahkan
menyeronokkan
menyertai
menyertainya
menyertakan
menyeru
menyerupai
menyesal
menyesuaikan
menyetujui
menyewa
menyiapkan
menyiarkan
menyiasat
menyifatkan
menyimpan
menyimpang
menyimpulkan
menyinggung
menyingkir
menyingkirkan
menyoal
menyokong
menyuarakan
menyukai
menyukarkan
menyumbang
menyumbangkan
menyunting
menyurat
menyuruh
menyusahkan
menyusul
menyusuli
menyusun
menyusup
menyusuri
menyusut
menziarahi
meor
mer
meragui
meragukan
meragut
merah
merahsiakan
meraih
meraikan
merak
merakam
merakamkan
meramal
meramalkan
merampas
merancang
merangin
merangka
merangkap
merangkul
merangkumi
merangsang
merantau
meranti
merapatkan
merapi
merasa
merasai
merasakan
merasmikan
merata
merawat
merayakan
merayu
merbah
merbahaya
merbau
merbok
mercedes
merchant
merck
mercu
mercun
mercury
mercy
merdeka
mere
merealisasikan
merebak
merebut
meredakan
meredith
mereka
merekabentuk
merekodkan
merekrut
merempuh
merendahkan
merentangi
merentas
merentasi
mereput
meresap
merger
meri
meriah
meriam
merican
meridian
merilis
merindu
meringankan
merintis
merit
meriwayatkan
merlimau
merlin
mermaid
merogol
merokok
merompak
meronda
merong
merosakkan
merosot
merpati
merriam
merrill
merry
mers
mersing
merta
mertajam
mertua
mertuanya
meru
meruap
merubah
merugikan
merujuk
merujukkan
merumuskan
meruncing
merundingkan
merupakan
mes
mesa
mesej
mesin
mesingan
mesir
mesiu
mesjid
meski
meskipun
mesopotamia
mesra
message
messenger
messi
messier
messina
mesti
mestilah
mesyuarat
met
meta
metabolik
metabolisme
metacritic
metadata
metafizik
metafora
metal
metallica
metana
meteor
meteorologi
meteorological
meteorology
meter
meterai
method
methodist
methods
metode
metodologi
metrik
metro
metropolis
metropolitan
metrowealth
metz
meunasah
meurthe
meuse
mewah
mewajibkan
mewakili
mewarisi
mewujudkan
mexican
mexicana
mexico
meyakinkan
meyer
mez
mf
mg
mgm
mh
mhz
mi
mia
miami
mian
mic
mica
michael
michalovce
michel
michele
michelle
michigan
michishige
mick
mickey
micro
microbiology
microsoft
micrurus
mid
middle
middleton
midi
midland
midnight
midway
mie
mifflin
mig
might
mighty
migrasi
migration
miguel
mika
mikael
mikail
mike
mikhail
miki
mikoyan
mikro
mikrob
mikrobiologi
mikrofon
mikroorganisma
mikropemproses
mikroskop
mikroskopik
miku
mil
mila
milan
milano
mild
mile
milenium
miles
milestone
milestones
miley
miliar
milik
miliki
miliknya
milimeter
militan
military
militer
militia
milito
milk
milky
mill
millennium
miller
millet
million
millionaire
millions
mills
milne
milo
milos
milton
milwaukee
mimaropa
mimi
mimpi
min
mina
minah
minahasa
minami
minamoto
minang
minangkabau
minas
minat
minatnya
minato
mind
minda
mindanao
mindoro
minds
mine
minecraft
mineral
mines
ming
minggu
mingguan
minh
mini
minicipal
minima
minimum
mining
minister
ministers
ministry
minit
minneapolis
minnesota
minnie
minogue
minor
minoriti
minority
minsk
mint
minta
minum
minuman
minute
minutes
minyak
mio
mior
miosen
mir
mira
miracle
mirage
mirai
miranda
miri
miriam
mirip
mirnawati
mirror
mirza
mis
misa
misai
misaki
misalnya
misbach
misbun
misc
mischa
misha
mishra
misi
misil
misinya
miskin
miso
miss
missile
missiles
missing
mission
missions
mississippi
missouri
missworld
mister
misteri
mistik
mistral
mit
mitch
mitchell
mithridates
mito
mitochondrial
mitokondria
mitologi
mitos
mitra
mitsubishi
mitsui
miu
miura
mix
mixed
miyagi
miyamoto
miyazaki
miyuki
mizal
mizan
mizuki
mj
mk
mky
ml
mlada
mm
mmc
mms
mn
mnc
mnet
mnras
mo
mob
mobil
mobile
mobiliti
mochtar
mockingjay
mod
modal
mode
model
modeling
models
modem
moden
modena
modern
modi
modified
modul
modular
module
moe
mogadishu
mogok
moh
mohaideen
mohamad
mohamed
mohammad
mohammed
mohan
mohd
mohon
mohor
mohsin
moi
mojang
mojo
mok
mokhtar
mol
moldavia
moldova
mole
molecular
molek
molekul
molina
molise
molly
moluska
mom
momen
moment
moments
momentum
momo
momogun
mon
mona
monaco
monaghan
monarchy
monarki
monash
monday
monde
monetary
money
mong
mongol
mongolia
mongolian
mongondow
monica
monier
monitor
monitoring
monk
monkey
mono
monogatari
monograph
monographs
monoksida
monopoli
monopoly
monorail
monorel
monroe
monster
monsters
monsun
mont
montana
montane
monte
montedio
montenegro
montes
montevideo
montgomery
month
monthly
months
montre
montreal
monty
monumen
monument
monumental
monuments
monyet
moo
mood
moody
moon
moonlight
moor
moore
moovit
mor
mora
moral
morales
moran
moravia
morbihan
more
moreno
morfem
morfologi
morgan
mori
morioka
morley
mormon
morning
moro
morocco
morowali
morphology
morris
morrison
morrow
morse
mort
mortal
mortality
mortar
mortimer
morton
mos
mosaic
moscow
moselle
moses
moshe
moson
mosque
mosques
moss
most
mostly
mosul
mother
motif
motilal
motion
motivasi
moto
motogp
motor
motorola
motors
motosikal
motto
mou
mount
mountain
mountains
mountbatten
mourinho
mouse
moussa
mouth
moutong
move
moved
movement
movements
moves
movie
movies
moving
moyang
moyangnya
mozambique
mozart
mozilla
mp
mpeg
mph
mpico
mpr
mprs
mps
mpv
mr
mrs
mrsm
mrt
ms
msa
msc
msg
msk
msn
msnbc
mssd
mstar
mt
mtv
mu
muadzam
muafakat
muammar
muar
muara
muaro
muat
muatan
muawiyah
muaz
mubaligh
mubarak
much
mud
muda
mudah
mudahnya
mudanya
mudik
mueang
mueller
muflis
mufrad
mufti
mugabe
muggle
mughal
muh
muhajirin
muhamad
muhammad
muhammadi
muhammadiyah
muhammed
muharam
muharram
muhd
muhibbah
muhibbuddin
muhriz
muhyiddin
mui
muir
muis
mujahidin
muka
mukah
mukanya
mukasurat
mukerji
mukesh
mukherjee
mukhriz
mukhtar
mukim
mukjizat
mukmin
muko
muktamad
muktamar
mukti
mula
mulai
mulakan
mulan
mulanya
mulia
muller
multan
multi
multimedia
multinasional
multiple
mulu
mulut
mulutnya
mulya
mumbai
mummy
mun
muna
munafik
munasabah
munawir
muncul
munculnya
muncung
mundo
mundur
mungkin
munich
municipal
municipalities
municipality
munir
munisipaliti
munro
munshi
muntah
muppets
murad
murah
murai
murakami
mural
murat
murcia
murder
murdoch
murid
muridnya
murka
murni
murphy
murray
murtad
murung
murut
mus
musa
musafir
musang
muscat
muscle
muse
museum
museums
musharraf
musi
musibah
music
musica
musical
musician
musik
musim
musk
musketeers
muslihat
muslim
muslimah
muslimat
muslimin
muslims
musnah
mussolini
must
musta
mustafa
mustaffa
mustahak
mustahil
mustang
mustapa
mustapha
mustaqim
mustard
mustaza
mustika
musuh
musuhnya
musume
musyawarah
musytari
mut
mutakhir
mutalib
mutant
mutasi
mutiara
mutlak
mutlaknya
muttalib
muttaqin
mutu
mutual
muzaffar
muzik
muzikal
muziknya
muzium
mv
mw
mwave
mx
my
mya
myairline
myanmar
mycensus
mydin
myers
mygeoname
myinfotaip
mymetro
myparlimen
myself
myspace
mysteries
mysterious
mystery
myt
myth
mythology
myths
myung
myx
n
na
naa
naam
nabawi
nabi
nabil
nabila
nabilah
nach
nacional
nad
nada
nadi
nadia
nadim
nadine
nadir
nadira
nadiya
nadu
nae
nafas
nafi
nafis
nafkah
nafsu
naga
nagano
nagar
nagari
nagasaki
nagato
nagorno
nagoya
nah
nahas
nahu
nai
naib
naik
naim
nair
nairobi
najam
najib
najis
najiy
najwa
nak
naka
nakajima
nakal
nakamura
nakano
naked
nakhoda
nakhon
naluri
nam
nama
namamu
namanya
namco
name
named
names
namewee
nami
namibia
namida
naming
nampak
nampaknya
namun
nan
nana
nanas
nanchang
nancy
nanda
nang
nanga
nanggro
nanggroe
nangka
nani
naning
nanjing
nanning
nano
nanoha
nantes
nanti
nanyang
naomi
napier
naples
napoleon
napoli
nar
nara
narathiwat
naratif
narayan
narendra
narita
narkotik
narnia
narrative
naruto
nas
nasa
nasar
nasaruddin
nascar
nasdaq
nash
nasha
nashville
nasi
nasib
nasibnya
nasihat
nasional
nasionalis
nasionalisme
nasir
nasiruddin
naskah
naskhah
nasr
nassau
nasser
nast
nasution
nasyid
nat
natal
natalia
natalie
natasha
nate
nath
nathan
nathaniel
nation
national
nationale
nationalism
nationalist
nationalita
nations
nationwide
native
natl
nato
natrah
natrium
natsir
natsu
natsuki
natsumi
natur
natural
naturalis
nature
naufal
naungan
nauru
nautika
nautikal
naval
navarre
navarro
naver
navigasi
navigation
navigator
navy
nawab
nawawi
nawi
naypyidaw
naza
nazar
nazeera
nazel
nazi
nazim
nazionale
nazir
nazmi
nazri
nazrin
nb
nba
nbc
nc
ncbi
nchen
nchengladbach
nchez
ncipe
ncov
ncr
nd
nde
nden
ndez
ndtv
ne
neal
near
nearly
nebraska
nebula
nec
necessary
neck
neckar
ned
nederland
nederlands
nee
need
needed
needham
needs
neelofa
negara
negaraku
negaranya
negarawan
negatif
negative
negeri
negerinya
negri
negro
negros
nehru
neighborhood
neighbourhoods
neil
neill
nek
nekad
nel
nelayan
nell
nellie
nelson
nelydia
nemo
nen
nenas
nenek
neneknya
neo
neolitik
neon
nepal
neppol
neptun
neptune
neraka
nerang
nero
nerus
nerve
nes
nest
nestle
net
netanyahu
netflix
netherlands
netizen
network
networks
neucha
neumann
neural
neuro
neurologi
neurology
neuron
neurosains
neuroscience
neustadt
neutral
neutrino
neutron
nevada
never
neville
nevis
new
newark
newcastle
newcomer
newest
newfoundland
newly
newman
newport
news
newsasia
newsen
newsletter
newspaper
newspapers
newsroom
newsweek
newswire
newton
next
nexus
nez
nfl
ng
nga
ngah
ngan
ngarai
ngasri
ngc
ngel
ngeri
ngo
ngu
ngurah
nguye
nguyen
nh
nha
nhat
nhk
nhs
ni
nia
niaga
niah
nias
niat
niatnya
nibong
nic
nica
nicaragua
nice
nicholas
nichols
nicholson
nick
nickelodeon
nicky
nico
nicol
nicola
nicolas
nicole
nicolson
nie
niedersachsen
niels
nielsen
nigel
niger
nigeria
night
nightmare
nights
nih
nihon
niigaki
niigata
nik
nikah
nike
nikel
niki
nikita
nikkei
nikki
nikmat
nikola
nikolai
nikon
nil
nila
nilai
nilainya
nilam
nile
nimitz
nin
nina
nine
nineteenth
ning
ningbo
ninja
nino
nintendo
ninth
nio
niosh
nipah
nipis
nipon
nippon
nirmala
nirwana
nis
nisa
nisaa
nisan
nisbah
nishi
nishimura
nissan
nist
nitra
nitrat
nitrik
nitrogen
nixon
nizam
nizar
nj
nk
nl
nlb
nm
nmb
nme
nmi
no
noaa
noah
nobat
nobel
nobelprize
nobita
noble
nobody
nobunaga
noc
nod
noda
node
noel
noh
noir
noise
nok
nokia
nolan
nom
nomad
nombor
nomenclature
nominal
nominasi
nominated
nomination
nominations
nominees
nomor
non
nona
noncog
none
nong
noor
noord
noordin
nor
nora
noraini
noraniza
norbert
nord
nordfriesland
nordiana
nordic
nordin
norfolk
norhayati
norma
normah
normal
norman
normandie
normandy
norodom
norris
norse
norte
north
northeast
northern
northrop
northwest
norton
norway
norwegian
norwich
nos
nostalgia
not
nota
notable
notasi
note
notebook
noted
notes
nothing
notice
notices
noticias
notis
notre
nottingham
nou
nouvelle
nov
nova
novara
nove
novel
novelis
novelnya
novels
november
novgorod
novi
novo
novosti
novy
now
nozomi
np
npc
npr
npsn
nr
ns
nscb
nso
nss
nst
nsw
nt
nther
ntsc
ntv
nu
nubia
nuclear
nueva
nuevo
nugroho
nuh
nui
nujum
nukilan
nuklear
nukleus
num
number
numbers
numeric
numerous
nun
nunukan
nur
nurani
nuremberg
nurfaizah
nurhaliza
nuri
nurin
nurse
nursing
nurul
nus
nusa
nusantara
nut
nutrien
nutrisi
nutrition
nv
nw
ny
nya
nyah
nyahkekaburan
nyai
nyalaan
nyaman
nyamuk
nyanyi
nyanyian
nyanyiannya
nyaris
nyata
nyatakan
nyatoh
nyawa
nyawanya
nyc
nye
nyi
nyior
nymburk
nyong
nyonya
nyse
nytimes
nyu
nz
o
oag
oak
oakland
oaks
oasis
oat
ob
obama
obe
oberon
oberst
obesiti
obesity
obituary
object
objects
objek
objektif
oblast
obor
observation
observations
observatory
observer
oc
oca
occidental
occitan
occupation
occupational
occupied
ocean
oceania
oceanic
oceans
och
oclc
oct
octavia
octavian
october
od
oda
odd
oder
odyssey
oe
oecd
of
ofc
off
offensive
offer
offered
offers
office
officer
officers
offices
official
officially
officials
offshore
oficial
often
og
ogawa
ogg
oghuz
ogo
ogos
oh
ohio
oi
oic
oil
ois
oise
oita
ok
okada
okay
okayama
okey
okezone
oki
okinawa
oklahoma
okolie
okres
oksida
oksigen
okt
oktaf
oktober
oku
ol
ola
olah
olahan
olahraga
olak
old
older
oldest
ole
oleg
oleh
olehnya
olga
oli
olimpik
olive
oliveira
oliver
olivia
olivier
olok
olomouc
olsen
olson
olya
olympia
olympiad
olympian
olympic
olympics
olympique
olympus
om
oman
omar
ombak
omboh
omega
omiya
omnibus
on
onaaaaiaaj
once
one
ones
oneworld
ong
oni
online
only
onn
onna
ono
ons
ontario
oo
ooi
oort
op
opal
opava
open
opened
opening
opens
openstreetmap
opera
operasi
operasinya
operate
operating
operation
operational
operations
operator
opie
opinion
opportunities
opportunity
opposition
oprah
ops
optical
optics
optik
optimum
option
options
opus
oq
or
ora
oracle
oral
oran
orang
orange
orangnya
orb
orbit
orbital
orbitnya
orchard
orchestra
orde
order
ordered
orders
ordinan
ordinary
ordo
ore
oregon
oren
org
organ
organic
organik
organisasi
organisation
organising
organisma
organisme
organization
organizations
organized
ori
oricon
orient
oriental
orientales
orientalis
orientasi
orientation
origin
original
originally
originals
origins
orihime
orion
orissa
orkes
orkestra
orkid
orlando
orleans
orlici
orne
oro
orochimaru
ortega
orthodox
ortiz
ortodoks
ortografi
os
osaka
osama
osamu
osborne
oscar
oscars
osen
oshima
osiris
oskar
oslo
osman
osnabru
osprey
ossetia
ost
oswald
ot
ota
otago
otak
otaku
otc
other
others
othman
oto
otot
ott
ottawa
otter
otto
ottoman
ou
oued
ouled
oum
oup
our
ourense
out
outbreak
outer
outline
outlook
output
outside
outstanding
ov
ova
ovari
ovce
over
overall
overlord
overseas
overview
ovice
owen
owl
own
owned
owner
owners
ownership
oxford
oxfordshire
oxygen
oya
oyo
oz
ozon
p
pa
pablo
pac
pacar
pacat
pace
pacific
pack
package
packard
pact
pacu
pacuan
pad
pada
padahal
padam
padamu
padan
padanan
padang
padanya
padat
padawan
paddington
paderi
padi
padilla
padma
padu
padua
paduan
paduka
padukone
pag
pagan
pagar
pagaruyung
page
pageant
pages
paget
pagi
pagoda
pagoh
pah
paha
pahala
pahang
pahat
pahit
pahlawan
pai
paid
pain
paint
painted
painter
painting
paintings
paip
pair
pajak
pajakan
pak
paka
pakai
pakaian
pakaiannya
pakar
pakatan
pakcik
pakej
paket
pakis
pakistan
pakistani
paksa
paksaan
paksi
paku
pal
pala
palace
palais
palam
palang
palarae
palas
palatinate
palau
palawan
pale
palembang
palencia
paleolitik
paleontologi
palermo
palestin
palestine
palestinian
palet
palgrave
pali
paling
pallava
palm
palma
palmas
palme
palmer
palmyra
palo
paloh
palong
palsu
palu
pam
pamah
pamela
pameran
pamir
pampanga
pampasan
pan
panah
panama
panas
panasonic
panca
pancaragam
pancaran
pancasila
panchayat
panchor
pancut
pancutan
panda
pandai
pandak
pandan
pandang
pandangan
pandangannya
pandawa
pandeglang
pandemic
pandemik
pandey
pandit
pandora
pandu
panduan
pane
panel
pang
pangasinan
pangeran
panggang
panggil
panggilan
panggung
pangkal
pangkalan
pangkat
pangkor
pangkuan
panglima
pangsa
pangsapuri
panic
panik
panitia
panjang
panjangnya
panjat
panji
pankreas
panorama
pantai
pantainya
pantang
pantas
panther
panthera
pantulan
pantun
panzer
pao
paolo
pap
papa
papadom
papan
papar
paparan
paper
paperback
papers
papua
par
para
parade
paradigm
paradigma
paradise
paradoks
paragraph
paraguay
parah
paralimpik
parallel
paralympic
paralympics
parameswara
parameter
parameters
paramount
parang
paranormal
paras
parasit
parc
parcel
parchim
pardubice
parent
parents
pari
pariaman
parigi
paris
parish
parit
pariti
pariwisata
park
parker
parkes
parkinson
parkir
parks
parliament
parliamentary
parlimen
parma
parodi
paroi
paroki
parramatta
parrot
parsi
parsons
part
partai
partement
parthia
parti
partial
participation
particle
particular
partido
parties
partikel
partinya
partisan
partisipel
partner
partners
partnership
parts
party
paru
paruh
parut
pas
pasai
pasal
pasang
pasangan
pasangannya
pasar
pasaran
pasaraya
pasca
pascal
paser
pasha
pashto
pashtun
pasif
pasifik
pasig
pasir
paskah
paskal
pasport
pass
passage
passed
passenger
passengers
passes
passing
passion
passport
past
pasta
pasteur
pasti
pastikan
pastinya
pastor
pastoral
pastri
pasu
pasukan
pasukannya
pat
patah
patani
patch
patel
paten
patent
path
pathology
pati
patient
patients
patinggi
patna
patogen
patologi
patria
patricia
patrick
patriot
patriotik
patriotisme
patrol
pattani
pattern
patterns
patterson
patton
patuh
patung
patut
pau
pauh
paul
paula
pauline
paulo
paultan
paulus
paun
paus
pautan
pavel
pavia
pavilion
pawagam
pawang
pax
pay
paya
payah
payne
payong
pays
payudara
payung
paz
pb
pbb
pbs
pbt
pc
pd
pdf
pdi
pdp
pdrm
pe
peace
peach
peak
pear
pearce
pearl
pearson
pecah
pecahan
pecan
pecinta
peck
pecut
pecutan
pedagang
pedalaman
pedang
pedangnya
pedas
pedati
pedersen
pediatrik
pedoman
pedro
peduli
peel
peer
pegang
pegangan
pegasus
pegawai
peggy
peguam
pegun
pegunungan
pehin
pei
pejabat
pejabatnya
pejal
pejalan
pejera
pejuang
pek
peka
pekak
pekaka
pekali
pekan
pekanbaru
pekat
pekayon
pekebun
pekeliling
pekerja
pekerjaan
pekerjaannya
pekerjanya
pekin
peking
pel
pelabuhan
pelabur
pelaburan
pelacur
pelacuran
peladang
pelagak
pelajar
pelajaran
pelajarannya
pelajarnya
pelakon
pelakonnya
pelaksana
pelaksanaan
pelaku
pelakuran
pelampau
pelan
pelancar
pelancaran
pelancarannya
pelancong
pelancongan
pelanduk
pelanggan
pelanggannya
pelanggaran
pelangi
pelantar
pelantikan
pelapik
pelapis
pelaporan
pelari
pelarian
pelarut
pelatih
pelatihan
pelaut
pelawak
pelawat
pelayan
pelayanan
pelayar
pelayaran
pelbagai
pele
peleburan
peledak
pelekat
pelengkap
pelepah
pelepasan
peleraian
pelesenan
peletakan
pelhr
peliharaan
pelik
pelincir
pelindung
pelita
pellegrini
pelombong
pelopor
pelosok
peluang
peluasan
pelucutan
peluh
pelukis
pelumba
peluncur
pelupusan
peluru
pelusuk
pelvis
pemacu
pemadam
pemahaman
pemain
pemaju
pemakai
pemakaian
pemakaman
pemakan
pemakanan
pemalar
pemalsuan
pemalu
pemampatan
pemanah
pemanas
pemanasan
pemancar
pemancaran
pemandangan
pemandu
pemanduan
pemangkin
pemangku
pemangsa
pemanis
pemanjangan
pemansuhan
pemantau
pemantauan
pemasangan
pemasaran
pematang
pematuhan
pembabitan
pembaca
pembacaan
pembagian
pembahagi
pembahagian
pembaharuan
pembaikan
pembakar
pembakaran
pembalakan
pembalasan
pembalut
pembangkang
pembangkit
pembangun
pembangunan
pembangunannya
pembantu
pembantunya
pembaptisan
pembasmian
pembatalan
pembatasan
pembawa
pembayaran
pembebasan
pembedahan
pembekal
pembekalan
pembekuan
pembela
pembelaan
pembelahan
pembelajaran
pembelajinakan
pembeli
pembelian
pembentangan
pembentukan
pemberhentian
pemberi
pemberian
pemberita
pemberitahuan
pemberontak
pemberontakan
pembersih
pembersihan
pembesar
pembesaran
pembetulan
pembezaan
pembiak
pembiakan
pembiakbakaan
pembiasan
pembiayaan
pembikin
pembikinan
pembimbing
pembina
pembinaan
pembinaannya
pembinasa
pemboleh
pembolehubah
pembuangan
pembuat
pembuatan
pembubaran
pembuka
pembukaan
pembukaannya
pembuluh
pembungkusan
pembunuh
pembunuhan
pemburu
pemburuan
pemecah
pemecahan
pemecatan
pemedih
pemegang
pemekaran
pemeliharaan
pemenang
pementasan
pemeran
pemergian
pemerhati
pemerhatian
pemerian
pemeriksa
pemeriksaan
pemeringkatan
pemerintah
pemerintahan
pemerintahannya
pemerolehan
pemetaan
pemiawaian
pemikir
pemikiran
pemilih
pemilihan
pemilik
pemilikan
pemiliknya
pemilu
pemimpin
pemimpinnya
peminat
peminatnya
pemindahan
peminjam
pemintas
pemisah
pemisahan
pemkab
pemodelan
pemodenan
pemohon
pemotong
pemotongan
pemproses
pemprosesan
pemuat
pemuda
pemuisi
pemujaan
pemukiman
pemukul
pemula
pemulihan
pemuliharaan
pemusnah
pemusnahan
pemutus
pemuzik
pen
pena
penafian
penafsiran
penaga
penagih
penahan
penahanan
penaik
penaja
penajaan
penakluk
penaklukan
penalti
penalty
penamaan
penamat
penamatan
penambah
penambahan
penambahbaikan
penampakan
penampang
penampilan
penampilannya
penan
penanaman
penanda
penandaan
penandatanganan
penang
penangguhan
penangkap
penangkapan
penangkapannya
penanti
penantian
penapaian
penapis
penapisan
penara
penarafan
penari
penarik
penarikan
penasihat
penat
penaung
penawanan
penawar
penawaran
penayangan
pencabar
pencabulan
pencahayaan
pencairan
pencak
pencakar
pencalonan
pencaman
pencapaian
pencapaiannya
pencari
pencarian
pence
pencegah
pencegahan
pencemar
pencemaran
pencen
pencerahan
penceraian
penceramah
pencerapan
pencerita
penceritaan
pencernaan
penceroboh
pencerobohan
pencetak
pencetakan
pencetus
pencinta
pencipta
penciptaan
pencuci
penculikan
pencuri
pendaftar
pendaftaran
pendahulu
pendahuluan
pendahulunya
pendaki
pendakian
pendakwa
pendakwaan
pendakwah
pendalaman
pendam
pendanaan
pendang
pendapat
pendapatan
pendaraban
pendarahan
pendarat
pendaratan
pendatang
pendawaian
pendedahan
pendek
pendekar
pendekatan
pendengar
pendengaran
penderaan
penderia
penderitaan
penderma
pendeta
pendiam
pendidik
pendidikan
pendidikannya
pendingin
pendiri
pendirian
pendiriannya
pendorong
penduduk
pendudukan
penduduknya
pendukung
penebangan
penebat
penebusan
penekanan
penelitian
penembak
penembakan
penembusan
penempatan
penemuan
penemuannya
penentang
penentangan
penentu
penentuan
peneraju
penerangan
penerapan
penerbangan
penerbangannya
penerbit
penerbitan
penerbitannya
penerima
penerimaan
penerjun
penerjunan
peneroka
penerokaan
penerus
penetapan
peng
pengabdian
pengacara
pengadang
pengadil
pengadilan
pengagihan
pengairan
pengajar
pengajaran
pengajian
pengajiannya
pengakap
pengakhiran
pengaktifan
pengakuan
pengalaman
pengalamannya
pengalir
pengaliran
pengamal
pengamalan
pengaman
pengamatan
pengambaran
pengambilalihan
pengambilan
pengampunan
penganalisis
pengangguran
pengangkut
pengangkutan
penganiayaan
penganjur
penganjuran
pengantar
pengantara
pengantin
penganugerahan
penganut
pengarah
pengarahan
pengarahnya
pengarang
pengarangnya
pengaruh
pengaruhnya
pengasas
pengasasan
pengasasnya
pengasih
pengasingan
pengasuh
pengatur
pengaturan
pengaturcara
pengaturcaraan
pengawal
pengawalan
pengawas
pengawasan
pengebom
pengeboman
pengebumian
pengecaman
pengecas
pengecasan
pengecualian
pengecutan
pengedar
pengedaran
pengedarnya
pengekalan
pengekodan
pengeksport
pengekstrakan
pengelasan
pengelola
pengelolaan
pengeluar
pengeluaran
pengeluarannya
pengembalian
pengembangan
pengembara
pengembaraan
pengenalan
pengenalpastian
pengendali
pengendalian
pengepala
pengepungan
pengerang
pengeringan
pengertian
pengerusi
pengerusinya
pengesahan
pengesan
pengesanan
pengetahuan
pengetua
penggabungan
penggal
penggalak
penggalian
penggambaran
pengganas
pengganti
penggantian
penggantinya
penggantungan
penggemar
penggerak
penggiat
penggilingan
penggodam
penggubah
penggubal
penggubalan
pengguguran
penggulingan
pengguna
penggunaan
penggunaannya
penggunanya
penghakiman
penghalang
penghantar
penghantaran
penghapusan
pengharaman
penghargaan
penghasil
penghasilan
penghayatan
penghibur
penghidupan
penghijrah
penghijrahan
penghinaan
penghormatan
penghubung
penghujung
penghulu
penghuni
pengikat
pengikatan
pengiklanan
pengiktirafan
pengikut
pengikutnya
pengilang
pengilangan
pengilhakan
pengimbas
pengimejan
penginapan
pengintip
pengintipan
pengiraan
pengiran
pengiring
pengisi
pengisian
pengisytiharan
pengkaji
pengkajian
pengkalan
pengkebumian
pengkhianat
pengkhianatan
pengkhususan
pengkomputan
pengkomputeran
pengkritik
penglibatan
penglibatannya
penglihatan
pengoksidaan
pengolahan
pengoperasian
pengorbanan
pengsan
penguasa
penguasaan
penguat
penguatkuasa
penguatkuasaan
pengubah
pengubahan
pengubahsuaian
pengucapan
pengudaraan
penguin
pengujian
pengukir
pengukuhan
pengukuran
pengulangan
pengulas
pengumpul
pengumpulan
pengumuman
pengunaan
pengundi
pengundian
pengunduran
pengunjung
penguraian
pengurangan
pengurniaan
pengurus
pengurusan
pengusaha
pengusiran
pengutip
penh
peniaga
penilaian
penindasan
pening
peninggalan
peningkatan
peninjau
peninjauan
peninju
peninsula
peninsular
penipu
penipuan
penjadualan
penjaga
penjagaan
penjahat
penjaja
penjajah
penjajahan
penjajap
penjana
penjanaan
penjara
penjaring
penjawat
penjejak
penjejakan
penjelajah
penjelajahan
penjelasan
penjelmaan
penjenamaan
penjenayah
penjimatan
penjodoh
penjual
penjualan
penjuru
penn
pennsylvania
penny
penolakan
penolong
penonton
pensel
pensijilan
pensil
penske
penstabil
penstriman
penstrukturan
penswastaan
pensyarah
pentadbir
pentadbiran
pentadbirannya
pentagon
pentaksiran
pentarikhan
pentas
pentasnya
penterjemah
penterjemahan
penternak
penternakan
penting
pentingnya
penuaan
penuaian
penubuhan
penubuhannya
penuding
penugasan
penuh
penuhnya
penukar
penukaran
penularan
penulis
penulisan
penulisannya
penumpang
penumpuan
penunggang
penunggu
penunjuk
penuntut
penurunan
penutup
penutupan
penutur
penyair
penyajak
penyakit
penyalaan
penyalahgunaan
penyamaran
penyambung
penyambungan
penyampai
penyampaian
penyamun
penyandang
penyandangnya
penyanyi
penyapu
penyata
penyataan
penyatuan
penyayang
penyebab
penyebaran
penyebutan
penyedia
penyediaan
penyejatan
penyejuk
penyejukan
penyeksaan
penyelam
penyelamat
penyelamatan
penyelaras
penyelarasan
penyelenggara
penyelenggaraan
penyelesaian
penyelewengan
penyelia
penyeliaan
penyelidik
penyelidikan
penyelidikannya
penyeludupan
penyemakan
penyembahan
penyembelihan
penyembuhan
penyempangan
penyenaraian
penyengat
penyepit
penyerahan
penyerang
penyerangan
penyerapan
penyerbuan
penyertaan
penyesuaian
penyewa
penyiar
penyiaran
penyiasat
penyiasatan
penyihir
penyimpan
penyimpanan
penyingkiran
penyokong
penyokongnya
penyu
penyucian
penyulingan
penyumbang
penyunting
penyuntingan
penyusun
penyusunan
people
peoples
pep
pepatah
pepatung
pepe
pepejal
peperangan
peperiksaan
pepijat
pepper
pepsi
per
perabot
peradaban
peradapan
peraduan
peragaan
peragawan
peragawati
perah
perahu
perai
perairan
perajurit
perak
perakam
perakaunan
perakuan
peralatan
peralihan
perampas
peran
peranakan
peranan
peranannya
perancang
perancangan
perancis
perang
perangai
peranginan
perangkaan
perangkap
perangkat
perangsang
perantara
perantaraan
perantau
peranti
perarakan
perasa
perasaan
perasaannya
perasan
perasmian
peraturan
peratus
peratusan
perawan
perawatan
perayaan
perbadanan
perbahasan
perbaikan
perbalahan
perbandaran
perbandingan
perbankan
perbarisan
perbatasan
perbedaan
perbekalan
perbelanjaan
perbendaharaan
perbezaan
perbezaannya
perbicaraan
perbincangan
perbualan
perbuatan
perbuatannya
perburuan
percakapan
percanggahan
percaya
percent
percentage
perception
perceraian
percetakan
percikan
percintaan
percival
percubaan
percukaian
percuma
percutian
percy
perdagangan
perdamaian
perdana
perdananya
perdebatan
perduaan
perebutan
peredaran
pereira
pereka
perekonomian
perempat
perempuan
perempuannya
perenang
perencat
perenggan
pereputan
perez
perfect
perfileman
perform
performance
performances
performed
performer
performing
pergaduhan
pergam
pergantungan
pergaulan
pergelangan
pergelutan
pergerakan
pergeseran
pergi
pergigian
pergolakan
pergunungan
perguruan
perhambaan
perhatian
perhatiannya
perhatikan
perhentian
perhiasan
perhimpunan
perhitungan
perhubungan
perhutanan
peri
peribadi
peribadinya
peribahasa
peribumi
perigi
perihal
perikanan
perikatan
perilaku
perilisan
perimeter
perincian
perindustrian
peringatan
peringkat
perintah
perintis
period
periode
perisa
perisai
perisian
perisik
perisikan
peristiwa
perisytiharan
periuk
perjalanan
perjalanannya
perjamuan
perjanjian
perjuangan
perjuangannya
perjudian
perjumpaan
perkadaran
perkahwinan
perkahwinannya
perkaitan
perkakas
perkakasan
perkampungan
perkapalan
perkara
perkarangan
perkasa
perkataan
perkauman
perkawinan
perkebunan
perkembangan
perkembangannya
perkenalan
perkenan
perkhemahan
perkhidmatan
perkhidmatannya
perkilangan
perkins
perkiraan
perkongsian
perkubuan
perkuburan
perkumpulan
perkusi
perladangan
perlahan
perlaksanaan
perlakuan
perlambangan
perlanggaran
perlantikan
perlawanan
perlembagaan
perlesenan
perletakan
perlindungan
perling
perlis
perlombongan
perlu
perluasan
perlukan
perlulah
perlumbaan
perlunya
permai
permaidani
permainan
permainannya
permaisuri
permanent
permas
permasalahan
permata
permatang
permintaan
permit
permodalan
permohonan
permotoran
permukaan
permukaannya
permulaan
permulaannya
permusuhan
pernafasan
pernah
perniagaan
perniagaannya
pernikahan
pernyataan
perobohan
perodua
peroksida
perolakan
perolehan
perompak
peronda
perosak
perpaduan
perparitan
perpatih
perpecahan
perperangan
perpindahan
perpisahan
perpuluhan
perpustakaan
perry
pers
persada
persahabatan
persaingan
persalinan
persamaan
persaraan
persaraannya
persatu
persatuan
persaudaraan
persediaan
persefahaman
persegi
persekitaran
persekitarannya
persekolahan
persekolahannya
persekutuan
perselisihan
persembahan
persembahannya
persembunyian
persempadanan
persen
persendirian
persengketaan
persenjataan
persenyawaan
perseorangan
persepolis
persepsi
persetiaan
persetubuhan
persetujuan
perseus
persia
persian
persiapan
persiaran
persidangan
persilangan
persilatan
persimpangan
persinggahan
persis
persisiran
persoalan
person
persona
personal
personaliti
personality
personel
personnel
persons
perspective
perspectives
perspektif
persson
persuratan
pertabalan
pertahanan
pertalian
pertama
pertamanya
pertambahan
pertamina
pertandingan
pertanian
pertanyaan
pertaruhan
pertarungan
pertelingkahan
pertembungan
pertempuran
pertemuan
pertengahan
pertengkaran
pertentangan
perth
pertiga
pertikaian
pertimbangan
pertindihan
pertiwi
pertolongan
pertua
pertuan
pertuanan
pertubuhan
pertuduhan
pertukangan
pertukaran
pertumbuhan
pertumpahan
pertunangan
pertunjukan
pertunjukkan
pertuturan
peru
perubahan
perubatan
perugia
perumah
perumahan
perumian
perumusan
peruncit
peruncitan
perundangan
perunding
perundingan
peruntukan
perusahaan
perusuh
perut
perutnya
perutusan
perwakilan
perwatakan
perwira
pes
pesaing
pesaingnya
pesaka
pesakit
pesalah
pesan
pesanan
pesantren
pesara
pesat
pesawat
pesawatnya
pescara
peserta
peshawar
pesisir
pesisiran
peso
pesona
pest
pesta
pestabola
pesuruhjaya
pet
peta
petai
petak
petala
petaling
petanda
petang
petani
pete
petempatan
peter
peters
petersburg
petersen
peterson
peti
petik
petikan
petir
petisyen
petit
petra
petro
petrokimia
petrol
petroleum
petronas
petrov
petrus
petua
petualangan
petugas
petunjuk
peugeot
pew
pewaris
pewarisan
pewarna
pewdiepie
pez
pf
pfa
pfizer
pg
pga
ph
pha
phan
phang
phantom
pharmaceutical
phase
phat
phd
phenomenon
phi
phil
philadelphia
philatlas
philip
philipp
philippe
philippine
philippines
philips
phillip
phillips
philosopher
philosophical
philosophy
philstar
phineas
phnom
pho
phoenicia
phoenix
phone
phonetic
phonology
photo
photograph
photographic
photographs
photography
photos
php
phra
phraya
phu
phuket
phylogenetic
phylogenetics
phylogeny
phys
physical
physician
physics
physiology
pi
pia
piagam
piala
piano
piatu
piawai
piawaian
pibg
pic
picardie
picardy
piccadilly
pick
pickford
picks
pictorial
picture
pictures
picu
pidato
pie
piece
pieces
piedmont
pier
pierce
pierre
pieter
pietro
pig
pigeon
pigmen
pihak
pihaknya
pijar
pika
pike
pikiran
piksel
pil
pilah
pilar
pilgrim
pilih
pilihan
pilihannya
pilihanraya
pilin
pillai
pilot
pilots
pimpinan
pin
pinang
pindaan
pindah
pine
pineda
ping
pingat
pinggan
pinggang
pinggir
pinggiran
pinggul
pinjaman
pink
pinocchio
pinoy
pintar
pintas
pintasan
pinto
pintu
pinyin
pioneer
pioneers
pipe
piper
pipi
pipit
pir
piracy
piramid
pirate
pirates
pires
piring
pis
pisa
pisang
pisangan
pisau
pistol
piston
pit
pita
pitas
pitch
pitt
pitta
pittsburgh
pius
piwaian
pixar
piza
pizza
pj
pjk
pk
pkcp
pki
pkm
pkns
pkp
pkr
pks
pl
pla
place
placed
places
plag
plague
plain
plains
plaintif
plak
plan
planck
plane
planes
planespotters
planet
planetarium
planetary
planets
plankton
planned
planning
plans
plant
plantation
plants
plasma
plasmodium
plaster
plastic
plastik
plat
plata
plate
platform
platinum
plato
platun
plaxot
play
playboy
played
player
players
playhouse
playing
playlist
plays
playstation
plaza
plc
please
pleasure
pleistocene
pleistosen
plo
plos
plot
plum
plumbum
plus
plutarch
pluto
plymouth
plzen
pm
pmc
pmid
pmr
pn
pnas
pneumonia
png
po
pob
poblacion
pocket
pod
podcast
podium
poe
poems
poet
poetic
poetry
poh
pohon
poin
point
points
poitou
poj
pok
pokal
poke
pokemon
poket
pokok
pokoknya
pol
pola
poland
polar
pole
polemik
poli
police
policies
policy
polifonik
poligon
polimer
polinesia
polinomial
polis
polish
polisi
politeknik
political
politician
politico
politics
politik
politiknya
poll
pollock
polls
pollution
polo
polri
polygon
polygram
polynesia
polynesian
pom
pomerania
pompeii
pompey
pon
pond
pondok
pone
pong
pont
pontevedra
pontian
pontianak
pontus
pony
pooh
pooja
pool
poole
poor
pop
pope
popes
poppy
popular
populariti
popularitinya
popularity
populasi
populasinya
population
populations
populer
por
porn
pornografi
porsche
porselin
port
portable
portais
portal
porter
portfolio
portland
porto
portrait
portsmouth
portugal
portugis
portuguese
pos
poseidon
posesif
posisi
posisinya
positif
position
positions
positive
poskod
poso
possible
post
postal
postcodebase
postcodes
posted
poster
posterior
postman
postponed
posts
postscript
posyen
pot
potensi
potential
potomac
potong
potongan
potret
potsdam
potter
poultry
pound
pour
poverty
pow
powder
powell
power
powered
powerful
powerlifting
powers
powiat
pp
ppbm
ppd
ppdk
ppen
ppm
ppp
pps
ppsmi
pr
pra
prabowo
prabu
prachatice
practical
practice
practices
prada
pradesh
praeger
prague
prairie
praise
prajurit
prakash
praktik
praktikal
praktis
pramugari
pramuka
prancis
prasad
prasangka
prasarana
prasasti
prasejarah
prasekolah
pratonton
pratt
prayer
prc
pre
prebet
precious
precision
prediction
prefecture
prefektur
preferred
pregnancy
prehistoric
prehistory
preity
prekuel
preliminary
prelude
prem
premier
premiere
premieres
premis
premium
prentice
prep
preparation
prepared
pres
presbyterian
prescott
presence
present
presentation
presented
presents
preservation
presiden
presidency
presidennya
president
presidente
presidential
presidents
presint
press
presse
pressreader
pressure
prestasi
prestasinya
prestij
preston
pretty
prevalence
preve
prevent
prevention
preview
previous
previously
prey
pri
pria
pribadi
pribumi
price
prices
pride
priest
prihatin
prima
primary
primat
prime
primer
primera
primetime
primitif
primordial
prince
princes
princess
princeton
principal
principle
principles
prinsip
print
printed
printer
printing
prior
priscilla
prisma
prison
prisoner
prisoners
privacy
privasi
private
prix
priya
priyanka
prize
prizes
prk
prn
pro
probability
probably
probe
problem
problems
proc
procedure
procedures
proceedings
process
processes
processing
proclamation
produce
produced
producer
producers
producing
product
production
productions
products
produk
produknya
produksi
produktif
produktiviti
produser
prof
profail
profesion
profesional
profesionalisme
profesionalnya
profesor
professional
professionals
professor
profil
profile
profiles
profit
progo
program
programme
programmes
programming
programs
progresif
progress
progressive
project
projecthello
projects
projek
projektil
projektor
proklamasi
proksi
prolog
prom
prometheus
prominent
promise
promised
promises
promo
promosi
promote
promoting
promotion
pronunciation
proof
propaganda
proper
properties
property
prophet
proposal
proposed
propulsion
proquest
prosa
prosecutor
prosedur
proses
prosiding
prospects
prospek
proste
protagonis
protect
protected
protection
protege
protein
protes
protest
protestan
protesters
protests
proto
protocol
protokol
proton
prototaip
prototype
proud
provence
provide
provided
providence
provides
province
provinces
provincia
provincial
provinsi
provisional
proyek
prpm
prs
pru
prusia
prussia
ps
psa
pseudo
psg
psgc
psi
psikiatri
psikologi
psm
psp
pssi
psv
psychiatric
psychiatry
psycho
psychological
psychology
pt
pte
ptolemy
pts
pty
pu
pua
puak
puaka
puan
puas
puasa
pub
public
publication
publications
publik
publique
published
publisher
publishers
publishing
publisiti
pucat
puccini
puchong
pucuk
pudar
pudina
puding
pudu
puerto
pui
puing
puisi
puisinya
puja
pujaan
pujangga
puji
pujian
pukal
pukul
pukulan
pula
pulai
pulang
pulangan
pulau
pulih
pulitzer
pull
pulo
pulogebang
pulpa
pulse
puluh
puluhan
pulut
puma
pump
pun
punai
punca
puncak
puncaknya
puncanya
punch
punctuation
pundi
pune
punggung
pungutan
punishment
punjab
punjabi
punk
punta
punya
punyai
pupus
pur
pura
purana
purata
puratanya
purba
purchase
purdue
pure
puri
purnama
purple
purpose
purposes
pursuit
purwakarta
pusaka
pusara
pusaran
pusat
pusatnya
push
pusing
pusingan
puspa
pustaka
pustakawan
put
putar
putaran
putat
putatan
puteh
putera
puteranya
puteri
puterinya
putih
putin
puting
putnam
putra
putrajaya
putri
puts
putu
putus
puy
puyuh
pv
pvt
pw
pwtc
px
py
pyaar
pyeongchang
pyo
pyongyang
pyotr
pyramid
pyre
python
q
qa
qadir
qaeda
qaf
qaleh
qamari
qantas
qarah
qari
qariah
qasim
qassam
qatar
qatarairways
qayum
qeshlaq
qi
qian
qin
qing
qingdao
qistina
qiu
qq
qs
qu
qua
quad
quake
qualification
qualifiers
qualifying
quality
quan
quang
quantum
quanzhou
quarantine
quarter
quarterly
quay
quba
qubadli
que
quebec
queen
queens
queensland
queer
quentin
quenya
quest
question
questions
quezon
qui
quick
quickly
quickstats
quidditch
quiet
quincy
quinn
quipe
quirino
quit
quite
quito
quits
quiz
quo
quot
quote
quoted
quotes
qur
quraisy
quran
r
ra
raaf
rab
rabai
rabbani
rabbi
rabbit
rabi
rabiulawal
rabu
rabun
rabung
race
racer
races
rachel
rachman
racial
racing
racism
racun
rad
rada
radang
radar
raden
radhi
radial
radiasi
radiation
radical
radikal
radin
radio
radioaktif
radius
radzi
rae
raf
rafael
rafale
raffles
rafflesia
rafi
rafidah
rafiq
raga
ragam
ragbi
rage
ragi
raging
ragu
ragut
rah
rahang
rahasia
rahayu
rahib
rahim
rahimah
rahmah
rahman
rahmaniah
rahmat
rahmatullah
rahsia
rahul
rai
raid
raifal
raih
raihan
rail
railroad
railway
railways
rain
rainbow
rainer
rainfall
rainforest
rais
raise
raised
raises
raising
raj
raja
rajah
rajamangala
rajang
rajanya
rajasthan
rajawali
rajendra
rajesh
rajin
rajinikanth
rajiv
raju
rak
rakaat
rakam
rakaman
rakan
rakannya
rakit
rakovni
raksa
raksasa
rakyat
rakyatnya
ral
ralat
ralf
rally
ralph
ram
rama
ramachandran
ramadan
ramadhan
ramah
ramai
ramakrishna
ramalan
raman
ramayana
rambai
rambut
rambutan
rambutnya
ramen
ramesh
rami
ramirez
ramlah
ramlan
ramlee
ramli
ramlie
ramo
ramon
ramona
ramos
rampai
rampasan
ramsay
ramsey
ramuan
ran
rana
ranau
ranbir
rancak
rancangan
rancangannya
rand
randah
randall
randolph
random
randwick
randy
rang
range
ranger
rangers
rangga
rangka
rangkaian
rangkap
rangsangan
rangup
rani
rania
ranjau
rank
ranked
ranking
rankings
ranks
rant
rantai
rantaian
rantau
ranti
ranting
rao
rap
rapat
rape
raphael
rapi
rapid
rapidkl
rapids
rapper
rappler
rapuh
rard
rare
ras
rasa
rasanya
rasau
rashid
rashidi
rasional
rasmi
rasminya
rasmussen
rasuah
rasuk
rasul
rasulullah
rasyid
rasyidin
rat
rata
ratanya
rate
rates
rather
rating
ratings
ratio
ration
ratna
raton
ratu
ratus
ratusan
rau
raub
rauf
rault
rave
raven
ravenna
ravi
raw
rawa
rawak
rawamangun
rawan
rawang
rawas
rawat
rawatan
ray
raya
raymond
rayon
rayuan
rayyan
razak
razaleigh
razali
razi
razif
razlan
rb
rc
rca
rcti
rd
rde
rdoba
re
rea
reach
reached
reaches
reaction
read
reader
readers
reading
readings
ready
reagan
reaksi
reaktif
reaktor
real
realisme
realistik
realiti
reality
really
reap
rear
reason
reasons
rebah
rebecca
rebel
rebellion
rebels
reben
reboot
reborn
rebus
rebusan
rebutan
rec
receive
received
receives
recent
recently
recipe
recipes
recipients
recognition
recognized
recommendations
reconstruction
record
recorded
recording
recordings
records
recovery
recreation
red
reda
redang
reddit
reddy
redfern
rediff
reds
reduce
reduction
redza
redzuan
reed
reeder
reef
reen
rees
reeves
ref
refer
reference
references
referendum
referred
refers
reflections
reform
reformasi
reformis
reforms
refugee
refugees
reg
regangan
regarding
regency
regent
reggae
reggio
regime
regimen
regiment
regina
reginald
regio
region
regional
regions
register
registered
registration
registry
regular
regulation
regulations
regulus
rehat
rei
reich
reid
reign
reigns
reilly
reina
reinhard
reis
reischauer
rejab
rejang
rejects
rejim
rejimen
reka
rekaan
rekabentuk
rekahan
rekod
rekreasi
rekrut
rektor
rel
rela
related
relatif
relatifnya
relating
relation
relations
relationship
relationships
relative
relau
relay
release
released
releases
releasing
relevan
reliable
reliance
relief
religion
religions
religious
rem
remain
remains
remaja
remajanya
remake
reman
remarks
rembau
rembesan
remeh
remember
remembering
remington
remis
remix
remote
removed
rempah
rempit
remy
ren
rena
renai
renaissance
renamed
renang
renault
rencana
rendah
rendang
rendsburg
rene
renek
renewed
rengas
renggam
rengit
renjer
renji
rennes
reno
rentak
rentang
rentas
rentetan
rep
replace
replaced
replaces
replika
reply
report
reported
reporter
reporters
reporting
reports
repository
represent
representation
representative
representatives
reprint
reprinted
reproduction
reproductive
reptile
reptiles
reptilia
repu
repubblica
republic
republican
republik
republika
republikan
reput
reputasi
request
required
requirements
requires
res
resah
resam
rescue
research
researchers
resep
resepi
reseptor
reserve
reservoir
residen
residence
resident
residents
resigns
resin
resipi
resistance
resmi
resolusi
resolution
resonans
resort
resorts
resource
resources
respect
respiratory
respon
responden
respons
response
responses
responsibility
responsible
rest
restaurant
restoran
restoration
restu
result
results
resume
resumes
resurrection
retail
retak
rethinking
retina
retorik
retrieved
retro
retrospektif
return
returned
returning
returns
reum
reunion
reuters
rev
reveal
revealed
reveals
revenge
revenue
reverend
reverse
review
reviewed
reviews
revised
revision
revisited
revival
revolt
revolusi
revolusioner
revolution
revolutionary
revolver
revu
revue
rex
rey
reyes
reynolds
reysol
rez
reza
rezeki
rf
rfc
rg
rgen
rh
rhb
rhea
rhein
rhin
rhine
rhineland
rhino
rho
rhode
rhodes
rhodesia
rhodin
rhu
rhythm
ri
ria
riaa
riadah
rian
riana
riang
riau
riayat
riba
ribu
ribuan
ribut
ric
rica
ricardo
ricci
rice
rich
richard
richards
richardson
richest
richmond
richter
rick
ricklefs
ricky
rico
rida
riddle
ride
rider
riders
ridge
riding
ridley
ridpath
ridwan
ridza
ridzuan
ridzwan
rie
rifle
rig
riga
right
rights
rihanna
rika
riki
riley
rilis
rim
rima
rimau
rimba
rin
rina
rinching
rindu
ring
ringan
ringen
ringgit
ringkas
ringkasan
ringkasnya
rings
rini
rino
rintangan
rio
rioja
riot
riots
rip
ripley
ris
risa
risalah
risau
rise
rises
rishi
risikan
risiko
rising
risk
risks
rita
ritchie
rite
ritter
ritual
ritus
ritz
rival
river
rivera
rivers
riverside
riwayat
riyadh
riz
riza
rizab
rizal
rizky
rj
rk
rl
rlts
rm
rmk
rms
rn
rna
ro
road
roads
roasso
rob
robbie
robbins
robert
roberto
roberts
robertson
robin
robinson
robo
robot
robotik
robson
roc
roche
rochester
rock
rockefeller
rockers
rocket
rocks
rockwell
rocky
rod
roda
rodensia
rodgers
rodney
rodolfo
rodri
rodrigo
rodrigues
rodriguez
roe
roekiah
roger
rogers
rogol
rogue
roh
rohan
rohana
rohani
rohaniah
rohingya
rohit
roi
rojak
rok
rokan
roket
rokiah
rokok
rokycany
roland
role
roles
rolf
roll
roller
rolling
rolls
rom
roma
romagna
romain
romaji
roman
romance
romania
romanian
romanised
romano
romantic
romantik
romantis
romawi
rombakan
rombongan
rome
romeo
romero
rommel
rompak
rompakan
rompin
ron
ronald
ronaldo
ronan
ronda
rondaan
rong
rongga
ronnie
roof
rookie
room
rooney
roosevelt
root
roots
roque
rory
ros
rosa
rosak
rosales
rosario
rosberg
rose
rosemary
rosen
rosenberg
roses
rosetta
roshan
roshdi
rosie
roslan
rosli
rosmah
rosnah
rosnani
ross
rossa
rossi
rossiya
rosso
rostam
rostock
rosyam
rotan
rotation
roth
rothschild
roti
rotikaya
rotor
rotten
rotterdam
rouge
rough
round
roundup
roussillon
route
routemap
routes
routesonline
routledge
rover
rovers
row
rowan
rowe
rowling
rowman
roxas
roy
royal
royale
royalti
royce
royong
roz
roza
rozita
rp
rpg
rpm
rr
rrc
rrez
rri
rs
rsbm
rss
rsssf
rt
rtb
rte
rtgs
rtm
rtp
rttemberg
ru
ruang
ruangan
ruas
rubah
rubber
rubel
ruben
rubiah
rubik
rubin
rubus
ruby
rud
rudd
rudi
rudolf
rudolph
rudy
rue
ruffedge
rufus
rugby
rugi
rui
ruiz
ruji
rujuk
rujukan
rukh
rukia
rukun
rule
ruled
ruler
rulers
rules
ruling
rum
rumah
rumahnya
rumahtangga
rumbia
rumble
rumi
rumit
rumpai
rumpun
rumput
rumus
rumusan
run
runcing
runcit
rundingan
rungus
runner
running
runs
runtuh
runtuhan
runut
runway
rupa
rupanya
rupert
rupiah
rural
rus
rusa
rusdi
rusev
rush
rushdie
rusia
ruslan
rusli
russ
russel
russell
russia
russian
russo
rustam
rusuhan
rusuk
rute
rutgers
ruth
rutherford
rutin
rw
rwanda
rx
ry
ryan
rychnov
ryder
ryo
ryong
ryu
ryukyu
ryung
s
sa
saab
saad
saadiah
saale
saari
saat
saba
sabah
sabahan
sabak
saban
sabang
sabar
sabda
saber
sabha
sabil
sabirabad
sabit
sabitan
sabotaj
sabre
sabri
sabrina
sabtu
sabu
sabuk
sabun
sac
sachs
sachsen
sacramento
sacred
sacrifice
sad
sadat
saddam
saddle
sadiq
sadler
sado
sadong
saduran
sae
saeed
saf
safa
safar
safari
safe
safety
safi
safwan
saga
sagan
sagawa
sage
sagu
saguhati
sah
sahabat
sahabatnya
sahaja
saham
sahamnya
sahara
saharul
sahib
sahih
sahsiah
sai
said
saidi
saidin
saidina
saif
saifuddin
saiful
saigon
sailing
sailor
saing
saingan
sains
sainsnya
saint
sainte
saintifik
saintifiknya
saintis
saints
saitama
saito
saiz
saiznya
saja
sajak
sajian
saka
sakai
sakamoto
sake
sakhalin
saki
sakinah
sakit
sakramen
saksama
saksi
saksofon
sakti
saku
sakura
sakurai
sal
sala
salaam
salad
salafi
salah
salahuddin
salai
salak
salam
salamah
salamanca
salasilah
salatin
salazar
sale
saleem
saleh
saleha
salem
salerno
sales
salib
salih
salim
salina
salinan
saling
saliran
salisbury
salji
salju
salle
salleh
sallehuddin
sally
salma
salmah
salman
salmon
saloma
salon
salonga
salt
salur
saluran
salvador
salzburg
sam
sama
samaada
samad
samada
samah
samak
saman
samantha
samar
samarahan
samaran
samarinda
samat
samawi
sambal
sambar
sambas
sambil
sambilan
sambung
sambungan
sambut
sambutan
same
sami
sammy
samoa
sampa
sampah
sampai
sampan
sampdoria
sampel
samping
sampingan
sample
sampson
sampul
samseng
samson
samsudin
samsung
samudera
samuel
samun
samurai
samy
san
sana
sanak
sanchez
sancho
sanctions
sanctuary
sand
sandakan
sandaran
sanders
sandha
sandiwara
sandra
sands
sandwic
sandwich
sandy
sanfrecce
sang
sanga
sangam
sangat
sanger
sanggup
sangka
sangkar
sanglang
sani
sanitasi
sanjay
sans
sanseido
sanskerta
sanskrit
sant
santa
santai
santan
santana
santander
santapan
santiago
santo
santos
santri
santubong
santun
sanusi
sanya
sao
sap
sapa
sapi
sapp
sapporo
sapu
saputra
sar
sara
sarada
saraf
sarah
sarajevo
saran
sarana
saranan
sarang
sarapan
saraswati
sarat
saratok
sarawak
sardi
sardinia
sari
sarikata
sarikei
sarimah
sarin
saringan
sarip
sarjan
sarjana
sarkas
sarolangun
sars
sarthe
sarung
sas
sasaki
sasan
sasar
sasaran
sasha
saskatchewan
sassanid
sassuolo
sastera
sasterawan
sastra
sasuke
sat
satah
satar
satay
sate
satelit
satellite
satellites
satira
sato
satoshi
satria
sattar
satu
satuan
satunya
saturday
saturn
satya
sau
sauber
sauce
saud
saudagar
saudara
saudaranya
saudari
saudi
saujana
saul
saunders
savage
savana
savannah
save
saved
saving
savoie
saw
sawa
sawah
sawan
sawar
sawat
sawit
sawyer
saxon
saxony
say
saya
sayaka
sayang
sayangnya
sayap
sayapnya
sayed
sayembara
saying
sayonara
sayong
says
sayumi
sayur
sayuran
sayyaf
sayyid
sazali
sb
sbg
sbp
sbs
sc
scale
scan
scandal
scandinavia
scandinavian
scar
scarecrow
scarlet
scarlett
scene
scenes
scha
schalke
schedule
scheduled
schedules
scheme
schengen
scherzer
schleswig
schmidt
schmitt
schneider
scho
scholar
scholarly
scholars
school
schools
schott
schro
schu
schumacher
schuster
schwartz
schwarzenegger
sci
science
sciences
scientific
scientist
scientists
scoop
scoot
scope
score
scores
scorpion
scorsese
scotia
scotland
scots
scott
scottish
scout
scream
screen
screening
scribner
script
scripts
sctv
sd
sdg
sdi
sdn
sds
se
sea
seakan
seal
seals
sean
seandainya
seangkatan
search
sears
seas
seasal
season
seasons
seat
seats
seattle
seawal
sebab
sebabkan
sebabnya
sebagai
sebagaimana
sebagainya
sebagi
sebagian
sebahagian
sebahagiannya
sebaik
sebaiknya
sebalik
sebaliknya
sebang
sebanyak
sebaran
sebarang
sebaris
sebastia
sebastian
sebatang
sebatian
sebaya
sebegini
sebegitu
sebelah
sebelas
sebelum
sebelumnya
sebenar
sebenarnya
sebentar
sebentuk
seberang
seberapa
seberat
sebesar
sebidang
sebiji
sebilah
sebilangan
sebuah
sebulan
sebulat
sebut
sebutan
sebutir
sec
secara
secepat
second
secondary
seconds
secret
secretariat
secretary
secrets
section
sections
sector
secukupnya
secure
securities
security
sedalam
sedan
sedang
sedangkan
sedap
sedar
sedarkan
sedaya
sedekad
sedekah
sedemikian
sederhana
sedia
sedih
sedikit
sedili
sedunia
sedutan
see
seeb
seed
seeds
seeing
seek
seeking
seekor
seeks
seems
seen
seenplatte
sees
sega
segala
segalanya
segamat
segambut
segar
segelintir
segenap
segenting
segera
segerak
segi
segitiga
segmen
segovia
segunda
sehala
sehari
seharian
seharusnya
sehelai
sehingga
sehinggakan
sehinggalah
sehubungan
sei
seidman
seimbang
sein
seindah
seine
seiras
seiring
seishun
seiyu
sejagat
sejahtera
sejajar
sejak
sejam
sejarah
sejarahnya
sejarahwan
sejarawan
sejati
sejauh
sejenis
sejong
sejuk
sejumlah
sejurus
sejuta
sek
sekadar
sekai
sekala
sekali
sekalian
sekaligus
sekalipun
sekarang
sekata
sekatan
sekawan
sekejap
sekelas
sekeliling
sekelilingnya
sekelompok
sekeluarga
sekembalinya
sekeping
sekerja
sekerjanya
seketika
seki
sekian
sekiranya
sekitar
sekitaran
sekitarnya
sekolah
sekolahnya
sekretariat
seks
seksaan
seksi
seksual
seksualiti
seksyen
sektor
sekuat
sekuel
sekular
sekumpulan
sekunder
sekuntum
sekurang
sekuriti
sekutu
sekutunya
sel
selagi
selain
selaku
selalu
selalunya
selam
selama
selamanya
selamat
selamatkan
selandar
selang
selangor
selanjutnya
selaput
selaras
selari
selasa
selasih
selat
selatan
selatannya
selawat
selayang
selebar
selebihnya
selebriti
select
selected
selection
selekoh
selena
selendang
selenggaraan
selepas
selepasnya
selera
selesa
selesai
selesema
seletar
selewat
self
seli
selia
seliaan
selidik
selim
selimut
selising
seljuk
sell
selling
sells
selo
seluar
seluas
selular
seluma
seluruh
seluruhnya
sem
semacam
semai
semak
semakan
semakin
semalam
semalaman
seman
semang
semangat
semanggol
semantan
semantik
semarak
semarang
semasa
semata
sembah
sembahyang
sembang
sembilan
sembilu
semboyan
sembuh
sembunyi
semburan
sememangnya
semenanjung
semenjak
sementara
semenyih
semerah
semesta
semester
semestinya
semi
semikonduktor
semily
seminar
seminggu
seminit
semitik
semoga
sempadan
sempadannya
sempang
sempat
sempena
sempit
semporna
sempurna
semua
semuanya
semula
semulajadi
semusim
semut
sen
sena
senai
senaman
senandung
senang
senapang
senarai
senario
senat
senate
senator
senawang
senayan
senbatsu
send
sendai
sendeng
sendi
sendiri
sendirian
sendirinya
sends
senegal
seng
sengaja
sengit
sengkang
sengketa
sengsara
seni
senibina
seniman
seninya
senior
seniwati
senja
senjata
senna
sennett
senoi
senrose
sensasi
sense
sensei
sensitif
sensor
sent
sentai
sentiasa
sentimen
sentimeter
sentinel
sento
sentosa
sentral
sentuh
sentuhan
sentul
senyap
senyum
senyuman
seo
seok
seol
seolah
seon
seong
seorang
seoul
sep
sepadan
sepah
sepahtu
sepak
sepakan
sepakat
sepanduk
sepang
sepanjang
sepanyol
separa
separate
separation
separuh
sepasang
sepasukan
sepasukannya
sepat
sepatutnya
sepenuh
sepenuhnya
seperti
sepertiga
sepertimana
sepertinya
sepi
sept
september
sepucuk
sepuluh
sepunya
sepupu
sepupunya
seputar
sequel
sequence
sequences
ser
sera
seragam
serah
serai
serakan
seram
seramai
serambi
seramik
serampang
serang
serangan
serangannya
serangga
serangkaian
serantau
serapan
serasi
serat
serata
seratus
seraya
serb
serba
serbaguna
serban
serbaneka
serbia
serbian
serbuan
serbuk
serdahana
serdang
serebrum
seremban
serena
serendah
serentak
serge
sergeant
sergei
sergey
sergio
seri
seria
serial
serian
seribu
serie
series
serigala
serik
serikat
serimah
serindit
sering
seringkali
seringnya
serious
serius
serom
serong
seronok
serpihan
serra
serta
sertai
serting
seru
seruan
seruling
serum
serumpun
serupa
seruyan
servant
serve
served
server
service
services
servis
ses
sesaat
sesak
sesama
sesar
sesaran
sesat
sesawang
sesebuah
sesekali
seseorang
sesetengah
sesetengahnya
sesi
sesiapa
session
sessions
sesuai
sesuatu
sesudah
sesungguhnya
sesyen
set
setahun
setakat
setan
setanding
setapak
setar
setara
setaraf
setebal
setelah
setem
setempat
setengah
seterusnya
seth
setia
setiap
setiausaha
setiawan
setibanya
setidaknya
setinggan
setinggi
setiu
sets
setting
settlement
settlements
setu
setuju
seul
seumpama
seumpamanya
seumur
seung
seven
seventeen
seventh
several
severe
severus
sevilla
seville
sewa
sewaan
sewah
sewajarnya
sewaktu
sewenang
sex
sexual
sexuality
sexy
seychelles
seymour
sezaman
sf
sfera
sfn
sg
sgt
sh
sha
shaari
shadow
shadows
shafee
shaffer
shafie
shafiq
shah
shahab
shaharuddin
shaheizy
shahid
shahir
shahirah
shahr
shahrak
shahril
shahrizat
shahrukh
shahrul
shaikh
shake
shakespeare
shakhtar
shakira
shakti
shall
shalla
sham
shamsuddin
shamsudin
shamsul
shan
shandong
shane
shang
shanghai
shangri
shankar
shannon
shanti
shantou
shaolin
shape
shaped
shapiro
sharafuddin
share
shared
shares
shari
sharif
sharifah
shariff
sharing
sharingan
sharjah
shark
sharma
sharmila
sharnaaz
sharon
sharp
sharpe
shasha
shashi
shatner
shauki
shaun
shaw
shawn
shaykh
shazryn
she
sheen
sheep
sheet
sheets
sheffield
sheikh
sheila
shek
shekhar
sheldon
shell
shelley
shelton
shen
sheng
shenyang
shenzhen
shepard
shepherd
sheridan
sheriff
sherina
sherlock
sherman
sherry
sherwood
sheryl
shetty
sheykh
shi
shia
shiba
shibata
shibuya
shield
shift
shigeru
shih
shiha
shik
shikamaru
shiki
shikoku
shila
shim
shima
shimbun
shimizu
shin
shine
shing
shinhwa
shinichi
shinigami
shining
shinji
shinjuku
shinobi
shinoda
shinto
shinzo
shiori
ship
shipbuilding
shipping
shippuden
ships
shipyard
shirak
shiraz
shire
shirley
shiro
shirt
shiva
shizuka
shizuoka
sho
shock
shogakukan
shogun
shonan
shonen
shoot
shooting
shop
shopping
shore
short
shot
shotaro
shoten
shotgun
shoujo
should
shout
show
showbiz
showcase
showdown
showing
shown
shows
showtime
shri
shroff
shruti
shtml
shu
shueisha
shuffle
shuhaimi
shui
shuib
shukor
shukri
shun
shut
shuttle
shyamalan
si
sia
siah
siak
sialkot
siam
siamang
sian
siang
sianida
siap
siapa
siapakah
siar
siaran
siarannya
siasah
siasat
siasatan
sib
siber
siberia
sibu
sibuk
sic
sichuan
sicilia
sicily
sid
sida
sidang
siddiq
side
sidek
sides
sidi
sidney
sie
siege
siegel
siegfried
siem
siemens
siena
sierra
siew
sifar
sifat
sifatnya
sify
sig
sight
sigma
sign
signal
signals
signature
signed
significance
significant
signifikan
signing
signs
sihat
sihir
sijil
sik
sikap
sikapnya
sikat
sikh
sikkim
siklon
sikorsky
siku
sil
sila
silam
silang
silap
silara
silat
silence
silent
silentera
silesia
silicon
silika
silikon
silinder
siling
silk
silkair
silla
silsilah
silva
silver
silverman
silvia
sim
sima
simbad
simbol
simbolik
sime
simen
simetri
simfoni
similar
simmons
simo
simon
simone
simpan
simpanan
simpang
simpati
simple
simply
simpson
simpsons
simptom
simpulan
sims
simulasi
simulation
simunjan
sin
sina
sinai
sinar
sinaran
sinarharian
sinatra
since
sinclair
sindang
sindh
sindiket
sindiran
sindrom
sinema
sinematek
sinematografi
sinensis
sinetron
sing
singa
singapore
singaporeair
singapura
singel
singer
singgah
singgahsana
singh
singing
singkat
singkatan
singkatannya
singkil
single
singles
sings
sinha
sini
sinilah
sinis
sino
sinonim
sinopsis
sins
sint
sintaks
sintaksis
sintesis
sintetik
sinus
siong
sipil
sipitang
siput
sir
sira
sirah
sirajuddin
sirap
sirat
siregar
sireh
siri
sirih
sirip
sirius
siro
sirul
sis
sisa
sisi
sisian
sisihan
sisik
sisinya
sisipan
sistem
sistematik
sistemik
sister
sisters
siswa
siswazah
sit
sita
site
sites
siti
sitiawan
sitkom
situ
situasi
situation
situlah
situs
siu
siul
siva
sivik
sivil
six
sixteenth
sixth
size
sj
sjk
sjkc
sjkt
sk
ska
skala
skandal
ske
skema
sketch
sketsa
ski
skies
skills
skim
skin
skinner
skip
skirt
skm
skop
skopje
skor
skrin
skrip
skru
skuad
skuadron
skuasy
skudai
skull
skuter
sky
skyteam
sl
slam
slamet
slanga
slash
slate
slater
slav
slave
slavery
slaves
slavik
slayer
sleep
sleeping
sleman
slide
slim
slip
slogan
slot
slovak
slovakia
slovenia
slow
slytherin
sm
sma
smackdown
small
smallville
sman
smart
smash
smc
sme
smg
smile
smith
smithsonian
smjk
smk
smka
smoke
smoking
smp
smpn
sms
smu
sn
snake
snakes
snap
snape
snek
sniper
snow
snyder
so
soal
soalan
soap
soares
soba
sobre
soc
soccer
soccerbase
soccernet
soccerway
soccsksargen
sochi
social
socialism
socialist
socie
sociedad
societies
society
sociology
soda
sodium
soe
soeharto
soekarno
soerabaijasch
sofea
sofi
sofia
sofiah
sofla
soft
software
soh
soi
soil
sok
soket
sokong
sokongan
sokongannya
sol
solar
solat
sold
soldier
soldiers
sole
soleh
solekan
solid
solidariti
solidarity
solo
solok
solomon
solonya
solothurn
solstis
solution
solutions
som
somali
somalia
sombong
some
someone
somerset
something
sometimes
somme
somogy
son
sonam
sonar
sonata
song
songket
songkhla
songs
songsang
songwriter
sonia
sonic
sonny
sons
sony
soo
sook
soompi
soon
sop
sopa
sopan
sophia
sophie
soprano
sopron
sora
soraya
sore
soria
sorong
sorotan
sorry
sort
sos
sosej
sosial
sosialis
sosialisme
sosio
sosioekonomi
sosiologi
sosok
soto
sotong
soul
souls
sound
sounds
soundtrack
soup
source
sourcebook
sourceid
sources
sous
south
southampton
southeast
southern
southwest
souza
sovereign
sovereignty
soviet
soya
soyuz
sp
spa
space
spacecraft
spaceflight
spacex
spaghetti
spain
spam
span
spaniel
spanish
spark
sparks
sparrow
sparta
spartacus
spatial
speak
speaker
speakers
speaking
speaks
spears
special
specialist
species
specific
specification
specifications
specified
specify
spectrum
speech
speed
spektroskopi
spektrum
spekulasi
spelling
spencer
sperma
spesies
spesifik
spesifikasi
spesimen
spesis
sphere
spice
spider
spiegel
spielberg
spies
spike
spin
spinoff
spiral
spirit
spirits
spiritual
spits
splash
split
spm
spoiler
spoken
spongebob
sponsor
spontan
spora
sport
sporting
sports
spot
spotify
spotlight
spotted
spp
spr
spread
spring
springer
springfield
springs
sprint
sprm
spurs
sputnik
spy
sq
sql
sqrt
squad
squadron
squads
square
squarepants
sr
src
sri
srikandi
srilankan
srinagar
srivijaya
sriwijaya
srjk
srk
ss
ssc
sseldorf
ssm
ssp
st
sta
stabil
stability
stable
stacy
stad
stade
stadio
stadion
stadium
staf
staff
stage
stages
stail
stake
stalin
stalingrad
stallion
stamford
stamp
stan
stand
standar
standard
standards
standing
stands
stanford
stanley
stanton
star
stara
starbucks
starcraft
stardust
stark
starr
starring
stars
starship
start
started
starting
starts
startup
starz
stasiun
stat
state
stated
statement
statements
states
statesman
statik
station
stations
statistical
statistics
statistik
statistisches
statline
statoids
stats
statue
status
statusnya
statut
stay
ste
stealth
steam
steel
steele
stefan
stefano
stein
steiner
steinfeld
steins
stek
stele
stella
stellar
stem
step
stephan
stephanie
stephen
stephens
steppe
steps
stereo
stereotaip
sterling
stern
steroid
stesen
stesyen
steve
steven
stevens
stevenson
stew
stewart
sti
stica
stick
stig
stigma
stik
still
stim
stirling
stm
sto
stock
stockholm
stok
stoke
stone
stones
stop
stor
storage
storan
store
stores
storey
storia
stories
storm
story
stpm
str
straight
strain
strait
straits
straitstimes
strakonice
strange
stranger
strangers
strasbourg
strategi
strategic
strategies
strategik
strategis
strategy
stratford
strauss
strawberi
stray
stream
streamed
streaming
streda
street
streets
strength
stres
stress
strickland
strike
striker
strikes
strim
string
strip
strok
stroke
strong
stroud
structurae
structural
structure
structures
struggle
struktur
strukturnya
sts
stu
stuart
stub
student
students
studi
studies
studio
studionya
studios
study
stuff
stupid
sturgeon
stuttgart
style
styles
su
sua
suai
suaka
suam
suami
suamiku
suaminya
suan
suapan
suar
suara
suaranya
suasana
suatu
sub
subang
subaru
subbahagian
subbandar
subbenua
subdaerah
subdistrict
subfamili
subgenus
subis
subject
subjects
subjek
subjektif
subkelas
subkeluarga
subkumpulan
submarine
submit
suborder
subramaniam
subscription
subset
subsidi
subsidiari
subsidiary
subspesies
substrat
subtropika
subuh
subunit
subur
suburb
suburbs
subway
success
successful
succession
such
suci
suco
sud
sudah
sudahpun
sudan
sudi
sudin
sudirman
sudu
sudut
sue
suez
suffian
suffolk
sufi
sufian
sufyan
suga
sugar
suggested
sugut
suhaimi
suhakam
suharto
suhu
sui
suicide
suip
suis
suisse
suit
suite
sujud
suk
suka
sukabumi
sukakan
sukan
sukar
sukaraja
sukarela
sukarelawan
sukarno
sukatan
suke
sukhoi
suki
sukma
sukses
suku
sul
sula
sulaiman
sulawesi
suleiman
sulfat
sulfida
sulfur
sulfurik
sulit
sulla
sullivan
sulong
sultan
sultanah
sulu
suluh
suluk
sulung
sulungnya
sum
sumatera
sumatra
sumba
sumbang
sumbangan
sumbangannya
sumbangsih
sumbawa
sumber
sumbernya
sumbu
sumedang
sumeria
sumitomo
summary
summer
summit
sumpah
sumpahan
sumsum
sumur
sun
sunah
sunan
sunat
sunda
sundance
sunday
sunderland
sung
sungai
sungei
sungguh
sungguhpun
sungkai
sunil
sunnah
sunni
sunny
sunrise
sunset
sunshine
suntikan
sunting
suntingan
sunway
suny
sunyi
sup
supaya
super
supercoppa
supercup
superhero
superior
superman
supernatural
supernova
supersonik
superstar
supersusunan
supp
suppl
supplement
supply
support
supported
supporters
supporting
supports
supreme
suprima
sur
sura
surabaya
surah
surakarta
suram
surat
suratkhabar
surau
suraya
sure
suresh
surf
surface
surga
surgery
surgical
suri
suria
surian
surigao
surihani
suriname
surprise
surrender
surrey
suru
suruhan
suruhanjaya
surut
survey
survival
survivor
survivors
surya
suryani
sus
susah
susan
sushi
susi
susilo
suspect
suspected
suspek
suspended
suspends
suspension
sussex
sustainability
sustainable
susu
susuk
susukan
susulan
susun
susunan
susur
susut
sut
sutan
sutera
sutherland
sutil
sutra
sutradara
sutton
suu
suv
suvarnabhumi
suwito
suwon
suzan
suzana
suzanne
suzhou
suzuka
suzuki
suzy
sv
sven
sveriges
svg
svidni
svitavy
sw
swahili
swami
swan
swansea
swara
swasta
swaziland
sweden
swedish
swee
sweeney
sweet
swettenham
swift
swim
swimming
swing
swiss
switch
switzerland
sword
swords
sworn
swt
sy
sya
syaaban
syafi
syafie
syafii
syafil
syafinaz
syafiq
syah
syahadah
syahid
syahira
syahmi
syair
syaitan
syak
syam
syamel
syamsul
syarahan
syarak
syarat
syariah
syariat
syarie
syarif
syarikat
syarikatnya
syawal
syazwan
sydney
syed
syeikh
syekh
syi
syiah
syifa
syiling
syirik
syllabic
sylvester
sylvia
sylvilagus
symbol
symbols
symphony
symposium
symptoms
syndrome
synonymy
synopsis
synthesis
syor
syracuse
syria
syrian
system
systematic
systematics
systems
syuhada
syukri
syukur
syura
syurga
sz
szabolcs
szatma
sze
t
ta
taal
taat
tab
taba
tabah
tabalong
tabanan
tabari
tabel
tabi
tabiat
tabir
table
tables
tablesl
tablet
tabligh
tabloid
tabriz
tabu
tabuk
tabung
taburan
tabut
tactical
tactics
tadah
tadahan
tadbir
tadi
tadika
tae
taejo
taejong
taek
taekwondo
taeyang
tafsir
tafsiran
tag
tagalog
tagore
tah
taha
tahan
tahanan
tahap
tahfiz
tahi
tahir
tahiti
tahniah
tahrir
tahta
tahu
tahun
tahunan
tahunnya
tai
taib
taiga
tail
tailed
taip
taipei
taiping
taira
taisho
taiwan
taj
tajaan
tajam
tajik
tajikistan
tajuddin
tajuk
tajul
tak
taka
takaful
takagi
takahashi
takashi
takat
takbir
takdir
take
takeda
taken
takes
takeshi
takeuchi
takhta
takhtanya
taking
takkan
taklimat
takluk
taklukan
takraw
takrif
takrifan
takson
taksonomi
taktik
taktikal
takumi
takungan
takur
takut
takuya
takwim
takziah
takzim
tal
tala
talak
talam
talang
tale
talent
tales
tali
talian
talib
taliban
talk
talking
talks
tall
tallinn
talmud
tam
tama
tamadun
tamak
taman
tamar
tamara
tamat
tamatnya
tambah
tambahan
tambahkan
tambak
tambang
tambo
tambora
tambun
tambunan
tamiang
tamil
taming
tampa
tampak
tampaknya
tampan
tampar
tamparan
tamparuli
tampil
tampin
tampoi
tampuk
tamu
tan
tana
tanah
tanahair
tanahnya
tanaka
tanam
tanaman
tanda
tandas
tandatangan
tanding
tanduk
tang
tangan
tangannya
tangerang
tangga
tanggal
tanggang
tanggapan
tangguh
tanggung
tanggungan
tanggungjawab
tanggungjawabnya
tangisan
tangkai
tangkak
tangkap
tangkapan
tangkas
tangki
tanglung
tango
tani
tania
tanjakan
tanjong
tanjung
tank
tanko
tanks
tanner
tanpa
tanya
tanzania
tao
taoisme
tap
tapa
tapah
tapai
tapak
tapanuli
tape
tapi
tappeh
taqi
taqwa
tar
tara
taraf
tarakan
tarekat
target
targets
tari
tarian
tarif
tarik
tarikan
tarikh
taring
tariq
tarmizi
tarn
taro
tarragona
tarsus
tart
tartar
taruhan
taruna
tarzan
tas
tasawuf
tasbih
tasek
tasha
tashkent
tasik
tasikmalaya
task
tasman
tasmania
tass
taste
tat
tata
tatabahasa
tatacara
tatanama
tatar
tatarajah
tatatanda
tatatertib
tate
tatkala
tatsuya
tatu
tau
taubat
taufan
taufik
taufiq
tauge
tauhid
tauhu
tauke
tauliah
taurat
tauris
taurus
tawan
tawanan
tawar
tawaran
tawau
tawi
tax
taxi
taxonomic
taxonomy
tay
tayang
tayangan
tayangannya
tayar
taylor
tb
tba
tbilisi
tbk
tbs
tc
tcm
td
te
tea
teacher
teachers
teaching
team
teams
tears
teaser
teater
teatro
teau
tebal
tebing
tebo
tebrau
tebu
tebuk
tebusan
tech
techcrunch
technica
technical
technique
techniques
technological
technologies
technology
teck
ted
teddy
teduh
tedung
tee
teen
teenage
teens
teeth
teeuw
teg
tegak
tegal
tegang
tegap
tegar
tegas
tegasan
teguh
teguran
teh
tehran
teik
teja
tek
teka
tekad
tekak
tekal
tekan
tekanan
teki
teknik
teknikal
teknikalnya
teknologi
teks
teksi
tekstil
tekstur
tektonik
tekukur
tekun
tel
teladan
telaga
telah
telahpun
telanjang
telapak
telecom
telecommunications
telefilem
telefon
telegraf
telegram
telegraph
telekom
telekomunikasi
telemovie
telenovela
telephone
telescope
teleskop
televisi
television
televisyen
telinga
teliti
tell
teller
tells
telok
telor
telstra
telugu
teluk
telunjuk
telupid
telur
telurnya
telus
tema
teman
temannya
temasek
temasya
tembaga
tembak
tembakan
tembakau
tembang
tembeling
tembikai
tembikar
tembok
temburong
temenggong
temenggung
temerloh
tempahan
tempat
tempatan
tempatnya
tempayan
tempe
temperature
templar
templat
template
templates
temple
tempo
tempoh
tempohnya
temporal
tempua
tempur
tempurung
temu
temuan
temubual
temuduga
temui
temuramah
temurun
ten
tenaga
tenang
tenasia
tenat
tencent
tendangan
tender
tendon
tenerife
teng
tengah
tengahari
tengahnya
tenggara
tenggaroh
tenggekan
tenggelam
tenggol
tenghilan
tengkorak
tengku
tengkujuh
tengkuk
tengok
tenis
tennant
tennessee
tennis
tenom
tenor
tensei
tentang
tentangan
tentangnya
tentara
tentera
tenteranya
tenth
tentu
tentunya
tenun
tenunan
tenusu
teo
teochew
teoh
teologi
teorem
teori
teorinya
tepat
tepatnya
tepi
tepian
teplice
tepu
tepung
ter
tera
teragak
teragung
teraju
terakhir
terakhirnya
teramai
teramat
terancam
terancang
terang
terangan
terangkum
terap
terapi
terapung
teras
terasa
terasing
teratai
teratas
teratur
terawal
terbabas
terbabit
terbagi
terbahagi
terbaharu
terbaik
terbaiknya
terbakar
terbalik
terbang
terbanyak
terbaru
terbarunya
terbatas
terbawah
terbelah
terbenam
terbengkalai
terbentang
terbentuk
terbentuknya
terbesar
terbesarnya
terbiar
terbilang
terbina
terbinanya
terbit
terbitan
terbitannya
terbongkar
terbuat
terbuka
terbukti
terbunuh
terburuk
tercalon
tercapai
tercatat
tercedera
tercemar
tercetus
tercetusnya
tercinta
tercipta
tercorot
terdahulu
terdahulunya
terdampar
terdapat
terdapatnya
terdedah
terdekat
terdekatnya
terdengar
terdesak
terdidik
terdiri
terence
terendah
terendak
terengganu
teres
teresa
terestrial
tergabung
terganggu
tergantung
tergelincir
tergendala
tergesa
tergolong
terhad
terhadap
terhadapnya
terhalang
terharu
terhasil
terhebat
terhempas
terhenti
terhingga
terhormat
teri
terier
terikat
terima
terindah
teringat
terjadi
terjadinya
terjaga
terjalin
terjamin
terjatuh
terjebak
terjejas
terjemahan
terjual
terjumpa
terjun
terkadang
terkait
terkandas
terkandung
terkawal
terkaya
terkecil
terkecuali
terkejut
terkeluar
terkemudian
terkemuka
terkena
terkenal
terkesan
terkini
terkorban
terkuat
terkumpul
terlalu
terlambat
terlampau
terlarang
terlaris
terlarut
terlatih
terlebih
terlepas
terletak
terletaknya
terlibat
terlihat
terlindung
terluka
term
terma
termahal
termaju
termaktub
termasuk
termasuklah
termasyhur
terminal
terminator
terminologi
terminology
termodinamik
terms
termuda
ternak
ternakan
ternama
ternampak
ternate
ternyata
terorisme
terowong
terpadu
terpakai
terpaksa
terpanjang
terpantas
terpelajar
terpelihara
terpencil
terpendam
terpengaruh
terpenting
terperangkap
terperinci
terpesona
terpilih
terpisah
terpuji
terputus
terra
terrace
terre
terrestrial
territoire
territorial
territories
territory
terror
terrorism
terrorist
terry
tersalah
tersayang
tersebar
tersebut
tersedia
tersekat
terselamat
tersembunyi
tersenarai
tersendiri
tersenyum
terserempak
tersergam
terserlah
tersiar
tersibuk
tersilap
tersimpan
tersingkir
tersirat
tersisa
tersohor
tersusun
tertakluk
tertanam
tertangguh
tertarik
tertekan
tertentu
tertera
tertib
tertinggal
tertinggi
tertipu
tertua
tertubuhnya
tertuduh
tertulis
tertumpu
tertutup
teruel
teruja
teruk
terukir
terulung
terumbu
teruna
terung
terunggul
terungkap
terup
terurai
terus
terusan
teruskan
terutama
terutamanya
tes
tesco
tesis
tesla
test
testament
testarossa
testimony
testing
tests
testudines
tet
tetamu
tetangga
tetap
tetapan
tetapi
tetikus
tetingkap
tetsuya
teuku
tewas
texas
text
textbook
texts
tezuka
tf
tfrac
tg
th
tha
thai
thailand
thaksin
thaler
thales
tham
thames
than
thanh
thani
thank
thanks
that
thatcher
the
theater
theaters
theatre
theatres
thebes
theborneopost
theft
theguardian
their
them
theme
themselves
then
theo
theodor
theodore
theological
theology
theoretical
theories
theory
therapy
there
therefore
theresa
thermal
theron
these
thesis
thestar
thesundaily
theta
thewrap
they
thi
thief
thierry
thin
thing
things
think
thinking
third
thirty
this
tho
thomas
thompson
thomson
thong
thor
thorne
thornton
those
though
thought
thoughts
thousand
thousands
thrace
thrash
threat
threatened
threats
three
threshold
thriler
thriller
thrips
throne
thrones
through
throughout
thu
thunder
thurgau
thursday
thus
thuwunna
ti
tia
tiada
tiadanya
tian
tiananmen
tiang
tianjin
tiap
tiara
tiba
tiberius
tibet
tibetan
tica
ticino
ticket
tickets
tico
tidak
tidaklah
tidal
tide
tidung
tidur
tie
tien
tienne
ties
tiffany
tiga
tiganya
tiger
tigerair
tigers
tigris
tik
tika
tikar
tiket
tiktok
tikus
til
tilawah
till
tim
timah
timang
timbal
timbalan
timbalannya
timbang
timbangan
timber
timbul
timbulnya
timbunan
time
timeline
times
timesofindia
timetable
timo
timor
timothy
timun
timur
timurnya
tin
tina
tindak
tindakan
tindakannya
tindakbalas
ting
tinggal
tinggalan
tinggalkan
tinggi
tingginya
tingkah
tingkap
tingkat
tingkatan
tinjauan
tinju
tinker
tino
tintin
tiny
tio
tioman
tiong
tionghoa
tip
tipah
tipikal
tipis
tips
tipu
tirai
tiram
tirana
tiri
tirinya
tiruan
tirus
tis
tissue
tisu
tita
titah
titan
titanic
titanium
titans
titi
titian
titik
titingan
titisan
titiwangsa
title
titled
titles
tito
titsingh
titus
tiub
tiupan
tiwari
tiz
tj
tk
tl
tldm
tm
tma
tn
tnb
tni
tnms
tnt
to
toba
tobacco
tobago
tobias
toby
tochigi
todak
today
todd
toei
together
togo
toh
toho
toi
tojo
tok
token
toki
toko
tokoh
tokong
toksik
toksin
tokugawa
tokusatsu
tokushima
tokyo
tol
tolak
told
toledo
toleransi
tolitoli
tolkien
toll
tolna
tolok
tolombeh
tolong
tom
toma
tomas
tomato
tomatoes
tomb
tombak
tome
tommy
tomo
tomok
tomomi
tomorrow
tompok
ton
tone
tong
tonga
tonggak
tongkang
tongkat
toni
tonight
tonton
tontonan
tony
too
took
tool
tools
toon
top
topeng
topi
topic
topics
topik
topl
topografi
topol
topologi
tops
tor
tora
torah
toraja
torch
tori
torino
tork
tornado
toro
toronto
torpedo
torre
torres
tort
tortoise
tortoises
torture
tory
tosu
tot
total
totally
toto
tottenham
tottori
touch
tough
toulouse
tour
tourism
tourist
tournament
tournamentsoftware
tours
tovuz
toward
towards
tower
towers
town
towns
township
toxic
toy
toyama
toyo
toyol
toyota
toyotomi
toys
tp
tr
tra
trace
track
tracker
tracking
tracks
tracy
trade
trademark
trading
tradisi
tradisinya
tradisional
tradisionalnya
tradition
traditional
traditions
traffic
trafford
trafik
tragedi
tragedy
tragis
trail
trailer
train
training
trainor
trains
trait
trak
traktor
trang
trans
transaction
transactions
transaksi
transcript
transcription
transfer
transformasi
transformation
transformer
transformers
transgender
transistor
transit
transitif
transition
transjakarta
transkripsi
translated
translation
translations
translator
transliterasi
transmisi
transmission
transport
transportation
transylvania
trap
trauma
travel
traveller
travels
travers
travis
tre
treasure
treasures
treasury
treat
treaties
treatise
treatment
treaty
trebis
tree
trees
trek
treler
trem
tren
trenc
trend
trending
trends
trent
trentino
tres
treviso
trevor
tri
trial
trials
triang
triangle
tribal
tribe
tribun
tribunal
tribune
tribunnews
tribute
trick
trier
trigger
trigonometri
trilion
trilogi
trilogy
trinidad
trinita
trinity
trio
trip
triple
tripod
tripoli
trisha
tristan
triumph
trivia
trnava
tro
trofi
trojan
trolak
trong
tronoh
troops
trophy
tropical
tropika
trouble
trout
trove
troy
troya
tru
truck
trudeau
true
trujillo
truly
truman
trump
truss
trussel
trust
trustees
truth
trutnov
try
trying
ts
tsanawiyah
tsang
tsar
tse
tsu
tsubasa
tsui
tsuji
tsukasa
tsunami
tsunku
tsushima
tt
ttingen
tu
tua
tuah
tuai
tuaian
tualang
tuan
tuang
tuanku
tuannya
tuanya
tuaran
tuas
tuba
tube
tuberculosis
tuberkulosis
tubuh
tubuhnya
tuck
tucker
tudm
tudor
tuduhan
tudung
tuesday
tugas
tugasan
tugasnya
tugu
tuhan
tuisyen
tujahan
tuju
tujuan
tujuannya
tujuh
tuk
tukang
tukar
tukaran
tukul
tulang
tular
tulen
tulip
tulis
tulisan
tulisannya
tulus
tum
tumbang
tumblr
tumbuh
tumbuhan
tumbukan
tumis
tumit
tumor
tumpah
tumpahan
tumpang
tumpat
tumpuan
tumpul
tun
tuna
tunai
tunang
tunangnya
tunas
tunda
tundra
tunduk
tune
tunes
tung
tunggal
tunggangan
tunggu
tunggul
tungku
tunis
tunisia
tunjang
tunjuk
tunku
tunnel
tuntut
tuntutan
tuo
tupai
tupolev
tur
turbin
turbo
turet
turin
turing
turk
turkey
turki
turkik
turkish
turkmen
turkmenistan
turks
turn
turnbull
turned
turner
turning
turnout
turns
turtle
turtles
turun
turunan
turunnya
turus
turut
turutan
tuscany
tutong
tutor
tutorial
tuttle
tutup
tuturan
tuvalu
tv
tvb
tvn
tvri
tw
twain
tweet
twelve
twentieth
twenty
twice
twilight
twin
twinkle
twins
twist
twitch
twitter
two
tx
txt
ty
tyler
type
types
typhoon
tyrol
tyson
tyt
tz
tze
tzu
u
ua
uae
uang
ub
ubah
ubaidah
uban
ubat
ubatan
uber
ubi
ubudiah
ubuntu
ubur
uc
ucapan
ucapannya
uchiha
uci
ucla
ud
uda
udang
udara
udaranya
udine
udinese
udon
ue
ueda
uefa
ufo
ufti
ufuk
ugama
uganda
ugly
ugutan
uh
uherske
uhf
uhm
ui
uiam
uitm
ujang
uji
ujian
ujibakat
ujikaji
ujong
ujung
uk
ukiran
ukm
ukraine
ukrainian
ukur
ukuran
ul
ulam
ulama
ulamak
ulang
ulangan
ulangtahun
ular
ulasan
ulat
ullmann
ulrich
ulsan
ultimate
ultra
ultrabunyi
ultraman
ultras
ultratop
ultraungu
ultron
ulu
ulum
ulung
ulysses
um
uma
umar
umat
umayyah
umberto
umbi
umbrella
umi
umie
umm
ummah
ummi
ummu
umno
umpama
umpamanya
umpan
umperk
umrah
ums
umum
umumnya
umur
umurnya
un
una
uncle
uncommon
uncredited
und
undang
undangan
under
undercover
underground
understand
understanding
underwater
underworld
undi
undian
undiinfo
undp
undur
une
unesco
unexpected
ung
unggas
unggul
ungka
ungkapan
ungku
ungu
unhcr
uni
unic
unicef
unicode
unicorn
unifi
unified
uniform
unihan
unik
unikod
unilever
union
unique
unit
unite
united
units
unity
univ
universal
universe
universidad
universita
universitas
universite
universiti
universities
university
unix
unjuran
unknown
unlimited
uno
unofficial
unplugged
unrecognized
unsur
unta
until
untitled
untold
untuk
untukmu
untuknya
untung
unveil
unveiled
unveils
unwin
up
upacara
upah
upahan
upanishad
uparrow
upaya
upcoming
update
updated
updates
upgrade
upi
upin
upko
upm
upon
upper
uprising
ups
upsi
upsr
uqasha
ur
ura
urai
ural
uranium
uranus
urat
urawa
urban
urbanized
urdu
urges
uri
url
ursula
uruguay
urus
urusan
urusetia
urutan
urutoraman
us
usa
usaf
usage
usaha
usahanya
usahasama
usahawan
usang
usb
usc
usd
usda
use
used
useful
user
users
uses
usgs
usia
usianya
usim
using
usj
uskup
usm
usman
usmar
usno
usop
uss
ussr
ustaz
ustazah
usually
usul
usulan
usulnya
usus
ut
uta
utah
utama
utamanya
utan
utara
utaranya
utarid
utc
utd
ute
utf
uthman
uthmaniyah
uthmaniyyah
utiliti
utilities
utk
utm
utopia
utrecht
uttar
utuh
utusan
uu
uum
uv
uwe
ux
uyghur
uz
uzbek
uzbekistan
uzumaki
uzur
v
va
vacation
vaccine
vaccines
vaganza
vajiravudh
vaksin
vaksinasi
vakum
val
valais
vale
valencia
valens
valentin
valentine
valerie
valid
valladolid
valle
valley
value
values
valve
vampire
van
vancouver
vanessa
vanguard
vanila
vanilla
vanity
vanuatu
vanunu
var
varanasi
varen
varese
vargas
variable
varian
variant
variants
variasi
variation
varieti
varieties
variety
various
varley
varma
vary
vas
vasa
vasco
vaskular
vatican
vatikan
vaucluse
vaud
vaughn
vc
vcd
vch
ve
vec
vector
veda
vedanta
vee
vega
vegalta
vegas
vegetarian
vehicle
vehicles
vektor
vel
vela
velar
vellu
velocity
velvet
vena
vende
vendor
veneto
venezia
venezuela
vengeance
venice
venom
ventforet
ventrikel
ventura
venture
ventures
venue
venues
venus
ver
vera
verde
verdi
verdy
verge
verlag
verma
vermont
vernacular
vernakular
verne
vernon
verona
veronica
versailles
verse
versi
version
versions
versus
vertebra
vertebrat
vertebrata
vertebrate
vertical
very
ves
vessel
vessels
vesuvius
veszpre
veteran
veterans
veterinar
veterinary
vettel
vevo
vez
vezirko
vh
vhf
vhs
vi
via
viacom
vic
vice
vicente
vicenza
vichy
vickers
vicky
victim
victims
victor
victoria
victorian
victorious
victory
vida
vidal
video
videonya
videos
vidya
vie
vienna
vienne
vientiane
viet
vietnam
vietnamese
view
viewers
views
vii
viii
vijay
viki
viking
vikram
viktor
vila
vilaine
villa
village
villages
villain
villanueva
villarreal
ville
villeneuve
villers
vilnius
vimeo
vin
vince
vincent
vincenzo
vinci
vinod
vintage
viola
violence
violent
violet
vip
viper
viral
virgin
virginia
virtual
virus
viruses
vis
visa
visayas
viscount
vishal
vishnu
visi
visible
vision
visions
visit
visitors
visits
vissel
vista
vistara
visual
vita
vitae
vital
vitamin
vito
vitro
vittorio
viu
viva
vivek
vivekananda
vivian
vivo
vixx
viz
vj
vladimir
vn
vo
voc
vocal
vocaloid
vocals
vogue
voice
voices
void
vokal
vokalis
vokalnya
vokasional
vol
volcanic
volcano
voldemort
volga
volkswagen
vols
volt
volta
voltan
volume
volumes
volunteer
volvo
von
voor
vorpommern
vortis
vosges
vote
voted
voters
votes
voting
vox
voyage
voyager
vp
vr
vranov
vre
vres
vs
vseti
vt
vtv
vu
vulcan
vulgaris
vulpes
vulture
vy
vys
vysoc
w
wa
wabak
wacana
wad
wada
wadah
wade
wadi
wafat
wafer
waffen
wagner
wagon
wah
wahab
wahai
wahid
wahyu
[...]
