!
"
#
##0
##1
##10
##11
##12
##13
##14
##15
##16
##17
##18
##19
##2
##20
##21
##22
##23
##24
##25
##26
##27
##28
##29
##3
##30
##31
##32
##33
##34
##35
##36
##37
##38
##39
##4
##40
##41
##42
##43
##44
##45
##46
##47
##48
##49
##5
##50
##51
##52
##53
##54
##55
##56
##57
##58
##59
##6
##60
##61
##62
##63
##64
##65
##66
##67
##68
##69
##7
##70
##71
##72
##73
##74
##75
##76
##77
##78
##79
##8
##80
##81
##82
##83
##84
##85
##86
##87
##88
##89
##9
##90
##91
##92
##93
##94
##95
##96
##97
##98
##99
$
%
&
'
(
)
*
+
,
-
.
/
0
00
000
0000
001
002
003
004
005
006
007
008
009
01
010
01000
011
012
013
014
0167
02
020
021
024
028
03
0333
04
05
050
0500
06
06000
06300
0667
07
07000
08
08000
082
0833
088
09
09100
09800
1
10
100
1000
1001
101
1016
102
1024
103
104
105
1050
106
1066
107
108
1080
109
11
110
1100
111
112
113
114
115
116
1167
117
118
119
12
120
1200
1204
121
122
123
124
125
1250
126
1260
127
128
1280
129
13
130
1300
131
132
133
1333
134
135
1350
136
1368
137
1370
138
1389
139
1392
1398
14
140
1400
141
1415
142
1420
1428
1429
143
1430
1431
144
145
1450
1453
146
1460
147
1470
148
149
1492
15
150
1500
1506
1509
151
1510
1511
1512
1513
1515
1516
1517
1518
1519
152
1520
1521
1522
1525
1526
1527
1528
1529
153
1530
1536
154
1540
1541
1545
1547
155
1550
1552
156
1560
1565
1568
157
1570
1571
158
1580
1582
159
1590
1592
1598
16
160
1600
1602
1603
1605
1609
161
1610
1613
1616
1619
162
1620
1623
1625
1626
163
1630
1632
1634
1636
1638
164
1640
1641
1642
1644
1645
1648
1649
165
1650
1659
166
1660
1661
1662
1665
1666
1667
167
1670
168
1680
16800
1683
1685
1688
1689
169
1690
1699
17
170
1700
1701
1707
171
1710
1714
1718
172
1720
1721
1722
1727
173
1730
1735
1736
174
1740
1743
1745
175
1750
1753
1755
1756
1757
1758
176
1760
1761
1762
1763
1764
1765
1766
1767
1768
1769
177
1770
1771
1772
1773
1774
1775
1776
1777
1778
1779
178
1780
1781
1782
1783
1784
1785
1786
1787
1788
1789
179
1790
1791
1792
1793
1794
1795
1796
1797
1798
1799
18
180
1800
1801
1802
1803
1804
1805
1806
1807
1808
1809
181
1810
1811
1812
1813
1814
1815
1816
1817
1818
1819
182
1820
1821
1822
1823
1824
1825
1826
1827
1828
1829
183
1830
1831
1832
1833
1834
1835
1836
1837
1838
1839
184
1840
1841
1842
1843
1844
1845
1846
1847
1848
1849
185
1850
1851
1852
1853
1854
1855
1856
1857
1858
1859
186
1860
1861
1862
1863
1864
1865
1866
1867
1868
1869
187
1870
1871
1872
1873
1874
1875
1876
1877
1878
1879
188
1880
1881
1882
1883
1884
1885
1886
1887
1888
1889
189
1890
1891
1892
1893
1894
1895
1896
1897
1898
1899
19
190
1900
1901
1902
1903
1904
1905
1906
1907
1908
1909
191
1910
1911
1912
1913
1914
1915
1916
1917
1918
1919
192
1920
1921
1922
1923
1924
1925
1926
1927
1928
1929
193
1930
1931
1932
1933
1934
1935
1936
1937
1938
1939
194
1940
1941
1942
1943
1944
1945
1946
1947
1948
1949
195
1950
1951
1952
1953
1954
1955
1956
1957
1958
1959
196
1960
1961
1962
1963
1964
1965
1966
1967
1968
1969
197
1970
1971
1972
1973
1974
1975
1976
1977
1978
1979
198
1980
1981
1982
1983
1984
1985
1986
1987
1988
1989
199
1990
1991
1992
1993
1994
1995
1996
1997
1998
1999
2
20
200
2000
2001
2002
2003
2004
20040616075334
2005
2006
2007
2008
2009
201
2010
2011
2012
2013
2014
2015
2016
2017
2018
2019
202
2020
2021
2022
2023
2024
2025
2026
203
2030
204
205
2050
206
207
208
209
21
210
2100
211
212
21200
213
21300
214
215
216
21600
2167
217
21700
218
219
22
220
221
222
223
224
225
226
227
228
229
23
230
231
232
233
2333
234
235
236
237
238
239
24
240
241
242
243
244
245
246
247
248
249
25
250
2500
251
252
253
254
255
256
257
258
259
26
260
2600
261
262
263
264
265
266
2667
267
268
269
27
270
271
272
273
274
275
276
277
278
279
28
280
28000
281
282
283
284
285
286
287
288
289
29
290
291
292
293
294
295
296
297
298
299
3
30
300
3000
301
302
303
304
305
306
307
308
309
31
310
311
312
313
314
315
316
3166
317
318
319
32
320
32000
321
322
323
324
325
326
327
328
329
33
330
331
332
333
3333
334
335
336
337
338
339
34
340
341
342
343
344
345
346
347
348
349
35
350
3500
351
352
353
354
355
356
357
358
359
36
360
361
362
363
364
365
3654
366
3667
367
36700
368
369
37
370
371
372
373
374
375
376
377
378
379
38
380
381
382
383
384
385
386
387
388
389
39
390
391
392
393
394
395
396
397
398
399
4
40
400
4000
401
402
403
404
405
406
407
408
409
41
410
411
412
413
414
415
416
417
418
419
42
420
421
422
423
424
425
426
427
428
429
43
430
43000
431
432
433
4333
434
435
436
437
43700
438
439
44
440
441
442
443
444
445
446
447
448
449
45
450
4500
451
452
453
454
455
456
4563
457
458
459
46
460
461
462
463
464
465
466
4667
467
468
469
47
470
471
472
473
474
475
476
477
478
479
48
480
481
483
4833
484
485
486
487
488
489
49
490
491
492
493
494
495
496
497
498
499
5
50
500
5000
501
502
503
504
505
506
507
508
509
51
510
511
512
513
514
515
516
5167
517
518
519
52
520
521
522
523
524
525
526
527
528
529
53
530
531
532
533
5333
534
535
536
537
538
539
54
540
541
543
544
545
546
547
548
549
55
550
5500
551
552
553
554
555
556
557
558
559
56
560
561
562
563
564
565
566
5667
568
569
57
570
571
575
576
58
580
581
582
583
584
585
587
589
59
590
594
595
597
599
6
60
600
6000
601
602
603
604
605
606
607
608
609
61
610
611
612
613
614
615
616
6167
617
618
619
62
620
621
622
623
624
625
626
627
628
629
63
630
631
632
633
6333
634
635
636
637
638
639
64
640
641
642
644
645
646
647
648
649
65
650
6500
651
652
653
654
655
656
657
658
659
66
660
661
663
664
665
666
6667
667
668
67
670
671
672
674
675
676
677
679
68
680
681
682
683
6833
684
685
686
687
688
69
690
691
692
695
696
7
70
700
7000
701
702
703
704
705
707
708
71
710
711
712
715
7167
717
718
72
720
721
723
725
727
728
73
730
731
732
737
74
740
742
745
747
75
750
7500
751
752
754
755
756
757
76
760
7667
767
768
77
770
772
775
777
78
780
782
786
787
79
790
8
80
800
8000
801
802
803
804
805
808
809
81
810
81000
812
814
815
8160
82
820
822
823
825
83
830
8333
84
840
85
850
8500
852
86
860
87
870
88
880
882
888
89
890
899
9
90
900
9000
9001
901
902
91
910
911
912
9167
918
92
920
922
929
93
930
931
9333
935
936
94
940
944
946
94700
95
950
9500
96
960
96000
961
962
964
965
9667
967
969
97
970
973
975
976
978
979
98
980
981
983
9833
987
99
990
997
999
:
;
<
=
>
?
@
\
^
_
`
a
aa
aac
aamir
aan
aang
aargau
aaron
ab
aba
abad
abadi
abah
abang
abangnya
abas
abau
abba
abbas
abbasiyah
abbasiyyah
abbey
abbott
abby
abc
abd
abdel
abdi
abdillah
abdomen
abdu
abdul
abdulaziz
abdullah
abdur
abdurrahman
abe
abel
aberdeen
abhishek
abi
abidin
abigail
ability
abim
abjad
abkhaz
abkhazia
able
abo
aborigin
aboriginal
about
above
abpbh
abraham
abrams
abruzzo
abs
abstract
abstrak
abu
abul
ac
acade
academia
academic
academy
acar
acara
accel
accepted
access
accessed
accident
according
account
accounts
ace
aceh
aces
achaemenid
acheh
achievement
achik
achmad
aci
acid
acoustic
acp
acquisition
acre
across
acs
acsa
act
acta
acting
action
active
activision
activist
activities
activity
actor
actors
actress
acts
actually
acuan
ad
ada
adab
adah
adakah
adakala
adakalanya
adakan
adalah
adam
adams
adanya
adaptasi
adaptation
adapun
adat
add
added
addison
addition
additional
address
ade
adegan
adelaide
adele
aden
adenan
adha
adham
adhd
adi
adib
adibah
adidas
adik
adiknya
adil
adinda
adipati
adira
adit
aditya
adiwira
adjektif
adler
adli
adlin
administrasi
administratif
administration
administrative
admiral
adnan
adobe
adolf
adopted
adrian
adriana
adriano
adriatik
adu
aduan
aduk
adult
adulyadej
adun
adunan
advance
advanced
adven
advent
adventure
adventures
advertising
advice
advisory
advokasi
adzam
adzim
ae
aec
aedes
aedy
aegean
aeon
aerial
aeril
aero
aeroangkasa
aerodinamik
aeroflot
aeronautik
aerospace
af
afa
afar
afc
afdlin
aff
affair
affairs
affan
affandi
affendi
affleck
afgan
afghan
afghanistan
afi
afif
afiq
afonso
afp
africa
african
africanus
afrika
afrikaans
afro
after
afzan
ag
aga
again
against
agak
agam
agama
agamanya
agamawan
agar
agatha
agdam
agdash
age
agen
agency
agenda
agensi
agent
ages
agglome
agihan
agm
agnes
ago
agong
agra
agraria
agreement
agregat
agresif
agricultural
agriculture
agrikultur
agro
agsu
agu
aguilar
aguinaldo
agung
agus
agustus
ah
ahad
ahead
ahl
ahli
ahlinya
ahlul
ahmad
ahmadabad
ahmadi
ahmar
ahmed
ahn
ai
aib
aichi
aid
aida
aidan
aidil
aidiladha
aidilfitri
aidit
aids
aigis
aik
aika
aim
aiman
ain
aina
aini
ainu
air
airasia
airbender
airborne
airbus
aircraft
aired
aires
airi
airku
airline
airlines
airmata
airnya
airport
airports
airways
ais
aise
aisha
aishah
aishwarya
aiskrim
aisne
aisyah
aizat
aizen
aj
ajai
ajaib
ajak
ajal
ajang
ajar
ajaran
ajarannya
ajax
ajay
aji
ajil
ajk
ajl
ak
aka
akad
akademi
akademik
akal
akan
akane
akar
akari
akarnya
akasia
akatsuki
akaun
akauntan
akb
akbar
akc
akhbar
akhil
akhir
akhiran
akhirat
akhirnya
akhlak
akhtar
aki
akibat
akibatnya
akidah
akil
akim
akimoto
akira
akita
akkadia
akmal
akne
ako
akrab
akreditasi
akrilik
akronim
aksara
akses
aksesi
aksesori
akshay
aksi
aksiom
akta
aktif
aktivis
aktivisme
aktiviti
aktivitinya
aktobe
aktor
aktres
aktuari
aku
akuakultur
akuan
akuarium
akuatik
akui
akur
akustik
akut
al
ala
alabama
aladdin
alaf
alah
alahan
alai
alain
alam
alamat
alami
alamiah
alan
alang
alarm
alas
alasan
alasannya
alaska
alat
alatan
alauddin
alba
albab
albacete
albania
albanian
albany
albar
albatros
albert
alberta
alberto
albion
albirex
album
albumnya
albums
albuquerque
albus
alchemist
aldo
ale
alec
alejandro
aleksander
aleksandr
alel
aleppo
alergi
alert
alessandria
alessandro
alex
alexander
alexandra
alexandre
alexandria
alexis
aleza
alfa
alfian
alfonso
alfred
alfredo
alga
algebra
algeria
algiers
algoritma
alhamdulillah
alhijrah
ali
alia
aliabad
alias
alicante
alice
alicia
alien
alif
aliff
align
alignbars
alih
alihan
alik
alim
aliran
alisa
alison
alive
aliyah
alkali
alkena
alkimia
alkitab
alkohol
all
alla
allah
allahyarham
allahyarhamah
allan
allen
alley
alliance
allied
allier
allison
allmusic
allowed
ally
alma
almarhum
almari
almaty
almeida
almeri
almost
alo
aloi
alone
along
alonso
alor
alp
alpes
alpha
alphabet
alphard
alpine
alps
already
als
alsace
also
alstonia
alt
alta
altantuya
altar
alternatif
alternative
although
altimet
altitud
alto
alu
alue
alukan
aluminium
alumni
alun
alunan
alur
alves
alvin
always
alwi
alya
alyah
alzheimer
am
ama
amadeus
amai
amal
amalan
amali
aman
amanah
amanat
amanda
amani
amar
amaran
amasya
amat
amateur
amatlah
amatur
amazing
amazon
ambang
ambar
ambassador
amber
ambil
ambon
ambrose
ambulans
amd
amdan
ame
ameer
amelia
amelina
amer
america
american
americans
americas
amerika
amfibia
ami
amin
amina
aminah
amino
aminuddin
amir
amira
amirah
amiriah
amirul
amit
amitabh
amman
ammar
ammo
ammonia
ammonium
amn
amnesia
amnesty
amnya
among
amor
amore
amorphophallus
amos
amour
amp
ampaian
ampang
ampar
ampas
ampat
amplitud
ampuan
ampun
amr
amran
amri
amsterdam
amuk
amunisi
amy
amyra
amyza
amzah
an
ana
anai
anak
anakanda
anakandanya
anakku
anaknya
analisa
analisis
analog
analogi
analysis
anam
anan
anand
ananda
anarkis
anas
anasir
anatolia
anatomi
anatomy
anc
ancaman
anchor
ancient
and
anda
andai
andaian
andak
andalas
andalus
andalusia
andaman
anderlecht
anders
andersen
anderson
andersson
andes
andhra
andi
andika
ando
andorra
andra
andre
andrea
andreas
andrei
andrew
andrews
androgen
android
andromeda
andy
aneh
aneka
anemia
anestesia
anfield
ang
angan
angel
angela
angeles
angelica
angelina
angeline
angelo
angels
anggap
anggapan
anggaran
anggerik
anggota
anggotanya
anggun
anggur
angin
angka
angkara
angkasa
angkasapuri
angkasawan
angkat
angkatan
angkatnya
angkor
angkuh
angkup
angkut
angkutan
angle
anglican
anglikan
anglo
angola
angry
angsa
angsana
angus
anhalt
anhui
ani
anil
animal
animals
animasi
animated
animation
animator
animax
anime
animisme
anion
aniplex
anis
anissa
anita
anjakan
anjal
anjing
anjung
anjuran
ankara
ann
anna
annabeth
annals
annan
annapolis
anne
annie
anniversary
annotated
announced
announcement
announces
annual
annuar
anom
anomali
another
ans
ansar
ansari
anson
ansur
ansuran
answer
answers
ant
anta
antagonis
antalya
antar
antara
antarabandar
antarabangsa
antarabangsanya
antaramuka
antaranya
antartik
antartika
antena
anterior
anthem
anthology
anthony
anthropology
anti
antibiotik
antibodi
antigen
antigonus
antigua
antik
antillen
anting
antioch
antiochus
antioquia
antiquity
antiseptik
antivirus
antlers
anto
antoine
antologi
anton
antonio
antonius
antonov
antony
antropologi
antu
antv
antwerp
anu
anuar
anugerah
anum
anumerta
anupam
anutan
anwar
any
anya
anyaman
anyar
anything
anzac
ao
aoa
aoi
aoki
aol
aomori
ap
apa
apabila
apache
apakah
apalagi
apam
apapun
aparteid
apartmen
apartment
apatah
apc
apec
apek
apg
aphrodite
api
apin
apink
apl
aplikasi
apm
apocalypse
apollo
apostolik
app
appeal
appear
appearance
appeared
appears
appendix
apple
application
applications
applied
applikasi
appointed
approach
apr
april
apulia
apung
apungan
aq
aqasha
aqidah
aqil
aqilah
aqs
aqsa
aqua
aquila
aquino
aquitaine
ar
ara
arab
arabi
arabia
arabian
arabic
arad
arafat
aragon
arah
arahan
arahannya
arahnya
arak
aram
aramia
arang
ararat
aras
arash
arau
arc
arca
arcade
arcadia
arch
archaeological
archaeology
archbishop
archer
archibald
archie
archipelago
architects
architecture
archive
archived
archives
arctic
ardabil
arde
ardenne
ardennes
ardija
are
area
areas
arena
ares
arf
argentina
argentine
argon
argos
argyle
ari
aria
ariana
arie
arief
ariel
arif
ariff
ariffin
arifin
aril
aris
arisa
arisaema
aristotle
aritmetik
arizona
arjun
arjuna
ark
arka
arkansas
arked
arkeologi
arkib
arkitek
arlington
arm
armada
armadanya
arman
armand
armando
arme
armed
armenia
armenian
armies
armor
armored
armour
arms
armstrong
army
arnab
arnaz
arnhem
arnold
aro
aroma
aromatik
aron
arondissement
around
arqam
arrancar
array
arrested
arrival
arrondissement
arrow
arroyo
ars
arsenal
arshad
arsip
arslan
art
artakus
artaxerxes
arte
artemis
arteri
arthdal
arthur
arti
article
articles
artifak
artificial
artik
artikel
artikulasi
artikulasinya
artileri
artillery
artinya
artis
artist
artistik
artists
arts
arturo
aru
aruba
aruhan
arumugam
arun
arus
arva
arwah
arya
aryan
aryana
as
asa
asad
asahan
asahi
asal
asalan
asalkan
asalnya
asam
asami
asap
asas
asasi
asasnya
asbestos
ascii
asean
asem
aset
asetat
asetik
ash
asha
ashaari
ashikaga
ashley
ashraf
ashton
asia
asiah
asian
asiana
asiatic
asid
asih
asimilasi
asin
asing
asisten
ask
askar
askarnya
asked
aslan
asli
aslinya
asma
asmah
asmara
aso
asoka
asp
aspects
aspek
aspirasi
aspx
asrama
asri
ass
assad
assam
assassin
assault
assembly
assessment
asset
assistance
assistant
associated
associates
association
assyria
astaka
astana
astara
asteroid
asti
aston
astra
astro
astroawani
astrofizik
astrolab
astrologi
astronaut
astronomi
astronomical
astronomy
asturias
asuhan
asuka
asw
aswad
asy
asyik
asyikin
asylum
asyraf
at
ata
atalanta
atan
atap
atari
atas
atasan
atasnya
atatu
atau
ataupun
ateis
ath
athena
athens
athletic
athletics
ati
atikah
atilia
atkinson
atlanta
atlantic
atlantik
atlantique
atlantiques
atlantis
atlas
atle
atlet
atm
atmosfera
atmosphere
atol
atom
atomic
atp
atr
atribut
atrium
atsuko
atta
attack
attacks
attas
attempt
attention
atur
aturan
aturcara
atv
atyrau
au
aube
aubrey
auckland
aude
audi
audience
audio
audiovisual
audit
audition
auditorium
audrey
auf
aug
augsburg
august
augusta
auguste
augustine
augusto
augustus
aulia
aum
aun
aung
auns
aur
aura
aurel
aurelius
aurora
aus
austen
austin
australasia
australia
australian
australis
austria
austrian
austro
austronesia
author
authority
authors
autisme
auto
autobiografi
autobiography
automasi
automatic
automatik
automobil
automobile
automotif
automotive
autonomi
autoritarian
autoriti
autumn
auvergne
aux
av
ava
available
avalon
avant
avatar
ave
avellino
avengers
avenue
average
aveyron
avi
aviation
avicennia
avionik
avispa
aviv
aw
awak
awakening
awal
awalan
awalnya
awam
awan
awang
awani
award
awarded
awards
awas
away
awesome
awi
awie
ax
axel
axis
ay
aya
ayah
ayahanda
ayahandanya
ayahnya
ayaka
ayam
ayat
ayatollah
ayatuddin
ayda
aye
ayer
ayie
ayob
ayu
ayub
ayumi
ayunan
ayurveda
ayutthaya
az
azab
azad
azahari
azalea
azali
azam
azan
azar
azean
azerbaijan
azeri
azfa
azhan
azhar
azhari
azilah
azim
azimat
azira
aziz
azizah
azizan
azizi
azkaban
azlan
azlee
azlin
azlina
azman
azmee
azmeer
azmi
azmin
aznan
aznil
azreen
azri
azrul
aztek
azul
azuma
azur
azura
azwan
azzam
b
ba
bab
baba
babad
babak
babakan
babbage
babel
babi
babu
baby
babylon
babylonia
bac
baca
bacaan
bach
bachchan
bachelor
bachik
bachok
back
background
backgroundcolors
bacolod
bacon
bactria
bad
bada
badai
badajoz
badak
badam
badan
badang
badannya
badar
badaruddin
badawi
bade
baden
badge
badlishah
badminton
badri
badrul
badul
badung
badut
badwi
bae
baek
baekje
bafta
bag
bagai
bagaikan
bagaimana
bagaimanakah
bagaimanapun
bagan
bagasi
bagh
baghdad
bagi
bagian
bagimu
baginda
baginya
bagunan
bagus
bah
baha
bahagi
bahagia
bahagian
bahagiannya
bahagikan
bahamas
bahan
bahang
bahantara
bahar
bahari
baharin
baharom
baharu
baharuddin
baharunya
bahas
bahasa
bahasanya
bahau
bahawa
bahawasanya
bahaya
bahia
bahiyah
bahkan
bahrain
bahri
bahrin
bahru
bahtera
bahu
bahunya
bahwa
bai
baibars
baiduri
baik
baiknya
bailey
bainun
baird
bait
baitul
baitulmaqdis
baitulmuqaddis
baix
baizura
baja
bajak
bajau
bajet
baji
baju
bak
baka
bakal
bakap
bakar
bakat
bakatnya
bakau
baker
bakhtiar
bakhtiari
baki
bakinya
bako
bakong
bakr
bakri
bakshi
bakso
bakteria
bakti
baku
bakul
bal
bala
balada
balai
balak
balan
balance
balang
balangan
balapan
balas
balasan
baldwin
bale
balearic
balet
balhae
bali
baligh
balik
balikpapan
baling
balistik
balkan
ball
ballad
ballet
ballon
balmain
balochistan
balok
balqis
baltik
baltimore
balu
balung
bam
bambang
bamboo
bambu
ban
bana
banana
banci
bancian
band
banda
bandai
bandar
bandara
bandaran
bandaraya
bandarnya
bandingan
bandingkan
bands
banduan
bandul
bandung
bang
bangalore
bangau
bangga
banggai
banggol
bangi
bangka
bangkai
bangkit
bangko
bangkok
bangku
bangladesh
bangli
banglo
bangsa
bangsal
bangsar
bangsawan
bangun
bangunan
bangunannya
bani
banjar
banjaran
banjarmasin
banjarnegara
banjir
bank
banking
banks
banner
banska
bantah
bantahan
bantal
bantam
banten
banteng
banting
bantu
bantuan
bantul
banu
banyak
banyaknya
banyumas
banyuwangi
bao
bapa
bapak
bapanya
baptis
baptist
baptiste
baqarah
bar
bara
barack
barah
barak
baram
baran
barang
barangan
barangay
barangkali
barangkalinya
barangsiapa
baranya
barat
baratdaya
baratnya
barbados
barbar
barbara
barbarossa
barbeku
barber
barbera
barbie
barbuda
barca
barcelona
bard
barda
bardata
bardejov
bardiche
bare
bari
baris
barisan
barito
bariton
barium
barker
barli
barnabas
barnes
barnet
barney
baro
baroh
barok
baron
baroque
barr
barra
barrett
barrichello
barrier
barry
barrymore
bars
bart
barton
bartın
baru
barulah
barunya
bas
basa
basah
basahan
basal
basalt
base
baseball
based
basel
basf
bashir
basic
basikal
basil
basilicata
basilika
basin
basis
basket
basketball
basque
basri
bass
basse
basten
bastien
basu
basuh
bat
bata
batak
batal
batalion
batam
batang
batangnya
batara
batas
batasan
batavia
batch
bateri
bates
bath
bathin
bathurst
batik
batin
batista
batman
baton
battalion
battery
battle
battles
battlestar
batu
batuan
batubara
batuk
bau
bauer
bauksit
bavaria
bawa
bawaan
bawah
bawahan
bawahannya
bawahnya
bawang
bawean
baxter
bay
bayam
bayan
bayang
bayangan
bayar
bayaran
baybayin
bayer
bayern
bayezid
bayi
bayinya
bayonet
bayu
bazaar
bazar
bb
bbc
bc
bce
bd
be
bea
beach
beagle
beam
bean
bear
bears
beast
beat
beatles
beatrice
beats
beau
beaufort
beaumont
beautiful
beauty
beaver
bebaling
beban
bebanan
bebas
bebenang
beberapa
bebiri
bebola
bec
beca
became
because
becc
bechah
beck
becker
beckham
become
becomes
becoming
bed
bedah
bedford
bedil
bedilan
bedong
bee
been
beer
beethoven
beetle
bef
before
beg
began
begawan
begin
begini
beginner
beginning
begins
begitu
begitulah
behavior
behaviour
behind
behrang
bei
beijing
being
beira
beirut
bek
bekalan
bekas
bekasi
bekerja
bekerjasama
bekok
beku
bel
bela
belacan
beladiri
belaga
belah
belahan
belait
belajar
belakang
belakangan
belakangnya
belalai
belalang
belanda
belang
belanga
belanja
belanjawan
belantan
belantara
belarus
belas
belasan
belatuk
belayar
belenggu
belerang
belfast
belfort
belgian
belgium
belgrade
beli
belia
belian
beliau
believe
belimbing
belisarius
belitung
beliung
belize
bell
bella
bellamy
bellatrix
belle
bellmare
belo
belok
belon
below
belt
belud
belukar
belum
beluran
belut
bemban
ben
benang
benar
benayoun
bencana
benci
benda
bendahara
bendahari
bendalir
bendang
bendera
bendigo
bendungan
benedict
benefits
bener
benes
benevento
benfica
beng
bengal
bengali
benggala
bengkak
bengkel
bengkok
bengkulu
beni
benigno
benih
benin
benito
benjamin
bennett
bennington
benny
benson
benta
bentara
benteng
bentley
bento
bentong
bentuk
bentuknya
benua
benut
benz
benzema
beom
ber
bera
berabad
beracun
berada
beradik
beradiknya
beragam
beragama
berahi
berair
beraja
berakar
berakhir
berakhirnya
berakhlak
beraksi
beralamat
beralih
beraliran
beralkohol
beralun
beramai
beramal
beramboi
berambut
beranak
beranang
beranda
beraneka
berang
berangan
beranggapan
berangka
berangkat
berani
beransur
berantai
berapa
berapi
berarak
berarti
beras
berasa
berasal
berasas
berasaskan
berasid
berasingan
berasrama
berat
beratap
beratapkan
beratnya
beratus
berau
berautonomi
berayun
berazam
berbadan
berbagai
berbahagia
berbahasa
berbahaya
berbaik
berbaju
berbakat
berbakti
berbalas
berbalik
berbanding
berbangga
berbangsa
berbaring
berbaris
berbasikal
berbasis
berbatasan
berbatu
berbau
berbaur
berbayar
berbeda
berbekalkan
berbelah
berbentuk
berber
berbeza
berbicara
berbilang
berbilion
berbincang
berbintik
berbisa
berbohong
berbuah
berbual
berbuat
berbuka
berbukit
berbulan
berbulu
berbumbung
berbunga
berbunyi
berburu
bercabang
bercadang
bercahaya
bercakap
bercambah
bercampur
bercanggah
bercangkerang
bercantum
bercas
bercengkerang
bercerai
bercerita
bercetak
bercinta
berciri
bercirikan
bercita
bercorak
bercucuk
bercuti
berdaftar
berdagang
berdakwah
berdamai
berdarah
berdasarkan
berdaulat
berdaun
berdaya
berdebat
berdedikasi
berdekatan
berdepan
berdiam
berdiameter
berdikari
berdinding
berdiri
berdirinya
berdisiplin
berdoa
berdosa
berdua
berduet
berdurasi
berduri
beredar
bereg
beregu
berehat
berek
berekor
bereksperimen
berempah
berempat
berenang
berendam
berenjin
berentak
berentap
bererti
beret
beretika
beretta
berevolusi
berfaedah
berfahaman
berfikir
berfikiran
berfirman
berfokus
berfungsi
berg
bergabung
bergaduh
bergambar
bergamo
berganda
berganding
bergandingan
berganti
bergantian
bergantung
bergaul
bergaya
bergegas
bergelar
bergelora
bergelut
bergen
bergenre
berger
bergerak
bergerigi
bergetar
bergiat
bergigi
bergilir
bergkamp
bergolak
bergotong
berguna
bergunung
berguru
berhad
berhadapan
berhak
berhala
berhaluan
berhampiran
berhantu
berharap
berharga
berhasil
berhasrat
berhati
berhenti
berhias
berhijrah
berhimpun
berhormat
berhubung
berhubungan
berhujah
berhutan
berhutang
beri
beribadah
beribadat
beribu
berikan
berikat
beriklim
berikrar
berikut
berikutan
berikutnya
berilmu
beriman
bering
beringin
berinteraksi
berirama
beris
berisi
berisiko
berita
berjadual
berjaga
berjalan
berjalur
berjam
berjanggut
berjangkit
berjanji
berjarak
berjasa
berjauhan
berjaya
berjemaah
berjenama
berjenis
berjinak
berjiran
berjisim
berjiwa
berjuang
berjudul
berjulat
berjumlah
berjumpa
berjuntai
berjuta
berkabung
berkadar
berkahwin
berkait
berkaitan
berkaki
berkala
berkali
berkaliber
berkanun
berkapasiti
berkarya
berkas
berkat
berkata
berkawan
berkayu
berkebolehan
berkecai
berkecimpung
berkecuali
berkedudukan
berkekalan
berkelah
berkelajuan
berkelakuan
berkelana
berkelayakan
berkeley
berkeliaran
berkelompok
berkeluasan
berkelulusan
berkemahiran
berkemampuan
berkembang
berkembangnya
berkembar
berkempen
berkemungkinan
berkenaan
berkenalan
berkenan
berkepala
berkepentingan
berkeputusan
berkeras
berkerja
berkerjasama
berkesan
berkesudahan
berketinggian
berketurunan
berkeupayaan
berkhasiat
berkhemah
berkhidmat
berkilat
berkisar
berkisarkan
berkolaborasi
berkomplot
berkomputer
berkomunikasi
berkongsi
berkonsepkan
berkontroversi
berkorban
berkshire
berkualiti
berkuasa
berkuat
berkuatkuasa
berkubu
berkuda
berkulit
berkumpul
berkumpulan
berkunci
berkunjung
berkurang
berkurangan
berkurun
berkurung
berlabuh
berlainan
berlakon
berlaku
berlakunya
berlalu
berlandaskan
berlanggar
berlangsung
berlangsungnya
berlanjut
berlanjutan
berlapis
berlari
berlarutan
berlatar
berlatarbelakangkan
berlatarkan
berlatih
berlawan
berlawanan
berlayar
berlebihan
berlegar
berleluasa
berlepas
berlesen
berlian
berlin
berlindung
berlipat
berlokasi
berlubang
berlumba
bermacam
bermagnitud
bermain
bermakna
bermaksud
bermalam
bermanfaat
bermasalah
bermastautin
bermata
bermesyuarat
bermimpi
berminat
berminyak
bermoral
bermotor
bermuda
bermula
bermulalah
bermulanya
bermuncul
bermusim
bermusuhan
bermutu
bern
bernada
bernafas
bernam
bernama
bernard
bernardo
bernasib
bernaung
bernhard
berniaga
berniat
bernie
bernikah
bernilai
bernombor
bernyanyi
bernyawa
beroda
berongga
beroperasi
berorientasi
berorientasikan
beroun
berpacaran
berpagar
berpakaian
berpakat
berpaling
berpandangan
berpandu
berpandukan
berpangkalan
berpangkat
berpanjangan
berparlimen
berpasangan
berpasir
berpasukan
berpatah
berpatutan
berpaut
berpaya
berpecah
berpegang
berpeluang
berpendapat
berpendapatan
berpendidikan
berpenduduk
berpengalaman
berpengaruh
berpengetahuan
berpenghuni
berpengkalan
berperan
berperanan
berperang
berperikemanusiaan
berperingkat
berperisa
berperisai
berperlembagaan
berpihak
berpilin
berpindah
berpisah
berpotensi
berprestasi
berprestij
berprofil
berpuas
berpuasa
berpuluh
berpunca
berpura
berpusat
berpusing
berputar
berputus
berry
berryz
bersabar
bersabda
bersahabat
bersahaja
bersaing
bersaiz
bersalah
bersalin
bersalut
bersama
bersamaan
bersamamu
bersamanya
bersambung
bersandar
bersandarkan
bersangkutan
bersara
bersarang
bersatu
bersaudara
bersayap
bersebelahan
bersedia
bersedih
bersejarah
bersekolah
bersekutu
berselang
berselerak
berselisih
bersemangat
bersemayam
bersembahyang
bersembunyi
bersempadan
bersempena
bersemuka
bersendirian
bersenjata
bersenjatakan
bersentuhan
bersepadu
bersepakat
berserta
bersesuaian
bersetuju
bersiap
bersiar
bersiaran
bersidang
bersifat
bersih
bersikap
bersilang
bersimpati
bersinar
bersiong
bersiri
bersisik
berskala
bersolat
berstatus
berstruktur
bersuara
bersubahat
bersudut
bersuhu
bersukan
bersumber
bersumpah
bersungguh
bersurat
bersyarat
bersyukur
bert
bertaburan
bertahan
bertahap
bertahun
bertajuk
bertakhta
bertali
bertam
bertambah
bertambahnya
bertanda
bertanding
bertanduk
bertanggung
bertanggungjawab
bertanya
bertanyakan
bertapak
bertaraf
bertarikh
bertarung
bertasbih
bertaubat
bertauliah
berteduh
bertegas
bertekad
bertekanan
berteknologi
bertelagah
bertelur
bertema
bertemakan
bertembung
bertempat
bertempur
bertemu
bertenaga
bertengkar
bertentangan
bertepatan
berteraskan
berterima
berterusan
bertha
bertiga
bertih
bertindak
bertindih
bertingkat
bertiup
bertolak
bertopeng
bertrand
bertuah
bertudung
bertugas
bertujuan
bertukar
bertulang
bertulis
bertumbuh
bertumpu
bertunang
bertungkus
berturap
berturut
berturutan
bertutur
beruang
beruas
berubah
berucap
beruk
berukuran
berulang
berumur
berunding
berundur
beruniform
berunsur
berunsurkan
beruntung
berupa
berupaya
berurusan
berus
berusaha
berusia
bervariasi
berwajah
berwarna
berwawasan
berwibawa
bes
besar
besaran
besarkan
besarnya
besbol
beseri
beserta
besi
besout
best
bestari
besut
bet
beta
betapa
betawi
beth
betik
betina
beting
betis
beto
betong
better
betty
betul
between
beverly
bewarna
bey
beyblade
beyonce
beyond
beza
bezanya
bezos
bf
bg
bh
bha
bhagavad
bhai
bhakti
bharat
bharata
bharian
bharu
bhatia
bhatt
bhd
bhg
bhp
bhumibol
bhutan
bhutto
bi
biak
bianca
biar
biara
biarawan
biarawati
biarkan
biarlah
biarpun
bias
biasa
biasanya
biasiswa
biawak
biaya
bibi
bibir
bibit
bible
biblical
bibliografi
bibliography
bicara
bid
bidaah
bidaan
bidadari
bidan
bidang
bidara
bidayuh
biden
bidin
bidor
bie
bieber
bien
big
biggest
bihar
bihun
bijak
bijaksana
bijan
biji
bijian
bijih
bijinya
bijirin
bikin
bikini
bil
bila
bilah
bilal
bilamana
bilang
bilangan
bilangannya
bilbao
bilik
biliknya
bilingual
bilion
bilis
bill
billah
billboard
billie
billion
billy
bilo
bilut
bima
bimbang
bimbingan
bimbit
bin
bina
binaan
binari
binary
binasa
binatang
bing
bingen
bingkai
bingo
bingung
bini
binjai
bintan
bintang
bintangnya
bintangor
binti
bintik
bintulu
bintuni
bio
biodata
biodiesel
biodiversiti
biodiversity
biografi
biographical
biography
biokepelbagaian
biokimia
biola
biologi
biological
biology
bioperubatan
biopik
bioteknologi
bir
birah
biran
birch
bird
birdlife
birds
bireuen
biri
birit
birmingham
biro
birokrasi
birokrat
birth
birthday
biru
bis
bisa
bisaya
biscay
biseksual
bishop
bisikan
bising
biskop
biskut
bismarck
bisnes
bisnis
bison
bissau
bisu
bit
bitburg
bitcoin
bitter
biz
bjo
bk
bl
black
blackberry
blackburn
blackpink
blackwell
blade
blair
blake
blanc
blanche
blanchett
blanco
blang
blank
blansko
blast
bleach
blind
bliss
blitz
blitzkrieg
blizzard
block
blockbuster
blockchain
blog
blogger
blogspot
blok
blood
bloody
bloom
bloomberg
blossom
blu
blue
blues
bluetooth
blunt
bm
bmg
bmi
bmp
bmw
bn
bo
boa
boalemo
board
boat
bob
bobby
bobo
boboiboy
boca
bocey
bocor
bodies
bodoh
body
bodyguard
boeing
boelan
boer
bogel
bogor
bogota
boh
bohemia
bohor
bohr
bohsia
boikot
bois
bojong
bok
boku
bokura
bola
bolaang
bolagh
bolak
bolango
bolasepak
bold
boldsymbol
boleh
bolehlah
boleslav
boli
boling
bolivia
bolkiah
bollywood
bologna
bolos
bolshevik
bolt
bolton
bolu
bom
bomb
bomba
bombardier
bombay
bomber
bomoh
bon
bonaparte
bond
bonda
bondanya
bondi
bone
boneka
bones
bong
bongkah
bongkok
bongor
bongsu
bonjol
bonn
bonnie
bono
bontang
bonus
boo
book
books
boole
boom
boomerang
boon
boot
booth
boots
booty
bor
bora
borang
bordeaux
borden
border
borders
borhan
boris
born
borneo
borobudur
boron
borong
boros
borough
borsod
borussia
bos
bosan
bosch
bose
bosnia
bosniak
boson
boss
boston
bosworth
bot
bota
botak
botani
botanic
botaninya
botany
both
botol
botswana
bottle
bottom
bouches
boulder
boulevard
bound
boundary
bount
bounty
bourbon
bourgogne
bourne
bournemouth
bow
bowen
bowers
bowie
bowl
bowling
box
boxer
boxing
boy
boyaca
boyce
boyd
boyfriend
boyle
boys
boyz
bp
bpk
bpr
bps
br
bra
brabant
brad
bradford
bradley
brady
braga
brahma
brahman
brahmin
braille
brain
bram
branca
branch
brand
brandenburg
brandon
brands
brandt
bras
brasil
bratislava
braun
brave
bravo
brawn
brazil
brazilian
bre
break
breakfast
breaking
breed
breeding
breeds
brek
bremen
brenda
brendan
brent
brescia
bretagne
brett
brewster
brezhnev
brian
brickfields
bride
bridge
bridges
brie
brief
brien
brig
brigada
brigade
brigadier
briged
brigedier
briggs
bright
brighton
brill
brilliance
bring
bringing
brisbane
bristol
brit
britain
britania
britannia
britannica
british
britney
brittany
brno
bro
broad
broadband
broadcast
broadcasting
broadway
brock
brod
broken
broker
bromwich
bront
bronx
bronze
brook
brooke
brooklyn
brooks
bros
brother
brothers
brought
brown
browning
browser
brt
bru
bruce
brugge
brunei
bruno
brunswick
brunta
brussel
brussels
brutal
brutus
bryan
bryant
bs
bsc
bsj
bt
bte
btng
bts
bu
buah
buahan
buahnya
bual
buana
buang
buangan
buas
buat
buatan
buaya
bubar
bubu
bubur
buchanan
bucharest
buck
buckingham
bucu
buda
budak
budapest
budaya
buddha
buddhisme
buddhist
buddy
bude
budget
budi
budiey
budiman
budu
buemi
buena
buenos
buffalo
bug
bugis
bugs
buih
build
building
buildings
built
bujang
bujur
buka
bukaan
bukan
bukanlah
bukannya
bukau
bukhara
bukhari
bukit
bukittinggi
bukti
buku
bukunya
bulan
bulanan
bulat
bulatan
buldog
buleleng
buletin
bulgaria
buli
bull
bullet
bulletin
buloh
bulu
buluh
bulungan
bulunya
bum
bumbu
bumbung
bumi
bumiputera
bumiputra
bumper
bun
bunda
bundar
bundesliga
bundestag
bundeswehr
bundu
bung
bunga
bungaan
bunganya
bungku
bungkus
bungkusan
bungo
bunian
bunker
bunkface
bunny
bunson
buntal
buntar
bunting
buntu
bunuh
bunut
bunyi
bunyinya
buol
buono
bupati
burbank
bureau
burger
burgos
burgundy
burhanuddin
buri
buritan
burj
burke
burkill
burkina
burma
burman
burn
burnett
burning
burnley
burns
burong
bursa
burst
burton
buru
buruan
buruh
buruj
buruk
burundi
burung
bus
busan
busana
busby
bush
bushehr
business
buster
busters
busu
busuk
busur
but
buta
butang
butch
butik
butir
butiran
butler
buton
butterflies
butterfly
butterworth
button
buy
buzz
bwf
by
byakuya
bye
byrne
byron
bystrica
byul
byun
byung
byzantine
byzantium
c
ca
caac
cabang
cabaran
cabinet
cable
cabutan
cacar
cacat
cache
cacing
cad
cadangan
caesar
caf
cafe
cagayan
cage
cagliari
cahaya
cai
caine
cair
cairan
cairns
cairo
caitanya
caj
cakap
cakar
cake
cakera
cakerawala
cakra
cakung
cal
calabria
calais
calamus
calcio
calcutta
caledonia
calendar
calgary
california
call
called
calling
calls
calon
calvados
calvin
cam
camar
cambodia
cambridge
came
camelia
cameo
camera
cameron
cameroon
camille
camp
campaign
campak
campania
campbell
campeonato
campo
campos
campro
campur
campuran
campus
can
canada
canadian
canal
canaria
canary
canberra
cancer
candi
candidate
candu
candy
cane
canggih
cangkerang
cangkuk
canid
canis
cannes
cannon
canon
canselor
cantabria
cantal
canterbury
cantik
canton
cantuman
canvas
canyon
cao
cap
capai
capaian
capcom
cape
capital
capitol
capo
cappadocia
capt
captain
capture
car
cara
caranya
carbon
carcass
card
cardiff
cardinal
care
career
carey
cargo
cari
carian
caribbean
carl
carla
carlo
carlos
carlton
carmen
carnegie
carnival
carnivora
carol
carolina
caroline
carpenter
carr
carrefour
carrie
carrier
carroll
carry
cars
carson
carta
carter
carthage
cartoon
cas
casa
casablanca
case
cases
casey
cash
casino
casis
caspian
cassandra
cassini
cassius
cast
castello
castile
castilla
castillo
castle
castro
cat
catalan
catalog
catalogue
catalonia
catania
catatan
catch
catechism
category
cathay
cathedral
catherine
catholic
cathy
cato
cats
catur
caucasus
cause
caused
causes
cavalry
cave
cavendish
caves
cawan
cawang
cawangan
cay
cayman
cb
cbc
cbd
cbn
cbs
cc
cctv
cd
cdc
cdot
cdr
ce
cebisan
cebu
cecacing
cecair
cecil
cecilia
cedar
cedera
cedric
cek
cekak
cekap
cekup
celah
celcom
celebration
celebrity
celestial
celia
celik
celine
cell
cells
celsius
celt
celtic
celup
celur
cemas
cembung
cemburu
cemerlang
cemetery
cempaka
cempedak
cena
cendana
cendawan
cendekiawan
cenderamata
cenderawasih
cenderung
cengkaman
cengkerang
cengkih
census
censusindia
centenario
centennial
center
centers
central
centre
centro
centuries
century
ceo
cepat
cerah
cerai
ceramah
cerap
cerapachys
cerapan
cerdas
cerdik
cereka
ceremony
ceres
cerezo
cergas
ceri
ceria
cerita
ceritanya
cermat
cermin
cern
ceroboh
cerpen
cerro
certain
certificate
ceruk
cerun
cesar
cesena
cessna
cest
cet
cetak
cetakan
cetek
cetera
cetusan
ceylon
cf
cfa
cfm
cg
cgi
ch
cha
chabang
chacha
chad
chae
chah
chahar
chaharmahal
chai
chain
chairman
chak
chakra
chakri
chakura
chalet
challenge
challenger
challenges
cham
chamber
chamberlain
chambers
champ
champa
champagne
champion
champions
championship
championships
chan
chance
chancellor
chancellorsville
chand
chandan
chandler
chandra
chang
change
changed
changes
changi
changing
changkat
changsha
channel
channels
chao
chaos
chaozhou
chap
chapel
chapelle
chaplin
chapman
chapter
chapters
char
character
characteristics
characters
charente
charentes
charge
charity
charlemagne
charles
charleston
charlie
charlotte
charlton
charm
charok
chart
charter
chartered
charts
chase
chaser
chastain
chat
chatham
chatswood
chau
chawla
che
cheah
chechnya
check
checklist
chee
cheese
cheesecake
cheetah
chef
chelodina
chelsea
chemical
chemistry
chemor
chempaka
chen
cheng
chengdu
chennai
cheol
cheon
cheong
chepa
cher
cheras
chernobyl
cherry
chery
cheryl
cheshmeh
chess
chester
cheung
chevrolet
chew
chhattisgarh
chi
chia
chiam
chiang
chiba
chicago
chicken
chief
chien
chievo
chihuahua
chik
child
childhood
children
chile
chili
chin
china
chinatown
chinese
ching
chini
chinta
chip
chisato
chiu
chloe
cho
chocolate
chod
choe
choi
choice
choir
chok
chola
chomutov
chondong
chong
chongqing
choo
choon
choong
chopra
chor
chorus
chosun
chou
chow
choy
chris
christ
christchurch
christian
christianity
christians
christie
christina
christine
christmas
christoph
christophe
christopher
christy
chrisye
chrome
chronicle
chronicles
chronology
chrudim
chrysler
chu
chua
chuan
chuck
chukai
chul
chulalongkorn
chulan
chun
chung
chungcheong
chuping
church
churches
churchill
chye
ci
cia
ciamis
cianjur
cibubur
cicak
cicakman
cicero
cicit
cid
cie
cijantung
cik
cikgu
ciku
cili
cilik
cimahi
cimb
cimpanzi
cina
cincang
cincin
cincinnati
cindai
cinderella
cindy
cine
cinema
cinemas
cinematic
cinta
cintakan
cintaku
cintamu
cintanya
cio
cip
cipayung
cipinang
cipta
ciptaan
ciptaannya
ciracas
circle
circuit
circular
circus
cirebon
ciri
cirinya
cirit
cis
cisco
cit
cita
citanya
citarasa
citation
cite
cited
cites
cities
citizen
citizens
citra
citrus
city
ciudad
civic
civil
civilization
cj
ck
cl
claim
claims
claire
clan
clancy
clannad
clara
clare
clarence
clarendon
clark
clarke
clarkson
clash
class
classic
classical
classics
classification
claude
claudia
claudio
claudius
claus
clay
claymore
clayton
cle
clean
clear
clemens
clement
cleopatra
cleveland
clichy
click
client
cliff
clifford
climate
clinic
clinical
clinton
clip
clive
clock
close
closed
closer
cloud
clouds
clover
club
clube
clubs
cluj
clyde
cm
cmos
cmp
cms
cn
cnbc
cnn
cny
co
coach
coalition
coast
coastal
coat
cobra
coburg
coca
cochrane
coco
cocos
code
codes
codex
cody
coen
coffee
coffs
cogan
cohen
coin
coins
coke
coklat
col
cola
cold
coldplay
cole
coleman
coli
colin
collaboration
collar
collected
collection
collections
college
collie
collins
colo
cologne
colombia
colombo
colonel
colonial
colony
color
colorado
colors
colour
colours
colt
columbia
columbus
column
com
combat
combined
comcast
come
comeback
comedy
comel
comes
comet
comic
comics
coming
command
commander
commando
commentary
commerce
commercial
commission
commissioner
committee
commodore
common
commons
commonwealth
communaute
commune
communication
communications
communist
communities
community
como
comoros
compact
companies
companion
company
comparative
comparison
competition
compilation
compiled
complete
completed
complex
composer
composition
comprehensive
computer
computing
comte
comune
con
conan
concacaf
concepcion
concept
concepts
concern
concerning
concert
concise
conde
conditions
condong
condor
confederate
conference
confirmed
conflict
confucian
confucius
cong
congkak
congo
congress
congressional
conmebol
connecticut
connection
connell
connery
connie
connor
conquest
conrad
consadole
consent
conservation
conservative
considered
consortium
conspiracy
constance
constant
constantine
constantinople
constantinus
constellation
constitution
constitutional
construction
consumer
contact
contador
containing
contains
conte
contemporary
content
contest
context
continental
continue
continued
contoh
contohnya
contract
contribution
contributions
control
convair
convent
convention
conversation
conversion
converted
conway
coogee
cook
cookie
cooking
cooktown
cool
cooper
cooperation
cop
copa
cope
copenhagen
coppa
copper
cops
copy
copyright
corak
coral
corbett
cordoba
cordon
core
coretan
corey
corinth
cork
cornelius
cornell
corner
cornwall
corolla
corona
coronation
coronavirus
corong
corp
corporate
corporation
corps
corpus
corre
corrie
corruption
corse
corsica
corte
corun
cos
cosenza
cosgrove
cosmic
cosmos
cost
costa
cot
cottage
cotton
could
coulthard
council
count
countdown
counter
countess
countries
country
county
coup
coupe
couple
courage
courier
course
court
courtney
courts
cov
cove
covent
coventry
cover
coverage
covergirl
covid
cowboy
cox
cp
cpu
cr
cradle
craft
craig
crane
crash
crassus
crawford
crawl
crayon
crazy
crc
cre
cream
create
created
creating
creation
creative
creator
credit
creek
cremona
crescent
cretaceous
crete
creuse
crew
cricket
crime
crimea
crimes
criminal
crimson
crisis
cristiano
cristina
cristo
critical
criticism
critics
croat
croatia
croatian
crocodile
croix
cromok
cromwell
cropped
crore
cross
crossing
crossover
crossroads
crouch
crow
crown
cruise
cruiser
crunchyroll
crush
cruz
cry
crystal
cs
csa
csi
cska
css
ct
ctenofor
cth
ctor
cu
cuaca
cuai
cub
cuba
cubaan
cuban
cube
cuci
cuckoo
cucu
cucunda
cucunya
cucur
cuenca
cuisine
cuka
cukai
cukup
cukur
cullen
cult
cultural
culture
cultures
cum
cuma
cumberland
cumi
cun
cundinamarca
cuneo
cunningham
cuora
cup
cuping
cura
curah
curahan
curam
curang
cure
curi
curie
curiga
currency
current
currently
curry
curse
curtis
curtiss
curug
curup
curve
customs
cut
cuti
cutie
cv
cvt
cw
cyber
cyberjaya
cyborg
cycle
cyclone
cynthia
cyprus
cyril
cyrus
cz
czech
czechoslovakia
d
da
dad
dada
dadah
dadanya
dadar
daddy
dadih
dadu
dae
daegu
daemonorops
daeng
daerah
daerahdaerah
daerahjajahan
daerahnya
daewongun
daewoo
daftar
dag
dagang
dagangan
daging
dagingnya
dagu
dah
dahan
dahari
dahi
dahlan
dahlia
dahsyat
dahulu
dahulunya
dai
daigo
daihatsu
daik
daily
daim
daimler
daimyo
dairi
dairy
daisuke
daisy
dakota
daku
dakwa
dakwaan
dakwah
dakwat
dal
dalai
dalam
dalaman
dalamannya
dalamnya
dalan
dalang
dalat
dale
dali
dalian
dalil
dallas
dalmatia
dalton
daly
dam
damage
damai
daman
damansara
damar
damascus
dame
damian
damit
damon
dampak
damping
damsyik
dan
dana
danau
dance
dancer
dancing
dandang
dang
dangan
dangdut
danger
dangerous
dani
dania
danial
daniel
danielle
daniels
danish
danny
dans
dante
danube
danzo
dao
dap
dapat
dapatan
dapati
dapatkan
daphne
dapodik
dapur
daqmie
dar
dara
darab
darah
darahnya
darat
daratan
darby
dare
darfur
dari
darin
darinya
daripada
daripadanya
darius
darjah
darjat
dark
darkgrey
darkness
darling
darlinghurst
darma
daro
darreh
darren
darul
darulaman
darurat
darus
darussalam
darwin
das
dasar
dasarnya
dash
dasht
dassault
dat
data
database
datang
datangnya
datar
dataran
date
dated
dateformat
dates
datin
dating
dato
datoh
datok
datu
datuk
datuknya
daud
daughter
daughters
daulah
daum
daun
daunnya
davao
dave
david
davidson
davies
davis
dawai
dawkins
dawn
dawson
day
daya
dayak
dayana
dayang
days
dayton
dayung
db
dbkl
dbp
dc
dcp
dd
de
dead
deadline
deadly
deal
dean
dear
death
deaths
deb
debak
debaran
debat
debate
debbie
debit
deborah
debu
debunga
debut
debutnya
dec
decade
december
decision
deck
declaration
decline
deco
dedaun
deddy
dedicated
dedikasi
dee
deen
deep
deepak
deepavali
deer
def
default
defeat
defence
defendan
defense
defensif
defined
definisi
definitif
definition
defisit
degil
degradasi
degree
deh
dei
dek
dekad
dekan
dekat
dekatnya
deklarasi
dekri
del
delapan
delaware
delegasi
delhi
deli
delima
delivered
delivery
dell
della
delle
delphi
delta
deluxe
dem
demak
demam
demand
dembe
dementieva
demi
demikian
demikianlah
demo
democracy
democratic
demografi
demografik
demographics
demokrasi
demokrat
demokratik
demon
demonstrasi
demosthenes
den
denai
denda
dendam
dendang
deng
denga
dengan
dengannya
dengar
denggi
dengkil
denis
denise
denmark
dennis
denominasi
denpasar
dent
dentin
denver
denyut
denyutan
deo
deok
deol
depan
depannya
departemen
department
depoh
depok
deportivo
deposit
depot
dept
depth
deputy
der
dera
deraman
deras
derby
derek
deretan
derhaka
deria
dering
derita
derivatif
derma
dermaga
dermawan
des
desa
desain
desakan
descent
described
describes
description
desember
desert
design
designasi
designed
designer
desire
deskripsi
desktop
desmond
desperate
despite
destinasi
destination
destiny
destroyer
destruction
det
detail
detailed
details
detasmen
detective
detektif
detik
detroit
deutsche
deutschen
deutschland
deux
dev
deva
developed
developing
development
devgn
devi
device
devices
devil
devon
dewa
dewan
dewasa
dewata
dewey
dewi
dfb
dfl
dgn
dhabi
dhaka
dhani
dharma
dhcp
di
dia
diabadikan
diabaikan
diabetes
diabetis
diacarakan
diadakan
diadaptasi
diadaptasikan
diadili
diadun
diagihkan
diagnosis
diagnostik
diagram
diah
diajar
diajarkan
diajukan
diakhiri
diakibatkan
diakon
diakritik
diakses
diaktifkan
diakui
dialah
dialami
dialaminya
dialek
dialih
dialihkan
dialisis
dialog
dialogue
diam
diamalkan
diamanahkan
diamati
diambil
diameter
diamond
diamonds
dian
diana
dianalisis
diancam
diandaikan
diane
dianggap
dianggapnya
dianggarkan
dianggotai
diangkat
diangkut
dianjurkan
diantara
diantaranya
dianugerahi
dianugerahkan
dianuti
diapit
diarah
diarahkan
diari
diaries
diarkib
diarkibkan
diary
diasaskan
diasingkan
diaspora
diatas
diatasi
diatur
diawasi
diawet
diaz
dibaca
dibacakan
dibagi
dibahagi
dibahagian
dibahagikan
dibahaskan
dibaik
dibaiki
dibakar
dibalas
dibalut
dibandingkan
dibangkitkan
dibangun
dibangunkan
dibanjiri
dibantah
dibantu
dibaptiskan
dibatalkan
dibatasi
dibawa
dibawah
dibawakan
dibawanya
dibayangkan
dibayar
dibebaskan
dibekalkan
dibekukan
dibela
dibelah
dibelakang
dibelanjakan
dibeli
dibenarkan
dibenci
dibentangkan
dibentuk
diberhentikan
diberi
diberikan
diberitahu
diberkati
dibersarakan
dibersihkan
dibesarkan
dibezakan
dibiakbakakan
dibiakkan
dibiarkan
dibiayai
dibicarakan
dibimbing
dibina
dibinanya
dibincangkan
dibintangi
dibolehkan
dibolosi
dibom
dibongkar
dibuang
dibuat
dibuatnya
dibubarkan
dibubuh
dibuka
dibuktikan
dibuli
dibungkus
dibunuh
diburu
diburukkan
dicabar
dicabut
dicadangkan
dicairkan
dicalonkan
dicampur
dicampurkan
dicantumkan
dicapai
dicaprio
dicari
dicat
dicatat
dicatatkan
dicederakan
dicegah
dicelup
dicemari
dicerap
diceritakan
dicetak
dicetuskan
dicincang
dicipta
diciptakan
dicirikan
dick
dickens
dickinson
dickson
dictionary
diculik
dicuri
did
didaftarkan
didagangkan
didahului
didakwa
didalam
didapati
didapatkan
didarab
didasarkan
didatangi
didatangkan
didedahkan
didedikasikan
didefinisikan
didekati
didenda
didengar
didengari
didera
didermakan
didesak
didi
didiagnosis
didiami
dididik
didie
didier
didih
didik
didikan
didirikan
didn
didokumenkan
didokumentasikan
didominasi
didorong
diduduki
diduga
didukung
die
died
diedarkan
diego
dieja
dieksploitasi
dieksport
diekstrak
dielakkan
diemen
diendahkan
dies
diesel
diet
dietrich
difahami
difahamkan
difailkan
difference
different
difficult
difikirkan
difilemkan
diftong
digabung
digabungkan
digalakkan
digali
digambarkan
digandingkan
diganggu
diganti
digantikan
digantung
digariskan
digayakan
digelar
digelarkan
digemari
digerakkan
digeruni
digest
digi
digimon
digit
digital
digitised
digolongkan
digoreng
digubah
digubal
digugurkan
digulingkan
diguna
digunakan
digunakannya
digunapakai
dihabiskan
dihadapan
dihadapi
dihadapinya
dihadapkan
dihadiahkan
dihadiri
dihadkan
dihalang
dihalau
dihancurkan
dihantar
dihanyutkan
dihapuskan
diharamkan
diharap
diharapkan
dihargai
diharuskan
dihasilkan
dihentikan
dihias
dihiasi
dihidang
dihidangkan
dihidupkan
dihiris
dihitung
dihormati
dihoskan
dihubungi
dihubungkan
dihukum
dihuni
dihuraikan
diikat
diiklankan
diiktiraf
diikuti
diilhami
diilhamkan
diilustrasikan
diimport
diingat
diingati
diingatkan
diingini
diinginkan
diinspirasikan
diiringi
diisi
diistilahkan
diisytiharkan
diizinkan
dijadikan
dijadual
dijadualkan
dijaga
dijajah
dijalankan
dijamin
dijana
dijangka
dijangkakan
dijangkiti
dijanjikan
dijaringkan
dijatuhi
dijatuhkan
dijawab
dijayakan
dijejak
dijelaskan
dijemput
dijenamakan
dijk
dijual
dijuluki
dijumpai
dikagumi
dikahwinkan
dikaitkan
dikaji
dikalahkan
dikalangan
dikarang
dikatakan
dikategorikan
dikawal
dikawasan
dikebumikan
dikecam
dikecualikan
dikehendaki
dikejar
dikejarkan
dikejutkan
dikekalkan
dikelaskan
dikelilingi
dikelirukan
dikelola
dikelolakan
dikelompokkan
dikeluarkan
dikemas
dikemaskini
dikembalikan
dikembangkan
dikemukakan
dikenakan
dikenal
dikenali
dikenalpasti
dikenang
dikendali
dikendalikan
dikepung
dikerah
dikerahkan
dikeringkan
dikerjakan
dikesan
diketahui
diketengahkan
diketepikan
diketuai
dikhabarkan
dikhaskan
dikhianati
dikhuatiri
dikhususkan
dikibarkan
dikilangkan
dikir
dikira
dikirim
dikirimkan
dikisahkan
dikisar
dikitar
diklasifikasikan
dikodkan
dikongsi
dikosongkan
dikreditkan
dikritik
diktator
dikuasai
dikuasakan
dikuatkuasakan
dikuburkan
dikukus
dikumpul
dikumpulkan
dikunci
dikunjungi
dikurangkan
dikurniakan
dikurung
dikutip
dikutuk
dil
dilabel
dilabelkan
dilahirkan
dilakonkan
dilaksanakan
dilakukan
dilakukannya
dilalui
dilamar
dilambangkan
dilampirkan
dilancarkan
dilanda
dilanggar
dilangsungkan
dilanjutkan
dilantik
dilapisi
dilaporkan
dilarang
dilatih
dilawati
dilayan
dilayani
dilekatkan
dilema
dilemahkan
dilemma
dilemparkan
dilengkapi
dilengkapkan
dilepaskan
dilesenkan
diletak
diletakkan
diletupkan
dilihat
dilihatnya
dilindungi
dilipat
diliputi
dilitupi
dillon
diluar
dilucutkan
dilukis
diluluskan
dilupakan
dilupuskan
dim
dimahkotakan
dimainkan
dimajukan
dimakamkan
dimakan
dimaklumkan
dimaksudkan
dimampatkan
dimana
dimandatkan
dimanfaatkan
dimansuhkan
dimas
dimasak
dimasuki
dimasukkan
dimasyhurkan
dimatikan
dimenangi
dimensi
dimension
dimeterai
dimiliki
dimilikinya
diminati
diminta
diminum
dimodelkan
dimodenkan
dimp
dimuat
dimuatkan
dimuktamadkan
dimulai
dimulakan
dimusnahkan
din
dina
dinafikan
dinaik
dinaiki
dinaikkan
dinaiktaraf
dinamai
dinamakan
dinamik
dinamo
dinar
dinas
dinasihatkan
dinasti
dinda
dinding
ding
dingin
dini
dinikmati
dinilai
dinner
dino
dinobatkan
dinosaur
dinyalakan
dinyanyikan
dinyatakan
dio
diod
dioksida
diolah
dion
dionysius
dionysos
dioperasikan
dioscorea
dipacu
dipadamkan
dipadankan
dipakai
dipakaikan
dipaksa
dipamerkan
dipanaskan
dipancarkan
dipandang
dipandu
dipanggang
dipanggil
dipanjangkan
dipantau
dipaparkan
dipasang
dipasangkan
dipasaran
dipasarkan
dipastikan
dipatahkan
dipatuhi
dipecah
dipecahkan
dipecat
dipegang
dipegangnya
dipelajari
dipelihara
dipelopori
dipendekkan
dipengaruhi
dipengerusikan
dipenjara
dipenjarakan
dipentaskan
dipenuhi
diperakui
diperam
diperap
diperbadankan
diperbaharui
diperbaiki
diperbesarkan
diperbuat
dipercaya
dipercayai
diperdagangkan
diperdebatkan
dipergunakan
diperhatikan
diperihalkan
diperikan
diperiksa
diperingati
diperingkat
diperintah
diperintahkan
diperisakan
diperkatakan
diperkembangkan
diperkenalkan
diperkirakan
diperkuat
diperkuatkan
diperkukuh
diperkukuhkan
diperlakukan
diperlihatkan
diperluas
diperluaskan
diperlukan
diperoleh
diperolehi
dipersalahkan
dipersembahkan
dipersetujui
dipersoalkan
dipertahankan
dipertandingkan
dipertanggungjawabkan
dipertikai
dipertikaikan
dipertimbangkan
dipertingkat
dipertingkatkan
dipertontonkan
dipertua
dipertuan
diperuntukkan
dipesan
dipetik
dipilih
dipimpin
dipinda
dipindah
dipindahkan
dipinjam
dipinjamkan
dipintas
dipisahkan
diploma
diplomacy
diplomasi
diplomat
diplomatic
diplomatik
diponegoro
dipopularkan
dipotong
diproduksi
diprogramkan
dipromosikan
diproses
dipterokarp
dipuja
dipuji
dipujuk
dipukul
dipulangkan
dipulihkan
dipunyai
diputar
diputarkan
diputerakan
diputuskan
dir
dira
diragui
dirahsiakan
diraih
diraikan
diraja
dirakam
dirakamkan
diramalkan
dirampas
dirancang
dirancangkan
dirangka
dirasai
dirasakan
dirasmikan
dirawat
dirayakan
direalisasikan
direbus
direbut
direct
directed
direction
director
directors
directory
direhatkan
direka
direkabentuk
direkodkan
direkrut
direktorat
direktori
direncanakan
direndam
diri
diriku
dirilis
dirimu
diringkaskan
dirinya
diriwayatkan
dirk
dirobohkan
dirogol
dirombak
dirosakkan
dirty
dirujuk
dirumuskan
dis
disabitkan
disahkan
disaji
disajikan
disaksikan
disalah
disalin
disalurkan
disalut
disamakan
disaman
disambung
disambungkan
disambut
disampaikan
disamping
disana
disandang
disangka
disangkakan
disangkal
disanjung
disapu
disarankan
disasarkan
disaster
disatukan
disayangi
disc
disco
discography
discogs
discover
discovered
discovery
discussion
disease
diseases
disebabkan
disebalik
disebarkan
disebelah
disebut
disebutkan
disedari
disediakan
disegani
disejukkan
disekat
disekitar
diseksa
disel
diselamatkan
diselaraskan
diselenggara
diselenggarakan
diselesaikan
diselia
diselitkan
diselubungi
diseluruh
disemadikan
disemak
disembah
disembelih
disember
disembunyikan
disempurnakan
disenangi
disenarai
disenaraikan
disengajakan
disentuh
disepadukan
disepanjang
diserahkan
diserang
diserap
diserapkan
disertai
disertakan
diseru
disesuaikan
disetujui
disewa
disiapkan
disiarkan
disiasat
disifatkan
disimpan
disimpulkan
disingkat
disingkatkan
disingkirkan
disini
disiplin
disirikan
disitu
disk
diskaun
disko
diskografi
diskret
diskriminasi
diskusi
disney
disneyland
disoal
disokong
disorder
disorders
display
distance
distinguished
distributed
distribution
distributor
distributors
district
districts
distrik
disuarakan
disukai
disumbangkan
disumbat
disuntik
disunting
disuruh
disusuli
disusun
disyaki
disyorkan
ditabalkan
ditadbir
ditadbirkan
ditafsirkan
ditahan
ditahbiskan
ditaja
ditakdirkan
ditakluk
ditakluki
ditaklukkan
ditakrifkan
ditakuti
ditamatkan
ditambah
ditambahkan
ditampilkan
ditanam
ditanda
ditandai
ditandakan
ditandatangani
ditandingi
ditangani
ditanggalkan
ditangguhkan
ditanggung
ditangkap
ditanya
ditapai
ditapis
ditarik
ditauliahkan
ditawan
ditawarkan
ditayang
ditayangkan
ditebalkan
ditebang
ditebus
ditegaskan
ditekan
ditekankan
ditelan
diteliti
ditemani
ditembak
ditembusi
ditempa
ditempah
ditempat
ditempatkan
ditemui
ditemukan
ditengah
ditenggelami
ditenggelamkan
ditentang
ditentukan
diterajui
diterangi
diterangkan
diterapkan
diterbalikkan
diterbangkan
diterbit
diterbitkan
diterima
diterimanya
diterjemah
diterjemahkan
diternak
diterokai
diteruskan
ditetapkan
ditewaskan
ditikam
ditimbulkan
ditimpa
ditindas
ditinggalkan
ditingkatkan
ditinjau
ditipu
ditiru
ditiup
ditolak
ditonjolkan
ditonton
dituai
ditubuhkan
dituduh
ditugaskan
ditujukan
ditukar
ditukarkan
ditulis
ditulisnya
ditumbuk
ditumpaskan
ditumpukan
ditunda
ditunjuk
ditunjukkan
dituntut
diturunkan
ditutup
ditutupi
ditutur
dituturkan
diubah
diubahsuai
diucapkan
diuji
diukir
diukur
diulang
diulangi
diumumkan
diundang
diundi
diundurkan
diungkapkan
diupah
diurus
diuruskan
diusahakan
diusir
diusulkan
diutamakan
diutarakan
div
diva
dive
diversity
divided
divine
divisi
divisio
division
divisions
divisyen
diwajibkan
diwakili
diwarisi
diwariskan
diwarnakan
diwartakan
diwujudkan
dixit
dixon
diy
diyakini
diz
dizahirkan
dj
djajakusuma
djarum
djibouti
dk
dki
dl
dll
dlm
dm
dmitry
dn
dna
dnepr
dns
do
doa
dobi
doc
docs
doctor
doctrine
document
documentary
documents
dodge
dodol
does
dog
dogma
dogs
doh
doha
doi
doing
dok
doki
dokter
doktor
doktrin
dokumen
dokumentari
dokumentasi
dol
dolar
dolby
dolce
doll
dolla
dollah
dollar
dolly
dolni
dolores
dolphin
dom
domain
domaz
domba
dome
domestic
domestik
dominan
dominasi
domingo
dominic
dominica
dominican
dominika
dominion
dominique
domino
dompet
don
donald
donaldson
donat
donau
done
donetsk
dong
dongeng
donggala
donghak
donkey
donna
donovan
doo
doom
door
dopant
doping
doppler
dor
dora
dorado
doraemon
dordogne
doris
dorongan
dorothy
dorsal
dortmund
dos
dosa
dot
dou
double
doubleday
doubs
doug
douglas
dove
dover
dow
down
download
downtown
doyle
dozen
dp
dpr
dprd
dq
dr
dra
draco
dracula
draf
draft
dragon
dragons
drake
dram
drama
dramatik
dramatis
drasil
drastik
draw
drawings
drb
drc
dream
dreamcatcher
dreams
dreamworks
dresden
dress
drew
drift
drink
drive
driver
driving
drm
dro
dron
drop
drs
drug
drugs
drum
drummer
drums
dry
ds
dsb
dsc
dsm
dsp
dst
dt
du
dua
dual
duanya
duarte
dub
dubai
dublin
dubrovnik
dubstep
dubuk
dubur
duc
duchess
duchy
duck
duda
dudley
duduk
due
duel
duet
duffy
dugaan
duit
duk
duka
duke
dukuh
dukun
dukungan
dulang
duli
dulu
duluan
dulunya
dumbledore
dun
dunajska
duncan
dundee
dune
dungun
dunia
duniawi
dunkirk
dunlop
dunn
duo
durban
duren
durham
duri
durian
during
dursley
dust
dusta
dusun
duta
dutch
duterte
dutt
dutta
duty
duyong
duyung
dvb
dvd
dwarf
dwi
dwibahasa
dwight
dx
dy
dylan
dymm
dynamic
dynamics
dynamo
dynas
dynasty
dz
e
ea
each
eagle
eagles
earl
earlier
earliest
early
earth
earthquake
east
eastbourne
easter
eastern
easy
eat
eater
eating
eb
ebert
ebi
ebola
ec
echo
eckernfo
eclav
eclipse
eco
ecological
ecology
economic
economics
economist
economy
ecuador
ed
edaran
eddie
eddy
eden
edgar
edge
edinburgh
edisi
edison
edit
edited
edith
edition
editions
editor
editorial
editors
edmonton
edmund
edo
edry
eds
edu
eduard
eduardo
education
educational
edward
edwards
edwin
ee
een
ef
efek
efektif
effect
effective
effects
effendi
efisien
eg
egg
ego
egypt
egyptian
eh
ehime
ehir
ehsan
ehwal
ei
eid
eien
eiffel
eight
ein
eindhoven
einstein
eintracht
eisenhower
either
eizlan
eizou
ej
eja
ejaan
ejekan
ejen
ek
eka
ekar
ekaristi
eko
ekologi
ekonomi
ekonominya
ekor
ekoran
ekornya
ekosistem
eks
eksekutif
eksklusif
ekslusif
eksotik
ekspatriat
ekspedisi
eksperimen
eksperimental
eksplisit
eksploitasi
eksplorasi
ekspo
eksponen
eksport
ekspres
ekspresi
ekstrak
ekstrem
ekstrim
ekuestrian
ekuinoks
ekuiti
ekumenikal
ekzos
el
ela
elaine
elam
elang
elaun
elder
eleanor
election
elections
electric
electrical
electricity
electronic
electronics
elektif
elektrik
elektrod
elektrolit
elektromagnet
elektromagnetik
elektron
elektronik
elemen
element
elementary
elements
elena
elephant
eletrik
eletronik
eleven
elf
eli
elias
elijah
eliot
elips
elisabeth
elit
elite
eliza
elizabeth
elizad
elk
ella
elle
ellen
ellie
elliot
elliott
ellis
elly
elok
else
elsevier
elseya
elvis
elyana
em
ema
email
emak
eman
emas
embassy
emblem
embong
embraer
embrio
embun
emel
emelda
emerald
emergency
emeritus
emerson
emi
emil
emile
emilia
emilio
emily
emir
emirates
emiriah
emma
emmanuel
emmy
emoji
emosi
emosional
empangan
empat
empayar
empayarnya
emperor
emping
empire
empires
empoli
emporda
empress
empty
emu
en
enak
enakmen
enam
enamel
encik
encore
encyclopaedia
encyclopedia
encyclopædia
end
endang
endangered
endapan
endau
ende
endemik
ending
endokrin
ends
enec
enemy
energi
energy
eng
enggan
enggang
engine
engineer
engineering
engineers
engines
engkau
engkol
engku
engl
england
english
enigma
enix
enjin
enkidu
enough
enrico
enrique
enrolmen
ensembel
ensemble
ensiklopedia
entah
enter
enterprise
enterprises
entertainment
entire
entiti
entrance
entri
entropi
entry
environment
environmental
enzim
enzo
eo
eon
eos
eosentomon
ep
epa
epal
epce
epic
epidemiologi
epidermis
epik
epilog
episod
episode
episodes
epok
eponim
eps
epsilon
equal
equipment
equity
equus
er
era
erat
eredivisie
eri
eric
ericaceous
erich
ericsson
erik
erika
erin
erina
eritrea
erma
ernest
ernesto
ernie
ernst
ero
eropa
eropah
eros
erotik
erov
erra
error
erti
ertinya
erwin
es
esa
escape
esei
eska
eskalator
eske
esky
esma
esok
espada
espan
espanyol
especially
esperanto
esplanade
espn
esposito
espresso
essay
essays
essential
essex
essonne
est
esta
established
establishment
estate
este
ester
estet
estetik
estetika
esther
estimated
estimates
estonia
estrada
estranged
estrogen
et
eta
etanol
etc
eter
eternal
ethan
ethernet
ethics
ethiopia
ethnic
ethnologue
etihad
etika
etilena
etimologi
etnik
etnis
eto
eu
euclid
eugene
eui
eukariot
euler
eun
eurasia
eure
eureka
euro
eurocopter
eurofighter
europa
europe
european
eurovision
eusebius
eusoff
eutanasia
ev
eva
evac
evaluation
evan
evans
eve
evelyn
even
evening
event
events
eventually
ever
everest
everett
everton
every
everybody
everyday
everyone
everything
evic
evidence
evil
evo
evolusi
evolution
evolutionary
ew
ex
example
examples
excel
excellence
excellent
except
excerpt
exchange
exclusive
exco
executive
exercise
exhibition
exile
exist
exists
exit
exodus
expansion
expedition
experience
experiment
experimental
expert
exploration
explorer
expo
export
express
expressway
extended
extension
extensive
external
extinction
extra
extremadura
extreme
eye
eyed
eyes
eyra
ez
eza
ezra
f
fa
faa
faber
fabian
fabio
fabrik
fabulous
fac
face
facebook
facelift
faces
fact
factbook
facto
factor
factors
factory
facts
factsheet
faculty
fad
fadhil
fadil
fadilah
fadlan
fadzil
faedah
fagiano
fah
faham
fahaman
fahd
fahmi
fahrenheit
fahrin
fai
fail
failed
failure
fair
fairchild
fairuz
fairy
faisal
faisalabad
faith
faiz
faizal
faizul
fajar
fake
fakir
faks
fakta
faktor
fakultas
fakulti
falah
falak
falcon
falkland
fall
fallen
falling
falls
falsafah
false
fam
fame
famili
families
family
famous
fan
fana
fanatik
fancy
fandi
fandom
fang
fans
fantasi
fantasia
fantastic
fantasy
fao
faq
far
fara
faraday
farah
faraj
fardhu
fardu
farewell
farhan
farhana
farid
farida
faridah
faris
farish
fariz
farm
farmakologi
farmaseutikal
farmasi
farmer
faroe
farouk
farquhar
farrel
farrell
fars
fas
fasa
fasad
fasal
fasha
fashion
fasih
fasilitas
fasiliti
fasis
fasisme
faso
fast
fat
fatah
fatal
fate
fathani
fathaniyah
father
fathers
fathia
fatih
fatihah
fatima
fatimah
fatimiyah
fatimiyyah
fatin
fattah
fatty
fatwa
fauna
faust
fauzi
fauziah
favorite
favourite
fax
faye
fazenda
fazil
fazira
fazura
fb
fbi
fc
fci
fd
fda
fe
fear
fearless
feast
feat
feature
featured
features
featuring
feb
februari
february
federal
federation
federico
fedora
feed
feel
feeling
feet
fei
felcra
felda
felipe
felix
fellow
fellowship
felo
female
femina
feminin
feminis
feminisme
femme
fendi
feng
fenomena
fenotip
ferb
ferdinand
ferguson
feri
ferna
fernandes
fernandez
fernando
feromon
feroz
ferrari
ferreira
ferry
ferum
fes
fest
festival
fesyen
feudal
fever
few
feyenoord
feynman
fezrul
ff
ffm
fi
fia
fiat
fibrosis
fiction
fidel
field
fields
fiesta
fifa
fifi
fifth
fight
fighter
fighters
fighting
figura
figure
figures
fih
fiji
fikir
fikiran
fikirannya
fikri
fikry
fiksyen
fil
filamen
file
filem
filemnya
filemografi
filepath
files
filharmonik
filipina
filipino
film
filmfare
filmografi
films
filogenetik
filogeni
filsuf
filum
filzah
fin
fina
final
finale
finalis
finally
finals
finance
financial
finas
find
finding
fine
finiste
finland
finn
finnish
fiona
fiorentina
fiqah
fiqh
fira
firaun
firdaus
fire
firebase
firefly
firefox
firenze
firm
firma
firman
firmino
first
fischer
fish
fisher
fisik
fisiologi
fiskal
fist
fit
fitnah
fitrah
fitri
fitur
fitzgerald
fius
fiuslaj
five
fiza
fizik
fizikal
fizikalnya
fizo
fizuli
fizz
fk
fl
fla
flag
flags
flagship
flame
flanders
flash
flat
fleet
fleksi
fleksibel
fleksibiliti
fleming
flemish
flensburg
fletcher
fleur
flickr
flight
flightglobal
flights
flinders
flint
flizzow
flo
flood
floor
flop
flor
flora
florence
flores
florida
flotilla
flow
flower
flowers
floyd
flu
fluks
fluorida
fly
flying
flynn
fm
fmc
fn
fo
focus
fokker
fokus
folikel
folk
follow
followed
following
follows
fon
fonem
fonetik
fong
fonologi
font
fontaine
fontsize
foo
food
foods
fook
fool
foot
footage
football
for
forbes
forbidden
force
forced
forces
ford
foreign
forensik
forest
forests
forever
forget
forgotten
form
formal
formasi
format
formation
formed
former
formerly
formosa
forms
formula
formulasi
forrest
forster
fort
forteen
fortress
fortune
forty
forum
forward
fosfat
fosforus
fosil
foster
foto
fotograf
fotografi
foton
fotosintesis
found
foundation
foundations
founded
founder
founding
four
fourth
fowler
fox
fr
fra
frac
fragmen
frame
framed
frameless
framework
fran
franc
franca
francais
france
frances
francesco
franche
francis
francisco
franco
frank
frankfurt
frankie
franklin
frans
franz
frasa
fraser
fre
fred
freddie
frederic
frederick
free
freedom
freeman
freemason
freiburg
freiherr
frekuensi
fremantle
french
frenz
frequency
fresh
freshwater
fresnel
freud
fribourg
friday
fried
friedman
friedrich
friend
friendly
friends
friendship
frigat
fritz
friuli
frodo
frog
from
front
frontale
frontier
frosinone
frost
frozen
frs
fru
fruhstorfer
fruit
fruits
fruktosa
fry
ft
fta
ftv
fu
fuad
fudge
fuel
fuji
fujian
fujimoto
fujiwara
fukuda
fukuoka
fukushima
fulham
full
fullbottle
fuller
fulltext
fully
fun
function
fund
fundamental
fung
fungsi
fungsinya
funimation
funk
furious
further
furukawa
fury
fusion
futari
futsal
future
fuzhou
fuzz
fv
fx
g
ga
gaal
gaara
gab
gabenor
gabon
gabriel
gabriella
gabrielle
gabungan
gadabay
gadai
gadang
gaddafi
gading
gadis
gado
gadong
gael
gaga
gagah
gagak
gagal
gagasan
gah
gai
gaia
gail
gainare
gaius
gajah
gaji
gakuen
gal
gala
galactica
galah
galak
galakan
galaksi
galang
galanya
galas
galatasaray
galaxy
gale
galen
galeri
gali
galian
galicia
galilee
galileo
gallagher
gallen
gallery
gallipoli
galuh
galur
gam
gama
gamal
gamba
gambang
gambar
gambaran
gambarnya
gambia
gambir
gamble
gambut
game
gamelan
games
gamet
gamma
gampong
gan
gana
ganang
ganas
ganda
gandaan
gandar
gandhi
gandingan
gandum
gang
ganga
ganges
gangga
gangguan
gangnam
gangsa
gangster
gani
ganja
ganjar
ganjaran
ganjil
gansu
gantang
ganti
gantian
gantinya
gantung
gantungan
gao
gaon
gap
gapena
gara
garaj
garam
garang
garci
garcia
gard
garde
garden
gardens
gardner
gareth
garfield
gari
garibaldi
garis
garisan
garison
garland
garonne
garpu
garrett
garrison
garuda
garut
gary
gas
gasing
gatal
gatas
gate
gates
gateway
gau
gauge
gaul
gaulle
gaun
gaung
gautama
gave
gavin
gawai
gawang
gay
gaya
gayo
gayong
gayung
gayvn
gaza
gazette
gazetteer
gazprom
gb
gd
gdp
ge
gear
gebang
gedang
gede
gedong
gedung
gee
gegar
gegaran
gegelung
gejala
gel
geladak
gelam
gelang
gelanggang
gelap
gelar
gelaran
gelarannya
gelas
gelek
gelembung
gelen
gelisah
gelombang
gelongsor
gelora
gelugor
gelung
gelungan
gema
gemar
gemas
gembala
gembira
gemeente
gemencheh
gemilang
gemini
gempa
gempak
gempur
gemuk
gemuruh
gen
genap
gencatan
gendang
gender
gene
genera
general
generalfeldmarschall
generalleutnant
generally
generalmajor
generaloberst
generals
generasi
generation
generator
generik
genesis
genetic
genetics
genetik
geneva
geng
genghis
genie
genin
genius
genji
genjutsu
genk
genki
genoa
genocide
genom
genosid
genre
gent
genta
gentian
genting
gentleman
genus
geo
geoff
geoffrey
geografi
geografinya
geographic
geographical
geography
geologi
geological
geology
geometri
geometry
geon
geopark
geopolitik
georg
george
georges
georgetown
georgia
georgian
ger
gerabak
geraham
gerai
gerais
gerak
gerakan
gerald
geram
geran
gerard
gerbang
gerd
gereja
gerejawi
gergaji
gergasi
gerhana
gerhard
geri
gerik
gerila
gerimis
germain
german
germanik
germany
gerombolan
gerrard
gers
gersang
gertrude
gerudi
gesa
geschichte
geseran
gestasi
get
getah
getaran
getir
gets
getting
gettysburg
geum
geun
geylang
gg
ghafar
ghaib
ghairah
ghana
ghani
ghau
ghaz
ghazal
ghazali
ghazi
ghazni
ghost
ghulam
gi
gia
giacomo
giancarlo
giant
giants
gianyar
giat
gibbon
gibraltar
gibson
gie
gif
gifoto
gift
gifu
gig
gigi
gigih
gigitan
gil
gila
gilan
gilang
gilbert
gilda
giles
gilgamesh
gilir
giliran
gilirannya
gill
gilles
gilligan
gim
gimnasium
gimnastik
gin
gina
gincu
ginger
gingham
gini
ginjal
ginny
gion
giorgio
giovanni
gipuzkoa
giri
girl
girlfriend
girls
giro
girona
gironde
gish
gita
gitar
gitaris
giulia
giuliani
giuseppe
give
given
gives
giving
gje
gk
gl
gladiator
glam
glasgow
glasier
glass
glee
glen
glenn
glikogen
glikolisis
glob
global
globalisasi
globalsecurity
globe
glock
gloria
glorious
glory
glossary
glotis
gloucester
glove
glover
glukosa
gm
gma
gmail
gmbh
gmt
gnome
gnu
go
goa
goal
goals
gochujang
god
godaan
goddard
goddess
goddesses
gods
godzilla
goes
goeslaw
goethe
gogh
goguryeo
goh
going
gojek
gojong
gojoseon
goku
gol
golan
gold
goldberg
golden
goldman
goldstein
golestan
golf
golkar
golok
golongan
gombak
gomes
gomez
gon
gone
gong
gonna
gonza
gonzalez
gonzalo
goo
good
goodbye
goodman
goodreads
google
gook
goose
gopal
gopeng
goranboy
gorbachev
gordon
gore
goreng
gorontalo
goryeo
gosip
gospel
gossip
got
goth
gotha
gothic
gothik
goto
gotong
goulburn
gould
gourmet
gov
governance
government
governor
govinda
gowa
goyah
goyang
goychay
gp
gpk
gprs
gps
gr
gra
grabby
grace
grade
graduan
graduasi
graduate
graf
grafik
graham
grail
gram
gramedia
grammar
grammy
grampus
gran
granada
grand
grande
granger
granit
grant
graphics
grass
graubu
grave
graviti
gravity
gray
grc
gre
great
greater
greatest
gred
greece
greek
green
greene
greenland
greenpeace
greenwich
greenwood
greg
gregorius
gregory
greifswald
grenad
grenada
gresik
grey
greyhound
grid
gridcolor
griffin
griffith
grimmjow
grindcore
gripen
groningen
groove
grosjean
gross
ground
grounds
group
groups
grove
grover
growing
growth
grs
gru
grumman
grup
gryffindor
gs
gsm
gst
gt
gu
gua
guadalajara
guadalupe
guadeloupe
gual
guam
guaman
guan
guang
guangdong
guangxi
guangzhou
guar
guard
guardian
guardians
guards
guatemala
gubahan
gubernur
gudang
gue
guerra
guerrero
guest
guevara
guez
guggenheim
gugur
gugusan
gui
guiana
guide
guidelines
guides
guild
guilin
guillaume
guillermo
guinea
guinness
guitar
guiyang
guizhou
gujarat
gujarati
guk
gula
gulai
gulden
gulf
gullit
gulung
gulungan
gulzar
gum
gumpalan
gun
guna
gunaan
gunakan
gunawan
gundala
gundam
gundik
gunma
gunong
guns
gunting
guntur
gunung
guo
gupta
gurdwara
gurindam
gurita
gurkha
gurney
guru
guruh
gurun
gurunya
gus
gusi
gustav
gustave
gustavo
gusti
gutawa
gutenberg
guthrie
gutie
guy
guyana
guys
gva
gwang
gwangju
gwen
gx
gye
gyeong
gyeongbokgung
gyeonggi
gyeongsang
gym
gyo
gyu
h
ha
haag
hab
haba
habib
habibah
habibie
habis
habisan
habitat
hablur
habsah
habsburg
habsyah
habuk
hack
had
hadapan
hadapannya
hadapi
hades
hadi
hadiah
hadir
hadirin
hadis
hadith
hadits
hadrian
hady
hae
hael
hafidz
hafiz
hagrid
hague
hahn
hai
haid
haidar
haifa
haikal
haikou
hail
hain
hainan
hair
hairan
hairanlah
hairi
hairul
haiti
haiwan
haj
hajah
hajar
hajat
haji
hajime
hajj
hajjah
hajji
hak
hakam
hakcipta
hakikat
hakikatnya
hakim
hakimi
hakisan
hakka
haknya
haku
hal
hala
halaju
halal
halaman
halamannya
halangan
hale
half
halia
halida
halifax
halim
halimah
halimunan
haliza
hall
halle
halley
halligan
halloween
halmahera
halnya
halo
halogen
haluan
halus
ham
hama
hamad
hamadan
hamas
hamba
hambar
hamburg
hamburger
hamdan
hamid
hamidah
hamidi
hamidun
hamil
hamilton
hamka
hamlet
hammer
hammond
hampagas
hampar
hamparan
hampir
hampshire
hamza
hamzah
han
hana
hanafi
hanafiah
hanani
hanbok
hancock
hancur
hand
handal
handalan
handbook
hands
handy
hang
hangar
hangat
hangul
hangus
hangzhou
hani
hanif
hanifah
haniff
hanim
hanis
hanja
hank
hanks
hanna
hannah
hannibal
hannover
hanoi
hanover
hans
hansen
hantar
hantaran
hantu
hanya
hanyalah
hanyut
hanzi
hao
happened
happiness
happy
haq
haqiem
har
hara
harafiah
harakah
harakahdaily
harakat
harald
haram
harap
harapan
harbin
harbor
harbour
hard
hardcore
hardcover
harding
hardware
hardy
hare
harem
harfiah
harfiahnya
harga
harganya
hari
harian
haribulan
harimau
harinya
haris
harith
hariz
harley
harmoni
harmony
harold
haron
harper
harpercollins
harrier
harriet
harris
harrison
harry
harshananda
hart
harta
hartanah
hartanya
hartawan
haru
haruka
harum
harun
haruna
harus
haruslah
harvard
harvest
harvey
haryana
has
hasan
hasanah
hasanuddin
hashim
hashimah
hashimoto
hasil
hasilan
hasilkan
hasilnya
haslam
hasmah
hasnah
hasnan
hasnul
hasrat
hasratnya
hassan
hassanal
hastings
hasutan
hasyim
hat
hata
hatchback
hate
hati
hatiku
hatimu
hatinya
hatrik
hatsukoi
hatta
hattan
hauptmann
haus
haut
haute
hautes
hauts
havana
have
haven
havilland
having
havli
hawa
hawai
hawaii
hawari
hawk
hawke
hawker
hawking
hawkins
hay
hayashi
hayat
hayate
hayati
hayatnya
hayden
hayes
hayy
hazama
hazami
hazard
hazel
hazim
haziq
hb
hbo
hc
hd
hdmi
hdtv
he
head
headed
headquarters
heads
healing
health
healthcare
heard
heart
hearts
heat
heath
heather
heathrow
heaven
heavy
heavyweight
hebat
hebatnya
hebei
hebrew
heckler
hector
hedgehog
hedges
hee
heer
hegemoni
hei
heian
heidelberg
heidfeld
heidi
height
heights
heinrich
heinz
hektar
helah
helai
helaian
helang
held
helen
helena
helicopter
helikopter
heliks
heliport
helium
hell
hellas
hello
helmet
helmi
help
helsinki
hem
hemisfera
hemoglobin
hempedu
hen
henan
hendak
hendaklah
hendap
henderson
hendra
hendrik
heng
henri
henry
henson
hentaman
henti
hentian
heo
heon
hepatitis
hepburn
her
hera
heraclius
herakles
herald
herat
herba
herbalife
herbert
herbivor
hercules
here
hering
heritage
herman
hermann
hermes
hermione
herna
hernandez
hernia
hero
herodotus
heroes
heroin
heroines
heron
herotan
herrera
herschel
hertha
herzegovina
herzogtum
hess
hesse
het
heteroseksual
hetty
hewan
hewlett
hey
hf
hh
hi
hias
hiasan
hiatus
hibrid
hiburan
hicks
hicom
hidan
hidangan
hidayah
hidayat
hidden
hide
hideyori
hideyoshi
hidraulik
hidro
hidroelektrik
hidrogen
hidrokarbon
hidroksida
hidrolisis
hidrologi
hidung
hidungnya
hidup
hidupan
hidupnya
hierarki
hieroglif
higgins
high
higher
highest
highland
highlands
highly
highway
hijab
hijau
hijaz
hijjaz
hijrah
hijriah
hikari
hikaru
hikayat
hikmah
hikmat
hilal
hilang
hilary
hilir
hiliran
hill
hillary
hills
hilmi
hilton
him
himachal
himalaya
himpunan
himself
hin
hina
hinata
hind
hindenburg
hindi
hindia
hindraf
hindu
hinduism
hinduisme
hindustan
hing
hingar
hingga
hinggakan
hinggalah
hino
hip
hipotesis
hiragana
hirata
hirisan
hiro
hirohito
hiroshi
hiroshima
hiroyuki
his
hisamuddin
hisham
hishammuddin
hishamuddin
hispania
hispanik
histeria
histoire
historia
historian
historic
historical
histories
history
hisyam
hit
hitachi
hitam
hitchcock
hitler
hitomi
hits
hitsugaya
hitz
hiv
hizbullah
hizbut
hj
hjh
hk
hkcn
hkt
hl
hler
hlm
hlmn
hm
hmetro
hmi
hms
ho
hoa
hobart
hobbit
hobi
hoc
hock
hockey
hodoni
hoe
hoffman
hogan
hogwarts
hohenzollern
hoi
hok
hokage
hoki
hokkaido
hokkien
hoku
hold
holden
holding
holdings
hole
holiday
holistik
holland
hollow
holly
hollyhock
hollywood
holmes
holocaust
holokus
holstein
holt
holy
hom
home
homecoming
homepage
homer
homes
homestay
homo
homoseksual
homoseksualiti
hon
honda
honduras
honey
hong
honneur
honolulu
honor
honorary
honour
honours
hons
honshu
hoo
hood
hook
hooker
hoon
hoover
hop
hope
hopkins
hor
hora
horace
horcrux
horizon
horizontal
hormat
hormon
hormozgan
horn
hornet
horni
horror
horse
horses
horst
hortikultur
horus
hos
hoseynabad
hoshi
hospital
host
hosted
hot
hota
hotel
hotels
hotspur
hou
houghton
hound
hour
hours
house
household
houses
housing
houston
how
howard
howe
howell
however
howitzer
hoyle
hp
hq
hr
hradec
hradis
hrer
hs
hsbc
hsien
htm
html
http
https
hu
hua
huang
huat
huawei
hub
hubble
hubei
hubert
hubung
hubungan
hubungannya
hud
huda
hudgens
hudson
hudud
hue
huelva
huesca
huey
hugh
hughes
hugo
hui
hujah
hujan
hujung
hujungnya
hukum
hukuman
hukumannya
hula
hulagu
hull
hulu
hulubalang
hum
huma
human
humans
humboldt
hume
humenne
humor
humphrey
hun
hunan
hundred
hung
hungama
hungarian
hungary
hunger
hunt
hunter
hunting
huntington
huraian
hurairah
hurikan
hurricane
hurt
huru
huruf
husain
husaini
husayn
husband
husein
husin
husky
husna
husni
hussain
hussein
hussin
hut
hutama
hutan
hutang
hvo
hwa
hwan
hwang
hwi
hyang
hybrid
hyde
hyderabad
hye
hyeon
hyeong
hyo
hyper
hyuga
hyuk
hyun
hyundai
hyung
hz
i
ia
iain
iaitu
ialah
ian
iana
ianya
iar
ias
iata
iatu
iau
ib
iba
ibadah
ibadat
iban
ibarat
iberia
ibid
iblis
ibm
ibn
ibni
ibnu
ibrahim
ibrani
ibtidaiyah
ibu
ibubapa
ibukota
ibukotanya
ibuku
ibunda
ibundanya
ibunya
ic
icao
icardi
icd
ice
iceland
ichi
ichigo
ichihara
ichiro
ichu
icj
icon
icons
icrc
ict
icu
id
ida
idaho
idaman
idayu
ide
idea
ideal
ideanya
ideas
identification
identifier
identitas
identiti
identitinya
identity
ideologi
idf
idham
idi
ido
idol
idola
idris
idrus
ie
iec
ieee
ieyasu
if
ifa
ig
ign
ignacio
ignatius
igor
ihram
ihsan
ii
iida
iii
iis
ijazah
ijn
ijok
ik
ika
ikan
ikat
ikatan
ikhlas
ikhtiar
ikhwan
ikhwanul
ikko
iklan
iklim
ikmal
ikon
ikonik
ikram
ikrar
ikut
ikuta
ikutan
il
ila
ilahi
ilam
ile
ilham
ilina
ilir
ill
ille
illegal
illinois
illustrated
illyria
ilm
ilmiah
ilmu
ilmuan
ilmuwan
ilo
ilusi
ilustrasi
ilya
ilyas
ilyushin
im
ima
image
images
imagesize
imaginasi
imagination
imam
iman
imax
imbangan
imbas
imbasan
imbuhan
imdb
imej
imf
img
imi
imigran
imigrasi
imigresen
immigration
immortal
imo
imov
imp
impact
impak
imperial
imperialis
imperialisme
impian
impiannya
implan
implications
implikasi
import
important
impossible
imran
imtiaz
imuda
imun
imunisasi
imuniti
in
ina
inanam
inang
inas
inc
inca
incheon
inci
incident
include
included
includes
including
incorporated
increase
increased
incredible
increment
indah
indahnya
indeks
independence
independent
indera
index
india
indian
indiana
indianapolis
indie
indies
indigenous
indigo
indira
individu
individual
indo
indochina
indomie
indonesia
indonesian
indosiar
indra
indramayu
indre
induk
induknya
indulgensi
indus
industri
industrial
industries
industry
indy
ine
inersia
inews
inf
infant
infanterie
infantri
infantry
infectious
inferno
infinite
infinity
inflasi
influence
influenza
info
informal
informasi
information
infra
inframerah
infrastructure
infrastruktur
ing
ingat
ingatan
ingatannya
ingatlah
inggeris
inggerisnya
inggris
ingin
inginkan
ingkar
ingrid
ini
inilah
inisiatif
initial
initiative
injap
injil
injo
inka
inkigayo
inklusif
inn
inner
innocence
innocent
innovation
innuendo
ino
inoue
inovasi
inovatif
input
inquirer
inquiry
ins
insaf
insan
insang
insani
insee
insentif
inside
insiden
insider
insight
insignia
inskripsi
inspector
inspektor
inspirasi
inspired
instagram
instead
institusi
institut
institute
institution
institutions
instrumen
instrument
instrumental
instruments
insulin
insuran
insurance
insurans
int
intan
inteam
integer
integrasi
integrated
integration
integriti
intel
intelek
intelektual
intellectual
intelligence
intelligent
intensif
intensiti
inter
interactive
interaksi
interaktif
interchange
intercontinental
interest
interface
interim
interior
internacional
internal
internasional
international
internationale
internazionale
internet
interpol
interpretasi
interpretation
interstellar
intervensi
interview
interviews
inti
intim
intipati
into
intro
introduced
introduction
inu
inuyasha
invasif
invasion
invention
inventori
invertebrat
invertebrata
investasi
investigation
investment
investor
invisible
involved
inzaghi
io
ioc
iodin
ioi
ion
ionia
ios
iowa
ip
ipa
ipad
ipar
iparnya
ipc
ipd
ipg
iphone
ipin
ipo
ipod
ipoh
ipswich
ipt
ipta
iptv
ipv
iq
iqbal
iqram
ir
ira
irama
iran
irani
iranian
iraq
iraqi
irdawaty
ireland
irene
irfan
iri
irian
iringan
iris
irish
irma
iron
irshad
irvine
irving
irwan
irwin
is
isa
isaac
isabel
isabella
isaiah
isbn
ise
isfahan
ishak
ishaq
ishida
ishikawa
isi
isian
isinya
isipadu
isis
iskandar
iskandariah
isla
islah
islam
islamabad
islami
islamiah
islamic
islamik
islamiyah
island
islands
isle
isma
ismail
ismailli
isnin
iso
isomer
isotop
isp
israel
israeli
iss
issn
issue
issued
issues
ist
istana
istananya
istanbul
istat
isteri
isterinya
istiadat
istilah
istimewa
istimewanya
istirahat
istri
istrinya
isu
isuzu
isyarat
it
ita
itachi
itali
italia
italian
italiana
italy
itam
itano
itbm
item
ithaca
itik
itm
ito
its
itself
itu
itulah
itunes
itupun
itv
iu
iucn
iupac
iv
iva
ivan
ivoire
ivory
ivy
iwan
iwata
iwate
iwerks
ix
ixa
ixodes
iz
izara
izham
izin
izo
izumi
izwan
izz
izzah
izzuddin
izzue
j
ja
jaafar
jab
jabal
jabar
jabatan
jabi
jabir
jablonec
jabor
jabrayil
jabung
jack
jackass
jackie
jackson
jaclyn
jacob
jacobs
jacqueline
jacques
jade
jadi
jadian
jadikan
jadilah
jadinya
jadual
jae
jafar
jaga
jagaan
jaguar
jaguh
jagung
jah
jahan
jahat
jaheaik
jahit
jahitan
jai
jail
jailani
jaim
jaime
jain
jainisme
jais
jaja
jajahan
jajahannya
jajaran
jakal
jakarta
jakartatimur
jake
jaket
jakim
jakob
jaksa
jaktim
jal
jala
jalal
jalaluddin
jalan
jalanan
jalang
jalani
jalannya
jalanraya
jali
jalil
jalilabad
jalinan
jalur
jaluran
jam
jama
jamaah
jamadilakhir
jamadilawal
jamaica
jamak
jamal
jamaluddin
jamaludin
jamalullail
jambak
jambatan
jambi
jambu
jambul
jamek
james
jami
jamie
jamil
jamilah
jamin
jaminan
jammu
jampi
jamuan
jan
jana
janaan
janakuasa
janda
jane
janeiro
janet
jang
jangan
janganlah
janggut
jangka
jangkaan
jangkamasa
jangkauan
jangkitan
janice
janin
janji
janjinya
janna
jannah
jantan
jantina
jantung
januari
january
japan
japanese
jar
jarak
jaraknya
jarang
jared
jari
jaring
jaringan
jarum
jas
jasa
jasad
jasadnya
jasanya
jasin
jasmani
jasmay
jasmin
jasmine
jason
jasper
jaszle
jata
jati
jatinegara
jatuh
jatuhnya
jauh
jauhnya
java
javascript
javed
javier
jawa
jawab
jawapan
jawapannya
jawatan
jawatankuasa
jawatannya
jawi
jay
jaya
jayanti
jayanya
jayapura
jazeera
jazz
jb
jdt
je
jean
jeanne
jebat
jed
jeddah
jedi
jef
jeff
jefferson
jeffrey
jefri
jehan
jejak
jejaka
jejambat
jejantas
jejari
jeju
jelai
jelajah
jelapang
jelas
jelasnya
jelata
jelebu
jeli
jelita
jelly
jelmaan
jelutong
jem
jemaah
jemaat
jembal
jembatan
jementah
jempol
jemput
jemputan
jemu
jemukan
jen
jenaka
jenama
jenayah
jenazah
jenazahnya
jendela
jenderal
jeneral
jengka
jeniang
jenis
jenisnya
jenjang
jenkins
jennifer
jenny
jens
jensen
jenson
jentera
jeolla
jeon
jeong
jeongjo
jeonju
jepang
jepara
jepun
jerai
jeram
jerami
jerangau
jerantut
jerat
jerawat
jerebu
jeremiah
jeremy
jericho
jering
jeritan
jerman
jermanik
jernih
jerome
jerry
jersey
jersi
jerteh
jeruk
jerung
jerusalem
jesse
jesselton
jessica
jessie
jesu
jesuit
jesus
jet
jeti
jetstar
jewel
jewish
jews
jg
jharkhand
jheoa
ji
jia
jian
jiang
jiangsu
jiangxi
jibril
jic
jie
jihad
jihan
jihlava
jika
jikalau
jikan
jil
jilid
jill
jim
jimat
jimmy
jin
jinak
jinbara
jinchu
jindr
jing
jingga
jinjang
jinnah
jinping
jins
jinshi
jintan
jiraiya
jiran
jirannya
jirim
jiro
jisim
jit
jitra
jitu
jiwa
jiwanya
jj
jjigae
jk
jkkk
jkkn
jkr
jkt
jl
jln
jma
jmpl
jo
joa
joachim
joan
joanna
joaquin
job
jobs
jodi
jodoh
joe
joel
joey
joget
johan
johann
johanna
johannes
johannesburg
johansson
johar
johari
john
johnny
johns
johnson
johnston
johol
johor
johore
join
joins
joint
jojo
joker
joko
jokowi
jolie
jolly
jolokan
jom
jombang
jomo
jon
jonah
jonas
jonathan
jones
jong
joo
joon
joong
jordan
jorge
jos
jose
josef
joseon
joseph
josephine
josh
joshi
joshua
josiah
joule
journal
journals
journey
jov
jovice
joy
joyce
jp
jpeg
jpg
jpl
jpm
jpn
jr
js
jstor
jtbc
jtl
jtwc
ju
jua
juadah
jual
jualan
juan
juang
juara
jubah
jubilee
jubin
jubli
judah
judaism
judas
jude
judea
judge
judgment
judi
judith
judo
judul
judy
juga
jugalah
jugra
juice
juita
jujukan
jujur
jul
julai
julang
julat
julau
jules
juli
julia
julian
juliana
julie
julien
juliet
julio
julius
julukan
julung
july
jumaat
jumlah
jumlahnya
jump
jumpa
jumpaan
jun
junban
junction
june
jung
jungjong
jungle
juni
junid
junior
juniors
junjou
juno
junta
jupiter
jura
jurai
jurang
jurassic
jurchen
jure
juri
jurina
jurnal
jurong
juru
juruanimasi
jurubina
jurucakap
jurugambar
juruhebah
jurukamera
jurulatih
jururawat
jurus
jurusan
juruteknik
jurutera
juruterbang
juruukur
jus
jusco
jusoh
just
justera
justeru
justice
justifikasi
justify
justin
justru
jusuf
juta
jutaan
jutawan
jutsu
juvana
juventus
juwita
juzuk
jyp
k
ka
kaa
kaabah
kaamatan
kab
kabar
kabel
kabhi
kabilah
kabin
kabinet
kabinetnya
kabir
kabuki
kabul
kabupaten
kabur
kabus
kabut
kabuto
kaca
kacak
kacang
kacau
kacir
kacukan
kad
kadang
kadangkala
kadangkalanya
kadar
kadaran
kadazan
kadazandusun
kader
kadet
kadi
kadipaten
kadir
kadok
kadokawa
kaduk
kaedah
kaesong
kafa
kafe
kafeina
kafilah
kafir
kagoshima
kagum
kah
kahar
kaherah
kahwin
kai
kain
kaisar
kaiser
kaiserslautern
kait
kaitan
kaitannya
kaito
kajang
kaji
kajian
kajiannya
kajol
kak
kaka
kakak
kakaknya
kakaktua
kakanda
kakao
kakashi
kakawin
kaki
kakinya
kakitangan
kakitangannya
kaku
kal
kala
kalabakan
kalah
kalam
kalan
kalang
kalangan
kalanya
kalau
kalbajar
kalbu
kalendar
kaler
kali
kalian
kaliber
kaligrafi
kalimah
kalimantan
kalimat
kalinya
kalis
kalium
kalkulator
kalkulus
kallang
kalong
kalori
kalsium
kalsom
kalumpang
kalung
kalungan
kam
kama
kamakura
kamal
kamala
kamar
kamariah
kamaruddin
kamarudin
kamarul
kambing
kambria
kamei
kamen
kameo
kamera
kami
kamikaze
kamil
kamila
kamiran
kampanye
kampar
kampong
kampung
kampungnya
kampus
kamu
kamunting
kamus
kan
kana
kanaan
kanada
kanagawa
kanak
kanaknya
kanako
kanan
kanannya
kanazawa
kancah
kancil
kancing
kand
kanda
kandahar
kandang
kandi
kandis
kandung
kandungan
kandungannya
kandungnya
kane
kang
kangar
kangkar
kangkung
kangsar
kani
kanin
kanji
kannada
kano
kanon
kanonik
kanopi
kanowit
kansai
kansas
kanser
kant
kanta
kantin
kanto
kanton
kantonis
kantor
kantung
kanu
kanun
kanvas
kao
kaori
kaoru
kap
kapak
kapal
kapalnya
kapan
kapanlagi
kapar
kapas
kapasiti
kapasitor
kapcai
kapit
kapita
kapitalis
kapitalisme
kapitan
kapitol
kapoor
kapor
kaps
kapsul
kapten
kapuas
kapur
kar
kara
karabakh
karachi
karak
karakter
karam
karamel
karan
karang
karangan
karangasem
karangkraf
karaoke
karapas
karat
karate
karawang
karbala
karbin
karbohidrat
karbon
karbonat
kardinal
kardiovaskular
kare
kareena
karel
karen
karena
kargo
kari
kariah
karib
karibnya
karier
kariernya
karies
karikatur
karim
karimunjawa
karin
karina
karipap
karisma
karl
karlovy
karma
karmila
karnataka
karnival
karnivor
karno
karo
karpal
kart
kartanegara
kartel
kartika
kartina
kartini
kartografi
kartrij
kartun
kartunis
karun
karut
karya
karyanya
karyawan
kas
kasa
kasai
kasar
kasarnya
kaset
kashima
kashiwa
kashiwagi
kashmir
kasi
kasih
kasihan
kasim
kasino
kaspia
kassim
kasta
kastam
kastamonu
kastard
kasturi
kasual
kasus
kasut
kat
kata
katak
katakan
katalog
katana
katanya
kate
katedral
kategori
katekismus
katering
katherine
kathir
kathleen
kathmandu
katholik
kathryn
kathy
kati
katie
katil
katniss
kato
katod
katolik
katrij
katrina
katup
katy
katyusha
kau
kaukasia
kaukasus
kaum
kaumnya
kaunseling
kaunselor
kaunter
kaunti
kaur
kavalri
kawad
kawah
kawal
kawalan
kawalannya
kawan
kawanan
kawannya
kawasaki
kawasan
kawasannya
kawat
kawi
kawin
kay
kaya
kayan
kayangan
kayu
kazakh
kazakhstan
kazan
kazar
kaze
kb
kbs
kc
kch
kd
kde
kdn
kdnk
kdymm
ke
keabadian
keadaan
keadaannya
keadilan
keagamaan
keagungan
keahlian
keahliannya
keajaiban
keakhiran
keamanan
keamatan
kean
keanggotaan
kearah
keaslian
keat
keatas
keazaman
keb
kebab
kebahagiaan
kebaikan
kebajikan
kebakaran
kebaktian
kebal
kebanggaan
kebangkitan
kebangsaan
kebanyakan
kebanyakannya
kebanyakkan
kebanyakkannya
kebarangkalian
kebawah
kebaya
kebebasan
kebelakangan
kebenaran
kebenarannya
kebencian
kebenuaan
keberadaan
keberangkatan
keberanian
keberatan
kebergantungan
keberhasilan
keberkesanan
keberkesanannya
kebersihan
kebesaran
kebetulan
kebiasaan
kebiasaannya
kebiasaanya
kebijakan
kebijaksanaan
kebimbangan
kebocoran
kebolehan
kebolehannya
kebolehpercayaan
kebon
kebudayaan
kebuk
kebuluran
kebun
kebuntuan
keburukan
kebutuhan
kecacatan
kecaman
kecamatan
kecantikan
kecederaan
kecekapan
kecelakaan
kecelaruan
kecemasan
kecemerlangan
kecenderungan
kecepatan
kecerahan
kecerdasan
kecergasan
keceriaan
kecerunan
kecewa
kechik
kechil
kecil
kecilan
kecilnya
kecoh
kecondongan
kecuaian
kecuali
kecundang
kecurian
keda
kedah
kedai
kedalam
kedalaman
kedamaian
kedatangan
kedaulatan
kedengaran
kediaman
kediamannya
kedidi
kediktatoran
kediri
kedoktoran
kedondong
kedua
keduanya
kedudukan
kedudukannya
kedutaan
kee
keemasan
keempat
keempatnya
keenam
keengganan
keep
keesokan
keesokannya
kefahaman
kefungsian
kegagalan
kegagalannya
keganasan
kegelapan
kegelisahan
kegemaran
kegemarannya
kegembiraan
kegemilangan
keghairahan
kegiatan
kegilaan
keguguran
kegunaan
kegunaannya
kehabisan
kehadapan
kehadiran
kehadirannya
kehakiman
kehamilan
kehancuran
keharmonian
kehebatan
kehendak
kehendaknya
kehidupan
kehidupannya
kehijauan
kehilangan
kehitaman
kehormat
kehormatan
kei
keilmuan
keimanan
keindahan
keinginan
keinginannya
keistimewaan
keisuke
keita
keith
keizinan
kejadian
kejahatan
kejahilan
kejaksaan
kejam
kejar
kejatuhan
kejayaan
kejayaannya
keji
kejiranan
kejohanan
kejora
keju
kejuaraan
kejujuran
kejuruan
kejurulatihan
kejururawatan
kejuruteraan
kejutan
kek
kekaburan
kekacang
kekacauan
kekadang
kekadangnya
kekaisaran
kekal
kekalahan
kekangan
kekasih
kekasihku
kekasihnya
kekayaan
kekayaannya
kekebalan
kekecewaan
kekecohan
kekejaman
kekejangan
kekeliruan
kekeluargaan
kekerapan
kekerasan
kekhalifahan
kekhanan
kekisi
kekosongan
kekuasaan
kekuasaannya
kekuatan
kekuatannya
kekunci
kekuningan
kekurangan
kel
kelab
kelabnya
kelabu
keladi
kelahiran
kelahirannya
kelainan
kelajuan
kelak
kelakar
kelakuan
kelam
kelamaan
kelamin
kelana
kelang
kelangsungan
kelantan
kelapa
kelapan
kelaparan
kelas
kelasi
kelasnya
kelautan
kelawar
kelayakan
kelaziman
keldai
kelebihan
keledang
keledar
keledek
kelemahan
kelembapan
kelengkapan
kelenjar
kelestarian
keletihan
kelewatan
keli
kelibat
kelicap
kelihatan
kelihatannya
keliling
kelima
kelimanya
kelimpahan
kelinci
keling
kelip
keliru
kellogg
kelly
kelolaan
kelompok
kelonggaran
kelopak
keluang
keluar
keluaran
keluarannya
keluarga
keluarganya
keluarkan
keluarnya
keluasan
keluasann
keluasannya
kelubi
keluk
keluli
kelulusan
kelulut
kelurahan
kelvin
kem
kemaharajaan
kemahiran
kemahirannya
kemahkotaan
kemahuan
kemajuan
kemakmuran
kemal
kemala
kemalangan
kemaluan
kemaman
kemampuan
kemampuannya
kemandirian
kemang
kemangkatan
kemangkatannya
kemanusiaan
kemaraan
kemarahan
kemarau
kemas
kemasan
kemasinan
kemaskini
kemasukan
kemasyarakatan
kemasyhuran
kematangan
kematian
kematiannya
kembali
kembalinya
kembang
kembangan
kembar
kembara
kembarnya
kemboja
kembung
kemegahan
kemeja
kemelesetan
kemelut
kemenangan
kemenangannya
kementerian
kemenyan
kemerah
kemerahan
kemerdekaan
kemerdekaannya
kemerosotan
kemewahan
kemimikan
kemiskinan
kemoterapi
kempas
kempen
kempennya
kemudahan
kemudi
kemudian
kemudiannya
kemuliaan
kemuncak
kemuncaknya
kemunculan
kemunculannya
kemunduran
kemungkinan
kemungkinannya
kemuning
kemunting
kemurungan
kemusnahan
ken
kena
kenaikan
kenaikkan
kenal
kenalan
kenali
kenamaan
kenang
kenanga
kenangan
kenapa
kenari
kencana
kencang
kencing
kendali
kendalian
kendall
kendaraan
kenderaan
kendi
kendiri
kendrick
kenduri
kenegaraan
kenel
keng
kenichi
kening
keningau
kenji
kenkyuusei
kennedy
kennel
kenneth
kenny
kenpachi
kensington
kent
kental
kentang
kentaur
kentucky
kenya
kenyah
kenyal
kenyalang
kenyataan
kenyataannya
keong
kepada
kepadaku
kepadamu
kepadanya
kepadatan
kepahiang
kepahlawanan
kepak
kepakaran
kepala
kepalanya
kepanasan
kepanduan
kepanjangan
kepantasan
kepastian
kepatuhan
kepausan
kepayang
kepekaan
kepekatan
kepelbagaian
kepemilikan
kepemimpinan
kependekan
kependudukan
kepentingan
kepentingannya
keperangan
keperawanan
kepercayaan
kepercayaannya
keperibadian
keperluan
kepimpinan
kepimpinannya
kepincangan
keping
kepingan
kepintaran
kepler
kepolisan
kepolisian
kepong
kepopularan
kepresidenan
keprihatinan
kepuasan
kepujian
kepulangan
kepulauan
kepungan
kepunyaan
kepupusan
keputeraan
keputusan
keputusannya
kera
kerabat
keracunan
keradangan
keragaman
keraguan
kerahan
kerahsiaan
keraian
kerajaan
kerajaannya
kerajinan
kerak
kerakyatan
kerala
keramaian
keramat
kerambit
kerana
keranda
kerang
kerangka
kerani
keranjang
keranji
kerap
kerapu
keras
kerat
keratan
keraton
keratong
kerbau
kerdil
kerelatifan
kerentanan
kerepek
keresahan
kereta
keretakan
keretanya
keretapi
kerian
kerikil
kerinci
kerinduan
kering
keris
kerisauan
kerja
kerjanya
kerjasama
kerjaya
kerjayanya
keroh
kerohanian
keroncong
kerongkong
keropok
keroro
kerosakan
kerpasan
kerr
kerry
kertas
kerteh
kerubut
kerugian
keruh
keruing
kerumitan
keruntuhan
kerusi
kerusinya
kerusuhan
kes
kesabaran
kesahan
kesahihan
kesakitan
kesaksamaan
kesaksian
kesaktian
kesal
kesalahan
kesamaan
kesamarataan
kesan
kesang
kesannya
kesat
kesateria
kesatria
kesatuan
kesayangan
kesayangannya
kesebelas
kesebelasan
kesedaran
kesederhanaan
kesediaan
kesedihan
kesehatan
keseimbangan
kesejahteraan
keseksaan
keselamatan
keselesaan
keseluruhan
keseluruhannya
kesembilan
kesempatan
kesempurnaan
kesemua
kesemuanya
kesenangan
kesengsaraan
kesenian
kesepakatan
kesepian
kesepuluh
keseragaman
keserasian
keseronokan
kesesakan
kesesuaian
kesetaraan
kesetiaan
keshogunan
kesibukan
kesihatan
kesihatannya
kesilapan
kesimpulan
kesimpulannya
kesinambungan
kesinambungannya
kesipian
kesnya
kestabilan
kesuburan
kesucian
kesudahan
kesudahannya
kesukaran
kesulitan
kesultanan
kesuma
kesungguhan
kesusahan
kesusasteraan
kesusteraan
kesyukuran
ketaatan
ketabahan
ketagihan
ketahanan
ketahui
ketakutan
ketam
ketamadunan
ketangkasan
ketapang
ketara
ketat
ketawa
ketebalan
ketegangan
ketelusan
ketenangan
ketengah
ketenteraan
ketenteraannya
ketenteraman
ketentuan
ketepatan
keterampilan
keterangan
ketereh
keterlaluan
keterlibatan
ketersediaan
ketetapan
ketiadaan
ketiak
ketibaan
ketidak
ketidakadilan
ketidakpastian
ketidakpuasan
ketidaksamaan
ketidakseimbangan
ketidakstabilan
ketidakupayaan
ketiga
ketiganya
ketika
ketil
ketinggalan
ketinggian
ketinggiannya
ketoksikan
ketua
ketuanan
ketuanya
ketuhanan
ketuhar
ketujuh
ketulan
ketulenan
ketumbar
ketumbuhan
ketumbukan
ketumpatan
ketupat
keturunan
keturunannya
keuangan
keugamaan
keun
keunggulan
keunikan
keuntungan
keupayaan
keupayaannya
keusahawanan
keuskupan
keutamaan
keutuhan
kevin
kew
kewafatan
kewajiban
kewajipan
kewangan
kewarganegaraan
kewartawanan
kewibawaan
kewujudan
kewujudannya
key
keyakinan
keyboard
keynes
keys
keyunanian
kezaliman
kf
kfc
kg
kgb
kh
kha
khabar
khachmaz
khadijah
khai
khair
khairi
khairiah
khairil
khairuddin
khairul
khairy
khalayak
khaldun
khaled
khalid
khalifa
khalifah
khalil
khamis
khan
khanna
khannaz
khao
kharkiv
khas
khasiat
khasnya
khat
khatib
khatijah
khattab
khatulistiwa
khayalan
khazanah
khemah
kheng
kher
khianat
khidmat
khidmatnya
khilafah
khinzir
khir
khitan
khmer
kho
khojavend
khomeini
khoo
khrushchev
khuatir
khulafa
khurafat
khusus
khususnya
khutbah
khz
ki
kia
kiai
kiamat
kian
kiara
kiasan
kiat
kiblat
kiblatnya
kicap
kick
kid
kidal
kido
kids
kidul
kidung
kiev
kii
kijal
kijang
kikir
kilang
kilas
kilasan
kilat
kilau
kilauan
kill
killed
killer
killing
kilogram
kilometer
kim
kimanis
kimberley
kimberly
kimchi
kimi
kimia
kimpalan
kimura
kin
kinabalu
kinabatangan
kinase
kincir
kind
kindaichi
kinenbi
kinetik
king
kingdom
kingdoms
kings
kingston
kini
kinmen
kinoshita
kinrara
kinta
kintamani
kipas
kippur
kira
kiraan
kirana
kiranya
kirby
kiri
kiribati
kiriman
kirinya
kirito
kirk
kisah
kisahnya
kisar
kishimoto
kismis
kiss
kit
kita
kitab
kitagawa
kitahara
kitakyushu
kitar
kitaran
kitchen
kite
kitingan
kitts
kitty
kiub
kiva
kj
kk
kkm
kl
klad
kladno
klan
klang
klasifikasi
klasik
klasikal
klatovy
klaus
klausa
klawang
klcc
klein
klement
klender
klia
klien
klik
kling
klinik
klinikal
klinsmann
klip
klm
klon
klorida
klorin
klu
kluang
klub
klungkung
kluster
km
kmn
kmt
kn
kne
knesset
knew
knight
knights
knock
knopf
knot
know
knowledge
known
knox
knoxville
knuth
knvb
ko
kobalt
kobayashi
kobe
koboi
koc
koch
kock
kod
koda
kodansha
kode
kodiang
kodok
koe
koes
kofu
kognitif
kogoro
koh
koharu
koi
koir
koji
kojima
kok
koko
kokoro
kokpit
koku
kokurikulum
kol
kola
kolaborasi
kolagen
kolam
kolar
kolej
koleksi
kolektif
kolera
kolesterol
koli
kolkata
kolonel
koloni
kolonial
kolonialisme
kolum
kolumnis
kom
koma
komandan
komander
komando
komanwel
kombat
kombinasi
komedi
komen
komentar
komersial
komersil
komet
komik
komisi
komisioner
komite
komited
komitmen
komoditi
komodo
komodor
komp
kompak
kompang
kompas
kompeni
kompetensi
kompetitif
kompilasi
komplek
kompleks
komplikasi
komplot
komponen
komposer
komposisi
komposit
komprehensif
kompromi
komputer
komtar
komun
komune
komunikasi
komunis
komunisme
komunitas
komuniti
komunyang
komuter
kon
konco
kondisi
kondo
kondom
kondominium
konduktor
kondusif
konfederasi
konferensi
konfigurasi
konflik
konfrontasi
konfusianisme
kong
konga
kongenital
konglomerat
kongo
kongres
kongsi
konkrit
kono
konoha
konon
kononnya
konotasi
konsensus
konsep
konser
konsert
konservasi
konservatif
konsesi
konsili
konsisten
konsol
konsonan
konsortium
konspirasi
konstabel
konstantin
konstantinopel
konstituen
konstitusi
konsul
konsulat
kontak
konteks
kontemporari
kontena
kontingen
kontinjen
kontra
kontrak
kontraknya
kontraktor
kontras
kontroversi
kontroversial
konvensional
konvensyen
konvoi
konya
koo
kook
kool
koon
koordinasi
koordinat
koordinator
koperal
koperasi
kopi
kopitiam
kor
koran
korban
kord
kordata
kordinate
korea
korean
korek
koreografer
koreografi
koridor
kornea
korolev
korona
koronari
koronavirus
korporat
korps
korteks
korup
korupsi
korus
korvet
kos
kosa
kosmetik
kosmik
kosmo
kosmologi
kosmopolitan
kosmos
kosong
kosovo
kostum
kot
kota
kotabaru
kotak
kotamadya
kotanya
kotawaringin
koto
kotor
kotoran
kou
koubou
kov
kovac
kovalainen
kovalen
kowloon
koyak
koyote
kp
kpk
kpm
kr
kra
kraf
kraft
kraftangan
krai
krako
kramat
kramatjati
kramer
kraton
krau
kreatif
kreativiti
kredibiliti
kredit
kreis
kreizberg
kremlin
kren
krew
kri
kriegsmarine
kriket
krim
krimea
kriptografi
kris
krisdayanti
krishna
krishnan
krisis
krismas
kristal
kristen
kristian
kristiani
kristus
kriteria
kriti
kritik
kritikal
kritikan
kritis
krl
krome
kromosom
kronik
kronologi
kronometer
kronos
krs
krti
kru
krueng
kruiser
krus
krustasea
ks
ksk
kst
kt
ktm
ktmb
ku
kua
kuadratik
kuah
kuala
kuali
kualitas
kualiti
kuan
kuang
kuantan
kuantitatif
kuantiti
kuantum
kuar
kuarantin
kuari
kuark
kuarters
kuartet
kuarza
kuasa
kuasanya
kuat
kub
kubah
kubang
kubica
kubis
kublai
kubo
kubor
kubu
kubur
kuburan
kucar
kuch
kuching
kucing
kuda
kudat
kudeta
kudin
kudo
kudus
kue
kufah
kufi
kugiran
kuh
kui
kuih
kuil
kuiper
kuis
kuiz
kuku
kukuh
kukup
kukus
kul
kulai
kulat
kuli
kuliah
kulim
kulit
kulitnya
kulon
kultivar
kultur
kultus
kulup
kum
kumamoto
kuman
kumar
kumbahan
kumbang
kumpulan
kumpulannya
kun
kunak
kunci
kundang
kundasang
kundor
kundur
kung
kuning
kuningan
kunjungan
kunming
kuno
kuntau
kuntum
kunyit
kuo
kuomintang
kuota
kupang
kuprum
kupu
kura
kurang
kurangkan
kurangnya
kurator
kurau
kurdamir
kurdi
kurdish
kurdistan
kurikulum
kurita
kurma
kurnia
kurniaan
kurosaki
kursi
kursus
kurt
kurun
kurung
kurungan
kurus
kusatsu
kusta
kusuma
kusumi
kusyairy
kuta
kutai
kutipan
kutna
kutu
kutub
kutukan
kuwait
kv
kw
kwak
kwan
kwang
kwasa
kwee
kwok
kwon
kwong
kwsp
ky
kya
kyai
kyi
kyiv
kyle
kylie
kyo
kyoto
kyrgyz
kyrgyzstan
kyu
kyubi
kyun
kyung
kyushu
l
la
lab
labah
label
labem
labi
labis
labor
laboratory
labour
labrador
labs
labu
labuan
labuhan
lac
lachin
lack
lada
ladam
ladang
laden
ladies
ladu
lady
ladyana
lafaz
laga
lagak
lagenda
lagi
lagipun
lagoon
lagos
lagu
lagun
laguna
lagunya
lah
lahad
lahan
lahar
lahat
lahir
lahirlah
lahirnya
lahn
lahore
lai
laila
lain
lainnya
lajnah
laju
lajur
lakaran
lake
lakes
laki
lakon
lakonan
lakonannya
lakonlayar
laksa
laksamana
laksana
lakshmi
laktik
laku
lakukan
lal
lala
lalai
lalang
lalat
lali
lalu
laluan
laluannya
lam
lama
laman
lamanya
lamaran
lamb
lambak
lambang
lambat
lambda
lambert
lambor
lambung
lampau
lampiran
lampu
lampung
lan
lana
lanang
lanao
lanas
lancang
lancar
lancaran
lancashire
lancaster
lance
lancer
lanchang
land
landak
landas
landasan
landau
landes
landing
landmark
lands
landscape
landschaft
landskap
lane
lang
langat
langganan
langgar
langit
langka
langkah
langkap
langkasuka
langkat
langkawi
langsat
langsing
langsung
language
languages
languedoc
lanjut
lanjutan
lanka
lankaran
lanskap
lantai
lantang
lantaran
lantas
lantern
lantikan
lanun
lanzhou
lao
laos
lap
lapan
lapang
lapangan
lapar
lapis
lapisan
lapok
laporan
lapuk
lara
larang
larangan
laras
large
largest
lari
larian
laris
larkin
larry
lars
larsen
larson
larut
larutan
larva
las
lasak
laser
laskar
lasso
last
lat
lata
latar
latarbelakang
late
later
lateral
latest
latif
latifah
latiff
latihan
latin
latina
latitud
latitude
latter
latvia
lau
lauenburg
laugh
lauk
laun
launceston
launch
launched
launches
laura
laurel
lauren
laurence
laurent
laurie
lausanne
laut
lautan
lautnya
lava
lavender
law
lawak
lawan
lawang
lawannya
lawas
lawatan
lawatannya
lawe
lawrence
laws
lawson
lawyer
lay
layak
layan
layanan
layang
layar
layer
layu
lazat
lazim
lazimnya
lazio
lb
lbf
lc
lcd
ld
ldg
ldii
ldp
le
lea
lead
leader
leaders
leadership
leading
leaf
league
leah
leap
learn
learned
learning
least
leave
leaves
leaving
lebah
lebai
lebak
lebam
lebanon
lebar
lebaran
lebarnya
lebat
lebih
lebihan
lebong
lebuh
lebuhraya
lebur
lecce
lecture
lectures
led
ledakan
ledang
lee
leeds
leela
left
leftenan
lefthanded
leg
lega
legacy
legal
legar
legasi
legeh
legend
legenda
legendary
legends
legion
legislatif
legislation
legislative
legiun
lego
leher
lehernya
lei
leicester
leiden
leigh
leipzig
leisure
lejang
lek
lekapan
lekir
lekor
lekuk
lekukan
lela
lelah
lelaki
lelakinya
lelangit
lelongan
leluhur
lemah
lemak
leman
lemas
lembab
lembaga
lembah
lembangan
lembap
lembaran
lembing
lembu
lembut
lemon
lemony
lempeng
len
lena
lencana
lencongan
lendir
leng
lengan
lenggeng
lenggong
lengkap
lengkok
lengkuas
lengkung
lengkungan
length
lenin
leningrad
leninisme
lennon
lens
lensa
lentera
lentur
lenyap
leo
leon
leonard
leonardo
leone
leong
leonid
leopard
leopold
lepa
lepar
lepas
lepasan
leper
lepidoptera
lepus
lereng
lerik
leroy
les
lesbian
lesen
lesi
leslie
lesotho
less
lesser
lesson
lessons
lestari
lestary
leste
lester
lestrange
lesung
let
letak
letakkan
letaknya
letih
letkol
leto
letter
letters
letupan
letusan
leukemia
leung
lev
levant
level
levels
lever
leverkusen
levi
levice
levine
levy
lewandowski
lewat
lewis
lex
lexicon
lexington
leyte
lez
lg
lgbt
lhasa
lhok
lhota
li
lia
liabiliti
liability
liam
lian
liang
liao
liaoning
liar
liat
liberal
liberalisasi
liberalisme
liberation
liberec
liberia
liberty
libraries
library
libreto
libya
lice
licik
licin
licuala
lidah
liddell
lie
liechtenstein
lies
lieutenant
liew
lif
life
lifestyle
lifetime
liga
ligamen
light
lightgrey
lightning
lights
ligue
liguria
lihat
lik
likas
like
likely
liku
lil
lili
lilin
lilit
lilitan
lille
lillian
lily
lim
lima
limah
limau
limbang
limbat
limbungan
limburg
limfa
limit
limited
limits
limousin
limpah
limpahan
lin
lina
lincah
lincoln
linda
lindsay
lindung
lindungan
line
linear
lines
ling
lingam
lingga
linggi
lingkaran
lingkungan
lingkup
lingua
linguistic
linguistics
linguistik
link
linkin
links
linnaeus
lintah
lintang
lintas
lintasan
linus
linux
lio
lion
lionel
liong
lions
lionsgate
lionsxii
lip
lipas
lipat
lipatan
lipid
lipis
liptovsky
lipur
liputan
liquid
lira
lirik
liriknya
lisa
lisan
lisbon
list
listed
listen
listing
listrik
lists
lit
litar
lite
liter
literal
literary
literasi
literature
lithuania
litium
litome
little
litupan
liturgi
liu
liur
liut
liuzzi
live
liverpool
livery
lives
living
livorno
liwat
lix
liyana
liz
liza
lkenberg
lktp
ll
lla
llc
lleida
ller
lloyd
lm
ln
lng
lni
lo
loan
lobak
lobi
lobus
local
localities
located
location
locations
loceng
lock
locke
lockhart
lockheed
lodge
log
logam
logan
logaritma
loghat
logi
logic
logik
logistics
logistik
logo
loh
lohong
loi
loir
loire
loiret
lois
loji
lok
lokal
lokasi
lokasinya
loke
loket
loki
lokman
lokomotif
lola
loloq
lolos
lomba
lombard
lombardy
lombok
lombong
lompat
lompatan
lon
london
lone
lonely
long
longer
longgar
longgokan
longitud
longman
longtitude
lonjakan
lontar
lontong
loo
look
looking
loong
lopes
lopez
lor
lord
lords
lore
lorentz
lorenzo
lori
lorient
lorikeet
lorong
lorraine
los
lose
losong
loss
losses
lost
lot
loteri
lotte
lotud
lotus
lou
loud
louis
louisa
louise
louisiana
lounge
louny
lourdes
louvre
lovato
love
loved
lovely
lover
lovers
loves
loving
low
lowe
lower
loy
loyang
lozano
loze
lp
lpg
lr
lrt
ls
lt
lta
ltd
lte
lu
luahan
luak
luang
luar
luaran
luarnya
luas
luasnya
lubang
lubis
lubnan
lubok
lubuk
luc
luca
lucah
lucas
lucerne
lucia
luciano
lucius
luck
lucky
lucu
lucy
ludwig
ludwigslust
luffy
luftwaffe
luger
lugo
luhur
lui
luigi
luis
luiz
luk
luka
lukas
luke
lukis
lukisan
lukisannya
lukman
lukut
lulu
lulus
lulusan
lumayan
lumba
lumpuh
lumpur
lumus
lumut
lun
luna
lunak
lunar
lunas
luncur
lundang
lundu
lung
luo
lupa
lupin
lupus
luput
luqman
lurah
luruh
lurus
lut
lutfi
luth
luther
lutheran
lutsinar
lutut
luv
luwu
lux
luxembourg
luz
luzon
lwn
ly
lycaenidae
lycaeninae
lydia
lynch
lynn
lynx
lyon
lyons
lyrical
lyrics
m
ma
maa
maaf
maafkan
maahad
maal
maarof
mabel
mabuk
mac
macam
macapagal
macarthur
macau
macbeth
macdonald
macedon
macedonia
macfarlane
mach
machang
machap
machi
machida
machine
machines
macintosh
mack
mackay
mackenzie
macmillan
macpherson
macquarie
macrobrachium
mad
mada
madagascar
madagaskar
madam
madame
madara
made
madea
madeleine
madhya
madinah
madison
madiun
madman
madness
madonna
madras
madrasah
madrid
madu
madura
maduro
madya
mae
maeda
mael
maembong
maestro
mafia
mag
magazine
magdalena
mage
magelang
magellan
maggie
maghreb
maghrib
maghribi
magic
magical
magik
magis
magister
magma
magna
magnesium
magnet
magnetic
magnetik
magnificent
magnitud
magnum
magnus
maguindanao
maguire
mah
maha
mahabharata
mahadi
mahaguru
mahakarya
mahal
mahalleh
mahan
mahang
mahani
maharaja
maharani
maharashtra
mahasiswa
mahathir
mahawangsa
mahayana
mahdi
maher
mahesh
mahfuz
mahir
mahkamah
mahkota
mahligai
mahmood
mahmoud
mahmud
mahram
mahsuri
mahu
mahukan
mahupun
mahzan
mai
maia
maid
maiden
maidin
mail
maimon
maimonides
maimun
maimunah
main
mainan
maine
mainkan
maintenance
mainz
maisarah
maj
maja
majalah
majalengka
majapahit
majelis
majesty
maji
majid
majikan
majikannya
majistret
majlis
majmuk
major
majoriti
majoritinya
majority
maju
majusi
mak
maka
makalah
makam
makan
makanan
makanannya
makasar
makassar
makati
makau
makcik
make
makedonia
maker
makes
makhluk
maki
makin
making
makkah
maklum
maklumat
makmal
makmur
makna
maknanya
mako
makoto
makro
maksiat
maksima
maksimum
maksud
maksudnya
maktab
maktoum
mal
mala
malabar
malacca
malah
malahan
malai
malaikat
malaka
malam
malang
malangnya
malap
malapetaka
malar
malaria
malas
malau
malawi
malay
malaya
malayalam
malayan
malaysia
malaysiakini
malaysian
malcolm
maldini
maldives
maldonado
male
malek
malfoy
malhotra
mali
malik
maliki
malim
malin
malinau
malindo
malique
mall
mallorca
malta
malu
maluku
maluri
mama
mamak
mamalia
mamamoo
maman
mamat
mambang
mambo
mami
mamluk
mammals
mampan
mampat
mampatan
mampu
mampukah
man
mana
manado
manaf
management
manager
manajemen
manakah
manakala
manan
manap
manatsu
manau
mancha
manche
manchester
manchu
manchukuo
manchuria
manda
mandailing
mandala
mandalay
mandar
mandarin
mandat
mandatori
mandela
mandi
mandian
mandiri
mandul
mandy
manek
manfaat
manfred
mang
manga
mangaka
mangan
mangekyo
mangga
manggis
mangkat
mangkin
mangku
mangkuk
mangsa
mangsanya
manhattan
mani
mania
manifestasi
manifesto
manik
manila
manipulasi
manir
manis
manisan
manitoba
manja
manjanik
manjung
manly
mann
manna
mannheim
manning
manny
mano
manoj
manong
manor
mans
mansa
mansion
mansor
mansur
mantan
mantap
mantel
mantera
manteri
mantin
mantra
manu
manual
manuel
manufacturing
manuscript
manusia
manuskrip
many
mao
maori
map
mapan
maplandia
maple
maps
maqdis
mar
mara
maradona
marah
marak
maran
marang
marathi
marathon
maraton
marc
marcel
marcelo
march
marche
marco
marconi
marcos
marcus
mardi
mare
maret
marga
margaret
margera
margin
marguerite
marhaen
marhum
mari
maria
mariah
mariam
marian
mariana
mariani
mariano
marie
marikh
mariko
marilah
marilyn
marin
marina
marine
mariner
marinir
marino
marinos
mario
marion
marissa
maritim
maritime
maritimes
marius
marjorie
mark
markah
markas
market
marketing
markets
marks
markus
marley
marmar
marne
maro
maroubra
marquis
marriage
married
marriott
mars
marsden
marseille
marsh
marsha
marshal
marshall
marsyal
mart
marta
martabat
martapura
martha
marti
martial
martian
martin
martinez
martinique
martir
marty
maru
maruah
marudi
marudu
marussia
marvel
marvin
marwan
marx
marxis
marxisme
mary
maryam
maryland
marzuki
mas
masa
masai
masak
masakan
masaki
masala
masalah
masalahnya
masally
masam
masanya
masdo
masehi
mashima
masih
masihi
masin
masing
masjid
masjidil
mask
masked
maskot
maskulin
mason
mass
massa
massachusetts
massacre
massive
master
masterchef
mastering
masterpiece
masters
mastif
mastura
masuk
masukan
masukkan
masuknya
maswings
masyarakat
masyarakatnya
masyhur
mat
mata
matahari
matang
matanya
matapelajaran
mataram
matawang
match
matches
mate
matematik
mater
materi
material
materials
math
mathbf
mathematical
mathematics
mathrm
mati
matic
matilda
matius
matlamat
matlamatnya
mato
matra
matriks
matrikulasi
matrix
matsui
matsumoto
matsuri
matsushita
matsuura
matt
matter
matters
matthew
matthews
matthias
mau
maugham
maulana
maulidur
maun
maung
maupun
maurice
mauritania
mauritius
mauro
maurya
maut
maverick
mawar
mawas
mawi
max
maxim
maximilian
maximum
maximus
maxine
maxis
maxwell
may
maya
mayang
mayat
mayatnya
maybank
mayenne
mayer
mayo
mayonis
mayor
mayoritas
mayors
mayu
mayuri
mazda
mazhab
maziah
mazlan
mazlein
mazmur
mazraeh
mb
mba
mbappe
mbc
mbit
mbox
mbs
mc
mca
mcadams
mccarthy
mccartney
mcdonald
mcdonnell
mcfarland
mcgill
mcgonagall
mcgraw
mckenzie
mckinley
mclaren
mcmahon
mcu
md
mdb
me
meade
mean
meaning
means
measat
measure
measurement
measuring
meat
mecha
mechanical
mechanics
mecklenburg
mecklenburgische
med
medal
medan
medang
media
mediacorp
median
medical
medicine
medieval
medina
meditasi
mediterranean
medium
medley
mee
meera
meet
meeting
meets
meg
mega
megah
megami
megan
megasite
megat
megawati
megawatt
megumi
mehdi
mehmed
mehmet
mehra
mehta
mei
meiji
mein
mej
meja
mejar
mek
mekah
mekanik
mekanikal
mekanis
mekanisma
mekanisme
mekar
mekarjaya
mekarsari
mekong
mel
mela
melabelkan
melabur
melafazkan
melahirkan
melainkan
melaka
melakar
melakonkan
melaksanakan
melakukan
melakukannya
melalui
melaluinya
melamar
melambangkan
melambatkan
melambung
melampau
melampaui
melanau
melancarkan
melancong
melanda
melanggan
melanggar
melangkah
melangkaui
melangsungkan
melanie
melanjutkan
melantik
melapor
melaporkan
melarang
melarikan
melati
melatih
melaungkan
melawan
melawat
melawati
melayakkan
melayan
melayang
melayani
melayari
melayu
melbourne
melebarkan
melebihi
meledak
melegakan
melekat
melekit
melemahkan
melemparkan
melengkapi
melengkapkan
melengkung
melepasi
melepaskan
melepaskannya
melesenkan
melestarikan
meletak
meletakkan
meletakkannya
meletop
meletup
meletupkan
meletus
meletusnya
melewar
melewati
melibatkan
melihat
melihatkan
melihatnya
melimpah
melinda
melindungi
melindunginya
melingkar
melintang
melintas
melintasi
meliputi
melisa
melissa
melitupi
melly
melobi
melodi
melodrama
melody
melompat
melon
melonjak
melonjakkan
melontar
melontarkan
melor
meluahkan
meluangkan
meluas
meluaskan
melucutkan
melukis
meluluskan
melumpuhkan
meluncur
melupakan
melur
meluru
melville
melvin
memaafkan
memacu
memadai
memadam
memadamkan
memahami
memainkan
memajukan
memakai
memakan
memakannya
memaklumkan
memaksa
memaksanya
memaksimumkan
memaksudkan
memalukan
memanah
memanaskan
memancarkan
memancing
memandang
memandangkan
memandu
memanfaatkan
memang
memanggil
memanggilnya
memangku
memanipulasi
memanjang
memanjangkan
memanjat
memansuhkan
memantapkan
memantau
memantulkan
memaparkan
memarahi
memartabatkan
memasak
memasang
memasarkan
memastikan
memasuki
memasukkan
memasukkannya
mematahkan
mematikan
mematuhi
membabitkan
membaca
membacakan
membahagi
membahagikan
membahas
membahayakan
membaik
membaiki
membakar
membakut
membalas
membalikkan
membaling
membandingkan
membanggakan
membangkang
membangkitkan
membangun
membangunkan
membanjiri
membantah
membanteras
membantu
membantunya
membara
membasmi
membasuh
membatalkan
membatasi
membawa
membawakan
membawanya
membayangkan
membayar
membebankan
membebaskan
membekalkan
membeku
membekukan
membela
membelah
membelanjakan
membelasah
membeli
membelinya
membelok
membenam
membenarkan
membenarkannya
membenci
membendung
membentang
membentangkan
membentuk
member
memberangsangkan
memberhentikan
memberi
memberikan
memberikannya
memberinya
memberitahu
memberitahunya
memberontak
members
membersihkan
membesar
membesarkan
membetulkan
membezakan
membezakannya
membiak
membiarkan
membiayai
membicarakan
membida
membimbangkan
membimbing
membina
membinasakan
membincangkan
membintangi
memboikot
membolehkan
membolehkannya
membongkar
membosankan
membran
membuahkan
membuang
membuat
membuatkan
membuatkannya
membuatnya
membubarkan
membuka
membuktikan
membuli
membunuh
membunuhnya
memburu
memburuk
memburukkan
meme
memecah
memecahkan
memecat
memecut
memegang
memelihara
memeluk
memenangi
memenanginya
memenangkan
memendekkan
memenjarakan
mementingkan
memenuhi
memerang
memerangi
memerangkap
memerhati
memerhatikan
memerihalkan
memerikan
memeriksa
memerintah
memerintahkan
memerlukan
memesan
memetakan
memeterai
memetik
memfailkan
memfitnah
memfokuskan
memihak
memikat
memikirkan
memikul
memilih
memiliki
memimpin
meminati
meminda
memindahkan
meminimumkan
meminjam
meminjamkan
meminta
memintanya
memintas
meminum
memisahkan
memo
memodenkan
memohon
memoir
memoirs
memorandum
memori
memorial
memories
memory
memotong
mempamerkan
mempelajari
mempelam
mempelbagaikan
mempelopori
mempengaruhi
mempengerusikan
memperbaharui
memperbaiki
mempercayai
mempercepat
mempercepatkan
memperdebatkan
mempergunakan
memperhatikan
memperincikan
memperingati
memperingatkan
memperjuangkan
memperkasakan
memperkembangkan
memperkenalkan
memperkuat
memperkuatkan
memperkukuh
memperkukuhkan
memperlahankan
memperlihatkan
memperluas
memperluaskan
memperoleh
memperolehi
mempersembahkan
mempersiapkan
mempersoalkan
mempertahankan
mempertaruhkan
mempertikaikan
mempertimbangkan
mempertingkatkan
memperuntukkan
memphis
mempopularkan
mempromosi
mempromosikan
memproses
memprotes
mempunyai
memuaskan
memuat
memuatkan
memudahkan
memudaratkan
memuja
memuji
memujuk
memukau
memukul
memulai
memulakan
memulangkan
memulihkan
memuncak
memunculkan
memungkinkan
memungut
memupuk
memusatkan
memusnahkan
memutar
memutarkan
memutuskan
men
menabur
menafikan
menafsirkan
menahan
menaik
menaiki
menaikkan
menaiktaraf
menaja
menakjubkan
menakluk
menakluki
menaklukkan
menakutkan
menamakan
menamakannya
menamatkan
menambah
menambahkan
menambat
menampakkan
menampilkan
menampung
menanam
menanda
menandai
menandakan
menandatangani
menandingi
menang
menangani
menanggalkan
menanggapi
menangguhkan
menanggung
menangis
menangkap
menangkapnya
menangkis
menanti
menantu
menantunya
menanyakan
menapis
menara
menari
menarik
menariknya
menaruh
menasihati
menasihatkan
menawan
menawar
menawarkan
menayangkan
mencabar
mencabut
mencadangkan
mencakup
mencakupi
mencalonkan
mencampurkan
mencapai
mencari
mencarinya
mencatat
mencatatkan
menceburi
mencecah
mencederakan
mencegah
mencemarkan
menceraikan
menceritakan
mencerminkan
menceroboh
mencetak
mencetus
mencetuskan
mencintai
mencintaiku
mencintaimu
mencipta
menciptakan
mencirikan
mencium
mencontohi
mencuba
mencuci
mencukupi
menculik
mencurahkan
mencuri
mencurigakan
mendadak
mendaftar
mendaftarkan
mendahului
mendaki
mendakwa
mendalam
mendalami
mendamaikan
mendapan
mendapat
mendapati
mendapatkan
mendapatkannya
mendarat
mendaratkan
mendasari
mendasarkan
mendatang
mendatangkan
mendatar
mendayung
mendedahkan
mendedikasikan
mendefinisikan
mendekati
mendel
mendendangkan
mendengar
mendengarkan
menderita
menderma
mendermakan
mendes
mendesak
mendiami
mendiang
mendidih
mendidik
mendirikan
mendler
mendokumentasikan
mendominasi
mendorong
mendorongnya
mendoza
menduduki
menduga
mendukung
menebang
menebus
menegak
menegakkan
menegaskan
menegur
meneka
menekan
menekankan
menelan
menelefon
meneliti
menemani
menembak
menembus
menembusi
menempa
menempah
menempati
menempatkan
menempuh
menemui
menemukan
menenangkan
menendang
menengah
menengahnya
menenggelamkan
menentang
menentangnya
menentu
menentukan
menepati
menerajui
menerangi
menerangkan
menerapkan
menerbangkan
menerbit
menerbitkan
menerima
menerimanya
meneroka
menerokai
menerus
menerusi
meneruskan
menetap
menetapkan
menetas
menewaskan
meng
mengabaikan
mengacara
mengacarakan
mengacu
mengadakan
mengadap
mengadaptasi
mengadili
mengadopsi
mengadu
mengagihkan
mengagumi
mengagumkan
mengahwini
mengaitkan
mengajak
mengajar
mengajarkan
mengajarnya
mengaji
mengajukan
mengakhiri
mengakibatkan
mengakses
mengaktifkan
mengaku
mengakui
mengalah
mengalahkan
mengalakkan
mengalami
mengalih
mengalihkan
mengalir
mengalirkan
mengalu
mengamalkan
mengamankan
mengamati
mengambang
mengambil
mengambilnya
mengamuk
menganalisis
mengancam
mengandaikan
mengandung
mengandungi
menganggap
menganggapnya
menganggarkan
menganggotai
menganggu
mengangkat
mengangkut
menganjur
menganjurkan
mengantikan
menganugerahkan
menganut
menganuti
mengapa
mengarah
mengarahkan
mengarang
mengasah
mengasaskan
mengasingkan
mengatakan
mengatasi
mengatur
mengaturkan
mengaut
mengawal
mengawan
mengawasi
mengebom
mengecam
mengecapi
mengecas
mengecewakan
mengecil
mengecualikan
mengecut
mengedar
mengedarkan
mengehadkan
mengejar
mengejek
mengejut
mengejutkan
mengekalkan
mengekalkannya
mengekang
mengekori
mengeksploitasi
mengeksport
mengelak
mengelakkan
mengelaskan
mengelilingi
mengelirukan
mengelola
mengeluarkan
mengemas
mengembalikan
mengembang
mengembangkan
mengembara
mengemudi
mengemukakan
mengena
mengenai
mengenainya
mengenakan
mengenal
mengenali
mengenalinya
mengenalpasti
mengenang
mengendahkan
mengendali
mengendalikan
mengenepikan
mengepam
mengepung
mengerahkan
mengeras
mengerikan
mengerjakan
mengerti
mengesahkan
mengesan
mengesyaki
mengesyorkan
mengetahui
mengetengahkan
mengetepikan
mengetuai
mengetuk
menggabungkan
menggagalkan
menggaji
menggalakkan
menggalas
menggali
menggambarkan
menggambarkannya
menggandakan
menggandingkan
mengganggu
mengganti
menggantikan
menggantikannya
menggantung
menggariskan
menggelar
menggelarkan
menggelarnya
menggemari
menggembirakan
menggerakkan
menggerunkan
menggesa
menggigit
menggoda
menggondol
menggoreng
menggubah
menggubal
menggugat
menggugurkan
menggulingkan
mengguna
menggunakan
menggunakannya
menggunapakai
menghabiskan
menghadap
menghadapi
menghadiahkan
menghadiri
menghadkan
menghafal
menghala
menghalang
menghalangi
menghalangnya
menghalau
menghampiri
menghancurkan
menghantar
menghantarnya
menghapus
menghapuskan
mengharamkan
mengharapkan
menghargai
mengharumkan
mengharungi
menghasilkan
menghasut
menghayati
menghembuskan
menghendaki
menghentam
menghentikan
mengheret
menghiasi
menghiburkan
menghidangkan
menghidap
menghidapi
menghidupkan
menghilang
menghilangkan
menghimpunkan
menghina
menghindari
menghiraukan
menghisap
menghitung
menghormati
menghubungi
menghubungkan
menghukum
menghulurkan
menghuni
menghuraikan
mengibarkan
mengidap
mengikat
mengiklankan
mengiktiraf
mengikut
mengikuti
mengikutinya
mengilhamkan
mengimbangi
mengimbas
mengimport
menginap
mengingat
mengingati
mengingatkan
menginginkan
mengingkari
mengintegrasikan
mengintip
mengira
mengirim
mengirimkan
mengiringi
mengisahkan
mengisi
mengistiharkan
mengisytiharkan
mengizinkan
mengkagumkan
mengkaji
mengkhianati
mengkhusus
mengkhususkan
mengklasifikasikan
mengkritik
mengkuang
mengolah
mengoperasikan
mengorak
mengorbankan
mengorbit
mengorek
mengosongkan
menguasai
menguatkan
menguatkuasakan
mengubah
mengubahnya
mengubahsuai
mengubati
mengucapkan
mengufuk
mengugut
menguji
mengukir
mengukuhkan
mengukur
mengulang
mengulangi
mengulas
mengumpul
mengumpulkan
mengumumkan
mengunakan
mengunci
mengundang
mengundi
mengundur
mengundurkan
mengungguli
mengungkapkan
mengunjungi
menguntungkan
mengunyah
mengupah
menguraikan
mengurangi
mengurangkan
mengurniakan
mengurung
mengurus
menguruskan
mengusahakan
mengusik
mengusir
mengusulkan
mengutamakan
mengutarakan
mengutip
mengutuk
mengutus
menikah
menikahi
menikam
menikmati
menilai
menimba
menimbang
menimbangkan
menimbulkan
menimpa
menindas
meninggal
meninggalkan
meninggalkannya
meninggikan
meningkat
meningkatkan
meningkatnya
meninjau
menipu
meniru
menitahkan
meniti
menitikberatkan
meniup
menjabat
menjadi
menjadikan
menjadikannya
menjaga
menjaganya
menjahit
menjajah
menjalani
menjalankan
menjalar
menjalin
menjalinkan
menjamin
menjana
menjangka
menjangkakan
menjangkau
menjangkiti
menjanjikan
menjarah
menjaringkan
menjatuhkan
menjauhi
menjauhkan
menjawab
menjawat
menjayakan
menjejak
menjejaki
menjejaskan
menjelajah
menjelajahi
menjelang
menjelaskan
menjelma
menjemput
menjenamakan
menjerit
menjimatkan
menjual
menjualnya
menjuarai
menjulang
menjumpai
menjunam
menjunjung
menjurus
menolak
menolaknya
menolong
menon
menonjol
menonjolkan
menonton
mensasarkan
menstabilkan
mentadbir
mentafsir
mentafsirkan
mentah
mentakab
mentakrifkan
mental
mentari
mentega
menteng
menteri
menterinya
menterjemah
menterjemahkan
menternak
mentol
mentor
mentua
menu
menuai
menubuhkan
menuduh
menugaskan
menuju
menukar
menukarkan
menular
menulis
menuliskan
menumbangkan
menumbuhkan
menumbuk
menumpang
menumpaskan
menumpu
menumpukan
menunaikan
menunda
menundukkan
menunggang
menunggu
menunjuk
menunjukan
menunjukkan
menuntut
menurun
menuruni
menurunkan
menurut
menuruti
menurutnya
menusuk
menutup
menutupi
menyadari
menyahut
menyaingi
menyajikan
menyakinkan
menyakiti
menyakitkan
menyaksikan
menyala
menyalahgunakan
menyalahi
menyalahkan
menyalakan
menyalin
menyalurkan
menyamai
menyamakan
menyaman
menyamar
menyambung
menyambungkan
menyambut
menyampaikan
menyandang
menyangka
menyangkal
menyanyi
menyanyikan
menyapu
menyara
menyarankan
menyarung
menyasarkan
menyatakan
menyatukan
menyayangi
menyebabkan
menyebabkannya
menyebar
menyebarkan
menyebelahi
menyeberang
menyeberangi
menyebut
menyebutkan
menyebutnya
menyedari
menyedarkan
menyediakan
menyedihkan
menyedut
menyejukkan
menyekat
menyeksa
menyelam
menyelamat
menyelamatkan
menyelamatkannya
menyelaras
menyelaraskan
menyelenggara
menyelenggarakan
menyelesaikan
menyelia
menyelidik
menyelinap
menyelubungi
menyeludup
menyeluruh
menyemai
menyemak
menyembah
menyembelih
menyembuhkan
menyembunyikan
menyempurnakan
menyenangkan
menyenaraikan
menyentuh
menyepi
menyerah
menyerahkan
menyerang
menyerangnya
menyerap
menyerbu
menyerlah
menyerlahkan
menyeronokkan
menyertai
menyertainya
menyertakan
menyeru
menyerupai
menyesal
menyesuaikan
menyetujui
menyewa
menyiapkan
menyiarkan
menyiasat
menyifatkan
menyimpan
menyimpang
menyimpulkan
menyindir
menyinggung
menyingkir
menyingkirkan
menyoal
menyokong
menyokongnya
menyuarakan
menyucikan
menyukai
menyukainya
menyukarkan
menyumbang
menyumbangkan
menyumbat
menyuntik
menyunting
menyurat
menyuruh
menyusahkan
menyusul
menyusuli
menyusun
menyusup
menyusuri
menyusut
menziarahi
meor
mer
mera
meragui
meragukan
meragut
merah
merahan
merahsiakan
meraih
meraikan
merak
merakam
merakamkan
meramal
meramalkan
merampas
merancang
merangin
merangka
merangkak
merangkap
merangkul
merangkumi
merangsang
merantau
meranti
merapatkan
merapi
merasa
merasai
merasakan
merasmikan
merata
merawat
merayakan
merayu
merbah
merbahaya
merbau
merbok
mercedes
merchant
merck
mercu
mercun
mercury
mercy
merdeka
mere
merealisasikan
merebak
merebut
meredakan
meredith
mereka
merekabentuk
merekod
merekodkan
merekrut
merempuh
merendahkan
merentangi
merentas
merentasi
mereput
meresap
mergong
meri
meriah
meriam
merican
meridian
merilis
merindu
meringankan
merintis
merit
meriwayatkan
merkava
merlimau
merlin
mermaid
merobohkan
merogol
merokok
merombak
merompak
meronda
merong
merosakkan
merosot
merotai
merpati
merriam
merrill
merry
mers
mersing
merta
mertajam
mertua
mertuanya
meru
meruap
merubah
merugikan
merujuk
merujukkan
merumuskan
meruncing
merundingkan
meruntuhkan
merupakan
mes
mesa
mesej
mesin
mesingan
mesir
mesiu
mesjid
meski
meskipun
mesoamerika
mesopotamia
mesra
message
messenger
messi
messiah
messier
messina
mesti
mestilah
mesto
mesyuarat
met
meta
metabolik
metabolisme
metacritic
metadata
metafizik
metafora
metal
metalcore
metallica
metana
metanol
meteor
meteorologi
meteorological
meter
meterai
method
methodist
methods
metode
metodologi
metrik
metro
metropolis
metropolitan
metrowealth
metz
meunasah
meurthe
meuse
mewah
mewajibkan
mewakili
mewarisi
mewarnai
mewujudkan
mexican
mexico
meyakinkan
meyer
mez
mf
mg
mgm
mh
mhz
mi
mia
miami
mian
miasara
mic
mica
michael
michalovce
michel
michele
michelle
michi
michigan
michishige
mick
mickey
micro
microsoft
micrurus
mid
midas
middle
middlesbrough
middleton
midi
midland
midnight
midway
mie
mifflin
mig
might
mighty
migran
migrasi
migration
miguel
mihrab
mika
mikael
mikail
mike
mikhail
miki
mikoyan
mikro
mikrob
mikrobiologi
mikrofon
mikroorganisma
mikropemproses
mikroskop
mikroskopik
miku
mikula
mil
mila
milan
milano
mild
mile
mileage
milenia
milenium
miles
miley
miliar
milik
milikan
miliki
milikmu
miliknya
milimeter
militan
military
militer
militia
milito
milk
mill
millennium
miller
million
millionaire
mills
milo
milos
milton
mimbar
mimi
mimos
mimpi
min
mina
minah
minahasa
minami
minamoto
minang
minangkabau
minas
minat
minatnya
minato
mind
minda
mindanao
mine
minecraft
minegishi
mineral
mines
ming
minggu
mingguan
minh
mini
minicipal
minima
minimal
minimum
mining
minister
ministry
minit
minneapolis
minnesota
minnie
minogue
minor
minoriti
minsk
mint
minta
minum
minuman
minus
minute
minutes
minyak
mio
mior
miosen
mir
mira
miracle
mirage
mirai
miranda
miri
miriam
miring
mirip
mirror
miru
mirza
mis
misa
misai
misaki
misalnya
misbun
misc
mischa
misha
mishra
misi
misil
misinya
miskin
miso
mispy
miss
missile
missing
mission
missions
mississippi
missouri
mister
misteri
mistik
mistral
mit
mita
mitchell
mithridates
mito
mitokondria
mitologi
mitos
mitra
mitsubishi
mitsui
miura
mix
mixed
miyagi
miyamoto
miyazaki
miyazawa
miyuki
mizal
mizan
mizuki
mj
mk
mky
ml
mlada
mlj
mm
mmc
mms
mn
mnc
mnctv
mnet
mo
mob
mobil
mobile
mobilisasi
mobiliti
mochi
mochtar
mod
modal
mode
model
modeling
models
modem
moden
modena
modenas
modern
modi
modifikasi
modul
modular
modulasi
moe
mogadishu
mogok
moh
mohaideen
mohamad
mohamed
mohammad
mohammed
mohan
mohd
mohon
mohor
mohsin
moi
mojang
mojo
mok
mokhtar
mol
moldavia
moldova
mole
molecular
molek
molekul
molina
molise
molly
moluska
mom
momen
moment
momentum
momo
momogun
momoko
mon
mona
monaco
monaghan
monarchy
monarki
monash
monday
monde
monet
money
mong
mongol
mongolia
mongondow
monica
monitor
monk
monkey
mono
monogatari
monoksida
monomer
monopoli
monopoly
monorail
monorel
monroe
mons
monster
monsters
monsun
mont
montana
montane
monte
montedio
montenegro
montes
montevideo
montgomery
month
monthly
months
montpellier
montreal
monumen
monument
monumental
monyet
monza
moo
mood
moody
moon
moonlight
moor
moore
mora
moral
morales
moravce
moravia
morbihan
more
moreno
morfem
morfologi
morgan
mori
morioka
morley
morning
moro
morocco
morowali
morris
morrison
morse
mortar
mortimer
morton
mos
moscow
moselle
moses
moshe
moson
mosque
moss
most
mostly
mosul
mother
motif
motion
motivasi
moto
motogp
motor
motorola
motors
motosikal
motto
mou
mount
mountain
mountains
mountbatten
mourinho
mouse
mouth
moutong
move
moved
movement
movie
movies
moving
moyang
moyangnya
mozambique
mozart
mozek
mozilla
mp
mpeg
mph
mpk
mpr
mprs
mps
mpv
mr
mrs
mrsm
mrt
ms
msa
msc
msd
msg
msk
msn
msnbc
mssd
mssm
mstar
mt
mtv
mu
muadzam
muafakat
muammar
muar
muara
muaro
muat
muatan
muawiyah
muaz
mubaligh
mubarak
much
mud
muda
mudah
mudahnya
mudanya
mudi
mudik
mueang
mueller
muflis
mufti
mugabe
muggle
mughal
muh
muhajirin
muhamad
muhammad
muhammadi
muhammadiyah
muharam
muharram
muhd
muhibah
muhibbah
muhibbuddin
muhriz
muhyiddin
mui
muis
mujahid
mujahidin
mujurlah
muka
mukah
mukanya
mukasurat
mukerji
mukesh
mukherjee
mukhriz
mukhtar
mukim
mukimmukim
mukimpekan
mukjizat
mukmin
muko
muktafi
muktamad
muktamar
mukti
mula
mulai
mulakan
mulan
mulanya
mulia
multan
multi
multimedia
multinasional
multiple
mulu
mulut
mulutnya
mulya
mumbai
mumia
mummy
mun
muna
munafik
munasabah
munawir
muncul
munculnya
muncung
mundo
mundur
mungkin
munich
municipal
municipalities
municipality
munir
munirah
munisipaliti
munshi
muntah
muppet
muppets
murad
murah
murai
murakami
mural
murat
murcia
murder
murdoch
murid
muridnya
murka
murni
murphy
murray
murtad
murugan
murung
murut
mus
musa
musafir
musang
muscle
muse
museum
musharraf
musi
musibah
music
musical
musician
musik
musim
musimnya
musk
musketeers
muslihat
muslim
muslimah
muslimat
muslimin
muslims
musnah
mussolini
must
musta
mustafa
mustaffa
mustahak
mustahil
mustang
mustapa
mustapha
mustaqim
mustard
mustaza
mustika
musuh
musuhnya
musume
musyawarah
musytari
mut
mutakhir
mutalib
mutant
mutasi
mutiara
mutlak
muttalib
muttaqin
mutu
mutual
muzaffar
muzik
muzikal
muziknya
muzium
mv
mw
mx
my
myanmar
mycensus
mydin
myers
myinfotaip
myparlimen
myr
mysore
myspace
mysterious
mystery
myth
mythology
myths
myung
myx
n
na
naa
naam
nabawan
nabawi
nabi
nabil
nabila
nabilah
nacional
nad
nada
nadi
nadia
nadim
nadine
nadir
nadira
nadiya
nadu
nae
nafas
nafi
nafis
nafkah
nafsu
naga
nagano
nagar
nagari
nagarkot
nagasaki
nagato
nagorno
nagoya
nahar
nahas
nahu
nai
naib
naik
naim
nain
nair
nairobi
najam
najib
najis
najwa
nak
naka
nakagawa
nakajima
nakal
nakamura
nakanishi
nakano
naked
nakhoda
nakhon
naluri
nam
nama
namakan
namamu
naman
namanya
namco
name
named
names
nami
namibia
namida
nampak
nampaknya
namun
nan
nana
nanas
nanchang
nancy
nanda
nang
nanga
nanggro
nanggroe
nangka
nani
naning
nanjing
nanning
nano
nanoha
nantes
nanti
nantinya
nanyang
nao
naomi
napalm
napier
naples
napoleon
napoli
nara
narathiwat
naratif
narayan
narendra
naresuan
narita
narkotik
narnia
narou
narrative
naruto
nas
nasa
nasar
nascar
nasdaq
nash
nasha
nashville
nasi
nasib
nasibnya
nasihat
nasional
nasionalis
nasionalisme
nasir
nasiruddin
naskah
naskhah
nasr
nassau
nasser
nast
nasution
nasyid
nat
natal
natalia
natalie
natasha
nate
nath
nathan
nathaniel
nation
national
nationale
nationalism
nations
native
nato
natrah
natrium
natsir
natsu
natsuki
natsumi
natural
naturalis
nature
naufal
naungan
nauru
nautika
nautikal
navajo
naval
navarre
naver
navigasi
navy
nawab
nawar
nawawi
nawi
naza
nazar
nazeera
nazel
nazi
nazim
nazionale
nazir
nazmi
nazri
nazrin
nba
nbc
nc
nchen
nchengladbach
nchez
ncipe
nd
nden
ndez
ne
neal
near
nearly
nebraska
nebula
neburg
nec
necessary
ned
nee
need
needed
needs
neelofa
neftchala
negara
negaraku
negaranya
negarawan
negatif
negative
negera
negeri
negerikelantan
negerinya
negro
negros
nehru
neighborhood
neil
neill
neji
nek
nekad
nel
nelayan
nell
nelson
nelydia
nemo
nen
nenas
nenek
neneknya
neo
neolitik
neon
nepal
neppol
neptun
neptune
neraka
nerang
nero
neruda
nerus
nes
nest
nestle
net
netanyahu
netflix
netherlands
netizen
network
networks
neucha
neumann
neural
neurologi
neuron
neurosains
neustadt
neutral
neutron
nevada
never
neville
nevis
new
newark
newcastle
newfoundland
newman
newport
news
newsletter
newspaper
newspapers
newsweek
newton
next
nexus
nez
nfc
nfl
ng
nga
ngabehi
ngah
ngarai
ngaran
ngasri
ngc
ngel
ngeri
ngo
ngoko
ngurah
nguye
nguyen
nh
nha
nhk
ni
nia
niaga
niagara
niah
nias
niat
niatnya
nibong
nic
nica
nicaragua
nice
nicholas
nichols
nicholson
nick
nickelodeon
nicky
nico
nicol
nicola
nicolas
nicole
nie
niedersachsen
nielsen
nigel
niger
nigeria
night
nightmare
nights
nih
nihon
niigaki
niigata
nik
nikah
nike
nikel
nikita
nikki
nikmat
nikola
nikolai
nikon
nil
nila
nilai
nilainya
nilam
nimitz
nin
nina
nine
nineteenth
ning
ningbo
ningrat
ninja
ninjutsu
nino
ninoy
nintendo
nio
nipah
nipis
nippon
nirmala
nirwana
nis
nisa
nisaa
nisan
nisbah
nishi
nisou
nissan
nist
nitra
nitrat
nitrik
nitrogen
nixon
nizam
nizar
nj
nk
nl
nlb
nm
nmb
nme
no
noaa
noah
nobat
nobel
nobelprize
nobita
noble
nobody
nobunaga
noc
noctis
nod
noda
node
nodus
noel
noh
noir
noise
nok
nokia
noktah
nolan
nom
nomad
nombor
nominal
nominasi
nominated
nomor
non
nona
nonaka
none
nong
noor
noord
noordin
nor
nora
noraini
noraniza
nord
nordfriesland
nordiana
nordic
nordik
nordin
norfolk
norhayati
norma
normah
normal
normala
norman
normandie
normandy
norodom
norris
norse
norte
north
northern
northrop
northwest
norton
norway
norwegian
norwich
nos
nostalgia
not
nota
notable
notasi
note
noted
notes
nothing
notis
notoc
notre
notting
nottingham
nou
nouvelle
nov
nova
novara
novce
nove
novel
novelis
novelnya
november
novgorod
novi
novo
novy
now
nozomi
np
npc
npr
npsn
nr
ns
nss
nst
nsw
nt
nther
ntsc
ntv
nu
nuansa
nubia
nuclear
nueva
nugroho
nuh
nui
nujum
nukilan
nuklear
nukleus
number
numbers
numerous
nun
nunukan
nur
nurani
nuremberg
nurfaizah
nurhaliza
nuri
nurin
nurse
nuruddin
nurul
nusa
nusantara
nutrien
nutrisi
nutrition
ny
nya
nyah
nyahkekaburan
nyai
nyalaan
nyaman
nyamuk
nyanyi
nyanyian
nyanyiannya
nyaris
nyata
nyatoh
nyawa
nyawanya
nyi
nyior
nymburk
nyong
nyonya
nytimes
nz
nzsas
o
oag
oak
oakland
oasis
oat
ob
obama
oberon
oberst
obesiti
obi
obito
obituary
object
objects
objek
objektif
oblast
obor
observations
observatory
observer
oc
occitan
occupation
ocean
oceania
oclc
oct
octavia
octavian
october
od
oda
odahl
odd
oder
odyssey
oe
oecd
of
ofc
off
offensive
offer
office
officer
officers
official
officially
officials
often
og
ogawa
oghuz
ogos
oh
ohio
oi
oic
oil
ois
oise
oita
ok
okada
okay
okayama
okey
oki
okinawa
oklahoma
okolie
okonomiyaki
okres
oksida
oksigen
okt
oktaf
oktar
oktober
oku
ol
ola
olah
olahan
olahraga
olak
old
older
oldest
ole
oleg
oleh
olehnya
olga
oligarki
olimpik
olive
oliveira
oliver
olivia
olivier
olok
olomouc
olsen
olt
olya
olympia
olympic
olympics
olympique
olympus
om
oma
oman
omar
ombak
omboh
omega
omiya
omnibus
on
once
one
onegai
ones
oneworld
ong
online
only
onn
onna
ono
ontario
oo
ooi
oort
op
opah
opal
opava
open
opened
openg
opening
openstreetmap
opera
operasi
operasinya
operating
operation
operational
operations
operator
opie
opinion
opportunity
opposition
ops
optical
optik
optimum
option
opus
or
ora
oracle
oral
oran
orang
orange
orangnya
orb
orbit
orbital
orbitnya
orchard
orchestra
orde
order
ordered
orders
ordinan
ordinary
ordo
ore
oregon
oren
org
organ
organic
organik
organisasi
organisation
organisma
organisme
organization
organizations
organized
ori
oricon
orient
oriental
orientales
orientalis
orientasi
orientation
origin
original
originally
origins
orihime
orion
orissa
orkes
orkestra
orkid
orlando
orleans
orlici
orne
oro
orochimaru
orthodox
ortiz
ortodoks
ortografi
os
osaka
osama
osamu
oscar
oseanografi
oshima
osiris
oskar
oslo
osman
ospina
osprey
ossetia
ost
oswald
otago
otak
otc
other
others
othman
oto
otoko
otona
otot
ottawa
otter
otto
ottoman
ou
oued
ouled
oum
our
ourense
out
outer
outlet
outline
outlook
output
outside
outstanding
ov
ova
ovari
ovce
over
overall
overseas
overview
ovice
ovum
owen
owl
own
owned
owner
oxford
oya
oz
ozon
p
pa
pablo
pabrik
pac
pacar
pacat
pace
pacific
pack
package
packard
pacu
pacuan
pad
pada
padahal
padam
padamu
padan
padanan
padang
padanya
padat
padawan
paddington
paderi
padi
padilla
padma
padri
padu
padua
paduan
paduka
pagan
pagar
pagaruyung
page
pages
pagi
pagoda
pagoh
pah
paha
pahala
pahang
pahat
pahit
pahlavi
pahlawan
pai
paid
pain
painter
painting
paip
pair
pairin
pajak
pajakan
pajang
pak
paka
pakai
pakaian
pakaiannya
pakar
pakatan
pakcik
pakej
paket
pakis
pakistan
paksa
paksaan
paksi
paku
pakubuwana
pal
pala
palace
palais
palam
palang
palarae
palas
palatinate
palau
palawan
palembang
palencia
paleolitik
paleontologi
palermo
palestin
palestine
palestinian
palet
palgrave
pali
paling
pallava
palm
palma
palmas
palmer
paloh
palong
palsu
palu
pam
pamah
pamela
pameran
pampasan
pan
panah
panahan
panama
panas
panasonic
panca
pancang
pancaragam
pancaran
pancasila
panchayat
panchor
pancuran
pancut
pancutan
panda
pandai
pandak
pandan
pandang
pandangan
pandangannya
pandawa
pandeglang
pandemik
pandey
pandora
pandu
panduan
pane
panel
panembahan
pang
pangeran
panggang
panggil
panggilan
panggung
pangkal
pangkalan
pangkat
pangkor
pangkuan
panglima
pangsa
pangsapuri
panic
panik
panitia
panjang
panjangnya
panji
pankreas
panorama
pantai
pantainya
pantang
pantas
pantauan
panther
panthera
pantulan
pantun
panzer
pao
paolo
pap
papa
papadom
papan
papar
paparan
paper
paperback
papers
papua
par
para
parade
paradigma
paradise
paradoks
paraguay
parah
paralimpik
parallel
paralympic
parameswara
parameter
paramount
parana
parang
paranormal
paras
parasit
parc
parcel
parchim
pardubice
parental
parents
pari
pariaman
parigi
paris
parish
parit
pariti
pariwisata
park
parker
parkes
parkinson
parkir
parks
parliament
parliamentary
parlimen
parma
parodi
paroki
parramatta
parrot
parsi
parsons
part
partai
parthia
parti
partial
particular
particularly
parties
partikel
partinya
partisan
partizan
partner
partners
partnership
parts
party
paru
paruh
parut
parvati
pas
pasai
pasak
pasal
pasang
pasangan
pasangannya
pasar
pasaran
pasaraya
pasca
pascal
pascasiswazah
paser
pasha
pashtun
pasif
pasifik
pasir
paskah
paskal
paso
pasport
pasrah
pass
passage
passion
passport
past
pasta
pasteur
pasti
pastikan
pastinya
pastor
pastoral
pastri
pasu
pasukan
pasukannya
pat
patah
patani
patel
paten
patent
path
pati
patients
patih
patinggi
patogen
patologi
patria
patriark
patricia
patrick
patriot
patriotik
patriotisme
patrol
pattani
pattaya
patterns
patterson
patton
patty
patuh
patung
patut
pau
pauh
paul
paula
pauline
paulo
paulus
paun
paus
pautan
pavarotti
pavel
pavia
pavilion
pavn
pawagam
pawang
pay
paya
payah
payang
payne
payong
pays
payudara
payung
paz
pb
pbb
pbds
pbs
pbt
pc
pd
pda
pdf
pdi
pdp
pdrm
pe
pea
peace
peach
peak
pear
pearce
pearl
pearson
peas
pecah
pecahan
pecan
pecinta
pecut
pecutan
pedagang
pedaging
pedalaman
pedang
pedangnya
pedas
pedati
pediatrik
pedofilia
pedoman
pedro
peduli
peel
peer
pegang
pegangan
pegasus
pegawai
peggy
peguam
peguambela
pegun
pegunungan
pehin
pei
pejabat
pejabatnya
pejal
pejalan
pejera
pejuang
pek
peka
pekak
pekaka
pekali
pekan
pekanbaru
pekarangan
pekat
pekayon
pekebun
pekeliling
pekerja
pekerjaan
pekerjaannya
pekerjanya
pekerti
pekin
peking
pel
pelabuhan
pelabur
pelaburan
pelacur
pelacuran
peladang
pelagak
pelajar
pelajaran
pelajarannya
pelajarnya
pelakon
pelakonnya
pelaksana
pelaksanaan
pelaksanaannya
pelaku
pelakuran
pelampau
pelan
pelancar
pelancaran
pelancarannya
pelancong
pelancongan
pelanduk
pelanggan
pelanggannya
pelanggaran
pelangi
pelantar
pelantikan
pelantikannya
pelapik
pelapis
pelaporan
pelari
pelarian
pelarut
pelatih
pelatihan
pelaut
pelawak
pelawat
pelayan
pelayanan
pelayar
pelayaran
pelbagai
pele
peleburan
peledak
pelekat
pelengkap
pelepah
pelepas
pelepasan
peleraian
pelesenan
pelesit
peletakan
pelhr
peliharaan
pelik
pelincir
pelindung
pelita
pellegrini
pelombong
pelopor
pelosok
peluang
peluasan
pelucutan
peluh
pelukis
pelumba
peluncur
pelupusan
peluru
pelusuk
pelvis
pemacu
pemadam
pemahaman
pemain
pemaju
pemakai
pemakaian
pemakaman
pemakan
pemakanan
pemalar
pemalsuan
pemalu
pemampatan
pemanah
pemanas
pemanasan
pemancar
pemancaran
pemandangan
pemandu
pemanduan
pemangkin
pemangku
pemangsa
pemanis
pemanjangan
pemansuhan
pemantau
pemantauan
pemasaan
pemasangan
pemasaran
pematang
pematuhan
pembabitan
pembaca
pembacaan
pembagian
pembahagi
pembahagian
pembaharuan
pembaikan
pembaikian
pembakar
pembakaran
pembalakan
pembalasan
pembalikan
pembalut
pembangkang
pembangkit
pembangun
pembangunan
pembangunannya
pembantah
pembantu
pembantunya
pembaptisan
pembasmian
pembatalan
pembatasan
pembawa
pembayaran
pembebasan
pembedahan
pembekal
pembekalan
pembekuan
pembela
pembelaan
pembelahan
pembelajaran
pembelajinakan
pembeli
pembelian
pembentangan
pembentukan
pemberat
pemberhentian
pemberi
pemberian
pemberita
pemberitahuan
pemberontak
pemberontakan
pembersih
pembersihan
pembesar
pembesaran
pembetulan
pembezaan
pembiak
pembiakan
pembiakbakaan
pembiasan
pembiayaan
pembicaraan
pembidaan
pembikin
pembikinan
pembimbing
pembina
pembinaan
pembinaannya
pembinasa
pemboleh
pembolehubah
pembuangan
pembuat
pembuatan
pembubaran
pembuka
pembukaan
pembukaannya
pembuktian
pembuluh
pembungkusan
pembunuh
pembunuhan
pemburu
pemburuan
pemecah
pemecahan
pemecatan
pemedih
pemegang
pemekaran
pemeliharaan
pemeluk
pemenang
pemenangnya
pemenjaraan
pementasan
pemeran
pemerdagangan
pemergian
pemerhati
pemerhatian
pemerian
pemeriksa
pemeriksaan
pemeringkatan
pemerintah
pemerintahan
pemerintahannya
pemerolehan
pemetaan
pemiawaian
pemikir
pemikiran
pemilih
pemilihan
pemilik
pemilikan
pemiliknya
pemilu
pemimpin
pemimpinnya
peminat
peminatnya
pemindahan
peminjam
pemintas
pemisah
pemisahan
pemodelan
pemodenan
pemohon
pemotong
pemotongan
pemproses
pemprosesan
pemuat
pemuda
pemudi
pemuisi
pemujaan
pemuka
pemukiman
pemukul
pemula
pemulihan
pemuliharaan
pemungut
pemusnah
pemusnahan
pemutar
pemutus
pemuzik
pemvaksinan
pen
pena
penafian
penafsiran
penaga
penagih
penahan
penahanan
penaik
penaja
penajaan
penakluk
penaklukan
penalti
penamaan
penamat
penamatan
penambah
penambahan
penambahbaikan
penambang
penampakan
penampang
penampilan
penampilannya
penan
penanam
penanaman
penanda
penandaan
penandatangan
penandatanganan
penang
penangguhan
penangkap
penangkapan
penangkapannya
penangkis
penanti
penantian
penapaian
penapis
penapisan
penara
penarafan
penari
penarik
penarikan
penasihat
penat
penataan
penaung
penawanan
penawar
penawaran
penayangan
pencabar
pencabulan
pencahayaan
pencairan
pencak
pencakar
pencalonan
pencalonannya
pencaman
pencapaian
pencapaiannya
pencari
pencarian
pence
pencegah
pencegahan
pencemar
pencemaran
pencen
pencerahan
penceraian
penceramah
pencerapan
pencerita
penceritaan
pencernaan
penceroboh
pencerobohan
pencetak
pencetakan
pencetus
pencinta
pencipta
penciptaan
pencuci
pencucuh
penculik
penculikan
pencuri
pendaftar
pendaftaran
pendahulu
pendahuluan
pendahulunya
pendaki
pendakian
pendakwa
pendakwaan
pendakwah
pendalaman
pendam
pendamping
pendanaan
pendang
pendapat
pendapatan
pendapatnya
pendaraban
pendarahan
pendarat
pendaratan
pendatang
pendawaian
pendebungaan
pendedahan
pendek
pendekar
pendekatan
pendeknya
pendengar
pendengaran
penderaan
penderia
penderitaan
penderma
pendeta
pendiam
pendidik
pendidikan
pendidikannya
pendikit
pendingin
pendiri
pendirian
pendiriannya
pendita
pendorong
pendorongan
penduduk
pendudukan
penduduknya
pendukung
penebangan
penebat
penebusan
penekanan
penelitian
penembak
penembakan
penembusan
penempatan
penemu
penemuan
penemuannya
penentang
penentangan
penentu
penentuan
peneraju
penerangan
penerapan
penerbangan
penerbangannya
penerbit
penerbitan
penerbitannya
penerima
penerimaan
penerjun
penerjunan
peneroka
penerokaan
penerus
penetapan
peng
pengabdian
pengacara
pengacaraan
pengadang
pengadil
pengadilan
pengagihan
pengairan
pengajar
pengajaran
pengajian
pengajiannya
pengakap
pengakhiran
pengaktifan
pengakuan
pengalaman
pengalamannya
pengalihan
pengalir
pengaliran
pengamal
pengamalan
pengaman
pengamatan
pengambaran
pengambilalihan
pengambilan
pengampunan
penganalisis
pengangguran
pengangkatan
pengangkut
pengangkutan
penganiayaan
penganjur
penganjuran
pengantar
pengantara
pengantin
penganugerahan
penganut
pengarah
pengarahan
pengarahnya
pengarang
pengarangnya
pengaruh
pengaruhnya
pengasas
pengasasan
pengasasnya
pengasih
pengasingan
pengasuh
pengatur
pengaturan
pengaturcara
pengaturcaraan
pengawal
pengawalan
pengawas
pengawasan
pengawetan
pengebom
pengeboman
pengebumian
pengecaman
pengecas
pengecasan
pengecualian
pengecutan
pengedar
pengedaran
pengedarnya
pengekalan
pengekodan
pengeksport
pengekstrakan
pengelasan
pengelola
pengelolaan
pengeluar
pengeluaran
pengeluarannya
pengembalian
pengembangan
pengembara
pengembaraan
pengenalan
pengenalpastian
pengendali
pengendalian
pengepala
pengepungan
pengerahan
pengerang
pengeringan
pengertian
pengerusi
pengerusinya
pengesahan
pengesan
pengesanan
pengetahuan
pengetahuannya
pengetua
penggabungan
penggal
penggalak
penggalian
penggambaran
pengganas
pengganti
penggantian
penggantinya
penggantungan
penggemar
penggerak
penggiat
penggilingan
penggodam
penggubah
penggubahan
penggubal
penggubalan
pengguguran
penggulingan
pengguna
penggunaan
penggunaannya
penggunanya
penghadaman
penghadang
penghakiman
penghalang
penghantar
penghantaran
penghapusan
pengharaman
penghargaan
penghasil
penghasilan
penghawa
penghayatan
penghibur
penghidup
penghidupan
penghijrah
penghijrahan
penghinaan
penghormatan
penghubung
penghujung
penghujungnya
penghulu
penghuni
penghuninya
pengikat
pengikatan
pengiklanan
pengiktirafan
pengikut
pengikutnya
pengilang
pengilangan
pengilhakan
pengimbang
pengimbas
pengimejan
penginapan
pengintip
pengintipan
pengionan
pengiraan
pengiran
pengiriman
pengiring
pengisi
pengisian
pengisytiharan
pengkaji
pengkajian
pengkalan
pengkarya
pengkebumian
pengkelasan
pengkhianat
pengkhianatan
pengkhususan
pengkomputan
pengkomputeran
pengkritik
penglibatan
penglibatannya
penglihatan
pengoksidaan
pengolahan
pengoperasian
pengorbanan
pengsan
penguasa
penguasaan
penguat
penguatkuasa
penguatkuasaan
pengubah
pengubahan
pengubahsuaian
pengucapan
pengudaraan
penguin
pengujian
pengukir
pengukuhan
pengukur
pengukuran
pengulangan
pengulas
pengumpul
pengumpulan
pengumuman
pengunaan
pengundi
pengundian
pengunduran
pengunjung
penguraian
pengurangan
pengurniaan
pengurus
pengurusan
pengurusnya
pengusaha
pengusiran
pengutip
penh
peniaga
penilaian
penindasan
pening
peninggalan
peningkatan
peninjau
peninjauan
peninju
peninsula
peninsular
penipu
penipuan
penjadualan
penjaga
penjagaan
penjahat
penjaja
penjajah
penjajahan
penjajap
penjajaran
penjana
penjanaan
penjara
penjarahan
penjaring
penjawat
penjejak
penjejakan
penjelajah
penjelajahan
penjelasan
penjelmaan
penjenamaan
penjenayah
penjimatan
penjual
penjualan
penjuru
penn
pennsylvania
penny
penolakan
penolong
penomboran
penonton
pensel
pensijilan
pensil
penstabil
penstriman
penstrukturan
penswastaan
pensyarah
pentadbir
pentadbiran
pentadbirannya
pentafsiran
pentagon
pentaksiran
pentarikhan
pentas
pentasnya
penterjemah
penterjemahan
penternak
penternakan
penting
pentingnya
penuaan
penuaian
penubuhan
penubuhannya
penuding
penugasan
penuh
penuhnya
penukar
penukaran
penularan
penulis
penulisan
penulisannya
penumpang
penumpuan
penunggang
penunggu
penunjuk
penuntut
penurun
penurunan
penutup
penutupan
penutur
penyair
penyajak
penyakit
penyakitnya
penyalaan
penyalahgunaan
penyalinan
penyamaan
penyamaran
penyambung
penyambungan
penyampai
penyampaian
penyamun
penyandang
penyandangnya
penyangga
penyanyi
penyapu
penyata
penyataan
penyatuan
penyayang
penyebab
penyebaran
penyebut
penyebutan
penyedia
penyediaan
penyejatan
penyejuk
penyejukan
penyeksaan
penyelam
penyelamat
penyelamatan
penyelaras
penyelarasan
penyelenggara
penyelenggaraan
penyelesaian
penyelewengan
penyelia
penyeliaan
penyelidik
penyelidikan
penyelidikannya
penyeludupan
penyemak
penyemakan
penyembahan
penyembelihan
penyembuhan
penyenaraian
penyengat
penyepit
penyerahan
penyerang
penyerangan
penyerap
penyerapan
penyerbuan
penyertaan
penyertaannya
penyesalan
penyesuaian
penyewa
penyewaan
penyiapan
penyiar
penyiaran
penyiasat
penyiasatan
penyihir
penyimpan
penyimpanan
penyimpangan
penyingkiran
penyokong
penyokongnya
penyu
penyucian
penyulingan
penyulitan
penyumbang
penyunting
penyuntingan
penyusun
penyusunan
penyusupan
penzalim
people
peoples
pep
pepaku
pepatah
pepatung
pepe
pepejal
peperangan
peperiksaan
pepijat
pepper
pepsi
peptida
per
perabot
peradaban
peraduan
peragaan
peragawan
peragawati
perah
perahu
perai
perairan
perajurit
perak
perakam
perakaman
perakaunan
perakuan
peralatan
peralihan
peramal
perampas
perampasan
peran
peranakan
peranan
peranannya
perancang
perancangan
perancis
perang
perangai
peranginan
perangkaan
perangkap
perangkat
perangnya
perangsang
perantara
perantaraan
perantau
peranti
perarakan
perasa
perasaan
perasaannya
perasan
perasmian
peraturan
peratus
peratusan
perawan
perawatan
perawi
perayaan
perayau
perayu
perbadanan
perbahasan
perbaikan
perbalahan
perbandaran
perbandingan
perbankan
perbarisan
perbatasan
perbedaan
perbekalan
perbelanjaan
perbendaharaan
perbezaan
perbezaannya
perbicaraan
perbincangan
perbualan
perbuatan
perbuatannya
perburuan
percakapan
percambahan
percampuran
percanggahan
percaya
percent
perceraian
percetakan
percikan
percintaan
percival
percubaan
percubaannya
percukaian
percuma
percussion
percutian
percy
perdagangan
perdamaian
perdana
perdananya
perdebatan
perduaan
perebutan
peredaran
pereira
pereka
perekaan
perekonomian
perempat
perempuan
perempuannya
perenang
perencanaan
perencat
perenggan
pereputan
perez
perfect
perfileman
performance
performed
performer
performing
pergabungan
pergaduhan
pergam
pergantian
pergantungan
pergaulan
pergelangan
pergelutan
pergerakan
pergerakannya
pergeseran
pergi
pergigian
pergolakan
pergunungan
perguruan
perhambaan
perhatian
perhatiannya
perhatikan
perhentian
perhiasan
perhimpunan
perhitungan
perhubungan
perhutanan
peri
periang
peribadi
peribadinya
peribahasa
peribumi
pericles
perigi
perihal
perikanan
perikatan
perilaku
perilisan
perimeter
perincian
perindustrian
peringatan
peringkat
perintah
perintis
period
periode
perisa
perisai
perisian
perisik
perisikan
peristilahan
peristiwa
perisytiharan
periuk
perjalanan
perjalanannya
perjamuan
perjanjian
perjuangan
perjuangannya
perjudian
perjumpaan
perkadaran
perkahwinan
perkahwinannya
perkaitan
perkakas
perkakasan
perkampungan
perkapalan
perkara
perkarangan
perkasa
perkataan
perkauman
perkawinan
perkebunan
perkembangan
perkembangannya
perkenalan
perkenan
perkhemahan
perkhidmatan
perkhidmatannya
perkilangan
perkins
perkiraan
perkongsian
perkubuan
perkuburan
perkumpulan
perkusi
perladangan
perlahan
perlak
perlaksanaan
perlakuan
perlambangan
perlanggaran
perlantikan
perlawanan
perlembagaan
perlesenan
perletakan
perlindungan
perling
perlis
perliskompleks
perlombongan
perlu
perluasan
perlukan
perlulah
perlumbaan
perlunya
permai
permaidani
permainan
permainannya
permaisuri
permanent
permas
permasalahan
permata
permatang
permintaan
permintaannya
permit
permodalan
permohonan
permotoran
permukaan
permukaannya
permulaan
permulaannya
permusuhan
pernafasan
pernah
perniagaan
perniagaannya
pernikahan
pernyataan
perobohan
perodua
peroksida
perolakan
perolehan
perompak
peronda
perosak
perpaduan
perparitan
perpatih
perpecahan
perperangan
perpindahan
perpisahan
perpuluhan
perpustakaan
perry
pers
persada
persahabatan
persaingan
persalinan
persamaan
persaraan
persaraannya
persatu
persatuan
persaudaraan
persediaan
persefahaman
persegi
persekitaran
persekitarannya
persekolahan
persekolahannya
persekutuan
perselisihan
persembahan
persembahannya
persembunyian
persempadanan
persen
persendirian
persengketaan
persenjataan
persenyawaan
perseorangan
persepolis
persepsi
persetiaan
persetubuhan
persetujuan
perseus
persia
persian
persiapan
persiaran
persidangan
persijilan
persilangan
persilatan
persimpangan
persinggahan
persis
persisiran
persoalan
person
persona
personal
personaliti
personality
personel
personnel
persons
perspective
perspectives
perspektif
persson
persuratan
pertabalan
pertahanan
pertaining
pertalian
pertama
pertamanya
pertambahan
pertamina
pertandingan
pertanian
pertanyaan
pertapa
pertaruhan
pertarungan
pertelingkahan
pertembungan
pertempuran
pertemuan
pertengahan
pertengkaran
pertentangan
perth
pertiga
pertikaian
pertimbangan
pertindihan
pertiwi
pertolongan
pertua
pertuan
pertuanan
pertubuhan
pertuduhan
pertukangan
pertukaran
pertumbuhan
pertumpahan
pertunangan
pertunjukan
pertunjukkan
pertuturan
peru
perubahan
perubatan
perugia
perumah
perumahan
perumian
perumpamaan
perumusan
peruncit
peruncitan
perundangan
perunding
perundingan
peruntukan
perusahaan
perusuh
perut
perutnya
perutusan
pervez
perwakilan
perwatakan
perwira
pes
pesaing
pesaingnya
pesaka
pesakit
pesalah
pesan
pesanan
pesantren
pesara
pesat
pesawat
pesawatnya
pescara
peserta
peshawar
pesisir
pesisiran
peso
pesona
pest
pesta
pestabola
pesuruhjaya
pet
peta
petai
petak
petala
petaling
petanda
petang
petani
pete
petempatan
peter
peterpan
peters
petersburg
peterson
peti
petikan
petir
petisyen
petit
petra
petrokimia
petrol
petroleum
petronas
petrov
petrus
pettigrew
petua
petualangan
petugas
petunjuk
peugeot
pewaris
pewarisan
pewarna
pewarnaan
pewdiepie
pez
pfa
pg
pga
ph
phan
phang
phantom
pharmaceutical
phase
phat
phd
phi
phil
philadelphia
philatlas
philip
philipp
philippe
philippine
philippines
philips
phillip
phillips
philosopher
philosophical
philosophy
phineas
phnom
phoenicia
phoenix
phone
photo
photographic
photographs
photography
photos
php
phra
phraya
phu
phuket
physical
physics
pi
pia
piagam
piala
piano
piatu
piawai
piawaian
piazza
pibg
pic
picardie
picardy
piccadilly
pick
pickford
pictogram
picture
pictures
picu
pidato
pie
piece
pieces
piedmont
pier
pierce
piero
pierre
pieter
pietro
pig
pigeon
pigmen
pihak
pihaknya
pijar
pijat
pika
pike
piksel
pil
pilah
pilar
pilih
pilihan
pilihannya
pilihanraya
pilin
pilipinas
pillai
pilot
pilots
pimpinan
pin
pinang
pindaan
pindah
pindang
pine
ping
pingat
pinggan
pinggang
pinggir
pinggiran
pinggul
pinjam
pinjaman
pink
pinocchio
pintar
pintas
pintasan
pinto
pintu
pinyin
pioneer
pip
piper
pipi
pipih
pipit
pippin
pir
piramid
pirate
pirates
piring
pis
pisa
pisang
pisangan
pisau
pistol
pit
pita
pitas
pitch
pitt
pittsburgh
pius
piwaian
pixar
piza
pizza
pj
pjk
pk
pkcp
pkd
pki
pkm
pkmm
pkns
pkp
pkr
pks
pl
pla
place
placed
places
plag
plain
plains
plaintif
plak
plan
planck
plane
planet
planetarium
planetary
planets
plankton
planning
plans
plant
plantation
plants
plasma
plasmodium
plaster
plastic
plastik
plat
plata
plate
platform
platinum
plato
platun
play
playboy
played
player
players
playhouse
playing
plays
playstation
plaza
plc
please
pleasure
pleistosen
plinius
pliny
plo
plot
plotarea
plotdata
plug
plum
plumbum
plus
plutarch
pluto
plymouth
plzen
pm
pmc
pmid
pmr
pn
pneumonia
png
po
pocket
pod
podcast
podium
poe
poems
poet
poetic
poetry
pogadaev
poh
pohon
poi
poin
point
points
poitou
pok
pokal
poke
pokemon
poket
pokok
pokoknya
pol
pola
poland
polar
pole
polemik
police
policy
polifonik
poligami
poligon
polimer
polinesia
polinomial
polis
polish
polisi
politburo
politeknik
political
politics
politik
politiknya
poll
pollock
polo
polri
poly
polygram
pom
pomerania
pompeii
pompey
pon
pondok
pong
pons
pont
pontevedra
pontian
pontianak
pontus
pony
ponytail
pooh
pooja
pool
poor
pop
pope
poppins
poppy
popstar
popular
populariti
popularitinya
popularity
populasi
populasinya
population
populer
por
porn
porno
pornografi
porsche
porselin
port
portable
portal
porter
portfolio
portland
porto
portrait
portsmouth
portugal
portugis
portuguese
pos
poseidon
posisi
posisinya
positif
position
positive
positron
poskad
poskod
poso
possible
post
poster
posterior
postman
posyen
pot
potensi
potential
potomac
potong
potongan
potret
potsdam
potter
pound
pour
pow
powder
powell
power
powerful
powerlifting
powerpuff
powers
powiat
pp
ppbm
ppd
ppdk
ppen
ppm
ppp
pps
ppsmi
pr
pra
prabang
prabayar
prabu
prachatice
practical
practice
practices
pradesh
praeger
praetoria
prague
prain
prairie
prajurit
prakash
praktik
praktikal
praktiknya
praktis
pramoedya
pramugari
pramuka
pranala
prancis
prasad
prasangka
prasarana
prasasti
prasejarah
prasekolah
pratonton
pratt
prayer
prc
pre
prebet
precia
precious
prefecture
prefektur
preity
prekuel
preliminary
prelude
prem
premier
premiere
premis
premium
prentice
pres
presbyterian
presence
present
presentation
presented
presents
preservation
presiden
presidennya
president
presidential
presint
preskripsi
press
pressure
prestasi
prestasinya
prestij
preston
pretty
preve
prevention
preview
previous
previously
prey
pri
pria
pribadi
pribumi
price
pride
pridi
priest
prievidza
prihatin
prima
primadona
primary
primat
prime
primeira
primer
primera
primetime
primitif
primordial
prince
princes
princess
princeton
principal
principles
prinsip
prinsipnya
print
printed
printing
prior
priscilla
prisma
prison
prisoner
privasi
private
privi
prix
priya
priyanka
prize
prk
prm
pro
probe
problem
problems
proceedings
process
processes
processing
produce
produced
producer
product
production
productions
products
produk
produknya
produksi
produktif
produktiviti
produser
prof
profail
profesion
profesional
profesionalisme
profesionalnya
profesor
professional
professionals
professor
profil
profile
profiles
profit
progo
program
programme
programming
programs
progresif
progress
progressive
project
projecthello
projects
projek
projektil
projektor
proklamasi
proksi
prolifik
prolog
prometheus
promise
promo
promosi
promotion
proof
propaganda
properties
property
prophet
proposal
proposed
prosa
prosedur
proses
prosiding
prospek
prostat
proste
protagonis
protect
protection
protege
protein
protes
protest
protestan
proto
protocol
protokol
proton
prototaip
provence
provide
provided
providence
provides
province
provincia
provinsi
provisional
provokasi
proyek
prs
pru
prusia
prussia
ps
psa
pseudo
psg
psi
psikiatri
psikologi
psis
psm
psms
psp
psv
psychological
psychology
pt
pte
ptolemy
pts
pty
pu
pua
puak
puaka
puan
puas
puasa
pub
public
publication
publications
publik
published
publisher
publishers
publishing
publisiti
publius
pucat
puccini
puchong
pucuk
pudar
pudina
puding
pudu
puerto
pui
puing
puisi
puisinya
puja
pujaan
pujangga
puji
pujian
pukal
pukul
pukulan
pula
pulai
pulang
pulangan
pulau
pulih
pulitzer
pulo
pulogebang
pulpa
pulse
puluh
puluhan
pulut
puma
pun
punai
punan
punca
puncak
puncaknya
puncanya
punch
pundi
pune
punggung
pungutan
punik
punjab
punjabi
punk
punta
punya
punyai
pupa
pupus
pur
pura
purana
purata
puratanya
purba
pure
puri
purnama
purple
purpose
pursuit
purwakarta
pusaka
pusara
pusaran
pusat
pusatnya
push
pushkin
pusing
pusingan
puspa
pustaka
pustakawan
pusu
put
putar
putaran
putat
putatan
puteh
putera
puteranya
puteri
puterinya
putih
putin
puting
putnam
putra
putrajaya
putranya
putri
putu
putus
puy
puyuh
puzzle
pv
pw
pwtc
px
pyaar
pyar
pyeongchang
pyo
pyongyang
pyotr
pyre
pythagoras
python
q
qa
qabala
qadir
qaeda
qaf
qakh
qaleh
qamari
qantas
qarah
qari
qariah
qasim
qassam
qatar
qeshlaq
qi
qian
qin
qing
qingdao
qistina
qiu
qs
qu
qua
quad
qualification
quality
quan
quang
quantum
quanzhou
quarter
quarterly
quay
quba
qubadli
que
quebec
queen
queens
queensland
quentin
quenya
quest
question
questions
quezon
qui
quick
quickly
quidditch
quiet
quincy
quinn
quintus
quiz
quo
quote
quoted
qur
quraisy
quraizah
quran
qusar
r
ra
raaf
rab
rabai
rabbani
rabbi
rabbit
rabi
rabin
rabiulawal
rabu
rabung
race
racer
rachel
racing
racun
radames
radang
radar
radas
raden
radhi
radiasi
radiation
radical
radikal
radin
radio
radioaktif
radius
radon
radzi
rae
raf
rafael
rafale
raffles
rafflesia
rafi
rafidah
rafiq
raga
ragam
ragbi
ragi
raging
ragu
ragut
rahang
rahasia
rahayu
rahib
rahim
rahimah
rahmad
rahmah
rahman
rahmaniah
rahmat
rahmatullah
rahsia
rahul
rai
raid
raifal
raihan
rail
railroad
railway
rain
rainbow
rais
raise
raised
raj
raja
rajah
rajang
rajanya
rajasthan
rajawali
rajendra
rajesh
rajin
rajiv
rak
rakaat
rakaman
rakamannya
rakan
rakannya
rakit
rakovni
raksa
raksasa
rakun
rakyat
rakyatnya
ralat
rali
rally
ralph
ram
rama
ramadan
ramadhan
ramah
ramai
ramakrishna
ramalan
raman
ramayana
rambai
rambut
rambutan
rambutnya
ramen
rami
ramlah
ramlan
ramlee
ramli
ramlie
ramly
ramo
ramon
ramona
ramos
rampai
rampasan
ramsay
ramsey
ramuan
ran
rana
ranau
rancak
rancangan
rancangannya
rand
randah
randall
random
randwick
randy
rang
range
ranger
rangers
rangga
ranggi
rangka
rangkaian
rangkap
rangsangan
rangup
rani
rania
ranjau
rank
ranking
rankings
rantai
rantaian
rantau
ranti
ranting
rao
rap
rapat
raphael
rapi
rapid
rapidkl
rapids
rapper
rapuh
rard
rare
ras
rasa
rasanya
rasau
rasengan
rashid
rashidah
rashidi
rasional
rasmi
rasminya
raspberi
rasuah
rasuk
rasul
rasulullah
rasyid
rasyidin
rat
rata
ratanya
rate
rather
rating
ratings
ratio
ration
ratna
ratu
ratus
ratusan
rau
raub
raudhah
rauf
rault
rave
raven
ravenna
ravi
raw
rawa
rawak
rawamangun
rawan
rawang
rawas
rawat
rawatan
ray
raya
raymond
rayon
rayuan
rayyan
razak
razaleigh
razali
razi
razif
razlan
rb
rc
rca
rcd
rcti
rd
rde
rdoba
re
rea
reach
read
reader
readers
reading
ready
reagan
reaksi
reaktif
reaktor
real
realisme
realistik
realiti
reality
really
reap
rear
reason
reasons
rebah
rebana
rebecca
rebel
rebellion
reben
reborn
rebus
rebusan
rebutan
received
recent
recipe
recipes
recognition
reconstruction
record
recorded
recording
recordings
records
recovery
red
reda
redang
redfern
redha
reds
redza
redzuan
reed
reef
reen
rees
reeves
ref
reference
references
referendum
referensi
referred
refers
reflections
refleks
reform
reformasi
reformis
reg
regangan
regarding
regency
regensi
regent
reggae
reggio
regimen
regiment
regina
reginald
region
regional
regions
register
regular
regulations
regulus
rehat
rei
reich
reid
reign
reigns
reilly
reina
reis
rejab
rejang
rejim
rejimen
rejo
reka
rekaan
rekabentuk
rekahan
rekaman
rekod
rekreasi
rekrut
rektor
rel
rela
related
relatif
relatifnya
relating
relation
relations
relationship
relationships
relative
relau
relay
release
released
releases
relevan
reliance
relief
religion
religious
rem
remaco
remain
remains
remaja
remajanya
remake
reman
rembau
rembesan
rembrandt
remeh
remember
remington
remis
remix
remote
rempah
rempit
remus
remy
ren
rena
renai
renaissance
renang
renault
rencana
rendah
rendahnya
rendang
rendsburg
rene
renek
rengas
renggam
renggang
rengit
renjer
renji
rennes
reno
rentak
rentan
rentang
rentas
rentetan
rep
replaced
replika
report
reported
reporter
reports
repositori
representation
reprint
reprinted
reptiles
reptilia
republic
republik
republika
republikan
reput
reputasi
reputasinya
request
required
requirements
res
resah
resam
rescue
research
resepi
reseptor
reserve
reservoir
residen
residence
resident
resin
resipi
resistance
resit
resmi
resolusi
resolution
resonans
resort
resorts
resource
resources
respon
responden
respons
response
rest
resta
restaurant
restoran
restoration
restu
result
results
resurrection
retail
retak
retina
retorik
retrieved
retro
retrospektif
return
returns
reum
reunion
reuters
rev
revealed
reveals
revenge
reverend
review
reviews
revised
revival
revolusi
revolusioner
revolution
revolutionary
revolver
revu
rex
rey
reyes
reynolds
reysol
rez
reza
rezeki
rf
rfc
rg
rgb
rgen
rh
rhb
rhea
rhein
rhin
rhine
rhineland
rho
rhode
rhodes
rhodesia
rhu
rhythm
ri
ria
riaa
riadah
rian
riana
riang
riau
riayat
riba
ribu
ribuan
ribut
ric
rica
ricardo
rice
rich
richard
richards
richardson
richmond
richter
rick
ricky
rico
rida
riddle
ride
rider
riders
ridge
riding
ridley
ridwan
ridza
ridzuan
ridzwan
rie
rifle
rifles
rig
riga
right
rights
rihanna
riho
rijkaard
rika
riki
riley
rim
rima
rimau
rimavska
rimba
rin
rina
rinching
rindu
ring
ringan
ringen
ringgit
ringkas
ringkasan
ringkasnya
ringo
rings
rini
rino
rintangan
rintis
rio
rioja
riot
rip
ris
risa
risalah
risau
risda
rise
rises
rishi
risikan
risiko
rising
risk
rita
ritchie
rite
ritter
ritual
ritus
ritz
rival
river
rivera
rivers
riverside
riwayat
riyadh
riz
riza
rizab
rizal
rizky
rizman
rj
rk
rl
rm
rmk
rms
rn
rna
rnberg
rno
ro
road
roads
roadshow
roasso
rob
robbie
robbins
robert
roberto
roberts
robertson
robin
robinson
robo
robot
robotik
robson
roc
roche
rochester
rock
rockefeller
rockers
rocket
rocks
rockwell
rocky
rod
roda
rodensia
rodgers
rodney
rodri
rodrigo
rodriguez
rodziah
roe
roekiah
roger
rogers
rogol
rogue
roh
rohana
rohani
rohaniah
rohaniza
rohingya
roi
rojak
rok
rokan
roket
rokiah
rokok
rokycany
roland
role
roll
roller
rolling
rolls
rom
roma
romagna
romain
romaji
roman
romance
romanesque
romania
romanian
romano
romantic
romantik
romantis
romawi
rombakan
rombongan
rome
romeo
romero
rommel
rompak
rompakan
rompin
ron
rona
ronald
ronaldo
ronda
rondaan
rong
rongga
ronin
ronnie
roof
rookie
room
rooney
roosevelt
root
roots
ros
rosa
rosak
rosales
rosario
rosberg
rose
rosemary
roser
roses
rosetta
roshan
roslan
rosli
rosmah
rosnah
rosnani
ross
rossa
rossi
rossini
rossiya
rosso
rostam
rostock
rosyam
rotan
rotation
roth
roti
rotor
rotten
rotterdam
rouen
rouge
rough
round
roussillon
route
routledge
rover
rovers
row
rowan
rowling
roy
royal
royale
royalti
royce
royong
roz
roza
rozie
rozita
rp
rpg
rpm
rr
rrc
rrez
rri
rs
rss
rsssf
rt
rtb
rtha
rtm
rttemberg
ru
ruam
ruang
ruangan
ruas
rubah
rubber
rubel
rubens
rubiah
rubik
rubin
ruble
rubus
ruby
rud
rudd
rudi
rudolf
rudolph
rudy
rue
ruffedge
rufus
rugby
rugi
ruhainies
rui
ruiz
ruji
rujuk
rujukan
rukh
rukia
rukun
rule
rulers
rules
rum
rumah
rumahnya
rumahtangga
rumbia
rumble
rumi
ruminah
rumit
rumpai
rumpun
rumput
rumus
rumusan
run
runcing
runcit
rundingan
rungus
runner
running
runtuh
runtuhan
runtuhnya
runut
rupa
rupanya
rupert
rupiah
rural
rus
rusa
rusdi
rusev
rush
rusia
ruslan
rusli
russell
russia
russian
russo
rustam
rusuhan
rusuk
rute
ruth
rutherford
rutin
rw
rwanda
rx
ry
rya
ryan
rychnov
ryder
ryo
ryong
ryu
ryuga
ryukyu
ryung
s
sa
saab
saad
saadah
saadiah
saale
saari
saat
saba
sabah
sabahan
sabak
saban
sabar
sabda
saber
sabha
sabil
sabirabad
sabit
sabitan
sabotaj
sabri
sabrina
sabtu
sabu
sabuk
sabun
sac
sachs
sachsen
sacramento
sacred
sad
sadat
saddam
sadiq
sado
sadong
saduran
sae
saeed
saf
safa
safar
safari
safe
safee
safety
safwan
saga
sagan
sagawa
sage
sagu
saguhati
sah
sahabat
sahabatnya
sahaja
saham
sahamnya
sahara
saharul
sahib
sahih
sahsiah
sai
said
saidi
saidin
saidina
saif
saifuddin
saiful
saigo
saigon
sailor
saing
saingan
saingannya
sains
sainsnya
saint
sainte
saintifik
saintifiknya
saintis
saints
saitama
saito
saiz
saiznya
saja
sajak
sajian
saka
sakai
sake
sakhalin
saki
sakinah
sakit
sako
sakramen
saksama
saksi
saksofon
sakti
saku
sakura
sakurai
sal
sala
salaam
salad
salafi
salah
salahuddin
salai
salak
salam
salamah
salamanca
salasilah
salatin
salazar
sale
saleem
saleh
saleha
salem
salento
salerno
sales
salib
salih
salim
salina
salinan
saling
saliran
salji
salju
salle
salleh
sallehuddin
sally
salma
salmah
salman
salmon
saloma
salon
salonga
salor
salt
salur
saluran
salutan
salvador
salyan
salzburg
sam
sama
samaada
samad
samada
samah
samak
saman
samantha
samar
samarahan
samaran
samarinda
samawi
sambal
sambanthan
sambar
sambas
sambil
sambilan
sambung
sambungan
sambutan
same
samhan
sami
samira
sammy
samnium
samoa
sampa
sampah
sampai
sampan
sampdoria
sampel
samping
sampingan
sampul
samseng
samson
samsudin
samsung
samudera
samuel
samun
samurai
samy
san
sana
sanak
sanam
sanchez
sancho
sanctuary
sand
sandakan
sandaran
sanders
sandha
sandiwara
sandra
sands
sandwic
sandwich
sandy
sanfrecce
sang
sanga
sangam
sangat
sangatlah
sanggup
sangha
sangka
sangkar
sanglang
sangsi
sani
sanitasi
sanjay
sanjungan
sans
sanskrit
sant
santa
santai
santan
santana
santander
santapan
santiago
santo
santos
santri
santubong
santun
sanusi
sanya
sao
sap
sapi
sapp
sapporo
sapu
saputra
sar
sara
sarada
saraf
sarah
sarajevo
saran
sarana
saranan
sarang
sarapan
saraswati
sarat
saratok
sarawak
sardi
sardinia
sari
sarikata
sarikei
sarimah
sarin
saringan
sarip
sarjan
sarjana
sarkas
sarolangun
sars
sarthe
sarung
sas
sasaki
sasan
sasar
sasaran
sasarannya
sasha
sashihara
saskatchewan
sasr
sassanid
sassuolo
sastera
sasterawan
sastra
sasuke
sat
satah
satar
sate
satelit
satellite
satira
sato
satoshi
satrap
satria
satsuma
sattar
satu
satuan
satunya
satupun
saturday
saturn
satya
sauber
saud
saudagar
saudara
saudaranya
saudari
saudi
sauh
saujana
saul
saunders
savage
savana
savannah
save
saving
savoie
savoy
saw
sawa
sawah
sawan
sawar
sawat
sawi
sawit
sawo
sawyer
saxon
saxony
say
saya
sayaka
sayang
sayangnya
sayap
sayapnya
sayed
sayembara
saying
sayonara
sayong
says
sayumi
sayur
sayuran
sayyaf
sayyid
sazali
sazer
sb
sbg
sbk
sbp
sbs
sc
scala
scale
scalemajor
scaleminor
scan
scandal
scandinavia
scania
scar
scarecrow
scarlet
scarlett
scene
scenes
scha
schalke
schedule
schleswig
schmidt
schneider
schnitzel
scho
scholar
scholars
school
schools
schott
schro
schumacher
schuster
schwartz
schwarzenegger
sci
science
sciences
scientific
scientist
scientists
scipio
scoot
score
scorpion
scorsese
scotia
scotland
scots
scott
scottish
scout
scream
screen
script
scrooge
sctv
scudetto
sd
sdg
sdi
sdn
sdp
sds
se
sea
seabad
seakan
seal
sean
seandainya
seangkatan
search
sears
seas
season
seasons
seat
seattle
seawal
sebab
sebabkan
sebabnya
sebagai
sebagaimana
sebagainya
sebagi
sebagian
sebahagian
sebahagiannya
sebaik
sebaiknya
sebalik
sebaliknya
sebang
sebanyak
sebaran
sebarang
sebaris
sebastia
sebastian
sebatan
sebatang
sebati
sebatian
sebatu
sebaya
sebegini
sebegitu
sebelah
sebelas
sebelum
sebelumnya
sebenar
sebenarnya
sebentar
sebentuk
seberang
seberapa
seberat
sebesar
sebidang
sebiji
sebilah
sebilangan
sebuah
sebulan
sebulat
sebum
sebut
sebutan
sebutir
sec
secara
secepat
sechskies
second
secondary
secret
secretary
secrets
section
sector
secukupnya
secure
securities
security
sedalam
sedan
sedang
sedangkan
sedap
sedar
sedarkan
sedaya
sedekad
sedekah
sedemikian
sederhana
sedia
sedih
sedikit
sedili
sedimen
sedozen
sedunia
sedutan
see
seed
seedorf
seeds
seek
seekor
seen
seenplatte
sees
sega
segala
segalanya
segama
segamat
segambut
segan
segar
segara
segelintir
segenap
segenting
segera
segerak
segi
segitiga
segmen
segovia
segunda
sehala
sehari
seharian
seharusnya
sehati
sehelai
sehingga
sehinggakan
sehinggalah
sehubungan
sei
seifuku
seimbang
sein
seindah
seine
seinen
seiras
seiring
seishun
seismik
seiyu
sejadah
sejagat
sejahtera
sejajar
sejak
sejam
sejarah
sejarahnya
sejarahwan
sejarawan
sejati
sejauh
sejawat
sejenis
sejong
sejuk
sejumlah
sejurus
sejuta
sek
sekadar
sekai
sekala
sekali
sekalian
sekaligus
sekalipun
sekarang
sekata
sekatan
sekawan
sekejap
sekelas
sekeliling
sekelilingnya
sekelip
sekelompok
sekeluarga
sekembalinya
sekeping
sekerja
sekerjanya
seketika
sekian
sekiranya
sekitar
sekitaran
sekitarnya
sekolah
sekolahnya
sekretariat
sekretaris
seks
seksaan
seksi
seksual
seksualiti
seksyen
sektor
sekuat
sekuel
sekular
sekularisme
sekumpulan
sekunder
sekuntum
sekurang
sekuriti
sekutu
sekutunya
sel
sela
selagi
selain
selaju
selaku
selalu
selalunya
selam
selama
selamanya
selamat
selamatkan
selambau
selandar
selang
selangor
selanjar
selanjutnya
selaput
selaras
selari
selasa
selasih
selat
selatan
selatannya
selawat
selayang
selebar
selebihnya
selebriti
select
selected
selection
selekoh
seleksi
selena
selendang
selenggaraan
selepas
selepasnya
selera
selesa
selesai
selesema
seleucid
seleucus
selewat
self
seli
selia
seliaan
selidik
selim
selimut
selingan
selising
seliter
seljuk
selling
selo
seluar
seluas
selular
selulosa
seluma
seluruh
seluruhnya
sem
semacam
semai
semak
semakan
semakin
semalam
semalaman
seman
semang
semangat
semangatnya
semanggol
semangkuk
semantan
semantik
semarak
semarang
semasa
semata
sembah
sembahyang
sembang
sembilan
sembilu
semboyan
sembuh
sembunyi
semburan
sememangnya
semenanjung
semenjak
sementara
semenyih
semerah
semesta
semester
semestinya
semi
semikonduktor
semily
seminar
seminggu
seminit
seminole
semitik
semoga
sempadan
sempadannya
sempang
sempat
sempena
sempit
semporna
sempurna
semua
semuanya
semula
semulajadi
semusim
semut
sen
sena
senai
senaman
senandung
senang
senapang
senarai
senaraikan
senario
senat
senate
senator
senawang
senbatsu
sendai
sendeng
sendi
sendiri
sendirian
sendirinya
senegal
seng
sengaja
sengit
sengkang
sengkenit
sengketa
sengoku
sengsara
seni
senibina
senilai
seniman
seninya
senior
seniwati
senja
senjata
senna
sennett
senoi
senonoh
senrose
sensasi
sense
sensei
sensitif
sensor
sent
sentai
sentiasa
sentimen
sentimeter
sentinel
sento
sentosa
sentral
sentuh
sentuhan
sentul
senyap
senyum
senyuman
seo
seok
seol
seolah
seon
seong
seorang
seoul
sep
sepadan
sepah
sepahtu
sepak
sepakan
sepakat
sepaknya
sepanduk
sepang
sepanjang
sepanyol
separa
separate
separuh
sepasang
sepasukan
sepasukannya
sepat
sepatah
sepatu
sepatutnya
sepenuh
sepenuhnya
seperjuangan
seperjuangannya
seperti
sepertiga
sepertimana
sepertinya
sephiroth
sepi
sept
september
sepucuk
sepuluh
sepunya
sepupu
sepupunya
seputar
sequel
sequence
ser
sera
seragam
serah
serai
serakan
seram
seramai
serambi
seramik
serampang
serang
serangan
serangannya
serangga
serangkaian
serantau
serapan
serasi
serat
serata
seratus
seraya
serb
serba
serbaguna
serban
serbaneka
serbia
serbian
serbuan
serbuk
serdahana
serdang
serebrum
seremban
serena
serendah
serentak
sergeant
sergei
sergey
sergio
seri
seria
serial
serian
seribu
serie
series
serigala
serikat
sering
seringkali
seringnya
serious
serius
seroja
serom
serong
seronok
serpihan
serra
serta
sertai
serting
sertorius
seru
seruan
seruling
serum
serumpun
serunai
serupa
seruyan
servant
serve
served
server
service
services
serviks
servis
ses
sesaat
sesak
sesama
sesar
sesaran
sesat
sesawang
sesebuah
sesekali
sesentuh
seseorang
sesetengah
sesetengahnya
sesi
sesiapa
sesondol
session
sessions
sesuai
sesuatu
sesudah
sesuka
sesungguhnya
sesyen
set
setahun
setakat
setan
setanding
setanggi
setapak
setar
setara
setaraf
setebal
setelah
setem
setempat
setengah
seterusnya
seth
setia
setiap
setiausaha
setiawan
setibanya
setidaknya
setinggan
setinggi
setingkat
setiu
seto
sets
setting
settlement
setu
setuju
seul
seumpama
seumpamanya
seumur
seung
seven
seventeen
seventh
several
severus
sevilla
seville
sewa
sewaan
sewah
sewajarnya
sewaktu
sewenang
sex
sexual
sexy
seychelles
seymour
sezaman
sf
sfera
sfondo
sg
sgt
sh
sha
shaanxi
shaari
shabran
shadan
shadow
shadows
shafee
shafie
shafiq
shah
shahab
shaharuddin
shaheizy
shahid
shahir
shahirah
shahr
shahrak
shahril
shahrizat
shahrukh
shahrul
shahz
shaikh
shake
shakespeare
shakhtar
shaki
shakti
shall
sham
shamakhi
shamkir
shamsuddin
shamsudin
shamsul
shan
shandong
shane
shang
shanghai
shangri
shankar
shannon
shanti
shantou
shanxi
shaolin
shape
shaped
sharafuddin
share
shared
shares
shari
sharif
sharifah
shariff
sharingan
shark
sharma
sharmila
sharnaaz
sharon
sharp
sharur
shasha
shatner
shauki
shaun
shaw
shawn
shaykh
she
sheen
sheep
sheet
sheffield
sheikh
sheila
shek
shekhar
shell
shelley
shen
sheng
shenyang
shenzhen
shepherd
sheridan
sheriff
sherina
sherlock
sherman
sherry
shetty
sheykh
shi
shiba
shibata
shibuya
shield
shift
shiga
shih
shiha
shik
shikamaru
shiki
shikoku
shil
shila
shim
shima
shimbun
shimizu
shimura
shin
shine
shing
shinhwa
shinichi
shinigami
shining
shinji
shinjuku
shinkansen
shinobi
shinoda
shinra
shinto
shinzo
shiori
ship
shipping
shippu
ships
shiraz
shire
shirley
shiro
shirt
shiva
shizuka
shizuoka
sho
shock
shofar
shogakukan
shogun
shonan
shonen
shoot
shooting
shop
shopping
shore
short
shot
shotaro
shoten
shotgun
shoujo
should
shout
show
showbiz
showcase
showdown
showing
shown
shows
showtime
shri
shtml
shu
shueisha
shuffle
shugo
shuhaimi
shui
shuib
shukaku
shukor
shukri
shun
shushu
shuttle
shuvit
shyamalan
si
sia
siah
siak
sialkot
siam
siamang
siang
sianida
siap
siapa
siapakah
siar
siaran
siarannya
siasah
siasat
siasatan
sib
siber
siberia
sibu
sibuk
sic
sichuan
sicilia
sicily
sid
sida
sidang
siddiq
side
sidek
sides
sidi
sidney
sie
siege
siegfried
siem
siemens
siena
sierra
siew
sifar
sifat
sifatnya
sig
sight
sigismund
sigma
sign
signal
signature
signed
significant
signifikan
signs
sihat
sihir
sijil
sik
sikap
sikapnya
sikat
sikh
sikkim
siklon
sikorsky
siku
sil
sila
silam
silang
silap
silara
silat
silek
silence
silent
silentera
silesia
silih
silika
silikon
silinder
siling
silk
silkair
silla
silsilah
silva
silver
silverstone
sim
sima
simbol
simbolik
sime
simen
simetri
simfoni
similar
simmons
simo
simon
simone
simpan
simpanan
simpang
simpati
simple
simply
simplysiti
simposium
simpson
simpsons
simptom
simpulan
sims
simulasi
simulator
simunjan
sin
sina
sinai
sinar
sinaran
sinarharian
sinatra
since
sinclair
sindang
sindh
sindiket
sindiran
sindrom
sinema
sinemart
sinematografi
sinensis
sinetron
sing
singa
singapore
singaporeair
singapura
singel
singer
singgah
singgahsana
singh
singhasari
singing
singkat
singkatan
singkatannya
singkil
single
singlenya
singles
sinha
sini
sinilah
sinis
sino
sinonim
sinopsis
sint
sintaks
sintaksis
sintesis
sintetik
sinus
sion
siong
sipadan
sipil
sipitang
siput
sir
sira
sirah
sirajuddin
sirap
sirat
siregar
sireh
siren
siri
sirih
sirip
sirius
siro
sirul
sis
sisa
sisanya
sisi
sisian
sisihan
sisik
sisinya
sisipan
sisir
sista
sistem
sistematik
sistemik
sister
sisters
siswa
siswazah
sit
sita
site
sites
siti
sitiawan
sitkom
situ
situasi
situation
situlah
situs
siu
siul
siva
sivik
sivil
siwa
six
sixth
size
sj
sjk
sjkc
sjkt
sjo
sk
ska
skala
skandal
skandinavia
skardu
ske
skema
sketsa
ski
skies
skills
skim
skin
skinner
skip
skirt
skm
skop
skor
skrin
skrip
skrol
skru
skuad
skuadron
skuasy
skudai
skull
skuter
sky
skyteam
skytrax
sl
slaid
slam
slamet
slanga
slash
slate
slav
slave
slavery
slavik
slayer
sleep
sleeping
sleman
slide
slim
slogan
slot
slovak
slovakia
slovenia
slow
slug
slytherin
sm
sma
smackdown
small
sman
smart
smash
smc
sme
smg
smile
smith
smithsonian
smjk
smk
smka
smkpt
smp
smpn
sms
smu
sn
snake
snap
snape
snek
snicket
sniper
snow
sny
snyder
so
soal
soalan
soap
soba
sobota
sobrance
soc
soccer
soccerway
social
socialist
socie
sociedad
societies
society
socrates
soda
soe
soeharto
soekarno
sofea
sofi
sofia
sofiah
sofla
soft
software
sogo
soh
soi
sok
soket
sokong
sokongan
sokongannya
sol
solar
solat
sold
soldier
soldiers
sole
soleh
solekan
solid
solidariti
solo
solok
solomon
solonya
solothurn
solstis
solusi
solution
solutions
som
somali
somalia
sombong
some
someone
somerset
something
sometimes
somme
somogy
son
sonar
sonata
song
songket
songkhla
songs
songsang
sonia
sonic
sonny
sons
sony
soo
sook
soon
sop
sopa
sopan
sophia
sophie
soprano
sopron
sora
sorak
soraya
sore
soria
sorong
sorotan
sorry
sos
sosej
sosial
sosialis
sosialisme
sosialnya
sosio
sosioekonomi
sosiologi
sosok
soto
sotong
soul
souls
sound
sounds
soundtrack
source
sourceid
sources
sous
south
southampton
southeast
southern
southwest
souza
sovereign
sovereignty
soviet
soya
soyuz
sp
spa
space
spaghetti
spain
spam
span
spaniel
spanish
spanyol
spark
sparrow
sparta
spartacus
spbt
speak
speaker
speaking
spears
special
specialist
species
specific
spectrum
speech
speed
spektroskopi
spektrum
spekulasi
spelling
spencer
sperma
spesies
spesiesnya
spesifik
spesifikasi
spesimen
spesis
sphere
spice
spider
spiegel
spielberg
spies
spike
spin
spiral
spirit
spirits
spiritual
spis
spits
splash
split
spm
spongebob
spontan
spora
sport
sporting
sports
spot
spotify
spotlight
spp
spr
spread
spring
springer
springfield
springs
sprint
sprm
spurs
spy
sq
sql
sqrt
squad
squadron
square
squarepants
sr
src
sri
srikandi
srilankan
srinagar
srivijaya
sriwijaya
srjk
srk
srp
ss
sseldorf
ssm
ssp
st
sta
stabil
stability
stable
stacy
stad
stade
stadio
stadion
stadium
staf
staff
stage
stail
stalin
stalingrad
stallion
stam
stamford
stan
stand
standar
standard
standards
standing
stanford
stanley
stanton
star
stara
starbucks
starcraft
stardust
stark
starr
starring
stars
starship
start
started
starting
starz
stasiun
stat
state
stated
statement
states
statik
station
stations
statistical
statistics
statistik
statoids
stats
statue
status
statusmukim
statusnya
statut
stay
ste
steam
steel
steele
stefan
stefano
stein
steinfeld
steins
stek
stele
stella
stem
step
stephanie
stephen
stephens
steppe
steps
stereng
stereo
stereotaip
sterling
stern
steroid
stesen
stesyen
steve
steven
stevens
stevenson
stew
steward
stewart
sti
stick
stig
stigma
stik
still
stim
stirling
stitch
stm
sto
stock
stockholm
stok
stoke
stone
stones
stop
stor
storage
storan
store
stores
storia
stories
storm
story
stpm
str
strabo
straight
strain
strait
straits
straitstimes
strakonice
strand
strange
stranger
strasbourg
strategi
strategic
strategik
strategis
strategy
stratford
strauss
strawberi
strawberry
stream
streaming
streda
street
streets
strength
stres
stress
strike
striker
strikes
strim
string
strip
strok
strong
structure
struggle
struktur
strukturnya
sts
stu
stuart
student
students
studi
studies
studio
studionya
studios
study
stuff
sturgeon
stuttgart
style
su
sua
suai
suaka
suam
suami
suamiku
suaminya
suan
suap
suapan
suar
suara
suaranya
suasana
suatu
sub
subang
subaru
subbahagian
subbandar
subbenua
subdaerah
subdistrict
subfamili
subgenre
subgenus
subject
subjects
subjek
subjektif
subkelas
subkeluarga
subkumpulan
submarine
submesingan
suborder
subramaniam
subset
subsidi
subsidiari
subspesies
substrat
subtropika
subuh
subunit
subur
suburbs
subway
success
successful
such
suci
suco
sud
suda
sudah
sudahpun
sudan
sudi
sudin
sudirman
sudu
sudut
sue
suez
suffian
suffolk
sufi
sufian
sufyan
suga
sugar
sugut
suhaimi
suhakam
suhana
suharto
suhu
suhunya
sui
suicide
suip
suis
suit
suite
sujud
suk
suka
sukabumi
sukakan
sukamulya
sukan
sukar
sukaraja
sukarela
sukarelawan
sukarno
sukasari
sukatan
suke
sukhoi
suki
sukma
sukses
suku
sul
sulaiman
sulaman
sulawesi
suleiman
sulfat
sulfida
sulfur
sulfurik
sulit
sulla
sullivan
sulong
sultan
sultanah
sulu
suluh
suluk
sulung
sulungnya
sulur
sum
sumatera
sumatra
sumba
sumbang
sumbangan
sumbangannya
sumbangsih
sumbawa
sumber
sumbernya
sumbu
sumedang
sumeria
sumitomo
summary
summer
summit
sumpah
sumpahan
sumsum
sumur
sun
sunah
sunan
sunat
sunda
sundance
sunday
sunderland
sung
sungai
sungei
sungguh
sungguhpun
sungkai
sunil
sunnah
sunni
sunny
sunrise
sunset
sunshine
suntikan
suntingan
sunway
sunyi
sup
supaya
super
supercopa
supercoppa
supercup
superhero
superior
superman
supermarket
supernatural
supernova
supersonik
superstar
supersusunan
supp
supplement
supply
support
supporting
supreme
suprima
sur
sura
surabaya
surah
surakarta
suram
surat
suratan
suratkhabar
surau
suraya
suresh
surf
surface
surga
surgery
suri
suria
surian
surihani
suriname
surprise
surrey
suru
suruhan
suruhanjaya
surut
survey
survival
survivor
surya
suryani
sus
susah
susan
sushi
susilo
suspek
sussex
sustainable
susu
susuk
susukan
susulan
susun
susunan
susur
susut
sut
sutan
sutera
sutherland
sutil
sutra
sutradara
sutta
sutton
suu
suv
suwito
suzana
suzanne
suzhou
suzuka
suzuki
suzy
sv
svg
svidni
svitavy
sw
swahili
swami
swan
swansea
swara
swasta
sweden
swedish
swee
sweet
swettenham
swift
swim
swing
swiss
switch
switzerland
sword
swords
swt
sy
sya
syaaban
syabas
syafi
syafie
syafii
syafinaz
syafiq
syah
syahadah
syahid
syahira
syair
syaitan
syak
syakirin
syam
syamel
syamsul
syarahan
syarak
syarat
syariah
syariat
syarie
syarif
syarikat
syarikatnya
syawal
syazwan
sydney
syed
syeikh
syekh
syi
syiah
syifa
syiling
syirik
syj
sylvester
sylvia
sylvilagus
symbol
symbols
symphony
symposium
syndrome
syracuse
syria
system
systems
syuhada
syukri
syukur
syura
syurga
sz
sza
szabolcs
szatma
szcze
sze
t
ta
taat
tab
taba
tabah
tabalong
tabanan
tabari
tabel
tabi
tabiat
tabib
tabir
table
tablet
tabligh
tabloid
tabriz
tabu
tabung
taburan
tabut
tac
tachov
tactical
tactics
tadah
tadahan
tadbir
tadi
tadika
tae
taejo
taejong
taek
taekwondo
tafsir
tafsiran
tag
tagalog
tagore
taha
tahan
tahanan
tahap
tahfiz
tahi
tahir
tahiti
tahniah
tahrir
tahta
tahu
tahun
tahunan
tahunnya
tai
taib
taiga
taiji
tail
tailed
taip
taipei
taiping
taira
taisho
taiwan
taiyou
taj
tajaan
tajam
tajau
tajik
tajikistan
tajuddin
tajuk
tajul
tajwid
tak
taka
takaful
takagi
takahashi
takamachi
takashi
takat
takbir
takdir
take
takeda
taken
takes
takeshi
takeuchi
takhta
takhtanya
taking
takkan
taklimat
takluk
taklukan
takraw
takrif
takrifan
taksin
takson
taksonomi
taktik
taktikal
takumi
takungan
takur
takut
takwim
takziah
takzim
tal
tala
talak
talam
talang
tale
talent
talentime
tales
tali
talian
talib
taliban
talk
talking
talks
tall
talmud
tam
tama
tamadun
tamak
taman
tamar
tamat
tamatnya
tambah
tambahan
tambak
tambang
tambora
tambun
tambunan
tamiang
tamil
taming
tampa
tampak
tampaknya
tampan
tampar
tamparan
tamparuli
tampil
tampilan
tampin
tampoi
tampuk
tamu
tan
tana
tanah
tanahair
tanahnya
tanaka
tanam
tanaman
tanan
tanda
tandan
tandas
tandatangan
tanding
tanduk
tandukan
tang
tangan
tangannya
tanganyika
tangerang
tangga
tanggal
tanggang
tanggapan
tangguh
tanggung
tanggungan
tanggungjawab
tanggungjawabnya
tangisan
tangkai
tangkak
tangkap
tangkapan
tangkas
tangki
tanglung
tango
tani
tania
tanjakan
tanjong
tanjung
tank
tanko
tanks
tanner
tanpa
tanya
tanzania
tao
taoisme
taoyuan
tap
tapa
tapah
tapai
tapak
tapanuli
tape
tapi
tappeh
taqwa
tar
tara
taraf
tarakan
tarekat
target
tari
tarian
tarif
tarik
tarikan
tarikh
taring
tariq
tariqat
tarmizi
tarn
taro
tarragona
tarsus
tart
tartar
taruna
tarzan
tas
tasawuf
tasbih
tasek
tasha
tashkent
tasik
tasikmalaya
task
tasman
tasmania
taste
tat
tata
tatabahasa
tatacara
tatanama
tatar
tatarajah
tatatanda
tatatertib
tate
tatkala
tatsuya
tatu
tau
taubat
taufan
taufik
taufiq
tauge
tauhid
tauhu
tauke
tauliah
taun
taurat
taurus
tawan
tawanan
tawar
tawaran
tawarikh
tawau
tawi
tax
taxi
taxonomy
tay
tayang
tayangan
tayangannya
tayar
taylor
tb
tba
tbilisi
tbk
tbs
tc
td
te
tea
teacher
teachers
teaching
team
teams
tears
teaser
teater
teatro
teau
tebal
tebing
tebo
tebrau
tebu
tebuan
tebuk
tebusan
tech
technical
technique
techniques
technologies
technology
teck
ted
teddy
tedong
teduh
tedung
tee
teen
teenage
teg
tegak
tegal
tegang
tegangan
tegap
tegar
tegas
tegasan
teguh
teguran
teh
tehran
teik
teja
tek
teka
tekad
tekak
tekal
tekan
tekanan
teki
teknik
teknikal
teknikalnya
teknologi
teks
teksi
tekstil
tekstur
tektonik
tekukur
tekun
tel
teladan
telaga
telah
telahpun
telanjang
telapak
telecom
telefilem
telefon
telegraf
telegram
telegraph
telekom
telekomunikasi
telemong
telemovie
telenovela
telephone
telescope
teleskop
televisi
television
televisyen
telinga
telinganya
telipok
teliti
tell
tells
teloi
telok
telor
telstra
telugu
teluk
telunjuk
telupid
telur
telurnya
telus
tema
teman
temannya
temasek
temasya
tembaga
tembak
tembakan
tembakau
tembang
tembeling
tembikai
tembikar
tembok
temburong
temenggong
temenggung
temerloh
tempahan
tempat
tempatan
tempatnya
tempayan
tempe
temperature
templar
templat
template
temple
templer
tempo
tempoh
tempohnya
temporal
tempoyak
tempua
tempur
tempurung
temu
temuan
temubual
temuduga
temui
temuramah
temurun
ten
tenaga
tenaganya
tenang
tenat
tencent
tendangan
tender
tendon
tenerife
teng
tengah
tengahari
tengahnya
tenggara
tenggaroh
tenggelam
tenggol
tenghilan
tengkorak
tengku
tengkujuh
tengkuk
tengok
tenis
tennessee
tennis
tenom
tenor
tensei
tentang
tentangan
tentangnya
tentara
tentera
tenteranya
tentu
tentunya
tenun
tenunan
tenusu
teo
teochew
teoh
teologi
teong
teorem
teori
teorinya
tepat
tepatnya
tepi
tepian
teplice
tepu
tepung
tepus
ter
tera
teragak
teragung
teraju
terakhir
terakhirnya
teramai
teramat
terancam
terancang
terang
terangan
terangkum
terap
terapi
terapung
teras
terasa
terasing
terasul
teratai
teratas
teratur
terawal
terbabas
terbabit
terbagi
terbahagi
terbaharu
terbaik
terbaiknya
terbakar
terbalik
terbang
terbanyak
terbaru
terbarunya
terbatas
terbawah
terbelah
terbenam
terbengkalai
terbentang
terbentuk
terbentuknya
terbesar
terbesarnya
terbiar
terbilang
terbina
terbinanya
terbit
terbitan
terbitannya
terbongkar
terbuang
terbuat
terbuka
terbukti
terbunuh
terburu
terburuk
tercalon
tercapai
tercatat
tercedera
tercemar
tercetus
tercetusnya
tercinta
tercipta
terciptanya
tercorot
terdaftar
terdahulu
terdahulunya
terdalam
terdampar
terdapat
terdapatnya
terdedah
terdekat
terdekatnya
terdengar
terdesak
terdidik
terdiri
terence
terendah
terendak
terengganu
teres
teresa
terestrial
terfikir
tergabung
terganggu
tergantung
tergelincir
tergendala
tergesa
tergolong
terhad
terhadap
terhadapnya
terhalang
terharu
terhasil
terhebat
terhempas
terhenti
terhingga
terhormat
terhubung
terhutang
teri
terier
terik
terikat
terima
terindah
teringat
terinspirasi
terios
terjadi
terjadinya
terjaga
terjalin
terjamin
terjatuh
terjebak
terjejas
terjemahan
terjual
terjumpa
terjun
terkadang
terkait
terkandas
terkandung
terkawal
terkaya
terkecil
terkecuali
terkejut
terkeluar
terkemudian
terkemuka
terkena
terkenal
terkesan
terkini
terkorban
terkuat
terkumpul
terkunci
terkurung
terlalu
terlama
terlambat
terlampau
terlarang
terlaris
terlarut
terlatih
terlebih
terlepas
terletak
terletaknya
terlibat
terlihat
terlindung
terluka
terlupa
term
terma
termahal
termaju
termaktub
termasuk
termasuklah
termasuknya
termasyhur
terminal
terminator
terminologi
termodinamik
terms
termuda
ternak
ternakan
ternama
ternampak
ternate
ternyata
terorisme
terowong
terpadu
terpakai
terpaksa
terpanjang
terpantas
terpasang
terpelajar
terpelihara
terpencil
terpendam
terpengaruh
terpenting
terperangkap
terperinci
terpesona
terpikat
terpilih
terpinggir
terpisah
terpuji
terpusat
terputus
terra
terrace
terre
terrestrial
territoire
territorial
territories
territory
terror
terrorism
terrorist
terry
tersalah
tersangkut
tersasar
tersayang
tersebar
tersebut
tersedia
tersekat
terselamat
tersembunyi
tersenarai
tersendiri
tersenyum
terserempak
tersergam
terserlah
tersiar
tersibuk
tersilap
tersimpan
tersingkir
tersirat
tersisa
tersohor
tersumbat
tersusun
tertakluk
tertanam
tertangguh
tertanya
tertarik
tertekan
tertentu
tertera
tertib
tertidur
tertinggal
tertinggi
tertipu
tertua
tertubuhnya
tertuduh
tertulis
tertumpu
tertunda
tertutup
teruel
teruja
teruk
terukir
terulung
terumbu
teruna
terung
terunggul
terungkap
terup
terurai
terus
terusan
teruskan
terutama
terutamanya
tes
tesco
tesis
tesla
test
testament
testarossa
testing
tet
tetamu
tetangga
tetap
tetapan
tetapi
tetikus
tetingkap
teuku
tewas
texas
text
textdata
texts
tezuka
tf
tfrac
tg
th
tha
thai
thailand
thaksin
thaler
thales
tham
thames
than
thanh
thani
thank
that
thatcher
the
theater
theatre
thebes
theft
their
them
theme
themselves
then
theo
theodor
theodore
theology
theories
theory
therapy
theravada
there
therefore
theresa
thermal
theron
these
thesis
thestar
theta
they
thi
thief
thierry
thing
things
think
thinking
third
thirty
this
tho
thomas
thompson
thomson
thong
thor
thorne
thornton
those
though
thought
thousand
thrace
thrash
threat
threatened
three
thriler
thriller
thrips
through
throughout
thu
thumb
thumbnail
thunder
thurgau
thursday
thus
thy
thye
ti
tia
tiada
tiadanya
tian
tiananmen
tiang
tianjin
tiap
tiara
tiba
tibanya
tiberius
tibet
tibetan
ticino
tico
tidak
tidaklah
tidung
tidur
tidurnya
tie
tien
tienne
tiffany
tiga
tiganya
tiger
tigerair
tigers
tigris
tika
tikar
tiket
tiktok
tikus
tilawah
till
tim
timah
timbal
timbalan
timbalannya
timbang
timbangan
timbul
timbulnya
timbunan
time
timeaxis
timeline
times
timo
timor
timothy
timun
timur
timurnya
tin
tina
tindak
tindakan
tindakannya
tindakbalas
ting
tinggal
tinggalan
tinggalkan
tinggi
tingginya
tingkah
tingkap
tingkat
tingkatan
tini
tinja
tinjauan
tinju
tinker
tino
tiny
tioman
tiong
tionghoa
tiongkok
tip
tipah
tipe
tipikal
tipis
tipografi
tips
tipu
tirai
tiram
tirana
tiri
tirinya
tiro
tiroid
tirta
tiruan
tirus
tisu
tita
titah
titan
titanic
titanium
titans
titi
titian
titik
titingan
titisan
titiwangsa
title
titles
tito
titus
tiub
tiupan
tiz
tj
tk
tldm
tm
tma
tn
tnb
tni
tnt
to
toba
tobacco
tobago
tobi
tobias
toby
tochigi
todak
today
todd
toei
together
togo
toh
toho
tohoku
toi
tojo
tok
token
toki
toko
tokoh
tokong
toksik
toksin
tokugawa
tokusatsu
tokushima
tokyo
tol
tolak
told
toledo
toleransi
tolkien
tolna
tolok
tolombeh
tolong
tom
toma
tomas
tomato
tomatoes
tomb
tombak
tome
tommy
tomo
tomok
tomomi
tomorrow
tompok
ton
tone
tong
tonga
tonggak
tongkang
tongkat
tongkol
toni
tonight
tonks
tonton
tontonan
tony
too
took
tool
tools
toon
top
topeng
topi
topic
topics
topik
topikal
topl
topografi
topol
topologi
toppdoma
tor
tora
torah
toraja
toraks
tori
torino
tork
tornado
toro
toronto
torpedo
torre
torres
tort
tortoise
toshi
tosu
total
tottenham
tottori
touch
touchwiz
toulouse
tour
tourism
tourist
tournament
tours
tovuz
toward
towards
tower
towers
town
towns
township
toy
toyama
toyo
toyol
toyota
toyotomi
toys
tp
tr
tra
track
tracker
tracks
tracy
trade
trading
tradisi
tradisinya
tradisional
tradisionalnya
tradition
traditional
traditions
traffic
trafford
trafik
tragedi
tragedy
tragis
trail
trailer
train
training
trainor
trains
trait
trajan
trajektori
trak
traktor
trang
trans
transactions
transaksi
transcript
transfer
transformasi
transformation
transformer
transformers
transgender
transistor
transit
transitif
transition
transjakarta
transkrip
transkripsi
translated
translation
translations
transliterasi
transmisi
transmission
transport
transportasi
transportation
transylvania
trap
trauma
travel
travels
travis
tre
treasure
treatise
treatment
treaty
trebis
treble
tree
trees
trek
treler
trem
tren
trenc
trend
trends
trent
trentino
tres
treviso
trevor
tri
triad
trial
trials
triang
triangle
tribe
tribun
tribunal
tribune
tribute
trick
trident
trier
trigger
trigonometri
trilion
trilogi
trim
trinidad
trinita
trinity
trio
trip
triple
tripod
tripoli
trisakti
trisha
tristan
triton
tritunggal
triumph
trivia
trnava
tro
trofi
troia
trojan
trolak
trompet
trong
tronoh
troop
troops
tropical
tropika
trouble
trout
troy
troya
truck
trudeau
true
truman
trump
truss
trust
truth
trutnov
try
ts
tsanawiyah
tsar
tse
tsu
tsubasa
tsui
tsuji
tsunade
tsunami
tsunku
tsushima
tt
ttingen
ttir
tu
tua
tuah
tuai
tuaian
tuak
tualang
tuan
tuang
tuanku
tuannya
tuanya
tuaran
tuas
tuba
tube
tuberkulosis
tubi
tubuh
tubuhnya
tucker
tudm
tudor
tuduhan
tudung
tugas
tugasan
tugasnya
tugu
tuhan
tuhanku
tui
tuisyen
tujahan
tuju
tujuan
tujuannya
tujuh
tuk
tukang
tukar
tukaran
tukul
tulang
tular
tulen
tulip
tulis
tulisan
tulisannya
tulus
tum
tumbang
tumbuh
tumbuhan
tumbukan
tumenggung
tumis
tumit
tumor
tumpah
tumpahan
tumpang
tumpangan
tumpat
tumpuan
tumpul
tun
tuna
tunai
tunang
tunangnya
tunas
tunda
tundra
tunduk
tune
tunes
tung
tunggal
tunggalnya
tunggangan
tunggu
tunggul
tungku
tunis
tunisia
tunjang
tunjuk
tunku
tuntung
tuntut
tuntutan
tuntutannya
tuo
tupai
tupolev
tur
turandot
turbin
turbo
turet
turin
turing
turk
turkey
turki
turkik
turkish
turkmen
turkmenistan
turks
turn
turnbull
turner
turning
turns
turtle
turtles
turun
turunan
turunnya
turus
turut
turutan
tuscany
tutong
tutor
tutorial
tutup
tuturan
tuvalu
tv
tvb
tvn
tvri
twain
tweet
twelve
twentieth
twenty
twice
twilight
twin
twinkle
twins
twist
twitch
twitter
two
tx
ty
tyler
type
types
typhoon
tyra
tyrol
tyson
tyt
tz
tze
tzu
u
ua
uae
uang
uav
ub
ubah
ubaidah
uban
ubat
ubatan
uber
ubi
ubudiah
ubuntu
ubur
uc
ucapan
ucapannya
uchiha
uci
ucla
ud
uda
udang
udara
udaranya
udi
udine
udinese
udon
ue
uefa
ufo
ufti
ufuk
ugama
uganda
ugarit
ugly
ugutan
uh
uherske
uhf
uhm
uhud
ui
uiam
uitm
ujang
uji
ujian
ujibakat
ujikaji
ujong
ujung
uk
ukiran
ukm
ukraine
ukrainian
ukur
ukuran
ul
ula
ulam
ulama
ulamak
ulang
ulangan
ulangtahun
ular
ulasan
ulat
ulrich
ulser
ultimate
ultra
ultrabunyi
ultraman
ultraungu
ulu
ulul
ulum
ulung
ulvaeus
um
uma
umaiyah
umar
umat
umayyah
umbi
umbrella
umbridge
umi
umie
umm
ummah
ummi
ummu
umno
umpama
umpamanya
umpan
umperk
umrah
ums
umum
umumnya
umur
umurnya
un
una
uncle
uncredited
und
undang
undangan
under
underground
understanding
underworld
undi
undian
undur
une
unesco
ung
unggas
unggul
unggulan
ungka
ungkapan
ungku
ungu
uni
unic
unicef
unicode
unifi
unifil
uniform
unik
uniknya
unikod
unilever
union
unique
unisel
unit
united
units
unity
univ
universal
universe
universidad
universitas
universite
universiti
universities
university
unix
unjuran
unknown
unlimited
uno
unofficial
unplugged
unsur
unta
until
untuk
untukmu
untuknya
untung
unus
up
upacara
upah
upahan
upanishad
uparrow
upaya
update
updated
updates
upi
upin
upko
upload
upm
upon
upper
upright
upsi
upsr
uqasha
ur
ura
urahara
urai
ural
uranium
uranus
urat
urawa
urban
urdu
uri
url
uruguay
urus
urusan
urut
urutan
us
usa
usaf
usage
usah
usaha
usahanya
usahasama
usahawan
usang
usb
usd
usda
use
used
user
users
uses
usgs
usia
usianya
usim
using
usj
uskup
usm
usman
usno
usop
usp
uss
ussr
ustaz
ustazah
usually
usul
usulan
usulnya
usuluddin
usus
ut
uta
utah
utama
utamanya
utan
utara
utaranya
utarid
utc
ute
uterus
utf
uthman
uthmaniyah
uthmaniyyah
utiliti
utk
utm
utopia
utrecht
uttar
utuh
utusan
uu
uum
ux
uyghur
uza
uzbek
uzbekistan
uzumaki
uzur
v
va
vaccines
vaganza
vajiravudh
vaksin
vaksinasi
vakum
val
valais
vale
valencia
valens
valentin
valentine
valerie
valladolid
valle
valley
value
values
valve
vampire
van
vancouver
vanessa
vanguard
vanila
vanilla
vanuatu
var
varese
vargas
varian
variasi
varieti
variety
various
varma
varna
vary
vas
vasa
vasco
vaskular
vatican
vatikan
vaucluse
vaud
vc
vcd
ve
vec
veda
vedanta
veer
vega
vegalta
vegas
vegetarian
vehicle
vehicles
vektor
vel
vela
vellu
velocity
velvet
vena
vende
vendor
venera
veneto
venezia
venezuela
vengeance
venice
ventforet
ventral
ventrikel
ventura
venture
ventures
venue
venus
ver
vera
verde
verdi
verdy
verlag
verma
vermont
vernacular
vernakular
verne
vernon
verona
veronica
versailles
verse
versi
version
versions
versus
vertebra
vertebrat
vertebrata
vertical
very
ves
vesuvius
veszpre
veteran
veterinar
veto
vettel
vezirko
vfb
vfl
vh
vhf
vhs
vi
via
viacom
vic
vice
vicente
vicenza
vickers
vicky
victims
victor
victoria
victorian
victorious
victory
vida
video
videografi
videonya
videos
vidya
vie
vienna
vienne
vientiane
viet
vietnam
view
views
vigo
vii
viii
vijay
viking
vikram
viktor
vila
vilaine
villa
village
villages
villanueva
villarreal
ville
villeneuve
vin
vince
vincent
vincenzo
vinci
vinil
vinod
vintage
viola
violence
violet
violin
vip
viper
viral
virgin
virginia
virtual
virus
vis
visa
visayas
viscount
vishal
vishnu
visi
visigoth
vision
visit
visitors
vissel
vista
vistara
visual
vita
vitamin
vito
vitro
vittorio
viu
viva
vivekananda
vivian
vivo
vixx
viz
vj
vladimir
vn
vo
voc
vocal
vocals
vogue
voice
voices
vokal
vokalis
vokalnya
vokasional
vol
volcano
voldemort
volga
volkswagen
vols
volt
volta
voltan
volume
volumes
volunteer
volvo
vom
von
vorpommern
vortis
vosges
vote
voting
vox
voyage
voyager
vp
vr
vranov
vre
vres
vs
vseti
vt
vu
vulcan
vulgata
vy
vys
vysoc
w
wa
wabak
wacana
wad
wada
wadah
wade
wadi
wafat
wafer
waff
waffen
wagner
wagon
wah
wahab
wahai
wahid
wahyu
wai
wain
waiting
waja
wajah
wajahnya
wajar
wajib
wajo
wak
waka
wakaf
wake
wakil
wakilnya
waktu
waktunya
wal
walau
walaubagaimanapun
walaupun
wales
wali
walid
walikota
waljamaah
walk
walker
walking
wall
wallace
wallis
walls
walsh
walt
walter
walters
walther
walton
waltz
wan
wanda
wanderers
wang
wangi
wangian
wangsa
wani
wanita
wanitanya
wanna
want
wanted
wants
wap
war
warak
waran
waras
warcraft
ward
warden
warfare
warga
warganegara
warganya
waris
warisan
warkah
warna
warnanya
warner
warnermedia
warni
warning
warren
warrior
warriors
wars
warsaw
warta
wartawan
warung
warwick
was
wasabi
wasangka
washington
wasiat
wat
watak
wataknya
watan
watanabe
wataniah
watashi
watch
water
waterloo
waters
watford
wathoniyah
wati
watikah
watson
watt
watts
wau
wave
waverley
waves
wawa
wawancara
wawasan
way
wayang
wayar
wayarles
wayback
wayne
ways
wazir
wb
wd
wdt
we
wealth
weapon
weapons
wear
weasley
weather
weaver
web
webarchive
webb
webber
webcitation
weber
webnya
webpage
website
webster
webtoon
wedding
wednesday
wee
week
weekend
weekly
weeks
wehrmacht
wei
weight
weimar
weinstein
weir
weiss
welch
welcome
welcoming
welfare
well
wellington
wells
welsh
wembley
wen
wenangnya
wendy
weng
wenger
went
wentworth
wenzhou
werder
were
werner
wesley
wessex
west
western
westerwaldkreis
westfield
westinghouse
westland
westminster
weston
westphalia
westport
wet
wetan
wewenang
whale
wharf
what
wheel
wheeler
when
where
which
while
whip
white
whitehead
whitney
who
whois
whole
whom
whose
why
wi
wib
wide
widodo
widow
width
wien
wiener
wife
wigan
wii
wijaya
wiki
wikidata
wikimedia
wikipedia
wilayah
wilayahnya
wilbur
wild
wilde
wildlife
wiley
wilfred
wilhelm
wilkinson
will
willem
william
williams
williamson
willie
willis
willow
willy
wilson
wimbledon
win
winamp
winchester
wind
window
windows
windsor
wine
wing
wings
winner
winners
winnie
winning
wins
winstedt
winston
winter
wira
wirasaba
wire
wired
wireless
wisata
wisconsin
wisdom
wise
wisel
wish
wisma
wisnu
witch
with
within
without
witness
wives
wizard
wizards
wizurai
wm
wo
wol
wolf
wolfe
wolff
wolfgang
wolfram
wolfsburg
wolves
woman
women
won
wonder
wonderful
wonderland
wong
woo
wood
woodlands
woodrow
woods
woodward
woody
wook
woon
woong
word
wordfast
wordpress
words
work
workers
working
works
workshop
world
worlds
worldwide
worst
worth
would
wow
wozniacki
wp
wpper
wren
wrestling
wright
write
writer
writers
writing
writings
written
wrong
wrote
wta
wto
wu
wuduk
wuhan
wujud
wujudnya
wushu
ww
wwe
wwf
www
wyatt
wyoming
x
xa
xabi
xavier
xbox
xd
xenon
xerox
xerxes
xf
xi
xia
xiamen
xian
xiang
xiao
xico
xie
xii
xiii
xin
xing
xinhua
xinjiang
xiv
xix
xl
xm
xml
xo
xp
xpdc
xs
xtra
xu
xuan
xv
xvi
xvii
xviii
xx
xxi
xxiii
xxvi
xxx
xy
y
ya
yaacob
yaakob
yaakub
yab
yag
yagami
yaguchi
yah
yahaya
yahoo
yahudi
yahya
yai
yaitu
yak
yakin
yakni
yakovlev
yakub
yala
yale
yam
yama
yamada
yamaga
yamagata
yamaguchi
yamaha
yamamoto
yaman
yamashita
yamato
yamazaki
yamin
yamtuan
yan
yana
yang
yangban
yangon
yangtze
yani
yankee
yankees
yanti
yanukovych
yao
yap
yard
yardymli
yas
yash
yasin
yasmin
yassin
yasuda
yasushi
yat
yatim
yau
yaya
yayasan
yazid
yazit
yb
ybhg
ydpa
ye
yeah
year
years
yee
yeh
yehuda
yehuwa
yekaterina
yellow
yellowstone
yem
yemen
yen
yeo
yeoh
yeol
yeon
yeong
yeongjo
yeop
yerusalem
yes
yesterday
yesus
yet
yeung
yew
yg
yi
yiddish
yik
yin
ying
yip
yis
ym
yo
yoga
yogi
yogurt
yogyakarta
yohanes
yoke
yoko
yokohama
yokoyama
yom
yoma
yomiuri
yon
yong
yonne
yoo
yoon
yoritomo
york
yorker
yorkshire
yoru
yoshida
yoshiki
yoshizawa
you
young
younger
your
yours
yourself
youth
youtube
youtuber
ytl
ytm
yu
yuan
yudhoyono
yue
yuen
yugoslav
yugoslavia
yui
yuichi
yuji
yuk
yuka
yukari
yuki
yuko
yukon
yul
yulis
yum
yume
yumi
yun
yuna
yunan
yunani
yung
yunnan
yuno
yunos
yunus
yuran
yuri
yus
yusof
yusoff
yusop
yusri
yusry
yusuf
yuuka
yvelines
yves
yvonne
yyyy
z
za
zabuza
zac
zach
zachary
zack
zafrel
zagreb
zahar
zaharah
zahari
zahid
zahir
zahirah
zahiril
zahra
zai
zaid
zaidi
zain
zainab
zainal
zaini
zainol
zainon
zainuddin
zainul
zaiton
zaitun
zakar
zakaria
zakat
zaki
zakiah
zakri
zala
zaleha
zalim
zaloga
zam
zaman
zamani
zamannya
zamarul
zambia
zamboanga
zambry
zami
zamora
zamri
zamrud
zamzam
zan
zangilan
zanpakuto
zanzibar
zapin
zaqatala
zaqyah
zar
zara
zaragoza
zarah
zarina
zarul
zat
zavou
zawawi
zayed
ze
zealand
zebra
zedong
zee
zelda
zelensky
zelenskyy
zell
zemple
zen
zenit
zeppelin
zero
zest
zeta
zetima
zetsu
zeus
zh
zhang
zhao
zhejiang
zhen
zheng
zhi
zhong
zhou
zhu
zi
zia
ziana
ziarah
zikir
zila
zim
zimbabwe
zin
zina
zink
zinta
zionis
zionisme
zip
zirafah
zirah
ziyad
zizan
zlate
zli
znojmo
zo
zodiak
zoe
zoey
zombi
zombie
zon
zone
zong
zoo
zoologi
zoom
zu
zubaidah
zubair
zubir
zuhal
zuhrah
zul
zulaikha
zulhijah
zulkaedah
zulkarnain
zulkifli
zulkifly
zulu
zum
zur
zuraida
zuriat
zurich
zya
{
|
}
~
¡
¢
£
¥
§
©
«
¬
­
®
°
±
²
³
´
µ
·
¹
º
»
¼
½
¾
¿
×
ß
æ
æon
ð
÷
ø
đa
đo
ı
ŋ
ɑ
ɔ
ə
ɛ
ʰ
ʲ
ʷ
ʹ
ʻ
ʼ
ʾ
ʿ
ˈ
ˌ
ː
ˠ
̀
́
̂
̃
̄
̆
̇
̈
̉
̊
̋
̌
̍
̑
̓
̔
̛
̣
̥
̦
̧
̨
̩
̪
̱
̲
͂
͡
α
β
γ
δ
ε
η
θ
ι
κ
λ
μ
ν
ξ
ο
π
ρ
ς
σ
τ
υ
φ
χ
ψ
ω
а
в
г
д
е
з
и
к
л
м
н
на
о
п
р
с
т
у
ф
я
і
ә
ְ
ִ
ֵ
ֶ
ַ
ָ
ֹ
ּ
ֿ
ׁ
א
ב
ג
ד
ה
ו
ח
ט
י
כ
ל
ם
מ
ן
נ
ס
ע
פ
צ
ק
ר
ש
ת
׳
،
ء
ا
ال
الا
الله
ب
بن
ة
ت
ث
ج
ح
خ
د
دان
ذ
ر
ز
س
سورة
ش
ص
ض
ط
ع
غ
ـ
ف
في
ق
ك
ل
لا
م
محمد
ن
ه
و
ى
ي
يڠ
ً
ٌ
ٍ
َ
ُ
ِ
ّ
ْ
ٓ
ٔ
ٕ
ٗ
ٜ
٢
ٰ
ک
ہ
ی
ۡ
ހ
ށ
ނ
ރ
ކ
އ
ވ
މ
ދ
ލ
ގ
ސ
ަ
ާ
ި
ީ
ު
ެ
ް
߫
߬
߲
ं
क
ग
च
ज
ट
ड
ण
त
थ
द
ध
न
प
ब
भ
म
य
र
ल
व
श
ष
स
ह
़
ा
ि
ी
ु
ू
ृ
े
ै
ो
ौ
्
।
ং
ক
খ
গ
ঙ
চ
ছ
জ
ঞ
ট
ণ
ত
থ
দ
ধ
ন
প
ব
ম
য
র
ল
শ
ষ
স
হ
়
া
ি
ী
ু
ে
্
ਂ
ਜ
ਤ
ਹ
ਾ
ਿ
ੀ
ੇ
ੰ
ત
ન
ર
ા
ી
ે
ો
્
କ
ମ
ା
ି
ୁ
େ
୍
க
ங
ச
ட
த
ந
ன
ப
ம
ய
ர
ற
ல
வ
ா
ி
ு
ூ
ெ
ே
ை
்
ం
న
మ
ర
ల
ా
ి
ు
్
ತ
ನ
ಾ
ಿ
ು
ೆ
್
ം
ത
ന
ാ
ി
ു
്
න
ම
ව
්
ා
ි
ු
ෙ
ก
ค
ง
จ
ช
ซ
ด
ต
ท
น
บ
ป
ผ
พ
ม
ย
ร
ล
ว
ศ
ส
ห
อ
ั
า
ิ
ี
ึ
ื
ุ
ู
็
่
้
๊
์
་
།
ཀ
ག
ང
ད
ན
བ
མ
ར
ལ
ས
ཨ
ི
ུ
ེ
ོ
ྐ
ྱ
က
င
တ
န
ပ
မ
ရ
သ
ာ
ိ
ီ
ု
ူ
ေ
့
း
္
်
ျ
ြ
ွ
႔
년
월
일
፡
ᜈ
ᜐ
ᜒ
ᜓ
᜔
᜵
គ
ត
ន
ប
ព
ម
រ
ស
ា
ិ
ី
ុ
ួ
េ
ែ
ោ
ំ
់
្
ᨊ
ᨑ
ᨕ
ᨗ
ᨘ
ᨙ
ᨚ
ᨛ
᨞
ᬶ
ᭂ
᭄
ᮀ
ᮒ
ᮓ
ᮔ
ᮙ
ᮤ
ᮥ
ᮨ
᮪
​
‌
‍
‎
‏
‐
‑
–
—
―
‘
’
‚
“
”
„
†
‡
•
…
‬
‰
′
″
‹
›
※
₩
€
₱
₹
℃
ℓ
№
™
ⅱ
↑
→
↔
↷
−
√
∞
∼
≈
≡
≤
≥
⋅
①
②
③
④
⑦
█
▪
►
○
●
★
☆
♀
♡
♥
♦
♪
♭
ⴰ
ⵉ
⹁
⺀
⺄
⺆
⺈
⺊
⺌
⺕
⺝
⺸
⺼
⿰
⿱
⿲
⿳
⿴
⿵
⿶
⿷
⿸
⿹
⿺
⿻
、
。
々
〈
〉
《
》
「
」
『
』
【
】
〜
〢
ぁ
あ
い
う
ぇ
え
お
か
き
く
け
こ
さ
し
す
せ
そ
た
ち
っ
つ
て
と
な
に
ね
の
は
ひ
ふ
へ
ほ
ま
み
む
め
も
ゃ
や
ゅ
ゆ
ょ
よ
ら
り
る
れ
ろ
わ
を
ん
゙
゚
ァ
ア
ィ
イ
ゥ
ウ
ェ
エ
ォ
オ
カ
キ
ク
ケ
コ
サ
シ
ス
セ
ソ
タ
チ
ッ
ツ
テ
ト
ナ
ニ
ヌ
ネ
ノ
ハ
ヒ
フ
ヘ
ホ
マ
ミ
ム
メ
モ
ャ
ヤ
ュ
ユ
ョ
ヨ
ラ
リ
ル
レ
ロ
ワ
ン
・
ー
㇁
㇂
㇄
㇇
㇈
㇉
㇓
㐁
㐄
㐅
㐌
㐫
㐬
㐭
㐮
㐱
㑒
㒵
㒸
㒼
㓁
㓞
㔾
㕛
㕣
㖾
㘝
㚅
㚇
㚔
㚘
㝉
㝡
㝴
㝵
㞋
㞢
㞷
㠩
㠭
㠯
㡀
㡭
㡿
㢲
㢴
㣇
㣺
㥯
㪅
㫄
㫐
㫒
㫺
㬅
㬎
㬥
㬰
㲋
㳄
㷠
㸒
㸚
㸦
㼌
㼲
㽞
㿟
䀠
䂞
䍃
䏍
䒑
䖍
䖒
䖝
[...]
