!
"
#
##0
##1
##10
##11
##12
##13
##14
##15
##16
##17
##18
##19
##2
##20
##21
##22
##23
##24
##25
##26
##27
##28
##29
##3
##30
##31
##32
##33
##34
##35
##36
##37
##38
##39
##4
##40
##41
##42
##43
##44
##45
##46
##47
##48
##49
##5
##50
##51
##52
##53
##54
##55
##56
##57
##58
##59
##6
##60
##61
##62
##63
##64
##65
##66
##67
##68
##69
##7
##70
##71
##72
##73
##74
##75
##76
##77
##78
##79
##8
##80
##81
##82
##83
##84
##85
##86
##87
##88
##89
##9
##90
##91
##92
##93
##94
##95
##96
##97
##98
##99
$
%
&
'
(
)
*
+
,
-
.
/
0
00
000
0000
000000
00008
001
002
003
004
005
006
007
008
008000
009
01
010
012
013
014
015
016
017
019
02
020
028
03
038
04
042
05
050
06
07
072
075
08
081
084
09
1
10
100
1000
10000
1001
1004
1005
101
1013
1016
1018
102
1022
1024
1025
1027
1028
103
104
1040
1045
105
1054
106
1064
107
108
1086
1087
109
1093
11
110
1100
1106
111
1112
1117
112
1120
1122
1126
113
1130
1139
114
1145
1148
115
1150
1151
1154
1158
116
1160
1161
1162
1167
117
1170
1173
1174
1175
1176
1178
1179
118
1180
1182
1184
1185
1187
119
1191
1199
12
120
1200
1204
1208
121
1212
1217
122
1228
123
1230
124
1240
1241
1246
125
1250
1257
1259
126
1264
127
1270
1271
1274
1275
1276
1277
128
1280
1285
1288
1289
129
1290
1291
1295
13
130
1300
1301
1302
1303
1304
1305
1306
131
1310
1311
1313
1316
132
1320
1322
1325
1328
133
1331
1335
1339
134
1340
1341
1342
1344
1345
1346
135
1350
1351
1354
1355
136
1360
137
1370
1375
1378
138
1380
1382
1385
1388
1389
139
1390
1392
1395
1396
1398
14
140
1400
1401
1402
1405
1408
141
1410
1412
142
1420
1422
1424
1426
1428
143
1430
1431
1435
144
1440
1444
1447
1449
145
1450
1452
1453
1454
1455
146
1460
1461
1464
1466
1468
1469
147
1470
1471
1472
1473
1475
1476
1477
1478
148
1480
1481
1483
1484
1488
149
1490
1492
1493
1494
1495
1497
1498
1499
15
150
1500
1503
1504
1505
1509
151
1512
1513
1515
1516
1519
152
1520
1521
1522
1524
1525
1526
1527
1529
153
1530
1532
1535
1536
1538
154
1541
1547
155
1550
1553
1555
1559
156
1560
1561
1564
1565
157
1574
1576
1578
158
1580
1581
1584
1585
1588
1589
159
1590
1592
1595
1597
1598
16
160
1600
1601
1605
1606
1608
1609
161
1610
1611
1612
1615
1616
1617
1618
162
1620
1621
1622
1623
1624
1625
1626
1627
1629
163
1630
1631
1632
1634
1635
1638
1639
164
1640
1642
1643
1644
1645
1646
1647
1648
165
1650
1654
166
1660
1662
1664
1665
1666
1667
167
1679
168
1680
1683
1684
1685
1686
1688
1689
169
1690
1691
1693
1697
1699
17
170
1700
1701
1704
1706
1707
1709
171
1710
1711
1712
1713
1714
1715
1716
1717
1718
1719
172
1720
1721
1722
1723
1724
1727
1728
1729
173
1730
1731
1732
1733
1734
1735
1736
1737
1738
174
1740
1741
1743
1744
1745
1746
1747
1748
1749
175
1750
1751
1752
1753
1754
1755
1756
1757
1758
1759
176
1760
1761
1762
1763
1764
1765
1766
1767
1768
1769
177
1770
1771
1772
1773
1774
1775
1776
1777
1778
1779
178
1780
1781
1782
1783
1784
1785
1786
1787
1788
1789
179
1790
1791
1792
1793
1794
1795
1796
1797
1798
1799
18
180
1800
1801
1802
1803
1804
1805
1806
1807
1808
1809
181
1810
1811
1812
1813
1814
1815
1816
1817
1818
1819
182
1820
1821
1822
1823
1824
1825
1826
1827
1828
1829
183
1830
1831
1832
1833
1834
1835
1836
1837
1838
1839
184
1840
1841
1842
1843
1844
1845
1846
1847
1848
1849
185
1850
1851
1852
1853
1854
1855
1856
1857
1858
1859
186
1860
1861
1862
1863
1864
1865
1866
1867
1868
1869
187
1870
1871
1872
1873
1874
1875
1876
1877
1878
1879
188
1880
1881
1882
1883
1884
1885
1886
1887
1888
1889
189
1890
1891
1892
1893
1894
1895
1896
1897
1898
1899
19
190
1900
1901
1902
1903
1904
1905
1906
1907
1908
1909
191
1910
1911
1912
1913
1914
1915
1916
1917
1918
1919
192
1920
1921
1922
1923
1924
1925
1926
1927
1928
1929
193
1930
1931
1932
1933
1934
1935
1936
1937
1938
1939
194
1940
1941
1942
1943
1944
1945
1946
1947
1948
1949
195
1950
1951
1952
1953
1954
1955
1956
1957
1958
1959
196
1960
1961
1962
1963
1964
1965
1966
1967
1968
1969
197
1970
1971
1972
1973
1974
1975
1976
1977
1978
1979
198
1980
1981
1982
1983
1984
1985
1986
1987
1988
1989
199
1990
1991
1992
1993
1994
1995
1996
1997
1998
1999
2
20
200
2000
2001
2002
2003
2004
2005
2006
2007
2008
2009
201
2010
2011
2012
2013
2014
2015
2016
2017
2018
2019
202
2020
2021
2022
2023
2025
203
204
205
206
207
208
209
21
210
2100
211
212
213
214
215
216
217
218
219
22
220
2200
221
222
223
224
225
226
227
228
229
23
230
2300
231
232
233
234
235
236
237
238
239
24
240
2400
241
242
243
244
245
246
247
248
249
25
250
2500
251
252
253
254
255
256
257
258
259
26
260
2600
261
262
263
264
265
266
267
268
269
27
270
2700
271
272
273
274
275
276
277
278
279
28
280
2800
281
282
283
284
285
286
287
288
289
29
290
2900
291
292
293
294
295
296
297
298
299
3
30
300
3000
301
302
303
304
305
306
307
308
309
31
310
3100
311
312
313
314
315
316
317
318
319
32
320
321
322
323
324
325
326
327
328
329
33
330
3300
331
332
333
334
335
336
337
338
339
34
340
341
342
343
344
345
346
347
348
349
35
350
3500
351
352
353
354
355
356
357
358
359
36
360
361
362
363
364
365
366
367
368
369
37
370
371
372
373
374
375
376
377
378
379
38
380
381
382
383
384
385
386
387
388
389
39
390
391
392
393
394
395
396
397
398
399
4
40
400
4000
401
402
403
404
405
406
407
408
409
41
410
411
412
413
414
415
416
417
418
419
42
420
421
422
423
424
425
426
427
428
429
43
430
431
432
433
434
435
436
437
438
439
44
440
441
442
443
444
445
446
447
448
449
45
450
4500
451
452
453
454
455
456
457
458
459
46
460
461
462
463
464
465
466
467
468
469
47
470
471
472
473
474
475
476
477
478
479
48
480
481
482
483
484
485
486
487
488
489
49
490
491
492
493
494
495
496
497
498
499
5
50
500
5000
501
502
503
504
505
506
507
508
509
51
510
511
512
513
514
515
516
517
518
519
52
520
521
522
523
524
525
526
527
528
529
53
530
531
532
533
534
535
536
537
538
539
54
540
541
542
543
544
545
546
547
548
549
55
550
551
552
553
554
555
556
557
558
559
56
560
561
562
563
564
565
566
567
568
569
57
570
571
572
573
574
575
576
577
578
579
58
580
581
582
583
584
585
586
587
588
589
59
590
591
592
593
594
595
596
597
598
599
6
60
600
6000
601
602
603
604
605
606
6060
607
608
609
61
610
61022
611
612
613
614
615
616
617
618
619
62
620
621
622
623
624
625
626
627
628
629
63
630
631
632
633
634
635
636
637
638
639
64
640
641
642
643
644
645
646
647
649
65
650
651
652
653
654
655
656
657
658
659
66
660
661
662
663
664
665
666
667
668
669
67
670
671
672
673
674
675
676
677
678
679
68
680
681
682
683
684
685
686
687
688
689
69
690
691
692
693
694
695
696
697
698
699
7
70
700
7000
701
702
703
704
705
706
707
708
709
71
710
711
712
713
714
715
716
717
718
719
72
720
721
722
723
724
725
726
727
728
729
73
730
731
732
733
734
735
736
737
738
739
74
740
741
742
743
744
745
746
747
748
749
75
750
7500
751
752
753
754
755
756
757
758
759
76
760
761
762
763
764
765
766
767
768
769
77
770
771
772
773
774
775
776
778
7785
779
78
780
781
782
783
784
785
786
787
788
789
79
790
791
792
794
796
797
798
799
8
80
800
8000
800080
801
802
803
804
805
806
807
808
809
81
810
811
812
813
814
815
816
818
819
82
820
821
822
823
824
825
827
828
829
83
830
831
832
833
836
837
838
84
840
841
842
843
844
845
846
847
848
849
85
850
852
853
854
855
857
858
859
86
860
861
862
863
864
865
866
867
868
87
870
871
872
874
875
876
877
878
879
88
880
881
882
883
884
885
886
887
888
889
89
890
891
892
893
894
895
897
898
899
9
90
900
901
902
902714
903
905
906
907
909
91
910
911
912
913
914
915
916
917
918
919
92
920
921
922
923
924
925
926
927
928
929
93
930
931
932
933
934
935
936
939
94
940
942
943
945
946
948
949
95
950
951
952
953
954
955
956
958
959
96
960
961
962
963
964
965
966
967
968
97
970
971
972
973
975
976
977
978
979
98
980
981
982
983
987
99
990
991
992
993
995
996
997
998
999
:
;
<
=
>
?
@
\
^
_
`
a
aa
aara
aarau
aarch
aare
ab
aba
abaa
abanduna
abano
abasi
abate
abbadia
abbia
abbien
abc
abcasia
abd
abe
abecee
abel
abelard
aber
abi
abia
abie
abigliament
abilita
abilitaa
abita
abitaa
abitad
abitada
abitanc
abitancc
abitant
abitants
abitazion
abitu
aboli
abolii
abolizion
abonament
abondi
abort
about
abraham
abram
abramo
abruzz
abruzzi
abruzzo
abside
abu
ac
aca
acade
academia
academy
acaulis
acc
accademia
accelerazion
accent
access
accessed
accessibila
accessibilita
accesso
accessori
accetta
accettaa
acco
accord
accordi
accusa
accusaa
ace
acent
acerra
acess
aceta
acetaa
ach
ache
achille
aci
acid
acida
acidita
acioche
aco
acord
acordi
acqua
acquaviva
acque
acqueri
acqui
acronim
acse
acsi
act
acu
acusa
acustica
acustich
acustico
ad
ada
adam
adamm
adasi
adata
adatta
adattaa
adattament
add
adda
addclass
addio
addirittura
ade
adelaide
adelchi
ades
adesion
adess
adiabatega
adiabategh
adige
adiritu
adiritura
administration
ado
adognimo
adolf
adoma
adoss
adota
adotta
adottaa
adozion
adre
adree
adress
adressa
adresse
adria
adrian
adriano
adriatica
adriatich
adriatico
adrittura
adromischus
ads
adsorbiment
adu
adult
adura
advance
advanced
advezion
ae
aegilops
aeonium
aerea
aero
aerofon
aerolo
aeronautega
aeropo
aeroport
aeroporto
aeroso
aesch
aeschi
af
afa
afar
affar
affari
affer
affluent
affoltern
affori
affre
affresch
afghanistan
aflu
afluent
afre
afresch
africa
african
africana
afrika
afrikaans
afro
afront
afronti
afronto
after
ag
again
agata
age
agency
agent
agenzia
ageti
agetiv
aggettiv
agh
agi
agir
agiurna
agli
agn
agnell
agnesa
agno
ago
agogna
agola
agordino
agost
agostin
agostini
agostino
agosto
agra
agraa
agrari
agrega
agri
agricol
agricola
agricoltura
agricultu
agrigento
agro
agroalimenta
agrono
agrumm
agu
agua
ague
agust
ah
ai
aichach
aidia
aiello
aigle
aigues
ain
aipre
air
aires
airlines
airo
airoeu
airport
ais
aisch
aise
aisebe
aisne
aiu
aiuto
aiutt
aiva
aix
aizoaceae
aj
aja
ajaccio
ajuta
ajutt
ak
aka
akira
aksakov
al
ala
alabama
alagna
alaigne
alain
alan
alarico
alaska
alb
alba
albaa
albairaa
alban
albane
albanes
albanesa
albanese
albania
albano
albe
albedo
albenga
alber
albera
albere
albergh
albergo
albero
albert
alberta
alberti
albertini
alberto
albertville
albes
albi
albin
albini
albino
albis
alboin
albom
albor
albu
albula
album
alcali
alcalin
alcalina
alcalinita
alcc
alcide
alcol
alcun
alcuni
aldo
ale
alea
alef
alegar
alegher
alegrament
alegri
aleksandr
alema
aleman
alemann
alenador
alenadors
alenadu
ales
alesa
alesani
alessandria
alessandro
alessi
alessio
alex
alexander
alexis
alfa
alfabet
alfabett
alfieri
alfio
alfons
alfonso
alfred
alfredo
algebra
algeri
algeria
alghero
algoritm
algovia
ali
alias
alicante
alice
alie
aliena
alife
align
alignbars
alimenta
alimentar
alimentasiu
alimentazion
alisa
alive
alize
all
alla
allah
alle
alleanza
allee
allegra
allegri
allen
allena
allenador
aller
alles
allestiment
allga
allo
allora
alls
allumini
alma
almaanch
almanc
almanca
almanch
almanco
alme
almen
almeno
aln
alo
aloe
aloinopsis
alonso
alora
aloura
alp
alpago
alpes
alpha
alphabet
alpi
alpin
alpina
alpinista
alpinn
already
als
alsazia
alsazian
also
alstom
alt
alta
altar
altavilla
altdorf
alte
alter
alterna
alternada
alternanza
alternativ
alternativa
alternative
altezza
altipia
altipian
altitalia
altitu
altituden
alto
altocumul
altocumulus
altor
altostratus
altra
altre
altri
altrimenti
altro
altsta
alu
alumini
alura
alvernia
alverniad
alvisti
alvra
alza
alzaa
alzada
am
ama
amaa
amada
amalastant
amanda
amant
amantea
amar
amare
amaro
amato
amb
ambassador
ambe
amberg
ambia
ambie
ambient
ambienta
ambientaa
ambientai
ambiental
ambit
ambra
ambro
ambroeus
ambrogio
ambroix
ambrosian
ambrosiana
amburgh
ame
amedee
amedeo
amelia
amen
amerega
america
american
americana
amerigana
amet
ami
amici
amicizia
amico
amiens
amiga
amigh
aministra
aministrasiu
aministrati
aministrativ
aministrativa
aministrazion
aministraziun
aminuacid
amis
amisa
amiss
amix
amministrativ
amministrativa
amministrazion
ammo
amo
amor
amore
amour
ampezzo
ampi
ampia
ampugnani
amsterdam
amt
amu
amur
an
ana
anali
analisi
analista
analiza
analizza
analogia
analogich
analysis
anarco
anas
anastasia
anatolia
anatomia
anc
anca
ancabe
ancaben
ancamo
ancasi
ance
anch
anche
anchor
ancia
anco
ancona
ancora
and
anda
andaa
andacc
andacia
andad
andada
andagh
andai
andamane
andame
andament
andana
andand
andando
andar
andara
andare
andaria
andaro
andat
andata
andava
andaven
ande
andelfingen
andersen
andi
ando
andora
andorra
andre
andrea
andreas
andreja
andreotti
andreu
andrew
andria
andro
androce
android
anduin
andy
ane
anei
anel
anell
anema
anemm
anemone
angel
angela
angeles
angeli
angelis
angelo
anger
angera
angiol
angiospe
angiospermae
angiul
anglo
angol
angola
angolar
angoule
anhalt
ani
anidride
anima
animada
animai
animaj
animal
animali
anime
ankara
anlora
anlura
anmo
ann
anna
annat
anne
annecy
annession
annett
anni
annibal
anniversari
anno
annon
annone
annua
annual
annunzia
annunziata
annunzio
ano
anonim
anonima
anpi
ans
ansa
ansaldo
ansaldobreda
ansbach
anschaffenburg
anse
anselmo
ansi
ansia
ant
antartid
ante
antecedent
antena
antenaa
anterior
anteriu
anteriur
anthems
anthony
anti
antibioteg
antica
antich
antiche
antichi
antichita
anticiclo
anticiclon
antico
antifassista
antig
antiga
antigament
antigh
antighita
antigua
antil
antiochia
antirrhinum
antivirus
anto
antogn
antoine
antologia
anton
antonello
antoni
antoniana
antonin
antonino
antonio
antropologia
anu
anversa
any
anzasca
anzi
anzia
anziann
ao
aosta
ap
apare
aparte
apartenenza
ape
apell
apena
apeni
apenzel
apg
api
apica
apis
aplica
aplicada
aplicazio
aplicazion
aplicaziun
aplicazzion
aplicazziu
apo
apocynaceae
apollo
apont
apos
aposta
apostoi
apostuj
apostul
app
appare
apparizion
appena
appendis
appennino
appenzell
appian
apple
applica
applicazion
appo
apposta
approssimazion
approvaa
approvada
approvazion
approx
apre
apress
apri
april
aprile
aprilia
apro
aproeuv
aprovaa
aprovad
apt
apu
apucaliss
apus
aq
aqua
aquarossa
aque
aqui
aquila
aquilegia
aquileia
aquisgrana
aquist
aquitania
aquo
ar
ara
arab
araba
arabia
aragona
aragones
aragorn
aral
araldega
araldica
aran
arbe
arbed
arbiter
arbitrari
arbo
arbor
arbresle
arbu
arbur
arbust
arc
arca
arcade
arcc
arce
arch
archeolo
archer
archi
archinto
archite
architet
architett
architettura
architetu
architetura
archive
archived
archivi
archivio
arcidiocesi
arcipe
arcipelagh
arcisaa
arcive
arcivesc
arcivescov
arcivescovil
arcivescovile
arcivescuv
arco
arcobalen
arcor
arda
arde
ardenn
ardenne
ardennes
arderigh
are
area
aree
arei
arena
arent
arenta
arente
ares
aress
arest
arestaa
arezzo
arg
arge
argent
argenta
argenti
argentin
argentina
argo
argome
argoment
argomenti
argovia
args
argstmp
argu
argument
arguments
ari
aria
arian
ariano
aribert
arie
ariis
arios
aritmetega
ariva
arivaa
arivada
arizona
arjent
arles
arlesheim
arlun
arm
arma
armaa
armad
armada
armade
armanch
armando
arme
armen
armena
armenia
armi
armistizzi
armo
armonega
armonia
arms
arnaldo
arne
arnes
arni
arno
aro
aroma
arona
arosa
around
arpa
arpino
arpitan
arpitania
arqua
arquata
array
arre
arrest
arrighi
arriv
arriva
arrivada
arrondissement
arrondissements
arroscia
ars
arsagh
arsgent
arsizio
art
arta
arte
arthur
arti
artich
article
articoi
articol
articolaa
articolo
articul
articulaa
articulazion
artificia
artificiai
artificial
artist
artista
artistega
artistegh
artisti
artistica
artistich
artists
arts
arturo
arve
arze
arzenta
as
asa
asan
asborgh
asbu
asburgh
asc
asca
ascani
ascedenta
ascendent
ascendenta
ascensa
ascension
ascensoeur
ascoli
ase
asegna
asen
asi
asia
asiago
asiana
asio
asiu
asl
aso
asociasiu
asola
asp
aspe
aspet
aspeta
aspett
asphodelus
aspirazio
aspromonte
aspx
asquas
ass
assa
assada
assagh
assalt
assassin
asse
assede
assedi
assediaa
assee
assegnaa
assemblea
assembly
assemini
assenza
assessor
assessora
assia
assio
assioma
assisi
assistent
assistenza
assiuma
asso
associa
associaa
associada
association
associazion
associazione
assolt
assoluda
assoluta
assoluu
assonta
assorbe
assorbime
assorbiment
assose
asst
assu
assulu
assunta
ast
asta
astension
asteraceae
astero
astesan
asti
astro
astronauta
astronautega
astronave
astrono
astronomega
astronomi
astronomia
astu
asturian
asuka
at
ata
atac
ataca
atacch
atach
atalanta
atar
atari
ataru
atc
ate
atella
atene
ateneo
atenta
atentaa
atenzion
ater
atera
atessa
ati
atila
atinomo
ativ
ativa
ativista
ativita
ativitaa
atla
atlanta
atlantegh
atlantich
atlantigh
atm
atmosfe
atmosfera
atmosferega
atmosferegh
ato
atom
atonegh
ator
atr
atre
atri
atribu
atris
atropurpurea
att
atta
attacca
attacch
attach
attack
attentaa
attenzio
attenzion
attesa
atti
attilio
attiv
attiva
attivaa
attivista
attivita
attivitaa
atto
attor
attr
attrazion
attris
attriss
attrito
attual
atu
atual
atum
atur
au
aube
aubin
auch
aude
audio
auf
augu
august
augusta
auguste
augusto
aula
aulla
aume
aument
aumenta
aura
aurea
aureli
aurelian
aurelio
auri
auronzo
aurora
aus
auschwitz
ausiliar
aussi
austin
austra
australia
australian
australiana
austri
austria
austriaca
austriach
austriega
austriegh
austro
aut
autari
autenticazion
auto
autobiografia
autobus
autoclave
autodeterminazion
autogoverno
automa
automatega
automategh
automatic
automatica
automaticament
automatich
automotris
autonom
autonoma
autonomi
autonomia
autonomie
autonomij
autonomista
autonomo
autopista
autor
autore
autori
autorita
autoritaa
autorizzaa
autorizzazion
autostrad
autostrada
autostradal
autostradale
autostrade
autotreni
autotreno
autovia
autres
autri
autu
autun
autunn
autur
auturitaa
aux
av
ava
avant
avanti
avanzaa
avanzada
avara
avare
avaress
avari
avaria
avarien
avariss
ave
avea
avec
avegh
avegn
avei
avellino
aven
avena
avend
avendugh
avenimeent
aveniment
aver
averbi
avere
avers
aversa
aversari
avert
averta
avertu
avertura
aves
avess
avesse
avessen
avessi
aveva
aveven
avevi
avevum
avezzano
avi
avia
avigliano
avignon
avii
avio
avion
aviv
aviva
avo
avocat
avocatt
avogadro
avon
avori
avost
avra
avre
avri
avria
avrii
avril
avu
avud
avuu
avvenime
avveniment
avversari
award
awards
away
ax
ayant
ayas
ayrton
az
aze
azeglio
azera
azerbaigian
azie
aziend
azienda
aziende
azio
azion
azione
aziun
azo
azur
azzal
azzano
azzion
azzon
azzurro
ałora
b
ba
baa
baar
bab
baby
bach
bache
bacin
back
background
backgroundcolors
backslash
backup
bad
bade
baden
badge
badia
badil
badoglio
baga
bagai
bagaj
bagg
baggins
baggio
baghe
baglioni
bagn
bagna
bagnaa
bagnada
bagnen
bagni
bagno
bagnoli
bagnolo
bagnols
bagolin
baguli
bahamas
bahn
bahnhof
bahrain
bai
baia
baiano
bailey
bain
bains
baita
baix
baja
baker
baku
bal
bala
balcan
baldini
bale
balerna
bali
balilla
ball
balla
ballata
ballon
ballottagg
balo
balon
baloss
balsa
balsamita
balsom
baltea
baltegh
baltich
balu
balzers
bamberga
bambi
bambin
ban
banana
banca
bancari
banch
banchina
band
banda
bande
bandera
bandere
bandi
bandiera
bando
bandona
bandonaa
bandonada
banduna
banfi
bang
bangladesh
banjo
bank
banner
banska
bap
baptiste
bar
bara
barack
barba
barbar
barbara
barbaro
barbarossa
barbi
barbon
barbuda
barca
barcellona
barcelona
barcelonnette
barch
bard
bardata
bardi
bare
baregg
bargaja
bargen
bari
barlassina
barletta
barnaba
baro
barocch
baroch
baron
barone
baronia
baronnies
barr
barra
barre
barry
bars
barthe
bartolome
bartolomee
bartolomeo
barz
barza
bas
basa
basaa
basad
basada
basca
bascape
basch
base
baseball
based
basi
basian
basic
basich
basile
basilea
basilega
basileja
basilica
basilicada
basilicata
basin
baso
bass
bassa
bassano
bassi
bassista
bassitalia
basso
basta
bastia
bastian
bastiment
bastion
baston
bastu
bat
bata
bataia
bataja
batalia
bataria
batarie
batasg
bate
bater
bateri
bateria
batesim
bateva
bateza
batezaa
batezzaa
bati
batista
batt
battaglia
battaj
battaja
battali
battalia
battaria
batteri
batteria
battipaglia
battista
battle
battuu
batu
batud
bautzen
bavare
bavares
bavaresa
bavie
baviera
bavieracategory
bavona
bay
bayer
bayern
bayreuth
baza
bazi
bb
bba
bbc
bcungjuunt
be
bea
beaa
beach
beada
beat
beata
beatles
beatrice
beatris
beatt
beauharnais
beaujeu
beaulieu
beaumont
beaurepaire
beauvoisin
bebe
bec
becca
beccaria
becch
bech
beck
becker
beckett
bed
beder
bedie
bee
been
beer
beethoven
bega
begin
begn
bei
bein
being
beinwil
bej
bel
bela
belas
belbo
belcaire
bele
belga
belgi
belgio
belgioioso
belgiojos
belgiojoso
belgiraa
belgode
belgrad
beli
believe
belin
belinzona
belize
bell
bella
belle
bellegarde
bellerive
belley
bellezza
bellini
bellinzona
bellis
bello
bellun
belluno
belmont
belmonte
belo
belpasso
belsito
belvedere
ben
bene
benede
benedet
benedett
benedetto
benedicta
benedictus
benedii
benes
benetton
benevento
bengala
beni
benin
benito
benjamin
benken
bens
bentivoglio
benzina
beowulf
bepi
beppe
ber
bera
berbenn
berberis
berchtesgadener
bere
bereguard
beretta
berg
bergama
bergamasc
bergamasca
bergamasch
bergamaschi
bergamasco
bergamo
bergem
bergen
berger
berghem
bergoglio
bergom
bergu
bergum
beri
berkeley
berli
berlin
berlino
berluscon
berlusconi
bern
berna
bernaa
bernabo
bernard
bernardi
bernardin
bernardino
bernardo
bernaregg
berne
bernes
bernina
beroun
berry
bersani
berthel
bes
besana
besnaa
beso
besogn
besogna
besozz
besse
best
besti
bestia
bestiam
bestie
bet
beta
beth
bettola
betty
between
beu
bev
bevanda
bever
beveridge
bezirk
bezirks
bf
bg
bhatti
bhr
bhutan
bi
bia
biaa
biaggi
biagio
biagrass
bianc
bianca
bianch
bianchi
bianco
bias
biasca
bibbia
biberach
bibia
bibiana
bibliografe
bibliografi
bibliografia
bibliote
biblioteca
bibliotega
bibliugrafi
bibliugrafia
bibliuteca
bica
bicameralism
bici
bicocca
bidens
bidirezional
bidree
bie
biegrass
biel
biela
biella
bielles
biellese
bieloruss
bielorussia
bieluru
bien
bienne
big
bigol
bii
bil
bila
bilanc
bilbo
bile
bilengov
biliett
biliettaria
bill
billy
biloba
bin
binari
binasch
bind
binde
bindei
bindel
bindell
binga
bingen
bio
bioeugg
biografi
biografia
biografico
biografie
biolo
biologia
bionda
biondelli
bioraria
biot
biott
bip
bira
birbant
birbanti
birbon
birifisi
birmania
birmensdorf
birr
birra
bis
bisaccia
bisceglie
bisch
bischofszell
biscott
bisest
bisi
bisio
bislo
bismarck
biso
bisogn
bisogna
biss
bissa
bissau
bisson
bit
bitcoin
bitonto
bitt
biu
biugrafi
biugrafia
bivio
bizanti
bizantin
bizo
bjorn
bl
bla
black
blair
blaise
blanc
blanca
blansko
blason
ble
blega
bleggio
blegh
blica
blicaa
blicada
blicasiu
blich
bliga
blingen
blo
bloca
blocca
bloccaa
blocch
blocco
bloch
bloeu
blog
blogger
blood
blu
bludenz
blue
blues
bn
bo
boa
board
bob
boba
bobbi
bobby
bobi
bobo
boca
bocca
boccaccio
boccasc
bocchetta
boccoli
bocconi
bodensee
bodenseekreis
boe
boemia
boeu
boeugg
boeugna
boffa
boffalora
bogen
boi
bois
boiss
bojon
bol
bolaa
boleslav
bolivia
boll
bolla
bollaa
bolle
bolo
bologna
bolognes
bolognese
bolsonaro
bolus
bolzan
bolzano
bomb
bomba
bombardament
bombardier
bombe
bompiani
bon
bona
bonapart
bond
bonda
bone
boni
bonifacio
bonino
bonn
bonna
bonnet
bonneville
bono
bonomi
bonta
bonus
bonvesin
bonvexin
book
books
boolean
boom
boot
bor
bora
borbanee
borbon
bord
bordeaux
border
bore
borg
borgh
borghetto
borghi
borgo
borgogna
borineri
boris
borla
borlaa
borlad
borlada
borlen
borli
borlo
bormi
bormida
born
bornagh
bornm
boromee
boromir
borri
borromee
borromeo
borsa
bortol
bosc
bosca
bosch
boschi
bosco
boscon
bosin
bosinad
bosnia
boss
bossi
boston
bot
bota
botanica
botanical
botnet
boton
botswana
bott
botta
bottom
botton
bouches
boudry
boulogne
bourg
bourgoin
bovis
bovisa
bow
box
boy
boyle
boys
bozen
br
bra
brabant
brac
bracchi
bracciano
bracken
bradley
braga
bragg
bram
brama
brambilla
bran
branca
brancaa
brancada
branch
brand
brandebu
brani
brano
brao
bras
brasc
brasca
brasil
brasile
brasileira
brasilia
brasilian
brasiliana
brass
brassens
brassica
bratislava
brav
brava
bravo
bravuogn
brazi
bre
break
brebbia
breda
bregaja
bregajott
bregenz
bregh
bregn
breil
breisgau
brema
bremba
brembana
bremgarten
bren
brencia
brenn
brenner
brenta
brera
bresa
brescia
bresciano
bress
bressa
bressan
bressana
bresse
brest
bretagna
breton
bretun
breuleux
brev
breva
breve
breviaa
breviad
breweries
brewery
bri
bria
brian
brianc
brianza
brianzo
brianzoeu
brianzoeui
brianzoeula
brica
bricch
brich
bridge
brienz
brig
briga
brignole
brignoles
bril
brina
brindisi
brio
brion
bris
brisa
brisbane
brisighella
brissagh
bristol
brita
britain
britanega
britannega
britannegh
britannia
britannica
britannich
british
brivi
brn
brno
brnz
bro
brocch
broch
brod
broeud
broeuj
brolo
brombert
bronz
brooklyn
bros
brot
brothers
brovet
brown
browser
broye
bru
bruce
brugg
brughee
brugn
brun
bruna
brunate
brunei
bruno
brunswick
brunta
brus
brusa
brusaa
brusada
brut
bruta
brute
brutt
bruxelles
bruzzan
bs
bu
buba
bubikon
buca
bucarest
bucasc
buccinasch
buch
bucheggberg
buchs
budapest
buddha
buddhesim
buddhism
buddhista
bude
budrio
bue
buenos
bufa
buffer
bufo
bug
bugey
buglion
buglione
bui
buidura
building
buio
buis
buj
bujon
bul
bule
bulgaria
bulgher
bulgheria
bull
bulogna
bulsan
bulugnes
bumba
bun
buna
bundesautobahn
bundesland
buon
buona
buonvicino
bur
bureau
burg
burgdorf
burgenland
burgh
burkina
burla
burlaa
burlotti
buro
burundi
bus
busan
busch
bush
business
busser
bussero
busseto
bussy
bust
bustanico
busti
busto
bustocch
but
buta
bute
buter
buti
butta
buttaa
butter
bux
buzzi
bw
by
bystrica
byte
bz
c
ca
caa
caamp
caas
cabarde
cabaret
caccia
cachi
cacia
cada
cadaver
cade
cadena
cadenazz
cadenn
cadenza
cadenzaa
cadenzament
cadet
cado
cadore
cadorna
cadrega
cae
cafe
cafetera
caffe
caga
cagion
cagliari
cagno
cai
caicun
cairaa
cairo
cairoli
cal
cala
calabria
calabro
calais
calanca
calca
calcar
calch
calche
calcina
calcio
calcol
calcola
calcolada
calcolator
calcolatris
calcu
calcula
cald
calda
caldera
calderara
calderoli
cale
calenda
calendari
calice
california
caligola
caliz
call
calling
calma
calmon
calo
calor
calosci
calsina
caltagirone
caltanissetta
caltignaga
calu
calvairaa
calvi
calvisio
calw
calze
cama
camaenidae
cambe
camber
cambi
cambia
cambiaa
cambiad
cambiada
cambiame
cambiament
cambien
cambio
cambogia
cambra
cambridge
came
camera
cameron
camerun
cami
camille
camillo
camin
camina
camion
camisa
cammin
camnagh
camo
camonega
camp
campa
campagn
campagna
campagne
campagnola
campana
campani
campania
campanil
campanin
campann
campanula
campbell
campe
campi
campidano
campiglia
campion
campiona
campionaa
campionad
campiu
campiun
campiuna
campiunaa
campo
campobasso
campolongo
campora
campus
camus
can
cana
canada
canade
canadensis
canades
canadesa
canai
canaj
canaja
canaje
canal
canale
canaves
canavese
cancello
cancher
cand
candela
candia
candida
candidaa
candidad
candidada
candidato
candidatura
candido
cane
canegraa
cani
canis
canna
cannes
cannon
cano
canoeubi
canon
canonegh
canosa
canossa
canossi
canso
canson
cansu
cansun
cant
canta
cantaa
cantada
cantalupo
cantant
cantanta
cantar
cantara
cantare
cantautor
cantautur
cantava
cante
cantell
canten
canterbury
canti
cantier
cantina
canto
canton
cantonal
cantone
cantor
cantu
cantun
canu
canvas
canz
canzo
canzon
canzone
canzoni
canzu
canzun
cao
caosa
caosada
cap
capa
capacita
capaz
capazz
cape
capel
capela
capell
capella
capello
capendu
capeta
capi
capiagh
capii
capiss
capissen
capita
capitaa
capitaal
capitaj
capital
capitala
capitalism
capitan
capitana
capitani
capitano
capitel
capitol
capitolo
caplo
caploeugh
capo
capoligna
capolinia
capolo
capopiev
capp
cappell
cappella
cappello
capploeugh
capra
capranica
caprio
capu
capua
capuli
car
cara
caraa
caracas
caragna
caraib
caraibica
carara
carater
carateri
carateristega
carateristege
carateristegh
carateristeghe
carateristich
carateristigh
carateriza
caraterizad
caratter
caratteri
caratteristega
caratteristegh
caratteristica
caratteristich
caratteristiche
caratteristigh
caratterizza
caratterizzaa
caratterizzada
caratterizzen
caravaggio
carbo
carbon
carbona
carbonaa
carbonara
carbone
carboni
carbonia
carcano
carcassonne
carchen
card
cardan
cardenal
cardina
cardinaal
cardinai
cardinal
cardinale
cardinalita
carducci
care
carea
carega
caregh
carensgia
carenza
carera
caresti
carestia
carevasg
carga
cargo
cari
carica
carie
cariera
carimaa
carin
cario
caristia
carita
carl
carla
carles
carlo
carloman
carlos
carlu
carmagnola
carmelo
carmen
carmina
carn
carna
carnaa
carnagh
carnaval
carnea
carnevaa
carneval
carnico
carnu
caro
carolina
carona
caronn
caronte
carpe
carpentras
carpi
carpian
carpineto
carr
carrara
carre
carrej
carrell
carrera
carriera
carro
carrozz
carrozza
carscian
carsi
cart
carta
cartasgin
cartasgines
carte
cartej
cartell
carter
cartesia
cartocc
cartoccia
cartolina
carugaa
carvalho
cary
caryophyllaceae
cas
casa
casaa
casal
casale
casalecchio
casalett
casaletto
casali
casalin
casalnuovo
casano
casanova
casapound
casca
cascada
cascia
casciaa
casciad
casciador
casciano
cascina
case
casell
caselle
caserta
cases
casey
cash
casi
caslin
caso
casola
casole
cason
casoraa
casoria
cass
cassa
cassagh
cassan
cassano
casse
casseta
cassett
cassetta
cassin
cassina
cassine
cassini
cassinn
cassino
cassius
casso
cast
casta
castagnole
castan
caste
castegn
castegna
castei
casteja
castel
castelao
castelfranco
castell
castellammare
castellamonte
castellana
castellane
castellanus
castellanza
castellazzo
castellett
castelletto
castelli
castello
castelluccio
castelnaudary
castelno
castelnoeuv
castelnovo
castelnuovo
castelvecchio
casti
castiga
castigar
castigava
castiglion
castiglione
castillon
castion
castiu
castiun
castle
casto
castoldi
castor
castries
castro
castrum
casual
casusu
cat
cata
cataa
catad
catala
catalan
catalana
catalo
catalogna
catalogue
catalugna
catalunya
catania
catanzaro
catarina
catedra
catedral
categori
categoria
categorie
categories
categorij
category
categuri
categuria
catena
caterina
cathedral
catherine
catholic
cati
catio
cativ
cativa
cato
catolega
catolegh
catolica
catolicesim
catoliga
catta
cattaa
cattaneo
cattedral
cattiv
catto
cattolega
cattolegh
cattolica
cattura
catu
cau
caus
causa
cause
cauza
cav
cava
cavaa
cavagna
cavai
cavaj
cavajer
caval
cavalie
cavalier
cavall
cavallasca
cavalleria
cavallo
cavargna
cave
cavei
cavenagh
caver
cavian
cavii
cavita
cavitazio
cavitazion
cavo
cavour
cavra
cavre
cavrett
cavria
cavriasca
cazis
cazzuu
cb
cbs
cc
cca
cch
cchin
ccia
cco
ccol
ccola
ccre
cd
cdot
cdots
ce
cea
ceca
cecch
cecco
cech
cechia
cecilia
cecina
cecoslovacch
cecoslovacchia
ced
cedi
cedu
ceduu
cee
cei
cej
cel
celano
cele
celebra
celebraa
celentano
celenza
celer
celerina
celest
cell
cella
celle
cellul
cellula
cellular
cellulara
cellule
celosia
cels
celsius
celta
celtega
celtegh
celtic
celtich
celu
cen
cena
cenni
cens
censiment
censura
census
cent
centar
centauri
cente
center
centerdestra
centimeter
cento
centovalli
centra
centraal
centrai
central
centrala
centrale
centre
centri
centrista
centro
centrodestra
centru
centu
century
ceo
cepa
ceppa
ceppaa
cer
cera
ceraa
ceravall
cerca
cercaa
cercava
cerchen
cerchio
cerea
cereai
ceres
ceresi
cerignola
cerimonia
cernusch
cerr
cerreto
cerri
cerro
cert
certa
certaldo
certe
certi
certo
certosa
certu
cerusia
cerv
cervell
cervi
cervia
cervo
ces
cesa
cesan
cesano
cesar
cesare
cesarea
cesareo
cesena
ceser
cesi
cess
cession
cet
ceti
ceva
cevi
cezi
cf
cfc
cfg
cfr
cgd
ch
cha
chalaronne
challant
cham
chambe
chambre
chamonix
champagne
champions
champsaur
champvent
chamues
chan
chance
chanf
chang
channel
chansons
chant
chanta
chante
chapelle
chapter
chardonney
charente
charkiv
charles
charlie
charlieu
charlotte
charopidae
chat
chaux
chavannes
chavornay
che
cheb
check
checklist
checktype
cheest
chef
chei
chej
chel
chela
chele
chell
chella
chelsea
chemnitz
chen
chenopodium
cher
cherson
cherubin
cherubini
ches
chess
chesschi
chest
chesta
cheste
chesti
chesto
chi
chia
chiana
chianti
chiara
chiaravalle
chiavari
chiavenna
chiavennaschi
chicago
chichinsci
chico
chie
chiei
chiel
chieri
chiesa
chiese
chieti
chigno
chignoeu
chihuahua
chii
chiist
chij
chil
chila
children
chile
chili
chilo
chilometer
chilometri
chimega
chimegh
chimeghcateguria
chimica
chimich
chimiga
chimigh
china
chine
chines
chinese
chinig
chinsci
chio
chioggia
chip
chissessi
chitarra
chiunque
chiusa
chiusi
chocolat
chod
chomutov
chou
chris
christ
christian
christiane
christmas
christoph
christophe
christopher
chrudim
chrysanthemum
chstadt
chur
church
ci
cia
ciaa
ciad
ciada
ciama
ciamaa
ciamad
ciamada
ciamade
ciamads
ciamava
ciamaven
ciame
ciamen
ciami
ciamo
ciampi
cian
cianza
ciao
ciapa
ciapaa
ciapad
ciapada
ciapar
ciapara
ciapat
ciapava
ciape
ciapen
ciappa
ciappaa
ciappada
ciappen
ciar
ciara
ciarament
ciare
ciarella
ciari
ciaschedu
ciaschedun
ciascheduna
ciass
ciav
ciava
ciavena
ciavenna
ciavennasch
ciavin
cicca
cicin
cicinin
cicli
ciclista
ciclo
ciclon
cid
cida
cidi
cie
ciel
cielo
ciet
ciexa
ciexe
cifer
cifra
cifrari
cii
cije
cil
cile
cilen
cilento
cili
cilindrich
cim
cima
cime
ciment
cimiteri
cimitero
cin
cina
cincent
cinch
cindy
cine
cinelli
cinema
cines
cinesa
cinese
cinisell
cinq
cinqu
cinquant
cinquanta
cinque
cinto
cintura
cio
ciod
ciods
cioe
ciop
ciopa
ciopp
cioppa
cioppada
ciove
cipar
ciper
cipr
cipre
cipri
cipro
cipru
circ
circa
circar
circol
circola
circolanta
circolar
circolara
circolazio
circolazion
circonda
circondada
circondare
circondari
circondaria
circondario
circoscrizion
circu
circui
circuit
circuitt
circul
circumsalernitana
circumvesuviana
circuncisiu
circundari
circus
circuscrisiu
cirillegh
ciro
cirri
cirro
cirrocumulus
cirrostratus
cirrus
cis
cisalpina
cislagh
cislian
cisterna
cit
cita
citaa
citad
citada
citadi
citadin
citadina
citadinanza
citation
citazion
citazione
citazioni
citrus
citta
cittaa
cittadella
cittadin
cittadina
cittadinanza
cittadino
city
citylink
ciu
ciue
cius
civ
civaa
civega
civi
civica
civich
cividale
civij
civil
civila
civile
civilization
civilta
civita
civitanova
civitella
cizuli
cja
cjama
cjamaa
cjamada
cju
ck
cke
cken
cl
cla
claim
claims
clan
clandestin
clandestina
clar
clara
clarinet
clark
clarke
clas
clash
clasifica
clasificasiu
class
classa
classe
classega
classegh
classic
classica
classich
classico
classifega
classifegaa
classifegad
classifegada
classifegazion
classifegazzion
classifica
classificaa
classificada
classificazion
claude
claudi
claudia
claudio
clav
clay
cle
clea
clear
clematis
clemens
clement
clemente
clementina
cleo
clermont
cles
cli
client
clima
climatich
clinica
clinton
clitegh
clitunno
clivia
clo
clon
clorur
close
cloud
clouds
clu
club
cm
cme
cn
cnica
cnich
co
coa
coalizion
coalizione
coalizzion
coast
coat
cobbi
cobbia
cobia
cobie
cobra
coburg
coca
cocteau
cod
coda
code
codera
codes
codex
codice
codici
codogn
coe
coeffice
coefficent
coefficient
coerenza
coeugh
coeur
coeus
cofa
cogne
cogno
cognomm
cognoss
cognossen
cognossenza
cognosser
cognossu
cognossud
cognossuda
cognossuu
cognosuu
cognu
cognusi
cohen
coi
coincidenza
coins
coira
coj
cojo
cojon
col
cola
colaborasiu
cold
colda
cole
colega
colegame
colegh
colesiu
coli
colin
coll
colla
collabora
collaboraa
collaborazion
collana
colle
collection
collega
collegada
collegament
collegamento
college
collegi
collegiada
collegio
collegno
collezionedellemiglioriopere
colli
collina
colline
collins
collo
collonges
colo
coloca
cologn
cologna
colomban
colombano
colombe
colombia
colombier
colombo
colon
colone
colonia
colonial
colonie
colonn
colonna
color
colora
coloraa
colorada
colorado
colore
colors
colp
colpa
colpevol
colpi
colpid
colpida
colpii
colpiss
coltiva
coltivada
coltivazio
coltivazion
coltur
coltura
colturai
coltural
colture
colu
columbia
columbus
colzon
com
coma
comacchio
comand
comanda
comandaa
comandada
comandant
comarca
comasca
comasch
comasina
comba
combat
combater
combati
combatime
combatt
combattiment
combattuda
combattuu
combe
combina
combinazion
combremont
combustion
come
comedia
comegh
comelico
comenc
comensa
comenza
comenzaa
comerc
comerci
comercia
comerciai
comercial
comes
cometa
comete
comich
comincia
cominciaa
comissari
comission
comitaa
comitad
comitato
comm
comme
commedia
comment
commercc
commercia
commercial
commesti
commissari
commissario
commission
committee
commodore
common
commons
commonwealth
commune
communes
como
comonque
compa
compagn
compagna
compagnaa
compagne
compagni
compagnia
compagnij
company
compar
comparazzion
compari
compariss
comparsa
compartii
compass
compassion
compati
compatibel
compatibil
compatibilita
compensa
compensazio
competenz
competenza
competenze
competizion
competizzion
compi
compilation
compit
compiuter
comple
complement
compless
complessa
complessita
complessiva
complet
completa
completaa
completada
completame
completament
complete
complett
complex
complicada
compo
compone
component
componenta
componid
componiment
componnuda
componud
comporta
comportame
comportament
composada
composidor
compositae
compositor
composizion
composizzion
compost
composta
compra
compraa
compre
comprend
comprendeva
compres
compresa
compression
compromess
compton
compu
computer
comte
comu
comun
comuna
comunai
comunal
comunala
comunale
comune
comunemente
comuni
comunica
comunicazion
comunicazzion
comunism
comunismo
comunista
comunisti
comunita
comunitaa
comunque
con
conca
concat
conce
concentra
concentrament
concentrazion
concepcio
concept
concert
concerto
concerts
concession
concet
concett
concezion
concili
concise
conclusion
conco
concordia
concorrent
concorrenza
concors
cond
condana
condanaa
condanad
condanna
conde
conden
condena
condensa
condiment
condizio
condizion
condizionada
condizional
condizzion
condizzional
condo
condomini
condotier
condottier
conduttivita
conduttor
conduzion
conegliano
confalonieri
confederasiu
confederazion
confederazzion
conference
conferenza
conferma
confermaa
confermad
confermada
confession
confi
config
configurazion
configurazione
confin
confina
confinaa
confinava
conflit
conflitt
conflu
confluenza
confo
conforma
confort
confro
confront
confronta
confusion
cong
congiontiv
congiu
congiuntiv
congiura
congo
congregazion
congress
congresso
coni
coniogazzion
coniugazion
coniugazzion
conliga
conligaa
conligad
conligada
conligament
conligava
conlighen
connai
connecticut
connession
cono
conosce
conoscenza
conoss
conossu
conossud
conossuda
conossuu
conqui
conquist
conquista
conquistaa
conquistad
conquistada
conquistar
conrelade
consacrada
conscie
conse
consegna
consegnaa
consegue
conseguenz
conseguenza
conseguenze
consej
consejer
consens
conserva
conservaa
conservad
conservada
conservativ
conservator
conservatori
conservatorism
conservazion
conservazzion
conserven
consi
considera
consideraa
considerad
considerada
considerade
considerazio
considerazion
consideren
consiglio
consijee
consili
consilia
consiliee
consist
conso
consol
consola
consolarse
consolasiu
consolassion
consolazio
consolazion
console
consolida
consona
consonant
consorzi
constantine
consu
consulta
consultazion
consultiv
consuma
consumaa
consumm
cont
conta
contad
contadin
contat
contatt
conte
contea
contegn
contegni
contegnu
contegnud
contegnuu
contemporanea
content
contenta
contes
contessa
contest
conthey
conti
continent
continental
contini
continov
continua
continuazion
continuita
continuum
continuv
conto
contorna
contr
contra
contrad
contrada
contrade
contrare
contrari
contraria
contrast
contrasta
contrat
contratt
contre
contribui
contribuu
contribuzion
contro
control
controla
controlaa
controll
controlla
controllada
controllado
controller
controversia
conve
convegn
convent
convenzion
convergenza
conversion
converti
convertii
convetti
convettiv
convettiva
convezion
convincc
convint
convoeuj
conza
coo
cook
cooper
cooperi
coord
coordinad
cop
copa
copad
cope
copenaghen
copenhagen
copertina
copi
copia
copp
coppa
coppaa
coppia
copy
cor
cora
coragg
coraggio
coral
corb
corbetta
corbie
corcelles
cord
corda
corde
cordialmente
core
corea
corean
coreana
coreca
corelaa
corelad
corelade
coren
corespo
corespond
coresponde
cori
coridu
corigliano
corio
coriolis
corleto
corman
corn
corna
cornaa
cornean
corneli
cornelia
cornelius
corni
cornice
corno
cornolo
cornus
coro
coron
corona
coronavirus
corp
corpo
corporation
corps
corpus
corr
corrado
corre
correla
correlaa
correlad
correlada
correlade
corren
corrent
correnta
correr
correspond
correzio
correzion
corrier
corriere
corrisponden
corrispondenza
corrud
corruzion
cors
corsa
corse
corsega
corsia
corsica
corsie
corsier
corso
cort
corte
cortell
corten
cortes
corti
cortina
cortona
coru
corun
corv
corvara
cos
cosa
cosci
coscienza
cose
cosenza
cosi
cosma
coss
cossa
cosse
cossi
cossiga
cost
costa
costansa
costant
costanta
costantin
costantino
costantinopel
costantinopoli
costanz
costanza
costanzo
costava
coste
costellazion
costeto
costi
costituida
costituiss
costituzion
costituzionai
costituzional
costituzionala
costituzione
costituzzion
costo
costos
costringiuu
costru
costrui
costruida
costruii
costruzio
costruzion
costruzzion
costu
coton
cotta
cottura
cotyledon
couiza
counter
country
county
courmayeur
court
cov
cova
cover
covert
covertura
covid
cozzi
cpsq
cpu
cr
cra
cracovia
craina
crapa
crash
crassulaceae
crassus
crave
cravo
craxi
crazy
cre
crea
creaa
cread
creada
create
creatur
creazion
creazzion
cred
crede
creden
credenza
credenze
credet
credeva
credi
credii
credit
credu
cree
crema
cremaliera
cremasc
cremasca
cremasch
cremasco
cremo
cremona
cremones
cremonese
cremu
cremuna
cremune
crenna
creo
crescenzagh
crescita
crespi
cress
cressen
cresser
cressier
cressime
cressiment
cressu
cressuda
cressuu
crest
cresta
creta
creul
cri
cria
criaa
crimea
crimeja
crimen
criminai
criminal
cripta
crisi
crispi
crist
crista
cristaj
cristall
cristia
cristian
cristiana
cristiane
cristianesim
cristiann
cristiano
cristina
cristo
cristofen
cristoforo
critega
critegh
criteri
critica
criticaa
critich
crittografia
crivelli
crixus
cro
croa
croatt
croazia
croce
crocus
croda
crodada
croix
crompa
crompaa
crompada
cronaca
cronistoria
cronologia
cronquist
cros
cross
crosta
crotone
crox
croxada
cru
cruat
cruazia
crucis
crud
crumpa
crus
crussi
cruz
cs
csc
cse
csi
css
csstext
ct
cthulhu
ctor
cu
cua
cuarcia
cuba
cucina
cudo
cudrefin
cue
cuggino
cugiar
cugnasch
cugno
cugnuss
cugnusse
cugnussii
cugnussu
cugnusu
cui
cuira
cuj
cujo
cul
cula
cule
culega
culegament
culessio
culi
culina
culo
culonia
culp
culpi
cult
cultia
cultivar
culto
cultu
cultura
cultural
culturali
culture
culu
culumbia
culur
culura
culusses
cum
cuma
cumand
cumanda
cumandaa
cumandame
cumandant
cumasch
cumbat
cumbu
cume
cumedia
cumencia
cumi
cumincia
cuminciaa
cumpa
cumpagn
cumpagna
cumpagnia
cumparii
cumpassion
cumpii
cumpiu
cumple
cumpless
cumplessa
cumpleta
cumpletament
cumplicaa
cumpo
cumpost
cumprenda
cumprensiu
cumpuni
cumpurtame
cumpusante
cumpusiziun
cumpuzisiu
cumu
cumul
cumulonemb
cumulonimbus
cumulus
cumun
cumunicasiu
cumunita
cun
cuna
cunce
cuncert
cuncili
cunclu
cundana
cundanaa
cundisiu
cundiziunal
cuneo
cunferensa
cunferma
cunfi
cunfide
cunfin
cunfina
cunflu
cunfrunt
cungiu
cungjuunt
cuni
cuniu
cuno
cunqui
cunquista
cunquistaa
cunsacra
cunsegnaa
cunseguenza
cunsej
cunserva
cunservaa
cunsi
cunsidera
cunsideraa
cunsiderada
cunsili
cunsu
cunsula
cunsunant
cunsunanta
cunt
cunta
cuntaa
cuntada
cuntat
cuntava
cunte
cuntea
cuntegn
cuntegnu
cunten
cuntent
cunter
cuntest
cunti
cuntine
cuntinent
cuntint
cuntinuazziun
cuntra
cuntrari
cuntribu
cunusi
cunuss
cunussu
cunusu
cunvent
cuore
cup
cupa
cupaa
cupola
cur
cura
curaa
curad
curagg
curatore
cure
curea
curelaa
curent
curi
curia
curinz
curios
curiosita
curiusita
curo
curona
curouna
current
curs
cursa
curt
curta
curte
curti
curtis
curu
curuna
curv
curva
cus
cusa
cusagh
cusan
cusano
cusce
cusi
cusin
cusina
cuss
cussi
cussita
cust
custaa
custanta
custitu
custru
custrusiu
custrutur
custu
cut
cutra
cuu
cuurdinade
cuventa
cve
cymbiformis
cz
czech
cœubli
d
da
daa
dacc
dachau
dacia
dad
dada
dafrica
daga
daggh
dagh
daghi
dagli
dagn
dai
dairagh
dait
daj
dakota
dal
dala
dale
dalila
dall
dalla
dalle
dalmazia
dam
dama
damasch
dame
damian
damiano
damm
damned
dan
dance
dancing
dand
dane
danee
danegia
danegiaa
daner
danes
danesa
dangquotidiani
daniel
daniela
daniele
danimarca
dann
danneggia
danny
dans
dant
dante
danu
danubi
danubio
danza
dao
dapress
dar
dara
daraa
dard
dare
daree
darer
darera
darf
darghe
dari
daria
dario
dark
darkgrey
darmstadt
darrer
darrera
darwin
das
dasi
daspo
dass
dat
data
database
dataset
datavalue
date
dateformat
dateo
dati
dato
datu
datura
dau
dava
davant
davanti
dave
daven
david
davide
davis
davos
dawn
day
days
dazzi
db
dc
dchen
dco
dd
ddr
de
dea
dead
death
debass
debian
debit
debol
debole
debon
debu
debug
debule
debussy
dec
deca
decadenza
decanad
decc
decebal
december
dech
deci
deciara
deciaraa
deciarad
deciarada
deciarazion
deciarazzion
decibel
decid
deciden
decidi
decidid
decidu
deciduu
decima
decimal
decio
decis
decision
declin
deco
decoraa
decorazion
decre
decret
decreto
decrett
dede
dedent
dedenter
dedes
dedesnoeuv
dedica
dedicaa
dedicad
dedicada
dedre
dedree
dedu
dee
deejay
deent
deenta
deentara
deep
deerf
defa
defat
defatt
default
defend
defensa
defensor
defesa
defini
definid
definida
definii
definisiu
definiss
definitiv
definitiva
definitivament
definizio
definizion
definiziun
definizzion
definizziu
defoeura
dega
degaa
deggendorf
degh
degia
degli
degn
dego
degree
dei
deis
dej
deja
dek
del
dela
delaware
dele
delebi
delega
delegaa
delimita
dell
della
delle
dellino
dello
delo
delongg
delonsg
delosperma
dels
delta
deluxe
dem
deme
demo
democra
democratega
democrategh
democratica
democratich
democratici
democratico
democrazia
democrazzia
demogra
demografega
demografegh
demografia
demografic
demografica
demon
demostraa
demucratica
demugrafia
demugrafica
demustra
demustrazziu
den
dena
denanz
denanzi
denedaa
denethor
denial
denis
denn
dennis
denominasiu
denominazion
denominazzion
dens
densa
densita
densitaa
dent
denta
denter
dentro
denver
deo
departament
departiment
depend
dependent
deperle
deperlee
deperlo
deperlor
deperlu
depertu
depertutt
depo
depos
deposet
deposit
deposizion
depression
depretis
depu
depuis
depus
deputa
deputaa
deputad
der
dera
dere
derghen
deri
deria
deriva
derivaa
derivad
derivada
derivazion
deriven
deron
derset
dersett
derv
derva
derve
dervi
dervid
dervida
dervii
des
desa
desca
descac
descarega
descompari
desconfita
descor
descors
descovert
descoverta
descovri
descovriss
descovrissen
descri
descrisiu
descriv
descrivu
descrivuda
descrivuu
descrizion
descrizzion
desdo
desdot
desdott
dese
desember
desena
desenni
desenzan
desert
desf
desfa
desgia
desi
deside
desideri
desiderio
design
designa
desinenza
desktop
deslengua
desliga
desligaa
deslontana
desme
desmentega
desmettuu
desmetu
desmissia
desno
desnoeuv
despe
despera
desperada
desperlu
despess
despo
despoeu
despos
despressi
despœ
despœu
desquatta
dess
desse
desseda
dessedaa
dessous
dest
desta
destaca
destacca
destaccaa
destin
destina
destinaa
destinazion
destino
destra
destru
destruga
destrugaa
destu
desturba
desu
desuta
desutta
desvilu
desvilup
desvilupa
desvilupaa
desvilupad
desvilupada
desvilupp
desviluppa
desviluppaa
desviluppada
desvot
det
deta
detaj
dete
detective
determina
determinaa
determinada
determinant
determinativ
determinazion
deto
detroit
dettali
detto
deu
deus
deutsche
deutschland
deux
dev
deva
devant
deve
devegn
devegni
devegnu
devegnuda
devegnuu
deven
deventa
deventaa
deventad
deventada
deventen
devers
devia
dex
dexember
dez
deza
deze
dezember
dezidud
dhabi
dharma
di
dia
diaa
diacon
diagnosi
diagona
diagonal
diagrama
diagramma
diale
dialegh
dialet
dialetal
dialett
dialettal
dialettale
dialetti
dialetto
dialettologia
diameter
diametro
diamond
diana
diano
diari
diaul
diavol
diavul
diaz
dic
dica
dicc
dice
dicember
dicembre
dich
dicidi
dictionary
dictionnaire
did
dida
didier
didinco
die
diego
dielsdorf
dien
dienta
dies
diesel
dieta
dietikon
dietro
difa
difati
dife
difend
difensor
difere
difereent
diferensia
diferent
diferenta
diferente
diferents
diferenz
diferenza
diferenze
diferenzia
difesa
different
differenta
differenz
differenza
diffi
difficil
difficolta
diffrazion
diffusion
difi
dificil
difu
difundi
difusion
difuziu
diga
diggo
digh
dighe
dighi
digit
digita
digitai
digital
digne
dignita
digo
digue
dii
diis
diit
dij
dije
dil
dillingen
dimension
dimensione
dimensiu
dimensiun
dimet
dimett
diminu
diminui
dimission
dimostra
dimostraa
dimustra
din
dina
dinamica
dinastia
dingolfing
dino
dins
dint
dio
diocesi
dioclezian
dioecesis
diois
dipartime
dipartiment
dipe
dipend
dipende
dipenden
dipendent
dipendenza
dipint
diplo
diploma
diplomaa
diplomatega
diplomategh
diplomatich
diplomazia
dir
dira
diramazion
diramazzion
dire
directory
diresio
diresiu
diret
direta
diretame
diretament
diretor
dirett
diretta
direttame
direttament
direttor
diretu
diretur
direzio
direzion
direziun
direzzion
diri
dirigent
dirigi
dirit
diritt
diritti
diritto
dirizz
diro
dis
disa
disaster
disc
disce
discendent
discendenta
discesa
disch
dischett
dischi
disciplina
disco
discografega
discografia
discors
discotech
discovery
discreta
discrii
discu
discugrafia
discugrafica
discussion
dise
disegn
disegna
disegnaa
disegnada
disen
disend
disentis
diseva
diseven
disgrazia
disi
disk
disna
disney
diso
dispari
dispe
dispera
disperada
disperdida
dispersion
dispet
dispiase
dispiaze
display
dispo
disponi
disponibel
disponibil
disponibilita
dispositi
dispositiv
disposizion
dispressi
dispuni
dispuzisiu
diss
disse
dissegn
dissepuj
dissident
dissipe
dista
distansa
distant
distanza
disti
distinsiu
distint
distinzion
distinziu
distre
distrecc
distret
distrett
distribu
distribui
distribusiu
distribuzion
district
distro
distru
distruzion
disu
dit
dita
ditions
dito
ditt
ditta
dittadura
ditto
dittongh
diu
dius
div
diva
dive
divegnu
divegnuu
diventa
diventaa
diventad
diventada
diventen
divergenza
divers
diversa
diversame
diversament
diverse
diversi
diverti
divi
divid
divide
dividen
dividi
dividu
dividuda
dividuu
divin
divina
divinita
divinitaa
divis
divisa
divisio
division
divisiu
divisiun
diviziu
divozion
dix
dixe
diz
dize
dizi
dizionari
dizionario
diziunari
dizzionari
dj
djou
dl
dla
dle
dm
dms
dmslat
dmslong
dna
dnans
dnanz
dnipro
dns
do
dobbi
dobbia
dobi
dobia
doblies
doc
doca
docent
docklands
docu
document
documentaa
documenti
documents
dodes
doe
dog
dogana
doi
dol
dolar
dolc
dolce
dollar
dolly
dolo
dolor
dolz
dolza
dom
doma
domand
domanda
domandaa
domandad
domandar
domande
domanden
domani
domat
domaz
dome
domenega
domenegh
domenica
domenico
domestich
domina
dominaa
dominazion
domingo
domini
dominicana
domizian
domm
dommartin
domodossola
dompierre
domus
don
dona
donaa
donald
donare
donaria
donat
donato
donatz
donau
donazion
donbass
donca
donch
done
donec
doneck
dong
dongh
doni
donn
donna
donne
donque
dop
dope
dopera
doperaa
doperabel
doperad
doperada
doperade
doperava
doperaven
doperen
dopo
dopoguerra
dopp
doppi
doppia
dopra
dopraa
doprada
dopu
dor
dora
dore
dorf
dori
doria
dorma
dormi
dormie
dormiva
dortmund
dos
dose
doss
dossi
dot
dota
dotaa
dotazion
dotor
dotrina
dots
dottor
dottora
dottrina
douard
double
douglas
doux
dov
dova
dovana
dove
dover
doveva
dovra
dovraa
dovrad
dovrada
dovrar
dovud
dovuda
dovuu
down
download
dr
dra
dragh
draghi
dragon
draguignan
drama
dramatorgh
dramma
draz
dre
dream
dree
dreit
drena
drent
dresda
drezz
dri
dricc
drio
driss
drissa
drit
drita
dritta
drive
driver
driza
drizz
drizza
dro
droeuga
droga
droma
drome
dromi
dromira
dromire
dromisse
drova
drovaa
drovad
drovada
drovads
dru
drua
druaa
druada
druva
druvaa
druvada
dryopteris
ds
dsi
dss
dt
dte
dtirol
dtiroler
dtirules
dtr
du
dua
duari
dubbi
dubi
dublin
dubstep
duc
duca
ducaa
ducad
ducal
ducala
ducati
ducato
duce
duchessa
ducu
ducument
dudes
due
duegi
duet
dugnan
dui
dul
dulu
dulur
dulz
dulza
dum
duma
duman
dumanda
dumandaa
dume
dumi
dumina
duminasiu
dumini
dun
duna
dunca
dunque
duo
duomo
dupe
dupera
duperaa
dupi
dupra
dupraa
duprada
dupren
dur
dura
duraa
durada
durant
duranta
durban
duren
durium
durmi
durmire
dus
dusent
dutch
dutrina
dutu
dutur
duu
duve
duvu
duzi
dvd
dventa
dvento
dx
dy
dylan
dz
e
ea
early
earth
east
eau
eav
ebbasta
ebersberg
ebraich
ebraism
ebrei
ec
ecc
ecce
eccellenza
eccezion
ecclesia
ecco
ece
ecele
ecezion
ecezzion
ech
echallens
echo
eclav
ecli
eco
ecolo
ecologia
econo
economega
economegh
economi
economia
economica
economich
economista
ecuador
ecublens
ecunomich
ecunomiga
ecunumi
ecunumia
ed
eda
edagricole
eddie
ede
edgar
edicio
edicions
edifizi
edifizzi
edilizia
edisio
edisiu
edison
edit
edition
editor
editore
editori
editorial
editoriale
editors
editrice
editu
editur
edizio
edizion
edizione
edizioni
ediziun
edizzion
edmond
edmund
edoard
edoardo
edol
edolo
eds
edu
eduard
educazion
educazzion
edward
ee
eet
efe
efesit
efet
efetiva
efett
eff
effe
effett
effettiva
effettivament
efficienza
ega
ege
egee
egemonia
egg
egh
egi
egidio
egit
egitt
egizian
egn
egni
ego
egua
egual
eh
ei
eichsta
ein
einaudi
eine
einen
einer
einstein
eira
eis
eiva
ek
el
ela
elabora
elaborazion
elba
elbasan
ele
elea
electric
electro
electronic
elegg
eleggiuu
elegiu
elegiud
elegiuda
elegiuu
eleme
elemeent
element
elementa
elementar
elementara
elements
elena
elenca
elench
elesgiud
elesiu
elessiun
eletrega
eletrich
eletricita
eletriga
eletrigh
eletro
eletronega
eletronegh
eletronica
eletroniga
eletru
elettor
elettoral
elettorala
elettorale
elettrega
elettrica
elettrich
elettricita
elettrificaa
elettrificada
elettrificazion
elettriga
elettrigh
elettro
elettromotris
elettron
elettronega
elettronegh
elettronica
elettronich
elettrotreni
elettrotreno
eletur
eletura
eletural
eleva
elevaa
elevada
elezion
elezioni
eleziun
elezzion
elf
eli
elia
elicita
elii
elimina
eliminazion
elio
elisa
elisabetta
elizabeth
ell
ella
elle
elm
elo
elrond
els
elsa
else
elseif
elvis
em
emagna
email
emanuel
emanuele
eme
emendament
emergenza
emi
emigra
emigrazion
emili
emilia
emilian
emiliana
emiliano
emilio
emiraa
emisfe
emisfero
emissio
emission
emm
emma
emmanuel
emmendingen
emmental
emo
emoji
emozio
empara
emparenta
emperadu
empire
empirica
empoli
emporda
emporta
emptyset
ems
en
ena
enca
enciclopedia
enco
encode
encyclopedia
end
enda
ende
endei
endel
endela
enden
endena
endepende
endi
endo
endoche
endre
ene
energe
energi
energia
enerjia
enfant
enfants
enfi
enfiuresce
engadina
engelberg
engl
england
english
enh
eni
enigma
enko
enn
enna
eno
enrich
enrico
enrigh
ensa
ense
ensema
ensemble
enseri
ensi
enso
ent
enta
ente
enter
entertainment
entita
entitaa
entity
entityid
entlebuch
entra
entraa
entrad
entrada
entre
entremont
entren
entro
entry
entu
enve
envers
enz
enza
enzaa
enzi
enzima
enzkreis
enzo
eo
ep
ependes
epide
epidemia
epigraf
epigrama
episcupa
episo
episode
episodi
episodio
epitafi
epoca
epuca
equator
equatorial
equazio
equazion
equazzion
equazziu
equilibri
equivalent
equivalenta
equivalenza
er
era
eran
erba
erbe
ercolano
ercole
erding
ere
ered
erede
eredi
eredita
ereditaa
eren
erfurt
ergo
ergu
eri
eric
erik
eriophorum
eritrea
erlangen
erlenbach
ermafrudi
ermanno
ernesto
ernst
ero
eroe
eroi
eror
erotegh
erov
erro
error
errore
errori
errors
ers
ersilia
ersten
ert
eru
erun
eruzion
erzegovina
es
esa
esam
esch
eschenbach
esci
esclu
esclusiva
esco
escursion
ese
esecutiv
esecuzion
esegui
eseguii
esempe
esempi
esempio
esemplar
esensia
esercet
esercit
esercita
esercitaa
esercitada
esercizi
esercizzi
esi
esibizion
esigenz
esiist
esili
esiliaa
esin
esist
esista
esiste
esisten
esistent
esistenza
esisteva
eska
eske
esky
eso
esp
espan
espansio
espansion
espansiu
espe
esperanto
esperie
esperienza
esperime
esperiment
espert
esplora
esplosion
espo
esponent
esposito
esposizio
esposizion
espre
espress
espression
espressiu
espressiun
espri
esprimm
esprit
espulsion
esquadra
esquerra
ess
essa
essar
esse
essen
essend
essendo
essenza
essenzial
esser
essere
essertines
essi
esslingen
est
esta
estaa
estad
estat
estate
este
estelada
estend
estension
estensiu
estensiunalitaa
ester
estern
esterna
esterni
esterno
estero
estes
esti
estimo
estint
estinzion
estiv
estiva
eston
estonia
estra
estrazion
estre
estrem
estrema
estremament
estremita
estremm
eswatini
et
eta
etaa
etc
ete
eterna
ethnologue
etica
etichetta
etimologia
etimologico
etiopia
etnea
etneo
etnia
etnici
etnografia
etr
etru
etrusch
etti
ettore
eu
euclide
eufemia
euge
eugenio
eule
euler
eun
eup
eupen
eur
eurasia
eure
euro
eurocity
eurodance
europa
europe
europea
european
europee
europei
europeista
europeo
eurostar
eurupea
ev
eva
evan
evangel
evangelista
evans
eve
even
event
eventuale
ever
everything
evi
evic
evide
evident
evidenza
evita
evo
evolu
evolution
evoluzion
evoluzione
evoluzzion
evulu
evulusiu
ex
exclave
exempe
exists
exp
exploit
expo
express
external
extra
extraurbana
extremis
eyes
ez
eze
ezempla
ezi
eziste
eła
eło
f
fa
faa
fabbri
fabbrica
faber
fabi
fabio
fabiso
fabius
fabrega
fabri
fabriano
fabrica
fabricasiu
fabrizio
fac
facc
faccia
facciada
face
facebook
faceva
fach
facha
faci
facia
faciada
facil
facilita
facilme
facilment
facio
facolta
facto
factor
fad
fada
fade
fadi
fadia
fadiga
faentina
faenza
faga
fagh
fagnan
fagnano
fago
fagot
fai
faia
faid
faire
fait
faita
faite
faits
faj
fal
fala
falconara
falcone
fali
fall
falla
fallada
falliment
falo
fals
falsa
false
fam
fama
fame
famegli
fameglia
fameia
famej
fameja
fami
famicom
famigli
famiglia
famiglie
famija
famili
familia
familiar
familie
families
family
famm
famo
famos
famosa
famose
famu
famus
famusa
fan
fanciot
fanfani
fann
fano
fans
fant
fantasia
fantasma
fantastica
fantasy
fanteria
fao
far
fara
faramir
fare
farghe
fari
faria
farina
farini
farisee
farlo
farmacia
farmer
faro
faroe
farra
farse
fart
faruu
fas
fasa
fasc
fasci
fascia
fasciata
fascismo
fascista
fase
fasend
faseva
faseven
fasi
faso
fasoeu
fass
fassa
fassan
fasse
fassi
fassism
fassista
fast
fastidi
fat
fata
fate
fates
fati
fatiga
fato
fatt
fatta
fatti
fatto
fattor
fattorizzazion
fatu
fau
fauna
faure
fausto
fava
favan
favo
favor
favore
favorevol
favori
favorii
favorissen
favu
favur
fayette
fazeva
fazil
fazion
fazza
fb
fbi
fc
fdi
fdp
fe
fea
feat
febbraio
febra
febrar
febre
fech
fed
fede
fedee
fedel
fedelta
federa
federai
federaj
federal
federala
federale
federalism
federalismo
federalista
federazion
federazione
federazzion
federi
federich
federico
federigh
fee
feel
feet
fega
feiez
feldkirch
feli
felice
felicita
felin
felipe
felis
felix
feliz
fellini
feltre
fem
fema
femena
femini
feminil
feminin
femm
femminil
femna
femni
fen
fene
fenestra
feni
fenitiva
feno
fenomen
fenouillet
fer
fera
ferara
ferares
ferdinand
ferdinando
fere
feri
ferid
ferida
ferii
ferm
ferma
fermaa
fermad
fermada
fermade
fermata
fermate
fermen
fermentasiu
fermi
fermo
fern
ferna
fernando
fernsehserie
ferovi
ferr
ferra
ferrara
ferrari
ferrea
ferree
ferrera
ferret
ferri
ferro
ferrotramviaria
ferrovia
ferroviari
ferroviaria
ferroviario
ferrovie
ferrovienord
ferrovij
ferruccio
fers
fertilita
feruvia
feruvij
fes
fess
fesse
fest
festa
feste
festegia
festival
festivalbar
festivita
feu
feud
feudatari
feurs
feva
fever
fevre
fevree
fevrer
ff
ffa
ffd
fff
ffff
ffikon
ffs
fg
fi
fia
fiaa
fiad
fiamma
fianch
fiander
fiat
fiber
fibra
fic
fica
ficaria
ficc
fich
fiche
ficia
ficial
fico
fiction
fida
fidaa
fide
fidegh
fidenza
fidu
fiducia
fie
fier
fiera
fiesch
fieschi
fieu
fieui
fieul
fifa
figh
figi
figin
figli
figlio
figliœu
fign
figu
figur
figura
figure
fii
fil
fila
filame
filanda
file
filepath
filet
filg
fili
filip
filipes
filipinn
filipp
filippo
filisur
film
films
filmugrafia
filo
filobus
filogene
filon
filosof
filosofe
filosofia
fils
filter
filtra
filusufia
fin
fina
finai
final
finala
finale
finalment
finalmente
finanz
finanza
finanziaa
finanziament
finanziari
find
fine
finestra
fini
finid
finida
finie
finii
fininvest
finira
finire
finiro
finis
finisce
finiss
finissa
finisse
finissen
finissi
finiva
finlandes
finlandia
finn
finna
fino
fint
finta
fio
fioca
fioeu
fioeui
fioeul
fioeula
fioi
fiol
fioli
fiolin
fiolit
fiolitt
fior
fiora
fiorano
fiore
fiorella
fiorentin
fiorentina
fiorentino
fiorenza
fiorenzo
fiorescenza
fiori
fiorida
fir
fire
firefox
firense
firenz
firenze
firewall
firm
firma
firmaa
firmad
firmada
firme
first
fis
fisarmonega
fisc
fiscal
fischer
fiseg
fisega
fisegh
fisica
fisicament
fisich
fiss
fissa
fissaa
fit
fita
fite
fiu
fiul
fiuli
fiulin
fium
fiumalto
fiume
fiumicino
fiumm
fiur
fiura
fiure
fiuri
fiuridu
five
fivizzano
fiœl
fiœla
fiœu
fl
fla
flag
flags
flash
flat
flaut
flavio
fle
fleur
flexity
flirt
flo
floccus
floki
floppy
flor
flora
florac
flores
floresta
florian
florida
florrick
flota
flotta
flower
flowering
flowers
flu
fluid
fluss
fm
fn
fnestra
fnm
fo
fode
fodom
foeniculum
foeu
foeugh
foeuj
foeuja
foeura
foeurmen
foggia
foi
foie
fola
folball
folber
foligno
folk
folla
fom
fomna
fomne
fon
fond
fonda
fondaa
fondad
fondada
fondador
fondadu
fondame
fondament
fondamenta
fondamentai
fondamentaj
fondamental
fondasiu
fondator
fondazion
fondazione
fondazzion
fonden
fondi
fondo
fonds
fone
fonetega
fonetegh
fono
fonsg
font
fontaines
fontana
fontane
fonte
fonti
fontsize
fonzio
fonzion
fonziona
fonzioname
fonzionament
fonzionari
fonzionava
fonzionen
foo
food
football
foppon
for
fora
forall
forbes
forcalquier
force
forchheim
forcola
ford
fore
forel
forest
foresta
foreste
forestee
forester
forever
forgon
forlan
forlanini
forli
form
forma
formaa
formad
formada
formagg
formai
formaj
formal
formalment
formar
formasiu
format
formato
formazio
formazion
formazione
formazza
formazzion
forme
formen
forment
formenton
formi
formia
formol
formola
formula
forn
fornas
fornero
forni
fornid
fornida
fornidura
fornii
forniss
forno
foro
fors
forsa
forse
forsi
forst
forsythia
fort
forta
forte
fortement
fortezza
fortificazion
fortin
fortore
fortu
fortuna
fortunella
forum
forz
forza
forzad
forze
fos
fosch
fosfolipids
foss
fossa
fosse
fossi
fossil
fosso
foto
fotogra
fotografi
fotografia
foton
fotosintesi
fotu
found
foundation
four
fourr
fova
fox
fr
fra
fraa
frac
fraca
fracch
frach
fracisc
frade
fradee
fradei
fradej
fradel
fradelanza
fradell
fraenkel
fragaria
fragment
frame
framework
franc
franca
francavilla
france
francees
frances
francesa
francesc
francesca
francesch
francesco
francese
francesism
franch
franche
franches
franchi
francia
franciacu
francis
francisco
franco
franconia
frank
franklin
fransa
franse
franz
franza
franzes
franzesa
franzesch
fras
frasch
frasio
frasiu
frat
frate
fratelli
fratello
frati
fratta
fratte
frattemp
frau
frauenfeld
frazio
frazion
fraziu
fraziun
frazzion
frazziun
fre
freca
frecass
frecc
frecce
frecciabianca
frecciargento
frecciarossa
fred
frede
fredej
fredel
fredell
free
freedom
fregg
freggia
fregia
fregue
freguenz
freguenza
freising
frema
french
freque
frequent
frequenta
frequentaa
frequentada
frequentazion
frequenza
fresch
freudenstadt
freyung
fri
fribu
friburgh
friburgo
frica
fricativa
friedberg
friedman
friedrich
friggiuu
frignano
frison
fritt
friul
friuli
fro
frodo
froese
from
front
fronta
frontal
fronte
frontera
frontiera
frosinone
frp
fru
frunt
fruntera
frut
fruta
frutigen
frutt
frutta
fry
fs
ft
ftan
fu
fude
fudess
fudessen
fuga
fuiuli
full
fulmen
fulmin
fulvio
fuma
fumbi
fun
funa
function
fund
funda
fundaa
fundada
fundadur
fundame
fundi
fundiss
funema
funeral
funetica
funicolar
funicula
funk
funsg
funsiu
funt
funtana
funzio
funzion
funziona
funzione
funzioni
funziu
funziun
fuoco
fuori
furestee
furia
furla
furlan
furm
furma
furmaa
furmada
furmai
furmaziun
furme
furmen
furment
furmintu
furmula
furnegaziu
furtu
fus
fusch
fushe
fusil
fusilaa
fusion
fusions
fuss
fussa
fusse
fussen
fussi
fust
fut
futu
futugrafi
futur
futura
future
futuro
fuu
fy
fæ
fæto
fœra
fœss
fœura
g
ga
gaa
gaber
gabi
gabia
gabina
gabine
gabon
gabriel
gabriele
gaby
gacc
gadu
gaetano
gaggian
gaggio
gagliano
gai
gaia
gaina
gais
gaitan
gajaa
gajan
gal
gala
galadriel
galanthus
galaraa
galata
galbiaa
gale
galeaz
galeazz
galera
galeri
galeria
gales
gali
galia
galilei
galileja
galileo
galizia
galizian
galizzia
galizzian
gall
galla
gallaraa
galleggia
galleria
gallery
galles
galli
gallia
gallich
gallien
gallo
galu
gama
gamb
gamba
gambaro
gambarogn
gambi
game
gamecube
gamepad
games
gamma
gamp
gan
gandalf
gandi
gandin
gandolfo
ganes
gangwon
ganna
gap
gar
gara
garage
garanti
garantida
garantii
garantiss
garanzia
garbagna
garbagnaa
garc
garci
gard
garda
garde
garden
gardena
gardens
gardeza
gardu
gare
garfagnana
garibaldi
garlaa
garlasch
garmisch
garonne
gary
garzanti
garzon
gas
gasco
gascogna
gasgian
gaso
gaspar
gasperi
gass
gassiu
gaster
gasteria
gasu
gat
gata
gate
gates
gatt
gatti
gatto
gauss
gavara
gavaressi
gavaria
gave
gavea
gavemo
gavesse
gavessi
gaveva
gavevi
gavi
gaviraa
gay
gaza
gaziun
gazzetta
gb
gbr
ge
gel
gela
gelmini
gemeinde
gemeinden
gemeindeveraenderungen
gemeindeverzeichnis
gemelaa
gemelada
gemelagg
gemellaa
gemellagg
gemelli
gemma
gemo
gemona
gen
gena
genar
gendarmeria
gender
gene
gener
genera
generaa
generaal
generai
general
generala
generale
generalita
generalitat
generalme
generalment
generasiu
generator
generazio
generazion
generich
genetica
geneveys
genevois
genido
genitiv
genitu
gennaio
gennar
gennaro
geno
genoa
genova
genoves
genovese
gent
gente
genti
gentil
gentile
gentiloni
genua
geo
geoffrey
geogra
geografega
geografegh
geografi
geografia
geografica
geoirs
geologia
geome
geometri
geometria
georg
george
georges
georgia
georgian
geostro
ger
gera
gerard
gergh
gerhard
geri
germ
germa
germain
german
germanega
germanegh
germania
germanica
germanich
germanigh
germano
germanofona
germany
germasen
germi
gero
gerolamo
gerra
geru
gerundi
gerusalem
gerusalemm
gerusalemme
gervais
ges
gesa
geschichte
gese
gesetta
gesi
gesioeu
gess
gessaa
gest
gesti
gestida
gestii
gestion
gestiss
gestor
gesu
get
getargs
getparent
geugrafi
geugrafia
gex
gezu
gfs
gg
ggh
ggia
gh
gha
ghana
ghe
gheddafi
ghei
ghel
ghela
ghell
ghem
ghen
gher
ghesslar
ghett
ghezzi
ghi
ghia
ghielm
ghil
ghisa
ghitara
ghitarista
ghitarra
ghost
gi
gia
giaa
giacom
giacomo
giacum
giada
giagum
giald
gialda
giallo
giambon
giamo
gian
giancarlo
giand
gianda
giande
giandi
gianfranco
gianluca
gianni
giannino
giapon
giapones
giappo
giappon
giappone
giappones
giapponesa
giapu
giapun
giapune
giapunes
giapunesa
giardi
giardin
gias
giazz
giazzee
gibbaeum
gibilterra
gic
gica
gich
giche
gie
gier
gif
giffoni
gigant
gigi
gigli
gignac
gil
gilbert
gilberto
gili
gimli
gimnospe
gimo
gin
gina
gine
ginece
ginee
ginestra
ginevra
ginger
ginnasi
gino
gins
gio
gioa
gioann
gioco
gioeugh
gioia
gioiosa
giolitti
gion
giont
gionta
giontaa
giontada
gionten
giordan
giordania
giordano
giorg
giorgg
giorgia
giorgio
giorna
giornad
giornada
giornai
giornal
giornale
giornalista
giorni
giorno
giov
giovan
giovani
giovann
giovanna
giovanni
giove
giovedi
gioven
gioventu
gioventura
giovin
giovina
giovno
giovo
gir
gira
giraa
girada
girament
giren
girl
girls
giro
girolamo
giron
girona
giu
giua
giuan
giuann
giubiana
giudea
giudee
giudes
giudizzi
giuen
giuffre
giuga
giugaa
giugador
giugadu
giugliano
giugn
giugno
giuin
giuli
giulia
giulian
giuliano
giulio
giun
giunta
giuntaa
giura
giurament
giurdania
giuria
giurisdizion
giurisprudenza
giurista
giurna
giurnal
giurnali
giurnalista
giusepp
giuseppe
giussan
giust
giusta
giuste
giustezia
giusti
giustina
giustisia
giustissia
giustizia
giustizzia
giusto
giuvan
giuvin
give
gj
gja
gje
gju
gjuunt
gl
gla
glacial
glacier
gladiatur
glarona
glaruna
glasgow
glass
gleba
gli
glia
glie
glif
glio
glion
glis
glise
glo
global
globe
gloria
glu
glucosa
gma
gmunden
gn
gna
gnaa
gnach
gnaga
gnamo
gnan
gnanc
gnanca
gnanch
gnasch
gne
gnemo
gnen
gnent
gnente
gner
gni
gnii
gnint
gniva
gno
gnocchi
gnome
gnosca
gnu
gnun
gnuu
go
god
goda
gode
godi
godo
goe
goerna
goernadu
goes
goeubba
goffre
goffred
goffredo
gofre
gofred
gofredo
gogna
gol
gola
gold
golden
gole
golf
golfo
gollum
golp
golpe
gomito
gomma
goms
gon
gondor
gonzaga
good
goodbye
google
gora
gorbac
gorbaciov
gordon
gordona
gore
gorgonzoeula
gori
gorisia
gorizia
gorla
gornaa
goss
gossau
got
gotard
gotegh
goti
gotifre
gotifred
gott
gotta
gottard
gottfried
gotthard
gotti
gottifre
goumoens
gov
gove
govern
governa
governaa
governad
governada
governador
governativ
governator
governi
government
governo
gp
gr
gra
graant
grab
grabfeld
grad
gradi
gradient
grado
graf
grafe
grafega
grafegh
grafenau
grafi
grafia
grafica
grafich
grafie
grafo
graham
gram
grama
gramatega
gramatica
grame
gramm
grammatica
gran
grana
granada
grancc
grand
granda
grande
grandeza
grandezza
grandi
grandson
grane
granges
grani
granii
grann
grant
grappa
gras
grasie
grass
grassa
grasse
grassie
grasso
grata
graticola
gratis
graubu
grav
gravaluna
grave
gravedona
gravina
gravita
gravitasiuna
gray
grazi
grazia
grazie
grazzi
grazzia
grazzie
gre
great
greatest
grec
greca
grecch
grech
greci
grecia
greco
green
greene
greenwich
greg
grega
gregh
grego
gregori
gregoria
gregorio
grengiols
grenoble
gressoney
grey
gri
gridcolor
grierson
grigioni
grigna
grignasch
grigno
grigoeu
grillo
grimaldi
grin
gris
grisa
grischun
grison
grisones
grisun
gro
groenlandia
gron
grondezza
groove
gropp
gros
grosina
gross
grossa
grosse
grosseto
grossi
grosso
grotte
ground
group
grove
gru
grumo
grup
grupp
gruppo
gruye
grœp
gs
gsin
gsub
gt
gtt
gtw
gu
gua
guadagn
guadagna
guadagnaa
guadalajara
guai
gualdo
gualtieri
guangxi
guard
guarda
guardi
guardia
guardian
guardii
guardij
guari
guarna
guasco
guascogna
guast
guastalla
guatemala
gubbio
gud
gue
guelf
guer
guera
guern
guerna
guernadur
guerr
guerra
guerre
guerrer
guez
gufi
gufred
gugg
guglie
guglielmo
gui
guida
guidaa
guidad
guidada
guide
guido
guilin
guillaume
guinea
guit
gula
gulf
gulp
gun
gunzenhausen
gur
gure
guru
guss
gust
gustav
gut
gutifre
guvernu
guy
guyana
guzz
guzza
guzzi
gyeongsang
gymnadenia
h
ha
haa
habia
habitat
hack
hacker
had
haddaway
hai
haiti
hal
hall
hamas
hamburger
hamilton
hampstead
han
hand
handbook
handicappaa
hangul
hanja
hann
hanno
hannover
hans
hape
happy
hara
haraldson
hard
hardcore
hardware
hare
harry
hartmann
harvard
has
hash
hasle
hat
hauptbahnhof
hausen
haut
haute
hautes
hauteville
havaria
have
havegh
havel
haver
haveva
haveven
haviva
havli
havress
havud
haw
hawaii
haworthia
hayashi
hayek
hayez
hayley
haßberge
hco
he
health
heart
heat
heavy
heck
hed
hee
heer
heet
hei
heidenheim
height
heilbronn
heinrich
heinz
hel
helleborus
hello
helsinki
hem
hemm
hen
henn
henri
henry
her
hera
herbert
here
hergiswil
hermann
hermitage
herna
hero
hers
herz
het
heu
heures
heva
hey
heywood
hi
hidden
hiern
high
highway
hii
hilaire
hildesheim
hill
hillary
himalaya
himmel
hin
hinn
hinterland
hinterrhein
hinwil
hip
hir
his
hispania
hispaniga
histoire
historia
historical
history
hit
hitachi
hitler
hits
hiv
hiva
hl
hlavni
hldorf
hlhausen
hner
ho
hobbit
hobby
hochdorf
hochrhein
hochschwarzwald
hockey
hodoni
hoensbroeck
hoepli
hof
hofer
hofstetten
holding
hollywood
holmes
holstein
home
homepage
homme
honda
honduras
hong
hoo
hook
hop
hora
horgen
horizonte
horn
hospital
host
hot
hotel
house
houston
how
hp
hpa
hradec
hrer
htm
html
http
https
hu
huang
hudson
hugo
hukapan
hull
human
humanitas
hume
humilis
humus
hun
hunt
huo
huu
huygens
hy
hydrangea
hz
i
ia
iai
ibe
ibidem
ibm
ibn
ibook
ibrid
ic
ica
icc
ice
ich
iche
ichiro
ichu
icona
id
ida
ide
idea
ideaa
ideaj
ideal
idee
idei
idej
ideja
identifica
identificaa
identificati
identita
identitaa
ideologia
idevv
idi
idio
idioma
idra
idraulica
idraulich
idrich
idro
idrogen
idrologia
ie
iec
iech
iefp
ier
iera
ieri
ies
ieu
if
iga
iglesias
igna
ignazio
igni
ignora
igor
igp
iguaal
iguaj
iguala
igualtaa
ii
iie
iii
ij
il
ila
ilanz
ilario
ilg
iliad
iligi
ilina
ill
illegal
illinois
ilo
ils
ilu
ilura
im
ima
image
imagen
images
imagesize
imagin
imagna
imajin
imboscada
imbro
imbrujaa
imdb
ime
img
imigraa
imladris
imma
immagin
immagine
immanuel
immigraa
immigrazion
imola
imov
imp
impa
impara
imparaa
imparand
imparando
imparar
impararo
impast
impastato
impatt
impe
impedi
impedii
impegn
impegna
impegnaa
impegnada
imper
imperador
imperadris
imperadu
imperadur
imperaduur
imperat
imperativ
imperator
imperf
imperfet
imperfett
imperi
imperia
imperiai
imperial
imperiala
impero
impi
impia
impiant
impiegaa
impieni
impienida
impienii
implementa
implementazion
implica
implunemanc
impo
importa
important
importanta
importante
importants
importanza
importazio
impossibel
impossibil
impost
imposta
impre
imprend
imprenditor
impres
impresa
imprese
impression
impu
impuls
impunema
impunemanch
impurta
impurtaant
impurtant
impurtanta
impurtanza
imst
in
ina
inans
inants
inanz
inaugu
inaugura
inauguraa
inaugurada
inc
inca
incaregh
incarich
incarico
incasi
incav
ince
incendi
incide
incident
incidenta
incidenza
incio
incipit
incircuncisiu
incisa
incision
inclina
inclu
inclus
inco
incoe
incoeu
inconter
incontra
incontraa
incontrari
incontren
incoronada
incoronazion
increment
incros
incrosa
incu
incubator
incudin
incunter
incuntra
incursion
incœ
incœu
ind
inda
indaga
indagaa
indagin
indal
indala
indar
inde
indeboli
indebolime
indeboliment
indel
indela
indemen
inden
independent
independenta
independentism
independentista
independenza
indeperlee
indeperlor
indeperlu
indes
indeterminativ
index
indi
india
indian
indiana
indica
indicaa
indicad
indicada
indicatif
indicativ
indicazion
indice
indigen
indipende
indipendent
indipendenta
indipendente
indipendentism
indipendentista
indipendenza
individov
individuaj
individual
indo
indoa
indoe
indoeuropea
indonesia
indov
indova
indove
indre
indree
indrio
indro
indu
indua
indue
indul
indun
indunesia
industri
industria
industriai
industrial
industriala
induve
ine
inedit
inediti
infanzia
infatt
infatti
infe
inferior
inferiora
inferiore
inferiu
infern
inferno
infetta
infettaa
infezion
infezzion
infi
infilera
infin
infina
infinid
infinida
infinii
infinit
infinita
infinite
infinna
influ
influenz
influenza
influenzaa
influenzad
influenzada
influenze
influenzen
influss
info
informa
informasiu
informassiu
informatega
informategh
informatich
information
informazio
informazion
informazzion
infra
infraross
infrastruttur
infrastruttura
infre
infty
infurmaziun
ing
ingann
ingegnee
ingegner
ingegneri
ingegneria
ingenera
ingeneren
ingetiva
inghilte
inghiltera
inghilterra
ingiu
ingiuri
ingiuria
ingiurie
ingle
inglees
ingles
inglesa
inglese
inglesism
ingra
ingrass
ingrassa
ingrassadura
ingredie
ingredient
ingress
inguaa
inguai
ini
inibizion
inizi
inizia
iniziaa
inizial
inizialment
iniziativa
inizzi
inju
inluminazion
inluminism
inn
inna
innamora
innanz
inno
innsbruck
ino
inoltra
inondazion
inparando
input
inquand
inquinament
inrabi
inrabii
ins
inscambe
inscambi
insce
insci
inscin
inse
insediament
insegn
insegna
insegnaa
insegname
insegnament
insegnant
insegnarme
insegne
insegnen
insegni
insem
insema
insemm
insemma
inseri
insert
inset
insett
insi
insieme
inso
insole
insolense
insolenze
insta
instabil
instabilita
installa
installazion
institut
institute
insu
insuber
insubid
insubida
insubii
insubiss
insubria
insula
insult
insulta
insultada
insulti
insulto
int
inta
intal
intant
intanta
inte
integra
integraa
integrad
integrada
integral
integrala
integralment
integrativa
integrazion
intel
intela
intelligence
intelligent
intelvi
intend
intendom
intensita
intent
intenzion
inter
interazion
interchange
intercity
intere
interess
interessa
interessaa
interessad
interessant
interessanta
interfaccia
interferenza
interim
interior
interlaken
intermedi
intermedia
intern
interna
internasiuna
international
internazionai
internazionaj
internazional
internazionala
internazionale
internaziunal
internazzionai
internazzional
internazzionala
internazzionalizzad
interne
internet
interni
interno
interogativa
interpreta
interpretaa
interpretada
interpretazion
interproge
interprogetto
interregio
interscambi
intersezziu
interstatal
interurban
interurbana
interva
intervall
interve
intervent
intervista
intervocalega
intestin
inti
intimian
intitola
intitolaa
into
intoren
intorn
intorna
intorno
intra
intraa
intrada
intragna
intratant
intrattant
intrave
intraversa
intre
intreegh
intreg
intrega
intregament
intregh
intres
intro
introdo
introdu
introduction
introduzion
introduzione
introduzzion
introeubi
intrudu
intu
inturen
inturn
inturna
inu
inultra
inutil
invad
invaduu
invasion
inve
invece
inveci
inventa
inventaa
inventad
inventada
inventor
inventur
invenzion
invern
inverna
invernai
invernaj
invernal
inverno
invers
inversa
inversadura
investiga
investigator
investiment
inveze
invia
inviaa
inviad
inviada
invida
invidaa
invidia
invisibil
invita
invitaa
invo
inza
inziga
io
ioannes
ion
ionica
ionio
iori
ios
iowa
ip
ipa
ipairs
iphone
ipo
ipotesi
ipri
ipsometrica
ipv
ir
ira
iragna
irak
iran
iraq
irccs
irchel
ire
irene
irigato
irigazio
irigazion
iris
irlanda
irlandacategory
irlande
irlandes
irlandesa
iro
iron
ironia
irpina
irpino
irradiazion
irregolar
irregolarita
is
isa
isaac
isabella
isaia
isargh
isbn
isce
ischia
ischt
isci
iscri
iscritt
iscriv
iscrizion
iscrizzion
ise
isee
isella
isen
isengard
iseo
isep
isepp
isernia
isildur
isis
isla
islam
islamega
islamegh
island
islanda
islandes
islands
isle
ismn
iso
isoipsi
isol
isola
isolaa
isolada
isolame
isolament
isole
isonzo
isote
ispagna
ispagnoeu
ispira
ispiraa
ispirad
ispirada
ispirazion
ispirazzion
ispra
israel
israeli
israelian
israeliana
israell
iss
issa
isse
isser
issera
issi
issime
issn
isso
issue
ist
ista
istad
istanbul
istat
iste
istess
istessa
istitu
istituida
istituii
istitusiu
istitut
istituto
istituzion
istituzional
istituzzion
isto
istorega
istoregh
istoria
istres
istria
istrian
istriota
istru
istrume
istrument
istruzion
istruzzion
isul
isula
isvizzera
isxn
it
ita
itaglia
itaja
italega
italegh
italia
italian
italiana
italiane
italiani
italianism
italiann
italiano
italica
italich
italici
italigh
italo
italy
italyan
ite
item
itinerari
ito
its
itt
iu
iucn
iupac
ius
iv
iva
ivan
ivano
ive
ivi
ivo
ivrea
ix
iz
ize
izo
izola
j
ja
jaa
jaarsv
jablonec
jack
jackson
jacob
jacom
jacopo
jacques
jahre
jakob
jallieu
jalta
james
jamo
jan
janaci
jane
janeiro
jann
jannacci
january
japonica
jara
jarawa
java
javascript
javier
jay
jazz
je
jean
jeans
jeff
jefferson
jen
jenar
jener
jeneral
jent
jeolla
jeollabuk
jera
jeremy
jermaneg
jermania
jerry
jersey
jeru
jeseni
jesi
jesolo
jessica
jesu
jesus
jet
jeune
ji
jic
jih
jihlava
jim
jimmy
jindr
jir
jiron
jo
joa
joan
joann
jobs
joe
jogadors
johan
johann
johannes
john
johnny
johnson
joine
joint
jolly
jolter
jon
jona
jonathan
jones
jong
jonta
jorat
jord
jordi
jorge
jorns
jos
jose
josef
josep
joseph
josh
jou
joule
jour
journal
jov
jovanotti
jove
joven
jovice
joyeuse
jpeg
jpg
jpn
jr
jstor
ju
juan
jugoslavia
jules
julia
julien
july
june
jung
juno
junts
jura
jure
just
justice
justify
justin
jut
juta
jutt
jutta
juttaa
juventus
juwoi
k
ka
kahlo
kai
kaiser
kaiserstuhl
kaliningrad
kanji
kansas
kappel
kariyana
karl
karlovy
karlsruhe
karma
kart
karte
kassel
kastelruther
kate
katowice
kazakistan
kb
kd
kde
ke
kebab
keen
keep
kelheim
kelvin
ken
kennedy
kenneth
kent
kentucky
kenya
kernel
kerzers
kevin
kew
key
keylogger
kg
kha
khan
khz
ki
kiev
killer
kilometer
kim
kin
king
kingdom
kini
kinig
kinnego
kirchberg
kirchdorf
kirche
kirghizistan
kiribati
kis
kiss
kissingen
kit
kitsune
kitzbu
kitzingen
kladno
klagenfurt
klatovy
klaus
klein
klosters
klotz
km
kne
knight
know
ko
koch
koda
koechlin
koine
kol
koli
kon
kong
kor
kora
korea
kos
kosovo
kotatsu
kov
kp
kpa
kr
kra
kraj
kreis
kreisfreie
kreuzlingen
kro
kronach
kru
krumlov
kry
ks
kt
ku
kudrinskij
kudrinsky
kufstein
kuiper
kulm
kulmbach
kumqua
kumquat
kuntze
kupfer
kurosawa
kurt
kutna
kuwait
kv
kwa
ky
kyiv
kyj
kɛ
l
la
laa
laar
laba
label
labem
labor
laborato
laboratori
laboratory
laburista
lac
lacc
lach
laden
lader
ladi
ladin
ladina
ladinia
ladislav
lady
lag
laga
lager
lagertha
lagh
laghe
laghee
laghett
lagna
lago
lagrasse
laguna
lai
lainaa
lainsci
lake
lam
lama
lambda
lamber
lambert
lambraa
lambro
lame
lamenta
lamente
lamezia
lamina
lamon
lampugnan
lamu
lan
lana
lancaster
lanceola
lancia
lanciano
land
landau
landeck
lander
landi
landkreis
landolf
landquart
landrian
landsberg
landshut
landtag
lane
lang
lange
langhe
langnau
langobardia
langobardorum
language
languages
langue
languedoc
lanka
lans
lanz
lanza
lanzada
lanzia
lanzo
lao
laon
laora
laos
lapis
lar
lara
larg
larga
largentie
largh
larghe
larghezza
largo
lari
larian
lario
laritaa
las
lasa
lascia
lascio
laser
laserdisc
lassa
lassaa
lassad
lassada
lassar
lassava
lassen
last
lastra
lat
latera
laterai
lateral
laterizzi
laterza
lati
latin
latina
latine
latinn
latino
latitu
latitudin
lato
latour
latt
lau
lauda
laufen
laufenburg
laur
laura
lauraa
laurea
laureaa
lauread
laurent
lauro
lausanne
lava
lavagna
laval
lavaux
lave
laven
lavena
laver
lavis
lavizzara
lavo
lavor
lavora
lavoraa
lavorad
lavorador
lavorar
lavorator
lavoratori
lavorava
lavorazion
lavoren
lavorent
lavori
lavoro
lavranos
lavur
lavura
law
lawrence
lay
layer
laziale
laziali
lazio
lazion
lazzaa
lazzaro
lazzi
lb
lber
lbo
lc
lca
lcar
lcc
lch
lche
lcher
lcol
lcro
ld
lda
lde
ldi
le
lea
leaa
leader
league
leanza
learning
leben
lebern
lec
lecc
lecce
lecch
lecches
lecchesa
lecco
lech
leclerc
led
leder
lee
leet
left
leftrightarrow
leg
lega
legaa
legaj
legal
legala
legamm
lege
legend
legenda
legg
legge
leggend
leggenda
legger
leggera
leggiun
legh
leghista
legi
legion
legisladura
legisladure
legislativ
legislativa
legislatura
legittim
legiu
legn
legna
legnamee
legnameria
legnan
legnanes
legnano
legno
legolas
lei
leibniz
leis
lej
lejenda
lem
lema
lemene
lemeza
lemy
len
lengnau
lengov
lengove
lengu
lengua
lenguagg
lengue
lenguf
lengui
lenguista
lenguistega
lenguistegh
lenguistiga
lenguistigh
lenguv
lenin
leninista
lenn
lensg
lensger
lent
lenta
lentaa
lenzburg
leo
leocci
leon
leonard
leonardo
leone
leoni
leopardi
leopold
lepontinn
leq
ler
lera
lere
les
lesa
lescen
lesg
lesi
lesmo
less
lessegh
lessicai
lessico
lessiviazion
let
leta
leter
letera
leterad
leteradu
leteradura
leteralment
leterari
leteraria
letere
letizia
leton
letonia
letor
lett
letta
letter
lettera
letteraa
letteradura
letterari
letteraria
letteratura
lettere
letton
lettonia
lettor
lettura
letu
leu
leucanthemum
leucemia
leuk
leun
leva
levaa
levada
levant
levante
level
leventina
leventinacategory
leventines
levi
lewis
lex
lez
lezion
lezze
lf
lfo
lg
lga
lgaria
lgbt
lgher
lgi
li
lia
liaa
liad
liamm
lian
lianza
liban
libe
liber
libera
liberaa
liberada
liberai
liberaj
liberal
liberala
liberale
liberali
liberalism
liberalizzazion
liberament
liberazion
liberazione
liberazzion
libere
liberec
liberi
liberia
liberism
liberista
libero
liberta
libertaa
libertari
libertarian
libertarianism
liberty
libia
library
libre
libreria
libretto
libri
libro
lic
lica
lice
licee
licenza
liceo
lich
licini
lid
lida
lidi
lido
lie
liebe
liechtenstein
liechtensteincategory
liegi
lienz
lierna
liestal
lieu
life
liga
ligaa
ligad
ligada
ligade
ligam
ligamm
ligh
light
lightgrey
lign
ligna
lignu
ligny
ligria
ligu
ligur
ligure
liguria
ligustrum
like
lili
liliaceae
lilinsci
lilium
lilla
lim
lima
limana
limbiaa
limit
limita
limitaa
limitad
limitada
limitazion
limitazzion
limits
limon
limoux
lin
lina
linaa
linda
lindau
lindl
line
linea
linear
lineara
linee
linej
lines
linger
lingera
lingoa
lingua
linguaggio
lingue
lingui
linguistega
linguistic
linguistica
linguistich
linguistics
linia
linie
link
linke
linnaeus
linne
lino
linus
linux
linz
lio
lion
lione
lipid
lipids
lipsia
liqued
liquid
liquida
lir
lira
lire
liri
lis
lisa
lisabe
lisabetta
lisander
lisbona
lisi
lissa
lissander
lissandria
lissandrin
lisson
list
lista
liste
liszt
lit
lita
lite
liter
literadu
literadura
literari
literno
lithops
liti
litome
litratt
litta
litteradura
little
litu
litua
lituan
lituania
liu
liutprand
liv
live
livel
livell
livenza
liverpool
livign
living
livius
livon
livorno
livre
livrea
liz
lizi
ll
lla
lle
ller
lli
llikon
llit
llo
llobregat
llui
llul
llula
lm
lma
lman
lme
lmen
lment
lmo
ln
lni
lo
loaddata
loca
locaa
locai
locaj
local
locala
locali
localisaa
localisat
localita
localitaa
localment
locarn
locarna
locarno
locau
locke
lockhart
locle
loco
locomotiv
locomotiva
locri
lod
lode
lodesan
lodesana
lodi
lodigiano
lodovigh
lodrin
loe
loeugh
log
logaritm
loggia
logh
logica
logich
logo
logos
lohn
loi
loin
loira
loire
loksat
lomazz
lomazzo
lomb
lomba
lombarcc
lombard
lombarda
lombardcategory
lombarde
lombardi
lombardia
lombardiabeniculturali
lombardiacategory
lombardo
lombardofonia
lombards
lomellina
lon
lona
lonaa
london
londra
londres
long
longa
longh
longhe
longhezza
longitudina
longoba
longobard
longobarda
longobardi
longrightarrow
lonicera
lonigo
lons
lonta
lontan
lontana
loo
look
lor
lora
lord
lore
lorena
lorentegg
lorenz
lorenzo
loreto
lorett
lori
loria
loro
los
losanna
loson
lost
lot
lota
lott
lotta
lotus
lou
louis
louisan
louisiana
louny
loup
lour
lov
love
lovecraft
lover
low
lower
loze
loßburg
loð
lp
lpe
lpi
lr
ls
lsa
lsi
lt
lta
ltaa
ltar
ltd
lte
ltem
ltema
lter
lti
ltim
ltima
ltimm
lto
ltor
ltra
ltre
ltu
lu
lua
luc
luca
lucai
lucal
lucalita
lucania
lucano
lucca
luce
lucens
luchin
lucia
luciani
luciano
lucille
lucio
lucro
ludesa
ludesan
ludesana
ludiaj
ludovich
ludovico
ludria
ludwig
ludwigsburg
lue
luerti
luf
lugan
lugancategory
luganega
luganes
lugano
lugansk
luglio
lugo
lui
luigi
luin
luis
luisa
luj
lula
lule
lum
lumba
lumbaart
lumbard
lumbarda
lumbarde
lumbardi
lumbardia
lumellin
lumellina
lumin
luna
lunch
lundra
lune
lung
lunga
lungh
lunghe
lunghezza
lungo
lungubard
lunigiana
lunta
luntan
luoghi
luogo
lupi
lupo
lur
lura
luragh
lure
lurenz
luri
lus
luserna
luss
lussemborgh
lussemburgh
lutra
luu
luur
luv
lux
luz
lv
lva
lver
ly
lyon
lys
lz
lœg
lɛ
m
ma
maa
maanch
maar
mac
macagn
macc
maccagn
macchia
macchin
macchina
macchine
macchinista
mace
macedo
macedon
macedonia
macerata
mach
machee
machin
machina
machine
macia
macintosh
macmillan
macomer
macra
macrian
macro
macron
madagascar
madale
madalena
madame
maddalena
maddaloni
made
mader
maderlengua
maderno
madigna
madison
mado
madona
madonna
madre
madregna
madrid
madu
madura
mae
maesta
maester
maestra
maestro
mafia
mafios
mag
maga
magadin
magara
magazi
magazzin
magenta
magg
maggi
maggia
maggio
maggior
maggiora
maggioranza
maggiore
magi
magia
magic
magich
magio
magior
magiora
magioranza
magistraa
magistrad
magistratura
magistretti
magiu
magiur
magiura
magiuranza
magliano
maglie
magn
magna
magnagh
magnago
magnalibus
magnan
magnara
magnare
magnava
magne
magnesio
magnetega
magnetica
magnetich
magni
magno
mago
magon
magra
magu
magunza
mai
maia
mail
main
maine
maio
maira
maire
mais
maison
maister
maj
maja
majaa
major
make
making
makino
mal
mala
malaa
malad
malada
malagn
malament
malann
malatesta
malati
malatia
malatie
malatti
malattia
malattij
malawi
malaysia
malcanton
malcesine
male
malench
malesch
malesia
malfa
malgraa
mali
malign
malinco
malinconia
mallorca
malnaa
malo
maloeuggia
malora
malpensa
malta
maltes
maltrata
maltratada
malva
malvaja
malvestiti
malvezzi
malware
mam
mama
mamert
mami
mamifer
mamma
man
mana
management
manager
manara
manc
manca
mancaa
mancanza
manch
manchen
manchester
mancina
manciu
manco
manda
mandaa
mandad
mandada
mandament
mandat
mandava
mande
mandela
mandell
manden
mando
mandolin
mane
manega
manegh
manema
maner
manera
manere
manfredi
manga
mangane
mange
mangen
mangi
mangia
mangiaa
mangiada
mangiar
mangiava
mangiavo
mangio
mango
mangoni
mani
manie
maniera
manife
manifest
manifesta
manifestazion
manifestaziu
manita
mann
manna
mannelli
mannheim
manning
mano
mans
mansell
mansi
mansina
manta
mante
mantegn
mantegni
mantegniment
mantegnu
mantegnuu
mantigni
mantoa
mantoan
mantova
mantovan
mantovano
mantua
manu
manual
manuale
manuel
manutenzion
manzi
manzina
manzon
manzonad
manzonada
manzoni
mao
maomet
map
mapa
mape
mapp
mappa
mappe
maps
maqina
mar
mara
maran
marano
marbach
marc
marca
marcaa
marcad
marcada
marcall
marcc
marce
marcel
marcellin
marcellina
marcello
march
marche
marches
marchesa
marchi
marchigian
marchio
marcia
marco
marconi
marcos
marcus
mare
marea
marej
marelli
maresciall
margaret
margarita
margherita
margin
mari
maria
marian
mariana
marianna
mariano
marid
marida
maridaa
maridada
marie
marii
marin
marina
marine
marinella
mariner
marini
marino
mario
maritime
marittima
marittimo
mark
market
markt
marktgemeinde
marmi
marmo
marmor
marmora
marnaa
marnand
marne
maro
maroch
maron
marone
maroni
marradi
mars
marsa
marseiler
marseja
marshall
marsi
mart
marta
marte
martel
martell
martello
marter
martesana
marti
martigny
martin
martina
martine
martini
martino
martir
martiri
maru
marx
marxista
mary
marz
marzabotto
marzano
marzi
marzo
mas
masa
mascc
maschera
mascheritt
maschi
maschil
masciagh
mascu
masculin
mase
masen
masg
masi
masna
masnaga
mason
mass
massa
massaa
massacher
massachusetts
massaja
masse
massera
massi
massim
massima
massimilian
massimiliano
massimo
massin
massiv
massizz
master
mat
mata
matai
mataj
match
mate
matee
matema
matematega
matemategh
matematica
matematich
mater
matera
materia
materiai
materiaj
material
materie
materno
matese
math
mathbb
mathbf
mathcal
mathfrak
mathit
mathrm
mati
matin
matina
matinna
matisse
matrimo
matrimoni
matris
matrix
matt
mattarella
mattee
matteo
matterhorn
mattia
mattin
mattina
mattoli
matu
mau
maur
maurice
maurienne
mauritania
mauritius
maurizi
maurizio
maurizzi
mauro
max
maxim
maxwell
may
maza
mazaa
mazz
mazza
mazzaa
mazzad
mazzada
mazzament
mazze
mazzini
mb
mba
mbar
mbe
mber
mbia
mbo
mbol
mbox
mbra
mbre
mbro
mbul
mc
mccoy
mclaren
mdvc
mdve
me
mea
meazza
meca
mecanega
mecanegh
mecanism
mecc
mecca
meccanica
meccanich
meccanism
meccanismi
meccanismo
mech
meclembu
med
meda
medaja
mede
medega
medegh
medeja
medem
medema
medemm
medesina
medexina
medi
media
median
mediana
mediaset
mediawiki
medical
medici
medicina
medieva
medievai
medieval
medievala
medievale
medio
medioe
medioev
medioevo
mediolanensis
mediolani
mediolanum
meditera
mediterani
mediterranea
mediterraneo
mediterrani
medium
mee
mega
megane
megh
meglio
megn
mei
meilen
mein
meina
meis
mej
mejor
meju
mel
mela
melan
melbourne
mele
melegnano
melga
melina
melissa
melodia
meloni
meltdown
melz
member
membrana
membrane
memo
memoria
memorial
memorie
memory
memphis
men
mena
menaa
menabrea
menad
menada
menas
menassad
menava
mencc
mende
mendo
mendris
mendrisiott
mene
menee
meneghin
meneghina
menema
menen
meni
menima
meno
menor
mens
mensiuna
ment
menta
mental
mente
menter
mentre
menu
menut
menzion
menzionaa
menziunaa
mer
mera
meraa
meran
merano
merca
mercaa
mercad
mercant
mercanzia
mercato
mercedes
mercenari
merci
mercu
mercurio
merda
meregnan
meridian
meridiona
meridionai
meridional
meridionala
meridionale
meridiuna
meridiunal
meridiunala
merit
meriti
merkel
merla
merli
merlin
merlo
merry
mersenne
meru
mes
mesa
mesde
mese
mesi
mesia
meso
mesolcina
mesosfera
mess
messa
message
messages
messagg
messaggio
messe
messeda
messedaa
messedada
messedozz
messen
messer
messi
messicana
messich
messina
messo
meste
mestee
mester
mestre
mesu
mesur
mesura
mesure
met
meta
metaa
metai
metaj
metal
metall
metallica
metan
metano
metar
mete
meten
meteo
meteorolo
meteorologia
meter
metes
meteva
meti
metid
metide
metod
metodo
metri
metrich
metro
metropolita
metropolitan
metropolitana
metropolitann
metrotranvia
metrupulitana
mett
mette
metten
metternich
mettes
metteva
metti
mettom
mettuda
mettuu
metu
metud
metuda
metuu
metz
meu
mex
mexico
meyer
mez
meza
mezdi
mezz
mezza
mezzaa
mezzana
mezzano
mezzanocc
mezzdi
mezzegra
mezzo
mezzoeula
mg
mhz
mi
mia
miami
mic
mica
micca
micella
micelle
mich
michael
michail
miche
michee
michel
michelangelo
michele
micheli
michelle
michigan
micro
microcomputer
micronesia
microprocessor
microsco
microscope
microsoft
mid
middle
midem
midema
midemm
midemma
midi
midizi
midnight
mie
miee
miei
mier
mies
miesbach
mieu
miga
mighe
migja
migli
miglia
miglio
miglior
migliora
migliu
migliur
migliura
migna
migra
migrazion
miguel
mij
mike
mil
mila
milan
milane
milanes
milanesa
milanese
milanesi
milanin
milano
mile
mili
milia
miliard
milio
milion
milita
militar
militara
militare
militello
miliu
miliun
milizia
milizzia
mill
milla
mille
millenni
miller
millimeter
million
milo
miltenberg
milton
min
mina
minas
mincio
mincion
mind
mine
minen
minera
minerai
mineraj
mineralizzazion
minervois
ming
minga
mini
miniata
miniatura
minim
minima
miniserie
ministe
minister
ministeri
ministero
ministra
ministrador
ministrativ
ministrativa
ministrativament
ministrative
ministrazion
ministrazzion
ministro
minnesota
mino
minor
minora
minoranz
minoranza
minoranze
minore
minoritari
minsk
mint
minu
minuartia
minuetto
minur
minuranza
minus
minuscol
minut
minuto
mio
mir
mira
mirabella
mirabello
mirabilis
miracol
miracolo
miranda
mirandola
miro
mirteto
mis
misa
mise
miseria
misericordia
mises
misiu
misiuna
miss
missa
missil
missing
mission
mississippi
missouri
mistar
miste
mister
misteri
misterios
misu
misur
misura
misurada
mit
mita
mitaa
miti
mito
mitologia
mitra
mittelland
mittuda
mittuu
mitud
mituda
mituu
mize
mizu
mizuki
mizunokouji
ml
mlada
mle
mm
mma
mme
mmo
mn
mna
mne
mo
mobel
mobil
mobile
mobilita
mod
moda
modalita
mode
modei
modej
model
modell
modella
modem
modena
modene
modera
moderaa
moderada
moderatament
modern
moderna
moderne
moderni
modernizzaa
modernizzazion
moderno
modifega
modifegaa
modifegada
modifica
modo
modul
modular
module
modulo
moe
moehringia
moesa
moeud
moeur
moeuren
moeuv
moeuven
moeuves
moeuvess
mogliano
mohamed
mohammed
moi
moines
moka
mol
mola
molar
moldavia
molde
mole
molecol
molecola
molecolar
molecole
molgora
molin
molina
molini
molino
molise
moll
molla
mollens
molo
molt
molta
molti
moltiplica
moltiplicazion
molto
mom
mombell
mombello
mome
moment
momento
mon
mona
monaa
monaco
monarca
monarchia
monarchich
monaste
monastee
monasteri
monastero
monc
moncalieri
mond
mondadori
monde
mondia
mondiai
mondial
mondiala
mondiale
mondo
mondovi
mone
moned
moneda
monegasch
monegh
monestee
monestier
monet
monferrato
monforte
mongolia
monitor
mono
monopoli
monreale
mons
monscender
monscia
monsciasch
monselice
mont
monta
montagn
montagna
montagnac
montagne
montagnes
montagnosa
montagny
montalbano
montaldo
montalto
montan
montana
montanelli
montaner
montano
montanum
montbrison
monte
montebello
montecchio
montechiaro
montecorvino
montefalcone
monteforte
monteleone
montello
montenegro
montenero
montenotte
monterosso
monterotondo
montesano
montfaucon
montgomery
monthey
monti
monticello
montnegher
monton
montorio
montpellier
montr
montre
montreal
montreux
montrevel
montserrat
monu
monument
monumental
monza
moon
moore
mor
mora
moral
morandi
moratti
moravia
morbegn
morbi
mordor
more
morestel
moretti
morfolo
morfologia
morgan
morges
mori
moria
morir
moritz
mornagh
moro
morobbia
moroboshi
moroder
moron
moros
morosa
mort
morta
mortalita
mortara
morte
morto
morts
mos
mosa
mosca
moschea
mose
moss
mossa
mosso
mossos
most
mostarda
moster
mostra
mostraa
mostre
mostren
mostri
mot
mota
moti
motion
motiv
motivazion
moto
motociclistich
motogp
motomundial
motor
motorway
motris
mott
motta
motte
motto
motu
mou
moudon
mountain
mouse
mouthoumet
movime
moviment
movimento
movuu
mozart
mozzaa
mp
mpa
mpar
mpara
mparenta
mpe
mper
mpi
mpia
mpo
mporta
mpre
mr
ms
msa
msg
mt
mti
mtv
mu
mucc
muccia
muda
mudaa
mudad
mudament
mude
mudel
mudela
muden
mudern
muderna
mudifica
muenchen
mugello
mugg
muggia
muggian
muggio
muiment
mul
muldavia
mule
mulecul
mulecula
mulino
multi
multipla
multipli
multiplo
multitasking
multu
mulzi
mume
mument
mun
mund
mundi
mundia
mundial
mundiala
muneda
munferaa
munici
municipal
municipalita
municipalitaa
municipalitaalsi
municipality
municipi
municipio
munscia
munt
muntagn
muntagna
muntu
munu
muotathal
mur
mura
murcia
mure
muri
murigio
muro
murphy
murr
murray
mursia
murtara
muru
mus
musa
musca
muse
musee
musega
musegai
musegal
musegala
museo
museum
music
musica
musicaa
musical
musicale
musicista
muso
muss
mussolini
must
mustra
mustraa
mustrat
musulman
mut
mutur
muunt
muviment
muzambich
muze
muzio
mv
mw
mx
my
myeon
mylius
myosotis
myspace
myswitzerland
n
na
naa
nabla
nacc
nach
nacional
naco
nad
nada
nadal
naf
nago
nagot
nagott
nai
nakai
nal
naltri
name
names
namespace
namibia
nan
nananmo
nanca
nancy
nand
nani
nanni
nano
nantes
nantua
nao
napol
napoleo
napoleon
napoleonegh
napoleonich
napoleonigh
napoletan
napoletana
napoli
napolitano
napul
napuleon
napuleoon
napuliu
nar
nara
naranz
narbonne
narni
naro
nas
nasa
nasai
nasal
nasce
nascita
nasi
nasiu
nasiuna
nass
nassen
nasser
nassi
nassid
nassida
nassimeent
nassita
nassu
nassud
nassuda
nassuu
naster
nastro
nasu
nasuu
nat
natal
natale
nathan
nati
nation
national
nationale
nativ
nativa
native
nato
natu
natura
naturai
naturaj
natural
naturala
naturalment
nau
nav
nava
navada
naval
navarra
navbox
nave
navetta
naviga
navigaziun
naviglio
navili
naz
nazaire
nazar
nazareth
nazgu
nazi
nazion
naziona
nazionai
nazionaj
nazional
nazionala
nazionale
nazionalism
nazionalista
nazionalita
nazione
nazista
naziu
naziun
naziunal
naziunala
nazzare
nazzion
nazzionai
nazzional
nazzionala
nazzionalista
nc
nca
ncamo
ncc
nce
nch
nche
nchen
nchenbuchsee
nchez
nchwilen
ncia
ncio
ncipe
nco
ncol
ncontra
ncora
ncu
nd
nda
ndaa
ndacc
ndada
ndai
ndar
ndard
ndas
ndata
nde
ndech
ndei
ndel
ndela
nden
ndepende
nder
ndes
ndez
ndi
ndia
ndica
ndio
ndo
ndoche
ndoe
ndra
ndre
ndree
ndria
ndrica
ndu
ndum
ne
nea
nebbia
nec
necessari
necessaria
necessita
nech
neckar
necrulogi
ned
neda
nedal
nee
need
nef
nega
negaa
negar
negati
negativ
negativa
negazion
neger
negh
neghe
negher
nego
negot
negott
negozi
negozzi
negra
negri
negro
nei
neil
nej
nek
nel
nell
nella
nelle
nello
nelson
nema
nemi
nemis
nemix
nen
nenberg
nenta
neo
neolatin
neolatinn
nepal
nepunemanch
ner
nera
nere
neri
nero
neron
nervadu
nervian
nervos
nes
neso
ness
nessun
nessuno
net
neta
neto
nett
netta
netu
netuno
network
neu
neuburg
neucha
neuendorf
neukirchen
neumann
neumarkt
neunkirchen
neustadt
neuter
neutral
neutralita
neutron
neuville
nev
nevada
never
nevis
nevod
nevoda
new
newcastle
newman
news
newton
next
ney
nez
nf
nfero
nfi
nfina
nfiuresce
nflu
ng
nga
ngb
nge
ngel
ngh
nghe
ngheres
ngheria
ngi
ngia
ngiul
ngle
ngo
ngoi
ngol
ngua
ngue
nguer
ngul
nh
nha
nhe
ni
nia
niaicc
nibionn
nic
nica
nicaragua
nicaziun
nicc
niccolo
nice
nich
niche
nicht
nicipalita
nicitaa
nick
nico
nicola
nicolao
nicolas
nicolo
nicotera
nid
nida
nie
niedero
nien
nient
niente
niersita
niga
nige
nigen
niger
nigeria
nigh
night
nigra
nigu
nii
niklaus
nil
nim
nima
nimo
nin
nina
ninguarda
nino
nintendo
nio
niocci
nioltri
nirva
nis
nisia
niso
nisou
nissa
nissu
nissun
nissuna
nista
nisu
nit
nita
nitaa
nitra
niu
niun
nivalis
nive
nivei
nivej
nivel
nivell
niversa
niversidaa
niversita
nivol
nivola
nivul
nivula
niz
nizza
nj
nl
nm
nn
nna
nne
nno
no
noa
noaa
noaltri
noara
noares
nobei
nobel
nobij
nobil
nobildona
nobile
nobilis
nobilta
nobiltaa
nobres
nocc
nocera
noch
noci
nocturnes
nod
nodar
node
noe
noemi
noeud
noeuf
noeugn
noeuv
noeuva
noeuvcent
noeuve
noi
noia
noialtri
noio
noise
noisola
noisolant
nol
nola
noli
nom
noma
nome
nomena
nomenaa
nomenad
nomencladu
nomi
nomina
nominaa
nominad
nominada
nominal
nomm
nomnad
nomo
non
nona
none
nones
nono
nonostant
nonu
nonzia
nonziaa
nonziad
nonziada
noorda
nor
norbert
nord
norde
nordest
nordo
nore
norimbe
norimberga
norma
normai
normal
normala
normale
normalment
norman
normandia
normann
normativa
norme
nort
north
northern
norvege
norveges
norvegia
nos
nosge
noss
nossa
nost
nosta
nostar
noster
nostra
nostradamus
nostre
nostri
nostro
nostru
nosuke
not
nota
notar
note
notes
notitiae
notizia
notizie
notizzi
notizzia
notre
nott
notte
notturn
nou
nous
nouvelle
nov
nova
novaa
novanta
novara
novares
novarese
novate
nove
novecento
novegher
novella
november
novembre
noventa
novgorod
novi
novita
novo
novy
now
np
npsh
nr
ns
nsa
nsci
nse
nsegna
nsema
nsere
nseri
nsi
nsia
nso
nsome
nsomea
nster
nsu
nt
nta
ntaa
ntal
ntar
ntat
nte
nten
nter
ntere
nteresa
ntezi
nti
ntich
ntida
ntitula
ntiv
nto
ntoa
ntra
ntre
ntri
ntro
ntsc
ntu
nu
nua
nuages
nualtri
nuara
nuclear
nucli
nuda
nue
nuember
nui
nulla
num
number
numbers
numenaa
numer
numerian
numerich
numero
numeros
numina
numinaa
numm
nun
nunch
nuoro
nuova
nuove
nuovi
nuovo
nur
nurveges
nurvegia
nus
nusselt
nuta
nutada
nutazziu
nuti
nutrie
nuvanta
nuvara
nuvares
nuvela
nuvember
nuvole
nuzziu
nve
nventa
nvers
nw
ny
nymburk
nyon
nyons
nz
nza
nzburg
nze
nzemela
nzer
nzi
nziaa
nœuv
nœv
nœva
o
oa
oav
ob
obama
obbliga
obbligh
ober
oberaargau
oberallga
oberdiessbach
oberdorf
oberhasli
oberland
oberpfalz
oberwil
obieti
obietiv
obietti
obiettiv
object
oblast
oblegh
obliga
obligad
oboe
oc
ocasion
ocaziu
occ
occasion
occhi
occident
occidenta
occidentai
occidentaj
occidental
occidentala
occidentale
occitan
occlus
occorrenza
occupa
occupaa
occupada
oce
ocean
oceani
oceania
oceano
oci
ocident
ocidenta
ocidentai
ocidental
ocidentala
ocio
ocita
ocitan
oco
ocu
ocupa
ocupad
od
ode
oden
odenwald
odeon
oder
odessa
odi
odia
odio
odo
odoacre
odorata
oe
oest
oeu
oeugg
oeuli
oeuna
oeus
oeuv
oeuver
oeuvera
oeuvere
oeuvra
oeuvre
of
ofe
oferta
ofes
ofesa
ofese
ofexa
ofexe
off
office
officia
official
officiels
officina
offizi
offiziai
offizial
offiziala
offizialment
offizzi
offri
ofic
oficial
ofizial
ofizzi
ofizziai
ofizzial
ofizzialment
ofriss
ofs
oge
oget
ogett
ogg
ogge
oggett
oggetto
oggi
ogionn
ogliastra
oglio
ogna
ogne
ogni
ognidu
ogno
ognu
ognun
oh
ohio
ohne
oi
oingt
ois
oisans
oj
ojet
ojets
oklahoma
oko
ol
ola
olanda
olande
olandes
olandesa
olbia
old
ole
olga
olgiaa
olginaa
oli
oliv
olive
oliver
oliveto
olivetti
olmi
olmo
olo
olomouc
olona
olonta
olt
olta
oltar
olte
olten
olter
oltr
oltra
oltragia
oltragiada
oltre
oltrepo
oltri
om
oma
omagg
oman
omar
ombra
ombre
ombri
ombria
ome
omega
omegna
omen
omeni
omer
omi
omicida
omicidi
omm
omo
omonem
omonema
omonim
omonima
omosessual
omu
on
ona
oncologia
ond
onda
onde
one
oneto
ongares
ongaria
ongheria
oni
onions
online
only
ono
onor
onora
onorari
onore
onorio
ons
onsernon
ont
onta
ontario
onte
onu
op
opa
opava
open
oper
opera
operaa
operador
operaio
operand
operari
operasiu
operativ
operator
operatorname
operazion
operazzion
opere
opicina
opinion
opo
oppo
opportunita
opposizion
oppu
oppur
option
options
opura
opzion
opzzion
or
ora
oragh
oral
orama
oramai
orange
orari
oraria
orario
orato
oratori
orb
orba
orbe
orbita
orbiter
orch
orchestra
orco
orden
ordena
ordenaa
ordenament
order
ordin
ordina
ordinaa
ordinal
ordinament
ordinare
ordinari
ordine
ore
oreggia
oregon
orelogg
oreste
orezza
org
orga
organ
organi
organica
organich
organism
organiza
organizaa
organizad
organizasiu
organizazion
organizazzion
organizza
organizzaa
organizzada
organizzazion
organizzazzion
orgen
orghen
orgoeuj
ori
oria
orie
orient
orienta
orientai
oriental
orientala
orientalis
orientament
orientation
orig
origen
origin
origina
originai
original
originale
originari
originaria
originariament
origine
originen
origini
orijen
orijin
oriolo
oristano
orizzont
orizzonta
orizzontal
orlando
orle
orleans
orlici
ormai
ormea
ormont
orname
ornamenta
ornavass
ornella
ornithogalum
oro
orobi
orogra
orografica
orografich
oron
orp
orqestra
ors
orsie
ort
orta
orte
ortenaukreis
ortensia
orthohantavirus
ortiga
ortodossa
ortografi
ortografia
ortona
orvieto
orz
os
osa
osama
oscar
oscillazion
oserva
oservasiu
osi
oslo
osogna
ospeda
ospedaa
ospedai
ospedal
ospedale
ospedaler
ospedaletto
ospit
ospita
ospitaa
oss
osserva
osservazion
ossi
ossia
ossidazion
ossigen
ossola
ossolan
ossula
ost
osta
ostacol
ostalbkreis
ostallga
osteria
ostia
ostrava
ostrogo
ot
ota
otava
ote
otegn
otegni
otegnir
otegnud
otegnuu
otello
oter
other
oto
otober
otoman
oton
otover
otra
otranto
otre
ottaviano
ottawa
otte
ottegni
ottegnu
ottegnuda
ottegnuu
ottica
ottich
otto
ottober
ottobre
otton
ottone
ottover
otu
ou
ouest
oulx
our
ourense
out
output
ov
ova
ovari
ove
over
overa
overflow
overline
ovest
ovice
ovviament
ow
owyn
oxalis
oxford
oz
oze
ozieri
ozo
ozzano
p
pa
paa
paart
pablo
pac
pacchett
pace
pachet
paci
pacifegh
pacific
pacifica
pacifich
pad
pada
padan
padana
padani
padania
padar
pade
pader
paderna
paderno
padmasambha
padoa
padova
padovan
padovana
padr
padre
padri
padro
padron
padru
padrun
padua
pae
paees
paes
paesa
paesagg
paese
paesi
paesin
pag
paga
pagaa
pagada
pagament
pagan
pagani
pagar
page
pages
pagg
paghe
pagina
pagine
paginn
pagn
pagu
pagura
pai
paies
paire
pairs
pais
paisan
paizi
paj
paja
pajes
pajine
pakistan
pal
pala
palanti
palasa
palatina
palatinato
palau
palaz
palazz
palazzi
palazzo
palazzolo
palch
pale
palerm
palermo
palestina
palestines
palestinesa
pali
palma
palmare
palmira
palo
palpee
palta
palto
palu
palud
pan
panama
panaro
pancrazio
pandemi
pandemia
pandin
pane
panera
pann
panne
pano
panora
panorama
pansa
panscia
panthera
pantigliu
pantograf
panurama
paol
paola
paoli
paolo
papa
papaa
papanti
paper
papers
papua
par
para
parabiaa
parabiagh
parabiai
parabola
parabula
parade
paradis
paradiso
paradoss
paragona
paraguay
parale
paralelogra
parallel
parallela
param
parameter
parameters
parametri
parametro
params
parazzoeu
parc
parcc
parch
parche
parchegg
parco
pardu
pardubice
pare
pared
pareggia
paren
parenchi
parent
parentela
parentesi
pareva
pari
parigi
pariji
parin
parini
paris
parish
parisi
pariss
parita
park
parla
parlaa
parlad
parlada
parlade
parlame
parlament
parlamentar
parlant
parlar
parlari
parlava
parlaven
parle
parlen
parlere
parliament
parlo
parma
parmense
parmesan
parnonzia
parnonziaa
parnonziada
parnunzia
parnunziaa
paro
parocchia
parochia
parochie
parodi
parodia
parol
parola
parole
paroll
parolla
parolle
paron
parpognuu
parque
parra
parrocchia
part
parte
partecipa
partecipaa
partecipazion
partecipen
partegn
partegnen
partegniva
parten
partenkirchen
partenza
parteze
parti
partial
participazion
participi
particippi
particola
particolar
particolara
particolare
particolarita
particolarment
particu
particula
particular
particularita
partid
partida
partide
partido
partigian
partigiana
partigiani
partii
partir
partise
partiss
partissen
partit
partiti
partito
partitura
partiva
partizzion
partizziu
partner
parton
parts
party
paru
parzial
parzialment
pas
pasa
pascal
pase
pasie
pasiensa
pasini
pasiu
pasma
paso
pasqua
pass
passa
passaa
passad
passada
passagg
passaj
passand
passant
passanta
passaport
passar
passau
passava
passegee
passeggee
passegger
passen
passi
passiensa
passio
passion
passiria
passiu
passo
passport
password
past
pasta
pasteur
pasteurizasiu
pastor
pastoral
pastu
pastur
pastura
pat
patata
patch
pate
paterno
path
pati
patii
patime
patois
patremo
patria
patriarca
patrick
patrimo
patrimoni
patrio
patriota
patro
patron
patrona
patronn
patruno
patt
pattern
patti
patto
pau
paul
paulo
paura
pausa
pausania
pav
paves
pavesa
pavese
pavi
pavia
pavime
paviment
pax
paxe
payerne
payload
pays
paz
pazie
pazienza
pc
pca
pcaa
pce
pd
pdf
pdl
pds
pe
peca
pecaa
pecadu
peccaa
pechin
peda
peder
pederburgh
pedeze
pedra
pedrin
pedrioeu
pedro
pedu
pee
peer
pegro
pei
peis
pej
pel
pela
pelagi
pele
pelegri
pelegrin
pelegrina
pelegrinage
pelegrinagg
pelegrinagi
pelegrinagio
pelhr
peli
peligna
pell
pellagra
pelle
pellegrin
pellegrinagg
pellegrinaggio
pellegrini
pellice
pellicola
pels
pelu
peluze
pen
pena
penal
penalita
pendenza
pendolament
pendolino
peni
penin
penisola
penisula
penn
penna
pennacchio
pennsylvania
pensa
pensaa
pensad
pensada
pensar
pensava
pensaven
pense
pensee
pensen
penser
pensi
pensiero
pension
penso
penta
people
pepe
pepper
peppino
per
pera
peraa
percentu
percentua
percentual
percepi
perch
perche
perco
percorrenza
percors
percorso
percu
perd
perde
perden
perder
perdere
perdi
perdida
perdo
perdon
perdona
perdu
perdud
perduda
perduu
pere
perea
peregh
perego
perfe
perfet
perfett
perfi
perfiis
perfis
perfiss
performance
pergine
peri
pericol
pericolos
perife
perifere
periferia
periferica
perio
period
periodega
periodo
periu
periud
periur
perled
perlopio
perlopu
permanent
permanenta
perme
permess
permet
permeten
permeter
permeteva
permett
permetten
permetteva
permettuu
permiss
permittuu
pernonzia
pero
perosa
perotto
perpendicola
perpendicolar
perpignan
perqe
perque
perrier
pers
persa
persecu
persecuto
persecutor
persecuzion
persegh
persegu
perseguita
perseveranza
persia
persian
persiceto
persistent
perso
person
persona
personagg
personai
personaj
personal
personala
personalita
personas
persone
personi
personn
personna
personne
persu
persun
persuna
persunagg
persunai
persunal
persune
perth
perturbazion
pertusella
peru
perugia
pes
pesa
pesadura
pesant
pesanta
pesaro
pesca
pescador
pescara
peschera
peschiera
pescia
pese
pesg
pess
pessan
pessina
pest
pesta
peste
pet
peter
petit
petr
petrarca
petro
petroli
pettinengo
peu
peui
peussa
pever
peyriac
pez
pezz
pezzali
pfa
pfaffenhofen
pg
ph
phi
phil
philip
philippe
phone
photos
php
phylogeny
pi
pia
piace
piacentino
piacenza
piadena
pian
piana
pianal
piane
pianeta
pianeti
piangend
piani
pianificazzion
pianista
piano
pianofort
pianoforte
piant
pianta
piante
pianti
pianu
pianura
pianze
pianzend
pianzendo
pias
piasa
piase
piasensa
piasentin
piasentina
piasenza
piaseva
piasgia
piasi
piassa
piast
piastra
piat
piateda
piatt
piattaform
piattaforma
piatto
piave
piaza
piazz
piazza
piazzal
pic
pica
picard
picardie
picasso
picca
piccard
picch
piccol
piccola
piccoli
piccolo
pice
picea
picena
piceno
pich
piche
picini
picinin
picinina
pico
picola
picul
pid
pie
piedi
piedimonte
pief
piega
piemme
piemo
piemont
piemonte
piemontes
piemontesa
piemontese
piemunt
piemunte
piemuntes
piemuntesa
pien
piena
pienta
pientaa
pientada
pientament
pier
piergiorgio
pierluigi
piero
pierre
pies
pieta
pietaa
pietra
pietrasanta
pietro
pieu
piev
pieve
pigar
pigher
pigna
pignataro
pignatti
pigro
pigron
pii
pil
pila
pilaster
pileus
pilo
pilota
piloti
pilu
pin
pina
pine
pineda
pinerolo
pini
pinin
pink
pino
pinocchio
pinochet
pinsaa
pinso
pio
pioeu
pioeuv
pioeuva
pioltell
piomb
piombino
pioneer
piorand
piov
piova
piove
piper
pipi
pipin
pipino
pippo
pir
pira
pirata
pirche
pirdi
pirelli
pirene
pirenee
pirla
pirmiti
pis
pisa
pisani
pisano
pisapia
piscen
pisci
piscina
piscini
piscinin
piscinina
piscinine
piscininn
piscininna
piscinit
piscinitt
piskare
piskarev
pissa
pisse
pist
pista
pistoia
pistoiese
pistola
pistols
piston
pit
pita
pitor
pits
pittor
pittsburgh
pittura
pitu
pitur
pitura
piu
pius
piviun
pixel
piz
pizz
pizza
pizzaa
pizzo
pl
pla
placa
place
plafon
plain
plan
planck
planet
planeta
planetari
plant
plantarum
plantas
plantlist
plants
plastega
plata
platin
platz
play
player
playstation
plaza
ple
please
plessur
pli
plo
plotarea
plotdata
plu
plui
plum
plural
plus
plusiva
plusse
plussee
plutone
plutost
plzen
plœ
pm
pmc
pmod
pms
pn
png
po
poa
poaceae
poc
poca
pocch
poch
poche
pochi
poco
poda
podara
podare
podari
podaria
podaro
pode
podea
podemos
poden
poder
poderse
podess
podesse
podessi
podesta
podeva
podeven
podi
podlech
podo
podom
podu
podud
podum
poduu
poe
poel
poelln
poem
poema
poems
poesia
poesie
poesii
poesij
poeta
poeti
poetta
poeu
poeuden
poeudom
poeul
poezi
poggio
poggiomarino
pogia
poi
point
poitiers
poke
pol
pola
polac
polaca
polacca
polacch
polach
polar
pole
polee
polemega
polenta
polesella
polesine
poli
police
polici
policlinich
policy
poliez
polinesia
polinesian
polis
polistena
politecnegh
politecnich
politega
politegh
politeghe
politica
politich
politico
politiga
politigh
poliureta
polizia
poliziott
polizzia
polmon
polmonita
polo
polonia
polpa
poltron
polver
polverinna
pom
poma
pomera
pomerania
pomm
pomp
pompa
pompei
pompeo
pomper
pons
pont
ponta
pontada
ponte
pontevedra
ponti
pontida
pontiroeu
ponto
pontremoli
pontresina
ponts
ponzano
poo
pop
popa
popoi
popol
popola
popolada
popolar
popolara
popolare
popolari
popolarita
popolarment
popolasiu
popolazio
popolazion
popolaziun
popolazzion
popoli
popolism
popolista
popolo
popolosa
popu
popul
popular
population
populazion
populus
por
pora
porce
porch
pordenon
pordenone
porlezza
porn
porno
pornografia
poro
porosita
porrentruy
porretta
porrettana
porscei
porscell
port
porta
portaa
portad
portada
portador
portal
portame
portar
portatil
portava
porte
portegh
porten
porter
porto
portogal
portogall
portoghe
portoghes
portogruaro
portugal
porzio
porzion
pos
posca
posedime
positi
position
positiv
positiva
posizio
posizion
posizione
posizzion
poss
possa
posse
possediment
possent
possess
possi
possibel
possibil
possibile
possibilita
possibilitaa
posso
post
posta
postal
posti
posto
postum
pota
potadura
potassi
pote
potent
potenta
potentilla
potenz
potenza
potenzia
potenzial
potere
potsdam
pou
pour
pover
povera
povertaa
povra
power
poznan
pozz
pozza
pozzoeu
pozzuoli
poæ
pp
ppa
ppi
ppia
ppingen
ppm
ppo
pr
pra
praa
pracc
prachatice
prada
prades
praga
prague
praha
prat
prata
pratega
prategament
prategh
pratensis
pratica
praticame
praticament
prato
pratola
pre
prea
prealp
prealpin
precedent
precedenta
precedenza
preci
precipitazion
precis
precisa
precisament
precision
preco
precott
preda
predecessor
predega
predica
predicaa
predicad
predile
prefazione
prefere
preferenz
preferenza
preferi
preferii
preferiss
prefett
prefettur
prefettura
prefetu
prefi
prefiss
prefix
prega
pregaa
pregh
preghe
preghi
preghiera
pregnana
prego
preia
preisto
preistoria
prej
preja
prelaa
prelad
prem
prema
premi
premia
premier
premio
prencepe
prense
prenzip
prenzipaa
prenzipessa
prenzipi
prenzippi
preoccupa
prepa
prepara
preparaa
preparada
preparazion
preparazzion
preposizione
pres
presa
presapo
presbiteri
prese
presempe
presempi
presensa
present
presenta
presentaa
presentad
presentada
presentador
presentazion
presente
presenten
presents
presenza
presepi
preside
president
presidenta
presidente
presidenza
presidenziai
presidenziaj
presidenzial
presidi
presiu
preso
presolana
preson
presonee
press
pressa
pressapoch
pressappo
pressio
pression
pressiun
presso
prest
prestet
prestinee
prestisg
prestit
presto
preston
presu
presun
presunee
pret
prete
prevalenza
preved
prevede
prevedeva
prevedu
prevenzion
prevet
prevision
previst
prevo
prevost
prexempe
preze
prezenta
preziu
prezzi
pri
pria
pride
priest
prim
prima
primae
primari
primaria
primarie
primavera
prime
primi
primm
primma
primmo
primo
primula
primulaceae
prince
princesse
princeton
princi
princip
principa
principaa
principai
principaj
principal
principala
principalment
principato
principe
principessa
principi
principia
princippi
prinsipiaa
prinzipi
prion
priorita
prissian
priva
privaa
privacy
privad
privada
privas
privat
privatizzazion
privilegg
prix
prizune
pro
proa
probabel
probabil
probabilita
probabilment
proble
problem
problema
problemi
proce
procediment
procedura
process
processaa
procession
processor
proclama
proclamaa
proclamada
proclamazion
procura
procurator
prodi
prodo
prodot
prodott
prodotti
produ
producid
production
productions
produtor
produttor
produzio
produzion
produzione
produzzion
proe
proeuv
proeuva
proeuve
proeuven
prof
profession
professionai
professional
professionista
professo
professor
profesu
profeta
profi
profil
profile
profilo
profit
profo
profond
profonda
profondita
profuma
proge
progecc
proget
progeta
progett
progetta
progettaa
progettada
progettazion
progetti
progettista
progetto
progra
program
programa
programabel
programazzion
programma
programmator
programmazion
progress
progressista
proibi
proibii
proibizion
project
projet
projets
prome
promessa
promessi
promo
promoeuv
promonto
promozion
prono
pronom
pronomm
prononzi
prononzia
pront
pronta
pronuncia
pronunciaa
pronz
propaga
propaganda
propagazio
propagazion
prope
property
propi
propia
propie
propieta
propo
proporzional
proposet
proposissiu
proposit
propost
proposta
proposte
proppi
proppieta
propri
propria
proprieta
proprietaa
proprietari
proprio
prosa
prosperita
prossim
prost
proste
protagonista
protas
prote
protegg
protegiuu
proteina
proteine
protesiu
protest
protesta
protestant
protestanta
proteste
protettor
protezio
protezion
protezzion
proto
protocoj
protocol
protocoll
proton
prototip
prova
provaa
provad
provar
provava
prove
provenc
provence
provenza
provenzal
proverbi
providence
provinc
provincc
province
provinces
provincia
provinciai
provincial
provinz
provoca
provocada
provvisori
pru
prua
pruaa
prubabilment
prublema
prucediment
prucess
pruclama
pruclamaa
prudot
prudu
prudusiu
prudut
prudutu
pruerbi
prufe
prufessur
prufesu
prufesur
prufeta
prufezi
prufi
pruge
pruget
prugett
prugra
prugrama
prui
pruincia
pruinsa
prum
pruma
prume
prumetu
prunom
prunt
prunu
prununcia
prunus
prupieta
prupietaa
pruposit
pruprieta
prupusizziu
prussia
prussian
prutagunista
prutagunisti
prutegiu
prutesta
prutestant
prutestanta
prutu
prutun
pruvaa
pruverbi
pruvi
pruvinc
pruvincc
pruvincia
ps
psess
pseudo
pseudonim
pseudopotenzial
psi
psichiatra
psicologia
psula
pt
pu
pub
pubblica
pubblicaa
pubblicazio
pubblicazion
pubblicazione
pubblich
pubblicita
pubblico
pube
pubescens
publeg
publega
publegaa
publegad
publegada
publegh
publi
public
publica
publicaa
publicad
publicada
publications
publich
publique
published
publishing
pucikwar
pudding
pude
pudess
pudesta
pudeva
pudi
pudiva
pudu
pue
puema
puerto
puesia
puesii
pueta
puglia
pugn
puigdemont
puja
pulach
pule
pulenta
puli
pulimer
pulitega
pulitegh
pulitica
pulitich
pulitiga
pulitigh
pulo
pulonia
pulsa
pum
puni
punk
punt
punta
punti
puntiro
punto
puo
puoco
pup
pupa
pupart
pupula
pupulada
pupular
pupulara
pupulasiu
pupulasiun
pupulaziun
pupulazziun
pupulu
pur
pura
pure
purple
pursiu
purta
purtaa
purtada
purte
purtugal
purtughes
pus
pusc
puse
pusee
pusi
pusibilita
pusizion
pusiziu
pusiziun
pusse
pussediment
pussee
pussi
pussibil
pussibilita
pusterla
put
pute
puter
putin
puto
putost
putto
puttost
puu
puunt
puy
puzisiu
pv
px
pyongyang
pyre
python
pz
pœ
pœden
pœl
pœu
q
qaida
qatar
qe
qei
qel
qell
qella
qelle
qende
qest
qesta
qeste
qests
qi
qimeg
qimega
qing
qquad
qu
qua
quaa
quaal
quac
quach
quad
quader
quaderni
quadra
quadraa
quadrad
quadrada
quadradi
quadrej
quadri
quadrila
quai
quaich
quaico
quaicoss
quaidu
quaidun
quaivu
quaivun
quaj
quajcoss
quajcossa
quajdu
quajsevoeur
quajvun
quajvuna
qual
quala
qualc
qualch
qualche
qualchedun
qualco
qualcosa
qualcossa
qualcun
quale
quali
qualifega
qualifier
qualita
qualitaa
qualsessi
qualsessia
qualunque
quan
quancc
quanci
quand
quando
quant
quanta
quante
quanti
quantistega
quantita
quantitaa
quanto
quarant
quaranta
quarch
quarche
quaresma
quark
quarna
quart
quarta
quarte
quartee
quarter
quartet
quartiee
quartier
quarto
quas
quase
quasi
quat
quata
quatad
quatar
quater
quato
quatordes
quatr
quatre
quatta
quattaa
quattada
quattadura
quatter
quattercent
quattro
quauque
que
queen
queensland
quei
quej
quel
quela
quele
queli
quell
quella
quelle
quelli
quello
quelo
quentin
quenya
quer
quercia
quercus
quesit
quest
questa
queste
questi
question
questo
queła
qui
quia
quid
quie
quiet
quii
quij
quili
quillan
quindes
quindi
quint
quinta
quinto
quirico
quirinal
quist
quista
quistion
quistiu
quistiun
quit
quo
quorum
quota
quote
quotidian
quotidiano
r
ra
raa
raal
rab
rabbia
rabi
rabia
rabiaa
rabisch
rac
racc
racco
raccolta
raccord
racing
raco
racolta
racord
rada
radar
radetzky
radi
radia
radiant
radiatus
radiazio
radiazion
radica
radical
radicale
radio
radioati
radis
radu
raf
rafael
raffael
raffaele
raffreddame
raffreddament
rafigu
ragazza
ragazzi
ragazzo
ragg
raggio
raggiu
raggiunt
ragh
ragn
ragnar
ragno
ragru
ragu
ragusa
rai
rail
railjet
railway
railways
raimondo
rain
rainbow
raion
raj
rajoy
rakovni
ral
rala
ram
rambert
rame
ramelow
ramifica
ramm
ramones
rampega
ran
ranch
range
rangh
rangiament
ransomware
rant
ranta
ranunculaceae
ranunculus
ranza
rap
rapa
rapid
rapida
rapii
rapiment
rapo
raport
raporta
rapper
rapperswil
rappo
rapport
rappresenta
rappresentada
rappresentazion
rappresenten
rapresenta
rapresentant
rapresentazion
rar
rara
rarame
rarament
rard
rari
raron
ras
rasa
rasiu
raso
rason
rassa
rastatt
rastel
rat
rathaus
ratisbona
ratt
rattazzi
raul
rault
rava
rave
ravena
ravenna
ravensburg
raw
ray
rayleigh
raymond
raza
raze
razz
razza
razze
razzi
razziala
razzism
rb
rba
rbe
rber
rbes
rbi
rbita
rbite
rbo
rc
rca
rcc
rch
rche
rchi
rchia
rcia
rcio
rcit
rcoi
rcol
rcul
rd
rda
rde
rdegn
rden
rdes
rdi
rdia
rdin
rdit
rdita
rdo
rdoba
rdu
re
rea
reagan
reagi
reai
reaj
real
reala
reale
reality
realiza
realizza
realizzada
realta
realtaa
reazio
reazion
reaziun
reazzion
rebassaa
rebellion
rebellot
rebu
rec
recanati
rece
recensament
recent
rech
recia
recipient
recita
recito
recla
reclam
reclama
reclamm
recognoss
recognossen
recognosser
recognossiment
recognossud
recognossuda
recognossuu
recono
reconossu
reconquista
record
recordings
records
recorz
recostruida
recostruzion
recu
recugnussu
recumpe
recumpensa
recunusi
recupera
red
reddit
redo
redond
redonda
redox
redu
redundaa
redutt
reduzion
ree
refenzi
refere
referendum
referense
referenz
referenza
referime
referimencc
referiment
referiss
reffre
reform
reforma
refu
refuda
refudaa
refurma
refurmada
rega
regaj
regal
regala
regall
regen
regg
reggent
reggenza
reggio
regh
regi
regia
regierungsbezirk
regim
regime
regimm
regina
regio
regioexpress
regiojet
region
regionai
regionaj
regional
regionala
regionale
regionali
regionalista
regione
regioni
regionn
regista
register
registra
registraa
registrad
registrada
registrazion
registrazzion
regiu
regiun
regiuna
regiunai
regiunal
regiunala
regn
regna
regnaa
regno
rego
regoeuj
regol
regola
regolaa
regolament
regolar
regolarment
regolazion
regole
regoll
regolle
regolt
regolta
regord
regorda
regordaa
regordad
regordada
regorden
regordom
regu
regula
regurda
rei
reich
reichenau
reichenbach
reina
reinach
rej
rejia
rejister
rejon
rel
relasiu
relassaa
relassad
relati
relativ
relativa
relativament
relativi
relazio
relazion
relaziun
relazzion
relazziu
religion
religios
religiosa
religiu
religiun
religius
relijon
reliquie
rem
remix
remo
remorcc
remote
rems
ren
rena
renaa
renania
renassiment
renato
renaud
renault
rend
rende
rendena
rendime
rendiment
rene
renga
rennes
reno
renoeuva
renoeuvaa
renoeuvament
renonzia
rens
renu
renzi
renzo
reo
reoplan
reopo
reoport
reorganizasiu
repa
repart
repe
repert
reperto
repertori
replica
repo
report
reppresenta
reppresentaa
reppresentant
representa
representaa
representad
representada
representant
representanta
representazion
representen
repression
repreze
reprezenta
repu
repubblica
repubblicano
repubbliga
republega
republegan
republegana
republegh
republeghe
republic
republica
republicana
republika
request
requia
require
rer
res
resa
rescaldina
rese
research
resega
reserva
reservaa
reseta
resg
resgio
reshe
resi
resident
residente
residenza
residenzial
resina
resist
resiste
resisten
resistent
resistenza
reso
resoeulv
resoluzion
reson
resorgiment
resors
resources
respe
respet
respeta
respett
respetta
respighi
respiratori
respirazion
respo
respoeusta
respond
responduu
responsa
responsabil
responsabilita
resposta
respund
respundu
rest
resta
restaa
restad
restada
restara
restau
restauraa
restava
restaver
restavor
restell
resten
restorant
restorazion
resu
result
resulta
resultaa
resultad
resun
ret
reta
rete
retegh
retegnud
retegnuda
retegnuu
retica
retiga
retigh
retira
retiraa
retirad
retirada
reto
retorn
retrieved
retro
retrocompatibilita
retrovirus
rettor
return
reu
reuport
reutlingen
reutte
rev
revamping
revarda
revarden
revelaa
revenir
review
revision
revista
revo
revolta
revolution
revoluzion
revoluzionari
revoluzzion
revulu
rex
rexon
rey
reynolds
rez
rezi
rezia
reziste
reziu
reziun
rezu
rf
rfc
rfi
rft
rg
rga
rgb
rge
rgen
rgh
rghe
rghegn
rghem
rghen
rghes
rgia
rglen
rgna
rgo
rgovia
rh
rha
rhb
rhe
rhein
rheinfelden
rheintal
rho
rhode
rhodesia
rhodiola
ri
ria
riaa
rial
rialto
riara
riat
riatt
ribe
ribei
ribej
ribell
ribellion
ribera
ribo
ric
rica
ricca
riccardo
ricch
riccione
ricco
rice
ricerca
ricerch
ricerche
riceta
ricetta
ricev
riceven
ricevu
ricevuu
rich
richard
riche
richiesta
richter
rick
rickenbach
rico
ricorda
ricordi
ricorer
ricu
rid
rida
ride
ridere
ridi
rido
ridu
riduzio
riduzion
rie
ried
rielegiuu
riemann
rien
ries
riess
riessen
riessi
riessida
riessii
rieti
rifa
riferi
riferime
riferimencc
riferiment
riferiments
riferiss
rifle
riflessio
riflession
riflettent
riflettu
riflettuda
riforma
rifrazion
rifu
rifugio
riga
righ
right
rightarrow
rights
rigid
rignano
rigor
riguru
rii
rijkswaterstaat
rijksweg
rileva
rilevament
rilevant
rilevazion
riliev
rima
rime
rimini
rin
rindi
rinfo
rinforz
rinforza
ring
ringia
rino
rio
rion
rionero
rioni
ripa
ripamonti
ripara
ripe
ripetizion
riporta
riproduzion
ris
riscalda
riscaldame
riscaldament
rise
riserva
riservaa
risi
risii
rism
riso
risoluzio
risoluzion
risonado
risonanza
risott
risparmi
rispe
rispet
rispeta
rispett
rispetta
rispo
rispost
risposta
rist
rista
ristampa
risu
risulta
rit
rita
ritaa
ritard
ritegn
ritegnuu
riti
ritira
ritiraa
ritirada
ritm
rito
ritorn
ritorna
ritorno
ritra
riu
riulta
riulte
riv
riva
rivaa
rivad
rivada
rivads
rivalita
rivar
rivara
rivarolo
rivava
rivaven
rive
riven
river
rivera
rives
rivestime
rivie
riviera
rivignano
rivista
rivo
rivoeuj
rivoeulta
rivoli
rivolta
rivoluzion
rivoluzionaria
rivoluzione
rivulu
rizo
rizu
rizzo
rizzoli
rk
rl
rla
rle
rli
rlo
rm
rma
rme
rmen
rmi
rmica
rmich
rmide
rmin
rmina
rmo
rmodinamica
rmodinamich
rmol
rmola
rmor
rmu
rmula
rn
rna
rnberger
rne
rnech
rni
rnia
rnida
rno
rnu
ro
roa
road
roanne
rob
roba
robaa
robalizzi
robb
robba
robe
robecch
robert
roberta
roberto
roberts
robi
robin
robot
roca
rocca
roccaforte
roccasecca
roccella
rocch
rocchetta
rocco
roch
roche
rochefort
rochette
rock
rodaia
rodaja
rodalies
rodano
rode
roden
rodi
rodovia
rodoviaria
rodovie
rodri
roe
roeud
roeuda
roeul
roeull
roeusa
roger
rognon
rogored
rohan
rohirrim
rohr
roi
rokycany
roll
rolle
rolling
rollo
rom
roma
romagna
romain
roman
romana
romanc
romancc
romance
romane
romani
romania
romann
romano
romans
romanz
romanza
romanze
rome
romen
romena
romeo
romma
romont
ron
rona
ronald
ronch
ronchett
ronchi
ronco
ronda
rondo
rongorongo
ronsg
ronsgia
room
root
ropa
rore
rorschach
ros
rosa
rosaa
rosaceae
rosada
rosales
rosario
rosc
rose
rosenheim
roseto
rosetta
ross
rossa
rossano
rossby
rossi
rossini
rosso
rostand
rot
rota
rotabil
rotaie
rotasiu
roth
roto
rotonda
rotondo
rottal
rotterdam
rottweil
rouen
rouge
round
roussillon
router
routing
rouy
rovaa
rovagnaa
rover
rovere
roveredo
rovereto
rovigh
rovigo
rovina
row
roy
royal
royans
rozzan
rp
rpa
rpe
rpora
rr
rra
rrach
rrethi
rs
rsa
rsc
rschwil
rse
rsen
rsi
rsica
rsich
rso
rst
rstenfeldbruck
rstetten
rt
rta
rtaa
rte
rtega
rten
rter
rtes
rth
rti
rtl
rto
rttemberg
rttenberg
ru
ruanda
ruba
rubicone
rubine
rubra
rubus
ruby
ruciu
rudini
rudolf
rue
ruff
rugby
ruggeri
ruggiero
ruhr
rui
ruiz
rule
rum
ruma
rumagna
rumagno
ruman
rumana
rumanc
rumancc
rumancia
rumania
rumantsch
rumanz
rumanza
rumen
rumilly
rumo
rumor
rump
run
runch
ruolo
rus
rusa
rusca
rusconi
ruscus
russ
russa
russell
russia
russian
russo
rust
rustegh
ruva
ruvad
ruvina
ruvinn
ruz
ruza
rv
rva
rve
ry
ryan
rychnov
ryoko
ryu
rz
rza
rzburg
rzen
rœda
s
sa
saa
saale
saane
saanen
saarland
saas
sabbia
sabet
sabia
sabin
sabina
sabine
sabino
sac
sacch
saccharomyces
sacco
sacerdot
sacerdott
sach
sachegia
sacher
sacile
sacra
sacrament
sacrifizi
sacrifizzi
sacro
sad
sae
safety
safien
sagg
saggio
sagra
sahara
sai
said
saillagouse
saint
sainte
saj
sakura
sakurambo
sal
sala
salada
salandra
salari
sald
salda
sale
salem
salenti
salentino
salento
salerno
sales
sali
salida
salin
salina
salinita
salisb
salisburgh
salle
salles
salm
salo
salon
salsa
salt
salta
saltaa
salte
salto
salu
salud
saluda
salut
salute
saluzzo
salv
salva
salvaa
salvad
salvada
salvador
salvadu
salvatagg
salvatore
salve
salvin
salvini
salvo
salza
sam
samaga
samba
same
samedan
sami
samo
samoa
samson
samuel
samurai
san
sancc
sancti
sanctorum
sanctus
sand
sanders
sandra
sandro
sang
sangh
sangian
sangro
sangu
sangue
sanita
sanitari
sanitaria
sankt
sanmarines
sann
sannio
sannita
sannitico
sanrem
sanremm
sanremo
sanscret
sant
santa
santarcangelo
sante
santi
santiago
santifica
santii
santissima
santo
santos
santu
santua
santuare
santuari
santuario
sanza
sanzion
sao
sapere
sapes
sapie
sapienza
sar
sara
saraa
sarada
saradura
sarah
sarajevo
saran
sarann
sarcococca
sarda
sardegna
sardegnoeu
sardo
sare
sareet
saremo
saress
saressi
sari
saria
sarien
sarii
sarine
sariss
sarissen
sarkozy
sarnen
sarno
saro
saronn
saroo
sarra
sars
sarte
sartirana
saruman
sarzana
sas
saso
sasonia
sass
sassari
sassin
sasso
sasson
sassonia
sassuolo
satana
sate
satelit
satellit
satira
satriano
satur
satura
saturazion
saturday
saturno
sau
sauber
saudita
saul
sauron
sauveur
sava
savara
save
savend
saver
savesse
saveva
savi
savia
saviano
savie
savigliano
savignano
savii
savo
savoia
savoja
savon
savona
savor
savu
savuu
sax
saxifraga
saxifragaceae
say
sb
sba
sbar
sbara
sbaraa
sbarad
sbarca
sbassa
sbassaa
sbassada
sbat
sbati
sbatu
sbatud
sbb
sberlu
sberlusent
sbn
sbo
sbu
sc
sca
scagn
scal
scala
scalda
scale
scalemajor
scaleminor
scambi
scambia
scambiada
scampa
scancella
scandinavia
scandol
scandul
scans
scapa
scapaa
scappa
scappaa
scapu
scar
scara
scarich
scarp
scarpa
scarpe
scarpetta
scarpi
scars
scarsa
scartament
scascia
scasciaa
scassa
scassaa
scav
scc
sce
scelera
scelta
scena
scenari
scender
scendiroeu
scene
scensia
scenti
scentifegh
scenza
scenze
scern
scerna
scerne
scerni
scernid
scernida
scernii
scerniss
scernissen
scernud
scernuda
scernuu
scerr
sces
sch
scha
schaan
schand
sche
sched
scheda
schede
scheleter
schellenberg
schema
schenen
schermo
scherz
schet
schi
schia
schie
schignan
schinz
schinznach
schio
schisa
schiscia
schlatt
schleswig
schloss
schmidt
schmitten
scho
schongau
school
schrobenhausen
schu
schult
schumacher
schur
schuster
schwa
schwandorf
schwantes
schwarzenberg
schwarzwald
schwaz
schweinfurt
schweiz
schweizer
schwyz
sci
scia
sciafu
sciatt
science
sciences
scientifega
scientifegh
scientifich
scientifico
scienz
scienza
scienze
scienziaa
scighera
scigolla
scii
scilla
scima
scimm
scin
scio
sciopero
scior
sciora
sciori
scipio
scires
scisma
scission
scita
scitaa
sciu
sciur
sciura
scmq
sco
scoeul
scoeula
scoeule
scoeur
scoeura
scof
scol
scola
scolastegh
scolda
scolta
scomensa
scomenza
scomenzaa
scomenzando
scomincen
scomincia
scominciaa
scominciad
scominciada
scominzia
scona
scond
scondud
sconduda
sconduu
sconfiggiuu
sconfitt
sconfitta
sconosciuto
sconter
scontra
scop
scope
scoperta
scormagna
scorr
scorriment
scorta
scorze
scoss
scots
scott
scotti
scov
scozia
scozzes
scri
scricc
scricciur
scrif
scrii
scriif
script
scriptura
scrit
scrita
scritor
scritt
scritta
scritti
scrittor
scrittura
scritu
scritur
scritura
scriu
scriv
scriver
scriveva
scrivi
scrivia
scrivu
scrivud
scrivuda
scrivude
scrivuu
scrutini
scu
scud
scudaria
scudarie
scudet
sculta
scultor
scumenza
scumincia
scuminciaa
scunda
scundu
scunfi
scuol
scuola
scupri
scur
scura
scurmagna
scusa
sd
se
sea
search
sebastia
sebastian
sebastiano
sebino
sec
seca
secca
secch
secchia
secession
sech
seclusion
seco
secoi
secol
secoli
secolo
second
seconda
secondari
secondaria
secondo
secret
secretari
secreteria
secrett
secu
secuj
secul
secund
secunda
security
sed
seda
sedan
sede
sedeno
sedes
sedum
see
seefeld
seeland
seen
sees
seet
sega
segal
segantini
segesta
segg
segh
seghe
seghel
segme
segmeent
segment
segn
segna
segnaa
segnad
segnai
segnal
segnala
segnalament
segni
segno
sego
segond
segonda
segondari
segondaria
segont
segraa
segre
segret
segreta
segretari
segrett
segu
seguent
segui
seguida
seguii
seguit
seguita
segund
segunda
segur
segura
seguta
segutaa
seguunt
sei
seine
seit
sej
sek
sel
sela
select
selected
selesiu
selezzion
self
sella
selva
selvadegh
sem
sema
semafer
semai
sembra
semi
semily
semina
seminari
semiorari
semioraria
semipilota
semm
semo
sempar
sempe
semper
sempervivum
sempion
sempione
semplicement
semplicita
semplifica
semplificada
semplis
sempliz
sempr
sempra
sempre
sempri
sempro
sempru
sen
sena
senaa
senad
senagh
senato
senator
senatora
senavra
senegal
senna
sens
sensa
sense
sensi
sensibil
sensibilita
senso
sensor
sent
senta
sente
sentee
senten
sentend
sentendo
sentene
sentenza
senter
senti
sentid
sentii
sentime
sentiment
sentindo
sentinel
sentir
sentiss
sentiva
sentivi
sento
sentra
sentu
sentuu
senz
senza
seoul
sep
sepa
separa
separaa
separada
separatista
separator
separatore
separazion
separen
sepo
sepolcar
sepolcher
sepolcr
sepolcro
sepp
sept
september
sepu
sepulcar
sepulcro
seque
sequenza
sequester
ser
sera
seraa
serada
serata
serb
serbato
serbia
serbo
serc
serca
sercc
sere
seregn
seren
serenissima
sergio
seri
seria
serial
seriana
serie
series
serina
serino
serio
sermon
serpent
serra
serrad
serrada
serravalle
serre
serres
serrie
serum
serv
serva
serve
serven
server
servi
service
servid
servida
servidor
servii
serviss
servissen
servissi
servito
servitoi
servitor
servitu
servitur
serviva
servizi
servizio
servizzi
servo
ses
sesia
sesiu
sess
sessa
sessanta
session
sesso
sessuai
sessual
sessuala
sessualitaa
sest
sesta
seste
sester
sestieri
sesto
set
seta
setaa
setanta
setara
sete
setema
setembar
setember
setentrional
setentrionala
setentriuna
setentriunal
setentriunala
setim
setima
setimana
setor
sett
setta
settaa
settanta
settcent
sette
settemana
settember
settembre
settentrional
settim
settimana
settimo
setto
settor
setu
seu
seugn
seva
sevar
seve
seven
sever
severament
severamente
severino
severo
seves
sevi
sex
sexual
seychelles
seyssel
sezio
sezion
sezione
sezzion
sezziu
sf
sfe
sfendidura
sfera
sferich
sfi
sfida
sfila
sfm
sfo
sfoga
sfogava
sfogavo
sfond
sfondo
sforo
sforz
sforza
sforzada
sforzesch
sfr
sfro
sfroos
sfrutta
sfuga
sfugava
sg
sga
sgara
sgen
sgenee
sgener
sgeneral
sgent
sgi
sgia
sgiald
sgiamo
sginee
sginer
sgio
sgioeugh
sgionta
sgiontad
sgionten
sgiornalista
sgioven
sgiovin
sgir
sgira
sgiu
sgiudee
sgiuga
sgiugador
sgiugn
sgno
sgnor
sgnora
sgnour
sgnoura
sgor
sgora
sgrandi
sgrif
sgu
sgui
sguizzera
sh
shakespeare
shanghai
shanks
sharp
she
sheffield
shell
shift
shinobu
sho
shortcut
should
show
shpalman
shutaro
si
sia
siamo
sian
sibe
siben
siberia
sibia
sic
sica
sical
sich
siche
sicignano
sicilia
sicilian
siciliana
sicista
sico
sicu
siculo
sicur
sicura
sicurezza
sid
sida
side
sie
siel
siemens
siempre
sien
siena
sierra
sierre
sies
siet
sieu
sig
sigla
sigli
sigma
sigmaringen
sign
signa
signifegad
significa
significaa
significad
significati
signo
signor
signora
signore
signoria
signu
signur
signura
sigu
sigur
sigura
sigurazion
sigurezza
sii
sil
sila
silaba
sile
silene
silenzi
silesia
sili
sillaba
silmarillion
sils
silva
silvaplana
silver
silvi
silvia
silvio
silvius
sim
sima
simbo
simboi
simbol
simbul
sime
simetri
simil
simmental
simmetrica
simo
simon
simona
simone
simonetta
simu
simula
simun
sin
sina
sinagoga
sinai
sinclair
sincronizazzion
sind
sindacaa
sindaco
sindarin
sindech
sindega
sindegh
sindich
sindigh
sindrome
sinense
sinfonegh
sinfonia
sinfonie
sing
singapore
singen
singine
single
singletu
singo
singoi
singoj
singol
singola
singolar
singu
singuj
singul
singular
sini
sinistra
sino
sinod
sinonem
sinonim
sint
sintassi
sinte
sintesi
sinti
sintom
sio
sion
sior
siora
sipri
sipro
sir
sira
siracusa
sirca
sirena
siri
siria
sirio
siro
sis
sissach
siste
sistem
sistema
sistemaa
sistemada
sistemi
sit
sita
sitat
site
siti
sito
sitt
situ
situaa
situada
situasiu
situazio
situazion
situazzion
siu
siun
siur
siura
siuv
siva
sivi
six
sk
ska
ski
sky
sl
sla
slanz
slarga
slargaa
slargad
slargada
slargament
slav
slava
slavaggiament
slave
slesia
slo
slonga
slongaa
slongada
slongament
slontana
slovacca
slovacch
slovacchia
slovach
slovachia
slove
sloven
slovenia
sluachia
sluenia
slunga
sm
sma
smagg
small
smartphone
smi
smich
smith
smo
smolensk
smorza
smorzada
smr
sn
sna
sncf
sne
snes
so
soa
soazza
sobre
soc
soccors
soci
socia
sociaa
sociad
sociai
sociaj
social
sociala
socialdemocrategh
socialdemocratico
sociale
sociali
socialism
socialismo
socialista
sociazion
sociazzion
socie
societa
societaa
society
socio
socors
soddisfa
soddisfazion
sodi
sodisfa
sodisfasiu
sodisfassion
sodisfazio
sodisfazion
soe
soeu
soeuja
soeul
soeurich
sof
soffri
sofia
sofri
sofrir
sofriva
software
soge
soget
sogge
soggett
sogn
sogno
soi
sojet
sokolov
sol
sola
solament
solamente
solar
solaro
solbiaa
sold
solda
soldaa
soldacc
soldad
soldi
sole
solet
soleta
solfa
solfaa
solfer
solfo
soli
solid
solida
solidarieta
solista
solit
soll
solleva
solo
solta
solu
solubil
solubilita
solud
soluzio
soluzion
soluzzion
solvent
som
soma
somato
some
someja
somejava
somenza
somma
sommariva
sommie
sommita
son
sona
sonaa
sonada
sonar
sonata
sonava
soncin
sonda
sondagg
sondri
sone
sonen
sonett
song
songs
sonic
sonnino
sono
sonor
sonora
sons
sont
sony
soo
sopo
soporta
soportar
soportare
soportava
soporte
soppo
sopporta
sopportava
soppress
soppressa
sopra
sopran
sopress
sora
sorano
soranomm
sorapu
soratu
soratut
soratutt
soratœt
soravia
sore
soree
sorell
sorella
sorengh
sorge
sorgent
sornomenada
sorpresa
sorrento
sort
sorta
sorte
sorti
sortid
sortida
sortide
sortii
sortis
sortiss
sortissen
sorvelianza
sos
sospend
sospenduda
sospenduu
sospension
sospettaa
sossen
sossenn
sosta
sostanse
sostantiv
sostanz
sostanza
sostanze
sostanzialment
soste
sostegn
sostegnen
sostegni
sostegnidor
sostegnud
sostegnuda
sostegnuu
sostenidor
sostenitor
sostitui
sostituid
sostituida
sostituii
sostituiss
sostituzion
sot
sota
sotaclas
sotafami
sotaspe
sotate
sotra
sott
sotta
sottana
sotterranea
sotto
sottopo
soul
sound
source
sous
south
southern
sova
sove
soveria
sovie
soviedega
soviet
sovietega
sovietegh
sovietich
sovra
sovran
sovranita
sp
spa
space
spada
spagna
spagno
spagnoeu
spagnoeui
spagnoeul
spagnoeula
spagnol
spain
spal
spale
spali
spall
spalla
span
spandu
spanduda
spantega
spantegaa
spantegad
spantegada
spantegament
spanteghen
spara
sparatoria
spari
sparii
sparnega
spartacus
sparti
spartid
spartida
spartii
spartiss
spartissen
spartizion
spartizzion
spasia
spatzen
spazi
spazio
spazzi
spe
speccia
spece
speci
specia
speciai
speciaj
special
speciala
speciale
specializa
specializzaa
specialme
specialment
specie
species
specifega
specifegh
specifica
specifich
spectre
spedisiu
spedizion
spedizzion
speed
spegg
spencer
spend
spera
speransa
speranza
sperava
speri
sperimenta
sperimental
sperimentazzion
sperling
spes
spesa
spesia
spess
spessa
spessart
spesso
spessor
speta
spetacul
speter
spetta
spettacol
spezia
spezzano
spi
spia
spiaggia
spiagia
spiciula
spiega
spiegazion
spiez
spiga
spighe
spin
spina
spinola
spinta
spinu
spionagg
spira
spiret
spirit
spiritismu
spirito
spiritu
spiritual
spit
spl
splendida
splendor
split
splu
spluga
spo
spoleto
spond
sponda
sponta
spontani
spoon
spore
sport
sportell
sporti
sportiv
sportiva
sportivo
sports
spos
sposa
sposaa
sposad
sposada
sposadi
sposi
sposta
spostaa
spostad
spostada
spostament
spot
spressi
springer
springfield
springs
spu
spund
spunda
spus
spusa
spusaa
spusta
spuza
sq
sql
sqrt
squa
squader
squadra
square
squas
squasi
sr
sre
srh
sri
srl
srotonda
ss
ssa
ssan
sschi
sscoss
ssd
sse
ssee
ssegh
ssel
sseldorf
ssembu
ssemburgh
ssen
sser
sset
ssi
ssia
ssich
ssid
ssif
ssim
ssima
ssio
ssiu
ssiun
ssnacht
sso
ssola
ssp
ssu
st
sta
staa
staat
stabel
stabele
stabil
stabili
stabilii
stabiliment
stabiliss
stabilita
stacategory
stacc
stacia
stack
stad
stada
stade
stadi
stadio
stadler
stado
stadt
stadtbahn
staff
stafura
staga
stagh
stagio
stagion
stagionadura
stagiu
stagiun
stagn
stagniweb
stai
staia
stair
stait
staita
staite
staits
staja
stajon
stala
stalin
stam
stamp
stampa
stampaa
stampant
stampanta
stan
stand
standard
standardizaa
stanga
stanley
stann
stanz
stanza
star
stara
stare
starnberg
stars
start
starz
stasiu
stat
stata
statai
statal
statala
state
statement
states
stati
station
statistega
statistegh
statisteghe
statistical
statistich
statistics
stato
statoa
statov
stats
statt
statu
statua
statue
statunitens
statunitensa
status
statut
stava
staven
stazion
stazionari
stazione
stazioni
staziu
staziun
stazzion
stcoss
ste
stech
stee
steel
stefan
stefano
stega
stegh
stein
steinach
stek
stel
stela
stell
stella
stelle
stelvi
stem
stema
stemma
sten
step
stephen
ster
sterreich
stess
stessa
stesso
stetten
steve
steven
stewart
sti
stia
stica
stich
stiche
stigma
stil
stile
stima
stimaa
stimm
stin
stiria
stisia
stizia
sto
stoca
stocarda
stoccarda
stoici
stokes
stomegh
stone
stones
stop
stor
storeg
storega
storegament
storegh
stori
storia
storica
storicament
storich
storiche
storici
storico
storie
storiga
storigh
storiografia
storm
story
str
stra
straa
stracch
strad
strada
stradal
strade
strage
strakonice
stralattado
strana
strange
strani
strano
strapo
straport
strasc
strasiu
strat
strategia
strategica
strategich
strati
stratiformis
strato
stratocumul
stratocumulus
stratosfera
stratosferich
straubing
strausberg
straße
stre
strecc
streccia
stree
streersa
street
stregg
strehler
streit
stremi
stremii
strengiuu
stresa
strett
stri
stria
strial
string
stringa
striscia
stro
strona
stropod
stru
strument
struments
struttu
struttur
struttura
strutu
strutura
struture
stu
stuart
stude
student
students
studi
studia
studiaa
studiad
studies
studio
studios
study
stuma
stura
stuttgart
style
su
sua
sub
subet
subi
subiss
subit
subset
subseteq
subsp
suburban
suburbana
succ
succe
succed
succeden
succeduu
success
succession
successiv
successivament
successor
suced
sucedio
sucedud
suceduu
sucess
sucession
sucessor
sucial
sucieta
sucule
sud
sudafrica
sudafrican
sudan
suddivision
sude
sudest
sudisfasion
sudisfazion
sudiviziu
sudo
sudtirol
sue
suent
suerno
suernomina
suez
sufiss
sufri
sufrir
suga
sugar
suget
suggeri
sui
suis
suisse
suite
sul
sula
sulander
sulbiaa
sulda
suldaa
suleta
sulista
sull
sulla
sulle
sullo
sulmona
sulpice
sultan
sulu
sulzbach
sum
suma
sumalia
sume
sumeja
sumiragh
summer
sun
suna
sunaa
sundri
sung
sunora
sunt
suo
suoi
suono
super
supera
superaa
superad
supercoppa
superfi
superfice
superfici
superficia
superficial
superficie
superfis
superfiss
superfix
superior
superiora
superiore
superiu
superstrada
suport
suporta
suppo
support
supporta
supportaa
supportava
suprem
suprema
supurta
supurtar
sur
sura
suradeto
surato
suratu
surbi
surbida
surda
sure
surel
surela
suriname
sursee
surselva
sursilvan
surti
surtii
sus
susa
sustanza
sustegn
sustitu
sut
suta
sutame
sutera
sutsilvan
sutta
sutti
suttil
suttilie
suu
suva
suvent
suzzara
suzzess
sv
svampa
svantagg
svapo
svapora
svaporament
svaria
sve
svede
svedes
svedesa
svelo
svelt
svelta
sveltame
svesina
svevia
svezia
svezzia
svg
svi
svilu
svilupp
sviluppa
sviluppada
sviluppen
svit
svitavy
svizer
svizera
svizra
svizzer
svizzera
svizzero
svo
svolta
svp
sw
sweet
swiss
switch
switzerland
sy
sydney
symbol
symphorien
syn
system
systems
sz
szeged
szu
sœ
sœl
sœu
sœuglia
t
ta
taa
taal
taant
tabe
tabela
tabella
table
tablenode
tables
tablet
taca
tacaa
tacad
tacada
tacade
tacar
tacc
tacca
taccaa
taccada
tacchen
tace
tachen
tachov
tacit
tada
tae
tag
taggia
tagikistan
tagliamento
tagliavini
tai
taia
tain
taipei
taiwan
taj
taja
tajaa
tajada
take
tal
tala
tale
talegg
talent
tali
talian
taliana
talk
tallinn
tambo
tamburelli
tamis
tampere
tampon
tan
tana
tanacetum
tanaro
tanc
tancc
tanci
tang
tangenzial
tangerine
tango
tanica
tant
tanta
tante
tanti
tanto
tants
tantu
tanz
tanzania
taormina
tapa
tapparella
tar
tara
taranto
tarasp
taraxacum
tard
tarda
tarde
tardi
tardo
targa
target
tari
tariffa
tariffaria
taro
taron
tas
tasman
tasmania
tasono
tasonomi
tass
tassa
tasse
tast
tastadura
taster
tastera
tat
tata
tate
tatra
tau
tauber
taula
taverna
tavia
tavo
tavol
tavola
tax
taxi
taxon
taylor
tazon
tce
tcoss
td
te
tea
team
teater
teatr
teatral
teatro
teau
teauneuf
teborg
tecc
tech
techno
technology
tecnega
tecnegh
tecneghe
tecnica
tecnich
tecnolo
tecnologi
tecnologia
tecnologij
ted
tedesc
tedesca
tedesco
tee
teemp
tega
tegh
teghe
tegn
tegna
tegnen
tegni
tegnii
tegnir
tegniva
tegnu
tegnud
tegnuda
tegnuu
tei
teimp
tej
tel
tela
telar
telard
tele
telecapri
telecomunicazion
telefilm
telefon
telefonia
telefonin
telenovela
televisio
television
televisiu
televisiun
televisiv
televisiva
televisor
tell
telve
tem
tema
temp
tempe
tempera
temperadu
temperadur
temperadura
temperadure
temperatura
tempesta
tempi
tempio
template
temple
templi
tempo
tempora
temporaj
temporal
temporanea
temps
temu
ten
tenco
tend
tenda
tende
tenden
tendenza
tendenzialment
tenerife
tenna
tennessee
tennis
teno
tenor
tenpi
tenpo
tensio
tensioativ
tension
tenta
tentaa
tentad
tentati
tentativ
tentazion
teo
teodolinda
teodorico
teodoro
teologia
teor
teore
teorema
teori
teoria
teorica
teorie
teorij
teplice
ter
tera
teramo
terapia
terasanta
tere
teremo
teren
teresa
tereto
terito
teritori
term
terme
termen
termica
termich
termin
termina
terminada
terminal
terminazion
termini
terminulugi
termodinamich
terni
terore
terr
terra
terraferma
terragni
terralba
terranova
terre
terren
terrester
territo
territoire
territore
territori
territoriai
territorial
territoriala
territoriali
territorio
terror
terrorism
terrorista
ters
tersa
terz
terza
terziari
terzo
tes
tese
tesi
tesin
tesincategory
tesines
tesinesa
tesino
tesla
tesor
tessalunices
tessidura
tessil
tessu
tessud
tessuu
test
testa
testament
testemogna
testi
testimon
testimoni
testimonia
testimonianz
testimonianza
testimonianze
testimunianza
testo
tests
tet
tetra
tetrich
tetum
tetun
teu
teufen
teurema
teuri
teuria
teverina
texas
text
textdata
textrm
tezi
tfl
tg
th
tha
thailandia
thal
thameslink
than
that
thatcher
the
thee
their
themes
then
thenbach
theory
therapy
there
theta
they
thierry
thierstein
third
this
tho
thomas
thompson
thomson
thonon
threatened
three
through
thu
thuir
thuja
thumb
thumbnail
thun
thunb
thunbergii
thur
thusis
thy
ti
tia
tiberi
tibet
tibetan
tibett
tiburtina
tic
tica
ticc
tich
tiche
ticines
ticinese
ticinesi
ticino
tidone
tie
tiefencastel
tienne
tier
tierra
tiers
tieu
tiga
tiger
tigni
tigre
tigri
tigris
til
tila
till
tillon
tilo
tim
tima
timber
timberlake
time
timeaxis
times
timor
timotee
timp
tin
tina
tine
tio
tip
tipeg
tipega
tipegh
tipi
tipica
tipicament
tipich
tipigh
tipo
tipografia
tipolojie
tipu
tir
tira
tiraa
tirad
tirada
tiran
tirana
tirar
tirava
tire
tiren
tirith
tiro
tirol
tiroles
tirreni
tirrenica
tirschenreuth
tis
tisi
tisin
tisines
tit
titan
title
tito
titoi
titol
titolar
titolo
titul
titus
tiva
tivitaa
tivoli
tla
tm
tn
tni
to
toa
toalett
tobimaro
toc
toca
tocava
tocca
tocch
tocco
toch
toche
tod
today
tode
todesc
todesca
todesch
todi
todo
toeu
toeuven
toggenburg
togo
toi
tokyo
tol
tola
tole
toledo
tolentino
tolera
tolkien
tolosa
tolt
tolta
tom
toma
tomas
tomassini
tomates
tomb
tomba
tome
tommaso
tomo
tomobiki
ton
tonal
tone
tonega
tonegh
tonga
toni
tonight
tonumber
tony
tool
top
topi
topo
topografia
topografico
toponem
toponimi
toponomastica
toponomastico
toquinho
tor
tora
torba
tore
torin
torinese
torino
torna
tornaa
tornad
tornada
tornand
tornando
tornar
tornava
torne
tornee
tornen
torno
toro
toronto
torr
torrazzo
torre
torrent
torres
torri
torrian
torricella
tort
torta
tortei
torti
tortona
tos
tosa
tosann
tosca
toscan
toscana
tosi
toso
toss
tosso
tost
tostring
tot
tota
total
totala
totalment
toti
toto
touch
toulon
tour
touring
tourism
tourne
tournon
tours
tout
tower
town
towns
tper
tr
tra
traa
tracc
traccia
tracciato
tracia
track
trad
trada
tradaa
trade
tradescantia
tradii
tradiment
tradisiu
tradisiuna
tradizio
tradizion
tradiziona
tradizionai
tradizional
tradizionala
tradizionalment
tradiziun
tradizzion
tradizzionai
tradizzional
trado
tradu
traduzion
traduzzion
trae
trafegh
traffegh
traffich
traffigh
tragedia
tragi
tragitt
tragopogon
trai
train
traini
trains
traj
tram
trama
tramelan
tramlink
tramonti
tramvaj
tramvij
trance
trani
trans
transazion
transfer
transistor
transit
transito
transizion
transiziun
transizzion
translitteraa
translucidus
transnistria
transpadana
transport
tranvia
tranviari
tranviaria
trapani
trape
trappola
tras
trasa
trasc
trascu
trascura
trascurabil
trasferi
trasferida
trasferii
trasferiment
trasferiss
trasforma
trasformaa
trasformada
trasformazion
trasfurma
trasfurmaa
trasgressiu
trasimeno
trasme
trasmett
trasmettu
trasmettuda
trasmisiu
trasmissio
trasmission
trason
traspare
trasparent
trasparenza
traspirazio
traspirazion
traspo
trasport
trasporta
trasporti
trasporto
trasun
trasversa
trasversal
trat
trata
trataa
tratad
tratament
trate
tratt
tratta
trattaa
trattame
trattament
trattativ
traunstein
trav
trava
travaja
trave
travel
travers
traversa
traversaa
traversada
trazion
tre
trebia
trebonian
trecaa
treccani
tredes
tree
tregua
trei
tremu
tren
treni
treniebinari
trenitalia
trenn
treno
trenord
trent
trenta
trenti
trentin
trentina
trentino
trento
tres
tresa
trescu
treves
trevi
trevij
trevir
trevis
treviso
trez
trezz
trezzan
tri
tria
triangol
triangul
tribu
tribulaziu
tribunal
trica
trich
tricolor
trides
trie
triest
trieste
triestin
trigonome
trii
trim
trimmis
trin
trinidad
trinita
trio
trionfera
trip
triplo
trist
trista
triste
triticum
trivier
trivolz
trivulzio
trl
trnava
tro
troa
troeuva
troeuven
troeuvom
troia
trois
trojan
tromb
tromba
trombe
trompia
tron
tronch
trono
tronto
tronu
trop
tropica
tropicaj
tropical
tropicos
tropopausa
troposfera
tropp
troppa
trova
trovaa
trovad
trovada
trovar
trovato
trovava
trovaven
trove
tru
trua
truaa
truccazzan
true
trump
trun
trupe
trupp
trutnov
truva
truvaa
trœpe
trœva
ts
tsch
tschwil
tt
tta
ttcent
tte
ttegh
tten
tter
ttica
ttich
ttigau
ttim
ttima
tting
ttingen
tto
ttrica
ttrich
ttro
tu
tua
tubi
tubo
tuc
tuca
tucaa
tucc
tud
tude
tudes
tudesca
tudesch
tudor
tue
tujetsch
tul
tula
tum
tuma
tumor
tunisia
tunnel
tuo
tur
tura
turaa
turbigh
turborent
turborenza
turc
turca
turch
turchia
turci
turent
turgidum
turi
turin
turing
turism
turismo
turista
turistegh
turistich
turkmenistan
turku
turn
turna
turnaa
turnada
turnand
turner
turno
turtona
turtu
turtunes
turu
tus
tusa
tusann
tuscan
tuscana
tusco
tuscoss
tusscoss
tut
tuta
tutavia
tute
tutela
tutella
tuti
tuto
tuts
tutt
tutta
tuttama
tuttamanch
tutte
tutti
tuttlingen
tutto
tuttomax
tv
twin
twitter
two
tx
txt
type
tz
tzen
tzvelev
tœt
tœta
tœte
tœts
tœu
u
ua
ubliga
ubligaa
ubuntu
uc
ucasiun
ucciso
ucean
uceania
uci
ucide
ucident
ucidenta
ucidentai
ucidental
ucidentala
ucitan
ucrain
ucraina
ucu
ud
udc
udin
udine
udinese
udu
ue
uefa
uf
ufa
ufe
ufficiale
ufficio
ufi
uficia
uficial
uficiala
uficialme
ufiziaj
ufizial
ufiziala
ufizialment
uga
uganda
uge
uget
ugett
uggiaa
ugh
ugo
ui
uic
uk
ul
ula
ulanda
ulandes
uli
ulich
uliva
ulma
ultem
ultema
ultim
ultima
ultimate
ultimo
ultra
ultraso
ultrason
ultraviole
ultrepo
ulumorfa
um
uma
uman
umana
umane
umanista
umanita
umbert
umberto
umbra
umbria
umidita
umonim
umperk
un
una
und
unda
under
underground
underwood
undulatus
une
uneg
unega
unegh
unesco
ungheres
ungheria
uni
unica
unich
unico
unid
unida
unids
unificazion
uniform
uniforma
uniga
unigh
unii
uninominal
unio
union
unione
unionista
uniss
unit
unita
unitaa
unitari
unitaria
united
uniti
unito
univers
universal
universala
universale
universidade
universita
universitaa
universitari
universitaria
universite
university
universo
unix
unknown
unn
uno
unor
uns
unter
unterallga
unu
unur
uomini
uomo
up
uperazziu
upon
upper
uppsala
upright
upu
upusiziun
ur
ura
uragan
ural
uramai
urano
urban
urbana
urbani
urbano
urbanrail
urbino
urden
urdin
urdina
urdinaa
ure
urganizaziun
uri
uria
urient
urienta
uriental
urientala
urigin
urigina
uriginai
uriginal
uriginari
url
urmai
urna
uro
urs
urss
urtugrafia
uruguay
uruk
us
usa
usad
usagg
usaj
usanza
usare
usb
usche
usda
use
used
usei
usell
user
users
uso
uspeda
uspedal
uss
ussulan
uster
ustring
usurpador
ut
uta
utah
utc
ute
uteegn
utegn
utegni
utegnu
utent
utenza
uter
utet
uti
utigni
util
utilizzazio
utilizzazion
uto
utra
utrecht
utri
utu
utubar
utuber
utzenstorf
uv
uva
uz
uza
uzbekistan
uze
v
va
vaajer
vaan
vaca
vacant
vacanza
vacca
vacch
vaccinazion
vach
vache
vacin
vada
vadi
vado
vaduz
vaga
vagh
vagon
vai
vaian
vairano
vaj
vajra
val
valada
valar
valassina
valciavenna
valcuvia
valdarno
valdi
valdigne
valdo
valdostan
vale
valence
valencia
valentia
valentin
valentina
valentino
valenza
valerian
vales
valeyres
valfortore
valganna
valid
validita
valinor
vall
vallad
vallada
vallader
valle
vallecamonica
valles
valley
valli
vallier
vallo
vallon
vallonia
valmadrera
valmaggia
valmagia
valo
valois
valonia
valor
valore
valori
valpelline
valperga
vals
valsasna
valsassina
valsavarenche
valsesia
valsesian
valsolda
valstrona
valsugana
valt
valtelin
valtelina
valtellina
valtellinese
valtellinesi
valtolin
valtolina
valtolitt
valtournenche
valtravaja
valtri
valu
value
values
valun
valur
valuta
valutazion
valuur
valverde
valvola
valzer
vampires
van
vandica
vane
vange
vangel
vann
vanoni
vant
vanta
vantagg
vanuatu
vanza
vapo
vapor
vaporizzazion
var
vara
varal
varall
varano
varda
vardaa
vardara
vardare
vardava
varde
vardee
varden
vare
vared
varen
varenna
varepsilon
vares
varese
vareso
varesot
varesott
vargo
vargogna
vargot
vargott
vargu
vargun
vari
varia
variabel
variabil
variant
varianta
variazio
variazion
variazzion
varie
varien
varieta
varietaa
varna
varo
varon
varphi
varron
varsavia
vary
varz
varzio
vas
vasco
vascular
vasena
vasta
vastita
vaterland
vatican
vaucluse
vaud
vaudois
vaux
vaver
vaz
vb
vc
vd
ve
vea
vec
vecc
vecchia
vecchio
vecia
ved
veda
vedan
vedara
vedare
vedasca
veddasca
vede
vedel
vedell
veden
vedendo
veder
vedere
vedet
vedeva
vedi
vedii
vedo
vedom
vedova
vedretta
vedu
vedua
vedud
veduda
vedum
veduu
vee
veet
veg
vegas
vegeta
vegetal
vegetati
vegetazion
vegg
veggia
vegh
vegia
vegl
vegn
vegna
vegnan
vegnara
vegnaraa
vegne
vegnen
vegneva
vegneven
vegni
vegnid
vegnii
vegniva
vegniven
vegno
vegnu
vegnud
vegnuda
vegnuu
vei
veicoi
veicol
vel
vela
velaa
velar
velen
velino
vella
velletri
velluu
velo
velocita
velocitaa
velos
velucita
vem
ven
vena
venc
venceslaa
venciuu
vend
vende
venden
vender
vendeta
vendetta
vendica
vendicaa
vendicada
vendicar
vendicarse
vendicava
vendiche
vendico
vendiroeu
vendit
vendita
vendu
vendud
venduda
venduu
vene
venego
venegon
venera
veneraa
venerad
venerdi
venere
venesia
venet
veneta
veneti
veneto
venezia
venezian
venezuela
venezzia
venezzian
veng
vengeance
vengiu
vengiud
vengiuu
vengo
veni
venice
venir
venkov
venosta
vens
vensg
vensgiud
vensgiuda
vensu
vent
venta
venter
ventila
ventimiglia
vento
ventura
venus
ver
vera
verb
verbai
verbal
verban
verbanes
verbania
vercei
vercej
vercors
verd
verda
verde
verdee
verdi
verdura
vergiaa
vergin
vergo
vergogna
vergot
vergott
vergu
vergun
vergœne
veri
veridaa
verifica
verita
veritaa
verlag
vermezz
vermont
verna
vernaa
vero
verona
verones
veronese
verra
verre
verri
vers
versa
versailles
versant
versio
version
versione
versiu
versiun
verso
verstappen
vert
verta
vertemaa
verteze
vertezz
vertica
verticaj
vertical
vertura
veru
very
verz
verzasca
verzee
ves
vesc
vesca
vesch
vescont
vescov
vescovil
vescovo
vescuf
vescuv
vesi
vesin
vesina
vesinanz
vesinanza
vesinen
vess
vesse
vessegh
vesser
vesses
vest
vesta
vestfalia
vesti
vestid
vestii
vet
veta
vetere
vetor
vettel
vettor
vettorial
vettur
vettura
vetu
vetura
veturiaal
veux
veva
vevey
veyle
vez
vezzano
vgnu
vhs
vi
via
viabilita
viadana
viadott
viagg
viaggen
viaggia
viaggiator
viaggiatori
viaggio
viaicc
viaj
vial
viale
vialtar
vialter
vian
viareggio
vibo
viboldon
vibra
vibrazio
vibrazion
vica
vicari
vicariaa
vice
vicenda
vicentina
vicentino
vicenza
vicepresident
viceversa
vich
vichingh
vicinanz
vico
viconagh
victor
victoria
vid
vida
vide
videe
videl
videll
video
videoclip
videogioch
videogioeugh
videosgioeugh
videosorveliada
vidi
vidor
viduu
vie
vien
viena
viene
vienna
vienne
vietnam
vieux
view
vif
vigan
vigano
vigentin
vigentina
vigevan
vigeven
vigezz
vigezzina
vigliach
vigna
vignaa
vigni
vigno
vignola
vignun
vigo
vigor
vigu
vii
viii
viking
viktor
vil
vila
vilagg
vilan
vilanament
vilanamente
vilano
vile
vill
villa
villafranca
village
villagg
villanova
villapizzon
villar
villard
villars
ville
villefranche
villeneuve
villette
villoresi
vilnius
vilta
viltat
vimercaa
vimercati
vimodron
vin
vina
vinc
vinca
vincc
vince
vincent
vincenz
vincenzo
vincer
vinci
vincitor
vinciu
vinciud
vinciuda
vinciuu
vindica
vingiu
vingiuu
vingt
vinil
vino
vins
vinschgerbahn
vint
vinti
vintott
vintu
vintun
vio
vioeula
viola
violaceae
violazion
viole
violent
violenta
violenza
violin
violino
violoncell
violtar
violter
violtri
viotri
vira
virgin
virginia
virgola
virieu
virtu
virtual
virus
vis
visco
viscont
viscontea
viscontee
visconteo
visconti
viscunt
visentin
visever
visi
visibel
visibil
visibilita
visin
visina
visio
vision
visit
visita
visitaa
visiun
visp
visso
vist
vista
visti
visto
vistu
vit
vita
vitale
vitamina
vitamine
vite
vitello
viterbo
vito
vitor
vitori
vitoria
vitta
vittim
vittima
vitto
vittor
vittore
vittori
vittoria
vittorio
vittur
vittura
vitu
vitura
viu
viulin
viulun
viv
viva
vivalto
vivant
vivaro
vive
viven
vivend
vivent
viver
vivere
viveva
viveven
vivi
vivo
vivu
vivuu
vixin
vizi
vizigo
vizille
vizita
vizzi
vka
vladimir
vle
vnu
vo
voaltri
voca
vocabolari
vocabolario
vocai
vocal
voce
vochen
voci
voeud
voeuj
voeuja
voeul
voeult
voeulta
voeulte
voeun
voeuna
voeur
voeuren
voeureva
voeuri
voghera
voglio
voi
voialtri
voice
voio
voivodaa
voivodal
voj
voja
vol
vola
volcan
vole
volentiera
volentieri
voler
voleva
volga
volgar
voli
volkspartei
volo
volonta
volontari
volonte
volontera
volp
volt
volta
voltaa
voltada
voltaire
volte
voltra
volturno
volu
volum
volume
volumm
volza
volzaa
vom
von
voo
vor
vora
voramai
vorarlberg
vore
voreva
voreven
vori
vorsu
vorticita
voruda
voruu
vorzuu
vos
vosa
vosge
voss
vost
vosta
voster
vostr
vostra
vostru
vot
vota
votaa
votad
votazion
votcent
vote
voti
vott
vottanta
vottcent
voucher
vous
vox
voyage
voyager
vr
vra
vre
vrera
vres
vri
vs
vt
vu
vua
vucai
vucal
vucala
vue
vufflens
vugares
vughera
vui
vuiocci
vuj
vul
vulcan
vuleva
vulgare
vulgaris
vuli
vully
vulnerabilita
vulo
vulp
vultaa
vultada
vulu
vulunta
vuluntaa
vum
vun
vuna
vundes
vunna
vuo
vuoi
vuole
vuota
vuoto
vura
vure
vureva
vuri
vurii
vursu
vuru
vus
vusa
vust
vuta
vuu
vv
vven
vy
vys
vysoc
vœl
vœlta
vœlte
vœna
vœulta
vœur
w
wa
wade
wagner
wahlkreis
wald
waldenburg
waldnaab
waldshut
wales
wall
walser
walter
waltz
wang
wangen
want
war
warner
was
washington
wasseramt
watch
water
waterloo
watson
watt
wave
way
wayne
we
wea
weather
web
webb
website
wedge
weil
weilheim
weißenburg
welcome
welfare
wellington
wenn
werden
werner
west
western
westfalia
westminster
westraltrachia
what
when
where
which
white
whitney
who
why
wi
wib
wide
width
wie
wien
wiesbaden
wiesen
wife
wii
wiki
wikidata
wikileaks
wikimedia
wikipedia
wikiquote
wikisource
wikitext
wil
wild
wilhelm
will
willd
william
williams
willisau
wilson
win
wind
windows
windsheim
windsor
winter
winterthur
wir
wisconsin
with
without
wittelsbach
wo
wohlen
wolf
wolfgang
wolfratshausen
wollemi
woman
wood
word
work
works
world
worm
worms
wp
wrestling
wtc
wu
wunsiedel
wurde
www
wyoming
x
xa
xanthorrhoeaceae
xavier
xbox
xe
xenobioteg
xi
xico
xii
xiii
xirbi
xiv
xix
xl
xmpr
xor
xp
xs
xss
xv
xvi
xvii
xviii
xx
xxi
xxii
xxiii
y
ya
yale
yamaha
yamato
yanez
yara
ye
year
years
yellow
yemen
yens
yes
yi
yiddish
yo
york
you
young
your
youtube
youtuber
yu
yuzu
yverdon
z
za
zabe
zacarija
zaccaria
zafferana
zagabria
zaia
zaldi
zalt
zambia
zamo
zan
zanardelli
zane
zanetti
zanichelli
zar
zara
zberg
ze
zel
zelanda
zelig
zell
zem
zen
zena
zene
zeno
zenon
zenone
zent
zenta
zentildona
zentralbahn
zenu
zeppelin
zepri
zer
zeri
zermatt
zermelo
zerna
zernez
zero
zert
zeru
zeta
zeus
zfs
zg
zh
zi
zia
zibid
zica
zicch
zich
zie
ziers
zignan
zigomo
zil
zimbabwe
zinasch
zinch
zingaretti
zingher
zio
zion
ziper
zipri
ziprio
zipro
zita
zittadin
ziu
ziun
ziunal
znojmo
zo
zoccoli
zodiac
zofingen
zola
zoldo
zole
zollernalbkreis
zon
zona
zone
zonn
zonna
zonta
zoo
zorn
zorna
zoven
zu
zuccher
zucher
zuckermann
zug
zula
zum
zuoz
zur
zuri
zurich
zurigh
zurzach
zz
zza
zzera
zzi
zzia
zziu
zziun
zœqer
{
|
}
~

¡
¢
£
§
ª
«
­
®
°
±
²
³
´
µ
·
¹
º
»
¼
½
¿
×
ß
æ
ð
ðe
÷
ø
ı
ł
ła
łe
ło
łori
łu
ŋ
œ
œv
œvra
œvre
ɐ
ɑ
ɒ
ɔ
ə
ɛ
ʃ
ʒ
ʧ
ʲ
ʷ
ʻ
ʼ
ʾ
ʿ
ˈ
ˌ
ː
̀
́
̂
̃
̄
̆
̇
̈
̉
̊
̋
̌
̏
̑
̓
̔
̛
̣
̥
̦
̧
̨
̩
̭
̯
̰
̱
̸
͂
ͅ
͡
α
β
βω
γ
γα
για
γυναι
δ
δθ
ε
ει
ζ
ζε
η
θ
ι
κ
κα
και
κει
κυ
λ
μ
μα
με
μει
μου
ν
να
νε
νη
νο
ντα
ξ
ο
ου
π
πα
πε
πο
που
πρα
ρ
ς
σ
σα
σε
σου
στη
τ
τα
τη
τι
το
του
υ
φ
χ
ψ
ω
а
бласть
в
г
е
и
к
л
м
н
о
область
с
т
у
ч
я
ְ
ִ
ֶ
ַ
ָ
א
ב
ר
ؚ
ا
ة
ر
ع
ل
ي
ٌ
َ
ُ
ِ
ّ
ْ
ٓ
ٔ
ٕ
ٙ
ँ
ं
ः
अ
क
च
ज
ट
ण
त
द
ध
न
प
ब
भ
म
य
र
ल
व
श
ष
स
ा
ि
ी
ु
े
्
।
া
ி
்
་
ག
ང
ཆ
ད
ན
པ
བ
མ
ཡ
ར
ལ
ཤ
ས
ི
ུ
ེ
ོ
ྒ
ྡ
ྱ
ྲ
동
면
읍
​
‎
–
—
‘
’
‚
“
”
„
†
•
…
‪
‬
‰
′
″
€
№
←
→
↓
↔
↷
⇔
∀
∂
∃
∆
∈
−
∞
∩
∪
≈
≤
≥
③
④
⑦
━
►
♭
⺀
⺄
⺆
⺈
⺊
⺌
⺕
⺝
⺸
⺼
⿰
⿱
⿲
⿳
⿴
⿵
⿶
⿷
⿸
⿹
⿺
⿻
〢
い
か
く
け
さ
し
た
っ
て
な
の
ま
み
る
わ
゙
゚
ァ
ア
オ
キ
ク
コ
シ
ス
タ
ッ
ト
ニ
ノ
ハ
ヒ
フ
ヘ
ホ
モ
ユ
ョ
ラ
ル
ロ
ン
・
ー
㇁
㇂
㇄
㇇
㇈
㇉
㇓
㏈
㐁
㐄
㐅
㐌
㐫
㐬
㐭
㐮
㐱
㑒
㒵
㒸
㒼
㓁
㓞
㔾
㕛
㕣
㖾
㘝
㚅
㚇
㚔
㚘
㝉
㝡
㝴
㝵
㞋
㞢
㞷
㠩
㠭
㠯
㡀
㡭
㡿
㢲
㢴
㣇
㣺
㥯
㪅
㫄
㫐
㫒
㫺
㬅
㬎
㬥
㬰
㲋
㳄
㷠
㸒
㸚
㸦
㼌
㼲
㽞
㿟
䀠
䂞
䍃
䏍
䒑
䖍
䖒
䖝
䖵
䙴
䚻
䜌
䝿
䡛
䧹
䪞
一
丁
丂
七
丄
丅
丆
万
丈
三
上
下
丌
不
与
丏
丐
丑
专
且
丕
世
丘
丙
业
东
丞
丢
丣
两
严
並
丨
丩
个
丫
丬
中
丮
丰
丱
串
丵
丶
丷
丸
丹
为
主
丽
丿
乀
乂
乃
久
乆
乇
么
义
之
乌
乍
乎
乏
乐
乑
乔
乖
乗
乘
乙
乚
乛
乜
九
乞
也
习
乡
乳
乾
亀
亅
了
亇
予
争
事
二
亍
于
亏
亐
云
互
亓
五
井
亘
亚
亜
亞
亟
亠
亡
亢
交
亥
亦
产
亨
亩
享
京
亭
亮
亯
亰
亲
亳
亶
亷
人
亻
亼
亾
仁
今
介
仌
从
仐
仑
仒
仓
仕
他
付
仝
代
令
以
任
企
伊
伏
伐
休
会
伝
伯
但
位
何
佘
余
作
佥
使
來
侈
侌
侖
侯
侵
便
保
俞
信
修
倉
倍
候
倠
備
僉
僕
儿
兀
允
兂
元
兄
充
兆
兇
先
光
兊
克
兌
免
兑
兒
兓
兔
党
兜
兟
入
全
兩
兪
八
公
六
兮
兰
共
关
兵
其
具
典
兹
兼
冀
冂
冃
冄
内
冈
冉
冊
冋
册
再
冎
冏
冐
冒
冓
冖
冗
冘
军
农
冝
冡
冥
冫
冬
冷
几
凡
凢
凵
凶
凷
凸
凹
出
函
凾
刀
刁
刂
刃
刄
刅
分
切
刍
刑
刕
刖
列
刘
则
初
別
利
别
到
制
刺
則
削
剌
前
剡
剪
剽
劉
力
功
加
劦
助
劫
劳
劵
勃
勇
勉
勒
動
務
勞
勤
勹
勺
勻
勾
勿
匀
匂
包
匆
匈
匊
匋
匍
匕
化
北
匚
匝
匡
匪
匱
匸
匹
区
医
匽
匿
區
十
卂
千
卄
卅
卆
升
午
卉
半
卌
华
卑
卒
卓
单
卖
南
卜
卝
卞
占
卡
卢
卣
卤
卦
卩
卪
卬
卯
印
危
即
却
卵
卷
卸
卻
厂
厃
厄
历
厈
厉
厌
厓
厘
厚
原
厤
厥
厨
厭
厲
厶
厷
厸
去
厼
厽
叀
参
參
叅
又
叉
及
友
双
反
叐
发
叒
叔
叕
取
受
叚
叜
叟
口
古
句
另
叩
只
召
可
台
叱
史
右
叵
号
司
叹
吂
各
吅
合
吉
吊
吋
同
名
后
吏
向
吕
君
吝
吞
否
含
启
吳
吴
吹
吾
呂
呆
呈
告
员
呙
周
命
咅
和
咎
咠
咢
咨
咸
咼
哀
品
哉
員
哥
哲
唐
商
啇
問
啚
啬
啻
善
喜
喬
單
喿
嗇
噩
嚴
囊
囗
囘
囙
囚
四
回
囟
因
囧
囬
困
囱
囷
固
国
圂
圅
國
圍
圓
土
圡
圣
圥
在
圭
地
圶
圼
坐
坒
坚
坡
坴
垂
垔
垚
埀
埋
城
埶
執
基
堂
堅
堆
堇
堯
塞
墨
壘
士
壬
壯
声
壳
壴
壹
壺
壽
夂
处
夅
夆
备
夊
夋
夌
复
夏
夒
夕
外
夗
夘
多
夜
夢
大
夨
天
太
夫
夬
夭
央
失
夲
头
夷
夸
夹
夻
夾
奂
奄
奇
奈
奉
奎
奏
奐
契
奓
奔
奚
奞
奠
奢
奥
奭
女
奴
奻
好
如
妄
妙
妟
妥
妻
妾
姑
委
姜
威
娄
婁
婴
嬰
嬴
子
孑
孔
孕
孖
字
存
孚
孛
孝
孟
季
孤
学
孫
孱
學
宀
宁
宂
它
宅
宇
守
安
宋
完
宏
宓
宗
官
定
宛
宜
宝
客
宣
室
宮
宰
害
家
容
宾
宿
寄
寅
密
富
寒
察
寧
審
寫
寬
寮
寸
对
寺
寻
寽
対
寿
封
尃
射
将
將
專
尉
尊
尋
尌
對
小
少
尒
尓
尔
尖
尗
尚
尞
尢
尣
尤
尧
尨
尭
就
尸
尹
尺
尻
尼
尽
尾
尿
局
居
屈
屋
屎
屏
屑
展
屖
屚
属
屠
屡
屬
屮
屯
屰
山
屵
屾
岁
岂
岑
岡
岩
岳
岸
峯
島
崇
崑
崔
崖
崙
崩
嵬
嶲
巂
巛
川
州
巟
巠
巢
巤
工
左
巧
巨
巩
巫
差
己
已
巳
巴
巷
巸
巽
巾
巿
帀
市
布
希
帚
帛
帝
带
師
席
帶
常
干
平
年
幵
并
幷
幸
幺
幻
幼
幽
幾
广
広
庄
床
底
店
庚
府
度
庫
庭
庶
康
庸
廉
廌
廛
廣
廩
廴
延
廷
建
廾
廿
开
弁
弃
弄
弇
弋
式
弓
弔
引
弗
弘
弜
弟
弥
弦
弱
張
強
强
彊
彌
彎
彐
彑
当
彔
录
彖
彗
彡
形
彥
彦
彧
彭
彳
役
彼
往
待
律
徒
得
徙
從
復
微
徵
心
忄
必
忌
忍
志
忝
忠
忩
快
念
忽
忿
思
怠
急
怱
恆
恒
恩
恭
息
悉
患
悤
悲
悶
惠
惡
惢
愁
愈
意
愛
感
慈
慧
慮
慶
憂
憲
應
懐
戀
戈
戉
戊
戋
戌
戍
戎
成
我
戒
戔
或
戚
戠
戢
截
戲
戶
户
戹
戼
戾
房
所
扁
扇
手
扌
才
打
托
执
承
折
拉
拜
拿
掌
推
提
摩
支
攴
攵
收
攸
改
放
政
敄
敏
敕
敖
敗
敝
敞
敢
散
敦
敫
敬
数
敷
數
斂
文
斉
斊
斗
斤
斥
斩
斬
斯
新
方
於
施
斿
旁
旋
族
无
旡
既
旣
日
旦
旧
旨
早
旬
旱
旲
时
旾
昆
昇
昌
昍
明
昏
易
昔
昗
昜
星
春
昬
是
昱
昴
昷
時
晃
晋
晏
普
景
晶
智
暑
暴
曇
曩
曰
曲
曳
更
曷
書
曹
曼
曾
替
最
朁
會
月
有
朋
服
朔
朕
朗
望
朝
木
朩
未
末
本
札
朮
术
朱
朵
朶
朿
杀
杏
村
杜
束
条
来
東
杲
杳
松
析
林
枚
果
枝
枲
枼
某
柔
柚
查
柬
柰
柴
栗
桀
桑
桼
梁
條
梟
梨
棘
棠
棥
森
楚
業
楽
榮
樂
樊
欠
次
欣
欮
欲
欶
欽
款
歆
歇
歌
歛
止
正
此
步
武
歨
歪
歮
歯
歰
歲
歴
歷
歸
歹
歺
死
殳
段
殷
殸
殹
殺
殻
殿
毋
毌
母
每
毒
比
毕
毚
毛
毳
氏
氐
民
气
氣
水
氵
氶
氷
永
氺
氾
求
汝
汞
江
沃
沓
沙
沝
河
泉
法
波
泣
泥
泰
洛
洞
洪
活
派
流
浦
浪
浮
海
淡
淮
清
渚
渠
湯
滿
漢
漸
火
灬
灭
灰
灵
灷
炅
炎
炏
炗
炙
炭
為
烈
烏
烝
焉
無
焦
焱
然
煞
熊
熏
熱
燕
營
燮
爪
爫
爭
爯
爰
爱
爲
爵
父
爻
爽
爾
爿
片
牙
牚
牛
牜
牟
牢
牧
牪
牽
犀
犬
犭
犮
狂
狄
狊
独
狺
猋
猒
猪
献
獻
玄
率
玉
王
玟
玨
珎
班
琴
瑟
瑩
瓜
瓦
甘
甚
生
産
用
甫
甬
田
由
甲
申
电
甶
男
甸
甹
画
甾
畀
界
畏
畐
留
畜
畟
畢
畧
畨
番
畫
異
畱
當
畺
畾
疊
疋
疌
疑
疒
疾
癶
癸
癹
登
發
白
百
皀
皃
的
皆
皇
皋
皐
皕
皮
皷
皿
盃
盆
盇
盈
益
盍
盎
监
盒
盖
盛
盡
監
盤
盧
目
直
相
盾
省
眇
眉
看
眔
眞
真
眷
眼
眾
着
睘
睪
睿
瞏
瞢
瞿
矍
矛
矞
矢
矣
知
矦
短
石
破
碎
磊
磨
示
礻
礼
祟
票
祭
禀
禁
禸
禹
禺
离
禽
禾
禿
秀
秃
秉
秋
科
秝
秦
移
稟
穀
穌
穴
究
穹
空
穿
突
窄
窒
立
竒
竜
竝
竟
章
童
竹
笑
笠
筆
等
答
策
箕
算
箴
節
篤
篭
米
粉
粛
粟
粤
粦
粲
糞
糸
糹
系
約
納
素
索
紫
累
細
絜
絫
絲
維
綿
縣
繇
纍
纟
缶
网
罒
罔
罕
罗
罙
罡
罢
罪
署
罷
羅
羊
羌
羍
美
羔
羕
羗
羞
羡
羣
群
義
羲
羸
羽
翁
翏
習
翕
翟
翠
翼
老
耂
考
者
耆
而
耎
耑
耒
耳
耴
耶
耷
聂
聊
聖
聚
聞
聶
聿
肀
肃
肅
肉
肖
肙
肥
肩
肯
育
肴
胃
背
胡
胥
能
脊
脩
膚
臣
臤
臧
自
臬
臭
臯
臱
至
致
臺
臼
臽
臾
臿
舀
舂
舄
與
興
舉
舌
舍
舛
舜
舞
舟
般
艮
良
色
艸
艹
艾
芒
芔
芬
芮
花
芳
芺
芻
苔
苗
苟
若
苦
英
茶
茸
荅
草
荒
荣
荼
莆
莧
莫
莽
菆
菊
菐
華
萬
落
葉
著
葛
董
葵
蒙
蒦
蒼
蓋
蓬
蓺
蔑
蔡
蕉
蕭
薄
薛
薦
薰
藍
藏
藥
蘭
虍
虎
虐
虒
虔
處
虖
虗
虘
虚
虛
虜
虞
虫
虽
蚤
蚩
蜀
蜜
蟲
蠡
血
行
衍
衛
衣
衤
表
衮
衰
袁
袞
褭
褱
襄
襾
西
覀
要
覃
見
規
覓
覧
親
覽
见
角
解
言
訁
訇
計
記
詹
誩
諸
讠
谷
豆
豈
豊
豐
豕
豖
豙
象
豦
豩
豪
豸
貇
貝
貞
貟
負
貢
貧
貪
貫
責
貳
貴
買
費
賁
資
賈
賏
賓
賔
賛
賞
賢
賣
質
賴
贊
贝
贡
责
贯
贲
贵
赖
赞
赤
赦
走
越
足
路
蹇
身
躬
車
軍
軎
軟
輦
车
辛
辜
辟
辥
辮
辰
辱
農
辵
辶
边
达
过
近
连
迷
追
退
送
逆
逐
通
速
造
逢
連
逮
進
遀
遂
過
道
達
遣
適
遷
遺
邊
邑
邕
那
邦
邪
郎
部
郭
都
鄉
酉
酋
配
酓
釆
采
里
重
野
量
金
釒
錢
钅
長
镸
长
門
閃
閉
開
閏
閑
閒
間
閔
閵
閻
闌
门
间
闷
阑
阜
阝
阿
降
陳
陽
隆
隊
隋
隡
隨
隱
隶
隹
隺
隻
隼
隽
难
雀
雁
集
雈
雋
雍
雐
雔
雙
雚
雜
雝
離
難
雨
雩
雪
雲
零
雷
需
霍
霜
霝
霞
霸
靈
靑
青
非
靡
面
靣
革
韋
韦
韭
韯
韱
音
頁
頃
項
須
頗
頡
頻
顛
页
風
风
飛
飞
食
飠
養
饣
首
香
馬
馮
駦
马
骨
高
髟
髮
鬥
鬯
鬲
鬼
魂
魚
魯
鮮
鱼
鲁
鳥
鳳
鸟
鹵
鹿
麃
麗
麥
麦
麻
黃
黄
黍
黎
黑
黒
黨
黹
黽
黾
鼎
鼓
鼠
鼻
齊
齋
齐
齒
齿
龍
龙
龜
龟
龠
龰
龱
龴
龵
龶
龷
龸
龹
者
艹
ﺍ
ﻠ
﻿
，
：
？
𠀁
𠀃
𠀆
𠀉
𠀎
𠀐
𠁁
𠁣
𠂆
𠂇
𠂈
𠂉
𠂊
𠂋
𠂎
𠂒
𠂔
𠂛
𠂡
𠂢
𠂤
𠂬
𠂭
𠂹
𠃊
𠃋
𠃌
𠃍
𠃎
𠃑
𠃓
𠃔
𠃜
𠄌
𠄎
𠄠
𠄢
𠆢
𠆥
𠇍
𠈌
𠌵
𠓜
𠔉
𠔥
𠔼
𠔽
𠔿
𠕀
𠕁
𠕋
𠘧
𠘨
𠙻
𠙼
𠚏
𠚒
𠚤
𠚪
𠣏
𠤎
𠤕
𠥓
𠦄
𠦑
𠦝
𠧒
𠧗
𠧪
𠩺
𠪚
𠫓
𠫔
𠫤
𠬛
𠬝
𠬞
𠬢
𠬤
𠬶
𠮛
𠮦
𠮷
𠯑
𠱠
𠳮
𠷎
𡈼
𡉀
𡉵
𡌥
𡍮
𡏳
𡕒
𡕩
𡕰
𡖅
𡗗
𡗜
𡘆
𡘤
𡧱
𡨄
𡩧
𡬠
𡭽
𡰣
𡰥
𡰪
𡰯
𡰱
𡷈
𡸁
𡿨
𡿩
𡿪
𡿺
𢀖
𢀛
𢀩
𢁙
𢆉
𢆰
𢆶
𢇁
𢇇
𢉖
𢌬
𢌿
𢏚
𢑑
𢑚
𢖻
𢙣
𢛳
𢦏
𢦒
𢧵
𢼄
𢾕
𣁋
𣄼
𣅀
𣅽
𣍘
𣎳
𣎵
𣏋
𣏼
𣗥
𣥂
𣥖
𣦵
𣦼
𣧄
𣪊
𣪠
𣬉
𣳾
𣶒
𤇾
𤊽
𤐫
𤓰
𤔔
𤕨
𤣩
𤰇
𤰔
𤰞
𤴓
𤴔
𤽄
𥁑
𥁕
𥃦
𥃩
𥃭
𥇡
𥑟
𥘅
𥘈
𥝢
𥫗
𥱡
𦈢
𦉪
𦉬
𦉼
𦍌
𦍒
𦎧
𦐇
𦓔
𦔮
𦘒
𦙃
𦚏
𦣝
𦣞
𦣻
𦥑
𦥔
𦥯
𦨉
𦭝
𦰩
𧆞
𧈧
𧘇
𧰨
𧴪
𧴮
𧵩
𧾷
𨸏
𨾴
𩙿
𩠐
𩫏
𩵋
𪉷
𪜀
𪟽
𪠲
𪩲
𫇦
𫔭
𫜸
𫝀
𫠣
𫠩
𫢉
𫥞
𫩏
𫩠
𫪡
𫲽
𫶧
𬀷
𬐘
𬗌
𬙙
𬛸
𬜯
𬟩
𬯁
𬴘
𬺻
𬼉
𬼖
𭀰
𭁈
𭁨
𭅰
𭑈
𭕄
𭗼
𭤨
𭥫
𭻾
𮅕
𮊿
𮍌
𮍏
𮓗
𮥼
𮧮
廾
𰀁
𰀄
𰀈
𰀉
𰀕
𰀠
𰀡
𰀢
𰀪
𰁜
𰃮
𰆊
𰆘
𰋙
𰕎
𰢴
𰧭
𰯲
02--
03--
04--
06--
08--
09--
978887--
a--
aa--
ab--
aba--
abd--
abe--
abi--
abrevia--
abu--
ac--
aca--
acc--
accade--
acco--
accum--
ace--
ach--
aci--
aco--
acqua--
acred--
act--
acu--
ad--
ada--
add--
ade--
adi--
adli--
ado--
ads--
adu--
ae--
aero--
af--
afer--
ag--
age--
aggre--
agi--
agn--
ago--
agri--
agu--
ah--
ai--
aigue--
aigui--
air--
aj--
ak--
aka--
al--
ala--
alb--
alba--
albi--
albu--
ale--
ales--
aleva--
alex--
ali--
alje--
all--
alle--
alo--
alp--
alpi--
als--
alt--
alta--
alter--
alto--
alu--
alve--
am--
ama--
amb--
ambi--
ambiz--
ame--
ami--
ammer--
amo--
ampli--
amt--
amu--
an--
ana--
anc--
anco--
and--
anda--
ane--
angli--
anglo--
angui--
ani--
anna--
annun--
ano--
ans--
ant--
ante--
anti--
antro--
anu--
ao--
ap--
apari--
ape--
api--
apo--
app--
apparta--
appro--
apri--
apro--
apt--
apu--
aqua--
ar--
ara--
arach--
arauc--
arc--
arca--
arcip--
are--
arg--
ari--
aristo--
aristocra--
arma--
armo--
arms--
aro--
arre--
arri--
ars--
art--
arti--
as--
asc--
asdru--
ase--
asi--
asia--
aso--
asp--
ass--
asse--
asso--
ast--
at--
ate--
atmosph--
atmus--
ato--
atr--
att--
atti--
attr--
au--
auri--
aus--
aut--
autho--
auto--
av--
ava--
ave--
aven--
avi--
avu--
ax--
ay--
az--
b--
ba--
bab--
back--
bad--
bai--
bal--
bala--
bale--
ball--
ban--
bar--
bara--
bari--
barna--
barr--
bas--
base--
basi--
bass--
bata--
bati--
batt--
bb--
be--
bea--
beauc--
bec--
bed--
bei--
bel--
beli--
bell--
belle--
bellim--
ben--
bene--
ber--
berg--
bern--
bes--
bet--
bev--
bi--
bia--
bias--
biblio--
bie--
big--
bil--
bill--
bin--
bio--
bip--
birk--
bis--
bit--
biu--
bl--
bla--
ble--
blo--
blu--
bo--
boe--
boi--
bol--
bon--
bona--
boni--
bor--
borgo--
bot--
bota--
bou--
boul--
bour--
bow--
box--
bozz--
br--
bra--
brasi--
bre--
brega--
bremb--
bren--
bri--
bro--
broad--
bru--
brus--
bs--
bu--
buch--
bud--
budd--
bug--
bul--
bun--
bundes--
bur--
burg--
bus--
but--
by--
c--
ca--
caa--
cada--
cae--
cai--
cal--
cala--
cale--
cali--
call--
calo--
calza--
cama--
came--
camp--
campo--
can--
cana--
cane--
canno--
canta--
cao--
cap--
cape--
capi--
capo--
capri--
caprifo--
car--
cara--
cardio--
care--
cari--
carl--
caro--
carto--
cas--
casa--
casal--
casi--
cast--
castel--
castro--
cat--
cata--
cato--
cau--
cav--
cava--
cavi--
cazz--
cc--
cd--
ce--
cecos--
ced--
cel--
cele--
cen--
cent--
cer--
cera--
cerim--
cerv--
ces--
cess--
cet--
cey--
ch--
cha--
cham--
che--
cher--
chey--
chi--
chia--
chie--
chilo--
chry--
ci--
cia--
cian--
cicc--
cie--
cil--
cili--
cim--
cin--
cine--
cinemato--
cio--
circ--
circonvall--
ciri--
cirro--
cis--
cit--
ciu--
civ--
cja--
ck--
cla--
clar--
cle--
cli--
clo--
cloro--
clu--
cm--
cme--
cn--
co--
coa--
cocc--
cod--
code--
codif--
coe--
coff--
cogni--
coi--
coin--
col--
cola--
cole--
colle--
colo--
com--
coma--
come--
comin--
comm--
como--
con--
cond--
confu--
cong--
coni--
contro--
cop--
cor--
corb--
core--
cori--
coro--
cort--
cory--
cos--
cosmo--
coti--
coun--
cour--
cov--
cova--
cr--
cra--
cre--
crea--
cri--
critto--
cro--
croa--
cru--
cry--
cu--
cua--
cue--
cui--
cul--
cula--
culabur--
cule--
cum--
cume--
cumi--
cumpu--
cumpusi--
cun--
cup--
cur--
cure--
curi--
cus--
cust--
cuu--
cy--
cyber--
cœ--
d--
da--
dac--
dad--
dae--
dai--
dal--
dam--
dan--
dar--
das--
data--
dau--
day--
db--
dd--
de--
dec--
deca--
deco--
deho--
dei--
del--
dem--
deme--
demo--
demu--
demuc--
den--
denomi--
denon--
dent--
denum--
denun--
deo--
der--
des--
descu--
dese--
desf--
det--
dete--
deu--
dev--
deva--
devoz--
dex--
dez--
di--
dia--
diagno--
dic--
dicia--
did--
dida--
die--
diff--
dil--
din--
dina--
dio--
dipin--
dir--
dire--
dis--
disa--
disc--
disco--
discri--
discu--
dissip--
dit--
diu--
div--
dive--
diz--
dj--
dl--
dm--
do--
doc--
dog--
dol--
dolo--
dom--
dome--
don--
dopo--
dor--
dot--
dou--
dov--
dr--
dra--
dre--
dri--
dro--
dru--
ds--
du--
dua--
due--
dui--
dul--
dum--
dume--
dun--
duo--
dur--
dus--
dy--
dyna--
dz--
dʒ--
e--
ea--
eber--
ebra--
ec--
ecc--
ece--
ech--
eco--
ed--
edif--
edil--
edu--
ee--
eff--
ege--
egg--
egi--
egn--
eh--
ei--
eich--
ein--
eis--
eisen--
ek--
el--
ela--
ele--
elekt--
eletro--
eletru--
elettro--
elez--
elf--
eli--
ell--
elo--
elvet--
em--
eme--
emi--
emm--
emo--
empe--
empir--
emul--
emula--
en--
ency--
end--
ene--
enga--
enh--
eno--
ent--
enun--
environ--
eo--
ep--
epi--
epis--
equi--
er--
era--
erbor--
ere--
eri--
ero--
eru--
eryth--
es--
esa--
escre--
ese--
esecu--
esi--
esibi--
eso--
esp--
espo--
est--
este--
esur--
et--
ete--
etero--
etim--
etno--
eu--
eur--
euro--
eurosce--
ev--
eva--
ex--
exec--
exp--
extra--
ey--
ez--
eze--
f--
fa--
fabb--
fai--
fal--
fan--
fant--
far--
fara--
fari--
farmac--
fau--
faze--
fc--
fe--
fecond--
fed--
feld--
felt--
fem--
fen--
fene--
fer--
feu--
ff--
fi--
fia--
fiamm--
fie--
fil--
fila--
fili--
filo--
fin--
fina--
fine--
fio--
fis--
fisch--
fisio--
fit--
fl--
fla--
fle--
flens--
flo--
flu--
fly--
fo--
foi--
folk--
fom--
fon--
fone--
fono--
font--
for--
format--
formatted--
fos--
foto--
fra--
franco--
fras--
fratta--
fre--
frei--
fri--
fro--
fru--
ft--
fu--
fun--
furti--
fus--
fut--
fæ--
fœ--
g--
ga--
gai--
gal--
gala--
gali--
gan--
gar--
gare--
gari--
gas--
gat--
gaud--
ge--
gel--
gelter--
gen--
gene--
geno--
geo--
ger--
gera--
germi--
ges--
get--
geum--
gg--
ghe--
ghi--
gi--
gia--
giaco--
gian--
gibil--
gie--
gif--
gil--
gin--
gio--
gioa--
gir--
giro--
giu--
gju--
gl--
gla--
gli--
glo--
glu--
gna--
gne--
gni--
gno--
go--
god--
goe--
gol--
gold--
gon--
got--
gra--
graf--
gran--
gratta--
gre--
gri--
gro--
gros--
grotta--
groß--
gru--
grund--
gs--
gu--
gua--
gue--
gui--
gun--
gur--
gut--
guz--
gy--
gye--
gyu--
h--
ha--
habs--
had--
hai--
hal--
han--
has--
hat--
haw--
hay--
he--
hed--
hei--
heidel--
hel--
hem--
hen--
her--
het--
heu--
hi--
high--
hin--
hip--
hir--
his--
hl--
ho--
hoffm--
hohen--
holla--
holz--
hop--
hot--
how--
hu--
hun--
hy--
i--
ia--
ibe--
ic--
id--
ide--
identi--
idro--
ie--
igno--
ignu--
ih--
ii--
il--
ilde--
ill--
illum--
illus--
ilu--
im--
ima--
ime--
imi--
immun--
imp--
impa--
impi--
impo--
impro--
in--
ina--
inc--
inca--
ince--
inco--
incondi--
incu--
incura--
ind--
inde--
indi--
indo--
indu--
ine--
infe--
infi--
infra--
ing--
ingil--
ini--
inn--
inno--
ino--
inqui--
ins--
inse--
insi--
inso--
instru--
insu--
int--
inte--
inter--
inti--
into--
intra--
inu--
inve--
invo--
io--
ion--
ip--
ipa--
ipo--
ir--
ira--
ire--
iriga--
is--
isa--
iso--
ispet--
ist--
it--
ita--
iu--
iz--
ize--
j--
ja--
jan--
japo--
je--
jen--
jeo--
jeome--
jeru--
ji--
jo--
joa--
jon--
ju--
jugo--
jung--
jœ--
k--
ka--
kai--
kall--
kath--
ke--
ken--
key--
kh--
kha--
ki--
kilo--
kin--
kirch--
kit--
klo--
ko--
kol--
kon--
kor--
kos--
kov--
kr--
kra--
kro--
kru--
ks--
ku--
kuri--
kv--
ky--
l--
la--
labur--
lac--
lag--
lago--
lai--
lam--
lan--
lang--
lao--
lar--
las--
lat--
lau--
lava--
lay--
lb--
lc--
le--
lea--
lec--
leg--
leh--
lei--
lem--
len--
leniz--
leo--
leon--
ler--
les--
let--
leu--
lex--
ley--
lf--
lg--
li--
lia--
libra--
lic--
lie--
ligo--
lim--
lin--
lipo--
lis--
lit--
liu--
liv--
liz--
ll--
lla--
lle--
lli--
llo--
lo--
loca--
loco--
lod--
log--
loi--
lon--
lor--
los--
lou--
lov--
low--
ls--
lt--
lti--
lu--
lua--
luc--
lug--
luga--
lum--
lus--
luv--
luz--
lv--
lx--
ly--
lys--
m--
ma--
maa--
mac--
macro--
madu--
mae--
mag--
magi--
mah--
mai--
main--
maj--
make--
mal--
mala--
male--
mam--
man--
mani--
mano--
manu--
mar--
mara--
mare--
mari--
maria--
markt--
maro--
mary--
mas--
mat--
mate--
matu--
mau--
may--
mb--
mc--
me--
mea--
meca--
med--
medi--
mee--
meh--
mei--
mel--
men--
mena--
mene--
menzi--
mer--
meravi--
mes--
meso--
met--
meta--
metro--
meu--
mex--
mey--
mez--
mezzo--
mi--
mia--
mic--
micro--
mid--
mie--
mij--
mil--
min--
mina--
mine--
mini--
minu--
mio--
mir--
mira--
mis--
mise--
mit--
mittel--
mixe--
ml--
mm--
mo--
mod--
modif--
moe--
moi--
mol--
mole--
mom--
mon--
mona--
mone--
mono--
mons--
mont--
monte--
mor--
more--
mori--
mos--
mot--
moto--
mou--
movem--
mozza--
mp--
mr--
ms--
mt--
mu--
mul--
multi--
mun--
munt--
mur--
mura--
mus--
mut--
my--
mœ--
n--
na--
nad--
nai--
nan--
nano--
nar--
nas--
nat--
nau--
nav--
naz--
nazi--
nazional--
nc--
nca--
nch--
ncu--
nd--
nda--
nde--
ndi--
ndra--
ne--
nec--
neder--
nega--
nei--
nen--
neo--
ner--
nes--
net--
neu--
neuro--
nev--
new--
news--
ney--
nf--
ng--
nha--
ni--
nia--
nic--
nica--
nico--
nid--
nie--
nieder--
nigs--
nim--
nin--
nis--
nit--
nl--
nm--
nn--
no--
noa--
noe--
noi--
nol--
non--
nor--
nord--
nos--
not--
nota--
nou--
np--
ns--
nse--
nsi--
nt--
nta--
nter--
nti--
nu--
nua--
nue--
num--
nun--
nur--
nus--
nutri--
nve--
ny--
nœ--
o--
oa--
ob--
ober--
oc--
occ--
octo--
ocu--
od--
odo--
oe--
oeu--
of--
ofe--
off--
offen--
oh--
oi--
ol--
old--
ole--
oli--
oliv--
olo--
oly--
om--
ome--
omi--
omni--
omo--
on--
one--
oni--
ono--
op--
opa--
opo--
oposi--
or--
ora--
ore--
oren--
org--
ori--
orig--
oro--
orp--
ors--
ort--
orto--
os--
oscil--
osi--
oss--
ossi--
ost--
ot--
ota--
oto--
otta--
otto--
ou--
out--
ov--
over--
ow--
oz--
p--
pa--
pac--
paci--
pad--
pag--
pai--
paj--
pal--
pala--
pale--
pallavi--
palo--
pan--
papa--
par--
para--
pari--
parmi--
paro--
paru--
pas--
pat--
patri--
pau--
pav--
paz--
pc--
pe--
pedia--
pei--
pel--
pell--
pen--
per--
perd--
pere--
peri--
perme--
pers--
peru--
pes--
pet--
petr--
peu--
pey--
ph--
photo--
phy--
pi--
pia--
pian--
pic--
pid--
pie--
piedi--
pier--
pietra--
pig--
pil--
pili--
pin--
pio--
pipp--
pir--
pis--
pit--
pita--
piu--
pla--
plan--
play--
ple--
pli--
pllbum--
plo--
plu--
pluri--
plœ--
pm--
po--
poa--
pod--
poe--
poeu--
poi--
pol--
pola--
pole--
poli--
pollu--
poly--
pom--
pont--
ponte--
ponti--
pop--
por--
port--
porto--
pos--
post--
pou--
pp--
pr--
pra--
pre--
prest--
pret--
prevalente--
prexe--
pri--
pro--
prof--
proie--
pru--
ps--
psi--
psy--
pt--
pu--
pub--
pucc--
pue--
puli--
pult--
pum--
pup--
pur--
pus--
pusi--
put--
py--
pz--
q--
qi--
qu--
qua--
quar--
que--
quei--
qui--
quin--
quo--
r--
ra--
rab--
rac--
racco--
radd--
radio--
raf--
raggruppa--
rai--
raj--
ral--
ram--
ran--
rap--
ras--
rat--
ratif--
rau--
rb--
rc--
re--
rea--
real--
rec--
recom--
recon--
recu--
red--
ree--
regi--
regu--
rei--
rej--
rel--
reli--
rem--
remi--
remo--
ren--
rena--
reno--
rens--
reo--
repubb--
requi--
res--
respu--
resu--
ret--
reta--
rete--
reto--
retro--
retur--
reu--
rev--
revo--
rey--
rez--
rf--
rg--
rge--
rgo--
rh--
rho--
ri--
ria--
ric--
rica--
rich--
rico--
ricon--
riconos--
ricu--
ridi--
rie--
rima--
rimp--
rin--
rinasc--
ring--
rinnova--
rinun--
rio--
ripa--
ripri--
ris--
rispu--
rit--
riu--
riv--
rize--
rk--
rmo--
rn--
ro--
roa--
rob--
rocca--
rod--
rogg--
rohr--
roi--
rom--
roma--
ron--
roque--
ros--
rosa--
rot--
rota--
roth--
rothen--
rou--
rouss--
row--
roy--
rp--
rr--
rs--
rst--
rt--
rti--
ru--
rubb--
rue--
rugg--
rui--
rum--
run--
rus--
rv--
ry--
rz--
rœ--
s--
sa--
saa--
sabb--
sabbion--
sac--
sacri--
sad--
sae--
sai--
sal--
sala--
salu--
salz--
sam--
samari--
samo--
san--
sao--
sar--
sara--
sas--
sau--
savra--
sb--
sba--
sbar--
sbo--
sbu--
sc--
sca--
scal--
scar--
sce--
sch--
scha--
sche--
schi--
scho--
schu--
schwe--
sci--
scia--
scio--
sco--
scol--
scola--
sconf--
scu--
scumin--
scunf--
scur--
scœ--
sd--
se--
sea--
sec--
sed--
see--
sei--
sel--
sem--
semi--
sen--
sep--
ser--
sera--
serra--
ses--
set--
sete--
seu--
sey--
sf--
sfe--
sfi--
sfo--
sfr--
sg--
sga--
sgu--
sh--
she--
sho--
show--
si--
sia--
sic--
sid--
sie--
sig--
sil--
sim--
simpli--
sin--
sini--
sir--
sis--
sk--
ska--
sky--
sl--
sla--
slo--
slun--
sm--
sma--
smi--
smo--
sn--
so--
soc--
social--
sof--
soi--
sol--
sola--
soley--
som--
son--
sora--
sore--
sorve--
sos--
sot--
sota--
sotta--
sotto--
sou--
sound--
sour--
souv--
sp--
spa--
spazza--
spe--
spect--
spi--
spl--
spo--
spu--
spy--
sq--
squi--
sr--
ss--
ssi--
st--
sta--
stadt--
stam--
stan--
star--
stazz--
ste--
sten--
ster--
sti--
sto--
storia--
stra--
stre--
stri--
stro--
stru--
stu--
stæ--
su--
sua--
sub--
sud--
sudis--
sue--
suff--
sugg--
sugut--
sui--
sul--
sum--
sun--
suo--
super--
supplem--
sur--
sura--
sus--
sut--
suta--
suvie--
sv--
sve--
svi--
sw--
sy--
syn--
sz--
sœ--
t--
ta--
tag--
tai--
taka--
tal--
tala--
tamb--
tan--
tang--
tant--
tar--
tara--
tas--
tat--
tau--
tavaz--
taver--
tavul--
te--
tea--
teau--
tech--
tecn--
tel--
tele--
tema--
ten--
teo--
ter--
tere--
termodi--
terra--
tes--
tet--
tetra--
teu--
tg--
th--
the--
tho--
thun--
thy--
ti--
tia--
tic--
tie--
til--
tim--
time--
tin--
tipo--
tir--
tira--
tis--
tit--
tm--
to--
toi--
tol--
tom--
ton--
topo--
tor--
torre--
tos--
tot--
tour--
tr--
tra--
trad--
tram--
tran--
trans--
tras--
tre--
tres--
trey--
tri--
trim--
trin--
trip--
tro--
trou--
tru--
trun--
ts--
tsch--
tsu--
tt--
tti--
ttro--
tu--
tuc--
tul--
tum--
tur--
turi--
tus--
tutt--
tv--
twa--
twe--
ty--
tz--
tʃ--
u--
ua--
uc--
ucu--
ud--
ue--
uf--
ufe--
ufi--
uk--
ul--
ula--
uli--
um--
uman--
umori--
un--
uni--
uns--
unter--
up--
upera--
ur--
ura--
ure--
urgan--
uri--
url--
uro--
urs--
urtu--
urtud--
us--
usa--
use--
uss--
ut--
uti--
uto--
utu--
uv--
uvia--
uz--
v--
va--
vacc--
vai--
val--
vale--
vall--
valle--
van--
var--
vara--
vari--
vas--
vau--
vd--
ve--
vec--
ved--
vede--
vei--
vel--
ven--
vene--
ver--
vera--
veri--
vero--
ves--
vet--
vey--
vi--
via--
vice--
vico--
vid--
video--
vie--
vigil--
viglia--
vil--
vila--
villa--
vin--
vinic--
vint--
vio--
virg--
vis--
visua--
vit--
vita--
vitu--
viu--
vize--
vizz--
vlon--
vlu--
vo--
voca--
voi--
vol--
volks--
volu--
vom--
von--
vor--
voud--
voul--
vr--
vra--
vri--
vs--
vu--
vui--
vul--
vun--
vœ--
w--
wa--
wal--
wald--
wann--
war--
was--
we--
web--
wei--
west--
whit--
wi--
wie--
wiki--
wil--
wild--
win--
wir--
witt--
witten--
wo--
word--
wu--
wy--
x--
xa--
xe--
xi--
xl--
xx--
y--
ya--
ye--
yi--
yo--
you--
yu--
z--
za--
zan--
zar--
ze--
zel--
zen--
zeo--
zer--
zh--
zi--
zie--
zil--
zo--
zoo--
zu--
zucca--
zug--
zwe--
zwi--
zz--
ß--
ð--
ø--
þ--
ło--
œ--
ɛ--
ɲ--
ʃ--
ʒ--
α--
β--
γ--
δ--
ε--
ζ--
κ--
κα--
λ--
μ--
μα--
ν--
ο--
π--
ρ--
σ--
τ--
φ--
χ--
м--
н--
у--
ا--
--0
--00
--01
--02
--03
--04
--05
--06
--07
--08
--1
--10
--11
--12
--13
--14
--15
--16
--17
--18
--19
--2
--20
--21
--22
--23
--24
--25
--26
--27
--28
--3
--30
--31
--32
--34
--35
--39
--4
--42
--44
--46
--5
--53
--55
--59
--6
--60
--62
--68
--7
--70
--72
--74
--75
--79
--8
--87
--9
--92
--93
--94
--98
--a
--aa
--aal
--abil
--ac
--ace
--aceae
--ach
--achia
--aci
--ad
--ada
--ade
--adi
--ado
--ador
--ads
--adu
--ae
--aea
--ag
--age
--agg
--agh
--agi
--ago
--ah
--ai
--aia
--aine
--aj
--ak
--akh
--aki
--al
--ala
--alca
--ald
--aldi
--ale
--ales
--ali
--alia
--alita
--all
--alment
--am
--ame
--ameent
--ament
--an
--ana
--and
--ando
--ane
--ang
--ani
--ania
--ann
--ano
--ant
--anta
--anz
--anza
--ao
--ar
--ara
--ard
--ardi
--are
--ari
--aria
--ario
--aro
--art
--ary
--as
--asc
--asch
--asco
--ashi
--asiu
--ass
--assiu
--at
--ata
--ate
--ati
--ation
--ativ
--ativa
--ative
--ato
--ator
--att
--au
--aun
--aux
--ava
--ay
--az
--azio
--azion
--azz
--azza
--azzion
--azzo
--b
--ba
--bach
--bahn
--ban
--bao
--bar
--bba
--bbe
--bbi
--bbia
--be
--bei
--bel
--ben
--ber
--berg
--bi
--bia
--bii
--bij
--bil
--bili
--bilita
--bina
--bio
--bipp
--ble
--bo
--body
--bon
--bosa
--box
--bra
--bre
--bs
--bt
--bu
--buk
--buono
--bury
--bus
--by
--c
--ca
--caa
--cad
--cadu
--cal
--cam
--can
--cano
--carpo
--cat
--category
--categuria
--cc
--cca
--cch
--cchi
--cchia
--cchio
--cci
--ccia
--ccio
--cco
--ce
--cea
--ceae
--cei
--cel
--celli
--cen
--cent
--cenza
--ceto
--ch
--che
--chi
--chin
--chini
--cho
--cht
--chu
--chy
--ci
--cia
--cin
--cio
--cion
--cipa
--cipaa
--cis
--citt
--ciu
--ck
--cle
--co
--code
--coi
--coj
--col
--cola
--con
--cot
--craft
--crazia
--cs
--ct
--cta
--ction
--cts
--cture
--cu
--cul
--cum
--cun
--cus
--cy
--cz
--d
--da
--daa
--daceae
--dad
--dae
--dal
--dan
--dana
--das
--day
--dda
--de
--dea
--ded
--deg
--dega
--degh
--del
--den
--denza
--der
--dera
--dere
--des
--dhi
--di
--dia
--diame
--die
--dietwil
--dii
--dime
--din
--ding
--dingen
--dio
--divaltellina
--do
--dola
--domo
--don
--dona
--doo
--dor
--doro
--dos
--dr
--dra
--draa
--dre
--dri
--dro
--dron
--ds
--dt
--du
--dun
--dur
--dura
--dure
--duu
--duur
--dy
--e
--ea
--eae
--ean
--eb
--ec
--eca
--ech
--eck
--ed
--eda
--edo
--edri
--ee
--eent
--ees
--ef
--eg
--ega
--ege
--egg
--eggia
--egh
--eghe
--egn
--ego
--ei
--eim
--ej
--ek
--el
--ela
--eld
--ele
--elen
--ell
--ella
--elli
--ellin
--ellini
--ello
--eln
--els
--elt
--em
--ema
--ement
--emm
--emo
--emon
--ems
--en
--ena
--enburg
--ence
--end
--ene
--engh
--eni
--enne
--eno
--ens
--ensa
--ensis
--ent
--enta
--enwil
--enz
--enza
--eo
--eon
--er
--era
--erdo
--ere
--erg
--eri
--eria
--erie
--ern
--erna
--ero
--erre
--ers
--ersee
--ert
--ertal
--erva
--ery
--es
--esa
--esc
--esca
--esch
--esco
--ese
--esi
--esia
--esim
--ess
--essa
--essi
--est
--et
--eta
--ete
--eter
--eti
--etin
--eto
--etro
--ets
--ett
--etta
--ette
--etti
--etto
--eu
--eugh
--eugn
--euj
--eul
--eula
--eum
--eun
--eur
--eus
--euv
--euva
--eux
--ev
--eva
--even
--ex
--ey
--ez
--eza
--ezz
--ezza
--f
--fa
--fe
--feg
--fega
--fegad
--fegh
--feghe
--feld
--fen
--fer
--ff
--ffe
--ffi
--fi
--fia
--fica
--ficaa
--ficazion
--fil
--fizzi
--fo
--folia
--folium
--fon
--ford
--fort
--fra
--fre
--fredda
--freddo
--fro
--fs
--ft
--fu
--ful
--fun
--fur
--furt
--g
--ga
--gaa
--gaceae
--gad
--gada
--gano
--gar
--gari
--gau
--gazzion
--ge
--ged
--gega
--gegh
--gei
--gen
--ger
--ges
--geva
--gg
--gge
--ggen
--ggh
--ggi
--ggia
--ggio
--ggiore
--gh
--ghe
--ghen
--ghene
--ghi
--ght
--gi
--gia
--gica
--gical
--gich
--gico
--gie
--gin
--gine
--gio
--git
--giu
--giuda
--giuu
--gl
--gla
--glatt
--gle
--gli
--glia
--gliano
--glie
--glier
--glio
--gliu
--gn
--gna
--gnada
--gnan
--gnana
--gnano
--gne
--gnes
--gni
--gnin
--gnini
--gno
--gnoeu
--gnolo
--gnon
--gnor
--gnosa
--gnu
--gnuss
--gny
--gnœla
--gnœul
--go
--gon
--gos
--gozz
--gr
--gra
--grad
--gram
--gro
--gs
--gton
--gu
--gua
--gue
--gues
--gus
--gy
--h
--ha
--hac
--hal
--ham
--han
--haus
--he
--heim
--hen
--her
--hes
--hetti
--hi
--hia
--hie
--hio
--hn
--ho
--hof
--hofen
--holz
--hon
--hor
--hr
--hs
--ht
--http
--hu
--hus
--hy
--i
--ia
--iaa
--iaceae
--iad
--iada
--iae
--iai
--iaj
--ial
--iala
--ian
--iana
--iani
--iano
--iar
--iara
--iard
--iaria
--iass
--iat
--iato
--ibel
--ibil
--ibus
--ic
--ica
--ical
--icc
--ice
--ich
--ichi
--ici
--icia
--icita
--ico
--ics
--icu
--icum
--icus
--id
--ida
--idaa
--idad
--idae
--ide
--ides
--ido
--idor
--ids
--idu
--idur
--ie
--iee
--iel
--ien
--ient
--ier
--iera
--iere
--iero
--iers
--ieu
--ieux
--iev
--iez
--if
--ifica
--ifich
--ifo
--ifolia
--ifolium
--ig
--iga
--ige
--igen
--igg
--igh
--ight
--ign
--igny
--igo
--igu
--ii
--iint
--ij
--ija
--ijan
--ije
--ik
--ika
--iko
--ikon
--il
--ila
--ile
--ili
--ilia
--ilian
--ill
--ille
--im
--ima
--ime
--iment
--imo
--in
--ina
--inaa
--inate
--ine
--ing
--ingen
--ings
--ini
--inin
--inn
--ino
--ins
--int
--io
--iola
--iolo
--ion
--ione
--ioni
--ions
--ior
--iore
--ios
--ipa
--ipi
--ique
--ir
--ira
--ire
--iri
--irin
--iro
--is
--isa
--isch
--ische
--ise
--ish
--isi
--isiu
--ism
--ismo
--iso
--iss
--issa
--issi
--issim
--issima
--issimo
--issmo
--ist
--ista
--istega
--istegh
--isti
--istica
--istich
--it
--ita
--itaa
--itan
--itari
--itaria
--ite
--iten
--ith
--iti
--ities
--ito
--its
--itt
--itta
--itu
--ituden
--ituii
--ituzion
--ity
--iu
--ium
--iun
--iur
--ius
--iuu
--iuur
--iv
--iva
--ivament
--ive
--iven
--ivi
--ivita
--ivo
--ix
--iz
--iza
--izaa
--izad
--izada
--izasiu
--izazzion
--izi
--izia
--izio
--izion
--iziu
--izz
--izza
--izzaa
--izzada
--izzato
--izzazion
--izzazzion
--izzi
--izzia
--j
--ja
--jada
--jan
--jar
--jarnot
--je
--jen
--jer
--ji
--jia
--jid
--jo
--ju
--jud
--k
--ka
--ke
--kel
--ken
--ker
--ket
--key
--kh
--ki
--kij
--kirch
--ko
--kr
--kreuz
--ks
--ku
--ky
--l
--la
--laa
--lad
--lada
--lade
--lame
--lan
--lana
--land
--lano
--lar
--las
--lata
--late
--laz
--lba
--lcina
--ld
--lda
--lde
--lden
--ldi
--ldo
--le
--leg
--len
--lenza
--ler
--les
--lese
--let
--lex
--ley
--lf
--lfi
--lfo
--lgia
--li
--lia
--lich
--lie
--lier
--lii
--lin
--lina
--ling
--lingen
--lini
--lino
--lio
--lis
--lism
--list
--lita
--ll
--lla
--lle
--lles
--lli
--llia
--llin
--llis
--llo
--llon
--lls
--llum
--lly
--lm
--lme
--lment
--lo
--logi
--logia
--logico
--logie
--lojia
--lom
--lon
--longo
--lor
--los
--ls
--lt
--lta
--lte
--lto
--lu
--lud
--lugh
--lum
--lun
--luna
--lus
--lv
--lve
--ly
--lyn
--lz
--lza
--m
--ma
--mada
--man
--mann
--mar
--mb
--mba
--mbi
--mbie
--me
--meent
--meg
--mega
--mel
--men
--ment
--mente
--mento
--mer
--mi
--mia
--mic
--mica
--mich
--mida
--mie
--migh
--mii
--mio
--mm
--mma
--mo
--mon
--mot
--mp
--mpa
--mps
--ms
--mu
--mum
--mus
--my
--n
--na
--naa
--naceae
--nad
--nagh
--nai
--naj
--nal
--naldo
--nam
--name
--nara
--nare
--nari
--nas
--nat
--nau
--nay
--nc
--nca
--ncc
--nce
--nci
--nd
--nda
--nde
--ndel
--nden
--ndent
--ndi
--ndo
--ndorf
--ndose
--ndro
--ndu
--ne
--nea
--ned
--nee
--neg
--nega
--nege
--negg
--negh
--nei
--nem
--nen
--nent
--nenzial
--neo
--ner
--nes
--nesa
--nesi
--net
--neto
--ney
--nf
--nfeld
--nfo
--ng
--nga
--nge
--ngen
--nges
--ngg
--ngh
--ngiuda
--ngo
--ngs
--ngu
--nha
--nho
--ni
--nia
--nic
--nica
--nich
--nico
--nie
--nigi
--nii
--nik
--nim
--niment
--nin
--ning
--nio
--nion
--nir
--nis
--nise
--nita
--nite
--nius
--nja
--nk
--nn
--nna
--nne
--nnes
--nni
--no
--nom
--non
--nos
--nova
--novo
--nque
--nried
--ns
--nsa
--nsc
--nse
--nsi
--nsia
--nsion
--nsis
--nsiu
--nsiva
--nso
--nt
--nta
--ntanea
--nte
--nti
--ntia
--ntic
--ntica
--ntin
--ntina
--ntino
--nto
--nts
--ntu
--nu
--nua
--nud
--nui
--num
--nuova
--nus
--nusi
--nuu
--nwil
--nx
--ny
--nz
--nza
--nzaa
--nzano
--nze
--nzi
--nzia
--nzie
--nzii
--nzio
--nzion
--nziun
--nzo
--nzon
--nzu
--o
--och
--ock
--od
--oe
--oeu
--oeul
--oeula
--of
--ofon
--og
--ogn
--oi
--oia
--ois
--oja
--ok
--ol
--ola
--olada
--olas
--ole
--olf
--oli
--olia
--olino
--olla
--olle
--olo
--olus
--om
--oma
--on
--ona
--ond
--one
--ones
--ong
--oni
--onia
--only
--onne
--onnex
--ono
--ons
--ont
--oo
--op
--opoli
--or
--ora
--ord
--ore
--orf
--ori
--orn
--oro
--orum
--os
--osa
--osch
--ose
--osi
--osita
--oso
--osum
--ot
--otho
--ott
--otta
--otti
--ou
--ous
--oux
--ov
--ova
--ovic
--ovo
--ow
--oy
--oz
--oza
--p
--pa
--pai
--panter
--park
--pe
--ped
--pee
--per
--pf
--ph
--phy
--phylla
--pi
--pia
--pid
--pie
--pii
--pio
--ple
--plo
--po
--pol
--poli
--pon
--pp
--ppa
--ppe
--ppen
--ppi
--ppo
--ps
--pto
--pu
--puj
--pul
--q
--qe
--qua
--que
--ques
--r
--ra
--raa
--rad
--rada
--rade
--raga
--rai
--ral
--ram
--ran
--rann
--rano
--rar
--ras
--rate
--rati
--rato
--rava
--razio
--razion
--rb
--rbe
--rc
--rca
--rcc
--rce
--rch
--rci
--rco
--rd
--rda
--rdada
--rde
--rdi
--rdo
--re
--rea
--reale
--red
--ree
--reet
--reg
--regh
--rei
--rell
--rella
--relli
--remm
--ren
--rent
--renza
--rer
--res
--ress
--ret
--rett
--retto
--rey
--rezz
--rf
--rg
--rga
--rge
--rgg
--rgh
--rghe
--rgo
--rgues
--ri
--ria
--rian
--ric
--rica
--rich
--rico
--rid
--rie
--ried
--riet
--rieu
--rigo
--rii
--rij
--rin
--rina
--rine
--ring
--rini
--rino
--rio
--ris
--rism
--riss
--rissa
--rissan
--rissi
--rit
--rium
--riz
--rizza
--rk
--rla
--rle
--rlo
--rly
--rm
--rma
--rme
--rmi
--rn
--rna
--rne
--rni
--rnita
--rno
--ro
--rod
--roeu
--rol
--rola
--rolo
--ron
--rone
--roni
--roo
--ror
--rosa
--rot
--rott
--rov
--rova
--rp
--rr
--rra
--rre
--rs
--rsa
--rse
--rsi
--rso
--rson
--rt
--rta
--rte
--rti
--rto
--rtu
--ru
--rum
--run
--rupt
--rus
--ruu
--rva
--rve
--ry
--rya
--rz
--rzo
--s
--sa
--saa
--san
--sana
--sano
--sat
--sbach
--sberg
--sburg
--sc
--sca
--scant
--sce
--sch
--sci
--scia
--sciaa
--sco
--sden
--sdorf
--se
--see
--sef
--sell
--sem
--sen
--ser
--ses
--set
--sey
--sg
--sger
--sh
--shausen
--sheim
--shi
--ship
--shire
--si
--sia
--sii
--sim
--sima
--sin
--sine
--sio
--sion
--sis
--sit
--sita
--siu
--siun
--siuna
--siv
--sizio
--sizzion
--sk
--ska
--ski
--sko
--sm
--sma
--sme
--smo
--sne
--so
--son
--sor
--sp
--sque
--ss
--ssa
--ssam
--ssan
--sse
--ssen
--ssi
--ssie
--ssim
--ssimo
--ssio
--ssion
--ssita
--ssiu
--ssiun
--ssiv
--ssiva
--sso
--sson
--ssov
--ssu
--ssum
--st
--sta
--ste
--steg
--stega
--stege
--stegh
--ster
--sti
--stica
--stich
--stiga
--stigh
--stique
--sto
--ston
--stone
--stra
--straße
--su
--sum
--sus
--suu
--swil
--sy
--t
--ta
--taa
--tad
--tal
--tament
--tan
--tana
--tano
--tar
--tari
--tava
--tazion
--tazzion
--tch
--te
--tea
--ted
--teg
--tega
--tege
--tegh
--tegory
--tei
--tein
--tel
--tello
--ten
--ter
--tes
--tge
--th
--ti
--tia
--tiba
--tic
--tica
--tich
--tico
--tics
--tid
--tida
--tide
--tiens
--tif
--tiga
--tigh
--tigny
--tii
--tiif
--til
--tin
--ting
--tini
--tino
--tion
--tions
--tis
--tism
--tiss
--tista
--tiu
--tium
--tiv
--tiva
--tive
--tiza
--tizad
--tle
--tnau
--to
--toi
--tol
--tolo
--ton
--tor
--tore
--torf
--tori
--toria
--tou
--tov
--town
--tr
--tra
--tram
--tre
--trega
--tri
--tris
--tro
--try
--ts
--tsu
--tt
--tta
--ttaa
--tte
--ttega
--ttes
--tti
--ttico
--ttin
--ttina
--ttiv
--ttiva
--ttivita
--tto
--ttor
--ttu
--ttuda
--ttuu
--tu
--tuda
--tum
--tun
--tur
--tura
--ture
--tus
--tuu
--ty
--tyn
--tz
--u
--ua
--uada
--uai
--uaj
--ual
--uan
--uar
--uard
--uari
--uca
--ucch
--ucci
--uce
--uch
--ud
--uda
--ude
--uden
--udi
--ue
--uen
--uer
--ues
--uf
--ug
--uga
--ugg
--ugh
--ugi
--ui
--uj
--uja
--uk
--ul
--ula
--ule
--ules
--uli
--ullo
--ulo
--ulta
--ulugi
--um
--uma
--ume
--umi
--umia
--umm
--un
--una
--unal
--und
--ung
--ungh
--uni
--unitdata
--uno
--unt
--uo
--uola
--uolo
--up
--upen
--ur
--ura
--uraa
--ure
--ures
--urg
--uri
--urizza
--url
--urn
--urnen
--uro
--uropee
--urs
--urt
--us
--usa
--usc
--usch
--use
--usen
--usi
--uss
--ut
--uti
--uto
--utor
--uu
--uur
--uv
--uva
--uve
--uvi
--uvio
--ux
--uz
--uzzo
--v
--va
--vaa
--val
--van
--vat
--vativ
--vaux
--vaz
--vazion
--ve
--ven
--ver
--ves
--vet
--vi
--via
--vic
--vie
--vigh
--vii
--ville
--vin
--vio
--viv
--vma
--vn
--vo
--vol
--von
--vos
--vov
--vra
--vu
--vum
--vun
--w
--wa
--way
--we
--well
--wiki
--wil
--wiler
--witz
--wn
--wo
--ws
--x
--xa
--xe
--xendo
--xer
--xi
--xia
--xis
--xo
--xy
--y
--ya
--yd
--ye
--yer
--yin
--ymoy
--yn
--yo
--yon
--yr
--yre
--ys
--yte
--z
--za
--zaa
--zach
--zad
--zada
--zagh
--zan
--zana
--zano
--zazion
--zazzion
--ze
--zee
--zei
--zel
--zen
--zes
--zet
--zi
--zia
--ziaa
--ziai
--zie
--zien
--zii
--zij
--zil
--zin
--zina
--zing
--zio
--zion
--ziona
--zione
--zioni
--ziu
--ziun
--zo
--zoeu
--zoli
--zu
--zy
--zz
--zza
--zzaa
--zzada
--zzan
--zzano
--zzazion
--zze
--zzi
--zzia
--zzion
--zziu
--zziun
--zzo
--zzola
--zzon
--ß
--ße
--æ
--ða
--ðess
--ði
--ðo
--łe
--ŋ
--œi
--œl
--œm
--ɔ
--ɛ
--ɲ
--ʃ
--ʊ
--α
--ε
--η
--ι
--ν
--ο
--ς
--υ
--ω
--а
--ая
--е
--и
--ии
--ка
--н
--я
--ة
