!
"
#
##0
##1
##10
##11
##12
##13
##14
##15
##16
##17
##18
##19
##2
##20
##21
##22
##23
##24
##25
##26
##27
##28
##29
##3
##30
##31
##32
##33
##34
##35
##36
##37
##38
##39
##4
##40
##41
##42
##43
##44
##45
##46
##47
##48
##49
##5
##50
##51
##52
##53
##54
##55
##56
##57
##58
##59
##6
##60
##61
##62
##63
##64
##65
##66
##67
##68
##69
##7
##70
##71
##72
##73
##74
##75
##76
##77
##78
##79
##8
##80
##81
##82
##83
##84
##85
##86
##87
##88
##89
##9
##90
##91
##92
##93
##94
##95
##96
##97
##98
##99
$
%
&
'
(
)
*
+
,
-
.
/
0
00
000
001
008
01
011
0126
013
015
017
02
020
021
03
0305
033
035
04
040
0464
0486
05
050
06
067
07
08
081
083
09
090
1
10
100
1000
1002
1007
101
1010
1016
1017
102
1021
1029
103
1038
1039
104
105
106
107
108
1080
109
1093
11
110
1100
1103
111
1111
112
113
114
115
116
117
118
119
12
120
1200
121
1212
122
123
124
125
1257
126
127
128
129
13
130
1300
131
1313
132
1325
133
134
135
136
137
1379
138
1385
1388
139
1390
14
140
1400
141
1414
142
143
144
145
1450
146
147
148
149
15
150
1500
151
1515
152
1520
153
154
155
156
157
158
159
16
160
1600
161
1616
162
163
164
165
1650
166
1660
167
1670
1678
168
1680
169
1690
17
170
1700
171
1710
1717
1718
172
1720
173
1730
174
1740
175
1750
1753
176
1760
177
1770
178
1780
179
1790
18
180
1800
1804
1806
1809
181
1810
1814
1815
1816
1817
1818
182
1820
1822
1823
1825
1826
1827
1828
183
1830
1832
1834
1836
1837
1838
184
1840
1843
1844
1847
1848
1849
185
1850
1851
1852
1853
1854
1855
1857
1858
1859
186
1860
1861
1862
1863
1864
1865
1866
1867
1868
1869
187
1870
1871
1872
1873
1874
1875
1876
1877
1878
1879
188
1880
1881
1882
1883
1884
1885
1886
1887
1888
1889
189
1890
1891
1892
1893
1894
1895
1896
1897
1898
1899
19
190
1900
1901
1902
1903
1904
1905
1906
1907
1908
1909
191
1910
1911
1912
1913
1914
1915
1916
1917
1918
1919
192
1920
1921
1922
1923
1924
1925
1926
1927
1928
1929
193
1930
1931
1932
1933
1934
1935
1936
1937
1938
1939
194
1940
1941
1942
1943
1944
1945
1946
1947
1948
1949
195
1950
1951
1952
1953
1954
1955
1956
1957
1958
1959
196
1960
1961
1962
1963
1964
1965
1966
1967
1968
1969
197
1970
1971
1972
1973
1974
1975
1976
1977
1978
1979
198
1980
1981
1982
1983
1984
1985
1986
1987
1988
1989
199
1990
1991
1992
1993
1994
1995
1996
1997
1998
1999
2
20
200
2000
2001
2002
2003
2004
2005
2006
2007
2008
2009
201
2010
2011
2012
2013
2014
2015
2016
2017
2018
2019
202
2020
2021
2022
2023
2024
2026
203
204
205
206
207
208
209
21
210
211
212
2121
213
214
215
216
217
218
219
22
220
221
222
2222
223
224
225
226
227
228
229
23
230
2305
2307
231
232
2323
233
234
235
236
237
238
239
24
240
241
242
2424
243
244
245
246
247
248
249
25
250
251
252
2525
253
254
255
256
257
258
259
26
260
261
262
2626
263
264
265
266
267
268
269
27
270
271
272
2727
273
274
275
276
277
278
279
28
280
281
282
2828
283
284
285
286
287
288
289
29
290
291
2912
292
2929
293
294
295
296
297
298
299
3
30
300
301
302
303
3030
304
305
306
307
308
309
31
310
311
312
313
3131
314
315
316
317
318
319
32
320
321
322
323
3232
324
325
326
327
328
329
33
330
331
332
333
3333
334
335
336
337
338
339
34
340
341
342
343
3434
344
345
346
347
348
349
35
350
351
352
353
3535
354
355
356
357
358
359
36
360
361
362
363
3636
364
365
366
367
368
369
37
370
372
373
3737
374
375
377
378
379
38
380
381
383
3838
385
386
388
389
39
390
391
393
3939
394
395
396
397
399
4
40
400
401
402
4020
403
404
4040
405
406
407
408
409
41
410
411
412
414
4141
415
416
417
418
419
42
420
421
424
4242
427
428
429
43
430
432
433
4343
435
437
438
44
440
444
4444
445
446
447
448
449
45
450
4545
456
459
46
460
461
462
463
4646
466
467
468
469
47
470
471
472
474
4747
475
476
477
478
479
48
480
481
482
484
4848
486
489
49
490
491
492
493
4949
495
496
5
50
500
504
5050
506
507
509
51
510
511
513
5151
517
518
5194
52
520
521
522
523
524
5252
528
529
53
530
532
535
5353
54
540
542
544
545
5454
546
548
55
550
552
555
5555
557
559
56
560
561
562
564
5656
566
567
568
569
57
570
571
572
573
5757
576
579
58
580
582
583
584
5858
586
589
59
590
593
594
5959
6
60
600
601
602
606
6060
609
61
610
6161
618
619
62
620
623
625
6262
63
630
631
6363
637
638
64
640
642
6464
647
649
65
650
651
6565
659
66
660
663
666
6666
667
668
669
67
670
671
672
674
676
6767
677
679
68
680
681
683
685
6868
69
690
691
693
6969
699
7
70
700
701
702
71
710
7171
719
72
720
724
725
726
727
729
73
730
735
74
740
741
747
749
75
750
751
752
753
758
76
760
767
768
77
770
771
775
777
78
780
782
783
784
788
79
790
792
797
8
80
800
801
803
804
809
81
810
811
8118
813
818
82
820
823
8248
827
83
830
832
834
837
839
84
840
8409
841
843
8493
85
850
852
853
857
858
859
86
860
861
864
866
867
868
87
870
875
879
88
880
883
887
89
890
892
895
896
897
9
90
900
904
91
910
912
913
92
920
921
925
929
93
930
930618
94
940
944
949
95
950
95548
956
959
96
960
967
97
970
974
978
979
98
980
981
983
984
986
99
990
991
992
:
;
<
=
>
?
@
[
\
]
^
_
`
a
aa
aab
aan
aas
ab
aba
ababi
ababin
abad
abadi
abagus
abah
abakti
abala
abali
aban
abana
abang
abar
abas
abasan
abat
abayu
abc
abcik
abd
abda
abdha
abdi
abdul
abdullah
abe
abedik
abesik
abet
abete
abetne
abha
abhakti
abhat
abhi
abhu
abhumi
abian
abianbase
abiane
abiansemal
abih
abin
abing
abis
abjad
abot
about
abr
abra
abran
abrandina
abrann
abs
abstrak
abu
abuan
abuka
abulan
abun
abung
abungkul
abut
ac
aca
acad
academic
academy
acahi
acara
access
accessdate
accessed
according
ace
aceh
acehnese
acepok
achmad
aci
acin
acniŋ
acorah
act
acting
actinide
action
actor
actors
actress
acuh
ad
ada
adadi
adah
adak
adakake
adakaŋ
adake
adal
adalah
adam
adan
adane
adanin
adanina
adanne
adanya
adaptation
adas
adasa
adat
adaŋ
add
addha
ade
aden
adeng
adep
adepa
ades
adese
adewa
adha
adhan
adhar
adhe
adhi
adhu
adhya
adhyan
adi
adihati
adik
adika
adiknya
adil
adin
adina
adinda
adine
adini
adinne
adipati
adiri
aditu
aditya
adjak
adji
adma
admin
administrasi
administratif
administration
administratip
adn
adnyana
adoh
adonan
ados
adr
adras
adri
adrian
adu
adug
adugadug
aduh
aduhai
adujurit
aduk
adun
adung
adupon
adur
adut
adventures
adwa
adya
adyaman
adyan
adyanin
ae
aeng
af
afc
aff
affairs
afganistan
afghanistan
africa
african
afrika
after
ag
aga
agah
again
against
agak
agam
agama
agan
agar
agastya
agats
agd
age
agelis
agem
ageman
agency
ageng
agengnyane
aget
agglome
agigis
agin
agja
agjag
agjagin
agjagn
aglis
aglomerasi
agni
ago
agoeng
agraris
agre
agricultural
agriculture
agriŋ
agu
agun
agung
agunge
agus
agustus
aguŋ
aguŋlin
aguŋn
ah
aha
ahada
ahadat
ahadi
ahaguŋ
ahaji
ahalus
ahan
ahanpidpid
ahar
ahas
ahasih
ahayu
ahaŋ
ahe
ahen
ahi
ahicili
ahid
ahida
ahidup
ahika
ahiki
ahiku
ahilaŋ
ahiman
ahin
ahir
ahiwayan
ahiŋ
ahiŋhalas
ahiŋjurit
ahiŋmar
ahiŋn
ahiŋran
ahiŋwana
ahli
ahmad
ahn
ahok
ahu
ahula
ahulun
ahup
ahurin
ahurip
ahutin
ai
aim
aine
air
airku
airlangga
airport
ais
aja
ajabayaŋ
ajah
ajahan
ajahin
ajak
ajaka
ajakan
ajake
ajakin
ajam
ajan
ajanaŋ
ajang
ajani
ajap
ajapajap
ajaptawaŋ
ajar
ajaran
ajat
ajati
ajayaŋ
aje
ajebos
ajeng
ajengan
ajerih
aji
ajin
ajine
ajinida
ajinnyane
ajis
ajiwa
ajn
ajoe
ajrih
ajrowaŋ
ajum
ajumaŋ
ajurit
ajuti
ajyan
ak
aka
akabeh
akademi
akah
akahe
akak
akal
akala
akalan
akalih
akan
akapan
akar
akara
akas
akasa
akat
akatah
akate
akatih
akawar
akawuwus
akbar
ake
akedik
akeh
akehan
akehnyane
akejep
aken
aker
aketo
akhir
akhirnya
aki
akibat
akidik
akin
akir
akit
akita
akitin
akman
akn
akna
aknaman
aknapunika
akne
ako
akocap
akpan
akr
akra
akrawar
akrawr
aks
aksara
akse
aksi
akt
akta
akte
akti
aktif
aktin
aktine
aktinida
aktip
aktityaŋ
aktivis
aktivitas
aktor
aktris
aktya
aktyan
aku
akuda
akukuh
akun
akuntansi
akupaŋtan
akur
akus
akutus
akweh
akyamuni
al
ala
alah
alahaŋ
alahin
alahinmati
alai
alak
alaks
alalu
alam
alamat
alami
alampus
alan
alanaŋ
alang
alanin
alantara
alantur
alap
alapan
alapbun
alapkasor
alaprabi
alapse
alara
alas
alasan
alase
alaska
alat
alawan
alawut
alaya
alaŋ
alaŋn
albania
albert
album
ale
aled
aledan
alempoh
alen
aleraŋ
alex
alexander
alfred
ali
alias
alice
align
alih
aliha
alihang
alihin
alikalik
alilir
alilit
alimur
alimuraŋ
alin
aline
aling
alintan
alintaŋ
aliput
aliran
alis
alit
alitan
alite
aliwat
aliyu
alkali
all
allah
allen
allmovie
allowed
alo
aloes
aloka
alokasi
alon
alor
alpha
als
alse
also
alternatip
alu
alub
alugrahin
aluh
aluhur
aluk
aluks
alumah
aluminium
alumni
alun
alup
alur
alus
aluwih
alwa
alwih
alwir
alya
alyab
alyan
am
ama
amabi
amabraya
amage
amah
amaha
amahan
amaka
amakasami
amake
amakna
amal
amala
amalih
amalin
amamar
amami
amamun
aman
amanah
amanahaŋ
amanahin
amanat
amane
amanis
amann
amantityaŋ
amantra
amantyaŋ
amanu
amar
amara
amaranin
amas
amasih
amat
amati
amatimati
amatur
amatyaŋ
amayaŋ
amba
ambah
ambahin
ambal
amban
ambar
ambara
ambat
ambataŋ
ambe
ambel
ambengan
ambeyan
ambi
ambil
ambila
ambilin
ambiltan
ambon
ambrama
ambu
ambuh
ambul
ambun
ambut
ambutkar
ambuŋ
ambya
ambyar
ame
amen
ameng
amenin
america
american
amerika
amerta
amet
amfoang
ami
amille
amin
amir
amitabh
amiwah
amla
amlah
amlapura
amma
amn
amon
among
amonto
amoŋ
amoŋjagat
ampah
ampar
ampat
ampe
ampel
ampenan
ampi
ampin
ampiŋ
amprak
ampru
ampu
ampuh
ampun
ampura
ampurayang
ampurayaŋ
amr
ams
amsterdam
amsyah
amu
amuk
amuka
amukman
amukn
amulih
amun
amur
amus
amuwus
amwah
amya
amyan
an
ana
anak
anake
anakku
anaknya
anal
analisis
analysis
anam
anaman
anambas
anan
anana
ananda
anann
ananta
anas
anayaŋ
anban
anbe
anbhat
anbun
ancengan
ancestral
ancient
ancokor
and
anda
andak
andaman
andan
andap
andat
andaŋ
andaŋgugu
andaŋhan
andaŋhe
andaŋmalih
andaŋman
andaŋn
andaŋpan
andaŋse
andaŋsun
andaŋtulad
ande
anderson
andes
andhe
andhika
andhikaharis
andi
andika
andikabhat
andikahalon
andikahalus
andikaharis
andikahin
andikamalih
andikaman
andikan
andikanah
andikanhida
andikaris
andikas
andikasar
andikayaŋ
andikayaŋn
andin
andiŋ
andong
andorra
andre
andrew
andulu
andus
andy
ane
anebe
aneditu
aneh
anehan
anehe
aneja
anejani
anejati
aneka
anekawuwus
aneke
aneki
anekocap
anel
anema
anemakasami
anemalih
aneman
anemanis
aneme
anemlah
anemun
anen
anene
anepan
anepe
anepunika
anepuniku
aner
anes
anesa
anesami
anesan
anesar
anese
anesuba
anetansinipi
anetansipi
anete
anetidoŋgigis
anetka
anetun
anetwah
ang
angan
ange
angel
angeles
angen
anget
angga
anggan
anggara
angge
anggen
anggitan
anggo
anggon
anggona
anggota
anggrek
angin
angine
anging
angka
angkara
angkasa
angkat
angkatan
angkeran
angklung
anglurah
angob
angon
angsa
angucap
anha
anhan
anhanak
anhas
anhe
anhida
anhiku
anhipun
anhurip
ani
ania
anika
animal
animasi
animation
animator
anime
anin
anipun
anir
anira
anis
aniŋ
aniŋloka
aniŋn
aniŋs
anjali
anjing
anjir
anka
ankalih
ankayu
anke
ankinum
ankiwa
anku
anle
anma
anmalih
anmamar
anman
anmanah
anme
anmiwah
anmu
anmun
ann
anna
anne
annin
annipun
annira
anno
announces
annual
anoe
anom
anpan
anpe
anpunika
anpura
anr
anra
anratu
ans
ansa
ansami
ansan
ansar
ansaŋprabhu
anse
ansuku
ant
anta
antaka
antan
antap
antapani
antapura
antar
antara
antaranews
antartika
ante
anten
antenan
anteng
anthony
anti
antiga
antih
antin
antinin
antis
antityan
antityaŋ
anto
antoek
antologi
anton
antonio
antos
antosaŋ
antosin
antr
antu
antuk
antuknya
antun
antunantun
antur
antyaŋ
antyaŋmulih
antyaŋn
anu
anugrah
anun
anusuara
anut
anutin
anwar
anwate
anya
anyaman
anyar
anyud
ap
apa
apabila
apada
apadha
apage
apah
apak
apakapak
apaks
apalagi
apaliŋ
apaman
apan
apane
apang
apanga
apanlah
apar
aparan
apasan
apasang
apasti
apati
apatih
apatin
apatu
apbd
apbn
apdhulah
ape
api
apidpidkaler
apih
apikin
apin
apine
apinih
apisan
apit
apitmar
apjah
apkik
aplih
aplikasi
apn
apollo
appear
appearance
applied
apr
apra
aprabhu
apraŋ
april
apti
apu
apuan
apuh
apun
apunika
apuniki
apuniku
apur
apuriyaŋ
apuryaŋ
apus
aput
aputih
aputin
aputus
ar
ara
arab
arabarab
arabi
arabrahma
arad
araga
araguru
arah
arahan
arahina
arak
araka
araks
araman
aran
arana
aranan
arane
araneki
arang
aranika
aranipun
aranira
arann
aranpan
arans
aranta
aranya
arap
arapan
araris
aras
arasa
arasan
arasaras
arasharas
arasu
araswati
arataŋ
aratha
aratu
arawis
arawuh
arawuhin
araŋ
arca
archaeological
archaeology
archipelago
architecture
archive
archived
archives
are
area
areas
aren
arena
arep
arepan
arfak
arge
argentina
argomulyo
ari
aridu
aridur
arifin
arih
ariharih
arihinin
arik
arikan
arin
arine
arini
arira
ariranku
ariranta
aris
aristotle
arit
arita
aritayaŋ
arizona
ariŋ
ariŋn
arja
arjuna
arke
arkeologi
arktik
armada
armenia
army
aron
arosbaya
around
ars
arsa
arsenal
arsip
arsite
arsitek
arsitektur
art
arta
artha
arthur
arti
article
artikel
artinipun
artinya
artis
artist
artos
artosnyane
arts
aru
arudug
aruh
arum
arun
aruruh
arus
arusak
aruwaŋ
arya
as
asa
asab
asah
asahan
asahi
asakit
asaks
asakti
asal
asalah
asam
asami
asampun
asan
asana
asane
asapoenika
asapunapi
asapunika
asapuniki
asar
asasi
asasih
asaŋna
ase
asean
asem
asen
asi
asia
asian
asianwiki
asibak
asidd
asih
asihasih
asik
asiki
asil
asin
asing
asir
asira
asisten
askar
asli
asmara
asmat
aso
asor
asoraŋ
asosiasi
asr
asri
assam
assistant
association
ast
asta
astawa
astawayaŋ
aste
asti
astina
astiti
astra
astriyan
astronomi
astryan
astun
astupun
astuti
asu
asuka
asun
asung
at
ata
atag
atah
atak
atal
atambua
atan
atanke
atap
atapa
atas
atat
atatwa
atau
atawaŋ
ate
atenga
ater
atha
athe
ati
atiban
atih
atihati
atin
atine
atinne
atis
atita
atityaŋn
atka
atlantic
atlantik
atlas
atle
atlet
atma
atmaja
atmajiwa
atman
atmane
atn
atol
atom
atomic
aton
atonaŋ
atr
atri
atribut
atriya
atru
atrun
atrus
atrya
ats
atthi
atu
atuhu
atun
atur
atura
aturake
aturan
aturang
aturaŋ
aturaŋbhakti
aturaŋcanaŋ
aturaŋhawak
aturaŋhayah
aturaŋhurip
aturaŋpan
aturaŋse
aturaŋsura
aturaŋsurat
aturaŋtulis
aturin
aturne
aturu
atus
atuwi
atwa
atwah
atwara
atwayaŋ
au
auckland
audio
august
aukud
aum
aung
aur
austin
australia
australian
austria
austrone
author
authorformat
authority
authors
aux
awa
awag
awagawag
awah
awak
awake
awakin
awakne
awaknyane
awaks
awal
awan
awanan
awanaŋ
awang
awantah
awar
awara
award
awards
awarsa
awas
awasaŋ
awatara
awate
awati
awatya
awaŋ
awaŋhawaŋ
awaŋn
awe
aweci
aweh
aweje
awel
awen
awenaŋ
awenin
awente
awepan
awer
awes
awesakit
awesan
awese
awi
awig
awighna
awighnama
awighnamastu
awilan
awin
awinan
awinaŋ
awinin
awir
awiran
awis
awit
awitaŋ
awitin
awitn
awonin
awr
awruh
awruhi
awu
awuh
awuhaŋ
awukin
awula
awup
awur
awurin
awutin
awwa
awyakti
awyati
aya
ayah
ayahanda
ayahin
ayahnya
ayajn
ayam
ayama
ayaman
ayame
ayan
ayanamah
ayane
ayanya
ayap
ayat
ayaŋ
ayaŋhayaŋ
ayaŋn
aye
ayid
ayo
ayodhya
ayodya
ayu
ayub
ayuddha
ayudha
ayuh
ayun
ayunan
ayunaŋ
ayung
ayunin
az
azerbaijan
aztec
aŋ
aŋa
aŋbe
aŋdas
aŋge
aŋhawak
aŋhe
aŋke
aŋmalih
aŋman
aŋmanah
aŋme
aŋmun
aŋn
aŋna
aŋpan
aŋpisan
aŋprabhu
aŋr
aŋra
aŋraga
aŋs
aŋsa
aŋsami
aŋsan
aŋsar
aŋtityaŋ
b
ba
baan
baana
baane
baang
baanga
baas
baase
baat
bab
baba
babad
babadan
babadbali
babah
babahi
babai
babak
babakan
babakantityan
baban
babante
babar
babatuh
babe
babi
babotoh
baburon
baca
bacakan
bacem
bachchan
bacin
back
bad
badak
badan
bade
badeng
badhi
badi
badjoe
badminton
badra
badung
baduur
baduŋ
bae
baeksang
bag
bagaikan
bagaimana
bagan
bagawan
bage
bagi
bagia
bagian
bagin
baginda
bagu
bagus
bagusdya
bagusdyar
bagusge
bagusmadhejlan
bagusn
bagusumbara
bagya
bah
baha
bahagia
bahan
bahanhe
bahanke
bahanman
bahann
bahari
bahasa
bahaya
bahaŋ
bahe
bahi
bahin
bahu
bahudhan
bahwa
baik
bait
baja
bajang
bajaŋ
baje
bajera
baji
bajo
bajra
baju
bak
baka
bakal
bakalan
bakar
bakat
bakatanga
bakau
bakh
bakti
baku
bakung
bal
bala
baladewa
balaenoptera
balai
balak
balan
balang
balangan
balap
balayuda
bale
balebengong
balene
baler
bales
bali
balian
baliexpress
balih
balihan
balik
balikin
balikpapan
baline
balinese
balinggi
balingkang
balla
ballon
balu
baluan
balun
balung
balyan
bam
bambang
bamboo
bambu
ban
bana
banama
banaran
banarsidass
banaspati
banaspatira
banban
banbe
bancingah
band
banda
bandar
bandara
bande
bandes
bandin
bandingang
bando
bandung
bane
banen
bang
bangbang
bange
banget
banggai
banggras
bangka
bangkal
bangkalan
bangkalankab
bangkarna
bangke
bangken
bangket
bangkiang
bangkit
bangkok
bangkung
bangladesh
bangli
bangorejo
bangras
bangsa
bangsal
bangsawan
bangsing
bangun
bangunan
banhe
bani
banin
banjar
banjaran
banjarangkan
banjarbaru
banjare
banjarejo
banjarmasin
banjarnegara
banjarsari
bank
banke
banman
bann
banon
bans
banta
bantae
bantal
bantan
bantang
bantar
bantas
bante
banten
banteng
bantuan
bantul
banu
banua
banyak
banyaknya
banyu
banyuasin
banyubiru
banyumas
banyuning
banyuurip
banyuwangi
baong
baongne
baos
bapa
bapak
bapaman
bapan
bapane
bapann
bapanne
bapannyane
bapapatih
bapeda
bar
bara
barah
barak
baran
barang
barange
barangkali
barat
barcelona
bareng
baris
barisan
barito
barks
baron
barong
baros
barru
baru
barun
barus
bas
basa
basah
basan
basang
basange
basangne
basarang
basaŋ
base
based
basin
basis
basita
baskadurus
baskal
baske
basket
basketball
basn
bass
basuki
basukih
basur
bat
bata
batak
batam
batan
batang
batanghari
batara
batari
batas
batavia
bataŋ
bate
bati
batik
batin
batis
batisne
battle
batu
batuaji
batuan
batubulan
batuh
batukaru
batun
batune
batur
baturiti
bau
baubau
bawa
bawah
bawak
bawan
bawang
bawaŋ
bawaŋhadas
bawaŋn
bawaŋputih
bawaŋtambus
bawi
bawos
bawosaŋ
bawu
bawwa
bay
baya
bayah
bayan
bayang
bayansan
bayar
baye
bayern
bayi
bayt
bayu
bayun
bayune
bayung
bayur
bayus
baŋ
baŋkar
baŋn
bba
bbc
bbha
bbhan
bbhana
bbhi
bc
bcat
bcik
bcikman
bd
bdhas
bdhil
bdil
be
beach
bean
bear
beautiful
beauty
bebandem
bebanyolan
bebas
bebek
beberapa
beburon
becik
becikan
beda
bedak
bedik
bedil
beduda
bedugul
bedulu
been
before
begalung
begawan
begbeg
begini
begitu
begitulah
beh
behind
being
beji
bek
bekasi
bekel
bekerja
bekung
bela
belah
belajar
belakang
belanda
belang
belantara
belas
belawan
belayu
belgia
beli
beliau
belibis
belimbing
belin
beline
beling
belinne
belitung
beloelang
belog
belong
belu
belulang
belum
belus
ben
bena
benang
benar
benaru
bencana
bend
benda
bende
bendera
bendo
bendu
bendungan
bene
beneh
beneng
bener
beng
bengal
bengil
bengkayang
bengkel
bengkulu
bengong
bengu
beni
benin
benjamin
benjang
benoa
bentar
benteng
bentuk
benua
ber
beraban
berada
berag
berakhir
berang
berangkat
berani
berarti
beras
berasal
berat
beratan
berau
berbagai
berbahasa
berbakti
berbeda
berbicara
berbohong
berbuat
berbunyi
berburu
bercerita
berdasar
berdasarkan
berdiri
berdua
berek
berganti
berguna
berhasil
berhenti
berhias
berhitung
beri
berikut
beringin
beringkit
berisi
berisikan
berit
berita
beritasatu
berjalan
berkaitan
berkas
berkata
berkeley
berkibarlah
berlian
berlin
bernama
bernard
berperang
bersabda
bersama
bersamaan
bersatu
bersedia
bersenjata
bersiap
bersih
bersinar
bertambah
bertanya
bertemu
beru
beruang
berubah
berulang
berung
berupa
berusaha
berwarna
bes
besakih
besar
beseh
beserta
besi
besik
besok
best
besuk
bet
betara
betawi
bete
betek
betjik
betung
between
beyond
bha
bhagawa
bhagawan
bhagawanbyas
bhagin
bhakti
bhaktya
bhan
bhara
bharata
bharatayuda
bharatayudha
bhas
bhat
bhatara
bhatari
bhawa
bhawamu
bhaya
bhaŋ
bhi
bhiks
bhima
bhis
bhisma
bhoga
bhoma
bhra
bhran
bhras
bhu
bhuana
bhujan
bhukti
bhumi
bhupati
bhus
bhut
bhuta
bhutan
bhutha
bhuwana
bhwana
bhya
bi
biak
biang
biar
biaro
bias
biasa
biasane
biaung
bibcode
bibi
bibih
bibin
bibit
bibliografi
biboki
bicara
bidadari
bidang
bidaŋ
bieber
big
bih
bihan
biing
bijaksana
bijdragen
biji
bikas
bikin
bikul
bila
bilah
bilang
bilaŋdan
bilaŋdes
bilih
bill
billboard
bima
bin
bina
binan
binangun
binapemdes
binatang
bine
bingin
bingine
bingung
binjai
bintan
bintang
binuang
binun
bio
biodata
biodiversidad
biodiversity
biografi
biography
biologi
biological
biologis
biology
biosphere
bir
bird
birdlife
birds
biro
birth
biru
bis
bisa
bisaman
bisan
bisnis
bit
bitung
biu
biune
biyaŋ
biying
biyiŋ
biyiŋs
biz
bke
blabar
black
blackberry
blackwell
blah
blahbatuh
blambangan
blan
blanco
blang
blas
blatuk
ble
blega
bli
blibis
blica
bliman
blimbing
blimbingsari
blin
blitar
blog
blogspot
blok
blon
blora
blue
bman
bn
bne
bo
boalemo
board
bob
bobab
bobot
boca
bocok
bodoh
boeat
boedal
boein
boeina
boeka
boelane
boemi
boga
bogor
boh
bohong
boja
bojog
bojoge
bojonegoro
bojong
bojongsari
bok
bokor
bola
bolaang
bolango
bold
boleh
bolivia
bollywood
bolong
boloŋ
bom
boma
boman
bombana
bon
bond
bondowoso
bone
bonerate
bong
bongan
bongbing
bongkasa
bongkol
bonin
bonn
bonne
bontang
bonto
book
books
bor
boreh
borneo
borobudur
boros
borose
bos
boston
bot
botani
botanic
botanical
bote
botoh
botol
box
boy
boya
boyamalih
boyan
boyasan
boyawente
boyband
boyolali
boys
boŋ
bpiw
bppsdmk
bps
br
bra
brag
brah
brahma
brahman
brahmana
brahmawis
braja
brakah
bran
brana
brandon
brangkus
brangti
bras
brasbaŋ
brasil
brasme
brata
bratt
brattha
brawijaya
braya
brayane
brayut
brazil
bre
breaking
brebes
brian
bridge
bridges
brief
brill
brin
bringin
bris
britain
britania
britannica
british
briyuk
broadcasting
broke
bromo
brown
bruari
bruce
brumbun
brun
brunbun
brunbunkuniŋ
brunbuns
brunei
bruno
bryce
bs
bse
bsi
bsik
bt
bte
bts
bu
bua
buah
buahan
buana
buaran
buat
buaya
bubar
bubu
bubuh
bubuk
bubur
bubutan
bucu
buda
budakeling
budal
budaya
budayawan
budd
buddha
buddhi
budha
budhi
budi
budin
buduh
bug
bugarum
bugbug
bugis
buh
building
buin
buina
bujan
bujur
buk
buka
bukah
bukajani
bukal
bukaman
bukan
buke
bukhansan
bukian
bukit
bukittinggi
bukti
buku
bulak
bulakbalik
bulan
bulane
bule
buleleng
bulelengkab
buleleŋ
bulgaria
bulih
bulletin
bulo
bulu
buluh
bulukumba
bulun
bulune
bulung
bulungan
bulurejo
bulus
bulutangkis
bum
bumara
bumbu
bumbung
bumi
bumya
bun
bunda
bunder
bundesliga
bung
bunga
bungah
bungan
bungane
bungaya
bungin
bungkah
bungku
bungkul
bungkulan
bungkung
bungkunge
bungo
bungur
bungut
bungutne
bunte
bunter
buntu
buntut
bunuh
bunut
bunutin
bunyi
buol
bupati
bur
buratwan
buraŋ
bureau
burin
burma
buron
burone
buru
buruan
buruh
buruk
burundi
burung
bus
busan
busana
busanbusan
bush
busin
business
busung
busungbiu
busur
but
buta
butan
bute
butha
butin
butn
buton
butte
butuh
buung
buungan
buwah
buwikputih
buwin
buwinn
buyan
buyar
buyat
buyut
buŋ
bwa
bwah
bwan
bwana
bwat
bwf
bwi
bwik
bwiks
bwin
bwina
bwinn
bwinte
by
bya
byag
byah
byan
byana
byar
byas
byaŋ
byaŋn
byeonsan
byor
byu
byug
byung
byur
c
ca
cab
cabang
cabrahma
cac
cacad
cacan
cace
caci
cacin
cad
cadas
cades
cadik
cag
cagar
cage
cah
cahaya
cahi
cahiman
cahin
cahine
cahipatih
cai
caine
cak
caka
cakan
cakar
cakcak
cake
cakep
cakepan
cakr
cakra
cakranegara
caks
caksaji
cakumara
cal
cala
calabria
calendar
california
calin
called
calon
calonarang
caluh
cam
cama
camaha
caman
camat
camatan
cambridge
came
cameo
cameroon
camp
campaign
campaka
campbell
campuh
campuhan
campur
campuran
can
cana
canada
canadian
canan
canang
canaŋ
canberra
candana
candi
candisari
candra
candrakirana
candrawati
cane
canen
cang
cangak
cange
canggu
cangkem
cangkring
cani
canin
canipun
canis
caniti
cann
cantik
canyon
cap
capa
capada
capan
capaŋ
cape
capi
capin
capital
capkala
caps
caption
capun
capung
car
cara
carakar
caran
carane
carang
caranya
caraŋ
carbon
carcan
care
cari
carik
carike
caringin
carita
caritayaŋ
carl
carlos
carolina
caroline
cartoon
caru
cas
casa
casami
case
cast
castile
cat
catalogue
catatan
catetan
catra
catu
catur
cau
cave
cawa
cawar
cawara
cawis
cawuh
caya
cayajn
caŋ
caŋman
caŋn
cbs
cc
cca
ccan
ccaya
ccha
cchan
ce
cecimpedan
cecire
ceciren
ceh
cekcek
cekel
cekepel
ceker
cekuh
cekungan
celagi
celah
celebrity
celempung
celen
celeng
celeŋ
celeŋs
celuk
celukan
cemara
cemeng
cempaga
cempaka
cen
cendana
cendrawasih
cendriya
cenik
cening
ceninge
census
center
central
centre
century
cepaka
cepat
ceremony
cerik
cerita
ceritakan
ceritanya
cerme
cerpe
cerpen
ces
cet
cetakan
cetik
cetrung
cf
ch
cha
champions
championship
chan
chandra
chang
change
channel
chapter
character
charles
chart
check
checklist
chelsea
chem
chemical
chemistry
chen
chi
chiaksan
chicago
child
children
chili
china
chinese
cho
choi
choice
chopra
chosun
chris
christian
christie
christmas
christopher
chrisye
chrysanthemum
chu
chung
ci
cia
ciamis
cianjur
cibadak
cibeber
cibeureum
cibodas
cicin
cicing
cicinge
cicingne
ciciŋ
cid
cidra
cih
ciherang
cihna
cik
cikan
cikarang
cikaŋ
cikbe
cikman
cikn
cikpisan
ciks
cil
cilacap
cilandak
cilegon
cili
cilinaya
cima
cimahi
cimanggu
cin
cina
cincin
cinderella
cine
cinema
cingak
cingakan
cingakin
cino
cinta
cip
cipak
ciparay
cipayung
cipinang
cipta
cir
cirebon
ciri
cirin
cisarua
cit
cita
cite
cities
citprapta
citr
citra
citrawati
citrawuh
citta
city
civilization
ciwa
ciŋ
ckuh
clark
class
classical
classification
cle
cleopatra
climate
clio
club
cluring
cm
cme
cn
cnik
cnin
cniŋ
cniŋbagus
cniŋn
cnn
co
coast
coauthors
coba
cocok
cocos
code
cograh
cok
coklat
cokor
cokoratukn
cokoratun
cokorda
cokorde
col
cold
cole
collection
college
collins
colonial
color
colorado
columbia
com
come
comedy
commission
committee
common
commons
communaute
communes
community
compang
companion
company
comparative
complete
completed
complex
compounds
comprehensive
computer
con
concise
condong
conference
confirmed
congeh
congress
connecticut
conquest
conservation
consortium
constitution
construction
contains
contemporary
conto
contoh
control
cook
cooper
cooperation
copa
copper
copy
cor
corah
coran
cornell
corporation
corvus
cosmopolitan
council
countries
country
county
couple
court
cover
covid
coŋ
cr
crat
crc
credits
creek
crik
crikke
crita
critaang
critanan
critayang
critayaŋ
crow
cruz
cs
ct
cu
cubling
cucu
cucuk
cucun
cucune
cucunne
cud
cudkuniŋ
cuh
cuk
cuka
cukn
cukun
cukup
cul
cultural
culture
cum
cumawis
cumpu
cun
cunguh
cup
cupak
cupek
cur
curah
curan
curcuma
curie
curiga
curik
curlie
current
curug
cut
cute
cutet
cutetan
cuti
cuŋ
cv
cyber
cybister
cynthia
d
da
daa
daar
daat
dabagus
dabagusge
daban
dabdab
dabdabaŋ
dabe
dace
dada
dadah
dadanya
dadap
dadar
dadari
dadas
dade
dadi
dadiban
dadibe
dadige
dadihan
dadihe
dadihin
dadijadma
dadijanma
dadikagyat
dadikan
dadike
dadikn
dadil
dadima
dadiman
dadime
dadin
dadine
dadipan
dadipe
dadis
dadisan
dadise
daditan
dadite
daditun
dadiya
dadiyan
dado
dadohaehaesang
dadong
dadongne
dados
dadoshan
dadosne
dadospan
dadu
dadua
dadwa
dadya
dadyan
dadyann
dae
daerah
daftar
dag
dagan
dagang
dagangan
dagange
dagd
dage
dagin
daging
dagingin
dagingnyane
dagiŋ
dagiŋhipun
dagiŋn
dagiŋpan
dagiŋtityan
dah
daha
dahah
dahampah
dahan
dahar
dahat
dahating
dahatn
dahatse
dahe
dahuh
dahulu
dahun
dahuniŋ
dahuntityan
daily
daiwi
daja
dajah
dajan
dak
daka
dake
daki
daklayah
dakota
daks
daksina
daku
dal
dala
dalam
dalan
dalang
dale
dalem
dalge
dalih
dalin
dalu
daluman
dalung
dam
dama
damage
damai
damalih
daman
damar
dame
damuh
dan
dana
danan
danau
danawa
dance
danda
dane
danedhukuh
danedukuh
daneman
danen
danente
danepatih
daneran
dang
dangan
dangang
dangdang
dangin
dani
daniel
danin
danman
dann
danta
danu
danune
dap
dapan
dapat
dapdap
dape
dapetang
dapetanga
dapolih
dapuput
dapur
dar
dara
darah
darahku
darat
daratan
darawuh
dari
daring
darma
darmada
darmaputra
darurat
darussalam
das
dasa
dasan
dasar
dasawarsa
dasaŋ
dasaŋprabhu
dase
dasiddha
dasin
dasle
dastar
dat
data
database
datah
datai
datan
datang
datankawar
datar
dataran
date
dati
datu
dauh
daun
david
dawa
dawan
dawe
daweg
dawente
dawkins
dawuh
dawuhan
day
daya
dayak
dayan
dayane
dayang
days
dayu
dayuh
dayuru
daŋ
daŋdaŋ
daŋn
dbe
dbhuta
dc
dd
ddha
ddhah
ddhaman
ddhan
ddhanares
ddhawa
ddhaya
ddhi
ddhika
ddhin
ddhinin
ddi
ddinin
dditu
de
dead
deadurl
dean
death
debandes
debe
debes
debhat
debut
dec
december
dedaaran
dedari
dedarine
dedhukuh
dedukuh
definitif
definition
deg
deh
dehin
dek
dekan
dekar
dekat
dekdek
deke
dekin
dekker
dekman
dekn
del
delapan
delhi
deli
delod
delpher
delta
demak
deman
demang
deme
demen
demi
demikian
demokrasi
demokrat
dempo
dempuawang
demung
den
dena
denaje
denban
denbe
dendewi
dene
denen
dengaluh
dengan
dengarkan
dengkil
dengkot
deni
denin
dening
denira
deniras
deniŋ
deniŋhe
deniŋhida
deniŋke
deniŋl
deniŋman
deniŋn
deniŋpan
deniŋra
deniŋs
deniŋsa
deniŋsan
denmantri
denmark
denn
denominasi
denpasar
denpasarkota
dens
densa
dente
denwi
denya
deogyusan
depan
depang
departeme
departemen
department
depok
der
dera
derajat
deras
derasi
dereng
deriki
dershowitz
des
desa
desan
dese
desembe
desember
desert
design
desti
detail
details
detia
detik
detiknews
detya
devdas
development
dewa
dewabhat
dewagun
dewagusti
dewaguŋ
dewama
dewaman
dewan
dewane
dewar
dewaratu
dewas
dewasa
dewasan
dewata
dewatan
dewatane
dewatanya
dewe
dewek
deweke
dewekn
dewekne
dewi
dewihan
dewiratih
dewis
dewwa
dewya
dha
dhadha
dhah
dhahaguŋ
dhahan
dhahistri
dhak
dhaka
dhakan
dhaks
dhal
dhala
dhama
dhaman
dhamantri
dhamsari
dhan
dhana
dhanan
dhap
dhapin
dhar
dhara
dharahas
dharan
dhari
dharma
dharmasraya
dharmma
dhas
dhasami
dhasar
dhatan
dhate
dhawa
dhawuh
dhaya
dhaŋ
dhaŋdhaŋ
dhaŋhyaŋdron
dhaŋn
dhe
dhen
dhes
dhetya
dhi
dhih
dhik
dhika
dhikusuma
dhil
dhin
dhini
dhinin
dhipa
dhir
dhis
dhit
dhita
dhital
dhitan
dhitt
dhittha
dhiŋ
dhr
dhra
dhriya
dhu
dhuh
dhuk
dhun
dhur
dhura
dhus
dhuŋ
dhya
dhyah
di
dia
diah
diakses
dialog
diam
diambil
dian
diana
diangkat
dianut
diapin
diarsa
diastun
diban
dibe
diberhentikan
diberi
diberikan
dibi
dibintangi
dibon
dicari
diceritakan
dictionaries
dictionary
did
didefinisikan
dides
didi
didier
didja
diduhur
die
dieng
dig
diganti
dige
digelis
digital
digunakan
dih
diha
dihan
dihar
dihati
dihawak
dihaŋ
dihe
dihin
diikuti
dija
dijadikan
dijaha
dijahalih
dijalan
dijan
dijaruruh
dijaton
dijawa
dije
dijumah
dijumpai
dik
dika
dikatakan
dikayun
dike
dikenal
diketahui
dikira
diks
dikumpulkan
dikunjungi
dil
dilaksanakan
dilakukan
dilan
dilantik
dilihat
dilin
dilip
dilwale
dima
dimakan
diman
dimanah
dimantri
dimar
dime
dimenangkan
dimpil
dimulai
dimun
din
dina
dinan
dinane
dinas
dinasti
dinatah
dinda
dinding
dine
dingeh
dingeha
dingin
dini
dinin
dinn
dinonaktifkan
dipa
dipabinan
dipakai
dipamr
dipan
dipasih
dipati
dipatiŋlaga
dipe
dipersembahkan
diplomasi
dipta
dipun
dipuri
dir
dira
direction
director
directorate
direktorat
direktur
diri
dirinya
dis
disa
disan
discusses
dise
disebut
disertai
disi
disini
disisi
disisin
disney
displaystyle
distribution
district
distrik
disubane
disubanne
disuruh
diswar
dita
ditahan
ditaman
ditan
ditanah
dite
ditemukan
ditengah
diterbitkan
diterima
ditetapkan
ditn
ditoe
ditoeroen
ditu
ditulahut
ditulawut
ditulis
dituman
ditun
ditunjuk
dituton
ditya
diumpamakan
diversity
divisi
division
diwan
diwang
diwangan
diwas
dixit
diy
diŋ
dj
dja
djagi
djani
djati
djawa
djelantik
djele
djinah
djoemah
djoeroe
djpk
djrone
djumah
dkah
dke
dki
dkk
dle
dlod
dma
dman
dme
dmuŋ
dn
dna
dnia
do
docker
doctor
documentary
documentation
dodol
doeaning
doek
does
dog
doge
dogen
doglagan
dogs
doh
doha
dohan
dohnyane
doi
dok
dokar
dokbud
dokter
doktor
dokume
dokumentasi
domain
domas
dominan
domini
dompu
don
donald
donan
dong
donga
dongding
dongeng
donggala
donglen
donia
doning
donne
donnyane
doo
door
dora
dortmund
dos
dosa
dosan
dosen
dot
dotaŋ
double
douglas
down
download
doŋ
doŋn
dpa
dpd
dpr
dprd
dr
dra
draco
dragon
drama
dramabeans
dramatari
drawa
dream
dresta
drew
dri
drika
driki
driya
dron
drona
drowaka
drs
drue
druen
drum
drumma
druwe
druwen
ds
dse
dte
du
dua
duang
duaning
duck
duda
dudonan
dudu
duduk
duduka
due
dueg
dug
duga
dugas
dugase
duh
duhai
duhka
duhkita
duhuh
duhur
duk
duka
dukan
dukcapil
duke
dukiŋn
dukn
duks
dukuh
dukun
dukungan
dukut
dul
dulang
dulu
dulur
dulurin
dum
duma
dumadak
dumade
dumadi
dumai
duman
dumate
dumbo
dumeh
dumilah
dumlada
dumoga
dumun
dumunan
dun
dunaŋ
dunia
dunin
dunman
dunn
dunun
duo
dup
dupa
dur
dura
duranegara
duren
durga
duri
durian
durin
during
durma
durmini
dursila
durung
durus
durusang
durusaŋ
durusman
duruŋ
duruŋn
duruŋwente
dus
dusin
dusta
dustaka
dusun
dut
duta
dutch
duur
duuran
duwe
duweg
duwuh
duwur
duwurnyane
duŋ
dwa
dwaguŋ
dwaguŋn
dwaniŋ
dwaniŋhida
dwara
dwarawati
dwe
dwes
dwi
dwija
dwijendra
dwipa
dya
dyah
dyan
dyapin
dyastu
dyastun
dz
dzenie
də
e
early
earnshaw
earth
earthquake
east
eastern
eban
ebat
ebe
ecology
economic
economics
economy
ed
eda
edal
edan
edanin
eddy
ede
edelstein
eden
edewa
edi
edinburgh
edisi
edition
editions
editor
editors
eds
edu
education
educational
edward
ee
effendi
egar
ege
eger
egypt
eh
eha
ehan
ehe
ehi
eifel
ejaan
ejani
ek
eka
ekadas
ekalintaŋ
ekan
ekas
eke
eki
eko
ekocap
ekonom
ekonomi
ekor
eks
eku
el
ela
elah
elan
elang
elaparaŋ
elas
electronic
element
elements
elin
eling
elizabeth
eliŋ
eliŋn
elsevier
eluh
elung
elwir
em
ema
emake
emalih
eman
emas
emase
embang
embas
embasnyane
embok
emboke
embokne
eme
empas
empat
empire
empty
empu
empul
en
ena
enak
enakin
enam
enan
ence
encen
encyclopaedia
encyclopedia
encyclopædia
end
endag
endah
ende
endek
enden
endep
endriya
endut
ene
enen
energy
enewsworld
enggal
enggalang
engineering
engkau
engken
engket
england
english
engsap
engsek
enhe
enim
ening
enman
enn
enoe
ense
ensiklopedia
ental
ente
enten
entertain
entertainment
entik
entikan
entitas
ento
entri
entry
enu
environment
environmental
enyak
epane
epe
episode
episodes
epot
epunika
epuniki
er
era
eran
erang
eratu
erawuh
eraŋ
eric
eropa
eruption
eruptions
es
esa
esai
esami
esamyan
esan
esayaŋ
ese
espn
essays
esti
estimate
estimates
et
eta
etan
etansinipi
etansipi
etaŋ
ete
ethiopia
ethnic
ethnicity
ethnologue
etra
eu
eun
euro
europa
europe
european
eurostat
evans
event
events
ever
everglades
evidence
evolution
ewa
ewaka
ewan
ewana
ewe
ex
exo
experience
explorations
express
external
extra
eyah
eŋ
eŋhati
eŋn
eŋs
f
fa
fabaceae
face
facebook
fact
factbook
facto
facts
factsheet
faculty
fair
fajar
fakta
fakultas
fall
familia
family
fantasi
farmasi
fasilitas
father
fauna
fc
fe
feature
februari
february
federal
federasi
federation
felidae
festival
fiba
field
fifa
fight
fighting
figures
fiji
file
filipina
film
filmfare
films
filosofi
filsafat
filsuf
final
finals
financial
fine
finlandia
fire
first
fish
fisik
fisika
fisikawan
fitri
five
fl
flag
fletcher
flora
flore
flores
florida
flower
flowers
fokus
fonologi
food
football
for
forbes
foreign
forest
forestry
forests
form
formal
formasi
format
forum
fosil
foto
foundation
four
fox
fr
franc
france
francis
francisco
frank
fre
frederick
free
french
friends
frog
from
ft
fu
fuger
fuji
full
fund
fungsi
future
g
ga
gabus
gada
gadang
gadaŋ
gaddha
gadha
gadhar
gadhaŋ
gadhin
gadhiŋ
gading
gadingrejo
gadis
gadiŋ
gadjah
gaduh
gadung
gae
gag
gaga
gagah
gagak
gagal
gagame
gagan
gagana
gage
gagin
gaglaŋ
gaglisan
gaguritan
gah
gaha
gahaji
gahan
gahaŋ
gahe
gahin
gajah
gaji
gak
gakan
gake
gakin
gakn
gal
gala
galah
galahan
galahe
galak
galake
galakn
galan
galang
galann
galaŋ
galaŋkan
galaŋn
galcarik
galdes
gale
galen
galeng
galeri
galhen
gali
galih
galihin
galin
galiran
galis
gallery
galma
galmalela
galman
galmas
galn
galna
galpan
galpiŋ
galpiŋlima
gals
galte
galuh
galun
galungan
gam
gama
gamalih
gaman
gamatir
gambang
gambar
gambaran
gambe
gambir
gambiran
gambuh
gambut
gambyong
game
gamelan
games
gamma
gamon
gampong
gamu
gan
gana
ganbe
gancaran
gand
ganda
gandang
gandar
gandhi
gane
ganeki
ganeman
ganen
ganesha
gang
gangga
gangsa
ganhati
ganhida
gani
ganin
ganipun
ganis
ganiŋ
ganmanah
gann
ganti
gantikan
gantin
ganting
gantun
gantung
ganya
gap
gapan
gapas
gapati
gape
gapin
gapran
gapura
gapuri
gar
gara
garaman
garan
garane
garata
garaŋ
garden
gardens
gari
garin
garis
garu
garuda
garum
garut
gary
gas
gasa
gasami
gasan
gasari
gase
gat
gata
gatan
gate
gates
gati
gatin
gatme
gatot
gatpe
gatr
gatra
gautama
gawa
gawan
gawane
gawanesami
gawang
gawasami
gawe
gawehayu
gawen
gawenaŋ
gawene
gawenin
gawok
gawwa
gaya
gayam
gayasan
gayaŋ
gayo
gaŋ
gaŋkuda
gaŋn
gaŋpisan
gbe
gd
gde
gdhe
gdhen
gdong
gdoŋkir
ge
gebang
gebug
gedang
gedangan
gede
gedong
gedung
geg
gegae
gegambaran
gege
gegelang
geger
geginan
geginane
gegn
geguritan
geh
geiger
gelagah
gelah
gelahe
gelan
gelandang
gelang
gelap
gelar
gelem
gelgel
gelis
gelisah
gelisan
gelisang
gelisin
gelising
gelogor
gelombang
gelora
gelung
gelur
geman
gembira
gemeinden
gemetar
gempa
gempol
gen
gena
genah
genahe
genahnyane
genbe
genboreh
gendang
gendasar
gende
gender
genderong
gending
gendingne
gendingnyane
gene
genep
genera
general
generation
genesar
genetic
geni
genin
genloloh
genman
genme
genn
genne
genpan
genre
gens
gense
gentamba
gente
gentityaŋ
gentong
gentuh
gentutuh
genus
geo
geoffrey
geografis
geographic
geographical
geography
geokichla
geological
geology
geophysical
george
georgia
gepan
ger
gerak
gerakan
gerbang
gere
gereja
gerhana
geria
gering
geris
german
germany
germplasm
gerokgak
geruda
gesar
geseng
gesing
get
getap
getas
getih
geun
gewar
gga
ggabe
ggadeniŋ
ggahaguŋ
ggal
ggalan
ggaloka
ggama
ggaman
ggan
ggana
ggane
gganen
ggann
ggapase
ggasan
ggasari
gge
ggha
gghayus
ggi
ggih
ggiman
ggimar
ggin
ggine
gginegagan
ggineman
gginen
gginin
ggisar
ggyaŋ
gha
ghan
ghana
ghat
ghawa
ghga
ghgayus
ghgi
ghni
ghra
ghu
ghya
gi
gia
giant
gianyar
gidat
gig
gigantochloa
gigi
gigin
gigir
gigis
gigunuŋ
gih
giha
gihan
gihaŋ
gihe
gihi
gihin
gihinkuda
gik
gil
gila
gilan
gili
gilimanuk
giling
gilis
gin
gina
ginada
ginadha
ginanti
ginar
ginarsa
gine
gingsirang
gini
ginin
ginte
ginting
gipih
gir
girang
giraŋ
giri
girimukti
giriputri
girl
girls
gis
gisi
gisu
git
gita
gitan
gitar
gitaris
gitgit
gitik
giŋ
gje
gke
glacier
glagah
glah
glan
glap
glar
gle
glenn
gli
glis
glishida
glisman
glisme
glismun
glisn
glisrawuh
global
globe
glur
glyph
gma
gman
gmatur
gme
gn
gna
gnah
gne
gni
gnin
gnu
gnya
go
goa
goak
goal
goals
goba
goban
gobane
gobann
gobanne
gobiah
gobraja
god
goda
gode
godogan
godoh
gogh
goh
gohan
gol
gold
golden
golkar
golo
golongan
gon
gonbe
gondang
gone
gonesar
gong
gonin
gonman
gonn
gonpan
gonsan
goo
good
google
gook
gopan
gor
gora
gordon
goreng
gorian
gorontalo
goryeo
gosa
gosar
got
gov
government
governor
gowa
gowak
gowaŋ
goyah
goŋ
goŋke
goŋtambur
gpan
gpatih
gpe
gpupu
gr
gra
grace
grah
graha
graham
grahan
gram
gramedia
gran
grand
grant
grantang
grapada
gras
gratu
gre
great
greatest
greek
green
greenwood
gregorian
gregorius
grehasta
gren
gresik
greta
gri
gria
grin
gring
gringsing
gris
griya
griŋ
griŋn
griŋnya
gro
grobogan
grogol
group
growth
grubug
grup
gruyter
grya
gs
gse
gsu
gt
gtah
gtan
gtar
gtas
gte
gtih
gu
gua
guardian
gubernur
gubug
gudang
gudig
gug
gugu
gugur
guh
guha
guhake
guhan
guhaŋ
guhe
guhin
guhu
guide
guides
guignot
guinea
guk
gul
gula
gulan
guli
gulin
guling
guliŋ
gulun
gumana
gumantat
gumanti
gumantin
gumbr
gume
gumi
gumin
gumine
gumintit
gumr
gumuruh
gumuyu
gun
guna
gunakaya
gunaksa
gunawan
gunawati
gune
gung
gunhurip
guntur
gunun
gunung
gununge
gunungkidul
gunungpati
gunungsari
gunungsitoli
gunuŋ
gup
gupa
gupan
gupaŋ
gupe
gupin
gupman
gupta
gupuh
gur
guran
gurit
guritan
guru
guruh
gurun
gurune
gurus
gus
guse
gusti
gustibagusman
gustide
gustigdhen
gustin
gustinn
gustipatih
gut
gutan
gutin
guyana
guyu
guŋ
guŋman
guŋn
gwa
gwan
gwanan
gwanin
gwanira
gwanya
gwiŋ
gwiŋpan
gwiŋs
gwiŋsura
gya
gyan
gyaŋ
gye
gyeongju
gyeryongsan
gyur
h
ha
haba
habah
haban
habar
habaŋ
habdulah
habe
habir
habis
habit
habitat
habr
habriyukan
habsik
habulan
habun
habyan
hace
had
hada
hadahanak
hadahe
hadama
hadaman
hadame
hadan
hadanan
hadane
hadanman
hadann
hadapan
hadar
hadas
hadat
hadate
hade
haden
hadhu
hadhuh
hadi
hadiah
hadibagus
hadiman
hadin
hadiri
hadn
hadoh
hadr
hadri
haduh
hadulur
hadun
haduŋ
hadyan
hae
haer
haga
hagama
hage
hagen
hagigis
haglis
haglisman
hagni
hago
hagu
hague
hagun
haguŋ
haguŋhalit
haguŋman
haguŋn
hah
haha
hahan
hahe
hahi
hahukud
hahulun
hai
haiti
haja
hajah
hajahan
hajajar
hajak
hajaka
hajakdadwa
hajakmakjaŋ
hajakn
hajan
hajap
hajar
haje
haji
hajin
hajindha
hajn
hajo
hajrih
hajum
hajumanputih
hajur
hajurit
hak
haka
hakah
hakampuh
hakar
hakas
hakatah
hakatih
hake
hakeh
haketo
hakidik
hakikit
hakim
hakna
hakone
hakr
haks
haku
hakuhan
hakuman
hakus
hakutus
hakweh
hal
hala
haladahat
halah
halahayu
halaman
halan
halas
halase
halaswayah
hale
hali
halih
halim
halin
halis
halit
hall
hallasan
hallyeohaesang
halmahera
halo
halon
halonhan
halonn
halu
haluh
halun
halus
halusn
ham
hama
hamah
haman
hamanis
hamar
hamba
hambah
hamban
hambar
hambara
hambe
hambil
hamburg
hame
hami
hamilton
hamin
haminta
hamir
hamit
hamla
hamlapura
hamn
hamon
hamor
hampah
hampe
hampir
hampura
hampurayaŋ
hamr
hamrih
hams
hamsyah
hamu
hamuja
hamun
hamur
hamusuh
hamute
hamuwus
hamyar
han
hana
hanacaraka
hanadhah
hanahan
hanak
hanaka
hanakaguŋ
hanakaguŋhayun
hanakaguŋn
hanakbagus
hanakbe
hanakce
hanakda
hanakdha
hanake
hanakece
hanakehaguŋman
hanakehaguŋn
hanakeman
hanaken
hanakin
hanaklin
hanakluh
hanakn
hanaks
hanama
hanamalih
hanaman
hanan
hanapan
hanar
hanas
hanata
hanawurin
hancinema
hancur
hand
handa
handbook
hande
handika
handil
handulu
hane
hanema
haneman
hanen
hanena
haneŋ
haneŋn
hang
hangeul
hangul
hanin
hanja
hankyung
hanman
hann
hanna
hanom
hanr
hans
hanta
hante
hantu
hantuk
hantukbe
hantukman
hantukn
hantukpan
hantuks
hantuktambe
hantukte
hantuktityaŋ
hantuktityaŋn
hantukwente
hanu
hanulih
hanuma
hanun
hanut
hanwam
hanwar
hanya
hanzi
hap
hapa
hapage
hapah
hapahan
hapak
hapakran
hapan
hapanhe
hapanin
hapann
hapans
hapansa
hapar
hapasaŋ
hapatih
hapaŋ
hapaŋbar
hapaŋce
hapaŋda
hapaŋdan
hapaŋhada
hapaŋhda
hapaŋhe
hapaŋhen
hapaŋl
hapaŋman
hapaŋmasih
hapaŋme
hapaŋmlah
hapaŋn
hapaŋpasti
hapaŋsida
hapaŋsiddha
hapaŋtahu
hapaŋtatas
hapaŋtawaŋ
hapaŋte
hapaŋtwara
hapaŋyatna
hape
hapi
hapikin
hapin
hapisan
happy
hapraŋ
hapuh
hapus
har
hara
harab
harah
haraja
harak
haran
harane
haranin
haranira
haranya
harap
harapan
harapwan
harar
haras
harbor
hare
hari
harian
harih
harikalih
harimau
harimu
harin
harina
harinda
harindha
harinin
harip
haris
harisn
harold
harpercollins
harris
harry
harta
haru
haruh
harum
harun
harupat
harus
harv
harvard
has
hasa
hasah
hasaks
hasan
hasanuddin
hasapunika
hasat
hase
hasih
hasiki
hasil
hasin
hasirah
hasiŋ
hasiŋman
hasiŋn
hasiŋsolah
hasiŋte
haska
haskara
hasmara
haspati
hasr
hasru
hasruh
hasta
hasti
hastiti
hastra
hasu
hasun
hasuŋ
hasya
hat
hata
hatake
hatan
hatap
hatata
hate
hati
hatin
hatine
hatinya
hatma
hatmajiwa
hatmane
hatta
hatu
hatun
hatur
haturan
haturaŋ
hature
haturin
haturu
hatut
have
hawa
hawag
hawahi
hawai
hawaii
hawak
hawakbe
hawake
hawaken
hawakn
hawaknya
hawaks
hawan
hawanan
hawanann
hawar
hawarah
hawas
hawe
haweh
hawinan
hawinann
hawor
hawu
hawukud
haya
hayam
hayamputih
hayat
hayati
haynes
hayu
hayuhan
hayuhanom
hayul
hayun
hayune
haywa
haywan
haywawera
haŋ
haŋhan
haŋman
haŋmun
haŋn
haŋs
hbe
hd
hda
hdahampah
hdaman
hdan
hde
hdha
hdhe
hdi
he
health
heart
hebat
hebe
hedal
hedan
hee
hegar
hegarmanah
heh
heka
hektar
hel
helah
helan
helen
helin
heliŋ
heliŋn
help
hem
heman
heme
hen
hena
henak
hendah
henry
henti
heo
her
herald
heran
heraŋ
here
heritage
herman
heryawan
hes
het
hewan
hewe
hewuh
heyne
hi
hiang
hias
hiasan
hiba
hibagusdyar
hiban
hibandar
hibandes
hibandesa
hibapa
hibapan
hibe
hibha
hibhu
hibindar
hibisan
hibokah
hibotoh
hibu
hibuk
hibun
hiburan
hica
hical
hican
hice
hiceker
hicupak
hicurik
hid
hida
hidabagus
hidabhat
hidacokor
hidadal
hidade
hidahanak
hidahyaŋs
hidal
hidama
hidamalin
hidamamar
hidaman
hidame
hidan
hidane
hidaneman
hidapran
hidar
hidara
hidaradengaluh
hidas
hidasa
hidasan
hidasaŋ
hidasaŋhyaŋs
hidasaŋkr
hidasaŋna
hidasaŋpan
hidasaŋprabhu
hidasaŋra
hidawantah
hidayat
hidd
hiddha
hide
hidewa
hidewaguŋ
hidewaguŋn
hidewaguŋputr
hidewaman
hidewan
hidewwa
hidhar
hidhe
hidhukuh
hidr
hidroge
hidu
hidukuh
hidup
hidur
hidwaguŋ
hidwaguŋbyaŋ
hidwaguŋhaji
hidwaguŋhajin
hidwaguŋn
hidwaguŋputr
hidwaguŋputran
higagakturas
higajah
higaluh
higan
hige
high
higher
higiyur
higrantaŋ
higusti
higustin
higustipatih
hih
hihan
hija
hijapa
hijau
hije
hijen
hijiwa
hijo
hijriah
hijriyah
hiju
hik
hika
hikan
hikar
hikaŋ
hikaŋn
hikaŋs
hike
hikeker
hiki
hikipan
hikr
hiktut
hiktutse
hiku
hikuda
hikuh
hikun
hil
hila
hilacu
hilan
hilang
hilara
hilattha
hilaŋ
hilid
hilih
hilimbur
hilin
hilir
hill
hilubdhaka
hilutuŋn
him
hima
himacan
himalaya
himaliŋmagun
himaliŋs
himan
himanah
himanus
himar
himbuh
hime
himeme
himirah
himudit
himudittha
himute
hin
hina
hinab
hinan
hinanak
hinankun
hinann
hindi
hindia
hindik
hindrabumaya
hindrabumayaman
hindrabumayan
hindriya
hindu
hinduism
hine
hingga
hinin
hinirin
hinn
hinte
hinu
hinucap
hinum
hinun
hip
hipa
hipaks
hipan
hipar
hipase
hipatih
hipe
hipu
hipun
hipunman
hipunn
hipunta
hipunte
hir
hira
hiraga
hiraks
hiraman
hiran
hirarehan
hiras
hiratu
hiratuman
hiratun
hireki
hireku
hiri
hirika
hirikan
hiriki
hirin
hiris
hiriŋ
hiruŋ
hiruŋnya
his
hisa
hisan
hisar
hise
hisen
hisi
hisin
hisinn
hisinroŋ
hisintin
hismar
historia
historic
historical
history
histri
histrin
hisu
hisubandar
hit
hita
hitam
hitan
hite
hiti
hitiwas
hitler
hitr
hitrup
hitun
hituwan
hituŋ
hiwa
hiwak
hiwan
hiwayanbuyar
hiwaŋ
hiwira
hiya
hiyambar
hiyan
hiyeh
hiŋ
hiŋban
hiŋbe
hiŋda
hiŋgih
hiŋhe
hiŋje
hiŋka
hiŋks
hiŋma
hiŋman
hiŋmanah
hiŋmar
hiŋn
hiŋna
hiŋpan
hiŋra
hiŋs
hiŋsa
hiŋsan
hiŋse
hiŋtanwente
hiŋte
hiŋtin
hiŋtwara
hiŋwar
hiŋwente
hle
hlm
hluh
hma
hman
hmas
hmawis
hn
hnah
hnan
hne
hnin
hniŋ
hnu
hnyane
ho
hobah
hodah
hoh
hoka
hoku
holah
holas
holasasih
holesakna
holih
holland
hollywood
hombak
home
hometown
hon
hone
hong
honor
honshu
hoon
hope
hopkins
hor
horan
hornet
hosah
hose
hospital
hot
hota
hotel
houghton
hound
house
housing
how
howard
hoya
hp
hr
hram
hrang
hrih
hru
htis
htm
html
http
https
hu
hubad
hube
hubuh
hubungan
hucap
hucapaŋ
hucape
hudan
hude
hudhu
hudhuh
huduh
huga
huge
hugi
huh
hujan
hujanhan
hujar
hujare
hukir
huku
hukud
hukuh
hukum
hukut
hul
hula
hulah
hulam
hulan
hulat
huli
hulidija
hulidini
huliditu
hulig
hulih
hulin
hulu
hulun
huluna
hulurin
huluŋ
huluŋdas
hum
huma
humah
human
humans
humar
humas
humatu
humatur
humatura
humdhe
hume
humijil
humun
humur
humuŋ
hun
hundan
hunduk
hungaria
hunin
huniŋ
huniŋn
hunt
huntat
hunte
hunter
hupa
hupah
hupaka
hupakara
hupama
hupamin
hupas
hupe
hur
huran
hurapakna
huri
hurip
huripe
huripn
huruf
hurun
hurut
hus
husan
husanman
husann
husap
husein
hut
hutama
hutan
hutara
hutawi
hutaŋ
hute
huttama
hutusan
huwuh
huwus
huyah
huyaŋ
huye
huyut
huŋ
hwa
hwang
hya
hyaman
hyan
hyang
hyaŋ
hyaŋbhat
hyaŋbra
hyaŋbrahma
hyaŋdhar
hyaŋdron
hyaŋdu
hyaŋguru
hyaŋhaji
hyaŋhatma
hyaŋhindra
hyaŋhurip
hyaŋka
hyaŋkala
hyaŋmaha
hyaŋmami
hyaŋman
hyaŋmr
hyaŋn
hyaŋna
hyaŋpan
hyaŋpas
hyaŋpr
hyaŋratih
hyaŋrawi
hyaŋs
hyaŋsan
hyaŋsmara
hyaŋsu
hyaŋsuks
hyaŋsur
hyaŋtaya
hyaŋtitah
hyaŋtuduh
hyaŋtun
hyaŋwiddhi
hyaŋwidhi
hyaŋwidhiwas
hyaŋwis
hyaŋwulan
hyaŋyama
hye
hyo
hyuk
hyun
hyung
i
ia
ian
iantas
ib
iba
ibali
iban
ibane
ibanne
ibe
ibhojana
ibhu
ibi
ibu
ibuk
ibukota
ibukotanyane
ibun
ibunnyane
ibunya
ic
ica
ical
ican
icang
icange
iccha
ice
icen
icenin
icing
icipin
icon
id
ida
idam
idan
idane
idayaŋ
idayaŋn
idaŋ
idd
iddha
iddhayaŋ
iddhayaŋn
ide
iden
identitas
identity
idep
idewa
idhayaŋ
idhe
idih
idn
idola
idr
idukuh
idul
idun
idup
idupaŋ
idupe
idupne
ie
if
ig
iga
igan
igar
ige
igel
igelan
ighra
ighrah
ignored
igra
iguru
ih
iha
ihalus
ihan
ihantakus
iharis
ihas
ihasih
ihe
ihida
ihiku
ihin
ihnayaŋ
ii
iii
ija
ije
ijo
ijocme
ijos
ik
ika
ikaji
ikaka
ikakabeh
ikan
ikang
ikas
ikat
ikatakabeh
ikatan
ikate
ikaŋ
ikaŋs
ikbhat
ike
ikhlas
iki
ikin
ikip
ikipan
ikis
ikite
ikiya
ikiŋpura
ikiŋpuri
iklim
ikn
ikon
ikonik
ikr
iks
ikt
iku
ikuh
ikun
ikut
il
ila
ilakrama
ilan
ilang
ilayukti
ilaŋ
ilbo
ile
ileh
ilgil
ili
ilib
ilid
ilih
ilin
ilir
ilis
illinois
illustrated
ilmiah
ilmu
ilmuwan
ilo
ilonin
ilu
ilut
im
ima
image
images
imam
iman
imanis
imba
imban
imbang
imbaŋ
imbc
imbuh
imbuhin
imdb
ime
imf
imiwah
imlek
impact
impan
impasin
impe
imperial
important
imu
imun
imur
in
ina
inab
inah
inahaŋ
inamas
inamasiwaya
inan
inaŋ
inbar
inbe
inc
including
income
incorrect
ind
indah
indayang
indaŋ
inde
indeks
independent
inderapura
index
india
indian
indiana
indica
indie
indik
indike
individu
indo
indone
indonesia
indonesian
indra
indraban
indragiri
indrajala
indrakila
indraloka
indraman
indramayu
indrapras
indrasapryan
indri
indriya
induk
industri
industry
ine
inehalus
inema
ineman
inemanis
inen
inesa
info
informacio
informasi
informatika
information
ing
ingan
ingat
inge
inget
ingetang
inggih
inggihan
inggihnyane
inggris
ingin
ingong
ingtai
inguh
inhan
inhati
inhe
ini
inilah
inin
inira
injil
injin
injuriŋ
inka
inkawuh
inke
inma
inman
inmanah
inmun
inn
inne
inom
inorganic
inpan
ins
insan
insana
inside
instagram
institut
institute
institution
instrume
int
intan
intangible
intaran
intarik
inte
integrated
intel
intelligence
inten
inter
interaktif
interior
internal
internasional
international
internationale
internet
interview
inti
intip
intityaŋ
into
intro
introduction
inu
inucap
inum
inun
inventaris
inventarisasi
inya
io
ip
ipa
ipan
ipatih
ipe
ipi
ipian
ipidan
ipin
ipoen
ipoene
ipta
ipu
ipuh
ipun
ipune
ipunika
ipyan
ir
ira
iraga
irah
iraja
irak
irama
iraman
iran
irarisn
iras
irasan
iratu
ireki
ireng
irengan
iri
irian
irigasi
irika
iriki
irin
iring
iringan
iris
iriŋ
iriŋbe
iriŋcokor
iriŋhida
iriŋhiratu
iriŋman
iriŋn
iriŋpakahyunan
iriŋpakayunan
iriŋratu
iriŋs
iriŋsa
iriŋsami
irlandia
iron
iru
iruŋ
is
isa
isaka
isan
isar
isbn
ise
isen
iseng
ishida
isi
isin
isinin
isira
isiŋ
iskandar
islam
island
islandia
islands
ismail
isman
ismasasambatan
isn
isor
isotop
issn
issue
istana
istanusan
isteri
istilah
istime
istri
istrinya
isu
iswara
isyaŋ
it
ita
itakna
itali
italia
italic
italy
itan
itaŋ
ite
iteh
iten
ithi
iti
itik
itin
itipan
itis
itjang
itn
its
itsukushima
itu
itulah
itun
ituni
ituŋ
itwaran
iu
iucn
iupac
iv
iwa
iwabudd
iwabuddha
iwadwara
iwaguru
iwah
iwak
iwaloka
iwaman
iwan
iwang
iwar
iwas
iwasin
iwatattwa
iwatatwa
iwaya
iwe
iwi
iwwa
ix
ixora
iya
iyajn
iyan
iyaŋ
iye
iyu
izu
iŋ
iŋhaji
iŋhan
iŋhati
iŋka
iŋke
iŋlan
iŋlidah
iŋma
iŋman
iŋmanah
iŋn
iŋna
iŋpan
iŋpuri
iŋra
iŋs
iŋsa
iŋse
iŋtin
iŋtutur
j
ja
jaan
jaba
jabaan
jaban
jabar
jabat
jabatan
jabra
jabran
jabung
jack
jackson
jacob
jacques
jadi
jadiapin
jadin
jadma
jadmane
jadwal
jae
jaen
jag
jaga
jagad
jagalan
jagaman
jagan
jagaraga
jagat
jagate
jagatesami
jagatsami
jagi
jagjag
jagjagin
jagn
jagrawuh
jagung
jah
jaha
jahan
jahat
jahe
jahil
jahin
jail
jaja
jajah
jajan
jajar
jaje
jajwita
jak
jaka
jakan
jakapti
jakar
jakarta
jakas
jakaŋ
jakaŋtityaŋ
jake
jaken
jakesami
jakin
jakn
jaks
jaksa
jakula
jal
jala
jalah
jalak
jalan
jalanan
jalanaŋ
jalanbar
jalane
jalanke
jalanmulih
jalann
jalannya
jalar
jalaran
jalawate
jali
jalin
jalma
jalu
jaluk
jalur
jam
jamah
jaman
jambangan
jambe
jambi
jambu
jambul
james
jamintara
jamur
jan
jana
janane
jane
jang
jangan
janganlah
jangga
janggan
jangkang
jangkep
jangkrik
jangu
jani
janibapa
janihe
janiman
janin
janisuba
janji
janma
janmane
janmi
janoub
jante
janten
jantos
jantosn
jantung
januari
january
japa
japala
japan
japanese
japatuan
japhala
japu
japutr
japutra
japutri
japutrika
jar
jara
jarah
jarak
jaran
jarane
jaranne
jarans
jaransantun
jaransari
jaratkaru
jari
jarin
jaring
jaringan
jaron
jaruh
jas
jasa
jasan
jasri
jasunu
jasupa
jat
jata
jater
jati
jatim
jatimulyo
jatin
jatinegara
jatinipun
jatinn
jatinya
jatirejo
jatisari
jatituhu
jatma
jattha
jatthi
jatuh
jauh
jaum
java
javanese
jawa
jawab
jawapos
jawat
jawi
jawwa
jaya
jayabhumi
jayajaya
jayan
jayanti
jayapan
jayapangus
jayaprana
jayapura
jayas
jayena
jayeŋkusuma
jayeŋra
jayeŋran
jayeŋrana
jazz
jaŋ
jaŋhen
jaŋke
jaŋmalih
jaŋman
jaŋmar
jaŋn
jaŋpan
jaŋpun
jaŋse
jaŋsme
jaŋyus
jdih
je
jean
jeg
jege
jegeg
jegjeg
jegog
jejak
jejeh
jejel
jeju
jelanan
jelantik
jelas
jele
jeleg
jelek
jelema
jelijih
jelma
jemak
jemaka
jembatan
jember
jembrana
jemet
jempenit
jen
jena
jenar
jenderal
jendral
jenek
jeneng
jenenga
jeneponto
jengah
jenggot
jenis
jeon
jeong
jepang
jepara
jepun
jer
jerih
jeriji
jerit
jerman
jero
jeroan
jeron
jerone
jersey
jeruk
jet
jetis
jha
ji
jih
jijayeŋkusuma
jik
jika
jil
jilid
jim
jima
jiman
jimbar
jimbaran
jimbarne
jimbarnyane
jin
jinah
jine
jipang
jir
jirisan
jis
jismiraŋ
jit
jiwa
jiwan
jiwani
jiwanin
jiwwa
jiŋ
jiŋkapuri
jiŋn
jja
jjan
jjana
jjawa
jjita
jju
jjun
jjuna
jjunasa
jkt
jl
jlan
jlanan
jle
jlema
jlemlah
jlh
jml
jn
jnana
jnar
jne
jnyana
jo
joan
joe
jog
joge
joged
joglo
jogor
joh
johan
johannes
johar
johaŋ
johin
john
johns
johnson
joho
joins
joko
jokowi
joli
jombang
jon
jonathan
jones
jong
jongbiru
joni
joo
joon
joong
joongang
jor
jordan
jose
joseon
joseph
joshua
journal
journey
jowin
joŋ
joŋbiru
jp
jpg
jr
jrah
jrar
jraŋ
jrih
jrihin
jrit
jro
jrodukuh
jroman
jrone
jronin
jroniŋ
jroniŋhati
jroniŋmanah
jrose
jrowan
jrudeh
jruk
jruklin
jruŋ
jstor
jtbc
ju
jua
juang
juara
juari
judul
juga
jugul
juh
jujuh
jujuluk
jujur
juk
jukung
jukut
jul
juli
julian
julius
juluŋwan
july
jumah
jumahan
jumahne
jumat
jumbuh
jume
jumlah
jumne
jun
juna
june
jung
jungutan
juni
junior
junkis
jur
juragan
jurang
juraŋ
juris
jurit
juriŋ
jurnal
jurnalis
juru
juruh
jurun
jurusan
jus
just
justin
jut
juta
juti
juuk
juventus
juwa
juwangsan
juwaŋ
juwuk
juŋ
juŋbiru
juŋman
juŋn
juŋputih
jv
jwa
jwan
jwari
jwittha
jya
jyes
k
ka
kaadanin
kaadegang
kaadol
kaaduk
kaajegang
kaajeng
kaake
kaakse
kaakses
kaakuin
kaambil
kaan
kaancem
kaancengang
kaange
kaangen
kaangge
kaanggep
kaanggon
kaangkat
kaapus
kaaranin
kaarsipin
kaatur
kaaturang
kab
kaba
kabagi
kabakta
kabali
kaban
kabaos
kabaosang
kabar
kabat
kabate
kabatek
kabawos
kabawosaŋ
kabe
kabeh
kabelasang
kabhi
kabhinawa
kabhis
kabhu
kabhupatenkaran
kabilbil
kabin
kabinawa
kabinet
kabis
kabisat
kable
kabor
kabuat
kabuatan
kabudayaan
kabudidaya
kabuka
kabun
kabung
kabupate
kabupaten
kabupatenkaran
kaca
kacacar
kacamatan
kacamatanhabaŋ
kacampuh
kacampur
kacang
kacangan
kacarita
kacaritayang
kacarittha
kacatet
kacatur
kacawang
kace
kacerita
kaceritayang
kacihnayang
kacin
kacingak
kacingakin
kacrita
kacritayang
kacun
kacunduk
kad
kada
kadadin
kadadosang
kadadua
kadagin
kadagingin
kadahatan
kadal
kadalih
kadan
kadang
kadanin
kadaptar
kadar
kadas
kadasa
kadasarin
kadasaring
kadawuh
kadaŋ
kadaŋwar
kade
kadek
kademangan
kaden
kadena
kades
kadewatan
kadhar
kadi
kadige
kadihan
kadihe
kadihiki
kadika
kadike
kadilan
kadiman
kadime
kadin
kadipaks
kadipan
kadipaten
kadipe
kadir
kadiras
kadiratih
kadiri
kadis
kadisa
kadisan
kadise
kadisin
kadisolah
kadisu
kaditin
kadong
kadrue
kadu
kaduang
kaduga
kaduh
kadulu
kadulurin
kadun
kadung
kadur
kadurus
kadus
kadya
kadyan
kadyatmikan
kae
kag
kagambar
kagambarang
kagampilang
kage
kagelisan
kagenahain
kagenahang
kagenahin
kagentosin
kaget
kagetep
kagetrawuh
kagiat
kagingsirang
kagoreng
kagse
kagun
kagyat
kah
kaha
kahadanin
kahaks
kahan
kahanan
kahar
kahatu
kahatur
kahaŋ
kahe
kaheman
kahen
kahi
kahide
kahin
kahirin
kahiriŋhantuk
kahiŋ
kahiŋn
kaho
kahu
kahucap
kahucapaŋ
kahuh
kahula
kahulan
kahun
kahunin
kahuripan
kahutus
kahyan
kahyangan
kahyun
kai
kaicain
kaicalang
kaice
kaicen
kaiket
kain
kaine
kairing
kairingin
kaisar
kaisinin
kaisolasi
kaiterin
kaja
kajaba
kajakan
kajakawuh
kajake
kajan
kajanan
kajang
kajangkepin
kajar
kajarah
kaje
kajemuh
kajian
kajimbarang
kajinahan
kajoe
kajoene
kajol
kajro
kajujur
kajumah
kak
kaka
kakadu
kakait
kakak
kakalih
kakan
kakanda
kakapatih
kakaput
kakar
kakaran
kakardi
kakaryanin
kakas
kakawi
kakawian
kakawin
kakawitin
kakde
kake
kakeberang
kakek
kakelola
kakembangang
kakenalang
kakene
kakepah
kaki
kakin
kakluŋkuŋ
kakn
kaks
kaku
kakua
kakuasaan
kakukus
kakul
kakurung
kakutang
kakuŋ
kakya
kal
kala
kalablab
kalah
kalahin
kalahina
kalaksanayang
kalan
kalang
kalangan
kalanganyar
kalaning
kalantaka
kalantik
kalanturang
kalaran
kalasan
kalau
kalawa
kalawan
kalbar
kale
kalender
kaler
kali
kaliasem
kalibaru
kalih
kalihan
kalik
kalima
kalimantan
kalimat
kalin
kalindungin
kaling
kalintan
kalintang
kalintaŋ
kalipuro
kaliput
kalirejo
kalis
kalisari
kaliwat
kaliwungu
kaloktah
kalon
kalpa
kalteng
kaltim
kalu
kalud
kalugra
kalumbrah
kalun
kalung
kalurahan
kaluwaraga
kaluwarga
kam
kama
kamahardikaan
kamahi
kamainang
kamal
kaman
kamanah
kamandaka
kamanggala
kamar
kamare
kamargiang
kamasak
kamasan
kamatiang
kambang
kambe
kamben
kambing
kamboja
kame
kamedalang
kamekarang
kamen
kamenterian
kamerun
kami
kamil
kamoks
kampanye
kampar
kampid
kampidne
kampih
kampuh
kampung
kampus
kampuŋ
kamr
kamu
kamuat
kamulan
kamus
kan
kana
kanada
kanagara
kanak
kanaka
kanal
kanalin
kanan
kanapan
kanatin
kanbe
kance
kancil
kancokor
kanda
kandang
kandangan
kande
kandikaang
kandugi
kandungan
kane
kaneman
kanen
kang
kangcingwi
kange
kangen
kangge
kanggo
kanggoang
kangin
kanginan
kangkat
kangkung
kanhe
kanhida
kanigoro
kanikain
kanikayang
kanin
kanipun
kanir
kanira
kanis
kanisius
kaniŋ
kaniŋdadi
kaniŋn
kaniŋpan
kanke
kanman
kanme
kann
kanne
kanpan
kanparan
kans
kansai
kansan
kansas
kanse
kanta
kantan
kante
kanten
kanti
kantin
kanto
kantoen
kanton
kantor
kantos
kantrun
kantrung
kantrungan
kantu
kantun
kantunn
kanya
kaon
kap
kapa
kapademang
kapage
kapah
kapak
kapal
kapamr
kapan
kapanah
kapane
kapanewon
kapangandikaang
kapangandikayang
kapanggih
kapanggihin
kapanggil
kapanlagi
kapapat
kapar
kapara
kaparabin
kaparinamain
kapartama
kapas
kapasan
kapasang
kapasar
kapasih
kapasitas
kapastika
kapastu
kapat
kapatu
kapatuh
kapatut
kapatutan
kape
kapen
kapercaya
kaperluan
kapertama
kapi
kapiara
kapilih
kapimpin
kapin
kapine
kaping
kapining
kapir
kapireng
kapisan
kapitr
kapitu
kapiŋ
kapiŋcatur
kapiŋhe
kapiŋkalih
kapiŋne
kapiŋtiga
kapkap
kaple
kapo
kapolihang
kapoor
kapr
kaprabon
kapraginain
kaprajn
kaprecaya
kaproduksi
kapte
kapten
kapti
kapu
kapuas
kapuja
kapuji
kapuk
kapuloan
kapun
kapupulang
kapupun
kapuputang
kapur
kapura
kapuri
kapustakaan
kaputusan
kar
kara
karahayuan
karahaywan
karakter
karam
karaman
karan
karana
karancang
karane
karang
karangan
karanganyar
karangase
karangasem
karangasemkab
karangjati
karangmojo
karangrejo
karangsari
karangtengah
karas
karasa
karasayang
karate
karatuan
karauhan
karauhin
karawang
karawitan
karaŋ
karbon
kare
kareena
karen
karena
karenanya
karereh
karesmiang
karet
kari
karibia
karier
karilis
karim
kariman
karimun
karimunjawa
karin
karipta
karir
karirnyane
karl
karma
karna
karno
karo
karst
kartago
kartanegara
kartika
kartini
kartoharjo
kartu
karu
karun
karusak
karwan
karya
karyan
karyane
kas
kasa
kasaibin
kasakitan
kasaks
kasaktian
kasambat
kasan
kasar
kasarengin
kasari
kasasar
kasatak
kasatus
kasayan
kasaŋ
kase
kasebar
kasebut
kaselenggara
kasen
kasenengin
kasengguh
kasenian
kasep
kasi
kasiapang
kasiape
kasiarang
kasidan
kasiddhan
kasih
kasihan
kasiksikan
kasimpen
kasin
kasinan
kasingkat
kasle
kasma
kasman
kasmaran
kasn
kasobyahang
kasolahang
kasor
kasoran
kasponsorin
kasta
kasturi
kasu
kasub
kasue
kasuen
kasugihan
kasuka
kasukan
kasuks
kasultanan
kasumbuŋ
kasun
kasuna
kasunajan
kasungsung
kasur
kasura
kasurat
kasus
kasusastraan
kasusastran
kasusun
kasutradarain
kasuwen
kaswar
kaswen
kasyasih
kat
kata
katadah
katah
katak
katake
katalog
katalogisasi
kataman
katampi
katan
katandur
katanem
katanya
katar
katara
kate
kategehan
kategori
katekan
katelungatus
katemu
katemuin
katentu
katepuk
katerbitang
katerima
katerjemahang
katetapang
katge
kathmandu
kati
katiba
katiga
katih
katik
katikce
katin
katingan
katipat
katitah
katmu
katn
kato
katolik
katon
katong
katos
katoŋ
katpuk
katr
katran
katrin
katu
katuduh
katuju
katumbah
katun
katunan
katunas
katur
katuran
katurang
katutug
katutup
katuturan
katuturang
kau
kauah
kauahin
kaucap
kaucapang
kauh
kauk
kaukina
kaukur
kaum
kauman
kauningin
kauripan
kausap
kautama
kautus
kauwah
kawa
kawace
kawacen
kawagi
kawah
kawan
kawanan
kawangen
kawangun
kawantu
kawar
kawarganegaraan
kawas
kawasan
kawastanin
kawatesin
kawe
kawedar
kawente
kawentuk
kaweruhan
kawewehin
kawi
kawiguna
kawigunan
kawikanan
kawiman
kawin
kawir
kawis
kawisesan
kawit
kawitan
kawitweruh
kawon
kawonbe
kawot
kawruh
kawruhakna
kawu
kawuh
kawula
kawulan
kawulu
kawuwus
kawuwusan
kawuwuse
kawya
kaya
kayak
kayan
kayang
kayangan
kayaŋ
kaye
kayeh
kayeki
kayen
kayong
kayu
kayun
kayunan
kayune
kayuneman
kayunen
kayunhida
kayunne
kazakhstan
kaŋ
kaŋbe
kaŋhan
kaŋhin
kaŋje
kaŋka
kaŋl
kaŋman
kaŋmun
kaŋn
kaŋna
kaŋpan
kaŋra
kaŋs
kaŋsa
kaŋsar
kaŋtan
kba
kban
kbbi
kbe
kbhat
kbs
kbus
kcap
kce
kd
kde
kdek
kdes
kdewata
kdhe
ke
keadaan
keagamaan
keajuang
keamanan
keangge
kebahagiaan
kebaikan
kebangkitan
kebangsaan
kebayoran
kebe
kebebasan
kebek
kebenaran
kebetulan
kebijakan
kebo
kebon
kebonagung
kebondalem
kebone
kebonsari
kebudayaan
kebumen
kebun
kebus
kebyar
kecag
kecamatan
kecap
kecapi
kecatet
kecicang
kecil
kecuali
kecut
kedas
kedaton
kedawung
kede
kedeh
kedek
kedhe
kediaman
kedinasan
kediri
kedis
kedisan
kedise
kedokteran
kedonganan
kedua
keduanya
kedung
kedungrejo
keempat
keenambelas
kegiatan
keh
keha
kehaglis
kehamuwus
kehan
kehe
kehen
kehendak
kehidupan
kehiku
kehin
kehutanan
keindahan
keinginan
kejadian
kejepne
kejuaraan
kejuruan
kek
keka
kekalih
kekar
kekarangan
kekawar
kekawin
kekayaan
keke
keker
kekeran
keki
keku
kekua
kekuane
kekuatan
kel
kela
keladi
kelahiran
kelan
kelapa
kelas
kele
kelengkapin
keler
kelian
kelih
kelihan
kelihatan
keliling
kelimutu
kelin
kelinci
keling
kelioed
keliwat
kelo
kelod
kelodan
kelompok
kelor
keluar
keluarga
keluarganya
kelumaris
kelun
kelurahah
kelurahan
kema
kemad
keman
kemanten
kemantren
kemari
kematian
kembali
kembang
kembangan
kembar
kemdikbud
keme
kemenangan
kemendagri
kemendikbud
kemenkeu
kementerian
kementrian
kemenuh
kemerde
kemerdekaan
kemiri
kemkes
kemn
kemo
kemu
kemudian
kemuning
ken
kena
kenak
kenal
kenang
kenanga
kenangan
kenapa
kenbe
kencana
kence
kendal
kendang
kendaraan
kendari
kende
kendel
kene
keneh
kenehang
kenehe
kenehne
kenen
kengin
kenhawak
keni
kenin
keniŋ
kenkahi
kenke
kenken
kenkenang
kenkenbahanman
kenkenkran
kenma
kenn
kennedy
kenneth
kenpan
kens
kensan
kensulas
kente
kenten
kento
kentucky
kenya
kenyel
kenyem
kenying
kenyir
kenyung
kep
kepa
kepada
kepadatan
kepadetan
kepadetanne
kepah
kepahan
kepala
kepan
kepatihan
kepe
kepemimpinan
kependuduakan
kependudukan
kepercayaan
keppres
kepra
keprapta
kepuh
kepuhe
kepulauan
kepuniku
kepustakaan
keputusan
ker
kera
kerahadyan
kerajaan
kerak
keramat
kerambitan
keran
kerana
kerang
keras
keraton
kereng
kereta
kerinci
kering
keris
kerja
kerkuak
kerobokan
kerta
kertagama
kertajaya
kertas
kertasari
kertha
kerthi
kerti
kertya
kerug
kes
kesa
kesah
kesaktian
kesalahan
kesambi
kesan
kesar
kesari
kesatria
kesatuan
kese
kesedihan
kesehatan
kesengsaraan
kesenian
kesetiaan
kesiman
kesimpar
kesira
kesiut
kesoerat
kesultanan
kesuna
kesusastraan
ket
keta
ketah
ketahnyane
ketaki
ketan
ketapang
ketawang
kete
ketemu
ketiga
ketika
ketimun
ketipat
keto
ketobagus
ketoce
ketohatu
ketohatur
ketomasih
ketomun
keton
ketopa
ketopan
ketor
ketotin
ketotuhu
ketu
ketua
ketungane
keturunan
ketut
keuangan
keuskupan
kevin
kew
kewa
kewagi
kewajiban
kewala
kewalan
kewangun
kewante
kewanten
kewarganegaraan
kewastanin
kewe
keweh
kewuh
key
keyan
keŋ
keŋhati
keŋs
kg
kgan
kge
khalifah
khan
khas
khatulistiwa
khor
khushi
khusus
ki
kid
kidang
kidange
kidaŋ
kide
kidik
kidu
kidul
kidung
kiduŋ
kig
kih
kihan
kija
kijap
kije
kik
kikratanah
kil
kila
kilan
kilanesami
kilap
kilat
kiles
kilin
kiliŋ
kilkapuri
kilman
kilome
kilometer
kilubdaka
kim
kimchi
kimia
kimiawan
kimiawi
kimud
kin
kina
kinan
kinar
kinban
kinbe
kincaritayaŋ
kind
kinds
kine
king
kingdom
kingking
kings
kingumi
kinhan
kinhucapaŋ
kinhucapaŋmalih
kini
kinka
kinkawuwus
kinke
kinkocap
kinkocapa
kinlan
kinma
kinmalih
kinmamar
kinman
kinmar
kinmawuwuh
kinme
kinn
kinpan
kinrawuh
kinriŋban
kinsa
kinsampun
kintamani
kinte
kintityaŋ
kintityaŋman
kintityaŋmapamit
kintityaŋn
kinu
kinucap
kinum
kinwente
kipa
kipatih
kipe
kiper
kipun
kir
kira
kiran
kirana
kirang
kiraŋ
kiri
kirtya
kis
kisah
kisan
kise
kisi
kisidd
kisiddha
kit
kita
kitab
kitan
kite
kittha
kiwa
kiŋ
kiŋkiŋ
kiŋn
kiŋs
kjaŋ
kje
kka
kkadewa
kkan
kkara
kke
kki
kla
klampis
klan
klapa
klapke
klasifikasi
klasik
klate
klaten
klau
klawu
kle
klender
kleopatra
klepon
kles
klian
klih
klik
klin
kliwon
kliŋ
klod
klodkan
klodkawuh
klub
klun
klungkung
kluŋkuŋ
km
kma
kmahen
kmalin
kmalun
kman
kmanah
kmariki
kmatur
kme
kmi
kn
kna
knan
kne
kni
knik
kniman
knin
knis
knisa
knologi
know
known
knya
ko
kobe
koca
kocap
kocapa
kocapan
kocapanman
kocape
kocapmalih
kocapman
kocapn
kocapsa
kocapsampunrawuh
kocapwente
kodag
kodara
kode
kodhara
koedang
koening
koerenan
koh
kohan
koja
kojong
kok
kokman
kokn
kokop
kol
kola
kolah
kolaka
kolam
kole
koleksi
kolin
koln
kolok
kolombia
kolonel
kolongan
kolonial
komala
koman
komandan
komando
komang
kome
komering
komisi
komite
komodo
kompas
kompayaks
kompe
kompete
kompetisi
komple
kompleks
komponis
komposer
komposisi
komputer
kompyang
komune
komunikasi
komunis
komunitas
kon
kona
konan
konang
konawe
koncre
konden
kondisi
kondur
kone
konfe
kong
kongo
kongre
konomi
konomis
konon
konse
konsep
konservasi
konsonan
konstitusi
konte
kontemporer
kontrak
kontribusi
koordinat
koordinator
kopi
kopine
kor
kora
koran
koratukn
koratuman
koratumpe
koratun
korawa
korban
kore
korea
koreaherald
korean
kori
koridor
koripan
korupsi
kos
kosa
kosala
kosali
kosistem
kosong
kosta
koster
kot
kota
kotabaru
kotabumi
kotak
kotamadya
kotamobagu
kotawaringin
kotjap
koto
kotor
kottelat
koŋ
koŋrawuh
kpa
kpan
kpe
kpisan
kpop
kpopherald
kpr
kpts
kpu
kpun
kr
kra
kradenan
krajaan
krajan
krak
krama
kraman
kramane
kramanne
kramannyane
kramanya
kramanyane
kramat
kran
krana
kranan
kranane
kranggan
krangke
kras
kratanah
kraton
kratu
krayan
kre
kreatif
kreket
kresna
kreta
kreteg
kri
kria
krik
kriman
krin
krinting
kris
krishna
kristen
kristus
kriteria
kriya
kriŋ
kroasia
kroda
kroddha
krodha
kropak
kru
krue
krug
kruk
krulut
krun
kruna
krura
kryan
kryanapatih
kryanpatih
ks
ksa
ksami
ksan
ksar
ksatria
ksaŋna
kse
ksi
ksiko
kt
kta
ktah
ktan
ktangajih
ktar
ktare
kte
kti
ktin
ktinan
ktr
ktron
ktuglinuh
ktumbah
ktun
ktur
ktut
ku
kuaca
kuador
kuah
kuala
kualifikasi
kualitas
kuang
kuangan
kuasa
kuat
kuba
kubang
kubhu
kubhumi
kubu
kuburan
kubutambahan
kuch
kucing
kucit
kuciwa
kuda
kudane
kudang
kudawate
kudhar
kudiang
kudrang
kudu
kudus
kudyaŋn
kue
kuh
kuhan
kuil
kuk
kuku
kukuh
kukus
kul
kula
kulak
kulan
kulantir
kulawar
kulawarga
kulaŋ
kuli
kuliah
kulin
kulit
kulitne
kulitnyane
kulkul
kuln
kulo
kulon
kulputih
kuluk
kulukne
kulun
kuma
kumah
kumambaŋ
kuman
kumar
kumara
kumbang
kume
kumis
kumparan
kumpe
kumpul
kumpulan
kumr
kun
kuna
kunan
kunang
kunaŋ
kunaŋn
kunci
kuncoro
kune
kung
kunin
kuning
kuningan
kunir
kuniŋ
kunne
kuno
kunti
kunyit
kup
kupang
kupar
kuping
kupu
kur
kura
kuran
kurang
kuranji
kuraŋ
kurenan
kurenane
kurenanne
kuri
kurin
kuripan
kurniawan
kursi
kuru
kurun
kurupati
kus
kusamba
kusan
kusuma
kusus
kut
kuta
kutai
kutampi
kutang
kutin
kutu
kutub
kutuh
kutus
kuud
kuuk
kuwu
kuwum
kuŋ
kuŋa
kuŋbe
kuŋl
kuŋlan
kuŋman
kuŋn
kwa
kwan
kwanyar
kwar
kwas
kwe
kweh
kwi
kwiku
kya
kyai
kyan
kyanapatih
kyaŋ
kyi
kyo
kyoto
kyu
kyung
kə
l
la
laad
lab
laba
laban
labang
labe
label
labha
labhu
lablab
laboratorium
laboratory
labu
labuan
labuh
labuhan
labuhanbatu
labur
lacu
lacur
lacure
lad
lada
lade
lades
ladina
laditu
ladpran
lady
lag
laga
lagas
lage
lagerstroemia
lagi
lagin
lagu
laguna
lah
laha
lahan
lahar
lahat
lahaŋ
lahe
lahib
lahin
lahir
lahut
lahutman
lahutn
lai
lain
lainnya
lais
lajah
laje
lajo
laju
lajur
lak
laka
lakan
lakar
lakaran
lakde
lake
lakes
laki
lakna
lakon
lakonin
laks
laksamana
laksana
laksanane
laksmi
laku
lakun
lakunya
lal
lalah
lalan
lalana
lalang
lali
lalima
lalin
lalis
lalu
lalumbang
lalun
lam
lama
laman
lamandau
lamar
lamat
lambang
lambe
lambih
lami
lamoen
lamongan
lampah
lampahe
lampahira
lampu
lampung
lampus
lamr
lamu
lamun
lamunn
lamuns
lamuntwah
lan
lana
lanan
lanang
lanaŋ
lanaŋhar
lanaŋhistri
lanaŋwadon
lancah
land
landak
landau
lande
landep
landscape
landuh
landung
lane
lang
lange
langensari
langgana
langge
langit
langite
langka
langkung
langkungan
langsa
langsat
langsing
langsung
language
languages
lanin
lanira
laniŋ
laniŋn
lanjana
lanjar
lanka
lanke
lanma
lanmalih
lanman
lann
lanpan
lanpatih
lans
lanskap
lantai
lantan
lantang
lantangnyane
lantanida
lantas
lantasman
lantasn
lantik
lantin
lantiŋ
lantur
lanturang
lanturaŋ
lanus
lanya
lanying
laoet
laok
laos
lap
lapa
lapan
lapangan
lape
lapis
lapisan
lapke
laporan
lar
lara
laran
larangan
larani
laranin
larannya
laranya
laras
laraŋ
lare
large
largest
lari
laris
larry
larut
las
lasa
lasan
lasasih
lasaŋ
lascar
lase
lasin
lasman
lasn
last
laste
lat
lata
latan
latar
late
lateng
lati
latin
latjoer
latri
lau
laut
lautan
lautang
lava
law
lawa
lawah
lawan
lawana
lawang
lawangan
lawanin
lawanmalih
lawans
lawar
lawas
lawat
lawaŋ
lawe
laweh
laweyan
lawrence
lawu
lawut
lawutaŋ
lawutban
lawutke
lawutman
lawutme
lawutn
laya
layah
layan
layanan
layang
layangan
layar
layaŋ
layon
layonsari
layout
layu
layuŋ
laŋ
laŋlaŋbwan
laŋn
lb
lbe
lccn
le
lead
leaf
league
learning
leb
lebah
lebak
lebar
lebaŋ
lebeng
lebih
lebihan
lebong
lebur
ledan
ledang
ledaŋ
ledaŋn
lee
left
lega
legan
lege
legend
legenda
legislatif
legok
legong
legu
leh
leiden
lek
lekad
lela
lelasan
lelima
lelintihan
lelipi
lelipine
leluhur
lemah
leman
lembaga
lembah
lembang
lembar
lembata
lembongan
lembu
leme
lemeng
lemet
lemo
lempad
lempas
lempir
lempoh
lempor
lempuyang
lemuh
len
lena
lenan
lenaŋ
lengar
lengen
lengis
lengkap
lengkara
lengkong
lenhada
lenhadan
lenman
lenn
leo
leonardo
leopard
lepas
ler
les
lesotho
lestari
leste
lesu
let
letkol
letters
letusan
level
lewat
lewih
lewis
leyak
lez
lga
lge
lgia
lhan
lhawak
lhe
lhokseumawe
li
lia
lian
lianan
liang
liar
liat
libagus
liberia
liberty
library
licin
lid
lidah
lidaŋ
lide
lidi
lidin
lidsan
lie
life
lig
liga
lige
ligue
ligya
lih
lihaguŋ
lihan
lihat
lihatlah
lihin
lik
lika
like
liku
likur
lila
lili
liligundi
lilih
lilin
lilir
lilit
lim
lima
liman
limane
limang
limann
limau
limbah
limbak
limbangan
limbong
limbur
lime
limited
limo
limolas
limpa
limuh
lin
lina
lindih
lindu
lindung
line
lineman
ling
lingan
lingga
linggah
linggahne
linggahnyane
linggih
lingin
linging
lingkungan
lingsir
linguistics
linguistik
linin
link
linnaeus
linne
linta
lintan
lintang
lintas
lintaŋ
lintaŋhayu
lintaŋkan
lintaŋl
lintaŋn
lintaŋs
lintaŋse
linuh
linus
linyok
lioe
lipe
lipi
lipu
lipur
liput
liputan
lir
liran
lirik
lis
lisa
lisan
lisaŋ
lise
lisiŋcarita
lismamar
lisman
lisn
lisprapti
lisrawuh
list
liste
listing
listrik
lit
literature
little
liu
lium
liunan
live
liverpool
living
liwar
liwat
liwatin
liwe
liyan
liyanan
liyane
liyat
liyatin
liye
liyu
liyun
liŋ
liŋbhat
liŋdhar
liŋgah
liŋharis
liŋkusuma
liŋman
liŋmasasambatan
liŋn
liŋnira
liŋnya
lke
lle
lma
lmah
lman
lmanah
lme
ln
lne
lo
loa
loba
lobha
local
loch
lod
lodaŋ
lodkan
lodkawuh
loeh
loehe
loeire
log
logam
logo
loh
lok
loka
lokal
lokasi
lokika
lokin
loloan
loloh
lolok
lolos
lolot
lomba
lombok
lon
london
lonely
long
longman
lontar
lontare
look
lor
lore
los
losari
lost
lot
louis
lovato
love
lower
lowokwaru
loŋ
lp
lpan
lpas
lpe
lpisan
lpun
lraga
ls
lsami
lse
lta
ltan
ltd
lte
lu
lua
luar
luas
lubak
lubang
lubdaka
lubdhaka
lubuk
lubuklinggau
lud
ludin
ludra
lugra
lugraha
lugrahin
luh
luhu
luhur
luhuŋ
luih
luir
luire
luiripun
luis
luk
luka
lukas
lukat
lukata
lukatan
lukis
lukisan
lulu
luluh
lulus
lulusan
lulut
luma
lumah
lumajang
lumaku
lumampah
lumaris
lumba
lumbang
lumbantobing
lumbrah
lumbung
lume
lumlum
lumpur
lumrah
lun
lunak
lunaktane
lung
lunga
lunta
lup
lupa
lupin
luput
lur
lurah
lurug
lurus
lus
lusail
lut
lutcokor
lute
lutman
lutn
lutung
lutunge
lutuŋ
luung
luwah
luwar
luwas
luwe
luwih
luwir
luwu
luwuk
luwung
luwur
luwuŋ
luŋ
luŋhan
luŋn
lwa
lwah
lwan
lwas
lwih
lwir
lya
lyan
lyanan
lyanmalih
lyu
lyun
m
ma
maadan
maaf
maagama
maal
maaled
maan
maang
maaran
maarti
maartos
maasal
maatur
maba
mabadra
mabagi
mabaju
mabakti
mabalih
mabalik
maban
mabante
mabaos
mabaosan
mabar
mabaran
mabariyuk
mabasa
mabasis
mabatis
mabe
mabhu
mabinayan
mablanja
mabo
maboros
mabr
mabrarakan
mabriyuk
mabriyukman
mabriyukn
mabriyuks
mabuah
mabuat
mabudi
mabulu
mabun
mabuncing
mabunga
maburu
maca
macam
macampuh
macampur
macan
macanda
macane
macbur
macdonald
mace
macebur
macelep
macem
machine
macin
macmillan
mad
mada
madaar
madabdab
madabdaban
madagang
madagascar
madaging
madagiŋ
madahar
madak
madal
madampingan
madan
madandantan
madasar
madat
madaulat
madaya
maddha
made
madeg
mademang
madene
madewa
madha
madhe
madhepu
madhese
madhewatin
madhi
madhu
madhuge
madhujuruh
madhura
madhuri
madhya
madi
madia
madin
madingehang
madiun
madolan
madr
madrebe
madri
madrid
madrue
madu
madue
madulur
maduluran
madun
madur
madura
madurgama
maduwe
madya
mae
maekin
mael
maestro
maga
magabung
magada
magadang
magae
magal
magama
magantung
magarapan
magazine
mage
magedi
magelang
magelar
magen
magenah
magenahin
magending
magenep
magentos
magetan
magic
magilir
magin
magingsir
magister
magnah
magnetic
magoba
magr
magulun
magun
maguna
magut
maguyang
maguyaŋ
mah
maha
mahabharata
mahadan
mahade
mahadewa
mahaji
mahakam
mahal
mahambe
mahan
mahann
mahante
mahanya
mahar
mahara
maharaja
mahardika
mahas
mahasiswa
mahasisya
mahatu
mahatur
mahaturan
mahe
mahes
mahi
mahide
mahiku
mahil
mahin
mahipahe
mahirib
mahirin
mahkota
mahu
mahude
mahul
mahumah
mahun
mahurip
mahusun
mahuttama
mai
maibukota
maiklim
mailehan
maimbuh
main
maine
maint
maitung
maja
majajar
majalah
majalan
majalann
majalaran
majalengka
majan
majapa
majapahit
majar
majaya
majayama
majayan
majayara
maje
majelis
majemuk
majeng
major
maju
majujuk
mak
maka
makaad
makacakan
makada
makadadua
makadadwa
makadasar
makadi
makadin
makadinn
makahad
makahukud
makaka
makakalih
makakawin
makake
makal
makalah
makalan
makalin
makaloloh
makam
makambe
makamiwah
makampuh
makan
makanan
makante
makanya
makaon
makapan
makapatpat
makaput
makar
makaronan
makarya
makas
makasa
makasami
makasan
makasar
makase
makassar
makasur
makatang
makate
makaukan
makawinan
makayun
makbe
makbur
make
makeber
makecog
makecos
makeh
makehan
makejang
makekalih
makelid
makelo
makelone
makena
makeneh
makepung
maker
makes
makesiab
makhluk
makihkih
makikih
makil
makilit
makin
making
makir
makire
makirig
makisid
makita
makjaŋ
makjaŋn
makle
makmur
makn
makna
makne
makr
makran
makrana
maks
makta
maku
makuasa
makudang
makumpul
makur
makurenan
makweh
mal
mala
malabuh
malaga
malah
malahib
malaib
malajah
malajahin
malaka
malakar
malaks
malaksana
malali
malam
malan
malancaran
malang
malar
malarapan
malat
malawi
malay
malaya
malayar
malaysia
malayu
male
mali
malianan
malih
maliha
malik
malin
malinau
maling
malinggih
malipe
malipetan
maliŋ
maliŋmagun
maloe
malta
malu
maluan
maluku
malun
malungguh
mam
mama
mamaca
mamage
mamahan
mamahi
mamal
mamalia
mamaling
mamaliŋ
maman
mamanah
mamane
mamanis
mamanjak
mamante
mamar
mamarga
mamargi
mamas
mamasa
mamati
mamatu
mambal
mambang
mambe
mamberamo
mambuh
mambur
mame
mamen
mami
mamilih
mamin
mamindah
mamine
mamir
mamisuh
mammoth
mamon
mamotoh
mampe
mampir
mampu
mampuh
mamr
mamrih
mamu
mamuja
mamuju
mamula
mamulih
mamulisah
mamun
mamunyi
mamurda
mamus
mamusuh
man
mana
manadi
manado
manados
manadosang
management
managih
manah
manahe
manahin
manahipune
manahnya
manajemen
manajer
manak
manampe
manampi
manan
manandan
manandin
manangis
manas
manawa
manawi
manca
manchester
mand
manda
mandala
mandalika
mandar
mandara
mande
mandi
mandiraja
mandiri
mandor
mandu
mandus
mane
maneman
manen
mang
manga
mangan
mangandika
mangaturang
mangda
mangdane
mangde
mangden
mange
manggala
manggarai
manggeh
manggih
manggihin
manggis
mangguh
mangiring
mangkin
mangku
mangkubumi
mangrove
mangu
manguharjo
mangumbara
mangut
mani
manih
manik
manika
manike
manila
manimbal
manin
manine
maninjau
maninne
manipun
manira
manis
manise
manisme
manisn
manitah
maniŋ
manjus
manke
manman
mann
manokwari
manolih
manon
manonton
manpan
manr
manta
mantan
mante
manten
manteri
mantra
mantri
mantring
mantu
mantuk
mantuka
mantuks
manu
manual
manuel
manuh
manuju
manuk
manulun
manumadi
manun
manunas
manunasaŋ
manunggal
manus
manusa
manusane
manuscript
manusia
manuskrip
manut
manutin
manutug
manutur
many
manya
manyama
manyi
maosang
map
mapa
mapaica
mapaiketan
mapajar
mapaje
mapamit
mapamitn
mapan
mapangenan
mapanggang
mapar
maparab
maparinama
mapasah
mapasangan
mapasen
mapayas
mape
maperang
mapese
mapesengan
mapeta
mapi
mapidarta
mapikayun
mapikolih
mapin
mapine
mapineh
mapinunas
mapite
mapitulung
mapitutur
maple
mapr
maps
mapu
mapun
mapunduh
mapupul
mapuspata
maputra
mar
mara
maraab
marabian
maraga
marah
marajah
marakarma
maran
maranin
marapi
marar
mararian
maras
marasa
maratengan
marc
march
mare
maren
marep
mareren
marerod
maret
marga
margaluyu
margane
margarana
margaret
margasari
margasatwa
margi
margine
margo
margomulyo
margorejo
mari
maria
marie
marika
mariki
marilah
marin
marine
maring
mario
maris
maritime
mariŋ
mariŋhati
mariŋje
mariŋkawah
mariŋluhur
mariŋn
mariŋna
mariŋpan
mariŋs
mariŋsan
mariŋsira
mariŋswar
mariŋtaman
mariŋte
mark
markas
market
markup
markus
maroko
maron
maros
married
mars
marshall
marti
martin
martinus
maru
maruke
marupa
mary
maryland
marzuki
mas
masa
masahur
masahut
masaih
masak
masakan
masalah
masalin
masama
masan
masandiŋ
masane
masang
masaput
masar
masare
masari
masasambatan
masasan
masase
masaur
masaut
masawang
masawitra
masawu
masawur
masawut
mase
masehi
masekar
masekolah
maselselan
masem
masemeton
masi
masiat
masih
masike
masikian
masila
masilur
masin
masing
masinlampus
masinmati
masinpati
masinpe
masinpjah
masiram
masisa
masisig
masjid
maskar
masku
maskumambaŋ
masle
masman
masmirah
masoca
masolah
masomah
masoroh
maspipis
mass
massa
massachusetts
massi
master
mastu
masu
masuang
masuara
masube
masucian
masuk
masur
masuryak
masusupan
maswara
maswi
masyarakat
mat
mata
matah
matahari
matake
mataken
matakon
matal
matali
mataluh
matan
matandin
matanding
matanduran
matane
matang
matangi
matann
matanya
matapa
mataram
matatah
matatu
matbat
match
mate
mateges
mategul
matekap
matemahan
matematika
matematikawan
matemu
matetujon
matge
mati
matiang
matianga
matilar
matimati
matimpal
matimpuh
matin
matindih
matinggah
matinggal
matiosan
matir
matitis
matmahan
matoer
matoh
matolihan
matongos
matr
matra
matruh
mattha
matthew
mattiro
matu
matugas
matulak
matun
matunu
matur
matura
maturan
maturut
matutur
matuuh
mau
mauah
maulam
maulang
maumah
maupun
maurip
mautama
mautsaha
mauwah
mawa
mawacana
mawadah
mawadhah
mawah
mawak
mawali
mawan
mawanan
mawang
mawar
mawarah
mawarna
mawarni
mawas
mawasta
mawastan
mawastra
mawastu
mawates
mawatesan
mawe
maweh
mawentuk
maweweh
mawi
mawiguna
mawijaya
mawinan
mawinang
mawis
mawit
mawitin
mawiwaha
mawoh
mawor
mawuwuh
mawuwus
max
may
maya
mayah
mayahan
mayajn
mayaman
mayan
mayang
mayangan
mayas
mayat
mayaŋ
mayeki
mayeku
mayoga
mayogasan
mayor
mayu
mayuda
mayun
mayura
mayus
mayusa
maŋ
maŋn
mba
mbaga
mbah
mbaha
mbahan
mbahe
mbahin
mbahyaŋ
mbak
mbal
mbali
mban
mbang
mbanin
mbar
mbara
mbarakna
mbaran
mbarin
mbas
mbat
mbatan
mbaŋ
mbaŋdu
mbaŋn
mbaŋpan
mbaŋte
mbc
mbe
mbeman
mben
mber
mbha
mbhu
mbi
mbil
mbo
mbok
mbokman
mbokn
mbon
mboŋ
mbu
mbug
mbuh
mbul
mbulan
mbulin
mbun
mbur
mbus
mbusin
mbut
mbuŋ
mc
mce
mcgraw
mcmorris
md
mdal
mdas
mde
mdhe
mdpl
me
meadows
meaning
mearan
measured
mebasa
med
medaging
medal
medali
medan
medang
medem
media
medical
medicinal
medicine
mediterranean
medue
meduwe
meet
mega
megat
megenah
megha
meghga
megibung
meh
mei
meja
meju
meka
mekar
mekarjaya
mekarsari
mekarwangi
mekarya
mekedjang
mekejang
mekel
mekelo
meksiko
meladeni
melah
melaha
melahan
melahang
melaib
melajah
melakar
melaksanakan
melakukan
melalui
melasti
melastoma
melati
melawan
melawi
melaya
melayu
melbourne
meled
meletus
meli
melihat
meling
melinggih
melinting
meliputi
melog
memakai
meman
memang
memanggil
memargi
membaca
membah
membahas
membalas
membangun
membawa
membela
member
memberi
memberikan
membilang
membuang
membuat
membunuh
meme
memebapa
memebapann
memegang
memeluk
memen
memene
memenn
memenne
memenuhi
memete
memikirkan
memiliki
meminta
memohon
mempawah
memperhatikan
mempersembahkan
mempunyai
memutuskan
men
mena
menahan
menak
menakutkan
menang
menangis
menara
menarik
menawi
menbe
mencari
mence
menceritakan
mendagri
mendah
mendapat
mendapatkan
mendekat
mendekati
mendengar
mendengarkan
mendep
menderita
mendoyo
mendung
mene
menek
menemui
menemukan
meneng
menengah
menerima
meng
mengaku
mengalahkan
mengambil
mengapa
mengarang
mengeluarkan
mengenai
mengenal
mengenang
mengetahui
menggantikan
menggunakan
menghadap
menghamba
menghibur
mengikuti
mengiringi
mengkeb
mengundurkan
menguraikan
mengwi
menikah
meninggal
meninggalkan
menipu
menit
menjabat
menjadi
menjaga
menjalani
menjalankan
menjangan
menjawab
menjelma
menmalan
menmande
menolak
menoleh
menolong
menonton
mentas
mentawai
menteng
menteri
mentik
menuju
menulis
menunggu
menunjukkan
menurut
menuruti
menyahut
menyala
menyamai
menyampaikan
menyan
menyapa
menyebabkan
menyembah
menyerah
menyerahkan
meong
merah
merajan
merak
meran
merangin
merangkap
merapi
merasa
meratubhat
merauke
merayu
mercapada
merde
merdeka
mereka
merem
meri
meriah
merika
meriki
merine
merriam
merta
meru
merupakan
mes
mesa
mese
meseh
mesin
mesir
mesjid
meskipun
messi
mesuang
mesuji
met
metaum
mete
meten
meter
metered
metiosan
metode
metro
metropolitan
metu
mewali
mewarna
mewe
meweh
mexico
mgatme
mge
mhan
mi
miara
mibe
mica
micayang
michael
michel
michigan
mickey
microsoft
midar
middle
mide
midhar
midhe
mie
mifflin
migrasi
mih
mihik
mihikn
miik
mijen
mijil
mijilsan
mik
mike
mil
mila
milan
milara
milenium
miliar
milih
milihin
milik
military
milite
militer
miller
million
milu
milun
miman
mimbuh
mimi
mimpi
min
mina
minab
minahasa
minaka
minakadi
minan
minangkabau
mind
mindah
mine
minehin
mineral
mingabungin
mingaruhin
minggu
minguasain
minh
mini
ministro
ministry
minta
mintar
minum
minyak
mir
miragi
mirah
mireng
mirengang
miri
mirib
miribn
mirin
mis
misa
misadia
misan
misi
misin
misiŋ
miskin
miss
missing
missouri
misuh
mit
mita
mitahe
mitan
mite
mitologi
mitra
mituturin
miwah
miyar
miyik
miŋ
mk
mka
mkar
mke
mkul
mla
mladprana
mlah
mlahib
mlaib
mlajah
mlajahin
mlaks
mlali
mlan
mlati
mle
mlih
mlin
mlinggih
mm
mma
mmabuddhi
mmadhya
mmahan
mmajati
mmal
mmala
mmalaks
mmalih
mmalin
mmaman
mmamar
mman
mmane
mmanen
mmanin
mmann
mmapa
mmaphala
mmaputra
mmar
mmas
mmasa
mmasadhana
mmasadhu
mmawan
mmawas
mmaya
mmayas
mmayuda
mmayuddha
mmayudha
mme
mmi
mmika
mn
mna
mnan
mnaŋ
mne
mnekan
mnimbal
mnuh
mnya
mo
mobil
mobot
mode
model
modern
modre
modung
moeah
moeani
moelih
moenggah
moenggoehing
moewah
moga
mogha
mografi
moh
moha
mohammad
mohon
mojar
mojo
mojokerto
mojorejo
mojoroto
mojosari
mokaŋ
mokoh
mokrasi
mokratik
mokratis
moks
moksa
molah
molecular
molih
molihang
momo
mon
monaco
monash
mondr
monetary
mongolia
mongondow
monin
monitoring
monjok
montana
monte
month
montong
montor
monume
monumen
moon
moore
mor
morahan
more
morfologi
morgan
morning
morocco
morowali
morss
most
motah
mother
motif
motilal
motogp
motor
motore
motto
mount
mountain
mountains
moutong
movie
movies
mowani
moyo
moŋ
mpa
mpag
mpah
mpak
mpaka
mpal
mpalin
mpan
mpana
mpar
mpariŋ
mpas
mpat
mpatan
mpaŋ
mpe
mpen
mpi
mpih
mpir
mpisan
mpiŋ
mpon
mponin
mpor
mpu
mpudhan
mpug
mpuh
mpuhan
mpuk
mpul
mpun
mpuna
mpunan
mpunaŋbe
mpunaŋn
mpunban
mpunbe
mpunbudal
mpundoh
mpunhan
mpunhe
mpunhida
mpunhuniŋ
mpunika
mpunka
mpunkapan
mpunkatur
mpunke
mpunlami
mpunlan
mpunle
mpunlin
mpunma
mpunmalih
mpunmalin
mpunmama
mpunmamar
mpunman
mpunme
mpunmun
mpunn
mpunpasti
mpunpe
mpunpolih
mpunpra
mpunprapta
mpunprapti
mpunpuput
mpunr
mpunrawuh
mpuns
mpunse
mpunsinah
mpuntampe
mpunte
mpunwe
mpunwente
mpur
mpura
mpuran
mpuri
mpus
mput
mputih
mpuyaŋ
mpuŋ
mpwan
mpyah
mpyar
mpyaŋ
mr
mra
mraga
mraginain
mrah
mraja
mrakih
mran
mrarisman
mrarisn
mras
mrasa
mrasidayang
mre
mrentah
mresidayang
mretawati
mrih
mrik
mrika
mriki
mrikmin
mriŋ
mriŋn
mruh
mrum
ms
msa
msami
msan
msar
mse
msk
msl
mt
mtan
mte
mtm
mtu
mtur
mu
mua
muah
mualang
muane
muang
muani
muara
muaro
much
muda
mudah
mudeungsan
mudi
mudita
mudittha
muguyu
muh
muhamad
muhammad
muhammadiyah
muhas
muje
muk
muka
muke
mukerjee
mukesh
muks
mukti
mul
mula
mulai
mulan
mulara
mulat
mulia
mulih
mulihan
mulisah
multi
multime
multiple
muluk
mulus
muluŋ
mulya
mulyasari
mulyawan
mulyo
mulyorejo
mumbai
mumbul
mun
muna
munah
muncan
muncar
muncrat
muncuk
mundeh
mundhur
munduk
mundur
mune
munggah
munggu
mungguh
mungguing
mungil
mungkin
mungpung
muni
munich
munisipalitas
muntab
munyi
munyin
munyine
munyinne
muponin
mupu
mupuh
muput
muputang
mur
murah
murahayu
murda
murid
muridnya
murip
murni
murti
muru
murub
murung
mus
musa
musan
muse
museum
musi
music
musical
musik
musikal
musim
musisi
muslim
musti
musuh
musuhe
mut
mutan
mute
mutiara
mutis
muun
muwah
muwani
muwas
muwuh
muwus
muŋ
muŋn
mv
mwa
mwah
mwake
mwan
mwang
mwani
mwar
mwas
mwaŋ
mwaŋbhat
mwaŋhan
mwaŋman
mwaŋn
mwaŋpan
mwaŋs
mwaŋsan
mwaŋsar
my
mya
myan
myana
myanmar
myar
mydramalist
mystery
myth
myung
n
na
naa
naanang
naanin
naar
naban
nabdabang
nabdabaŋ
nabe
nabha
nabhi
nabhihilir
nabhimuhamad
nabi
nabuh
nacional
nada
nadah
nadak
nadaksara
nadhah
nadi
nadyan
nae
naejangsan
naen
naenin
nafsu
naga
nagane
nagantun
nagapasa
nagara
nagari
nagasari
nage
nagekeo
nagih
nagin
nagingin
nah
naha
nahaman
nahan
nahar
nahaŋ
nahe
nahen
nahin
nahira
naik
nak
naka
nakaguŋ
nakaguŋn
nakan
nake
nakenin
nakin
nakn
nakonang
nakonin
naks
nakula
nal
nala
nalan
nalwir
nam
nama
namah
namalih
naman
namaniŋkapat
namanya
namar
namas
namatil
nambanin
nambo
name
named
names
nami
namma
namo
nampa
nampah
nampe
nampek
nampekin
nampi
nampung
namun
nan
nana
nanah
nanak
nanakgaluh
nanan
nanang
nanaŋse
nandaka
nandan
nandang
nande
nandin
nandingin
nandur
nane
nanelwir
nanem
naneman
nanen
nang
nanga
nanggala
nanging
nangis
nangka
nangkil
nangun
nangunsatkertilokabali
nanhida
nani
nanin
nanira
nann
nanne
nanti
nanya
napa
napak
napan
napatih
nape
napi
napihan
napike
napikran
napimalih
napo
napoleon
napu
napun
nar
nara
narada
narajana
naraka
naran
narana
narapati
narayan
nare
narendra
narendran
nares
nari
narima
nario
narmada
narodowego
narodowy
naru
nas
nasa
nasak
nasan
nascar
nasdem
nase
nasi
nasihat
nasine
nasional
naskah
nasution
nat
nata
natah
natahe
natal
natan
natar
nate
natha
nathan
nation
national
nationalpark
nations
natuna
natural
nature
naur
naval
naver
navsource
navy
nawa
nawan
nawang
nawar
nawasan
nawaŋ
nawaŋs
nawaŋtr
nawaŋtran
nawe
nawegang
nawi
nawiwente
nawur
nawurin
naya
nayan
nayanamah
nayaŋ
nazi
naŋ
naŋa
naŋhan
naŋman
naŋn
nba
nban
nbapa
nbe
nbhat
nbhi
nbhis
nce
nchen
nd
nda
ndag
ndagin
ndagri
ndagsu
ndah
ndak
ndakin
ndaks
ndaktin
ndal
ndala
ndan
ndana
ndansaŋna
ndao
ndar
ndas
ndatan
ndatankawar
ndawe
ndawuh
ndawwa
ndaŋ
ndaŋge
nde
ndemik
nden
nder
nderal
ndewi
ndez
ndha
ndhar
ndhe
ndhi
ndhih
ndhis
ndhiŋ
ndhu
ndhuh
ndi
ndih
ndihun
ndika
ndikaharis
ndil
ndiman
ndin
ndipr
ndiri
ndis
ndisan
nditu
ndiŋ
ndo
ndon
ndonesiya
ndong
ndonin
ndonjurit
ndra
ndriya
ndu
nduh
nduk
ndul
ndulu
ndun
ndur
ndusin
ndut
nduŋ
ndya
ne
near
neban
nebe
neben
nebuk
nece
neda
nedadwa
nede
nedeng
nederland
nederlandsch
nedunang
negak
negakin
negara
negari
nege
negen
negeri
neglasari
neh
neha
nehada
nehan
nehe
nehistri
nehluh
neja
nejani
nejanin
nejati
neje
nek
neka
nekaku
nekan
nekapan
nekase
nekawuwus
nekaŋ
neke
neked
neki
nekocap
neku
nel
nelahang
nelan
nelasang
nelokin
nelson
neluh
nem
nema
nemabalih
nemadan
nemakran
nemalih
nemalu
neman
nemaparab
nemar
nemawa
nemawas
neme
nemlah
nemoe
nemu
nemun
nemwani
nemwanin
nen
nena
nenan
nene
nenejani
nenem
neneman
nenen
nengah
nengil
nenon
nente
nenten
nentuang
nepa
nepal
nepan
nepatu
nepatut
nepe
nepukin
nepunika
nepuniku
neputih
ner
nerahayu
neraka
nerawuh
nerima
nes
nesa
nesami
nesar
nese
nesinah
nesuba
nesuja
nesujati
net
netate
nete
netflix
netherlands
netr
netra
netwah
network
neuer
never
new
newe
newente
newfoundland
news
newsen
next
neŋ
neŋmar
neŋn
ng
nga
ngaba
ngabe
ngacakupin
ngacangkupin
ngacihnain
ngada
ngadagingin
ngadakang
ngadeg
ngadegang
ngaden
ngadep
ngadirejo
ngadjak
ngadol
ngadu
ngae
ngaglik
ngah
ngajabat
ngajaga
ngajahin
ngajak
ngajakin
ngajangkepin
ngajeng
ngajengang
ngajuang
ngak
ngakoe
ngaksi
ngaku
ngalahang
ngalahin
ngalaksanayang
ngalantur
ngalanturang
ngalap
ngalawan
ngale
ngalih
ngalihang
ngalihin
ngaluh
ngamah
ngamainang
ngamargiang
ngamatiang
ngambar
ngambarang
ngambil
ngamedalang
ngamenangang
ngamiletin
ngamolihang
ngamong
ngan
ngancan
ngandang
ngandika
ngandikaang
ngandikain
ngandikayang
ngando
ngandong
ngang
ngangge
nganggit
nganggo
nganggon
nganggur
nganginang
ngangsan
nganikain
nganikayang
nganjuk
ngante
nganteg
nganten
ngantenang
nganti
ngantiang
ngantos
ngantosang
nganutin
ngaonang
ngapentang
ngapidartayang
ngapus
ngara
ngaraga
ngarai
ngaran
ngaranayang
ngaranjing
ngardi
ngarepin
ngarereh
ngari
ngaripta
ngaryanang
ngaryanin
ngasa
ngasih
ngasilang
ngasorang
ngatonang
ngatur
ngaturang
ngaturin
ngaukin
ngawag
ngawagi
ngawakilin
ngawangun
ngawantu
ngawarsa
ngawe
ngawedar
ngawentuk
ngawi
ngawinan
ngawinang
ngawit
ngawitin
ngayah
ngayahin
nge
ngebekin
ngebug
ngede
ngejang
ngejer
ngejuk
ngelah
ngelahang
ngelaksanayang
ngelangi
ngelanturang
ngelarang
ngelawan
ngeling
ngelur
ngelut
ngemaang
ngemargiang
ngemasin
ngematiang
ngembak
ngemban
ngembeng
ngemit
ngemplak
ngenah
ngenahang
ngencolang
ngendih
ngendika
ngene
ngenehang
ngenggalang
ngengkebang
ngenken
ngentasin
ngentosin
ngepung
ngeranayang
ngeranjing
ngerereh
nget
ngeton
ngetor
ngewakilin
ngewangun
ngewantu
nggal
nggala
nggalan
nggalang
nggalek
nggih
ngicain
ngicalang
ngice
ngicen
ngicenin
ngidang
ngidepang
ngidih
ngigel
ngilehin
ngin
nginan
ngindang
nginem
nginep
ngintip
ngipi
ngirim
ngiring
ngiringang
ngis
ngisep
ngisi
ngisinin
ngiterin
ngitung
ngitungang
ngiwasin
ngjabat
ngke
nglaksanayang
nglantas
nglantur
nglanturang
nglaut
nglawan
nglimbak
nglungsur
ngmolihang
ngoda
ngoeda
ngojog
ngolah
ngomong
ngon
ngongkong
ngoraang
ngorahang
ngorahin
ngoyong
ngr
ngranang
ngranayang
ngranjing
ngraos
ngraris
ngrasa
ngrasayang
ngrawes
ngrebut
ngrengkeng
ngrereh
ngripta
ngu
ngubadin
ngucap
ngucapang
nguda
ngudiang
ngugu
ngulah
ngulangunin
nguluk
ngulurin
ngumbara
ngumi
ngumumang
ngun
ngundang
ngungsi
nguni
nguningang
nguningayang
nguningin
nguntul
ngupapira
ngurah
ngusak
ngusud
ngutamayang
ngutang
ngutus
ngwace
ngwakilin
ngwales
ngwangun
ngwantu
ngwetuang
nh
nha
nhajum
nhan
nhanak
nhar
nhas
nhati
nhe
nhida
nhika
nhiku
nhin
nhipun
nhor
nhujar
nhuniŋ
nhurip
ni
nia
nias
nica
nice
nicholas
nicilinaya
nida
nidra
nidukuh
nigeria
night
nigtig
nih
nihan
nihe
nijhoff
nik
nika
nikahan
nikain
nikan
nikasami
nikawantah
nikayang
nike
nikel
niki
niklin
niks
niktut
niku
nil
nila
nilacandra
nilai
nilapaksa
nilar
nilimbur
nilotama
niluh
nima
niman
nimba
nimbal
nin
nina
nincapang
nindih
nindihin
nine
ning
ningalin
ningeh
ningehang
ninggal
ninggalin
nini
nior
nipan
nipoene
nipun
nir
nira
niraman
niran
nirane
nirartha
niras
nireki
nirmala
nirnaya
nis
nisa
nisan
niska
niskala
nista
nistri
nistritan
nisumma
nit
nita
nitah
nitahang
niti
nitih
nitya
nium
niwar
niweh
niyaks
niyaŋ
niŋ
niŋbagus
niŋhati
niŋhe
niŋl
niŋma
niŋman
niŋmanah
niŋme
niŋn
niŋpan
niŋra
niŋs
niŋsa
nja
njai
njak
njambat
njang
njawan
njawane
nje
njet
njo
njor
nka
nkalih
nkan
nkane
nkante
nkapan
nkar
nkari
nkas
nkawar
nkayun
nke
nken
nkocap
nku
nl
nla
nlan
nlara
nle
nlin
nlun
nma
nmabalih
nmalih
nmaman
nman
nmanah
nmantri
nmar
nmark
nmatur
nme
nmirah
nmiwah
nmu
nmukaje
nmun
nmusuh
nn
nna
nnah
nnahe
nnan
nne
nnen
nni
nnin
nnira
nnium
nnya
nnyane
no
noaa
nobe
nobel
noetoerang
noh
nohan
nolih
nom
nome
nomenclature
nomer
nomina
nominasi
nomination
nominations
nominees
nomor
non
nonaktif
nongos
nongosin
nonton
nope
nor
nora
norahar
noran
norana
norapan
norawan
norawente
norawruh
normal
norman
north
northern
norwegia
not
note
notes
nottingham
nov
nova
nove
novel
november
now
npa
npaks
npan
npar
npasar
npatih
npe
npisan
npolih
npr
nps
npu
npun
npunika
nputih
nr
nra
nraka
nran
nras
nratu
nraweya
nrawuh
nre
nriŋ
nrus
ns
nsa
nsah
nsami
nsampun
nsan
nsanen
nsantanumu
nsar
nsaŋna
nse
nsi
nsih
nsiklope
nsin
nsinah
nsipi
nsira
nsisip
nsklb
nsuci
nsun
nsus
nt
nta
ntah
ntahan
ntak
ntaka
ntake
ntal
ntan
ntana
ntap
ntar
ntara
ntas
ntasan
ntasin
ntaŋ
ntaŋpanah
ntb
nte
nten
ntenan
ntenang
nter
nti
ntige
ntihar
ntik
ntikan
ntin
ntina
ntinin
ntip
ntir
ntityan
ntityaŋ
ntityaŋman
ntityaŋn
ntiŋ
nto
ntohan
ntohe
ntohin
ntojani
ntokaran
ntoke
ntokran
ntoma
ntomadan
ntomake
ntomakran
ntoman
ntomasih
nton
ntone
ntonen
ntopa
ntopan
ntor
ntos
ntosan
ntosin
ntosinah
ntotwah
ntra
ntri
ntt
ntu
ntud
ntugan
ntuh
ntuk
ntul
ntun
ntur
nturan
ntya
ntyan
nu
nuclear
nudin
nuduh
nuduk
nudut
nuge
nugini
nugraha
nugroho
nuh
nuhidup
nuhun
nuhur
nuju
nujuang
nujus
nuklir
nulak
nuli
nulih
nulin
nulis
nuluh
nulun
nulung
nulungin
nulus
nuluŋ
nulya
nulyaglisman
nulyahan
nulyahin
nulyama
nulyaman
nulyan
nulyasar
num
numa
numadi
numan
numbas
number
numbers
numeric
numitis
nun
nuna
nunas
nunasang
nunasaŋ
nunaslugr
nunaslugra
nunasman
nunaspan
nunastir
nunavut
nunde
nunden
nungkul
nuntun
nunukan
nunun
nur
nura
nuri
nurun
nurut
nus
nusa
nusabali
nusantara
nusontara
nussbaum
nut
nutug
nutugang
nutur
nuturang
nuturaŋ
nuturin
nuunang
nuut
nuŋ
nwa
nwan
nwar
nwe
nwente
nwis
nwr
ny
nya
nyabran
nyadia
nyadiayang
nyaga
nyagjag
nyagjagin
nyahakti
nyahan
nyai
nyaibin
nyaine
nyak
nyakan
nyakit
nyakitin
nyalanang
nyalang
nyalian
nyaluk
nyama
nyaman
nyamane
nyambat
nyambatang
nyambu
nyan
nyanan
nyandang
nyane
nyang
nyangetang
nyangga
nyanggra
nyanpan
nyansan
nyantos
nyapa
nyarengin
nyaritayang
nyaru
nyas
nyat
nyata
nyatur
nyaup
nyaurin
nyautin
nyawa
nyawan
nyawis
nyaŋ
nye
nyemak
nyembah
nyen
nyeneng
nyepi
nyerahang
nyerang
nyerit
nyidaang
nyidang
nyidayang
nyihnayang
nyilem
nyilih
nyimpen
nyinahang
nyingak
nyingakin
nyobyahang
nyolahang
nyoman
nyongkok
nyonya
nyonyah
nyritayang
nyuang
nyuh
nyuhe
nyujur
nyumbah
nyumunin
nyurat
nyuratang
nyusup
nyuun
o
ob
obah
obat
obe
obin
objek
obn
obor
observations
oca
ocean
oclc
october
od
oda
odaesan
odag
odagaŋ
odah
oe
oefeto
oejah
oejahe
oekoedan
oela
oelam
oeled
oeli
oemah
oendagi
oendoek
oeng
oening
of
off
office
official
ogan
ogoh
ograpi
ograpis
oh
ohashi
ohio
ojog
ok
oka
okan
okane
okanne
okezone
okin
okinawa
oklahoma
okor
oksidasi
oksige
oktober
ol
olah
olahan
olahaŋ
olahraga
olas
olasin
old
ole
oleh
olih
olimpiade
oliver
ologi
olympic
olympics
om
oma
omah
oman
omansa
omansari
ombak
omma
omong
omoŋ
on
onan
onaŋ
onde
one
ong
ongol
onhin
onin
online
only
onn
ontario
onya
oo
opak
open
openstreetmap
operasi
operator
opi
or
ora
orah
orahang
orahanga
orahaŋ
orahin
oran
orang
orangutan
order
ordo
ore
org
organisasi
organisme
organization
ori
oriental
orientalis
origin
original
origins
orin
oro
orta
orti
ortodoks
os
osa
osah
osaka
osan
oscar
osdini
ose
osen
osin
osman
osn
osprey
ost
ostrali
other
others
otonom
otonomi
otoritas
ottama
otto
our
out
outlook
over
overview
oxford
oŋ
oŋbe
oŋbn
oŋhan
oŋman
oŋn
p
pa
paadolan
pabalih
paban
pabaosan
pabe
pabesen
pabeyan
pable
pabr
pabrik
pabuaran
pabukitan
pac
paca
pacan
pacang
pacar
pacaŋ
pacaŋhan
pacaŋka
pacaŋman
pacaŋmanin
pacaŋme
pacaŋn
pacaŋpan
pacaŋrawuh
pace
pacentokan
pacific
pacing
pacitan
pacung
pad
pada
padagin
padal
padalem
padaman
padamu
padan
padand
padanda
padandha
padang
padangan
padangbai
padangkerta
padangsambian
padar
padas
padasuka
padaŋ
padaŋl
padd
paddha
pade
padem
padet
padewekan
padha
padhahan
padhal
padhama
padhaman
padhame
padhan
padhane
padhas
padhase
padhate
padhe
padhuka
padi
padidi
padidian
padidiana
padidyan
padin
padine
padma
padmana
padmasana
paduan
paduka
padukabhat
padukone
padukuhan
paek
pagae
pagan
pagar
pagawenen
page
pageh
pagelaran
pagending
pagentosan
pages
pagesangan
pagi
pagraky
pagul
pagulin
pagunungan
pagutan
paguyuban
pah
paha
pahan
pahandut
pahang
pahaŋ
pahe
pahin
pahit
pahiŋ
pahlawan
pahote
pahpahan
pahun
pahut
pahyasan
paica
paican
paiketan
paindikan
paistilah
pait
paitungan
paja
pajalan
pajalane
pajalanne
pajar
paje
pajeng
pak
paka
pakai
pakaian
pakalih
pakan
pakar
pakaran
pakarangan
pakarya
pakaryan
pakayun
pakayunan
pakbola
pake
pakeh
pakel
pakeliŋ
pakem
paker
pakerisan
paket
pakewe
pakewuh
pakis
pakistan
pakna
pakne
pakotaan
pakpak
pakr
pakraman
paks
paksa
paksi
paku
pakuan
pal
pala
palan
palangka
palanya
palas
palasari
pale
palem
palemahan
palembang
palestarian
pali
palih
palin
paling
palinggih
paliŋ
paliŋn
palm
palmerah
palmleaf
palopo
palu
palun
palung
palungguh
pam
pama
pamahbah
pamain
pamal
pamali
paman
pamanah
pamanpatih
pamar
pamargi
pamargian
pamargin
pamargine
pamarintah
pamatuh
pambe
pame
pamecutan
pamekaran
pamekasan
pamere
pamerintah
pamerintahan
pamiarsa
pamilet
pamilihan
pamimpin
pamine
pamit
pamona
pamor
pamr
pamragat
pamre
pamreman
pamrentah
pamrentahan
pamu
pamucuk
pamukaan
pamulune
pamun
pamunah
pamunggahan
pamungkas
pamunyin
pamuput
pamuputn
pamuputne
pamutus
pan
pana
panah
panak
panakn
panakne
panama
panan
panas
panawar
panca
pancapuspa
pancasila
pancering
pancoran
pancuran
panda
pandai
pandak
pandan
pandang
pandangan
pandansari
pandawa
pande
pandeglang
pandhya
pandidikan
pandita
pandji
pandu
panduan
pane
panegara
panen
panentuan
panes
pang
pangadeg
pangadegan
pangampura
pangan
pangandaran
pangandika
pangandikan
pangangge
panganggo
pangangon
pangater
pangatur
pangawi
pangawit
pangayah
pangayam
pange
pangelolaan
pangembangan
pangeran
panggang
panggih
panggihin
pangguh
panggung
panggungrejo
panghargaan
pangi
pangidih
pangiring
pangkah
pangkajene
pangkal
pangkalan
pangkalpinang
pangkat
pangkung
pangkur
panglima
panglimbak
panglong
pangripta
panguahan
panguasa
pangucapan
pangupa
pangus
panilikan
panin
panira
panitah
panitia
paniŋ
panj
panjak
panjake
panjang
panjer
panji
panjimarga
panjunan
panmalan
panman
panmande
pann
panon
panraŋ
pans
pansa
panta
pantai
pantan
pantar
pantaraning
pantas
pante
pantes
panthera
panti
pantun
panu
panugrahan
panun
panutur
panya
panyangga
panyatusan
panyerang
panyeroan
panyeroane
panyingakan
panyurat
panyuratan
pao
paon
papa
papage
papak
papan
papar
paparikan
papas
papasan
papat
papate
papatih
pape
paper
papin
papindan
papine
papineh
papitu
papke
paplajahan
papran
papua
par
para
parab
paradisaea
paradise
paraguay
parah
paraharah
parahin
parak
parakan
parama
paraman
paramantri
paramas
parames
parameter
paran
parana
parang
parankar
parapatih
parapun
parapurus
paraputr
paraputri
parar
parara
pararatu
paras
paraŋ
parc
pare
parek
parekan
parekane
pari
pariaman
paribasa
paribasane
parigi
parikanda
parikos
parikrama
pariks
parilaksana
parinama
parindikan
paripolah
paripu
paripur
paris
parisolah
parit
pariwisata
park
parks
parku
parlemen
paro
paroki
parotia
parque
part
partai
partami
partanian
parte
partisan
partnership
party
paru
paruh
paruman
parusak
parwa
pas
pasa
pasah
pasaiban
pasaja
pasal
pasaman
pasamuhan
pasan
pasang
pasangan
pasanggrahan
pasangkayu
pasar
pasaran
pasare
pasaut
pasautne
pasawahan
pasawitran
pasaŋ
pasca
pascasarjana
pase
paseban
pasebaran
pasek
pasekan
pasen
paser
pasi
pasifik
pasih
pasihe
pasikian
pasimpan
pasin
pasir
pasiraman
pasisi
pasisir
paskah
pasme
pasraman
pass
past
pasti
pastika
pasuk
pasukan
pasukwe
pasun
pasupati
pasuruan
pat
pata
patah
pataka
patakon
patala
patan
patapan
pataruman
pate
pateh
patemon
patempuran
patengahan
pati
patibrata
patih
patihan
patihe
patihurip
patika
patikacuh
patike
patil
patimah
patiman
patin
patir
patis
patitis
patjang
patma
patmaja
patoeh
patoet
patoyaan
patoyan
patpat
patra
patrick
patt
patthi
patu
patuh
patuk
patumbuhan
patun
patung
paturu
patut
patute
patutn
patutne
patya
pauh
paul
paulo
paulus
paumahan
paus
pautsahaan
pavo
pawakan
pawakilan
pawan
pawangunan
pawar
pawarah
pawatesan
pawe
paweh
pawestri
pawigunaan
pawikan
pawilan
pawitra
pawiwahan
pawon
paya
payah
payakumbuh
payan
payangan
payas
pays
payu
payudan
payuk
payuke
payuman
payun
payung
paŋ
paŋda
paŋl
paŋman
paŋmun
paŋn
pban
pbb
pbe
pbhat
pc
pcak
pce
pd
pdas
pde
pdf
pdhan
pdhe
pdi
pe
peace
pearanan
pecut
pedagang
pedanda
pedang
pedas
pedati
pedih
pedoman
pedungan
pedurungan
pegat
pegawai
pegunungan
peguyangan
peh
pejabat
pejah
pejang
pejanga
pejani
pejuang
pekak
pekalongan
pekan
pekanbaru
pekandelan
pekarangan
pekaryan
pekase
peken
pekerjaan
pekon
pekraman
pekutatan
pelabuhan
pelag
pelaga
pelajaran
pelaksana
pelaliyanan
pelan
pelantikan
pelatih
pelawa
pelawak
pelestarian
pelih
pelinggih
pelita
peloenggoeh
peluh
pelukis
pelung
pemain
pemalang
peman
pemandangan
pemangku
pemargin
pemaron
pematang
pembaca
pembalap
pembangunan
pembantu
pembentukan
pemberian
pemberontakan
pembinaan
pembukaan
pemecutan
pemekaran
pemenang
pemeran
pemere
pemerintah
pemerintahan
pemilihan
pemilu
pemimpin
pempatan
pemuda
pemutakhiran
pemuteran
pen
penajam
penampilan
penanggalan
penari
penarukan
penataran
penatih
pencak
pencar
pencipta
pencutetan
pendah
pendatang
pendek
pendem
pendeta
pendidikan
pendidikanbahasabali
pendiri
penduduk
pendukung
penebel
penek
peneliti
penelitian
penemu
penerbit
penerbitan
penerima
penetapan
pengadilan
pengajuan
pengangge
pengantar
pengarang
pengaruh
pengawi
pengelolaan
pengembangan
pengetahuan
pengganti
pengguna
penggunaan
penghargaan
pengobatan
penguasa
pengucapan
pengucapang
penguin
pengumuman
pengusaha
penida
peninggalan
penjabat
penjajahan
pennsylvania
pente
penting
penugasan
penuh
penulis
penulisan
penyair
penyakit
penyanyi
penyeneneng
penyeneng
penyu
people
pepaosan
peparikan
pepatih
pepek
peperangan
pepes
per
pera
peraboe
perabot
peragat
perahu
perairan
perak
peran
perancis
peranda
perang
perangkat
perasaan
peraturan
perayaan
perbekel
perbuatan
percaya
perda
perdana
pere
perempuan
perencanaan
pergi
perguruan
perhimpunan
peribahasa
pering
peringatan
peringkat
perintah
period
periode
periodic
periplus
peristiwa
perjalanan
perjanjian
perjuangan
perkataan
perkembangan
perkotaan
perlu
permai
permainan
permaisuri
permanen
permata
permendagri
permintaan
permisi
permukaan
pernah
pernikahan
perolehan
perpres
perpustakaan
pers
persatuan
perse
persebaya
persegi
persen
perserikatan
persi
persia
persiapan
persib
persija
person
personel
perspective
pertahanan
pertama
pertandingan
pertanian
pertempuran
pertengahan
pertiwi
peru
perubahan
perunggu
perusahaan
perut
perwakilan
perwira
pesan
pesane
pesanggaran
pesanggrahan
pesantre
pesawaran
pesawat
pese
peserta
pesisi
pesisir
pesona
pesta
pesu
pet
peta
petahana
petak
petamburan
petang
petani
petanu
pete
peteng
petenge
petengne
peter
peti
petine
petir
petra
petrus
petung
petunjuk
pewarigaan
pgat
pge
pgri
ph
pha
phala
phalakar
phalan
phalann
phalanya
phat
phathi
phatmaja
phd
philip
philippines
philosophy
photo
photos
php
pht
physical
physics
pi
piagam
piala
pianak
pianake
pianakipoene
pianakne
pianaknyane
picture
pictures
pidabdab
pidada
pidan
pidar
pidarta
pidhar
pidie
pidit
pidpid
pierre
pih
pihuniŋ
pije
pikante
pikat
pikatan
pikayun
pikayunan
pike
pikir
pikiran
pikirannya
pikirkan
pikobet
pikolih
pikukuh
pil
pilem
pilgub
pilih
pilihan
pilihin
pilkada
pimpin
pimpinan
pin
pina
pinah
pinaka
pinan
pinanah
pinang
pinanggal
pinar
pinayun
pinda
pindah
pindang
pindo
pine
pineh
pinehin
ping
pingaruh
pinggang
pinggir
pingit
pinih
pinocchio
pinoedjoe
pinoh
pinrang
pins
pinte
pintu
pinu
pinun
pinunas
pinunastityan
pinupuh
pinyin
piodalan
pipi
pipih
pipis
pipise
pipisne
pir
pira
piranti
piring
pis
pisa
pisaga
pisagane
pisah
pisan
pisang
pisangan
pisanman
pisann
pisanpisan
pisarat
pisau
pise
pisiriŋ
pisode
pit
pita
pitar
pitara
pite
pitehan
piteket
pitge
pitik
pitke
pitr
pitra
pitrayajn
pitresnan
pitu
pituduh
pitulas
pitun
pitung
pitutu
pitutur
piwal
pixar
piŋ
piŋdas
piŋhe
piŋkalih
piŋne
piŋsan
piŋte
piŋtiga
pj
pjah
pje
pjs
pka
pkan
pkb
pke
pki
pkik
pku
pl
place
places
plajahin
plalianan
plan
plane
planet
plant
plantarum
plants
plaosan
plastik
plate
platinum
platje
play
playen
player
players
ple
plekutus
plh
plih
ploso
plt
plug
pluh
plumbon
plun
plus
pluto
plutonium
pma
pmalih
pman
pmc
pme
pmid
pmun
pn
pna
pnas
pne
pnin
pnj
pnuh
pnya
po
poco
pocol
poelisine
poem
poenapi
poenika
poenjan
poerni
poet
poetih
poh
pohon
pohuwato
poin
point
pojok
pok
pokan
pokok
pol
pola
polah
polahe
polandia
pole
poleng
polewali
policy
polih
poline
polish
polisi
politeknik
political
politics
politik
politikus
politisi
polo
polos
polri
poma
pon
pondok
pondokne
pongah
ponorogo
pontianak
pop
popular
populasi
population
populer
por
port
portal
portugal
portugis
portuguese
pos
posisi
position
poso
post
pot
potato
potensi
poto
potret
power
poz
pp
ppa
ppan
ppati
ppdb
ppe
ppen
ppi
pr
pra
prabe
prabha
prabhu
prabhuhajidhar
prabhukr
prabhusun
prabke
prabot
prabu
prabumulih
prada
pradana
prade
prades
pradn
pradnyan
pragat
pragina
prah
prahayu
prahu
praja
prajani
prajaya
prajn
prajurit
prajuru
praka
prakan
prakos
prakr
pralambang
pralin
pralina
prama
praman
pramana
pramangkin
pramas
prambanan
prame
prames
prami
pramis
pramisuari
pramiswari
pramuka
pran
prana
pranala
pranamya
prancis
pranda
prapan
prapat
prapta
praptan
prapti
prapun
prara
pras
prasa
prasama
prasamaman
prasan
prasasti
prasi
prasida
prasiddha
praspan
prasta
pratama
pratana
pratin
pratis
pratiwi
pratyaks
prau
prawate
prawi
prawira
prawr
praya
prayaman
prayan
prayas
prayatna
praŋ
pre
precaya
prefecture
prembon
premier
prentah
present
presenter
presiden
president
press
pri
pribadi
prih
prima
prime
primer
prin
prince
princess
princeton
pringsewu
priok
pripih
pritiwi
private
prix
priya
prize
priŋ
pro
probolinggo
proceedings
prodeskel
producers
production
productions
produk
produksi
produser
prof
profe
profesional
profesor
profil
profile
progo
program
programme
project
proklamasi
pronouncing
pronunciation
prop
properties
propinsi
prosa
prose
prosea
proses
prospects
prote
protected
protectedplanet
protection
prov
province
provinces
provinsi
proye
proyek
ps
psa
psami
psampun
psan
psar
psari
pse
psen
psir
psm
pss
pssi
psu
psumun
pt
pta
ptak
ptan
ptaŋdas
pte
pti
ptil
pu
puan
public
publications
publik
publika
published
publisher
publishers
publishing
pucak
pucuk
pucung
pucuŋ
pudak
puebloan
puerto
pug
puguh
puh
puhun
puisi
puja
pujangga
pujawali
puji
pujungan
pujut
puk
pukin
pukuh
pukul
pukulun
pul
pula
pulaki
pulang
pulasahi
pulau
pulauwan
pule
pules
pulih
pulo
pulosari
pulu
puluh
pulung
pulutan
pun
puna
punagi
punah
punan
punang
punapa
punapi
punapimalih
punar
puncak
punduh
punggawa
pungkur
pungkuran
punglor
puni
punia
punic
punik
punika
punikahan
punikamalih
punikaman
punikan
punikar
punikawantah
puniki
punikiwente
puniku
puns
punsmar
punta
puntajrudeh
punya
punyah
punyan
pupu
pupuan
pupuh
pupulan
pupur
puput
puputan
puputkasura
puputkasurat
puputman
puputn
puputpan
puputsa
puputsami
puputsinura
puputsinurat
puputwantah
pur
pura
purana
purbakala
purbalingga
purbawyadnyana
purbawyanjana
pure
puri
purian
purin
purine
puring
purn
purna
purnama
puru
purun
purunn
purus
purusa
purwa
purwakarta
purwo
purwodadi
purwoharjo
purwokerto
purworejo
purwosari
pus
pusaka
pusat
pusatdata
puse
puseh
puskesmas
puspa
pustaka
pusuh
pusun
put
putat
pute
putera
putih
putin
putr
putra
putran
putrane
putranya
putraraja
putri
putrin
putu
putun
putunin
putus
putusan
puun
puyung
puyuŋ
puŋ
pwa
pwan
pwasira
pwetan
pya
pyaar
pyanak
pyanakn
pyanaks
pyar
pyo
python
q
qatar
que
queen
queensland
quixotte
r
ra
raab
rab
raba
rabawu
rabhat
rabi
rabin
rabine
rabinne
rabra
rabrahma
rabu
race
racun
rada
radadhu
radar
rade
raden
radena
radenar
radenban
radenbhi
radendewi
radendewin
radendewya
radengaluh
radenhambar
radenhinukar
radenkalih
radenma
radenmantri
radenmantriman
radenmantrin
radens
radensur
radhar
radhennaras
radin
radio
radioaktip
rady
rag
raga
ragam
ragan
ragane
raganin
ragas
rage
ragga
raghga
ragi
ragu
raguru
ragurun
rah
raha
rahade
rahaden
rahadena
rahadenbhi
rahadendewi
rahadendewin
rahadengaluh
rahadenma
rahadenman
rahadenmantri
rahadenmantrihan
rahadenmantrin
rahadensur
rahadian
rahadyan
rahadyange
rahadyanman
rahajoe
rahan
rahar
raharja
rahas
rahat
rahayu
rahaŋ
rahaŋhawak
rahe
rahi
rahin
rahina
rahinan
rahinane
rahinawe
rahinawn
rahman
rahmat
rahuh
rahul
rahwana
rai
raih
raijua
rain
raina
raj
raja
rajabasa
rajah
rajahindrasyah
rajajohansyah
rajan
rajapala
rajaputr
rajaputra
rajas
raje
rajeg
rak
raka
rakabeh
rakan
rakandha
rakane
rake
raket
rakn
rakna
rakr
rakryan
rakryanpatih
raks
raksasa
raksasane
rakta
rakumpit
rakyat
ral
ram
rama
ramah
ramaha
ramai
raman
ramayana
rambu
rambut
rame
rami
ramma
ramo
rampe
ramping
ramsar
ramya
ran
rana
ranah
ranak
ranayaŋ
rancage
rancangan
random
rane
rang
rangan
rangda
range
rangga
rangka
rangkaian
rangsasa
rani
ranin
ranipun
ranira
ranjani
ranking
ranku
rann
rans
ranta
rantau
rante
ranti
rantun
ranya
raoeh
raos
raosang
raosne
rap
rapa
rapan
rapati
rape
rappang
rapper
rapuh
rar
rara
rarajonti
rarama
raraman
raran
rararisn
raras
rare
rarehan
raren
rarenan
rarene
rari
raris
rarisang
rarisban
rarisbudal
rarisdaneman
rarisdanen
rarisge
rarishan
rarishida
rarishidamamar
rarishidaman
rarishidan
rariska
rariskapuri
rariske
rarisma
rarismalih
rarismalin
rarismama
rarismamar
rarisman
rarismantuk
rarismatu
rarismatur
rarisme
rarismun
rarisn
rarisnan
rarisne
rarispar
rarispe
rarispraman
rarisrawuh
rariste
rariswente
rarud
ras
rasa
rasami
rasan
rasane
rasanin
rasann
rasannyane
rasanya
rasayaŋ
rasbora
rase
rasi
rasio
rasione
rasionyane
rasu
rat
rata
ratan
rate
rateng
ratha
ratih
ratio
ration
ratna
ratoe
raton
ratri
rattha
ratu
ratubhat
ratudewa
ratudewahaguŋ
ratugustintityaŋ
ratuhaguŋ
ratuhayu
ratuma
ratuman
ratun
ratune
ratupane
ratur
ratus
ratusa
ratusan
ratusasuhunan
ratusaŋbhupati
ratusaŋpan
ratususuhunan
ratusyuna
ratutityaŋ
ratutityaŋn
rau
rauh
rawa
rawalumbu
rawan
rawas
rawe
rawes
rawi
rawis
rawit
rawo
rawos
rawosaŋ
rawoseman
rawosin
rawu
rawuh
rawuhin
ray
raya
rayan
rayaŋ
rayu
rayunan
rayunaŋ
rayyan
raŋ
raŋbhakti
raŋman
raŋn
raŋpan
rbia
rd
re
read
reader
readers
real
reality
recaps
receives
record
records
recreation
red
redaksi
redite
ref
reference
references
referensi
regency
region
regional
regions
regulations
reh
reingold
rejang
rejo
rejosari
reka
rekaman
reke
reki
reko
rekor
rela
relations
release
released
releases
religion
religions
religious
religius
remaja
rembang
remo
ren
rena
rencana
rendah
rendang
rendra
rene
reng
rengas
renge
rengganis
renon
repo
report
reporter
reports
repot
representasi
repu
republic
republik
requires
rerama
rerasmen
rerata
rereh
res
rescuers
research
resep
reserve
resi
residen
resident
resmi
resource
resources
results
retrieved
return
revealed
reveals
review
reviews
revised
revision
revolusi
revolution
reyas
reŋn
ri
ria
rial
riam
riantara
riantukan
riau
ribe
ribha
ribhagawa
ribhu
ribhupati
ribu
ribut
ric
rica
rican
rice
rich
richard
rico
ridal
ridhar
ridu
ridur
ridwan
rigati
right
rih
rihaguŋ
rihaji
rihin
rihinin
riin
rijagat
rijasa
rije
rijo
rik
rika
rikala
rikan
rikce
rike
riki
riku
rilan
rilis
rim
rima
rimaha
riman
rimba
rimpang
rin
rina
rinajah
rinaks
rinan
rinarana
rinarapati
rinaren
rinarendra
rinarendran
rincian
rine
ring
ringgit
ringkasan
rinjani
rinr
rio
riode
riodik
rip
ripa
ripaduka
ripan
ripe
ripramis
ripu
ripun
rira
riratih
ririh
riris
ris
risa
risaks
risampune
risan
risdhe
rise
riset
risn
rit
rita
ritan
ritatkala
ritayaŋ
rite
ritje
ritn
ritual
river
riwayat
riwe
riwir
riyadi
riye
riyin
rizal
riŋ
riŋba
riŋbali
riŋban
riŋbapa
riŋbe
riŋbhagawa
riŋbhat
riŋbhu
riŋbon
riŋbun
riŋbwana
riŋcan
riŋcokor
riŋd
riŋda
riŋdaks
riŋdal
riŋde
riŋdes
riŋdhar
riŋdina
riŋgan
riŋge
riŋgnah
riŋgriya
riŋgun
riŋgunuŋ
riŋgyan
riŋha
riŋhaje
riŋhaku
riŋhalas
riŋhan
riŋhanak
riŋhar
riŋhas
riŋhati
riŋhawak
riŋhawaks
riŋhe
riŋhi
riŋhida
riŋhidabhat
riŋhidas
riŋhidasaŋna
riŋhidasaŋprabhu
riŋhidewa
riŋhin
riŋhipatih
riŋhiratu
riŋhumah
riŋhun
riŋjaba
riŋjadma
riŋjagat
riŋjalan
riŋjan
riŋje
riŋjro
riŋka
riŋkahyan
riŋkahyun
riŋkan
riŋkar
riŋkawah
riŋkayun
riŋke
riŋkipatih
riŋkita
riŋkiwa
riŋl
riŋlan
riŋlin
riŋluhur
riŋma
riŋmadya
riŋman
riŋmanah
riŋmanus
riŋmar
riŋme
riŋn
riŋna
riŋnabhi
riŋnabi
riŋnatar
riŋpa
riŋpadma
riŋpakayunan
riŋpalin
riŋpalun
riŋpamr
riŋpan
riŋpanan
riŋpar
riŋpara
riŋpas
riŋpasan
riŋpasar
riŋpe
riŋpin
riŋpr
riŋpran
riŋpu
riŋpun
riŋpupusuh
riŋpur
riŋpura
riŋpuri
riŋpuse
riŋpyajn
riŋr
riŋra
riŋraga
riŋrahadyan
riŋrahina
riŋraka
riŋrakandha
riŋran
riŋru
riŋs
riŋsa
riŋsan
riŋsar
riŋsarira
riŋsaŋ
riŋsaŋn
riŋsaŋna
riŋsaŋprabhu
riŋsaŋra
riŋse
riŋsin
riŋsira
riŋsor
riŋsu
riŋswar
riŋtaman
riŋtan
riŋte
riŋtin
riŋtityaŋ
riŋtle
riŋtn
riŋtutur
riŋtuŋtun
riŋwa
riŋwan
riŋwana
riŋwar
riŋwate
riŋwe
riŋwis
riŋwn
riŋwr
rlts
rman
rme
rn
ro
roach
road
roads
roban
robert
roberts
robin
robinson
rock
rocky
rod
roda
roga
roger
rogojampi
roh
rohan
rohit
roid
rok
rokan
roko
role
roma
roman
romance
romanized
romantis
romawi
rome
ron
ronald
ronaldo
roosevelt
ropa
roran
roras
roro
ros
rose
roshan
ross
rote
roti
rotten
rough
routledge
rowan
rowaŋ
rowaŋn
royal
rozporza
roŋ
rp
rr
rs
rsi
rsial
rsitas
rsssf
rsud
rt
ru
ruang
ruangan
rubber
rubuh
rubuŋ
rud
rudita
rudolf
rudra
rudug
rug
ruh
ruha
ruhan
rujak
ruk
rukh
rukun
rules
rum
ruma
rumah
rumake
rumaks
ruman
rumas
rumasa
rumasuk
rumbia
rume
rumpuh
rumpun
rumput
rumrum
rumuhun
rumus
run
rungu
runner
running
runtik
runtuh
rupa
rupaka
rupan
rupane
rupannyane
rupanya
rupiah
rurah
ruru
ruruh
rurun
rurung
rus
rusa
rusak
rusia
rusit
rusmini
russia
russian
rustom
rusuh
rut
rute
ruti
ruwat
ruŋ
rwa
rwan
rya
ryan
s
sa
saa
saan
saang
saange
saantukan
saat
saba
saban
sabang
sabar
sabata
sabd
sabda
sabdanya
sabdha
sabe
sabeh
sabha
sabilang
sabrang
sabu
sabuk
sabun
sacara
sad
sada
sadagin
sadake
sadan
sadar
sadara
sadarana
sadawe
sadaya
sadd
saddha
saddhas
sade
sadha
sadhaya
sadhu
sadhya
sadi
sadia
sadina
sadja
sadu
saduk
sadulur
sadurun
sadurung
sadurungne
sadurungnyane
sadya
sadyan
saga
sagara
sage
saget
sageta
sagetman
sagetn
sagetpan
sagetrawuh
sagetsa
sagette
sagetwente
sagnah
sagr
sagun
saguŋn
sah
saha
sahaman
sahan
sahananing
sahapan
sahas
sahasa
sahasan
sahase
sahatan
sahaŋ
sahe
sahi
sahiman
sahin
sahip
sahirin
sahiriŋ
sahisahi
sahu
sahul
sahur
sahut
sai
saiban
said
sain
sains
saint
sairing
saitama
saja
sajaan
sajabaning
sajagat
sajak
sajan
sajati
saje
sajebag
sajeroning
saji
sajn
sak
saka
sakadi
sakadiman
sakala
sakalan
sakalih
sakalwir
sakan
sakancan
sakar
sakat
sakatah
sake
sakeh
saken
sakeng
sakewala
sakewante
sakewanten
sakeŋ
sakeŋn
saki
sakih
sakin
saking
sakit
sakite
sakitn
sakiŋ
sakiŋban
sakiŋdes
sakiŋge
sakiŋhe
sakiŋke
sakiŋl
sakiŋluhur
sakiŋman
sakiŋmanah
sakiŋn
sakiŋna
sakiŋpan
sakiŋpu
sakiŋpun
sakiŋs
sakiŋsan
sakiŋse
sakne
sakr
sakra
sakrah
sakral
saks
saksat
saksi
sakt
sakti
sakweh
sal
sala
salah
salak
salam
salami
salampah
salan
salantang
salantur
salanturne
salanturnyane
salatiga
sale
saleh
salia
salih
salin
salinan
saling
salit
saliŋtimbal
salju
salma
salman
salu
saluir
saluiring
salulut
saluran
saluwir
salwir
salwiriŋ
salya
sam
sama
samah
samahan
samalih
samaliha
saman
samapta
samar
samarinda
samba
sambar
sambas
sambat
sambatan
sambe
sambel
sambi
sambil
sambilan
sambilang
sambilanga
sambilange
sambilaŋn
sambilman
sambiln
sambirejo
sambu
sambun
sambut
same
samenanjung
sameton
sami
samian
samibe
samihan
samihulig
samima
samiman
samimun
samin
samipada
samipadha
samipadhaman
samipadhan
samir
samirawuh
samisa
samite
samma
sammi
samoa
samong
samosir
sampai
sampalan
sampang
sampat
sampe
sampi
sampik
sampine
samping
sampoen
sampu
sampun
sampunang
sampunaŋn
sampunbe
sampune
sampunika
sampunkatur
sampunman
sampunmun
sampunn
sampunprapta
sampunprapti
sampunpuput
sampunrawuh
sampunte
sampura
sampyan
samr
sams
samsam
samu
samudera
samudra
samudro
samuel
samun
samya
samyan
san
sana
sanak
sanalah
sanan
sand
sandan
sandang
sandat
sande
sandi
sandika
sandikala
sandikan
sandikancokor
sanding
sandubaya
sane
sanebe
saneh
sanehe
saneka
saneke
sanel
sanema
saneman
saneme
sanemun
sanen
sanepa
sanepatu
sanesa
sang
sanga
sanganan
sangat
sange
sanget
sangga
sanggah
sanggane
sanggar
sanggau
sangging
sanggup
sanghyang
sangiang
sangihe
sangit
sangkal
sangkala
sangkan
sangkaning
sangkep
sangkur
sanglah
sangsaya
sangsiah
sangsit
sani
sanin
saniscara
sanja
sanjata
sanjaya
sanke
sanman
sann
sansekerta
sanskerta
sanskrit
santa
santan
santana
sante
santen
santi
santiago
santo
santoekan
santos
santukan
santun
sanun
sanur
sanusi
sanya
sap
sapa
sapamar
sapan
sapane
sapar
saparipolah
sapasira
sapatuduh
sapaŋ
sape
sapi
sapih
sapin
sapisan
sapisanan
sapoenika
sapoeniki
sapolah
sapr
sapra
sapraptane
sapratin
sapt
sapta
saptar
sapte
sapu
sapuh
sapuluh
sapunapi
sapundu
sapuni
sapunika
sapunikahatur
sapunikapan
sapuniki
saput
saputra
sar
sara
sarah
sarahina
saran
sarana
sarang
saras
saraswati
sarat
sarati
saratn
sarawak
sarawuh
sare
saren
sareng
sarengan
sari
sarikuniŋ
sarilun
sarin
sarine
sarira
sariranmu
sarjana
sarolangun
saru
sarupa
sarwa
sarwi
sas
sasa
sasak
sasampun
sasampune
sasan
sasana
sasantun
sasar
sasayut
sasayutpan
sase
sasi
sasih
sasimbing
sasolah
sasolahan
sastera
sastra
sastrawan
sasubane
sasubanne
sasuhunan
sasukat
sasuratan
sat
sata
satak
satan
satar
satata
satataman
satatan
sate
satelit
satia
satiawati
satiba
satin
satke
satma
satmaka
satn
sato
satonden
satra
satria
satriya
satru
satrya
sats
satsat
satu
satua
satuan
satuane
satuhuk
satun
satunggal
satunggil
satunya
satus
satuwuk
satwa
satwan
satya
satyawati
saudara
saudi
sauntara
sausu
saut
saw
sawa
sawah
sawahan
sawahlunto
sawai
sawan
sawang
sawangan
sawar
sawat
sawatara
sawataradawuh
sawate
sawawa
sawawe
sawe
sawetara
sawiji
sawilang
sawire
sawireh
sawit
sawitra
sawitri
sawn
sawneh
sawon
sawu
sawur
sawuseman
sawyakti
saxony
say
saya
sayaga
sayagan
sayan
sayang
sayann
sayaŋ
sayaŋn
saye
sayembara
says
sayukti
saŋ
saŋban
saŋbha
saŋbhi
saŋbhiks
saŋbhima
saŋbhu
saŋbhujan
saŋbhupati
saŋbima
saŋbra
saŋbrahma
saŋbrahman
saŋcan
saŋcatu
saŋcatur
saŋdar
saŋdas
saŋdewi
saŋdhanan
saŋdhar
saŋdr
saŋdu
saŋdur
saŋdyah
saŋgan
saŋha
saŋhaji
saŋhan
saŋhar
saŋhati
saŋhayu
saŋhe
saŋhyan
saŋhyaŋ
saŋhyaŋbrahma
saŋhyaŋdhar
saŋhyaŋka
saŋhyaŋmr
saŋhyaŋn
saŋhyaŋs
saŋhyaŋsmara
saŋhyaŋsu
saŋhyaŋsur
saŋhyaŋtun
saŋhyaŋwidhi
saŋhyaŋwis
saŋjogor
saŋka
saŋkala
saŋkalih
saŋkar
saŋkatoŋ
saŋke
saŋkr
saŋks
saŋl
saŋlinin
saŋlwir
saŋma
saŋmaha
saŋmaka
saŋmalih
saŋman
saŋme
saŋn
saŋna
saŋnan
saŋnat
saŋnatha
saŋnatt
saŋnattha
saŋnatthan
saŋnilacandra
saŋnr
saŋpa
saŋpaks
saŋpan
saŋpar
saŋpara
saŋpatih
saŋpe
saŋphalgun
saŋpr
saŋpra
saŋprabhu
saŋprabhucan
saŋprabhuhalonn
saŋprabhumalih
saŋprabhuman
saŋprabhun
saŋprabhurarisn
saŋprajn
saŋpu
saŋpurus
saŋputri
saŋr
saŋra
saŋraga
saŋraghun
saŋraghurarismamar
saŋratna
saŋratu
saŋs
saŋsa
saŋsaha
saŋsan
saŋsin
saŋsu
saŋtapa
saŋwanari
saŋwate
saŋwiku
saŋwr
saŋwruh
saŋyaks
saŋyayah
saŋyogi
saŋyudhis
sba
sban
sbe
sbs
schedule
school
schuster
science
sciences
scientific
score
scott
screen
script
sd
sdah
sde
sdhah
sdhe
sdhih
sdih
sditu
sdn
se
sea
seaborg
seantoekan
search
season
sebab
sebabnya
sebagai
sebaran
sebe
sebelum
sebelumnya
sebenarnya
sebentar
seberang
sebet
sebuah
sebun
secara
second
secret
section
seda
sedah
sedan
sedana
sedang
sedangkan
sedayu
sedek
sedekan
sedeng
sederhana
sedih
sedikit
sedjawining
seduk
see
segala
seganing
segara
seger
segera
segi
segitiga
seh
sehari
sehat
sehingga
sei
seine
sejahtera
sejak
sejangkep
sejarah
sejati
sejumlah
seka
sekaa
sekadau
sekadi
sekala
sekali
sekancan
sekar
sekarang
sekarbela
sekartaji
sekat
sekda
seke
sekecamatan
seken
seket
seketika
sekitar
sekolah
sekolahan
sekretariat
seks
sekunder
sel
sela
selae
selain
selalu
selam
selama
selamat
selamatan
selandia
selang
selantang
selantur
selanturne
selanturnyane
selaparang
selat
selatan
selayar
selected
seleg
selehin
selem
selemadeg
selesai
selikur
seloeiring
selonding
selulung
seluruh
sema
semadi
semakin
semal
semampir
seman
semangat
semar
semara
semarajaya
semarang
semarapura
semaya
sembah
sembilan
sembiran
sembung
seme
semenanjung
semeng
semengan
sementara
semeru
semeton
semi
semirang
semoga
sempat
sempidi
sempu
semu
semua
semuanya
semut
sen
sena
senang
senapati
sendang
sendiri
senegal
seneng
sengaja
sengguan
sengguhu
sengkala
sengsara
seni
seniman
senin
senior
senjata
sensus
sentana
sentani
sentul
senyawa
senyum
seo
seok
seon
seong
seoraksan
seorang
seoul
sepak
sepakbola
sepan
sepang
sepanjang
sepatu
sepe
sepeda
seperti
sepi
septe
september
sepulu
seputih
sequence
sequoia
ser
sera
serahang
serai
seram
serang
serangan
seraya
serba
serbia
serdang
serentak
seri
serial
seribu
serie
series
serikat
sering
seririt
serongga
serta
seruyan
served
service
services
ses
sesa
sesai
sesame
sesampai
sesampainya
sesampun
sesampune
sesana
sesanganan
sesapi
sesawangan
sesayut
seselan
sesenggakan
sesetan
sesolahan
sesuai
sesudah
sesungguhnya
sesuratan
set
setata
setelah
setengah
setia
setiap
setiawan
setra
seung
seven
sewaktu
sewamara
sewu
sex
sga
sgara
sge
sh
sha
shah
shan
shanti
sharma
sharp
she
sheet
shi
shin
shipbuilding
ships
shipun
short
should
show
shu
si
sia
siak
sian
siane
siang
siap
siapa
siape
siapne
siaran
siat
siau
siban
sibe
sibetan
sibolga
sibuh
sibuk
sida
sidakarya
sidan
sidang
sidanta
sidd
siddha
siddhaman
siddhan
siddhi
side
sidem
sidemen
sidempuan
siden
sidenreng
sides
sidha
sidi
sidimantra
sidme
sido
sidoarjo
sidodadi
sidoharjo
sidomukti
sidomulyo
sidorejo
sie
sierra
sifat
sig
sigar
sigara
sigaran
sige
sigi
sigir
sigra
sigsigan
sigsige
sigug
sih
sihan
sihin
sijunjung
sik
sika
sikale
sikan
sikangin
sikauh
sikawan
sikawuh
sikbe
sike
sikelod
sikep
siki
sikian
sikka
siklus
siks
siku
sikut
sil
sila
siladri
silan
silangjana
silat
silem
silib
silih
siliwangi
siluman
silur
silva
silver
sima
simak
siman
simanjuntak
simbar
simbol
simbuh
simeulue
simon
simpang
simpaŋ
simpe
sin
sina
sinah
sinambi
sinambut
sinamian
sinampura
sinamyan
sinan
sinar
sinarengan
sinaron
since
sindang
sindangsari
sindu
sine
sing
singa
singapadu
singapore
singapura
singaraja
singasari
singda
singgah
singgih
singh
singid
singkarak
singkat
singkawang
singkil
single
sini
sinin
sinipi
sinjai
sinom
sinomhan
sinopsis
sinta
sintang
sinte
sinu
sinuhun
sinun
sinunggal
sinunggil
sinura
sinurat
sional
siosan
sipat
sipi
sipil
siprus
sipta
sipun
siput
sir
sira
sirabhat
sirah
sirahan
siralun
siraman
siran
sirana
sirapan
sirapatih
siraprabhu
sirara
siras
sirasan
siraŋ
sire
siregar
sireki
sireku
sirep
sirih
sirikan
sirin
siring
sirkuit
sirs
sis
sisa
sisan
sisi
sisia
sisik
sisin
sisip
sisir
sistem
sistema
sistim
siswa
siswar
sisya
sit
sita
sitan
sitaŋ
site
siteng
sites
siti
sitin
sitn
situ
situbondo
situnggil
situs
siu
sium
siung
siwa
siwalan
siwan
siwi
siwor
siye
siyos
siŋ
siŋlan
siŋman
siŋn
siŋte
sk
ska
skala
skar
ske
ski
skor
skotlandia
sku
skuad
skuat
skumambaŋ
skwari
sky
sl
sla
slaka
slam
slamet
sle
sledet
sleman
sloka
sm
sma
smahatur
smalih
small
sman
smar
smara
smaran
smarandana
smarandhana
smatur
sme
smi
smijil
smirah
smith
smithsonian
smk
smkn
smoky
smp
smun
sn
sna
snan
sne
snow
snya
so
soang
sobaeksan
sobat
soca
socah
socan
soccer
soccerway
social
society
soe
soeba
soedagar
soedana
soedanane
soedirman
soegih
soeharto
soekarno
soekarsi
soekreni
soemerasih
software
sojar
sok
soka
sokasi
sokasti
soklat
sokman
sokn
soks
solah
solahe
solahen
solar
solas
solo
solok
solor
soma
somah
sombong
some
son
sona
song
songan
songke
songnisan
songs
sonia
sonneratia
sons
soo
sook
soompi
sopa
sopacara
soppeng
sor
sore
sorga
soring
soroh
sorohan
sorong
sos
sosial
sosok
source
sources
south
southeast
southern
sovie
soviet
sowaŋsowaŋ
sp
spa
space
spah
spain
span
spanish
spanyol
spar
spati
spe
special
species
spesies
sphat
spi
spider
spipis
spirit
spiritual
spisan
sport
sporting
sports
spotify
sprawie
spring
springer
spur
sq
sqrt
squad
sr
sra
srabena
srabeni
sragen
sran
srawah
sri
sridevi
srin
sripit
sriwijaya
sriŋn
ss
ssan
st
sta
stadio
stadion
stadium
staf
staff
stan
standar
standard
stanford
star
stars
start
stasi
stasiun
stata
state
states
statesymbolsusa
statistical
statistics
statistik
statline
status
stawa
ste
stephen
sterreich
steve
steven
stewart
stha
sti
still
stis
stiti
stival
stone
stories
story
storyboards
str
stra
stran
strane
strann
strategy
street
stri
strike
structure
struktur
stu
stuart
stub
student
studi
studies
studio
studios
study
stur
style
su
suaka
suami
suara
suaran
suarane
suaranya
suarasakingbali
suarga
suargan
suasana
suatu
sub
suba
subagan
subak
subakti
subal
subaman
suban
subandar
subane
subang
subanne
subape
subapragat
subapte
subapuput
subasan
subasinah
subate
subatke
sube
subha
subhakti
subject
subjects
subtropis
subulussalam
subur
suci
sud
sudagar
sudah
sudamala
sudan
sudar
sudarsana
sudd
suddha
sudha
sudhar
sudi
sudimara
sudirman
sudr
sudra
suduk
sudut
sue
sueca
suen
sugandi
suge
sugem
suggested
sugianto
sugih
sugihan
sugihwaras
sugriwa
sugyan
suh
suhapi
suhu
suhud
suhudn
suhun
suhuŋ
suja
sujana
sujati
sujatine
sujatinn
suk
suka
sukabumi
sukadana
sukaduh
sukajadi
sukajaya
sukaluyu
sukamaju
sukamanah
sukamara
sukamukti
sukamulya
sukan
sukanagara
sukane
sukapura
sukar
sukaraja
sukarame
sukaresmi
sukas
sukasada
sukasari
sukat
sukatani
sukawana
sukawati
sukawir
suke
sukhoi
sukla
sukodono
sukoharjo
sukolilo
sukorejo
sukosari
sukpayas
sukra
suks
sukse
suksemanipun
sukses
suksma
suksman
suksmanipun
suku
sukubha
sukucme
sukujnar
sukun
sukunya
sukuputih
sukur
sul
sula
suladri
sulaks
sulang
sulas
sulasih
sulawe
sulawesi
suli
sulin
suling
sulit
sultan
sultra
suluh
sulur
sulut
suma
sumaga
sumahu
sumahur
sumala
suman
sumangka
sumar
sumatera
sumatra
sumawu
sumawur
sumba
sumbah
sumbar
sumbawa
sumbe
sumber
sumberagung
sumberejo
sumbersari
sumbu
sume
sumedang
sumenep
sumerta
sumeru
sumin
sumingkin
summa
summary
summer
sumpah
sumping
sumsel
sumsum
sumulih
sumun
sumur
sumurup
sun
suna
sunan
sunar
sunda
sundar
sundari
sundih
sung
sungai
sungguh
sungkai
sungkan
sungsangjenar
sungsut
sunha
sunhan
sunhar
sunhiki
sunia
suniki
sunlun
sunman
sunn
suns
sunte
sunu
sunwarah
sunya
sup
supaya
supe
super
superman
supraba
suprabha
sur
sura
surabaya
suradarma
surajaya
surak
surakarta
suran
surapati
surat
suratan
surate
suraŋ
surface
surga
suri
suria
suriname
surinder
suru
surud
suruh
surup
survey
surya
suryane
sus
susah
susan
susastra
susceptibility
susila
susilo
sustianingsih
susu
susuhunan
susukan
susun
susunan
susune
susunin
susut
sut
suta
sutan
sutasoma
sute
suteja
sutr
sutra
sutradara
suu
suud
suung
suwar
suwat
suwaŋ
suwe
suwija
suwon
suwud
suwun
suwung
suwuŋ
suzy
suŋ
suŋn
swa
swabha
swadhar
swadharma
swagina
swah
swaha
swakar
swami
swan
swar
swara
swaran
swarane
swarann
swaranya
swarga
swargan
swari
swas
swasta
swaŋ
swaŋmun
swe
sweca
swecan
swecca
sweccha
swecchan
swedia
swetagana
swiss
sya
syab
syaban
syabke
syah
syan
syap
syapa
syar
syarat
syaŋ
syaŋdalu
sydney
sye
system
systems
syu
syuh
syun
t
ta
taal
taani
taba
tabalong
tabanan
tabe
tabia
table
tabu
tabuan
tabuh
tabuik
tabukan
tabya
tacitta
tactical
tada
tadah
tadhah
tadi
tae
taeanhaean
taebaeksan
taen
tag
tage
tagih
tagulandang
tah
taha
tahan
tahap
tahapakna
tahe
tahen
tahenan
tahin
tahu
tahun
tahunan
tahute
tai
tain
taiwan
taj
taje
tajen
taji
tajun
tak
taka
takalar
takbenda
take
takes
taki
takilan
takna
takonang
takonin
takonina
taks
taksonomi
taksu
takut
tal
tala
talaga
talang
talaud
tale
taler
tali
talin
taliwan
talu
taluh
taluhe
talun
tam
tama
tamah
tamak
tamake
tamalanrea
tamalate
taman
tamanan
tamansari
tamas
tamat
tamba
tambah
tambahan
tambak
tambakrejo
tambaksari
tamban
tambang
tambanya
tambe
tambet
tambir
tambis
tamblingan
tambora
tambulilin
tambun
tambur
tambus
tame
tamiang
tamil
tamiu
tamiune
tampah
tampak
tampaksiring
tampan
tampe
tamped
tampek
tampi
tampil
tampo
tamu
tan
tana
tanadoh
tanah
tanahe
tanak
tanam
tanaman
tanan
tanana
tananan
tanar
tanbe
tanbina
tanbis
tancarita
tancebin
tanda
tandados
tandamantri
tandan
tandang
tande
tandin
tanding
tandiŋ
tandoh
tandruh
tanduk
tandwa
tane
tanete
tang
tangah
tangan
tange
tangerang
tangga
tanggal
tanggamus
tanggu
tanggun
tanggung
tangi
tangin
tangis
tangkah
tangkahne
tangkas
tangkejut
tangkil
tangkis
tangkup
tanha
tanhadoh
tanhan
tanhana
tanhar
tanhe
tanhucape
tanhunin
tanhurun
tani
tanikan
tanin
taniyeng
tanjan
tanje
tanjung
tanjungbalai
tanjungpinang
tanjungrejo
tanjungsari
tanka
tankacarita
tankacaritariŋmar
tankalin
tankantun
tankapan
tankar
tankari
tankasor
tankawar
tankawas
tankawuwus
tanke
tanken
tanko
tankocap
tankocapa
tankocapan
tankon
tankwas
tanle
tanlin
tanlyan
tanlyanwantah
tanma
tanmalih
tanman
tanmanu
tanmar
tanmari
tanmariman
tanmarin
tanme
tann
tanpa
tanpabayu
tanpagun
tanpahin
tanpaker
tanpaman
tanpame
tanpan
tanpanolih
tanpas
tanpasah
tanpasan
tanpatan
tanpate
tanpatut
tanpaweh
tanpe
tanpen
tanpendah
tanpgat
tanpisan
tanpolih
tanpriwan
tanr
tans
tansa
tansah
tansan
tanse
tansida
tansiddha
tansinipi
tansipi
tantangan
tante
tantra
tantri
tanu
tanucapan
tanucape
tanurun
tanuruŋman
tanwan
tanwar
tanwe
tanwente
tanwinar
tanwruh
tanya
tanzania
tap
tapa
tapak
tapan
tapanuli
tapati
tapatih
tape
tapel
tapi
tapih
tapin
tapos
tar
tara
tarakan
taran
tari
tarian
tarik
taris
taro
taru
taruan
tarun
taruna
tas
tasa
tasak
tasan
tasi
tasifeto
tasih
tasik
tasikmalaya
tasira
tat
tata
tatah
tatak
tatan
tatas
tatasle
tate
tatebasan
tatebus
tatelu
tatha
tatiga
tatin
tatit
tatka
tatkala
tatlu
tattwa
tatu
tatujon
tatwa
tau
taun
tawa
tawah
tawan
tawang
tawanga
tawangsari
tawar
tawaŋ
tawun
tawur
taxonomic
taxonomy
taya
tayang
tayaŋ
taylor
tayun
taŋ
taŋdas
taŋn
tban
tbapa
tbe
tbo
tbu
tburi
tce
tcm
td
tde
tdhun
te
tea
team
teams
teater
teba
tebe
tebel
tebing
tebo
tebu
technical
technology
tedun
tegak
tegal
tegalan
tegale
tegallalang
tegallinggah
tegalrejo
tegalsari
tegarang
tegeh
tegehnyane
teges
tegesipun
tegteg
teguh
teh
teja
tejakula
tejan
teka
tekalintaŋ
tekan
tekanan
tekaning
teke
teked
tekek
teken
tekening
teki
tekin
teknik
teknologi
tekor
teks
telabah
telaga
telagane
telah
telas
teleb
televisi
tells
tellu
telu
teluk
telulas
telun
telung
tema
temaga
teman
temanggung
tembalang
tembang
tembok
tembuku
teme
temon
tempat
temperature
temple
tempo
tempur
tempuran
temu
temuai
ten
tenaga
tenan
tenasia
tenbenda
tendas
tendasne
tengah
tengahing
tengahnyane
tengai
tenganan
tengen
tenget
tenggara
tengger
tengkejut
tengkulak
tenin
tentang
tentara
tenun
tenung
tepat
tepi
tepuk
tepukin
tepukina
tepung
ter
terakhir
terang
terasa
terbaik
terbang
terbaru
terbesar
terbit
terbuka
terceritakan
terdapat
terdiri
terhadap
terima
terj
terjadi
terjemahan
terjun
terkait
terkejut
terkenal
terlalu
terlihat
termasuk
terminal
ternate
terpilih
territories
territory
tersebut
tersenyum
tertarik
tertawa
tertentu
terumbu
teruna
terunyan
terus
terusan
tesla
tetabuhan
tetamian
tetanduran
tetani
tetanine
tetap
tetapi
teteh
tetelu
tetep
tetiga
tetilikan
tetujon
tetujonnyane
texas
text
textbooks
texts
tgal
tge
tguh
th
tha
thabran
thagan
thahan
thahin
thai
thailand
thaka
thal
thala
thama
thamalih
thaman
than
thana
thane
thann
thanya
thapan
thar
thararisn
tharatu
thas
thasa
thasami
that
thatcher
thayaŋ
the
their
then
theodore
theory
there
they
thi
thierry
thinn
third
this
thithi
thiwi
thomas
thompson
thought
threatened
three
through
thumama
ti
tiada
tiang
tiange
tianyar
tiap
tiba
tibah
tiban
tibe
tibu
tida
tidak
tidong
tidore
tidung
tidur
tiga
tigan
tigang
tigaron
tiger
tigga
tigo
tigtig
tih
tihan
tihingan
tiing
tiinge
tik
tika
tike
tikeh
tiks
tikus
til
tilar
tilem
tilin
tim
tima
timah
timan
timbal
timban
timbrah
timbul
time
times
timnas
timor
timpal
timpalne
timu
timur
tin
tina
tinan
tindak
tindakan
tindih
tine
ting
tingal
tingalin
tingalina
tinggal
tinggen
tinggi
tingkah
tingkahe
tingkat
tingkes
tingkese
tinin
tinipun
tinn
tinon
tinu
tinun
tinut
tionghoa
tiongkok
tiosan
tipat
tipe
tipis
tipu
tipun
tir
tira
tirta
tirtha
tirto
tiru
tis
tisan
tisin
tisna
tista
tit
titah
titan
tithi
titi
titian
titiang
titiange
titib
titih
titik
titir
titiran
titiyaŋ
title
tituhu
titya
tityan
tityang
tityaŋ
tityaŋbe
tityaŋdawe
tityaŋma
tityaŋmalih
tityaŋman
tityaŋmanunasaŋ
tityaŋmapamit
tityaŋmatur
tityaŋme
tityaŋn
tityaŋnawe
tityaŋndawe
tityaŋneman
tityaŋnente
tityaŋnunas
tityaŋpamit
tityaŋpar
tityaŋpolih
tityaŋratu
tityaŋrawuh
tityaŋsa
tityaŋsan
tityaŋsar
tityaŋtal
tityaŋtambe
tityaŋtanwente
tityaŋtwah
tityaŋwantah
tiuk
tiwas
tiwi
tiyan
tiyaŋ
tiying
tiŋ
tiŋs
tja
tjai
tjaine
tjakepan
tjara
tje
tjening
tjerik
tjokor
tjokorda
tk
tka
tkabeh
tkags
tkahe
tkal
tkaman
tkan
tkaniŋlara
tkapatuh
tkapunah
tkar
tkatulis
tkawaras
tke
tken
tkena
tkenhawak
tkenn
tkenpan
tkj
tkr
tla
tlacur
tlaga
tlagane
tlah
tlan
tlas
tlasman
tle
tlin
tlogosari
tlu
tluh
tma
tmaga
tmah
tmaja
tmaka
tmal
tmalih
tmalin
tman
tmanah
tmane
tmar
tme
tmika
tmu
tmun
tmutis
tn
tna
tnajwittha
tnam
tnan
tnaniŋra
tne
tni
tnis
tnya
to
toba
today
toeah
toeara
toekang
toemoeli
toer
toesing
togo
togog
togoge
toh
tohan
tohaŋjiwa
tohin
tohpati
toja
tojan
tojo
tok
toke
toko
tokoh
tokran
tokyo
tol
tolah
tolih
tolitoli
tolu
tom
tomakran
toman
tomatoes
tombak
tombatu
tome
tomini
tomlinson
tomohon
ton
tonan
tondano
tonde
tonden
tone
tong
tonga
tongos
tongose
tongosne
tonin
tonjong
too
top
topan
tope
topeng
topik
topographic
tor
toraja
toronto
torue
tos
tosan
tot
total
toto
totonan
tottenham
tour
tourism
tournament
town
toya
toyahan
toyan
toyane
toyanhaks
toyann
toŋ
toŋbakat
toŋbis
toŋdadi
toŋhada
toŋmampuh
toŋman
toŋn
tpa
tpan
tpe
tpisan
tpuk
tr
tra
trade
tradisi
tradisional
tradition
traditional
tragah
trah
trailer
tram
tran
tranggana
trans
transactinide
transisi
transliterasi
transportasi
tras
travel
traŋ
tre
tree
tresna
tresnan
tresnane
tri
tribun
tribune
tribunnews
trigun
trika
trikatuka
trikaya
triktuka
trima
trimulyo
trin
tririh
tris
triwangsa
triwarna
triŋ
triŋdina
triŋrahina
tro
tropical
tropis
tropolitan
tru
truh
trun
truna
truni
trunyan
trus
trust
truste
trya
ts
tsa
tsami
tsan
tsar
tse
tser
tsun
tsunami
tt
tta
ttala
ttama
ttan
ttanin
ttawar
ttayaŋ
tte
ttha
tthahin
tthan
tthasan
tthayaŋ
tthi
tti
ttika
ttin
ttine
ttinin
ttis
ttu
ttya
tu
tua
tuah
tuak
tual
tuan
tuanku
tuara
tuban
tubuh
tubun
tude
tudhe
tudhuh
tuduh
tug
tugan
tugas
tuge
tuglinuh
tugu
tuh
tuha
tuhan
tuhe
tuhu
tuhun
tui
tuju
tujuan
tujuh
tujutluh
tuk
tuka
tukad
tukade
tukang
tuke
tul
tulah
tulak
tulang
tulen
tulis
tulisan
tulun
tulung
tulungagung
tulungin
tulup
tulus
tuluŋ
tulya
tum
tuma
tuman
tumanah
tumbak
tumbang
tumbe
tumben
tumbu
tumbuh
tumbuhan
tume
tumenggung
tumin
tumon
tumpah
tumpang
tumpaŋ
tumpe
tumpek
tumpeng
tumpenge
tumu
tumuli
tumulige
tumulih
tumulihan
tumulimamar
tumuliman
tumulin
tumulirarismama
tumulirarismamar
tumulirarisman
tumulirarisn
tumun
tumurun
tumut
tumuwuh
tun
tuna
tunas
tunasang
tunasin
tunde
tunden
tundenn
tundun
tundung
tung
tunggal
tunggil
tunggu
tungguhan
tunggul
tungked
tungkede
tungkedne
tuni
tunisia
tunjuk
tunjung
tunu
tur
tura
turah
turan
turaŋ
turi
turin
turing
turki
turmaning
turnamen
turon
turu
turun
turunan
turut
tus
tusan
tushati
tusing
tusiŋ
tusiŋn
tusiŋpe
tuskayun
tusmanah
tut
tutban
tutburi
tutn
tuttle
tutu
tutug
tutuh
tutul
tutup
tutur
tuturan
tuturang
tuturaŋ
tuturin
tutut
tuu
tuuk
tuun
tuung
tuwa
tuwah
tuwan
tuwara
tuwe
tuwi
tuwin
tuwuh
tuwun
tuyuh
tuŋ
tuŋgil
tuŋtun
tuŋtuŋ
tuŋtuŋn
tv
tvn
twa
twah
twak
twake
twalen
twan
twandewi
twangaluh
twanhan
twanmantri
twann
twanputri
twanraja
twara
twarabe
twarabis
twarabuhuŋ
twarabuwuŋ
twarada
twaradadi
twaragin
twarahada
twarahadaman
twarahadan
twarahe
twarahin
twaraje
twarakar
twarake
twaraken
twaral
twaralenan
twarama
twaramampuh
twaraman
twaran
twaranawaŋ
twarapan
twarape
twaratawaŋ
twarate
twaŋ
twe
twentieth
twenty
twi
twice
twin
twitter
twitwah
two
tya
tyaks
tyan
tyang
tyawati
tyaŋ
tyaŋman
tyaŋn
tyu
u
ua
uang
ub
uba
ubad
ubadin
uban
ubat
ubatabit
ubaya
ubda
ube
uber
ubha
ubhakar
ubhakti
ubi
ubud
ubuh
ubuhan
ubuhin
ubun
ubung
uca
ucap
ucapa
ucapan
ucaparis
ucapaŋ
ucape
ucapucap
uci
ucita
ucyan
ud
uda
udan
udang
udara
udayana
udaŋ
udaŋmanah
udd
uddha
ude
udha
udhu
udhuh
udik
udra
uduh
uduhaŋ
uduk
udya
udyana
udyatmika
udyaŋ
udyaŋn
ue
uefa
uganda
uge
uger
ugi
ugih
ugm
ugonin
ugu
ugwanin
uh
uhan
uhe
uhun
ui
uja
ujan
ujanan
ujanin
ujar
ujare
uji
ujuh
ujung
ujur
uk
uka
ukan
ukana
ukanin
uke
ukih
ukir
ukiran
ukla
uklapaks
ukr
ukra
ukraina
uks
uku
ukud
ukudan
ukuh
ukuhin
ukup
ukur
ukuran
ukut
ul
ula
ulah
ulahake
ulahaŋ
ulak
ulakan
ulam
ulama
ulame
ulan
ulang
ulangun
ulanin
ulap
ulapan
ulapin
ulasari
ulat
ulati
ulgul
uli
ulian
ulig
ulih
ulihan
ulik
uliliŋ
ulin
uling
ulintik
uliŋ
uloka
ulon
ulu
uluh
uluhin
uluk
ulun
ulung
ulunsuwi
ulurin
um
uma
umah
umahe
umahne
uman
umande
umane
umanis
umanuman
umar
umat
umatu
umatur
umba
umbah
umbara
umbaŋ
umbi
umbrella
umbu
umbul
umbun
ume
umi
umik
umin
umpami
umpan
umpe
umpna
umprit
umpu
umu
umum
umumnya
umun
umur
un
una
unan
unaŋ
uncredited
und
unda
undagi
undan
undang
undangan
undar
undarin
undaŋ
under
undili
undisan
unduh
unduk
unduke
undukne
undul
undur
une
unesco
unge
unggulan
ungkur
ungu
unhurip
uni
unik
unin
uning
union
unit
united
unive
universal
universe
universitas
universities
university
uniweh
uniŋ
unkar
unker
unkir
unknown
unle
unman
unn
unpun
unrecognized
uns
unsa
unsan
unsur
untapa
untat
unte
unteng
until
untu
untuk
untul
untung
untur
unud
unuske
unut
unutn
unya
up
upa
upacara
upades
upah
upajiwa
upaka
upakara
upama
upami
upan
upas
upat
upata
upati
upaya
upcoming
update
updated
upe
upeks
upin
uptd
upti
upun
ur
ura
urah
urak
uran
uranium
urap
urasia
urat
urban
uri
urimik
urin
urip
uripa
uripaŋ
uripe
uripin
urit
url
uru
uruguay
uruk
urukaŋ
urun
urung
urusan
urut
urutan
uruŋ
us
usa
usaba
usada
usadha
usah
usaha
usai
usak
usakasik
usan
usana
usap
usapin
usapusap
usda
use
used
uses
usgs
usia
using
usir
uss
usu
usud
usul
usup
usupaŋ
usupin
ut
uta
utah
utama
utamaniu
utamannyane
utami
utamma
utan
utang
utara
utawi
utaŋ
utaŋhawak
utaŋn
utc
ute
utgut
utik
utn
utpati
utpe
utpti
utr
utrecht
utsaha
utta
uttama
uttamadahat
uttaman
uttami
uttara
utu
utus
utusan
utusaŋ
utworzenia
uu
uug
uwa
uwah
uwan
uwaŋ
uwe
uwi
uwug
uwuh
uwun
uwuŋ
uyah
uyang
uyaŋ
uye
uyt
uyuh
uyuk
uyut
uŋ
uŋman
uŋmanis
uŋn
uŋpaliŋ
uŋsuŋ
v
va
val
valencia
valley
value
values
van
vancouver
varian
varietas
variety
various
ve
veda
venus
verde
verlag
versi
version
very
vespa
veteran
vi
via
vickers
victor
victoria
vide
video
videos
vie
vietnam
view
vii
viii
vikram
villa
village
vincent
virginia
virus
visi
visitation
visitor
visits
visual
visualisasi
vitamin
viva
vladimir
voc
voice
voivodeship
vokal
vokalis
vol
volcanic
volcanism
volcano
volcanoes
volkenkunde
volume
volusi
von
voor
vs
vu
vulkanik
w
wa
wabup
waca
wacan
wacana
wacanan
wada
wadah
wadahina
wadak
wadden
wadha
wadhah
wadhu
wadi
wadon
wadwa
wadya
wae
wafat
wage
waged
wagian
wagub
wah
waha
wahan
wahana
wahu
wahun
wahyu
wai
wais
waisak
waja
wajah
wajib
wajo
wak
waka
wakar
wakatobi
wake
wakil
wakkr
wakparusa
wakrah
waks
waktu
wal
wala
walan
walaupun
wales
wali
walikota
walin
walker
wall
wallace
walt
walter
walu
waluh
waluya
wam
waman
wami
wamu
wan
wana
wanagari
wanagiri
wanan
wanara
wanasara
wanasari
wanda
wane
waneh
wanen
wanengpati
wang
wangde
wangi
wangsa
wangun
wangunan
wani
wanin
wanita
wann
wantah
wante
wanten
wanti
wantilan
wantu
wantuan
wanya
waoe
war
wara
warah
warahe
warahin
warak
waran
waranugraha
waranya
waras
warga
wargi
wari
wariga
warih
warin
waringin
warisan
warmade
warmadewa
warna
warnan
warnane
warni
wars
warsa
warsiki
warta
wartawan
waru
warung
warya
was
wasa
wasan
wase
washington
wasit
waspada
wasta
wastan
wastane
wastanin
wastanipun
wastann
wastannyane
wastra
wastu
wat
wata
watakawaca
watan
watang
watch
wate
watek
water
wates
wati
watthi
watu
watuan
watugunung
watugunuŋ
watya
wau
wawan
wawe
wawengkon
waweŋkon
wawidangan
wawu
wawuman
wawun
wawurawuh
wawusiraman
way
waya
wayah
wayahang
wayan
wayang
wayaŋ
wayback
waŋ
waŋn
wdhak
wdhakakna
wdhakna
wdhaknya
wdhakragga
wdhaksuku
we
weast
weather
web
website
webster
wecanin
weci
wecuka
weda
wedan
weddha
wedha
wedi
wee
weh
wehin
weights
wejruk
wek
wekas
welanda
welas
well
wells
wen
wena
wenang
wendha
wene
wengi
wente
wenten
wentuk
wentuknyane
wera
werayaŋ
werdhi
were
weru
weruh
wes
wesi
west
western
wesya
wetan
wewangsalan
wewaran
wewehan
wewengkon
wewidangan
wewidanganne
wewrak
what
when
where
which
while
white
who
why
wi
wiadin
wiakti
wib
wibhawa
wibhu
wibhuh
wibuh
wicaks
wicaksana
wicara
widagd
widang
widara
widdhi
widhi
widi
widiadari
widine
widodo
width
widya
widyadari
wie
wife
wighna
wigna
wiguna
wih
wihan
wihiŋs
wija
wijaya
wiji
wikan
wiki
wikianggit
wikibuku
wikidata
wikikruna
wikilancaran
wikilontar
wikime
wikimedia
wikiorti
wikipe
wikipedia
wikipustaka
wikisource
wikiversity
wikivoyage
wikrama
wiku
wil
wilan
wilangan
wilayah
wild
wilderness
wildlife
wiley
wilhelm
wilis
will
william
williams
wilson
wimbakara
win
wina
winan
winangun
winar
winas
wind
windhu
windu
wine
wineh
wingsata
winner
winners
winong
wins
winte
winter
wir
wira
wiraga
wirama
wiran
wiranata
wirang
wiras
wiratjaya
wirautama
wire
wireh
wiri
wiriŋ
wiriŋce
wiros
wiryadana
wis
wisata
wisatawan
wisaya
wise
wises
wisesa
wisnu
wit
wita
witan
with
within
without
wiwaha
wiweka
wiyakti
wka
wkas
wkasan
wkasandadi
wlas
wn
wnan
wnaŋ
wnaŋhan
wnaŋn
wne
wneh
wo
woe
woes
woh
wohan
wolchulsan
woman
women
won
wonder
wong
wongsorejo
wonodadi
wonogiri
wonokerto
wonokromo
wonorejo
wonosari
wonosobo
wonte
woo
wood
wook
wor
woraksan
word
work
working
works
world
worldwide
wos
wotsari
would
wowkeren
woŋ
woŋdes
woŋhan
woŋman
woŋmenak
woŋn
woŋwruh
wr
wra
wrak
wraspati
wre
wrediaguna
wrespati
writer
writers
writing
written
wruh
wruha
wsi
wt
wte
wtu
wu
wuh
wujud
wukir
wuku
wula
wulan
wun
wur
wuri
wurin
wuruk
wus
wusa
wusan
wushadoh
wushan
wuska
wuske
wusman
wusme
wusmun
wusn
wuspe
wuspra
wusprapta
wusprapti
wuspuput
wusrate
wusrawuh
wuss
wuste
wut
wuwuh
wuwus
wuwusan
wuwuse
wuyah
wuŋ
wwa
wwabha
wwabhu
wwabun
wwahendah
wwajagat
wwajn
wwaka
wwakar
wwal
wwama
wwamahurip
wwaman
wwame
wwan
wwane
wwanin
wwapran
wwaputih
wwara
wwas
wwasa
wwasan
wwasantun
wwasari
wwase
wwaskar
wwata
wwatinandur
wwatumuwuh
wwaŋ
wwaŋman
wwf
wwi
wwihan
wwihida
wwiman
wwin
wwinan
wwinudin
www
wya
wyadin
wyakti
wyaktin
wyaktinn
wyan
x
xi
xii
xiii
xiv
xv
xvi
xvii
xviii
xx
y
ya
yadi
yadian
yadiapin
yadiastun
yadin
yadinbe
yadinman
yadinn
yadn
yadnya
yadya
yadyan
yadyapin
yadyastun
yah
yahan
yahe
yahi
yahin
yaitu
yajn
yajna
yajnya
yak
yaka
yake
yakni
yaks
yaksa
yakti
yal
yale
yam
yama
yamaguchi
yamake
yamamun
yaman
yamar
yambar
yame
yamuna
yan
yana
yanamah
yanan
yanana
yanar
yanbe
yance
yande
yane
yang
yange
yanhan
yanhana
yanhanapaks
yanhanawwaŋlanaŋ
yanhar
yanhe
yanhin
yanhupami
yani
yanin
yaning
yanira
yaniŋ
yaniŋhe
yaniŋn
yaniŋs
yaniŋsa
yaniŋwente
yanka
yanke
yankes
yanma
yanmalih
yanman
yanme
yanmun
yann
yannya
yanpa
yanpaks
yanpan
yanpar
yanpe
yanpunika
yanriŋ
yanriŋs
yans
yansa
yansan
yansawan
yanse
yansih
yansira
yansirahar
yansuba
yanta
yantakocap
yantan
yantanman
yantann
yantanwente
yante
yantwah
yanu
yanwantah
yanwe
yanwente
yanwus
yanya
yapa
yapan
yapati
yape
yar
yara
yas
yasa
yasan
yase
yash
yasin
yasinan
yat
yata
yataman
yatamatan
yatamataŋnyan
yatan
yate
yati
yatika
yatna
yatnahin
yatra
yawa
yawan
yaya
yayah
yayasan
yayi
yaŋ
yaŋn
yaŋs
yaŋsur
yaŋtun
ye
year
years
yeh
yeka
yekasinan
yeki
yellowstone
yen
yena
yenbe
yenhan
yenhe
yening
yeniŋ
yeniŋn
yenke
yenman
yenme
yenn
yenpan
yens
yensa
yente
yentwah
yeo
yeon
yesus
yeŋra
yi
yo
yoga
yogga
yogi
yogia
yogis
yogya
yogyakarta
yogyan
yohanes
yon
yonek
yong
yonhap
yoni
yoo
yoon
yoona
york
yos
yosemite
you
young
your
youtube
yowana
yu
yuda
yuddha
yudha
yuga
yugoslavia
yuh
yuk
yukti
yuma
yun
yunani
yus
yusa
yusan
yusuf
yut
yuta
yuyu
yuŋ
ywa
yya
yyacandra
yyade
yyagun
yyahayu
yyak
yyakan
yyake
yyakusuma
yyakusuman
yyaman
yyan
yyana
yyanan
yyanaŋ
yyane
yyaneman
yyanen
yyanin
yyann
yyapada
yyapan
yyapatih
yyar
yyas
yyasa
yyawan
yyaŋ
yyodhana
z
zaman
ze
zealand
zero
zh
zhang
zhao
zimbabwe
zoetmulder
zona
zone
zu
{
|
}
~
£
§
«
­
°
±
²
·
º
»
×
æ
ŋ
ŋa
ŋba
ŋban
ŋbar
ŋbe
ŋbhat
ŋbhu
ŋbin
ŋbn
ŋbun
ŋde
ŋditu
ŋge
ŋha
ŋhaguŋ
ŋhajak
ŋhalun
ŋhame
ŋhan
ŋhati
ŋhatu
ŋhatur
ŋhe
ŋhi
ŋhida
ŋhin
ŋhor
ŋje
ŋka
ŋkakalih
ŋkalih
ŋkan
ŋkar
ŋkatah
ŋke
ŋkliwon
ŋkn
ŋl
ŋla
ŋlampus
ŋlan
ŋlara
ŋlin
ŋlmah
ŋlun
ŋma
ŋmaha
ŋmalih
ŋmalin
ŋmamar
ŋman
ŋmanah
ŋmati
ŋme
ŋmiwah
ŋmun
ŋn
ŋna
ŋnabhi
ŋnan
ŋne
ŋnr
ŋnutug
ŋnya
ŋnyan
ŋpa
ŋpan
ŋpar
ŋpatih
ŋpatpat
ŋpe
ŋpisan
ŋpitu
ŋpjah
ŋpr
ŋpu
ŋpun
ŋpunika
ŋputih
ŋr
ŋra
ŋratu
ŋriŋ
ŋs
ŋsa
ŋsah
ŋsahi
ŋsami
ŋsamiman
ŋsamyan
ŋsan
ŋsar
ŋsaŋna
ŋsaŋprabhu
ŋse
ŋsira
ŋsun
ŋtan
ŋte
ŋtiga
ŋtin
ŋtitib
ŋtityaŋn
ŋtr
ŋtu
ŋtun
ŋtur
ŋwar
ŋwas
ŋwaspa
ŋya
ŋyeh
ɐ
ɑ
ɔ
ə
ɡ
ʊ
ʔ
ʰ
ʲ
ʻ
ʼ
ʾ
ʿ
ˈ
ˌ
ː
ːˈ
ˤ
̀
́
̂
̃
̄
̆
̇
̈
̉
̊
̋
̌
̍
̐
̓
̔
̚
̛
̞
̠
̣
̥
̦
̧
̨
̩
̯
̱
͂
͈
͡
α
β
γ
δ
ε
η
θ
ι
ν
ο
π
ς
υ
в
з
и
о
т
ֶ
ا
ب
ة
ج
د
ر
س
ع
ل
م
ن
ه
و
ي
َ
ُ
ِ
ّ
ْ
ٓ
ٔ
ٕ
क
ग
च
ज
ण
त
द
न
प
भ
म
य
र
ल
व
श
ष
स
़
ा
ि
ी
ु
े
ो
्
ং
ব
ল
া
ে
্
ਾ
ੀ
ା
ர
ி
ு
்
ಿ
්
ා
ෙ
จ
ย
อ
ั
ิ
ี
ุ
ู
่
้
์
་
ག
ལ
ི
ུ
င
ာ
်
공개
공식
공효진
관왕
김유정
김혜수
년
노미네이트
단독
대상
드라마
등
박보영
박은빈
배우
백상예술대상
베스트
서예지
소지섭
손예진
수상
슈룹
신혜선
어워즈
여진구
연기
연기대상
영화
월
윤아
의
이세영
이승기
인기상
일
전지현
제
종합
주연
지창욱
첫
출연
캐스팅
한효주
호흡
확정
회
후보
ា
ី
្
ᨔ
ᨗ
ᨙ
ᨚ
ᬁ
ᬂ
ᬃ
ᬄ
ᬅ
ᬑ
ᬓ
ᬕ
ᬗ
ᬘ
ᬚ
ᬟ
ᬡ
ᬢ
ᬤ
ᬥ
ᬦ
ᬧ
ᬩ
ᬪ
ᬫ
ᬬ
ᬭ
ᬮ
ᬯ
ᬰ
ᬱ
ᬲ
ᬳ
ᬵ
ᬶ
ᬷ
ᬸ
ᬹ
ᬾ
ᭂ
᭄
᭛
᭜
᭞
᭟
᭠
᭢
᭣
᭤
᭪
᭵
᭸
ᮓ
ᮤ
ᮧ
᮪
ᯮ
᯲
ᵒ
​
‌
‎
‐
–
—
―
‘
’
“
”
„
†
•
‥
…
′
″
›
⁠
€
™
↑
→
↔
↷
∅
−
∙
③
④
⑦
★
♠
♥
ⲁ
ⲓ
⺀
⺄
⺆
⺈
⺊
⺌
⺕
⺝
⺸
⺼
⿰
⿱
⿲
⿳
⿴
⿵
⿶
⿷
⿸
⿹
⿺
⿻
、
《
》
「
」
〢
い
お
か
く
さ
し
せ
た
て
に
の
は
ま
や
ら
る
を
ん
゙
゚
ア
ィ
イ
ウ
エ
オ
カ
キ
ク
コ
サ
シ
ス
タ
ッ
テ
ト
ナ
ハ
フ
モ
ャ
ユ
ラ
リ
ル
ロ
ワ
ン
・
ー
ㆍ
㇁
㇂
㇄
㇇
㇈
㇉
㇓
㐁
㐄
㐅
㐌
㐫
㐬
㐭
㐮
㐱
㑒
㒵
㒸
㒼
㓁
㓞
㔾
㕛
㕣
㖾
㘝
㚅
㚇
㚔
㚘
㝉
㝡
㝴
㝵
㞋
㞢
㞷
㠩
㠭
㠯
㡀
㡭
㡿
㢲
㢴
㣇
㣺
㥯
㪅
㫄
㫐
㫒
㫺
㬅
㬎
㬥
㬰
㲋
㳄
㷠
㸒
㸚
㸦
㼌
㼲
㽞
㿟
䀠
䂞
䍃
䏍
䒑
䖍
䖒
䖝
䖵
䙴
䚻
䜌
䝿
䡛
䧹
䪞
一
丁
丂
七
丄
丅
丆
万
丈
三
上
下
丌
不
与
丏
丐
丑
专
且
丕
世
丘
丙
业
东
丞
丢
丣
两
严
並
丨
丩
个
丫
丬
中
丮
丰
丱
串
丵
丶
丷
丸
丹
为
主
丽
丿
乀
乂
乃
久
乆
乇
么
义
之
乌
乍
乎
乏
乐
乑
乔
乖
乗
乘
乙
乚
乛
乜
九
乞
也
习
乡
乳
乾
亀
亅
了
亇
予
争
事
二
亍
于
亏
亐
云
互
亓
五
井
亘
亚
亜
亞
亟
亠
亡
亢
交
亥
亦
产
亨
亩
享
京
亭
亮
亯
亰
亲
亳
亶
亷
人
亻
亼
亾
仁
今
介
仌
从
仐
仑
仒
仓
仕
他
付
仝
代
令
以
任
企
伊
伏
伐
休
会
伯
但
位
何
佘
余
作
佥
使
來
侈
侌
侖
侯
侵
便
保
俞
信
修
倉
倍
候
倠
備
僉
像
僕
儿
兀
允
兂
元
兄
充
兆
兇
先
光
兊
克
兌
免
兑
兒
兓
兔
党
兜
兟
入
全
兩
兪
八
公
六
兮
兰
共
关
兵
其
具
典
兹
兼
冀
冂
冃
冄
内
冈
冉
冊
冋
册
再
冎
冏
冐
冒
冓
冖
冗
冘
军
农
冝
冡
冥
冫
冬
冷
几
凡
凢
凵
凶
凷
凸
凹
出
函
凾
刀
刁
刂
刃
刄
刅
分
切
刍
刑
刕
刖
列
刘
则
初
別
利
别
到
制
刺
則
削
剌
前
剡
剽
劉
力
功
加
劦
助
劫
劳
劵
勃
勇
勉
勒
動
務
勞
勤
勹
勺
勻
勾
勿
匀
匂
包
匆
匈
匊
匋
匍
匕
化
北
匚
匝
匡
匪
匱
匸
匹
区
医
匽
匿
區
十
卂
千
卄
卅
卆
升
午
卉
半
卌
华
卑
卒
卓
单
卖
南
卜
卝
卞
占
卡
卢
卣
卤
卦
卩
卪
卬
卯
印
危
即
却
卵
卷
卸
卻
厂
厃
厄
历
厈
厉
厌
厓
厘
厚
原
厤
厥
厨
厭
厲
厶
厷
厸
去
厼
厽
叀
参
參
叅
又
叉
及
友
双
反
叐
发
叒
叔
叕
取
受
叚
叜
叟
口
古
句
另
叩
只
召
可
台
叱
史
右
叵
号
司
叹
吂
各
吅
合
吉
吊
吋
同
名
后
吏
向
吕
君
吝
吞
否
含
启
吳
吴
吹
吾
呂
呆
呈
告
员
呙
周
命
咅
和
咎
咠
咢
咨
咸
咼
哀
品
哉
員
哥
哲
唐
商
啇
問
啚
啬
啻
善
喜
喬
單
喿
嗇
噩
嚴
囊
囗
囘
囙
囚
四
回
囟
因
囧
囬
园
困
囱
囷
固
国
圂
圅
國
圍
園
圓
土
圡
圣
圥
在
圭
地
圶
圼
坐
坒
坚
坴
垂
垔
垚
埀
埋
埶
執
基
堂
堅
堆
堇
堯
塞
墨
壘
士
壬
壯
声
壳
壴
壹
壺
壽
夂
处
夅
夆
备
夊
夋
夌
复
夏
夒
夕
外
夗
夘
多
夜
夢
大
夨
天
太
夫
夬
夭
央
失
夲
头
夷
夸
夹
夻
夾
奂
奄
奇
奈
奉
奎
奏
奐
契
奓
奔
奚
奞
奠
奢
奥
奭
女
奴
奻
好
如
妄
妙
妟
妥
妻
妾
姑
委
姜
威
娄
娜
婁
婴
嬰
嬴
子
孑
孔
孕
孖
字
存
孚
孛
孝
孟
季
孤
学
孫
孱
學
宀
宁
宂
它
宅
宇
守
安
宋
完
宏
宓
宗
官
定
宛
宜
宝
客
宣
室
宮
宰
害
家
容
宾
宿
寄
寅
密
富
寒
察
寧
審
寫
寬
寮
寸
对
寺
寻
寽
対
寿
封
尃
射
将
將
專
尉
尊
尋
尌
對
小
少
尒
尓
尔
尖
尗
尚
尞
尢
尣
尤
尧
尨
尭
就
尸
尹
尺
尻
尼
尽
尾
尿
局
居
屈
屋
屎
屏
屑
展
屖
屚
属
屠
屡
屬
屮
屯
屰
山
屵
屾
岁
岂
岑
岡
岩
岳
岸
峯
島
崇
崑
崔
崖
崙
崩
嵬
嶲
巂
巛
川
州
巟
巠
巢
巤
工
左
巧
巨
巩
巫
差
己
已
巳
巴
巷
巸
巽
巾
巿
帀
市
布
希
帚
帛
帝
带
師
席
帶
常
干
平
年
幵
并
幷
幸
幺
幻
幼
幽
幾
广
広
庄
床
底
店
庚
府
度
庫
庭
庶
康
庸
廉
廌
廛
廣
廩
廴
延
廷
建
廾
廿
开
弁
弃
弄
弇
弋
式
弓
弔
引
弗
弘
弜
弟
张
弥
弦
弱
張
強
强
彊
彌
彎
彐
彑
当
彔
录
彖
彗
彡
形
彥
彦
彧
彭
彳
役
彼
往
待
律
徒
得
徙
從
復
微
徵
心
忄
必
忌
忍
志
忝
忠
忩
快
念
忽
忿
思
怠
急
怱
恆
恒
恩
恭
息
悉
患
悤
悲
悶
情
惠
惡
惢
愁
愈
意
愛
感
慈
慧
慮
慶
憂
憲
應
戀
戈
戉
戊
戋
戌
戍
戎
成
我
戒
戔
或
戚
戠
戢
截
戲
戶
户
戹
戼
戾
房
所
扁
扇
手
扌
才
打
托
执
承
技
折
拉
拜
拿
指
掌
推
提
摩
支
攴
攵
收
攸
改
放
政
敄
敏
敕
敖
敗
敝
敞
敢
散
敦
敫
敬
数
敷
數
斂
文
斉
斊
斗
斤
斥
斩
斬
斯
新
方
於
施
斿
旁
旋
族
旗
无
旡
既
旣
日
旦
旧
旨
早
旬
旱
旲
时
旾
昆
昇
昌
昍
明
昏
易
昔
昗
昜
星
春
昬
是
昱
昴
昷
時
晃
晋
晏
普
景
晶
智
暑
暴
曇
曩
曰
曲
曳
更
曷
書
曹
曼
曾
替
最
朁
會
月
有
朋
服
朔
朕
朗
望
朝
木
朩
未
末
本
札
朮
术
朱
朵
朶
朿
杀
杏
杜
束
条
来
東
杲
杳
松
析
林
枚
果
枝
枲
枼
某
柔
查
柬
柰
柴
栗
桀
桑
桼
梁
條
梟
梨
棘
棠
棥
森
楚
業
楽
概
榮
樂
樊
欠
次
欣
欮
欲
欶
欽
款
歆
歇
歌
歛
止
正
此
步
武
歨
歪
歮
歯
歰
歲
歴
歷
歸
歹
歺
死
殳
段
殷
殸
殹
殺
殻
殿
毋
毌
母
每
毒
比
毕
毚
毛
毳
氏
氐
民
气
氣
水
氵
氶
氷
永
氺
氾
求
汝
汞
江
沃
沓
沙
沝
治
泉
法
波
泣
泥
泰
洛
洪
活
派
流
浦
浪
浮
海
淡
淮
清
渚
渠
湖
湯
滿
漢
漸
灣
火
灬
灭
灰
灵
灷
炅
炎
炏
炗
炙
炭
為
烈
烏
烝
焉
無
焦
焱
然
煞
熊
熏
燕
營
燮
爪
爫
爭
爯
爰
爱
爲
爵
父
爻
爽
爾
爿
片
牙
牚
牛
牜
牟
牢
牧
牪
特
牽
犀
犬
犭
犮
狂
狄
狊
独
狺
猋
猒
猪
献
獻
玄
率
玉
王
玟
玨
珎
班
理
琴
瑟
瑩
瓜
瓦
甘
甚
生
産
用
甫
甬
田
由
甲
申
电
甶
男
甸
甹
画
甾
畀
界
畏
畐
留
畜
畟
畢
畧
畨
番
畫
異
畱
當
畺
畾
疊
疋
疌
疑
疒
疾
癶
癸
癹
登
發
白
百
皀
皃
的
皆
皇
皋
皐
皕
皮
皷
皿
盃
盆
盇
盈
益
盍
盎
监
盒
盖
盛
盡
監
盤
盧
目
直
相
盾
省
眇
眉
看
県
眔
眞
真
眷
眼
眾
着
睘
睪
睿
瞏
瞢
瞿
矍
矛
矞
矢
矣
知
矦
短
石
研
破
碎
磊
磨
示
礻
礼
社
神
祟
票
祭
禀
禁
禸
禹
禺
离
禽
禾
禿
秀
秃
秉
秋
科
秝
秦
移
稟
種
穀
穌
穴
究
穹
空
穿
突
窄
窒
立
竒
竜
竝
竟
章
童
竹
笑
笠
第
筆
等
答
箕
算
箴
節
篤
篭
米
粉
粛
粟
粤
粦
粲
糞
糸
糹
系
約
納
素
索
紫
累
細
絜
絫
絲
維
綿
縣
繇
纍
纟
缶
网
罒
罔
罕
罗
罙
罡
罢
罪
署
罷
羅
羊
羌
羍
美
羔
羕
羗
羞
羡
羣
群
義
羲
羸
羽
翁
翏
習
翕
翟
翠
翼
老
耂
考
者
耆
而
耎
耑
耒
耳
耴
耶
耷
聂
聊
聖
聚
聶
聿
肀
肃
肅
肉
肖
肙
肥
肩
肯
育
肴
胃
背
胡
胥
能
脊
脩
膚
臣
臤
臧
自
臬
臭
臯
臱
至
致
臺
臼
臽
臾
臿
舀
舂
舄
與
興
舉
舌
舍
舛
舜
舞
舟
般
艮
良
色
艸
艹
艾
芒
芔
芬
芮
花
芳
芺
芻
苔
苗
苟
若
苦
英
茶
茸
荅
草
荒
荣
荼
莆
莧
莫
莽
菆
菊
菐
華
萬
落
葉
著
葛
董
葵
蒙
蒦
蒼
蓋
蓬
蓺
蔑
蔡
蕉
蕭
薄
薛
薦
薰
藍
藏
藤
藥
蘭
虍
虎
虐
虒
虔
處
虖
虗
虘
虚
虛
虜
虞
虫
虽
蚤
蚩
蜀
蜜
蟲
蠡
血
行
衍
衛
衣
衤
表
衮
衰
袁
袞
褭
褱
襄
襾
西
覀
要
覃
見
規
覓
覧
親
覽
见
视
角
解
言
訁
訇
計
詹
誩
諸
議
讠
谷
豆
豈
豊
豐
豕
豖
豙
象
豦
豩
豪
豸
貇
貝
貞
貟
負
貢
貧
貪
貫
責
貳
貴
買
費
賁
資
賈
賏
賓
賔
賛
賞
賢
賣
質
賴
贊
贝
贡
责
贯
贲
贵
赖
赞
赤
赦
走
越
足
路
蹇
身
躬
車
軍
軎
軟
輦
车
辛
辜
辟
辥
辰
辱
農
辵
辶
边
达
过
近
连
迷
追
退
送
逆
逐
通
速
造
逢
連
逮
進
遀
遂
遊
過
道
達
遣
適
遷
選
遺
邊
邑
邕
那
邦
邪
郎
部
郭
都
鄉
酉
酋
配
酓
釆
采
里
重
野
量
金
釒
錢
钅
長
镸
长
門
閃
閉
開
閏
閑
閒
間
閔
関
閵
閻
闌
门
间
闷
阑
阜
阝
阪
阿
降
院
陳
隆
隊
隋
隡
隨
隱
隶
隹
隺
隻
隼
隽
难
雀
雁
雄
集
雈
雋
雍
雐
雔
雙
雚
雜
雝
離
難
雨
雩
雪
雲
零
雷
需
霍
霜
霝
霞
霸
靈
靑
青
非
靡
面
靣
革
韋
韓
韦
韩
韭
韯
韱
音
頁
頃
項
須
頗
頡
頻
顛
页
風
风
飛
飞
食
飠
飲
養
饣
首
香
馬
馮
駦
马
骨
高
髟
鬥
鬯
鬲
鬼
魚
魯
鮮
鱼
鲁
鳥
鳳
鸟
鹵
鹿
麃
麗
麥
麦
麻
黃
黄
黍
黎
黑
黒
黨
黹
黽
黾
鼎
鼓
鼠
鼻
齊
齋
齐
齒
齿
龍
龙
龜
龟
龠
龰
龱
龴
龵
龶
龷
龸
龹
ꜜ
ꦁ
ꦂ
ꦃ
ꦏ
ꦒ
ꦔ
ꦗ
ꦝ
ꦠ
ꦢ
ꦤ
ꦥ
ꦧ
ꦩ
ꦪ
ꦫ
ꦭ
ꦮ
ꦱ
ꦲ
ꦴ
ꦶ
ꦸ
ꦺ
ꦼ
ꦿ
꧀
꧈
꧌
꧍
者
艹
﻿
（
）
，
：
？
�
𠀁
𠀃
𠀆
𠀉
𠀎
𠀐
𠁁
𠁣
𠂆
𠂇
𠂈
𠂉
𠂊
𠂋
𠂎
𠂒
𠂔
𠂛
𠂡
𠂢
𠂤
𠂬
𠂭
𠂹
𠃊
𠃋
𠃌
𠃍
𠃎
𠃑
𠃓
𠃔
𠃜
𠄌
𠄎
𠄠
𠄢
𠆢
𠆥
𠇍
𠈌
𠌵
𠓜
𠔉
𠔥
𠔼
𠔽
𠔿
𠕀
𠕁
𠕋
𠘧
𠘨
𠙻
𠙼
𠚏
𠚒
𠚤
𠚪
𠣏
𠤎
𠤕
𠥓
𠦄
𠦑
𠦝
𠧒
𠧗
𠧪
𠩺
𠪚
𠫓
𠫔
𠫤
𠬛
𠬝
𠬞
𠬢
𠬤
𠬶
𠮛
𠮦
𠮷
𠯑
𠱠
𠳮
𠷎
𡈼
𡉀
𡉵
𡌥
𡍮
𡏳
𡕒
𡕩
𡕰
𡖅
𡗗
𡗜
𡘆
𡘤
𡧱
𡨄
𡩧
𡬠
𡭽
𡰣
𡰥
𡰪
𡰯
𡰱
𡷈
𡸁
𡿨
𡿩
𡿪
𡿺
𢀖
𢀛
𢀩
𢁙
𢆉
𢆰
𢆶
𢇁
𢇇
𢉖
𢌬
𢌿
𢏚
𢑑
𢑚
𢖻
𢙣
𢛳
𢦏
𢦒
𢧵
𢼄
𢾕
𣁋
𣄼
𣅀
𣅽
𣍘
𣎳
𣎵
𣏋
𣏼
𣗥
𣥂
𣥖
𣦵
𣦼
𣧄
𣪊
𣪠
𣬉
𣳾
𣶒
𤇾
𤊽
𤐫
𤓰
𤔔
𤕨
𤣩
𤰇
𤰔
𤰞
𤴓
𤴔
𤽄
𥁑
𥁕
𥃦
𥃩
𥃭
𥇡
𥑟
𥘅
𥘈
𥝢
𥫗
𥱡
𦈢
𦉪
𦉬
𦉼
𦍌
𦍒
𦎧
𦐇
𦓔
𦔮
𦘒
𦙃
𦚏
𦣝
𦣞
𦣻
𦥑
𦥔
𦥯
𦨉
𦭝
𦰩
𧆞
𧈧
𧘇
𧰨
𧴪
𧴮
𧵩
𧾷
𨸏
𨾴
𩙿
𩠐
𩫏
𩵋
𪉷
𪜀
𪟽
𪠲
𪩲
𫇦
𫔭
𫜸
𫝀
𫠣
𫠩
𫢉
𫥞
𫩏
𫩠
𫪡
𫲽
𫶧
𬀷
𬐘
𬗌
𬙙
𬛸
𬜯
𬟩
𬯁
𬴘
𬺻
𬼉
𬼖
𭀰
𭁈
𭁨
𭅰
𭑈
𭕄
𭗼
𭤨
𭥫
𭻾
𮅕
𮊿
𮍌
𮍏
𮓗
𮥼
𮧮
廾
𰀁
𰀄
𰀈
𰀉
𰀕
𰀠
𰀡
𰀢
𰀪
𰁜
𰃮
𰆊
𰆘
𰋙
𰕎
𰢴
𰧭
𰯲
00--
01--
017--
02--
03--
04--
05--
06--
07--
08--
09--
100--
104--
135--
136--
149--
150--
164--
216--
248--
37--
375--
38--
39--
42--
43--
44--
45--
46--
48--
49--
50--
51--
52--
53--
54--
55--
56--
566--
57--
58--
59--
60--
61--
62--
63--
64--
65--
66--
67--
68--
69--
70--
71--
72--
73--
74--
75--
76--
77--
78--
79--
80--
81--
82--
83--
84--
85--
86--
87--
88--
89--
90--
91--
92--
93--
94--
95--
96--
97--
978--
98--
99--
a--
aa--
ab--
aba--
abah--
abas--
abda--
abdha--
abe--
abu--
ac--
aca--
ace--
ad--
ada--
add--
ade--
adhya--
adi--
adn--
ado--
adol--
adu--
adya--
ae--
af--
aff--
ag--
aga--
agawo--
age--
ago--
agu--
aguŋ--
ah--
aha--
ahada--
ahan--
ahe--
ahi--
ahin--
ahiŋ--
ahu--
ai--
air--
ais--
aja--
ajak--
aji--
ak--
aka--
akah--
akak--
ake--
aki--
akin--
akna--
ako--
aks--
akti--
aku--
akus--
al--
ala--
alak--
alam--
alap--
alas--
alaŋ--
ale--
ali--
alin--
all--
alo--
alter--
alu--
am--
ama--
aman--
amas--
ambi--
ambil--
ame--
amet--
ami--
amoŋ--
amr--
amu--
amuk--
an--
ana--
anak--
anan--
and--
andap--
andaŋ--
andika--
andiŋ--
ane--
aneh--
aneka--
anema--
aner--
anes--
ang--
anha--
anhida--
ani--
anin--
anira--
anis--
aniŋ--
anka--
anma--
ann--
anr--
anriŋ--
ans--
ansa--
ansaŋ--
ant--
anta--
anthro--
anti--
antos--
antyaŋ--
anu--
anya--
ap--
apa--
apah--
apak--
apan--
apar--
ape--
api--
apit--
appl--
apr--
apra--
apu--
apus--
ar--
ara--
arah--
aran--
arap--
aras--
are--
ari--
arin--
arira--
ariŋ--
aru--
as--
asa--
asaŋ--
asi--
asira--
aso--
asr--
asses--
asso--
ast--
asta--
astra--
asu--
at--
ata--
atan--
atanpa--
ate--
ati--
atityaŋ--
atma--
atmosp--
atr--
atru--
ats--
atten--
atu--
aturaŋ--
au--
ave--
awa--
awak--
awan--
awas--
awe--
aweh--
awer--
awi--
awinaŋ--
awit--
awu--
awya--
aya--
ayan--
ayaŋ--
ayo--
ayu--
az--
aŋ--
aŋn--
aŋra--
aŋriŋ--
aŋs--
b--
ba--
bab--
baba--
bach--
bad--
bag--
bagus--
bah--
bahan--
bahu--
bajaŋ--
bak--
bal--
bala--
bale--
bali--
balong--
bam--
ban--
bane--
bang--
bani--
banyu--
bapa--
bar--
barak--
bas--
basa--
basaŋ--
bat--
batu--
bau--
bawu--
bay--
baya--
bayu--
baŋ--
bcik--
bd--
be--
bebas--
beda--
bek--
bel--
bela--
ben--
beng--
ber--
bes--
bet--
bha--
bhakti--
bhi--
bho--
bhu--
bi--
bibi--
bila--
bin--
bina--
bing--
bio--
bir--
bis--
bisa--
bit--
blan--
ble--
bli--
blo--
bn--
bo--
boe--
boel--
boen--
bog--
bok--
bom--
bon--
bone--
bor--
bos--
bot--
boya--
br--
bra--
bras--
brata--
bre--
bs--
bt--
bu--
buah--
buda--
budal--
budi--
bug--
buk--
buka--
bul--
bulu--
bumi--
bun--
bung--
bur--
burgemees--
burin--
bus--
but--
buta--
buwin--
buŋ--
bwat--
bwik--
bwin--
bya--
byaŋ--
byu--
c--
ca--
cab--
cac--
cad--
cag--
cahi--
cak--
cal--
cam--
can--
cana--
canaŋ--
candi--
cane--
cang--
cap--
capa--
car--
cara--
caraŋ--
cari--
carita--
caru--
cas--
cat--
caŋ--
cca--
ccha--
ce--
cele--
celeb--
cen--
ceng--
cer--
cet--
ch--
cha--
char--
che--
chi--
chu--
ci--
cia--
cibe--
cid--
cih--
cik--
cikeu--
cil--
cin--
cina--
cip--
cir--
cit--
ciŋ--
cle--
cn--
cniŋ--
co--
col--
com--
con--
conve--
cor--
coŋ--
cr--
cre--
cris--
criti--
cro--
ct--
cu--
cuk--
cul--
cum--
cun--
cur--
cut--
cy--
d--
da--
dada--
dadi--
dados--
dae--
dag--
dagiŋ--
dah--
daha--
dahat--
dak--
daka--
dal--
dam--
dama--
dan--
dana--
dane--
dap--
dar--
dari--
das--
dasa--
dasaŋ--
data--
datan--
dati--
dayu--
daŋ--
dd--
ddha--
ddhi--
ddi--
de--
deb--
dec--
defe--
deg--
deh--
dek--
del--
deli--
demo--
den--
dena--
dene--
deng--
denira--
deniŋ--
dens--
der--
dera--
dereŋ--
des--
desa--
desaŋ--
dewa--
dewan--
dewek--
dewi--
dewwa--
dha--
dhah--
dhan--
dhana--
dhap--
dharma--
dhas--
dhawa--
dhaŋ--
dhe--
dhi--
dhita--
dhra--
dhu--
di--
dia--
did--
die--
diffe--
dig--
dih--
diha--
dija--
dijro--
dik--
dika--
dike--
dil--
dima--
din--
dina--
dini--
dipa--
dipe--
diper--
dipl--
dir--
dira--
dis--
disa--
dise--
dite--
ditu--
diŋ--
dj--
dja--
dma--
dn--
do--
doe--
don--
dong--
doo--
dor--
doŋ--
dr--
dra--
dro--
ds--
du--
dua--
duk--
duka--
duke--
dul--
dum--
duma--
dun--
dur--
durus--
duruŋ--
dus--
duŋ--
dwa--
dwaniŋ--
dwaŋ--
dwi--
dy--
dya--
dyan--
e--
ear--
eco--
ed--
eda--
edi--
edu--
effe--
eh--
eha--
ehi--
ek--
eka--
eko--
eks--
el--
ela--
ele--
elect--
em--
ema--
eman--
embra--
emer--
en--
ena--
end--
ene--
eng--
enterp--
equa--
equi--
er--
era--
eriŋ--
es--
esa--
et--
eta--
etan--
etaŋ--
eu--
ewa--
ex--
expl--
eŋ--
f--
fa--
fal--
fe--
fer--
fern--
fic--
fis--
fl--
fo--
fon--
for--
fos--
fr--
frag--
fre--
frie--
fu--
g--
ga--
gada--
gag--
gaga--
gage--
gah--
gahan--
gahe--
gahiŋ--
gak--
gakin--
gal--
gala--
galan--
galaŋ--
galin--
gals--
gam--
gama--
gan--
gane--
ganiŋ--
gap--
gar--
gara--
gareŋ--
gas--
gat--
gati--
gawa--
gawe--
gawok--
gayaŋ--
gaŋ--
gd--
gdhe--
ge--
geg--
gege--
gel--
geme--
gen--
genn--
gens--
geo--
ger--
get--
gga--
ggan--
ggane--
ggi--
ggih--
ggin--
ggine--
gha--
gho--
ghra--
gi--
gihe--
gihin--
gil--
gin--
gina--
gir--
giri--
giriŋ--
gis--
git--
giŋ--
gli--
glis--
glisiŋ--
glot--
gma--
gna--
gni--
go--
god--
goda--
goh--
gol--
gon--
gone--
gonn--
got--
goŋ--
gr--
gra--
gras--
gre--
gri--
griŋ--
gro--
gs--
gt--
gtit--
gu--
gua--
gug--
guh--
guhaŋ--
guhiŋ--
gul--
gula--
gumi--
gun--
guna--
gunuŋ--
gup--
guru--
gus--
gusti--
gustin--
gut--
guŋ--
gwan--
gwe--
gwiŋ--
gya--
gye--
gyeong--
h--
ha--
haba--
habaŋ--
habot--
had--
hada--
hadan--
hade--
hadi--
hae--
hage--
haguŋ--
hah--
haj--
haja--
hajak--
haji--
hajibyaŋ--
hajin--
hak--
haka--
haketo--
haku--
hal--
hala--
halas--
hale--
halon--
halus--
ham--
hama--
hamba--
hambu--
hambul--
hami--
hamu--
han--
hana--
hanak--
hanake--
hand--
hane--
haneŋ--
hantuk--
hanu--
hap--
hapa--
hapan--
hapaŋ--
hapi--
har--
haran--
hari--
haris--
harum--
has--
hasa--
hasiŋ--
hasu--
hasuŋ--
hat--
hati--
hatin--
hatma--
hature--
hawak--
hawanan--
hawinan--
hayam--
hayat--
hayu--
hayune--
haywa--
haz--
haŋ--
hda--
he--
hea--
heh--
heka--
hel--
heliŋ--
hem--
hen--
her--
hes--
het--
hi--
hiba--
hibu--
hibuk--
hibuŋ--
hica--
hid--
hida--
hidadane--
hidama--
hidane--
hidara--
hidasaŋ--
hidewa--
hig--
higun--
hih--
hija--
hijo--
hik--
hika--
hikaŋ--
hiki--
hiku--
hil--
hila--
hilaŋ--
hilutu--
him--
hima--
himadhe--
hin--
hina--
hip--
hipa--
hipun--
hira--
hiri--
hirika--
hiriki--
hiriŋ--
his--
hisen--
hisin--
histri--
hisu--
hit--
hiwa--
hiwak--
hiwaŋ--
hiya--
hiŋ--
hiŋs--
hma--
hne--
hnu--
ho--
hoff--
hoka--
hol--
holas--
holo--
hon--
hor--
how--
hr--
hu--
hugi--
huli--
huliŋ--
hulu--
hulun--
hum--
huma--
humuŋ--
hun--
hupa--
hur--
hurip--
hus--
hut--
hutusan--
huyaŋ--
hwa--
hy--
hya--
hyaŋ--
hyaŋtri--
hydro--
hyun--
i--
ia--
ib--
iba--
ibu--
ic--
icchen--
icen--
id--
ida--
ide--
ig--
iga--
ih--
iha--
ija--
ijo--
ik--
ika--
ikaŋ--
ike--
iki--
ikip--
iku--
il--
ila--
ile--
ilo--
ilu--
im--
ima--
imo--
impe--
imu--
in--
ina--
inaŋ--
inc--
ind--
indo--
indra--
ine--
influe--
ing--
ini--
ins--
int--
inte--
inter--
inti--
inu--
inum--
inve--
io--
ip--
ipa--
ipi--
ipu--
ir--
ira--
irah--
iraris--
iras--
iri--
iriŋ--
iru--
is--
isa--
ise--
isi--
isu--
it--
ita--
itan--
ite--
iti--
ituŋ--
iv--
iwa--
iwar--
iwas--
iwi--
iya--
iŋ--
iŋs--
j--
ja--
jadma--
jag--
jaga--
jagat--
jah--
jahe--
jaj--
jak--
jake--
jal--
jala--
jalan--
jam--
jan--
jana--
jang--
jangga--
jani--
janma--
japa--
jaran--
jas--
jat--
jata--
jati--
jatin--
jaya--
jaye--
jayen--
jayeŋpa--
jaŋ--
jaŋyan--
je--
jen--
jer--
ji--
jim--
jin--
jis--
jit--
jiŋ--
jja--
jjuna--
jl--
jle--
jo--
jog--
joŋ--
jp--
jr--
jri--
jro--
ju--
juga--
juk--
jul--
jun--
juru--
jut--
juŋ--
jwa--
jya--
k--
ka--
kab--
kaba--
kabe--
kacicaŋ--
kad--
kada--
kaden--
kadi--
kadisaŋ--
kadu--
kae--
kag--
kage--
kaget--
kagu--
kagyat--
kaha--
kahaŋ--
kahe--
kahi--
kahiŋ--
kahu--
kai--
kaja--
kak--
kaka--
kakan--
kake--
kaki--
kaku--
kal--
kala--
kale--
kali--
kalu--
kalun--
kam--
kama--
kamahar--
kame--
kamen--
kan--
kana--
kandika--
kane--
kang--
kaniŋ--
kans--
kanti--
kap--
kapa--
kapat--
kape--
kapi--
kapin--
kapiŋ--
kapo--
kapr--
kapu--
kar--
kara--
karan--
karang--
karaŋ--
kare--
kari--
karo--
karya--
kas--
kasa--
kase--
kasi--
kasu--
kasub--
kaswe--
kat--
kata--
kate--
kati--
katin--
katon--
katu--
kau--
kaung--
kawa--
kawe--
kawi--
kawu--
kaya--
kayu--
kayun--
kaz--
kaŋ--
kaŋs--
kba--
kbus--
kd--
kde--
ke--
kebe--
kece--
kede--
kedung--
keh--
keha--
kek--
keka--
kekar--
keke--
keku--
kel--
kela--
kele--
kem--
kema--
kemo--
ken--
kene--
keniŋ--
kenken--
kens--
kep--
kepa--
kepe--
ker--
kera--
kerta--
kes--
kesa--
kese--
ket--
keta--
kete--
keto--
ketu--
kew--
kewus--
key--
keŋ--
kg--
kh--
ki--
kicen--
kid--
kija--
kik--
kil--
kilan--
kilin--
kim--
kin--
kina--
kind--
kinka--
kinma--
kis--
kit--
kita--
kiwalaŋ--
kiŋ--
kka--
kla--
klam--
klawu--
kle--
klo--
klu--
km--
kma--
kmi--
kn--
kna--
kne--
kni--
ko--
kocap--
kocapa--
kocapan--
koh--
koja--
kok--
kol--
kome--
kompi--
kon--
kor--
kora--
korea--
kori--
kos--
kot--
kota--
koŋ--
kpa--
kpr--
kpu--
kr--
kra--
krak--
kre--
kri--
krik--
kris--
kriŋ--
kro--
krodha--
kru--
ks--
ksa--
ksi--
kt--
kta--
ktan--
kti--
ktut--
ku--
kuda--
kudya--
kudyaŋ--
kuh--
kul--
kula--
kuma--
kun--
kunaŋ--
kuniŋ--
kup--
kur--
kuran--
kus--
kut--
kuta--
kuŋ--
kwa--
kya--
l--
la--
lab--
lad--
lag--
lah--
lahe--
lahut--
lak--
laki--
lal--
lali--
lalu--
lam--
lama--
lami--
lamun--
lan--
lanaŋ--
land--
lang--
laniŋ--
lans--
lap--
lapa--
lar--
lara--
las--
lat--
lau--
law--
lawan--
lawut--
laŋ--
laŋlaŋ--
lb--
le--
lea--
leb--
lebak--
ledaŋ--
ledaŋkayune--
leh--
lek--
lela--
lemah--
len--
leo--
les--
let--
leuwi--
lewo--
li--
lid--
lig--
lih--
lila--
lim--
lima--
lin--
line--
ling--
lintaŋ--
lir--
lis--
lisaŋ--
lisn--
lit--
liwat--
liyu--
liŋ--
lma--
ln--
lo--
lod--
loe--
log--
lok--
loka--
lon--
loŋ--
lp--
ls--
lu--
lud--
luk--
luma--
lun--
luput--
lus--
lut--
luŋ--
lwas--
ly--
lya--
lyan--
lyu--
m--
ma--
maba--
mabe--
mac--
maca--
macan--
mad--
mada--
made--
madhe--
madhu--
madu--
mae--
mag--
maga--
mage--
mah--
maha--
mahe--
mahi--
mahu--
mai--
maja--
maje--
mak--
maka--
makadi--
make--
makr--
maku--
mal--
mala--
malan--
male--
mali--
malu--
mam--
mama--
mami--
mamu--
man--
mana--
manah--
mane--
mang--
manga--
mange--
mani--
manis--
maniŋ--
mann--
mantuk--
manu--
many--
maos--
map--
mapa--
mapamit--
mapi--
mapr--
mapu--
mar--
mara--
mare--
marga--
mari--
mariŋ--
mas--
masa--
masan--
mase--
masi--
masin--
masu--
mat--
mata--
matan--
mate--
mati--
matu--
matun--
mau--
mawi--
may--
maya--
mayo--
maŋ--
mba--
mban--
mbaŋ--
mbe--
mbok--
mbu--
mc--
md--
me--
med--
mega--
meh--
mei--
mekar--
mel--
melad--
melan--
meli--
meme--
memo--
mempe--
memper--
mempert--
men--
mena--
mene--
meng--
mengem--
menye--
menyi--
menyu--
mer--
mere--
meru--
mes--
mesa--
meso--
met--
mi--
mih--
mijil--
mik--
mil--
milu--
min--
mina--
minab--
mirib--
mis--
misa--
misadya--
mit--
miŋ--
mk--
mka--
mkul--
mla--
mlan--
mm--
mma--
mman--
mmane--
mmaniŋ--
mmi--
mn--
mna--
mne--
mo--
moe--
moen--
mojo--
mol--
mon--
mono--
mor--
move--
moz--
moŋ--
mpa--
mpal--
mpi--
mpu--
mpudhaŋ--
mpudi--
mpun--
mpuna--
mpunka--
mpunma--
mpura--
mpuŋ--
mr--
mra--
mrasa--
mre--
mriŋ--
ms--
msa--
mt--
mtu--
mu--
mua--
muh--
muk--
mul--
mula--
mun--
mung--
mur--
mus--
mut--
muŋ--
muŋpuŋ--
mwa--
mwani--
mwaŋ--
mwaŋs--
my--
mya--
n--
na--
nabd--
nabi--
nad--
nah--
naha--
nak--
naka--
nake--
nal--
nala--
nam--
nama--
nan--
nanak--
nandaŋ--
nane--
nang--
nani--
napa--
napi--
nar--
nara--
nari--
nariŋ--
nas--
nasi--
nat--
nata--
navi--
nawaŋ--
nawi--
nayaŋ--
naŋ--
nba--
nd--
nda--
ndak--
ndan--
ndas--
nde--
nden--
ndi--
ndo--
ndon--
ndu--
ne--
neh--
neha--
nejani--
nek--
neka--
nel--
nem--
nema--
nen--
nene--
nepa--
ner--
neriŋ--
nes--
nesa--
net--
netan--
new--
news--
neŋ--
ng--
nga--
ngak--
ngan--
ngang--
ngare--
ngawe--
nge--
ngen--
ngeng--
nget--
ngoe--
ngr--
ngu--
ngul--
ngun--
nh--
nha--
nhida--
ni--
nibayan--
nigam--
nih--
nihan--
nik--
nika--
niki--
nila--
nin--
nini--
nir--
nira--
nis--
niŋ--
niŋn--
nja--
nje--
nji--
njo--
nka--
nkas--
nku--
nl--
nla--
nma--
nmar--
nmu--
nn--
nna--
nne--
nni--
no--
nom--
non--
nor--
nora--
not--
npa--
npr--
npu--
npurun--
nr--
nra--
nriŋ--
ns--
nsa--
nsaŋ--
nsi--
nt--
nta--
ntan--
ntas--
ntaŋ--
nte--
nti--
ntik--
nto--
ntone--
ntos--
ntu--
ntuk--
nu--
nuh--
nuju--
nuli--
nulya--
num--
nun--
nunas--
nung--
nur--
nusa--
nut--
ny--
nya--
nyak--
nyam--
nyan--
nyang--
nyat--
nye--
nyele--
nyeng--
nyia--
nying--
nylam--
o--
ob--
od--
oda--
oe--
of--
oh--
ojog--
ok--
oka--
ol--
olas--
ole--
om--
oman--
on--
one--
oo--
or--
ore--
org--
oro--
os--
ose--
otom--
out--
oŋ--
p--
pa--
pabi--
pac--
paca--
pacaŋ--
pad--
pada--
pade--
padha--
page--
pager--
pagu--
pah--
paha--
pahican--
paja--
pak--
paka--
paku--
pal--
pala--
pale--
pali--
paliŋ--
pam--
pama--
pame--
pamit--
pamo--
pamr--
pamu--
pan--
pana--
panak--
pane--
pang--
pange--
panin--
panj--
panu--
panye--
panyi--
papa--
pape--
par--
para--
parah--
paran--
pare--
pari--
part--
pas--
pasa--
pase--
pasi--
pasir--
pat--
pata--
pate--
pati--
patu--
patut--
pawe--
payu--
paŋ--
pc--
pd--
pdi--
pe--
peh--
pela--
pember--
pembi--
peme--
pen--
penang--
pener--
peng--
penga--
penge--
pengli--
pening--
penyar--
penye--
penyi--
per--
pera--
pere--
pers--
perse--
peru--
pese--
pet--
peta--
ph--
pha--
phal--
phy--
pi--
pil--
pin--
pina--
pipis--
pira--
piren--
pis--
pisan--
pit--
pita--
pitu--
pituŋ--
piŋ--
pj--
pka--
pki--
pku--
pl--
plan--
play--
ple--
pma--
pn--
pna--
po--
poe--
poen--
poer--
poh--
pol--
polo--
poly--
pon--
poo--
pop--
por--
pos--
pot--
pp--
ppa--
pr--
pra--
prabhu--
pract--
prade--
pras--
praya--
praŋ--
pre--
pri--
priŋ--
pro--
ps--
psa--
psu--
pt--
pta--
pte--
pti--
pu--
pug--
puh--
puk--
pukin--
pukulun--
pulo--
pun--
puna--
punapi--
punaŋ--
pung--
punika--
puniki--
pupu--
puput--
pur--
pura--
purun--
purwa--
pus--
put--
putra--
putran--
putri--
putu--
puŋ--
pwa--
py--
pyanak--
q--
qua--
que--
qui--
quilo--
r--
ra--
rab--
rabin--
raden--
rady--
rag--
raga--
ragan--
rah--
rahi--
rahin--
rai--
rain--
raja--
rajah--
rajeŋma--
rak--
raka--
rakan--
ral--
ram--
rama--
rame--
ran--
rane--
rang--
rap--
rara--
rare--
raris--
ras--
rasa--
rat--
rata--
ratna--
ratu--
rawa--
rawi--
rawos--
raŋ--
re--
red--
ref--
regis--
reh--
rehiŋ--
rejo--
reka--
ren--
res--
rho--
ri--
ria--
rid--
rih--
rik--
rim--
rima--
rin--
rina--
ring--
rip--
ripa--
ris--
risa--
rit--
riz--
riŋ--
riŋba--
riŋd--
riŋha--
riŋhi--
riŋhida--
riŋka--
riŋl--
riŋn--
riŋpa--
riŋra--
riŋs--
riŋsaŋ--
rn--
ro--
rod--
rol--
ron--
ros--
roŋ--
rr--
rs--
ru--
rud--
ruk--
rum--
ruma--
run--
rung--
rus--
rusak--
rut--
ruŋ--
rwa--
rwan--
rwaniŋ--
s--
sa--
saba--
sad--
sada--
sadagiŋ--
sadya--
saget--
saguŋ--
sah--
saha--
sahan--
sahi--
sahu--
sai--
saja--
sak--
saka--
sakeŋ--
sakit--
sakiŋ--
sal--
sale--
saliŋ--
sam--
sama--
sambil--
sami--
sampun--
san--
sanan--
sand--
sane--
saneka--
sang--
sap--
sapa--
sapar--
sapi--
sapta--
sapunapi--
sapunika--
sar--
sara--
saran--
sari--
sarin--
sas--
sasa--
sasi--
sat--
sato--
satus--
satwa--
satya--
sawu--
sax--
say--
sayan--
sayaŋ--
saye--
saŋ--
saŋcikraba--
saŋk--
saŋka--
saŋma--
saŋna--
saŋraghu--
saŋsu--
sba--
sch--
scho--
schu--
scien--
sco--
scr--
sd--
se--
sea--
see--
seh--
sekar--
seke--
sel--
sela--
selo--
sem--
sema--
semi--
sen--
seng--
seo--
ser--
seren--
ses--
sesa--
sese--
set--
sewit--
sga--
sh--
sha--
she--
shi--
si--
sia--
sida--
siddha--
sido--
sig--
signif--
sih--
sik--
sika--
sil--
sima--
sin--
sina--
sine--
singo--
sir--
sira--
sirah--
sirara--
sis--
sisip--
sit--
siti--
situ--
siwa--
siŋ--
sk--
ska--
ske--
sku--
sl--
sla--
sle--
slo--
sm--
sma--
smara--
smi--
sn--
sna--
so--
soci--
soe--
sok--
soka--
soma--
son--
sor--
sosio--
sotaniŋ--
sp--
spa--
spe--
spi--
spon--
sq--
sr--
sra--
sren--
sri--
ss--
st--
sta--
stan--
star--
ste--
sti--
str--
stra--
stri--
stu--
su--
sub--
suba--
suci--
sud--
sudi--
suh--
suhud--
suk--
suka--
sukan--
suko--
sul--
suma--
sumber--
sun--
sung--
suns--
sup--
super--
sur--
sura--
surak--
sus--
susu--
sut--
sutra--
suwe--
suŋ--
swa--
swaŋ--
swe--
sweca--
sy--
sya--
syu--
t--
ta--
tab--
tabu--
tag--
tak--
takut--
tal--
tala--
tali--
tam--
taman--
tan--
tana--
tang--
tani--
tanka--
tankocap--
tanma--
tanpa--
tans--
tanuruŋ--
tap--
tapa--
tar--
tara--
taru--
tas--
tat--
tata--
tatas--
tatwa--
tau--
taŋ--
tbu--
td--
te--
tea--
tegal--
teja--
tele--
tem--
tema--
temu--
ten--
teng--
tentoonstel--
ter--
terse--
tete--
th--
tha--
than--
thar--
the--
thi--
tho--
ti--
tiba--
tibu--
tidoŋ--
tiga--
tigaŋ--
tih--
tik--
til--
tim--
tin--
tina--
tinu--
tis--
titi--
tityaŋ--
tiwas--
tiŋ--
tja--
tje--
tk--
tka--
tkan--
tkaniŋ--
tke--
tken--
tkeniŋ--
tla--
tlas--
tlogo--
tlu--
tma--
tmu--
tn--
tna--
to--
toe--
toh--
tohaŋ--
tok--
tol--
tom--
ton--
tone--
top--
tor--
tos--
tot--
toya--
toyan--
toŋ--
tpa--
tra--
trans--
tre--
tri--
triŋ--
tro--
tru--
trus--
ts--
tsa--
tt--
tta--
ttan--
ttha--
tthi--
tti--
ttin--
ttu--
tu--
tuh--
tuha--
tuhu--
tuju--
tuk--
tul--
tulak--
tuluŋ--
tum--
tuma--
tumuli--
tun--
tuna--
tunas--
tung--
tur--
turi--
tus--
tusiŋ--
tut--
tuu--
tuwa--
tuwi--
tuŋ--
twa--
twan--
twara--
twe--
twi--
ty--
tya--
tyaŋ--
tyu--
u--
ua--
ub--
uba--
uc--
ucap--
ucape--
uci--
ud--
uda--
udaŋ--
uddha--
udyaŋ--
ugu--
uh--
uhugaŋ--
ui--
uk--
uka--
ukla--
ukra--
uku--
ukut--
ul--
ula--
ulan--
ulati--
uli--
ulu--
um--
uma--
umah--
umi--
umu--
un--
una--
unan--
unaŋ--
und--
undaŋ--
une--
ung--
uni--
unin--
uns--
unus--
unya--
up--
upa--
upaya--
ur--
ura--
uri--
urip--
uru--
us--
usa--
usap--
usu--
usup--
ut--
utama--
utami--
utaŋ--
uttama--
utus--
uwa--
uwaŋ--
uwe--
uŋ--
v--
va--
val--
van--
ve--
ver--
vi--
vie--
vo--
vol--
voya--
w--
wa--
wadwa--
wah--
wahu--
wai--
wak--
wal--
walen--
wali--
waluya--
wam--
wan--
wana--
wang--
wani--
war--
wara--
warah--
wari--
was--
wastu--
wat--
wata--
watu--
wawaŋ--
wawu--
wayan--
waŋ--
wdhiŋ--
we--
web--
weh--
wel--
wen--
wes--
west--
wi--
wib--
widhya--
widya--
wih--
wihiŋ--
wija--
wiji--
wiki--
wil--
win--
wira--
wiriŋ--
wis--
wit--
wkas--
wnaŋ--
wo--
wolo--
won--
wono--
wor--
world--
woŋ--
wr--
wre--
wtu--
wu--
wun--
wur--
wus--
wusa--
wuska--
wwa--
wwan--
wwaŋ--
wwi--
wwoŋ--
wya--
wyakti--
x--
xx--
y--
ya--
yadi--
yadin--
yah--
yahi--
yaka--
yal--
yam--
yama--
yan--
yana--
yane--
yaniŋ--
yanka--
yanma--
yans--
yansa--
yantan--
yanu--
yapa--
yar--
yariŋ--
yas--
yasa--
yat--
yata--
yayi--
yaŋ--
ye--
yeka--
yen--
yeniŋ--
yo--
yoga--
yogya--
yu--
yuda--
yun--
yus--
ywa--
yya--
yyadina--
yyak--
yyan--
yyane--
yyar--
yyas--
z--
zai--
ze--
zoo--
zu--
ŋ--
ŋba--
ŋde--
ŋha--
ŋhan--
ŋhe--
ŋhi--
ŋhida--
ŋka--
ŋl--
ŋla--
ŋlan--
ŋlawan--
ŋma--
ŋn--
ŋna--
ŋne--
ŋpa--
ŋpr--
ŋpu--
ŋr--
ŋra--
ŋriŋ--
ŋs--
ŋsa--
ŋsami--
ŋsina--
ŋtan--
ŋtu--
ŋya--
ɡ--
ا--
ᬫ--
ᬭ--
--0
--00
--01
--02
--03
--04
--06
--07
--1
--10
--11
--12
--14
--15
--16
--17
--18
--19
--2
--21
--22
--23
--25
--26
--27
--28
--29
--3
--30
--31
--32
--33
--34
--35
--36
--37
--38
--39
--4
--41
--42
--43
--44
--45
--46
--47
--5
--50
--52
--53
--54
--55
--56
--57
--58
--6
--61
--62
--63
--64
--66
--67
--68
--7
--71
--72
--73
--74
--75
--76
--77
--78
--79
--8
--81
--82
--83
--84
--85
--86
--87
--88
--89
--9
--91
--92
--95
--98
--a
--aan
--ab
--abe
--able
--abu
--abuh
--acur
--ad
--ada
--adan
--ade
--adi
--adu
--ae
--af
--ag
--aga
--age
--agi
--agih
--agung
--aguŋ
--ah
--ahan
--ahang
--ahe
--ahi
--ahin
--ahur
--ai
--ain
--aja
--ajan
--ajaya
--aji
--ak
--aka
--akaguŋ
--akan
--akar
--ake
--aki
--akin
--akn
--akna
--akonaŋ
--aks
--akti
--aku
--al
--ala
--alah
--ald
--ali
--alih
--alin
--alit
--alu
--am
--ama
--aman
--amas
--ame
--ames
--ami
--amin
--ampe
--ampi
--an
--ana
--anak
--anan
--anaŋ
--andin
--ane
--ang
--anga
--ani
--anin
--ann
--anne
--annya
--annyane
--ano
--anom
--ans
--anti
--anya
--ap
--apa
--apak
--apan
--apatih
--ape
--api
--apkan
--apta
--ar
--ara
--aran
--aras
--ard
--ari
--arjo
--aru
--arum
--ary
--as
--asa
--asan
--ase
--asi
--asih
--asri
--at
--ata
--atar
--ataŋ
--ate
--ati
--atic
--atics
--atih
--ation
--atlu
--atu
--atuman
--atun
--atur
--au
--awa
--awaŋ
--awe
--awi
--awu
--awuh
--awur
--ay
--aya
--ayaga
--ayan
--ayang
--ayu
--aŋ
--aŋmaha
--aŋman
--aŋn
--aŋna
--aŋpan
--aŋra
--aŋs
--b
--ba
--bagus
--bah
--bahan
--bai
--bakti
--bala
--bali
--ban
--bang
--bangan
--bani
--bann
--bante
--bapa
--bar
--baru
--bas
--bat
--batur
--bayu
--baŋ
--bcik
--bda
--bdha
--be
--beg
--beh
--ben
--bendo
--ber
--bha
--bhat
--bhi
--bhis
--bhu
--bi
--bia
--bibi
--bih
--bil
--bin
--bina
--bing
--bis
--biŋ
--bke
--blas
--ble
--bli
--bn
--bne
--bo
--boet
--bon
--br
--bra
--bran
--bs
--bu
--budal
--bug
--buh
--buhan
--buk
--buka
--bul
--bumaya
--bun
--bur
--but
--by
--bya
--byaŋ
--c
--ca
--cahi
--cak
--cal
--cam
--can
--cana
--cap
--car
--cari
--catu
--catur
--ce
--ced
--cer
--ch
--che
--cht
--ci
--cin
--cing
--cio
--cita
--ck
--cme
--co
--cokor
--com
--cs
--ct
--cts
--cu
--cuk
--cukin
--cun
--cur
--cy
--d
--da
--daan
--dadi
--dah
--dahat
--dai
--dak
--dakan
--daks
--dal
--dalu
--dan
--dana
--dane
--danen
--dang
--dap
--dar
--dari
--das
--dat
--dawe
--day
--daŋ
--db
--dd
--ddha
--de
--ded
--dek
--dem
--den
--der
--des
--det
--dewa
--dewi
--dha
--dhan
--dhar
--dhe
--dhi
--dhih
--dhu
--dhya
--di
--dia
--dih
--dijalan
--dik
--dika
--dikan
--dimar
--din
--dina
--ding
--dini
--dir
--diri
--dis
--ditu
--diŋ
--dja
--dma
--dme
--dn
--do
--doh
--dom
--don
--dos
--dowo
--dr
--dra
--dred
--dri
--dro
--droŋ
--druh
--ds
--dt
--du
--duh
--duk
--duka
--dukwan
--dulu
--dumun
--dun
--dung
--dup
--dur
--dus
--dut
--duŋ
--dwa
--dy
--dya
--dyah
--dyan
--e
--ea
--ean
--eb
--eban
--ebe
--ect
--ed
--edaŋ
--ede
--ee
--ef
--eg
--eh
--ehan
--ehe
--ehin
--ejani
--ejo
--ek
--eka
--ekan
--ekapan
--eke
--eki
--eks
--el
--elo
--em
--ema
--eman
--ematur
--eme
--emun
--en
--ena
--eng
--engan
--engin
--enin
--ensis
--ent
--entah
--ente
--ep
--epan
--er
--ers
--erti
--es
--esa
--esami
--esan
--ese
--esna
--ess
--est
--esuba
--et
--ete
--eur
--ewa
--ey
--ez
--eŋ
--eŋwis
--f
--fa
--faat
--fan
--fer
--ff
--fi
--field
--fo
--ft
--ful
--g
--ga
--gaan
--gae
--gagan
--gah
--gai
--gajah
--gak
--gal
--gama
--gan
--gane
--gang
--gantulan
--gantuŋ
--gar
--gara
--gari
--gat
--gati
--gawe
--gayan
--gaŋ
--gd
--gdhecatra
--ge
--gede
--gehang
--gel
--gen
--ger
--ges
--get
--gga
--ggal
--ggalin
--ggap
--ggara
--ggaran
--gge
--ggi
--ggih
--ggil
--ggo
--ggu
--gguh
--gh
--gha
--ght
--ghu
--gi
--gia
--gih
--gik
--gil
--gin
--ging
--giri
--gis
--giŋ
--gka
--gkah
--gkan
--gkat
--gkep
--gkil
--gkin
--gku
--gkul
--gle
--glis
--gn
--gnah
--gne
--gni
--go
--gok
--gon
--gos
--gr
--gra
--gri
--gs
--gsa
--gsaran
--gsari
--gsir
--gtig
--gu
--guh
--gul
--gula
--gumi
--gun
--guru
--gus
--gusti
--gut
--guŋ
--gya
--gyan
--h
--ha
--habe
--hada
--hade
--hadi
--hadoh
--hage
--haguŋ
--haji
--hajikn
--hajin
--hajn
--hakeh
--haks
--haku
--hal
--hala
--halit
--halus
--ham
--haman
--hamuwus
--han
--hana
--hanak
--hande
--hane
--hantuk
--hanu
--har
--haris
--harja
--harjo
--haru
--has
--hase
--hasih
--hat
--hati
--hatma
--hatu
--hatur
--hawak
--hayu
--haŋ
--he
--hegar
--hen
--hi
--hiba
--hibuk
--hica
--hiccha
--hid
--hida
--hidan
--hide
--hidhe
--hidup
--hih
--hika
--hiki
--hiku
--hil
--himbih
--hin
--hina
--hine
--hip
--hipun
--hir
--hira
--his
--histri
--hit
--hkan
--hma
--hn
--hne
--hniŋ
--ho
--hoka
--hon
--hor
--hr
--ht
--hu
--hugi
--huh
--hun
--hunin
--huniŋ
--hup
--hur
--hurip
--hut
--hutus
--hya
--hyaŋ
--hyaŋs
--hyun
--i
--ia
--iab
--iak
--ial
--ian
--iana
--iang
--ib
--ic
--ica
--ics
--id
--ida
--idaman
--idan
--idane
--idd
--iddhi
--ide
--idi
--idin
--ido
--ie
--ier
--ies
--if
--ig
--ight
--ih
--ihan
--ihin
--ii
--ik
--ika
--ike
--iki
--iks
--iku
--il
--ila
--ili
--ilit
--im
--ima
--imbal
--imik
--impa
--in
--ina
--inan
--indha
--ine
--ing
--ini
--intaŋ
--inuhun
--io
--ion
--ior
--ip
--ipat
--ipi
--ipoene
--ipu
--ipun
--ir
--ira
--irahan
--iran
--ire
--irih
--iro
--is
--isan
--isasi
--ische
--ish
--isi
--iska
--ism
--isme
--ison
--ist
--ists
--it
--ita
--itah
--itas
--iti
--itih
--itu
--ity
--ium
--ius
--ive
--iwa
--iwat
--iyu
--iz
--ized
--iŋ
--iŋbala
--iŋban
--iŋbhat
--iŋbhu
--iŋdes
--iŋge
--iŋkar
--iŋl
--iŋn
--iŋra
--iŋs
--iŋsan
--iŋsar
--iŋswar
--iŋte
--iŋtn
--j
--ja
--jaba
--jadma
--jaga
--jagat
--jah
--jak
--jalan
--jan
--jana
--jani
--japahit
--jar
--jati
--jaya
--je
--jek
--jel
--jen
--ji
--jil
--jin
--jinan
--jing
--jiwa
--jlamut
--jn
--jo
--joh
--jok
--jol
--jra
--jrih
--jro
--ju
--juk
--jun
--jung
--k
--ka
--kab
--kaban
--kabeh
--kad
--kadi
--kadiman
--kah
--kahi
--kak
--kake
--kaki
--kakuŋ
--kal
--kala
--kalan
--kalih
--kan
--kandha
--kanlah
--kap
--kapan
--kape
--kar
--kara
--kari
--kas
--kasan
--kase
--kat
--katah
--katan
--kate
--katoŋ
--kau
--kawi
--kayun
--kaŋ
--ke
--ked
--keh
--kel
--ken
--kep
--kepan
--kepin
--ker
--kerto
--kes
--ket
--keto
--kewe
--ki
--kih
--kil
--kin
--kir
--kis
--kit
--kita
--kjaŋ
--kka
--kma
--kn
--kna
--kne
--ko
--kocap
--kocapa
--kodal
--koe
--kok
--kol
--kon
--kor
--kos
--kota
--kr
--kran
--ks
--ksa
--kt
--kta
--kti
--ktya
--ku
--kuh
--kul
--kula
--kulon
--kun
--kuna
--kung
--kup
--kur
--kus
--kut
--kwa
--kweh
--ky
--l
--la
--lacur
--lad
--lah
--lai
--lak
--lakar
--laks
--lali
--lam
--lan
--lanaŋ
--land
--lang
--langu
--lap
--lar
--lara
--las
--lat
--laŋ
--ld
--le
--led
--leg
--legi
--lem
--len
--leng
--ler
--let
--ley
--li
--lia
--lic
--lih
--lik
--lima
--lin
--ling
--lir
--liriŋ
--lis
--lit
--litan
--liyu
--liŋ
--ll
--lla
--lle
--lly
--ln
--lnya
--lo
--loa
--loe
--loka
--lon
--lor
--low
--ls
--lt
--lu
--luan
--luh
--luk
--lulah
--lun
--lur
--lurin
--lus
--lut
--luwas
--luŋ
--lwas
--lwir
--ly
--lya
--m
--ma
--mada
--madhehida
--madheman
--madhen
--madu
--mage
--mah
--maha
--mahi
--maian
--maka
--make
--maks
--mal
--mala
--malih
--malin
--malu
--mama
--maman
--mamar
--mame
--mami
--mamun
--man
--manah
--manan
--mane
--mangu
--manis
--mar
--mara
--mas
--mase
--masih
--matan
--mate
--mati
--matu
--matur
--mayu
--mba
--mbe
--mbi
--mbil
--mbo
--mbrama
--mbu
--mbukan
--me
--mel
--men
--ment
--mer
--mere
--mese
--mi
--mia
--mijil
--mik
--milu
--min
--mine
--mir
--mis
--mit
--miwah
--mlah
--mle
--mma
--mn
--mne
--mo
--moks
--mon
--moro
--moto
--moŋ
--mp
--mpa
--mpe
--mpi
--mpin
--mpu
--mpuh
--mpun
--mr
--ms
--mu
--muan
--mud
--mula
--mulih
--mulya
--mulyo
--mun
--mur
--murug
--mus
--musuh
--mwah
--my
--mya
--myan
--n
--na
--nah
--nak
--nal
--nam
--nan
--nang
--nar
--nas
--naŋ
--nbe
--nd
--nda
--nde
--ndhana
--ndu
--ne
--neki
--neman
--nen
--neng
--nesa
--nesami
--news
--ney
--ng
--nga
--ngak
--ngan
--nge
--ngi
--ngka
--ngkat
--ngne
--ngnya
--ngs
--ngsi
--ni
--nia
--nial
--nimbal
--nin
--ning
--nipun
--nir
--nira
--nis
--niŋ
--niŋs
--nja
--njane
--nku
--nman
--nn
--nne
--nnya
--nnyane
--no
--npan
--nr
--ns
--nt
--nta
--nte
--nter
--nti
--nto
--nts
--ntu
--nu
--nucap
--nun
--nus
--ny
--nya
--nyane
--o
--oa
--oan
--ob
--obo
--odha
--odra
--oe
--oeh
--oek
--oen
--oenan
--oene
--oer
--oes
--oesa
--oet
--og
--ogy
--oh
--oi
--oja
--ok
--oka
--okliŋ
--oko
--ol
--ola
--olah
--olih
--olo
--olog
--ology
--om
--omah
--ombo
--ome
--omo
--omulyo
--on
--ona
--onal
--onaŋ
--one
--ong
--ongan
--oni
--onin
--ono
--ons
--ontar
--oo
--op
--or
--ora
--oro
--oroh
--os
--osari
--ot
--ota
--oto
--ou
--ough
--ov
--ovo
--ow
--owo
--oya
--oyo
--oŋ
--p
--pa
--pada
--padan
--padha
--pag
--page
--pah
--pahe
--pai
--pak
--paks
--pal
--paliŋ
--pamar
--pame
--pami
--pamit
--pamr
--pan
--pane
--papa
--par
--para
--pas
--pasah
--pasan
--pase
--pat
--pate
--pati
--patih
--patu
--patut
--paŋ
--pe
--pel
--pga
--pgat
--pgatan
--ph
--phia
--phic
--phy
--pi
--pid
--pidar
--pih
--pika
--pin
--pinan
--pine
--pir
--pisan
--pite
--pitr
--pitu
--piŋ
--pjah
--plih
--pn
--po
--poe
--poh
--polih
--polis
--pon
--ponin
--pr
--pra
--prajn
--pran
--prov
--ps
--pt
--pta
--ptati
--pte
--pti
--pu
--pug
--puh
--puk
--pul
--pun
--punika
--pupu
--puput
--pur
--pura
--puri
--pus
--puse
--put
--putan
--putih
--putr
--putra
--putri
--putus
--q
--r
--ra
--rabi
--raga
--rah
--rahi
--rahin
--raja
--rajah
--raka
--raks
--rama
--rame
--ran
--rana
--rang
--raris
--rarisn
--ras
--rasa
--rat
--ratih
--ratu
--rawi
--rawuh
--raya
--raŋ
--rch
--rd
--rdo
--re
--red
--reh
--reja
--rejo
--rek
--reka
--rem
--ren
--rep
--rer
--res
--ret
--rg
--rga
--ri
--ria
--rib
--rie
--ries
--rih
--rik
--riki
--rin
--rip
--rir
--ririh
--ris
--rit
--riya
--riŋ
--riŋmar
--riŋn
--riŋs
--rja
--rk
--rna
--ro
--roe
--ron
--rong
--ror
--rot
--roto
--rpus
--rs
--rsa
--rsari
--rsiteit
--rt
--rta
--rtha
--rti
--ru
--rub
--ruh
--ruk
--rukan
--rum
--run
--rung
--rus
--rut
--ruwe
--ruŋ
--ry
--rya
--s
--sa
--sabe
--sada
--sah
--sahi
--sahur
--saja
--sak
--sakit
--saks
--sal
--salah
--sama
--saman
--sami
--sampun
--san
--sana
--sanen
--sar
--sara
--sari
--sas
--sat
--sayaŋ
--saŋ
--saŋn
--saŋna
--saŋr
--sche
--sde
--sdhe
--sdih
--se
--sed
--seda
--see
--seh
--sem
--sen
--ses
--sfer
--sh
--si
--sia
--sida
--sidd
--siddha
--sih
--sik
--siki
--sil
--sin
--sinah
--sip
--sipi
--sir
--sira
--siram
--sis
--sisip
--sit
--sk
--ska
--skar
--ske
--skus
--sle
--sm
--sme
--sn
--so
--solah
--son
--sono
--sor
--sr
--sri
--ss
--st
--sta
--ster
--sti
--su
--sub
--suba
--suci
--sugih
--suh
--suk
--suka
--suko
--sul
--sun
--sur
--sura
--sus
--suŋsuŋ
--swar
--syah
--syanu
--t
--ta
--taban
--tah
--tahu
--tak
--taka
--tal
--tali
--talwir
--tam
--taman
--tamba
--tan
--tana
--tanah
--tandur
--tang
--tann
--tapa
--tapan
--tar
--tara
--tas
--tat
--tata
--taya
--taŋ
--tch
--te
--ted
--tein
--tek
--ten
--teng
--tengan
--ter
--tes
--tge
--th
--tha
--thi
--ti
--tial
--tian
--tic
--tica
--ties
--tif
--tig
--tiga
--tih
--tik
--til
--tim
--tin
--tion
--tions
--tip
--tir
--tis
--tit
--tityaŋ
--tiŋ
--tka
--tke
--tle
--tlu
--tma
--tme
--tn
--tna
--tne
--to
--toe
--ton
--tor
--toya
--tpuk
--tr
--tra
--tran
--tranku
--tri
--trin
--tru
--trya
--ts
--tt
--tta
--tu
--tuduh
--tuh
--tuhu
--tuk
--tuka
--tulan
--tun
--tup
--tur
--turi
--tus
--tut
--tutu
--tutur
--tuwuk
--twa
--twah
--twan
--twara
--twi
--ty
--tya
--tyan
--tyaŋ
--u
--ua
--ual
--uan
--uatu
--ub
--uba
--uban
--uci
--ud
--udi
--udin
--udug
--uduh
--ue
--ues
--uf
--ug
--uga
--ugih
--uh
--uhan
--uhin
--uhu
--uhun
--uhur
--uhuŋ
--ui
--uja
--uju
--uk
--uka
--ukan
--ukin
--uks
--ukti
--uku
--ul
--ula
--ulin
--ulis
--uluh
--ulun
--ulus
--ulut
--ulya
--um
--uma
--umadi
--uman
--ume
--umi
--umma
--umun
--un
--una
--unan
--unas
--unasaŋ
--ung
--ungan
--unu
--unun
--unuŋ
--up
--upa
--upan
--uput
--ur
--ura
--uran
--ure
--uri
--urip
--uru
--uruh
--urun
--urus
--us
--usan
--usi
--usti
--ut
--uta
--utan
--uti
--utih
--utin
--utug
--utur
--uturan
--uturaŋ
--uturin
--uw
--uwe
--uwih
--uwur
--uwus
--uŋ
--v
--va
--ve
--ver
--ves
--vik
--vo
--w
--wa
--wah
--waha
--wak
--wali
--wan
--wana
--wane
--waneh
--wangi
--wantah
--war
--wara
--wari
--waru
--was
--wat
--wate
--wati
--way
--wayah
--waŋ
--waŋman
--we
--weca
--weh
--wek
--wente
--wer
--wes
--west
--wi
--widar
--widhi
--wih
--wiku
--win
--wir
--wira
--wis
--wit
--wn
--wo
--woh
--won
--wos
--wosan
--wot
--woŋ
--woŋn
--wr
--wruh
--ws
--wte
--wu
--wuh
--wuhan
--wuhin
--wuk
--wun
--wungu
--wur
--wuran
--wus
--wut
--wuwus
--wuŋ
--wwa
--x
--y
--ya
--yaan
--yab
--yaga
--yah
--yajn
--yak
--yaks
--yam
--yama
--yan
--yane
--yang
--yanti
--yap
--yar
--yarin
--yas
--yasa
--yat
--yaŋ
--ye
--yeh
--yeku
--yer
--yi
--yikan
--ying
--yo
--yoga
--yoh
--yol
--yon
--yoso
--ys
--yu
--yuban
--yug
--yuh
--yun
--yunan
--yus
--yut
--z
--za
--ze
--zed
--zi
--zon
--ŋ
--ŋa
--ŋban
--ŋbe
--ŋdas
--ŋde
--ŋdes
--ŋge
--ŋhe
--ŋhyaŋ
--ŋka
--ŋke
--ŋl
--ŋlaks
--ŋma
--ŋmaha
--ŋman
--ŋmar
--ŋme
--ŋn
--ŋna
--ŋpa
--ŋpan
--ŋpe
--ŋprabhu
--ŋpuri
--ŋr
--ŋra
--ŋran
--ŋraras
--ŋs
--ŋsa
--ŋse
--ŋsiki
--ŋsin
--ŋte
--ŋwan
--ɪ
--상
--에
