!
"
#
##0
##1
##10
##11
##12
##13
##14
##15
##16
##17
##18
##19
##2
##20
##21
##22
##23
##24
##25
##26
##27
##28
##29
##3
##30
##31
##32
##33
##34
##35
##36
##37
##38
##39
##4
##40
##41
##42
##43
##44
##45
##46
##47
##48
##49
##5
##50
##51
##52
##53
##54
##55
##56
##57
##58
##59
##6
##60
##61
##62
##63
##64
##65
##66
##67
##68
##69
##7
##70
##71
##72
##73
##74
##75
##76
##77
##78
##79
##8
##80
##81
##82
##83
##84
##85
##86
##87
##88
##89
##9
##90
##91
##92
##93
##94
##95
##96
##97
##98
##99
$
%
&
'
(
)
*
+
,
-
.
/
0
00
000
001
002
003
004
005
006
008
01
010
011
0126
013
015
017
02
021
03
030
033
034
035
036
037
04
040
043
044
046
05
050
057
058
059
06
067
07
074
08
080
081
083
09
090
092
095
096
099
1
10
100
1000
1001
101
102
1025
103
1036
104
105
106
107
1072
108
109
11
110
1100
111
112
113
114
115
116
117
1178
118
1181
119
12
120
1200
1204
121
122
123
124
125
1257
126
1260
127
128
129
13
130
1300
131
132
133
134
135
1350
136
1365
137
138
1388
139
1392
14
140
1400
141
1410
142
1420
1424
143
144
145
1450
146
147
1470
148
149
15
150
1500
151
1512
1519
152
1520
153
154
155
156
157
1578
158
1580
159
1597
16
160
1600
1601
161
162
1623
163
1635
1636
164
1642
1647
165
1650
1651
166
1660
167
1678
168
1683
1684
1686
169
1691
1692
17
170
1700
1707
171
1710
172
1720
173
1730
174
1740
175
1750
1753
1757
1758
176
1760
1761
177
1770
1775
178
1780
1783
179
1790
1793
1797
1799
18
180
1800
1801
1802
1803
1804
1805
1806
1807
1808
1809
181
1810
1812
1813
1814
1815
1816
1817
1818
182
1820
1821
1822
1823
1825
1826
1827
1828
1829
183
1830
1831
1832
1834
1835
1836
1837
1838
1839
184
1840
1841
1843
1844
1845
1847
1848
1849
185
1850
1851
1852
1853
1854
1855
1857
1858
1859
186
1860
1861
1862
1863
1864
1865
1866
1867
1868
1869
187
1870
1871
1872
1873
1874
1875
1876
1877
1878
1879
188
1880
1881
1882
1883
1884
1885
1886
1887
1888
1889
189
1890
1891
1892
1893
1894
1895
1896
1897
1898
1899
19
190
1900
1901
1902
1903
1904
1905
1906
1907
1908
1909
191
1910
1911
1912
1913
1914
1915
1916
1917
1918
1919
192
1920
1921
1922
1923
1924
1925
1926
1927
1928
1929
193
1930
1931
1932
1933
1934
1935
1936
1937
1938
1939
194
1940
1941
1942
1943
1944
1945
1946
1947
1948
1949
195
1950
1951
1952
1953
1954
1955
1956
1957
1958
1959
196
1960
1961
1962
1963
1964
1965
1966
1967
1968
1969
197
1970
1971
1972
1973
1974
1975
1976
1977
1978
1979
198
1980
1981
1982
1983
1984
1985
1986
1987
1988
1989
199
1990
1991
1992
1993
1994
1995
1996
1997
1998
1999
2
20
200
2000
2001
2002
2003
2004
2005
200507
2006
2007
2008
2009
201
2010
2011
2012
2013
2014
2015
2016
2017
2018
2019
202
2020
2021
2022
2023
2024
2026
203
2030
204
205
206
207
208
209
21
210
211
212
213
214
215
216
217
218
219
22
220
221
222
223
224
225
226
227
228
229
23
230
231
232
233
234
235
236
237
238
239
24
240
241
242
243
244
245
246
247
248
249
25
250
251
252
253
254
255
256
257
258
259
26
260
261
262
263
264
265
266
267
268
269
27
270
272
273
274
275
276
277
278
279
28
280
281
282
283
284
285
28500
286
287
288
289
29
290
291
2912
292
293
294
295
296
297
298
299
3
30
300
3000
301
302
303
304
305
306
307
308
309
31
310
311
312
313
314
315
316
317
318
319
32
320
322
323
324
32424
325
326
327
328
329
33
330
331
332
333
334
335
336
337
338
339
34
340
341
342
343
344
345
346
347
348
349
35
350
351
352
353
354
355
356
357
358
359
36
360
361
362
363
364
365
366
367
368
369
37
370
371
373
374
375
377
378
38
380
381
383
384
385
386
388
389
39
390
391
392
395
396
397
399
4
40
400
401
402
403
404
405
406
407
408
409
41
410
411
412
413
414
415
416
417
418
419
42
420
421
424
427
428
429
43
430
431
432
433
435
437
438
439
44
440
441
443
444
445
446
447
448
449
45
450
451
452
455
456
457
459
46
460
461
462
463
466
467
468
469
47
470
472
474
476
478
479
48
480
481
484
486
489
49
490
491
492
493
495
496
497
5
50
500
5000
502
503
504
506
507
508
509
51
510
511
512
513
514
517
518
519
52
520
521
522
524
528
529
53
530
533
534
535
536
537
54
540
541
542
544
546
548
55
550
551
552
553
554
556
557
559
56
560
561
562
563
564
566
567
568
569
57
570
571
573
574
576
578
579
58
580
583
584
586
588
59
590
593
594
596
6
60
600
601
602
603
605
606
609
61
610
613
614
617
618
619
62
620
621
622
623
625
626
628
629
63
630
631
632
634
635
636
637
638
639
64
640
641
642
643
644
645
646
647
649
65
650
651
652
653
657
658
66
660
662
663
666
668
67
670
672
673
674
675
676
677
679
68
680
681
682
683
685
686
687
69
690
693
694
698
7
70
700
701
702
706
707
708
709
71
710
714
718
719
72
722
723
724
726
727
728
729
73
730
731
735
738
74
740
741
742
744
747
748
749
75
750
752
753
754
755
756
757
758
76
760
767
768
77
770
771
773
774
775
776
777
778
779
78
780
782
783
784
786
787
788
79
790
792
793
794
796
797
798
799
8
80
800
801
802
803
804
806
808
809
81
810
811
813
814
816
818
82
820
823
825
826
827
83
830
831
832
833
834
835
837
839
84
840
841
843
844
849
85
850
851
852
853
857
858
859
86
860
861
862
864
865
866
867
868
87
870
871
872
873
875
879
88
880
881
883
885
886
887
888
89
890
891
892
894
895
896
897
898
9
90
900
901
904
907
908
91
910
911
912
913
914
915
916
918
919
92
920
921
922
924
925
926
927
929
93
930
933
934
935
938
94
940
942
944
945
947
948
949
95
950
951
952
954
956
958
96
960
962
964
965
967
97
970
974
976
978
979
98
980
981
982
983
984
986
987
989
99
990
991
992
993
9932
996
997
998
999
:
;
<
=
>
?
@
\
^
_
`
a
aa
aab
aabe
aamir
aan
aas
ab
aba
abab
ababi
abad
abadi
abah
aban
abana
abang
abangan
abar
abasan
abc
abdi
abdul
abdullah
abdurrahman
abe
abedik
abel
abeli
abesik
abet
abete
abetne
abian
abianbase
abiane
abiansemal
abiantuwung
abidang
abing
abinge
abjad
able
abot
about
above
abovebelow
abraham
absolute
abstrak
abu
abuan
abug
abulan
abung
abungkul
ac
academic
academy
acara
acarik
acatu
accepted
access
accessed
according
accounts
ace
aceh
acep
acepok
achmad
aci
act
action
actions
active
activities
actor
actress
ad
ada
adalah
adam
adams
adan
adane
adang
adanina
adanne
adanya
adaptasi
adaptation
adasa
adat
add
addportletlink
adds
ade
adegan
adele
adeng
adep
adepa
adha
adharma
adhi
adi
adiarsa
adik
adiknya
adil
adin
adine
adinne
adipala
adiparwa
adipati
adiri
aditya
adiwerna
adjeng
admin
administrasi
administratif
administration
administratip
administrative
administrator
adnjana
adnyana
adnyawati
ado
adolang
adolf
adonan
adonara
adri
adrian
adriatik
adu
aduh
adung
adventure
adventures
advice
ae
aeng
aertembaga
af
afc
afdeeling
aff
affairs
affinis
afganistan
afghan
afghanistan
africa
african
afrika
afropavo
after
ag
aga
again
agak
agam
agama
agamawi
agar
agastia
agats
age
agem
ageman
agency
ageng
agengan
agengnyane
aget
agglome
agglomeration
agia
agigis
aglomerasi
agnijaya
agoeng
agraris
agre
agreed
agribisnis
agricultural
agriculture
agul
agung
agunge
agus
agustus
ah
ahli
ahmad
ahmed
ahn
ahref
ai
aia
aichi
aids
aie
aijas
aik
aikmel
aimere
ain
aine
air
aires
airku
airlangga
airmadidi
airport
aishwarya
ajah
ajahan
ajak
ajaka
ajake
ajakina
ajam
ajang
ajangkepan
ajar
ajaran
ajat
ajax
aje
ajebos
ajeg
ajeng
ajengan
ajengnyane
ajerih
aji
ajibarang
ajin
ajinanga
ajine
ajinne
ajinnyane
ajip
ajum
ajung
ak
aka
akademi
akademik
akademisi
akah
akahnyane
akal
akan
akar
akara
akasa
akatih
akbar
ake
akedik
akeh
akehan
akehnyane
akejep
akejepne
akesep
aketo
akhir
akhirnya
akibat
akidik
akijapan
akit
akita
akl
akomodasi
akreditasi
akropolis
aks
aksara
akse
akses
aksi
akta
akti
aktif
aktinida
aktinium
aktip
aktivis
aktivitas
aktor
aktris
aku
akuatik
akudang
akulak
akun
akuntansi
akustik
akutagawa
akutus
al
ala
alaa
alabama
aladdin
alah
alahan
alai
alak
alaki
alalak
alam
alamat
alami
alamos
alan
alana
alang
alangkajeng
alap
alarm
alas
alasan
alasangker
alase
alaska
alasmalang
alassumur
alat
albania
albert
alberta
alberto
album
albumnyane
ale
aled
alejandro
alep
alessandro
alex
alexander
alexandria
alexis
alfabet
alfred
alfredo
alga
alge
ali
aliansi
alias
alice
align
alih
aliha
alihang
alihanga
alihin
alihina
alila
aling
aliran
alis
alit
alitan
alite
aliyan
aljazair
alkali
alkohol
all
alla
allah
allen
allium
allo
allow
alm
almost
alo
alok
alon
alone
along
alor
alpes
alpine
already
also
alt
alternatif
alu
aluan
alue
aluh
aluk
aluminium
alumni
alun
alung
alur
alus
aluvial
always
am
amabi
amah
amaha
amahan
amal
amali
aman
amanatun
amanda
amangkurat
amanuban
amarasi
amas
amat
amati
amawang
amazon
ambah
ambal
ambalau
ambang
ambara
ambarane
ambarawa
ambawang
ambe
ambel
ambengan
amber
ambil
ambon
amborawang
ambox
ambu
ambubu
ambul
ambulu
ambune
ambunten
ame
amed
america
american
amerika
amerta
amertane
amertha
amfibi
amfoang
amigos
amille
amin
aminggu
amir
amis
amlapura
amnesty
amo
amoito
amone
among
amongan
amongena
amonggedo
amonto
amorphophallus
ampah
ampakin
ampalu
ampana
ampang
ampar
ampat
ampek
ampel
ampelgading
ampelsari
ampenan
ampera
ampibabo
amplas
ampo
ampok
ampun
ampura
ampurayang
amreta
amrullah
ams
amsterdam
amun
amuntai
amurang
amy
an
ana
anak
anake
anaknya
analisis
analysis
anam
anambas
anang
ananta
anatomi
anau
ancak
anceman
ancengan
ancient
ancol
ancut
and
anda
andakasa
andalan
andalas
andalusia
andaman
andap
ande
andel
anderson
andes
andesit
andhika
andi
andika
andir
andong
andoolo
andorra
andre
andrea
andreas
andrew
android
andul
andus
andy
ane
aneh
aneka
ang
angan
angangge
angantaka
angel
angeles
angelo
angels
angen
anget
angga
anggabaya
anggah
anggalomoare
anggan
anggara
anggasari
angge
anggen
anggitan
anggo
anggon
anggona
anggone
anggota
anggre
anggrek
anggren
anggungan
anggur
angin
anging
angka
angkah
angkara
angkasa
angkat
angkatan
angkeran
angkihan
angklung
angkor
angkot
angkuh
angkutan
anglurah
angob
angola
angon
angsa
angsana
angseri
angsoka
ania
animal
animals
animasi
animation
animator
anime
anjali
anjatan
anjing
anjir
anjungan
ann
anna
anne
annual
annyorong
anom
anonim
anruk
ansambel
ant
anta
antagana
antang
antap
antapan
antapani
antar
antara
antariksa
antarklub
antarktika
antarmuka
antartika
antasan
antasari
ante
antelope
anteng
anthony
anti
antiang
antiga
anting
antoek
antologi
anton
antoni
antonio
antonius
antosari
antugan
antuk
antukan
anturan
anu
anugerah
anugrah
anumerta
anusuara
anut
anwar
any
anya
anyaman
anyar
anything
anyud
ao
aomori
aopa
apa
apabila
apabuin
apacek
apada
apakah
apake
apakpakan
apan
apang
apanga
apapun
apasang
ape
apel
apem
apertandingan
apet
aph
api
apin
apine
apisan
apit
apitye
aplikasi
apollo
apostolik
apparel
apple
applied
apply
appropriate
approved
apresiasi
april
apuan
apuh
apung
apus
ar
ara
arab
arabia
aragon
arah
arahan
arahe
arahina
arai
arak
arakan
aralle
aran
arang
ararem
aras
arca
architecture
archive
archived
arctic
ardea
ardhi
ardirejo
are
area
areas
arema
aren
arena
arep
arepan
ares
arfak
arga
arge
argentina
argo
argomulyo
argon
argopeni
argosari
arguin
ari
arie
ariel
arif
arifin
arin
arine
arini
arip
aris
aristotle
arit
arizona
arja
arjasa
arjasari
arjosari
arjowinangun
arjun
arjuna
ark
arkansas
arke
arkeologi
arktik
arma
armada
arme
arms
armstrong
army
aron
arosbaya
around
arsa
arse
arsenal
arsenik
arsip
arsite
arsitek
arsitektur
art
arta
artha
arthur
arti
article
articles
artikel
artin
artine
artinipun
artis
artist
artocarpus
artos
artosnyane
arts
aru
arum
arung
arungke
arunika
arus
arwah
ary
arya
aryawan
as
asa
asah
asahan
asak
asakota
asal
asam
asan
asapunapi
asapunapine
asapunika
asasi
asasih
asdp
ase
asean
asem
aseman
asemrowo
asep
asi
asia
asian
asibak
asih
asik
asiki
asil
asin
asinan
asing
asinua
asiste
asisten
asked
asli
aslinyane
asmara
asmat
asosiasi
aspek
asrama
asri
assam
assist
assistant
association
ast
asta
astana
aste
asteroid
asti
astina
astra
astrapia
astronom
astronomi
astronomical
asu
asue
asune
asura
at
ata
atakir
atambua
atap
atar
atari
atas
atat
atau
ataupun
ate
atebih
atenga
atep
ater
ateuk
athe
athfal
ati
atiban
atin
atine
atinne
atlantik
atlas
atle
atlet
atma
atman
atmane
atmen
atmosfer
atmospir
atol
atom
atraksi
atsiri
attack
attenborough
attr
attribution
atu
atukel
atur
aturan
aturang
aturanga
aturina
aturne
atus
au
aua
aub
aube
auckland
audio
august
augustus
aukud
aulick
aum
auman
aung
aungan
aur
aurobindo
austin
australia
australian
austria
austrone
austronesia
author
authority
auto
aux
available
averrhoa
aves
avoid
awa
awagian
awai
awak
awake
awakne
awaknyane
awal
awan
awanan
awang
awar
award
awards
awarsa
awatara
awe
awi
awig
awinan
awit
awo
awu
awyu
axis
aya
ayah
ayahnya
ayam
ayame
ayane
ayat
ayo
ayodya
ayu
ayub
ayula
ayun
ayunan
ayung
ayuning
az
azasi
azerbaijan
azhar
aziz
aŋ
b
ba
baamang
baan
baana
baane
baang
baanga
baange
baas
baase
baat
bab
babad
babadan
babah
babahan
babai
babak
babakan
babakansari
babalan
babalihan
babang
babaris
babat
babatan
babel
babi
babirik
babon
babuk
babulu
baburon
baby
baca
bacaan
bacakan
bacem
bachchan
bache
bacin
back
background
backgrounds
bacu
bacukiki
bad
bada
badai
badak
badan
badas
badau
bade
badean
badeg
baden
badeng
badi
bading
badong
baduda
baduga
badung
baduur
baduuran
baduy
bae
baebunta
baek
baeksang
bagaikan
bagaimana
bagan
bagawan
bage
bagelen
bagendang
bagi
bagia
bagian
bagik
bagimu
bago
bagor
bagu
bagus
bah
baha
bahagia
bahal
bahalang
bahama
bahan
bahandang
bahari
bahasa
bahaur
bahkan
baho
bahu
bahwa
bai
baik
bainaa
bains
bait
baja
bajang
bajangan
bajawa
bajeng
bajera
baji
bajing
bajo
bajra
baju
bajun
bajune
bak
baka
bakah
bakal
bakalan
bakan
bakar
bakas
bakat
bakatanga
bakau
bakauheni
bakbakan
bakh
baki
bakka
baksa
bakteri
bakti
baku
bakulan
bakumpai
bakung
bakungan
bal
bala
balaenoptera
balaesang
balah
balai
balak
balakang
balam
balambangan
balan
balane
balang
balangan
balantai
balantak
balap
balapan
balapulang
balaraja
balawan
balaweling
balayuda
bale
baledan
baleh
baleharjo
balekambang
balene
baler
baleran
balerejo
bales
bali
balian
baliara
balih
balihan
balik
balikpapan
baline
balinese
balingara
balinggi
balingkang
balkan
ball
balla
ballon
balo
baloi
balok
balong
balongrejo
balongsari
baltik
balu
baluan
baluk
balun
balung
baluran
balusu
bamba
bamban
bambang
bambanglipuro
bambi
bamboo
bambu
ban
bana
banabungi
banama
banana
banaran
banaspati
banawa
banban
banc
bancak
bancang
bancar
bancingah
band
banda
bandar
bandara
bande
bandengan
bandeswarya
banding
bandingan
bandingang
bandmaster
bandung
bandungan
bandungrejo
bane
bang
banga
bangah
bangau
bangbang
bangbange
bangbayang
bangbing
bange
banget
bangga
banggae
banggai
banggle
banggras
bangilan
bangka
bangkah
bangkal
bangkala
bangkalan
bangkang
bangkarna
bangke
bangken
bangkene
bangket
bangkiang
bangkiangsidem
bangkit
bangkok
bangkuang
bangkung
bangkyang
banglade
bangladesh
bangle
bangli
bango
bangorejo
bangras
bangsa
bangsaku
bangsal
bangsawan
bangsing
bangsit
bangsri
bangun
bangunan
bangunharjo
bangunjaya
bangunrejo
bangunsari
banguntapan
bani
baning
banjang
banjar
banjaragung
banjaran
banjarangkan
banjaranyar
banjararum
banjarbaru
banjardowo
banjare
banjarejo
banjarharjo
banjarmasin
banjarnegara
banjarsari
banjarwangi
banjir
bank
banke
bano
banon
banone
bansari
bantae
bantaeng
bantai
bantal
bantan
bantang
bantar
bantaran
bantarbolang
bantarpanjang
bantarsari
bantarwaru
bantas
bante
banten
banteng
bantengan
bantes
bantik
bantimurung
bantiran
bantuan
bantul
bantur
banu
banua
banyaga
banyak
banyaknya
banyol
banyu
banyuanyar
banyuasih
banyuasin
banyuasri
banyuatis
banyubiru
banyudono
banyumanik
banyumas
banyumasan
banyumudal
banyuning
banyupoh
banyuputih
banyuresmi
banyuroto
banyusari
banyuseri
banyuurip
banyuwangi
banyuwurung
bao
baok
baong
baongne
baos
bapa
bapak
bapan
bapane
bapanne
bapannyane
bapeda
bapinang
bar
bara
barabai
barack
barak
baran
barana
barang
barangka
baras
barat
barata
baraya
barce
barcelona
bareng
barengkok
baringin
baris
barisan
barito
barks
barney
baro
baroh
barombong
baron
barong
baros
barru
bartl
baru
baruga
barugae
baruh
barunai
barunang
barung
baruppu
barus
baruta
bas
basa
basan
basane
basang
basangalas
basangambu
basange
basangkasa
basangne
basarang
base
based
basic
basin
basirih
basis
baske
basket
basketball
basong
bass
basse
bassis
bastala
basuki
basukih
basur
bat
bata
bataille
batak
batam
batan
batanbuah
batang
batangan
batanghari
batanjeruk
batannyuh
batara
batari
batas
batavia
batee
batek
bates
bath
bathara
bathing
bati
batik
batin
batipuh
batis
batisne
batok
battle
batu
batuagung
batuah
batuaji
batuan
batuaya
batubaa
batubelig
batubulan
batudinding
batugaing
batui
batujaya
batuk
batukaang
batukandik
batukaru
batulantang
batulawang
batulicin
batulumbang
batumadeg
batun
batunampar
batune
batung
batungsel
batununggal
batununggul
batunya
batuputih
batur
baturenggong
baturetno
baturinggit
baturiti
batursari
batusangkar
batuse
bau
baubau
baud
baudanda
baula
baumata
baung
baureno
bavaria
bawa
bawah
bawahan
bawak
bawan
bawang
bawi
bawu
bay
baya
bayad
bayah
bayan
bayang
bayangan
bayem
bayeman
bayern
bayi
bayu
bayuh
bayun
bayune
bayung
bayungcerik
bayunggede
bayur
bb
bbc
bbm
bc
bdp
be
bea
beach
beak
bean
bear
bears
beasiswa
beasts
beaufort
beautiful
beauty
bebalang
bebali
bebalihan
bebandem
bebantenan
bebanyolan
bebaosan
bebas
bebed
bebengan
beber
beberapa
bebetin
bebotoh
bebotohe
beburon
beburonan
beburone
bec
becat
because
becik
becikan
becing
becquerel
bedagai
bedah
bedahulu
bedak
bedauh
bedawang
bede
bedha
bedik
bedil
bedono
beduda
bedug
bedugul
bedulu
been
beer
before
beg
begalung
begbeg
begeh
begina
begitu
begonia
beh
beha
behavior
behe
behind
being
beja
bejen
beji
bek
bekas
bekasi
bekel
bekerja
bekul
bekung
bekunge
bela
belah
belahan
belajar
belakang
belalang
belalau
belaluan
belancan
belanda
belandane
belandingan
belang
belanga
belanjong
belantara
belanti
belantih
belas
belatung
belatungan
belawa
belawan
belayu
belega
belek
belendung
beleq
belerang
belgia
beli
beliau
belibis
belig
belik
belimbing
belin
beline
beling
belinne
belinyu
belitang
belitung
bell
belo
belodan
belog
beloge
belong
belongan
belopa
below
belu
beluhu
beluk
belulang
beluluk
belum
belumbang
belur
belus
ben
bena
benana
benang
benangin
benar
benaru
benawah
bencana
bencingah
benculuk
bend
benda
bendan
bende
bendera
bendo
bendosari
bendu
bendul
bendung
bendungan
bene
beneh
beneng
benengan
bener
beng
bengal
bengang
bengawan
bengbengan
bengbengane
bengil
bengkak
bengkal
bengkala
bengkalis
bengkayang
bengkel
bengkuang
bengkulu
bengong
bengu
benin
bening
benjamin
benjang
benne
benoa
benowo
bentang
bentar
bente
benteng
bentuk
benua
benyah
benyamin
ber
beraban
berada
berag
berakhir
beran
berang
berangas
berangbang
berapak
berapi
berarti
beras
berasal
berata
beratan
beratha
berau
berawa
berawah
berawan
berbagai
berbah
berbahasa
berbak
berbakti
berbasis
berbeda
berbek
berbuat
berburu
bercak
bercerita
berdasarkan
berdiri
beregu
berek
berembeng
bereng
bergabung
bergah
bergas
bergerak
bergong
berguna
berhak
berharap
berhasil
beri
berikan
berikut
beringin
beringkit
berisi
berisikan
berit
berita
berjuang
berjumpa
berkas
berkat
berkata
berkebangsaan
berkeley
berkembang
berkibarlah
berkoeliling
berkontribusi
berlaku
berlalu
berlangganan
berlangsung
berlian
berlin
berlisensi
bermain
bernama
bernet
bernyanyi
berpartisipasi
bersama
bersamaan
bersatu
bersedia
bersenjata
berseri
bersifat
bersih
bersinar
bertahan
bertambah
bertapa
bertemu
bertugas
beru
berua
beruang
berubah
beruk
beruke
berung
berupa
berusaha
berusia
berwarna
bes
besakih
besan
besang
besar
beserta
besi
besik
besikan
best
bestala
bestuur
besuk
besuki
bet
beta
betan
betang
betara
betari
betawi
betbetan
bete
betek
beteng
betet
betina
betiri
beton
betteng
better
betung
between
beyond
bha
bhagawan
bhakti
bharadah
bharat
bharata
bharatayuda
bhat
bhatara
bhatari
bhayangkara
bhima
bhimaniyu
bhine
bhinneka
bhre
bhu
bhuana
bhumi
bhuta
bhutan
bhuwana
bi
bia
biak
biang
biange
biangne
biaro
bias
biasa
biasane
biasanyane
biase
biaslantang
biatan
biau
biaung
bibi
bibih
bibihne
bibimbap
bibit
bible
bibliografi
bibliograpi
biboki
bidadari
bidang
biden
biduk
bie
big
biga
bih
biin
biing
bij
bija
bijaksana
bijdragen
biji
bika
bikang
bikas
bikasne
bikomi
bikul
bikule
bila
bilah
bilalang
bilang
bilangan
bili
bilih
bill
billboard
billed
billy
biluhu
biluk
bima
bimbo
bin
bina
binanga
binangun
binapemdes
binatang
bindu
bing
bingin
bingine
bingkai
bingung
binjai
binoh
binong
binongko
bintan
bintang
bintara
bintaro
bintauna
bintuni
binturu
binuang
binyan
bio
biodiversity
biografi
biography
biograpi
biologi
biological
biologis
biology
biosfe
biosfer
bioskop
biospe
bir
bira
biraeng
birayang
bird
birdlife
birds
bireuen
biring
biringkanaya
birmingham
biro
biroe
birth
birthday
births
biru
birugo
bis
bisa
biscayne
bisnis
bit
bitera
biting
bitung
biu
biune
biying
biyu
bl
blabar
black
blackberry
blado
blahbatuh
blahkiuh
blakas
blambangan
blanco
blang
blanguyang
blanjong
blatuk
ble
bleeker
blega
bleng
bli
blibis
bligo
blimbing
blimbingsari
blind
blitar
block
blog
blogspot
blok
bloncing
blong
blora
blue
blues
bluluk
blumbang
blume
blungbang
blusukan
bo
boa
boalemo
boan
board
boat
bob
bobby
bobot
boccoe
bocok
bodag
bodas
bodeh
bodi
bodo
bodoh
body
boeat
boein
boeka
boemi
boga
bogem
bogo
bogor
bogorejo
boh
bohabak
boja
bojo
bojog
bojoge
bojonegara
bojonegoro
bojong
bojongloa
bojongmanik
bojongsari
bok
bokah
bokat
bokki
bokne
bokong
bokor
bola
bolaang
bolang
bolangan
bolangitang
bolango
bolano
bold
boleh
bolivia
bollywood
bolo
bologna
bolong
bolu
bom
boma
bomba
bombana
bombay
bomo
bon
bona
bonang
bond
bondalem
bonde
bondo
bondol
bondowoso
bondre
bone
bonea
boneka
bonerate
bong
bongan
bongancina
bongas
bongbing
bonggan
bongkasa
bongkok
bongkol
bongkolne
bongkot
bongkudai
bonglai
bongo
bongol
boni
bonjol
bonne
bonnet
bontang
bontihing
bonto
bontoa
bontoala
bontobulaeng
bontolebang
bontolempangan
bontomanai
bontomarannu
bontonompo
bontoramba
bontorannu
bontosunggu
bontotangnga
bonyoh
boogie
book
books
boot
bor
bora
border
bordered
borders
bore
boreh
bori
borimasunggu
born
borne
borneo
boro
borobudur
boron
borong
boros
borose
borussia
bos
bosnia
boss
boston
bot
botani
botanical
both
boto
botol
bots
botteng
botto
bottom
bou
bouches
boulenger
boven
bowker
box
boxes
boy
boya
boyan
boyband
boyolali
boyolangu
boys
boŋ
bps
br
bra
brad
brahma
brahmacari
brahman
brahmana
brahmandapurana
braja
brak
brakah
brakas
brambang
brana
brandon
brang
brangkal
brangkus
brangti
brani
brasil
brata
bratan
brawijaya
braya
brayan
brayane
brayut
brazil
bre
break
breaks
brebes
bresela
brevet
brian
brief
brighton
brill
bring
bringin
britania
britannica
british
brittan
broke
broken
bromo
brondong
bronze
brother
brown
bruari
bruce
brumbun
brumbung
brumbungan
brune
brunei
bruno
brussel
brutuk
bryce
bt
bts
bu
bua
buagan
buah
buahan
buahbatu
buahe
buahne
buahnyane
bualemo
bualu
buana
buang
buangin
buaran
buas
buat
buatang
buaya
buayan
buayang
bubakan
bubat
bubu
bubuh
bubuk
bubun
bubunan
bubune
bubung
bubunne
bubutan
bucu
buda
budakeling
budal
budapest
budaya
budayawan
buddha
buddhisme
buddies
budeng
budha
budi
budidaya
budiman
budjana
budong
buduh
buduk
buduran
buenos
buffalo
bug
bugbug
bugbugan
bugel
bugis
bugul
buhu
buik
building
buin
buina
buine
buitan
bujak
bujangga
bujung
bujur
buk
buka
bukak
bukakak
bukal
bukan
bukanlah
bukateja
buke
buket
buki
bukian
bukide
bukik
bukit
bukittinggi
buko
bukti
buku
bukur
bulagi
bulak
bulakan
bulan
bulanan
bulangan
bulat
bulawan
bulayak
bule
buleleng
bulet
bulgaria
bulgogi
bulia
bulian
bulih
bulik
bull
bullet
bulletin
bulls
bulo
buloh
bulu
buluah
buluan
bulude
buluh
buluk
bulukerto
bulukumba
bululawang
bulun
bulune
bulung
bulungan
bulurejo
bulus
bulusan
bulusari
bulutangkis
bum
bumbang
bumbu
bumbung
bumi
bumiaji
bumiayu
bumiharjo
bumirejo
bun
bunaken
buncing
bunda
bunder
bunderan
bundesliga
bundung
bune
bung
bunga
bungah
bungai
bungan
bungane
bungaya
bungbung
bungbungan
bungi
bungin
bungkah
bungkak
bungkil
bungko
bungku
bungkuk
bungkul
bungkulan
bungkung
bungkunge
bungkungne
bungkut
bungo
bungsu
bungur
bungursari
bungus
bungut
bungutne
buni
bunisari
buniwangi
bunta
buntar
bunteh
bunter
bunteran
buntok
buntu
buntulia
buntut
bunuh
bunut
bunutan
bunutin
bunyi
bunyu
buol
buonarroti
bupati
bura
buranga
burat
buratwangi
burau
bureau
buring
burma
burneh
buron
buronan
burone
buronne
buru
buruan
buruh
buruk
buruknya
burundi
burung
bus
busalangga
busami
busan
busana
bush
business
busung
busungbiu
busur
but
buta
butha
buti
buton
button
buttu
butuh
butung
buug
buugan
buung
buungan
buwit
buyan
buyar
buyat
buyung
buyut
buzz
bwah
bwf
bwin
by
bye
byung
c
ca
caa
cab
cabang
cabe
cabean
cabello
cac
cacaban
cacakan
caci
cadangan
cae
caf
cafe
cagaan
cagak
cagar
cager
cahaya
cai
caine
cair
cak
caka
cake
cakep
cakepan
cakepung
cakra
cakranegara
cakung
cal
cala
calanques
calendar
california
call
called
calls
calon
calonarang
calycina
cam
camat
camatan
camba
cambai
cambre
cambridge
came
cameron
cameroon
camp
campago
campaign
campaka
campang
camplong
campor
campuhan
campur
campuran
campurejo
campursari
campus
can
canada
canadian
canang
canberra
candi
candikuning
candikusuma
candimulyo
candipuro
candirejo
candiroto
candisari
candiwulan
candra
candrakirana
candrawati
candung
cang
cangak
cangake
cange
canggah
canggu
cangi
cangkang
cangkem
cangkring
cangkringan
cangkuang
cangkup
cani
cantian
cantik
canton
cantung
canyon
cap
cape
capi
capital
capitol
capkala
cappel
captain
capung
car
cara
caracas
carane
carang
carangnyane
carangsari
carangtinanglung
caranya
caratan
caratane
carcan
card
care
carenang
caretaker
cari
carik
carikan
carike
carikne
caringin
carita
caritanan
caritayang
carl
carlos
carlsbad
carma
carolina
carousel
carter
cartoon
cartoons
caru
caruban
cas
case
cassumunar
castile
cat
catalogue
catalunya
catantra
catatan
catch
category
catetan
catra
cats
catu
catur
caturharjo
catus
cau
cave
cawan
cawang
cawas
cayang
cbbutton
cc
cdc
ce
cecangkitan
cecimpedan
cecire
ceciren
cedera
cekcek
cekel
cekeng
cekepel
ceker
ceking
ceko
cekok
cekuh
cekungan
celagi
celah
celak
celake
celana
celebes
celedu
celempung
celeng
celengan
celep
celepang
celepanga
celepuk
celetiga
cell
cells
celsius
celuk
celukan
cemagi
cemara
cemburu
cemeng
cemenggon
cempa
cempaga
cempaka
cempedak
cenana
cendana
cendek
cendekiawan
cendekne
cenderawasih
cendono
cendrawasih
ceng
cengkar
cengkare
cengke
cengkok
cenigaan
cenik
cening
ceningan
ceninge
cenrana
census
center
central
centre
centrung
century
ceo
cepaka
cepat
ceper
cepogo
cepok
cepoko
cepu
ceremony
cerik
cerikan
cerita
cerme
cermin
cerpe
cerpen
certain
cesa
cet
cetacea
cetak
cetakan
cetik
cetrung
cetu
cha
chae
chairil
challenge
champions
championship
chan
chandra
chang
change
changed
changes
channel
chao
chaplin
chapter
character
charente
charles
charlie
charlotte
chart
chase
chatur
chayote
che
check
checklist
chelsea
chemical
chemistry
chen
cheng
cheol
chew
chi
chiang
chicago
chicken
chief
child
children
chili
china
chinamoonroll
chinensis
chinese
ching
chip
chitwan
cho
choi
choice
chopin
chopra
chris
christian
christie
christmas
christopher
chrisye
chronicle
chronicles
chronology
chrysanthemum
chu
chul
chulalongkorn
chung
chungcheong
ci
cia
ciakar
ciamis
cianjur
ciapus
ciasem
ciawi
cibadak
cibaduyut
cibal
cibatu
cibeber
cibentang
cibeunying
cibeureum
cibingbin
cibinong
cibiru
cibitung
cibiuk
cibodas
cibogo
cibubur
cibuluh
cibunar
cibungur
cibuntu
ciburial
ciburuy
cicadas
cicalengka
cicendo
cicing
cicinge
cicingne
ciciplukan
cicurug
cidadap
cidahu
cie
cigadog
cigadung
cigintung
cigondewah
cigoong
cigugur
cihanjuang
cihaur
ciherang
cihideung
cihna
cihuni
cijambe
cijati
cijengkol
cijeruk
cijeungjing
cijulang
cikadongdong
cikadu
cikahuripan
cikakak
cikalong
cikampek
cikande
cikarang
cikareo
cikaret
cikawung
cikedung
cikeusal
cikeusik
cikidang
cikole
cikondang
cikoneng
cikra
cikrabala
cikupa
cikuya
cilacap
cilamaya
cilandak
cilangkap
cilantro
ciledug
cilegon
cileles
cilengkrang
cileungsi
cili
cilik
cililitan
cilinaya
cilincing
cilodong
cilongok
cimahi
cimanggis
cimanggu
cimanuk
cimarga
cimenteng
cimuncang
cina
cinambo
cinangka
cinangsi
cincin
cindere
cinderella
cindy
cine
cinema
cinematic
cinerea
cing
cingak
cingakan
cingakin
cingakina
cinnong
cino
cinta
cintaasih
ciomas
cipadung
cipak
cipaku
cipanas
cipancar
ciparay
cipari
cipayung
cipedes
cipete
cipeucang
cipeundeuy
cipicung
cipinang
cipondoh
cipta
ciputat
ciracas
circular
cirebon
cireundeu
ciri
cirin
ciroyom
cisaat
cisalak
cisaranten
cisarua
ciseureuh
cisitu
cisoka
cita
citamiang
citapen
citation
citations
cite
citeko
citeureup
cities
citorek
citr
citra
citrawati
citrus
citta
city
ciung
civic
civil
civilization
ciwa
ciwalen
ciwaringin
ciwidey
clalongan
clan
clapar
clark
class
classes
classification
classify
claud
claude
claudio
clean
clear
clekontong
clepuk
cleveland
click
client
cliff
clipping
clone
closed
club
cluring
cm
cmbox
cn
cnn
co
coast
coat
coba
coblong
cock
cockfighting
cockroach
cocomanira
cocos
code
cok
cokek
coklat
cokor
cokorda
cold
cole
collapse
collapsed
collapsible
collectie
collection
college
collins
colloquial
colombo
colonial
color
colorado
columbia
columns
com
come
comedy
comes
comics
comment
commercial
commission
common
commons
commonwealth
communaute
communes
communication
community
compact
compang
companhia
companion
company
complete
completed
comprehensive
compreng
computer
concacaf
concerning
concert
concise
condong
condongcatur
conference
config
congeh
congress
conmebol
connecticut
consecutive
conservancy
conservation
consortium
construction
contact
container
contains
contemporary
content
contest
context
continent
conto
contoh
contone
control
convex
coo
cook
cookpad
coordinates
copa
copy
copyright
cor
corah
corak
corawali
core
coriander
cornel
cornelis
cornell
coromandelica
coronel
corop
corporation
corruption
cortron
corvus
cosmology
cot
cotopaxi
could
council
counter
countries
country
county
coupe
couple
cousin
couteau
cover
covid
crab
crc
create
created
creative
creese
cristiano
crita
critaang
critanan
critayang
cropped
cross
crow
crukcuk
cruz
cs
css
ctype
cuaca
cuba
cubadak
cubling
cucu
cucukan
cucun
cucune
cucunne
cuisine
cuka
cukup
cula
culik
cultural
culture
cultures
cumpu
cungkup
cunguh
cup
cupak
cupek
cupel
cupit
curah
curahdami
curcuma
curie
curik
curium
current
currently
curug
curup
custom
cut
cutet
cutetan
cuti
cuts
cv
cyathea
cybister
cynthia
cyprinidae
czech
d
da
daa
daane
daang
daar
daara
daat
dabdab
dada
dadahup
dadali
dadang
dadap
dadapan
dadari
dadarine
dadas
dadi
dadia
dadiannya
dadine
dadirejo
dadong
dadonge
dadongne
dados
dadosne
dadosnyane
dadu
dadua
dae
daejeon
daeng
daerah
daftar
dagang
dagangan
daganganne
dagange
dagdag
daging
dagingin
dagingnyane
daha
dahan
dahat
dahating
daigaku
daily
dairi
daja
dajah
dajan
dakar
dakdakan
daki
dakota
daksina
daku
dakwah
dal
dalai
dalam
dalamnya
dalang
dale
dalem
daleman
dalemnyane
dalo
dalom
daluman
dalung
dam
dama
damai
damar
damaskus
damau
dame
damono
dampak
damping
dampit
damuh
dan
dana
danaraja
danasari
danau
danawa
dance
danda
dandang
dane
dang
dangan
dangang
dangap
dangdang
dangdeur
dangdut
danghyang
dangin
danginan
dangintukadaya
dangsah
dangsil
dani
daniel
danta
danu
danum
danune
danurejan
danyang
danyuh
dapat
dapdap
dapdape
dapetanga
dapetange
dapil
dara
darah
darahku
darane
darat
daratan
dari
darie
daring
dark
darkmode
darma
darmaga
darmaji
darmasaba
darmawan
darna
darsana
daru
darungan
darurat
darussalam
das
dasa
dasan
dasar
dasawarsa
dasuk
data
database
datah
datai
datang
datar
dataran
date
datu
datuk
dau
daughter
dauh
dauhwaru
daun
daup
daur
dausa
dave
david
davis
dawa
dawan
dawanan
dawe
daweg
dawege
dawi
dawkins
dawuan
dawuhan
dawung
day
daya
dayak
dayan
dayane
dayang
daye
dayeuhluhur
days
dayu
dayung
dc
dd
de
dead
deah
dear
death
deaths
debit
debong
debut
debutnyane
dec
decade
december
deceng
decided
declaration
dedaaran
dedai
dedari
dedarine
dedet
deed
default
defense
deg
degag
deha
dek
dekan
dekat
dekdek
dekenat
deket
dekker
del
delang
delapan
delaware
deleg
delete
delft
delhi
deli
delima
deling
delivery
delo
delod
delodan
delodye
delokina
delta
demaan
demak
demang
demangan
dembe
deme
demen
demi
demikian
demit
democracy
demograpi
demokrasi
demokrat
demokratik
dempo
dempuawang
demulih
demung
den
denbukit
dengak
dengan
dengannya
dengeng
dengkil
dengkok
dengkolan
dengkot
dengok
dening
denis
deniŋ
denmark
denpasar
denpost
dente
depa
depan
depang
departeme
departemen
department
depeha
depok
deprecated
der
derajat
deral
deras
derasi
derawan
deret
derika
deriki
dermaga
dermo
dershowitz
des
desa
descendants
describes
description
desember
desert
design
designer
deskripsi
destar
desti
destroy
detail
details
dete
detia
detik
detusoko
detya
devdas
development
devgan
devil
dewa
dewan
dewane
dewasa
dewata
dewatane
dewek
deweke
dewekne
dewi
dha
dharma
dharmasraya
dharmawangsa
dhien
dhua
di
dia
diadakan
diadaptasi
diah
diajukan
diakses
diale
dialek
dialog
diame
dian
diana
dianggap
dianggo
diapin
diarsa
dias
diasabudi
diastun
diaswari
diaz
dibaca
dibagikan
dibahas
dibawah
dibentuk
diberi
diberikan
dibi
dibia
dibuat
dibuka
dibunuh
diceritakan
dick
dictionary
did
didalamnya
didih
didirikan
die
died
diego
dieng
diff
different
dig
digelis
digit
digital
digitech
digitized
digoel
digunakan
dihapus
diharapkan
dihentikan
diibaratkan
diikat
diikuti
dija
dijadikan
dijalan
dije
dijelaskan
dijk
dik
dikarenakan
dikatakan
dikenal
diketahui
dikirimkan
diktator
dikumpulkan
dil
dilaksanakan
dilakukan
dilanjutkan
dilantik
dilem
dili
dilihat
dilip
dilwale
dimakan
dimana
dimara
dimel
dimenangkan
dimension
dimiliki
dimpil
dimulai
dina
dinamis
dinane
dinas
dinasti
dinding
ding
dingeh
dingeha
dingin
dini
dinky
dinosaurus
dinoyo
dinyanyikan
dinyatakan
dipakai
dipanggil
dipasena
diperhatikan
diperkirakan
diperlukan
dipha
dipilih
dipimpin
diplomat
diponegoro
dipta
dipuja
dir
dire
direction
director
direkam
direktorat
direktur
dirgahayu
dirgha
diri
dirinya
dirung
disalin
disampaikan
disanalah
discovered
discovery
discuss
discusses
discussion
disebabkan
disebut
disebutkan
disediakan
diselenggarakan
disi
disiksa
disisin
diskografi
diskograpi
diskusi
disney
disneyland
display
distribusi
distribution
district
districts
distrik
disturbance
disubane
disubanne
disusun
dite
ditemukan
ditengah
ditentukan
diterapkan
diterbitkan
diterima
diterjemahkan
ditinggal
ditoe
ditolak
ditu
dituangkan
ditulis
ditunda
ditutup
diuji
diumumkan
diundang
div
divisi
division
diwang
diwangan
dixit
diy
dizhi
dj
djakarta
djambatan
djani
djawa
djelantik
djibouti
djoko
dki
dkk
dl
dlanggu
dlingo
dll
dlod
dlundungan
dn
dna
dnia
do
doa
dobo
doctor
document
documentary
documentation
doda
dodol
does
dog
doge
dogen
dogiyai
doglagan
dognapper
dogs
doh
doha
dohnyane
doi
dok
dokar
doko
dokter
doktor
dokume
dokumen
dokumentasi
dokumenter
dolo
doloduo
domain
domas
domba
dome
domestik
domia
dominan
dominated
dominika
dompo
dompu
don
donald
donan
donau
dondo
done
dong
dongding
dongeng
donggala
dongkang
donglen
dongol
dongsha
donia
donne
donnyane
dono
donomulyo
donorejo
donorojo
donri
doo
doodle
door
doplang
dora
dorae
dorji
doro
dortmund
dos
dosa
dosan
dose
dosen
dot
double
douglas
down
downloaded
dpc
dpd
dpl
dpr
dprd
dr
draco
dragon
drajat
drama
dramatari
dravida
drawa
dream
dresta
drew
drika
driki
drink
drive
driyorejo
drona
dropout
drs
drue
druen
drum
drummer
druwe
druwen
ds
dt
du
dua
dualang
duampanua
duang
duaning
dubai
duck
duckling
duda
dudepo
dudonan
duduk
duduka
due
dueg
dug
dugas
dugase
duh
dui
duk
duka
duke
duko
duku
dukuh
dukuhe
dukuhtengah
dukuhturi
dukun
dukungan
dulamayo
dulang
dulhania
dulomo
dulu
dumadak
dumade
dumadi
dumai
duman
dumbo
dumilah
dumoga
dump
dumplings
dumun
dumunan
dun
dundun
dunes
dung
dungingi
dungun
dunia
duo
dupa
dura
duranegara
durbudi
durbudine
dure
duren
durga
durgama
duri
durian
durin
during
durma
durmini
durung
durus
durusang
dusun
duta
dutch
duur
duuran
duurne
duurnyane
duweg
duwet
duwur
duwurnyane
dvd
dwala
dwarawati
dwarfs
dwi
dwijendra
dwikora
dwipa
dx
dy
dyah
dynasty
dzenie
e
ea
eaba
each
eagle
early
earth
east
eastern
eclipse
economic
economics
economist
ed
eda
eddy
ede
eden
edengang
edersee
edi
edinburgh
edisi
edit
editing
edition
editions
editor
editors
eds
edu
education
educational
eduk
eduke
edward
edwin
ee
een
efek
effect
effendi
effendy
efl
egar
egg
eh
eha
eifel
eiffel
eja
ejaan
ek
eka
ekadjati
ekalawya
eko
ekonom
ekonomi
ekor
ekosistem
eks
eksekutif
ekspedisi
ekspresi
el
elah
elang
ele
electric
electronic
elektronik
element
elemental
elements
elephant
elias
eling
elizabeth
ella
elliott
elok
else
elu
elung
em
emansipasi
emas
emase
embakan
embaloh
embang
embas
embasnyane
embid
embok
emboke
embokne
embracing
embung
eminem
emma
emmanuel
empang
empas
empat
empehan
empire
empoang
empty
empu
empuaji
empuk
empul
en
enabled
enam
ence
enceh
encen
encol
encyclopaedia
encyclopedia
encyclopædia
end
endag
endah
endang
ende
endek
endemik
enden
endep
enduk
endut
ene
enem
energi
energy
eng
engel
enggal
enggalang
enggang
enggung
engineering
engkau
engkebang
engket
england
english
engsap
engseb
engsek
enim
ening
enjung
enjungan
enrique
ensiklopedi
ensiklopedia
ental
entale
enten
entertainment
entik
entika
entikan
entitas
ento
entry
entungang
entunganga
entungina
enu
environment
environmental
ep
episode
episodes
epot
eq
equivalent
er
era
eric
ernest
ernst
eropa
error
errors
es
esa
esai
escaut
eseap
essang
essay
essays
essonne
est
estonia
eswatini
et
eta
etc
eteh
ethiopia
etik
etika
eu
eun
eure
euro
europe
european
eva
evans
event
events
everest
everglades
every
everyone
evidence
evolution
ex
example
excellence
excerpt
exchange
exo
expedition
experience
exploration
express
ext
extended
external
eye
eyes
f
fa
fabaceae
face
facebook
fact
factbook
facto
factor
facts
factsheet
faculty
fafinesu
fair
fairy
faisal
fajar
fakfak
fakta
faktor
fakultas
fall
false
fame
fami
famili
familia
family
fantasi
fantasia
fantasy
faq
far
farhan
farmasi
fase
fasilitas
fasilitasi
fasilitator
father
fatmawati
fatu
fatuleu
fatumnasi
fauna
fc
fe
feature
featured
features
feb
februari
february
federal
federasi
federation
fee
felidae
felis
fell
female
feminism
ferdinand
ferna
fernando
ferreira
ferry
festival
ff
ffdbdb
fff
fiba
ficus
fields
fifa
fight
figuretypeof
fiji
fiksi
file
filed
filem
files
filipina
film
filmfare
filmografi
filmography
films
filosof
filosofi
filsafat
filsuf
filter
final
finalis
finals
financial
find
finding
fine
finished
finisi
finlandia
fire
firenze
first
firstchild
fischer
fish
fisik
fisika
fisikawan
fisiologi
fitri
fitur
five
fix
fjord
fkip
fl
flag
flaggedrevs
flamboyan
flat
fletcher
fleurs
flex
flight
float
flora
flore
flores
florida
flower
flowers
flute
fly
flying
flyover
fm
fmbox
fo
foetida
fokus
folk
folklore
follow
following
fonem
fonologi
font
fontsize
food
foot
footage
football
for
forbes
force
forces
ford
foreign
forest
forestry
forests
foreword
form
formal
formasi
format
forms
formula
fort
fortune
forum
forward
fosil
foto
fotografer
found
foundation
founder
four
fox
fr
frac
fragmen
fraksi
frame
frameless
franc
franca
france
francis
francisco
frank
franklin
frans
fransiskus
franz
fre
frederick
free
freeman
fregat
french
friday
friedrich
friends
friesland
fritz
frog
frogs
from
front
fruit
fruits
ft
fu
fuji
fukui
fukuoka
fukushima
full
fullyvisible
fumarol
function
fund
fungsi
funny
fur
futsal
future
fwa
g
ga
gabaga
gabon
gabriel
gabung
gabungan
gabus
gada
gadang
gadange
gadget
gadgets
gadhing
gading
gadingrejo
gadingsari
gadis
gadjah
gadolinium
gadon
gadu
gaduh
gadung
gadungan
gae
gaenang
gaga
gagae
gagah
gagak
gagal
gagasan
gage
gaguritan
gaib
gajah
gajahmungkur
gaji
gak
gal
gala
galah
galahan
galahe
galak
galang
galangan
galbi
gale
galeng
galeri
galesong
galih
galile
galing
galiran
galis
gallery
gallerybox
gallus
galuh
galuhe
galung
galungan
galur
gama
gamang
gambah
gambang
gambar
gambaran
gambare
gambelan
gambir
gambiran
gambuh
gambut
gambyong
game
gamelan
games
gamongan
gampang
gamping
gampong
gan
gana
gancang
gancaran
ganda
gandamekar
gandang
gandaria
gandasari
gandasoli
gandhi
gandis
gandong
gandongan
gandrung
gandrungmangu
gandu
gandum
gandus
gandusari
gane
ganesh
ganesha
gang
ganga
gangga
ganggas
gangguan
gangsa
gangwon
gani
ganjar
gantang
gantarang
ganti
gantin
gantine
ganting
gantung
gantungan
gapuk
gapura
gar
gara
garam
garang
garden
gareng
gareth
garing
garis
garjita
garonne
garu
garuda
garum
garung
garut
gary
gas
gat
gatak
gate
gates
gati
gatot
gatra
gattareng
gaudi
gaung
gautama
gave
gawang
gaya
gayam
gayamsari
gayo
gayung
gayungan
gde
ge
gebang
gebangan
gebangsari
gebogan
gebug
gedang
gedangan
gedangsari
gede
gedog
gedong
gedongan
gedongtengen
gedung
gegae
gegambaran
gegecok
gegelang
gegendingan
geger
gegesik
geginan
geginane
geginanne
gegunung
geguritan
gehouden
geiger
gejeran
gelagah
gelah
gelahe
gelahne
gelam
gelandang
gelang
gelanggang
gelap
gelar
gelas
gelatik
gelder
gelderland
gelebet
gelegenheid
gelem
gelgel
gelis
gelisan
gelisang
gelisin
gelising
gellu
gelogor
gelombang
gelora
gelumpang
gelung
gelungan
geluntung
gelur
gema
gemantar
gemarang
gemawang
gembira
gembong
gembongan
gembor
gemeh
gemilang
gemitir
gemolong
gempa
gempinis
gempol
gempolsari
gemuh
gemuruh
gen
gena
genah
genahang
genahe
genahne
genahnyane
gendang
gende
gender
gending
gendingan
gendingane
gendingne
gendingnyane
gendis
gendong
gene
geneng
genengan
genep
genera
general
generasi
generation
genetic
genggong
geni
genine
genit
genome
genre
genta
gentan
gentar
gente
genteng
genting
gentleman
gentong
gentuh
genuk
genus
geo
geografis
geographic
geography
geograpi
geokichla
geologi
geological
geology
geon
geonames
geopark
george
georges
georgia
gerak
gerakan
gerakannyane
geraldine
gerana
gerang
gerantang
gerard
gerbang
gerbangkertosusila
gerdal
gere
gereja
geres
gerhana
geria
geriana
gerih
gerilya
gering
geris
germain
german
germany
gerobogan
gerokgak
gerombong
gerong
gersik
geruda
gerung
geseng
gesikan
gesing
get
getah
getakan
getap
getar
getas
getasan
getelementbyid
getep
getget
getih
getihne
geum
geun
geyer
ghana
ghost
gi
gia
giant
gianyar
gidat
gif
gifu
gigantochloa
gigi
gigin
gigine
gih
giing
gil
gilang
gili
gilimanuk
giling
gim
gimbap
gimbart
gina
ginada
ginanjar
ginanti
ginarsa
gingsir
gingsirang
ginting
gintung
gintungan
gio
gion
gional
giovanni
girang
giri
girian
giriharjo
girijaya
girimukti
girimulya
girimulyo
giring
giripurno
giripurwo
giriputri
girirejo
girisubo
giritirto
girl
girlband
girls
gis
gislatif
gisting
git
gita
gitar
gitaris
gitgit
gitik
giur
giuseppe
give
given
giya
giyanti
gizi
gje
gkpb
glacier
gladag
glagah
glalang
glanggang
glasial
glass
gle
glempang
glenn
gliling
global
globe
glodogan
glonggong
glugur
glyph
gm
gmit
gne
gni
gnu
go
goa
goak
goakan
goake
goal
goals
goane
goba
goban
gobane
gobanne
gobiah
goble
god
goddess
gode
godog
godogan
godoh
godong
gods
goes
gogh
gohong
goku
gol
gold
golden
goldenrod
golewa
golkar
golo
golongan
gombang
gombloh
gombong
gomong
gon
gonda
gondang
gondanglegi
gondangrejo
gondo
gondokusuman
gondomanan
gondoriyo
gondosuli
gondwana
gone
gong
gonggang
gongjin
goo
good
google
gook
gopala
gora
gordon
gore
goreng
gorge
gori
gorian
gorilla
gorius
gorontalo
goryeo
gosa
gosong
got
gotong
gov
government
governor
govpubs
gowa
gowak
gr
graaf
grabag
grabagan
grace
gracula
gradasi
graduate
graha
graham
gram
gramedia
grammar
grammy
grampians
gran
grand
grande
grant
grantang
grasindo
gratis
gravitasi
gray
gre
great
greater
greatest
green
greenland
greenwood
gregorian
gregorius
grehasta
gresik
greta
gria
gringsing
grinting
griya
gro
grobage
grobogan
grogol
grojogan
grokgak
groningen
grosir
ground
group
growing
grubug
grujugan
grungsang
grup
gryllotalpa
gu
gua
guadeloupe
guam
guardian
guatemala
gubeng
gubernur
gubug
guci
gudang
gudeg
gudig
guguak
guguk
guguna
gugur
gugurnya
gugusan
guha
guide
guides
guignot
guinea
guitar
gujarat
guk
gula
guliang
guling
gulingan
gulma
guluk
gulung
gumang
gumantat
gumanti
gumatat
gumawang
gumbrih
gumelar
gumelem
gumeng
gumi
gumine
gumintit
gumitit
gumiwang
gumuk
gumukmas
gun
guna
gunakan
gunakaya
gunaksa
gunarsa
gunatama
gunawan
gunawati
gundul
gung
gunma
gunnison
gunting
guntung
guntur
gunuang
gunung
gunungan
gunungbatu
gunungbau
gununge
gunungkidul
gunungpati
gunungpuyuh
gunungrejo
gunungsari
gunungsitoli
guo
gupta
gurah
gurih
guritan
guru
guruh
gurukul
gurun
gurune
gurung
gus
gusti
gustin
gusung
guungane
guwang
guwet
guwungnyane
guyana
guyangan
guyu
gwi
gye
gyeongbok
gyeonggi
gyeongsang
gyeran
gyo
gyu
gyur
h
ha
haag
habang
habibie
habitat
had
hadapan
hadi
hadiah
hadjar
hae
haejangguk
haer
hafnium
hague
hai
hainich
haiti
hajar
haji
hak
haka
hakikat
hakim
hakna
hakone
hal
hala
halaman
halang
halangan
half
halim
halimun
hall
hallasan
hallo
halmahe
halmahera
halo
haloge
halong
haluan
halus
ham
hama
hamba
hambawang
hambuku
hamburg
hamengkubuwana
hamgyong
hamil
hamilton
hampir
hampshire
han
hana
hanacaraka
hanau
hand
handayani
handbook
handil
hane
hang
hanga
hangat
hangeul
hanging
hangover
hangul
hanja
hanna
hanoi
hans
hantu
hanya
hanyar
hanzi
happy
hara
harap
harapan
harbor
hardcover
hare
hargomulyo
hargosari
hari
harian
harimau
hariri
harja
harjamukti
harjo
harjosari
harmoni
harmonia
harold
harpercollins
harris
harry
hart
harta
haru
harum
harus
haruyan
harvard
harvest
harvey
has
hasan
hasanuddin
hasclass
hasil
hassan
hasta
hasundutan
hasyim
hat
hatan
hati
hatnote
hatta
haudi
haur
haus
haut
haute
hauteas
hauts
have
hawai
hawaii
hawanan
hayam
hayati
hayu
haywa
hazegray
he
head
header
heal
healer
healing
health
hear
heart
heath
heaven
hebat
hee
hegarmanah
hegarsari
heidelberg
height
heinrich
hektar
hektare
helen
hell
hello
help
helumo
hembang
hen
hendak
hendra
hendrik
henk
henri
henry
heo
her
herbal
herbert
here
heri
heritage
herman
hero
heron
heryawan
het
hewan
hi
hias
hiasan
hibah
hibiscus
hiburan
hidayat
hidayatullah
hidden
hide
hiding
hidroge
hidrologi
hidup
hidupku
hiduplah
hidupnya
high
higher
hijau
hijriah
hijriyah
hikayat
hiking
hilang
hilia
hilie
hilir
hill
him
himalaya
hime
himne
himself
hin
hindi
hindia
hindu
hinduism
hinduisme
hindune
hindustani
hingga
hip
hira
hirang
hiroshi
hiroshima
his
histo
historia
historian
historic
historical
histories
history
histri
hit
hita
hitam
hitler
hits
hiu
hlist
hlm
hms
hne
hnyane
ho
hoegeng
hokkaido
hoku
holiday
holland
hollywood
holmgren
homba
home
homose
honduras
hong
hongaria
hongke
honje
honshu
hoo
hood
hoon
hoover
hop
horison
horizontal
hornet
hospital
hot
hota
hotcat
hotel
hotspur
hound
house
hover
hovey
how
however
hr
href
hrithik
hrsg
hsilah
htm
html
http
https
hu
hua
hub
hubung
hubungan
hubungi
huck
hudson
hugo
hui
hujan
hukum
hulawa
hulonthalangi
hulu
hum
human
humanities
humanity
humans
humbang
humboldt
humusu
hun
hundred
hungaria
hunt
hunter
hunting
huntu
hurip
huruf
hurung
hurup
husain
husein
hut
hutagalung
hutan
hwa
hwan
hwang
hwanghae
hwi
hwon
hyang
hyaŋ
hye
hyeok
hymenoptera
hyo
hyuk
hyun
hyung
i
ia
ian
iantas
iba
ibadah
iban
ibane
ibanez
ibanne
ibaraki
ibe
ibi
ibiza
ibl
ibnu
ibrahim
ibu
ibuk
ibukota
ibukotan
ibukotane
ibukotannyane
ibukotanyane
ibul
ibun
ibune
ibunnyane
ibunya
ibunyane
ibusan
ic
ica
ical
icang
icange
ice
icen
icing
icon
icons
id
ida
idaho
idane
ide
identifikasi
identitas
ideologi
idep
idewa
idih
idk
idol
idola
idrus
idul
idup
idupe
idupne
ie
if
iflix
iga
igel
igelan
iguazu
ih
ii
iia
iii
ije
ijen
ijo
ijuk
ika
ikan
ikang
ikat
ikatan
iketan
iki
ikip
iklan
iklim
ikon
ikonografi
ikonoklasme
ikuh
ikuhnyane
ikut
ikuti
ikutne
il
ila
ilang
ile
ilegal
ileh
ilid
ilir
illas
ille
illinois
ilmiah
ilmoe
ilmu
ilmuwan
iloheluma
ilomata
ilung
im
image
imageright
images
imam
iman
imas
imba
imbang
imbox
imbricata
img
imigrasi
imlek
imogiri
impact
imperata
imperial
important
impossible
in
ina
inactive
inan
inc
included
includes
including
indaang
indah
indak
indayang
inde
indeks
indeng
inderapura
index
indexnavigationbar
india
indian
indiana
indica
indie
indihiang
indik
indike
indische
indium
individu
individual
indo
indone
indonesia
indonesian
indra
indragiri
indraloka
indramayu
indrapura
indre
indria
induk
indus
industri
industrial
inem
ineman
influence
info
infobox
informasi
informatika
information
infrastruktur
ing
ingan
inget
ingetang
inggian
inggih
inggihan
inggihnyane
inggris
ingih
ingin
ingkel
ingong
ingtai
inguh
inherit
ini
inilah
injil
injin
inlandsche
inline
inner
innsbruck
inobonto
inpormasi
inpres
insana
inside
insinyur
inspirasi
instagram
instead
institusi
institut
institute
instrume
instrumen
intail
intan
intangible
intaran
inte
intel
intelektual
intelligence
inten
inter
interactive
interaktif
interface
interior
interlanguage
internal
internasional
international
interne
internet
interwiki
inti
intisari
into
introduction
inu
inucap
invasi
inventaris
inventarisasi
invited
io
ion
ios
iowa
ip
ipa
ipb
ipi
ipian
ipidan
ipil
ipoen
ips
ipuh
ipun
ipune
ipunne
ir
ira
iraga
irak
iram
irama
iran
irang
irangsasa
iratu
ireland
ireng
irengan
irengane
iri
irian
iridium
irigasi
irika
iriki
iring
iringan
iringang
irlandia
irmiwahdia
is
isaac
isaka
isbn
isc
ise
isen
iseng
isfunction
isi
isin
isine
iskandar
islam
islamabad
island
islandia
islands
isle
ismail
iso
isotop
isra
israe
israel
issn
issue
issued
issues
istana
istanbul
isteri
istiadat
istilah
istime
istimewa
istiqlal
istri
istrine
istrinya
isu
iswara
it
ita
itali
italia
italy
itam
itb
iteh
item
items
itep
iti
itik
its
itself
itsukushima
itu
itulah
ituni
itunian
iucn
iupac
iv
iwa
iwang
iwasin
iwate
iwel
ix
ixora
iya
iyai
izu
j
ja
jaan
jaang
jaba
jabaan
jaban
jabatan
jabodetabek
jabon
jabung
jack
jackson
jacob
jacques
jada
jadi
jadma
jadmane
jadwal
jae
jaen
jag
jaga
jagabaya
jagad
jagakarsa
jagalan
jagapati
jagapura
jagaraga
jagasatru
jagat
jagate
jagatkarta
jagatnatha
jagi
jagjagina
jago
jagung
jahat
jahe
jail
jaja
jajang
jajangmyeon
jajar
jajaran
jajarpikatan
jaje
jak
jaka
jakan
jakane
jakarta
jakatan
jaksa
jakti
jakula
jala
jalak
jalan
jalanan
jalanang
jalane
jalaran
jalemu
jalikan
jalur
jam
jamaika
jamak
jaman
jambangan
jambe
jambearum
jambesari
jambewangi
jambi
jambon
jambu
jambul
james
jamil
jampang
jan
jana
janamejaya
janane
janda
jane
janeiro
jang
jangan
janganan
janger
jangga
janggan
janggaran
jangih
jangka
jangkahan
jangkang
jangkar
jangkep
jangkepan
jangkrik
jangu
jani
janjang
janji
janma
jantan
janten
janti
jantos
jantung
januari
january
japa
japan
japanan
japanese
japatuwan
japhala
jar
jarak
jaran
jarane
jarang
jaranne
jaratkaru
jari
jaring
jaringan
jaringe
jaruh
jasa
jasan
jasminum
jasri
jatake
jaten
jater
jati
jatiasih
jatibarang
jatibaru
jatibening
jatijajar
jatilawang
jatiluhur
jatiluwih
jatimekar
jatimulya
jatimulyo
jatinegara
jatingarang
jatinom
jatipuro
jatirejo
jatiroto
jatisampurna
jatisari
jatisawit
jatiwangi
jatiwaringin
jatma
jatuh
jauh
jaum
java
javanese
javanicus
javascript
jawa
jawab
jawaban
jawai
jawi
jaya
jayagiri
jayamekar
jayamukti
jayanti
jayapangus
jayaprana
jayapura
jayawijaya
jayenge
jazz
jcarousel
jcarouselcontrol
je
jean
jebres
jebugarum
jeding
jedinge
jeet
jeff
jefri
jeg
jege
jegeg
jegjeg
jegog
jegu
jehem
jejak
jejangkit
jejatah
jejeh
jejehne
jejer
jejering
jeju
jek
jelai
jelanan
jelantik
jelapat
jelas
jele
jeleg
jelegong
jelek
jelema
jelijih
jelma
jelun
jelutung
jemak
jemaka
jemakang
jemakin
jemariku
jematang
jembangan
jembatan
jember
jembrana
jemet
jempeng
jempenit
jempiring
jempong
jemuh
jemur
jenangan
jenar
jenawi
jendela
jenderal
jendral
jene
jenek
jeneng
jenenga
jeneponto
jengah
jenggot
jengkol
jenis
jennifer
jeolla
jeon
jeong
jep
jepang
jepara
jepun
jer
jeram
jerapah
jerih
jeriji
jerit
jerman
jermanik
jernih
jero
jeroan
jeron
jerone
jersey
jeruk
jeruklegi
jet
jetak
jetis
jeung
ji
jigme
jika
jiken
jil
jilid
jim
jima
jimbar
jimbaran
jimbarne
jimbarnyane
jimmy
jin
jinah
jinengdalem
jingah
jingga
jipang
jirisan
jit
jitne
jitu
jiwa
jiwan
jjigae
jkt
jl
jlamprang
jlanan
jlantik
jlema
jmpl
jo
joan
joanyar
jodoh
joe
jog
joge
joged
jogja
jogjakarta
joglo
jogor
joh
johan
johann
johannes
johar
john
johnny
johnson
joho
join
joko
jokowi
jombang
jomblang
jombok
jombor
jonatan
jonathan
jones
jong
jongkong
joni
jono
joo
joon
joong
jordan
jorong
jose
joseagush
joseon
joseph
joshua
journal
journey
jours
joy
jpeg
jpg
jquery
jr
jrakah
jrebeng
jro
jrone
jrudeh
js
jtbc
ju
jua
juan
juanda
juang
juanga
juara
juari
judgement
judul
jug
juga
jugo
juk
jukong
juku
jukung
jukut
jukutan
julah
jules
juli
julia
julian
juliartha
julius
july
jumah
jumahan
jumahne
jumat
jumeneng
jumlah
jumo
jump
jumpai
jun
june
jung
jungle
jungsri
jungut
jungutan
jungutbatu
juni
junior
junjung
junrejo
juntal
jupiter
juragan
jurang
jurangjero
jurangmangu
jurit
jurnal
jurnalis
jurnalistik
juru
juruh
jurusan
jus
just
justice
justin
jusuf
juta
juuk
juventus
juwet
juwuk
k
ka
kaadanin
kaadegang
kaadep
kaadol
kaaduk
kaagamaan
kaagungan
kaajahin
kaajak
kaajegang
kaajeng
kaake
kaakse
kaakses
kaakuin
kaalase
kaalih
kaamanan
kaambil
kaan
kaancam
kaancem
kaancengang
kaange
kaangen
kaangge
kaanggen
kaanggep
kaanggit
kaanggo
kaanggon
kaangkat
kaanyarin
kaapit
kaaptiang
kaapus
kaaran
kaaranin
kaartosang
kaasilang
kaasrian
kaatur
kaaturang
kaaturin
kaawasin
kab
kaba
kabaang
kabaena
kabagi
kabakar
kabakta
kabaos
kabaosang
kabar
kabaruan
kabat
kabatek
kabawos
kabe
kabecikang
kabedil
kabeh
kabelasang
kabenengan
kabetan
kabhi
kabinawa
kabinayang
kabine
kabinet
kabisat
kabor
kaboros
kabu
kabuat
kabuatan
kabuatang
kabudayaan
kabudidaya
kabuka
kabukti
kabunan
kabung
kabungkus
kabupate
kabupaten
kaca
kacamatan
kacampuh
kacampuhin
kacampur
kacampurang
kacang
kacangan
kacarita
kacaritayang
kacatet
kacawang
kace
kacemar
kacerita
kaceritayang
kaciak
kacicang
kacihnain
kacihnayang
kacing
kacingak
kacingakin
kaco
kacrita
kacritayang
kacumpu
kacumpuang
kacumpuin
kacunduk
kacutet
kadade
kadadiang
kadadosang
kadadua
kadaftar
kadaftarang
kadagingin
kadal
kadaleman
kadampal
kadang
kadanin
kadaptar
kadasa
kadasarin
kadasaring
kadaut
kade
kadegang
kadek
kademangan
kaden
kadena
kadewatan
kadi
kadiatmikan
kadilangu
kading
kadipaten
kadipiro
kadirasa
kadiri
kadominasi
kadong
kadrue
kadruenang
kadruwe
kadu
kadua
kaduagung
kaduang
kaduduk
kadukung
kadulurin
kadung
kadupandak
kadutan
kaduuran
kae
kaembasang
kaempon
kaenem
kaengseb
kaentasin
kaentungang
kaepah
kaesang
kaesong
kagabung
kagae
kagambar
kagambarang
kagampilang
kagantung
kagawa
kage
kagelisan
kagenahain
kagenahang
kagenahin
kagendingang
kagendingin
kagentosin
kageseng
kaget
kagetep
kagiat
kagiling
kagingsirang
kagolong
kagoreng
kagoshima
kagungan
kahanan
kaharingan
kahayan
kahias
kahiasin
kaho
kahu
kahubung
kahubungin
kahuripan
kahuripannyane
kahyangan
kai
kaicaiin
kaicain
kaicalan
kaicalang
kaice
kaicen
kaigelang
kaiket
kailehin
kaili
kaimana
kaimbuhin
kain
kaincuk
kaine
kainem
kainum
kairing
kairingin
kaisar
kaisinin
kaisolasi
kait
kaiterin
kaitung
kaja
kajabat
kajaga
kajajah
kajanan
kajang
kajangkepang
kajangkepin
kajar
kaje
kajege
kajegegan
kajeksan
kajemuh
kajen
kajeng
kajian
kajimbarang
kajinahan
kajol
kajoran
kajudi
kaka
kakait
kakaitang
kakak
kakalih
kakantenang
kakap
kakapah
kakaput
kakardi
kakarya
kakaryanang
kakaryanin
kakaryaning
kakaskasen
kakasorang
kakawi
kakawian
kakawiannyane
kakawin
kakawitin
kake
kakebatang
kakeberang
kakedeng
kakeduk
kakelilingin
kakelola
kakembangang
kakenalang
kakene
kakeniang
kakenturan
kakepah
kakepahan
kaketik
kaketus
kaki
kakia
kakiang
kakine
kakirangin
kakirim
kaklasifikasiyang
kakontrak
kakor
kaktus
kakua
kakuasaan
kakuasain
kakuatan
kakukus
kakul
kakupu
kakurung
kakutang
kakutus
kakya
kal
kala
kalabahi
kalabbirang
kalablab
kalacuran
kalaena
kalah
kalahin
kalahina
kalain
kalait
kalaksanayang
kalam
kalama
kalana
kalang
kalangan
kalangane
kalanganyar
kalangen
kalangkung
kalanguan
kalangwan
kalaning
kalantik
kalanturang
kalasan
kalase
kalawan
kalde
kaldera
kale
kaleb
kalebur
kalem
kalembu
kalender
kalepas
kaler
kali
kaliadrem
kaliakah
kalianda
kalianget
kalianyar
kaliasem
kaliawi
kalibagor
kalibaru
kalibawang
kalibening
kaliboto
kalibukbuk
kalibuntu
kalidawir
kalideres
kaligangsa
kaligawe
kaligondang
kalih
kalihang
kalihin
kalijaga
kalijambe
kalijati
kalijaya
kalikajar
kalikotes
kalima
kalimalang
kalimanah
kalimanggis
kalimantan
kalimas
kalimat
kalimati
kalimbakang
kalindungin
kaling
kalinggihang
kalintang
kaliombo
kaliori
kalipancur
kalipang
kaliploso
kalipucang
kalipuro
kaliputih
kalirejo
kalis
kalisada
kalisalak
kalisari
kalisat
kalitengah
kalium
kaliungu
kaliuntu
kaliurip
kaliwadas
kaliwat
kaliwates
kaliwatin
kaliwedi
kaliwiro
kaliwungu
kaliyuga
kalki
kalkoge
kalo
kaloktah
kalola
kalong
kalongan
kaloran
kalosi
kalotah
kalpa
kalsium
kalua
kalugra
kalukku
kaluku
kalukuang
kalumpang
kaluncurang
kalung
kalungah
kalurahan
kaluwaraga
kaluwarga
kama
kamahardikaan
kamahardikan
kamahardikayan
kamainang
kamajaya
kamal
kaman
kamanah
kamandaka
kamang
kamanggala
kamanggalain
kamantrian
kamanusaan
kamar
kamargiang
kamasak
kamasan
kamase
kamatiang
kambang
kambangan
kambata
kamben
kambing
kambingan
kambitin
kamboja
kame
kamedalang
kamekarang
kamen
kamenangan
kamenangang
kamenengin
kamenterian
kamerde
kamerun
kami
kamijilang
kamil
kamiri
kamp
kampala
kampanye
kampar
kampid
kampidne
kampih
kampuang
kampuh
kampung
kampungbaru
kampus
kamuat
kamulan
kamulyan
kamus
kan
kana
kanada
kanagawa
kanak
kanal
kanan
kananga
kanaturalisasi
kanciana
kancil
kancit
kancut
kanda
kandai
kandang
kandangan
kandik
kandikaang
kandikain
kandikayang
kandis
kandugi
kandung
kandungan
kane
kanem
kanenem
kang
kangaroo
kangayang
kangcingwi
kangean
kangen
kangge
kanggo
kanggoang
kanggon
kangin
kanginan
kanginang
kangkat
kangkung
kanigaran
kanigoro
kanikain
kanikayang
kanisius
kanjeng
kanji
kanker
kanoman
kanonang
kansai
kansas
kanselir
kanta
kantar
kanten
kanti
kanto
kanton
kantong
kantor
kantos
kantrungan
kantu
kantuk
kantun
kanya
kaoksidasi
kaolah
kaon
kapa
kapademang
kapadetan
kapah
kapahan
kapaica
kapak
kapaksa
kapal
kapala
kapalih
kapalo
kapan
kapanewon
kapangandikaang
kapangandikayang
kapanggang
kapanggih
kapanggihin
kapanggil
kapapat
kapar
kaparabin
kaparinama
kaparinamain
kapartama
kapas
kapasa
kapasahang
kapasang
kapasitas
kapastika
kapastu
kapat
kapatehan
kapatehang
kapatutan
kapau
kapayasin
kape
kapel
kapemimpinan
kapendak
kapercaya
kapercayaan
kaperluan
kaperluang
kapertama
kapetang
kapete
kapetengan
kapi
kapiara
kapica
kapicayang
kapidartayang
kapilih
kapimpin
kapin
kapindayang
kaping
kapingaruhin
kapining
kapiolasan
kapir
kapireng
kapisah
kapit
kapitan
kapitu
kapo
kapoiala
kapolihang
kapolihin
kapoor
kapotong
kaprabon
kapraginain
kaprasida
kapre
kaprecaya
kaproduksi
kapte
kapten
kapu
kapuas
kapuja
kapuk
kapuloan
kapupulang
kapuputang
kapuputin
kapur
kapustakaan
kaputusan
kar
kara
karachi
karaeng
karahajengan
karahayuan
karajaan
karakter
karakteristik
karama
karaman
karamaning
karamat
karan
karana
karancang
karang
karangagung
karangamla
karangampel
karangan
karanganom
karanganyar
karangase
karangasem
karangasen
karangawen
karangbendo
karangdadap
karangdowo
karangduren
karangduwur
karanggayam
karangge
karanggedang
karanggede
karanggondang
karangharja
karangharjo
karangjambe
karangjambu
karangjati
karangjaya
karangkemiri
karanglewas
karanglo
karangmalang
karangmangu
karangmekar
karangmojo
karangmukti
karangmulya
karangmulyo
karangnangka
karangnongko
karangnunggal
karangpandan
karangpawitan
karangpucung
karangreja
karangrejo
karangsalam
karangsambung
karangsari
karangsembung
karangsono
karangsuung
karangtalun
karangtanjung
karangtengah
karangturi
karangwangi
karangwaru
karangwuluh
karangwuni
karas
karasa
karasayang
karate
karatengin
karaton
karatuan
karatung
karau
karauhan
karauhang
karauhin
karawaci
karawang
karawitan
karbon
kare
kareena
karekam
karen
karena
karencana
karencanayang
karendem
kareng
karereh
karesmiang
karet
karetau
kareung
kargo
kari
kariango
karibia
karier
karilis
karim
karimun
karimunjawa
karipta
karir
karirihan
karirnyane
karl
karma
karna
karnivora
karno
karo
karoan
karobelah
karsa
karst
karta
kartago
kartanegara
kartasura
kartika
kartini
kartoharjo
kartu
kartun
kartunis
karua
karubuhan
karung
karunguang
karuni
karusak
karusakan
karya
karyamukti
karyamulya
karyan
karyane
karyannyane
karyanya
karyasari
karyawan
kasa
kasada
kasai
kasaibin
kasakitan
kasaktian
kasalin
kasambat
kasambut
kasandingang
kasanga
kasangrai
kasar
kasarengang
kasarengin
kasari
kasat
kasatak
kasatus
kasautin
kasayagayang
kasayangang
kase
kasebar
kasebut
kasedia
kaseduh
kasela
kaselehin
kaselenggara
kaselenggarayang
kasembon
kasenengan
kasenengin
kasengguh
kasengsaran
kasenian
kasepekang
kasepuhan
kaserahang
kasia
kasiapang
kasiape
kasiarang
kasih
kasihan
kasihe
kasikiang
kasilihang
kasilur
kasim
kasiman
kasimbar
kasimpen
kasingkat
kasmaran
kasobyahang
kasolahang
kasolas
kasongan
kasor
kasponsorin
kasreman
kassi
kasta
kasturi
kasuari
kasub
kasuciang
kasue
kasuen
kasugihan
kasugihane
kasui
kasujatian
kasukan
kasultanan
kasungsung
kasur
kasurat
kasuratin
kasus
kasusastraan
kasusastran
kasusun
kasutradarain
kasuwe
kata
katabuh
katadah
katah
katahnyane
katai
katak
katake
katakenin
katalog
katalogisasi
katambahin
katampah
katampi
katamso
katandur
katanem
katanemin
katangka
katangkep
katangkilin
katapi
katarka
katata
katayangang
kate
katedunang
kategehan
kategen
kategori
kategul
katekepin
katekok
katelu
katelung
katelungatus
katempuh
katemu
katemuang
katemuin
katentu
katentuang
katepuk
katerangan
katerban
katerbitang
katerima
katerjemahin
katetapang
katetepang
kathmandu
katibe
katiga
katigang
katih
katik
katikutana
katimbang
katimpun
katingan
katinggal
katinggalin
katipat
katitah
katlatarang
katolik
katon
katos
katugasang
katuju
katujuang
katulis
katulungin
katumbas
katun
katunas
katundung
katung
katunjel
katunjuk
katunu
katur
katurang
katurunan
katutup
katutupin
katuturan
katuturang
kau
kauah
kauahin
kaubah
kauber
kaubuh
kaucap
kaucapang
kauditan
kauh
kauhan
kauk
kaukin
kaukina
kaukir
kaukur
kaulan
kaulane
kaulihang
kaum
kauman
kaumbah
kaumumang
kaundang
kaunggahang
kauningang
kauningayang
kauningin
kaur
kauripan
kauripannyane
kausap
kaushalya
kausulang
kautama
kautaman
kautus
kauwah
kavita
kawa
kawace
kawacen
kawadahin
kawagedan
kawagi
kawah
kawahe
kawakilin
kawalu
kawan
kawanaan
kawanan
kawangde
kawangen
kawangkoan
kawangsaan
kawangun
kawantu
kawasaki
kawasan
kawastanin
kawat
kawatesin
kawe
kawedanan
kawedar
kawedarang
kawedhar
kawedharang
kawedusan
kawehin
kawekas
kawentuk
kaweruhan
kawewehin
kawi
kawiguna
kawigunaan
kawigunan
kawigunannyane
kawigunayang
kawikanan
kawin
kawis
kawise
kawisesan
kawit
kawitan
kawolu
kawon
kawuh
kawula
kawunganten
kawungkus
kaya
kayan
kayang
kayangan
kaye
kayeh
kayehan
kayen
kayong
kayu
kayubihi
kayumas
kayun
kayune
kayunidane
kayunne
kayupadi
kayuputih
kazakhstan
kaziranga
kbs
ke
keadaan
keadilan
keadol
keagamaan
keagungan
keahlian
keajeng
keajuang
keakuin
keamanan
keambil
keangge
keanggep
keanggunan
kearanin
keasal
kebagusan
kebah
kebahagiaan
kebaikan
kebak
kebakalan
kebaktian
kebangkitan
kebangsaan
kebanyakan
kebasen
kebayan
kebayoran
kebebasan
kebek
keben
kebenaran
keberagaman
keberanga
kebijakan
kebilbil
kebingungan
kebo
kebomas
kebon
kebonagung
kebondalem
kebone
kebonharjo
kebonjero
kebonrejo
kebonsari
kebudayaan
kebumen
kebun
kebung
kebus
kebyar
kecag
kecak
kecamatan
kecambah
kecap
kecapi
kecas
kecatet
kecelakaan
kecicang
kecil
kecog
kecos
kecuali
kecubung
kecut
ked
kedadosang
kedagingin
kedalam
kedalaman
kedaleman
kedamaian
kedamin
kedampal
kedang
kedas
kedaton
kedaung
kedawung
kede
kedeh
kedek
kedele
keden
kedeng
kediaman
kedik
kedinasan
kediren
kediri
kedis
kedisan
kedise
kedisiplinan
kedokan
kedokteran
kedondong
kedonganan
kedongdong
kedopok
kedu
kedua
keduanya
kedudukan
kedung
kedungasri
kedungbanjar
kedungbanteng
kedungboto
kedungdowo
kedungdung
kedungjati
kedungjaya
kedungkandang
kedungmulyo
kedungpring
kedungrejo
kedungringin
kedungsari
kedungsoko
kedunguter
kedungwaru
kedungwuluh
kedungwungu
kedungwuni
kedutaan
keempat
keenambelas
keep
keerom
kefamenanu
kegiatan
keguruan
kehen
kehidupan
kehormatan
kehutanan
kei
keindahan
keio
kejadian
kejajar
kejaksaan
kejaksan
kejawan
kejepne
kejuaraan
kejuruan
kekait
kekalih
kekalik
kekarangan
kekaryanin
kekaryaning
kekawin
kekawitin
kekayaan
keke
kekeh
keker
kekeran
keketusan
kekua
kekuane
kekuasaan
kekuatan
kelaci
keladi
keladian
kelahiran
kelaisi
kelakah
kelambu
kelamin
kelampuak
kelan
kelandis
kelangan
kelapa
kelas
kelasa
kelating
kelau
kelautan
kelawu
kelayan
kele
kelecung
kelem
kelengkapin
kelente
kelepasan
keles
kelesih
keli
kelian
kelih
keliha
kelihan
kelik
keliki
keliling
kelima
kelimutu
kelinci
keling
kelioed
keliwat
kellerwald
kelo
kelod
kelodan
kelola
kelompok
kelopak
kelor
keluar
keluarga
keluarganya
kelud
kelumpang
kelurahah
kelurahan
kelusa
keluwarga
kema
kemajuan
kemakmuran
kemala
kemampuan
kemang
kemante
kemanten
kemantren
kemanusiaan
kemargiang
kemasan
kematian
kematiannya
kemayoran
kembali
kembang
kembangan
kembangarum
kembangkuning
kembangsari
kembar
kembaran
kembung
keme
kemenangan
kemendagri
kemendikbud
kementerian
kementrian
kemenuh
kemerde
kemerdekaan
kemiling
kemiri
kemis
kemlagi
kemloko
kemo
kemoning
kempers
kempo
kemu
kemudian
kemulan
kemungkinan
kemuning
ken
kena
kenaikan
kenak
kenang
kenanga
kenangan
kenapa
kenari
kenawan
kencana
kenceng
kencong
kendahe
kendal
kendali
kendalrejo
kendalsari
kendang
kendange
kendaraan
kendari
kendawangan
kendel
kendelne
kenderan
kendi
kendit
kendran
kendung
kene
keneh
kenehang
kenehe
kenehne
keneng
kenep
keni
keniten
kenjeran
kenken
kenkenang
kennedy
kennel
kenongo
kensulas
kentel
kenten
kenteng
kenting
kentucky
kenya
kenyah
kenyel
kenyem
kenyir
kepada
kepadamu
kepadatan
kepadetan
kepadetanne
kepah
kepahan
kepahiang
kepakisan
kepal
kepala
kepandean
kepanggih
kepanjen
kepanjenkidul
kepaon
kepatihan
kepayang
kepel
kepemimpinan
keperawatan
kepisah
kepiting
kepoh
kepolisian
keponakan
keppres
kepribadian
kepuh
kepuharjo
kepuhe
kepuhrejo
kepulauan
kepuloan
kepundung
kepung
kepustakaan
keputran
keputusan
kera
kerahayuan
kerajaan
kerajinan
kerak
kerala
keramas
keramat
kerambitan
keramik
kerana
kerandan
kerang
kerangka
keranjang
keras
kerasa
keraton
kerbau
kere
kerek
kereng
kerep
kereta
kerinci
kering
keris
kerja
kerjo
kerkuak
kern
kerobokan
keroncong
kersik
kersikan
kerta
kertaharja
kertajaya
kertak
kertalangu
kertamukti
kertanegara
kertapati
kertaraharja
kertarahayu
kertas
kertasari
kertawinangun
kertayasa
kertha
kerthi
kerti
kerto
kertosari
kertosono
kerucut
kerug
kesaktian
kesalahan
kesamben
kesambi
kesarengin
kesari
kesatria
kesatuan
kese
kesehatan
keseimbangan
kesejahteraan
kesek
kesempatan
keseneng
kesenian
kesetiaan
kesiab
kesiman
kesimpar
kesiut
kesoerat
kesugihan
kesultanan
kesuma
kesuna
kesusatraan
ket
ketah
ketahne
ketahnyane
ketan
ketandan
ketandur
ketanggi
ketanggungan
ketapang
ketara
ketat
ketawang
kete
ketegan
ketek
keteng
ketentuan
keterangan
ketes
ketetapan
ketiga
ketik
ketika
ketileng
ketimun
ketinggian
ketipat
ketitang
keto
ketro
ketua
ketug
ketumbah
ketungane
ketungau
ketupat
keturunan
ketut
keuangan
keude
keuskupan
kevin
kewagi
kewajiban
kewala
kewangun
kewanten
kewarganegaraan
kewastanin
keweh
key
keyboard
keyongan
kg
khan
khao
khas
khatulistiwa
khayangan
kher
khor
khumar
khushi
khusus
khususnya
khususnyane
ki
kiama
kiap
kiara
kiaracondong
kiawa
kibang
kick
kid
kidang
kidange
kidik
kids
kidul
kiduling
kidung
kija
kijang
kijap
kikian
kilangan
kilap
kiles
kilimanjaro
kill
killed
killer
kilo
kilogram
kilome
kilometer
kim
kima
kimchi
kimia
kimiawan
kimiawi
kimud
kin
kina
kinali
kind
kinds
king
kingdom
kings
kini
kintamani
kintap
kipas
kipek
kiper
kira
kirana
kirang
kirangan
kiri
kiribati
kirig
kiringan
kirtya
kiru
kisa
kisah
kisi
kistan
kit
kita
kitab
kite
kitlv
kitten
kiul
kiwa
kk
klabang
kladi
klagen
klakah
klaleng
klampis
klampok
klari
klaseme
klasifikasi
klasik
klate
klaten
klau
kle
klebutan
kledung
klegen
klego
klender
kleopatra
klepon
klepu
klesih
kletek
klian
klik
klip
kliwon
klod
klojen
klompok
kloncing
klorin
klotok
kls
klub
klumpit
klumpu
kluncing
klungah
klungkung
km
kna
kne
knife
knight
knik
knil
knis
knologi
know
knowledge
known
ko
koba
kobalima
kobalt
kobe
kober
kobo
kocap
kocapan
kodag
kodam
kodansha
kode
kodi
kodok
koha
koin
koizumi
koja
kojong
kok
kokap
kokop
kol
kola
kolaborasi
kolaboratif
kolaka
kolam
kolane
kole
kolej
koleksi
kolese
kolkata
kolo
kologi
kolok
kolom
kolombia
kolonel
kolong
kolongan
koloni
kolonial
koloniale
kolonialisme
kolono
kom
komak
komala
komandan
komando
komang
komba
kombo
komboloi
kome
komedi
komedian
komentar
komering
komersial
komik
komisaris
komisi
komite
komnas
komodo
kompa
kompas
kompe
kompete
kompetisi
kompilasi
komple
komplek
kompleks
komponen
komponis
komposer
komposisi
komputasi
komputer
kompyang
komune
komunikasi
komunis
komunitas
konang
konawe
konci
koncre
konda
kondang
konde
konden
kondisi
kondo
kone
konfe
konferensi
konflik
kong
kongga
kongo
kongre
kongres
konomi
konomis
konpe
konrad
konse
konsep
konser
konservasi
konservatif
konsonan
konstitusi
konstitusional
konstruksi
konsultan
konsultasi
konte
konteks
kontemporer
konten
kontestan
kontine
kontrak
kontribusi
kontributor
kontrol
konve
konvensi
konyong
koordinasi
koordinat
koordinator
kootenay
kopane
kopda
kope
koper
koperasi
kopi
kopo
kor
koral
koran
korawa
korban
kore
korea
korean
kori
koridor
koripan
koronavirus
korong
korsi
korupsi
kosala
kosali
kosambi
kosistem
kosmologi
kosmologis
kosong
kosta
koster
kota
kotabaru
kotabumi
kotabunan
kotagede
kotak
kotakeo
kotamadya
kotamatsum
kotamobagu
kotane
kotanyane
kotapraja
kotaraya
kotawaringin
kote
koting
koto
kottelat
kouprey
koya
kpts
kr
kradenan
kragan
kragilan
krajaan
krajan
krakatau
krama
kraman
kramane
kramanne
kramannyane
kramanyane
kramat
krana
kranane
krananne
krandegan
krandon
kranggan
krangke
kranjang
kranji
krapyak
krasak
kraton
krayan
kre
kreatif
krebet
kreket
krembangan
krenceng
kreneng
kreo
kresek
kresna
kreta
kreteg
kretek
kri
kria
krikilan
krinjing
krinting
krishna
krismayanti
krisna
kristal
kristen
kristus
krite
kriteria
kritik
kritikus
kritis
kriya
krkonos
kroasia
krobokan
kromium
kropak
krosok
kroya
kroyo
kru
krue
krueng
krui
krukut
krulut
kruna
ks
ksa
ksander
ksandria
ksatria
ksau
ksi
ksiko
kspe
kspre
ksual
ksualitas
kta
ktar
ktare
kte
ktonik
ktor
ktron
ktronik
ktur
ktut
ku
kuaca
kuador
kuah
kual
kuala
kualan
kualifikasi
kualitas
kuan
kuang
kuangan
kuantan
kuaro
kuarter
kuasa
kuat
kuayan
kuba
kubah
kubang
kubu
kubun
kubune
kubunne
kuburan
kubutambahan
kuch
kucing
kucit
kuciwa
kuda
kudang
kudanilarsa
kudiang
kudrang
kudu
kudus
kue
kuil
kuin
kujang
kujangsari
kuku
kukuh
kukur
kukuruyuk
kukus
kul
kulawarga
kulawargane
kulawarganyane
kules
kulesne
kuli
kuliah
kulibul
kulisusu
kulit
kulitne
kulitnyane
kulkul
kulon
kultivar
kultur
kulu
kulub
kuluk
kuluke
kulukne
kulur
kuma
kumah
kumahne
kumai
kumamoto
kumang
kumar
kumara
kumbang
kumbasari
kumelembuai
kumis
kumpai
kumpang
kumpi
kumpul
kumpulan
kumpulrejo
kumuda
kun
kuna
kunang
kuncen
kunci
kuncoro
kunden
kunduran
kung
kuni
kuning
kuningan
kunir
kunjang
kunjara
kuno
kunti
kunyi
kunyit
kupang
kuping
kupingne
kupu
kura
kurai
kurang
kuranji
kurau
kurban
kure
kurenan
kurenane
kurenanne
kuri
kuripan
kurma
kurmawa
kurmawi
kurnia
kurniawan
kurra
kursi
kurung
kurz
kusa
kusamba
kusambi
kusan
kusir
kusuma
kusus
kuta
kutai
kutampi
kutang
kutanga
kutasari
kutawaringin
kuto
kutoarjo
kutoharjo
kutorejo
kutosari
kutowinangun
kutri
kutu
kutub
kutuh
kutune
kuturan
kutus
kuub
kuube
kuud
kuuk
kuum
kuwaca
kuwait
kuwarasan
kuwu
kuwuk
kuwum
kwadungan
kwang
kwanji
kwanyar
kweh
kwietnia
kwk
kwon
kyai
kyayi
kyi
kyo
kyoto
kyu
kyung
kyushu
l
la
laad
lab
laba
labak
laban
labanan
labang
labangka
labasari
labat
label
lablab
labor
laboratorium
laboratory
labrador
labu
labuah
labuan
labuang
labuh
labuhan
labuhanbatu
lacur
lacure
lad
lada
ladang
ladongi
lady
lae
laeya
laga
lagas
lagerstroemia
lagi
lagu
laguna
lah
lahan
lahar
lahat
lahe
lahir
lahung
lai
laikang
lain
lainnya
lais
laju
lajuk
lakar
lakara
lakaran
lakarsantri
lake
lakea
lakes
laki
lakitan
laklak
lakomea
lakon
laksamana
laksana
laksanan
laksanane
laksmi
laku
lakudo
lalabata
lalah
lalang
lalanglinggah
lalap
lali
lalimbue
lalipi
lalong
lalu
lalumbang
lam
lama
lamaknen
laman
lamandau
lamaran
lamasi
lamatti
lamba
lambai
lambanan
lambandia
lambang
lambangan
lambe
lambing
lambo
lambung
lambunu
lambur
lambusango
lami
lamo
lamongan
lamp
lampa
lampah
lampau
lampe
lamper
lampihong
lampit
lampoko
lampu
lampung
lamuk
lamun
lamuru
lan
lanan
lanang
lancah
lancar
land
landak
landas
landasan
landau
landawe
landep
landih
landing
landmark
lando
landono
landsdrukkerij
landu
landuh
landung
lane
lang
langagon
langah
langan
langara
langda
lange
langenharjo
langensari
langga
langgahan
langgana
langgar
langge
langgea
langi
langit
langite
langka
langkah
langkai
langkap
langkapura
langkat
langkir
langkuas
langkung
langkungan
langon
langowan
langsa
langsat
langse
langsing
langsung
language
languages
lanjana
lanjar
lanjut
lanjutan
lanjutkan
lanka
lannea
lanny
lanskap
lansot
lantai
lantang
lantangnyane
lantanida
lantas
lantasan
lanthanida
lantik
lanto
lantur
lanturan
lanturang
lanud
lanus
lanying
lao
laok
laos
lapan
lapandewa
lapang
lapangan
lapao
lape
lapis
lapisan
laporan
lappa
lapulu
lar
lara
larang
larangan
larantuka
laras
lare
lareh
laren
large
lariang
larompong
larry
larusia
larut
las
lasalimu
lasan
lase
lasem
lasi
lasseter
last
lat
latar
late
lateng
later
latest
latihan
latin
latoma
latosol
latsari
latung
latvia
lau
lauk
laung
laut
lautan
lautang
lauwa
lava
law
lawa
lawah
lawak
lawan
lawang
lawangan
lawar
lawas
lawat
lawe
laweh
laweyan
lawre
lawrence
lawulo
layah
layahne
layanan
layang
layangan
layap
layar
layer
layon
layonsari
layout
layu
layung
le
lea
lead
leader
leading
league
leang
learning
leave
leaves
lebah
lebak
lebaksiu
lebakwangi
lebang
lebani
lebar
lebeng
lebih
lebihan
lebo
lebong
lebung
lebur
led
leda
ledang
ledo
ledok
ledokombo
lee
left
lega
legacy
legal
legan
lege
legend
legenda
legi
legian
legislatif
legit
lego
legok
legon
legong
legu
legundi
legung
leicester
leiden
lek
lekad
lekang
leket
leko
lekong
lelaki
lelakut
lelasan
lelata
lelateng
lelawah
lele
lelea
leleh
leleng
lelima
lelintihan
lelipi
lelipine
leluhur
lemah
lemahabang
lemahbang
lemahbangdewo
lemahireng
lemahwungkuk
lemari
lematang
lembab
lembaga
lembah
lembang
lembar
lembaran
lembata
lembean
lembeh
lembeyan
lembo
lembongan
lembor
lembu
lembuak
lembung
lembur
lembursitu
leme
lemeng
lemet
lemito
lemo
lemoh
lempad
lempas
lempe
lempeh
lempeng
lempir
lempiran
lempog
lempuyang
lemuh
lemukih
len
lenan
lenang
lencana
lendah
lendang
lenek
lenga
lengar
lengare
lengeh
lengen
lengis
lengit
lengkap
lengkara
lengkarane
lengkong
lengkongjaya
lengkosambi
length
lenteng
leo
leoben
leon
leonardo
leone
leopard
lepas
leplep
lepo
leppangeng
leran
lere
lereng
lero
les
lesotho
lesser
lestari
leste
lesung
let
letda
lete
leteh
letkol
letnan
letras
letta
letter
letters
lettu
letusan
leuser
leuven
leuwiliang
level
lewa
lewat
lewih
lewis
lewoleba
lewotolo
leyak
lez
lge
lgia
lhasa
lhok
lhokseumawe
li
lia
lian
lianan
liane
liang
liar
liat
liayanan
liberia
liberian
liberty
libraries
library
libur
libureng
libya
license
licensed
licensetpl
licin
lidah
lidi
lidung
lie
lief
lies
life
liga
light
ligir
ligue
lihat
like
liku
likupang
likur
lila
lili
liligundi
lilin
lilit
lim
lima
liman
limane
limang
limas
limau
limba
limbah
limbangan
limbong
limboro
limboto
limbu
limbung
limbur
limited
limo
limolas
limpa
limpoe
lin
linaksana
lincah
lincoln
lindu
lindung
line
ling
lingan
lingang
lingga
linggabuana
linggah
linggahne
linggahnyane
linggajaya
linggang
lingganipun
linggapta
linggasari
linggawana
linggih
lingin
linging
lingkar
lingkaran
lingkehan
lingkungan
linglang
lingsane
lingsar
lingsir
lingua
linguis
linguistic
linguistik
linjong
linjur
link
linked
links
linnaeus
lintah
lintang
lintas
lintasan
linuh
linus
linyok
lio
lioe
lion
lionel
lipah
lipang
lipi
lipu
lirik
liriknyane
lirung
lis
lisan
lise
lisensi
list
listen
listing
listitem
listrik
lists
lit
literatur
literature
lithuania
litologi
little
liu
liukang
lium
liunan
liune
live
lived
liverpool
living
liwat
liya
liyanan
liyane
ll
lla
lle
ller
llurium
lm
lne
lo
loa
load
loader
loading
loang
loba
lobang
lobangkara
lobo
lobu
loca
local
location
locator
loda
lodtunduh
loe
loeh
log
logam
logo
loh
lohayong
lohbener
lohe
loir
loire
loji
lok
loka
lokal
lokapaksa
lokasari
lokasi
loko
lolah
lolak
loli
lolo
loloan
loloh
lolok
lolong
lolos
lolot
lomba
lombang
lombok
lombu
lompo
lompoe
lon
lona
london
lonely
long
lonjong
lontar
lontio
look
lophorina
lopi
lor
lord
lore
lorentz
los
losari
lost
lot
lotus
louis
lovable
love
loves
lovina
lowa
lowokwaru
lowu
lp
ls
lt
lta
ltd
lu
lua
luah
luan
luanan
luang
luar
luas
lubak
lubang
lubdaka
lubdhaka
lubis
lubuak
lubuk
lubuklinggau
lucky
lucy
lues
lugra
luh
luhu
luhur
luih
luir
luire
luiripun
luis
luk
lukas
lukat
lukis
lukisan
lukluk
luksemburg
luku
lule
lulus
lulusan
lulut
lumajang
lumaksana
lumba
lumbang
lumbantobing
lumbir
lumbis
lumbu
lumbung
lumintang
lumpadang
lumpo
lumpur
lumrah
lumut
lun
lunak
lunang
lunar
lundy
lung
lunga
lunto
lunuk
luok
lupak
luput
lurah
lurus
lusail
lut
lute
luther
lutung
lutunge
luu
luung
luwih
luwu
luwuk
luwung
luwus
lve
lwih
ly
lyn
m
ma
maabian
maadan
maadolan
maaf
maagama
maakin
maaled
maambu
maan
maang
maanggota
maaran
maarti
maartos
maasal
maawak
mabagi
mabaju
mabakti
mabalih
mabalik
mabangsa
mabaos
mabaosan
mabaris
mabasa
mabasis
mabatis
mabatu
mabaya
mabayuh
mabe
mabebaosan
mabekel
mabesen
mabinayan
mabinayang
mabise
mablanja
mabo
maboros
mabrarakan
mabuah
mabuat
mabudi
mabukit
mabulu
mabuncing
mabunga
maburu
mabusana
maca
macaca
macaling
macam
macampuh
macampur
macan
macanan
macanda
macane
macang
macarang
macarita
macchu
maccini
macdonald
macebur
macelep
macem
machine
macihna
maciri
maclempung
macmillan
macorak
macunduk
mad
mada
madaar
madabdaban
madadar
madagang
madagascar
madagaskar
madaging
madak
madalem
madampingan
madan
madang
madangan
madasar
madat
madaulat
madaya
made
madeg
mademang
maderbe
madhuri
madhya
madia
madidir
madik
madikir
madingehang
madiun
madolan
madon
madrasah
madrebe
madrid
madrue
madu
madue
madugdug
madui
madukara
maduluran
madun
madunungan
madura
madurejo
maduretno
madurgama
madusari
maduwe
madya
mae
maekin
mael
maerz
maesa
maesan
maestro
magabung
magadang
magae
magama
magambar
magandong
maganti
magantung
magarapan
magazine
mage
magedi
magegonjakan
magejeran
magelang
magelar
magenah
magenahang
magenahin
magending
magendingan
magenep
magenepan
magenta
magentos
magersari
magetan
magibung
magic
magigi
magingsir
magister
maglebug
magna
magne
magoak
magoba
magoreng
maguling
maguna
maha
mahabharata
mahade
mahadewa
mahakam
mahal
mahamantri
mahameru
mahan
mahang
mahapatih
maharaja
mahardika
maharsi
mahasiswa
mahasisya
mahe
mahendradatta
mahkota
mahoni
mai
maibu
maibukota
maid
maiden
maiketan
maiklim
mail
maileh
mailehan
maimbuh
maimun
main
maine
maja
majalah
majalan
majalaran
majalaya
majalengka
majangan
majanji
majannang
majanten
majapa
majapahit
majasari
maje
majelis
majemuk
majenang
majene
majeng
majimbar
major
maju
majudul
majujuk
mak
maka
makaad
makacakan
makaciri
makada
makadadua
makadi
makaitan
makakalih
makalah
makale
makalehi
makalu
makam
makampid
makan
makanan
makanti
makantor
makaon
makapasitas
makapatpat
makaput
makaronan
makarti
makarya
makasami
makasar
makassar
makatang
makatelun
makatetiga
makau
makaukan
makawinan
makayun
makayunan
make
makeber
makecog
makecos
makeh
makehan
makejang
makekalih
makelid
makelo
makelone
makembang
makena
makeneh
makenta
makenyem
makeplug
makepung
makesiab
makesyab
makhija
makhluk
makidang
makihkih
makikih
making
makire
makisid
makita
maklongkong
makmur
makna
makrana
makrolinguistik
makruna
makruyuk
maksimal
maksimum
makta
maktayang
makuasa
makudang
makuku
makumpul
makurenan
mal
mala
malabar
malablab
malabuh
malade
malaga
malah
malai
malaib
malajah
malajahin
malaka
malakar
malaksana
malalak
malalayang
malali
malam
malancaran
malang
malangke
malangsari
malanturan
malarapan
malasan
malat
malatar
malawanan
malawi
malay
malaya
malayalam
malayar
malaysia
malayu
male
maleber
malei
malelintihan
malenan
maleo
malet
malhotra
mali
malianan
malih
maliha
malik
maliku
malili
malimbong
malimongan
malinau
maling
malinge
malingga
malinggih
malingping
malino
malintang
malipetan
maliti
malkangin
mall
mallusetasi
malo
maloloan
malta
malu
maluan
malukat
maluku
malunan
mamadik
mamahan
mamajang
mamalia
mamaling
maman
mamanah
mamancing
mamangsa
mamanjak
mamarekan
mamarga
mamargi
mamasa
mamata
mamati
mambal
mambang
mambe
mamben
mamberamo
mambu
mambuh
mambulau
mame
mamesu
mamigrasi
mamitang
mamitra
mamminasae
mammoth
mamotoh
mampang
mampeh
mampu
mampuh
mamuat
mamuatan
mamuja
mamuju
mamula
mamullu
mamuncuk
mamunyi
mamurda
mamurti
man
mana
manadi
manado
manadoa
manados
manadosang
management
manah
manahe
manahipune
manahne
manahnyane
manai
manajemen
manajer
manak
manakan
manampekan
manarap
manas
manawa
manawi
manca
mancak
mancanegara
mancha
manchester
manchuria
mancing
mancingan
mancung
mancur
manda
mandailing
mandala
mandalane
mandalasari
mandalawangi
mandalika
mandalle
mandar
mandara
mandarin
mandati
mandau
mande
mandi
mandiangin
manding
mandira
mandiraja
mandiri
mandor
mandra
mandu
manduang
mandul
mandung
mandus
mane
manembo
mang
manga
mangan
mangaran
mangda
mangdane
mangde
mangenang
mangening
mangga
manggaan
manggala
manggar
manggarai
mangge
manggihin
manggis
manggissari
mangguh
manggung
manghas
mangifera
mangindarin
mangir
mangkin
mangkok
mangku
mangkubumi
mangkurat
mangli
mangrove
mangsa
mangu
manguharjo
mangunan
mangunharjo
mangunjaya
mangunrejo
mangunsari
manguri
mangut
manhattan
mani
manik
manika
manike
manikliyu
manikyang
manila
manimbang
manine
maning
maninjau
maninne
manira
manirane
manis
manistutu
manjangan
manjung
manjus
manokwari
mansoer
mantan
mantangai
mantehage
manten
manteri
manting
mantingan
mantra
mantren
mantri
mantrijeron
mantrine
mantring
mantu
mantuk
mantune
mantung
mantup
manu
manual
manucode
manucodia
manuel
manufaktur
manuh
manuk
manukan
manukaya
manunggal
manurung
manus
manusa
manusane
manuscript
manusia
manuskrip
manut
manutin
manuting
many
manyama
manyar
manyaran
manyi
maoperasi
maos
maosang
maospahit
maospati
map
mapahayu
mapaica
mapaiketan
mapajar
mapalasan
mapalu
mapamit
mapan
mapanganggo
mapangawit
mapangenan
mapanget
mapanggang
mapanjak
maparab
maparilaksana
maparinama
mapasangan
mapatung
mapayas
mapeed
maperang
mapese
mapesengan
mapi
mapica
mapidarta
mapikat
mapikayun
mapikolih
mapin
mapineh
mapinunas
mapitaken
mapiteh
mapitulung
maplaku
maplalian
maplalianan
mappa
mappi
maps
mapuara
mapukang
mapunduh
mapungkusan
mapupul
mapurwakanti
mapusat
mapuspata
mar
mara
maraab
marabahan
marabaya
marabian
maradekaya
maraga
marah
marakarma
marang
marangka
marannu
marapi
mararian
maras
marasa
maratengan
marathi
marc
marcapada
march
marcoaurelio
mardika
mare
marep
mareren
maret
marga
margadana
margahayu
margajaya
margalaksana
margaluyu
margamukti
margamulya
margane
margapati
margarana
margaret
margasana
margasari
margasatwa
margaya
margi
margin
margine
margit
margo
margodadi
margomulyo
margorejo
margosari
margoyoso
mari
maria
mariana
maricaya
marie
mariki
marikosa
marilah
marine
maring
maringgai
marino
mario
mariri
marisa
mariso
maritim
maritime
maritimes
mariŋ
mark
markandeya
markas
market
markus
marne
marobo
maroko
maron
marong
maros
married
marry
mars
marsadi
marsekal
marshall
marta
martadinata
martapura
martha
marti
martin
martinus
martir
marupa
maruti
marvel
mary
maryland
marzuki
mas
masa
masabda
masadah
masaih
masaing
masak
masalah
masalin
masaloka
masalud
masamba
masan
masandekan
masanding
masane
masang
masanggup
masanjata
masaput
masaran
masare
masasambatan
masastra
masatua
masatya
masaur
masaut
masawang
masawitra
masayuban
masbagik
mase
masebeng
masebun
masehi
masekar
masekolah
maselselan
masem
masemadi
masemaya
masemeton
masemu
masepak
masesangi
masha
masi
masiat
masifat
masih
masikian
masila
masiluman
masin
masing
masiosan
masiram
masisa
masjid
maskawin
maskot
maskumambang
masolah
masoroh
mass
massa
massachusetts
mastana
mastatus
master
mastu
masuang
masuara
masucian
masuk
masukan
masuriak
masuryak
masusun
masusupan
maswara
masyarakat
mata
matah
matahari
mataiwoi
matajang
mataje
matajen
matajuk
matake
mataken
mataki
matakon
matali
matallo
mataluh
matan
matanai
matanceb
matandahi
matanding
matanduk
matanduran
matane
matanem
matang
matangi
matani
matano
matapa
mataram
mataru
matatakan
matatu
matatujon
matawai
matawun
matbat
match
mate
mateges
mategul
matekap
matekep
matemahan
matematika
matematikawan
matembang
matembing
matemu
matene
material
materials
matetujon
math
mati
matiang
matianga
matika
matilar
matimpal
matinggah
matinggal
matingkah
matingkat
matiosan
matoh
matolihan
matongos
matraman
matresna
matsalu
mattampa
mattaro
matthew
mattiro
mattirotasi
mattirowalie
mattoanging
matu
matua
matugas
matulak
matumbasan
matunangan
matunjel
matur
maturan
matuuh
mau
mauah
maubah
maubesi
mauk
maukir
maukuran
maulafa
maulam
maulana
maulang
maulid
maumah
maumur
maupun
maureillas
maurice
maurip
maurisu
mauritania
mauritius
maurole
mautama
mautsaha
mauwah
mavariasi
mawa
mawacana
mawadah
mawadhah
mawak
mawali
mawalik
mawanan
mawang
mawar
mawarna
mawarni
mawasangka
mawasta
mawastan
mawastu
mawates
mawatesan
mawatu
mawentuk
maweweh
mawibawa
mawiguna
mawinan
mawisesa
mawit
mawiwaha
mawo
mawoh
mawuwuh
max
may
maya
mayadanawa
mayah
mayak
mayang
mayangan
mayapada
mayasa
mayat
maybrat
mayer
mayeur
mayjen
mayoga
mayong
mayor
mayoritas
mayuda
mayun
mayung
mayungan
mayura
mayus
mayusa
mb
mbang
mbar
mbc
mbe
mber
mbok
mbongan
mbox
mbu
mcdc
mcglynn
mcgraw
mcmorris
md
mdpl
me
mea
meadows
meaning
means
mearan
mearti
meartos
measal
mebalih
mebasa
mebuug
mechanical
med
medaging
medahan
medal
medalem
medali
medan
medang
mede
medem
media
mediawiki
medical
medicinal
medicine
medono
medoyo
medue
meduwe
meet
meeting
mega
megae
megat
megati
megawati
megedi
megenah
megha
megibung
meh
mehalaan
mei
meja
mejalan
mejoyo
meju
meka
mekar
mekarasih
mekarbaru
mekargalih
mekarjaya
mekarlaksana
mekarmukti
mekarmulya
mekarsari
mekarwangi
mekarya
mekeber
mekedjang
mekejang
mekel
mekelo
mekkah
meksiko
mekudang
mekulem
melah
melaha
melahan
melahang
melaib
melajah
melajahin
melak
melakar
melaksanakan
melakukan
melali
melalui
melalung
melamar
melancaran
melanggar
melanjutkan
melanting
melasti
melastoma
melati
melawan
melawi
melaya
melayang
melayu
melbourne
meled
meletus
melewati
meli
meliau
melibatkan
melihat
meliling
melinggih
melinjo
melintang
melinting
meliputi
melodies
melody
melog
melonguane
melut
memadu
memahami
memainkan
memakan
memaling
memargi
memastikan
membaca
membah
membahas
membangun
membantu
membawa
membela
membentuk
member
memberi
memberikan
memberitahu
membersihkan
membuat
membunuh
meme
memedi
memenne
memenuhi
memetik
memilih
memiliki
meminta
memohon
memories
mempawah
mempelajari
memperbaiki
mempertimbangkan
mempunyai
memuat
memulai
memunyi
memutuskan
men
menak
menambahkan
menandakan
menang
menanga
menanggal
menangis
menangkap
menanti
menara
menarik
menawi
mencapai
mencari
mence
menceritakan
menciptakan
mendaftar
mendak
mendalam
mendapat
mendapatkan
mendatang
mendawai
mendengar
mendep
mendes
mendik
mendiskusikan
mendorong
mendoyo
mendukung
mendut
mene
menega
menek
menekan
menembus
menemui
menemukan
meneng
menengah
menentukan
menerima
meng
mengadakan
mengadu
mengajukan
mengakibatkan
mengaku
mengalahkan
mengalami
mengambil
mengandung
mengani
menganti
mengapa
mengarang
mengatakan
mengawasi
menge
mengembalikan
mengemban
mengembangkan
mengenai
mengenal
mengening
mengerti
mengetahui
menggah
menggantikan
menggelar
menggunakan
menghormati
menghubungi
mengikat
mengikuti
mengisahkan
mengkeb
menguasai
mengubah
mengundang
mengundurkan
mengungkapkan
menguntur
menguraikan
mengurus
mengusulkan
mengwi
mengwitani
menhut
meni
menikah
menikahi
meninggal
meninggalkan
meningkatkan
meninjau
menit
menjabat
menjadi
menjaga
menjalani
menjalankan
menjangan
menjawab
menjelaskan
menolak
menpora
mentarang
mentas
mentawa
mentawai
mentaya
menteng
menteri
mentik
mentioned
mentoro
menuh
menuju
menulis
menuliskan
menunaikan
menunjukkan
menurut
menyali
menyama
menyampaikan
menyan
menyebabkan
menyebut
menyediakan
menyelamatkan
menyelenggarakan
menyelesaikan
menyunting
meong
mepanga
mer
meraga
merah
merajan
merak
merancang
meranggi
merangin
meranti
merapi
merasa
merauke
merawat
merbabu
merbau
mercapada
mercusuar
merde
merdeka
mere
mereka
merem
merepat
mergangsan
mergedrow
mergedtoprow
meri
meriah
meriam
merika
meriki
merine
merpati
merr
merta
mertasari
mertha
meru
merujuk
merupa
merupakan
mes
mesa
mesakada
mesaut
mesawang
mese
meseh
mesib
mesin
mesir
mesjid
meskipun
message
messagebox
messages
messi
mesti
mesu
mesuang
mesuji
met
meta
metakon
metal
metaluh
metanceb
metaphysics
metatakan
mete
meten
meteor
meter
metered
method
metiosan
metode
metra
metro
metromini
metropolitan
metu
meulaboh
meunasah
meurandeh
meuse
meutia
mewakili
mewali
mewarna
mewasta
meweh
mexico
meye
meyong
mg
mgr
mi
mia
miami
miara
miasa
mica
micayang
michael
michel
michelangelo
michelle
michigan
mickey
microsoft
mid
midartayang
middle
mider
midnight
mie
miftahul
might
migrasi
miguel
mih
miik
mijen
mijil
mik
mike
mikelingin
mikhail
mikolihang
mikolihin
mikrolet
mikrone
mikroplastik
mil
mila
milan
milangodaa
milenia
milenium
miliar
milih
milihin
milik
milime
military
milite
militer
miller
million
milu
mimika
mimpi
mimpin
min
mina
minab
minahasa
minakadi
minanga
minangae
minangkabau
minasa
mind
mindanao
mindoro
mine
minehang
mineral
minerva
ming
mingaruhin
mingaturin
minggir
minggu
mingguan
minghormatin
minguasain
mingubungin
mingurangin
minh
mini
miniatur
minimal
minimum
ministro
ministry
minnesota
minor
minta
mintulin
minum
minyak
minyarengin
miomaffo
miose
miragi
miragiang
mirah
mirat
mireng
mirengang
miri
mirib
miring
mirip
mirror
misa
misadia
misal
misalnya
misan
misi
mising
misionaris
miss
mississippi
missouri
mit
mitologi
mitos
mitra
miwag
miwah
miyagi
miyazaki
mk
mki
mlaib
mlajah
mlajahin
mlali
mlaten
mlati
mlatiharjo
mlilir
mlinggih
mls
mm
mnh
mo
moa
mobil
mobile
mobot
modang
modayag
mode
model
moderen
modern
moding
modo
modre
modules
modung
moeah
moga
mogoyunggung
mografi
mograpi
moh
mohammad
mohammed
mohon
mojave
mojo
mojoagung
mojokerto
mojopuro
mojorejo
mojoroto
mojosari
mojosongo
mojotengah
mojowarno
mok
mokoh
mokrasi
mokrat
mokratik
mokratis
moksa
mokupa
mola
molamahu
molas
mole
molecular
molekul
molihang
mollo
molompar
mom
moment
momo
mon
monaco
monang
monano
monapa
monas
monash
moncong
moncongloe
mondong
mone
mongan
mongkod
mongol
mongolia
mongondow
monica
monitoring
monjok
monkey
monobook
monolog
monster
monstrasi
mont
monta
montallat
montana
monte
month
montong
montor
montre
monume
monumen
monument
moon
moor
moore
moose
mootilango
mopugad
mopuya
moraceae
morahan
moral
moramo
more
morfologi
morgan
mori
morita
morne
morning
moronge
mororejo
morotai
morowali
morrison
moselle
mosso
most
mother
motif
motion
moto
motogp
motoling
motong
motongkad
motto
mount
mountain
mountains
mouse
moutong
move
moved
movement
movie
moyang
moyo
moyudan
moz
mozambik
mp
mpas
mpe
mpir
mpo
mpu
mpunda
mpungkwing
mr
mragatang
mraginain
mrangge
mrasa
mrasidayang
mre
mresidayang
mrican
mrika
mriki
mrupa
ms
msg
msi
msl
mt
mtm
mts
mtv
mu
mua
muah
mualang
muan
muane
muang
muani
muanine
muara
muaro
muatan
much
muda
mudah
mudal
mudiak
mudiek
muding
mudita
muditha
muhammad
muhammadiyah
mujur
muka
muke
mukerjee
mukesh
mukherjee
mukomuko
mukti
muktiang
muktiharjo
muktisari
mula
mulai
mulan
mulang
mule
mulia
muliawan
mulih
mulihan
mulihne
mulo
multi
multibasa
multilingual
multime
multiple
mulu
muluk
mulung
mulus
mulya
mulyadi
mulyajaya
mulyasari
mulyo
mulyoagung
mulyodadi
mulyoharjo
mulyorejo
mulyosari
mumbai
mumbul
mun
muna
muncan
muncang
muncar
muncuk
muncukne
muncuknyane
muncul
mundeh
mundu
munduhang
munduk
mundur
muneng
munggah
munggahang
munggu
mungguh
mungguing
mungguk
mungkah
mungkajang
mungkid
mungkin
mungkung
munich
munisipalitas
munjul
munro
muntai
munte
munti
muntig
muntilan
munyi
munyin
munyine
munyinne
muponin
mupu
mupulang
muputang
mur
murda
murdan
murdani
murdaning
muri
murid
murka
murkaanti
murkanti
murni
murti
murub
murung
musa
muse
museum
museumsumpahpemuda
musi
music
musical
musik
musikal
musikus
musim
musisi
muslim
must
musti
mustika
musuh
musuk
mutahar
mutiara
muticus
mutusang
muun
muwah
muwun
mv
mw
mwah
mwang
mwe
my
myanmar
myeon
myeong
mylanguage
mystery
mythology
myung
n
na
naa
naanang
naanin
naar
nabati
nabdabang
nabi
nabire
nabung
nacional
nada
nadah
nadak
nadaksara
nadi
nadosang
nae
naen
naenang
naengmyeon
naenin
naga
nagan
nagane
nagano
nagapasa
nagara
nagarakretagama
nagarawangi
nagari
nagasaki
nagasari
nagasepaha
nage
nagekeo
nagi
nagih
nagingin
nagoya
nagrak
nah
naha
nahan
nahanni
naik
nain
naiola
nairobi
nak
nakan
nake
nakep
nakonang
nakonin
nala
nam
nama
namah
namanya
nambah
nambangan
nambanin
nambo
name
named
namely
names
namespace
namibia
namo
nampah
nampar
nampe
nampek
nampekin
nampi
nampilang
nampung
namsan
namun
namwon
nan
nanak
nanas
nandaka
nandang
nandingin
nandini
nandur
nane
nanem
nang
nanga
nangerang
nanggala
nanggalo
nanggerang
nanggewer
nanggulan
nanggung
nanging
nangingke
nangis
nangka
nangkep
nangkil
nangun
nani
nanoe
nantinya
nanyang
napak
napal
naped
napi
napike
napo
napole
napoli
napu
nara
narajana
nararya
narasi
narasoma
narayan
narayana
nari
narima
nario
narka
narmada
narodowego
narodowy
nartayang
naru
nasa
nasak
nascar
nasehat
nasi
nasihat
nasine
nasional
nasionalis
naskah
nata
natah
natahe
natai
natal
natar
nataraja
natha
nathan
nation
national
nationalpark
nations
native
natrium
natsir
natuna
natural
naturalis
naturalisasi
nature
nauhin
naur
naura
nauru
nav
naval
navbar
navbox
navboxes
navchild
navcontent
naver
navframe
navicula
navigasi
navigation
navis
navsource
navtoggle
navy
nawa
nawala
nawang
naweg
nawegang
nawur
naya
nazi
nba
nbantas
ncarik
nce
nchen
ncolang
nd
nda
ndagri
ndang
ndao
nde
ndemik
nder
nderal
ndez
ndidikan
ndong
ndonge
ndra
ndral
nduga
ne
near
nebag
nebe
nebek
nebuk
nebus
neck
neda
nedeng
nederland
nederlandsch
nedunang
need
needed
negak
negakin
negara
negarane
negarawan
negari
negen
negeri
negeriku
neglasari
negri
negul
neil
nek
nekaang
nekang
neked
nekepin
neket
nelahang
nelasang
nelayan
nelik
nelokin
nelson
nem
nembak
nembangang
nembe
nembelas
nemonin
nemu
nemuin
nen
nene
nenek
nenem
neng
nengah
nengil
nengok
nente
nenten
nentuang
neonauclea
nepal
nepasin
nepen
nepik
nepo
nepuk
nepukin
neraka
nerangang
nergi
nerima
nerjemahang
nested
net
netapang
netflix
netherlands
netral
network
never
new
newek
newfoundland
newman
newmont
news
newsletter
newstate
newton
next
ng
nga
ngaba
ngabang
ngabaosang
ngabar
ngabe
ngabeyan
ngablak
ngabuka
ngacakupin
ngacala
ngacangkupin
ngacep
ngacihnain
ngacihnayang
ngada
ngadaang
ngadagingin
ngadakang
ngadanin
ngade
ngadeg
ngadegang
ngadek
ngaden
ngadep
ngadiluwih
ngadimulyo
ngadirejo
ngadirojo
ngadol
ngadu
ngadukung
ngae
ngaenang
ngagah
ngage
ngagengang
ngagge
ngaglik
ngah
ngaja
ngajabat
ngajaga
ngajahin
ngajak
ngajakin
ngajangkep
ngajangkepin
ngajayanti
ngajegang
ngajeng
ngajengan
ngajengang
ngaji
ngajimbar
ngajimbarang
ngajuang
ngakak
ngaksi
ngaku
ngakuin
ngalahang
ngalahin
ngalain
ngalaksanayang
ngalang
ngalangin
ngalantang
ngalantur
ngalanturang
ngalap
ngalawan
ngale
ngalestariang
ngalestariyang
ngalian
ngalih
ngalihang
ngalihin
ngalimbak
ngalir
ngalitang
ngaliwatin
ngaliyan
ngalub
ngamademang
ngamah
ngamainang
ngamanggalain
ngamargiang
ngamatiang
ngambang
ngambar
ngambarang
ngambel
ngambil
ngambul
ngame
ngamecikang
ngamedalang
ngamel
ngamenangang
ngamerluang
ngametuang
ngamiletin
ngamolihang
ngamong
ngampel
ngampilan
ngamuk
ngamulihang
ngan
ngancan
ngancar
ngandang
ngandelang
ngandika
ngandikaang
ngandikain
ngandikayang
ngando
ngandong
ngang
ngange
ngangge
nganggen
ngangget
nganggit
nganggo
nganggon
nganggur
nganginang
ngangkat
ngangon
ngangsan
ngangsehang
nganikain
nganikayang
nganinin
nganjuk
ngante
nganteg
nganten
ngantenang
nganter
nganti
ngantiang
ngantinin
ngantos
ngantosang
ngantru
nganut
nganutin
ngaonang
ngapa
ngapademang
ngapentang
ngapersidayang
ngapertahanang
ngapidartayang
ngapit
ngaptiang
ngapuriang
ngaraga
ngarahina
ngarai
ngarajing
ngaran
ngaranayang
ngaranin
ngaranjing
ngarasayang
ngarauhin
ngarayaang
ngardi
ngarepin
ngarereh
ngargosari
ngargoyoso
ngaringan
ngaripta
ngarum
ngaruruh
ngarusak
ngaryanang
ngaryanin
ngaryaning
ngasem
ngasilang
ngasinan
ngasorang
ngastawa
ngastiti
ngatehang
ngatonang
ngatos
ngatur
ngaturang
ngaturin
ngaukin
ngawa
ngawag
ngawagi
ngawakilin
ngawangun
ngawantu
ngawarsa
ngawastanin
ngawatesin
ngawe
ngawedar
ngawelasang
ngawen
ngawentuk
ngawetuang
ngawewehin
ngawi
ngawinan
ngawinang
ngawit
ngawitin
ngayah
ngayahin
ngde
nge
ngebah
ngebekin
ngeberang
ngebug
nged
ngedas
ngede
ngediang
ngedig
ngejaga
ngejang
ngejer
ngejuk
ngeka
ngelah
ngelahang
ngelaksanayang
ngelangi
ngelantang
ngelantur
ngelanturang
ngelarang
ngelawan
ngelawang
ngele
ngelier
ngelilingin
ngelindungin
ngeling
ngelo
ngelodang
ngelur
ngelut
ngemaang
ngemademang
ngemaling
ngemang
ngemargiang
ngemasin
ngematiang
ngembak
ngemban
ngembangang
ngembasang
ngemit
ngemolihang
ngempelin
ngemplak
ngempok
ngempu
ngenah
ngenahang
ngencolang
ngendih
ngendihang
ngendingang
ngene
ngenehang
ngenenin
ngenggong
ngengkebang
ngengsapang
ngenken
ngenot
ngentak
ngentasi
ngentasin
ngentosin
ngentungang
ngenyakin
ngepah
ngepeh
ngepung
ngeraga
ngerajing
ngeranayang
ngeranjing
ngerasang
ngerembug
ngerereh
ngeseh
ngesil
ngestiharjo
nget
ngete
ngetel
ngetep
ngetis
ngetok
ngetor
ngetuh
ngetut
ngewakilin
ngewangun
ngewantu
ngewarsa
nggal
nggala
nggalak
nggalan
nggalang
nggalek
nggih
nggong
nggot
ngibukang
ngicain
ngicalang
ngice
ngicen
ngicenin
ngidaang
ngidam
ngidamang
ngidang
ngidayang
ngiderin
ngidih
ngidupang
ngigel
ngijeng
ngijo
ngiket
ngikih
ngikutin
ngilag
ngilangang
ngilehin
ngimbang
ngindang
nginem
nginep
ngingetang
ngingsirang
nginte
ngintip
nginum
nginutin
ngipi
ngirangin
ngirim
ngirimang
ngiring
ngiringang
ngiringin
ngis
ngisep
ngisi
ngisiang
ngisinin
ngisor
ngiterin
ngitungang
ngiwasin
ngjabat
ngke
ngkot
nglablab
nglaksanayang
nglangi
nglantas
nglantur
nglanturang
nglaut
nglawan
ngle
nglebak
nglebur
nglegok
nglestariang
nglimbak
nglimbakang
nglinggihin
nglintangin
nglipar
ngliputin
ngliwat
ngliwatin
nglungsur
ngmargiang
ngmolihang
ngoda
ngojog
ngolah
ngolas
ngomong
ngon
ngongkong
ngoraang
ngorahang
ngorahin
ngorain
ngorang
ngoro
ngorta
ngoyong
ngr
ngraga
ngraho
ngranaang
ngranayang
ngrandu
ngranjing
ngraos
ngraosang
ngraris
ngrasa
ngrasayang
ngrauhin
ngrayunang
ngre
ngrebut
ngrebutin
ngreco
ngrejek
ngrengkeng
ngrereh
ngresep
ngripta
ngroto
ngrumpyuk
ngrunguang
ngruruh
ngrusak
nguahin
ngubadin
nguber
ngubuhin
ngucap
ngucapang
nguda
ngudiang
ngugu
ngujang
ngukur
ngulah
ngulangunin
ngulap
ngulati
ngulihang
nguluh
nguluk
ngulungang
ngulurin
ngumbang
ngumbara
ngumpul
ngumpulang
ngumumang
nguncarang
ngundang
ngundurang
ngunggahang
ngungkab
ngungsi
nguni
nguningang
nguningayang
nguningin
nguntoronadi
nguntul
ngunut
ngupapira
ngurah
ngurek
ngurip
ngurus
ngusaba
ngusak
ngusap
ngusulang
ngutah
ngutamayang
ngutang
nguter
ngutgut
ngutus
nguwah
ngwace
ngwacen
ngwakilin
ngwales
ngwaliang
ngwangun
ngwantu
ngwe
ngwedar
ngwentuk
ngwetuang
nh
ni
nia
nias
nibung
nica
nice
nichol
nicholas
nie
niedero
niger
nigeria
night
nigtig
niigata
nijhoff
nijmegen
nik
nika
nikain
nikaragua
nikayang
nike
nikel
niki
nikobar
nil
nila
nilai
nilarudraka
nilo
nilotama
nimbal
nin
nina
nincap
nincapang
nindihin
nine
ning
ningalin
ningeh
ningehang
ninggal
ninggalin
nini
niobium
nior
niosh
nipa
nipah
nipun
nira
nirane
nirartha
niri
nirlaba
nirmala
nis
niskala
nista
nita
nitah
nitahang
nitahne
niti
nitroge
niue
nium
nixon
niŋ
njang
nje
njo
njor
nke
nki
nl
nlatarang
nm
nmark
nmore
nne
nnessee
nnium
nnyane
no
noa
noah
nobe
nobel
nobi
noemuti
noflip
nogosari
noh
nok
nol
nolih
noltol
nomenclature
nomer
nomina
nominasi
nomination
nominee
nomor
non
nona
nonapan
nonbebas
none
nongan
nongos
nongosin
nono
nonton
noop
noor
nope
nopember
nora
nord
nordholt
normal
norse
north
northern
norwe
norwegia
nos
not
nota
note
notes
notice
notoc
notre
nottingham
nouri
nouvelle
nov
nova
nove
novel
novelis
novelist
november
noviali
now
nowrap
np
npasar
nps
nr
nre
ns
nsi
nsiklope
nsium
nsus
nt
ntah
ntahan
ntal
ntang
ntasi
ntb
nte
nten
ntenan
ntenane
ntenang
ntenannyane
nteng
nter
ntge
nther
nthu
ntifikasi
ntikan
ntime
ntina
nto
ntrasi
ntt
ntu
nu
nuangan
nuarta
nubain
nuban
nuclear
nuduk
nudut
nue
nugini
nugraha
nugroho
nui
nuju
nujuang
nuklir
nukung
nulak
nulis
null
nulung
nulungin
numa
numadi
numbas
numbeg
number
numbuhang
numfor
numitis
numpas
nunas
nunasang
nunavut
nunbena
nunde
nunden
nundun
nunggal
nunjel
nunjuk
nunmafo
nunu
nunuk
nunukan
nunun
nur
nuri
nurul
nus
nusa
nusantara
nusapati
nusasari
nusawungu
nussbaum
nutrisi
nutug
nutugang
nutupin
nutur
nuturang
nuturin
nututin
nuunang
nuut
nuutang
nuutin
ny
nya
nyabran
nyadia
nyadiayang
nyag
nyaga
nyagjag
nyagjagin
nyagrep
nyai
nyaibin
nyaine
nyait
nyak
nyakan
nyakit
nyakitang
nyakitin
nyalah
nyalanang
nyalang
nyalanin
nyale
nyali
nyalian
nyalin
nyalindung
nyaluk
nyama
nyaman
nyamane
nyamanne
nyambat
nyambatang
nyambra
nyambran
nyambu
nyambung
nyambut
nyampat
nyampur
nyan
nyanan
nyandang
nyander
nyane
nyang
nyangetang
nyanggra
nyanggupin
nyangkepang
nyangkepin
nyangket
nyangkol
nyanglan
nyansan
nyantos
nyantosang
nyanyian
nyapa
nyapatin
nyarap
nyarengang
nyarengin
nyaritaang
nyaritayang
nyaru
nyat
nyata
nyatua
nyatuang
nyatur
nyaup
nyaurin
nyautin
nyawan
nyawis
nye
nyedayang
nyegerang
nyegut
nyelametang
nyelang
nyele
nyelehin
nyelekak
nyelenggara
nyelepin
nyemak
nyembah
nyen
nyeneng
nyenengin
nyengguh
nyentak
nyepi
nyerah
nyerahang
nyerang
nyerit
nyesel
nyet
nyiagayang
nyidaang
nyidang
nyidayang
nyihnayang
nyiksik
nyilem
nyilih
nyilurin
nyimpen
nyinahang
nyingak
nyingakin
nyiriang
nyitdah
nyiur
nylametang
nyobiahang
nyoblos
nyobyahang
nyolahang
nyoman
nyongkok
nyonyah
nyonyo
nyonyone
nyotot
nyrewadi
nyritayang
nyuang
nyuciang
nyuh
nyuhe
nyuhtebel
nyujuh
nyujur
nyuksemayang
nyuling
nyumbah
nyupat
nyurat
nyuratang
nyusup
nyuun
nyuwun
o
obama
obat
obero
obje
object
objek
oblast
obor
observatory
obye
ocean
oceania
ocimum
october
odah
odalan
odd
odeillo
odimium
odyssey
oe
oebobo
oefeto
oemofa
oenino
oesapa
of
ofc
off
office
official
often
og
ogan
oge
ogo
ogoh
ografi
ograpi
ograpis
oh
ohio
oi
ois
oise
ok
oka
okan
okane
okanne
okannyane
okapi
okayama
okinawa
oko
oksida
oksidasi
oksige
oktaf
oktober
ol
olah
olahan
olahraga
olas
old
older
ole
oleg
oleh
olih
olimpiade
olo
ologi
ologis
oloh
olong
oluhuta
olung
olympic
om
oman
omang
ombak
ombo
ombox
ome
omong
omongne
omurice
on
once
oncer
onde
ondel
ondestroy
ondo
one
onembute
ong
ongka
ongko
ongol
online
only
ontario
oong
oongan
oost
op
open
opening
opera
operasi
operator
opo
opolitik
optik
option
options
opu
or
orahang
orahanga
orahange
orahin
orahina
orang
orange
orangutan
orbit
orde
order
ordo
ore
org
organisasi
organisme
organization
orgia
ori
oriental
orientalis
origin
original
origins
oriole
oro
orobua
orphan
orphans
orta
orti
ortodoks
os
osaka
oscar
ose
osmium
ost
ostrali
ostrich
otak
other
others
otomatis
otomotif
oton
otonom
otonomi
otoritas
ottawa
otto
our
out
output
outside
outsider
outsiders
over
overflow
overijssel
overview
own
oxford
p
pa
paadolan
paajahan
paak
paal
paan
paang
paaranan
pabaosan
pabe
pabean
pabedilan
pabelan
pabesen
pabinayan
pabligbagan
paboros
paborosan
pabrik
pabuaran
pabukitan
pacah
pacang
pacangakan
pacar
pacaruan
paccerakkang
pace
pacentokan
pacet
pacific
pacing
pacingakan
pacitan
pacu
pacuan
pacul
pacumpuan
pacundukan
pacung
pacut
pada
padaasih
padaduanan
padaelo
padagangan
padaherang
padaidi
padalem
padaleu
padalingsa
padamara
padame
padamu
padamulya
padanda
padang
padangaji
padangan
padangbai
padangdawa
padange
padangguni
padangkerta
padangloang
padangluah
padangsambian
padangsidimpuan
padangtegal
padas
padasuka
padding
pade
padem
pademang
pademangan
pademawu
pademnyane
padengo
padet
padewekan
padha
padi
padidi
padidian
padidiana
padine
padjadjaran
padma
padmasana
pado
padosa
padpadan
padrue
padruwe
padu
padua
paduan
paduka
padukone
padukuhan
paduraksa
padureso
paek
pagae
pagak
pagal
pagan
pagar
pagatan
page
pagebug
pagedangan
pageh
pagehan
pagehane
pagelaran
pagenahan
pagending
pagentan
pagentosan
pagep
pager
pagerbarang
pagerejo
pagergunung
pagersari
pagerwesi
pagerwojo
pages
pagesangan
pagi
pagraky
pagu
pagubugan
pagul
pagunungan
pagutan
paguyaman
paguyangan
paguyuban
pah
paham
pahan
pahandut
pahang
pahlawan
pahlawanku
pahote
pahpahan
pahyasan
pai
paica
paican
paiketan
painan
paindikan
paine
paing
paistilah
pait
paitungan
pajahan
pajajaran
pajalan
pajalane
pajalanne
pajalele
pajang
pajangan
pajanjian
pajar
pajarakan
pajeg
pajegan
pajeng
paji
pajimbaran
pajukungan
pak
paka
pakagan
pakaian
pakaiannya
pakal
pakan
pakandangan
pakang
pakantenan
pakantoran
pakar
pakarangan
pakarya
pakaryan
pakaseh
pakava
pakayunan
pakayunane
pakayunanidane
pakbola
pake
pakeber
pakedai
pakeh
pakel
pakem
pakembangan
pakemitan
pakerisan
paket
paketan
paketeltel
pakeweh
pakis
pakisaji
pakisan
pakisrejo
pakistan
pakong
pakotaan
pakowa
pakpak
pakraman
pakrimik
paksa
paksebali
paksi
paksine
paku
pakualaman
pakuan
pakubuwana
pakue
pakuhaji
pakuncen
pakunden
pakuon
pakuure
pal
pala
palabuhanratu
palace
palaibang
palak
palakka
palalian
palalinggah
palang
palangan
palangga
palangka
palantangan
palapa
palaran
palas
palasa
palasari
palau
palawa
palawan
palawija
palayaran
palayon
pale
palebon
paleg
palekadan
paleleh
palem
palemahan
palembang
palenggaan
palestarian
pali
palian
paliat
palie
palih
palin
paling
palinggih
palinggihan
palingi
palingkau
paliyan
palladium
pallantikang
palm
palmares
palmerah
paloh
palopo
palu
palugraan
paluk
palukis
palung
palungguh
pamahbah
pamain
pamalayan
paman
pamanukan
pamarayan
pamargi
pamargian
pamargin
pamargine
pamarginnyane
pamarintah
pamasaran
pamating
pambalap
pamberontakan
pambukaan
pame
pamecutan
pamekaran
pamekas
pamekasan
pamekasnyane
pamekel
pamelin
pamenang
pameraman
pameran
pamere
pamereman
pamerintah
pamerintahan
pamesan
pamete
pameungpeuk
pamiarsa
pamijahan
pamilet
pamilihan
pamilu
pamimpin
pamineh
paminggir
pamit
pamnrentahan
pamona
pamor
pamotan
pamoyanan
pampang
pampangan
pamragat
pamre
pamrentah
pamrentahan
pamucuk
pamukaan
pamulang
pamulihan
pamunggahan
pamunyin
pamuput
pamuputan
pamuputne
pamuputnyane
pamutus
pan
pana
panaen
panagara
panah
panahan
panaikang
panaitan
panak
panake
panakkukang
panakne
panama
panampilan
panandanging
pananggalan
panangkaran
pananjung
panaragan
panarukan
panarung
panarungan
panas
panca
pancasari
pancasila
pancawara
pancemaran
pancering
panci
pancing
pancingne
pancor
pancoran
pancorane
pancur
pancuran
panda
pandai
pandak
pandan
pandanan
pandanarum
pandang
pandangan
pandanrejo
pandansari
pandantoyo
pandanwangi
pandau
pandavas
pandawa
pande
pandean
pandeglang
pandemi
panderejo
pandeyan
pandidikan
pandita
pandji
pandu
panduan
pandukung
pandulangan
pane
panegara
panel
panelitian
panembahan
panemuan
panen
panentuan
panerusan
panes
panetapan
pang
pangadeg
pangadegan
pangadegang
pangajahan
pangakuan
pangala
pangalah
pangale
pangampura
pangan
pangandaran
pangandika
pangandikan
pangangge
panganggo
pangangon
pangaptine
pangaranan
pangardi
pangardian
pangarengan
pangarep
pangargaan
pangargan
pangater
pangatur
pangauban
pangawedar
pangawi
pangawit
pangayah
pangayam
pange
pangeboman
pangelolaan
pangembangan
pangentas
pangenteg
pangenter
pangentos
pangeran
pangga
panggang
panggi
panggih
panggihin
panggihinipun
panggilan
panggul
panggung
panggungrejo
panghargaan
pangi
pangian
pangicalan
pangidih
pangidihne
pangiring
pangiris
pangiwa
pangkah
pangkajene
pangkal
pangkalan
pangkalpinang
pangkat
pangkatrejo
pangkep
pangkung
pangkunge
pangkur
panglan
panglima
panglimbak
panglimbakan
panglingsir
panglong
panglukatan
pangrango
pangrauh
pangripta
pangsan
panguahan
panguasa
pangukuran
panguntat
pangupa
pangupadiri
panguragan
pangus
pangyangan
pani
paniai
paniki
panilikan
paningalane
paninggaran
paningkatan
panitia
panjaga
panjak
panjake
panjakidane
panjang
panjatan
panjelajah
panjer
panji
panjimas
panjunan
panongan
panorama
panoramic
panoramio
panta
pantai
pantang
pantangan
pantar
pantarane
pantaraning
pante
pantes
panthera
panti
pantun
panuek
panugrahan
panunggalan
panunggangan
panunggun
panutan
panutur
panyambrama
panyambung
panyangga
panyarikan
panyatusan
panyelehan
panyelenggara
panyerang
panyeroan
panyeroane
panyindangan
panyingakan
panyingkiran
panyisihan
panyungkanan
panyurat
panyuratan
pao
paoh
paok
paon
paone
paonne
paos
papa
papadan
papah
papak
papan
papar
paparikan
paparoa
papat
papayasan
pape
paper
paperback
papeson
papindan
papineh
paplajahan
paplalianan
papringan
papua
para
parab
paradigalla
paradisaea
paradisaeidae
paradise
paragaan
paragraf
paraguay
parahyangan
parajanane
parajurit
parak
parakan
parakrama
parallel
parama
parambahan
paramestiguru
paramita
paramitha
paran
parandika
parang
parangane
parangloe
paras
parasit
parath
parayaan
parc
pardana
pardasuka
pardus
pare
parebutan
parek
parekan
parekane
parekanne
parents
parepare
parerehan
parhyangan
pari
paria
pariaman
paribasa
paribasane
parigi
parik
parikanda
parikesit
parikrama
parilaksana
parilaksanan
parinama
parindikan
parinding
paring
paringin
paringkat
paripolah
paripurna
paris
parisolah
parisudha
parit
pariwangde
pariwisata
parjuangan
park
parkembangan
parker
parkir
parks
parku
parlambang
parleme
parlemen
paro
paroki
paron
parotia
parque
parramatta
parrot
parsa
parser
part
partai
partami
partanian
parte
partement
parthe
particular
partikel
partisipasi
partitur
partner
partnership
partumbuhan
party
paru
paruh
paruk
paruman
parung
parusak
parva
parwa
parwati
pas
pasah
pasaiban
pasak
pasaka
pasal
pasaman
pasametonan
pasan
pasang
pasangan
pasanggrahan
pasangkan
pasangkayu
pasangkepan
pasar
pasaran
pasare
pasaur
pasaut
pasautne
pasawahan
pasawitran
pasayangan
pasca
pascasarjana
pasdalem
pase
paseban
pasebaran
paseh
pasek
pasekan
pasemakmuran
paseme
pasemengan
pasemetonan
paser
pasi
pasia
pasiatin
pasifik
pasih
pasihe
pasikian
pasimpangan
pasir
pasiraman
pasirjaya
pasirkaliki
pasirmulya
pasirtanjung
pasisi
pasisir
pasiuan
paskah
paslaten
pasliwer
paso
pasola
pasraman
pass
passi
past
pasta
pasti
pastika
pasue
pasuecan
pasukan
pasung
pasupati
pasuruan
pasuruhan
pasut
pat
pata
patah
pataka
patakon
patalan
patampanua
patandingan
patang
patapan
pataruman
patas
patbelas
pategalan
pateh
patemon
patempuran
patemuan
patengahan
paternakan
pathau
pati
patibrata
patih
patihan
patihe
patikraja
patimah
patimbangan
patiosan
patokan
patolan
patoyaan
patoyan
patpat
patra
patrick
patrol
pattallassang
pattimura
pattiro
patuh
patuha
patuk
patumbuhan
patung
paturu
patut
patutne
pau
pauh
paul
paulo
paulus
paum
paumahan
pauman
paus
pautsahaan
paviliun
pavo
pawagian
pawakilan
pawan
pawangunan
pawarah
pawaregan
pawarna
pawatesan
pawayangan
pawenang
pawentukan
pawentukannyane
paweton
pawetonan
pawewaran
pawiguna
pawigunaan
pawigunan
pawikan
pawikanan
pawisik
pawiwahan
pawon
pawongan
pawuwus
paya
payakumbuh
payaman
payang
payangan
payau
payogan
pays
payu
payudaan
payudan
payuddhan
payudhan
payuk
payuke
payung
payungan
paz
pbb
pc
pd
pdf
pdi
pdip
pe
peace
peacock
peafowl
pearl
pebasket
pebruari
pecalang
pecangaan
pecangakan
pecatu
pecuk
pecukan
peculiar
pecut
ped
pedagang
pedagangan
pedahan
pedal
pedalaman
pedalem
pedanda
pedang
pedas
pedawa
pedeman
pedes
pedidi
pedih
pedokan
pedoman
pedro
pedukuhan
peduli
pedungan
pedurungan
peed
pegadungan
pegagan
pegandon
pegat
pegawai
pegayaman
pegending
pegon
pegulingan
pegunungan
peguyangan
peh
pejabat
pejagan
pejalan
pejalane
pejambon
pejang
pejanga
pejanggik
pejarakan
pejate
pejaten
pejeng
pejeruk
pejuang
pejukutan
pekak
pekakne
pekalipan
pekalongan
pekan
pekanbaru
pekandangan
pekandelan
pekarangan
pekaryan
pekase
pekat
pekauman
pekayon
peken
pekene
pekerjaan
pekiringan
pekon
pekraman
pekuncen
pekunden
pekurun
pekutatan
pekuwon
pela
pelabuhan
peladung
pelaga
pelaihari
pelajahan
pelajar
pelajaran
pelajari
pelaksana
pelaksanaan
pelalawan
pelalianan
pelaliyanan
pelang
pelangai
pelantangan
pelantikan
pelapuan
pelatih
pelatihan
pelawa
pelawak
pelayanan
pelee
pelem
pelestarian
peliatan
pelih
peliharaan
pelilit
pelindung
peling
pelinggih
pelita
pelopor
peluh
pelukis
pelung
pemahaman
pemahbah
pemain
pemalang
pemandangan
pemandian
pemanfaatan
pemangkat
pemangkih
pemangku
pemanis
pemargi
pemargin
pemaron
pematang
pematangsiantar
pematung
pemayun
pembaca
pembahasan
pembahasannya
pembalap
pembangunan
pembantu
pembaruan
pembawa
pembela
pembelajaran
pembentukan
pemberian
pemberontakan
pembicaraan
pembina
pembinaan
pembuang
pembukaan
pemecutan
pemedilan
pemekaran
pemenang
pemeran
pemere
pemerintah
pemerintahan
pemijian
pemikiran
pemilih
pemilihan
pemilik
pemilu
pemimpin
peminatan
pemogan
pempatan
pemuda
pemujaan
pemukiman
pemungutan
pemurus
pemusik
pemuteran
penaban
penaga
penajam
penalti
penamaan
penambangan
penampilan
penanggal
penanggalan
penanggungan
penanian
penari
penarukan
penarungan
penasehat
penata
penatahan
penataran
penatih
penawangan
penawar
pencak
pencalonan
pencar
pencarian
pencetak
pencetakan
pencipta
penda
pendaftaran
pendapat
pendatang
pende
pendek
pendem
pendeta
pendidik
pendidikan
pendiri
pendirian
pendopo
pendowo
penduduk
pendukung
pene
penebel
penegakan
penek
peneliti
penelitian
penemu
penengahan
penerapan
penerbangan
penerbit
penerbitan
penerima
penerjemah
penerjemahan
penestanan
penetapan
pengabetan
pengacara
pengadangan
pengadegan
pengadilan
pengadjaran
pengajaran
pengajuan
pengakuan
pengalaman
pengalusan
pengambengan
pengangge
penganjuran
pengantar
penganten
pengarang
pengaruh
pengasih
pengasinan
pengastulan
pengatigan
pengawak
pengawas
pengayehan
pengedan
pengejaan
pengejaran
pengelola
pengelolaan
pengembang
pengembangan
pengembungan
pengereregan
pengetahuan
pengganti
penggaron
penggawa
pengguna
penggunaan
penghargaan
penghitungan
penghulu
pengiangan
pengiasan
penginyahan
pengipian
pengiring
pengit
pengkadan
pengkol
penglatan
penglipuran
penglumbaran
pengobatan
pengolahan
pengose
pengotan
pengragoan
penguasa
pengubengan
penguin
pengulon
pengumuman
pengurangan
pengurus
pengusaha
pengusul
penida
peninggalan
peninjauan
peninjoan
peninsula
peniti
penjabat
penjaga
penjajah
penjajahan
penjara
penjaringan
penjelajah
penjelasan
penjor
pennsylvania
penrang
pensiun
pentadu
pentakosta
pentang
pentangan
pentas
penting
pentingnya
penuh
penukal
penuktukan
penulis
penulisan
penumpang
penusuan
penyabangan
penyair
penyakit
penyalin
penyangga
penyanyi
penyarikan
penyaringan
penyelenggara
penyelidik
penyeneneng
penyeneng
penyerang
penyiar
penyimpenan
penyingakan
penyisihan
penyu
penyucian
penyumbang
penyunting
penyuntingan
penyurat
penyusun
people
pepaosan
peparikan
pepas
pepatih
pepe
pepedan
pepek
peperangan
pepes
pepesan
pepet
pepeteng
pepitu
peplajahan
per
peradaban
peradi
perahu
peraih
perairan
perak
peran
perancak
perancang
perancis
peranda
perang
perangat
perangkat
perangko
perasi
peraturan
perawan
perawat
perayaan
perbankan
perbekel
perbincangan
perbukitan
percakapan
percaya
perda
perdagangan
perdamaian
perdana
perdanakusuma
perdu
pere
perempat
perempuan
perencanaan
pereng
peresak
performance
pergerakan
pergi
pergilah
pergung
perguruan
perhatian
perhimpunan
peri
periangan
perigi
perikanan
perilaku
pering
peringatan
peringkat
perintah
period
periode
periodic
periplus
perisai
peristiwa
periuk
perjalanan
perjanjian
perjuangan
perkakas
perkebunan
perkembangan
perlambang
perlindungan
perlu
permai
permainan
permaisuri
permata
permendagri
permintaan
permissions
permohonan
permukaan
pernah
pernikahan
pernyataan
pero
perodong
perolehan
perpustakaan
pers
persahabatan
persatuan
perse
persebaya
perseden
persegi
persekaba
persemakmuran
persembahan
persen
perserikatan
perseru
persi
persia
persiapan
persib
persiba
persibas
persija
persikutim
persimpangan
persipal
persis
persisam
person
personal
personel
personil
perspektif
pertahanan
pertama
pertamina
pertandingan
pertanian
pertanyaan
pertempuran
pertemuan
pertengahan
pertima
pertimbangan
pertiwi
pertunjukan
peru
perubahan
perumnas
perumus
perumusan
perunggu
perusahaan
perwakilan
perwira
pesaban
pesagi
pesalakan
pesan
pesanggaran
pesanggrahan
pesangkan
pesantre
pesantren
pesawahan
pesawaran
pesawat
pese
pesedahan
peselatan
pesengan
peserta
pesiar
pesinggahan
pesisi
pesisir
peso
pesona
pesta
pesu
pesuang
pet
peta
petahana
petai
petak
petake
petakon
petamburan
petanahan
petandakan
petang
petangan
petani
petanu
petapan
petarukan
petasia
pete
peteng
petenge
petengne
peter
peterongan
peti
petiga
petilan
petine
petinggi
petinju
petir
petitenget
petobo
petoyan
petra
petruk
petrus
petta
petuah
petugas
petuk
petukangan
petulu
petung
petunge
petunjuk
peucang
peuet
pewangunan
pewarigaan
pewarna
pfa
pgri
ph
phab
phabricator
phala
phang
phantom
phd
philip
philippe
philosophy
photo
photos
php
phra
pht
physical
physics
physiology
pi
pia
piagam
piala
pianak
pianake
pianakne
pianaknyane
pianis
picchu
pick
picnic
picture
pictures
pidabdab
pidada
pidan
pidarta
pidartaning
pidato
pidie
pidpid
pie
pied
pieniny
pierre
pieter
pihak
pika
pikat
pikatan
pikayun
pikayunan
pike
pikiran
pikobet
pikolih
pil
pilang
pilangrejo
pilangsari
pilem
piles
pilih
pilihan
piling
pilkada
pilmograpi
pilot
pilum
pimpinan
pimping
pinaggal
pinaka
pinakit
pinalti
pinang
pinanggal
pinasungkulan
pinda
pindah
pindang
pindo
pineh
pineleng
pineung
ping
pingaruh
pinge
pinggan
pinggir
pingit
pinih
pinisi
pink
pinnacles
pinocchio
pinoh
pinolosian
pinonobatuan
pinrang
pintar
pintu
pinuh
pinunas
pinungkan
pinus
pinyungkan
piodalan
pioneer
piorah
pipa
piper
pipi
pipih
pipis
pipise
pipisne
piranti
piring
pis
pisa
pisaga
pisagane
pisah
pisan
pisang
pisangan
pisau
pisode
pita
pitaken
pitaloka
pitara
pitehan
piteket
pitik
pitra
pitresnan
pitu
pituduh
pitulas
pitulung
pitung
pituruh
pitutur
piuning
piwal
pixar
pizza
piŋ
pkb
pl
pla
place
places
plainlist
plajahin
plaju
plakaran
plalangan
plalian
plalianan
plaliyanan
plampangrejo
plan
plandaan
plandi
plane
planet
planologi
plant
plants
plantungan
plaosan
plasma
plastik
plate
plateau
platinum
platje
plato
plawad
play
playback
playen
player
players
playful
playing
playoff
plaza
ple
please
plecing
plekutus
plemahan
pliosen
plitvice
ploso
plosokerep
plosorejo
plososari
plot
plumbon
plumbungan
plumpang
plupuh
plus
pluto
pm
pmi
png
pns
po
poaceae
pocket
poco
pocol
pocong
podcast
poelisine
poem
poems
poenika
poerbatjaraka
poet
poetry
poh
pohe
pohgading
pohmanis
pohon
pohsangit
pohsanten
pohuwato
poigar
poin
point
pojok
pojoksari
pok
pokok
pol
pola
polah
polandia
pole
poleang
poleng
poleonro
polewali
poli
policy
polih
polii
poline
polish
polisi
polite
politeknik
political
politician
politics
politik
politikus
politisi
polo
polong
polos
polri
polusi
poly
pomahan
pomona
pompengan
pon
poncokusumo
poncol
pond
pondal
pondok
pondoke
pondokne
pondokrejo
pong
pongah
ponggang
ponggok
pongo
poni
poniki
ponjok
ponjong
ponorogo
ponrang
ponre
pontang
pontianak
pooja
poopo
pop
popayato
popo
popongan
poppy
popular
populasi
population
popule
populer
poris
porong
porpoise
port
portal
porter
porto
portrait
portugal
portugis
pos
posisi
positif
position
positip
poso
possible
post
posyandu
pot
potato
poten
potensi
potlot
poto
potongan
potre
potrek
potret
potter
powell
power
poyowa
pp
ppen
pr
pra
prabatasari
prabe
prabekel
prabhu
prabot
prabu
prabumulih
prabune
practice
practices
prada
pradana
prade
pradesh
pradnyan
prag
pragat
pragina
praginane
praginanyane
prahu
prai
praja
prajani
prajekan
prajurit
prajurite
prajuritkulon
prajuru
prakarane
prakash
praktik
praktis
pralambang
pralaya
pralina
prama
pramana
pramangkin
prambanan
prambon
prame
pramesti
pramisuari
pramiswari
pramuka
pran
pranacitta
pranala
prancis
pranda
prang
pranti
prapag
prapat
prapatan
prapta
prapti
praragan
prarai
pras
prasarana
prasasti
prasejarah
prasetyo
prasi
prasida
pratama
pratima
prats
prau
praune
prawayah
prawira
praya
prayascitta
pre
precaya
prefecture
prefektur
preferences
prefiks
pregina
prembun
premier
present
presentasi
presenter
preserve
presi
presida
preside
presiden
president
press
prestasi
pretty
prevent
previous
prewira
pri
pria
priangan
pribadi
pribumi
prigi
prima
primarily
primata
prime
primer
prince
princess
princeton
pringapus
pringgasela
pringsewu
pringsurat
prinsip
print
printed
priok
private
prix
prize
pro
problem
probolinggo
procedures
prodeskel
production
productions
produk
produksi
produktif
produser
prof
profe
profesi
profesional
profesor
professional
professor
profil
profile
profit
progo
progokab
program
programme
programs
project
projects
projo
proklamasi
promosi
proofreadpage
properti
properties
propinsi
proposal
prosa
prose
prosea
proses
prosesi
prote
protected
protection
proto
proton
provence
provinsi
proxy
proye
proyek
proyonanggan
ps
pscs
psdd
psds
psis
psm
pss
pssi
psychology
pt
pte
ptil
ptiloris
ptolemaios
ptunium
ptunus
pu
pua
puakan
puan
public
publications
publik
publikasi
published
publishers
publishing
pucak
pucaksari
pucakwangi
pucang
pucangan
pucanganom
pucuk
pucung
pudak
pudja
pue
puerto
puger
pugung
puhu
puhun
puisi
puisinyane
puja
pujaan
pujangga
pujawali
puji
pujodadi
pujon
pujung
pujungan
pukang
pukuh
pukul
pula
pulai
pulaki
pulang
pulanga
pulau
pule
pulerejo
pules
pulesari
pulo
pulogadung
pulorejo
pulosari
pulu
pulubala
puluh
puluhan
puluik
puluk
pulukan
pulung
pulutan
pumahan
pun
punagi
punah
punan
punapi
puncak
punch
pundong
punduh
punduk
pundukaha
pundukan
pundukane
pundungsari
pungangan
punggang
punggasan
punggawa
punggelan
pungging
punggul
punggur
pungkur
punglor
punia
punic
punik
punika
punike
puniki
punjab
punjung
punjungan
punk
punta
punteuet
punya
punyah
punyan
punyanan
punyane
puosu
puppy
pupuan
pupuh
pupulan
pupur
puput
puputan
pur
pura
purana
purane
purba
purbakala
purbalingga
purbaratu
purbaya
purbayan
purbayasa
purbolinggo
pure
puri
purian
purin
purine
puring
purn
purna
purnama
purnamaning
purnawirawan
purple
purpose
puruk
purun
purus
purusa
purusada
purut
purwa
purwadadi
purwaharja
purwajaya
purwakanti
purwakarta
purwanegara
purwantoro
purwasari
purwo
purwoasri
purwodadi
purwoharjo
purwojati
purwokerto
purworejo
purwosari
pus
pusaka
pusakajaya
pusakane
pusan
pusat
puseh
puser
puskesmas
pusong
puspa
puspasari
puspayoga
pustaka
pusuh
put
putar
putaran
putat
pute
putera
puteri
puti
putih
putik
putin
puting
putra
putran
putrane
putranidane
putrannyane
putranya
putraraja
putri
putrin
putrinya
putu
putun
putung
putus
putusan
putussibau
puu
puun
puundoho
puurau
puuwatu
puuwonua
puyung
pww
px
pyaar
pyeong
pyo
pyongan
pyongyang
pyre
pyrenees
pythagoras
python
q
qatar
que
quebec
queen
queensland
quilombola
quito
quote
qur
r
ra
raa
raab
raanan
raba
rabaa
rabak
rabangodu
rabi
rabin
rabindranath
rabine
rabinida
rabinidane
rabinne
rabinnyane
rabuk
rachmat
raci
racik
racun
rada
radar
rade
raden
radiasi
radio
radioaktip
radioaktivitas
radium
rady
rae
rafael
raffles
rafflesia
rafika
raga
ragam
ragan
ragane
raganidane
raganne
ragannyane
raggiana
ragi
ragu
rah
raha
rahajeng
raharja
raharjo
rahat
rahayu
rahina
rahinan
rahinane
rahman
rahmat
rahong
rahul
rahwana
rai
raider
raijua
rain
rainbow
raine
rainis
raj
raja
rajabasa
rajagaluh
rajang
rajapala
rajaputra
rajawali
raje
rajeg
rajo
raju
rak
raka
rakan
rakane
raket
rakryan
raksasa
raksasane
raku
rakumpit
rakyat
ral
rale
ram
rama
ramah
raman
ramayana
ramba
rambang
rambat
rambatan
rambu
rambut
rambutan
rame
rames
ramo
rampa
rampai
rampal
rampe
ramsar
ramuan
ramzym
ran
rana
ranah
ranaka
ranakah
ranca
rancaekek
rancage
rancamulya
rancangan
rancasari
rancho
randa
randegan
randolph
random
randu
randuagung
randublatung
randusari
rang
rangan
rangap
rangas
rangda
rangdane
rangdu
rangga
rangka
rangkadan
rangkaian
rangkan
rangkang
rangkasbitung
rangsasa
rangsasane
rani
rania
ranjani
ranji
rano
ranoketang
ranomeeto
ranooha
ranoyapo
rantai
rantau
rante
rantebua
rantepao
ranti
ranting
ranu
rao
raos
raosang
raosne
rap
rapa
rapak
rapat
raphael
rapi
rappang
rapper
rappocini
rara
rarang
raras
rare
rarene
raris
rarowatu
rarud
ras
rasa
rasan
rasanae
rasane
rasannyane
rasanyane
rasau
rasbora
rase
rasi
rasio
rasione
rasionyane
rasmi
rasul
rasutama
rasyid
rat
rata
ratahan
ratatotok
rate
rateng
rather
ratifikasi
ratih
rating
ratio
ration
ratna
rato
ratri
ratte
ratu
ratulangi
ratun
ratune
rau
raudatul
rauh
rauhing
rauke
raung
raw
rawa
rawalumbu
rawamangun
rawang
rawas
rawasari
rawi
rawles
rawuh
ray
raya
rayunan
rayyan
rbia
rd
re
rea
read
reader
readers
reading
real
reality
realms
reason
rebab
rebo
rebung
record
records
red
redaksi
redite
redwood
reef
ref
refbegin
refer
reference
references
referensi
reflist
refrain
regards
regency
regent
reggae
region
regional
regol
reguler
reh
reims
reingold
rejang
rejasa
rejasari
rejeki
rejo
rejoagung
rejomulyo
rejosari
rejoso
rejotangan
rejowinangun
reka
rekaman
rekan
reke
reko
rekomendasi
rekonstruksi
rekor
rektor
relative
release
released
relevan
relief
religi
religiosa
religious
religius
reload
remaja
rembang
rembiga
rembun
remember
remo
remove
removed
rempah
ren
rena
rencana
renda
rendah
rendang
rende
rendeng
rene
rengas
rening
renon
rentan
renteng
repa
report
reports
repot
reptil
republic
republik
request
requests
rerajahan
rerama
reraman
reramane
reramannyane
rerambatan
rerasmen
rerata
rereh
reringkesan
res
research
resep
reserve
reset
resi
residen
resident
resik
resmi
resort
resource
resources
restoran
restu
result
results
ret
reta
retrieved
return
review
revised
revisi
revision
revolusi
rex
rey
rg
rgb
rhe
rhin
rhine
rhinoceros
rho
rhodium
ri
ria
riaja
riak
rial
riam
rian
riana
riang
riantara
riantaranyane
riantukan
rias
riase
riattang
riau
ribu
ric
rica
rice
rich
richard
rick
ricky
rida
ride
riding
ridwan
riflebird
right
rights
rihin
rii
riin
riinan
rijang
rijasa
rik
rika
rikala
rikanjekan
rikha
riki
riko
rilau
rilis
rim
rimba
rimet
rimpang
rin
rina
rinci
rindi
rindik
rinding
rindu
ring
ringan
ringdikit
ringgit
ringin
ringinanom
ringinrejo
ringkasan
ringkesan
rinh
rinjani
rintisan
rinuju
rio
riode
riodik
ririh
risajeroning
risampun
risampune
risampunne
rise
risedek
riset
rita
ritatkala
ritkala
ritual
rituals
ritus
riu
rium
riung
river
rivier
riwang
riwayat
riyadi
rizal
rizky
rizwan
riŋ
rman
rme
rms
rn
rnten
ro
roa
road
roang
roban
robert
roberto
roberts
robi
robin
robinson
robson
rock
rockefeller
rocky
roda
rodgers
rodrigo
roe
roger
rogojampi
roh
rohani
rohit
roid
rok
rokan
roko
rolas
roll
roma
roman
romang
romania
romantis
romawi
rombongan
rompu
ron
ronald
ronaldo
rong
rongga
rongkop
roni
roosevelt
ropa
rora
roras
rory
rosa
rose
rosenberg
roshan
rosi
rosidi
ross
rotan
rote
roti
rotterdam
rough
routledge
row
roworejo
rowosari
roxb
roy
royal
royong
rozporza
rp
rpl
rr
rri
rry
rs
rsb
rsi
rsia
rsial
rsitas
rsssf
rsud
rt
rti
rtl
rto
ru
ruang
ruangan
rubah
rubi
rubidium
rubra
rudana
rudolf
rudra
ruh
rujak
rujukan
rukam
rukh
rukti
rukun
rule
ruler
rules
rulung
rum
rumah
rumania
rumasa
rumasuk
rumbai
rumbia
rumoong
rumpuh
rumpun
rumput
rumus
rumusan
run
runcing
rung
rungan
rungkut
rungu
runner
runners
running
runtuh
rupa
rupan
rupannyane
rupawan
rupek
rupiah
ruput
rurung
rurunge
rusa
rusak
rusia
russell
russia
russian
rustom
rut
rute
ruth
rvasi
rw
rwa
rwanda
ry
ryan
ryeong
ryu
ryukyu
ryya
s
sa
saa
saan
saang
saange
saantukan
saat
saba
sabah
saban
sabana
sabang
sabangau
sabar
sabaru
sabbang
sabda
sabdan
sabe
sabeh
sabha
sabi
sabilang
sabit
sabo
sabrang
sabre
sabtu
sabu
sabuh
sabuk
sabulakoa
sabun
sabung
sacara
sad
sada
sadang
sadar
sadarana
sadaweg
sade
sadeng
sadha
sadia
sadina
sading
sadu
saduran
sadurung
sadurunge
sadurungne
sadurungnyane
sadya
safari
safety
saga
sagalaherang
sagara
sage
sagening
saget
sagoe
sagrada
sagu
sagung
sah
saha
sahadewa
saham
sahananing
sahara
sahari
sahasa
sahasra
sahi
sahu
sai
saiban
said
saih
sain
saindik
sainer
saing
sains
saint
sairing
saitama
saja
sajaan
sajaba
sajabaning
sajagat
sajak
sajan
sajangkepne
sajawaning
saje
sajebag
sajeroning
sajira
saka
sakadi
sakah
sakala
sakancan
sakantun
sake
sakemaon
sakenan
sakeng
sakewala
sakewanten
saking
sakit
sakita
sakitne
sako
sakra
sakral
sakti
saku
sakuntala
sakutus
sala
salah
salak
salakan
salam
salama
salaman
salami
salamrejo
salantang
salantur
salanturne
salanturnyane
salar
salat
salatiga
salawati
sale
saleh
salem
sali
salib
salibabu
salido
salim
saling
salit
salju
salma
salman
salmon
salo
salok
saloka
salt
salu
saluir
saluiring
saluran
salut
salutambun
salvador
salya
salzburg
sam
sama
samaenre
samah
samaliha
saman
samar
samaran
samarinda
samarium
samaturu
samba
sambac
sambada
sambali
sambangan
sambas
sambat
sambel
sambeng
sambhu
sambi
sambian
sambikerep
sambil
sambila
sambilang
sambilanga
sambilangan
sambilange
sambilawang
sambimulyo
sambirejo
sambirenteng
sambiroto
sambong
sambongrejo
sambu
sambuk
sambung
sambungmacan
same
samenajung
samenanjung
sameton
samgyetang
sami
samian
samigaluh
samoa
samong
samos
samosir
sampai
sampalan
sampanahan
sampang
sampara
sampat
sampe
sampel
sampi
sampiang
sampik
sampine
samping
sampingne
sampinne
sampiran
sampit
samplangan
sample
samprangan
sampul
sampun
sampunang
sampune
sampung
sampurna
sampyan
samsam
samsaman
samsudi
samsung
samu
samuan
samuda
samudera
samudra
samuel
samuh
san
sana
sanak
sanan
sanankulon
sananwetan
sanata
sancaya
sand
sanda
sandai
sandakan
sandal
sandan
sandana
sandang
sandaran
sandat
sande
sandhi
sandi
sandikala
sandikan
sanding
sandubaya
sandung
sandwich
sane
sang
sanga
sangalla
sanganan
sangat
sangatta
sange
sangeh
sanget
sanggah
sanggahne
sanggalangit
sanggar
sanggau
sanggi
sangging
sanggra
sanggrahan
sanggup
sanghara
sanghyang
sangia
sangiang
sangihe
sangir
sangit
sangkal
sangkala
sangkan
sangkaning
sangkara
sangkaragung
sangkarrang
sangkep
sangketan
sangkub
sangkungan
sangkur
sangkuriang
sanglah
sangmong
sangsaya
sangsiah
sangsit
sangu
sani
sanih
saniscara
sanja
sanjane
sanjata
sanjaya
sano
sans
sansekerta
sanskerta
sanskrit
sant
santa
santan
santen
santha
santhi
santi
santiago
santo
santong
santos
santoso
santri
santukan
santun
sanur
sanusi
sao
sapa
sapan
sapanang
sapangrauh
sapardi
saparisolah
sapasira
sapi
sapih
sapisan
sapisanan
sapo
sapta
saptosari
sapunapi
sapundu
sapunika
sapuniki
sapuran
saput
saputra
sara
sarad
saradan
sarae
saraf
sarahina
sarai
saran
sarana
sarang
sarangan
sarap
sarasidi
saraswati
sarat
sarauh
sarauhe
sarawak
sare
sareal
saren
sareng
sarengan
sari
sariak
sarik
sarimukti
sarimulyo
sarin
sarinah
sarine
saring
sario
sarira
sarirejo
sarjana
sarmi
sarolangun
sarotari
sarpa
sars
saru
sarung
sarunggil
sarupa
sarwa
sarwi
sarwodadi
sasak
sasampun
sasampune
sasampunne
sasampunnyane
sasana
sasaran
sasi
sasih
sasimbing
saskatchewan
sasolahan
sastera
sastra
sastrawan
sasubane
sasubanne
sasuhunan
sasukat
sasuratan
satak
satar
satata
sate
satekedne
satelit
satia
satinut
sativum
satma
satmaka
sato
satonde
satonden
satra
satria
satu
satua
satuan
satuane
satuh
satui
satunggal
satunggil
satunya
saturnus
satus
satwa
satya
satyajit
satyawati
saud
saudara
saudaranya
saudi
sauntara
saupa
saur
saus
sausan
sausu
saut
sautina
save
saw
sawa
sawah
sawahan
sawahlunto
sawai
sawalikne
sawan
sawang
sawangan
sawarsa
sawat
sawatara
sawe
sawetara
sawilang
sawire
sawireh
sawit
sawitra
sawitrannyane
sawo
sawojajar
sawu
sawusan
saxena
saxon
saxony
say
saya
sayaga
sayan
sayang
sayanganga
sayap
sayembara
sayemwara
sayemwarane
sayung
sayur
sayuwakti
saŋ
saŋn
sbs
sc
scandal
schizostachyum
schleswig
scholar
scholarly
school
schools
schulte
science
sciences
scientific
scooby
score
scorpion
scott
scrappy
screen
screenshot
script
scroll
scrooge
sd
sdlb
sdn
se
sea
seaba
seal
sean
seantukan
search
season
seasons
seater
seattle
sebagai
sebagaimana
sebagainya
sebagian
sebaiknya
sebakung
sebali
sebangau
sebani
sebanyak
sebaran
sebatik
sebatu
sebelah
sebelas
sebelum
sebelumnya
sebengne
seberang
sebesar
sebet
seblat
sebrang
sebuah
sebudi
sebulu
sebuluh
sebun
secang
secara
second
secret
section
seda
sedah
sedahan
sedan
sedana
sedang
sedangkan
sedau
sedayu
sede
sedek
sedekan
sedeng
sederajat
sederhana
sedhah
sedih
sedikit
seduk
see
seek
seekor
seems
sega
segah
segala
seganing
segara
segaran
segarane
seger
segera
segeran
segi
segitiga
segment
segobang
sehari
seharusnya
sehingga
sei
seine
sejahtera
sejak
sejangkep
sejarah
sejarawan
sejati
sejong
sejuk
sejumlah
seka
sekaa
sekaan
sekaane
sekadau
sekadi
sekala
sekali
sekaligus
sekampung
sekancan
sekar
sekaran
sekarang
sekarbela
sekardadi
sekare
sekargadung
sekarnyane
sekarputih
sekartaji
sekarwangi
sekat
sekatak
sekaten
sekayu
seken
seket
sekitar
sekitarnya
sekjen
seko
sekola
sekolah
sekolahan
sekolaq
sekotong
sekretariat
seks
sekte
sektor
sekumpul
sekunder
sekutu
sela
selaawi
selabih
selae
selagan
selain
selajambe
selakau
selalu
selam
selama
selamat
selamatan
selamet
selami
selan
selanbawak
selandia
selang
selanjutnya
selantang
selantur
selanturne
selanturnyane
selaparang
selaras
selasa
selasih
selat
selatan
selayan
selayang
selayar
sele
selected
selector
seleg
selehin
seleksi
selem
selemadeg
selengkapnya
selesai
self
selfish
selikur
selimbau
selingsing
selir
selisihan
selo
selogiri
selonding
selong
selopuro
selor
selorejo
seluang
seluas
seluler
selulung
seluma
selumbung
seluruh
seluruhnya
sem
sema
semadi
semaja
semak
semal
semaliha
semambung
semampir
semana
semandang
semanding
semane
semangah
semangat
semangatmu
semanggi
semanu
semar
semara
semarajaya
semarandhana
semarang
semarapura
semasa
semat
semawung
semaya
sembah
sembahyang
sembakung
sembalun
sember
sembilan
sembilang
sembiran
semboyan
sembuluh
sembulung
sembung
sembungan
seme
semen
semenanjung
semeng
semengan
semengane
semenganne
sementara
semer
semeru
semesta
semeton
semi
semifinal
semifinalis
semila
semin
seming
seminyak
semirang
semitau
sempaja
sempat
sempe
sempidi
semplak
sempol
sempor
sempu
sempurna
semu
semua
semuanya
semuli
semuntai
semut
semute
sen
senang
senapahan
senapati
senar
senator
sendana
sendang
sendangagung
sendangan
sendangharjo
sendangmulyo
sendangrejo
sendangsari
senden
sendi
sendine
sendiri
senduro
senegal
senen
seneng
seng
senganan
sengap
sengguan
sengguhu
sengkala
sengker
sengkidu
sengkuang
sengon
sengsara
seni
seniman
senin
senior
senja
senjata
sensus
sental
sentana
sentani
sentarum
sentol
sentolo
sentosa
sentra
sentral
sentul
senyawa
seo
seob
seochang
seok
seon
seong
seorang
seosan
seoul
sepaa
sepak
sepakat
sepakbola
sepan
sepang
sepangan
sepanjang
sepasang
sepaso
sepat
sepatan
sepatu
sepe
sepeda
seperti
sepet
sepi
sepinggan
septe
september
sepulu
sepuluh
sepupu
seputar
seputih
sequence
sequoia
sera
serab
seraga
seragam
serahang
serai
seram
serampingan
serang
serangan
serangga
serapat
serat
serauh
seraya
serayu
serba
serbia
serda
serdadu
serdang
sere
seren
serengan
serengeti
seret
sergio
seri
serial
seriang
seribu
serie
series
serif
serigala
serikat
sering
seririt
seroja
serokadan
serongga
serpong
sersan
serta
sertai
sertu
serua
serumpun
seruni
serupa
serut
seruyan
served
service
sesai
sesame
sesampun
sesampune
sesampunne
sesana
sesandan
sesangan
sesanganan
sesapan
sesapi
sesar
sesate
sesawangan
sesayap
sesayut
sesean
seselan
sesenggakan
seseorang
sesetan
sesi
sesolahan
sesonggan
sesuai
sesubane
sesuhunan
sesuratan
set
setail
setara
setata
setelah
setengah
setia
setiabudi
setiap
setiawan
setiman
setingkat
setono
setra
setren
settings
setu
setuju
seudati
seulawah
seung
seven
seventeen
several
sewagian
sewai
sewaka
sewaktu
sewon
sewu
sex
seyegan
sh
sha
shadow
shaggy
shah
shakti
shaktinya
shanti
share
shared
shark
sharks
sharma
sharp
shaw
shawn
she
shearer
sheep
sheet
shenandoah
shield
shift
shiga
shikoku
shim
shimane
shin
shio
shipbuilding
shiva
shizuoka
sho
shoe
shop
short
should
show
showbiz
showing
shown
shows
shri
shu
si
sia
siaga
siak
siakin
siaku
siam
siamang
sian
siane
siang
siangan
sianok
siantan
siap
siapa
siapapun
siape
siapne
siaran
siat
siate
siau
sibak
sibang
sibangkaja
sibarengan
sibau
sibe
siberut
sibetan
sibolga
sibuh
sibuk
sicklebill
sid
sida
sidakarya
sidamukti
sidamulih
sidamulya
sidan
sidane
sidang
sidareja
sidayu
siddha
siddhartha
side
sidem
sidembunut
sidemen
sidempuan
siden
sidenreng
sidetapa
sidha
sidi
sidimantra
siding
sido
sidoagung
sidoan
sidoarjo
sidodadi
sidoharjo
sidokare
sidokerto
sidokumpul
sidoluhur
sidomakmur
sidomukti
sidomulyo
sidondo
sidorejo
sidosari
sidowayah
sie
sierra
sifat
sifatnya
sig
sigala
sigaluh
sigar
sigara
sigaran
sigi
sigir
sign
significance
signifikan
sigsigan
sigug
sih
sihir
sijeruk
sijunjung
sik
sikabu
sikale
sikangin
sikap
sikarah
sikauh
sikawan
sikelod
sikep
siki
sikka
siklus
siku
sikucur
sikur
sikut
sila
siladan
siladri
silakan
silalahi
silangjana
silat
silayukti
silea
silem
silian
silib
silih
silikon
siliragung
siliwangi
silsilah
siluman
silungkang
silva
silver
sima
simalungun
siman
simanjuntak
simbang
simbar
simbol
simbuang
simbul
sime
simeulue
simien
simo
simokerto
simon
simpang
simpangan
simpar
simpasai
simpen
simple
simpur
simran
sin
sinabun
sinabung
sinah
sinambi
sinamian
sinampura
sinar
sinarengan
sinarjaya
since
sindang
sindangasih
sindangbarang
sindanggalih
sindanghayu
sindangjaya
sindangkasih
sindangkerta
sindanglaya
sindangrasa
sindangresmi
sindangsari
sindangwangi
sindi
sindu
sindue
sinduk
sindur
sinduwati
sine
sinetron
sing
singa
singajaya
singakerta
singapadu
singapore
singapura
singaraja
singasari
singda
singel
singgah
singgahan
singgih
singh
singid
singin
singingi
singkarak
singkat
singkatan
singkawang
singkil
singkup
single
singojuruh
singonegaran
singorojo
singosaren
singosari
singotrunan
sini
sinilih
siniu
sinjai
sinjuana
sinom
sinopsis
sint
sinta
sintaksis
sintang
sinte
sinti
sinuggil
sinuhun
sinunggal
sinunggale
sinunggil
sinurat
sio
sional
sios
siosan
sipatana
sipayo
sipi
sipil
siprus
sipta
siput
sir
sira
sirah
siraman
sirang
sirat
sirau
sire
siregar
sirep
sirih
siring
sirip
sirkuit
sirna
sirnagalih
sirnajaya
sirnasari
sirnoboyo
sirs
sirung
sis
sisa
sisan
sisane
sisi
sisia
sisian
sisik
sisin
sisinyane
sisip
sisir
sistem
sistematis
sistim
sistina
siswa
sisya
sita
site
siteng
siti
sitirejo
situ
situasi
situbondo
situgede
situjuah
situnggal
situnggil
situraja
situs
situsari
siu
sium
siung
siwa
siwalan
siwi
size
sizing
sk
skala
skandium
ske
skenario
ski
skiego
skin
skins
skor
skotlandia
skotmiwahdia
skuad
skuat
sky
skyline
sl
slaka
slamet
slawi
sle
sledet
sleep
sleeping
sleman
sliyeg
sloka
slonding
slorok
slovakia
slove
sm
sma
small
smaller
sman
smara
smaradahana
smith
smk
smkn
smoky
smp
smplb
smpn
snake
snakehead
snorkeling
snow
so
soang
soba
sobang
sobangan
sobo
sobontoro
soca
socah
soccer
soccerway
social
society
soco
sodiak
sodong
soe
soeba
soed
soedirman
soeharto
soekarno
soekarnoputra
soekarnoputri
soemerasih
soepratman
soerat
soeratin
software
sogo
sogra
sok
soka
sokan
sokaraja
sokasi
sokasti
sokawera
soklat
soko
sokobanah
sola
solah
solahne
solan
solanum
solar
solas
sole
solid
solimandungan
solo
solok
solomon
solor
solusi
soma
somagede
somah
somahne
somalia
somba
sombong
some
someone
somi
sompe
son
song
songan
songgom
songgon
songke
songne
songo
songs
sonia
sonneratia
sono
sonobudoyo
sonorejo
sons
sony
soo
sook
sooko
soon
sopa
sopan
soppe
soppeng
sor
sore
soreang
sorga
sori
soring
sornyane
soro
soroh
sorong
sos
sosial
sosialis
sosiolog
sosiologi
sosok
sotong
soul
sound
soundtrack
source
sources
south
southeast
southern
souza
sovie
soviet
sp
spa
space
spacing
spain
span
spanish
spanyol
spasojevic
spe
speak
special
species
speedy
spekterum
spelling
spesie
spesies
spider
spies
spirit
spiritual
spongebob
sponsor
sport
sports
spot
spp
sprawie
spring
springer
springs
sq
sqrt
square
sr
srabena
srabeni
sragen
sragi
sraten
src
sregep
srengat
srengseng
sri
sridadi
sridevi
srigading
srikandi
srikaton
srimben
srimulyo
sriwedari
sriwijaya
srono
ss
ssy
st
sta
stabil
stadio
stadion
stadium
staf
staff
stage
stan
standar
standard
stanford
stanley
stanton
star
stars
start
started
stasi
stasiun
stata
state
states
station
statistics
statistik
status
ste
stedehouder
stephen
sterreich
steve
stie
stik
still
stival
stmik
stole
stone
stonehenge
stonia
stop
storage
storan
stories
story
storyboards
stovia
strait
strategi
strategis
strategy
straus
streaming
street
stri
striata
strict
striker
string
struktur
struktural
stsi
stuart
student
studi
studie
studies
studio
studios
study
stuff
stupa
style
styles
stylesheet
styling
styrofoam
su
sua
suah
suak
suaka
suami
suaminya
suana
suang
suar
suara
suaran
suarane
suarga
suargan
suargane
suarsa
suasana
suastika
suatjana
suato
suatu
sub
suba
subaga
subagan
subah
subak
subakti
subamia
subandar
subane
subang
subanne
subaya
subdivisi
sube
subgroup
subing
subject
subjects
subjek
subkaluwarga
submarine
subordo
subroto
subspe
subspesies
subtropis
subuk
subulussalam
subun
subur
such
suci
sucinya
sucipto
sud
sudagar
sudah
sudaji
sudamala
sudan
sudang
sudarsana
suddhamala
sudha
sudhamala
sudiang
sudiasih
sudimara
sudimoro
sudirman
sudut
sue
sueca
suecan
suen
sugem
sugeng
sugi
sugianto
sugih
sugihan
sugihrejo
sugihwaras
sugini
sugriwa
suharto
suhu
sujana
sujang
sujati
sujatine
sujatinne
sujatinnyane
sujatinyane
suk
suka
sukaasih
sukabakti
sukabumi
sukabungah
sukadamai
sukadana
sukagalih
sukahaji
sukaharja
sukahat
sukahati
sukahurip
sukajadi
sukajaya
sukakarya
sukakerta
sukalaksana
sukaluyu
sukamahi
sukamaju
sukamakmur
sukamanah
sukamantri
sukamara
sukamekar
sukamenak
sukamukti
sukamulya
sukan
sukanagara
sukanegara
sukapura
sukaraharja
sukaraja
sukaramai
sukarame
sukarami
sukarapih
sukarasa
sukaratu
sukareja
sukarelawan
sukaresik
sukaresmi
sukarno
sukasada
sukasari
sukasenang
sukasirna
sukasti
sukat
sukatani
sukawana
sukawangi
sukawati
sukawening
sukeh
sukhoi
sukma
sukmajaya
suko
sukoanyar
sukodadi
sukodono
sukoharjo
sukolilo
sukomanunggal
sukomoro
sukomulyo
sukorame
sukorejo
sukoreno
sukosari
sukosewu
sukowidi
sukowono
sukra
sukreni
sukse
suksemanipun
sukses
suksma
suksman
suksmanipun
suku
sukuh
sukun
sul
sula
suladri
sulahan
sulaksana
sulang
sulangai
sulanyah
sulasih
sulastri
sulawe
sulawesi
suli
suling
sulinggih
sulit
sultan
sulu
suluh
suluk
sulung
sulur
suluun
sumaga
sumala
sumampan
sumangdane
sumanggup
sumangka
sumatera
sumatra
sumba
sumbang
sumbangan
sumbawa
sumber
sumberagung
sumberanyar
sumberarum
sumberbaru
sumberbendo
sumberdadi
sumberejo
sumberharjo
sumberingin
sumberjambe
sumberjati
sumberjaya
sumberjo
sumberkima
sumberklampok
sumbermanjing
sumbermulyo
sumberrejo
sumbersari
sumbersuko
sumberurip
sumberwaru
sumberwringin
sumbu
sumbul
sumedang
sumeken
sumenep
sumengko
sumerta
sumingkin
sumita
sumitra
summary
summer
sumpah
sumpang
sumping
sumpur
sumsum
sumur
sumurbandung
sumurgung
sun
sunan
sunantaya
sunar
sunaran
sunari
sunda
sundarbans
sundari
sunday
sung
sungai
sungaipenuh
sungi
sungkai
sungkan
sungsang
sungsut
sunia
sunrise
sunset
sunting
suntingan
suoh
sup
supartika
suparto
super
superbike
superhero
superman
superseries
supiori
support
supraba
suprabha
sur
sura
surabaya
surabayan
surada
suradadi
suradarma
surakarta
suralaga
surane
surantih
surapati
surat
suratan
suratanne
surate
suratma
sure
surel
suren
surga
surgeon
suri
suria
suriah
surian
suriname
surinder
surodadi
suru
suruh
surup
surut
survei
survey
surya
suryane
sus
susan
susastra
susie
susila
susilo
sustianingsih
susu
susuan
susuk
susukan
susunan
susune
susunin
susut
sutan
sutasoma
sutedja
suter
suti
sutindih
sutjaja
sutojayan
sutra
sutradara
suu
suud
suung
suwat
suwe
suwidja
suwud
suwug
suwung
suzy
svara
svg
swa
swadarma
swadaya
swadharma
swadharman
swadikara
swagina
swahili
swalalita
swan
swang
swanggadarmi
swapraja
swara
swarga
swargan
swari
swasta
swastika
swe
swedia
sweet
swift
swiss
switcher
switzerland
syah
syahadat
syahrir
syair
syarat
syarif
sydney
syiah
symbolic
syn
sysop
system
systems
syukur
syzygium
t
ta
taal
taani
taba
tabah
tabalong
tabanan
tabang
tabe
tabek
tabel
tabia
tabing
table
tables
tabongo
tabu
tabuan
tabuh
tabuik
tabuk
tabukan
tabunan
tabung
tabunganen
tada
tadah
tadaha
tadangpalie
tado
tadulako
tae
taejo
taen
tagalog
tagari
tagore
tagtag
tagulandang
tah
tahai
tahan
tahap
tahapan
tahenan
tahiti
tahta
tahu
tahun
tahuna
tahunan
tai
tail
tailed
tain
taine
taipa
taipe
taipei
taiwan
taiwanese
taj
tajau
taje
tajen
taji
tajikistan
tajog
tajun
tajur
tak
taka
takalar
takan
takbenda
take
taker
takeran
takes
taki
taking
takir
takmung
takonang
takonina
taksaka
taksi
takson
taksonomi
taksu
takus
takut
takutin
takutne
talaga
talagasari
talago
talamau
talang
talas
talaud
talawaan
talawang
tale
taler
tales
tali
taliabu
talibeng
talikuran
talin
taline
talio
talise
taliwang
talk
tallang
tallasa
tallo
tallu
tallung
tallunglipu
taloid
talok
taluh
taluhe
taluhne
taluk
talun
tama
tamak
tamake
tamalanrea
tamalate
taman
tamanagung
tamanan
tamanjaya
tamansari
tamarind
tamat
tamba
tambaagung
tambah
tambahan
tambahkan
tambahrejo
tambak
tambakan
tambakboyo
tambake
tambakrejo
tambakromo
tambaksari
tambal
tambalangan
tamban
tambang
tambangan
tambe
tambelang
tamberu
tambet
tambi
tamblang
tamblingan
tamboli
tambora
tambrauw
tambu
tambulilingan
tambun
tambung
tame
tamiang
tamil
tamiu
tamiune
tammerodo
tampah
tampaha
tampak
tampaknya
tampaksiring
tampan
tampang
tamped
tampekan
tampelan
tampi
tampih
tampil
tampo
tampojung
tampuagan
tamtam
tamu
tamulilingan
tan
tana
tanah
tanahe
tanahku
tanak
tanakung
tanam
tanaman
tancebin
tanda
tandang
tandes
tandikek
tanding
tanduk
tandukne
tandung
tanekan
tanema
tanete
tang
tangah
tangan
tanganin
tangar
tangen
tangerang
tangga
tanggahan
tanggal
tanggamus
tanggeran
tanggu
tanggul
tanggulangin
tanggulun
tanggun
tanggung
tanggungan
tanggungharjo
tangguntiti
tangguwisia
tangi
tangis
tangkah
tangkahne
tangkas
tangkeban
tangkejut
tangki
tangkid
tangkih
tangkil
tangkiling
tangkis
tangkisan
tangkuban
tangkup
tanglad
tangluk
tangnga
tango
tangsi
tangsub
tani
tanimbar
taniran
taniyeng
tanjakan
tanjek
tanjidor
tanjong
tanjuang
tanjung
tanjungan
tanjunganom
tanjungbalai
tanjungharjo
tanjungjaya
tanjungkerta
tanjungmekar
tanjungpinang
tanjungpura
tanjungrasa
tanjungrejo
tanjungsari
tanjungwangi
tank
tano
tanon
tanpa
tantalum
tantangan
tantra
tantri
tantu
tantular
tanu
tanya
tanzania
tao
taopa
tapa
tapak
tapal
tapan
tapang
tapango
tapanuli
tape
tapel
tapen
tapi
tapin
tapir
tapis
tapos
tapua
tapuk
tapus
tara
tarakan
tarantang
taratak
taratara
target
tari
tarian
tarik
tarikolot
taris
tarn
taro
tarogong
tarok
tarokan
tarowang
taru
taruan
taruang
tarub
tarukan
tarum
taruna
tarune
tarung
tarusan
tas
tasak
tasi
tasifeto
tasih
tasik
tasikmadu
tasikmalaya
tat
tata
tataan
tatacara
tatag
tatah
tatakan
tatang
tatar
tatas
tatasan
tatebasan
tatebus
tateli
tatelu
tatiga
tatindakan
tatit
tatkala
tatra
tatras
tattwa
tatu
tatujon
tatujone
tatwa
tau
taufiq
taught
tauka
taulan
tauman
taun
tawa
tawah
tawalian
tawan
tawang
tawanga
tawangharjo
tawangrejo
tawangsari
tawar
tawara
tawur
taya
tayan
tayang
taylor
tb
tbo
tbs
td
te
tea
teaching
team
teater
teau
teba
tebal
tebas
tebe
tebek
tebel
teben
tebet
tebing
tebo
tebola
tebu
tebuana
tebul
tech
technical
technology
teda
tedong
tedun
tedunan
tedung
teeb
teen
teep
tegak
tegakan
tegakin
tegakina
tegal
tegalampel
tegalan
tegalarum
tegalasah
tegaldlimo
tegaldowo
tegale
tegalharjo
tegalinggah
tegaljadi
tegallalang
tegallantang
tegallega
tegallinggah
tegalne
tegalombo
tegalrejo
tegalsari
tegalsuci
tegalwangi
tegalwaru
tegarang
tegayang
tegeh
tegeha
tegehan
tegehe
tegehne
tegehnyane
tegenan
tegenungan
tegep
teges
tegesipun
tegesne
tegesnyane
tegil
tegineneng
tegowanu
tegteg
teguh
tegul
tegula
teh
teja
tejakula
teka
tekan
tekanan
tekaning
teke
teked
tekek
teken
teknik
teknis
teknologi
tekor
tekore
teks
tektonik
telabah
telabahe
teladan
teladas
telaga
telagane
telah
telang
telapakan
telas
teleb
teleng
telengis
teleostei
televisi
television
tell
tells
tellu
tellue
telu
telugu
teluk
telulas
telun
telung
tema
temacun
temaga
temako
teman
temanggung
temas
temayang
tembaga
tembalang
tembang
tembarak
tembau
tembawang
tembelang
tembok
temboke
tembokrejo
tembuku
tembung
teme
temen
temenggungan
temesi
temiang
temisi
temon
tempat
tempe
tempeh
tempek
tempel
templat
template
templates
templatestyles
temple
tempo
tempuh
tempunak
tempur
tempuran
tempurejo
tempursari
temu
temuai
temuan
temuireng
temukan
temuku
temukus
temurejo
ten
tena
tenaga
tenang
tenbenda
tenda
tendangan
tendas
tendasne
tenga
tengah
tengahan
tengahin
tengahing
tengahne
tengahnyane
tengai
tengan
tenganan
tengaran
tengen
tenget
tenggara
tenggarang
tenggarong
tengger
tenggilis
tenggulun
tengkejut
tengku
tengkudak
tengkulak
tengkulake
tengnga
tenilo
tenis
tenjolaya
tentang
tentara
tenten
tentoonstelling
tentoonstellings
tenun
tenung
teologi
teori
tepas
tepat
tepercaya
tepet
tepi
tepian
tepuk
tepukin
tepukina
tepukine
tepung
tepus
ter
tera
teragia
terakhir
terang
terantang
terap
teras
teratas
terate
terbaik
terban
terbang
terbanggi
terbanyak
terbaru
terbatas
terbesar
terbit
terbuka
terdahulu
terdapat
terdiri
terelj
terentang
terhadap
terigu
terik
terima
tering
teriring
terj
terjadi
terjemahan
terjun
terkait
terkena
terkenal
terlalu
terletak
terlibat
term
termasuk
terminal
ternak
ternate
ternyata
terong
terpilih
territoire
terry
tersebut
tersedia
tersier
tertarik
tertentu
tertinggi
terumbu
teruna
terunyan
terus
terusan
tes
tesla
tesso
test
tetabuhan
tetadahan
tetamanan
tetamian
tetandingan
tetanduran
tetaneman
tetani
tetanine
tetap
tetapi
tetedan
tetelu
tetemon
tetep
tetewatu
tetiga
tetilikan
tetiron
tetuek
tetujon
tetujonne
tetujonnyane
tetum
tetun
teuku
teungoh
tewang
texas
texhtml
text
th
tha
thai
thailand
than
thank
thanks
that
thatcher
the
their
them
then
theodore
there
these
thesis
they
thimphu
things
think
thiopia
third
this
thomas
thompson
thorium
those
thought
thousand
three
through
thumb
thunberg
ti
tia
tiada
tiang
tiange
tianyar
tiap
tiapi
tiba
tibah
tiban
tibanan
tibe
tibet
tibu
tibubeneng
tibubiu
tibulaka
tibung
tica
tico
tidak
tidong
tidore
tidung
tien
tif
tiga
tigang
tigaron
tigawasa
tiger
tigers
tigi
tigo
tigris
tihingan
tiing
tiinge
tijdens
tijdschrift
tik
tika
tikala
tike
tikeh
tiket
tiku
tileh
tilem
till
tim
timah
timbal
timbang
timbau
timber
timbrah
timbul
time
times
timnas
timologi
timor
timpag
timpal
timpalne
timpalnyane
timu
timuhun
timun
timur
tin
tina
tinambung
tinangkung
tindak
tindakan
tindih
tinelo
ting
tinga
tingal
tingalin
tingalina
tingang
tinggal
tinggar
tinggen
tinggi
tinggiran
tingha
tingkah
tingkat
tingkatan
tingkes
tingkese
tingkih
tingkir
tinjauan
tinombala
tinombo
tionghoa
tiongkok
tios
tiosan
tipar
tipat
tipe
tipis
tir
tira
tiram
tiranosaurus
tirawuta
tireman
tiri
tiro
tiron
tirta
tirtagangga
tirtasari
tirtayasa
tirtha
tirto
tirtomoyo
tiru
tis
tisna
tista
titab
titah
titan
titanic
titanium
titi
titian
titiang
titiange
titih
titik
titine
titiran
title
tityang
tiuh
tiuk
tiuke
tiwah
tiwas
tiwase
tiworo
tiwu
tiying
tiyingan
tiyinge
tiyinggading
tiyingtali
tiyuh
tj
tjai
tjakepan
tjokorda
tk
tka
tkj
tkr
tlabahe
tlaga
tlagah
tlagane
tlogo
tlogoagung
tlogomulyo
tlogorejo
tlogosari
tlogowungu
tm
tmbox
tmnr
tn
tnam
tnan
tni
tnis
to
toa
toad
toari
toba
tobimeita
toboali
toboh
toc
tochigi
todanan
today
toeara
toer
toesing
toggle
togo
togog
toh
tohdiri
tohoku
tohpati
toili
tojan
tojo
tok
toke
toko
tokoh
tokushima
tokyo
tol
tolai
told
tole
toli
tolih
tolikara
tolinggula
tolitoli
tolo
tolok
tom
tomat
tombak
tombang
tombatu
tombolo
tomini
tomlinson
tomo
tomohon
tomoni
tompaso
tompo
tompobulu
ton
tonasa
tondano
tonde
tondegesan
tonden
tondo
tondok
tondon
tondong
tondowatu
tong
tonga
tongauna
tonggak
tonggoh
tongke
tongko
tongkonan
tongos
tongose
tongosin
tongosne
tonja
tonjong
tonrokassi
tonta
tonya
too
took
tools
tooltip
toot
top
tope
topeng
topik
topografi
topograpi
toraja
torang
toribulu
torii
toris
toronto
torre
torres
tortoise
torue
tos
tosari
tosning
tosuraya
tot
total
toto
totonan
tottenham
tottori
tou
touch
tounelet
tour
tourism
tourist
tours
tous
tower
town
toy
toya
toyama
toyan
toyane
toyota
tr
tra
trade
tradisi
tradisional
traditional
tragah
tragedi
trah
trailer
tramp
tranganan
trans
transfer
transisi
translated
translation
transliterasi
transmigrasi
transparent
transportasi
transuranik
trap
travel
trawangan
tre
treasure
tree
trees
trenggalek
trepti
tresna
tresnan
tresnane
tri
triatma
tribuana
tribun
tribune
tridaya
tridhatu
trie
trigger
triharjo
trikora
trima
trimulyo
trimurti
trio
trip
trisakti
trisula
trisum
tritunggal
triwangsa
triwarna
tro
trofeo
trofi
tron
tropenmuseum
tropical
tropika
tropis
tropole
tropolitan
troso
trouble
trowulan
trucuk
trudeau
true
truk
truly
truna
trunane
trung
truni
trunyan
trust
try
ts
tse
tser
tsunami
tta
tteok
tteokbokki
ttha
ttu
tu
tua
tuah
tuak
tuakilang
tual
tuan
tuanya
tuara
tuba
tuban
tubo
tubu
tubuh
tubun
tuduh
tugas
tugel
tugelan
tugu
tugurejo
tuh
tuha
tuhan
tuhu
tuhup
tuju
tujuan
tujuh
tuk
tuka
tukad
tukadaya
tukade
tukadmungga
tukang
tuladenggi
tulak
tulakan
tulamben
tulang
tulangne
tule
tulikup
tulis
tulisan
tulung
tulungagung
tulungan
tulungin
tulungrejo
tulup
tulus
tulusrejo
tum
tuma
tumane
tumbak
tumbal
tumbang
tumbe
tumben
tumbu
tumbuh
tumbuhan
tumenggung
tumenggungan
tumisi
tumpaan
tumpah
tumpang
tumpek
tumpeng
tumpenge
tumpuk
tumpukan
tumpung
tumu
tumuli
tumuwuh
tuna
tunangan
tunas
tunasang
tundak
tunde
tunden
tundena
tundene
tundra
tundu
tundun
tundune
tundung
tung
tunggak
tunggal
tunggang
tunggil
tunggu
tungguh
tungguhan
tunggul
tunggulrejo
tunggulsari
tungkal
tungkaran
tungked
tungkede
tungkedne
tungku
tungu
tuni
tunian
tunisia
tunjuk
tunjukkanlah
tunjung
tunjungan
tunjunge
tunon
tuntang
tuntung
tunu
tuo
tupabbiring
tur
turatea
turi
turin
turing
turirejo
turis
turki
turmaning
turn
turname
turnamen
turu
turun
turunan
turus
turut
tusan
tusing
tusuk
tuttle
tutu
tutug
tutul
tutup
tutur
tuturan
tuturang
tuturanga
tutuyan
tuu
tuuk
tuun
tuunan
tuunanga
tuung
tuvalu
tuwa
tuwed
tuwun
tuwung
tuyuh
tv
tvn
tvri
twelve
twentieth
twenty
twice
twin
twitter
two
tyang
type
typeof
types
u
uahin
uap
uar
ub
ubad
ubah
uban
uber
ubi
ubu
ubud
ubuh
ubuhan
ubuhin
ubung
uc
ucap
ucapan
ucapannyane
ucb
ucoc
ud
udang
udara
udayana
udeng
udhang
udik
uduh
ue
uefa
uek
uganda
uge
uger
ugi
ugly
ugm
uh
ui
uighur
uitgegeven
ujan
ujanan
ujane
uji
ujong
ujung
ujungberung
uk
uka
ukana
uki
ukir
ukiran
ukraina
ukud
ukudan
ukuran
ukurannyane
ul
ula
ulak
ulakan
ulam
ulama
ulame
ulan
ulang
ulangun
ulap
ulapan
ulaq
ular
ularan
ulasan
ulatan
ulaweng
uled
ulede
ulee
ulet
uli
ulian
ulihan
ulik
ulin
uling
ulos
ultra
ulu
ulujami
uluk
ulum
ulun
ulung
ulunsuwi
ulusalu
uluwatu
um
uma
umah
umahanyar
umahe
umahne
umalas
umane
umanis
umanyar
umapoh
umaq
umar
umasari
umat
umbi
umbian
umbu
umbul
umbulharjo
umbulrejo
umbulsari
umeanyar
umejero
umpami
umpaminipun
umpan
umpu
umum
umumnya
umung
umur
un
una
unaaha
unabridged
uncle
uncredited
und
unda
undaan
undag
undagan
undagi
undang
undangan
under
underflow
undiksha
undis
undisan
unduk
unduke
undukne
unep
uner
unesco
ungaran
ungasan
unggahan
unggas
unggul
unggulan
ungkabanga
ungkur
ungu
uni
unicef
unicode
unik
unikameral
uning
uningin
uningina
union
unit
united
unive
universal
universe
universita
universitas
universite
universiteit
universities
university
unseen
unsur
untal
untat
unteng
unti
until
untu
untuk
untung
unud
unusual
up
upa
upacara
upah
upahina
upakara
upami
upas
upaya
update
updated
upe
upin
upload
upon
upright
upt
ur
urab
urang
uranium
uranus
urap
urasia
urati
uratian
urbaine
urban
urdu
uri
urip
uriping
uripnyane
urirang
url
uropium
uru
uruguay
urungan
urusan
urutan
us
usa
usaba
usada
usadha
usage
usaha
usak
usan
usana
usap
usapin
use
used
user
users
uses
usgs
usia
using
uskup
uss
usually
usul
usulan
usus
ut
utah
utama
utamane
utamaniu
utamannyane
utamanya
utamanyane
utami
utaminnyane
utan
utang
utara
utarakab
utawi
utc
util
utm
utrecht
utron
utsaha
utu
utuh
utusan
utworzenia
uu
uug
uwug
uyah
uyak
uyang
uye
uyuni
uyut
uzbe
v
va
vacante
vada
val
valencia
valley
value
van
vanadium
vancouver
vanili
vanuatu
var
varian
variant
variasi
varietas
various
vatnajo
vchang
ve
vector
veda
vedas
vedic
vegas
vegetasi
velutina
venezuela
venus
verde
verheij
verlag
vernacular
versi
version
vertical
very
vespa
veteran
vi
via
vickers
victor
victoria
victory
vide
video
videos
vidheo
vie
vienna
vietnam
vieux
view
vii
viii
viiib
vijfde
vikariat
vikram
vila
villa
villach
village
villers
vince
vincent
vinci
virgin
virginia
virtual
virus
visi
visible
visit
visited
visual
visualeditor
vitamin
viva
vladimir
vo
voc
vocal
vocalis
voetbal
voice
void
voivodeship
vokal
vokalis
vol
volcanism
volcano
volga
volkenkunde
volume
volumes
volusi
vom
von
voor
voordrachten
vora
vote
voted
voters
voting
voyage
vre
vs
vu
vulkanik
w
wa
wabah
wabula
wacana
wacanan
wace
wacen
wacik
wacky
wacu
wadah
wadahina
wadak
wadas
wadaslintang
wadden
wadian
wadon
wadua
waduk
wadung
wae
wagati
wage
waged
wagi
wagian
wah
waha
wahana
wahananya
wahid
wahyu
wai
waisak
wait
waja
wajah
wajak
wajar
wajib
wajik
wajo
waka
wakan
wakatobi
wake
wakene
wakil
wakorumba
waktu
wala
walanda
walaupun
wale
walenrang
wales
wali
waliang
walie
walikota
walker
wall
wallace
walt
walter
waluh
waluhe
waluya
waluyo
wan
wana
wanagari
wanagiri
wanajaya
wanakerta
wanara
wanareja
wanasaba
wanasalam
wanasara
wanasari
wanayasa
wanayu
wanda
wandering
wandoka
wane
wanen
wanengpati
wang
wanga
wangaya
wangchuck
wangde
wangga
wanggudu
wangi
wangka
wangkas
wangkung
wangon
wangsa
wangsean
wangun
wangunan
wangunjaya
wangunrejo
wangunsari
wangurer
wani
wanita
wano
want
wantah
wantara
wante
wanted
wanten
wanti
wantilan
wantuan
wanua
war
wara
warah
waraha
warak
waranugraha
waras
waray
wareg
warga
wargasari
wargi
wariga
warih
waringin
waringinkurung
waris
warisan
warmade
warmadewa
warn
warna
warnan
warnane
warnaning
warnannyane
warnanyane
warnasari
warni
warnin
warning
warope
warsa
warsane
warta
wartawan
waru
warudoyong
warugunung
warung
warungpring
was
wasa
washington
wasit
waspada
wasta
wastan
wastane
wastanipun
wastanne
wastannyane
wastra
wastu
wat
wata
watampone
watan
watang
watch
watchlist
wate
watek
water
waterfall
wates
wati
watorumbe
watson
watt
watu
watuagung
watuan
watubangga
watugede
watugunung
watukebo
watukumpul
waturenggong
wau
wawaran
wawasan
wawengkon
wawidangan
wawo
wawonii
waworaha
wawu
way
wayabya
wayah
wayahan
wayahang
wayan
wayang
wcmc
we
wea
weather
web
webelements
weber
webkit
website
webster
wecanan
weda
wedi
wedoro
wee
week
weekly
weh
wei
weight
wejangan
welahan
welai
welak
welanda
welandane
welas
welcome
well
wenang
wenara
wendewa
wenengpati
wengi
wengine
wente
wenten
wentuk
wentukne
wentuknyane
wera
werdhi
werdi
were
weri
weru
weruh
wesana
wesi
west
western
westphalia
wetan
weteng
wetenschappelijke
wetu
wewangsalan
wewangunan
wewaran
wewehan
wewenang
wewengkon
wewewa
wewidangan
wewidangane
wewidanganne
whale
what
whatsapp
when
where
which
while
white
who
whois
wi
wia
wiadin
wiakti
wianjana
wiau
wib
wibawa
wicaksana
wicara
widang
widara
widhi
widhiwasa
widi
widiadari
widine
widodaren
widodo
widoro
width
widya
widyadari
wie
wien
wiener
wife
wiguna
wih
wija
wijasantun
wijaya
wiji
wikan
wiki
wikidata
wikilontar
wikimania
wikime
wikimedia
wikimedian
wikiminiatlas
wikinusantara
wikipe
wikipedia
wikipediabali
wikipustaka
wikisanganan
wikisource
wikitable
wikrama
wiktionary
wiku
wilangan
wilayah
wild
wilderness
wildlife
wiley
wilhelm
will
willem
william
williams
wilson
wimbakara
win
wina
winangun
winarno
windha
windhu
window
windu
windusari
wine
wing
wingsata
winner
winners
winong
wins
winston
winter
wioi
wira
wirabuana
wiracarita
wiralaga
wirama
wiranata
wirang
wirasa
wirasana
wirawan
wirayuda
wire
wireh
wiring
wirobrajan
wirogunan
wirosari
wirun
wirya
wiryadana
wis
wisada
wisata
wisatawan
wisatawanne
wise
wisma
wisnu
wit
wita
witch
with
within
without
witnyane
wiwaha
wiwitan
wiyat
wiyung
wlahar
wlingi
wmf
wmid
wnaŋ
woh
wohan
wol
wolas
wolasi
wolf
wolfgang
wolfram
wolin
wolio
wolo
woloan
wologai
wolomeze
wolowa
wolowea
wolters
wolwal
woman
women
won
wondama
wonder
wonderland
wong
wongaya
wonggeduku
wongsorejo
wono
wonoasih
wonoasri
wonoayu
wonoboyo
wonocolo
wonodadi
wonogiri
wonoharjo
wonokarto
wonokerso
wonokerto
wonokoyo
wonokromo
wonokusumo
wonomulyo
wonorejo
wonoroto
wonosalam
wonosari
wonosegoro
wonosobo
wonotirto
wonoyoso
wonua
woo
wood
woodland
woodpecker
woods
woody
wook
woon
wor
word
words
work
worked
working
works
workshop
world
woro
wortel
wos
wotan
would
woŋ
wpb
wr
wrangell
wrap
wraspati
wre
wreck
wrespati
wreta
wringin
wringinanom
wringinpitu
write
writer
writers
writing
written
wruh
wu
wua
wudi
wujud
wukirsari
wuku
wulan
wulu
wulung
wungsu
wunut
wuruk
wus
wusan
wuwuh
wuwuk
wwa
wwf
www
wyanjana
wyoming
x
xas
xaverius
xe
xi
xii
xiii
xix
xv
xvi
xx
y
ya
yadiapin
yadiastun
yadin
yadnya
yahudi
yahukimo
yai
yaitu
yajnya
yakni
yakti
yale
yalimo
yama
yamagata
yamaguchi
yaman
yamanashi
yamin
yamko
yan
yang
yangapi
yangbatu
yangmingshan
yani
yaning
yapen
yasa
yash
yasuni
yasushi
yatim
yatra
yayasan
yaŋ
ye
year
years
yeh
yehe
yehne
yellow
yellowstone
yen
yening
yeo
yeom
yeon
yeong
yes
yesus
yet
yi
yo
yoga
yogi
yogya
yogyakarta
yohanes
yokohama
yong
yoni
yonsei
yoo
yoon
yordania
york
yos
yosemite
yoseph
yosorejo
yosowilangun
you
young
your
youtube
yowana
yu
yuda
yudane
yudha
yudhoyono
yudistira
yuga
yugoslavia
yukon
yukti
yulianto
yun
yunani
yunnan
yusa
yusan
yusuf
yuta
yuyu
yuyune
yya
z
zainal
zakaria
zaman
zambia
zamora
zanzibar
zat
zayn
ze
zealand
zee
zelfbestuur
ziarah
zijn
zimbabwe
zingiber
zingiberaceae
zinta
zirkonium
zoetmulder
zona
zone
zoo
zoological
zoom
zu
{
|
}
~
¢
£
§
ª
«
­
°
±
²
³
µ
·
º
»
½
×
ß
æ
ħ
ŋ
ɓ
ɹ
ɻ
ʻ
ʼ
ʾ
ʿ
ˈ
ˌ
ː
˩
̀
́
̂
̃
̄
̆
̇
̈
̉
̊
̋
̌
̍
̐
̓
̔
̛
̣
̥
̦
̧
̨
̪
̱
͂
ͳ
α
β
γ
δ
ε
ι
μ
ν
ο
ρ
ς
τ
υ
ϩ
в
з
р
с
у
я
ֶ
ַ
ָ
ּ
ׂ
ב
ה
ם
נ
פ
ק
ש
ا
اچيه
ب
ر
ك
ل
م
ن
و
ي
َ
ُ
ِ
ْ
ٓ
ڠ
ހ
ށ
ނ
ރ
ބ
ޅ
ކ
އ
ވ
މ
ފ
ޑ
ޕ
ަ
ާ
ި
ީ
ު
ެ
ޭ
ް
߬
ं
इ
ऋ
क
ग
घ
ज
ड
ण
त
द
न
प
फ
म
य
र
ल
व
श
ष
स
़
ा
ि
ी
ु
ृ
े
ो
्
ॐ
ং
ড
দ
ব
ম
য
ল
শ
়
া
ি
ে
্
ੀ
ા
િ
ી
ି
க
ச
ட
ம
ர
வ
ா
ி
ு
ை
்
ಿ
ക
ി
്
ල
ා
จ
ว
ห
ั
ิ
ี
ุ
ู
็
่
้
์
་
ག
ང
མ
ཡ
ར
ལ
ས
ི
ུ
ེ
ོ
ྒ
ྱ
ྲ
ླ
မ
ာ
်
ី
ᨅ
ᨑ
ᨔ
ᨗ
ᨚ
ᬂ
ᬃ
ᬄ
ᬅ
ᬅᬕ
ᬅᬘ
ᬅᬚ
ᬅᬜ
ᬅᬦ
ᬅᬦᬓ
ᬅᬩ
ᬅᬫ
ᬅᬭ
ᬅᬮ
ᬅᬮᬲ
ᬅᬯ
ᬅᬲ
ᬅᬳ
ᬇ
ᬇᬤ
ᬇᬦ
ᬇᬩ
ᬇᬮ
ᬉ
ᬉᬢᬭ
ᬉᬦ
ᬉᬮ
ᬋ
ᬋᬚ
ᬋᬦ
ᬋᬳ
ᬍ
ᬏᬦ
ᬏᬫ
ᬑ
ᬑᬳ
ᬓ
ᬓᬓ
ᬓᬚ
ᬓᬚᬬ
ᬓᬢ
ᬓᬤ
ᬓᬦ
ᬓᬧ
ᬓᬩ
ᬓᬫ
ᬓᬫᬚ
ᬓᬬ
ᬓᬭ
ᬓᬭᬗ
ᬓᬭᬗᬜ
ᬓᬭᬗᬲ
ᬓᬮ
ᬓᬮᬦ
ᬓᬯ
ᬓᬲ
ᬓᬳ
ᬔ
ᬕ
ᬕᬤ
ᬕᬦ
ᬕᬫ
ᬕᬬᬫ
ᬕᬭ
ᬕᬭᬦ
ᬕᬮ
ᬕᬯ
ᬕᬲ
ᬖ
ᬗ
ᬗᬤ
ᬗᬦ
ᬗᬫ
ᬗᬮ
ᬗᬯ
ᬗᬲ
ᬘ
ᬘᬓ
ᬘᬢ
ᬘᬦ
ᬘᬫ
ᬘᬭ
ᬙ
ᬚ
ᬚᬓ
ᬚᬕᬢ
ᬚᬚ
ᬚᬢ
ᬚᬦ
ᬚᬩ
ᬚᬫ
ᬚᬬ
ᬚᬬᬧᬗ
ᬚᬯ
ᬛ
ᬜ
ᬝ
ᬟ
ᬢ
ᬢᬍ
ᬢᬓ
ᬢᬕ
ᬢᬗ
ᬢᬚ
ᬢᬜ
ᬢᬢ
ᬢᬤ
ᬢᬦ
ᬢᬧ
ᬢᬧᬦ
ᬢᬩ
ᬢᬫ
ᬢᬫᬦ
ᬢᬬ
ᬢᬭ
ᬢᬮ
ᬢᬯ
ᬢᬲ
ᬢᬳ
ᬤ
ᬤᬓ
ᬤᬗ
ᬤᬗᬦ
ᬤᬚ
ᬤᬤ
ᬤᬦ
ᬤᬫ
ᬤᬬ
ᬤᬭ
ᬤᬮ
ᬤᬯ
ᬤᬲ
ᬤᬳ
ᬦ
ᬦᬓ
ᬦᬕ
ᬦᬕᬭ
ᬦᬗ
ᬦᬢ
ᬦᬦ
ᬦᬫ
ᬦᬮ
ᬦᬯ
ᬦᬲ
ᬦᬳ
ᬧ
ᬧᬓ
ᬧᬕ
ᬧᬗ
ᬧᬘ
ᬧᬚ
ᬧᬜ
ᬧᬢ
ᬧᬤ
ᬧᬦ
ᬧᬧ
ᬧᬧᬦ
ᬧᬩ
ᬧᬫ
ᬧᬬ
ᬧᬭ
ᬧᬮ
ᬧᬮᬲ
ᬧᬯ
ᬧᬲ
ᬧᬳ
ᬨ
ᬩ
ᬩᬋ
ᬩᬓ
ᬩᬕ
ᬩᬗ
ᬩᬗᬦ
ᬩᬘ
ᬩᬚ
ᬩᬜ
ᬩᬢ
ᬩᬤ
ᬩᬤᬓ
ᬩᬦ
ᬩᬩ
ᬩᬩᬓᬦ
ᬩᬫ
ᬩᬬ
ᬩᬬᬦ
ᬩᬭ
ᬩᬭᬢ
ᬩᬮ
ᬩᬯ
ᬩᬲ
ᬩᬳ
ᬪ
ᬫ
ᬫᬓ
ᬫᬕ
ᬫᬗ
ᬫᬗᬦ
ᬫᬚ
ᬫᬜ
ᬫᬢ
ᬫᬤ
ᬫᬦ
ᬫᬧ
ᬫᬫ
ᬫᬬ
ᬫᬭ
ᬫᬮ
ᬫᬯ
ᬫᬲ
ᬫᬳ
ᬬ
ᬬᬢ
ᬬᬦ
ᬬᬦᬓ
ᬬᬫ
ᬬᬫᬦ
ᬬᬮ
ᬬᬯ
ᬬᬲ
ᬭ
ᬭᬓ
ᬭᬕ
ᬭᬗ
ᬭᬚ
ᬭᬜ
ᬭᬢ
ᬭᬢᬦ
ᬭᬤ
ᬭᬦ
ᬭᬧ
ᬭᬩ
ᬭᬫ
ᬭᬫᬢ
ᬭᬬ
ᬭᬭ
ᬭᬮ
ᬭᬯ
ᬭᬲ
ᬭᬳ
ᬭᬳᬦ
ᬮ
ᬮᬓ
ᬮᬕ
ᬮᬗ
ᬮᬗᬦ
ᬮᬢ
ᬮᬢᬦ
ᬮᬤ
ᬮᬦ
ᬮᬧ
ᬮᬩ
ᬮᬫ
ᬮᬬ
ᬮᬭ
ᬮᬭᬗᬦ
ᬮᬭᬦ
ᬮᬮ
ᬮᬯ
ᬮᬲ
ᬮᬳ
ᬯ
ᬯᬓ
ᬯᬕ
ᬯᬗ
ᬯᬢ
ᬯᬤ
ᬯᬦ
ᬯᬬ
ᬯᬭ
ᬯᬭᬦ
ᬯᬮ
ᬯᬯ
ᬯᬲ
ᬯᬳ
ᬰ
ᬲ
ᬲᬓ
ᬲᬗ
ᬲᬢ
ᬲᬤ
ᬲᬦ
ᬲᬧ
ᬲᬩ
ᬲᬫ
ᬲᬭ
ᬲᬮ
ᬲᬮᬫ
ᬲᬯ
ᬲᬯᬳᬦ
ᬲᬲ
ᬳ
ᬳᬤ
ᬳᬦ
ᬳᬫ
ᬳᬭ
ᬳᬭᬧᬦ
ᬳᬮ
᬴
ᬵ
ᬶ
ᬷ
ᬸ
ᬹ
ᬺ
ᬾ
ᬿ
ᭂ
᭄
᭑
᭒
᭒᭐
᭓
᭔
᭕
᭗
᭙
᭜
᭝
᭞
᭟
ᵒ
​
‌
‍
‎
‐
–
—
―
‘
’
“
”
„
†
•
…
‰
′
″
€
℃
™
→
↔
↷
∅
−
≤
③
④
⑦
☕
♂
♆
ⲁ
ⲓ
ⲙ
ⲛ
ⲟ
ⲣ
ⲫ
⺀
⺄
⺆
⺈
⺊
⺌
⺕
⺝
⺸
⺼
⿰
⿱
⿲
⿳
⿴
⿵
⿶
⿷
⿸
⿹
⿺
⿻
〢
う
か
く
こ
そ
た
っ
の
は
へ
ま
よ
る
ん
゙
゚
ア
ィ
ウ
エ
キ
コ
シ
テ
ト
ノ
ハ
フ
ヘ
マ
メ
モ
ャ
ユ
ル
ワ
ン
・
ー
㇁
㇂
㇄
㇇
㇈
㇉
㇓
㐁
㐄
㐅
㐌
㐫
㐬
㐭
㐮
㐱
㑒
㒵
㒸
㒼
㓁
㓞
㔾
㕛
㕣
㖾
㘝
㚅
㚇
㚔
㚘
㝉
㝡
㝴
㝵
㞋
㞢
㞷
㠩
㠭
㠯
㡀
㡭
㡿
㢲
㢴
㣇
㣺
㥯
㪅
㫄
㫐
㫒
㫺
㬅
㬎
㬥
㬰
㲋
㳄
㷠
㸒
㸚
㸦
㼌
㼲
㽞
㿟
䀠
䂞
䍃
䏍
䒑
䖍
䖒
䖝
䖵
䙴
䚻
䜌
䝿
䡛
䧹
䪞
一
丁
丂
七
丄
丅
丆
万
丈
三
上
下
丌
不
与
丏
丐
丑
专
且
丕
世
丘
丙
业
东
丞
丢
丣
两
严
並
丨
丩
个
丫
丬
中
丮
丰
丱
串
丵
丶
丷
丸
丹
为
主
丽
丿
乀
乂
乃
久
乆
乇
么
义
之
乌
乍
乎
乏
乐
乑
乔
乖
乗
乘
乙
乚
乛
乜
九
乞
也
习
乡
乳
乾
亀
亅
了
亇
予
争
事
二
亍
于
亏
亐
云
互
亓
五
井
亘
亚
亜
亞
亟
亠
亡
亢
交
亥
亦
产
亨
亩
享
京
亭
亮
亯
亰
亲
亳
亶
亷
人
亻
亼
亾
仁
今
介
仌
从
仐
仑
仒
仓
仕
他
付
仝
代
令
以
任
企
伊
伏
伐
休
会
伯
但
位
何
佘
余
作
佥
使
來
侈
侌
侖
侯
侵
便
保
俞
信
修
倉
倍
候
倠
健
備
僉
像
僕
儿
兀
允
兂
元
兄
充
兆
兇
先
光
兊
克
兌
免
兑
兒
兓
兔
党
兜
兟
入
內
全
兩
兪
八
公
六
兮
兰
共
关
兵
其
具
典
兹
兼
冀
冂
冃
冄
内
冈
冉
冊
冋
册
再
冎
冏
冐
冒
冓
冖
冗
冘
军
农
冝
冡
冥
冫
冬
冷
几
凡
凢
凵
凶
凷
凸
凹
出
函
凾
刀
刁
刂
刃
刄
刅
分
切
刍
刑
刕
刖
列
刘
则
初
別
利
别
到
制
刺
則
削
剌
前
剡
剽
劉
力
功
加
劦
助
劫
劳
劵
勃
勇
勉
勒
動
務
勞
勤
勹
勺
勻
勾
勿
匀
匂
包
匆
匈
匊
匋
匍
匕
化
北
匚
匝
匡
匪
匱
匸
匹
区
医
匽
匿
區
十
卂
千
卄
卅
卆
升
午
卉
半
卌
华
卑
卒
卓
单
卖
南
博
卜
卝
卞
占
卡
卢
卣
卤
卦
卩
卪
卬
卯
印
危
即
却
卵
卷
卸
卻
厂
厃
厄
历
厈
厉
厌
厓
厘
厚
原
厤
厥
厨
厭
厲
厶
厷
厸
去
厼
厽
叀
参
參
叅
又
叉
及
友
双
反
叐
发
叒
叔
叕
取
受
叚
叜
叟
口
古
句
另
叩
只
召
可
台
叱
史
右
叵
号
司
叹
吂
各
吅
合
吉
吊
吋
同
名
后
吏
向
吕
君
吝
吞
否
含
启
吳
吴
吹
吾
呂
呆
呈
告
员
呙
周
命
咅
和
咎
咠
咢
咨
咸
咼
哀
品
哉
員
哥
哲
唐
商
啇
問
啚
啬
啻
善
喜
喬
單
喿
嗇
嘉
噩
嚴
囊
囗
囘
囙
囚
四
回
囟
因
囧
囬
困
囱
囷
固
国
圂
圅
國
圍
園
圓
土
圡
圣
圥
在
圭
地
圶
圼
坐
坒
坚
坴
垂
垔
垚
埀
埋
埶
執
基
堂
堅
堆
堇
堯
塞
墨
壘
士
壬
壯
声
壳
壴
壹
壺
壽
夂
处
夅
夆
备
夊
夋
夌
复
夏
夒
夕
外
夗
夘
多
夜
夢
大
夨
天
太
夫
夬
夭
央
失
夲
头
夷
夸
夹
夻
夾
奂
奄
奇
奈
奉
奎
奏
奐
契
奓
奔
奚
奞
奠
奢
奥
奭
女
奴
奻
好
如
妄
妙
妟
妥
妻
妾
姑
委
姜
威
娄
婁
婴
嬰
嬴
子
孑
孔
孕
孖
字
存
孚
孛
孝
孟
季
孤
学
孫
孱
學
宀
宁
宂
它
宅
宇
守
安
宋
完
宏
宓
宗
官
定
宛
宜
宝
客
宣
室
宮
宰
害
家
容
宾
宿
寄
寅
密
富
寒
察
寧
審
寫
寬
寮
寸
对
寺
寻
寽
対
寿
封
尃
射
将
將
專
尉
尊
尋
尌
對
小
少
尒
尓
尔
尖
尗
尚
尞
尢
尣
尤
尧
尨
尭
就
尸
尹
尺
尻
尼
尽
尾
尿
局
居
屈
屋
屎
屏
屑
展
屖
屚
属
屠
屡
屬
屮
屯
屰
山
屵
屾
岁
岂
岑
岡
岩
岳
岸
峯
島
崇
崎
崑
崔
崖
崙
崩
嵬
嶲
巂
巛
川
州
巟
巠
巢
巤
工
左
巧
巨
巩
巫
差
己
已
巳
巴
巷
巸
巽
巾
巿
帀
市
布
希
帚
帛
帝
带
師
席
帶
常
干
平
年
幵
并
幷
幸
幺
幻
幼
幽
幾
广
広
庄
床
底
店
庚
府
度
庫
庭
庶
康
庸
廉
廌
廛
廣
廩
廴
延
廷
建
廾
廿
开
弁
弃
弄
弇
弋
式
弓
弔
引
弗
弘
弜
弟
弥
弦
弱
張
強
强
彊
彌
彎
彐
彑
当
彔
录
彖
彗
彡
形
彥
彦
彧
彭
彳
役
彼
往
征
待
律
徐
徒
得
徙
從
復
微
徵
心
忄
必
忌
忍
志
忝
忠
忩
快
念
忽
忿
思
怠
急
怱
恆
恒
恩
恭
息
悉
患
悤
悲
悶
惠
惡
惢
愁
愈
意
愛
感
慈
慧
慮
慶
憂
憲
應
戀
戈
戉
戊
戋
戌
戍
戎
成
我
戒
戔
或
戚
戠
戢
截
戲
戶
户
戸
戹
戼
戾
房
所
扁
扇
手
扌
才
打
托
执
承
折
拉
拜
拿
掌
推
提
摩
支
攴
攵
收
攸
改
放
政
敄
敏
敕
敖
敗
敝
敞
敢
散
敦
敫
敬
数
敷
數
斂
文
斉
斊
斗
斤
斥
斩
斬
斯
新
方
於
施
斿
旁
旋
族
无
旡
既
旣
日
旦
旧
旨
早
旬
旱
旲
时
旾
昆
昇
昌
昍
明
昏
易
昔
昗
昜
星
春
昬
是
昱
昴
昷
時
晃
晋
晏
普
景
晶
智
暑
暴
曇
曩
曰
曲
曳
更
曷
書
曹
曼
曾
替
最
朁
會
月
有
朋
服
朔
朕
朗
望
朝
木
朩
未
末
本
札
朮
术
朱
朵
朶
朿
杀
杏
村
杜
束
条
来
東
杲
杳
松
析
林
枚
果
枝
枲
枼
某
柔
查
柬
柰
柴
栗
校
根
桀
桂
桑
桼
梁
條
梟
梨
棘
棠
棥
森
楚
業
楽
榮
樂
樊
橋
欠
次
欣
欮
欲
欶
欽
款
歆
歇
歛
止
正
此
步
武
歨
歪
歮
歯
歰
歲
歴
歷
歸
歹
歺
死
殳
段
殷
殸
殹
殺
殻
殿
毋
毌
母
每
毒
比
毕
毚
毛
毳
氏
氐
民
气
氣
水
氵
氶
氷
永
氺
氾
求
汝
汞
江
沃
沓
沙
沝
沫
治
泉
法
波
泣
泥
泰
洋
洛
洪
活
派
流
浦
浩
浪
浮
海
淡
淮
淳
清
渚
渠
湯
滿
漸
潤
火
灬
灭
灰
灵
灷
炅
炎
炏
炗
炙
炭
為
烈
烏
烝
焉
無
焦
焱
然
煞
熊
熏
燕
營
燮
爪
爫
爭
爯
爰
爱
爲
爵
父
爻
爽
爾
爿
片
牙
牚
牛
牜
牟
牢
牧
牪
牽
犀
犬
犭
犮
狂
狄
狊
独
狺
猋
猒
猪
献
獻
玄
率
玉
王
玟
玨
珎
班
理
琴
瑟
瑩
瓜
瓦
甘
甚
生
産
用
甫
甬
田
由
甲
申
电
甶
男
甸
甹
画
甾
畀
界
畏
畐
留
畜
畟
畢
畧
畨
番
畫
異
畱
當
畺
畾
疊
疋
疌
疑
疒
疾
癶
癸
癹
登
發
白
百
皀
皃
的
皆
皇
皋
皐
皕
皮
皷
皿
盃
盆
盇
盈
益
盍
盎
监
盒
盖
盛
盡
監
盤
盧
目
直
相
盾
省
眇
眉
看
眔
眞
真
眷
眼
眾
着
睘
睪
睿
瞏
瞢
瞿
矍
矛
矞
矢
矣
知
矦
短
石
研
破
碎
磊
磨
示
礻
礼
社
祟
票
祭
禀
禁
禸
禹
禺
离
禽
禾
禿
秀
秃
秉
秋
科
秝
秦
移
稟
稲
穀
穌
穴
究
穹
空
穿
突
窄
窒
立
竒
竜
竝
竟
章
童
竹
笑
笠
笹
筆
等
答
策
箕
算
箴
節
篤
篭
米
粉
粛
粟
粤
粦
粲
糞
糸
糹
系
紀
約
納
純
素
索
紫
累
細
組
絜
絫
絲
維
綿
縣
繇
織
纍
纟
经
缶
网
罒
罔
罕
罗
罙
罡
罢
罪
署
罷
羅
羊
羌
羍
美
羔
羕
羗
羞
羡
羣
群
義
羲
羸
羽
翁
翏
習
翕
翟
翠
翼
老
耂
考
者
耆
而
耎
耑
耒
耳
耴
耶
耷
聂
聊
聖
聚
聶
聿
肀
肃
肅
肉
肖
肙
肥
肩
肯
育
肴
胃
背
胡
胥
能
脊
脩
膚
臣
臤
臧
自
臬
臭
臯
臱
至
致
臺
臼
臽
臾
臿
舀
舂
舄
與
興
舉
舌
舍
舛
舜
舞
舟
般
艮
良
色
艸
艹
艾
芒
芔
芬
芮
花
芳
芺
芻
苔
苗
苟
若
苦
英
茶
茸
荅
草
荒
荣
荼
莆
莧
莫
莽
菆
菊
菐
華
萬
落
葉
著
葛
董
葵
蒙
蒦
蒼
蓋
蓬
蓺
蔑
蔡
蕉
蕭
薄
薛
薦
薰
藍
藏
藤
藥
蘭
虍
虎
虐
虒
虔
處
虖
虗
虘
虚
虛
虜
虞
虫
虽
蚤
蚩
蜀
蜜
蟲
蠡
血
行
衍
衛
衣
衤
表
衮
衰
袁
袞
褭
褱
襄
襾
西
覀
要
覃
見
規
覓
覧
親
覽
见
角
解
言
訁
訇
計
許
詹
語
誩
諌
諸
讠
谷
豆
豈
豊
豐
豕
豖
豙
象
豦
豩
豪
豸
貇
貝
貞
貟
負
貢
貧
貪
貫
責
貳
貴
買
費
賁
資
賈
賏
賓
賔
賛
賞
賢
賣
質
賴
贊
贝
贡
责
贯
贲
贵
赖
赞
赤
赦
走
越
足
路
蹇
身
躬
車
軍
軎
軟
輦
车
辛
辜
辟
辥
辰
辱
農
辵
辶
边
达
过
近
连
迷
追
退
送
逆
逐
通
速
造
逢
連
逮
進
遀
遂
過
道
達
遣
適
遷
遺
邊
邑
邕
那
邦
邪
郎
部
郭
都
鄉
酉
酋
配
酓
釆
采
里
重
野
量
金
釒
銅
錢
钅
長
镸
长
門
閃
閉
開
閏
閑
閒
間
閔
閵
閻
闌
门
间
闷
阑
阜
阝
阪
阿
陆
降
院
陳
隆
隊
隋
隡
隨
隱
隶
隹
隺
隻
隼
隽
难
雀
雁
雄
集
雈
雋
雍
雐
雔
雙
雚
雜
雝
離
難
雨
雩
雪
雲
零
雷
需
霍
霜
霝
霞
霸
靈
靑
青
靖
非
靡
面
靣
革
韋
韦
韭
韯
韱
音
頁
頃
項
須
頗
頡
頻
顛
页
風
风
飛
飞
食
飠
養
饣
首
香
馬
馮
駦
马
骨
高
髟
鬥
鬯
鬲
鬼
魔
魚
魯
鮮
鱼
鲁
鳥
鳳
鸟
鹵
鹿
麃
麗
麥
麦
麻
黃
黄
黍
黎
黑
黒
黨
黹
黽
黾
鼎
鼓
鼠
鼻
齊
齋
齐
齒
齿
龍
龙
龜
龟
龠
龰
龱
龴
龵
龶
龷
龸
龹
ꦁ
ꦂ
ꦏ
ꦒ
ꦗ
ꦝ
ꦠ
ꦢ
ꦤ
ꦥ
ꦧ
ꦩ
ꦫ
ꦭ
ꦮ
ꦱ
ꦴ
ꦶ
ꦸ
ꦺ
ꦼ
ꦿ
꧀
꧌
꧍
者
艹
️
？
𐩬
𞤢
𞤭
𞤮
𞤳
🌸
𠀁
𠀃
𠀆
𠀉
𠀎
𠀐
𠁁
𠁣
𠂆
𠂇
𠂈
𠂉
𠂊
𠂋
𠂎
𠂒
𠂔
𠂛
𠂡
𠂢
𠂤
𠂬
𠂭
𠂹
𠃊
𠃋
𠃌
𠃍
𠃎
𠃑
𠃓
𠃔
𠃜
𠄌
𠄎
𠄠
𠄢
𠆢
𠆥
𠇍
𠈌
𠌵
𠓜
𠔉
𠔥
𠔼
𠔽
𠔿
𠕀
𠕁
𠕋
𠘧
𠘨
𠙻
𠙼
𠚏
𠚒
𠚤
𠚪
𠣏
𠤎
𠤕
𠥓
𠦄
𠦑
𠦝
𠧒
𠧗
𠧪
𠩺
𠪚
𠫓
𠫔
𠫤
𠬛
𠬝
𠬞
𠬢
𠬤
𠬶
𠮛
𠮦
𠮷
𠯑
𠱠
𠳮
𠷎
𡈼
𡉀
𡉵
𡌥
𡍮
𡏳
𡕒
𡕩
𡕰
𡖅
𡗗
𡗜
𡘆
𡘤
𡧱
𡨄
𡩧
𡬠
𡭽
𡰣
𡰥
𡰪
𡰯
𡰱
𡷈
𡸁
𡿨
𡿩
𡿪
𡿺
𢀖
𢀛
𢀩
𢁙
𢆉
𢆰
𢆶
𢇁
𢇇
𢉖
𢌬
𢌿
𢏚
𢑑
𢑚
𢖻
𢙣
𢛳
𢦏
𢦒
𢧵
𢼄
𢾕
𣁋
𣄼
𣅀
𣅽
𣍘
𣎳
𣎵
𣏋
𣏼
𣗥
𣥂
𣥖
𣦵
𣦼
𣧄
𣪊
𣪠
𣬉
𣳾
𣶒
𤇾
𤊽
𤐫
𤓰
𤔔
𤕨
𤣩
𤰇
𤰔
𤰞
𤴓
𤴔
𤽄
𥁑
𥁕
𥃦
𥃩
𥃭
𥇡
𥑟
𥘅
𥘈
𥝢
𥫗
𥱡
𦈢
𦉪
𦉬
𦉼
𦍌
𦍒
𦎧
𦐇
𦓔
𦔮
𦘒
𦙃
𦚏
𦣝
𦣞
𦣻
𦥑
𦥔
𦥯
𦨉
𦭝
𦰩
𧆞
𧈧
𧘇
𧰨
𧴪
𧴮
𧵩
𧾷
𨸏
𨾴
𩙿
𩠐
𩫏
𩵋
𪉷
𪜀
𪟽
𪠲
𪩲
𫇦
𫔭
𫜸
𫝀
𫠣
𫠩
𫢉
𫥞
𫩏
𫩠
𫪡
𫲽
𫶧
𬀷
𬐘
𬗌
𬙙
𬛸
𬜯
𬟩
𬯁
𬴘
𬺻
𬼉
𬼖
𭀰
𭁈
𭁨
𭅰
𭑈
𭕄
𭗼
𭤨
𭥫
𭻾
𮅕
𮊿
𮍌
𮍏
𮓗
𮥼
𮧮
廾
𰀁
𰀄
𰀈
𰀉
𰀕
𰀠
𰀡
𰀢
𰀪
𰁜
𰃮
𰆊
𰆘
𰋙
𰕎
𰢴
𰧭
𰯲
02--
03--
04--
05--
06--
07--
08--
09--
600--
67--
a--
aa--
ab--
aba--
abian--
abo--
abu--
ac--
acc--
ach--
act--
acum--
ad--
ada--
add--
ade--
adi--
adnya--
ado--
adu--
ae--
aeng--
aero--
af--
aff--
ag--
age--
agro--
ah--
ahu--
ai--
air--
aju--
ak--
ake--
aku--
al--
ala--
alas--
ale--
aleng--
ali--
alis--
all--
alo--
alt--
am--
aman--
amas--
ambar--
ambu--
ame--
amo--
amph--
ampl--
an--
ana--
ance--
and--
anda--
ang--
angga--
anim--
anna--
ant--
anthr--
anti--
antos--
antro--
anu--
any--
ao--
apa--
api--
app--
appea--
aq--
aqui--
ar--
ara--
arca--
archae--
arga--
argo--
ari--
arom--
art--
aru--
as--
asa--
asah--
asem--
asi--
ast--
asta--
astro--
asu--
at--
ata--
ate--
ath--
atlanti--
atmo--
au--
auto--
ave--
avi--
awa--
awi--
awu--
ay--
az--
b--
ba--
bab--
babakan--
babo--
bac--
bad--
bag--
bah--
bai--
bak--
baku--
bal--
bala--
bale--
bali--
balong--
ban--
bandar--
bang--
banjar--
bantar--
banyu--
bao--
bar--
bara--
baru--
bas--
basa--
base--
bat--
bate--
batu--
bau--
bawa--
bay--
be--
bea--
bec--
beda--
beg--
begin--
beh--
beji--
bek--
bel--
bela--
bele--
belu--
ben--
bendo--
beng--
ber--
berch--
beri--
berki--
bero--
bes--
bet--
beur--
bez--
bha--
bhi--
bho--
bhu--
bi--
bia--
biang--
bibliog--
bie--
bin--
bina--
bing--
bio--
bis--
bit--
bl--
blah--
blang--
ble--
blo--
bo--
bog--
bogo--
boh--
boja--
bojong--
bok--
bola--
bolo--
bom--
bon--
bona--
bone--
bong--
bonto--
bor--
bori--
bot--
boto--
bou--
boy--
br--
bra--
bre--
breng--
bri--
bris--
bro--
broad--
brow--
bu--
bua--
buc--
buda--
budd--
budi--
bug--
buk--
bukit--
bul--
bulo--
bulu--
bum--
bumi--
bun--
bung--
buni--
bur--
bus--
but--
by--
c--
ca--
cab--
cae--
cah--
cak--
cal--
cam--
camp--
can--
candi--
cang--
cap--
car--
carpe--
cas--
casca--
cat--
cau--
cc--
ce--
cele--
cemp--
ceng--
cer--
cero--
cet--
ch--
cha--
chat--
che--
chi--
cho--
chr--
chu--
ci--
cia--
cici--
cie--
cige--
ciham--
ciju--
cika--
cikan--
cile--
cilen--
cilo--
cina--
cing--
cinta--
cipa--
cipe--
cipo--
cipta--
cirang--
circ--
cita--
cle--
clim--
clu--
co--
cok--
colla--
colo--
com--
compo--
con--
cond--
conge--
cons--
consi--
consul--
cont--
continu--
convent--
coo--
cor--
corres--
cosm--
cot--
cre--
crea--
cri--
crist--
cro--
cru--
cry--
cu--
culti--
cum--
cun--
cur--
curah--
curug--
cut--
cy--
cyc--
cœ--
d--
da--
dadi--
dae--
dah--
dal--
dam--
damar--
dan--
dana--
dang--
danu--
dar--
dara--
dari--
das--
dasa--
data--
date--
dayeuh--
dd--
de--
dec--
def--
deg--
dek--
del--
delod--
den--
deng--
der--
des--
desti--
detu--
deut--
dewa--
dewek--
dharmo--
di--
dia--
dian--
did--
die--
dig--
dik--
dil--
ding--
diper--
dir--
dire--
disa--
disc--
disp--
div--
dj--
dl--
do--
doc--
dok--
domp--
don--
dong--
dono--
doo--
doro--
dos--
dou--
down--
dr--
dro--
du--
dua--
dub--
dug--
dui--
dukuh--
dun--
dung--
dur--
dura--
dwi--
dy--
e--
ea--
ec--
eco--
ed--
edit--
ee--
eh--
ein--
ek--
eka--
eko--
eks--
el--
elaeocar--
ele--
elek--
em--
emer--
emo--
en--
end--
eng--
enter--
ep--
eq--
equ--
equi--
er--
es--
est--
estab--
et--
eth--
eu--
eva--
eve--
ewe--
ex--
expan--
expl--
ext--
extre--
ey--
f--
fa--
falk--
far--
fatu--
fe--
feb--
fel--
fer--
ferg--
fi--
fie--
fif--
figu--
fil--
file--
film--
fin--
fini--
fir--
fitz--
fl--
fla--
flints--
flu--
fo--
foc--
font--
for--
foun--
fr--
fre--
fresh--
fu--
fur--
g--
ga--
gabus--
gagend--
gajah--
gal--
galli--
gamb--
gan--
gar--
gara--
gas--
gd--
ge--
gega--
gege--
geger--
gelu--
gemb--
geme--
gen--
geo--
ger--
gero--
gesc--
get--
gho--
gi--
gil--
gili--
gim--
giri--
gis--
gle--
gli--
glo--
go--
god--
gon--
gondo--
gong--
gor--
goul--
gouve--
gow--
gr--
gra--
gre--
greet--
grim--
gro--
gru--
gu--
gua--
guil--
gumi--
gun--
guna--
gung--
gunung--
guun--
gya--
gye--
h--
ha--
hac--
had--
hadi--
hae--
hai--
hak--
hal--
ham--
han--
hand--
har--
hard--
harg--
harjo--
has--
hat--
haur--
haw--
hay--
haz--
he--
helm--
hen--
her--
hey--
hi--
hidr--
high--
hin--
hira--
his--
ho--
hoc--
hol--
home--
hop--
horo--
horti--
hr--
hu--
hulu--
hum--
hun--
hut--
hy--
hydr--
hydro--
hye--
i--
ia--
ibo--
ic--
ich--
id--
ida--
ie--
if--
ig--
ih--
ijo--
ik--
ikh--
il--
ila--
ili--
im--
imag--
imba--
imple--
in--
ina--
inc--
inde--
indo--
infa--
ing--
ini--
ink--
ino--
inom--
inspe--
inst--
inter--
inu--
inve--
io--
ip--
ir--
is--
ishi--
it--
iti--
itu--
iv--
iwoi--
iwoimen--
iz--
j--
ja--
jaba--
jadi--
jag--
jaga--
jaka--
jam--
jan--
jang--
jati--
jawi--
jaya--
jayen--
je--
jeg--
jek--
jel--
jela--
jelin--
jemb--
jemp--
jene--
jeng--
jep--
jer--
jero--
jeruk--
ji--
jim--
jin--
jing--
jl--
jlem--
jo--
jog--
jogo--
jomb--
jong--
jr--
ju--
juk--
jun--
jung--
k--
ka--
kaada--
kaalih--
kaan--
kab--
kaba--
kabe--
kabi--
kabu--
kac--
kaca--
kace--
kaco--
kada--
kade--
kadi--
kadu--
kae--
kage--
kago--
kaha--
kahi--
kahor--
kahu--
kai--
kaj--
kaja--
kaje--
kajo--
kaka--
kake--
kaki--
kal--
kala--
kalaksa--
kale--
kali--
kalo--
kalu--
kalum--
kalup--
kama--
kamb--
kame--
kamo--
kan--
kana--
kanc--
kance--
kang--
kao--
kapa--
kapar--
kape--
kaper--
kapi--
kapo--
kapu--
kar--
kara--
karang--
kare--
kari--
karko--
karo--
karta--
karu--
karya--
kasa--
kasang--
kase--
kasi--
kasim--
kasu--
kata--
kate--
katerje--
kati--
katu--
kau--
kaung--
kawa--
kawe--
kawi--
kawicak--
kawu--
kawung--
kaya--
kayu--
ke--
kebo--
kebon--
kebun--
kec--
kece--
ked--
kede--
kedung--
kei--
kel--
kele--
keli--
kelu--
kema--
kemb--
kemp--
kemu--
ken--
keng--
kepuh--
ker--
kera--
kere--
keri--
kers--
kerta--
kerto--
kes--
kese--
ket--
kete--
ketun--
kh--
kha--
kho--
ki--
kiara--
kih--
kilo--
kim--
kin--
kina--
king--
kir--
kiri--
kiu--
kla--
klat--
kle--
kli--
klin--
klo--
klu--
ko--
kok--
kol--
kom--
kon--
konfu--
kons--
kont--
kontro--
kontu--
kop--
kor--
kore--
koro--
kot--
kota--
kr--
kre--
kri--
kro--
krom--
kru--
kruna--
ks--
ksek--
ksirarn--
ksk--
ku--
kubu--
kudu--
kul--
kuma--
kumb--
kun--
kuru--
kus--
kusk--
kuta--
kuto--
kwa--
ky--
l--
la--
lab--
laba--
labo--
lad--
lae--
lah--
lai--
laka--
laks--
lalo--
lam--
lama--
lamo--
lan--
lang--
lano--
lao--
lar--
laro--
las--
lat--
lau--
law--
laz--
le--
lea--
lebak--
led--
lek--
leko--
lele--
lemah--
lemb--
lemo--
lemp--
len--
leng--
leo--
lepido--
les--
let--
leu--
leuwi--
lew--
lewo--
li--
lia--
liech--
lig--
lili--
lim--
liman--
limpo--
limus--
lin--
ling--
lipu--
lis--
lit--
liwu--
lla--
lo--
log--
lok--
loka--
lomb--
lon--
long--
lor--
lot--
lt--
lu--
luk--
lump--
lun--
lung--
ly--
lyco--
m--
ma--
mabe--
mac--
maca--
macc--
mace--
mad--
made--
madu--
mae--
mag--
maga--
mage--
magre--
magu--
mah--
maha--
mahe--
mai--
main--
maja--
maje--
mak--
maka--
make--
maki--
maku--
mal--
mala--
male--
mall--
mamb--
mamm--
mamo--
mamp--
man--
mana--
mando--
mane--
mang--
mangku--
mangu--
manife--
manta--
manu--
many--
map--
mapi--
mar--
mara--
mare--
marga--
margo--
mari--
maro--
maru--
mas--
masa--
mase--
masi--
massa--
masu--
masum--
maswa--
mat--
mata--
mate--
mats--
matta--
matu--
matung--
mau--
mawa--
mawe--
mawi--
mb--
mbe--
mbo--
mbu--
mc--
mcc--
mcn--
md--
me--
mea--
med--
mega--
meh--
mei--
meja--
mekar--
mekk--
mel--
meleng--
meli--
mem--
memb--
membe--
membu--
meme--
mempe--
memper--
men--
mene--
meng--
menje--
menu--
menya--
menye--
menyu--
mer--
mere--
mergo--
mes--
mese--
met--
meta--
mi--
mia--
micro--
mid--
mih--
mik--
mikro--
mil--
min--
mina--
ming--
minyu--
mis--
misa--
mit--
miw--
mla--
mli--
mloko--
mo--
moa--
modif--
moh--
mojo--
mok--
moko--
mom--
mon--
mong--
mono--
moo--
mor--
moro--
moti--
mp--
mr--
mre--
mu--
muara--
mug--
multi--
mulya--
mun--
munc--
mung--
mur--
mut--
mw--
my--
myrt--
n--
na--
nad--
nae--
nag--
naga--
nai--
nais--
nak--
nam--
nama--
nan--
nang--
nanga--
nanjung--
napa--
nara--
nata--
nav--
naya--
naz--
nc--
nd--
nda--
nde--
ne--
nefo--
nege--
negte--
nek--
nem--
nen--
net--
neus--
new--
news--
ng--
nga--
ngac--
ngada--
ngadi--
ngale--
ngalu--
ngamoli--
ngamp--
ngan--
ngare--
ngarg--
ngars--
ngawi--
nge--
ngen--
ngend--
ngent--
ngere--
nget--
ngga--
ngge--
ngi--
nging--
ngla--
ngle--
ngli--
nglin--
nglo--
nglu--
ngo--
ngor--
ngr--
ngrah--
ngram--
ngre--
ngrinc--
ngro--
ngrum--
ngu--
ngub--
nguc--
ngul--
ngum--
ngun--
ngung--
ngus--
ni--
nico--
nifu--
nil--
nin--
nine--
ning--
nir--
nis--
no--
noe--
noel--
non--
nor--
north--
nr--
nt--
nu--
nuam--
nun--
nung--
nur--
nus--
nusa--
ny--
nya--
nyak--
nyamp--
nyan--
nyat--
nye--
nyemp--
nyen--
nyeng--
nyi--
nyia--
nying--
nyo--
nyu--
nyuh--
nyuk--
nyulu--
nyum--
nyung--
nyut--
o--
obit--
oc--
oe--
oel--
oeng--
og--
ogo--
oh--
oi--
ok--
ol--
olim--
om--
ome--
on--
one--
ong--
ono--
oo--
op--
or--
oro--
os--
oto--
out--
over--
p--
pa--
pabe--
pabia--
pacc--
pace--
pad--
pada--
padang--
pade--
padi--
padu--
pag--
paga--
page--
pager--
pagi--
pagu--
pah--
pai--
pak--
paka--
pakem--
pakis--
paku--
pal--
pala--
pale--
pali--
pamb--
pambo--
pambu--
pame--
pami--
pamm--
pamo--
pamr--
pamu--
pan--
pana--
panang--
panca--
pane--
paner--
pang--
pange--
pangga--
pangum--
pani--
panja--
panum--
panus--
panya--
panyang--
panye--
panyi--
panyile--
panyu--
pao--
papa--
paper--
par--
para--
parama--
pard--
pare--
pari--
pars--
paru--
parung--
parw--
pas--
pase--
pasi--
pasir--
pasub--
pat--
pata--
pate--
pati--
pato--
patu--
pau--
paund--
pav--
pawe--
payo--
pe--
ped--
pegan--
pegun--
peh--
pela--
pele--
pemb--
pembe--
pembu--
peme--
pemeli--
pemrog--
pemu--
pen--
penam--
penan--
pend--
pene--
peng--
penga--
penge--
peni--
pening--
peno--
pent--
penu--
peny--
penya--
penyan--
penye--
per--
peram--
pere--
perse--
persi--
peru--
peso--
pesu--
pet--
peta--
pete--
peti--
petu--
pg--
ph--
phal--
phil--
phy--
physi--
pi--
pia--
pic--
pie--
pil--
pilang--
pin--
pina--
ping--
piren--
pis--
pl--
pla--
plang--
plat--
play--
ple--
plo--
ploso--
plum--
po--
podo--
podos--
poed--
poh--
pol--
polo--
pomb--
pomer--
pomp--
pon--
ponco--
pong--
ponto--
pop--
pos--
post--
pot--
pp--
pr--
pra--
prai--
prame--
pras--
pre--
premai--
pri--
princi--
pring--
pringga--
pringgo--
pro--
proce--
ps--
psi--
pt--
pu--
pua--
pudak--
puh--
puji--
pujo--
pula--
pulau--
pulo--
pun--
pung--
pur--
pura--
purwa--
purwo--
pus--
puspa--
put--
puu--
q--
qu--
quar--
que--
quest--
qui--
quick--
r--
ra--
raba--
rach--
rae--
rag--
raga--
rah--
rai--
rail--
rain--
raja--
rak--
raka--
rakan--
ram--
rama--
ran--
ranca--
randu--
rang--
rano--
rante--
ranu--
rap--
ras--
rat--
rawa--
re--
rea--
rec--
rece--
recom--
red--
ref--
refor--
regis--
rejo--
reka--
relat--
ren--
reng--
res--
resi--
ret--
rey--
rhy--
ri--
ria--
rid--
rig--
rim--
rin--
rina--
rita--
rn--
ro--
rogo--
roh--
ron--
ronggo--
row--
rowo--
roz--
rr--
rs--
rt--
ru--
ruh--
rukm--
rum--
run--
rung--
rusm--
rut--
ruther--
ry--
s--
sa--
saa--
saba--
sad--
sada--
sae--
sah--
sai--
saje--
sak--
saka--
sake--
saku--
sal--
sala--
salam--
sali--
salo--
salu--
sam--
sama--
sambi--
san--
sana--
sang--
sangu--
sao--
sapa--
sapi--
sapu--
sar--
sara--
sari--
sarin--
sasi--
sat--
satre--
sau--
saus--
saw--
sawah--
say--
sc--
scar--
sch--
scie--
sco--
se--
sea--
sec--
see--
segoro--
sei--
seji--
sekar--
sel--
sela--
sele--
seli--
selo--
selu--
sem--
sema--
semi--
sen--
seng--
seo--
sepp--
ser--
seri--
seru--
set--
setia--
seu--
sh--
sha--
shang--
she--
shi--
ship--
sho--
si--
sia--
sic--
sid--
sida--
sido--
sie--
sig--
sik--
siku--
sila--
silan--
sima--
simb--
simo--
simp--
sin--
sinar--
sindu--
sing--
singa--
singo--
sio--
sir--
sirna--
sis--
sisin--
sita--
siti--
situ--
siwa--
siwu--
six--
sja--
sk--
sl--
sla--
sle--
slo--
sm--
so--
soe--
sof--
sojo--
sok--
soka--
soko--
sol--
soma--
some--
somo--
son--
sonda--
song--
sono--
sor--
soro--
sou--
sp--
spe--
squ--
squi--
sr--
sri--
sru--
ss--
st--
sta--
ste--
sto--
struc--
su--
sua--
sub--
sud--
sudar--
sue--
suk--
suka--
suko--
sul--
sule--
sulo--
suma--
sumar--
sumber--
sumo--
sumur--
sun--
sunda--
sung--
sup--
super--
sur--
sura--
suro--
suru--
sus--
susu--
suz--
swa--
swe--
sy--
sya--
syah--
symb--
syu--
t--
ta--
taba--
tabu--
tae--
tah--
tain--
taj--
tak--
taka--
taki--
tala--
tali--
talu--
taman--
tamb--
tambak--
tamp--
tampe--
tampu--
tan--
tana--
tanah--
tang--
tapo--
tapp--
tapu--
tar--
tara--
taru--
tas--
tasik--
tat--
tata--
tau--
tax--
tayu--
te--
tegal--
teh--
tejo--
teka--
tel--
tela--
tele--
teluk--
tema--
temb--
tembe--
temm--
temp--
temu--
ten--
teng--
tenge--
tenjo--
tepi--
ter--
terit--
tes--
tet--
tete--
teteh--
text--
th--
tha--
the--
ti--
tia--
tim--
tin--
ting--
tiro--
tirta--
tirto--
tit--
titi--
tiwu--
tj--
tla--
tlogo--
tlu--
tm--
tn--
to--
todd--
toh--
tok--
tokoh--
tol--
tolo--
tom--
tompo--
ton--
tondo--
tong--
too--
top--
tor--
toro--
tos--
tot--
tou--
tour--
toy--
toya--
tr--
tra--
trans--
tre--
tri--
tro--
ts--
tu--
tua--
tug--
tugu--
tuk--
tum--
tuma--
tumpak--
tun--
tung--
tuntu--
tur--
turi--
tuu--
tw--
ty--
tya--
tyran--
u--
ub--
uc--
ud--
ue--
uh--
ui--
ujung--
uk--
ul--
ulu--
um--
uma--
umbul--
un--
una--
under--
ung--
uni--
up--
upa--
upe--
ur--
uru--
us--
ut--
utami--
uu--
uwu--
v--
va--
val--
valen--
van--
var--
ve--
ver--
vesp--
vi--
vie--
viol--
vo--
vol--
vorpom--
vri--
vu--
vul--
w--
wa--
wad--
wae--
wai--
wak--
waka--
wal--
wala--
wali--
wan--
wana--
wang--
wano--
wao--
war--
wara--
warga--
waru--
warung--
was--
wat--
wates--
wato--
watu--
watung--
wau--
wawo--
we--
web--
weh--
wei--
west--
wg--
wi--
widoro--
wiel--
wiji--
wiki--
wil--
win--
wing--
wira--
wiro--
wis--
wo--
woe--
woh--
woi--
wol--
wolo--
wong--
wono--
wor--
wot--
wr--
wrap--
wrtta--
wu--
wund--
wung--
x--
xi--
xx--
y--
ya--
yan--
ye--
yi--
yo--
yos--
yu--
z--
zae--
zai--
zak--
zam--
ze--
zin--
zoo--
zu--
zul--
đ--
ا--
ग--
ᬅ--
ᬇ--
ᬉ--
ᬋ--
ᬍ--
ᬏ--
ᬑ--
ᬓ--
ᬕ--
ᬗ--
ᬘ--
ᬚ--
ᬜ--
ᬢᬫ--
ᬤ--
ᬦ--
ᬫ--
ᬫᬢ--
ᬫᬮ--
ᬬ--
ᬭ--
ᬮ--
ᬯ--
ᬯᬦ--
ᬯᬭ--
ᬲ--
ᬳ--
᭑--
--0
--1
--10
--11
--12
--15
--2
--20
--26
--3
--30
--4
--40
--41
--42
--43
--44
--45
--47
--49
--5
--50
--6
--60
--69
--7
--70
--8
--80
--85
--9
--90
--a
--aa
--aal
--aan
--aar
--ab
--aba
--able
--abu
--aceae
--aci
--acita
--ad
--ada
--ade
--adem
--adi
--adol
--ae
--aen
--af
--afi
--ag
--aga
--age
--agung
--ah
--aha
--ahan
--ahe
--ahi
--ahin
--ai
--ail
--ain
--aja
--aji
--aju
--ak
--aka
--akan
--aki
--akin
--ako
--aksi
--al
--ala
--alam
--alas
--ale
--ali
--alit
--als
--alu
--am
--ama
--amai
--amba
--ambo
--ami
--ampu
--an
--ana
--anan
--ance
--andang
--ane
--ang
--anga
--angau
--ange
--ani
--anik
--anin
--anja
--anne
--annya
--annyane
--ano
--anom
--ans
--ansche
--anto
--anyar
--ao
--ap
--apa
--api
--apu
--aq
--ar
--ara
--aran
--ard
--are
--argo
--ari
--aris
--arjo
--aro
--ars
--arso
--arto
--aru
--arum
--ary
--as
--asa
--asan
--ase
--asem
--asi
--asih
--asikan
--aso
--asri
--at
--ata
--atan
--ath
--ati
--ation
--ations
--ato
--ator
--atu
--au
--aut
--aw
--awa
--awas
--awe
--awu
--ax
--ay
--aya
--ayan
--ayang
--ayu
--aŋ
--b
--ba
--bag
--bah
--bak
--bali
--ban
--bang
--bao
--bar
--baru
--bas
--bat
--batu
--bau
--baya
--bba
--be
--beh
--bel
--benda
--bendo
--berg
--bh
--bi
--biah
--bihin
--bin
--ble
--bly
--bo
--bog
--boi
--bok
--bol
--bon
--bong
--bot
--boto
--bou
--box
--boyo
--bs
--bu
--bua
--buan
--buana
--bug
--buh
--buk
--bula
--bulu
--bunan
--bur
--burg
--bury
--bus
--but
--by
--c
--ca
--cah
--cak
--cal
--can
--cap
--cau
--caya
--cci
--ce
--ceae
--ced
--cek
--cel
--cem
--cen
--cent
--cer
--ces
--ch
--che
--chi
--cht
--chy
--ci
--cik
--cikan
--cio
--ciosa
--cir
--ck
--cks
--co
--cogin
--col
--con
--confirmed
--cong
--cos
--court
--coyo
--cs
--ct
--cted
--ction
--ctions
--ctive
--cts
--cu
--cuh
--cuk
--cul
--cum
--cung
--cup
--cur
--cus
--cut
--cy
--d
--da
--daa
--daceae
--dadi
--dae
--dah
--dai
--dak
--daka
--dal
--dalem
--dam
--dan
--dana
--dane
--dang
--dao
--dap
--dar
--dara
--dation
--dawa
--ddin
--de
--dea
--ded
--del
--dem
--den
--dengen
--deok
--der
--det
--dh
--dha
--dhana
--dhi
--dhu
--di
--dia
--dih
--dii
--dik
--dika
--din
--ding
--diq
--dis
--dita
--dle
--dnya
--do
--doe
--doh
--doi
--dom
--don
--dong
--doni
--dopi
--dor
--doro
--dos
--dowo
--doyo
--dra
--dri
--dro
--ds
--dt
--du
--dua
--duced
--due
--duh
--duk
--dukan
--dukuh
--dul
--dun
--dung
--dur
--dus
--dut
--duwur
--dy
--dya
--e
--ea
--eae
--ean
--eang
--eb
--ech
--ed
--edo
--ee
--ef
--eg
--egara
--eh
--eha
--ei
--ein
--eja
--ejo
--ek
--eke
--ekin
--el
--ela
--eli
--elo
--els
--ely
--em
--ema
--eman
--ement
--en
--ena
--enan
--enang
--end
--eng
--engan
--engang
--eni
--enin
--eno
--ense
--ensis
--ent
--enti
--eo
--ep
--epa
--epan
--er
--era
--eran
--erang
--ere
--eri
--eries
--ero
--ers
--erto
--es
--esan
--ese
--esi
--essi
--est
--et
--etan
--etang
--ete
--eti
--etin
--ets
--ett
--ette
--eu
--eun
--eur
--euy
--ev
--ever
--ew
--ey
--eya
--ez
--f
--fa
--fan
--fano
--fanu
--fe
--fect
--fel
--fer
--ff
--fi
--field
--fik
--fikasi
--fo
--form
--fs
--fu
--ful
--fy
--g
--ga
--gaan
--gaden
--gah
--gahan
--gai
--gak
--gal
--gam
--gama
--gan
--gang
--gangge
--ganin
--gar
--gat
--gata
--gau
--ge
--ged
--gede
--geh
--gehan
--gek
--gel
--gem
--gen
--gena
--geng
--ger
--ges
--get
--geulis
--gga
--ggan
--gge
--ggel
--ggeng
--ggih
--ggo
--ggu
--ggung
--gh
--ght
--gi
--gia
--giang
--gih
--gik
--gil
--gin
--ging
--giri
--git
--gka
--gkan
--gkat
--gkek
--gken
--gkep
--gker
--gki
--gko
--gku
--gn
--gne
--go
--gon
--gona
--gong
--gor
--goro
--got
--gra
--grafi
--grong
--gs
--gtegan
--gtug
--gu
--gua
--guan
--guh
--guk
--gul
--gula
--gun
--guna
--gung
--gupito
--gur
--gura
--guri
--gut
--guwo
--gy
--h
--ha
--haji
--hal
--ham
--han
--hang
--har
--hara
--harja
--harjo
--hat
--hau
--haur
--hayu
--he
--hed
--heim
--hejo
--hem
--herang
--hes
--hi
--hiang
--hic
--hilir
--hin
--hina
--hir
--hit
--hkan
--hl
--hn
--hna
--hne
--ho
--hta
--hu
--hucu
--hudi
--hunan
--hura
--hurip
--hus
--hy
--i
--ia
--iaceae
--iah
--iak
--ial
--iam
--ian
--iana
--iang
--ias
--iat
--ib
--ibne
--ibu
--ic
--ica
--icia
--ick
--ics
--id
--ida
--idae
--idane
--ide
--idi
--idung
--ie
--ien
--ier
--ies
--if
--ifah
--ifolia
--ify
--ig
--ight
--igi
--igo
--ih
--iha
--ihan
--ii
--iidae
--ik
--ika
--ikan
--iki
--iko
--ikum
--il
--ila
--ilan
--ili
--ilo
--im
--ima
--ime
--imo
--in
--ina
--inae
--ine
--ined
--ing
--inga
--ini
--inin
--ino
--ins
--intro
--inya
--io
--ion
--ions
--ior
--ip
--ipa
--ipun
--ipune
--ir
--ira
--ire
--iri
--iro
--is
--isa
--isan
--isasi
--ish
--isi
--ism
--isme
--ist
--ists
--it
--ita
--itan
--itas
--ite
--items
--ities
--itinae
--ito
--itor
--ity
--iu
--ium
--iung
--iup
--ius
--ive
--iwoi
--iwu
--iya
--iyah
--iyang
--iza
--ized
--iŋ
--j
--ja
--jae
--jah
--jai
--jak
--jalu
--jan
--jang
--jar
--jat
--jati
--jau
--jawa
--jawab
--jaya
--jayan
--je
--jen
--jeng
--jero
--jeruk
--ji
--jing
--jn
--jo
--joho
--jong
--jor
--joyo
--ju
--juh
--jul
--jur
--k
--ka
--kaa
--kab
--kah
--kai
--kaian
--kak
--kal
--kam
--kan
--kang
--kanlah
--kap
--kar
--kara
--karto
--karya
--kas
--kasi
--kasih
--kat
--kawung
--ke
--keb
--ked
--keh
--kek
--kel
--ken
--kencono
--keng
--kep
--kepan
--kepuh
--ker
--kerep
--kerta
--kes
--ket
--kh
--kha
--ki
--kidul
--kie
--kih
--kik
--kil
--kila
--kin
--kir
--kis
--kit
--kle
--kne
--ko
--koe
--koh
--kok
--kol
--koli
--kon
--kona
--koneng
--kop
--kopa
--kor
--koro
--kosa
--kpik
--krejo
--krong
--ks
--ksa
--ksi
--kt
--kti
--ku
--kuda
--kuh
--kuk
--kul
--kula
--kulon
--kum
--kun
--kung
--kungan
--kuning
--kup
--kur
--kuru
--kus
--kusi
--kut
--ky
--l
--la
--laa
--laban
--lah
--lahin
--lai
--lak
--laka
--lan
--lana
--land
--lang
--langu
--lap
--lar
--las
--lat
--lau
--laut
--laya
--ld
--lda
--lde
--ldi
--le
--lea
--led
--leg
--legi
--leh
--lejo
--lele
--lelo
--lem
--lemo
--len
--leng
--ler
--lera
--les
--less
--let
--leu
--ley
--li
--lia
--lib
--lig
--lih
--lihan
--lik
--lima
--lin
--lines
--ling
--lir
--lis
--list
--lit
--lk
--lkan
--ll
--lla
--lle
--lli
--llo
--lls
--lly
--lo
--loe
--logi
--logy
--loka
--lola
--lon
--lor
--low
--ls
--lsa
--lsel
--lskie
--lt
--lu
--luh
--luk
--lulu
--lum
--lun
--lung
--luo
--lur
--luran
--lus
--lut
--luyu
--ly
--lys
--m
--ma
--mae
--mah
--mahi
--maja
--man
--mang
--manggu
--mangu
--manik
--manis
--mar
--marto
--mas
--mat
--mata
--mati
--maya
--mba
--mbah
--mbahan
--mbahin
--mbak
--mbal
--mban
--mbat
--mbe
--mbel
--mbi
--mbia
--mbil
--mbilan
--mbing
--mbo
--mbon
--mbong
--mbu
--mbua
--mbul
--mbulan
--mbun
--mbung
--me
--mea
--mekar
--mel
--melewe
--men
--ment
--mental
--ments
--meo
--merto
--mi
--min
--mis
--mit
--mlati
--mn
--mo
--mojo
--mon
--moro
--mp
--mpa
--mpah
--mpahan
--mpak
--mpan
--mpang
--mpanua
--mpatan
--mpe
--mpi
--mping
--mpit
--mpok
--mpu
--mpuang
--mpung
--ms
--msari
--mu
--muk
--mukti
--mulya
--mulyo
--mun
--mus
--mut
--muti
--my
--n
--na
--nadi
--nae
--nah
--nai
--nak
--nal
--nam
--name
--nan
--nane
--nang
--nar
--nas
--nasi
--nau
--nburg
--nc
--nca
--ncan
--ncana
--nce
--ncy
--nd
--nda
--ndan
--ndana
--nde
--ndeng
--ndes
--ndi
--ndia
--nding
--ndo
--ndon
--ndro
--ndu
--nduk
--ndung
--ndungi
--ndur
--nduran
--ne
--ned
--negoro
--nen
--ner
--nes
--nese
--ness
--net
--ney
--ng
--nga
--ngai
--ngan
--nge
--ngen
--ngeng
--ngga
--ngge
--nggeng
--nggi
--nggo
--nggu
--nggul
--ngi
--ngia
--ngin
--ngka
--ngkan
--ngkas
--ngkat
--ngkil
--ngkis
--ngko
--ngnge
--ngo
--ngrat
--ngu
--ni
--nia
--nial
--nian
--nidane
--nies
--nik
--nin
--ning
--ningrat
--nio
--nipun
--nis
--nity
--nja
--njali
--njau
--nk
--nn
--nna
--nne
--nnya
--nnyane
--no
--non
--nongko
--noy
--nque
--nrejo
--nreng
--ns
--nsa
--nsi
--nsis
--nson
--nt
--nta
--ntah
--ntai
--ntaka
--ntan
--ntar
--ntara
--ntas
--nte
--nti
--ntihan
--ntik
--nting
--ntis
--ntly
--nto
--ntos
--ntra
--nts
--ntu
--ntuk
--ntun
--ntung
--nu
--num
--nun
--nung
--nus
--ny
--nya
--nyane
--nyanne
--nyar
--nyung
--o
--oa
--oan
--oat
--ob
--obe
--obo
--obogu
--od
--oda
--ode
--oe
--oek
--oeng
--oer
--og
--oga
--oge
--ogo
--ogue
--oh
--oha
--ohang
--oharjo
--ohi
--ohin
--oi
--oid
--oja
--ojo
--ok
--oka
--ol
--ola
--olan
--ole
--oli
--olo
--ology
--olus
--olved
--om
--oma
--ombo
--ome
--omo
--omulyo
--on
--ona
--onal
--onan
--onang
--onda
--one
--oner
--ones
--ong
--ongan
--ongi
--oni
--onin
--ono
--ons
--onu
--oo
--ood
--oon
--op
--ope
--opi
--or
--ora
--orejo
--ori
--oro
--ors
--ort
--os
--osa
--osan
--osi
--oso
--osu
--ot
--ota
--ote
--oti
--oto
--ou
--ous
--out
--ov
--ovich
--ow
--owa
--owo
--oy
--oya
--oyd
--oyo
--p
--pa
--pada
--paga
--page
--pah
--pahit
--pak
--pakis
--pal
--pan
--pang
--panji
--par
--pari
--parna
--pas
--pat
--paten
--pati
--pe
--pea
--pek
--pel
--pen
--peng
--pes
--petir
--pi
--pia
--pian
--pih
--pik
--pimpin
--pin
--pina
--pis
--pit
--pitu
--pkan
--pn
--pne
--po
--poh
--por
--pora
--ppo
--ps
--psi
--pt
--pton
--pu
--puh
--puk
--pul
--pule
--pun
--pune
--pung
--pur
--pura
--puri
--puro
--pus
--put
--putih
--putri
--py
--q
--que
--r
--ra
--raan
--rab
--raceae
--rad
--rado
--rag
--ragen
--rah
--rahang
--rai
--raja
--rak
--raksa
--rama
--rampilan
--ran
--rang
--ras
--rasa
--rat
--rata
--ratan
--ratu
--rau
--raya
--rayung
--rc
--rch
--rd
--rdi
--rdjo
--rdo
--re
--rea
--red
--ree
--reg
--reja
--rejo
--rek
--rel
--rem
--rema
--remba
--ren
--reng
--renggo
--rep
--rer
--res
--reso
--retno
--rg
--rga
--ri
--ria
--ric
--rie
--ries
--rih
--rik
--riman
--rin
--ring
--rini
--rip
--ris
--rische
--rit
--ritis
--rja
--rjo
--rk
--rkan
--rm
--rma
--rmal
--rmo
--rn
--rna
--rne
--rns
--ro
--roa
--rod
--rogo
--rojo
--rom
--rome
--ron
--rono
--roro
--ros
--roso
--rot
--roto
--rowo
--rs
--rsa
--rsari
--rse
--rsihan
--rt
--rta
--rto
--ru
--rua
--ruan
--ruddin
--ruh
--rui
--ruk
--rum
--run
--ruru
--rus
--ry
--rya
--s
--sa
--sada
--sah
--sak
--sal
--salam
--sam
--sama
--san
--sana
--sang
--sar
--sari
--sat
--sata
--sawah
--sawit
--sburg
--sch
--schap
--sche
--se
--sed
--see
--seg
--seh
--sek
--sekar
--sel
--sem
--sen
--sena
--ser
--ses
--sewu
--sh
--shi
--ship
--ships
--shire
--si
--sia
--sial
--side
--sif
--sih
--sihan
--sii
--sik
--sikan
--sil
--sili
--sin
--sina
--sio
--sir
--sis
--sit
--sive
--ska
--sma
--smamu
--sme
--smian
--sna
--sne
--sno
--so
--soko
--som
--son
--song
--sono
--sri
--ss
--ssa
--sse
--ssi
--st
--sta
--stan
--ste
--stein
--ster
--sti
--stin
--ston
--stra
--stu
--stya
--su
--sub
--sugih
--suh
--sui
--suk
--suka
--suko
--sul
--suli
--sumur
--suna
--sur
--sy
--sya
--t
--ta
--taa
--taan
--tad
--tag
--tah
--tai
--tak
--tal
--tan
--tana
--tane
--tang
--tani
--tao
--tap
--tar
--tara
--tary
--tas
--tau
--tch
--te
--ted
--tee
--teg
--tehin
--tein
--tejo
--tek
--tel
--telu
--ten
--teng
--tengah
--tep
--ter
--tes
--tet
--teta
--text
--th
--tha
--thi
--thya
--ti
--tiaan
--tial
--tian
--tic
--tidu
--tif
--tig
--tiga
--tih
--tik
--til
--tin
--ting
--tio
--tion
--tions
--tip
--tiro
--tis
--tive
--tiwa
--tle
--tma
--tne
--tno
--to
--toi
--ton
--tono
--topo
--tor
--toro
--town
--towo
--tra
--tri
--try
--ts
--tt
--tta
--tte
--tti
--tto
--tu
--tua
--tug
--tuk
--tul
--tula
--tum
--tun
--tur
--turan
--turi
--tus
--tut
--tuwo
--ty
--tya
--tz
--u
--ua
--uah
--uai
--uak
--ual
--uan
--uang
--uat
--ud
--uda
--udan
--uddin
--udi
--udik
--udra
--udu
--udug
--ue
--ueh
--uel
--ues
--ug
--uga
--ugah
--ugh
--uh
--uhan
--uhin
--ui
--uit
--uju
--uk
--uka
--ukan
--uke
--ukin
--ukti
--uku
--ukung
--ul
--ule
--uleng
--ulo
--ulon
--ulu
--ulyo
--um
--uma
--uman
--umba
--ume
--un
--una
--unan
--une
--ung
--ungan
--unggu
--unin
--uno
--unu
--uo
--up
--upe
--ups
--ur
--ura
--uran
--urat
--ure
--uren
--urenan
--urin
--urip
--uro
--uru
--us
--usi
--uso
--usu
--usuhin
--usung
--ut
--uta
--ute
--uti
--utin
--uto
--utra
--uw
--uwi
--uwu
--uwung
--ux
--uyung
--uz
--v
--va
--val
--ve
--ved
--ven
--ver
--ves
--vic
--vich
--vik
--vin
--ving
--vo
--w
--wa
--wae
--wah
--wai
--wak
--wal
--wan
--wana
--wangi
--war
--wara
--wardhana
--wareng
--wari
--warman
--waru
--was
--wat
--wati
--watu
--way
--we
--web
--wen
--weng
--wero
--wesi
--wet
--wetan
--wi
--wiki
--wila
--wining
--wiru
--wiryo
--wis
--wn
--wo
--wok
--won
--wono
--woto
--woyo
--wu
--wuh
--wuluh
--wun
--wung
--wungu
--wur
--wuta
--wyn
--x
--xa
--y
--ya
--yaan
--yah
--yak
--yam
--yan
--yana
--yanan
--yane
--yang
--yanne
--yanto
--yap
--yar
--yaran
--yarin
--yasa
--yat
--yau
--ye
--yek
--yi
--ying
--yl
--yo
--yok
--yon
--yono
--yoso
--ys
--yu
--yudo
--yuh
--yuk
--yun
--yunan
--yung
--yur
--yut
--z
--za
--zan
--ze
--zen
--zer
--zi
--zo
--zozo
--zy
--ŋ
--ə
--ς
--о
--د
--ᬓ
--ᬕ
--ᬗ
--ᬚ
--ᬜ
--ᬢ
--ᬤ
--ᬦ
--ᬧ
--ᬩ
--ᬫ
--ᬬ
--ᬭ
--ᬮ
--ᬯ
--ᬲ
--ᬳ
