!
"
#
##0
##1
##10
##11
##12
##13
##14
##15
##16
##17
##18
##19
##2
##20
##21
##22
##23
##24
##25
##26
##27
##28
##29
##3
##30
##31
##32
##33
##34
##35
##36
##37
##38
##39
##4
##40
##41
##42
##43
##44
##45
##46
##47
##48
##49
##5
##50
##51
##52
##53
##54
##55
##56
##57
##58
##59
##6
##60
##61
##62
##63
##64
##65
##66
##67
##68
##69
##7
##70
##71
##72
##73
##74
##75
##76
##77
##78
##79
##8
##80
##81
##82
##83
##84
##85
##86
##87
##88
##89
##9
##90
##91
##92
##93
##94
##95
##96
##97
##98
##99
$
%
&
'
(
)
*
+
,
-
.
/
0
00
000
0000
001
002
003
004
009
01
010
011
012
015
017
02
020
021
022
02242
023
026
027
03
032
035
036
038
04
041
042
05
050
051
053
055
056
057
0578
059
06
062
063
07
073
08
080
082
0822
085
089
09
096
097
1
10
100
1000
10000
100000
1001
1002
1003
1004
1005
1006
1007
1008
1009
101
1010
10100
101000
1011
1012
1013
1014
1015
1016
1017
1018
1019
102
1020
10200
102000
1021
1022
1023
1024
1025
1026
1027
1028
1029
103
1030
10300
103000
1031
1032
1033
1034
1035
1036
1037
1038
1039
104
1040
10400
104000
1041
1042
1043
1044
1045
1046
1047
1048
1049
105
1050
10500
105000
1051
1052
1053
1054
1055
1056
1057
1058
1059
106
1060
10600
106000
1061
1062
1063
1064
1065
1066
1067
1068
1069
107
1070
10700
107000
1071
1072
1073
1074
1075
1076
1077
1078
1079
108
1080
10800
108000
1081
1082
1083
1084
1085
1086
1087
1088
1089
109
1090
10900
109000
1091
1092
1093
1094
1095
1096
1097
1098
1099
11
110
1100
11000
110000
1101
1102
1103
1104
1105
1106
1107
1108
1109
111
1110
11100
111000
1111
1112
1113
1114
1115
1116
1117
1118
1119
112
1120
11200
112000
1121
1122
1123
1124
1125
1126
1127
1128
1129
113
1130
11300
1131
1132
1133
1134
1135
1136
1137
1138
1139
114
1140
11400
114000
1141
1142
1143
1144
1145
1146
1147
1148
1149
115
1150
11500
1151
1152
1153
1154
1155
1156
1157
1158
1159
116
1160
11600
116000
1161
1162
1163
1164
1165
1166
1167
1168
1169
117
1170
11700
117000
1171
1172
1173
1174
1175
1176
1177
1178
1179
118
1180
11800
118000
1181
1182
1183
1184
1185
1186
1187
1188
1189
119
1190
11900
119000
1191
1192
1193
1194
1195
1196
1197
1198
1199
12
120
1200
12000
120000
1201
1202
1203
1204
1205
1206
1207
1208
1209
121
1210
12100
121000
1211
1212
1213
1214
1215
1216
1217
1218
1219
122
1220
12200
122000
1221
1222
1223
1224
1225
1226
1227
1228
1229
123
1230
12300
123000
1231
1232
1233
1234
12345
1235
1236
1237
1238
1239
124
1240
12400
1241
1242
1243
1244
1245
1246
1247
1248
1249
125
1250
12500
1251
1252
1253
1254
1255
1256
1257
1258
1259
126
1260
12600
1261
1262
1263
1264
1265
1266
1267
1268
1269
127
1270
12700
1271
1272
1273
1274
1275
1276
1277
1278
1279
128
1280
12800
1281
1282
1283
1284
1285
1286
1287
1288
1289
129
1290
12900
1291
1292
1293
1294
1295
1296
1297
1298
1299
13
130
1300
13000
130000
1301
1302
1303
1304
1305
1306
1307
1308
1309
131
1310
1311
1312
1313
1314
1315
1316
1317
1318
1319
132
1320
13200
1321
1322
1323
1324
1325
1326
1327
1328
1329
133
1330
13300
1331
1332
1333
1334
1335
1336
1337
1338
1339
134
1340
13400
1341
1342
1343
1344
1345
1346
1347
1348
1349
135
1350
13500
1351
1352
1353
1354
1355
1356
1357
1358
1359
136
1360
13600
1361
1362
1363
1364
1365
1366
1367
1368
1369
137
1370
13700
1371
1372
1373
1374
1375
1376
1377
1378
1379
138
1380
13800
1381
1382
1383
1384
1385
1386
1387
1388
1389
139
1390
13900
1391
1392
1393
1394
1395
1396
1397
1398
1399
14
140
1400
14000
1401
1402
1403
1404
1405
1406
1407
1408
1409
141
1410
14100
1411
1412
1413
1414
1415
1416
1417
1418
1419
142
1420
14200
1421
1422
1423
1424
1425
1426
1427
1428
1429
143
1430
14300
1431
1432
1433
1434
1435
1436
1437
1438
1439
144
1440
14400
1441
1442
1443
1444
1445
1446
1447
1448
1449
145
1450
14500
1451
1452
1453
1454
1455
1456
1457
1458
1459
146
1460
14600
1461
1462
1463
1464
1465
1466
1467
1468
1469
147
1470
14700
1471
1472
1473
1474
1475
1476
1477
1478
1479
148
1480
14800
1481
1482
1483
1484
1485
1486
1487
1488
1489
149
1490
14900
1491
1492
1493
1494
1495
1496
1497
1498
1499
15
150
1500
15000
150000
1501
1502
1503
1504
1505
1506
1507
1508
1509
151
1510
15100
1511
1512
1513
1514
1515
1516
1517
1518
1519
152
1520
15200
1521
1522
1523
1524
1525
1526
1527
1528
1529
153
1530
15300
1531
1532
1533
1534
1535
1536
1537
1538
1539
154
1540
15400
1541
1542
1543
1544
1545
1546
1547
1548
1549
155
1550
15500
1551
1552
1553
1554
1555
1556
1557
1558
1559
156
1560
15600
1561
1562
15623
1563
1564
1565
1566
1567
1568
1569
157
1570
15700
1571
1572
1573
1574
1575
1576
1577
1578
1579
158
1580
15800
1581
1582
1583
1584
1585
1586
1587
1588
1589
159
1590
15900
1591
1592
1593
1594
1595
1596
1597
1598
1599
16
160
1600
16000
1601
1602
1603
1604
1605
1606
1607
1608
1609
161
1610
16100
1611
1612
1613
1614
1615
1616
1617
1618
1619
162
1620
16200
162000
1621
1622
1623
1624
1625
1626
1627
1628
1629
163
1630
16300
1631
1632
1633
1634
1635
1636
1637
1638
1639
164
1640
16400
1641
1642
1643
1644
1645
1646
1647
1648
1649
165
1650
16500
1651
1652
1653
1654
1655
1656
1657
1658
1659
166
1660
16600
1661
1662
1663
1664
1665
1666
1667
1668
1669
167
1670
16700
1671
1672
1673
1674
1675
1676
1677
1678
1679
168
1680
16800
1681
1682
1683
1684
1685
1686
1687
1688
1689
169
1690
16900
1691
1692
1693
1694
1695
1696
1697
1698
1699
17
170
1700
17000
1701
1702
1703
1704
1705
1706
1707
1708
1709
171
1710
17100
1711
1712
1713
1714
1715
1716
1717
1718
1719
172
1720
17200
1721
1722
1723
1724
1725
1726
1727
1728
1729
173
1730
17300
1731
1732
1733
1734
1735
1736
1737
1738
1739
174
1740
17400
1741
1742
1743
1744
1745
1746
1747
1748
1749
175
1750
17500
1751
1752
1753
1754
1755
1756
1757
1758
1759
176
1760
17600
1761
1762
1763
1764
1765
1766
1767
1768
1769
177
1770
17700
1771
1772
1773
1774
1775
1776
1777
1778
1779
178
1780
17800
1781
1782
1783
1784
1785
1786
1787
1788
1789
179
1790
17900
1791
1792
1793
1794
1795
1796
1797
1798
1799
18
180
1800
18000
1801
1802
1803
1804
1805
1806
1807
1808
1809
181
1810
18100
1811
1812
1813
1814
1815
1816
1817
1818
1819
182
1820
18200
1821
1822
1823
1824
1825
1826
1827
1828
1829
183
1830
18300
183000
1831
1832
1833
1834
1835
1836
1837
1837311
1838
1839
184
1840
18400
1841
1842
1843
1844
1845
1846
1847
1848
1849
185
1850
18500
1851
1852
1853
1854
1855
1856
1857
1858
1859
186
1860
18600
1861
1862
1863
1864
1865
1866
1867
1868
1869
187
1870
18700
1871
1872
1873
1874
1875
1876
1877
1878
1879
188
1880
18800
1881
1882
1883
1884
1885
1886
1887
1888
1889
189
1890
18900
1891
1892
1893
1894
1895
1896
1897
1898
1899
19
190
1900
19000
1901
1902
1903
1904
1905
1906
1907
1908
1909
191
1910
19100
1911
1912
1913
1914
1915
1916
1917
1918
1919
192
1920
19200
1921
1922
1923
1924
1925
1926
1927
1928
1929
193
1930
19300
1931
1932
1933
1934
1935
1936
1937
1938
1939
194
1940
1941
1942
1943
1944
1945
1946
1947
1948
1949
195
1950
19500
1951
1952
1953
1954
1955
1956
1957
1958
1959
196
1960
19600
1961
1962
1963
1964
1965
1966
1967
1968
1969
197
1970
19700
1971
1972
1973
1974
1975
1976
1977
1978
1979
198
1980
19800
1981
1982
1983
1984
1985
1986
1987
1988
1989
199
1990
19900
1991
1992
1993
1994
1995
1996
1997
1998
1999
2
20
200
2000
20000
2001
2002
2003
2004
2005
2006
2007
2008
2009
201
2010
20100
2011
2012
2013
2014
2015
2016
2017
2018
2019
201997
202
2020
20200
202014
202019
2021
20210
2022
2023
2024
2025
2026
2027
2028
2029
203
2030
20300
2031
2032
2033
2034
2035
2036
2037
2038
2039
204
2040
2041
2042
2043
2044
2045
2046
2047
2048
2049
205
2050
20500
2051
2052
2053
2054
2055
2056
2057
2058
2059
206
2060
20600
2061
2062
2063
2064
2065
2066
2067
2068
2069
207
2070
20700
2071
2072
2073
2074
2075
2076
2077
2078
2079
208
2080
2081
2082
2083
2084
2085
2086
2087
2088
2089
209
2090
20900
2091
2092
2093
2094
2095
2096
2097
2098
2099
21
210
2100
21000
2101
2102
2103
2104
2105
2106
2107
2108
2109
211
2110
21100
2111
2112
2113
2114
2115
2116
2117
2118
2119
212
2120
2121
2122
2123
2124
2125
2126
2127
2128
2129
213
2130
2131
2132
2133
2134
2135
2136
2137
2138
2139
214
2140
2142
2143
2144
2145
2146
2147
2148
2149
215
2150
21500
2151
2152
2153
2154
2155
2156
2157
2158
2159
216
2160
21600
2161
2162
2163
2164
2165
2166
2167
2168
2169
217
2170
21700
217000
2171
2172
2173
2174
2175
2176
2177
2178
2179
218
2180
2181
2182
2183
2184
2185
2186
2187
2188
2189
219
2190
21900
2191
2192
2193
2194
2195
2196
2197
2198
2199
22
220
2200
22000
2201
2202
2203
2204
2205
2206
2207
2208
2209
221
2210
22100
2211
2212
2213
2214
2215
2216
2217
2218
2219
222
2220
22200
2221
2222
22222
2223
2224
2225
2226
2227
2228
2229
223
2230
2231
2232
2233
2234
2235
2236
2237
2238
2239
224
2240
2241
2242
2243
2244
2246
2248
2249
225
2250
2251
2252
2253
2254
2255
2256
2257
2258
2259
226
2260
2261
2262
2263
2264
2265
2266
2267
2268
2269
227
2270
22700
2271
2272
2273
2274
2275
2276
2277
2278
2279
228
2280
22800
2281
2282
2283
2284
2285
2286
2287
2289
229
2290
22900
2291
2293
2294
2295
2296
2298
2299
23
230
2300
23000
2301
2302
2304
2305
2306
2307
2308
2309
231
2310
23100
231000
2312
2313
2314
2315
2316
2317
2318
2319
232
2320
23200
2321
2324
2325
2326
2327
2328
2329
233
2330
2331
2332
2333
23342
2335
2336
2337
2338
2339
234
2340
23400
2341
2342
2343
2344
2345
2346
2347
2348
2349
235
23500
2351
2352
2353
2354
2355
2356
2357
2358
2359
236
2360
2361
2362
2363
2364
2365
2366
2367
2368
237
2370
2371
2372
2373
2374
2375
2376
2378
2379
238
2380
23800
2382
2383
2384
2386
2388
2389
239
2390
239000
2391
2393
2394
2395
2396
2398
2399
24
240
2400
24000
2401
2402
2403
2404
2405
2406
2407
2408
2409
241
2410
2411
2412
2413
2414
2415
2416
2417
2418
2419
242
2420
2421
2423
2424
2425
2426
2427
2428
2429
243
2430
2431
2432
2433
2434
2435
2436
2437
2438
244
2440
2441
2442
2443
2445
2446
2447
2448
2449
245
2450
24500
245000
2451
2452
2454
2455
2456
2457
2458
2459
246
2460
2461
2462
2463
2464
2465
2467
2468
2469
247
2470
2471
2473
2474
2475
2476
2477
2478
2479
248
2480
24800
2481
2482
2483
2484
2485
2486
2487
2488
249
2490
24900
2491
2492
2493
2494
2495
2496
2497
2498
2499
25
250
2500
25000
250000
2501
2502
2503
2504
2505
2506
2508
2509
251
2510
25100
2511
2512
2513
2514
2515
2516
2517
2519
252
2520
2521
2522
2523
2524
2525
2526
2527
2528
2529
253
2530
2531
2532
2533
2534
2535
2537
2539
254
2540
2541
2543
2544
2545
2546
2547
2549
255
2550
25500
2551
2552
2553
2555
256
2560
25600
2561
2562
2563
2564
2566
2567
2568
2569
257
2571
2572
2573
2574
2575
2576
2577
2578
258
2580
2581
2582
2584
2585
2586
2587
2588
2589
259
2590
25900
2591
2592
2593
2594
2595
2596
2597
2598
26
260
2600
26000
2601
2602
2604
2605
2606
2607
2608
2609
261
2610
26100
2611
2612
2613
2614
2615
2616
2617
2618
2619
262
2620
26200
2621
2622
2623
2624
2625
2626
2627
263
2630
2631
2633
2635
2636
2637
2638
2639
264
2640
26400
2641
2642
2643
2644
2645
2646
2647
2649
265
2650
26500
2654
2655
2657
2658
2659
266
2660
2661
2662
2663
2666
2669
267
2670
26700
2671
2672
2673
2674
2676
2677
2678
2679
268
2680
26800
2681
2682
2683
2684
2685
2686
2687
2688
2689
269
2690
26900
2691
2692
2693
2694
2695
2696
2697
2698
2699
27
270
2700
27000
2701
2703
2704
2706
2707
2708
2709
271
2710
27100
2711
2712
2713
2714
2715
2717
272
2720
2721
2723
2724
2726
2727
2728
2729
273
2730
27300
2732
2733
2734
2735
2738
2739
274
2740
27400
2742
2743
2744
2745
2746
2747
2748
275
2750
27500
2751
2753
2754
2755
2757
2758
2759
276
2763
2764
2765
2766
2767
2768
2769
277
2770
2771
2772
2773
2774
2775
2777
2778
278
2780
27800
2783
2784
2788
279
2790
2792
2793
2795
2796
2798
2799
28
280
2800
28000
2801
2802
2803
2806
2808
2809
281
2810
2811
2812
2813
2815
2816
2818
282
2820
28200
2821
2823
2824
2826
2827
2829
283
2830
28300
2831
2833
2834
2835
2836
2837
284
2840
2841
2842
2843
2848
2849
285
2850
28500
2851
2852
2853
2856
286
2862
2864
2867
287
2870
2871
2872
2875
2876
2877
2878
288
2880
2882
2884
2885
2886
2887
2888
2889
289
2890
28900
2892
2893
2894
2895
2897
2898
2899
29
290
2900
29000
2901
2902
2906
2907
2909
291
29100
2911
2912
2913
2914
2915
2916
2918
2919
292
2923
2924
2926
2927
2929
293
2931
2932
2934
2935
294
2941
2943
2944
2946
2947
2949
295
2951
2952
2953
2955
2957
2958
2959
296
2960
2962
2963
2964
2967
2968
2969
297
2970
2973
2974
2975
2976
2978
2979
298
2980
29800
2981
2982
2984
2986
2988
299
2990
2992
2994
2996
2998
3
30
300
3000
30000
3001
3002
3003
3004
3005
3006
3007
3008
3009
301
3011
3012
3013
3014
3016
3017
3018
302
3020
3022
3023
3024
3025
3026
3027
3028
3029
303
3030
3031
3033
3034
3035
3036
3039
304
3040
30400
3044
3045
3046
3047
3049
305
3050
30500
3051
3052
3055
3056
3057
3059
306
3060
30600
3061
3062
3063
3064
3065
3066
3068
307
3070
30700
3071
3072
3074
3075
3076
3077
3079
308
3080
30800
3082
3083
3087
3088
309
3090
3091
3092
3094
3096
3097
3098
3099
31
310
3100
31000
3103
3105
3107
3108
3109
311
3110
31100
3111
3113
3114
3115
3116
312
3121
3123
3124
3126
3127
3128
3129
313
3131
3132
3133
3134
3135
314
3141
3143
3144
3148
3149
315
31500
3153
3154
3156
3157
3158
3159
316
3161
3163
3165
3167
317
3170
3172
3174
3175
3176
3178
318
3180
3181
3184
3187
3188
319
3190
31900
319000
3191
3192
3193
3194
3195
3198
32
320
3200
32000
320000
3205
3207
3208
3209
321
3214
3216
3217
32172
322
3220
3221
3222
3224
3225
3226
3228
3229
323
3230
3232
3233
3234
3236
3238
324
32400
3241
3243
3244
3246
3247
325
3252
3253
3254
3259
326
3260
3262
3263
327
3270
3272
3278
3279
328
3280
3283
3284
3286
329
3291
3292
3296
3299
33
330
3300
33000
3301
3302
3306
3308
3309
331
3312
3313
3316
3319
332
3320
3321
3324
3325
3326
3327
3328
333
3330
3331
3332
3334
3337
3339
334
3340
3343
3344
3349
335
3350
3351
3352
3353
3354
3355
3356
3357
3358
336
3360
3362
3366
3367
3368
3369
337
3370
3371
3372
3374
3375
3378
3379
338
338000
3384
3385
339
3390
3392
3394
3395
3398
34
340
3400
34000
3401
3405
3408
341
34100
3411
3412
3418
342
3420
3422
3423
3424
3425
3426
3427
343
3433
3434
3435
3437
3438
344
3441
3444
3446
3448
3449
345
3450
3452
3456
3458
3459
346
3460
3461
3462
3465
3469
347
3470
3473
3477
3478
3479
348
3480
3482
349
34900
3491
3494
35
350
3500
35000
3504
3508
351
3510
3515
3516
3517
352
3527
353
3530
35300
3533
3538
354
3544
3548
355
3553
3555
356
3567
357
3575
3576
3579
358
3581
3583
359
3591
3596
3599
36
360
3600
3605
3607
3609
361
361000
3616
3618
362
3622
3625
3627
363
3634
364
3649
365
3650
3652
366
3660
3669
367
3671
368
3680
3683
3686
369
3690
37
370
3700
37000
371
3713
372
3720
3721
3725
373
3734
3738
374
3741
3742
3744
3749
375
3753
3755
376
3761
3766
3767
377
3770
3777
378
3784
3786
3788
379
3798
38
380
3800
38000
3805
381
3812
3817
3818
382
3824
3828
383
3830
3831
3832
3835
384
3844
385
3856
3859
386
3865
3866
387
3872
3876
388
3880
3886
3889
389
39
390
3900
39000
3906
3907
391
392
3920
3923
3927
3928
393
3936
394
3941
395
3952
3956
396
397
3977
398
399
3997
4
40
400
4000
40000
4005
4007
4008
401
4015
4017
402
403
4039
404
4040
4046
405
4053
4059
406
4062
4063
407
408
409
4090
41
410
4100
41000
4104
4109
411
4115
412
4121
4122
4125
413
41300
41385
4139
414
4140
4143
415
41500
4152
4153
416
4165
417
418
41800
4187
419
4190
4191
4199
42
420
4200
42000
4203
4209
421
4211
4218
4219
422
423
4230
4239
424
425
4255
4256
426
427
4279
428
4283
4288
429
43
430
4300
43000
4304
4309
431
4315
4317
432
4326
433
4331
4336
434
4345
435
4352
43527
4354
4357
436
4361
4362
437
4379
438
4385
439
4395
4398
44
440
4400
44000
4401
4406
441
4418
442
4427
443
4437
4438
444
445
446
4462
447
4470
448
449
4492
45
450
4500
45000
451
452
453
454
4542
455
456
457
4572
4577
458
4589
459
46
460
4600
46000
4607
4609
461
4610
4615
462
4620
4623
4624
463
4633
464
465
466
4666
467
4677
468
469
4691
4699
47
470
4700
47000
471
472
4723
473
4730
474
4741
4744
4745
475
476
477
4772
4778
478
4781
479
48
480
4800
48000
481
482
483
484
4846
4849
485
486
487
488
489
4898
49
490
4900
49000
491
4914
492
4924
493
4933
4935
494
4945
495
4953
496
497
4977
498
4988
499
4993
4997
5
50
500
5000
50000
500000
5002
5005
501
5011
5013
502
5020
5021
5025
503
503036217
5031
504
505
5050
5056
5058
506
507
5071
5074
5076
508
5082
5083
5084
509
5090
51
510
5100
51000
511
5111
512
5120
5121
5122
5125
513
514
5142
5144
5145
515
5150
5155
516
5161
5164
517
5173
5175
5177
518
519
5190
5198
52
520
5200
52000
5201
5204
521
522
5225
5226
523
5233
524
525
5257
526
527
5276
528
529
5298
53
530
5300
53000
531
532
5325
533
534
535
536
5364
537
5370
538
5384
539
5397
54
540
5400
54000
541
5414
5417
542
543
544
5444
545
5454
546
5466
547
5478
548
5483
549
5490
5498
55
550
5500
55000
551
552
553
5531
554
555
556
557
5570
5574
5578
558
559
5598
56
560
5600
56000
561
562
5628
563
564
5645
5647
5648
565
566
567
568
569
57
570
5700
57000
571
572
573
5738
574
5742
5747
575
576
5762
577
5778
578
579
58
580
5800
58000
581
582
5826
583
584
585
5851
5851582170
5852
586
587
588
589
5892
59
590
5900
59000
591
5910
592
5924
593
594
5946
595
596
597
598
5987
599
5994
5995
6
60
600
6000
60000
601
602
6025
603
604
6048
605
606
607
608
609
61
610
6100
61000
611
612
613
614
6142
615
616
617
618
619
62
620
6200
62000
621
622
623
624
625
626
627
628
629
63
630
6300
63000
631
632
633
634
635
6350
636
637
638
639
64
640
6400
64000
641
642
643
644
6446
645
646
647
648
6489
649
65
650
6500
65000
651
652
653
654
655
656
657
658
659
6595
6596
66
660
6600
66000
661
662
663
664
665
666
667
668
669
67
670
6700
67000
671
672
673
674
675
676
677
678
679
68
680
6800
68000
681
682
683
684
685
686
6860
687
688
689
69
690
6900
69000
691
692
693
694
695
696
697
698
699
7
70
700
7000
70000
701
702
703
704
705
706
707
708
709
71
710
7100
71000
711
712
713
714
715
716
717
7178
718
719
72
720
7200
72000
721
722
723
724
725
726
727
728
729
73
730
7300
73000
731
7318
732
733
734
735
736
737
738
739
74
740
7400
741
742
743
744
745
746
747
748
749
7493
75
750
7500
75000
751
752
753
754
755
756
757
758
759
7595
76
760
7600
761
762
763
764
765
766
767
768
769
77
770
7700
77000
771
772
773
774
775
776
777
778
779
78
780
7800
78000
781
782
783
784
785
786
787
788
789
79
790
7900
79000
791
792
793
794
795
796
797
798
799
8
80
800
8000
80000
801
802
803
804
805
8051
806
807
808
809
81
810
8100
81000
811
8112027
812
813
814
815
816
817
818
819
82
820
8200
82000
821
822
823
824
825
826
827
828
829
83
830
8300
83000
831
832
833
834
835
836
837
838
839
84
840
8400
841
842
843
844
845
846
847
848
849
85
850
8500
850712
851
852
853
854
855
856
857
858
859
86
860
8600
86000
8601
861
86153
862
863
864
865
866
867
868
869
87
870
8700
871
872
873
874
875
876
877
878
879
88
880
8800
88000
881
882
883
884
885
886
887
888
889
89
890
8900
891
892
893
894
89476
895
896
897
898
899
9
90
900
9000
90000
901
902
903
904
905
906
907
908
909
91
910
9100
91000
911
912
913
914
915
916
917
918
919
91940
92
920
9200
921
922
9223372036854775808
923
924
925
926
927
928
929
93
930
9300
931
932
933
934
935
936
937
938
939
94
940
9400
941
942
943
944
945
946
947
948
949
95
950
9500
95000
951
952
953
954
955
956
957
958
959
96
960
9600
96000
961
962
963
964
965
966
967
968
969
97
970
9700
97000
971
972
973
974
975
976
977
978
9783
979
98
980
9800
98000
981
982
983
984
985
986
987
9876
988
989
99
990
9900
991
992
993
994
9949
995
9955
996
997
998
9984
9985
9986
999
9999
:
;
<
=
>
?
@
\
^
_
`
a
aa
aaa
aakhmedova
aaude
ab
abbr
abbreviated
abc
able
ablon
ablonas
about
above
abs
absolute
abstract
ac
acacallis
academic
academy
acampe
acanthephippium
accept
accepted
accepting
access
accessdate
accessible
according
account
accounts
ace
acianthera
acianthus
acineta
acriopsis
across
act
acta
action
actions
active
activeusers
activity
actm
actual
actually
ad
ada
adam
adansonia
add
addcat
addclass
added
adding
addition
additional
addnamed
addr
address
adds
adenoncos
adjacentnumbers
adjust
adm
admin
administrativno
administrator
admins
adria
advanced
ady
ae
aerangis
aeranthes
aerial
aerides
af
affect
affected
affects
afghanistan
africa
african
after
afterwards
ag
again
against
aganisia
age
agency
agf
aglossorrhyncha
ago
agric
agrostophyllum
ah
ahead
ai
air
aires
airport
aizpute
aj
ak
ako
aksubaevskij
al
alaska
alba
alemania
alexander
algeria
ali
alias
aliases
aliaseslist
aliasesp
align
alignbars
all
alleseiten
allow
allowed
allows
allpages
along
alp
alpha
alphascale
already
als
also
alt
always
alytaus
alytus
am
ambox
america
american
ames
amitostigma
among
amount
amu
amursk
an
anacamptis
anathallis
anatolica
anchor
ancipitia
ancistrorhynchus
and
andres
android
ang
angle
angraecopsis
anguloa
angustifolia
animated
animation
ann
anne
anno
annotations
announce
announced
announcement
announcing
annual
anoectochilus
another
ansellia
answer
anthropophora
antilla
any
anyks
anylang
anyone
anything
ao
ap
api
apoda
apologies
apologize
apostrophe
appearance
appears
appendicula
appendiculata
appendimpl
appendproperty
appendsnaks
applications
applied
applies
apply
appreciated
appropriate
april
apuwwdb
aq
aqpk
ar
arabic
arachnis
arbitrary
arc
arch
architecture
archive
archived
archivedate
archiveurl
arctic
are
area
areas
aren
arena
arenas
arg
argentina
argkeys
argname
argnumber
args
argsi
argsk
argsv
argument
arguments
arhpress
arizona
ark
armenia
armenian
army
around
array
art
article
articles
articlestsaritsyn
artocarpus
arts
arxiv
as
ascocentrum
ascoglossum
asin
ask
asmara
aspasia
aspidogyne
aspx
assemble
assembleoutput
assertnotnull
assigned
associated
assume
ast
astri
astrobl
asv
at
atdate
atlas
attempt
attention
attr
attribute
attributes
au
audio
auf
august
aurantiaca
austral
australia
author
authority
authorlist
authormain
authors
auto
autoconfirmed
automatic
automatically
autonomous
autoreview
autumn
av
available
avenida
avenue
aver
average
avoid
aw
awarddata
away
ax
axis
axrszsi
ay
ayalt
az
b
ba
back
background
backgroundcolors
bad
badge
badges
badtwins
bahamas
band
bank
banner
bannertemplate
bar
barb
barbosella
bardata
bare
barkeria
barlabelcellstring
barlia
barnaul
barra
barros
bas
base
based
baseline
basepagetitle
basestyle
basetaxon
bashstat
basi
basic
baskervilla
bat
baumann
bauska
bay
bazni
bb
bbc
bc
bce
bcp
bd
be
beach
beatles
because
become
becomes
bee
been
before
begin
beginning
begins
begun
behalf
behavior
behind
beih
being
bekovo
bel
belfort
beloglottis
below
ben
benn
benth
benthamia
ber
berg
berlin
beso
best
beta
better
between
bf
bg
bh
bi
bibcode
biblioteka
bicolor
biermannia
bifrenaria
big
bijdr
billion
binomial
biographies
biologique
biorxiv
bipinnula
bir
birth
bissau
bit
bj
bk
bkzi
bl
black
blacklist
blacklisting
blank
blanter
bletia
bletilla
block
blocker
blocks
blog
blue
blume
blurb
blurbobj
bm
bms
bn
bo
board
body
bogota
bold
bolivia
bolus
bonus
book
books
bookseries
boolean
border
bordz
borjomi
borneo
bosser
bostonas
bot
both
bots
botsuana
botswana
bottom
bound
boundaries
bouriquet
box
boxargs
boxdate
boxtable
bp
bq
br
brachionidium
brachypeza
brachystele
bracket
brackets
brade
branch
bras
brassavola
brassia
brazil
brazilian
break
brenesia
bri
bridge
brieger
bring
britannica
british
broken
bromheadia
broughtonia
brown
brownleea
browser
brts
bry
bs
bst
bstructure
bt
bu
buch
bucharest
budapest
buenos
bug
bugs
bugzilla
build
builder
building
built
buitenzorg
bulgaria
bull
bur
burundi
but
button
buttons
buzanskijselsovet
bv
bw
bx
by
byte
bz
c
ca
cache
cached
cadetia
caladenia
calanthe
calcarata
calendar
calendarmodel
california
call
called
calling
callparserfunction
calls
calochilus
calyptorhynchus
cambridge
campaign
campylocentrum
camus
can
canada
canadian
candidates
cannot
canonical
canvas
cap
capanemia
cape
capital
caption
capture
card
cardinal
cards
caribbean
caricyna
carnevali
carr
casa
case
cases
castle
cat
catasetum
catedral
categoria
categories
categorisation
categorise
categorization
category
categoryhandler
categorynameprefix
categoryprefix
cathedral
catholic
catname
cats
cattleya
caucaea
caucasus
cause
cb
cbk
cc
cd
ce
ceb
celje
cell
cells
cellstyle
center
centered
central
centralbl
centralnotice
centras
centre
centro
century
cephalanthera
cephalantheropsis
ceratostylis
certain
cf
cfg
cg
cgi
ch
cha
chain
chamaeangis
chan
change
changed
changes
changing
chapter
char
character
characters
charles
chart
chartmarks
charts
charttype
chartvis
chase
chaubardiella
che
check
checked
checking
checklist
checks
checktype
checktypefornamedarg
cheirostylis
chen
chiapas
chicago
child
childnumber
chile
chiloglottis
chiloschista
china
chinese
chislennost
chitonanthera
chondrorhyncha
choose
chosen
chr
christchurch
christenson
christmas
chrysocycnis
chu
chumikanadm
church
chuvashskij
chv
chysis
ci
cid
cifu
cio
circa
circle
circumstances
cischweinfia
citation
citationclass
citations
cite
citeparams
citeref
citeseerx
cities
citoid
city
cityes
civil
cj
cjk
ck
ckb
cl
clade
cladestring
claim
claimcommands
claims
class
classes
classical
classif
classification
classstring
clean
clear
cleisocentron
clem
click
climate
clone
close
cm
cmbox
cmfsaglzdc
cmfulnj
cn
co
cobar
cochleanthes
cochlioda
code
codepoint
codes
cogn
coilostylis
coins
col
colhead
collabium
collaboration
collapse
collapsed
collapsible
collect
collection
collections
collegium
collinwood
colon
colonial
color
colors
colorscale
colour
cols
colspan
colstyle
columba
columbia
columbus
column
columns
com
comber
come
coming
comma
command
commands
commas
comment
comments
committee
common
commons
commonsmedia
communities
community
compact
company
compare
comparettia
compareurl
compatibility
complete
complex
components
compressa
compresssparsearray
computer
concat
concatenate
concatenated
concatenation
concerns
condition
conduct
conf
conference
conferenceurl
config
configtables
configuration
confirmed
conflict
conflicts
congo
congress
conjunction
connect
connecticut
connecting
cons
consensus
consider
consideration
consistent
consultation
consultations
contact
contain
container
containing
contains
content
contentmodel
contents
contest
context
continue
contribute
contribution
contributions
contributor
contributors
control
conversation
conversations
conversion
convert
converted
coord
coordinate
coordinates
coordinatespec
coordinator
coords
copy
corallorhiza
cordem
cordigera
core
cork
corporate
correct
corresponding
corunastylis
coryanthes
corybas
corycium
corymborkis
could
count
counter
countries
country
countryentityid
countrystatement
county
course
cover
cp
cq
cr
create
created
creating
creation
cribb
crimea
cristata
crocodeilanthe
crop
cropped
cross
cruz
cryptocentrum
cryptostylis
cs
css
csstext
cst
ct
ctat
cu
cuba
cultural
culture
cup
cur
curlie
curr
current
currententity
currently
currenttitle
currtaxon
cursor
curstate
custom
customtitle
cv
cw
cx
cy
cyberleninka
cyclopogon
cycnoches
cymbidium
cynorkis
cypraea
cypripedium
cyprus
cyrtopodium
cyrtostylis
cystorchis
cz
d
da
dab
dabbed
dactylorhiza
dag
dai
daily
dakar
dallwitz
damascus
dance
dans
dansk
dark
darkgrey
das
dash
dashboard
data
database
datarow
dataset
datatype
datavalue
date
dateformat
datein
dateofbirth
datepart
dates
daugavpils
david
day
days
db
dbinet
dbscripts
dc
dd
de
dea
dead
deal
dean
death
debug
dec
decade
december
decide
decimal
decimalprecision
decision
decode
decyear
deepcopy
default
defaultns
defaults
define
defined
definition
deg
degree
degrees
dei
deiregyne
del
delenie
delete
delimit
delink
delivered
delivery
delle
demo
democratic
demograficheskie
demoscope
demospace
den
dendrobium
dendrochilum
dendrophylax
denominator
densiflora
department
depend
dependencies
depending
deployment
deprecated
depth
der
des
desc
description
descriptions
design
desired
desktop
details
detect
detected
determine
determines
developers
development
devices
df
dg
dha
dhbzoi
dhj
di
dialog
dichaea
dictionary
did
didymoplexis
die
diff
difference
different
digit
digital
digits
dija
dilochia
dimerandra
din
diplocaulobium
dipodium
dir
direct
direction
directly
dirlbot
disa
disable
disabled
disambig
disambiguation
disambiguator
disaster
discolor
discouraged
discuss
discussion
discussions
disp
disperis
display
displayed
displays
displaytext
dispute
disruption
dissemination
dissertation
distance
distributed
district
ditions
diuris
div
diverse
diversity
dizionario
dj
dk
dl
dm
dms
dmy
dn
do
doc
docket
dockrillia
docs
doctitle
document
documentation
documents
docviewer
docx
dod
dodson
does
doesn
doi
dom
domain
domains
dome
don
donation
done
doritis
dot
double
down
download
downtown
dp
dq
dr
dracontia
dracula
draft
drafting
drakaea
draw
draws
dream
dressler
dresslerella
dressleria
drone
drop
dropped
ds
dsb
dsc
dstructure
dt
dtable
dtxt
dtype
du
dublin
due
duisburg
dunst
duplicate
duration
during
dv
dvinaland
dw
dx
dy
dyk
dz
e
ea
each
eao
earlier
early
earth
easier
easily
east
eastern
easy
eb
ec
economic
ecuador
ed
edit
edited
edithistory
editing
edition
editor
editors
edits
edn
eds
education
edward
ee
een
eesti
eestigiid
ef
effect
eg
eh
ei
eid
either
ej
ek
ekstremalnyh
el
elamu
elata
election
elections
elegans
elektre
element
elements
eli
elib
eligible
elitre
elongatia
eloyella
else
elseif
em
email
emarginata
embargo
emit
empty
empusa
emulated
en
enable
enabled
enciklope
enciklopedijos
enciklopediju
encode
encoded
encourage
encyclopaedia
encyclope
encyclopedia
encyclopædia
end
endash
ending
endl
ends
enforcement
engagement
engine
engineer
engineering
engler
english
enter
entities
entity
entityid
entries
entry
entsu
enumerated
env
environment
environments
eo
ep
epiblastus
epidendroideae
epidendrum
epigeneium
epipactis
epipogium
episode
eq
equal
equals
equivalent
er
era
eria
eriochilus
erl
err
errend
errformat
error
errors
errortext
erycina
es
escape
escobar
espan
est
estados
estonia
et
etal
etc
ethiopia
eu
eulophia
europe
european
ev
even
event
events
eventually
every
everyone
everything
ew
ex
example
examples
except
exclude
exilis
exist
existing
exists
expand
expanded
expandspecialsqualifiers
expandtemplate
expected
experience
experienced
experiment
expiry
explanation
explicitly
exponent
export
ext
extended
extendedconfirmed
extension
extensions
extensiontag
external
extra
extract
extralinkfunctions
extraneous
ezh
ezhegodnik
f
fa
factbook
factor
fail
failing
falcata
fall
fallback
falls
false
families
family
famname
faq
far
faster
favorite
fb
fbwvudt
fc
fdate
fdc
fe
feature
features
feb
february
feedback
feel
female
feminism
fenno
festival
fetch
fetches
fetchwikidata
few
ff
fg
fi
field
fieldname
fields
file
filename
files
filiformis
fill
filled
film
filter
fimbriata
final
find
findlang
finds
finet
finish
finland
fire
first
firstn
fitzg
five
fix
fixed
fj
fk
fl
flag
flagimage
flagimagestatement
flags
flava
flickingeria
flickr
flight
float
floor
flow
flowering
flu
fm
fmbox
fmt
fn
fo
focus
focused
folk
folklore
follow
followed
following
font
fontsize
foo
fooentity
footer
for
force
foreign
forest
form
format
formatdate
formatlink
formatnum
formatparams
formatproperty
formatpropertywithmostrecentclaimandindicator
formatrefs
formats
formatsnak
formatstatement
formatstatementdefault
formatted
formattedcaption
formattedclaims
formattedstatement
formatter
formatting
former
formula
forpus
fort
fortress
forward
fossil
fossilrange
found
foundation
four
fourth
fp
fq
fr
fra
fraction
fragment
fragrans
frame
frameless
frameonly
framework
france
francisco
frankfurt
frapp
free
freedom
french
frhdkazan
from
front
fs
ft
ftp
fu
fuchsii
full
fullargs
fullname
fulltext
fullurl
fully
func
funcname
function
functionality
functions
funds
further
future
fv
fw
fx
fy
fyi
fz
g
ga
gadgets
gagnep
gala
galeandra
galearis
galeola
gallery
game
games
garay
gard
garden
gargz
garliava
gas
gastrochilus
gate
gb
gc
gcomp
gd
ge
gelaltar
gen
gender
genera
general
generalcommands
generaloptions
generate
generated
generates
generic
genitivusmonthesnm
genitivusmonthesom
genre
genus
genyorchis
geo
geograph
geoinfobox
geomask
george
georgia
georgian
gerais
german
germany
get
getallstatements
getargnums
getargs
getbeststatements
getcategorybycode
getcatforid
getcode
getconfig
getcontentlanguage
getcurrentframe
getcurrenttitle
getentity
getentityidforcurrentpage
getentityobject
getenvironment
getexpandedmessage
getfile
getinvocation
getlabel
getlabelwithlang
getmapparams
getopt
getparameters
getparammappings
getparent
gets
getsingle
getsinglestringqualifiervalue
getsitelink
gettemplateoutput
getting
gettitle
getvalue
geva
gf
gg
gh
ghana
gi
gif
gigantea
gilbert
gimnazija
give
given
gives
gj
gje
gks
gl
global
globals
globe
glomera
glossary
gmatch
gmbdewbj
gmelin
gnd
go
goal
goals
god
gody
going
golden
good
google
gori
goroda
got
gov
government
govpubs
gp
gr
gracilis
grande
grandiflora
grant
granted
grants
graph
graphs
gray
great
greater
greek
green
greetings
gregorian
grey
gridcolor
griff
group
groups
grus
gryfino
gs
gsub
gt
gu
guide
guidelines
guides
guine
guinea
guyana
gv
gw
gx
gy
gz
h
ha
habstat
had
haiti
half
hall
hamburg
hand
handbuch
handle
handler
handlers
hangul
hannover
hans
hant
happen
happens
happy
harassment
hard
harmattan
hartford
harv
has
hash
hatnote
have
haven
having
hawkes
hayata
hb
hbwu
hd
hdl
hdr
he
head
header
headers
heading
health
hear
heart
heft
height
heikki
heiligengrabe
hello
help
helped
helper
helping
helsinki
hemisphere
henry
here
hermans
hex
hf
hh
hi
hidden
hiddencat
hide
hierarchy
high
highlight
highlights
hill
hills
him
himalaya
hirtz
hirtzii
his
hist
histo
historia
historic
historical
history
hj
hl
hlist
hm
hmao
hn
ho
hoehne
hoehnea
hold
holding
holds
hole
holttum
holy
home
hong
hook
hooks
hoone
hope
hopper
horizontal
hospital
host
hotel
hour
hours
house
how
however
hozyaystvo
hq
hr
hrsg
hsb
ht
hth
htm
html
http
https
hu
human
humanities
hv
hvi
hw
hx
hy
hyphen
hyphens
i
ia
iai
ib
ic
ice
ichnos
icon
icons
id
idea
ideas
ident
identification
identifier
identifiers
ideograph
ids
idx
idxformat
ie
iela
ien
ietf
if
ig
iglesia
ignore
ignored
igreja
ii
iii
iiwidhmioje
ij
ijoinzu
ijoiote
ik
il
iliustr
illhkomisc
illustrations
iltnere
im
image
imagediv
imageleft
imageright
images
imagesize
imbox
img
imh
impact
implement
implemented
implements
important
imported
improve
improved
improvements
improving
in
ina
inactive
inbord
incarnata
include
included
includes
including
incorrect
increment
indef
indent
independence
indes
index
india
indian
indicate
indicator
individual
individuals
indo
info
infobox
infoboxes
infocardclass
infocards
infocardtemplate
inform
information
informed
ing
ingdate
inherit
initial
initialise
initials
initiative
injdate
inline
innenraum
input
ins
insert
inserter
inset
inside
inspect
inst
instance
instead
institute
instructions
integer
intelligence
intended
inter
interested
interface
internal
international
internet
internetarchivebot
interview
interviewer
interwiki
interwikitable
interwikitablekey
into
intro
introduction
invalid
inversed
invest
invisible
invite
invited
invocation
invoke
involved
invybci
io
iof
ip
ipairs
ipv
iq
ir
ira
ireland
irk
is
isbn
isdate
isempty
isfaha
isinteger
isinversed
island
islands
ismn
isn
isnegative
isnotempty
iso
israel
iss
issmall
issn
issue
issues
ist
istmat
istoriya
isxn
isyear
it
italian
italic
italica
italicize
italicized
italics
italictitle
italmarker
italy
item
itemid
items
iterate
iterator
itogi
its
itself
iu
iv
iva
iw
ix
j
ja
jaani
jacquiniella
jahrb
jamaica
james
jan
janeiro
january
japan
japanese
jard
jas
javanica
javascript
jean
jeh
jelgava
jethrobt
jew
jf
jfm
jh
jhas
ji
jj
jk
jl
jm
jmtlew
jnrlehq
jnrszd
jnrtpte
jo
john
join
jonava
jonavos
jones
jonis
journal
journals
jpeg
jpg
jr
js
json
jstor
jtnez
ju
juan
julian
july
june
juqwjtk
juqwjui
juqwjujbjuqwjuiwkyvemsu
juqwjujcjuqwjui
juqwjujcjuqxjthdjuqxjtgxjuqwjujbkze
juqwjujcjuqxjtkxjuqwjujejuqwjujejuqxjthcjuqxjtg
juqwjujdjuqwjujfjuqwjuizjuqxjtgwjuqwjuiwjuqxjtg
juqwjujejuqwjui
juqwjujejuqwjuiwjuqwjujdjuqwjui
juqwjujejuqwjujfjuqxjtgwjuqwjui
juqwjujfjuqwjuiyjnvybd
juqxjthgjnvybd
jurbarkas
juss
just
justify
jv
jyva
k
ka
kab
kadavoor
kag
kai
kak
kal
kam
kao
kar
karatuzraion
kas
kastoria
kategori
kategorie
kaunas
kb
keep
kehra
keila
kem
kemerovsk
kenya
kern
kew
key
keyboard
keys
keyword
keywords
kha
khabkrai
khartoum
khazar
kherson
khk
khosheutovskijselsovet
khv
ki
kind
king
kingdom
kingfisher
kio
kir
kirche
kirchspiel
kirik
kirkko
kirovsk
kis
kj
kk
kl
klopeedia
kloster
km
kn
know
knowledge
known
ko
koi
kokkola
kolonnen
kom
komi
kong
kopenhagen
korean
kos
kr
kra
kraenzl
kraenzlinella
kraj
kranch
kranj
kras
krasnod
kreutz
krm
krsnjar
ks
ksh
ku
kubanzdrav
kug
kuldi
kultu
kunth
kuntze
kur
kuressaare
kv
kw
kwazulu
ky
kya
kyoto
kyvemcvcrivemsu
l
la
label
labelorid
labels
lake
lang
langcode
langobj
langs
language
languages
languagescode
lapse
large
larin
las
last
lat
late
later
latex
latin
latitude
latminutes
latvia
latvijas
launch
lauterbach
law
laxiflora
lay
layformat
layout
laysource
layurl
lazdijai
lazily
lb
lbe
lbl
lbnu
lc
lccn
le
lead
leading
leadout
leaf
leafl
leap
learn
learning
least
leave
lechevalier
left
legacy
legal
legend
legends
lehm
leidykla
len
length
lenina
leningr
leningradskoi
les
less
let
letter
letters
level
levels
lez
lg
lh
li
libraries
library
libraryutil
lica
license
liepa
lietuva
lietuviu
lietuvos
life
light
lightgrey
like
likely
lima
limit
limited
linden
lindl
lindley
lindleyana
line
linear
linegrey
lines
link
linkbody
linked
linkfunctions
links
linn
linnaeus
lip
liparis
list
listed
lists
listtotext
listtype
literature
lithuania
little
live
living
ljubljana
lk
ll
lm
lmcmftzsi
lmen
ln
lng
lo
load
loaddata
loaded
loading
loc
local
localisation
locally
location
lock
locmap
log
logged
logo
logobject
lome
lon
london
lonely
long
longer
longicauda
longifolia
longitude
lonminutes
look
looking
looks
lookup
loop
lorenz
los
loss
lost
love
loves
low
lower
lowercase
lp
lpwrvy
ls
lt
ltsamaa
lu
lua
luanda
luer
lum
luzon
lv
lviv
lw
ly
lz
m
ma
macmillan
macrantha
maculata
madagascar
made
mag
magazine
magic
mai
mailing
main
mainsnak
maint
maintain
maintenance
maintext
maja
majalis
major
make
makecategorylink
makeinvokefunc
makes
makeurllink
makewikilink
makewikitexterror
making
mal
mala
malawi
male
mall
malline
mallnitz
man
manif
manila
manor
mansfield
mantissa
manual
manually
manuelt
many
map
mapframe
mapname
mappings
maps
maputo
mar
march
margin
marguments
mari
maria
maribor
marijampole
mark
marker
market
marks
marksize
markup
mars
martin
mary
mascula
mask
maskitem
maskitemid
mass
match
matches
matching
material
materials
math
mating
max
maxima
maximum
maxnumber
maxvals
may
mb
mbox
mc
mclfmjaxnl
mcu
mcuyov
md
mde
mdf
mdqynzgymtkmdgxkpxj
mdqynzgymza
mdy
me
means
medal
medals
media
mediabank
mediawiki
medical
mediterranean
medium
meeting
meetings
members
memorial
menezes
menu
menyalas
merge
meridionalis
message
messagebox
messages
mestnogo
mesto
met
meta
metadata
metatable
method
methods
metro
mexico
mezquita
mf
mg
mhnt
mi
michael
micrantha
mid
middle
might
military
millennium
million
miltonia
min
minas
mini
minimize
minor
minute
minutes
mis
missing
mission
missouri
misspelling
mit
mje
mk
ml
mm
mmnljmtlew
mo
mobile
mod
mode
model
modern
modified
module
modules
mogadishu
mojgorod
moksha
mokshen
mokykla
monasterio
monastery
monde
mongolia
monogr
monolingualtext
montana
month
monthgm
months
monument
moon
mor
more
mos
moscow
mosque
most
motd
mount
mountain
move
moved
movement
movie
mow
moxelanus
moz
mozambique
mp
mr
ms
msg
mshared
msisinnlcnbqyxjhbxmioijsyw
msvemcvcqivemcvcnsvemcvcrcvemcvcrcvemcvcrsvemsu
msvemsu
mt
mtabletools
mtcwmty
mtext
mtk
mtu
mtyzncisinnlcnbqyxjhbxmioij
mu
much
muell
muhranoff
mult
multi
multilingual
multiple
mun
munich
municipalnye
munst
mur
mus
muse
museum
music
must
mw
mwlang
my
myanmar
mylanguage
myv
myvemcvcrcvemcvcqsvemsu
n
na
naar
nacional
name
named
namen
names
namespace
namespaces
namibia
nams
nan
nap
narhoz
narod
narodnoe
narrow
nas
nasa
naselenie
naseleniya
nasledie
natal
nation
national
native
natural
nature
nav
navbar
navbox
navboxdata
navboxes
navigation
navseasoncats
navy
nb
nc
nczscj
nd
ndargs
ndates
ndefaultlanguage
ndiwmdcrjuqwjuizjuqwjujfjuqwjui
nds
ne
near
necessary
need
needed
needle
needs
negative
neofinetia
nested
nestor
net
new
newattributes
newchild
newcomers
newline
news
newsgroup
newsletter
newspaper
newspapers
next
ng
ngr
nh
ni
nicholls
night
nil
nin
niz
niztaw
njaxnzy
nje
njy
nl
nm
nn
no
nocat
node
nodes
nodot
noexpiry
noflip
noicon
nolink
nolinks
nom
nomi
nominate
nominations
nominativeyear
non
none
nopp
nor
nord
norilsk
normal
north
northern
norway
nospace
not
notation
note
notes
nothing
nothosubsp
notice
notifications
notify
notul
nov
nova
novads
novalue
november
novice
novo
novyj
now
nowiki
nowikiinvocation
nowrap
np
npxj
nr
nrhp
ns
nstable
nster
ntkwymm
ntqsinl
ntu
nu
num
number
numbered
numbers
numeral
numerator
numeric
numerical
nums
numstr
numulunj
nv
nvs
nw
ny
nyvemcvcocvemsu
nzkzytvlndu
nzu
nzxrmawxljmlkptizotqilcj
nzymbwltzt
o
obj
object
objects
obl
oblast
oblasti
obrazovaniya
oc
ocaasi
ocean
ocinsoutput
oclc
octarrhena
october
ocyazor
od
odd
ode
odhrwcyuzqs
odhrwjtnbly
odontoglossum
of
off
offer
offered
office
official
offset
often
og
ogg
ogre
ogv
oh
oj
ojkum
ok
ol
old
oldestfossil
olinskijselsovet
om
ombox
ombudsperson
omitted
omk
oms
on
once
oncidium
one
ones
online
only
onlysourced
onlysrc
onwards
op
opacity
open
opener
opening
opera
operation
operator
opportunities
oppose
opt
option
optional
options
or
ora
orange
orchadian
orchi
orchid
orchidaceae
orchidacearum
orchidee
orchideen
orchids
orchis
order
ordered
ordinal
ore
org
organizing
organy
orientation
orig
origargs
origdate
origin
original
orl
ormerod
orphan
orqui
ortiz
os
osd
osti
otechestvennoy
other
others
otherwise
otu
otvetstv
otyrjuqwjui
otysinl
ou
oulu
our
out
outdated
outerradius
output
outputs
outside
outstring
outtype
over
overflow
overlay
override
overview
owl
own
oxford
oy
ozurgeti
p
pa
paasonen
pabst
pacific
padding
padlock
pagasti
page
pagename
pageobject
pages
pagetype
pagetypes
paid
paide
pair
pairs
palace
palacio
pall
pallens
palustris
pan
pana
pandia
paneve
panorama
panoramio
pantl
paper
paphos
par
para
parade
parajubaea
param
parameter
parameterfuncs
parameters
params
paramsaliasesp
parana
parent
parentargs
parententityids
parentheses
parentid
parentoptions
parentsnaks
pargs
paris
parish
park
parm
parms
parque
parse
parsed
parseddate
parsedformat
parsedtime
parseformat
parseinput
parseiso
parseparam
parser
parsetimefromsnak
part
partial
participants
participate
participating
participation
particular
particularly
partners
partnerships
parts
party
parviflora
pass
passed
passport
password
past
patens
path
pattern
patterns
patternspattern
patti
patula
pauciflora
paul
paulo
pc
pcall
pdf
pdt
pe
pedersen
pelecanus
pen
pencil
pending
pennsylvania
people
per
perc
percent
percentage
perepisi
performance
performed
period
periodical
periods
perrier
persistentgrey
person
peru
peter
pfarrkirche
pfitzer
pframe
pg
phabricator
phalaenopsis
phase
philipp
philippinensis
philippines
photo
php
phytotax
pi
picta
picture
pid
pie
pilgae
pilse
pink
pinus
pipe
pl
place
placedatanumrecord
placeholder
placeid
places
plain
plaindata
plainlinks
plan
plane
planet
planned
planning
plant
plantilla
plants
platform
played
plaza
please
pleurothallis
plot
plotarea
plotdata
plotmarks
plural
plus
pmc
pmid
png
pnz
pnzreg
po
poepp
point
points
poland
policy
polish
politics
poltava
poly
pop
popular
populatedatafromclaims
population
port
portal
portion
porto
portrait
portugal
portuguese
pos
poselenii
poseleniya
position
positional
possible
possibleage
possibledatestring
possibly
post
posted
postfix
posting
postscript
potd
power
poyxlldmeucgrmjnrlehq
pp
ppg
pr
prague
praia
pre
prec
precision
predloga
preference
preferences
preferids
preferred
prefix
prefixedtext
prefixes
preload
prepare
preprocess
preprocesssinglearg
present
presentation
preses
preset
president
press
pretitle
prev
prevent
preview
previews
previous
previously
pri
pridgeon
primary
primer
priorities
priority
privacy
private
prlib
probably
problem
problems
process
produces
product
program
programming
progress
project
projects
prop
proper
properly
properties
property
propertyclaims
propertyid
propertyids
propertyparams
propertyselector
propertyvalue
propertyvalueandquals
proposal
proposals
proposed
props
prorepentia
protect
protected
protection
protectiondate
protectionlevel
protectionlevels
protectionlog
protectionobj
protocol
protsessy
prov
provide
provided
provides
provincialis
ps
psk
psl
pt
ptr
pts
ptuj
pu
pubentity
publ
public
publication
publicationdate
publications
published
publisher
publishers
publishing
pulchella
punct
punctuation
punctulata
purge
purif
purpose
purposes
purpurea
pusilla
put
puzzle
pwdldgzpbguilcjub
px
pyramidalis
python
pywikibot
pywikipedia
pz
q
qberlogulagnyfdk
qid
qlist
qu
qual
qualid
qualifier
qualifierid
qualifiers
qualifierscount
quality
quals
quantity
quarter
query
question
questions
quick
quito
quote
quoted
quotes
qv
qval
r
ra
radius
radiusscale
radvilis
ragfia
rail
railway
raiona
rajon
rajona
rajone
rajony
rakvere
raleigh
ramosa
range
ranges
rank
ranking
ranklabel
rankpos
ranks
ras
rasmussen
rather
ratio
rationale
raw
rayony
razdely
rb
rchb
rct
rd
re
reach
read
readers
reading
ready
real
really
reason
receive
recent
recently
recognized
record
red
redirect
redirected
redirects
reduce
reduced
redundant
ref
refbegin
refdb
reference
references
reflist
reformat
reformatting
reg
regex
region
regions
register
registered
registration
reglib
regni
regular
reichenbach
reims
related
relative
release
released
relevant
reliable
remaining
remember
remove
removeblanks
removed
removing
renanthera
render
rendered
rendering
rendernum
rendersnak
rendervalue
renz
rep
repeat
repert
repl
replace
replaced
replacement
reply
report
reports
represents
republic
reqranks
request
requested
requests
require
required
requirements
requires
res
research
reset
resolution
resourcedata
resourceid
resources
rest
result
resultclaims
resultlist
resultproperty
resultresultproperty
results
ret
retrieval
retrieved
return
returned
returning
returns
retval
reuse
rev
reverse
review
revision
revolution
rez
rfc
rfcmarkup
rfdata
rft
rg
rgb
rheine
rhynchostylis
ri
rica
rich
richard
rico
ridl
riga
right
rights
rio
risk
river
rk
rm
rnu
ro
roa
road
robert
robusta
rochdale
rock
rodr
rogers
rokis
role
rolfe
roman
romania
romero
root
ros
rosario
rosea
rossiyskiy
rosstat
round
rounds
routledge
row
rowargs
rowindex
rows
roy
royal
royen
rs
rsfsr
rtr
ru
rubia
rue
rule
rules
rumani
run
running
rup
rupp
rus
russia
russian
rv
rw
rwanda
rya
rzay
s
sa
saaremaa
sacramento
sacred
safe
sah
saint
sak
salaspils
salvador
sam
same
samoupravlenie
samoupravleniya
san
sandbox
sandboxtitle
santa
santo
sar
saratov
save
say
says
sbn
sc
scale
scaled
scalemajor
scaleminor
scales
schedule
scheme
schilder
schloss
schltr
scholarly
scholarship
scholarships
school
schuit
schumann
schweinf
sci
science
sciences
scientific
scn
scope
scotland
scott
scranton
screen
screenshot
script
scripts
sd
se
sea
search
season
sec
second
secondary
seconds
sect
section
sections
security
see
seeking
seen
seidenf
seite
selah
selbyana
select
selectclaims
selected
selection
selector
selectors
self
selfref
selo
selsovet
semi
sen
senegal
senghas
sent
sep
separate
separated
separator
separators
sepc
september
sequence
series
seriesidx
serve
service
session
set
setmetatable
setranks
sets
setting
settings
setwidth
seura
seven
several
sfondo
sgrabarczuk
sh
shackle
shadow
shape
share
shared
sheet
sheets
shift
ship
short
shortcut
shortcuts
shortname
should
show
showing
shown
shows
showsymbols
showvalues
shpl
shtml
si
sia
siberia
siconversion
side
sidebar
sidney
sigfig
sighnaghi
sign
significant
signups
silver
simia
similar
simple
simpler
simplex
sin
since
sing
singapore
single
sis
sister
site
sitelink
sitelinks
sites
six
size
sjabloon
sk
skats
ski
skin
skins
skip
skopje
sky
skyla
skyline
sl
slightly
slovenia
sm
small
smg
smo
smth
sn
snak
snaks
snaktype
snippet
snippetfunctions
snippets
so
soauthors
soc
sochi
social
socialno
society
software
solar
solid
some
someone
something
sometimes
somevalue
somewhere
son
song
soo
soon
soria
sorry
sort
sortable
sorted
sortkey
soto
source
sourced
sourceentity
sourceid
sources
south
southern
southwest
sowerby
sp
space
spaced
spaces
spacing
spain
span
spanish
spathulata
spb
speak
spec
special
species
specific
specified
specify
speciosa
specklinia
spectabilis
speedy
spell
spiranthes
spitzelii
split
sports
sprav
spring
spx
sq
square
squez
sr
src
ss
ssp
ssrn
sssr
st
sta
stack
stacked
stadium
staff
stage
standard
standards
star
stars
start
started
starting
starts
stat
state
stated
statedin
statement
statements
states
statesparameters
station
statistical
statisticheskiy
statistics
stats
statue
status
stay
std
stellilabium
stenia
step
stift
still
stop
storage
store
stored
storm
story
str
strange
strategy
street
streets
strformat
strin
string
strings
strip
stripmarker
stripmarkers
stripped
striptonil
stroke
strokewidth
strong
strout
structure
strvalue
stryi
stt
studies
study
stuttgarts
style
styles
stylestring
styling
su
sub
subdivision
subgenus
subgroup
subject
subjectspace
sublabel
submission
submit
subpage
subpages
subpagetext
subrule
subscribe
subscription
subsection
subsp
subst
substitute
substring
subtables
subtitle
success
successful
such
sud
suffix
suggest
suggested
suggestions
sul
sulawesi
sum
sumatra
summary
summer
summerh
sun
sunrise
sunset
suomalais
sup
supl
supplied
support
supported
supporting
supports
suppress
sur
sure
surname
survey
suure
sv
sve
svedeniya
svg
svn
sw
sweet
switch
switching
switzerland
symbol
symbolmarks
symbolsshape
symshape
symsize
symstroke
synonym
syntax
sysop
syst
system
szablon
szl
szlach
t
ta
tab
table
tableinvocation
tables
tabletools
tablevalue
tabs
tag
tags
tail
tainia
taiwan
take
taken
takes
taking
tales
talk
talkpage
tallinn
tallinna
tam
tang
tao
tara
tarask
target
targs
tartu
tas
task
tat
tatarica
tatarstan
taurage
taxobox
taxon
taxonbar
taxonitalics
taxonomy
tbilisi
tbl
tcommon
tcopy
tcp
td
te
team
teams
tech
technical
technology
tel
telavi
tell
temp
templat
template
templatedata
templateeditor
templatename
templateoptions
templates
templatestyles
templatetitle
temple
temporary
tens
tenuis
term
terminal
terms
territorialnoe
test
testcase
testcases
testcasestitle
tested
testing
tests
text
textcolor
textdata
textpart
tf
tg
th
thailand
than
thank
thanks
that
the
theatre
their
them
then
there
these
they
thing
things
think
third
this
thomas
those
thouars
though
thoughts
thread
three
through
throwerror
thumb
thumbnail
thursday
ti
tidyval
tie
till
tim
time
timeaxis
timelapse
times
timestamp
title
titlenote
titleobj
titlepart
titleparts
titles
titlestyle
titletype
tk
tl
tld
tlinks
tlz
tmbox
tmp
tn
tname
tnt
to
tob
toc
toclevel
toclimit
today
todo
together
tokenized
tokyo
tom
tome
tonumber
too
tool
toolbar
tools
tooltip
top
topic
topics
toscano
tostring
tostringsnak
totable
total
totextwithtip
tour
tower
town
tr
track
tracking
trademark
traffic
trailer
trailing
train
trakai
trans
transcript
transcripturl
transform
translate
translatearg
translated
translatewiki
translathon
translating
translation
translations
translator
translators
transparent
transperiodical
transquote
transtitle
travel
tre
treat
tree
trg
triage
triangle
trick
trim
trimmed
trimstr
trinidad
trinity
trip
triplet
tripletstr
tripoli
trnava
trop
tropical
true
trustees
try
ts
tsi
tt
tu
tucson
tuesday
tukums
tul
tunis
turkish
turku
turn
tuv
tve
twice
twl
two
txt
txtdatein
txtlang
ty
type
typefilter
types
typing
tyu
tzw
u
ua
uabbr
ucb
ucfirst
uchr
ucoc
ucode
udm
udmgossovet
ugricum
ugrilainen
uk
ukmerge
ukraine
ukrajina
ul
ulaanbaatar
ulan
ulica
ulmer
uly
un
uncertainty
unciferia
und
undate
undefined
under
underside
understand
understanding
une
unexpected
unfortunately
unicode
unidos
union
unique
unit
united
units
universal
universalis
universite
university
unknown
unless
unnamed
unpack
unprotected
unregistered
unset
unstripnowiki
until
up
upcoming
update
updated
updates
upload
uploads
upper
uppercase
upright
ur
urban
uri
url
urls
uruguay
us
usa
usage
use
usecollapsibletextfields
used
useful
user
userlinks
username
users
uses
usewikidata
using
usloviyah
ustring
usual
usually
ut
utc
utena
util
utilities
utility
utils
uus
uz
v
va
vaasa
val
valga
valid
validate
validation
valle
valley
value
valuefunc
valuepref
values
valuesarray
van
vanc
vancouver
vanda
vandalism
vandopsis
vanille
vanillier
vantaa
var
varaz
variable
variables
various
vauthors
vcm
ve
vector
veditors
veg
velikoy
venezuela
ventspils
venus
verlag
version
versions
vertical
very
veterovata
vg
vgg
vi
via
viaf
victoria
video
vietnam
view
viewed
viewer
views
vigo
vii
viii
viljandi
village
vilnius
viridis
virus
visaginas
visible
visit
vista
visual
visualeditor
vla
vlg
vls
vo
voice
vol
volgograda
volodymyr
vologda
volume
volumes
volunteer
volunteers
von
vor
vorlage
vote
voting
voyny
vptaifq
vro
vs
vsvzfmsg
vsvzfmsuyoduwjti
vulwxzelmjg
vyb
vyp
vywrtb
w
wa
walk
wall
wang
want
wanted
wants
war
warm
warning
warsaw
warszawa
was
washington
watch
watchlist
watchlists
water
watson
way
ways
wbstatus
wcm
wd
wds
we
web
webkit
webm
website
wednesday
week
weekly
weeks
weight
welcome
well
went
were
west
western
what
whatamidoing
whatever
when
where
whether
which
while
white
whitelist
whitelisting
whitespace
who
whole
why
wide
width
wien
wiki
wikibase
wikidata
wikilink
wikilinked
wikilinks
wikimania
wikimedia
wikimedians
wikipedia
wikipedias
wikis
wikisource
wikitech
wikitext
wild
will
william
williams
wilson
win
windhoek
windhuk
window
wins
winter
wish
wishes
wishlist
with
within
without
wl
wm
wmde
wmf
wo
woman
women
won
wood
word
words
work
working
works
world
worldcatid
would
wp
wperc
wps
wrap
wrapinurl
wrapped
wrapper
wrappers
wraps
write
writing
written
wrong
ws
www
wy
wzgyilcjub
wzgymbdewbj
wzgymbhi
x
xcj
xeno
xgrid
xi
xii
xiii
xix
xlate
xlvi
xn
xnjywmtc
xtype
xvi
xvii
xviii
xx
xxx
xziwmtzfvxjvemhhewv
y
yale
yandex
yaounde
yar
yaroslav
yaroslavl
yds
ydszsyw
ydszzawduptm
ydszzawdupwnmnjzlmgvlmzkxndfhytyyogy
year
yearmark
years
yellow
yes
yesno
yet
ygrid
yi
yjq
ym
ymd
ymde
ymzk
yo
yonkers
york
you
youngestfossil
your
yround
ys
ytype
yue
yunnan
yunnanensis
yy
yyyy
z
za
zab
zagreb
zam
zambia
zbl
zea
zealand
zero
zeros
zh
zimbabwe
zip
zl
zmlszsuynmlkjtnemjm
zmlszszpzd
zmmzowi
zmu
zoo
zoom
zoomed
zswidwlkijointazmdm
ztmxzdhimgu
ztzw
zu
zum
zygostates
{
|
}
~

¥
§
©
«
¬
­
®
°
±
²
´
µ
·
»
×
æ
ø
ı
ł
ɏ
ɒ
ʰ
ʲ
ʻ
ʼ
ˈ
ˌ
ː
̀
́
̂
̃
̄
̆
̇
̈
̉
̊
̋
̌
̍
̓
̔
̛
̣
̦
̧
̨
̸
͂
͡
α
β
δ
ε
η
ι
ν
ο
ς
ω
а
абанскии
абатскии
абзелиловскии
абинскии
ава
авань
авась
аватне
аввакум
августа
августста
австралиеса
австралияса
австралиясь
австрия
австриянь
автоматически
автономиясь
автономная
автономныи
автономных
автор
автора
авторитаризмась
авторсь
ага
агрызскии
адам
аделазе
аделамда
аделась
административно
административонь
администрации
администрация
адыгея
азербаи
азиеса
азия
азиянь
азияса
азиясь
азкс
азкст
азнакаевскии
азома
азондови
азондомань
азондсь
азонды
азорондама
азорондамань
азрапкин
азфоль
аи
академии
акваториясь
аксе
аксубаевскии
акционеронь
акша
ал
ала
алашань
албания
але
алеи
александр
александровка
александрово
александровская
александровскии
александровское
алексеевка
алексеево
алексеевская
алексеевскии
алексеевское
алексеи
алексино
алеутонь
алжирия
алкимиень
аллан
алнашскии
алтаи
алу
алфавитсь
алферово
алферовская
алхт
аль
альбопне
альменевскии
альшеевскии
аля
алямкин
алянц
алянь
аляц
амдф
америка
американонь
американь
америкаса
америкась
америконь
америкса
амуре
амурская
ан
ана
анализ
ананьина
ананьино
анапа
анатомиясь
англ
англань
англии
англиянь
англонь
ангола
анголь
андреевка
андреевская
андреевскии
андреевское
андреи
андроново
анисимово
анклавсь
аноклась
ансамбли
антарктидась
антарктикась
антигуа
антипино
антонипне
антоновка
антоново
ануи
анциферово
анциферовская
аньцек
апак
апр
апрель
апрельков
апрельковста
апрельста
апреля
ара
арабонь
араи
арасть
арась
арбажскии
аргентина
аргументы
ардатов
ардатовскии
арефинское
аристово
аркадакскии
арктикась
армения
армянонь
аромашевскии
артаев
арте
архангельская
архангельскии
архангельское
архаринскии
археологии
архив
архтома
архтысь
арьсемаса
арьсесть
арьсеф
аскинскии
ассоц
ассоциация
асср
аст
астраханская
астраханскии
астраханскои
астрахань
астрономиясь
асу
асш
аськолкс
атерень
аткарскии
атлантикань
атмосферась
атмосфернаи
атоллсь
атомонь
атрибуту
атюрьевскии
атямас
атянь
атяшевскии
аул
ауновскии
аургазинскии
аф
афанасово
афанасьев
афанасьевскии
афанасьевское
афганистан
афкукс
афкуксонь
афольхть
афонино
африка
африкась
африконь
африкса
ахтарскии
ачинскии
аш
ашезь
ашесть
ащемась
ащесь
ащи
ащихть
аэрофонат
аяно
б
бабаево
бабаевскии
бабань
бабась
бабино
бабушкинскии
багама
бадачоньтомаи
база
базарно
баи
бакалинскии
балаковскии
балахтинскии
балашов
балашовскии
балезинскии
балета
балка
балтаи
балтачевскии
балтонь
бамако
бангладэш
баннернои
барановка
бараново
барановская
барбадос
барбуда
барнаул
барское
бахчисараи
баш
башка
башкортостан
башмаковскии
ббк
бежаницкии
без
беи
бекетовское
бековскии
бековского
беларузмастор
белая
белебеевскии
белинскии
беловскии
белогорскии
белое
белозерскии
белокатаи
белорецкии
белореченскии
белосельское
белослудское
белохолуницкии
белоярскии
белыи
бельково
бере
берег
береговои
бережани
бережанская
березник
березники
березовка
березово
березовскии
бессоновскии
библиографическая
библиотека
бижбулякскии
бии
биологии
биологиянь
биологиясь
биосферась
бирскии
бисау
бишкек
благоварскии
благовещенск
благовещенскии
благовещенское
ближаи
блок
бобровка
боброво
богдановка
богданово
богородскии
богородское
боготольскии
бодьинскии
бои
бокситогорскии
болгатовская
более
боливие
боливия
болото
болотово
большая
больше
большеберезниковскии
большевик
большедворское
большеигнатовскии
большемуртинскии
большесельскии
большесельское
большесолдатскии
большеулуи
большие
большое
большои
бор
борисовка
борисово
борисовская
борисовское
борисоглебскии
борки
борнео
боровлянка
бородино
борок
босния
ботсвана
бояркин
бояркина
брагино
бразилие
бразилия
бразилияса
братское
браузерсь
бреи
британия
британонь
брод
брюховецкии
бта
бугры
будапешт
будет
будинок
будут
бузанскии
буздякскии
букань
булатово
буллинскии
буляк
бураевскии
бурдуково
бурзянскии
буркина
бурлинскии
бурмакино
бурунди
бурцево
бутан
бутырки
бы
бывшая
бывшии
быково
были
было
бытования
быть
бэлиз
бэльгия
бэнин
бюллетень
бяль
в
ва
вавожскии
вага
вагаи
вагановои
вад
вадинскии
важнеи
ваи
ваксс
ваксса
вал
валда
валкс
валксне
валлувкссь
валмораи
валморама
валморамась
валморонь
валонзон
валонь
валса
валста
валсь
валть
валхне
валхнень
валхт
вам
ваномасна
ваномась
ваномс
ванфтома
ванфтомс
вань
варгашинскии
вармась
варматнень
вас
васенда
васенце
васенцеда
васень
василево
василь
васильевка
васильево
васильевская
васильевскии
васильевское
васильково
васта
вастова
вастоц
вастс
вастса
вастсь
вастт
васттне
васттнень
вастть
васу
васькино
васьково
васьфневи
васьфневихть
ватикан
ватт
вашкинскии
вв
вверху
ве
вед
веденнетне
ведень
ведомости
ведь
ведьлотка
ведьса
ведява
века
векста
векть
веле
велень
велеряи
велеса
велесь
велет
велетне
велетнень
велеть
вели
великаи
великая
великии
великое
великои
великолукскии
великоустюгскии
вельде
вельскии
велява
венгеронь
венгрань
венеж
венесуэла
вердэ
веретье
вермава
верования
версии
версь
верх
верхне
верхнее
верхнетоемскии
верхние
верхнии
верхняя
верховажскии
верховноі
верховское
верховье
верхошижемскии
вершина
вершино
весе
весенне
вестник
весть
весь
вете
веттне
ветть
вид
виде
видексонза
видеса
види
видиень
видне
видьмонза
виетнам
вижниця
вии
вики
викиданные
викиданных
викимедиа
википедие
википедиень
википедиесь
википедии
википедия
викисклад
викитека
виктор
викуловскии
вилегодскии
вильнюс
вильсон
вильям
виноградовскии
винсэнт
вирень
вирь
вирьса
вирява
витсен
вить
вишне
вка
владимир
владимировка
власово
вместо
внизу
внутренних
во
вов
вовчок
водясова
вожегодскии
возвращает
возможность
вознесенка
вознесенскии
вознесенское
возрождение
вои
вокзал
волго
волгограда
волжское
волково
вологда
вологодская
вологодскии
володарскии
володимир
володино
володымыр
волосово
волосовскии
волости
волость
волховскии
вольскии
воляшись
вонь
вопросам
вопросы
воробье
воронеж
воронино
вороново
воронцово
воронцовская
воскресенка
воскресенскии
воскресенское
восток
востока
восточное
восточныи
восход
воткинскии
времен
временник
время
все
всеволожскии
всего
всеи
всем
всеобщая
всероссии
всесоюзная
всех
вская
вскии
вское
вся
вторая
второи
вудро
вул
вы
выборам
выборах
выборгскии
выборов
выборская
выведет
вывод
вывода
вып
выползово
выпуск
выру
выселки
выселковскии
выселок
выскажите
высокая
высоково
высоковское
высокое
выставка
вытегорскии
вэнэзуэла
вязовка
вязьевская
вярдень
вяре
вяри
вятикснень
вятиксонь
вятись
вятка
від
г
га
габон
гаванского
гавонь
гаврилов
гавриловка
гаврилово
гавровская
гажась
газ
газетаса
гаи
гаити
галереясь
галкина
галкино
гамбия
гана
гарарэ
гари
гарь
гатчинскии
гафурии
гаффарова
гвардеи
гватэмала
гвинеи
гвинэя
гг
где
гдовскии
ге
геи
географии
географиянь
географиясь
географиять
геологиясь
георгиевка
георгиевское
герасимово
германие
германия
германонь
герои
ги
гибридне
гидросферась
гимнась
гин
гинонь
гл
главнаи
главныи
главы
глаголсь
глаголхнень
глазовскии
глебово
глебовское
глубоковская
глубокое
глухово
глушковскии
го
гов
говорить
год
года
годов
году
годы
голенков
голова
головинское
головна
голосование
голосовании
голосования
голышмановскии
гондванась
гондурас
гора
гораи
горбово
горка
горки
горныи
город
города
городам
городах
городе
городецкии
городецкое
городище
городищенскии
городов
городок
городского
городское
городскои
горож
горушка
горшеченскии
горы
горького
горячии
гос
госкомстат
гост
государствань
государственнаи
государственного
государственнои
государственныи
границы
граховскии
грекмастор
греконь
греци
греч
грива
григорово
григорьевка
григорьевское
гридино
гридинская
гришино
гришунина
гришуткин
грузия
грузиянь
грузияса
группы
грэнада
грэнадинт
грязовецкии
гсь
губ
губа
губерн
губернии
губерния
губерниянь
губино
гулькевичскии
гурьевскии
гурьянова
гусево
гэи
гяль
гяльбе
гяльбет
д
да
давлекановскии
давыдково
давыдово
давыдовская
давыдовское
далматовскии
дальнего
дальнии
дан
даниловка
данилово
даниловская
даниловскии
даниловское
данмастор
данного
данные
данным
данных
данонь
даровскои
дата
даты
два
две
движения
двиницкое
двинское
двор
дворец
дворы
дд
де
дебе
девятаев
девяткина
дедовичскии
деи
декабрьковста
декабрьста
декабря
декатт
дел
деление
деления
демидово
демино
демографиесь
демографические
демография
демографиясь
демократиянь
денисово
департамент
дергаче
деревенька
деревеньки
деревни
деревня
дефис
деятельности
джакарта
джан
джанкои
джанонь
джибути
джо
дзержинскии
дзюба
ди
диалект
диалекте
динамика
дис
дисциплитт
дкинская
для
дмитриевка
дмитриево
дмитриевскии
дмитриевское
днипро
дновскии
дня
до
добручинская
добрывичская
доктор
документа
долгая
долгии
должны
долина
дом
дома
доминика
доминикан
доминиканонь
дон
доп
дополнительные
дор
доровка
доровскии
доровское
доступен
др
драи
дракула
драма
драмань
драматургсь
древнеи
дрогобич
дрогобыч
дроздово
другие
дружба
дубасов
дубе
дубки
дубрава
дуброва
дубровенская
дубровка
дубровки
дубровное
дуброво
дубровское
дуванскии
думать
думка
духовницкии
душ
ды
дьяконово
дэ
дэн
дэнысэнко
дюртюлинскии
е
евреи
европа
европеи
евсевьев
его
егорьевскии
ее
ежегодник
еи
екатериновка
екатериновскии
елань
елга
елена
елизарово
ельниконь
емельяновская
емельяновскии
емецкое
енангское
енисеи
енциклопедія
ере
еремеево
еремино
ермаково
ермаковскии
ермаковское
ермекеевскии
ермолино
ершово
ершовскии
ескино
если
есть
еще
ж
жа
жадрицкая
жан
жарки
ждя
же
железногорскии
железнодорожная
железнодорожного
железнодорожнои
железнодорожныи
жиганова
жизнь
жилино
жителеи
житловии
житомир
життя
жка
жныи
жуватань
жувататне
жуково
журавле
журавли
журнал
журналистсь
журналса
журналсь
з
за
забаи
забгпу
заболотье
заборовье
заборье
завалишин
завитинскии
завод
заводоуковскии
заводскии
заводскои
заволжское
завьяловскии
заглавие
заглавная
заговоры
заголовка
заголовков
заголовок
загорье
задан
задняя
заи
заимка
залесье
залужье
замбия
замостье
замошье
заозерье
западныи
запань
запись
заповедника
заполье
заречная
заречное
заречныи
заречье
заринскии
заручевье
заря
зато
затон
захар
захарово
захаровская
заходы
захонье
зачачьевское
заявлении
збірник
зве
звезда
звонская
звягино
здание
здесь
здравоохранения
зеи
зеле
земетчинскии
земля
зианчуринскии
зилаирскии
зимбабвэ
зимнии
зирняи
зия
знак
знаменка
знаменскии
знаменское
знамя
знание
значение
значении
значения
зовка
зово
зовскии
золотухинскии
зональныи
зорино
зубарево
зубово
зубу
зубунь
зуево
зуевскии
зуи
зърня
зэр
и
иван
иванова
иванович
ивановка
иваново
ивановская
ивановскии
ивановское
ивантеевскии
иванцево
иваньково
ивашево
ивняковское
ивуар
иглинскии
игнатово
игринскии
идель
идем
идень
идеологиясь
идиофонат
идринскии
ижевск
ижморскии
из
избирателя
избр
изв
известия
известият
изд
издание
издании
издания
издатель
издательствась
издательство
измаи
изменения
изображение
изображения
израиль
изь
ии
ил
ила
иланди
иланскии
илань
илась
илатнень
илать
или
илишевскии
иллюстрации
ильинка
ильино
ильинскии
ильинское
ильича
ильиче
илья
илю
иля
илякс
им
имени
императорсь
империи
имя
имяреков
имярекова
ина
инвестиционныи
инголе
инголень
инголи
ингольдень
индия
индиянь
индо
индонэзия
ине
иневедень
иневедсь
иневедь
инженеронь
инзарань
инкса
инсар
инсарскии
институт
институтть
инструментальная
инструментального
инструментальные
инструментов
инструменты
интаи
интернет
интернетса
интернетсь
интерфеи
инфо
информатикань
информатикась
информатике
информациесь
информацию
информация
информациянь
информациясь
инь
иняру
иран
иранонь
ирбеи
ирго
ирландмастор
исаево
исаково
искра
искусство
искусствоведения
исланд
испания
испаниянь
испанонь
исполнительства
использование
использовать
используется
используи
иссинскии
исслед
исследования
истории
историии
историко
историкоэтнографич
историксь
историческая
исторические
историческяи
история
историясь
источник
источнике
источники
итали
италия
италиянь
итоги
их
ичалковскии
ичкозе
ишимбаи
ишимскии
июльковста
июльста
июля
июнь
июньков
июньковста
июньста
июня
к
ка
кабо
кавказскии
кадажень
кадуи
казаково
казан
казанка
казанскии
казанском
казань
казарма
казахстан
казачинскии
казнень
казьф
каи
как
какаду
кал
калгода
календарно
каликино
калинина
калинино
калининскии
калининское
калинкино
калиновка
калифорния
калкне
калкнень
калконь
калмама
калманскии
калонь
калоп
калопне
калтасинскии
калуга
калхт
каль
кальвалсь
кальдяв
кальскии
кальского
калья
калядань
камаганская
каменец
каменка
каменнобродскяи
каменное
каменныи
каменскии
каменское
камень
кампании
камчатскии
камышенка
камэрун
канада
канд
кандидат
кандидатов
кандидаты
каневскои
канскии
капустино
кара
карабихское
карабулакскии
карагаи
караидельскии
каракас
карамалы
карамышевская
каран
карачаево
карга
каргапольскии
каргопольскии
кардазава
карелия
кармаи
кармаскалинскии
кармасть
кармась
карпово
карповская
карповское
карта
картаса
карташов
карточка
карточках
карточки
карша
каршек
каршес
карьер
карязбакарсь
касонды
касторенскии
касфтомс
касы
касыкс
касыксне
касыксонь
касыкссь
катаи
категорие
категории
категория
кафта
качановская
качестве
кашино
кгк
кда
ке
кевонь
кедь
кезскии
келеса
кели
келин
келина
кельгома
кельмазаков
кельмазаковонь
кельме
кельмеков
кельмековонь
кельмеширень
кельмеширеса
кемаи
кемеровская
кемеровскии
кемонь
кемское
кенжешка
кепотьксонди
кержи
керш
кетовскии
ки
кигинскии
кие
киза
кизнерскии
кизода
кизонда
кизонь
кизоня
кизоса
кизоста
кизось
кизот
кизоти
кизотнень
кизоть
кикнурскии
кила
километр
кильдюшкина
кильмезскии
кимиень
кин
кина
кингисеппскии
киниганза
кино
кинось
кинское
кинь
кирдемастор
кирдемасторонь
кирдемасторсь
кирдемасторть
кирди
кирдсть
кириллово
кирилловскии
киришскии
киров
кирово
кировская
кировскии
кировское
кировскои
кирьхксонь
киселе
киселево
кит
китаень
китаи
китап
китс
кить
китькскя
киц
кичменгско
кичменгское
кишкино
киі
кк
класс
кле
клеи
климатсь
климово
климовская
климовское
клин
ключ
ключевскии
ключевское
ключи
км
кн
книга
книгань
книги
книжка
книжнаи
книжное
княжево
князево
ко
ков
ковгярькссь
ковель
ково
коволхне
ковонь
ковскии
ковста
ковсь
ковылкинскии
код
кода
кодама
кодамот
кодекса
коень
кожино
кожфсь
коза
козино
козловка
козлово
козя
кои
кокуи
кол
кола
колга
колганза
количество
коллеги
коллективного
колма
колмогемонь
колмоце
колодезь
коломия
коломыя
колумбие
колумбия
колхозонь
колышлеи
ком
команда
команды
комаровка
комарово
коми
комитет
комитета
комментарии
коммунар
комортне
комплекс
композиторсь
компьютеронь
компьютерсь
комсомолонь
комсомольскии
комсомольское
комсь
комьянское
кона
конань
конась
конат
конатне
конатнень
конац
конго
кондратово
кондясти
конево
конец
коношскии
константинов
константинова
константиновка
константиновскии
консультации
контексте
конце
коныше
копылово
кордон
коре
кореневскии
кореновскии
коровино
короле
коротовское
корпус
кортнема
корхнема
корхнихть
корхтаи
корхтама
корхтамань
корхтамась
корхтаматнень
корхтамолезкс
корэянь
коряс
коса
косихинскии
косково
коста
костино
коське
кот
кота
котельничскии
котласскии
котово
которои
которые
которых
котфоц
котфоцт
кочеваткин
кочкаи
кочкаматнень
кочкаф
кочкафоль
кочкуровань
кошардомвии
кошелево
кошкино
коҥго
краеведческии
краи
кранциянь
кранцмастор
кранцмасторонь
кранцонь
красавино
красавка
красково
красная
красненскии
красно
красноармеи
красноборскии
красново
красногвардеи
красногородскии
красногорскии
краснодар
краснодарскии
краснодарского
красное
краснокамскии
краснокутскии
краснопартизанскии
красноперекопскии
краснополье
краснопрудская
красносельское
краснослободскии
краснослободскяи
краснотуранскии
красноще
красноярск
красноярскии
красноярское
красные
красныи
края
крепость
кресты
кривцово
кристозши
кристозшида
криша
круглое
крутая
крутец
крутои
крым
крымскии
крюково
кс
ксенда
ксесь
кст
кто
куба
кубанцев
кубенское
кубинскии
кувака
кувалмос
кувалмоса
кувалмоц
кугарчинскии
куд
кудонь
кудрино
кудса
кудста
кудсь
кудть
куду
кужа
кузино
кузнецкии
кузнецов
кузнецово
кузнецовская
кузнецы
кузнечиха
кузнечихинское
кузьма
кузьминка
кузьмино
кузьминская
кузьминское
куи
кукобои
кулакова
кулаково
куласть
кулига
куликовка
куликово
кулость
кулось
кулоф
кулундинскии
куль
культур
культура
культурань
культурась
культуронь
культуры
кулят
куме
кумена
кумокань
кунара
кунардонь
куншкасо
куньинскии
курагинскии
курбское
курган
курганинскии
курганская
курилово
курок
курорт
курск
курская
курскии
куртамышскии
курчатовскии
курьинскии
курья
кусар
кут
кучка
кучкаков
кучкаковонь
кучкань
кучф
кучфоль
кучфтемат
кушнаренковскии
куще
куюргазинскии
кши
кшинь
кшнинь
кшнитне
кърдань
кържа
кызыл
кыргызстан
кытмановскии
кэния
кядье
кяжи
кялень
кяль
кяльвал
кяльвалонь
кяльвалсь
кяльлувкссодама
кяльлувкссодамань
кяльс
кяльса
кяльста
кяльсь
кяльти
кяльть
кяльхне
кяльхнень
кярькссь
кяшал
л
ла
лабинскии
лаврово
лавровская
лагунась
ладыгино
ладяф
лазарево
лаи
лаишевскии
лама
ламбама
ламоль
ламос
ламотне
ламоц
ланга
лангс
лангса
лангста
ланд
лаос
лапино
лаптево
лапшин
лат
латвия
латвиянь
латвияса
латинонь
лауреат
лахта
лац
лаца
лацонь
лашма
лашмань
лашмонь
лая
ле
лебяжскии
лебяжье
лебяжьевскии
левина
левино
левобережное
левчаев
лездсь
лезды
лезкс
лексикась
лексикология
лексикологиясь
лем
лемдяи
лемнезь
лемонц
лемоц
лемоцоль
лемс
лемса
лемсна
лемста
лемсь
лемть
ленина
ленинград
ленинградская
ленинградскии
ленинградскои
ленино
ленинск
ленинскии
ленинское
ленскии
лепне
лепнень
лесная
лесничество
лесное
леснои
лесоучасток
леся
лесі
лет
летнии
лешсь
ли
либия
либо
либэрия
ливан
лидерства
лима
лингвистикань
лингвистических
лингвогеографиянь
линеи
линнанкоски
липня
липовка
липовское
лисенди
лисендсть
лисендсь
лиссть
лиссь
листов
лит
литва
литванонь
литвань
литваса
литвиново
литературань
литературась
литературе
литературнаи
литературно
литературонь
литературть
литосферась
лихтема
лихтенштаи
лишме
лишмонь
лишмось
лишмоть
лия
лиякс
лка
лл
ло
лов
ловка
лово
ловская
ловскии
ловское
ловсь
лог
логиново
логинць
лодеи
лои
лок
локнянскии
локсти
локтевскии
лом
ломанень
ломанти
ломанть
ломанць
ломань
ломанье
ломанькс
ломаньлувонь
ломаньтъналонь
ломаттне
ломаттненди
ломаттнень
ломатть
ломоносовскии
лопа
лопалангот
лопанза
лопань
лопас
лопаса
лопась
лопатино
лопатинскии
лопац
лотксема
лофцта
луанда
лувкс
лувксса
лувови
лувома
лувомась
лувондови
лувондовсть
лувондовсь
лувондозь
луг
луговая
луговое
луговои
луговское
лужки
лужскии
лузскии
лука
лукино
лукинская
лукинское
лунинскии
лусака
луцьк
луч
лы
лыи
лысенков
лысогорскии
лыче
ль
львів
льговскии
лэонэ
лэсото
любимскии
люблин
любом
люк
люксэмбург
ляень
ляи
лямбе
лямбеков
лямбековонь
лямбеширень
лямбеширеса
лямбирень
лямбирскии
ляпе
лятфтамат
лятфтаматне
ліквідацію
м
ма
мааконд
мавритания
магадан
мадагаскар
мадагаскарса
мадома
мазановскии
мазинскии
мазы
маи
мак
макаровка
макарово
макаровская
македония
македониянь
маконь
макса
максим
максимовка
максимово
максимовская
макскии
макссь
максфоль
максфольхть
максь
макть
макушкина
мала
малави
малады
малаи
маласа
маластонь
малахово
малая
мали
малиновка
малиновскии
мало
малое
малопургинскии
малосердобинскии
малые
малыи
малышево
мальцево
мамонтовскии
мансии
мантуровскии
мапуто
мар
мараи
мари
марии
марино
маринь
марко
марков
марково
марковская
марковское
марксовскии
марнек
марокко
марс
марса
марстонь
март
марта
мартста
мартыново
мартьяново
мархта
мархтонза
мархтост
марьевка
марьино
марьинская
маскаев
маслово
масса
масср
мастор
масторга
масторкитьксонза
масторлангонь
масторлангса
масторонь
масторса
масторсь
масторть
масторхне
масторхнень
матвеевка
матвеево
матвеевская
математиксь
материал
материалхт
материалы
матигорское
маурино
машина
машинань
машты
мая
маяк
мвд
ме
медальса
медведево
медведково
медвенскии
международнаи
междуреченскии
межник
межселенная
мезе
мезень
мезосферась
мезсь
меки
мекольце
мексика
мексико
мексиконь
меле
мелеузовскии
мелехово
мельге
мельдень
мельница
менельвенежень
менялась
меркури
меркушкин
мес
мест
местечко
место
мета
метал
метеорологиясь
метка
метки
метра
метрашка
мечетлинскии
мешаваня
мзярда
мзярошка
миграционные
миколаі
мильонда
мильоншка
минино
министерства
мино
минское
минь
мир
мирныи
митино
мифологияса
мифологиясь
михаи
михаил
михале
михалево
михеево
мичуринское
мишанин
мишина
мишино
мишкинскии
мище
миякинскии
мла
млекопитающих
мм
мне
мнение
многоголосные
многотомного
мо
могильная
могут
мода
модакучкастонь
модань
модаса
модась
модатнень
модать
модуль
можга
можгинскии
может
можете
можно
мозамбик
мои
мокша
мокшан
мокшански
мокшанскии
мокшанско
мокшанского
мокшанском
мокшекс
мокшень
мокшет
мокшетне
мокшетнень
мокшеть
мокши
мокшин
мокшонь
мокшэрзянь
мокшэрзятне
мокшэрзятнень
молдова
молема
молемс
моли
молихть
молоде
мольсь
мон
монархиясь
монархиятне
монастырская
монголия
монь
мораи
морамань
мораматне
мордва
мордвась
мордватнень
мордвать
мордве
мордвы
мордкниизд
мордов
мордовии
мордовия
мордовиянь
мордовияса
мордовиясь
мордовиять
мордововского
мордовская
мордовские
мордовскии
мордовско
мордовского
мордовское
мордовскои
мордовскяи
морозово
морот
моротне
морсесть
морсь
морфологиясь
морфологиять
мосеево
москва
моску
москувонь
москуса
мост
мостовскии
моэм
мужского
музеи
музыка
музыкальная
музыкальное
музыкальнои
музыкальные
муниципального
муниципальное
муниципальному
муниципальныи
муниципальным
мур
муравье
мурзино
мухино
мцд
мъзярда
мъзярошка
мы
мыза
мыс
мышкино
мышкинскии
мьянма
мэнсфилд
мяксинское
мялень
мяль
мяльс
мяляфневсь
мярьгихть
мярьгсть
міст
міста
місто
н
на
набережныи
навигациень
наволок
нагорныи
нагорскии
награды
над
надежда
назарово
назаровскии
назаровское
название
названия
наи
налкхись
налхки
налхкись
налхкихне
нам
намибия
нан
нань
например
нарва
нарис
нармонень
нармонь
нармоттне
нармотть
наровчатскии
наровчатского
народа
народнаи
народная
народно
народное
народные
народных
народов
народонь
народть
населе
население
населения
населенные
населенных
населення
настрои
наук
наука
наукань
наукова
научныи
национализмась
национальнаи
нациясь
начале
наших
ная
наявного
нга
нгаса
нгат
ндамков
ндамковонь
не
невельскии
недели
недерландонь
нежедема
неи
некоузскии
некоузское
некрасово
некрасовскии
некрасовское
нем
нематне
неменцонь
немецкии
немецкого
немецонь
немскии
ненецкии
необязательные
нептун
непустых
нестерово
нестеровское
нет
нефедово
нза
ни
нива
нивы
нигэр
нигэрия
ниже
нижне
нижнегорскии
нижнее
нижнеингашскии
нижнеломовскии
нижнеслободское
нижнетавдинскии
нижние
нижнии
нижняи
нижняя
низ
ниигн
никарагуа
никитино
никитинская
никиткино
никола
николаевка
николаевскии
николаевское
николаи
николо
николоторжское
никольск
никольская
никольскии
никольское
никон
никулино
ниле
нинге
них
нка
нки
нковское
нкссь
нкст
нные
нныи
нных
но
нов
нова
новая
новинка
новинки
новичихинскии
новка
новленское
ново
новоалександровка
новоалексеевка
новобурасскии
новогеоргиевка
новое
новоивановка
новоивановскии
новокубанскии
новокузнецкии
новомихаи
новониколаевка
новоникольское
новонь
новопокровка
новопокровскии
новоржевскии
новороссии
новосе
новоселка
новоселки
новоселье
новосельское
новосибирск
новосокольническии
новости
новострои
новотроицк
новотроицкии
новотроицкое
новоузенскии
новская
новскии
новское
новые
новыи
ное
нолдама
нолдамась
нолдась
нолдафоль
нолинскии
номер
номера
номероц
нопольскии
норвегия
норвегонь
норильск
норильского
норматне
ноябрьста
ноября
нскии
нское
нська
нськоі
нтш
нужно
нуримановскии
нъльне
ны
ныи
нь
нью
нэвис
нюксенскии
нюрьхкяня
нюрямонь
ня
няеви
няи
няндомскии
няфневи
няфнесы
няфтемс
нәшрияты
о
об
обеспечению
обзор
обл
областеи
области
область
обозрение
обоянскии
образование
образованию
образования
образованиям
образом
обратнои
обрядах
обрядовые
обрядовыи
обсуждение
обсуждении
обсуждения
обухово
общеобразовательнаи
общеобразовательных
общества
обществань
общественно
обществознанию
обществознаниянь
общие
объект
объявления
обычно
овсянниково
оганнес
огарковское
од
один
одина
одного
озе
озерки
озеро
озинскии
озкс
озксонь
озкссь
озондома
озондсть
ои
ока
океаниеса
около
округ
округа
октябрь
октябрьков
октябрьскии
октябрьское
октябрьста
октября
окулово
окуловская
окунево
ола
оле
олинскии
ольгино
ольховка
ольшанка
омба
омбоце
омонипне
омутнинскии
он
она
онам
онежскии
они
онов
ононь
онть
онца
онцидиум
онць
онів
ооо
оп
описание
описания
опочецкии
определе
опрос
организации
организовать
орденца
орехово
оригинал
оричевскии
орк
орлов
орловка
орлово
орловскии
орловское
орозаень
орозаи
орфофафическяи
орхидея
осадкатне
осенне
осиновка
основа
основе
основнои
основные
оставить
остап
остров
острова
островская
островскии
от
ответственныи
ответы
отд
отделение
отделения
отдыха
отечественнаи
отечественнои
отзывов
отображаемыи
отображения
отрадненскии
отрадновское
отрадное
оттне
отче
отчет
офицалонь
официалонь
официальнои
официальном
официальныи
оформление
оформления
оформленного
оформленых
охотского
оценка
оцю
оцюведь
оцюнякс
оцюнясь
оцюняц
оцюсь
оцязорксшись
оцязоронь
оцязорсь
оцязорть
очерк
очерки
очижинь
ош
ошень
ошкар
ошкять
ошне
ошнень
ошса
ошсь
ошт
ошть
п
па
паваз
павловка
павлово
павловская
павловскии
павловское
павская
пагинациеи
паи
пакистан
паксява
паксянь
пакш
палкино
палкинская
палкинскии
пальма
пальцево
пам
памятная
памятники
панама
пангеясь
панда
панжада
панжи
панжиковонь
панино
панкрушихинскии
паново
панчф
панчфт
паньково
папуа
пара
парагваи
параметр
параметра
параметрами
параметрах
параметре
параметров
параметры
париж
парк
парламентонь
паронипне
партизанскии
партне
паспорт
пахарь
пахомово
паця
пачелмскии
пачфни
пашково
пгт
пеи
пельксне
пенз
пенза
пензань
пензенская
пензенскии
пензенскои
пензенскяи
пенье
первая
первого
первое
первомаи
первыи
перевод
перевоз
перед
передае
перелюбскии
перенаправление
перень
переписи
перепись
переславскии
период
периодического
персоналии
перу
перцевское
першино
першинская
перьфпяль
перьфпяльть
перяфкс
пески
песни
песочное
песта
пестово
песчанка
песчаныи
петербург
петерсон
петерсононь
петраково
петров
петровка
петрово
петровская
петровскии
петровское
петропавловка
петропавловскии
петряево
петухово
петьколец
печатлаф
печкольхть
печорскии
пижанскии
пиже
пиземсь
пилиппинтне
пинге
пингонь
пингоц
пингс
пингста
пингсь
пингти
пингть
пинежскии
пинкнень
пинясов
пионерскии
пирогово
писателень
пиче
план
планирования
плесецкии
плесо
плисская
плосково
плоское
плутон
плюсскии
по
победа
поведения
поводу
поволжскии
повсь
погорелка
погорелово
погост
под
подберезье
подборовье
подгорная
подгорное
подгорныи
подгорье
поддубье
поделиться
подзаголовок
подлесное
подлипье
подол
подосиновскии
подписи
подпись
подпорожскии
подробнее
пожалуи
пожарище
пожеревицкая
поза
пои
покадии
покаи
покама
покаманза
покась
покодема
покоди
покодсь
покров
покровка
покровская
покровскии
покровское
пола
полаяи
полгась
поле
полеи
полень
политикань
политикась
политикне
политиконь
политиксь
политическяи
политксь
политологиясь
половинскии
полом
полубояров
получение
поля
поляков
поляконь
поляна
полянка
полянки
полянскии
полянское
поляны
помочь
помощью
поныровскии
попечителеи
поповка
попово
поповское
попугаи
пореченская
поречье
порог
порт
портал
порталсь
португалия
порховскии
порядке
посад
посе
поселение
поселении
поселения
поселениях
после
пособие
пособия
поспелихинскии
поспелихинского
поссовет
пост
постоянного
потма
потмоса
потьма
потяи
поче
починки
починок
пошехонскии
поэтическое
пою
правда
правило
правительстве
правоприменения
празднично
праи
практикум
прама
предложения
президентонь
президентоц
премии
преображенка
при
привет
приволжское
привольное
привольныи
приглашаем
пригородная
пригородное
пригородныи
прилук
прилуки
применению
применяется
пример
приморскии
приморско
принимает
принсипи
принял
приозе
приозерскии
приписанное
приписное
природного
пристанскии
пристань
пристенскии
про
проверка
программа
программась
прогресс
продолжить
проект
проекта
проекту
прозаиксь
произведениянза
прокопьевскии
пролетарскии
промышленного
протасово
профессиональному
профессиятне
профессорсь
профинтерн
процессы
пруды
пря
прянц
прянь
пряошец
пряошне
пряс
пси
псиков
псиковонь
псковская
псковскии
птиц
публикации
публицистсь
пугаче
пула
пункт
пунктов
пунктуациянь
пунктуациясь
пункты
пуре
пуреш
пуромкс
пуромксонь
пуромкссь
пуромксть
пустаи
пустои
пустошка
пустошкинскии
пустошь
пустынь
путин
путнезь
путнесть
путозь
путомс
путсть
путф
путфоль
путь
пушкино
пушкиногорскии
пчкафтома
пчкафтысь
пъчкафтомань
пыталовскии
пэру
пяк
пяле
пялевень
пялеце
пялешинь
пяльксова
пяльксоц
пяльксса
пялькссь
пянакуд
пянакудть
пята
р
ра
раамат
работает
работать
работы
рабочии
рава
равань
равжа
равонь
ради
развитию
развития
разговорник
раздел
разделов
раздельно
раздолье
раздольненскии
раздольное
раздольныи
разинское
разработке
разъезд
разъезда
раи
раково
ракульское
раменье
ран
рассвет
рассказы
рась
рать
рац
реакции
ребрихинскии
региональнои
ред
редактор
редкол
редколегіі
реи
рекомендации
религиозные
респ
республик
республика
республикань
республикаса
республикась
республикать
республики
республикне
республиконь
республикса
республикть
ресурсне
речка
речки
рика
рим
римонь
ркснень
рмадома
рмадомась
рмадсь
рмады
рмадыень
рмадысь
рмадыхне
рматф
рная
рное
рныи
робот
ровенскии
ровное
рогово
рогожина
родинскии
родионово
родники
рождения
рождественка
рождествено
рождественское
розасна
рои
року
роли
романовка
романово
романовскии
ромодановскии
ронга
ронгань
ронь
роньков
роньковонь
россии
россия
россиянь
россияса
ростиловское
ростов
ростовскии
роштува
роштувань
роща
рощино
рскии
рских
рское
рср
рсфср
рт
ртищевскии
руанда
рубцовскии
рузаевка
рузаевскии
рузанкин
рузвэльт
рузкс
рузмастор
рузмасторонь
рузмасторса
рузонь
рузск
руководства
руководству
румыния
рус
руснень
русская
русские
русскии
русско
русского
русское
русском
руст
ручеи
ручин
ручьи
рф
рыбинскии
рыбное
рыльскии
рэи
рябово
ряда
рясь
рівне
с
са
савино
савинская
савинское
савкино
савсь
садовка
садовое
садовыи
сазоново
саи
сакскии
сал
салаватскии
сале
салтыков
сальвадор
самбір
самои
самородов
самс
сан
санатории
сандор
санкт
сантиметра
сантиметрашка
санчурскии
сараево
саразонь
сараи
саранош
сараношень
сараношть
саранск
саранскяи
саратов
саратовская
саратовскии
саратувонь
састь
сась
сатурн
саф
сафонова
сашендсть
саянскии
сб
сбергсь
сборник
сборниксь
сведении
сведения
сведениям
светлое
светлыи
свечинскии
свобода
свободныи
свое
свои
связи
сделать
се
себеж
себежскии
себежское
севера
северная
северное
северныи
северо
северскии
седи
седова
седяма
седямань
седямась
сеи
сел
села
селиваново
селикса
селище
село
селтинскии
сельскии
сельских
сельского
сельское
сельсовет
сельсовета
сельцо
семантикась
сембе
сембода
сембось
семботь
сембоц
семе
семенково
семеновка
семеновская
семеновское
семьяса
сенем
сентябрьста
сентября
сер
сербия
сервере
сергеевка
сергеево
сергеи
сергино
сердобскии
сере
середское
серес
серец
сери
серии
серия
сермадомань
серышевскии
сетенень
сетеньсь
сетьме
сибаи
сибирскии
сибирского
сиволь
сигнальная
сидеста
сидорово
сидоровское
сиземское
силезия
силезиянь
симбирскои
символоц
симоново
симферополь
симферопольскии
сингапур
синглхне
синонипне
синтаксиссь
синь
сире
сиретьф
сирия
сисем
сисемце
системонь
сиянь
ск
ская
скии
ского
ское
скои
скоково
ском
скоморохово
скульпторсь
скяи
славгород
славковская
славянонь
славянскии
сладковскии
сланцевскии
следует
следующие
слитно
слобода
слободка
слободского
слободское
слободскои
словакия
словарь
слуда
слудка
служба
случае
см
смерти
смидовича
смирнов
смирновонь
смоленскии
смоліи
смузьсна
смузьшинь
сна
снегире
со
соавторы
соболево
собор
собственнои
совет
совета
советонь
советская
советскии
советско
советское
советскяи
совхоз
совхоза
содавикс
содаи
содама
содамань
содамась
содаф
содафткя
содержания
создание
создания
сои
сокаи
соколовка
соколово
сокольскии
соле
солнечныи
солнцевскии
соловье
солонешенскии
сомаи
сомалия
сомэрсэт
сон
сонцень
сонць
сонь
сообщение
сообщения
сообществ
сообщества
сообществом
сорокино
сорокинскии
сосновка
сосново
сосновоборскии
сосновское
сосновыи
сост
состав
состава
составленные
состоянии
состоянию
соткс
сотксонь
сотксса
соткссь
сотксть
сотф
социально
сочи
спас
спасибо
спасская
спасскии
спасское
спб
специализированных
специально
списки
списков
список
спортсь
справочник
среднее
средние
среднии
средняи
средняя
сср
ссср
ссылка
ссылки
ссылок
ссь
ст
ста
стаи
стак
стака
сталмода
сталмоц
стама
стан
стане
станица
станции
станция
станя
старая
старина
старины
старо
старово
старое
староминскии
староселье
старосельское
старошаи
старые
старыи
стат
статеи
статистика
статистики
статистические
статистическии
статистического
статистическое
статус
статьи
статья
ства
ство
степановка
степаново
степановская
степное
степнои
степь
стерлибашевскии
стерлитамакскии
стехновская
стиль
стиля
стирть
стирьхне
стихотворениянза
столбово
столбцы
стр
страниц
страница
страницах
странице
страницу
страницы
странички
стратегии
стратосферась
стрелка
стрии
строи
строка
строке
строки
строку
струго
стругокрасненскии
стрыи
студенец
ступино
стяма
субъектсь
сувасть
сувась
суворово
сувсесть
сувси
сувсихть
судан
суджанскии
судоверфское
сузсь
сукст
сулеи
сумароково
суматра
сунскии
суоми
суоминь
сура
суринам
сухая
сухои
сучасноі
схема
сыктывкар
сын
сысоево
сычево
сь
сьерра
сэнт
сэнэгал
сюлмафксне
сюмсинскии
сюнеда
ся
сявозь
сявомок
сявф
сяда
сядокиза
сядокизонь
сядокизоста
сядонга
сяка
сямженскии
сянгяря
сянкса
сянь
сярьгеи
сяс
сятко
сіл
січня
т
та
таблица
таблице
таблицу
таблицы
табунскии
тага
таджыкистан
тае
тазь
таи
так
также
таким
талица
талицкое
таллин
таловка
тальменскии
там
тамалинскии
тамб
тамбовскии
тамбовскяи
танзание
танзания
тарав
тарасово
тарасовская
тарбеень
тарбеи
таргонь
тарногскии
тарту
тартунь
тась
тат
татаронь
татарская
татарские
татарскии
татарско
татарское
татарскои
татарстан
татархт
татищевскии
татышлинскии
татьяна
татю
тафневсть
тафнесть
тафтксоц
тафтозе
тафтома
тафтомась
тафтомс
тафтысь
тафтыхне
тбилисскии
творчество
творчеству
те
театр
театрась
тев
тевлафне
тевонь
тевс
тевсь
тевть
теенза
теест
теи
текст
текста
тексту
тела
тем
темань
темникавонь
темниковскии
темрюкскии
теньгжелень
теодор
терапии
терехово
терминов
терминология
терминологиясь
терминонь
термосферась
тернопіль
территориального
территориальное
территории
территория
территориять
тесь
тефнень
тефт
технологиятне
ти
тиевома
тиевомасна
тиема
тиемс
тиендезь
тиендсть
тии
тиись
тиихне
тимаше
тимонино
тимошино
тимошкино
тимскии
тинь
тип
типа
тись
титово
тиф
тифоль
тихвинскии
тихорецкии
тконь
ткс
ткса
тксост
ткста
ткть
тналоннетнень
то
тобаго
тобольскии
тов
товскии
того
тоза
тои
токарево
только
том
томов
томса
томсь
томэ
тон
тона
тонадома
тонадомань
тонадомась
тонадоматне
тонадоматнень
тонафнема
тонафнемаксонь
тонафнемакссь
тонафнемань
тонафнесь
тонафтома
тонафтф
тонафтысь
тонь
топкинскии
топчихинскии
тоса
тосненскии
тотемскии
тр
традиции
традиционнои
традиционные
традиционных
транскрипциясь
транспортсь
тре
три
тринидад
триполи
трои
троица
троицк
троицкии
троицкое
тропосферась
труд
трудовои
труды
тсь
тся
туапсинскии
туготинская
тугуро
туи
тунда
тундань
тундась
тунисия
турка
туркамастор
туркань
туркмэнистан
турковскии
туркс
турку
турово
турци
тусь
тут
тутаевскии
тц
тъналонь
тъналса
тъналста
тъналстонь
търваса
ты
ть
тюжя
тюжягов
тюжяговонь
тюменская
тюменскии
тюменцевскии
тюмень
тюремань
тюремась
тюсне
тюсонь
тюсса
тюхтетскии
тюштень
тюштя
тя
тяда
тядде
тядяц
тяжинскии
тяка
тялонда
тялонь
тялось
тяни
тянивок
тяниень
тянь
тяса
тястонь
тяфта
тяфтама
тяшкс
тяштенятне
тяштсь
тяштть
у
уважаемые
уважением
увинскии
уганда
угличскии
угловскии
угол
угор
угорских
угрань
угров
угронь
удаление
удмурт
удмуртия
удмуртскии
удмуртском
удэ
уезде
уездов
уездонь
уезонь
уже
узбэкистан
уи
указ
указали
указания
укп
украина
украинаса
украинецт
украинка
украинонь
украі
ул
улан
уле
улема
ули
улихть
улица
ульсть
ульсь
ульяновка
ульяново
умолчанию
ун
унжат
универсального
университет
университета
университете
университетов
университетонь
университетса
унинскии
упоровскии
управлению
управления
уптмн
ур
урал
урала
уралья
уран
уре
уржумскии
урожаи
урср
уругваи
усад
усадище
усадьба
усвятскии
ускомбяльсь
условиях
усово
успенка
успенскии
устава
устно
устрои
усть
устье
устьянскии
устюженскии
утверждения
утворення
утилитась
уткино
уфа
уфаева
уфаи
уфимскии
уча
учалинскии
участие
участники
участников
участок
уче
учеб
учебнаи
учебное
учимся
ушаково
ушедомс
ушедсть
ушедсь
ушедфоль
ушеды
ушедыец
ушесь
ушетксста
ушетфоль
ушетфтоль
ушеширень
ушмонц
уштефоль
уштефтоль
уярскии
ф
фаи
фаленскии
фалу
фасо
фатежскии
фаунань
фашизмась
фе
февральста
февраля
федеральная
федеральныи
федерациень
федерациеть
федерации
федерациясь
федор
федорково
федоровское
федотово
феодосия
ферапонтовское
физикась
физиксь
физических
филимоново
филино
филинская
филиппин
филиппово
филологиень
филологии
филологическии
филологиянь
философсь
фильм
финно
фкс
фкст
фкя
фкянь
фкясь
фкясьспиридонов
фольклорно
фольклорных
фольклоронь
фольклорть
фомино
фоминская
фоминское
фонд
фонда
фонетикась
формась
формат
формац
форум
фото
фотоархтофкс
франка
франко
французонь
фролово
фрунзе
функции
функция
х
хабаровск
хабаровскии
хабаровского
хабарскии
хаврогорское
хаи
хакасия
ханты
характеристика
харино
харитоново
харкив
харовскии
хвалынскии
хеи
хельсинки
херцеговина
химических
химиянь
химиясь
хинди
хмелевка
хмельники
хне
хненди
хнень
хнеукраі
хозяи
холм
холмогорскии
хомутовскии
хотите
хохлово
хошеутовскии
храм
хронология
хтне
хть
художественнаи
хутор
ц
царицына
цария
це
цебярь
цево
целинныи
центр
центрального
центральное
центральныи
церква
церковь
церькавонь
цивилизация
циле
цсу
цыганкин
цярахманць
ч
чагодощенскии
чад
чаи
чамзинскии
чарозерское
чарышскии
части
часть
че
чебоксары
чекмагушевскии
чел
человек
ченцы
чепецкии
черапкин
чере
черевковское
через
черемисиновскии
черемшанка
черепа
череповец
череповецкии
черкесия
черноморскии
чернушка
чернівці
чернігів
чехмастор
чехонь
чили
чирки
численности
численность
число
чита
чишма
чишминскии
членов
чон
чортків
чтение
что
чтобы
чувашскии
чувашско
чудиново
чулпан
чумиканского
чупрово
чурилово
ш
ша
шабалинскии
шабань
шабатне
шабатненди
шаблон
шаблона
шаблонах
шаблонов
шаблонць
шаблоны
шаблотт
шаблоттнень
шабрань
шадрино
шадринскии
шаи
шаранскии
шарканскии
шарфнесь
шары
шарыповскии
шатровскии
шахов
шачема
шачсть
шачсь
шваи
шведмастор
шведонь
швеи
шевченка
шевченко
шеи
шекснинскии
шелковская
шемышеи
шенкурскии
ши
шивалгом
шивалгомширенди
шивалгомширень
шивалгомширеса
шие
шилово
шинь
шиньмадомаширень
шиньстямаширень
шиня
шипуновскии
ширде
ширдень
ширеса
ширесь
шири
ширина
шиста
шистяма
шистямаширень
шистямаширеса
шись
шит
шить
ших
шишкино
шка
шкаень
шкаи
школ
школа
школаса
школатненди
школать
школьнаи
школьная
школьныи
шмакова
шнама
шнаф
шобда
шольское
шотландонь
штатолть
штаттне
што
штоба
шубино
шуди
шудиков
шудиковонь
шуи
шульгино
шумбраши
шумихинскии
шуроста
шуфта
шуфтонь
шуфттне
шуфттнень
шяи
шяхярень
шяхярь
щ
щамсна
щанкина
ще
щель
щигровскии
щукино
щучанскии
щучье
ъ
ърьвяяма
ы
ь
э
эвондасть
эвондась
эгипт
эдгар
эди
эзда
эздост
эи
эквадор
экваториянь
экз
экзосферась
экологиясь
экономикань
экономикась
экономического
экстремальных
электрононь
элемента
элементсь
элементы
элеметтне
эли
энгельсскии
энциклопедия
энциклопедиясь
эняльдсть
эрек
эрзя
эрзянски
эрзянскии
эрзянь
эрзят
эрзятне
эрзятнень
эритрэя
эрь
эрьхке
эряви
эрявикс
эрявихть
эряи
эряма
эрямопинге
эрямопингонц
эрямопингонь
эрямопингоц
эрямопингсь
эрясть
эрясь
эряф
эряфонц
эряфонь
эряфоц
эряфсь
эряфть
эса
эсватини
эсонза
эст
эста
эстеи
эсти
эстинь
эстониянь
эсь
эти
этимологиясь
этиопия
этих
этногенезсь
этнографиень
этнографии
этнографические
этнографическии
этнографическяи
этнографиясь
этнографсь
этнологиясь
этноса
этноссь
это
этого
этои
этом
этот
эуразиясь
эуропонь
эуропса
ээсти
ю
юбилеи
юга
юго
югское
юдино
южно
южного
южное
южныи
юкаменскии
юн
юпитерь
юргамышскии
юрии
юрино
юркино
юровское
юромста
юронь
юрхтава
юрьевка
юрьево
юрьевское
юрьянскии
юшково
я
ява
явенгское
является
явоманц
явомась
явразиень
явропань
явропонь
явропса
яз
язык
языка
языках
языке
языки
языков
языково
яи
якаи
якасть
яковлев
яковлевка
яковлево
яковлевское
якстерь
якутска
якушево
якушевская
якшур
ялгат
ялта
ялуторовскии
ям
ямаи
ямало
ямскии
янаульскии
январьста
января
янош
япононь
япунонь
яр
яранскии
ярковскии
ярмак
ярославль
ярославская
ярославскии
ярославскои
ярскии
ярхцамбяль
ярцево
ясная
ятник
ячеи
є
і
іван
івана
іл
ім
ін
інститут
історія
історіі
ַ
ָ
ה
ו
מ
ا
الگو
قالب
و
ً
ٓ
ٔ
ܕ
ँ
च
ज
ट
द
न
प
भ
र
व
स
ह
ा
ि
ी
ु
े
्
ং
এর
ক
ঝ
ত
থ
দ
ধ
ন
প
ব
ম
য
র
ল
শ
ষ
স
়
া
ি
ী
ু
ৃ
ে
ৈ
্
க
ட
ப
ய
ி
ு
்
త
న
మ
వ
స
ి
ూ
ృ
ో
్
ಂ
ಟ
ದ
ನ
ಪ
ಲ
ವ
ಾ
ಿ
ು
ೆ
್
ೕ
ം
ക
ട
ണ
ത
ദ
ന
പ
മ
യ
ര
റ
ല
വ
ശ
ഷ
സ
ാ
ി
ു
ൂ
െ
േ
ൈ
്
ൽ
อ
ั
ิ
ี
ู
่
้
་
ག
ལ
ུ
ྲ
င
န
မ
ာ
ု
ေ
်
ြ
ა
გ
გვ
დ
ენციკლოპედია
ვ
ზ
თ
თბ
თბილისი
ლ
მ
საბჭოთა
ტ
ქართული
შ
ც
წ
ჯ
ჯაოშვილი
틀
ជ
ព
រ
ា
្
​
‌
‍
‎
‐
–
—
―
‘
’
“
”
„
†
•
…
‪
′
″
‹
›
€
№
←
↑
→
↓
↔
↖
↗
↘
↙
↵
↷
↹
⇧
⇪
−
≈
≣
≥
⊞
⌘
⌥
③
④
⑦
─
♂
✓
⟨
⟩
ⴰ
ⴳ
ⴷ
ⴻ
ⵉ
ⵎ
ⵏ
ⵓ
ⵔ
ⵜ
ⵢ
ⵣ
⺀
⺄
⺆
⺈
⺊
⺌
⺕
⺝
⺸
⺼
⿰
⿱
⿲
⿳
⿴
⿵
⿶
⿷
⿸
⿹
⿺
⿻
々
〢
か
た
ち
て
の
は
ひ
ま
よ
ら
り
゙
カ
コ
ユ
ロ
㇁
㇂
㇄
㇇
㇈
㇉
㇓
㐁
㐄
㐅
㐌
㐫
㐬
㐭
㐮
㐱
㑒
㒵
㒸
㒼
㓁
㓞
㔾
㕛
㕣
㖾
㘝
㚅
㚇
㚔
㚘
㝉
㝡
㝴
㝵
㞋
㞢
㞷
㠩
㠭
㠯
㡀
㡭
㡿
㢲
㢴
㣇
㣺
㥯
㪅
㫄
㫐
㫒
㫺
㬅
㬎
㬥
㬰
㲋
㳄
㷠
㸒
㸚
㸦
㼌
㼲
㽞
㿟
䀠
䂞
䍃
䏍
䒑
䖍
䖒
䖝
䖵
䙴
䚻
䜌
䝿
䡛
䧹
䪞
一
丁
丂
七
丄
丅
丆
万
丈
三
上
下
丌
不
与
丏
丐
丑
专
且
丕
世
丘
丙
业
东
丞
丢
丣
两
严
並
丨
丩
个
丫
丬
中
丮
丰
丱
串
丵
丶
丷
丸
丹
为
主
丽
丿
乀
乂
乃
久
乆
乇
么
义
之
乌
乍
乎
乏
乐
乑
乔
乖
乗
乘
乙
乚
乛
乜
九
乞
也
习
乡
乳
乾
亀
亅
了
亇
予
争
事
二
亍
于
亏
亐
云
互
亓
五
井
亘
亚
亜
亞
亟
亠
亡
亢
交
亥
亦
产
亨
亩
享
京
亭
亮
亯
亰
亲
亳
亶
亷
人
亻
亼
亾
仁
今
介
仌
从
仐
仑
仒
仓
仔
仕
他
付
仝
代
令
以
仮
任
份
企
伊
伏
伐
休
会
伯
但
位
何
佘
余
作
佥
使
來
侈
侌
侖
侯
侵
便
保
俞
信
修
倉
倍
候
倠
備
僉
僕
儿
兀
允
兂
元
兄
充
兆
兇
先
光
兊
克
兌
免
兑
兒
兓
兔
党
兜
兟
入
全
兩
兪
八
公
六
兮
兰
共
关
兵
其
具
典
兹
兼
冀
冂
冃
冄
内
冈
冉
冊
冋
册
再
冎
冏
冐
冒
冓
冖
冗
冘
军
农
冝
冠
冡
冥
冫
冬
冷
几
凡
凢
凵
凶
凷
凸
凹
出
函
凾
刀
刁
刂
刃
刄
刅
分
切
刍
刑
刕
刖
列
刘
则
初
別
利
别
到
制
刺
則
削
剌
前
剡
剽
劉
力
功
加
劦
助
劫
劳
劵
勃
勇
勉
勒
動
務
勞
勤
勹
勺
勻
勾
勿
匀
匂
包
匆
匈
匊
匋
匍
匕
化
北
匚
匝
匡
匪
匱
匸
匹
区
医
匽
匿
區
十
卂
千
卄
卅
卆
升
午
卉
半
卌
华
卑
卒
卓
单
卖
南
卜
卝
卞
占
卡
卢
卣
卤
卦
卩
卪
卬
卯
印
危
即
却
卵
卷
卸
卻
厂
厃
厄
历
厈
厉
厌
厓
厘
厚
原
厤
厥
厨
厭
厲
厶
厷
厸
去
厼
厽
叀
参
參
叅
又
叉
及
友
双
反
叐
发
叒
叔
叕
取
受
叚
叜
叟
口
古
句
另
叩
只
召
可
台
叱
史
右
叵
号
司
叹
吂
各
吅
合
吉
吊
吋
同
名
后
吏
向
吕
君
吝
吞
否
含
启
吳
吴
吹
吾
呂
呆
呈
告
员
呙
周
命
咅
和
咎
咠
咢
咨
咸
咼
哀
品
哉
員
哥
哲
唐
商
啇
問
啚
啬
啻
善
喜
喬
單
喿
嗇
噩
嚴
囊
囗
囘
囙
囚
四
回
囟
因
囧
囬
困
囱
囷
固
国
圂
圅
國
圍
圓
土
圡
圣
圥
在
圭
地
圶
圼
坐
坒
坚
坴
垂
垔
垚
埀
埋
埶
執
基
堂
堅
堆
堇
堯
塞
墨
壘
士
壬
壯
声
壳
壴
壹
壺
壽
夂
处
夅
夆
备
夊
夋
夌
复
夏
夒
夕
外
夗
夘
多
夜
夢
大
夨
天
太
夫
夬
夭
央
失
夲
头
夷
夸
夹
夻
夾
奂
奄
奇
奈
奉
奎
奏
奐
契
奓
奔
奚
奞
奠
奢
奥
奭
女
奴
奻
好
如
妄
妙
妟
妥
妻
妾
姑
委
姜
威
娄
婁
婴
嬰
嬴
子
孑
孔
孕
孖
字
存
孚
孛
孝
孟
季
孤
学
孫
孱
學
宀
宁
宂
它
宅
宇
守
安
宋
完
宏
宓
宗
官
定
宛
宜
宝
客
宣
室
宮
宰
害
家
容
宾
宿
寄
寅
密
富
寒
察
寧
審
寫
寬
寮
寸
对
寺
寻
寽
対
寿
封
尃
射
将
將
專
尉
尊
尋
尌
對
小
少
尒
尓
尔
尖
尗
尚
尞
尢
尣
尤
尧
尨
尭
就
尸
尹
尺
尻
尼
尽
尾
尿
局
居
屆
屈
屋
屎
屏
屑
展
屖
屚
属
屠
屡
屬
屮
屯
屰
山
屵
屾
岁
岂
岑
岡
岩
岳
岸
峯
島
崇
崑
崔
崖
崙
崩
嵬
嶲
巂
巛
川
州
巟
巠
巢
巤
工
左
巧
巨
巩
巫
差
己
已
巳
巴
巷
巸
巽
巾
巿
帀
市
布
希
帚
帛
帝
带
師
席
帶
常
干
平
年
幵
并
幷
幸
幺
幻
幼
幽
幾
广
広
庄
床
底
店
庚
府
度
庫
庭
庶
康
庸
廉
廌
廛
廣
廩
廴
延
廷
建
廾
廿
开
弁
弃
弄
弇
弋
式
弓
弔
引
弗
弘
弜
弟
弥
弦
弱
張
強
强
彊
彌
彎
彐
彑
当
彔
录
彖
彗
彡
形
彥
彦
彧
彭
影
彳
役
彼
往
待
律
後
徒
得
徙
從
復
微
徵
心
忄
必
忌
忍
志
忝
忠
忩
快
念
忽
忿
思
怠
急
怱
恆
恒
恩
恭
息
悉
患
悤
悲
悶
惠
惡
惢
愁
愈
意
愛
感
慈
慧
慮
憂
憲
應
戀
戈
戉
戊
戋
戌
戍
戎
成
我
戒
戔
或
戚
戠
戢
截
戲
戶
户
戹
戼
戾
房
所
扁
扇
手
扌
才
打
托
执
承
折
拉
拍
拜
拿
掌
推
提
搞
摩
擊
攝
支
攴
攵
收
攸
改
放
政
敄
敏
敕
敖
敗
敝
敞
敢
散
敦
敫
敬
数
敷
數
斂
文
斉
斊
斗
斤
斥
斩
斬
斯
新
方
於
施
斿
旁
旋
族
无
旡
既
旣
日
旦
旧
旨
早
旬
旱
旲
时
旾
昆
昇
昌
昍
明
昏
易
昔
昗
昜
星
春
昬
是
昱
昴
昷
時
晃
晋
晏
晚
普
景
晶
智
暑
暴
曇
曩
曰
曲
曳
更
曷
書
曹
曼
曾
替
最
朁
會
月
有
朋
服
朔
朕
朗
望
朝
期
木
朩
未
末
本
札
朮
术
朱
朵
朶
朿
杀
杏
杜
束
条
来
東
杲
杳
松
析
林
枚
果
枝
枲
枼
某
柔
查
柬
柰
柴
栗
桀
桑
桼
梁
條
梟
梨
棘
棠
棥
森
楚
業
楽
榮
樂
樊
欠
次
欣
欮
欲
欶
欽
款
歆
歇
歛
止
正
此
步
武
歨
歪
歮
歯
歰
歲
歴
歷
歸
歹
歺
死
殳
段
殷
殸
殹
殺
殻
殿
毋
毌
母
每
毒
比
毕
毚
毛
毳
氏
氐
民
气
氣
水
氵
氶
氷
永
氺
氾
求
汝
汞
江
沃
沓
沙
沝
泉
法
波
泣
泥
泰
洛
洪
活
派
流
浦
浪
浮
淡
淮
清
渚
渠
港
湯
滿
漸
灣
火
灬
灭
灰
灵
灷
炅
炎
炏
炗
炙
炭
為
烈
烏
烝
焉
無
焦
焱
然
煞
熊
熏
燕
營
燮
爪
爫
爭
爯
爰
爱
爲
爵
父
爻
爽
爾
爿
片
牙
牚
牛
牜
牟
牢
牧
牪
牽
犀
犬
犭
犮
狂
狄
狊
独
狺
猋
猒
猪
献
獻
玄
率
玉
王
玟
玨
珎
班
現
理
琴
瑟
瑩
瓜
瓦
甘
甚
生
産
用
甫
甬
田
由
甲
申
电
甶
男
甸
甹
画
甾
畀
界
畏
畐
留
畜
畟
畢
畧
畨
番
畫
異
畱
當
畺
畾
疊
疋
疌
疑
疒
疾
癶
癸
癹
登
發
白
百
皀
皃
的
皆
皇
皋
皐
皕
皮
皷
皿
盃
盆
盇
盈
益
盍
盎
监
盒
盖
盛
盡
監
盤
盧
目
直
相
盾
省
眇
眉
看
眔
眞
真
眷
眼
眾
着
睘
睪
睿
瞏
瞢
瞿
矍
矛
矞
矢
矣
知
矦
短
石
破
碎
磊
磨
示
礻
礼
祟
票
祭
禀
禁
禸
禹
禺
离
禽
禾
禿
秀
秃
秉
秋
科
秝
秦
移
稟
穀
穌
穴
究
穹
空
穿
突
窄
窒
立
竒
竜
竝
竟
章
童
竹
笑
笠
第
筆
等
答
箕
算
管
箴
節
篤
篭
米
粉
粛
粟
粤
粦
粲
粵
糞
糸
糹
系
紀
約
納
素
索
紫
累
細
絜
絫
絲
維
綿
縣
繇
纍
纟
纪
缶
网
罒
罔
罕
罗
罙
罡
罢
罪
署
罷
羅
羊
羌
羍
美
羔
羕
羗
羞
羡
羣
群
義
羲
羸
羽
翁
翏
習
翕
翟
翠
翼
老
耂
考
者
耆
而
耎
耑
耒
耳
耴
耶
耷
聂
聊
聖
聚
聶
聿
肀
肃
肅
肉
肖
肙
肥
肩
肯
育
肴
胃
背
胡
胥
能
脊
脩
膚
臣
臤
臧
自
臬
臭
臯
臱
至
致
臺
臼
臽
臾
臿
舀
舂
舄
與
興
舉
舌
舍
舛
舜
舞
舟
航
般
艮
良
色
艸
艹
艾
芒
芔
芬
芮
花
芳
芺
芻
苔
苗
苟
若
苦
英
茶
茸
荅
草
荒
荣
荼
莆
莧
莫
莽
菆
菊
菐
華
萬
落
葉
著
葛
董
葵
蒙
蒦
蒼
蓋
蓬
蓺
蔑
蔡
蕉
蕭
薄
薛
薦
薰
藍
藏
藥
蘭
虍
虎
虐
虒
虔
處
虖
虗
虘
虚
虛
虜
虞
號
虫
虽
蚤
蚩
蜀
蜜
蟲
蠡
血
行
衍
衛
衣
衤
表
衮
衰
袁
袞
褭
褱
襄
襲
襾
西
覀
要
覃
見
規
覓
覧
親
覽
见
角
解
言
訁
訇
計
詹
語
誩
諸
議
讠
谷
豆
豈
豊
豐
豕
豖
豙
象
豦
豩
豪
豸
貇
貝
貞
貟
負
貢
貧
貪
貫
責
貳
貴
買
費
賁
資
賈
賏
賓
賔
賛
賞
賢
賣
質
賴
賽
贊
贝
贡
责
贯
贲
贵
赖
赞
赤
赦
走
越
足
路
蹇
身
躬
車
軍
軎
軟
輦
车
辛
辜
辟
辥
辰
辱
農
辵
辶
边
达
过
近
连
迷
追
退
送
逆
逐
通
速
造
逢
連
逮
進
遀
遂
過
道
達
遣
適
遷
遺
邊
邑
邕
那
邦
邪
郎
部
郭
都
鄉
酉
酋
配
酓
釆
采
釋
里
重
野
量
金
釒
錢
钅
長
镸
长
門
閃
閉
開
閏
閑
閒
間
閔
閵
閻
闌
门
间
闷
阑
阜
阝
阿
降
陳
隆
隊
隋
隡
隨
隱
隶
隹
隺
隻
隼
隽
难
雀
雁
集
雈
雋
雍
雐
雔
雙
雚
雜
雝
離
難
雨
雩
雪
雲
零
雷
需
霍
霜
霝
霞
霸
靈
靑
青
非
靡
面
靣
革
韋
韦
韭
韯
韱
音
頁
頃
項
須
頗
頡
頻
顛
页
風
颱
风
飛
飞
食
飠
養
饣
首
香
馬
馮
駦
马
骨
高
髟
鬥
鬯
鬲
鬼
魚
魯
鮮
鱼
鲁
鳥
鳳
鸟
鹵
鹿
麃
麗
麥
麦
麻
黃
黄
黍
黎
黑
黒
黨
黹
黽
黾
鼎
鼓
鼠
鼻
齊
齋
齐
齒
齿
龍
龙
龜
龟
龠
龰
龱
龴
龵
龶
龷
龸
龹
者
艹
️
（
）
，
：
？
📏
📲
🚀
𠀁
𠀃
𠀆
𠀉
𠀎
𠀐
𠁁
𠁣
𠂆
𠂇
𠂈
𠂉
𠂊
𠂋
𠂎
𠂒
𠂔
𠂛
𠂡
𠂢
𠂤
𠂬
𠂭
𠂹
𠃊
𠃋
𠃌
𠃍
𠃎
𠃑
𠃓
𠃔
𠃜
𠄌
𠄎
𠄠
𠄢
𠆢
𠆥
𠇍
𠈌
𠌵
𠓜
𠔉
𠔥
𠔼
𠔽
𠔿
𠕀
𠕁
𠕋
𠘧
𠘨
𠙻
𠙼
𠚏
𠚒
𠚤
𠚪
𠣏
𠤎
𠤕
𠥓
𠦄
𠦑
𠦝
𠧒
𠧗
𠧪
𠩺
𠪚
𠫓
𠫔
𠫤
𠬛
𠬝
𠬞
𠬢
𠬤
𠬶
𠮛
𠮦
𠮷
𠯑
𠱠
𠳮
𠷎
𡈼
𡉀
𡉵
𡌥
𡍮
𡏳
𡕒
𡕩
𡕰
𡖅
𡗗
𡗜
𡘆
𡘤
𡧱
𡨄
𡩧
𡬠
𡭽
𡰣
𡰥
𡰪
𡰯
𡰱
𡷈
𡸁
𡿨
𡿩
𡿪
𡿺
𢀖
𢀛
𢀩
𢁙
𢆉
𢆰
𢆶
𢇁
𢇇
𢉖
𢌬
𢌿
𢏚
𢑑
𢑚
𢖻
𢙣
𢛳
𢦏
𢦒
𢧵
𢼄
𢾕
𣁋
𣄼
𣅀
𣅽
𣍘
𣎳
𣎵
𣏋
𣏼
𣗥
𣥂
𣥖
𣦵
𣦼
𣧄
𣪊
𣪠
𣬉
𣳾
𣶒
𤇾
𤊽
𤐫
𤓰
𤔔
𤕨
𤣩
𤰇
𤰔
𤰞
𤴓
𤴔
𤽄
𥁑
𥁕
𥃦
𥃩
𥃭
𥇡
𥑟
𥘅
𥘈
𥝢
𥫗
𥱡
𦈢
𦉪
𦉬
𦉼
𦍌
𦍒
𦎧
𦐇
𦓔
𦔮
𦘒
𦙃
𦚏
𦣝
𦣞
𦣻
𦥑
𦥔
𦥯
𦨉
𦭝
𦰩
𧆞
𧈧
𧘇
𧰨
𧴪
𧴮
𧵩
𧾷
𨸏
𨾴
𩙿
𩠐
𩫏
𩵋
𪉷
𪜀
𪟽
𪠲
𪩲
𫇦
𫔭
𫜸
𫝀
𫠣
𫠩
𫢉
𫥞
𫩏
𫩠
𫪡
𫲽
𫶧
𬀷
𬐘
𬗌
𬙙
𬛸
𬜯
𬟩
𬯁
𬴘
𬺻
𬼉
𬼖
𭀰
𭁈
𭁨
𭅰
𭑈
𭕄
𭗼
𭤨
𭥫
𭻾
𮅕
𮊿
𮍌
𮍏
𮓗
𮥼
𮧮
廾
𰀁
𰀄
𰀈
𰀉
𰀕
𰀠
𰀡
𰀢
𰀪
𰁜
𰃮
𰆊
𰆘
𰋙
𰕎
𰢴
𰧭
𰯲
00--
000--
01--
03--
04--
05--
06--
07--
08--
09--
1000--
1002--
1005--
1011--
1013--
1015--
1022--
1024--
1027--
1029--
1031--
1032--
1034--
1035--
1036--
1041--
1042--
1045--
1046--
1047--
1049--
1050--
1051--
1052--
1053--
1054--
1057--
1059--
1061--
1062--
1065--
1067--
1068--
1073--
1075--
1076--
1077--
1078--
1080--
1081--
1083--
1089--
1090--
1092--
1093--
1095--
1097--
1099--
1100--
1101--
1104--
1108--
1109--
1110--
1111--
1112--
1113--
1114--
1115--
1116--
1117--
1118--
1119--
1120--
1121--
1122--
1123--
1124--
1125--
1126--
1127--
1128--
1129--
1130--
1131--
1132--
1133--
1134--
1135--
1136--
1137--
1138--
1139--
1140--
1145--
1146--
1148--
1149--
1151--
1153--
1157--
1158--
1161--
1162--
1164--
1167--
1173--
1178--
1181--
1182--
1184--
1185--
1186--
1188--
1190--
1193--
1194--
1196--
1198--
1199--
1201--
1203--
1204--
1206--
1207--
1208--
1209--
1212--
1213--
1214--
1216--
1222--
1223--
1227--
1231--
1234--
1237--
1239--
1240--
1242--
1243--
1246--
1247--
1248--
1249--
1250--
1252--
1253--
1258--
1259--
1260--
1261--
1262--
1264--
1265--
1267--
1268--
1269--
1270--
1273--
1275--
1277--
1278--
1279--
1280--
1282--
1283--
1284--
1286--
1287--
1291--
1295--
1297--
1298--
1300--
1302--
1304--
1307--
1308--
1309--
1314--
1318--
1319--
1320--
1321--
1322--
1326--
1327--
1329--
1330--
1332--
1336--
1338--
1339--
1340--
1341--
1343--
1346--
1347--
1350--
1351--
1352--
1353--
1354--
1361--
1362--
1364--
1365--
1366--
1367--
1369--
1373--
1375--
1376--
1377--
1378--
1381--
1384--
1389--
1391--
1393--
1394--
1395--
1398--
1399--
1401--
1402--
1403--
1404--
1408--
1410--
1411--
1416--
1417--
1418--
1419--
1421--
1422--
1423--
1429--
1431--
1437--
1438--
1441--
1444--
1446--
1447--
1449--
1454--
1455--
1456--
1459--
1460--
1464--
1465--
1466--
1467--
1468--
1469--
1470--
1472--
1473--
1475--
1476--
1477--
1478--
1481--
1482--
1483--
1484--
1485--
1487--
1488--
1491--
1492--
1493--
1494--
1497--
1498--
1499--
1505--
1507--
1508--
1510--
1511--
1513--
1514--
1515--
1517--
1519--
1520--
1522--
1524--
1525--
1529--
1532--
1534--
1535--
1536--
1538--
1539--
1540--
1545--
1546--
1547--
1548--
1558--
1566--
1567--
1569--
1573--
1574--
1578--
1586--
1590--
1593--
1595--
1596--
1598--
1600--
1601--
1603--
1605--
1606--
1607--
1608--
1609--
1610--
1613--
1614--
1616--
1617--
1618--
1619--
1620--
1622--
1623--
1629--
1631--
1633--
1634--
1635--
1639--
1640--
1641--
1642--
1643--
1644--
1645--
1646--
1647--
1648--
1650--
1651--
1652--
1654--
1657--
1658--
1660--
1664--
1666--
1667--
1669--
1671--
1674--
1676--
1678--
1680--
1681--
1683--
1686--
1689--
1692--
1693--
1695--
1697--
1699--
1702--
1705--
1708--
1709--
1710--
1711--
1712--
1714--
1716--
1718--
1719--
1720--
1721--
1724--
1725--
1726--
1727--
1728--
1729--
1732--
1734--
1735--
1736--
1738--
1739--
1741--
1742--
1745--
1746--
1748--
1751--
1752--
1755--
1756--
1758--
1760--
1762--
1763--
1765--
1767--
1769--
1772--
1775--
1776--
1777--
1778--
1779--
1783--
1784--
1787--
1789--
1790--
1792--
1794--
1795--
1796--
1797--
1800--
1802--
1804--
1806--
1807--
1810--
1812--
1813--
1816--
1821--
1822--
1823--
1824--
1825--
1826--
1827--
1829--
1832--
1834--
1835--
1836--
1839--
1840--
1841--
1843--
1844--
1845--
1846--
1849--
1852--
1854--
1855--
1856--
1857--
1859--
1862--
1866--
1867--
1873--
1874--
1875--
1876--
1879--
1880--
1881--
1882--
1883--
1884--
1885--
1886--
1887--
1888--
1889--
1890--
1891--
1892--
1893--
1894--
1895--
1896--
1897--
1898--
1899--
1900--
1901--
1902--
1903--
1904--
1905--
1906--
1907--
1908--
1909--
1910--
1911--
1912--
1913--
1919--
1920--
1925--
1926--
1928--
1929--
1932--
1934--
1935--
1939--
1940--
1942--
1943--
1946--
1948--
1951--
1952--
1955--
1956--
1960--
1963--
1968--
1970--
1972--
1973--
1974--
1977--
1978--
1979--
1980--
1981--
1982--
1983--
1984--
1985--
1986--
1987--
1988--
1989--
1990--
1991--
1992--
1993--
1994--
1995--
1996--
1997--
1998--
1999--
2000--
2001--
2002--
2003--
2004--
2005--
2006--
2007--
2008--
2009--
2010--
2011--
2012--
2013--
2014--
2015--
2016--
2017--
2018--
2019--
2020--
2021--
2022--
2023--
2024--
2025--
2026--
2027--
2028--
2029--
2030--
2031--
2032--
2033--
2034--
2035--
2036--
2037--
2038--
2039--
2040--
2041--
2042--
2043--
2044--
2045--
2046--
2047--
2048--
2051--
2052--
2053--
2054--
2057--
2060--
2062--
2063--
2064--
2066--
2067--
2074--
2075--
2076--
2077--
2082--
2085--
2088--
2090--
2091--
2093--
2094--
2097--
2098--
2100--
2101--
2102--
2103--
2104--
2105--
2108--
2109--
2112--
2113--
2114--
2115--
2116--
2117--
2118--
2119--
2120--
2121--
2122--
2123--
2124--
2125--
2126--
2127--
2128--
2129--
2130--
2131--
2132--
2133--
2134--
2135--
2136--
2137--
2138--
2139--
214--
2140--
2142--
2143--
2144--
2145--
2146--
2147--
224--
229--
232--
238--
239--
254--
255--
260--
263--
264--
265--
266--
270--
271--
272--
273--
274--
275--
276--
277--
278--
279--
280--
281--
282--
283--
284--
285--
286--
287--
288--
290--
292--
293--
294--
295--
296--
297--
298--
299--
301--
303--
304--
305--
306--
307--
308--
309--
310--
311--
312--
313--
314--
315--
316--
317--
318--
319--
320--
321--
323--
324--
325--
326--
327--
328--
329--
330--
331--
332--
333--
334--
336--
338--
339--
340--
341--
342--
343--
344--
345--
346--
347--
348--
349--
350--
351--
352--
353--
354--
355--
356--
357--
358--
359--
360--
361--
362--
363--
364--
365--
366--
367--
368--
369--
370--
371--
372--
373--
374--
375--
376--
377--
378--
379--
380--
381--
382--
383--
384--
385--
386--
387--
388--
389--
390--
391--
392--
393--
394--
395--
396--
397--
398--
399--
400--
401--
402--
403--
404--
405--
406--
407--
408--
409--
410--
411--
412--
413--
414--
415--
416--
417--
418--
419--
420--
421--
422--
423--
424--
425--
426--
427--
428--
429--
430--
431--
432--
433--
434--
435--
436--
437--
438--
439--
440--
441--
442--
443--
444--
445--
446--
447--
448--
449--
450--
451--
452--
453--
454--
455--
456--
457--
458--
459--
460--
461--
462--
463--
464--
465--
466--
467--
468--
469--
470--
471--
472--
473--
474--
475--
476--
477--
478--
479--
480--
481--
482--
483--
484--
485--
486--
487--
488--
489--
490--
491--
492--
493--
494--
495--
496--
497--
498--
499--
500--
501--
502--
503--
504--
505--
506--
507--
508--
509--
510--
511--
512--
513--
514--
515--
516--
517--
518--
519--
520--
521--
522--
523--
524--
525--
526--
527--
528--
529--
530--
531--
532--
533--
534--
535--
536--
537--
538--
539--
540--
541--
542--
543--
544--
545--
546--
547--
548--
549--
550--
551--
552--
553--
554--
555--
556--
557--
558--
559--
560--
561--
562--
563--
564--
565--
566--
567--
568--
569--
570--
571--
572--
573--
574--
575--
576--
577--
578--
579--
580--
581--
582--
583--
584--
585--
586--
587--
588--
589--
590--
591--
592--
593--
594--
595--
596--
597--
598--
599--
600--
601--
602--
603--
604--
605--
606--
607--
608--
609--
610--
611--
612--
613--
614--
615--
616--
617--
618--
619--
620--
621--
622--
623--
624--
625--
626--
627--
628--
629--
630--
631--
632--
633--
634--
635--
636--
637--
638--
639--
640--
641--
642--
643--
644--
645--
646--
647--
648--
649--
650--
651--
652--
653--
654--
655--
656--
657--
658--
659--
660--
661--
662--
663--
664--
665--
666--
667--
668--
669--
670--
671--
672--
673--
674--
675--
676--
677--
678--
679--
680--
681--
682--
683--
684--
685--
686--
687--
688--
689--
690--
691--
692--
693--
694--
695--
696--
697--
698--
699--
700--
701--
702--
703--
704--
705--
706--
707--
708--
709--
710--
711--
712--
713--
714--
715--
716--
717--
718--
719--
720--
721--
722--
723--
724--
725--
726--
727--
728--
729--
730--
731--
732--
733--
734--
735--
736--
737--
738--
739--
740--
741--
742--
743--
744--
745--
746--
747--
748--
749--
750--
751--
752--
753--
754--
755--
756--
757--
758--
759--
760--
761--
762--
763--
764--
765--
766--
767--
768--
769--
770--
771--
772--
773--
774--
775--
776--
777--
778--
779--
780--
781--
782--
783--
784--
785--
786--
7863744--
786404--
786464--
786504--
787--
788--
789--
790--
791--
792--
793--
794--
795--
796--
797--
798--
799--
800--
801--
802--
803--
804--
805--
806--
807--
808--
809--
810--
811--
812--
813--
814--
815--
816--
817--
818--
819--
820--
821--
822--
823--
824--
825--
826--
827--
828--
829--
830--
831--
832--
833--
834--
835--
836--
837--
838--
839--
840--
841--
842--
843--
844--
845--
846--
847--
848--
849--
850--
851--
852--
853--
854--
855--
856--
857--
858--
859--
860--
861--
862--
863--
864--
865--
866--
867--
868--
869--
870--
871--
872--
873--
874--
875--
876--
877--
878--
879--
880--
881--
882--
883--
884--
885--
886--
887--
888--
889--
890--
891--
892--
893--
894--
895--
896--
897--
898--
899--
900--
901--
902--
903--
904--
905--
906--
907--
908--
909--
910--
911--
912--
913--
914--
915--
916--
917--
918--
919--
920--
921--
922--
923--
924--
925--
926--
927--
928--
929--
930--
931--
932--
933--
934--
935--
936--
937--
938--
939--
940--
941--
942--
943--
944--
945--
946--
947--
948--
949--
950--
951--
952--
953--
954--
955--
956--
957--
958--
959--
960--
961--
962--
963--
964--
965--
966--
967--
968--
969--
970--
971--
972--
973--
974--
975--
976--
977--
978--
979--
980--
981--
982--
983--
984--
985--
986--
987--
988--
989--
990--
991--
992--
993--
994--
995--
996--
997--
998--
999--
aa--
ab--
above--
ac--
acker--
acro--
acu--
acut--
ad--
add--
aden--
ae--
af--
affi--
ag--
ah--
ai--
air--
ak--
al--
albo--
alex--
all--
alleb--
alt--
alter--
am--
an--
anno--
anta--
anth--
anti--
ao--
ap--
apos--
appl--
ar--
arac--
arc--
arg--
args--
art--
as--
asco--
astra--
at--
atro--
atta--
atte--
au--
auto--
av--
aw--
awar--
ax--
az--
ba--
back--
ban--
bapt--
bar--
base--
batem--
be--
ber--
best--
bh--
bi--
biblio--
biog--
bl--
blo--
bo--
body--
book--
bor--
boul--
box--
br--
brac--
brachy--
branch--
braz--
brev--
bro--
bt--
bu--
bur--
byr--
ca--
caes--
calc--
calo--
came--
camp--
can--
car--
cari--
carno--
caro--
cat--
cau--
caul--
cc--
ce--
cele--
cen--
cera--
cfg--
ch--
chart--
che--
check--
chis--
chlo--
cho--
chr--
chrysog--
ci--
cili--
cirr--
cith--
cl--
claims--
clav--
clei--
clo--
co--
coel--
col--
color--
com--
combi--
con--
conc--
cons--
conv--
copy--
cor--
cord--
coro--
cr--
cras--
crea--
crit--
cro--
crypt--
cu--
cucu--
curr--
cy--
cyan--
cycl--
cypho--
cz--
d--
da--
dab--
dag--
data--
date--
dateof--
dd--
de--
dec--
decla--
default--
demo--
den--
desam--
deve--
di--
dipl--
disc--
dist--
dm--
do--
doc--
dom--
dp--
dr--
dru--
ds--
du--
dv--
dy--
dz--
e--
ea--
eb--
ec--
echi--
ed--
edif--
edit--
ee--
ef--
eh--
ei--
ek--
ekonom--
el--
eli--
em--
en--
end--
entity--
entriestolookup--
ep--
equ--
er--
erio--
err--
es--
escape--
et--
ethn--
eu--
euro--
ev--
eval--
ex--
expl--
ez--
f--
fa--
facili--
fe--
fetch--
ff--
fi--
file--
fimb--
find--
first--
fl--
flag--
flav--
fo--
fol--
font--
foo--
for--
format--
foto--
fr--
frame--
fu--
full--
fund--
g--
ga--
gall--
gar--
ge--
geo--
ger--
get--
getall--
gf--
gh--
gi--
gl--
glo--
glos--
go--
gon--
good--
gover--
gr--
grac--
grad--
gram--
gran--
grat--
gro--
group--
gu--
guar--
gym--
h--
ha--
hang--
hann--
har--
has--
he--
hell--
her--
hi--
his--
hm--
ho--
homo--
hor--
hr--
hu--
hun--
hung--
hur--
hy--
hydrology--
ia--
ic--
id--
ig--
il--
illu--
im--
image--
in--
incr--
info--
infra--
init--
inne--
inner--
inter--
intro--
invi--
io--
ip--
ir--
is--
iso--
issu--
it--
iz--
j--
ja--
japo--
jen--
jes--
ji--
jo--
ju--
k--
ka--
kal--
kam--
kar--
kaup--
kel--
kes--
key--
ki--
kl--
kn--
ko--
kor--
kr--
ks--
ku--
kv--
kw--
ky--
l--
la--
label--
lan--
lanc--
land--
lands--
lang--
last--
lat--
lay--
le--
lept--
leu--
leuco--
ley--
li--
line--
link--
lis--
list--
ll--
lo--
local--
lon--
long--
lou--
lp--
lu--
ly--
m--
ma--
mace--
macr--
mag--
main--
mainsnak--
make--
man--
map--
mar--
mark--
mask--
master--
max--
mc--
me--
mean--
medi--
mega--
mela--
men--
mer--
merri--
meta--
mi--
micr--
mid--
mili--
mill--
min--
mir--
mira--
mis--
mm--
mo--
module--
mon--
mono--
monte--
mor--
mos--
mu--
multi--
muz--
my--
myth--
n--
na--
name--
nav--
naz--
nb--
nc--
nd--
ne--
neo--
net--
neu--
new--
next--
ng--
ni--
nigr--
niko--
nil--
nn--
no--
node--
not--
ns--
nu--
num--
nv--
ny--
o--
obs--
obsh--
obt--
oc--
ochr--
od--
of--
off--
oh--
ok--
ol--
old--
olig--
om--
on--
op--
open--
or--
os--
oto--
ou--
out--
ova--
over--
p--
pa--
page--
palm--
pan--
para--
param--
parse--
path--
pav--
pe--
pen--
per--
phi--
pho--
phr--
phy--
pi--
pie--
pl--
platy--
po--
poli--
polo--
possible--
pr--
pract--
prae--
pre--
prez--
pri--
pro--
prom--
prop--
pros--
proto--
pseu--
pseudo--
psit--
psitta--
pu--
pube--
pur--
purpu--
q--
qu--
quadri--
quo--
r--
ra--
rais--
raw--
raz--
rd--
re--
ref--
reg--
reli--
render--
rep--
res--
result--
rho--
ri--
rns--
ro--
roll--
ros--
rou--
row--
rs--
ru--
s--
sa--
sacc--
sal--
sam--
san--
sandbox--
sar--
sc--
scha--
schl--
script--
scul--
se--
sec--
semi--
ser--
seri--
set--
sh--
show--
si--
sk--
skip--
sl--
slo--
sm--
smith--
sn--
snak--
snaks--
so--
source--
sp--
spat--
spau--
spo--
sq--
sr--
st--
sta--
stand--
sten--
str--
stu--
su--
sub--
sum--
sup--
super--
sur--
sv--
sw--
sy--
sylv--
syna--
sync--
t--
ta--
table--
take--
talk--
tat--
taxon--
taxonrank--
tay--
te--
temp--
template--
tenu--
ter--
tetr--
text--
th--
the--
ti--
time--
title--
to--
top--
tor--
tr--
trad--
trans--
tric--
tricho--
tru--
trun--
ts--
tu--
tur--
twe--
ty--
type--
u--
ukra--
ul--
un--
unif--
unit--
units--
unix--
up--
ur--
url--
us--
use--
user--
ut--
v--
va--
val--
vanno--
var--
ve--
ver--
verru--
vers--
vi--
viol--
virg--
vo--
vol--
vul--
w--
wa--
we--
web--
wie--
wiki--
wil--
wild--
wit--
wm--
wo--
work--
wp--
wrap--
ws--
wy--
x--
xaxis--
y--
ym--
ysca--
z--
za--
zen--
zh--
zil--
zu--
đ--
τ--
а--
аб--
аба--
абака--
абдул--
абра--
ав--
август--
авдее--
аве--
аг--
агин--
админи--
аз--
азо--
азон--
азонкш--
азор--
аи--
ак--
ака--
аки--
акк--
актив--
акуло--
ал--
але--
алеш--
алфавит--
альметье--
ам--
амо--
амур--
ан--
ана--
андр--
ани--
анисимо--
анне--
анок--
анта--
анти--
антр--
антропо--
антуше--
ануфрие--
апа--
апшерон--
ар--
ара--
араб--
арбу--
арга--
аргумен--
ари--
арка--
аркео--
арсе--
арт--
артемье--
арх--
арханге--
архео--
арьсе--
ас--
асп--
ат--
атмосфе--
атя--
атям--
атят--
атяше--
аф--
ах--
ахма--
аш--
аше--
аще--
б--
ба--
баб--
бае--
бак--
бакла--
бал--
бала--
бан--
бар--
бара--
барсу--
бас--
баск--
бат--
бах--
баш--
бе--
без--
беке--
бел--
бела--
беле--
бели--
бело--
белогли--
бель--
беля--
беляе--
бер--
би--
биб--
библи--
библиографиче--
био--
бир--
бирю--
бла--
бли--
ближ--
бо--
бобро--
бобы--
бога--
бого--
богос--
бокс--
бол--
боль--
больше--
бор--
борков--
боро--
боров--
борови--
бот--
боч--
бояр--
бр--
бра--
браз--
брат--
брян--
бу--
буб--
буд--
бук--
бука--
букрее--
бул--
булга--
булы--
бур--
бура--
буря--
бурят--
буты--
бух--
бы--
быч--
быше--
в--
ва--
важ--
вал--
валмо--
ван--
ванон--
ванонды--
ванф--
ваны--
вар--
вари--
варя--
вас--
васю--
вахруше--
ваш--
введе--
ве--
ведо--
вел--
вепс--
вер--
вере--
верхне--
веш--
вешен--
ви--
видь--
вил--
вин--
вир--
вирь--
виш--
вишня--
вла--
влади--
владика--
влады--
вне--
вни--
вну--
во--
вод--
водо--
воевод--
вож--
воз--
воздвиже--
возне--
вол--
воло--
волч--
воль--
вор--
ворон--
ворь--
вос--
воскресе--
всь--
вы--
вызо--
высо--
вых--
выш--
вьет--
вя--
вязо--
вяр--
вят--
вяти--
вяш--
г--
га--
габар--
газе--
гар--
гвоз--
ге--
гене--
генераль--
геог--
географи--
географиче--
геоме--
георгие--
гер--
ги--
гл--
гла--
глад--
глаз--
глебо--
гли--
глубо--
глуш--
гля--
гни--
го--
гов--
голо--
голуб--
голубо--
гончаро--
гор--
горб--
горе--
гори--
горохо--
горш--
горь--
гос--
гр--
гра--
граждан--
грамма--
гре--
гремяч--
гри--
гриб--
грибо--
григор--
григорье--
гриш--
гроз--
громо--
гру--
груп--
группа--
гряз--
гу--
гули--
гумани--
гун--
гус--
гя--
д--
да--
дав--
даге--
дан--
даро--
дач--
дв--
движе--
де--
девя--
дег--
дем--
демья--
ден--
дени--
денисо--
депу--
дер--
дет--
деяте--
дж--
джа--
джан--
ди--
диа--
дик--
дин--
дире--
дми--
дмитро--
дні--
до--
добав--
добро--
дол--
долж--
доли--
дон--
дополнитель--
дор--
доро--
дослід--
др--
дра--
дру--
ду--
дуб--
дубо--
дубро--
дуброви--
дуди--
дуло--
дун--
дур--
дура--
духов--
дья--
дят--
е--
ев--
еванге--
еврее--
еди--
ежо--
ела--
еле--
ели--
елиза--
елизавети--
елхо--
елша--
ель--
ельни--
ельцо--
емелья--
енотае--
ер--
еремее--
ермо--
ершо--
есипо--
ефимо--
ефремо--
ж--
жа--
жань--
же--
жел--
желез--
железнодорож--
жер--
жи--
жиз--
жил--
жит--
жу--
жува--
жуков--
журав--
з--
за--
забе--
зав--
завер--
заго--
зад--
залож--
зам--
запи--
зар--
засеч--
зах--
заяв--
зб--
зва--
зе--
зем--
зер--
зи--
зим--
зими--
зир--
знач--
зо--
золо--
зоро--
зуб--
зуе--
зы--
зыря--
зяб--
и--
ибрае--
ив--
ива--
иван--
иваш--
иг--
игна--
игум--
ид--
иден--
идь--
из--
изв--
извест--
изме--
ила--
иль--
ильин--
ильх--
им--
име--
ин--
инго--
инде--
индие--
ине--
инза--
иннокентье--
интер--
интернаци--
иор--
ир--
ис--
иса--
исае--
исаков--
исла--
испа--
испо--
использо--
исто--
историче--
ит--
ичал--
иш--
июль--
к--
ка--
каб--
кавказ--
кадни--
каж--
каз--
каза--
казен--
кал--
кале--
кали--
кам--
камб--
камен--
камешки--
камчат--
камыше--
камыши--
кан--
кана--
кап--
кар--
кара--
каратуз--
каре--
карель--
карма--
карпо--
карт--
карь--
кас--
касо--
касф--
кат--
ката--
катт--
каф--
кафе--
кач--
кая--
ке--
кев--
кел--
келу--
кель--
кем--
кемо--
кепо--
кер--
кере--
керен--
кз--
ки--
кие--
киз--
кизе--
кип--
кипе--
кир--
кири--
кирил--
кирпич--
кирю--
кис--
кисля--
кич--
кла--
кле--
кн--
кня--
княж--
ко--
коб--
ков--
ковыл--
кое--
кож--
кожф--
коз--
кол--
колесни--
коло--
компьютер--
кон--
конди--
конк--
конкрет--
коно--
конова--
кону--
коп--
копы--
кор--
коре--
кори--
корни--
коро--
коров--
коромыс--
корот--
корх--
корхта--
коря--
кос--
коси--
косо--
косты--
кот--
котельни--
коч--
коче--
кочка--
кочкуро--
кош--
кошар--
коше--
кр--
кра--
крае--
крани--
крапиви--
крас--
краси--
красни--
красно--
крат--
краєз--
кре--
кри--
криво--
крити--
кро--
кру--
круп--
круто--
кры--
крю--
ксе--
ку--
куба--
кубо--
кува--
куд--
кудазо--
куз--
кул--
кули--
куло--
кулом--
куль--
куля--
кун--
кундья--
кур--
кура--
курило--
куро--
куш--
куя--
кш--
кшти--
кър--
кърх--
кы--
кя--
кядь--
кярь--
л--
ла--
лад--
лаз--
лазаре--
лам--
ламо--
лан--
лап--
лари--
латин--
лах--
лаш--
ле--
лебе--
лебеде--
лев--
лег--
лез--
лем--
лен--
леп--
лермон--
лес--
леско--
лесо--
лешуко--
ли--
лип--
лиси--
лих--
лиш--
ло--
лоб--
лобано--
лож--
лок--
лон--
лот--
лофц--
лу--
луж--
лукья--
лун--
луч--
лы--
ль--
льно--
лэ--
лю--
люб--
любимо--
ля--
ляди--
лятф--
лятфнев--
лі--
літе--
літерат--
м--
ма--
маг--
мадь--
мае--
маз--
мазоп--
мак--
макарье--
мако--
максю--
мал--
мали--
малмыж--
мало--
маль--
ман--
мар--
марии--
марты--
мас--
масля--
мастор--
мат--
матвее--
мах--
маш--
ме--
мед--
медведе--
медя--
меж--
межд--
междунар--
мезе--
мезь--
мель--
мельни--
мен--
мене--
мер--
мери--
мет--
мето--
меш--
меще--
мз--
ми--
мик--
микро--
мил--
миль--
мин--
мини--
министер--
мир--
мит--
мите--
митроф--
мифо--
мих--
михал--
михее--
мичури--
миш--
мишенде--
мишути--
мно--
мо--
мод--
мокро--
мокш--
мокше--
моло--
мон--
монасты--
мор--
мора--
мораф--
морд--
моро--
морозо--
морфо--
моско--
мохо--
моч--
мош--
му--
мул--
муниципа--
муш--
мъз--
мърда--
мы--
мя--
мяль--
мялям--
мяляф--
мян--
мярь--
мясни--
н--
на--
наго--
над--
надежди--
наз--
назаро--
налх--
напи--
нар--
ната--
наум--
наумо--
науч--
наци--
националь--
нач--
ндол--
не--
неи--
нек--
некрасо--
необх--
неско--
нефте--
нечае--
ни--
ниже--
нижне--
низо--
никити--
никифоро--
никуль--
нкс--
но--
нов--
новатор--
нови--
ново--
нол--
нор--
носо--
ноябрь--
нсь--
ну--
нуж--
нур--
ны--
ню--
ня--
няф--
о--
об--
обл--
обо--
обухо--
обяза--
ов--
ови--
ог--
огаре--
од--
оз--
оза--
озаф--
озе--
озонкш--
ок--
оке--
окуне--
оли--
оло--
оль--
ольхо--
ом--
омути--
он--
оп--
опари--
опе--
опи--
опубли--
опыт--
ор--
орга--
орехо--
ос--
осе--
оси--
осипо--
осташе--
осте--
от--
отзы--
откры--
относи--
отоб--
отсут--
оф--
оформле--
охот--
оц--
оцю--
оцязо--
оцязор--
оч--
очижи--
ош--
оше--
ошиб--
п--
па--
пав--
павли--
пал--
пала--
пам--
пан--
пани--
панкра--
панф--
пар--
паро--
парт--
партизан--
парфе--
пах--
пач--
пачф--
паш--
пе--
педаго--
пее--
пели--
пель--
пень--
пер--
пере--
перх--
пест--
песч--
песья--
пет--
петр--
петропав--
петру--
петухо--
печ--
пече--
пеш--
пи--
пизел--
пикс--
пиль--
пин--
пиро--
пирьф--
писа--
писате--
пись--
питерьб--
пич--
пла--
плат--
пле--
плеш--
пло--
плотни--
по--
пове--
повф--
погранич--
под--
подлес--
пожа--
поже--
поз--
пок--
пол--
пола--
полга--
поло--
полов--
полта--
полу--
поль--
пользо--
пон--
поно--
поп--
пор--
порече--
пос--
пот--
пота--
поч--
поэ--
пр--
пра--
прав--
прак--
пре--
пред--
президен--
премия--
преображе--
препод--
префи--
при--
приволж--
прикуба--
притоболь--
про--
проб--
прокопье--
промышлен--
пру--
пры--
пря--
пу--
публици--
пур--
пуро--
пуромкш--
пуроп--
пусто--
пут--
пути--
путне--
пуш--
пъчкаф--
пы--
пье--
пэ--
пя--
пяк--
пяль--
пялькс--
пяти--
пяш--
пяше--
р--
ра--
раб--
рабо--
рае--
раз--
разме--
рак--
ракшат--
раме--
рас--
распоря--
рат--
рах--
рахаф--
рахма--
раш--
ре--
реа--
реал--
ревиз--
революци--
реги--
резуль--
реи--
рели--
реп--
репи--
реу--
реч--
реше--
решетни--
ри--
рма--
рмадом--
рматкш--
ро--
ров--
ровди--
рога--
род--
роди--
родни--
родо--
рож--
рожде--
роза--
рома--
роман--
ромаш--
ромода--
рос--
ру--
руб--
руд--
руковод--
руно--
ры--
рыб--
рь--
рьвя--
рьвяня--
рю--
ря--
ряби--
ряз--
рязан--
рязано--
с--
са--
саа--
саам--
саб--
сабае--
саза--
сак--
сал--
сало--
сам--
самс--
санни--
сар--
сат--
сау--
саф--
сафр--
сах--
сахалин--
сашен--
св--
све--
сверд--
свет--
свободне--
свя--
се--
сед--
секре--
сел--
сель--
сем--
семб--
семе--
семен--
семи--
семья--
сен--
сентябрь--
сень--
сер--
сергее--
сергие--
си--
сиб--
сив--
сил--
сим--
симбир--
симом--
син--
систе--
ситни--
ск--
ска--
сказ--
скор--
скрип--
слав--
славя--
следующ--
слоб--
см--
сме--
смо--
смоле--
со--
соб--
сов--
сода--
содамо--
содер--
соз--
соколо--
сокра--
сол--
солдат--
соло--
соля--
соот--
соп--
сор--
соро--
сорт--
сос--
сот--
сох--
социал--
союз--
сп--
спи--
спиро--
спо--
спра--
ст--
стар--
старо--
сте--
степ--
степа--
степан--
степе--
стир--
сто--
стор--
стр--
сту--
студе--
стюар--
су--
суб--
субботи--
суваф--
суворо--
сует--
сул--
султа--
сум--
сур--
сус--
сух--
сухаре--
сухо--
суще--
сущно--
сце--
сы--
сыр--
сь--
сю--
ся--
сядо--
сял--
сясь--
т--
та--
таб--
тав--
тал--
там--
тамбов--
тан--
тар--
тара--
тарака--
тарасо--
тарксе--
тарх--
татар--
таф--
таш--
творче--
те--
теле--
теля--
темни--
теньгуше--
теп--
тер--
тере--
терентье--
терехо--
территори--
терюше--
тех--
техни--
ти--
тие--
тиев--
тиен--
тимофее--
тин--
тих--
тише--
то--
тобо--
тоболь--
тол--
толсто--
том--
тон--
тонафнем--
тонафтом--
топ--
топо--
топонимиче--
тор--
торбее--
точ--
тр--
тра--
третья--
три--
тро--
троф--
тру--
труфа--
ту--
тувот--
тужи--
тукае--
тул--
туль--
тум--
тума--
тумо--
тун--
тур--
тънал--
тър--
ты--
тэ--
тю--
тюр--
тюс--
тя--
тядя--
тяряф--
тяш--
тяште--
тяшть--
у--
уваро--
уват--
угло--
уда--
удар--
удоб--
уды--
уе--
уез--
уж--
ужур--
уз--
узе--
ул--
ула--
улучше--
уль--
улья--
ун--
универсаль--
унь--
ур--
ура--
ураль--
урма--
ус--
уск--
уско--
усм--
усо--
успе--
уст--
усти--
утверж--
утя--
ух--
уч--
учите--
уш--
уша--
ушаков--
уше--
ушмо--
ф--
фа--
фам--
фатья--
фе--
февраль--
фед--
феде--
федо--
федоро--
федотов--
федь--
федьков--
фер--
фернан--
фи--
физи--
физио--
фила--
фили--
филиппо--
фило--
филь--
фин--
фо--
фол--
фольк--
фом--
фор--
форм--
фр--
француз--
фро--
х--
ха--
хаб--
хал--
хан--
хар--
хво--
хер--
хи--
хил--
хими--
хо--
хол--
хоп--
хор--
хорва--
хох--
хре--
ху--
ц--
ца--
цар--
царе--
це--
церь--
ци--
цик--
циф--
ця--
ч--
ча--
чамзи--
чапае--
чар--
че--
чеб--
чемпи--
чер--
черемша--
черна--
черни--
черно--
черныше--
черня--
чес--
чесно--
чет--
чеч--
чи--
чир--
чис--
чист--
чистополь--
чкало--
чле--
чорт--
чу--
чува--
чур--
чуро--
чэр--
ш--
ша--
шаб--
шаба--
шав--
шаво--
шап--
шапа--
шар--
шари--
шаро--
шарф--
шарьх--
шах--
шахма--
шачф--
шаш--
ше--
шел--
ши--
шима--
шинь--
шип--
шипицы--
шир--
шире--
широ--
ширяе--
шиш--
шл--
шо--
шок--
шон--
шор--
шта--
шу--
шува--
шуде--
шум--
шумб--
шур--
шуф--
шуфт--
шуше--
шя--
щ--
ща--
щам--
ще--
щерби--
щети--
щи--
ърьвяня--
ы--
э--
эвон--
эз--
эко--
экономи--
экономиче--
экспе--
элек--
электр--
электрон--
эн--
энциклопе--
эня--
эр--
эрь--
эряв--
эрям--
эс--
эск--
эст--
этно--
этног--
эур--
эч--
ю--
юг--
юди--
юж--
юл--
юма--
юн--
юр--
юргин--
юридиче--
юро--
юром--
юх--
юч--
я--
ябло--
яв--
яво--
яг--
яга--
ягод--
яз--
як--
яка--
якша--
ял--
ям--
ян--
январь--
япон--
яр--
ярхца--
яс--
ясе--
ясно--
і--
س--
საქართვე--
--0
--00
--000
--0000
--00000
--001
--002
--003
--005
--006
--007
--008
--009
--01
--010
--011
--012
--013
--014
--015
--016
--017
--018
--019
--02
--020
--021
--023
--024
--025
--026
--028
--029
--03
--030
--031
--032
--033
--034
--035
--036
--037
--038
--04
--040
--041
--042
--043
--044
--045
--046
--047
--048
--049
--05
--050
--052
--053
--054
--055
--056
--057
--058
--059
--06
--060
--061
--062
--063
--064
--065
--066
--067
--068
--069
--07
--070
--071
--072
--073
--074
--075
--076
--077
--078
--079
--08
--080
--081
--082
--083
--084
--085
--086
--087
--088
--089
--09
--090
--091
--092
--093
--094
--095
--096
--097
--098
--099
--1
--10
--100
--101
--102
--103
--104
--105
--106
--107
--108
--109
--11
--110
--111
--112
--113
--114
--115
--116
--117
--118
--119
--12
--120
--121
--122
--123
--124
--125
--126
--127
--128
--129
--13
--130
--131
--132
--133
--134
--135
--136
--137
--138
--139
--14
--140
--141
--142
--143
--144
--145
--146
--147
--148
--149
--15
--150
--151
--152
--153
--154
--155
--156
--157
--159
--16
--160
--161
--162
--163
--164
--165
--166
--167
--168
--169
--17
--170
--171
--172
--173
--174
--175
--176
--177
--178
--179
--18
--180
--181
--182
--183
--184
--185
--186
--187
--188
--189
--19
--190
--191
--193
--194
--195
--196
--197
--198
--199
--2
--20
--200
--201
--202
--203
--204
--205
--206
--207
--208
--209
--21
--210
--211
--212
--213
--214
--215
--216
--217
--218
--219
--22
--220
--221
--222
--224
--225
--226
--227
--228
--229
--23
--230
--231
--232
--233
--234
--235
--236
--237
--238
--239
--24
--240
--241
--242
--243
--244
--245
--246
--247
--248
--249
--25
--250
--251
--252
--253
--254
--255
--256
--257
--258
--259
--26
--260
--261
--262
--263
--264
--265
--266
--267
--269
--27
--270
--271
--272
--273
--274
--275
--276
--277
--278
--279
--28
--280
--281
--282
--283
--284
--285
--286
--287
--288
--289
--29
--290
--291
--292
--293
--294
--295
--296
--297
--298
--299
--3
--30
--300
--301
--302
--303
--304
--305
--306
--307
--308
--309
--31
--310
--311
--312
--313
--314
--315
--316
--317
--318
--319
--32
--320
--321
--322
--323
--324
--325
--326
--327
--328
--329
--33
--330
--331
--332
--333
--334
--335
--336
--337
--338
--34
--340
--341
--342
--343
--344
--345
--346
--347
--348
--349
--35
--350
--351
--352
--353
--354
--355
--356
--357
--358
--359
--36
--360
--361
--362
--363
--364
--365
--366
--367
--368
--369
--37
--370
--371
--372
--373
--374
--375
--376
--377
--378
--379
--38
--380
--381
--382
--383
--384
--385
--386
--387
--388
--389
--39
--390
--391
--392
--393
--394
--395
--396
--397
--398
--399
--4
--40
--400
--401
--402
--403
--404
--405
--406
--407
--408
--409
--41
--410
--411
--412
--413
--414
--415
--416
--417
--418
--419
--42
--420
--421
--422
--423
--424
--425
--426
--427
--428
--429
--43
--430
--431
--432
--433
--434
--435
--436
--437
--438
--439
--44
--440
--441
--442
--443
--444
--445
--446
--447
--449
--45
--450
--451
--452
--453
--455
--456
--457
--458
--459
--46
--460
--461
--462
--463
--464
--465
--466
--467
--468
--469
--47
--471
--472
--473
--474
--475
--476
--477
--478
--479
--48
--480
--481
--482
--483
--484
--485
--486
--487
--488
--489
--49
--490
--491
--492
--493
--494
--495
--496
--497
--498
--499
--5
--50
--500
--501
--502
--503
--504
--505
--506
--507
--508
--509
--51
--510
--511
--512
--513
--514
--515
--516
--517
--518
--519
--52
--520
--521
--522
--523
--524
--525
--526
--527
--528
--529
--53
--530
--531
--532
--533
--534
--535
--536
--537
--538
--539
--54
--540
--541
--542
--543
--544
--545
--546
--547
--548
--549
--55
--550
--551
--552
--553
--554
--555
--556
--557
--558
--559
--56
--560
--561
--562
--563
--564
--565
--566
--567
--568
--569
--57
--570
--571
--572
--573
--574
--575
--576
--577
--578
--579
--58
--580
--581
--582
--583
--584
--585
--586
--587
--589
--59
--590
--591
--592
--593
--594
--595
--596
--597
--598
--599
--6
--60
--600
--601
--602
--603
--604
--605
--606
--607
--608
--609
--61
--610
--611
--612
--613
--614
--615
--616
--617
--618
--619
--62
--620
--621
--622
--623
--624
--625
--626
--627
--628
--629
--63
--630
--631
--632
--633
--634
--635
--636
--637
--638
--639
--64
--640
--641
--642
--643
--644
--645
--646
--647
--648
--649
--65
--650
--651
--652
--653
--654
--655
--656
--657
--658
--659
--66
--660
--661
--662
--663
--664
--665
--666
--667
--668
--669
--67
--670
--671
--672
--673
--674
--675
--676
--677
--678
--679
--68
--680
--681
--682
--683
--684
--685
--686
--687
--688
--689
--69
--690
--691
--692
--693
--694
--695
--696
--697
--699
--7
--70
--700
--701
--702
--703
--704
--705
--706
--707
--708
--709
--71
--710
--711
--712
--713
--714
--715
--716
--717
--718
--719
--72
--720
--721
--722
--723
--724
--725
--726
--727
--728
--729
--73
--730
--732
--733
--734
--735
--736
--737
--738
--739
--74
--740
--741
--742
--743
--744
--745
--746
--747
--748
--749
--75
--750
--751
--752
--753
--754
--755
--756
--757
--758
--759
--76
--760
--761
--762
--763
--764
--765
--766
--767
--768
--769
--77
--770
--771
--772
--773
--774
--775
--776
--777
--778
--779
--78
--780
--781
--782
--783
--784
--785
--786
--787
--788
--789
--79
--790
--791
--792
--793
--794
--795
--796
--797
--798
--799
--8
--80
--800
--801
--802
--803
--804
--805
--806
--807
--808
--809
--81
--810
--811
--812
--813
--814
--815
--816
--817
--818
--819
--82
--820
--821
--822
--823
--824
--826
--827
--828
--829
--83
--830
--831
--832
--833
--834
--835
--836
--837
--838
--839
--84
--840
--841
--842
--843
--844
--845
--846
--847
--848
--849
--85
--850
--851
--852
--853
--854
--855
--856
--857
--858
--859
--86
--860
--861
--862
--863
--865
--866
--867
--868
--869
--87
--870
--871
--872
--873
--874
--875
--876
--877
--878
--879
--88
--880
--881
--882
--883
--884
--885
--886
--887
--888
--889
--89
--890
--891
--892
--893
--894
--895
--896
--897
--898
--899
--9
--90
--900
--901
--902
--903
--904
--905
--906
--907
--908
--909
--91
--910
--911
--912
--913
--914
--915
--916
--917
--918
--919
--92
--920
--921
--922
--923
--924
--925
--926
--927
--928
--929
--93
--930
--931
--932
--933
--934
--935
--936
--937
--938
--939
--94
--940
--941
--942
--943
--944
--945
--946
--947
--948
--949
--95
--950
--951
--952
--953
--954
--955
--956
--957
--958
--959
--96
--960
--961
--962
--963
--964
--965
--966
--967
--968
--969
--97
--970
--971
--972
--973
--974
--975
--976
--977
--978
--979
--98
--980
--981
--982
--983
--984
--985
--986
--987
--988
--989
--99
--990
--991
--992
--993
--994
--995
--996
--997
--998
--999
--a
--aa
--abia
--abium
--able
--ablecount
--ably
--abris
--ac
--achi
--ad
--ade
--ado
--ae
--aea
--age
--ah
--ai
--aic
--ain
--ak
--al
--ala
--ale
--alis
--all
--alum
--am
--ama
--ame
--ami
--an
--ana
--ance
--anii
--ans
--antha
--ants
--anum
--ao
--ar
--ara
--ard
--ards
--arg
--args
--aria
--aris
--array
--ary
--as
--at
--ata
--ate
--ated
--ates
--ation
--ations
--ator
--atum
--atus
--au
--aulis
--aus
--aw
--ax
--ay
--aya
--b
--ba
--be
--bility
--bine
--ble
--blurb
--box
--by
--bylang
--c
--ca
--cal
--cale
--cat
--ce
--cea
--cell
--celldiv
--cens
--ces
--cfg
--ch
--chii
--chis
--cht
--ck
--claim
--class
--co
--code
--colon
--count
--cs
--ct
--cta
--cum
--cus
--cy
--d
--da
--dae
--data
--date
--de
--default
--di
--dia
--dii
--div
--do
--dra
--ds
--dt
--du
--dul
--dy
--e
--ea
--eau
--eb
--ec
--ed
--ee
--ei
--ek
--el
--elf
--ella
--els
--em
--eman
--ement
--en
--ena
--ence
--ene
--enii
--ens
--ense
--ensis
--ent
--enta
--entity
--entityid
--entrum
--epala
--epalum
--epis
--er
--era
--erg
--eri
--ern
--ers
--ert
--erva
--ery
--es
--ess
--est
--et
--eta
--ets
--eum
--eur
--eus
--ev
--ew
--ex
--ey
--eyana
--ez
--f
--fer
--fera
--ff
--flag
--folia
--format
--fromsnak
--ful
--g
--ga
--ge
--ger
--gera
--ght
--gi
--gii
--ging
--glossa
--go
--gon
--gr
--gs
--gu
--gue
--h
--ha
--han
--he
--hen
--her
--hes
--hi
--hila
--hilus
--hip
--ho
--hora
--ht
--hylla
--hyllum
--hyta
--i
--ia
--iae
--ial
--ian
--iana
--ians
--iant
--iata
--iate
--iation
--ib
--ibution
--ic
--ica
--ical
--icaulis
--icola
--ics
--iculata
--icum
--icus
--id
--ida
--ides
--idx
--ie
--ied
--iella
--ier
--ies
--ified
--ifolia
--ifolium
--ify
--ig
--ii
--ik
--ika
--il
--ila
--ilabris
--ile
--ilis
--illa
--ille
--ilus
--im
--ima
--image
--impl
--in
--ina
--index
--ine
--inen
--ing
--ini
--ink
--inus
--io
--ion
--ions
--ipes
--ique
--ir
--ire
--irs
--is
--ise
--ised
--ish
--isi
--ism
--ist
--it
--ita
--ite
--item
--items
--itive
--ity
--iu
--ium
--ius
--iv
--ive
--ix
--iz
--ization
--ize
--ized
--izing
--j
--ja
--jo
--ju
--k
--ka
--kan
--kaya
--ke
--ken
--ker
--key
--keys
--ki
--kii
--kij
--kiy
--ko
--koe
--kt
--ku
--ky
--l
--la
--label
--labia
--labs
--land
--lang
--ld
--le
--led
--ler
--lexa
--ley
--lf
--li
--lia
--lii
--lim
--lin
--line
--ling
--link
--links
--lio
--lis
--list
--ll
--lla
--lle
--llum
--llus
--lm
--lo
--lora
--ls
--lu
--lus
--ly
--m
--ma
--maa
--map
--mas
--max
--me
--mensis
--ment
--ments
--mi
--mic
--min
--mo
--ms
--n
--na
--nae
--nak
--name
--nc
--nce
--nchus
--nd
--nda
--ne
--nea
--nen
--ner
--ners
--nes
--ng
--nga
--ni
--nia
--nii
--nik
--nis
--nj
--nk
--nna
--no
--ns
--nse
--nsis
--nsk
--nt
--ntha
--nto
--num
--nus
--ny
--nz
--o
--oa
--oba
--obi
--obj
--obus
--oc
--ock
--oda
--of
--ogy
--oi
--oides
--ol
--ola
--olia
--om
--oma
--on
--ong
--oni
--onii
--only
--ono
--ons
--ony
--oon
--ophila
--or
--order
--ori
--ors
--orsk
--ort
--orum
--ory
--os
--osa
--ose
--ossa
--osum
--osus
--ot
--ote
--ottis
--ous
--out
--ov
--ova
--ow
--oy
--p
--pa
--page
--param
--params
--pe
--pecies
--ped
--phia
--phylla
--ping
--ple
--pos
--prot
--ps
--psis
--pus
--q
--qid
--que
--r
--ra
--rae
--rank
--rc
--rchis
--rd
--re
--rea
--ref
--ren
--ri
--ria
--ries
--rii
--ring
--ris
--rl
--rn
--rnis
--ro
--root
--row
--rr
--rry
--rs
--rt
--ru
--rum
--ry
--s
--sa
--scale
--se
--sed
--sel
--self
--ser
--ses
--sh
--si
--siana
--sii
--sion
--sis
--sive
--sk
--ska
--snak
--son
--ss
--ssa
--st
--stein
--ster
--style
--su
--sus
--sy
--sym
--t
--ta
--table
--tachya
--tala
--tan
--te
--ted
--tee
--ten
--ter
--tes
--text
--th
--tha
--thum
--thus
--ti
--tia
--tic
--tica
--tii
--time
--ting
--tion
--tions
--tis
--title
--tive
--tle
--tnotes
--to
--ton
--tor
--tory
--tr
--tring
--tro
--truction
--trum
--ts
--tti
--tu
--tum
--tus
--ty
--tyle
--tylis
--type
--u
--ua
--ub
--ud
--ue
--uel
--uga
--ui
--ul
--ula
--ular
--ularis
--ulata
--ulis
--ulosa
--um
--ume
--un
--ung
--up
--ur
--ure
--url
--us
--ut
--uta
--uu
--v
--va
--val
--value
--values
--ve
--versity
--vik
--vo
--vsk
--vu
--w
--wards
--web
--wiki
--x
--xa
--xors
--xy
--y
--ya
--yi
--yne
--yr
--ys
--z
--za
--ze
--zes
--zii
--zm
--ς
--а
--ада
--аево
--аж
--аи
--ак
--акс
--ал
--али
--альная
--ам
--ама
--ами
--ан
--анди
--анные
--ано
--аново
--анц
--аны
--ань
--ар
--ари
--арово
--ары
--ас
--аса
--ась
--ат
--ати
--атне
--атненди
--атнень
--ать
--аф
--ах
--ац
--ациесь
--ации
--ация
--ациясь
--ачи
--ашево
--ая
--б
--ба
--баево
--бат
--бе
--берьф
--бино
--бия
--бо
--бор
--бя
--в
--ва
--ваи
--вать
--вая
--ве
--вец
--ви
--вие
--вик
--виль
--вин
--вино
--вихть
--вица
--вицы
--вичи
--вия
--вка
--вки
--во
--вое
--вок
--вская
--вские
--вскии
--вское
--всть
--всь
--ву
--вует
--вцы
--вы
--выи
--вье
--г
--га
--ган
--ге
--ги
--го
--горск
--горье
--гу
--гурт
--гут
--д
--да
--двинск
--де
--дезь
--ди
--дино
--дка
--дсть
--дсы
--дсь
--ду
--ды
--дь
--е
--ев
--ева
--еви
--евич
--евка
--ево
--евск
--евсь
--евы
--ее
--еево
--еж
--езе
--езь
--еи
--ек
--екс
--ел
--еле
--ели
--ель
--ем
--ема
--емс
--ен
--енди
--ензон
--ение
--ения
--енко
--ено
--ент
--енц
--ены
--ень
--ер
--ерсь
--ес
--еса
--есь
--ет
--ец
--ецкии
--ецкое
--ецово
--ея
--ж
--жа
--же
--жи
--жная
--жок
--жье
--з
--за
--зе
--зень
--зеро
--зерье
--зи
--зино
--зно
--зо
--зов
--зон
--зонь
--зор
--зост
--зса
--зцы
--зы
--зь
--зье
--зя
--и
--ид
--ие
--иень
--иеса
--иесь
--ии
--ик
--ики
--икс
--илово
--ин
--ино
--инск
--инские
--инцы
--ины
--ир
--ис
--ит
--итино
--ить
--их
--иха
--ихть
--ица
--ицкая
--ицкое
--ицы
--иця
--ич
--ические
--ических
--ичи
--ища
--ище
--ищево
--ищи
--ию
--ия
--иянь
--ияса
--иясь
--ият
--иять
--к
--ка
--камскии
--кан
--кань
--кась
--кат
--ках
--кая
--ке
--ки
--кии
--ких
--ко
--ков
--ково
--кого
--кое
--конь
--кс
--кса
--кскии
--ксонза
--ксоц
--кссь
--кст
--ксь
--кт
--кть
--ку
--кш
--кшнезь
--кя
--л
--ла
--ле
--лезь
--леи
--ления
--ли
--лино
--лицы
--лма
--ло
--лово
--лонь
--лсь
--лу
--лхт
--лы
--ль
--лье
--льно
--льнои
--льные
--лю
--ля
--ляет
--м
--ма
--ман
--манц
--мань
--мас
--мась
--мат
--мац
--мда
--ме
--меи
--ми
--мик
--миксь
--мово
--мок
--мс
--мса
--мсь
--мть
--му
--муна
--мь
--н
--на
--наи
--ная
--нда
--нди
--ндсть
--ндсь
--нды
--не
--неви
--нево
--ненди
--нень
--нец
--нза
--нзон
--ни
--ние
--нием
--нии
--ник
--ники
--нино
--ниха
--ница
--ницы
--нию
--ния
--ниях
--нк
--нка
--нки
--нко
--нкса
--нку
--нно
--ння
--но
--ново
--ного
--ное
--нои
--ном
--нон
--нонь
--ности
--нск
--нская
--нские
--нскии
--нское
--нт
--нта
--нте
--нтт
--нттне
--нть
--нтьево
--ну
--нц
--нца
--нцты
--нцы
--нць
--нчук
--ны
--ные
--ныи
--ным
--ными
--ных
--нь
--нье
--ня
--нясь
--нят
--нять
--няя
--ні
--о
--ов
--ова
--овая
--овица
--овицы
--ович
--овичи
--овка
--ово
--овое
--овои
--овскии
--овское
--овцы
--овщина
--овы
--овые
--овыи
--овье
--ого
--огр
--ография
--ое
--оз
--озе
--озонза
--ои
--ок
--окс
--ол
--оль
--олье
--ом
--ома
--он
--онди
--онза
--онзон
--онц
--онь
--ор
--орск
--орсь
--орхис
--ос
--ост
--от
--оть
--охилус
--оц
--п
--па
--пас
--пе
--пи
--пино
--пия
--пово
--постанова
--пр
--пт
--пы
--р
--ра
--рга
--рд
--ре
--рев
--рево
--рек
--рень
--рес
--рец
--ржи
--рзи
--ри
--рив
--рик
--риксь
--рин
--рино
--риха
--рица
--рицы
--рия
--рк
--рка
--рки
--ркс
--рнои
--рные
--ро
--ров
--рово
--рок
--ром
--рс
--рса
--рск
--рсь
--рт
--рть
--ру
--рхт
--рца
--рцы
--ры
--рь
--рье
--ря
--рів
--с
--са
--сазь
--се
--си
--сино
--сис
--ск
--ска
--ская
--ски
--ские
--скии
--ских
--ско
--ского
--ское
--скои
--скяи
--сна
--сне
--снон
--снонды
--сов
--сово
--сонза
--спиридонов
--ссия
--ссы
--ст
--ста
--сти
--сто
--стонза
--стонь
--сть
--су
--сф
--сы
--сь
--ська
--ськии
--ся
--т
--та
--таи
--те
--телеи
--тень
--тес
--ти
--тино
--тия
--тка
--тне
--тненди
--тнень
--то
--тольхть
--тонза
--тор
--тсь
--тт
--ттне
--тть
--ту
--тус
--тф
--ты
--ть
--ться
--тэ
--у
--уг
--уд
--уз
--уи
--ук
--ул
--ум
--уп
--ур
--ус
--ут
--уу
--уха
--уч
--уш
--ую
--ф
--фа
--фиесь
--фино
--фия
--фне
--фнезе
--фнезь
--фни
--фоль
--фонь
--фсь
--фт
--фтф
--фты
--фть
--х
--ха
--хи
--хино
--хне
--хнень
--хово
--хт
--хта
--хти
--хть
--ц
--ца
--це
--цево
--ци
--цие
--циень
--ции
--цино
--цию
--ция
--циянь
--цк
--цкая
--цкии
--цкое
--цово
--цы
--цыно
--ць
--ця
--ч
--ча
--че
--чево
--чи
--чив
--чии
--чики
--чино
--чка
--чки
--чно
--чф
--чье
--чів
--ш
--ша
--ше
--шев
--шево
--ши
--шино
--шири
--шки
--шлы
--шово
--шта
--шу
--шур
--ща
--ще
--щево
--щи
--щина
--ъе
--ы
--ыб
--ые
--ыз
--ыи
--ык
--ым
--ыр
--ырь
--ых
--ыш
--ь
--ьба
--ьга
--ье
--ьево
--ьи
--ьки
--ьники
--ьність
--ьф
--ьхкя
--ью
--ья
--э
--эр
--ю
--юг
--юк
--юля
--ют
--я
--яв
--яд
--яи
--як
--яма
--ян
--янь
--яр
--ярово
--яса
--ясь
--ят
--ята
--яти
--ятне
--ять
--яф
--ях
--яц
--яш
--і
--ів
--іи
--ل
--م
--ن
--ი
--ის
