!
"
#
##0
##1
##10
##11
##12
##13
##14
##15
##16
##17
##18
##19
##2
##20
##21
##22
##23
##24
##25
##26
##27
##28
##29
##3
##30
##31
##32
##33
##34
##35
##36
##37
##38
##39
##4
##40
##41
##42
##43
##44
##45
##46
##47
##48
##49
##5
##50
##51
##52
##53
##54
##55
##56
##57
##58
##59
##6
##60
##61
##62
##63
##64
##65
##66
##67
##68
##69
##7
##70
##71
##72
##73
##74
##75
##76
##77
##78
##79
##8
##80
##81
##82
##83
##84
##85
##86
##87
##88
##89
##9
##90
##91
##92
##93
##94
##95
##96
##97
##98
##99
$
%
&
'
(
)
*
+
,
-
.
/
0
00
000
0004
001
00151
002
0024
003
0035
0036
004
0041
0049
005
0061
00613
0067
0068
007
00709
0090
00918
01
0106
0107
01102
0130
0131
0138
014
0141
0144
0155
0169
017
01765
0188
0197
0198
0199
02
0214
0216
0236
0238
0251
0263
0276
0279
0295
0296
03
0303
0314
0330
0365
0373
0378
0384
0388
0389
0395
04
0409
0487
0499
05
050
0520
054
0554
0598
06
060
0614
07
074
0746
078
08
085
09
094
098
1
10
100
1000
1001
1002
1007
1009
101
1010
1012
1015
1016
1018
1019
102
1020
1024
103
1030
1038
104
1040
105
1050
1051
1054
106
1066
107
1070
1073
108
1080
1086
1088
109
1093
1094
11
110
1100
1101
111
1110
1111
112
1128
1129
113
1130
1136
114
1140
1146
115
1150
1151
1154
1157
1158
1159
116
1160
1162
1163
1167
117
1170
118
1180
1183
1185
1186
119
1190
1198
12
120
1200
1204
121
1210
1214
1219
122
1220
1223
1229
123
1230
1232
1238
1239
124
1240
1241
125
1250
1252
1253
126
1260
1263
1264
1266
1267
127
1270
1276
128
1280
1282
1284
1285
1286
12861
129
1290
1291
13
130
1300
1307
131
1310
1316
132
1320
1323
1325
1326
133
1330
134
1340
1341
1343
1345
1346
1348
1349
135
1350
1355
1356
1358
136
1360
1362
1365
1368
137
1370
1372
1375
1377
1378
138
1380
1381
1382
1384
1385
1386
1387
1388
1389
139
1390
1391
1392
1393
1394
1395
1396
1397
1398
1399
14
140
1400
1401
1402
1404
1405
1406
1407
1408
1409
141
1410
1411
1412
1413
1414
1415
1416
1417
1418
1419
142
1420
1422
1424
1427
1428
1429
143
1430
1431
1432
1433
1434
1435
1436
1437
1439
144
1440
1441
1442
1443
1444
1445
1446
1447
1448
1449
145
1450
1451
1452
1453
1454
1456
1457
1458
1459
146
1460
1461
1463
1466
1467
1468
1469
147
1470
1471
1475
1477
1478
1479
148
1480
1481
1482
1483
1484
1485
1486
1487
1488
1489
149
1490
1491
1492
1493
1494
1495
1496
1497
1498
1499
15
150
1500
1501
1502
1503
1504
1505
1506
1507
1508
1509
151
1510
1511
1512
1513
1514
1515
1516
1517
1518
1519
152
1520
1521
1522
1523
1524
1525
1526
1527
1528
1529
153
1530
1531
1532
1533
1534
1535
1536
1537
1538
1539
154
1540
1541
1542
1543
1544
1545
1546
1547
1548
1549
155
1550
1551
1552
1553
1554
1555
1556
1557
1558
1559
156
1560
1561
1562
1563
1564
1565
1566
1567
1568
1569
157
1570
1571
1572
1573
1574
1575
1576
1577
1578
1579
158
1580
1581
1582
1583
1584
1585
1586
1587
1588
1589
159
1590
1591
1592
1593
1594
1595
1596
1597
1598
1599
16
160
1600
1601
1602
1603
1604
1605
1606
1607
1608
1609
161
1610
1611
1612
1613
1614
1615
1616
1617
1618
1619
162
1620
1621
1622
1623
1624
1625
1626
1627
1628
1629
163
1630
1631
1632
1633
1634
1635
1636
1637
1638
1639
164
1640
1641
1642
1643
1644
1645
1646
1647
1648
1649
165
1650
1651
1652
1653
1654
1655
1656
1657
1658
1659
166
1660
1661
1662
1663
1664
1665
1666
1667
1668
1669
167
1670
1671
1672
1673
1674
1675
1676
1677
1678
1679
168
1680
1681
1682
1683
1684
1685
1686
1687
1688
1689
169
1690
1691
1692
1693
1694
1695
1696
1697
1698
1699
17
170
1700
1701
1702
1703
1704
1705
1706
1707
1708
1709
171
1710
1711
1712
1713
1714
1715
1716
1717
1718
1719
172
1720
1721
1722
1723
1724
1725
1726
1727
1728
1729
173
1730
1731
1732
1733
1734
1735
1736
1737
1738
1739
174
1740
1741
1742
1743
1744
1745
1746
1747
1748
1749
175
1750
1751
1752
1753
1754
1755
1756
1757
1758
1759
176
1760
1761
1762
1763
1764
1765
1766
1767
1768
1769
177
1770
1771
1772
1773
1774
1775
1776
1777
1778
1779
178
1780
1781
1782
1783
1784
1785
1786
1787
1788
1789
179
1790
1791
1792
1793
1794
1795
1796
1797
1798
1799
18
180
1800
1801
1802
1803
1804
1805
1806
1807
1808
1809
181
1810
1811
1812
1813
1814
1815
1816
1817
1818
1819
182
1820
1821
1822
1823
1824
1825
1826
1827
1828
1829
183
1830
1831
1832
1833
1834
1835
1836
1837
1838
1839
184
1840
1841
1842
1843
1844
1845
1846
1847
1848
1849
185
1850
1851
1852
1853
1854
1855
1856
1857
1858
1859
186
1860
1861
1862
1863
1864
1865
1866
1867
1868
1869
187
1870
1871
1872
1873
1874
1875
1876
1877
1878
1879
188
1880
1881
1882
1883
1884
1885
1886
1887
1888
1889
189
1890
1891
1892
1893
1894
1895
1896
1897
1898
1899
19
190
1900
1901
1902
1903
1904
1905
1906
1907
1908
1909
191
1910
1911
1912
1913
1914
1915
1916
1917
1918
1919
192
1920
1921
1922
1923
1924
1925
1926
1927
1928
1929
193
1930
1931
1932
1933
1934
1935
1936
1937
1938
1939
194
1940
1941
1942
1943
1944
1945
1946
1947
1948
1949
195
1950
1951
1952
1953
1954
1955
1956
1957
1958
1959
196
1960
1961
1962
1963
1964
1965
1966
1967
1968
1969
197
1970
1971
1972
1973
1974
1975
1976
1977
1978
1979
198
1980
1981
1982
1983
1984
1985
1986
1987
1988
1989
199
1990
1991
1992
1993
1994
1995
1996
1997
1998
1999
2
20
200
2000
2001
2002
2003
2004
2005
2006
2007
2008
2009
201
2010
2011
2012
2013
2014
2015
2016
2017
2018
2019
202
2020
2021
2022
20220427214757
2023
203
204
2041
205
206
207
208
209
21
210
2100
211
212
213
214
215
216
217
218
219
22
220
2200
221
222
223
224
225
226
227
228
229
23
230
2300
231
232
233
234
235
236
237
238
239
24
240
2400
241
242
243
244
245
246
2464
247
248
249
25
250
2500
251
252
253
254
255
256
257
258
259
26
260
2600
261
262
263
264
265
266
267
268
269
27
270
271
272
273
274
275
276
277
278
279
28
280
2800
281
282
283
284
285
286
287
288
289
29
290
291
292
293
294
295
296
2966
297
298
299
3
30
300
3000
301
302
303
304
305
306
307
308
309
31
310
311
312
313
314
315
316
3166
317
318
319
32
320
3200
321
322
323
324
325
326
327
328
329
33
330
331
332
333
334
335
336
337
338
339
34
340
341
342
343
344
3449
345
346
347
348
349
35
350
3500
351
352
353
354
355
356
357
358
359
36
360
3600
361
362
363
364
365
366
367
368
369
37
370
371
372
373
374
375
376
377
378
379
38
380
381
382
383
384
3847
385
386
387
388
3881
389
39
390
391
392
393
394
395
3950665
396
397
398
399
4
40
400
4000
401
402
403
404
405
406
407
408
409
41
410
411
412
413
414
415
416
417
418
419
42
420
421
4217
422
423
424
425
4250
426
427
428
429
43
430
431
432
433
434
435
436
4365
437
438
439
44
440
441
442
443
444
445
446
447
448
449
45
450
4500
451
452
453
454
455
456
457
458
459
46
460
461
462
463
464
465
466
467
468
469
47
470
471
472
473
474
475
476
477
478
479
48
480
481
482
483
484
4846
485
486
487
488
489
49
490
491
492
493
494
495
496
497
498
499
5
50
500
5000
501
502
503
504
505
506
507
508
509
51
510
511
512
513
514
515
516
517
518
519
52
520
521
522
523
524
525
526
527
528
529
53
530
531
532
533
534
535
536
537
538
539
54
540
541
542
543
544
545
546
547
548
549
55
550
5500
551
552
553
554
555
556
557
558
559
56
560
561
562
563
564
565
566
567
568
569
57
570
571
572
573
574
575
576
577
578
579
58
580
581
582
583
584
585
586
587
588
589
59
590
591
592
593
595
596
597
598
599
6
60
600
6000
601
602
6020
603
604
605
606
607
608
609
61
610
611
612
613
614
615
616
617
618
62
620
621
622
623
624
625
6256
626
627
628
629
63
630
6302
631
6318
632
633
634
635
6351
636
6361
637
6374
638
639
64
640
641
642
644
645
646
648
649
65
650
651
652
653
654
655
656
657
658
659
66
660
664
666
667
668
669
67
670
671
672
673
6733
674
675
676
678
6783
679
68
680
681
682
683
684
685
687
688
689
69
690
691
6919
694
695
696
697
698
699
7
70
700
7000
701
7010
702
703
704
705
709
71
710
711
712
714
715
716
717
718
719
72
720
721
722
724
725
726
727
728
73
730
732
736
737
74
740
741
742
743
745
747
748
749
75
750
751
752
753
756
757
759
76
760
763
765
767
768
77
770
772
773
775
776
777
78
780
781
784
786
7860
788
79
790
791
792
797
799
8
80
800
8000
8006001
802
806
807
808
81
810
8108
812
813
814
815
816
817
819
82
820
822
825
827
83
830
831
832
833
835
84
840
844
845
848
85
850
852
85270
85700
858
86
860
862
863
864
87
870
8711
875
878
879
88
880
881
882
884
885
888
89
890
892
894
895
896
897
899
9
90
900
9000
901
906
907
91
910
911
912
915
917
918
919
92
920
9229
924
925
927
93
930
933
937
939
94
940
945
946
95
950
9500
951
953
954
957
959
96
960
961
962
963
965
966
968
97
970
971
973
975
977
977378
978
9780763762995
98
980
985
987
988
99
990
992
9955
996
997
998
9986
999
:
;
<
=
>
?
@
[
\
]
^
_
`
a
aa
ab
abablewo
abba
abc
abonento
about
abraham
abrams
abs
ac
academia
academic
academy
access
accessed
account
ace
ack
act
acta
action
ad
adam
adams
admin
administration
advanced
ae
af
affairs
africa
african
after
ag
agad
again
against
age
agency
ages
ai
aim
aip
air
airlines
ais
aise
ajax
ajs
ak
akademii
akademijos
akb
akt
al
alan
alba
albania
albaruthenica
albert
alberto
album
albums
ale
aleksander
aleksandra
alex
alexander
alfred
algeria
ali
alice
alignment
alison
all
alla
alle
allen
allgemeine
allmovie
allmusic
allocine
almis
alpha
als
alyga
am
amazon
ambassador
america
american
amiga
amnesty
among
amour
amsterdam
an
ana
analysis
ancient
and
anders
anderson
andre
andrea
andreas
andrew
android
andrzej
angel
angeles
angels
angiosperm
anglo
anhang
animal
ann
anna
anne
anniversary
annual
another
anthony
anti
anton
antoni
antonio
any
api
apij
app
apple
application
april
ar
arab
archaeology
arche
archidiecezja
archinform
architecture
archive
archives
archiwum
are
area
areas
arena
argentino
ark
arkive
armenia
armenian
arms
armstrong
army
arnold
around
arsenal
art
arthur
article
articles
artist
artists
arts
arxiv
aryan
as
asia
asian
asp
aspx
associated
association
astro
astron
astronomical
astronomy
astrophys
astrophysical
asus
at
athletic
atlantic
atlas
attack
au
audio
auf
august
aus
ausf
australia
australian
austria
authority
authors
auto
autori
aux
ave
avec
award
awards
away
az
azerbaijan
b
ba
babelio
baby
back
background
bad
badan
badcomedian
bafta
balance
ball
baltic
baltimore
band
bank
bankı
bar
barbara
barcelona
barnes
barrett
barry
bartlett
bas
base
based
bases
basic
basin
basketball
battle
bay
bayerische
bayern
bb
bbc
bc
bd
bdfutbol
be
beat
beatles
beautiful
beck
been
before
begin
behalf
behind
bei
being
bel
belarus
belarusian
believe
bell
bellona
ben
benezit
benjamin
benz
ber
berkeley
berlin
bernard
best
beta
between
beweb
beyond
bez
bf
bg
bi
białorus
białorusi
białoruska
białoruski
białoruskie
białoruskiej
białostocczyzny
białostocka
białostockie
białymstoku
białystok
bibcode
bible
bibliografia
bibliographisches
biblioteka
bibliothe
bielaruskaja
bielsk
big
bileta
bill
billboard
bin
bio
biograficzny
biographical
biographie
biography
biology
birth
bis
bishop
black
blackwell
blade
blind
blitz
blog
blood
bloomberg
blue
blues
bmw
bnf
bo
board
body
boeing
boney
book
books
born
borussia
boston
box
boxofficemojo
boy
boys
boz
br
brasil
brasileiro
brasław
bratislava
brazil
break
brest
brian
bridge
brief
bright
brill
bristol
britain
britannica
british
broadcasting
broadway
brockhaus
brothers
brown
bru
bruce
bruno
bu
budapest
budzma
building
bull
bulletin
bundesliga
bureau
business
but
by
byelorussian
byng
c
ca
california
call
cambridge
campaign
campbell
can
canada
canadian
cape
capital
car
carl
carlos
carolina
carpenter
case
castle
cat
catalana
catalog
catalogue
catherine
catholic
causse
cbs
cc
cd
cdma
cdot
ce
celtic
census
center
central
centre
centrum
centuries
century
certain
cfilm
cfsp
cgi
ch
challenge
championat
champions
championship
change
channel
chapter
charles
chart
charts
che
chelsea
chemical
chemistry
cher
chernobyl
chess
chester
chicago
chief
child
children
china
chinese
chisholm
chr
chris
christenhusz
christian
christianity
christine
christmas
christopher
chrome
chronicle
church
ci
cia
cie
cinema
cinemascore
cio
cioła
cities
city
citypopulation
civil
civilization
cl
class
classic
classical
classification
claude
cle
climate
clio
club
clusters
cn
cnn
co
code
codex
cold
cole
colin
coll
collection
college
collins
color
columbia
com
come
commission
committee
common
commons
commonwealth
communications
community
companion
company
comparative
comparison
complete
computer
con
concerning
concise
conference
conflict
congress
consolidated
consortium
constitution
contemporary
content
contest
control
coronavirus
corporation
corun
cos
cosmicflows
costa
could
council
counter
countries
country
counts
county
court
courtois
covid
craig
crc
creative
crisis
critical
croatia
cross
crown
crystal
cs
cu
cultural
culture
cum
cup
curlie
current
cy
cyber
cych
cz
czaplewski
czasopis
cze
czech
czyli
d
da
daily
dali
dallas
dan
dance
daniel
dans
danych
dark
das
data
database
date
datos
david
davies
davis
dawn
dawnej
dawnych
day
days
db
dbinet
dbscripts
dc
dde
ddonnees
de
dead
deadline
deal
death
debut
dec
december
decision
declaration
deep
default
degli
dei
del
delhi
dell
della
delphi
delta
dem
demo
democracy
democratic
den
departements
department
depeche
der
derby
derbyshire
dereneczna
derenek
des
description
design
det
details
deutsch
deutsche
deutschen
deutschland
development
deł
di
dia
dictionary
dictionnaire
didz
die
diecezja
diecezji
diego
dies
digital
din
dir
director
directory
discogs
discovery
disease
disney
displaystyle
district
ditions
diversity
division
dizionario
dizzy
dj
djvu
dk
dla
dlegales
dn
dnia
do
doc
document
documents
dog
doi
dom
don
donald
dortmund
dos
dota
double
douglas
down
downloaded
dowych
dq
dr
dravidian
dream
dresden
drive
drohiczyn
drukarnia
ds
dsc
dt
du
dubel
dublin
duniłowicze
during
dvd
dx
dy
dygnitarze
dyrekcji
dz
dzenie
dział
działalnos
dzieje
dziejo
dziejowe
dziennik
dzisien
dzkie
dztwa
dztwie
dztwo
dzy
dła
e
earl
early
earth
east
eastern
eberhardt
ec
echo
economic
economics
economist
economy
ed
edgar
edge
edinburgh
edited
edition
editions
editor
edp
eds
edu
education
edward
ee
eesti
effect
effects
efloras
egypt
ehf
ei
ein
eine
einer
einstein
ej
ek
el
election
elections
electric
electronic
element
elements
elias
elite
eliteprospects
elizabeth
em
emaic
emma
empire
en
enciclope
enciclopedia
enciklopedija
enciklopediju
encyclopaedia
encyclopedia
encyclopædia
encyklopedia
end
energy
eng
engineering
england
english
entertainment
environmental
ep
er
era
eric
erich
ericsson
erik
es
eske
esky
espan
esperanto
espn
essays
est
estadi
estati
estimates
estonia
estonian
et
etc
ethnic
ethnologue
etymological
etymologisches
eu
eua
eur
euro
eurobelarus
europa
europe
european
eurovision
ev
evening
ever
everything
evidence
evil
evolution
ew
ex
experience
experty
explorer
express
eye
eyes
ez
f
fa
faber
face
facebook
factbook
facts
fair
faith
fall
false
family
fantasy
far
fast
father
fbref
fc
fe
fear
feat
february
federal
federation
fembio
femme
femmes
ferdinand
fernando
fest
festival
ff
fi
fichefilm
fiction
fide
field
fifa
figures
file
files
film
filmaffinity
filmportal
films
final
finals
finance
financial
find
finland
fire
firefox
first
fit
five
flag
fldrname
flora
flower
floyd
fly
flying
fm
fo
focus
folk
food
football
footballstat
for
forbes
force
forces
ford
foreign
forest
forever
former
formowanie
fortune
forum
forveille
found
foundation
four
fourth
fox
fr
fra
frac
franc
france
francis
francisco
franciszek
frank
frankfurt
franklin
franz
fratelli
frauendatenbank
fre
frederick
free
freebase
freedom
french
friedrich
friends
from
front
fu
full
fullcredits
fund
fussballdaten
futbol
future
g
ga
gabriel
gaelic
galaxies
galaxy
gallery
gallimard
gambit
game
games
gaming
gamma
garden
gary
gas
gatve
gay
gazeta
gazetteer
gdan
ge
gemeinden
gemeinsame
gen
gene
genealogia
genealogics
geneastar
general
generation
genocide
gentleman
geografia
geograficzno
geograficzny
geographic
geography
geonames
geonet
georg
george
georges
georgia
german
germany
geschichte
gesellschaft
get
gets
gfx
gi
giovanni
girl
girls
gks
global
globus
glory
gmbh
gmina
gminy
gmt
gnu
go
goal
goals
god
gods
goethe
gold
golden
good
google
gordon
got
gouges
gov
government
gps
gra
graham
grammar
gran
grand
grande
granicy
grant
grave
gray
great
greatest
greece
greek
green
greenwood
gregory
grey
group
groups
grove
growth
gru
grup
grupo
gruyter
grzegorz
gsm
gu
guardian
guide
gus
gustav
gutenberg
guy
gz
gło
h
ha
haag
hair
hajno
half
hall
hamburg
handbook
hans
happy
haqqında
hard
harper
harris
harry
harvard
has
haslo
hasta
hat
have
hd
he
head
health
heart
heaven
heavy
heidelberg
heinrich
helena
hello
help
helsinki
henri
henry
henryk
her
herbarz
herbert
here
heritage
hermann
hero
heroes
het
hi
hierarchy
high
hill
hip
his
histo
histoire
historia
historic
historical
historii
historique
history
historyczne
historyczny
hit
hitler
hits
hl
hm
ho
hobbit
hockey
hollywood
holocaust
holy
home
homme
homo
honda
hooker
hop
hope
hopkins
hot
house
how
hr
hrsg
hrvatska
htm
html
http
https
hu
hudson
hugh
hugo
human
hungarian
hungary
hyundai
i
ia
iai
ian
iana
iau
ibm
ic
icar
ice
iceland
ich
id
identity
ie
iec
iedzi
iene
if
ignacy
igor
ii
iii
ikarus
il
illustrated
im
image
images
imdb
imienia
impact
implementing
in
ina
inc
incorporated
increase
independence
independent
index
india
indian
indiana
indo
industrial
industry
ine
info
information
innych
insee
inside
instagram
institut
institutas
institute
institution
instituto
instytut
int
intel
intelligence
inter
interactive
interfax
international
internationale
internet
interview
intex
into
introduction
invasion
io
iop
ios
ip
ipa
iphone
ipod
iq
ir
iran
ireland
irish
iron
is
isbn
islam
islamic
island
islands
iso
israel
israeli
iss
issn
issue
ist
istorija
it
italia
italian
italiana
italy
itau
item
itemid
its
itunes
iu
iucn
ius
iv
ivan
ix
iz
j
ja
jack
jackson
jacob
jacques
jagr
jak
jako
james
jan
jana
jane
january
janusz
januszowo
januszpol
japan
japanese
jason
java
javascript
jay
jazz
je
jean
jefferson
jego
jelski
jersey
jerusalem
jerzy
jest
jesus
jewish
jews
jhu
ji
jitters
jo
joan
joe
johann
johannes
john
johns
johnson
join
joins
jonas
jonathan
jones
jordan
jose
josef
joseph
journal
journey
jpg
jr
ju
juan
julian
july
juma
june
junior
just
justice
justowska
juventus
k
ka
kalligram
kamunikat
karabakh
karate
karl
karol
kas
kashmir
katedry
kaunas
kazimierz
kałamajska
ke
keith
kelly
kenneth
kent
kevin
kew
key
kfz
ki
kicker
kill
killed
kim
kindred
king
kingdom
kings
knihi
know
knowledge
known
ko
koch
koda
kommun
kon
kondratiuk
korea
kos
kova
kra
kraj
krajo
krako
krakow
krakowie
kras
kraszewski
kresach
kro
kronika
krynica
krzysztof
krzywicki
krzyz
ks
ksia
ksie
kto
ku
kultu
kultur
kultura
kultury
kurier
kutno
kutowa
ky
kyiv
l
la
ladies
lady
lake
lambda
lamham
land
lands
lang
language
languages
langue
largest
lars
las
last
lat
latach
late
latin
latvia
latvijas
law
lawrence
laws
le
leader
league
learning
leben
led
lee
left
legacy
legend
leiden
leidybos
leipzig
leksikon
lenta
leo
leonard
les
lestwa
leszek
let
letters
lewandowski
lewis
lex
lexicon
lexikon
lez
lgv
li
libereco
library
lie
lietuva
lietuviu
lietuvos
life
liga
light
like
limited
line
lingua
linguistic
linguistics
link
linux
lionel
lis
list
lit
literackie
literatura
literature
literatury
litewska
litewski
litewskich
litewskiego
litewskim
litherland
lithuania
lithuanian
lito
litte
little
litwa
litwie
litwy
live
livejournal
liverpool
lives
livesound
living
livre
lkerung
ll
llc
ller
lmavb
ln
lo
local
location
log
lokalnych
london
long
look
lord
los
lost
lotus
louis
louise
love
low
lp
lt
ltd
ltu
lu
lublin
lucas
ludnos
ludowa
ludwig
ludwik
luis
lundy
luther
lv
lwo
lyga
m
ma
mac
machine
macmillan
mactutor
mad
made
madrid
mag
magazine
magic
magnum
magyar
mahilouskaja
mai
maiden
mail
main
maintheme
maja
major
make
makes
making
malczyce
malta
mammal
mammalogy
man
management
manchester
manuel
map
maps
mar
marc
marca
march
marco
marek
mari
maria
marian
marie
marii
marija
mario
mark
market
mars
marshall
marti
martin
marvel
mary
mashke
mass
massachusetts
master
masters
match
mathbb
mathbf
mathematics
mathrm
matthew
max
may
mayor
maz
mb
mc
md
me
measures
med
media
medical
medicine
medieval
meeting
member
members
membership
membres
memorial
memory
men
mercury
mes
messi
metacritic
metal
metro
mexico
mi
miasta
michael
michał
michałowo
miche
michel
micron
microsoft
middle
midi
mie
miejscowe
miejscowos
miguel
mike
mikołaj
milan
military
miller
million
min
mind
ministe
minister
ministry
minor
minsk
mirror
miss
mission
mit
mitarbeiterhistorie
mix
mk
mm
mo
mobile
mode
model
modern
mojo
mokslo
mokslu
moldova
mon
monde
money
monografia
moon
more
morning
mort
mos
moscow
most
mother
motor
motorola
mount
move
movement
movie
movies
mozilla
mp
mpby
mpeg
mpi
mr
ms
mtv
mu
munich
municipalities
munst
munzinger
murray
muse
museum
music
must
mute
muzeum
mx
my
myers
myspace
myth
məlumat
n
na
nach
nacional
nad
nadzieja
naja
najnowsze
nakładem
name
named
names
napoleon
narod
narodowej
narodowy
narodu
nas
nasa
nation
national
nationalbibliothek
nationale
nationalencyklopedin
nationalism
nations
nato
natural
nature
natus
nauk
naukowe
naviny
nazi
nazvy
nazwy
nba
nbc
nchen
ncia
nd
ndigen
ndows
ne
near
need
nelson
nes
net
netflix
netreba
netrebka
network
neue
neuro
never
new
news
next
nez
ng
ngc
nh
nhl
ni
nia
nica
nicholas
nicht
nicolas
nie
night
nigsberg
nija
nin
nine
nl
nn
no
nobel
node
nokia
non
nord
norman
normdatei
norske
north
northern
nos
not
notes
nothing
notre
nous
nouveau
nouvelle
nova
novads
november
novychas
now
nowak
nowogro
nowy
nr
ns
nt
nu
nuclear
number
numbers
ny
nyc
nytimes
o
object
ocean
och
ochrony
oclc
october
od
oder
of
off
offensive
office
official
officials
og
oh
ois
okolice
okre
oktmo
ol
old
olympic
olympics
om
omega
on
one
online
onliner
only
ons
op
opc
open
opera
operation
opposition
oprac
opracowany
option
or
oraz
order
org
organization
oriental
origin
original
origins
orthodox
os
oscar
oslo
ossolin
other
otto
ou
oup
our
out
ov
over
overview
own
oxford
oxxxymiron
oz
p
pa
pac
pacific
pagastu
page
pages
pakistan
palace
palgrave
pamie
pan
paper
papers
par
para
parafia
parafie
parafii
paris
park
parker
parliament
part
partial
partnership
party
pas
pascal
past
patrick
paul
paulo
pawet
paweł
paz
pc
pdf
pe
peace
pearson
pedro
peerage
pen
penguin
people
peoples
per
perepiat
perepiatycha
perfect
periodic
person
personal
personen
perspective
peter
petersburg
petit
pg
ph
philadelphia
philip
philippe
philosophy
phone
phonology
photos
php
phylogeny
physical
physics
phytotaxa
pi
pictures
pie
pierre
pierwszego
pierwszy
pies
pin
pink
piotr
piotra
pl
place
places
plan
planet
planetary
planets
planning
plant
plants
play
player
players
plik
plus
pm
pmid
po
pocza
poczt
pod
podlaski
podstawie
poe
poems
poetry
pogranicza
point
pol
polacy
poland
polesia
police
policy
polish
political
politics
poloniae
polsce
polska
polski
polskich
polskie
polskiego
polskiej
polsko
pop
pope
popes
popular
population
populations
por
porn
port
portal
pos
post
pour
power
powiat
powiaty
powiecie
powies
powstanie
powszechna
powszechnego
poz
poznan
południowo
pp
ppp
pr
pra
practice
praha
prawosławna
prawosławnej
prawosławny
pre
premie
premier
present
president
press
pressball
prezydenta
pri
prima
prime
prince
princeton
principles
print
prisa
private
prix
prize
pro
problem
problems
proceedings
process
processing
production
productions
prof
profile
program
project
prospects
protest
proto
protocol
province
provinces
pruz
przegla
przewodnik
przez
przyjacio
psychology
pt
pu
public
publication
publications
published
publishers
publishing
pudlas
purple
put
pwn
py
pzkpfw
q
qadınlar
qatar
que
queen
question
qui
r
ra
race
rada
radio
rady
radzima
random
ranking
rar
ras
rate
rattus
ray
rayonu
rchiwum
rd
re
read
ready
real
rec
recensement
reconstruction
record
records
red
ref
reference
referendum
regime
region
regional
regions
register
regulation
relations
release
releases
religion
religious
remix
renaissance
rene
report
reporter
reportid
reports
representative
reprint
republic
republika
republiky
res
research
resident
resolution
resources
restrictive
results
retrieved
return
reuters
rev
review
reviews
revised
revolution
revue
rex
rez
rfc
rho
ri
ria
ric
rich
richard
ridpath
right
rights
ring
rings
rio
riot
rise
river
rk
rkdartists
rkəmli
rnu
ro
road
robert
robin
robinson
rock
rocznik
rodzina
roger
rok
roku
roland
role
roll
rolling
rom
roma
roman
rome
ronald
ros
rosa
rose
ross
rotten
round
routledge
roy
royal
rozporza
rp
rr
rs
rss
rsssf
rt
rterbuch
ru
ruksze
rukszenice
rule
run
rus
rusi
russell
russia
russian
ry
ryan
rzeczpospolita
rzeczypospolitej
s
sa
sag
saint
salon
salvador
sam
same
samogitia
samuel
san
sanctions
santa
sapieha
sar
sarah
satellite
satellites
savivaldybe
say
says
sb
sc
scarecrow
schedule
schmidt
schneider
school
science
sciences
scientific
scotland
scots
scott
scottish
se
sea
search
season
sebastian
second
secret
security
see
sejm
sejmu
selected
self
sen
senat
senatopracowania
senatorowie
seniu
september
ser
serbia
series
server
service
services
set
seuil
seven
sex
sfd
shadow
she
short
show
shtml
si
sich
sid
side
sie
sieci
siemens
sign
signs
sil
silence
silva
silver
simbad
simon
simone
sin
since
sinclair
single
sir
site
sites
situation
six
size
sk
ska
skaits
ski
skich
skie
skiego
skiej
skim
skorowidz
sky
slavic
slounik
slovak
slovakia
slovenska
slovenske
slovenskej
slovni
small
smith
so
soc
soccer
soccerbase
soccerway
sochaczew
social
socie
society
software
some
son
song
songs
sons
sony
sorce
sos
soul
sound
source
sources
south
southern
soviet
sp
space
spain
spanish
special
species
spectrum
spirit
spis
spisu
split
spo
spol
sport
sports
sprache
sprachen
spraw
sprawie
spring
springer
sqrt
squad
squadron
sr
sritis
ss
st
sta
staatsbibliothek
stadium
staff
stan
stand
standard
stanford
stanisław
stanisława
stanley
star
stara
stars
start
stat
state
states
statham
station
statistical
statistics
statistiques
status
statystyczny
statystycznym
ste
steam
stefan
stephen
sterreichische
steve
steven
stevens
stica
still
sto
stock
stockholm
stone
stones
stop
stopklatka
store
stories
story
str
street
strike
strong
structure
student
students
studia
studies
studio
studios
study
stuttgart
stwa
stwo
stwowe
stycznia
style
su
sub
subdivisions
sud
sum
summary
summer
sun
sunday
super
supplement
support
sur
survey
sv
svaboda
sveriges
svoja
sweden
swiss
sygn
system
systems
szkice
szlachty
szlubowska
szlurpkiszki
słowian
słownik
t
ta
table
tablesl
tableview
tableviewer
tadeusz
tai
take
takes
tales
talks
tallinn
targets
tas
tatra
taylor
te
team
teams
technology
tego
tel
telefonicznej
telegraf
telegrafo
telegram
telegraph
television
temps
ten
terra
territory
tes
tesla
testament
texas
text
tgv
th
than
that
the
theater
theatre
theft
their
theory
there
theta
they
things
third
this
thomas
thought
threatened
three
through
ti
til
tim
time
times
tina
tirion
tis
title
to
today
together
tolkien
tom
tomasz
tomatoes
too
top
toronto
torun
total
touch
tour
tous
towarzystwa
towarzystwo
tower
town
towns
tr
tra
trade
tradition
train
trans
transfer
transfermarkt
translated
translation
travel
tre
treasury
tree
trek
trends
tres
tribuna
tribune
true
truth
ts
tt
tu
tully
turkey
turkish
turner
tut
tutti
tuzin
tv
tvp
twitter
two
ty
tygodnik
type
u
ua
ubuntu
uefa
ui
uk
ukraina
ukraine
ukrainian
ul
ulis
ulmus
ultimate
ultra
um
un
una
und
under
underground
une
unesco
unicode
union
unit
united
univ
universal
universe
universita
universitas
university
uniwersytetu
unix
up
update
ur
uralic
urban
url
urza
urze
us
usa
use
ut
utc
uz
v
va
valdi
vale
valencia
valley
valve
van
var
vari
variety
varphi
vaughan
ve
vec
vega
verein
verlag
version
versus
very
vi
via
victor
victoria
video
vie
view
vii
viii
villa
village
vilniaus
vilnius
vincere
virtual
vishniac
vision
vista
visual
vita
vladimir
vo
voice
vol
volkswagen
volume
vom
von
vota
vrublevskiu
vs
vy
vytautas
w
wa
wales
walk
walker
wall
walt
walter
want
war
warmbrun
warner
wars
warsaw
warszawa
warszawie
warłynka
was
washington
watch
water
way
we
weather
web
website
week
weekly
welche
well
welle
welt
were
west
western
what
when
where
which
white
who
whois
why
wi
wia
wiadomos
wiat
wiatowej
wie
wieku
wielkiego
wien
wies
wiesbaden
wiki
wikipedia
wil
wild
wilejka
wilejski
wilen
wiley
wilhelm
will
william
williams
wilnie
wilno
wilson
win
windows
winners
wins
winter
wir
wis
wissen
with
without
witold
wka
wna
wny
wo
wojciech
wojewo
wojna
wojnie
wojsko
wola
wolff
wolfgang
wolumin
woman
women
won
word
words
work
workinglist
works
world
worldfootball
worldstatesmen
worowo
wp
wright
writing
wrocław
wrzes
ws
wschodnich
wschodniej
wspo
wspomnienia
wste
wu
www
wyborcza
wyd
wydanie
wydawn
wydawnictwo
wydawnicza
wydawniczy
wykaz
wyniko
wz
wzgle
władysław
x
xi
xii
xiii
xiv
xix
xlam
xls
xml
xv
xvi
xvii
xviii
xx
xxi
xxii
xxiii
xxiv
xxvi
xxx
y
ya
yahoo
yale
ychlin
ycie
year
years
ygimantu
yn
yna
york
you
young
your
youth
youtube
yz
z
za
zabłudo
zagreb
zakład
zaprudnik
zarys
zas
zbigniew
ze
zef
zefa
zeit
zeitung
zeppelin
zero
zeszyty
ziemi
ziemia
ziemiach
ziemie
zip
znich
zone
zu
zum
zur
zwia
zx
zygmunt
zyk
zyka
złota
{
|
}
~
¡
£
§
©
«
­
®
°
±
²
³
´
µ
·
¹
º
»
¼
½
¾
×
æ
ð
ø
ı
ł
ło
ŋ
ɑ
ɔ
ə
ɛ
ɡ
ɣ
ɨ
ɪ
ɬ
ɲ
ɾ
ʃ
ʊ
ʋ
ʒ
ʔ
ʕ
ʰ
ʱ
ʲ
ʷ
ʹ
ʼ
ʿ
ˈ
ˌ
ː
˙
˚
ˠ
̀
́
̂
̃
̄
̆
̇
̈
̉
̊
̋
̌
̑
̓
̔
̛
̞
̣
̥
̦
̧
̨
̩
̪
̯
̸
͂
ͅ
͡
α
β
γ
δ
δος
ε
ελλα
ζ
η
θ
ι
κ
λ
μ
μο
ν
ξ
ο
π
πι
ρ
ς
σ
τ
της
το
του
υ
φ
χ
ψ
ω
ϵ
а
аа
ааліты
аан
аат
ааэ
аб
абавязак
абавязаны
абавязаныя
абавязау
абавязвау
абавязкам
абавязкау
абавязкова
абавязковага
абавязковае
абавязковаи
абавязковы
абавязковым
абавязковых
абавязковыя
абавязку
абавязкі
абавязуюся
абазначае
абазначаюць
абазначэньне
абазначэньня
абаленскі
абалона
абалонка
абалонкі
абанэнтау
абапал
абапіраецца
абапірау
абапіраючыся
абараняе
абаранялі
абараняу
абараняць
абараніла
абараніу
абараніць
абарачэньне
абарачэньня
абарачэньні
абарона
абаронаи
абароне
абарону
абаронца
абаронцам
абаронцау
абаронцу
абаронцы
абарончага
абарончае
абарончаи
абарончая
абарончы
абарончых
абарончыя
абароны
абарот
абароту
абацтва
абвесьціла
абвесьцілі
абвесьціу
абвешчана
абвешчанае
абвешчанаи
абвешчаная
абвешчаны
абвешчаныя
абвясьціла
абвясьцілі
абвясьціу
абвясьціць
абвяшчае
абвяшчалася
абвяшчаліся
абвяшчау
абвяшчэньне
абвяшчэньнем
абвяшчэньня
абвяшчэньні
абвінаваціла
абвінавацілі
абвінаваціу
абвінавачаны
абвінавачаньне
абвінавачаньні
абвінавачваньне
абвінавачваньня
абвінавачваньні
абвінавачвау
абгрунтаваньне
абгрунтаваньня
абгрунтоу
абдул
абедзьве
абедзьвюма
абедзьвюх
абкаму
абламеи
абламскі
абласная
абласнога
абласное
абласнои
абласную
абласны
абласным
абласных
абласныя
абласьце
абласьцеи
абласьцямі
абласьцях
аблвыканкама
аблвыканкаму
аблога
аблогу
аблогі
аблозе
аблямоу
аблігацыяу
аблігацыі
аблічча
абліччы
абмежавана
абмежаванага
абмежаванае
абмежаванаи
абмежаваная
абмежаваны
абмежаваным
абмежаваныя
абмежаваньне
абмежаваньня
абмежаваньняу
абмежаваньні
абмежаваць
абмен
абмене
абменны
абмену
абмеркаваньне
абмеркаваньня
абмеркаваньні
абмеркаваць
абмеры
абмываецца
абмяжоу
абмяркоу
абнародавау
абнау
абноу
або
абодва
абодвума
абодвух
абоз
абозны
абрагам
абрад
абрадау
абраду
абрады
абраз
абраза
абразом
абразоу
абразу
абразы
абрала
абралі
абрам
абрамовіч
абрана
абраная
абраны
абраным
абраных
абраныя
абраньне
абраньня
абраньні
абрау
абраць
абрывістыя
абрысы
абсалютна
абсалютнаи
абсалютная
абсалютную
абсалютны
абслугоу
абставінау
абставінах
абставіны
абстале
абсталяваны
абсталяваньне
абсталяваньнем
абсталяваньня
абстаноу
абстралялі
абстрэл
абстрэлау
абстрэлу
абсэ
абсэрваторыя
абсэрваторыі
абсяг
абсягу
абу
абуджэньне
абумовіла
абумоу
абурэньне
абутак
абутковая
абутку
абухау
абуховіч
абхазія
абхазіі
абшар
абшарах
абшары
абшчына
абшчынау
абшчыны
абы
абыграу
абыи
абыходжаньне
абышоу
абьяднаньнямі
абэліск
абяцае
абяцаньне
абяцау
абірае
абіраецца
абірала
абірау
абіраюцца
ав
авалодалі
авалодау
авалодаць
авангард
аварыи
аварыя
аварыі
августа
аве
авечак
авечкі
авт
автомобильных
автор
авэрс
авэстыи
авіу
авіцэна
авіябаза
авіябазы
авіякампанія
авіякампаніі
авіякатастрофе
авіяцыи
авіяцыя
авіяцыі
аг
ага
агае
агаро
агароджа
агароджаи
агароджы
агароднікі
агародніцтва
агат
агата
агееу
агент
агента
агентам
агентау
агентство
агенты
агенцтва
агенцыі
агляд
аглядальнік
аглядау
аглядзе
агляду
агляды
аглямэрацыі
агне
агню
агні
агонь
агп
агра
аграгарадку
аграгарадок
аграрнаи
аграрная
аграрны
аграрных
агрэсіу
агрэсіі
агул
агулам
агульнаадукацыи
агульнаваи
агульнага
агульнадзяржау
агульнае
агульнаи
агульнаэу
агульная
агульную
агульны
агульным
агульнымі
агульных
агульныя
агучыу
агінскага
агінскі
агінскіх
агітацыи
агітацыю
агітацыі
ад
ада
адабрала
адабралі
адам
адама
адамавіч
адамам
адамовіч
адамовіча
адаму
адаптацыі
адбор
адборачнага
адборачны
адборачным
адбору
адборы
адбудавалі
адбудаваная
адбудаваны
адбудзецца
адбываецца
адбывалася
адбываліся
адбываньня
адбывау
адбывацца
адбываюцца
адбылася
адбылося
адбыліся
адбыу
адбыцца
адбілася
адбілі
адбіраньне
адбітак
адбіу
адбіць
адв
адвагу
адважны
адвакат
адваката
адвакатам
адвакатау
адваротны
адваротным
адве
адводу
адгалінаваньне
адгор
адгуляу
адгэтуль
аддавалі
аддавау
аддаваць
аддадзены
аддае
аддала
аддалены
аддаленых
аддаленыя
аддалі
адданасьць
аддау
аддаць
аддаюць
аддзел
аддзела
аддзелам
аддзеламі
аддзелау
аддзеле
аддзелены
аддзеленыя
аддзелу
аддзелы
аддзяленьне
аддзяленьнем
аддзяленьня
аддзяленьняу
аддзяленьні
аддзяляе
аддзяляецца
адз
адзежы
адзеньне
адзеньня
адзеньні
адзнака
адзнакаи
адзнаку
адзнакі
адзначае
адзначаецца
адзначалася
адзначалі
адзначаліся
адзначана
адзначаная
адзначаны
адзначаныя
адзначау
адзначаюцца
адзначаюць
адзначыла
адзначылі
адзначыу
адзначыць
адзін
адзінага
адзінае
адзінаи
адзінак
адзінаццаць
адзінаццаці
адзіная
адзінка
адзінкавыя
адзінкаи
адзінкамі
адзінках
адзінку
адзінкі
адзіночнага
адзіночны
адзіночным
адзіночныя
адзінства
адзіную
адзіны
адзіным
адзінымі
адзіныя
адк
адказ
адказалі
адказау
адказаць
адказвае
адказвау
адказваць
адказваюць
адказнасьць
адказнасьцю
адказнасьці
адказны
адказным
адказных
адказу
адказы
адкладау
адклады
адкрывае
адкрываецца
адкрываюцца
адкрыла
адкрылася
адкрылі
адкрыліся
адкрыта
адкрытага
адкрытае
адкрытаи
адкрытая
адкрытую
адкрыты
адкрытым
адкрытых
адкрытыя
адкрыу
адкрыць
адкрыцьце
адкрыцьця
адкрыцьцяу
адкрыцьці
адкуль
адкідау
адлегласьць
адлегласьці
адлюстравана
адлюстраваны
адлюстраваныя
адлюстраваньне
адлюстраваньнем
адлюстраваньня
адлюстравау
адлюстроу
адлік
адліку
адмау
адмена
адменены
адмены
адметнаи
адметнасьць
адметнасьцю
адметная
адметны
адметных
адметныя
административно
административного
адмова
адмове
адмову
адмовы
адмовілася
адмовіліся
адмовіу
адмовіцца
адмоу
адмыслова
адмысловага
адмысловае
адмысловаи
адмысловая
адмысловец
адмысловую
адмысловы
адмысловым
адмысловымі
адмысловых
адмысловыя
адмыслоу
адмяніу
адміністратар
адміністратара
адміністратарам
адміністратыу
адміністрацыи
адміністрацыю
адміністрацыя
адміністрацыяи
адміністрацыі
адмірал
адмірала
адна
аднабаковым
аднавяскоу
аднавіла
аднавілася
аднавілі
аднавіліся
аднавіу
аднавіць
аднагадовыя
аднагалосна
аднаго
аднае
адназначна
аднаи
аднак
аднаму
аднапавярховы
аднапартыи
аднаполыя
аднастаи
аднау
адначасна
адначасова
аднесены
аднесьці
адно
аднога
аднои
аднолькава
аднолькаваи
аднолькавую
аднолькавы
аднолькавых
аднолькавыя
адносна
адноснаи
адносная
адносяцца
адносяць
адносілася
адносіліся
адносін
адносінау
адносінах
адносіны
адносіу
адносіцца
адносіць
адноу
адною
адну
адны
адным
аднымі
адных
адныя
аднім
адольф
адольфа
адпаведна
адпаведнага
адпаведнае
адпаведнаи
адпаведнасьць
адпаведнасьцю
адпаведнасьці
адпаведная
адпаведную
адпаведны
адпаведным
адпаведнымі
адпаведных
адпаведныя
адпавядае
адпавядала
адпавядалі
адпавядау
адпавядаць
адпавядаюць
адпачынак
адпачынку
адпомсьціць
адправілася
адправілі
адправіліся
адправіу
адправіцца
адправіць
адпрау
адпрацоу
адпу
адраджэнне
адраджэння
адраджэньне
адраджэньня
адрадзіць
адразу
адрамантавалі
адрас
адрасам
адрасе
адрасы
адрозненьне
адрозныя
адрозьненьне
адрозьненьнем
адрозьненьня
адрозьненьняу
адрозьненьні
адрозьнівае
адрозьніваецца
адрозьнівалася
адрозьніваліся
адрозьнівау
адрозьнівацца
адрозьніваць
адрозьніваюцца
адрозьніваюць
адрозьніць
адрыян
адрыяна
адрыятычнага
адрэстау
адсотак
адсоткау
адстау
адстои
адступаць
адступленьне
адступленьня
адступленьні
адступілі
адступіу
адступіць
адсутнасьць
адсутнасьцю
адсутнасьці
адсутнічае
адсутнічала
адсутнічалі
адсутнічаюць
адсюль
адтуль
адтуліны
адтэрміноу
адукацыи
адукацыю
адукацыя
адукацыяи
адукацыі
адхілены
адхіленьне
адхіленьня
адхіленьні
адхіліла
адхіліу
адценьне
адценьнем
адценьня
адчаи
адчувае
адчуваецца
адчуваньне
адчувау
адчуваць
адчужэньня
адчынена
адчыненая
адчынены
адчыніла
адчынілася
адчынілі
адчыніу
адшукаць
адыграла
адыгралі
адыграу
адыгрывае
адыи
адысьці
адыход
адыходзяць
адыходзілі
адыходзіць
адыходу
адышла
адышлі
адышоу
адэса
адэсе
адэскаи
адэская
адэсу
адэсы
ае
аж
ажаніліся
ажаніу
ажаніцца
ажно
ажыу
ажыцьце
ажыцьцявілі
ажыцьцявіу
ажыцьцявіць
ажыцьцяу
ажэшка
ажэшкі
аз
азбука
азбукі
аздабленьне
аздабленьня
аздабленьні
аздабляецца
аздаблялі
аздабляюцца
аздарау
аздоблены
аздобленыя
азе
азербаи
азнае
азначае
азначала
азначау
азначаць
азначаюць
азначнік
азначэньне
азначэньнем
азначэньня
азначэньні
азот
азоту
азоу
азс
азэрб
азэрбаи
азямблоу
азію
азія
азіяцкі
азіяцкіх
азіі
аи
ак
акад
академии
академия
академія
акадэмік
акадэміка
акадэмікам
акадэмічнага
акадэмічнаи
акадэмічная
акадэмічны
акадэмічным
акадэмічных
акадэмію
акадэмія
акадэміяи
акадэміі
аказала
аказалася
аказалі
аказаліся
аказаньне
аказаньня
аказаньні
аказау
аказаць
аказвае
аказваецца
аказвала
аказвалі
аказвау
аказваць
аказваюць
акалічнасьць
акалічнасьцяу
акалічнасьці
акафісты
аклагома
акм
акна
акно
акном
аконнымі
аконных
аконныя
акопы
акрамя
акруг
акруга
акругаи
акругау
акругах
акруговага
акруговаи
акруговы
акруговыя
акругу
акругі
акружаны
акружэньня
акрузе
акрэсьціна
аксана
аксе
аксм
аксіе
акт
актам
актамі
актау
актах
актму
актов
актор
актора
акторам
акторамі
акторау
акторка
акторкаи
акторкі
акторы
акту
актуальны
актуальных
актуальныя
акты
актывау
актывы
актывіст
актывістам
актывістау
актывістка
актывісты
актыу
акула
акулы
акуляры
акуне
акунь
акупавалі
акупавана
акупаванаи
акупаваная
акупаваны
акупаваных
акупаваныя
акупантамі
акупантау
акупанты
акупацыи
акупацыю
акупацыя
акупацыяи
акупацыі
акурат
акустычная
акушэрскі
акце
акцыи
акцыю
акцыя
акцыянэрнага
акцыянэрнае
акцыяу
акцыях
акцыі
акцэнт
акцэнтам
акцябарскага
акцябарскі
акі
акінчыц
акіян
акіяна
акіянам
акіянау
акіяне
акіяну
акіяніі
ал
ала
алан
алаіза
але
алег
алега
алегам
алегры
алеем
алеи
алекс
алекса
александр
александра
александрович
александровіч
александровіча
александроу
александрыи
александрыя
александрыі
алексеи
алексіевіч
алелькавічау
ален
алена
аленаи
алену
алены
алень
алесем
алесь
алеся
алеу
алею
алея
алеі
алма
алматы
алоу
алтаи
алтар
алтара
алтарнаи
алтарная
алтаром
алтароу
алтары
алфавитныи
аль
альба
альбанскаи
альбанская
альбанску
альбанскі
альбанія
альбаніі
альберт
альбо
альбом
альбома
альбомам
альбомау
альбоме
альбому
альбомы
альбрэхт
альбрэхта
альбэр
альбэрт
альбэрта
альбэртам
альбіе
альбін
альбіна
альгебры
альгерд
альгерда
альжбета
альжбеты
альжыр
альжыру
альжыры
алькаголю
альманах
альманаху
альпау
альпах
альпы
альпіи
альта
альтэрнатыва
альтэрнатыу
альфа
альфабэт
альфабэтам
альфабэтах
альфабэту
альфабэце
альфонс
альфонса
альфрэд
альфрэда
альхоу
альшанка
альшанскі
альшэу
альянс
альянсу
алюміну
алякса
аляксандар
аляксандара
аляксандр
аляксандра
аляксандрава
аляксандравіч
аляксандравіча
аляксандрам
аляксандрау
аляксандру
аляксандры
аляксе
аляксеевіч
аляксеем
аляксееу
аляксеи
аляксея
аляксюк
алясандра
аляскі
аляхновіч
аляхновіча
алі
алімп
алімпіи
алімпік
алімпія
алімпіяда
алімпіядзе
алімпіяды
алімпіякос
аліна
аліса
аліу
ам
амаль
аман
амап
амапу
амар
аматар
аматарау
аматарскі
аматары
амбасада
амбасадар
амбасадара
амбасадарам
амбасадарау
амбасадзе
амбасаду
амбасады
амбон
амбуляторыя
амкадар
амністыю
амністыя
амністыі
амплюа
амстэрдам
амстэрдаме
амсьціслава
амсьціславе
амсьціслау
амфітэатар
амэрыка
амэрыкана
амэрыканскага
амэрыканскае
амэрыканскаи
амэрыканская
амэрыканскую
амэрыканскі
амэрыканскім
амэрыканскімі
амэрыканскіх
амэрыканскія
амэрыканцау
амэрыканцы
амэрыку
амэрыкі
амэрыцы
амінакісьляу
ан
ана
анагаи
анале
аналяг
аналягічна
аналягічная
аналягічны
аналягічных
аналягічныя
аналіз
аналізе
аналізу
аналітычнаи
аналітычны
анархістау
анастасія
анаталіи
анато
анатолии
анатоль
анатоля
анатоліи
анатоміі
анг
ангел
ангельска
ангельскага
ангельскае
ангельскаи
ангельскамоу
ангельская
ангельску
ангельскую
ангельскі
ангельскім
ангельскімі
ангельскіх
ангельскія
ангельцамі
ангельцау
ангельцы
ангельшчына
ангельшчынаи
ангельшчыне
ангельшчыну
ангельшчыны
англ
англа
англамоу
англіи
англіі
ангола
анголы
андау
анджэи
анджэлес
анджэлесе
анджэлесу
анджэя
андора
андоры
андреи
андрусау
андрые
андрыевіч
андрэ
андрэа
андрэас
андрэева
андрэевіч
андрэем
андрэеу
андрэи
андрэю
андрэя
андріи
андэрс
андэрса
андэрсан
андэрэрз
ане
анжуи
анлаи
анна
анонс
анры
ансамбль
ансамблю
ансамбля
ансамбляу
ансамблі
ант
антале
анталогія
антанас
антанты
антаніна
антарктыды
антарые
антвэрпэн
анто
антон
антона
антонава
антонавіч
антонам
антонау
антоні
антоніе
антоніем
антонію
антонія
антрапале
антуан
антыбіе
антые
антыпапа
антысавецкага
антысавецкаи
антысавецкую
антысавецкія
антыу
антычнага
антычнаи
антычнасьці
антычных
антычныя
анэксіі
ані
анімацыи
анімэ
анішчанка
аніякіх
ап
апавядае
апавяданні
апавяданьне
апавяданьня
апавяданьняу
апавяданьнях
апавяданьні
апад
ападкау
ападкі
апазыцыи
апазыцыю
апазыцыя
апазыцыяи
апазыцыі
апале
апанас
апанэнтау
апарат
апарата
апаратау
апарату
апаратуры
апараты
апараце
апасьля
апе
апекаи
апеку
апекуном
апекі
апк
аплатных
аплату
аплаты
аповед
аповеды
аповесць
аповесці
аповесьцеи
аповесьць
аповесьцяу
аповесьці
аповяд
апораи
апорнага
апорных
апоры
апостал
апостала
апосталау
апостальскаи
апостальскі
апостальскім
апостраф
апоу
апошнюю
апошняга
апошняе
апошняи
апошняя
апошні
апошнім
апошнімі
апошніх
апошнія
апраграмаваньня
апрау
апрацоу
апрача
апреля
апроч
апсыда
апсыдаи
апсыду
апсыды
аптычных
аптычныя
аптэка
аптэкі
апублікавала
апублікавалі
апублікавана
апублікаванае
апублікаваная
апублікаваны
апублікаваных
апублікаваныя
апублікавау
апцые
апынулася
апынуліся
апынуу
апынуцца
апытаньне
апытаньня
апытаньні
апэляцыи
апэратар
апэратара
апэратарам
апэратарау
апэратары
апэратыу
апэрацыи
апэрацыю
апэрацыя
апэрацыяу
апэрацыях
апэрацыі
апякун
апярэджвау
апярэдзіу
апярэзваюцца
апісана
апісаная
апісаны
апісаных
апісаныя
апісаньне
апісаньнем
апісаньня
апісаньні
апісау
апісвае
апісваецца
апісвау
апісваюцца
апісваюць
ар
ара
араб
араба
арабамі
арабау
арабскага
арабскае
арабскаи
арабская
арабску
арабскі
арабскім
арабскіх
арабскія
арабы
арабіи
арабія
арабіі
арамэи
аранжаваи
аранжыроу
аранчыцы
арашэньня
арбіта
арбіту
арбіты
арбіце
арган
арганізавала
арганізавалі
арганізавана
арганізаванага
арганізаванае
арганізаванаи
арганізаваная
арганізаваны
арганізаваныя
арганізавау
арганізаваць
арганізатар
арганізатарам
арганізатарамі
арганізатарау
арганізатары
арганізацыи
арганізацыю
арганізацыя
арганізацыяи
арганізацыямі
арганізацыяу
арганізацыях
арганізацыі
арганізм
арганізма
арганізмау
арганізму
арганізмы
арганізоу
арганізуе
арганізьме
арганічнага
арганічнаи
арганічных
арганічныя
аргентына
аргентыне
аргентынскага
аргентынскі
аргентыны
аргкамітэт
аргумэнтау
аргумэнты
ард
арда
арды
ардынат
аренду
арк
арка
аркавы
аркавым
аркавымі
аркавых
аркавыя
аркадзь
аркадзя
аркаи
аркамі
арках
аркестар
аркестра
аркестрам
аркестру
аркуш
аркуша
аркушау
аркушах
аркушы
аркі
арла
арлеан
арлова
арлом
арлоу
арм
армеи
армии
армэнію
армэнія
армэніі
армянау
армяне
армянскага
армянскае
армянскаи
армянская
армянску
армянскую
армянскі
армянскіх
армянскія
арміи
армію
армія
арміяи
арміяу
арміі
арнамэнт
арнамэнтам
арнамэнту
арнольд
арол
арон
арсень
арсеньнева
арсеньневаи
арсэнал
арсэналу
арт
артаграфія
артаграфіі
артур
артура
артыкул
артыкула
артыкулам
артыкуламі
артыкулау
артыкулах
артыкуле
артыкулу
артыкулы
артылерыи
артылерыю
артылерыя
артылерыяи
артылерыі
артыст
артыста
артыстау
артыстка
артысты
артэфактау
арфаэпія
арх
архангельск
архангельскае
архангельскаи
архане
археале
археалогія
археалягічнага
археалягічнаи
археалягічны
археалягічных
археалягічныя
археограф
археографическои
археографическою
археоляг
археолягамі
археолягі
архив
архива
архивное
архитектура
архитектуры
архэ
архібіскуп
архіва
архівавана
архівау
архівах
архіве
архіву
архівы
архідыяцэзія
архідыяцэзіі
архімандрыт
архімандрыта
архіпэляг
архіпэлягу
архірэи
архітэктар
архітэктара
архітэктарам
архітэктарау
архітэктары
архітэктура
архітэктурна
архітэктурнага
архітэктурнаи
архітэктурны
архітэктурным
архітэктурных
архітэктурныя
архітэктуру
архітэктуры
архіу
архіяпіскап
архіяпіскапа
арце
арцель
арцыбіскуп
арцыбіскупа
арцыбіскупам
аршанскага
аршанскае
аршанскаи
аршанская
аршанскі
аршанскім
аршаншчыны
аршын
аршыца
арыгінал
арыгінале
арыгіналу
арыгінальнага
арыгінальнае
арыгінальнаи
арыгінальная
арыгінальную
арыгінальны
арыгінальным
арыгінальных
арыгінальныя
арые
арыентаванаи
арыентаваная
арыентаваны
арыентацыі
арызона
арыи
арыстакратыі
арыстотэль
арыстотэля
арышт
арыштавалі
арыштаваная
арыштаваны
арыштаваных
арыштаваныя
арыштаваць
арыштам
арыштау
арыштоу
арышту
арышты
арэ
арэал
арэалу
арэна
арэнаи
арэнбург
арэнбурскаи
арэндзе
арэнду
арэнды
арэне
арэны
арэх
арэхау
арэхі
арэшка
арґанізацыя
арґанізацыі
ас
аса
асабліва
асаблівага
асаблівае
асабліваи
асаблівасьць
асаблівасьцю
асаблівасьцямі
асаблівасьцяу
асаблівасьці
асаблівая
асаблівую
асаблівы
асаблівым
асаблівых
асаблівыя
асабовага
асабовая
асабовы
асабіста
асабістага
асабістае
асабістаи
асабістая
асабістую
асабісты
асабістым
асабістых
асабістыя
асавец
асада
асамблея
асамблеі
асау
асацыюецца
асацыяцыю
асацыяцыя
асацыяцыяи
асацыяцыяу
асацыяцыі
асвета
асветы
асвои
асвоілі
асе
аселі
аскерка
аскеркау
аскеркі
аслан
асманамі
асманскага
асманскаи
асманская
аснова
асноваи
асновамі
асновау
асноваю
аснове
аснову
асновы
асноу
асоб
асоба
асобаи
асобам
асобамі
асобау
асобах
асобе
асобн
асобна
асобнага
асобнае
асобнаи
асобная
асобную
асобны
асобным
асобнымі
асобных
асобныя
асобнік
асобнікау
асобнікі
асобу
асобы
асобін
асобіны
аспекты
аспрэчваецца
аспэкт
аспэктау
аспэкты
асср
аст
астан
астана
астапенка
астатняе
астатняи
астатняя
астатнім
астатнімі
астатніх
астатнія
астравамі
астравах
астравец
астравецкага
астравецкі
астравецкім
астравоу
астравох
астравы
астраглядавічы
астраглядау
астрале
астранамічных
астранау
астраном
астранома
астраномам
астраноміі
астрау
астраханскаи
астрахань
астрог
астроскага
астроскі
астроскіх
астроу
астрынскага
астрэи
астуджэньня
астэроід
астэроідау
астэроіды
асуджанага
асуджаны
асуджаных
асуджаныя
асудзілі
асудзіу
асыміляцыя
асыміляцыі
асырыи
асырыі
асыстэнт
асыстэнтам
асьвеи
асьвета
асьветнік
асьветніцкага
асьветніцкаи
асьветніцкая
асьветніцкую
асьветніцкі
асьветніцтва
асьвету
асьветы
асьвечаны
асьвятленьне
асьвятленьня
асьвятляла
асьвяцілі
асьвяціу
асьвячэньне
асьпірантура
асьпірантуру
асьпірантуры
асэтыя
асэтыі
асяродак
асяродзьдзе
асяродзьдзем
асяродзьдзя
асяродзьдзі
асяродкам
асяродкау
асяродку
асі
асінау
асінторфскі
асіпавіцкага
асіпавіцкі
асіпавіцкім
асіпавічы
ат
ата
атава
атака
атакавалі
атакавау
атакаваць
атаку
атакуючы
атакі
атам
атаман
атамана
атамау
атамнаи
атамная
атамны
атамных
атамы
атачае
атачаецца
атачау
атачаюць
атачэньні
аташэ
атлас
атлетык
атлетыка
атлетыцы
атлянтыда
атлянтычнага
атлянтычны
атлянтычным
атляс
атлясу
атмасфэра
атмасфэру
атмасфэры
ато
атон
атрад
атрада
атрадам
атрадамі
атрадау
атрадзе
атраду
атрады
атрыбуты
атрымае
атрымала
атрымалася
атрымалі
атрымана
атрыманаи
атрыманая
атрыманы
атрыманых
атрыманыя
атрыманьне
атрыманьнем
атрыманьня
атрыманьні
атрымау
атрымаць
атрымаюць
атрымлівае
атрымліваецца
атрымлівала
атрымлівалі
атрымлівау
атрымліваць
атрымліваюць
атрымоу
атынкаваныя
атэнау
атэнах
атэны
атэстацыи
ау
аун
афарбоу
афармленьне
афармленьня
афармленьні
аформлены
аформіу
афрыка
афрыкаанс
афрыканскага
афрыканскаи
афрыканская
афрыканскі
афрыканскіх
афрыку
афрыкі
афрыцы
афіцыи
афіцэр
афіцэра
афіцэрам
афіцэрамі
афіцэрау
афіцэры
ах
ахапіла
ахапіу
ахвотна
ахвяр
ахвяра
ахвяраваньняу
ахвяраваньні
ахвяравау
ахвяраи
ахвярам
ахвярамі
ахвярау
ахвяру
ахвяры
ахемэнідау
ахмэд
ахова
аховаи
ахове
ахову
аховы
ахоплівае
ахоплівала
ахоплівау
ахопліваюць
ахоу
ахрышчаны
ацаніу
ацаніць
аце
ацэнак
ацэнка
ацэнку
ацэнкі
ацэнцы
ацэньваецца
ачкоу
ачольвау
ачоліу
ачысткі
ашаляваныя
ашмянау
ашмянах
ашмянскага
ашмянскі
ашмянскім
ашмяншчыны
ашмяны
аэрадром
аэрадроме
аэрапорт
аэрапорта
аэрапортау
аэрапорту
аэрапорты
аэрапорце
аэс
ая
аякс
аятала
б
ба
баба
бабарэка
бабе
бабоу
баброу
бабруи
бабры
бабуля
бабулі
бабчанкі
бабы
бабіле
бабіна
бабінец
бабіч
бабічы
баварыю
баварыя
баварыі
бавау
бавоу
бавуар
багажу
багамольнікава
багародзіца
багародзіцы
багаслова
багаслоу
багата
багатага
багатае
багатаи
багатая
багатую
багаты
багатым
багатых
багатыя
багацеи
багацьце
багацьцем
багацьця
багацьцяу
багацьці
багдад
багдан
багдана
багданава
багданау
багдановіч
багдановіча
багеміі
багоу
багратые
багуслава
багуслау
багушы
багушэвіч
багушэвіча
багушэу
багі
багіня
багіні
бад
бадаи
бадэн
бае
баевікоу
баер
баж
бажэнау
баз
база
базаваи
базавая
базавых
базавыя
базаи
базар
базау
базе
базу
базуецца
базуючыся
базы
базыль
базылянау
базылік
базыліка
базылікі
базэль
баи
бак
бакавои
бакавы
бакавымі
бакавых
бакавыя
бакаляу
бакамі
баках
бакоу
баксэр
бактэрыяу
бактэрыі
баку
бакштау
бакшты
бакі
бал
балада
баламі
балау
балаховіч
балаховіча
бале
балеслава
балеслау
балет
балета
балетмаи
балету
балканах
балканскаи
балот
балота
балотау
балотах
балотная
балотны
балотных
балотныя
балоты
балоце
балта
балтау
балтии
балто
балты
балтыи
балтыі
балцкіх
балы
баль
бальніца
бальніцы
бальшавік
бальшавікамі
бальшавікоу
бальшавікі
бальшавіцкага
бальшавіцкаи
бальшавіцкі
бальшавіцкіх
бальшыня
баляда
баляды
балянс
балянсу
баляслава
баляслау
балятавау
балі
балівія
балівіі
бамбардзір
бамбардзірам
бамбардзірау
бан
бананы
банапарт
банапарта
банглядэш
банда
бандарчык
бандарэнка
бандарэнкі
банды
банк
банка
банкам
банкамі
банкау
банках
банкнотау
банкноты
банкруцтва
банку
банкі
баня
баптыстау
бапц
бар
бара
барабан
барабанам
барабане
барабаны
баравая
баравое
баравы
баравікі
барадулін
барадуліна
баран
баранавіцкага
баранавіцкаи
баранавіцкая
баранавіцкі
баранавіцкім
баранавічау
баранавічах
баранавічы
баранау
барановичского
бараноу
барань
барані
бараніу
бараніць
барау
барацьба
барацьбе
барацьбу
барацьбы
барбадас
барбара
барбараи
барбары
бард
бардау
бардо
баркоу
баркулабау
баркі
барок
барока
барон
барона
бароу
барсукі
барсэле
барт
барусію
барусія
барусіі
баршчоу
баршчэу
бары
барыс
барыса
барысава
барысаве
барысавіч
барысам
барысау
барысевіч
барысенка
барысюк
барэи
барэці
бас
басау
басе
басеи
баскау
баскетбаліст
баскетбол
баскетболе
баскетболу
баскетбольнаи
баскетбольны
басовішча
бастые
басьніи
басэи
бат
баталье
батанік
батанікі
батанічны
батарэя
батарэі
батлеи
баторы
баторыя
батумі
батыст
батыста
батэ
бау
бафала
бах
баха
бахрэи
бацька
бацькам
бацькамі
бацькау
бацькоу
бацьку
бацькі
бачаньне
бачаньня
бачаць
бачачы
бачна
бачнасьці
бачная
бачны
бачным
бачныя
бачу
бачыла
бачылі
бачым
бачына
бачыне
бачыу
бачыць
бачэи
башкартастан
башкартастане
башкартастану
башкортостан
башкірску
башкіры
баючыся
бая
баявая
баявога
баявое
баявои
баявую
баявы
баявым
баявымі
баявых
баявыя
баян
баярамі
баярау
баярскага
баяры
баярын
баях
баяцца
баі
баіцца
бвк
бгк
бгу
бдпу
бдт
бду
бдэу
бе
бег
бегу
бегчы
беднаи
беднасьці
бедным
бедных
бедныя
бежанства
бежанцау
без
безвынікова
бездакорную
беззаганнага
безумоу
безь
беи
бел
бела
белаазе
белавежа
белавежы
белавескаи
белавеская
белавія
белага
белае
белаз
белазаровіч
белаи
белапан
белару
беларус
беларуса
беларусазнау
беларусам
беларусамі
беларусау
беларусбанк
беларуси
беларуска
беларускага
беларускае
беларускаи
беларускамоу
беларускаму
беларуская
беларуску
беларускую
беларускі
беларускім
беларускімі
беларускіх
беларускія
беларуснафта
беларусцы
беларусы
беларусь
беларусьсю
беларусьфільм
беларусяи
беларусі
беларусізацыі
беларусіка
беларусістау
беларусістыкі
беласток
беластоку
беластоцкага
беластоцкае
беластоцкаи
беластоцкая
беластоцкі
беластоцкім
беласточчыне
белаэс
белая
белгазета
белгарад
белеу
белкамунмаш
белкартаграфія
белкартография
белниидад
белорус
белорусов
белоруссии
белоруссия
белорусская
белорусские
белорусскии
белорусских
белорусско
белорусского
белорусское
белорусскои
белорусы
белпошта
белсат
белсэ
белта
белтэлекам
белтэлерадые
белую
белшына
белшыну
белы
белыи
белым
белымі
белых
белыя
бельск
бельскага
бельску
бельскі
бельскім
белэн
беліца
беліцк
беліцкага
беняконі
бераг
берага
берагавая
берагавои
берагам
берагах
берагоу
берагох
берагу
берагі
беразе
беразоу
бераставіца
бераставіцкага
бераставіцкі
бераставіцкім
бераставіцы
берасцеи
берасьце
берасьцеи
берасьцем
берасьця
берасьці
бере
березинского
берестовицкого
беспадстау
беспарадкау
беспарадкі
беспартыи
беспасьпяхова
беспасярэдне
беспрацоу
бессэнсоу
бесьперапынна
бесьпіле
бешанковіцкага
бешанковіцкім
бешанковічы
бжастоу
библиотека
биографическии
биография
бк
бка
бл
блакітнага
блакітнаи
блакітная
блакітны
блакітным
блакітныя
блам
блаславе
бласьць
бле
блог
блогер
блок
блытаць
блэи
блэк
блэкбэрн
блэкгокс
блю
блюз
блюзу
блякаду
бліжэи
блізка
блізкага
блізкае
блізкаи
блізкасьць
блізкасьці
блізкая
блізкі
блізкім
блізкімі
блізкіх
блізкія
блізу
бліка
блікі
бліны
бм
бма
бмв
бмп
бнбк
бнк
бнп
бнр
бнс
бнф
бо
боб
бобр
бобруи
бобі
бог
бога
богам
богаяу
богдан
богу
богуш
богушевичского
боепрыпасамі
боепрыпасау
боепрыпасы
божа
божага
божае
божаи
божая
божы
божым
бои
бок
бока
бокам
бокс
боку
бокі
бол
более
болеи
болтан
боль
больш
большага
большае
большаи
большасьць
большасьцю
большасьці
большая
больше
большои
большую
большы
большым
большымі
большых
большыя
болю
бомба
бомбу
бомбы
бон
бона
бонда
бондаренко
бонус
боны
бор
борис
боркі
борт
бору
борце
борці
борьба
боскага
боскаи
бостан
босьнія
босьніі
боу
боцеу
боцькі
бою
бпц
бра
брагин
брагинского
брагинщина
брагін
брагіна
брагінскага
брагінскаи
брагінскі
брагінскім
бразыльскага
бразыльскі
бразылію
бразылія
бразыліі
браи
брак
бракгау
браку
брала
бралі
брама
брамаи
брамамі
брамау
браме
брамнік
брамніка
брамнікам
брамнікау
браму
брамы
брандэнбург
брандэнбургу
бранск
бранскага
бранскаи
бранская
бранску
бранскі
брансу
бранябои
брані
браніслава
браніслау
браслава
браслау
брат
брата
братам
братамі
братоу
брату
браты
братэрская
братэрства
брау
брацкаи
брацкая
брацлау
брацтва
браць
браціслава
браціславе
браціславы
браціслау
брашуры
браян
брест
брестская
брестскии
брестского
брестскои
брз
брно
бровар
бровки
брод
бродау
бродецкого
брокгауз
брокгауза
брому
бронза
бронзавага
бронзавая
бронзавы
бронзавым
бронзавыя
бронзы
броу
брсм
бруге
брук
бруклін
бруна
брус
брусэль
брусэлі
бруінз
брыгада
брыгадаи
брыгадзе
брыгаду
брыгады
брыгітак
брыле
брыль
брыля
брылі
брыт
брытанскага
брытанскае
брытанскаи
брытанская
брытанскую
брытанскі
брытанскім
брытанскімі
брытанскіх
брытанскія
брытанцау
брытанцы
брытанія
брытаніі
брыґада
брыґады
брэд
брэи
брэнд
брэндам
брэст
брэсцкаи
брэсцкая
бса
бсг
бсрг
бсср
бт
бтр
бу
бубнач
бубны
буг
буга
бугае
бугом
бугу
буда
будавалася
будавалі
будаваліся
будаваньне
будаваньня
будаваньні
будавау
будавацца
будаваць
будапэшт
будапэшту
будапэшце
будау
будет
будзе
будзем
будзь
будзьма
будкевіч
будкін
буднага
будны
будні
будова
будове
будову
будовы
будоу
будслау
буду
будуе
будуецца
будуць
будучага
будучае
будучаи
будучая
будучы
будучым
будучыню
будучыня
будучыні
будучых
будучыя
будуюцца
будуюць
буды
будызм
будызму
будыи
будынак
будынка
будынкам
будынкамі
будынкау
будынках
будынку
будынкі
буи
бук
букавіны
була
булак
булгак
булгакау
буле
булыка
бульба
бульбу
бульбы
бульвар
бум
бундэстаг
бундэстагу
бундэсьлігу
бундэсьлігі
бундэсьлізе
бунт
бунтау
бунту
бура
бурага
буракоу
буракі
бурау
бург
буркіна
бурундзі
бурштын
буры
бус
буса
бусау
бусел
бусы
бутаваи
бутан
бутану
бутэлькі
бухарэст
бухарэсьце
бухты
буш
буша
бушлякоу
буэнас
бхд
бцр
бчб
бы
бывае
бываи
бывау
бываюць
быдла
бык
быкава
быкау
быкоу
был
была
былая
были
было
былога
былое
былои
былому
былую
былы
былым
былымі
былых
былыя
былі
быстрыца
быт
бытавога
бытавых
быть
быу
быхаве
быхау
быццам
быць
быцьце
быцьця
бышау
бэ
бэи
бэк
бэл
бэла
бэльгіи
бэльгію
бэльгія
бэльгіі
бэн
бэнд
бэнджамін
бэнзін
бэнкс
бэнфіка
бэнэдыкт
бэнэдыкта
бэнэдыктынак
бэніта
бэр
бэрклі
бэрлін
бэрліна
бэрліне
бэрлінскага
бэрлінскаи
бэрлінскі
бэрлінскім
бэрліну
бэрн
бэрнар
бэрнард
бэрнарда
бэрнардынак
бэрнардынау
бэрт
бэры
бэсарабіі
бэт
бэта
бэтону
бэтыс
бюджэт
бюджэтау
бюджэтных
бюджэту
бюджэце
бюлетэнь
бюро
бюст
бягучы
бяднеи
бядуля
бядулі
бяз
бязь
бялград
бялградзе
бялграду
бяле
бялкоу
бялку
бялкі
бялова
бялок
бялыніцкага
бялыніцкі
бялыніцкім
бялынічы
бяляеу
бяляцкі
бялізны
бялінскі
бяро
бяроза
бярозавы
бярозавыя
бярозау
бярозе
бярозка
бярозкі
бярозы
бяруцца
бяруць
бярэ
бярэзань
бярэзіна
бярэзіне
бярэзінскага
бярэзінскі
бярэзінскім
бярэзіну
бярэзіны
бярэцца
бяседа
бясконца
бясплатна
бясплатны
бясьпека
бясьпеку
бясьпекі
бясьпецы
бі
біблеи
бібліе
бібліи
біблію
біблія
бібліягр
бібліяграфічны
бібліяграфія
бібліяграфіі
бібліятэк
бібліятэка
бібліятэкаи
бібліятэках
бібліятэку
бібліятэкі
бібліятэцы
бібліі
бігік
біе
бізантыи
бізантыі
бізнэс
бізнэсе
бізнэсовец
бізнэсоу
бізнэсу
біл
біла
білоруського
більба
більбао
білі
бін
бінім
біржа
біржавы
біржаи
біржау
біржах
біржу
біржы
бірмінггэм
бірыла
бісау
біскуп
біскупа
біскупам
біскупау
біскупства
біскупу
біскупы
біт
бітва
бітваи
бітвау
бітвах
бітве
бітву
бітвы
біу
біцьця
біч
бічэль
біябібліяграфічны
біяграфічны
біяграфічныя
біяграфія
біяграфіі
біяле
біялягічнаи
біялягічны
біялягічных
біялягічныя
біятле
біятляніст
біятляністка
біятэхнале
біяфізыкі
біяхіміі
бѣлорусскихъ
в
ва
вабішчэвіч
ваве
ваг
вага
вагаецца
вагаи
ваганьняу
ваганьні
вагау
вагнэр
вагнэра
вагои
вагон
вагона
вагонау
вагонах
вагоны
вагу
вагі
вада
вадае
вадазбор
вадазбору
вадаплау
вадарод
вадароду
вадаспад
вадасховішча
вадасховішчау
вадасховішчы
вадзе
вадзянога
вадзяны
вадзяных
вадзяныя
вадзім
вадзіма
вадим
вадкасьць
вадкасьці
вадкі
вадкіх
вадои
вадою
ваду
вады
вае
ваенна
ваеннага
ваеннае
ваеннаи
ваеннапалонных
ваенная
ваенную
ваенны
ваенным
ваеннымі
ваенных
ваенныя
ваецца
важае
важаны
важаць
важна
важнае
важнаи
важнасьць
важнасьці
важная
важнеи
важную
важны
важным
важнымі
важных
важныя
важылі
важыу
важыць
ваза
вазе
вазоу
вазы
ваи
вак
вакал
вакальна
вакаліст
вакаліста
вакалістам
вакарэи
вакзал
вакзала
вакзалау
вакзалу
вакна
вакно
вакол
ваколіцау
ваколіцах
ваколіцы
вакуу
вал
вала
валагодзкаи
валадар
валадара
валадараньня
валадарскага
валадарства
валажынскі
валам
валамі
валасная
валасоу
валасы
валася
валахановіч
валахіі
вале
валеи
валенсіи
валенсія
валенсіі
валентина
валенштаи
валер
валера
валерии
валеры
валерыи
валерыя
валеу
вало
валовіч
валовіча
валовічау
валодае
валодала
валодалі
валоданьне
валоданьня
валоданьні
валодау
валодаць
валодаюць
валожын
валожынскага
валожынскі
валожынскім
валок
валокнау
валокі
валоу
валошын
валун
валуноу
валуны
валы
валынскага
валынскае
валынскаи
валынская
валынскі
валынскім
валынь
валыні
валь
вальмавым
вальны
вальс
вальтэр
вальтэра
валют
валюта
валютаи
валютамі
валютау
валютнага
валютны
валютным
валюту
валюты
валюце
валянцін
валянціна
валяр
валі
валіи
валіся
вам
вамі
ван
ванда
вандроу
ванкувэр
ванкувэры
вануату
вань
ваньковіч
ваньковічау
ваньне
ваньнем
ваньня
ваньні
вар
вараб
варанец
варанецкі
вараць
варашылава
варваліся
варваньне
варваньня
вармінска
варнянскім
варожасьці
варожых
варожыя
варонеж
варонескаи
варонка
варонскі
вароты
варта
вартасьць
вартасьцю
вартасьці
вартау
варту
варты
варце
варшава
варшаваи
варшаве
варшаву
варшавы
варшау
варыянт
варыянтам
варыянтау
варыянтах
варыянту
варыянты
варыянце
варыяцыі
вас
васабленьне
васалам
василии
василь
васильевич
васкрасеньня
васьме
васьмярык
васьмі
васі
васіле
васілевіч
васілевічы
васілеу
васіль
васільевіч
васільеу
васілька
васількоу
васілю
васіля
васілішкау
васілішкі
ват
ватыкан
ватыкану
вау
ваход
ваходжаньня
ваходзе
ваходзяць
ваходзіла
ваходзілі
ваходзіу
ваходзіць
ваходу
ваходы
вацлава
вацлавам
вацлау
вацца
ваць
вачах
вачыма
вачэи
ваш
вашкевіч
вашынгтон
вашынгтона
вашынгтоне
ваюцца
ваюць
ваючы
ваючыся
вая
ваявалі
ваявау
ваяваць
ваявода
ваяводам
ваяводау
ваяводзтва
ваяводзтвау
ваяводзтве
ваяводзтвы
ваяводства
ваяводу
ваяводы
ваяр
ваяроу
ваяры
ваяу
вбі
вв
введение
ве
веб
ведае
ведаем
ведала
ведалі
ведама
ведамасьці
ведамства
ведамствау
ведамі
веданьне
ведау
ведаць
ведаю
ведаюць
ведаючы
ведзена
ведзеная
ведзены
ведзеныя
ведомости
веды
вежа
вежавая
вежаи
вежамі
вежау
вежу
вежы
веи
век
века
веков
веку
великая
великии
великого
великои
вельмі
велізарнаи
велізарная
велізарную
велізарны
велізарныя
веліч
велічыне
велічынь
велічыню
велічыня
велічыняу
велічыні
вена
вене
венскага
венскаи
венская
венскі
венскім
вену
вены
вера
вераб
верабеи
вераваньняу
веравызнаньня
веравызнаньняу
верагодна
верагоднасьць
вераи
вераніка
верас
верасень
верасня
верасьне
верасьня
верасьні
вераць
вернасьць
вернецца
вернулся
вернутая
вернуты
вернутыя
верны
вернікам
вернікамі
вернікау
вернікі
версе
версия
вертале
веру
верх
верхнее
верхнюю
верхняга
верхняе
верхняи
верхняя
верхні
верхнім
верхніх
верхнія
верхов
верховного
верховноі
верш
верша
вершаванаи
вершаваны
вершаваных
вершаваныя
вершам
вершамі
вершау
вершах
вершнік
вершніка
вершнікау
вершу
вершы
веры
верыу
верыць
веснавы
весну
веснік
вестак
вести
весткі
вестник
весці
весь
весьнік
весьці
весялоу
ветка
веткау
ветракі
ветрам
ветраны
ветру
вецер
веча
вечар
вечара
вечарам
вечары
вечарыны
вече
вечернии
вечна
вечнага
вечнае
вечназяле
вечны
вечныя
взаимодеи
взгляд
вибори
вид
видавництво
видання
видатних
видео
виктор
виленскои
виленскою
вильна
вильнюс
вип
виталии
витебск
витебская
витебскии
витебского
витебскои
вк
вкл
вконтакте
вкп
владимир
владимирович
владислав
власти
власть
вмс
вмф
вну
внутренних
во
вобл
воблака
вобласць
вобласці
вобласьць
вобласьцю
вобласьцяу
вобласьцях
вобласьці
вобраз
вобраза
вобразам
вобразау
вобразе
вобразу
вобразы
вогнішча
вогнішчы
вогуле
вод
вода
водазабесьпячэньня
водамі
водар
водау
водах
водгук
водгукау
водгукі
водзяцца
водзіцца
водзіць
водна
воднага
воднаи
водная
водны
водные
водным
воднымі
водных
водныя
воду
воды
воениздат
военная
военно
военные
военныи
вожык
воз
возглавил
возера
возерам
возеры
вои
вока
вокам
вокладкі
вокладцы
вокнамі
вокнау
вокны
вокруг
волава
воласьць
воласьцяу
воласьці
волат
волга
волгі
волкау
волковысского
волма
володимир
волости
вольга
вольгаи
вольгі
вольна
вольнага
вольнае
вольнаи
вольнасьці
вольная
вольную
вольны
вольным
вольных
вольныя
вольскага
вольскі
вольф
вольфа
вольфганг
вольфсбург
волю
воля
волі
вонкава
вонкавага
вонкавае
вонкаваи
вонкавая
вонкавы
вонкавым
вонкавых
вонкавыя
вонкі
воп
вопратка
вопратку
вопраткі
вопратцы
вопрос
вопросах
вопросов
вопросу
вопросы
вопыт
вопыту
вораг
ворага
ворагам
ворагамі
ворагау
ворагі
воранау
вороновского
ворша
воршаи
воршу
воршы
ворыва
восава
восау
восем
восень
восеньню
восені
воспоминания
восточнои
востра
вострава
востравам
востраве
востраву
востраи
вострау
вострая
востры
вострыя
вось
восьмы
восьсю
восі
восіп
воу
вочы
вояджэр
воєводства
воін
воінау
впс
времени
время
вс
все
всего
всероссии
всеукраі
всех
вступ
вськии
вського
вт
втб
вторая
второи
ву
вуг
вугал
вугаль
вугалю
вуглы
вугля
вугляроду
вугорскага
вугорскае
вугорскаи
вугорская
вугорску
вугорскую
вугорскі
вугорскім
вугорскіх
вугорскія
вугорцау
вугорцы
вугоршчына
вугоршчынаи
вугоршчыне
вугоршчыну
вугоршчыны
вузау
вузел
вузкаи
вузкакалеи
вузкая
вузкі
вузкім
вузкімі
вузкіх
вузкія
вузла
вузлом
вузлоу
вузлы
вузы
вуи
вул
вулька
вулькан
вулькана
вульканау
вулькану
вуліц
вуліца
вуліцаи
вуліцам
вуліцамі
вуліцау
вуліцах
вуліцу
вуліцы
вулічных
вулічныя
вуніі
вуп
вуснаи
вусны
вусы
вусьце
вусьць
вусьця
вусьці
вусякоу
вуха
вучань
вучне
вучнем
вучня
вучнямі
вучняу
вучні
вучобу
вучобы
вучонага
вучоны
вучоных
вучоныя
вучылася
вучыліся
вучылішча
вучылішчы
вучыу
вучыцца
вучыць
вучэб
вучэбна
вучэбны
вучэбных
вучэльню
вучэльня
вучэльняу
вучэльні
вучэньне
вучэньня
вучэньняу
вучэньнях
вучэньні
вушы
вую
вчк
въ
вы
выбар
выбарам
выбарамі
выбарау
выбарах
выбарнікау
выбару
выбарцау
выбарчага
выбарчае
выбарчаи
выбарчая
выбарчы
выбарчых
выбарчыя
выбаршчыкау
выбары
выбранае
выбраная
выбраны
выбраных
выбраныя
выбрау
выбраць
выбух
выбухам
выбухау
выбухнула
выбухоу
выбуху
выбухі
выбыу
выбірае
выбіраецца
выбірау
выбіраць
выбіраюцца
выбітнага
выбітнеи
выбітны
выбітным
выбітных
выбітныя
выбіты
вывад
вываду
вываз
вывазу
выведзены
выведзеныя
выведка
выведку
выведкі
выведнік
вывезены
вывезеныя
вывезьлі
вывелі
вывесьці
вывеу
выводзіу
выводзіцца
выводзіць
вывучае
вывучаецца
вывучала
вывучалі
вывучау
вывучаць
вывучаюць
вывучыу
вывучыць
вывучэння
вывучэньне
вывучэньнем
вывучэньню
вывучэньня
вывучэньні
вывяржэньне
выгляд
выглядае
выглядам
выглядау
выглядаюць
выглядзе
выгляду
выгналі
выгнаны
выгнаныя
выгнаньне
выгнаньня
выгнаньні
выгнау
выгрузка
выд
выдавала
выдавалася
выдавалі
выдаваліся
выдавау
выдавацца
выдаваць
выдавец
выдавецкае
выдавецкаи
выдавецкая
выдавецкую
выдавецкі
выдавецтва
выдавецтвам
выдавецтвау
выдавецтве
выдавецтвы
выдадзена
выдадзенага
выдадзенаи
выдадзеная
выдадзены
выдадзеным
выдадзеных
выдадзеныя
выдае
выдаецца
выдала
выдалены
выдаленьне
выдаленьня
выдалі
выданне
выданьне
выданьнем
выданьня
выданьнямі
выданьняу
выданьнях
выданьні
выдатак
выдаткау
выдаткоу
выдаткі
выдатна
выдатнаи
выдатная
выдатную
выдатны
выдатным
выдатных
выдатныя
выдатнік
выдау
выдаць
выдача
выдачу
выдачы
выдаюцца
выдающихся
выдзелены
выдзяляюцца
выдзяляюць
выезд
выезду
выезьдзе
выехала
выехалі
выехау
выехаць
выжываньне
выжыу
выжыць
вызвалена
вызваленая
вызваленчага
вызваленчаи
вызвалены
вызваленыя
вызваленьне
вызваленьня
вызваленьні
вызваляе
вызваліла
вызвалілі
вызваліу
вызваліць
вызвольнага
вызвольным
вызнаньня
вызначае
вызначаецца
вызначала
вызначалася
вызначалі
вызначаліся
вызначана
вызначанага
вызначанаи
вызначаная
вызначаную
вызначаны
вызначаным
вызначаных
вызначаныя
вызначау
вызначаць
вызначаюцца
вызначаюць
вызначыла
вызначылі
вызначыліся
вызначыу
вызначыць
вызначэньне
вызначэньнем
вызначэньня
вызначэньні
вызнаюць
выи
выказала
выказалі
выказаліся
выказау
выказаць
выказвае
выказвалася
выказвалі
выказваліся
выказваньне
выказваньня
выказваньні
выказвау
выказьнік
выкана
выканала
выканалі
выканана
выкананаи
выкананая
выкананы
выкананыя
выкананьне
выкананьнем
выкананьню
выкананьня
выкананьні
выканау
выканаць
выканкам
выканкама
выканкаму
выканкома
выканкому
выкапне
выкапняу
выкапні
выкарысталі
выкарыстана
выкарыстаная
выкарыстаны
выкарыстаныя
выкарыстаньне
выкарыстаньнем
выкарыстаньня
выкарыстаньні
выкарыстау
выкарыстаць
выкарыстоу
выкладае
выкладаецца
выкладала
выкладалі
выкладаньне
выкладаньня
выкладау
выкладаць
выкладзены
выкладзеныя
выкладнік
выкладнікам
выкладнікау
выкладчык
выкладчыка
выкладчыкам
выкладчыкау
выкладчыкі
выклау
выключае
выключана
выключаны
выключаныя
выключна
выключылі
выключыць
выключэньне
выключэньнем
выключэньня
выключэньні
выклік
выклікае
выклікаецца
выклікала
выклікалі
выклікана
выкліканая
выкліканы
выкліканых
выкліканыя
выклікау
выклікаць
выклікаюць
выкліку
выконвае
выконваецца
выконвала
выконвалася
выконвалі
выконваліся
выконвау
выконваць
выконваюцца
выконваюць
выконваючы
выкраданьне
выкуп
выкупу
выкупіу
вылету
вылецеу
вылучае
вылучаецца
вылучалася
вылучаліся
вылучана
вылучаная
вылучаны
вылучаныя
вылучау
вылучаюцца
вылучаюць
вылучыла
вылучылася
вылучылі
вылучыу
вылучыць
вылучэнцау
вылучэньне
вылучэньня
вылучэньні
вылічальнаи
вылічэньне
вылічэньня
вылічэньні
вым
вымау
вымусіла
вымусілі
вымушана
вымушаная
вымушаны
вымушаныя
вымяраецца
вымярэньне
вымярэньня
вымярэньняу
вымярэньні
вымі
выміраньня
вынаи
вынаходзтва
вынаходнік
вынаходніцтва
вынес
выносіць
выняткам
выняткова
вынік
вынікае
вынікам
вынікамі
вынікау
выніках
выніку
вынікі
вып
выпадае
выпадак
выпадкау
выпадках
выпадкова
выпадку
выпадкі
выплатау
выплату
выплаты
выплаціць
выпрабаваньне
выпрабаваньня
выпрабаваньняу
выпрабаваньні
выпрабоу
выправе
выправу
выправы
выправіу
выправіць
выпраменьваньне
выпраменьваньня
выпрау
выпрацоу
выпуск
выпускае
выпускаецца
выпускала
выпускалі
выпускаліся
выпускау
выпускаць
выпускаюцца
выпускнік
выпускнікоу
выпускнікі
выпуску
выпускі
выпусьціла
выпусьцілі
выпусьціу
выпусьціць
выпушчана
выпушчаная
выпушчаны
выпушчаных
выпушчаныя
выраб
вырабам
вырабау
вырабе
выраблена
вырабленая
выраблены
вырабленыя
вырабляе
вырабляецца
вырабляла
выраблялася
выраблялі
вырабляліся
вырабляу
вырабляць
вырабляюцца
вырабляюць
вырабу
вырабы
вырабілі
вырабіу
выражае
выражаецца
выраз
выразам
выразау
выразна
выразнаи
выразная
выразныя
выразу
выразы
вырак
выраку
вырас
вырасла
вырасьлі
выратавала
выратаваньне
выратаваньня
выратавау
выратаваць
вырау
вырашае
вырашана
вырашаны
вырашаць
вырашаюць
вырашыла
вырашылі
вырашыу
вырашыць
вырашэньне
вырашэньня
вырашэньні
вырошчваецца
вырошчваньне
вырошчваньня
вырошчваньні
вырошчваюць
выручка
выручкі
высадзіу
высадкі
высакосны
высакосным
выслалі
высланае
высланы
выслау
выслоу
выснову
высновы
высо
высока
высокага
высокае
высокаи
высокапастау
высокау
высокая
высокогорского
высокую
высокі
высокім
высокімі
высокіх
высокія
высоу
высоцкі
высочаи
выспа
выспаи
выспамі
выспау
выспах
выспу
выспы
выстава
выставау
выставах
выставе
выставу
выставы
выставіу
выставіць
выстау
выступ
выступае
выступала
выступалі
выступам
выступамі
выступау
выступах
выступаць
выступаюць
выступаючы
выступе
выступленьне
выступленьня
выступленьняу
выступленьні
выступу
выступы
выступіла
выступілі
выступіу
выступіць
высунуу
высылкі
высьветлілася
высьветліць
высьвечаны
высьвятляецца
высьвячаны
высьмеи
высьпе
высілкі
вытворных
вытворныя
вытворца
вытворцам
вытворцау
вытворцы
вытворча
вытворчага
вытворчае
вытворчаи
вытворчасьць
вытворчасьцю
вытворчасьці
вытворчая
вытворчы
вытворчых
вытворчыя
выток
вытокау
вытоку
вытокі
вытрымала
вытрымау
вытрымкі
вых
выхаванец
выхаванцам
выхаваньне
выхаваньня
выхаваньні
выхавау
выхад
выхадам
выхадзе
выхаду
выхадцау
выхадцы
выходзяць
выходзіла
выходзілі
выходзіу
выходзіць
выходныя
выхоу
выцягнутая
выцягнуты
выцякае
выш
вышук
вышуковае
вышуку
вышыне
вышыню
вышыня
вышыняу
вышынях
вышыні
вышыу
вышэи
выя
выява
выяваи
выявамі
выявау
выяве
выяву
выявы
выявіла
выявілася
выявілі
выявіліся
выявіу
выявіць
выяу
вэ
вэб
вэгас
вэгетацыи
вэдыи
вэи
вэктар
вэктару
вэн
вэнэра
вэнэры
вэнэсуэла
вэнэсуэле
вэнэсуэлы
вэнэцыя
вэнэцыі
вэр
вэргіліюса
вэрдзі
вэрдэ
вэрмахту
вэрнэр
вэрсіи
вэрсію
вэрсія
вэрсіяи
вэрсіяу
вэрсіях
вэрсіі
вэртыкальна
вэртыкальнаи
вэртыкалі
вэртэра
вэс
вэст
вэстготау
вэстфалія
вэтэран
вэтэранау
вэтэрынарны
вэтэрынарыі
вюртэмбэрг
вядзе
вядзеньне
вядзеньня
вядзеньні
вядзецца
вядома
вядомага
вядомае
вядомаи
вядомасьць
вядомая
вядомеи
вядомую
вядомы
вядомым
вядомымі
вядомых
вядомыя
вядоу
вядуцца
вядуць
вядучаи
вядучая
вядучы
вядучым
вядучых
вядучыя
вяз
вязау
вязень
вязынка
вязьнем
вязьнямі
вязьняу
вязьні
вязьніцу
вязьніцы
вяи
вякоу
вяла
вялася
вяле
вялеи
вялес
вяло
вялося
вяль
вяльля
вяльлі
вялі
вяліж
вялізны
вялізныя
вялікабрытанію
вялікабрытанія
вялікабрытаніяи
вялікабрытаніі
вялікага
вялікадня
вялікае
вялікаи
вялікалітоу
вялікаму
вялікасьці
вялікая
вялікдзень
вялікую
вялікшаи
вялікшая
вялікшы
вялікшым
вялікшых
вялікшыя
вялікі
вялікім
вялікімі
вялікіх
вялікія
вяліся
вялічка
вянок
вярнула
вярнулася
вярнулі
вярнуліся
вярнуу
вярнуцца
вярнуць
вяроу
вяртае
вяртаецца
вярталіся
вяртанне
вяртаньне
вяртаньнем
вяртаньня
вяртаньні
вяртау
вяртацца
вяртаюцца
вяртаючыся
вярхоу
вярцінскі
вярчэньня
вяршыню
вяршыня
вяршыняи
вяршыняу
вяршыні
вяршэнства
вярэи
вярэнау
вясе
вясельле
вясельля
вясковага
вясковаи
вясковая
вясковы
вясковых
вясковыя
вяскоу
вясна
вяснои
вясною
вясну
вясны
вятрак
вятроу
вятры
вячаслава
вячаслау
вячеслав
вячорка
вячоркі
вячэра
вячэрні
вячэры
вяшчае
вяшчаньне
вяшчаньня
ві
віа
вівальдзі
від
віда
відавочна
відавочнаи
відавочным
відам
відамі
відау
відах
відаць
відео
відзау
відзы
відзэмэ
віду
віды
відэа
відэазапіс
відэакліп
віе
віетнам
віетнаме
віетнамскаи
віетнаму
віжа
візы
візыт
візытам
візыту
віи
вік
віка
вікарыем
вікарыи
віктар
віктара
віктаравіч
віктарам
віктор
вікторыя
вікторыі
віку
вікі
вікімэдыя
вікінг
вікінгау
вікіпэдыя
вікіпэдыі
віла
вілает
вілаетау
вілеи
вілем
віленскага
віленскае
віленскаи
віленскаму
віленская
віленскую
віленскі
віленскім
віленскіх
віленскія
віленшчыне
віленшчыны
вілы
вільгаці
вільгельм
вільгельма
вільготнасьць
вільготны
вільготным
вільготных
вільгэльм
вільню
вільня
вільняи
вільні
він
віна
вінавальны
вінаватым
вінаград
вінаградау
вінаграду
вінакурны
вінакурня
віно
вінтоу
віну
вінцук
вінцэнт
вінцэнта
вінчы
віны
віньніцкаи
вінэр
вініпэг
вір
вірджынія
вірджыніі
віртуальнаи
віртуальная
віртуальны
віртуальных
вірус
віруса
вірусам
вірусау
вісконці
віскі
вісла
віслоцкі
віслы
вісьбю
віта
віталь
віталя
вітамін
вітамінау
вітаміны
вітау
вітгенштэи
вітольд
вітушка
віцебск
віцебска
віцебскага
віцебскае
віцебскаи
віцебскам
віцебская
віцебску
віцебскую
віцебскі
віцебскім
віцебшчыне
віцебшчыны
віцкі
віцьбіч
віцэ
віцязь
віч
вічы
вішне
вішнеу
вішнявецкага
вішнявецкі
вішнявецкіх
г
га
гаага
габрусь
габрыель
габрыэль
габрэи
габрэям
габрэямі
габрэяу
габрэі
габсбург
габсбургау
гаваи
гавань
гавані
гавары
гаварылася
гаварыу
гаварыць
гаваі
гаворак
гавораць
гаворка
гаворках
гаворку
гаворкі
гаворцы
гаворыцца
гаворыць
гага
гагарына
гадавау
гадавая
гадавога
гадавои
гадавы
гадавых
гадавіну
гадавіны
гадамі
гадах
гадз
гадзін
гадзіна
гадзінау
гадзіне
гадзіну
гадзіны
гадзіньнік
гадзіньнікаваи
гадзіньнікау
гадлеу
гадовага
гадоваи
гадовая
гадовую
гадовы
гадовым
гадоу
гадох
гады
гае
гаеу
газ
газа
газаваи
газавых
газавыя
газам
газау
газдава
газе
газета
газеты
газпрам
газу
газы
газэт
газэта
газэтаи
газэтау
газэтах
газэту
газэты
газэце
гаи
гал
гала
галава
галаве
галавои
галаву
галавы
галадоу
галакост
галакосту
галамі
галасаваньне
галасаваньнем
галасаваньня
галасаваньні
галасаваць
галасамі
галасоу
галасы
галатасараи
галау
гале
гален
галерэю
галерэя
галерэяи
галерэі
галечы
галовы
галоснага
галоснаи
галосны
галосным
галоснымі
галосных
галосныя
галоу
галубка
галубовіч
галы
галынка
гальфстрым
гальцы
гальшанскі
гальшаны
гальштаи
галяктык
галяктыка
галяктыкі
галяндзкаи
галяндзкі
галяндыя
галяндыі
галілеи
галін
галіна
галінамі
галінау
галінах
галіне
галінкі
галінои
галіну
галіны
галісіи
галісіі
галіцка
галіцкі
галіцыі
галічыне
галічыны
галіяфы
галіі
гам
гама
гамбург
гамбургу
гамлет
гамэра
гамі
гамільтан
ган
гана
ганам
ганаровага
ганаровае
ганароваи
ганаровая
ганаровы
ганаровым
ганаровых
ганаровыя
гандаль
гандбаліст
гандбол
гандболе
гандбольнаи
гандбольны
гандзі
гандле
гандлем
гандлю
гандлявалі
гандляваць
гандляр
гандляра
гандляроу
гандляры
гандлі
гандурас
ганзеи
ганконг
ганконга
ганконгу
ганна
ганнаи
ганну
ганны
гановэр
ганс
ганса
ганцавіцкага
ганцавіцкі
ганцавіцкім
ганцавічы
ганчар
ганчароу
ганчары
ганы
ганістан
ганістане
ганістану
гапоненка
гар
гара
гарад
гарада
гарадам
гарадамі
гарадах
гараддзел
гарадзе
гарадзеи
гарадзенскага
гарадзенскае
гарадзенскаи
гарадзенская
гарадзенскую
гарадзенскі
гарадзенскім
гарадзенскіх
гарадзеншчыне
гарадзеншчыны
гарадзец
гарадзецкага
гарадзечна
гарадзея
гарадзеі
гарадзкая
гарадзкога
гарадзкое
гарадзкои
гарадзкую
гарадзкі
гарадзкім
гарадзкімі
гарадзкіх
гарадзкія
гарадзі
гарадзішча
гарадзішчанскага
гарадзішчанскі
гарадзішчы
гарадку
гарадок
гарадоу
гарадох
гарадоцкага
гарадоцкі
гарадоцкім
гарадскага
гарадскога
гараду
гарады
гаральд
гаральда
гарамі
гарантавала
гарантыі
гарау
гарах
гарачае
гарачаи
гарачы
гарачым
гарачых
гарачыя
гарбата
гарбаты
гарбацкі
гарбачоу
гарвыканкам
гарвыканкаму
гард
гардзі
гардзіенка
гардзіцкі
гаркаму
гармат
гармата
гарматаи
гарматау
гарматы
гармонік
гармонія
гармоніі
гарнізон
гарнізону
гародзкаи
гародня
гародні
гародніна
гародніны
гарои
гарошка
гарскага
гарскае
гарскаи
гарская
гарску
гарскую
гарскі
гарскім
гарскіх
гарскія
гарсія
гарт
гару
гаруле
гары
гарызантальна
гарызантальнаи
гарызантальных
гарызонт
гарыи
гарыкеи
гарыс
гарысан
гарыць
гарыя
гарыяи
гарыі
гарэлка
гарэлку
гарэлкі
гарэцкага
гарэцкі
гас
гаса
гасе
гасеу
гаспадар
гаспадара
гаспадарак
гаспадарамі
гаспадараньня
гаспадарка
гаспадаркаи
гаспадарку
гаспадаркі
гаспадаром
гаспадароу
гаспадарскі
гаспадарства
гаспадару
гаспадарцы
гаспадарча
гаспадарчага
гаспадарчае
гаспадарчаи
гаспадарчая
гаспадарчы
гаспадарчым
гаспадарчымі
гаспадарчых
гаспадарчыя
гаспадары
гаспадыня
гаспадыні
гасподняга
гасу
гасцінец
гасьце
гасьцеи
гасьцявым
гасьцях
гасьцінец
гасьцінцы
гасьціны
гасьцініца
гасьцініцы
гатаваньня
гатня
гатовая
гатовы
гатовыя
гатоу
гатунак
гатункау
гатунку
гатункі
гатуюць
гаты
гатычнага
гатычнаи
гатычная
гатычны
гатычным
гатэль
гатэлю
гатэлі
гау
гах
гаштольд
гая
гаіці
гб
гвалт
гвалтам
гвалтоу
гвалту
гвардзеи
гвардия
гвардыя
гвардыі
гвінэя
гвінэі
гг
гданьск
гданьску
где
ге
геаграфічна
геаграфічнага
геаграфічнае
геаграфічнаи
геаграфічная
геаграфічны
геаграфічным
геаграфічных
геаграфічныя
геаграфію
геаграфія
геаграфіі
геадэзічных
геадэзіі
геале
геалягічны
геалягічных
геалягічныя
геамэтрыя
геамэтрыі
гебіт
гедзімін
гедзіміна
гедрои
гедыміна
геи
гектарау
гель
ген
гена
генадзь
генадзя
генам
генацыд
генацыду
генеалогія
генерал
генерального
генкін
генры
генрык
генрыка
генрых
генрыха
генуі
генэале
генэрал
генэрала
генэралам
генэралау
генэралу
генэральнага
генэральнае
генэральнаи
генэральная
генэральны
генэральным
генэратар
генэтыкі
генэтычна
геніюш
генія
географ
географа
география
геоляг
геоляга
георг
георга
георгі
георгіеу
георгіи
георгія
гера
герадот
герадота
геральдических
геральдыка
геральдыкі
геральдыцы
геральдычны
геране
геранім
гераніма
герархію
герархіі
герасімовіч
гераізм
гераіня
гераіні
герб
герба
гербам
гербау
гербах
гербе
гербоу
гербу
гербы
гервяцкім
герман
германа
германавіцкага
германавічы
германии
германовіч
германскага
германскае
германскаи
германская
германскіх
германскія
германія
германіі
гернсі
героем
герои
герольд
герою
героя
героям
героямі
герояу
героі
герцаг
герцага
герцагавіна
герцагавіне
герцагавіны
герцагам
герцагства
гестапа
гета
гетау
гетман
гетмана
гетманам
гетьмана
гка
гкаатлетка
гкага
гкае
гкаи
гкая
гку
гкі
гкім
гкіх
гкія
гл
глава
главау
главного
главное
главы
глазга
глау
гле
глеб
глеба
глебава
глебазнау
глебау
глебе
глебка
глебу
глебы
гледача
гледачоу
гледачы
гледжаньня
глеи
глен
глобус
глобусе
глуск
глускага
глуску
глускі
глускім
глухау
глухіх
глыб
глыбеи
глыбока
глыбокага
глыбокае
глыбокаи
глыбокая
глыбокую
глыбокі
глыбокім
глыбокімі
глыбокіх
глыбокія
глыбоцкага
глыбоцкі
глыбоцкім
глыбіне
глыбіню
глыбіня
глыбінях
глыбіні
глябальнага
глябальнае
глябальнаи
глябовіч
глядзець
глядзіце
глінау
глінка
глінкі
глінскага
глінскі
гліны
гліняны
глінішча
гмін
гміна
гмінау
гміне
гміны
гнаеньні
гне
гневу
гнеу
гнои
гномау
гномы
гнязда
гняздо
гніламе
го
говін
гогаля
год
года
годам
годдзю
годдзя
годзе
годзьдзе
годзьдзю
годзьдзя
годзьдзі
годи
годкі
годна
годнасьць
годнасьці
годов
году
годы
гои
гол
голад
голаду
голам
голас
голасам
голасу
голдэн
голова
голос
голу
голуб
голубева
голубеу
голыя
гоман
гомасэксуальнасьць
гомель
гомельскага
гомельскае
гомельскаи
гомельская
гомельского
гомельскои
гомельскі
гомельскім
гомельшчыны
гомелю
гомеля
гомелі
гомля
гомлі
гомсельмаш
гон
гонак
гонар
гонару
гонка
гонках
гонкі
гонтавым
гонцы
гоні
гоп
гор
гора
горад
горада
горадабудау
горадам
горадзе
горадню
горадня
горадні
гораду
горам
горау
горах
горацкага
горацкі
горацкім
горваль
гордан
горка
горкага
горкау
горках
горки
горкі
горла
горна
горнага
горнаи
горная
горны
горным
горнымі
горных
горныя
город
города
городов
городского
горскі
гору
горцы
горш
горы
гос
госиздат
гослитиздат
госпада
государства
государственная
государственного
государственное
государственнои
государственныи
госьць
госьці
готау
готлянд
готспур
готыка
готыкі
гоу
гофман
гпу
гр
гра
грабоу
гравау
граве
гравюра
гравюры
гравітацыи
град
града
градау
градусау
грады
грае
граи
грала
гралі
грам
грама
грамада
грамадазнау
грамадамі
грамадау
грамадзе
грамадзка
грамадзкага
грамадзкае
грамадзкаи
грамадзкасьць
грамадзкасьцю
грамадзкасьці
грамадзкая
грамадзкую
грамадзкі
грамадзкім
грамадзкімі
грамадзкіх
грамадзкія
грамадзтва
грамадзтвам
грамадзтве
грамадзян
грамадзянам
грамадзянамі
грамадзянау
грамадзяне
грамадзянска
грамадзянскага
грамадзянскае
грамадзянскаи
грамадзянская
грамадзянскую
грамадзянскі
грамадзянскім
грамадзянскіх
грамадзянскія
грамадзянства
грамадзянін
грамадзяніна
грамадзянінам
грамадска
грамадскі
грамадскія
грамадства
грамаду
грамады
грамата
граматаи
грамату
граматы
граматыка
граматыку
граматыкі
граматыцы
граматычных
граматычныя
грамау
грамаце
грамматика
грамотои
грамыка
гран
гранатаме
гранаты
гранд
грандзі
грандые
гране
границ
граннаи
гранная
гранны
гранным
грант
граных
грані
граніт
граніту
граніца
граніцу
граніцы
грау
граф
графа
графам
графау
графства
графстве
графу
графы
графік
графіка
графікі
графіня
графіні
графіцы
графіці
графічны
графічных
графічныя
грахоу
граць
грашовага
грашоваи
грашовая
грашовую
грашовы
грашовых
грашовыя
грашыма
граюць
грду
грицкевич
гродзенскага
гродзенскаи
гродзенская
гродзенскі
гродзкі
гродна
гродненская
гродненского
гродненскои
гродно
грозау
грознага
грозны
грозным
гросмаи
грош
грошаи
грошау
грошы
гру
груд
грудзе
грудзеи
грудзях
грудзі
грудня
груз
грузавы
грузавых
грузавыя
грузавікоу
грузападымальнасьцю
грузау
грузу
грузы
грузінскага
грузінскаи
грузінская
грузінску
грузінскі
грузію
грузія
грузіяи
грузіі
грунвальд
грунвальдам
грунвальдзкаи
грунвальдзкая
грунт
грунтавалася
грунтоу
грунту
грунтуецца
грунтуючыся
грунце
груп
група
групавога
групавы
групавым
групаи
групамі
групау
групах
групе
груповак
групоу
группа
группы
групу
групы
грушау
грушэу
грушэцкі
гры
грыб
грыба
грыбоу
грыбы
грыгарыянскага
грыгарыянскі
грыгор
грыгорыюс
грызуноу
грын
грынявецкі
грыу
грыцкевіч
грышкевіч
грэи
грэка
грэкамі
грэкау
грэкі
грэм
грэмі
грэнляндыя
грэнляндыі
грэск
грэскага
грэх
грэц
грэцк
грэцка
грэцкага
грэцкае
грэцкаи
грэцкая
грэцку
грэцкую
грэцкі
грэцкім
грэцкіх
грэцкія
грэцыю
грэцыя
грэцыяи
грэцыі
гу
гуанчжоу
губ
губернии
губерния
губернскаго
губернского
губерніи
губерніяхъ
губляе
губэрнатар
губэрнатара
губэрнатарам
губэрнатарау
губэрнатарства
губэрнскага
губэрнскаи
губэрнскі
губэрню
губэрня
губэрняу
губэрнях
губэрні
гуга
гуд
гудагаи
гук
гука
гукавы
гукавых
гукавыя
гукам
гукамі
гукарэжысэр
гукау
гуку
гукі
гулаг
гулец
гульне
гульню
гульня
гульнявога
гульнявои
гульнявы
гульнявых
гульнямі
гульняу
гульнях
гульні
гульца
гульцам
гульцамі
гульцом
гульцоу
гульцу
гульцы
гуляе
гуляла
гулялі
гуляу
гуляць
гуляюць
гуляючы
гуманіст
гуманітарнага
гуманітарнаи
гуманітарны
гуманітарным
гуманітарных
гумар
гумару
гумно
гунау
гур
гуркоу
гурневіч
гурскага
гурскі
гурт
гурта
гуртам
гуртамі
гуртка
гурткоу
гуртку
гурткі
гурток
гуртом
гуртоу
гурту
гурты
гурце
гуры
гусарскі
гусары
гусоу
густ
густа
густава
густам
густау
густоу
густу
густы
густын
густына
гусь
гусьлі
гусі
гусітау
гут
гута
гутарка
гутарковаи
гутаркі
гутэнбэрг
гучала
гучаньне
гучаньня
гучаць
гучыць
гую
гц
гэ
гэві
гэи
гэлена
гэльскаи
гэльская
гэм
гэмінгу
гэнры
гэнрык
гэрбэрт
гэрман
гэры
гэс
гэсэн
гэта
гэтага
гэтае
гэтаи
гэтак
гэтаксама
гэтаму
гэтая
гэтмана
гэту
гэтую
гэты
гэтым
гэтымі
гэтых
гэтыя
гюи
гюнтэр
гі
гібель
гібелі
гігіены
гід
гідралягічны
гідрау
гідраэлектрастанцыя
гіе
гіи
гіка
гікі
гіл
гілары
гілевіч
гіль
гільдыі
гім
гімн
гімна
гімназію
гімназія
гімназіях
гімназіі
гімнам
гімнастыка
гімнау
гімну
гімны
гімі
гінава
гінау
гіндзі
гіндустані
гіне
гінэса
гіп
гіпотэза
гіпотэзау
гіпотэзу
гіпотэзы
гірэя
гіст
гістарычна
гістарычнага
гістарычнае
гістарычнаи
гістарычная
гістарычную
гістарычны
гістарычным
гістарычнымі
гістарычных
гістарычныя
гістарыяграфія
гістарыяграфіі
гісторык
гісторыка
гісторыкам
гісторыкамі
гісторыкау
гісторыкі
гісторыю
гісторыя
гісторыяи
гісторыяу
гісторыі
гіт
гітара
гітары
гітарыст
гітарыста
гітарыстам
гітлер
гітлера
гітлерау
гітоу
гіх
гішп
гішпанскага
гішпанскае
гішпанскаи
гішпанская
гішпанску
гішпанскую
гішпанскі
гішпанскім
гішпанскіх
гішпанскія
гішпанцамі
гішпанцау
гішпанцы
гішпанію
гішпанія
гішпаніяи
гішпаніі
гію
гія
гіяи
гіяу
гіях
гіі
д
да
дабра
дабрабыт
дабрабыту
дабрадзеи
дабрау
дабрацца
дабрачыннага
дабрачыннасьці
дабрачынны
дабро
дабрыне
дабудавалі
дабі
дабіу
дабіцца
дава
даваи
давала
давалася
давалі
давау
даваць
даве
давед
даведаліся
даведау
даведацца
даведваецца
даведка
даведкі
даведнік
даведніку
давер
даверу
давесьці
даводзтвам
даводзілася
даводзіцца
давои
даволі
давы
давыд
давыда
давыдау
давялося
давід
давіда
дагавор
дагавору
дагестан
дагестану
дагон
дагэтуль
дадаваць
дададзеная
дададзены
дададзеныя
дадае
дадаецца
дадалі
даданьнем
даданьня
дадатак
дадаткам
дадаткау
дадаткова
дадатковага
дадатковае
дадатковаи
дадатковая
дадатковую
дадатковы
дадатковым
дадатковымі
дадатковых
дадатковыя
дадатку
дадаткі
дадау
дадаць
дадаюць
дадаізм
дадзена
дадзенага
дадзенае
дадзенаи
дадзеная
дадзены
дадзеным
дадзенымі
дадзеных
дадзеныя
дадому
дае
даецца
дажджоу
дажджу
дажджы
дажынкі
дазваляе
дазваляецца
дазваляла
дазвалялася
дазвалялі
дазваляу
дазваляюць
дазвол
дазволена
дазволу
дазволіла
дазволілі
дазволіу
дазволіць
дазнаньні
даи
дак
даказау
даказаць
даклад
дакладзе
дакладна
дакладнага
дакладнае
дакладнаи
дакладнасьць
дакладнасьцю
дакладнасьці
дакладная
дакладнеи
дакладную
дакладны
дакладным
дакладных
дакладныя
даклады
дакс
дактарантуру
дактароу
дактрыны
дакудау
дакум
дакументальная
дакументальныя
дакументау
дакументы
дакумэнт
дакумэнта
дакумэнтальна
дакумэнтальнага
дакумэнтальная
дакумэнтальны
дакумэнтальных
дакумэнтальныя
дакумэнтам
дакумэнтамі
дакумэнтау
дакумэнтах
дакумэнтацыі
дакумэнту
дакумэнты
дакумэнце
дакія
дал
дала
далага
далаи
далас
далау
дале
далеи
далмацыі
дало
далоні
далося
далучаецца
далучаліся
далучана
далучаная
далучаны
далучаныя
далучау
далучаюцца
далучылася
далучылі
далучыліся
далучыу
далучыцца
далучыць
далучэньне
далучэньня
далучэньні
далы
далым
далых
даль
даляр
даляра
далярау
далі
даліна
далінаи
далінамі
далінах
даліне
даліну
даліны
дам
дама
дамагау
дамагацца
дамаглася
дамагліся
дамагчыся
дамамі
дамаск
дамау
дамах
дамброу
дамеи
дамова
дамоваи
дамовау
дамове
дамову
дамовы
дамовіліся
дамовіу
дамовіцца
дамогся
дамоу
дамы
дамэн
дамэну
дамінга
дамінуе
дамінуюць
дамініе
дамінік
дамініка
дамініканау
дамініканскага
дамініканскаи
дамініканская
дамініканскі
дамініканцау
дан
дана
данава
данаве
данау
данбас
данбасе
дане
данецк
данецкаи
данецкая
данецку
даних
данныи
данных
данскога
данскі
дантэ
дану
данута
даны
дані
даніель
даніла
данілау
даніловіч
данілы
данім
данімам
данімамі
данімы
даніну
даніны
даніэль
данію
данія
даніяи
даніі
данііл
данііла
дап
дападобна
дапам
дапамагае
дапамагала
дапамагалі
дапамагау
дапамагаць
дапамагаюць
дапамагла
дапамагло
дапамаглі
дапамагчы
дапамог
дапамога
дапамогаи
дапамогаю
дапамогу
дапамогі
дапаможа
дапаможнаи
дапаможная
дапаможны
дапаможных
дапаможныя
дапаможнік
дапаможнікау
дапамозе
дапау
дапоу
дапрац
дапрацоу
дапускаецца
дапусьціць
дар
дара
дарава
даравау
даравіч
дарагастаи
дарагічын
дарагічынскага
дарагічынскі
дарагічынскім
дарадца
дарадцам
дарадцы
даражэи
дарам
дарау
дарог
дарога
дарогаи
дарогамі
дарогах
дарогу
дарогі
дарожнага
дарожнаи
дарожны
дарожных
дарожныя
дарозе
дарослага
дарослым
дарослых
дарослыя
дарт
дару
даручана
даручылі
даручыу
даручэньне
даручэньні
дары
дарыя
дарэв
дарэвалюцыи
дарэчы
дасканала
дасканаленьне
дасканаленьня
дасканаленьні
даслау
даследаванні
даслоу
даставілі
дастаеу
дасталася
дасталіся
дастасоу
дастасунак
дастаткова
дастатковаи
дастау
даступнаи
даступная
даступны
даступныя
дасудовае
дасьледавалі
дасьледаваньне
дасьледаваньнем
дасьледаваньня
дасьледаваньнямі
дасьледаваньняу
дасьледаваньнях
дасьледаваньні
дасьледавау
дасьледаваць
дасьледваньне
дасьледваньняу
дасьледваньні
дасьледнік
дасьледніка
дасьледнікау
дасьледнікі
дасьледуе
дасьледчага
дасьледчаи
дасьледчая
дасьледчы
дасьледчык
дасьледчыка
дасьледчыкам
дасьледчыкамі
дасьледчыкау
дасьледчыкі
дасьледчых
дасьледчыя
дасьць
дасюль
дасягае
дасягаецца
дасягала
дасягалі
дасягау
дасягаць
дасягаюць
дасягненьне
дасягненьнем
дасягненьня
дасягненьняу
дасягненьні
дасягнула
дасягнулі
дасягнута
дасягнуу
дасягнуць
дата
датаваны
датаваныя
датаи
дату
датуецца
датуль
датуюцца
датчане
даты
датычна
датычных
датычныя
датычыцца
датэрмінова
датэрміновага
датэрміновых
дау
дах
дахам
дахамі
дахаты
даход
даходау
даходзіць
даходу
даходы
дахоу
даху
дацк
дацкага
дацкаи
дацкая
дацку
дацкі
дацкім
даць
дацэнт
дацэнта
дацэнтам
дачка
дачкои
дачкою
дачку
дачкі
дачок
дачу
дачцэ
даччынае
даччыных
даччыныя
дачы
дачыненьне
дачыненьня
дачыненьняу
дачыненьнях
дачыненьні
дашкевич
дашкевіч
дашкольная
дашкольных
дашкольныя
дашчынскі
дашчэнту
даюцца
даюць
даючы
даі
дбаи
дбя
два
дваи
дванаццаць
дванаццаці
двара
дварамі
дваранау
дваране
дваранскага
дваранства
дваранін
дварах
дваром
двароу
двару
двары
дварэц
дварэцкага
дваццаць
дваццаці
двая
дваіх
две
движение
движения
двое
двои
двор
дворны
дворышча
двох
двум
двума
двух
двухбаковая
двухбаковыя
двухпавярховы
двухразовы
двухсхільным
де
деи
декабря
дел
дела
деление
дело
деловая
демоскоп
денис
день
депутатов
деревни
державна
державнии
державноі
державі
деятельность
дж
джа
джаваньні
джавані
джаз
джазу
джаи
джакама
джамбары
джаму
джан
джана
джане
джанскаи
джанская
джанску
джанскі
джану
джо
джозэф
джозэфа
джои
джон
джона
джонам
джонатан
джонз
джонсан
джоні
джордж
джорджа
джорджам
джорджыя
джоу
джузэпэ
джульета
джулія
джыбуці
джым
джымі
джын
джэдаи
джэдая
джэдаяу
джэи
джэк
джэка
джэкетс
джэксан
джэксана
джэноа
джэрзі
джэры
джэсі
джэтс
джэф
джэфры
дз
дзе
дзева
дзевы
дзевяноста
дзевяць
дзевяці
дзед
дзеда
дзеи
дзекуць
дзел
дзелавои
дзелам
дзеле
дзелу
дзель
дзельнік
дзельніка
дзельнікам
дзельнікамі
дзельнікау
дзельнікі
дзельніцы
дзельнічае
дзельнічала
дзельнічалі
дзельнічау
дзельнічаць
дзельнічаюць
дзеля
дзеляцца
дзеляць
дзелі
дзеліцца
дзем
дземідовіч
дзена
дзеная
дзены
дзеных
дзеныя
дзень
дзеня
дзерау
дзес
дзесьці
дзесяць
дзесяці
дзесяцігодзьдзе
дзесяцігодзьдзя
дзесяцігодзьдзяу
дзесяцігодзьдзі
дзесяцін
дзесяціна
дзесяцінамі
дзесяцінау
дзесяціны
дзетак
дзеу
дзецьмі
дзецям
дзеці
дзеючаи
дзея
дзеяньне
дзеяньнем
дзеяньня
дзеяньнямі
дзеяньняу
дзеяньнях
дзеяньні
дзеяслова
дзеясловау
дзеяслову
дзеясловы
дзеяслоу
дзеяу
дзеях
дзеяч
дзеяча
дзеячам
дзеячамі
дзеячау
дзеячоу
дзеячы
дзеі
дзкага
дзкі
дзмітрыи
дзь
дзьве
дзьверы
дзьвюма
дзьвюмя
дзьвюх
дзьвюхмоу
дзьвярэи
дзьвіна
дзьвіне
дзьвінск
дзьвінскаи
дзьвінску
дзьвіну
дзьвіны
дзьдзе
дзьмі
дзьмітрау
дзьмітры
дзьмітрыевіч
дзьмітрыем
дзьмітрыеу
дзьмітрыя
дзэ
дзю
дзюба
дзюдо
дзюк
дзя
дзявоцтве
дзявяты
дзядзька
дзядзькам
дзядзьку
дзядзькі
дзядзінец
дзядоу
дзядуля
дзяды
дзякуи
дзякуючы
дзяленьне
дзяленьня
дзялянак
дзялянка
дзялянках
дзялянку
дзялянкі
дзялянцы
дзям
дзямідау
дзяніс
дзянісау
дзярж
дзяржа
дзяржава
дзяржаваи
дзяржавам
дзяржавамі
дзяржавау
дзяржавах
дзяржаваю
дзяржаве
дзяржаву
дзяржавы
дзяржау
дзяржбясьпекі
дзяржынск
дзяржынскага
дзяржынскі
дзярнова
дзярновіч
дзярэчын
дзясяткау
дзясятку
дзясяткі
дзясяты
дзятлау
дзяу
дзяцеи
дзяцінства
дзяцінстве
дзяяч
дзяячка
дзі
дзіва
дзіды
дзік
дзікага
дзікае
дзікаи
дзікарослых
дзікая
дзікі
дзікіх
дзін
дзіна
дзісвет
дзісенскага
дзісна
дзісны
дзісько
дзіу
дзіце
дзіцем
дзіця
дзіцяці
дзіцяча
дзіцячага
дзіцячае
дзіцячаи
дзіцячая
дзіцячую
дзіцячы
дзіцячым
дзіцячых
дзіцячыя
диалектологическии
динамо
дипломатического
дис
дка
дкі
для
дм
дмахоу
дмитрии
дмитро
дна
днага
днае
днаи
днаму
днасьць
днасьці
дная
дне
днеи
днепр
днепра
днепрапятроу
днепровскии
днк
дно
дном
днр
дную
дны
дным
днымі
дных
дныя
дню
дня
дняпра
дняпро
дняпром
дняпроу
дняпры
днястра
днястроу
дні
днікі
дніпро
до
добра
добраахвотна
добраахвотнікам
добраахвотнікау
добраахвотнікі
добрага
добрае
добраи
добрау
добрая
добрускага
добрускім
добрую
добры
добрым
добрых
добрыя
довідник
догляду
дождж
дои
док
доказ
доказау
доказы
докладъ
доктар
доктара
доктарам
доктарскую
доктора
документах
документов
документы
докшыцкага
докшыцкі
докшыцкім
докшыцы
долбилов
должности
долу
долю
доля
долі
дом
дома
домам
доме
дому
дон
дона
дональд
доне
дону
доп
дорог
дорскага
дортмунд
доступ
доступа
доступе
доступу
досыць
досьвед
досьведам
досьведу
досьледнаи
доу
дочкі
дошка
дошку
дошкі
дошцы
дп
дпк
дпу
др
дра
драбнеи
дравідыи
драздовіч
драздовіча
драздоу
дразды
драи
дракула
драм
драма
драматург
драматурга
драматургія
драматургіі
драматычнага
драматычнаи
драматычная
драматычны
драматычным
драматычных
драматычныя
драме
драму
драмы
дранько
драпежных
драу
драфце
древнеи
древних
древностеи
древности
дробнага
дробнаи
дробная
дробны
дробным
дробнымі
дробных
дробныя
дрозд
дру
друг
друга
другаи
другасных
другасныя
другая
другие
других
другога
другое
другои
другому
другую
другі
другім
другіх
другія
друеу
дружба
дружбы
дружына
дружыну
дружыны
друи
друк
друкавала
друкавалася
друкаваліся
друкаванаи
друкаваны
друкаваных
друкаваныя
друкавау
друкавацца
друкаваць
друкар
друкарню
друкарня
друкарні
друку
друкуе
друкуецца
друкуюцца
друцак
друцкі
друцкіх
друці
друя
друі
дрыбінскім
дрыгавічоу
дрыса
дрысенскага
дрысенскі
дрысенскім
дрысы
дрысьвяты
дрэва
дрэваапрацоу
дрэвамі
дрэвау
дрэвах
дрэве
дрэвы
дрэздэн
дрэздэне
дрэи
дрэнна
дрэс
дрэу
ду
дуб
дуба
дубавец
дубаи
дубау
дубеи
дубль
дублін
дубна
дубовы
дубоу
дубрава
дубрау
дубро
дуброва
дубровенскага
дубровенскі
дубровенскім
дубровы
дуброу
дубу
дубянецкая
дубянецкі
дубічы
дуглас
дугі
дуда
дудаева
дудар
дудзічы
дудка
дуду
дуды
дуж
дужа
дужках
дуи
дук
дукевіч
дуку
дулеба
дум
дума
думае
думак
думаць
думаю
думе
думка
думку
думкі
думу
думы
дунаи
дунаю
дунілавіцкага
дунін
дуніны
дух
духа
духавенства
духам
духау
духоу
духу
дуць
душ
душа
душои
душу
душы
душэу
дуэт
ды
дыбоу
дываны
дывэрсіи
дывізіе
дывізіи
дывізію
дывізія
дывізіяи
дывізіяу
дывізіі
дыджэи
дые
дыега
дызаи
дызэль
дызі
дыи
дык
дыктатар
дыктатара
дыктатура
дыктатуры
дыкірх
дым
дымоу
дыму
дымы
дын
дына
дыназау
дынама
дынаміка
дынар
дынарау
дынастыя
дынастыяи
дынастыі
дынга
дыпле
дыплямат
дыплямата
дыпляматау
дыпляматычнага
дыпляматычнаи
дыпляматычную
дыпляматычным
дыпляматычных
дыпляматычныя
дырыгент
дырэктар
дырэктара
дырэктарам
дырэктарау
дырэктароу
дырэкторыі
дырэкцыі
дыск
дыска
дыскау
дыскрымінацыі
дыску
дыскусіи
дыскусія
дыскусіі
дыскі
дыстанцыи
дыстанцыі
дысцыпліна
дысцыплінау
дысцыпліны
дысыдэнт
дысьлякацыі
дысэртацыю
дысэртацыя
дысэртацыяу
дысэртацыі
дыторыя
дыторыі
дыфэрэнцыи
дыханьне
дыханьня
дыю
дыя
дыяганалі
дыягностыкі
дыяле
дыялект
дыялектале
дыялектам
дыялектамі
дыялектау
дыялектах
дыялектнаи
дыялектных
дыялектныя
дыялекту
дыялекты
дыялекце
дыямэтар
дыямэтрам
дыямэтры
дыяна
дыяпазон
дыяпазоне
дыяпазону
дыяспара
дыяспары
дыяцэзія
дыяцэзіі
дыі
дэ
дэбаты
дэбют
дэбютавала
дэбютавау
дэбютнага
дэбютны
дэбютным
дэвід
дэвіз
дэвізам
дэвілз
дэвіс
дэи
дэкады
дэкан
дэкана
дэканам
дэканат
дэканату
дэкаратыу
дэкарацыі
дэкарт
дэкаруюцца
дэклярацыю
дэклярацыя
дэклярацыі
дэкор
дэкору
дэкоры
дэкрэт
дэкрэтам
дэкрэтау
дэкрэту
дэлегат
дэлегатам
дэлегатау
дэлегаты
дэлегацыю
дэлегацыя
дэлегацыі
дэль
дэльта
дэльты
дэлі
дэма
дэмабілізацыі
дэмаграфічная
дэмакратау
дэмакраты
дэмакратызацыі
дэмакратычнага
дэмакратычнае
дэмакратычнаи
дэмакратычная
дэмакратычную
дэмакратычны
дэмакратычным
дэмакратычных
дэмакратычныя
дэмакратыю
дэмакратыя
дэмакратыі
дэманстрантау
дэманстрацыю
дэманстрацыя
дэманстрацыяу
дэманстрацыі
дэманструе
дэмбрау
дэн
дэні
дэніел
дэніс
дэпартаваныя
дэпартамэнт
дэпартамэнта
дэпартамэнтау
дэпартамэнту
дэпартамэнты
дэпартамэнце
дэпартацыя
дэпартацыі
дэпартыва
дэпо
дэпрэсія
дэпрэсіі
дэпутат
дэпутата
дэпутатам
дэпутатамі
дэпутатау
дэпутаты
дэпутацкіх
дэр
дэра
дэрбі
дэсант
дэсантна
дэтале
дэталяу
дэталі
дэтрои
дэтэктыу
дэу
дэфіцыт
дэцэнтралізацыі
дюсш
дятловского
е
ева
евгении
евреев
евреи
европеи
европы
евіч
его
егу
едзе
единиц
единство
еднасьць
еднасьці
ее
еж
ежа
ежаи
ежу
ежы
езавітау
езд
езду
езуса
езуіт
езуітам
езуітау
езуіты
езуіцкага
езуіцкаи
езуіцкая
езуіцкі
езуіцкім
езьдзе
езьдзіу
езьдзіць
еи
екатерины
екацярынбург
ект
екта
ектам
ектамі
ектау
ектах
ектна
екту
екты
ектыу
елена
елка
ельня
ельск
ельскага
ельску
ельскі
ельскім
ельцын
ельцына
ем
емнаи
ему
емэн
ен
ена
енциклопедія
енісеи
епархиальные
епархии
ер
ера
ераи
ерам
ерау
ермаловіч
еру
ерусалім
ерусаліме
ерусаліму
еры
ерэван
ес
еса
есау
есе
если
есть
есу
есы
есьці
етра
еу
ефрон
ефрона
ехалі
ехау
ехаць
ешыбот
еще
ж
жа
жаба
жабракоу
жабінка
жабінкау
жадае
жадала
жадалі
жаданьне
жаданьнем
жаданьня
жаданьняу
жаданьні
жадау
жадаюць
жадаючы
жазэ
жазэф
жак
жака
жакевіч
жалеза
жалезабэтонных
жалезнага
жалезнаи
жалезная
жалезны
жалезных
жалезныя
жалеи
жалудок
жалудоцкага
жаль
жалігоу
жамои
жамыслау
жан
жана
жанаты
жанна
жаночага
жаночае
жаночаи
жаночая
жаночую
жаночы
жаночым
жаночых
жаночыя
жанр
жанрау
жанрах
жанру
жанры
жанчын
жанчына
жанчынаи
жанчынам
жанчынамі
жанчынау
жанчыну
жанчыны
жаны
жаныя
жанэи
жарт
жартау
жау
жах
жахау
жахлівага
жахлівы
ждановіч
ждановічы
жды
же
жеменецькии
женщинах
живая
жизни
жизнь
жителеи
життя
жкг
жлобін
жлобіне
жлобінскага
жлобінскі
жлобінскім
жлутка
жмудь
жнаи
жная
жнівень
жніу
жо
жодзін
жодзіна
жодзіне
жодзішкау
жонак
жонка
жонкаи
жонкаю
жонку
жонкі
жонцы
жорж
жорстка
жорсткага
жорсткае
жорсткаи
жорсткасьці
жорсткая
жорсткі
жорсткім
жорсткіх
жорсткія
жоу
жу
жуан
жуана
жузэ
жук
жукава
жукау
жуковіч
жукоу
жукі
жупанія
жупаніі
жупранскага
журавель
журау
журнал
журналіст
журналіста
журналістам
журналістау
журналістка
журналісты
журналістыка
журналістыкі
журы
жучкевич
жучкевіча
жы
жывае
жываецца
жывалася
жывалі
жываліся
жываньне
жываньня
жываньні
жывапіс
жывапісе
жывапісец
жывапісу
жывата
жывау
жывацца
жываць
жываюцца
жываюць
жывая
жыве
жывога
жывое
жывои
жывуць
жывучы
жывую
жывы
жывым
жывымі
жывых
жывыя
жыгімонт
жыгімонта
жыгімонтам
жыгімонту
жыд
жыдам
жыдамі
жыдоу
жыды
жызэль
жыла
жылася
жыло
жылога
жылуновіч
жылы
жылым
жылымі
жылых
жылыя
жыльле
жыльля
жылі
жыліна
жылінскага
жылінскі
жыне
жыню
жыня
жыні
жырандоля
жыровічах
жыровічы
жыта
жытак
жыткавіцкага
жыткавіцкі
жыткавіцкім
жыткавічы
жытку
жытла
жытло
жытомір
жытомірскаи
жыу
жыхар
жыхара
жыхарам
жыхарамі
жыхароу
жыхарства
жыхары
жыцца
жыцце
жыцця
жыцці
жыць
жыцьце
жыцьцю
жыцьця
жыцьцядзеи
жыцьцяпіс
жыцьці
жэи
жэнэва
жэнэве
жэнэу
жэрмэн
жінок
з
за
заазер
заале
заапарк
заапарку
заахвочваньня
забава
забавау
забаве
забавы
забаи
забалацкага
забалаць
забалацьце
забалоцьце
забалочанаи
забалочаная
забалочаныя
забараняе
забараняецца
забаранялася
забараняу
забараніла
забаранілі
забараніу
забарона
забаронаи
забароне
забаронена
забароненае
забароненая
забаронены
забароненых
забароненыя
забарону
забароны
забастоу
забау
забесьпячэньне
забесьпячэньнем
забесьпячэньня
забесьпячэньні
заблудаве
заблудау
заблякаваных
забои
забор
забралі
забрау
забраць
забродзьдзе
забруджаных
забруджваньне
забруджваньня
забудова
забудову
забудовы
забудоу
забытая
забыты
забыць
забэи
забясьпечвае
забясьпечваецца
забясьпечвала
забясьпечвалі
забясьпечвау
забясьпечваць
забясьпечваюць
забясьпечыла
забясьпечылі
забясьпечыу
забясьпечыць
забівае
забівалі
забіваць
забіваюць
забіла
забілі
забірае
забіта
забітага
забітая
забіты
забітымі
забітых
забітыя
забіу
забіць
завадзкі
завае
заваявала
заваявалі
заваяваная
заваяваны
заваяваных
заваяваныя
заваяваньня
заваявау
заваяваць
заве
завершана
завершаная
завершаны
завершаным
завершаныя
завершыу
завецца
завод
завода
заводам
заводау
заводах
заводзе
заводу
заводы
завочна
завочнае
завулак
завулкау
завулку
завуцца
завуць
завяршае
завяршаецца
завяршау
завяршаюцца
завяршыла
завяршылася
завяршыу
завяршыць
завяршэньне
завяршэньнем
завяршэньня
завяршэньні
завіша
завішау
завішы
заг
загад
загадала
загадалі
загадам
загадана
загадау
загадвае
загадвау
загадзе
загадзя
загадка
загадкі
загаднік
загаднікам
загаду
загадчык
загадчыка
загадчыкам
загады
загаловак
загалоу
загародні
загор
заграбская
загрузкі
загрэб
загубілі
загінула
загінулым
загінулых
загінулі
загінуу
задавальненьне
задавальненьня
задаволены
задаволіу
заданьне
заданьняу
заданьні
задач
задача
задачаи
задачамі
задачау
задачу
задачы
задзеи
задзіночаньне
задзіночаньня
задняга
задняи
задні
заднім
задніх
заднія
задор
задоу
задума
задумы
задыяку
заезны
заемадзеи
заемадзеяньне
заемадзеяньня
заемадзеяньні
заемнаи
заж
зажы
зазвычаи
зазнала
зазналі
зазнау
зазначае
зазначалася
зазначау
зазначыу
заи
зак
заказ
заказьнік
заказьніка
заказьнікау
заказьніку
заказьнікі
заканадау
заканамернасьці
заканчваецца
заканчэньне
заканчэньня
заканчэньні
закарпацкаи
закарпацьце
закарпацьця
закарпацьці
закау
закаханы
закахау
заклад
закладзеная
закладзены
закладзеныя
закладнікау
заклала
заклалі
заклау
заключаецца
заключалася
заключаная
заключаны
заключыла
заключылі
заключыу
заключыць
заключэньне
заключэньня
заключэньні
заклік
заклікае
заклікала
заклікалі
заклікам
заклікау
закліку
заклікі
закон
закона
законам
законамі
законапраект
законау
законах
законе
законнасьці
законным
законных
законов
законовъ
закону
закончыу
законы
закранае
закранула
закрысьціямі
закрысьціі
закрытая
закрыты
закрытым
закрытых
закрыцьце
закрыцьця
закінуты
зала
залатая
залатога
залатое
залатои
залатую
залаты
залатым
залатымі
залатых
залатыя
зале
залежала
залежаць
залежнасьць
залежнасьці
залежных
залежыць
залеи
залескага
залескі
залесьсе
залозы
залы
зальцбург
зальцбургу
залю
заля
заляи
заляу
залі
заліва
заліве
заліву
заліку
заліу
залічаны
зам
замак
замале
замах
замаху
замацавала
замацавалася
замацаваны
замацаваньня
замацавау
замацавацца
замацоу
замбіі
замежжа
замежжы
замежнага
замежнае
замежнаи
замежная
замежную
замежны
замежным
замежнымі
замежных
замежныя
замежнікау
замен
замена
заменена
замененая
заменены
замененыя
замену
замены
замест
замировская
замка
замкаваи
замкавая
замкавы
замкам
замкау
замкне
замку
замкі
замове
замову
замовы
заможнага
заможнаи
заможным
заможных
заможныя
замои
замок
замоу
замошша
замуж
замужам
замчышча
замяніла
замянілі
замяніу
замяніць
замярзае
замірэньне
замірэньня
зан
зана
занадта
занесены
занесеных
занесеныя
заняла
заняло
занялі
заняпад
заняпаду
занята
занятак
занятасьці
занятая
заняткам
заняткау
заняткі
заняты
занятых
занятыя
заняу
заняцца
заняць
заняцьця
запаведзі
запаведнік
запаведніка
запаведніку
запавет
запавету
запавеце
западно
западного
западнои
западном
запазычанасьць
запазычанасьці
запазычаны
запазычаных
запазычаныя
запазычаньняу
запазычаньні
запазычваньняу
запазычваньні
запаленьне
запаленьня
запар
запарожжа
запароскаи
запас
запасау
запасных
запасу
запасы
запатрабавала
запатрабавалі
запатрабавау
запатэнтавау
запау
записки
заплаціу
заплаціць
заплянаваны
запольле
запольскага
запольскі
запоу
запрасілі
запрасіу
запрау
запрацавала
запрашае
запрашэньне
запрашэньні
запрошаны
запрошаныя
запрудзкі
запуск
запуску
запусьціла
запусьцілі
запусьціу
запушчаны
запыт
запытау
запыты
запэу
запіс
запісала
запісалі
запісам
запісана
запісаная
запісаны
запісаных
запісаныя
запісау
запісах
запісаць
запісвае
запісваецца
запісвау
запісваць
запісе
запіскі
запісу
запісы
зара
зараастрыи
зарабляць
зарабіу
зарабіць
зарад
зараду
зарады
заражэньне
заражэньня
зараз
заранка
зарастае
зарвалі
заробак
заробкау
заробку
заробкі
зарэ
зарэгістравалі
зарэгістравана
зарэгістраваная
зарэгістраваны
зарэгістраваных
зарэгістраваныя
зарэцкі
зарэчча
заря
засау
засваеньне
засваеньня
засвои
заселеная
заселены
заселеныя
заслау
заслонава
заслугоу
заслугі
заслужанага
заслужаная
заслужаны
засн
заснавала
заснавальнік
заснавальніка
заснавальнікам
заснавальнікамі
заснавальнікау
заснавальнікі
заснавалі
заснавана
заснаванага
заснаванае
заснаванаи
заснаваная
заснаваную
заснаваны
заснаваным
заснаваных
заснаваныя
заснаваньне
заснаваньня
заснаваньні
заснавау
заснаваць
засноу
застава
заставалася
заставаліся
заставау
заставацца
заставе
застаецца
засталася
засталося
засталіся
застанецца
застау
застацца
застаюцца
застаючыся
застрэліу
заступнік
заступніка
заступнікам
заступніцтва
заступіу
засьведчана
засьведчылі
засьведчыу
засьценак
засьценкау
засьценку
засьценкі
засядау
засяленьне
засяленьня
засялялі
засяляюць
засялілі
засяродзіу
зат
затое
затока
затоку
затокі
затоцы
затрымалі
затрыманы
затрыманых
затрыманыя
затрыманьня
затрыманьні
затрымау
затым
зау
заф
зафа
зафам
зафау
зафіксавана
зафіксаваная
зафіксаваны
зафіксаваныя
зах
захавала
захавалася
захавалі
захаваліся
захаваны
захаваных
захаваныя
захаваньне
захаваньнем
захаваньня
захаваньні
захавау
захаваць
захад
захадам
захадау
захадах
захадзе
захаду
захады
захапленьне
захапляу
захапіла
захапілі
захапіу
захапіць
захар
захарава
захарау
захарка
захварэу
захворваньне
захворваньня
захворваньняу
захворваньні
заходзіць
заходне
заходнеу
заходнеэу
заходнюю
заходняга
заходняе
заходняи
заходняя
заходні
заходнім
заходнімі
заходніх
заходнія
захоп
захопе
захоплена
захопленая
захоплены
захопленых
захопленыя
захопнікамі
захопнікау
захопнікі
захопу
захоу
західне
зацьверджана
зацьверджаная
зацьверджаны
зацьверджаныя
зацьверджаньне
зацьвердзіла
зацьвердзілі
зацьвердзіу
зацьвярджае
зацьвярджау
зацьвярджэньне
зацьвярджэньня
зацьвярджэньні
зацьменьне
зацікавіу
зацікау
зачацьця
зачынена
зачыненая
зачынены
зачыненыя
зачынілі
зачыніу
заява
заяваи
заявак
заявау
заяве
заяву
заявы
заявіла
заявілі
заявіу
заяу
заяц
зб
збау
збліжэньне
збліжэньня
зблізіу
збо
збожжа
збожжавых
збожжавыя
збольшага
збор
зборам
зборау
зборах
зборка
зборкі
зборнаи
зборная
зборную
зборных
зборныя
зборнік
зборніка
зборнікау
зборніках
зборніку
зборнікі
збору
зборы
збраеньне
збраеньня
збраеньняу
збраеньні
зброенага
зброенаи
зброены
зброеным
зброенымі
зброеных
зброеныя
зброи
зброю
зброя
зброяи
зброі
збс
збудавалі
збудаваная
збудаваны
збудаваныя
збудаваньне
збудаваньня
збудаваньняу
збудаваньні
збудавау
збудаваць
збуи
збыт
збыту
збэкістан
збэкістане
збэкістану
збірник
зв
зважаны
зважаным
зважаючы
звалася
звальненьня
звалі
зваліся
званага
званае
званаи
званая
звания
званую
званы
званым
званых
званыя
званьне
званьнем
званьня
званьняу
званьні
званіца
званіцаи
званіцу
званіцы
звар
зварот
зваротам
зваротау
зваротнаи
зваротная
зваротны
зваротным
звароту
звароты
звароце
звау
звацца
зваць
звезда
звод
зводзіцца
зводзіць
зводны
зводу
звольнены
звольнілі
звольніу
звон
звонку
звычаи
звычаяу
звычаі
звыш
звышаецца
звышша
звышшы
звышэньня
звязда
згаданая
згаданы
згаданых
згаданыя
згадау
згадвае
згадваецца
згадвалася
згадваньне
згадвау
згадваюцца
згадваюць
згаджаецца
згадзіу
згадка
згадкі
згадненьні
згараньня
згарэла
згарэлі
згарэу
згода
згодзе
згодна
згоду
згоды
згорку
згоркі
згорысты
згубленыя
згубіу
згуляла
згулялі
згуляу
згуляць
згуртаваньне
згуртаваньня
здабываецца
здабываюць
здабыла
здабылі
здабытак
здабыткі
здабыу
здабыць
здабыцьця
здабыча
здабычаи
здабычу
здабычы
здавалася
здагадку
здагадкі
здаецца
здалі
здановіч
здараецца
здараюцца
здаровага
здаровы
здаровыя
здароу
здарылася
здарыу
здарэньне
здарэньня
здарэньні
здау
здацца
здаць
здачы
здолела
здолелі
здолеу
здольнасьць
здольнасьцю
здольнасьцямі
здольнасьцяу
здольнасьці
здольная
здольны
здольныя
здоу
здрадзе
здраду
здрады
здрау
здушэньне
здушэньня
здушэньні
зды
здым
здымае
здымаецца
здымак
здымалася
здымалі
здымаліся
здымау
здымацца
здымаць
здымкау
здымках
здымкі
здыму
зе
зельвенского
земель
земельныи
земле
землеу
земли
земля
землякам
землякоу
землямі
земляробства
земляробствам
землятрус
землятрусу
земляу
землях
землі
земнаводных
земнаводныя
земскага
земская
земскі
земскіх
земскія
зерне
зерня
ззаду
зла
зладзіла
зладзілі
зладзіу
зладзіць
злачыннасьцю
злачыннасьці
злачынства
злачынствам
злачынствау
злачынствах
злачынствы
злачынцау
злачынцу
зло
злом
злотых
злотыя
злоу
злучае
злучаецца
злучала
злучана
злучанага
злучанае
злучаная
злучаны
злучанымі
злучаных
злучаныя
злучау
злучаюцца
злучаюць
злучыла
злучыу
злучыць
злучэньне
злучэньня
злучэньняу
злучэньні
зм
змагаецца
змагалася
змагаліся
змаганьне
змаганьня
змаганьні
змагар
змагау
змагацца
змагаюцца
змагла
змаглі
змацненьне
змацненьня
змацнілася
змацніу
змена
змова
змове
змовы
змог
змогуць
зможа
змоу
змоцненага
змушаны
зміцер
зн
зна
знага
знагарода
знагародамі
знагародау
знагароджаная
знагароджаны
знагароджаньне
знагароджаньня
знагародзілі
знагароду
знагароды
знае
знаи
знак
знака
знакам
знакамі
знакамітага
знакамітаи
знакамітая
знакаміты
знакамітым
знакамітых
знакамітыя
знакау
знаку
знакі
знамя
знау
знаходак
знаходжаньне
знаходжаньня
знаходжаньні
знаходзяцца
знаходзяць
знаходзячыся
знаходзілася
знаходзілі
знаходзіліся
знаходзіу
знаходзіцца
знаходзіць
знаходкі
значальвае
значальвау
значаліла
значаліу
значаліць
значна
значнага
значнае
значнаи
значнасьць
значнасьці
значная
значную
значны
значным
значнымі
значных
значныя
значыцца
значыць
значэньне
значэньнем
значэньня
значэньняу
значэньні
зная
знои
знос
зносу
зносін
зносінау
зносінах
зносіны
зноу
знутры
зную
зны
зным
зных
зныя
зо
зовского
зодчество
зои
золак
золата
золатам
зон
зона
зонаи
зонау
зонах
зоне
зону
зоны
зор
зорак
зорам
зорамі
зорау
зорка
зоркаи
зоркамі
зорку
зоркі
зорнага
зорнаи
зорная
зорную
зорны
зорных
зорныя
зору
зоры
зоська
зоф
зоя
зрабіла
зрабілася
зрабілі
зрабіліся
зрабіу
зрабіць
зразумела
зразумеу
зразумець
зрасла
зрастае
зрк
зроблена
зробленая
зроблены
зробленых
зробленыя
зробіць
зровень
зрок
зроку
зрост
зросту
зросьце
зроу
зруб
зруи
зрух
зрынуты
зрэдку
зрэшты
зу
зуб
зубау
зубная
зубоу
зубра
зубы
зунг
зуноу
зунр
зуны
зусім
зша
зы
зыгмунт
зыгмунта
зымбабвэ
зыход
зыходжаньне
зыходзяць
зыходзячы
зыходзіць
зыходу
зычнага
зычны
зычнымі
зычных
зычныя
зышоу
зь
зьбег
зьбегчы
зьбярэжжа
зьбярэжжы
зьбівалі
зьбігнеу
зьбілі
зьбірае
зьбіраецца
зьбіралася
зьбіральнік
зьбіралі
зьбіраліся
зьбірау
зьбірацца
зьбіраць
зьбіраюцца
зьбіраюць
зьбіты
зьбіу
зьбіцьце
зьбіцьця
зьве
зьведала
зьведау
зьведзены
зьверху
зьвеставаньня
зьвестак
зьвесткамі
зьвестках
зьвесткі
зьвядзеньне
зьвядзеньня
зьвяз
зьвяза
зьвязак
зьвязам
зьвязана
зьвязанае
зьвязанаи
зьвязаная
зьвязаны
зьвязанымі
зьвязаных
зьвязаныя
зьвязау
зьвязвае
зьвязваецца
зьвязвалі
зьвязвау
зьвязваюць
зьвязда
зьвязе
зьвязку
зьвязкі
зьвязу
зьвялі
зьвяна
зьвяно
зьвяржэньня
зьвярнулася
зьвярнуліся
зьвярнуу
зьвярнуцца
зьвярнуць
зьвяроу
зьвяртае
зьвяртаецца
зьвярталіся
зьвяртау
зьвяртацца
зьвяртаюцца
зьвіжаньня
зьвілістае
зьдзеи
зьдзелкі
зьдзенскага
зьдзенскім
зьдзецел
зьдзецельскага
зьдзецельскі
зьдзецельскім
зьдзеяньне
зьдзеяньня
зьдзяи
зьдзіу
зьезд
зьездам
зьездау
зьезду
зьезьдзе
зьехала
зьехалі
зьехау
зьехаць
зьле
зьлева
зьліваецца
зьліваюцца
зьліу
зьліцьце
зьліцьця
зьліцьці
зьлічэньня
зьмеи
зьмен
зьмена
зьменаи
зьменамі
зьменау
зьменах
зьмене
зьменена
зьмененая
зьменены
зьмененыя
зьменнаи
зьменных
зьмену
зьменшылася
зьменшыць
зьмены
зьмест
зьместам
зьместу
зьмесьціва
зьмешчана
зьмешчаная
зьмешчаны
зьмешчаных
зьмешчаныя
зьмяненьне
зьмяненьня
зьмяненьнямі
зьмяненьняу
зьмяненьні
зьмяншаецца
зьмяншэньне
зьмяншэньня
зьмяняе
зьмяняецца
зьмянялася
зьмяняліся
зьмяняу
зьмяняцца
зьмяняць
зьмяняюцца
зьмяняюць
зьмяніла
зьмянілася
зьмянілі
зьмяніліся
зьмяніу
зьмяніць
зьмястоу
зьмясьцілі
зьмясьціу
зьмясьціць
зьмяшаныя
зьмяшчае
зьмяшчаецца
зьмяшчала
зьмяшчалася
зьмяшчалі
зьмяшчаліся
зьмяшчау
зьмяшчаць
зьмяшчаюцца
зьмяшчаюць
зьмяя
зьмітра
зьмітрок
зьмітром
зьміцер
зьне
зьненскага
зьненскім
зьнешнюю
зьнешняга
зьнешняи
зьнешняя
зьнешні
зьнешнім
зьнешніх
зьнешнія
зьняволены
зьняволеных
зьняволеньне
зьняволеньня
зьняволеньні
зьняла
зьнялася
зьнялі
зьнята
зьнятая
зьняты
зьнятыя
зьняу
зьняць
зьняцьце
зьняцьця
зьніжаецца
зьніжэньне
зьніжэньня
зьнізу
зьнізілася
зьнізіу
зьнізіць
зьнік
зьнікае
зьнікаць
зьнікаюць
зьнікла
зьніклых
зьніклі
зьнікненьне
зьнікненьня
зьнікненьні
зьніч
зьнішчальнік
зьнішчальнікау
зьнішчальнікі
зьнішчана
зьнішчаная
зьнішчаны
зьнішчаныя
зьнішчылі
зьнішчыу
зьнішчыць
зьнішчэньне
зьнішчэньня
зьнішчэньні
зьу
зьява
зьяваи
зьявау
зьяву
зьявы
зьявілася
зьявіліся
зьявіу
зьявіцца
зьяднаньне
зьяднаньня
зьяжджае
зьяу
зэ
зэи
зэльва
зэльвенскага
зэльвенскім
зэляндыя
зэляндыі
зэн
зэніт
зэнітна
зэр
зэра
зэрау
зэу
зэф
зэфа
зязюля
зяла
зяле
зяленскі
зялі
зямель
зямельнага
зямельнаи
зямельны
зямельных
зямельныя
зямле
зямлю
зямля
зямлі
зямнога
зямнои
зямных
зянковіч
зянон
зянона
зятарау
зятары
зятая
зяты
зятыя
зяу
зяць
зяцьце
зяцьця
зяцьці
зі
зізанія
зіма
зімку
зімовага
зімоваи
зімовы
зімовых
зімовыя
зімои
зімою
зіму
зімы
зінаіда
зія
зіі
и
иван
иванов
иванович
ивацевичского
игорь
игрока
игроками
игроков
игроком
из
известия
изд
издаваемые
издание
издания
изданные
изданіе
издательство
изменении
изменениях
изъ
ил
или
илья
им
имена
имени
именныи
императорского
императорскои
империи
имперіи
имя
ин
индексы
иностранных
институт
интервью
интернет
инфо
информации
информация
ирина
искусства
искусство
исполнительного
исполнительныи
испр
исследовании
исследования
истории
историко
историческая
исторические
историческии
исторических
историческои
история
итоги
их
июля
июня
к
ка
кааліцыи
кааліцыю
кааліцыя
кааліцыі
кааперацыи
каапэратыу
каапэрацыі
каардынат
каардынатар
каардынатау
каардынаты
каардынацыи
каардынацыі
каб
каба
кабыльнік
кабыльніку
кабыльніцкага
кабіны
кабінэт
кабінэта
кабінэту
кабінэце
кава
кавага
каваи
кавалак
кавале
каваленка
кавалер
кавалерыи
кавалерыя
кавалерыі
кавалеу
кавалкі
каваль
кавалі
кавая
кавы
кавыск
кавыскага
кавыску
кавыскі
кавыскім
кавых
кавыя
кавэр
кавярня
кавярні
кавічы
кага
каганец
каганца
каго
кадастр
кадафі
кадрау
кадры
кадэнцыя
кадэты
кадэцкі
кае
кажа
кажан
кажуць
кажучы
каз
каза
казак
казакамі
казакау
казакоу
казакі
казалі
казам
казанскага
казанскаи
казанскі
казань
казаньне
казаньня
казаньняу
казаньні
казані
казармы
казаскаи
казаская
казаску
казаскі
казау
казахстан
казахстана
казахстанам
казахстане
казахстану
казахі
казацкага
казацкі
казацкіх
казацтва
казаць
казе
казка
казкі
казлова
казловічы
казлоу
казлы
казну
казу
казулін
казуліна
казьзя
казімеж
казімер
казімера
казімерам
казімеру
казімір
казіміра
казіно
каи
как
какава
какаду
кактэи
кал
кала
каламбус
каларада
каласоу
каласы
калашнікава
калгары
калгас
калгаса
калгасау
калгасе
калгасу
калгасы
кале
калегамі
калегау
калегі
калегіюм
калегіюме
калегіюму
калегія
калегіяи
калегіі
каледж
каледжа
каледжау
каледжу
каледжы
калектывам
калектывау
калектыву
калектывы
калектывізацыі
калектыу
калекцыю
калекцыя
калекцыянэр
калекцыях
калекцыі
калена
календара
календаром
календару
календары
календарь
каленкавіцкага
каленкавіцкім
каленкавічы
калодзеж
калодзескага
калускаи
калыханка
кальварыи
кальварыя
кальвінскі
кальвінізм
кальвінізму
кальмар
кальцавои
кальцо
калю
калюмб
калюмбіи
калюмбія
калюмбіі
каля
каляда
калядау
калядны
каляды
каляндар
калянізацыя
калянізацыі
каляністау
каляніяльнаи
каляровага
каляроваи
каляровая
каляровы
каляровых
каляровыя
калярыт
калі
калібру
калідор
каліи
каліна
калінау
каліноу
калініна
калінінград
калінінградзкаи
калінінскаи
калісьці
каліта
каліфарніи
каліфорнія
каліфорніі
кам
кама
каманд
каманда
камандаваньне
камандаваньнем
камандаваньня
камандавау
камандаи
камандамі
камандау
камандаю
камандзе
камандзір
камандзіра
камандзірам
камандзірау
камандовец
камандоу
каманду
камандуючага
камандуючы
камандуючым
каманды
камарова
камароу
камбаи
камбоджы
камбіз
камбіза
камбінат
камбінату
камбінаце
камбінацыі
каменка
каменнага
каменнаи
каменная
каменноборского
каменны
каменным
каменных
каменныя
каменскага
каменскі
камент
камень
каменю
каменя
камеральное
каморы
камп
кампазытар
кампазытара
кампазытарам
кампазытарау
кампазытары
кампазыцыи
кампазыцыю
кампазыцыя
кампазыцыяи
кампазыцыяу
кампазыцыі
кампакт
кампаноу
кампанэнт
кампанэнтау
кампанэнты
кампаніи
кампанію
кампанія
кампаніяи
кампаніямі
кампаніяу
кампаніях
кампаніі
кампартыі
камплект
камплектау
камплекты
кампутар
кампутара
кампутарау
кампутарах
кампутарнаи
кампутарная
кампутарных
кампутарныя
кампутары
кампэнсацыю
кампэнсацыі
кампэтэнцыі
камсамолу
камсамольскаи
камсамольская
каму
камун
камуна
камунальнага
камунальнае
камунальнаи
камунальных
камунау
камуне
камуны
камунізму
камунікат
камунікацыи
камунікацыяу
камунікацыі
камуніст
камуністамі
камуністау
камуністы
камуністычнага
камуністычнае
камуністычнаи
камуністычная
камуністычную
камуністычны
камуністычным
камуністычных
камуністычныя
камы
камэдыи
камэдыю
камэдыя
камэдыі
камэндант
камэндантам
камэнтар
камэнтары
камэра
камэру
камэрун
камэрцыи
камэры
камэта
камэты
камяне
камянец
камянецкага
камянецкі
камянецкім
камянцу
камянцы
камянямі
камяні
камяніца
камяніцы
камі
камінскі
камісар
камісара
камісарам
камісарау
камісары
камісарыят
камісарыяту
камісію
камісія
камісіяи
камісіяу
камісіі
камітэ
камітэт
камітэта
камітэтам
камітэтау
камітэту
камітэты
камітэце
кан
канада
канадзе
канадзкага
канадзкаи
канадзкая
канадзкі
канадзкіх
канаду
канады
канадыенз
канал
канала
каналам
каналамі
каналау
каналах
канале
каналу
каналы
каналізаванае
каналізаваная
кананізаваны
кананічнага
канвэнцыя
канвэнцыі
кангрэгацыі
кангрэс
кангрэса
кангрэсе
кангрэсу
канд
кандидата
кандрат
кандрата
кандрусевіч
кандыдат
кандыдата
кандыдатам
кандыдатамі
кандыдатау
кандыдатуру
кандыдатуры
кандыдаты
кандыдацкую
кане
канеу
канец
канечнасьці
канзас
канкрэтнаи
канкрэтных
канкурэнтау
канкурэнцыю
канкурэнцыі
канон
канонік
каноэ
кансалідацыі
канстанты
канстантын
канстантына
канстантынопаль
канстантынопальскага
канстантынопальскі
канстантынопалю
канстантынопалі
канстанцыя
канстанцыі
канстанці
канстанцін
канстанціна
канстанцінава
канстанцінавіч
канстанцінау
канструктар
канструктарау
канструктыу
канструкцыи
канструкцыю
канструкцыя
канструкцыяу
канструкцыі
канстытуцыи
канстытуцыю
канстытуцыя
канстытуцыяи
канстытуцыі
кансультант
кансультантам
кансультатыу
кансультацыи
кансультацыяу
кансультацыі
кансысторыі
кансэрватарау
кансэрваторыю
кансэрваторыі
кансэрватыу
кансэрвацыі
кант
кантакт
кантактау
кантактнаи
кантакту
кантакты
кантакце
кантата
канто
кантон
кантона
кантонау
кантону
кантора
канторы
кантракт
кантракту
кантракты
кантралюе
кантралюецца
кантралявалі
кантралявау
кантраляваць
кантролем
кантроль
кантрольна
кантрольнаи
кантрольны
кантролю
кантролі
кантынуу
кантынэнт
кантынэнтальнага
кантынэнтальнаи
кантынэнтальны
кантынэнтау
кантынэнтах
кантынэнту
кантынэнце
кантэи
кантэкст
кантэксту
кантэксце
кантэксьце
канф
канферэнцыі
канфлікт
канфліктау
канфлікту
канфлікты
канфлікце
канфэдэрацыю
канфэдэрацыя
канфэдэрацыяу
канфэдэрацыі
канфэрэнцыю
канфэрэнцыя
канфэрэнцыяу
канфэрэнцыях
канфэрэнцыі
канфэсіи
канфэсіяу
канфэсіі
канфіскавалі
канфіскаваны
канфіскаваныя
канфіскацыяи
канфіскацыі
канца
канцах
канцеляріи
канцлер
канцлера
канцлерам
канцлягер
канцлягеры
канцом
канцоу
канцу
канцы
канцылярыя
канцылярыі
канцэнтрацыи
канцэнтрацыя
канцэнтрацыі
канцэпцыю
канцэпцыя
канцэпцыі
канцэрн
канцэрна
канцэрну
канцэрт
канцэртам
канцэртамі
канцэртау
канцэртах
канцэртнаи
канцэртная
канцэртны
канцэрту
канцэрты
канцэрце
канчатак
канчаткам
канчаткау
канчаткова
канчатковага
канчатковае
канчатковаи
канчатковая
канчатковую
канчатковы
канчатковым
канчатку
канчаткі
канье
канэктыкут
канюта
канюшы
каня
кані
кап
капа
капеек
капеи
капланецкого
капліца
капліцаи
капліцу
капліцы
каплічка
капуста
капце
капылоу
капыль
капыльскага
капыльскі
капыльскім
капэла
капэлы
капэнгаген
капэнгагене
капэрніка
капялюш
капітал
капіталу
капітальны
капіталізму
капітан
капітана
капітанам
капітулы
капітуляцыі
кар
кара
карабах
карабаху
карабель
карабле
карабля
караблямі
караблях
караблі
карае
караецца
карале
каралева
каралеваи
каралевы
каралевіч
каралеу
караль
каралю
караля
каралі
каралін
караліна
караліны
каранаваны
каранавау
каранавірус
каранавірусу
каранацыя
каранацыі
каране
каранеу
каранямі
карані
карась
караткевіч
караткевіча
каратэ
карацеи
карачы
кардон
кардынал
кардынала
кардыналам
кардыф
карл
карла
карлам
карлас
карлау
карле
карлу
карляс
карляса
карма
кармавых
кармавыя
кармэлітау
кармэн
кармянскага
кармянскім
карнае
карнаи
карнеи
карную
карных
карныя
карніз
карнізам
карнізамі
карнізы
карнікі
каро
каробачка
каровау
каровы
кароль
карона
каронавірус
каронаи
кароне
кароннага
каронны
карону
кароны
кароткага
кароткае
кароткаи
кароткамэтражны
кароткая
кароткую
кароткі
кароткім
кароткімі
кароткіх
кароткія
кароу
карп
карпаратыу
карпарацыя
карпарацыяу
карпарацыі
карпатау
карпатах
карпаты
карпау
карпенка
карповіч
карпусоу
карпусы
карпілау
карскага
карскі
карт
карта
картаграфіі
картак
карте
картка
карткі
картлі
картліи
картограф
картографа
карты
картэр
картэс
кару
каруньня
каруньні
карупцыяи
карупцыяю
карупцыі
карусь
карце
карцін
карціна
карцінау
карцінах
карціне
карціну
карціны
карчма
карчмы
кары
карыбскага
карыбскім
карые
карысна
карыснаи
карысных
карысныя
карыстаецца
карысталася
карыстальнік
карыстальніка
карыстальнікам
карыстальнікау
карыстальнікі
карысталіся
карыстаньне
карыстаньня
карыстаньні
карыстау
карыстацца
карыстаюцца
карыстаючыся
карысьць
карычневага
карычневы
карьеру
карэ
карэи
карэл
карэла
карэлау
карэлы
карэльскага
карэліцкага
карэліцкі
карэліцкім
карэлічы
карэлія
карэліі
карэн
карэннага
карэннае
карэнных
карэнныя
карэспандэнт
карэспандэнта
карэспандэнтам
карэспандэнтау
карэспандэнты
карэя
карэі
каса
касакоу
каскага
каскаи
каская
каскі
касманау
каспар
кастр
кастра
кастры
кастрычнік
кастрычніка
кастрычніку
кастрычніцкага
кастрычніцкаи
кастрычніцкая
кастрычніцкі
кастрычніцкім
кастусе
кастусь
кастуся
кастылія
кастыліі
касце
касы
касына
касьмічнага
касьмічнаи
касьмічная
касьмічны
касьмічным
касьмічных
касьмічныя
касьпяровіч
касьпіи
касьце
касьцельнаи
касьцельная
касьцельны
касьць
касьцюковіцкага
касьцюковіцкі
касьцюковіцкім
касьцюкоу
касьцюкі
касьцюшка
касьцюшку
касьцюшкі
касьці
кася
касяк
кат
ката
катавалі
катаваньняу
катаваньні
катажына
катале
каталог
каталянску
каталік
каталікам
каталікамі
каталікоу
каталікі
каталіцкага
каталіцкае
каталіцкаи
каталіцкая
каталіцкую
каталіцкі
каталіцкім
каталіцкімі
каталіцкіх
каталіцкія
каталіцтва
катані
катар
катару
катастрофа
катастрофаи
катастрофе
катастрофы
катлавіна
катлавіны
катлярчук
католікау
католікі
катоу
каты
катынь
катэгарычна
катэгорыю
катэгорыя
катэгорыяу
катэгорыях
катэгорыі
катэдра
катэдраи
катэдральнага
катэдральны
катэдральным
катэдрау
катэдру
катэдры
катэнарыя
катэхізіс
кау
кафедры
кафэ
ках
каханаи
каханку
каханоу
каханьне
каханьнем
каханьня
каханьні
кахоу
каце
кацярына
кацярынаи
кацярыне
кацярыны
каціных
качынскі
качэрыцкім
качэу
кашале
кашары
кашмір
кашміру
кашміры
каштавала
каштавау
кашталян
кашталяна
кашталянам
кашталяны
каштарыс
каштарысе
каштарысу
каштоу
каштуе
кашулі
каэфіцыент
каю
кая
каір
каіры
кб
кв
квадрат
квадрата
квадратная
квадратны
квадратных
квадратныя
кваи
кваліфікацыи
кваліфікацыю
кваліфікацыя
кваліфікацыі
квантаваи
квартал
кварталау
квартале
кварталы
квас
кватэра
кватэрау
кватэру
кватэры
кветак
кветка
кветкавых
кветкамі
кветкі
квт
квэбэк
квэбэку
квяткоу
квіткоу
квіткі
квітнее
квітня
квіток
кг
кгб
кдб
кдк
ке
кевін
кезгаи
кеи
кель
кельлі
кельцкага
кельцкае
кельцкіх
кельцкія
келіх
кембрыдж
кембрыджы
кемелішкау
кемерау
кен
кенобі
кенэдзі
кенія
кеніі
кеплер
кепска
кер
кераміка
керамікі
кечуа
ки
киев
кино
кирилл
киі
кк
ккал
кл
кла
клад
кладаньняу
кладаньні
кладуць
клады
клаи
клапаціцца
клара
кларк
класа
класса
клау
кле
клеи
клеткі
клецак
клецкага
клецку
клецкі
клецкім
клопат
клуб
клуба
клюб
клюба
клюбам
клюбамі
клюбау
клюбах
клюбе
клюбнага
клюбных
клюбу
клюбы
ключ
ключа
ключавым
ключавых
ключавыя
ключае
ключала
ключалі
ключана
ключаная
ключаны
ключаныя
ключау
ключаць
ключаюць
ключна
ключом
ключы
ключылі
ключыу
ключэньне
ключэньня
клявішныя
клявішнік
клявішы
кляи
кляс
кляса
клясау
клясах
клясе
клясная
клясу
клясы
клясык
клясыка
клясыкаи
клясыкі
клясыфікацыя
клясыфікацыяи
клясыфікацыі
клясыцызму
клясычнага
клясычнае
клясычнаи
клясычная
клясычную
клясычны
клясычным
клясычных
клясычныя
кляу
кляштар
кляштара
кляштарау
кляштарнага
кляштарны
кляштару
кляштары
кляшторнага
кляшчэлі
кліентау
клімавіцкага
клімавіцкі
клімавіцкім
клімавічы
клімат
кліматам
клімату
кліматычных
кліматычныя
клімау
клімаце
клімковіч
клімэнт
клін
клінічнаи
клінічная
кліп
кліу
кліч
клічау
км
кмокнига
кн
кндр
книг
книга
книги
книжка
кнр
княгіня
княгіні
княжаньне
княжаньня
княжества
княжыч
князе
князем
князь
князю
князя
князям
князямі
князі
княскага
княскаи
княскі
княства
княствам
княствау
княстве
княству
княствы
кні
кніг
кніга
кнігадрукаваньня
кнігазбор
кнігаи
кнігамі
кнігарня
кнігарні
кнігау
кнігах
кнігу
кнігі
кніжак
кніжка
кніжку
кніжкі
кніжнага
кніжнае
кніжнаи
кніжная
кніжны
кніжных
кнізе
ко
кобрынскага
кобрынскаи
кобрынскі
кобрынскім
кобрынь
кобрыні
кова
коваль
ковель
ковенскага
ковенскаи
ковенская
ковенскі
ковчег
ковіч
когда
код
кодам
кодау
коду
коды
кодэкс
кодэкса
кодэксам
кодэксу
кожнага
кожнае
кожнаи
кожнаму
кожная
кожную
кожны
кожным
кожныя
козел
кои
кол
кола
колавых
колам
коламі
колас
коласа
колау
колах
коле
коледж
коледжы
колер
колерам
колерамі
колерау
колеру
колеры
количество
колу
колы
кольвек
колькасна
колькасць
колькасьць
колькасьцю
колькасьці
колькі
кольца
кольцау
кольцы
колішняга
колішняе
колішняи
колішняя
колішні
колішнім
колішніх
колішнія
ком
кома
команде
коми
комиссиею
комиссии
комитет
комитета
комментарии
коммерсантъ
комплекс
комплексам
комплексау
комплексе
комплексны
комплексу
комплексы
комсомольская
комі
коміксау
комітет
кон
конан
конга
конеи
конкакаф
конкурс
конкурсау
конкурсах
конкурсе
конкурсу
коннаи
конная
конны
конныя
конрад
конрада
конскіх
константин
консул
консульства
конт
контексте
контракт
контракты
контрарэвалюцыи
контррэвалюцыи
контрфорсамі
контур
конференции
конца
конь
коньнікау
коньніца
коньніцы
коні
коп
копысь
копію
копія
копіяу
копіі
корань
кораню
кораня
коратка
корбут
корвін
кореличского
корж
коричневые
корк
корм
корну
корпус
корпуса
корпусам
корпусе
корпусу
корпусы
корсак
корсакау
корчмау
коршунава
косава
косаве
косау
космас
космасе
космасу
коста
костак
косткі
косы
косьці
кот
которые
которыи
котра
коту
коу
коханау
кошт
коштам
коштау
кошту
кошты
кошце
кошыцэ
кп
кпб
кпзб
кпк
кпсс
кра
кравец
крае
краем
краи
кракава
кракаве
кракау
крама
крамау
крамах
крамбамбуля
краме
крамко
крамля
краму
крамы
крамяне
кранау
крапіва
крапівы
крапіу
краса
красавік
красавіка
красавіку
красамоу
краслау
краснадар
краснае
краснапольле
краснапольскага
краснапольскі
краснапольскім
красная
краснаярск
краснаярскага
краснаярскі
красноу
красны
красоу
красофт
кратамі
краткая
краткии
кратна
краток
краты
кратэр
крау
крафт
крафта
крачэу
крашэу
краю
края
краявід
краявіды
краязнавец
краязнау
краях
краі
краін
краіна
краінаи
краінам
краінамі
краінау
краінах
краіне
краінска
краінскага
краінскае
краінскаи
краінская
краінску
краінскую
краінскі
краінскім
краінскімі
краінскіх
краінскія
краіну
краінцау
краінцы
краіны
крои
крок
крокам
крокау
кроку
крокі
крон
крона
кронау
кроніка
кронікі
кропак
кропка
кропкаи
кропку
кропкі
кроплі
кроу
кру
круг
круга
круглага
круглае
круглаи
круглая
круглы
круглым
круглымі
круглых
круглыя
круглянскага
круглянскі
круглянскім
кружэлка
кружэлкі
крузе
крук
крукоу
крумкачы
крупау
крупкі
крупскага
крупскаи
крупскі
крупскім
крупы
крус
круціцца
кручэньня
кры
крывавы
крывалінеи
крываце
крывая
крыве
крывое
крывы
крыві
крывіцкага
крывіцкаи
крывіцкі
крывічоу
крывічы
крыгалом
крыж
крыжа
крыжакамі
крыжакоу
крыжакі
крыжам
крыжаноу
крыжау
крыжова
крыжовага
крыжовы
крыжовымі
крыжовых
крыжовыя
крыжом
крыжоу
крыжу
крыжы
крызы
крызіс
крызісу
крык
крыла
крыламі
крылау
крыле
крыло
крылом
крылы
крым
крыма
крыме
крымскага
крымскаи
крымскататарску
крымская
крымскі
крымскім
крымскіх
крымскія
крыму
крымінальна
крымінальнага
крымінальнае
крымінальнаи
крымінальная
крымінальную
крымінальны
крымінальным
крымінальных
крымінальныя
крынкау
крынкі
крыніц
крыніца
крыніцазнау
крыніцаи
крыніцамі
крыніцау
крыніцах
крыніцу
крыніцы
крыпта
крыпце
крыс
крыстал
крыстафэр
крыстына
крыстыян
крыстыяна
крысьціна
крыт
крытык
крытыка
крытыкавау
крытыкаи
крытыкамі
крытыкау
крытыку
крытыкі
крытыцы
крытычна
крытычны
крытычных
крытычныя
крытэр
крытэрам
крытэрау
крытэры
крыу
крыху
крычаве
крычау
крыштале
крышталь
крышталі
крыштап
крыштапа
крыштаф
крыштафа
крэатыу
крэва
крэдыт
крэдыту
крэи
крэмль
крэпасьць
крэпасьці
крэсла
крэу
кс
ксавэры
ксавэрыя
ксе
ксенія
ксяндза
ксяндзом
ксяндзоу
кт
ктар
кто
ктулху
ку
куб
куба
кубак
кубамэтрау
кубападобны
кубе
кубка
кубкау
кубку
кубота
кубу
кубы
кубэ
кубіи
кубінскі
кувэи
кудряшова
куды
кузава
кузьма
кузьмы
кузьміч
кузьня
кузьняцоу
кузьні
кузьніца
куи
кук
кука
кукуруза
кукурузы
кулагін
кулакоу
куле
куль
культ
культу
культур
культура
культураи
культурале
культуралогія
культурау
культурах
культурна
культурнага
культурнае
культурнаи
культурная
культурное
культурную
культурны
культурным
культурных
культурныя
культуру
культуры
куля
куляме
куляшова
куляшоу
кулі
кулібін
кулік
кулікоу
кулінарыі
кулінковіч
кум
кун
кунцау
кунцэвіч
кунцэвіча
купал
купала
купалам
купаламі
купалау
купалоу
купалу
купалы
купальле
купальны
купец
куплі
купца
купцоу
купцы
купэр
купіу
купіць
кур
куранецкага
курапатау
курапатах
курапаты
курган
кургане
курганны
курганоу
курганскаи
курганы
куркач
курловіч
курляндыя
курляндыі
курорт
курорты
курс
курса
курсау
курсах
курсе
курск
курскаи
курская
курсу
курсы
курт
куры
курыі
курьер
курэи
кустоу
кут
кута
кутах
кутнімі
кутнія
кутом
кутоу
кутузава
куты
кухня
кухні
куце
кушаль
кушаля
кую
куяу
кхл
кхп
кцые
кштаи
кшталту
кштота
кшыштаф
къ
кыргыстан
кыргыстане
кыргыстану
кэи
кэнакс
кэпіталз
кэрал
кэры
кэтрын
кюры
кі
кідае
кідау
кіе
кіева
кіевам
кіеве
кіеву
кіеу
кіи
кіль
кіляват
кіляграм
кіляграмау
кілямэтар
кілямэтрау
кілямэтрах
кілямэтры
кім
кін
кіна
кінаактор
кінаакторка
кінакрытыкау
кінарэжысэр
кінастудыі
кінастужка
кінастужкі
кінатэатар
кінатэатрах
кінатэатры
кінафэстываль
кінафэстывалю
кінафэстывалі
кінафільмау
кінг
кінга
кінгс
кіно
кінулі
кінуу
кінуць
кінэматаграфістау
кінэматаграфіі
кіпель
кіпеньня
кіпр
кіпру
кіпры
кіпрыян
кір
кіра
кірава
кіраваградзкаи
кіравала
кіравалася
кіравалі
кіраваліся
кіраваньне
кіраваньнем
кіраваньня
кіраваньні
кіравау
кіраваць
кірау
кіркор
кірмаш
кірмашоу
кірмашу
кірмашы
кіроу
кіруе
кіруецца
кірунак
кірункам
кірункамі
кірункау
кірунках
кірунку
кірункі
кіруюцца
кіруюць
кіруючаи
кіруючы
кіруючых
кірха
кірыл
кірыла
кірылау
кірылы
кірыліца
кірыліцаи
кірыліцы
кірылічнага
кірылічны
кірылічных
кісель
кіслароду
кісьля
кісьляу
кісьлі
кісяле
кісялі
кіт
кіта
кітаем
кітаи
кітаю
кітая
кітаі
кітс
кіх
кішка
кішкау
кішкі
кішыне
кія
кіясакі
л
ла
лабадзенка
лабачэу
лава
лавы
лавіцкі
лавіч
лавіча
лавічы
лагадоу
лагас
лагои
лад
лада
ладальнік
ладальніка
ладальнікам
ладальнікамі
ладальнікау
ладальнікі
ладам
ладамі
ладаньне
ладаньнем
ладаньня
ладаньняу
ладаньні
ладар
ладара
ладау
ладжаньне
ладзе
ладзьдзя
ладзяцца
ладзяць
ладзіла
ладзілася
ладзілі
ладзіліся
ладзімер
ладзімера
ладзімерам
ладзімеру
ладзіслава
ладзіслау
ладзіу
ладзіцца
ладзіць
ладкаваньне
ладкаваньня
ладкавау
ладу
лады
ладыслава
лае
лазар
лазара
лазоу
лазука
лазьня
лазьні
лаи
лак
лакотка
лам
ламаносава
ламі
ланка
ланцуг
ланцуга
ланцугоу
ланцугу
ланцугі
лань
лапаткамі
лапаткі
лапы
лапіцкі
лар
лары
ларыса
ларысы
лас
ласка
ласкі
ласла
ласна
ласнага
ласнае
ласнаи
ласнасьць
ласнасьцю
ласнасьці
ласная
ласную
ласны
ласным
ласнымі
ласных
ласныя
ластау
ластоу
ласьнік
ласьніка
ласьнікау
ласьціва
ласьцівасьць
ласьцівасьцямі
ласьцівасьцяу
ласьцівасьці
ласьцівая
ласьцівы
ласьцівыя
лат
латвіи
латвію
латвія
латвіяи
латвіі
латгаліі
латыскага
латыскаи
латыская
латыску
латыскую
латыскі
латыскіх
латышонак
латышоу
латышы
лау
лах
лахва
лац
лаціна
лаціне
лацінка
лацінкаи
лацінку
лацінкі
лацінскага
лацінскае
лацінскаи
лацінская
лацінску
лацінскую
лацінскі
лацінскім
лацінскіх
лацінскія
лаціны
лашкевіч
лая
лгбт
лд
ле
леанард
леанарда
леані
леанід
леаніда
леапард
леапольд
леапольда
лебедев
лебедзева
лебедзеу
лебедзь
лев
лева
левага
левае
леваи
левандоу
леванеу
левантэ
левая
левы
левым
левых
левыя
левэнгау
леві
левіна
левіч
левічы
легенда
легендаи
легендарнага
легендарны
легендау
легендзе
легенды
легкавых
легіе
легіянэрау
ледавік
ледавіка
ледавіковага
ледавіковыя
ледзь
леи
лекаваньня
лекавых
лекавыя
лекар
лекара
лекарам
лекарау
лекары
лекау
лексыка
лексыкі
лексыцы
лексычных
лексэмау
лекции
лекцыи
лекцыя
лекцыяу
лекцыі
лекі
лельчыцау
лельчыцкага
лельчыцкім
лельчыцы
лем
лемантар
лемцюгова
лемцюговаи
лена
ленага
ленае
ленаи
ленаму
ленан
ленасьць
ленасьцяу
ленасьці
леная
ленинград
ленне
лення
ленні
ленскі
леную
ленчага
ленчае
ленчы
ленчым
ленчых
ленчыя
лены
леным
ленымі
леных
леныя
леньне
леньнем
леньню
леньня
леньнямі
леньняу
леньні
ленін
леніна
ленінград
ленінградзе
ленінградзкага
ленінградзкаи
ленінградзкая
ленінградзкі
ленінградзкім
ленінскага
ленінскаи
ленінская
ленінскі
ленінскім
леніну
лео
леон
леонид
леонэ
лепеи
лепель
лепельскага
лепельскі
лепельскім
лепш
лепшага
лепшае
лепшаи
лепшаму
лепшая
лепшую
лепшы
лепшым
лепшымі
лепшых
лепшыя
лер
лера
лерз
лермантава
лес
лесам
лесе
лесота
лесу
лесьвіца
лесьвіцы
леся
лесі
лет
лета
летам
летапіс
летапісау
летапісах
летапісе
летапісец
летапісны
летапісных
летапісу
летапісы
летию
летку
летняга
летняи
летняя
летні
летніх
летнія
летописеи
летопись
летува
летуве
летувои
летуву
летувы
летувісамі
летувісау
летувіска
летувіскага
летувіскае
летувіскаи
летувіская
летувіску
летувіскую
летувіскі
летувіскім
летувіскімі
летувіскіх
летувіскія
летувісы
леу
лех
лешч
лз
лза
лзу
ли
лига
лидского
литва
литве
литвин
литвы
литература
литературная
литературы
литовская
литовскии
литовских
литовско
литовского
литовское
литовскои
литовцев
лк
лка
лкау
лках
лксмб
лку
лкі
ло
лоб
лович
ловіч
лог
логвінау
лодак
лодзь
лодзі
лодка
лодкі
лоеу
ложак
ложкау
ложку
ложы
лои
лок
локі
лонг
лорд
лос
лось
лоу
лошніцы
лошыца
лсср
лу
лубін
луг
лугавая
луганскаи
лугоу
лугі
лужанін
лужкі
лужыцкіх
лук
лука
лукас
лукау
лукаш
лукаша
лукашенко
лукашук
лукашэвіч
лукашэнка
лукашэнкам
лукашэнку
лукашэнкі
лукша
лукі
лунінец
лунінецкага
лунінецкі
лунінецкім
луцак
луцкага
луцкевіч
луцкевіча
луцку
луцкі
луцы
луцэвіч
лучае
лучала
лучалі
лучау
лучаюць
лучковымі
лучшие
лучылі
лучыу
луіза
луіс
лы
лыжах
лыжкі
лынтупскага
лынькоу
лыскау
лыч
ль
льва
львова
львове
львом
львоу
львы
львів
льевіч
льеж
лька
льле
льн
льнага
льная
льну
льны
льская
льскі
льюіс
льюіса
лэдзі
лэи
лэн
лэнд
лэндзе
лэндэрз
лэне
лэну
лэп
лэстэр
лэсьлі
лю
люара
любавскии
любамірскага
любамірскіх
любанскага
любанскі
любанскім
любань
любая
любви
любе
любеч
люблю
любляна
люблін
любліне
люблінскага
люблінскае
люблінскаи
люблінскім
любовь
любові
любога
любое
любои
любоу
любую
любча
любы
любым
любых
любыя
любіу
любіць
люд
людвіг
людвіга
людвік
людвіка
людвікі
людеи
людзеи
людзьмі
людзям
людзі
люди
людмила
людміла
людовік
людовіка
люду
люк
люка
люксэмбург
люксэмбургу
люксэмбурску
люксэмбурскі
люстрацыі
люстэрка
люсі
лютага
лютау
люты
лютым
лютэр
лютэра
лютэране
лютэранскаи
лютэранская
лютэранскі
лютэранства
люу
люцыян
люцыяна
люцічау
люі
люіджы
люіс
люіса
ля
лябараторыю
лябараторыя
лябараторыяу
лябараторыі
лябе
лявон
лявона
лявонау
лявіцкі
ляг
ляга
лягатып
лягау
лягер
лягера
лягерау
лягерах
лягероу
лягеру
лягеры
лягчэи
лядзкага
лядоу
ляды
ляе
ляецца
ляжала
ляжау
ляжаць
ляжинского
ляжыць
ляи
лякальных
лякаматыу
лякарню
лякарня
лякарні
лякацыи
ляла
лялася
лялек
лялькі
ляльны
ляльных
лялі
ляліва
ляліся
лямпы
лянага
лянае
лянаи
лянау
ляная
лянд
ляндзе
ляндскапе
лянду
ляндшафт
ляндшафту
лянскага
лянскі
лянскім
ляную
ляны
ляным
лянымі
ляных
ляныя
ляпіс
ляр
лярэнца
ляс
лясамі
лясах
лясная
ляснога
ляснои
лясны
лясным
лясных
лясныя
лясоу
лясох
лясы
лясьніцтва
ляу
лях
ляхавіцкага
ляхавіцкі
ляхавіцкім
ляхавічы
ляхау
ляхоу
ляхі
ляцца
ляцые
ляць
лячэньне
лячэньня
лячэньні
ляшчынскага
ляшчынскі
ляшчэня
ляюцца
ляюць
ляючы
ляючыся
лі
лібава
лібан
лібану
лібрэта
лібэральна
лібэральнаи
лібэртадорэс
лібэрыі
лібіи
лібія
лібіі
ліва
лівага
лівае
ліваецца
ліваи
лівасьць
лівасьці
лівау
лівая
лівонскага
лівонскаи
лівонскі
лівоніі
лівы
лівых
лівыя
лівэрпул
лівэрпулу
ліга
лігаи
лігау
лігах
лігу
лігі
лід
ліда
лідар
лідзе
лідзкага
лідзкаи
лідзкі
лідзкім
лідзтва
лідзія
лідс
лідскі
лідства
ліду
ліды
лідэр
лідэра
лідэрам
лідэрамі
лідэрау
лідэрства
лідэры
ліе
лізавета
лізаветы
лізе
лік
ліка
лікам
лікау
ліквідавалі
ліквідавана
ліквідаванага
ліквідаваная
ліквідаваны
ліквідаваныя
ліквідавау
ліквідаваць
ліквідацыю
ліквідацыя
ліквідацыяи
ліквідацыі
ліке
ліку
лікі
ліль
лілі
лілія
лім
ліман
лімарыус
лін
ліна
лінау
лінгвіст
лінгвістам
лінгвістау
лінгвісты
лінгвістыка
лінгвістыкі
лінгвістыцы
лінгвістычнага
лінгвістычны
лінда
лінеи
лінка
лінова
ліны
лінь
лініи
лінію
лінія
лініяи
лініямі
лініяу
лініях
лініі
ліпа
ліпау
ліпень
ліпеня
ліпені
ліпкі
ліпнікі
ліпнішкау
ліпнішкі
ліпск
ліпскі
ліптау
ліпы
ліра
лірыка
лірыкі
лірычны
лірычныя
ліс
ліса
лісабон
лісоу
ліст
ліста
ліставаньне
лістамі
лістапад
лістапада
лістападау
лістападзе
лістападу
лістах
лістом
лістоу
лісты
лісьце
лісьцем
лісьця
літ
літар
літара
літараи
літаральна
літарамі
літаратар
літаратара
літаратарау
літаратары
літаратура
літаратуразнавец
літаратуразнау
літаратураи
літаратурна
літаратурнага
літаратурнае
літаратурнаи
літаратурная
літаратурную
літаратурны
літаратурным
літаратурнымі
літаратурных
літаратурныя
літаратуру
літаратуры
літарау
літару
літары
літау
літбел
літва
літве
літвои
літву
літвы
літвін
літвінау
літвіны
літо
літоу
літра
літрау
літсупрацоу
літургічных
літургіі
ліу
ліфс
ліхтэнштаи
ліца
ліцеи
ліцьвін
ліцьвіна
ліцьвінава
ліцьвінам
ліцьвінамі
ліцьвінау
ліцьвінка
ліцьвіны
ліцэи
ліцэнзію
ліцэнзіі
ліцэю
ліцэі
лічацца
лічаць
лічачы
лічба
лічбавага
лічбавае
лічбаваи
лічбавая
лічбавы
лічбавым
лічбавых
лічбавыя
лічбау
лічбу
лічбы
лічваць
лічу
лічы
лічыла
лічылася
лічылі
лічыліся
лічыу
лічыцца
лічыць
лічэбнікау
лічэбнікі
лішаи
лішкі
ліштвамі
ліштвах
ліштвы
лія
м
ма
мабыць
мабільнага
мабільнаи
мабільная
мабільны
мабільных
мабільныя
мабілізаваны
мабілізацыи
мабілізацыя
мабілізацыі
мавіч
маг
мага
магазын
магазін
магдалена
магдалены
магдэбурскага
магдэбурскае
магла
магло
маглі
магнат
магнатау
магнаты
магнацкага
магнус
магнітнага
магнітнае
магнітным
магнітных
маголау
магу
магутнага
магутнаи
магутнасьць
магутнасьцю
магутнасьці
магутная
магутны
магутным
магутнымі
магутных
магутныя
магчыма
магчымага
магчымае
магчымаи
магчымасьць
магчымасьцю
магчымасьцямі
магчымасьцяу
магчымасьці
магчымая
магчымы
магчымым
магчымых
магчымыя
магіла
магілаи
магіле
магілеу
магілу
магілы
магістар
магістра
магістраль
магістралі
магістрам
магістрат
магістрату
магістрау
мадагаскар
мадам
мадонна
мадрыд
мадрыдзе
мадрыдзкага
мадрыдзкі
мадыфікацыя
мадыфікацыяу
мадыфікацыі
мадэль
мадэльлю
мадэляваньня
мадэляу
мадэлі
мадэрн
мадэрну
мадэрнізаваны
мадэрнізацыя
мадэрнізацыі
мадэрнізму
мае
маем
маеу
маецца
мажаи
мажліва
мажлівасьць
мажлівасьці
мажор
мажэи
маз
мазавецкага
мазавецкі
мазавецкім
мазаічная
мазыр
мазырскага
мазырскаи
мазырскі
мазырскім
мазыры
маи
мак
макае
макар
макарава
макарау
макартні
макарэвіч
макау
макед
македонскага
македонскаи
македонская
македонску
македонскі
македонія
македоніі
макеи
макоу
макс
макса
максим
максымальна
максымальнаи
максымальная
максымальны
максымум
максі
максім
максіма
максімам
максімау
максімюк
маку
мала
малаві
малагасіи
маладая
маладзе
маладзеи
маладзечанскага
маладзечна
маладняк
маладняка
маладога
маладое
маладои
маладосць
маладосьць
маладосьці
малады
маладым
маладымі
маладых
маладыя
маладэчанскага
маладэчанскаи
маладэчанскі
маладэчанскім
маладэчна
маладэчне
малаи
малака
малако
малаком
маланка
маланкі
маларасеи
маларыцкага
маларыцкім
малася
малафееу
малахоу
малашэвіч
малая
малаіта
малдау
малдова
малдове
малдовы
малдоу
малеи
малекул
малекулау
малекулы
малекулярнаи
маленства
маленькага
маленькаи
маленькая
маленькі
маленькім
маленькіх
маленькія
мало
малога
малодшага
малодшаи
малодшая
малодшы
малодшым
малодшых
малое
малои
малоритского
малочна
малочнаи
малочная
малочны
малочных
малочныя
малпау
малую
малы
малым
малымі
малых
малыя
мальдзіс
мальдзіса
малье
мальер
мальера
мальме
мальта
мальты
мальтыи
мальцау
мальце
малюнак
малюнка
малюнкам
малюнкамі
малюнкау
малюнках
малюнку
малюнкі
малюскау
маляваньня
малявау
маляваць
маляр
малярства
маляу
малі
маліна
малінау
маліноу
маліся
малітва
малітвау
малітву
малітвы
малітоу
малішэу
мам
мама
мамі
ман
мана
манаграфію
манаграфія
манаграфіяу
манаграфіі
манаи
манака
манале
манам
манарх
манарха
манархам
манархау
манархію
манархія
манархіі
манаскі
манаства
манастыр
манастыра
манастыроу
манастырскі
манастыру
манастыры
манах
манахам
манахау
манахі
мангаи
мангола
манголау
манголы
мангольскага
мангольскае
мангольскаи
мангольская
мангольскіх
манголія
манголіі
мандат
мандатау
мане
манеры
манпэлье
манро
манрэаль
манрэалі
мансіи
мантаж
мантэвідэо
ману
манумэнт
мануфактура
мануфактуры
мануэль
манчэстэр
маньня
манэ
манэт
манэта
манэтау
манэтах
манэту
манэты
манэу
манюшка
манюшкі
маніторынгу
маніфэст
маніфэсту
мао
мапа
мапау
мапах
мапе
мапу
мапы
мар
мара
маравіі
марак
маракова
маракоу
маральна
маральнага
маральнаи
маральных
маральныя
маралі
мараплавец
мараплау
марат
маратгі
марау
маргарыта
маргарэт
мардовія
мардовіі
мардоу
марзалюк
мария
марк
марка
маркава
маркаи
маркам
маркау
марках
маркевіч
маркетынгу
марко
маркоу
маркс
маркса
марксізму
марку
маркі
марлі
мармуру
маро
мароз
марозава
марозау
марозіва
марока
марс
марса
марская
марскога
марское
марскои
марскую
марскі
марскім
марскімі
марскіх
марскія
марсэль
марта
марты
мартын
мартына
мартынау
мартыненка
мартырале
мару
марфале
марфалогія
марфэмау
марфэмы
мархель
марцы
марцыян
марцэлеу
марцін
марціна
марцінам
марцінкевіч
марцінкевіча
марціновіч
марчук
марш
маршал
маршала
маршалак
маршалка
маршалкам
маршрут
маршрутау
маршрутах
маршруту
маршруты
маршруце
маршу
маршы
мары
марые
марыи
марына
марыс
марыу
марыць
марыю
марыя
марыяи
марыян
марыяна
марыянау
марыі
марэк
мас
маса
масава
масавага
масавае
масаваи
масавая
масавую
масавы
масавым
масавымі
масавых
масавыя
масаи
масальскі
масау
масачусэтс
масе
масева
маска
маскавітау
маскале
маскаль
маскальскаи
маскалізацыі
масква
маскве
масквои
маскву
масквы
масковіяи
масковіі
маскоу
маскі
масла
маслабои
масных
маст
маста
мастак
мастака
мастакамі
мастаком
мастакоу
мастаку
мастакі
мастацка
мастацкага
мастацкае
мастацкаи
мастацкая
мастацкую
мастацкі
мастацкім
мастацкіх
мастацкія
мастацтва
мастацтвазнау
мастацтвам
мастацтвау
мастацтве
мастацтву
мастачка
мастоу
масты
масу
масы
масьць
масьцю
масьці
масюкоу
масівау
масіву
масівы
масіу
мат
мата
материалов
материалы
маторныя
матч
матчам
матчау
матчах
матчу
матчы
матчынаи
матывамі
матывау
матывах
матывы
матыу
матыяс
матэи
матэматык
матэматыка
матэматыку
матэматыкі
матэматыцы
матэматычнага
матэматычнаи
матэматычная
матэматычны
матэматычным
матэматычных
матэматычныя
матэрыял
матэрыялам
матэрыяламі
матэрыялау
матэрыялах
матэрыяле
матэрыялу
матэрыялы
матэрыяльна
матэрыяльнага
матэрыяльнае
матэрыяльнаи
матэрыяльная
матэрыяльную
матэрыяльны
матэрыяльных
матэрыяльныя
матэрыі
мау
мах
мацаваны
мацаваныя
мацаваньне
мацаваньня
мацаваньняу
мацаваньні
мацеи
мацерыка
мацея
мацкевіч
мацнеи
мацоу
мацца
маць
мацьвеи
мацьвея
мацяш
маці
маціцы
маша
маштаб
маштабах
маштабе
маштабу
машын
машына
машынабудаваньне
машынабудаваньня
машынабудау
машынау
машынах
машыне
машыну
машыны
машэрава
маю
маюцца
маюць
маючы
маючыся
мая
маяк
маякоу
маямі
маі
маім
маісееу
маіх
мб
мбрр
мвд
мвт
мвф
мг
мга
мгу
мгц
мду
ме
медзь
медзі
медна
медысонт
меж
межавала
межамі
межань
межау
межах
между
международнои
межы
меи
мела
мелася
мележа
мельнік
мельнікау
мелі
меліся
менавалі
менавана
менаваная
менаванні
менаваны
менаваньні
менавау
менавіта
менгарвыканкаму
менеи
менка
меннага
меннае
меннаи
менная
менны
менным
менныя
менск
менска
менскага
менскае
менскаи
менскам
менскаму
менская
менску
менскую
менскі
менскім
менскіх
менскія
менчука
менш
меншага
меншае
меншаи
меншасьць
меншасьцяу
меншасьці
меншая
меншую
меншчыне
меншчыны
меншы
меншым
меншых
меншыя
меньне
меньня
меньняу
меньні
меньнік
меньнікау
меньнікі
меня
мер
мера
меравіч
мерана
мераных
мерапрыемства
мерапрыемствау
мерапрыемствах
мерапрыемствы
мерау
мерах
меркавалася
меркавалі
меркавана
меркаваньне
меркаваньня
меркаваньняу
меркаваньні
меркавау
меркаваць
меру
меры
мескага
мескае
мескаи
меская
мескую
мескі
мескім
мескіх
мескія
мест
места
местам
местамі
местау
местах
местачкоу
местечки
местных
место
месту
месты
месца
месцазнаходжаньне
месцазнаходжаньня
месцам
месцамі
месцау
месцах
месцы
месьце
месьцяцца
месьцілася
месьціліся
месьціу
месьціцца
месьціць
месьцічау
месьцічы
месяц
месяца
месяцам
месяцау
месяцу
месяцы
месячнік
метадычны
метро
меу
мець
меч
мечнік
мечыслау
мешка
мз
мза
мзкц
мзс
ми
микола
миколаі
министерства
министерство
министра
министров
минск
минска
минская
минске
минские
минскии
минского
минское
минскои
минском
мир
мира
мире
мировая
мировои
миру
мифы
михаи
михаил
михаила
мк
мкад
мкі
мкіна
мл
млн
млрд
млс
млын
млына
млыноу
млыны
мм
мн
мна
мнага
мнае
мнаи
мная
мне
многа
много
многім
многімі
многіх
многія
множнага
множны
множным
мнои
мноства
мноствам
мноствау
мнс
мную
мны
мным
мнымі
мных
мныя
мнік
мо
мова
мовазнавец
мовазнау
моваи
мовам
мовамі
мовау
мовах
моваю
мове
мови
мовою
мову
мовы
мог
могиле
могилев
могилевская
могилевского
могилевскои
могилевъ
могуць
могілак
могілкавая
могілках
могілкі
могільнік
мода
модуль
моды
можа
можам
может
можна
мозаг
мозгу
мои
мокрау
моладзевага
моладзеваи
моладзевая
моладзевую
моладзевы
моладзевым
моладзевых
моладзевыя
моладзь
моладзі
молат
молата
молатава
молатау
молодая
молоде
момант
момантам
моманту
моманты
мон
мона
монт
монта
монтэ
моніка
мора
морам
морау
морган
морзэ
морс
моры
морыс
москва
москве
москвы
московскии
московского
мост
моста
мостам
мостовского
мосту
мосьце
моу
мох
моц
моцарт
моцарта
моцна
моцнага
моцнае
моцнаи
моцная
моцную
моцны
моцным
моцнымі
моцных
моцныя
моцы
мошчы
моя
мп
мпз
мроя
мс
мса
мства
мсціслау
мсьціслава
мсьціслау
мсьціу
мтз
мтс
му
мугаджары
мугір
мудрага
мудрасьць
мудрасьці
мудры
муж
мужа
мужам
мужнасьць
мужу
мужчын
мужчына
мужчынам
мужчынамі
мужчынау
мужчынскага
мужчынскае
мужчынскаи
мужчынская
мужчынскую
мужчынскі
мужчынскім
мужчынскіх
мужчынскія
мужчыны
мужыкі
муз
музеи
музея
музеі
музы
музыка
музыказнау
музыкаи
музыкальнаи
музыкальная
музыкам
музыкамі
музыкант
музыкау
музыку
музыкі
музыцы
музычна
музычнага
музычнае
музычнаи
музычная
музычную
музычны
музычным
музычных
музычныя
музэем
музэи
музэю
музэя
музэяу
музэях
музэі
мука
муку
мукі
мультфільм
мультфільмау
мультымэдыи
мультыплікацыи
мумбаі
мунда
муниципальным
муниципальных
муніцыпальнага
муніцыпальнае
муніцыпальнаи
муніцыпальны
муніцыпальных
муніцыпалітэт
муніцыпалітэтау
муніцыпалітэту
муніцыпалітэты
муніцыпалітэце
мур
мура
мураванага
мураванаи
мураваная
мураваную
мураваны
мураваным
мураваных
мураваныя
мурам
мурау
мурашка
муроу
муру
муры
мус
мусаліні
мустафа
мусульман
мусульманамі
мусульманау
мусульмане
мусульманскага
мусульманскаи
мусульманскіх
мусяць
мусіла
мусілі
мусіу
мусіць
муха
мухавец
мухамад
мухамада
мухау
мухі
мучаніка
мучанікау
мушынскі
мф
мы
мым
мынца
мынцы
мыс
мыса
мысль
мысна
мысьленьне
мысьленьня
мысьляр
мысьлі
мыта
мытау
мытнага
мытны
мытных
мытні
мыты
мых
мыш
мышы
мыя
мэ
мэбля
мэблі
мэгават
мэд
мэдале
мэдаль
мэдалье
мэдаля
мэдалямі
мэдалі
мэдык
мэдыка
мэдыцына
мэдыцыне
мэдыцынскаи
мэдыцынскі
мэдыцынскіх
мэдыцыну
мэдыцыны
мэдычнага
мэдычнае
мэдычнаи
мэдычная
мэдычную
мэдычны
мэдычным
мэдычных
мэдычныя
мэдычы
мэдыя
мэзаліту
мэи
мэксыка
мэксыканскага
мэксыканскі
мэксыкі
мэксыцы
мэле
мэльбурн
мэльбурне
мэльхіе
мэліярацыи
мэліярацыі
мэмарандум
мэмарыял
мэмарыялу
мэмарыяльная
мэмарыяльны
мэмарыяльныя
мэмуары
мэмуарыст
мэн
мэнэджар
мэнэджмэнту
мэню
мэр
мэра
мэрам
мэрк
мэркель
мэркурыи
мэркурыя
мэрта
мэры
мэрыдыянальнаи
мэрылэнд
мэрылін
мэсапатаміі
мэсье
мэсі
мэт
мэта
мэтад
мэтадале
мэтадам
мэтадамі
мэтадау
мэтаду
мэтады
мэтадычны
мэтаи
мэтал
мэталаапрацоу
мэталау
мэтале
мэталу
мэталы
мэталюргічны
мэталюргія
мэталюргіі
мэталічны
мэталічных
мэталічныя
мэтамі
мэтар
мэтау
мэтах
мэтаю
мэтодыкі
мэтра
мэтрале
мэтрапалітэн
мэтрапалітэне
мэтрапалітэну
мэтраполіі
мэтрау
мэтро
мэтру
мэтры
мэтрыкі
мэтрычнаи
мэту
мэты
мэтэарыт
мэханізацыі
мэханізм
мэханізмам
мэханізмау
мэханізму
мэханізмы
мэханік
мэханіка
мэханікі
мэханіцы
мэханічнага
мэханічнаи
мэханічная
мэханічны
мэханічных
мэханічныя
мэхіка
мэце
мэцэнат
мюлер
мюнхен
мюнхэн
мюнхэне
мюрэи
мя
мядельского
мядзе
мядзел
мядзеле
мядзелу
мядзельскага
мядзельскаи
мядзельскі
мядзельскім
мядзьве
мядзьведзева
мядзьведзеу
мядзьведзь
мядзьведзя
мяжа
мяжои
мяжою
мяжу
мяжуе
мяжы
мяккага
мяккаи
мяккая
мяккі
мяккім
мяккіх
мяккія
мялешка
мялешкі
мяне
мянушка
мянушкаи
мянушку
мянушкі
мянушцы
мяняліся
мяркуе
мяркуецца
мяркуюць
мяркуючы
мяса
мясакамбінат
мясам
мясных
мясныя
мяст
мястэчак
мястэчка
мястэчкам
мястэчках
мястэчку
мястэчкі
мясцовага
мясцовае
мясцоваи
мясцоваму
мясцовасьць
мясцовасьцю
мясцовасьцях
мясцовасьці
мясцовая
мясцовую
мясцовы
мясцовым
мясцовымі
мясцовых
мясцовыя
мясьціна
мясьцінау
мясьцінах
мясьціны
мятода
мяцеж
мяцельскі
мяч
мяча
мячамі
мячом
мячоу
мячы
мячэт
мячэту
мяшаныя
мяшаньне
мяшаньня
мяшкова
мяшчанау
мяшчане
мі
міг
мігель
мігрантау
міграцыи
міграцыя
міграцыі
між
міжбанкау
міжваеннаи
міжваенны
міждзяржау
міжзем
міжземнага
міжземнамор
міжземнаморскі
міжземным
міжнар
міжнароднага
міжнароднае
міжнароднаи
міжнародная
міжнародную
міжнародны
міжнародным
міжнароднымі
міжнародных
міжнародныя
міжрае
міжрэчча
міжрэччы
мізуры
мік
мікала
мікалаева
мікалаевіч
мікалаем
мікалаеу
мікалаи
мікалаю
мікалая
мікашэвічы
мікеле
мікелянджэле
мікола
міколам
міколу
міколы
мікольская
мікраарганізмау
мікраау
мікрабіяле
мікрарае
міку
мікуліч
мікулічы
мікі
мікіта
мікіты
міла
мілан
міласэрнасьці
мілася
мілаш
мілеи
мілер
мілеу
мілье
мільярд
мільярдау
мільярды
міля
мілян
міляне
міляну
міляу
мілі
мілімэтрау
міліся
міліцыю
міліцыя
міліцыяи
міліцыянтау
міліцыі
міма
мін
міна
мінаме
мінас
мінг
міндау
міндоу
мінеи
мінор
мінск
мінска
мінскага
мінскаи
мінская
мінску
мінскі
мінула
мінулага
мінулае
мінулы
мінулым
мінулых
мінуу
мінэрал
мінэралау
мінэрале
мінэралы
мінэральнаи
мінэральных
мінэральныя
мінэсота
міні
мінімальная
мінімальны
мінімум
міністар
міністр
міністра
міністрам
міністрау
міністру
міністры
міністэрства
міністэрствам
міністэрствау
міністэрстве
міністэрству
мір
міра
мірам
мірановіч
міраслау
мірнага
мірнае
мірнаи
мірная
мірную
мірны
мірным
мірных
мірныя
міро
мірон
міронау
мірскага
мірскі
міру
міры
міс
міст
міста
містасьць
містасьцю
містасьці
містэр
місысыпі
місіс
місію
місія
місіяи
місіянэр
місіянэрау
місіянэры
місіі
міт
мітале
мітау
мітрапаліт
мітрапаліта
мітрапалітам
мітраполію
мітраполія
мітраполіі
мітрафан
міты
мітынг
мітынгоу
мітынгу
мітынгі
міу
міха
міхаи
міхал
міхала
міхалам
міхалау
міхале
міхалова
міхалу
міхалішкау
міхалішкі
міхась
міхася
міхаэль
міхаі
міхаіл
міхаіла
міхаілам
міхаілу
міхневіч
міхнюк
міцкевіч
міцкевіча
міцца
міць
міцькау
мічыган
мішчанчук
мішэль
мія
н
на
наагул
наадварот
набажэнства
набажэнствау
набажэнствы
набегау
набегі
набліжаецца
набліжанасьці
набліжэньне
набліжэньнем
набліжэньня
наблізіу
набои
набор
наборам
набору
наборы
набоя
набоі
набрала
набрау
набраць
набу
набывае
набывалі
набываць
набываюць
набыла
набыло
набылі
набыты
набытыя
набыу
набыць
набыцьце
набыцьця
набыцьці
набярэжнаи
набярэжная
нав
нава
навага
наваградак
наваградзкага
наваградзкае
наваградзкаи
наваградзкая
наваградзкі
наваградзкім
наваградку
наваградчыне
наваградчыны
навагі
навадворскага
наваельня
наважанага
наважаны
наважаным
наважаных
навазыбкау
навакольле
навакольля
навакольлях
навакольлі
навакольнага
навакольнае
навакольнаи
навакольным
навакольнымі
навакольных
навакольныя
навальніца
навальніцы
навалі
навамоу
наваная
наваны
наваныя
наваполацак
наваполацку
наваполацкі
навасады
навасе
навастворанага
навастворанаи
нават
навау
наведала
наведалі
наведау
наведаць
наведвае
наведвала
наведвальнікау
наведвалі
наведваньне
наведваньня
наведвау
наведваць
наведваюць
наведнікау
наверсе
навокал
навошта
навук
навука
навукаи
навукау
навуках
навукова
навуковага
навуковае
навуковаи
навуковая
навуковец
навуковую
навуковы
навуковым
навуковымі
навуковых
навуковыя
навукоу
навуку
навукі
навум
навумау
навуменка
навумчык
навуцы
навучаецца
навучалася
навучальна
навучальнага
навучальнаи
навучальная
навучальную
навучальны
навучальным
навучальных
навучальныя
навучаліся
навучаньне
навучаньнем
навучаньня
навучаньні
навучау
навучацца
навучаюцца
навучыу
навучэнцау
навучэнцы
навыкау
навыкі
навэлы
навядзеньня
навязка
наві
навігацыи
навігацыі
навікі
навіна
навінау
навінкі
навіны
навіцкі
навіч
навічы
нага
нагадвае
нагадваюць
нагаи
нагамі
нагляд
наглядам
нагляду
нагоды
нагор
нагорна
награждении
нагрузка
нагрузкі
нагу
нагі
над
надавала
надавалася
надавалі
надавау
надаваць
нададзена
нададзенае
нададзены
надае
надаецца
надала
надалеи
надалі
наданьне
наданьня
наданьні
надау
надаць
надаюць
надбудовы
надвор
надворнага
надворны
надзвычаи
надзе
надзеи
надзел
надзенства
надзею
надзея
надзеі
надмагільле
надоу
надпарадак
надпіс
надпісам
надпісамі
надпісау
надпісы
надрукавала
надрукавалі
надрукавана
надрукаваная
надрукаваны
надрукаваныя
надрукавау
надсан
надта
нае
наезд
нажом
нажы
назад
назау
назва
назваи
назвала
назвалі
назвамі
названа
названага
названае
названая
названия
названы
названых
названыя
назвау
назвах
назваць
назваю
назву
назвы
наземных
наземныя
назначаны
назначен
назначении
назовам
назове
назову
назовы
назоу
называе
называецца
называлася
называлі
называліся
называу
называцца
называць
называюцца
называюць
называючы
назьве
назірае
назіраецца
назіралася
назіральніка
назіральнікау
назіральнікі
назіраньне
назіраньня
назіраньняу
назіраньні
назірау
назіраць
назіраюцца
наи
нак
накамандуючага
накамандуючы
накамандуючым
наканавана
наклад
накладам
наколькі
наконт
накрытая
накрыты
накшталт
накіравала
накіравалася
накіравалі
накіраваліся
накіравана
накіраванае
накіраванасьць
накіраваная
накіраваны
накіраваных
накіраваныя
накіраваньне
накіравау
накіраваць
накіроу
наладжаньне
наладзілі
наладзіу
наладзіць
нале
налева
належала
належалі
належау
належаць
належна
належным
належыла
належылі
належыу
належыць
налетніх
нальна
нальная
наліваи
налічвае
налічваецца
налічвала
налічвалася
налічвалі
налічвау
налічваюць
нам
намагаліся
намаганьням
намаганьнямі
намаганьняу
намаганьні
намагау
намагаючыся
намаляваная
намаляваны
намаляваныя
намалявау
наме
намер
намерам
намерна
намеру
намеры
намесьнік
намесьніка
намесьнікам
намесьнікамі
намесьнікау
намесьнікі
намесьніца
намесьніцтва
намоцнага
намоцны
намоцным
намоцтвамі
намоцтвау
намоцтвы
наму
намэнклятуры
намі
намінаваны
намінал
наміналам
намінацыю
намінацыя
намінацыяу
намінацыях
намінацыі
нан
нанб
нане
нанесла
нанесьлі
нанесьці
нанова
наносіць
наноу
нансі
наньне
наньня
наньняу
наньні
нанясеньня
наняу
наогул
напад
нападам
нападау
нападзе
нападнік
нападніка
нападнікам
нападнікау
нападу
напады
напала
напалеон
напалеона
напалеонам
напалеонау
напалову
напалі
напау
напачатку
наперад
наперадзе
напои
напоу
напою
напояу
напоі
напр
направа
напрамак
напрамкау
напрамках
напрамку
напрамкі
напрау
напрацягу
напругаи
напругі
напружанасьць
напружанасьці
напружаньне
напрыканцы
напрыклад
напрыходзкая
напэу
напярэдадні
напісала
напісалі
напісана
напісанага
напісанае
напісанаи
напісаная
напісаны
напісаных
напісаныя
напісаньне
напісаньня
напісаньні
напісау
напісаць
нар
нара
нарада
нараджаецца
нараджэння
нараджэньне
нараджэньня
нараджэньні
нарадзе
нарадзіла
нарадзілася
нарадзіліся
нарадзіу
нараду
нарады
нарау
нарач
нарачанскага
нарачанскі
нарб
нарбут
нарбута
нарв
нарва
нарвою
нарвэгія
нарвэгіяи
нарвэгіі
нарвэскага
нарвэскаи
нарвэская
нарвэску
нарвэскі
нарвэскім
наркам
наркамау
наркевіч
наркотыкамі
наркотыкау
нармалізацыя
нармандыя
нармандыі
нарматыу
нарніі
наро
народ
народа
народам
народамі
народау
народжаная
народжаны
народзе
народзінау
народна
народнага
народнае
народнаи
народнаму
народнасьць
народнасьцяу
народнасьці
народная
народного
народнои
народную
народны
народные
народным
народнымі
народных
народныя
народов
народонаселении
народу
народы
нароу
нарушэвіч
нарыс
нарысау
нарысы
нарыхтоу
нарэшце
нас
наса
насам
насамрэч
насдак
насевіч
населе
населенага
населеная
населения
населенного
населенных
населення
населены
населеным
населенымі
населеных
населеныя
насельнікау
насельнікі
насельніцтва
насельніцтвам
насельніцтве
насельніцтву
насеньне
насеньнем
насеньня
наславянскае
наславянскаи
наследие
наста
настасься
настау
настаяцелем
настаяцель
настои
настолькі
настоящее
настрои
настрояу
настроі
наступ
наступленьне
наступленьня
наступнага
наступнае
наступнаи
наступная
наступную
наступны
наступным
наступнымі
наступных
наступныя
наступствау
наступствы
наступу
насуперак
насупраць
насустрач
насць
насці
насьць
насьцю
насьцяу
насьці
насяляе
насялялі
насяляюць
насіла
насілі
насіу
насіць
ната
наталля
натальля
натальлі
наталья
наталі
нататкі
нато
натоу
натру
натуральна
натуральнага
натуральнаи
натуральная
натуральны
натуральным
натуральных
натуральныя
натуры
натхне
натхніу
нау
наук
наука
науки
наукова
наукове
наукових
науменко
науч
научно
научнои
научных
нафта
нафтаваи
нафтавая
нафтавы
нафтавых
нафтан
нафтаперапрацоу
нафтаправод
нафтапрадуктау
нафту
нафты
нах
нахіл
нац
нацбанк
национальная
национального
национальнои
национальныи
нацызму
нацыи
нацыстамі
нацыстау
нацысты
нацысцкаи
нацыя
нацыяна
нацыянал
нацыянальна
нацыянальнага
нацыянальнае
нацыянальнаи
нацыянальнаму
нацыянальнасьць
нацыянальнасьцяу
нацыянальнасьці
нацыянальная
нацыянальную
нацыянальны
нацыянальным
нацыянальнымі
нацыянальных
нацыянальныя
нацыяналізм
нацыяналізму
нацыяналістау
нацыяналісты
нацыяналістычнаи
нацыяналістычная
нацыяналістычных
нацыяу
нацыі
національнии
націск
націскам
націску
нач
нача
начала
начале
начало
начальнік
начальніка
начальнікам
начальнікау
начальнікі
начальства
начнога
начны
начным
начных
начныя
начы
начыньне
наш
наша
нашага
нашае
нашаи
нашая
наше
наши
наших
нашмат
нашу
нашчадак
нашчадкам
нашчадкамі
нашчадкау
нашчадкі
нашы
нашым
нашых
нашыя
нашэньне
нашэньня
нашэсьця
наю
ная
наявного
наяу
наіу
нба
нбб
нбк
нг
нгаб
нд
нда
ндан
ндана
ндане
нданскага
нданскаи
нданскі
нданскім
ндану
ндар
нджарз
ндз
ндзе
ндлэнд
ндр
ндравіч
ндтрэк
нду
нді
не
неабходна
неабходнаи
неабходнасьць
неабходнасьцю
неабходнасьці
неабходная
неабходную
неабходны
неабходным
неабходных
неабходныя
неад
неадкладна
неадназначнасьць
неаднаразова
неаднои
неафіцыи
неба
небакраю
небам
небау
небе
небудзь
небясьпека
небясьпеку
небясьпекі
небясьпецы
небясьпечна
небясьпечным
небясьпечных
невель
невыкананьне
невыразная
невядома
невядомага
невядомае
невядомаи
невядомая
невядомы
невядомым
невядомымі
невядомых
невядомыя
невялікага
невялікае
невялікаи
невялікая
невялікую
невялікі
невялікім
невялікімі
невялікіх
невялікія
негарэлае
негвалтоу
недаверу
недаи
недале
недалька
недастаткова
недаступная
недахоп
недахопам
недахопау
недахопу
недахопы
недзе
недзяржау
нежыл
незадаволенасьць
незадаволены
незадаволеныя
незадоу
незаконна
незаконнае
незаконным
незалежна
незалежнага
незалежнае
незалежнаи
незалежнасьць
незалежнасьці
незалежная
незалежную
незалежны
незалежным
незалежнымі
незалежных
незалежныя
незалежніцкаи
незау
незважаючы
незвычаи
незнае
неи
некалькі
некалькімі
некалькіх
некалі
некамэрцыи
некаторага
некатораи
некаторая
некаторую
некаторы
некаторым
некаторымі
некаторых
некаторыя
некоторых
некрашэвіч
некрашэвіча
нелегальна
нелегальнаи
нельга
нем
немагчыма
немагчымасьць
немагчымасьці
немагчымым
неман
немана
немау
немец
немцам
немцамі
немцау
немцы
нена
ненадоу
ненае
ненасьць
неная
ненецкаи
ненецкая
ненскага
нены
неныя
неньне
неньня
неньнямі
неньняу
неньні
непадале
непарыу
непасрэдна
непасрэднаи
непасрэдны
непасрэдным
непау
непрацяглы
непрыстои
нер
нера
нерам
нерамі
нерау
нерухомасьць
нерухомасьці
неры
несапрау
несены
несеныя
несла
несцярчук
несьлі
несьці
нет
нетрау
нетрах
неу
нехта
нечакана
нечаканы
нешматлікіх
нешматлікія
нешта
неяк
нз
ни
нии
николаевич
николаи
никского
них
нка
нкаи
нкау
нквд
нку
нкус
нкі
нна
ннага
ннае
ннаи
нная
нную
нны
нные
нным
ннымі
нных
нныя
ння
но
нобелеу
нобэлеу
нова
новаазоу
новага
новадзявочых
новае
новаи
новак
новаму
новасыбірск
новасыбірску
новау
новая
нового
новогрудского
новое
новои
новополоцк
новосибирск
новости
новую
новы
новые
новыи
новым
новымі
новых
новыя
нові
новік
новікау
ног
нога
ного
ногі
ное
нож
ножка
нознавства
нои
норма
нормамі
нормау
нормы
нос
носа
носава
носевича
носьбіт
носьбіта
носьбітам
носьбітамі
носьбітау
носьбіты
носяць
носіць
ноты
ноу
ноч
ночна
ночнаатлянтычнаи
ночнага
ночнае
ночнаи
ночная
ночнеи
ночную
ночны
ночным
ночных
ночныя
ноччу
ночы
ною
ноября
нр
нрых
нс
нса
нсдап
нск
нскага
нскае
нскаи
нская
нскі
нскім
нскіх
нскія
нства
нська
нськии
нських
нського
нськоі
нські
нськіи
нт
нта
нтак
нтка
нткам
нткамі
нткау
нтках
нтку
нткі
ну
нук
нука
нуль
нуля
нулявы
нумар
нумара
нумарам
нумарамі
нумарацыя
нумароу
нумару
нумары
нумізматыка
нур
нурэц
нутранага
нутранае
нутранаи
нутраная
нутраную
нутраны
нутраным
нутранымі
нутраных
нутраныя
нутры
ную
нфк
нхл
нц
нца
нцау
нцпі
нцы
нцыя
нці
ншваи
нштаи
ны
ныи
ным
нымі
ных
ныя
нь
ньне
ньня
ньняшняга
ньняшняи
ньняшні
ньняшнім
ньняшніх
ньні
ньнік
ньніка
ньніку
ньнікі
нью
ньюкасл
ньютан
ньютана
ньюфау
нэ
нэаготыкі
нэаклясыцызму
нэаліту
нэапаль
нэвада
нэгатыу
нэи
нэльсан
нэлі
нэн
нэпал
нэпалу
нэптуна
нэр
нэра
нэрам
нэрау
нэрвоваи
нэры
нэс
нэу
нэф
нэфа
нэфавая
нэфу
нэфы
нэшвіл
ню
нюрнбэрг
нюрнбэргу
нюю
ня
нябе
нябеснага
нябеснаи
нябесных
нябожчыка
нявеста
няволі
нявызначаны
няга
нягледзячы
нядау
нядзелю
нядзеля
нядзелі
нядоу
няе
няецца
нязначна
нязначная
нязначныя
нязьменна
нязьменнаи
нязьменным
няи
някляева
някляеу
някрасава
ням
няма
нямала
нямецка
нямецкага
нямецкае
нямецкаи
нямецкамоу
нямецкаму
нямецкая
нямецку
нямецкую
нямецкі
нямецкім
нямецкімі
нямецкіх
нямецкія
нямеччына
нямеччынаи
нямеччыне
нямеччыну
нямеччыны
нямі
няміга
нямігі
нянавісьць
нянавісьці
нянскага
няпоу
няправільна
няпэу
няроу
нярэдка
нясе
нясеньня
нястачу
нястачы
нясуць
нясьвіж
нясьвіжу
нясьвіжы
нясьвіскага
нясьвіскаи
нясьвіскі
нясьвіскім
няу
нях
няхаи
няць
няшмат
няюць
няя
ні
нібы
нібыта
ніва
ніве
ніверсітэт
ніверсітэта
ніводнага
ніводнаи
ніводная
ніводны
нівы
нівэрсытэт
нівэрсытэта
нівэрсытэтау
нівэрсытэтах
нівэрсытэту
нівэрсытэты
нівэрсытэце
нівэрсытэцкаи
нігер
нігерыи
нігерыя
нігерыі
нід
нідзе
нідэрляндау
нідэрляндах
нідэрляндзкага
нідэрляндзкаи
нідэрляндзкая
нідэрляндзку
нідэрляндзкі
нідэрлянды
ніж
ніжагародзкаи
ніжнюю
ніжняга
ніжняе
ніжняи
ніжняя
ніжні
ніжнім
ніжніх
ніжнія
ніжэи
ніз
нізе
нізка
нізкага
нізкаи
нізкая
нізкую
нізкі
нізкіз
нізкім
нізкімі
нізкіх
нізкія
нізоу
нізіна
нізінаи
нізіне
нізіны
ніи
нік
ніка
нікава
нікаваи
нікалаева
нікалаеу
нікальны
нікальныя
нікаля
нікам
нікамі
нікарагуа
нікау
ніках
нікога
нікола
ніколі
ніком
нікому
нікоу
ніку
нікі
ніл
ніла
нілася
ніловіч
нілу
нільс
нілі
нім
нін
ніна
нінаи
нінах
нінг
ніне
нінны
ніну
ніны
ніс
ніса
нітарнае
ніу
ніх
ніхто
ніц
ніца
ніцаи
ніцау
ніцкага
ніцкаи
ніцкая
ніцкую
ніцкі
ніцкім
ніцкіх
ніцкія
ніцтва
ніцтвам
ніцтвау
ніцтве
ніцтву
ніцтвы
ніцу
ніцца
ніцшэ
ніцы
ніць
ніч
ніча
нічага
нічае
нічаи
нічала
нічалі
нічаньне
нічаньня
нічаньні
нічау
нічаць
нічаюць
нічая
нічога
нічую
нічы
нічым
нічымі
нічых
нічыю
нічыя
нішамі
нішто
нішы
нію
нія
ніяи
ніяк
ніякага
ніякаи
ніякіх
ніямі
ніяу
ніях
ніяцкага
ніяцкаи
ніяцкая
ніі
о
об
обаль
обзор
областеи
области
областного
область
області
обозрение
образовании
образования
образованиям
обстріляли
общ
общая
обществ
общества
обществам
общественная
общество
объ
объединении
объявил
обэр
обі
ович
ого
од
ода
один
одного
ое
озе
ои
окер
окера
оккупированнои
округи
окружающеи
оксфард
оксфардзе
октябрь
октября
окупанти
олег
олтэр
ольга
ольса
ольстэрска
олівэр
ом
омск
он
она
они
онлаи
онного
онныи
онов
оны
ооо
оп
описание
оплот
оптыка
општина
опыт
опэра
опэрау
опэрнага
опэрная
опэрны
опэру
опэры
ор
орг
орган
органа
органам
органамі
органау
органах
организации
органу
органы
орда
ордена
орды
ордэн
ордэна
ордэнам
ордэнамі
ордэнау
ордэну
ордэны
ордэру
орк
орлен
орлова
орля
орт
ору
орша
оршанского
оршы
освобождении
освіти
оскар
оскара
основных
основы
ост
островецкого
остын
осьле
от
ота
отв
отд
отдал
отдых
отечественнои
отношении
отъ
оу
оф
официально
официальныи
официальных
офіс
офісы
офіціи
охотника
охраны
очерк
очерки
п
па
паабяцау
паазер
паарс
паасобку
паасобныя
пабачыла
пабачылі
пабачыу
пабачыць
пабле
паблізу
пабралася
пабрау
пабудавалі
пабудавана
пабудаванаи
пабудаваная
пабудаваны
пабудаваных
пабудаваныя
пабудавау
пабудаваць
пабудова
пабудоваи
пабудовамі
пабудовау
пабудове
пабудову
пабудовы
пабывау
павагу
павагі
паваенны
павал
паварот
павароту
паве
паведамленьне
паведамленьня
паведамленьнямі
паведамленьняу
паведамленьні
паведамляе
паведамляецца
паведамлялася
паведамляу
паведамляюць
паведаміла
паведамілі
паведаміу
паведаміць
павел
павелічэньне
павелічэньнем
павелічэньня
павелічэньні
павер
паверсе
паверх
паверхау
паверхневых
паверхню
паверхня
паверхняи
паверхні
паверху
паверхі
павет
павета
паветам
паветау
паветах
паветра
паветрам
паветрана
паветранага
паветранае
паветранаи
паветраную
паветраны
паветраным
паветраных
паветраныя
паветры
павету
паветы
павеце
павешаны
павлов
паводзінамі
паводзінау
паводзінах
паводзіны
паводка
паводкі
паводле
паволжа
павольна
павук
павышанаи
павышаны
павышэньне
павышэньня
павялічвае
павялічваецца
павялічвалася
павялічыла
павялічылася
павялічылі
павялічыліся
павялічыу
павялічыць
павярнуу
павярховы
павярховымі
павярховыя
павярхоу
павятовага
павятоваи
павятовая
павятовы
павятовым
павятовых
павятовыя
павілье
павінен
павінна
павіннасьці
павінная
павінны
павінныя
пагаджаецца
пагадзілася
пагадзіліся
пагадзіу
пагадненьне
пагадненьнем
пагадненьня
пагадненьняу
пагадненьні
пагалоу
паганскіх
паганства
пагаршэньне
пагаршэньня
пагатоу
пагладжваньне
паглынаньня
паглядзець
пагоню
пагоня
пагоняи
пагоні
пагорак
пагоркау
пагорку
пагоршылася
пагост
пагосцкага
пагражае
пагражала
пагражалі
пагражау
пагранкамітэту
пагранічнага
пагранічнаи
пагранічны
пагроза
пагрозаи
пагрозау
пагрозу
пагрозы
пад
падабаецца
падабенства
падавалі
падавау
падаваць
пададзена
пададзеная
пададзены
пададзеных
пададзеныя
падае
падаецца
падазраваных
падазрэньні
падала
падалі
паданьне
паданьня
паданьняу
паданьні
падаравау
падарожжа
падарожжау
падарожжы
падарожнік
падарожнікау
падарожнічау
падарунак
падарункі
падарыу
падатак
падаткаабкладаньня
падаткау
падатках
падатковага
падатковаи
падатковую
падатковы
падатковых
падатковыя
падатку
падаткі
падау
падаць
падача
падачы
падаюцца
падаюць
падбор
падбярэзскі
падбярэскі
падводнаи
падводная
падводных
падводныя
падвои
падвышэньне
падвышэньня
падвяргаліся
падвяргау
падгаи
падгрупа
падгрупы
падданых
паддэмбскі
падзеи
падзел
падзелам
падзелау
падзеле
падзелена
падзеленае
падзеленая
падзелены
падзеленых
падзеленыя
падзелу
падземны
падземных
падземныя
падзеньне
падзеньнем
падзеньня
падзеньні
падзею
падзея
падзеяи
падзеям
падзеямі
падзеяу
падзеях
падзеі
падзолістыя
падзяку
падзякі
падзяляе
падзяляецца
падзялялася
падзяляліся
падзяляу
падзяляюцца
падзяляюць
падзялілася
падзялілі
падзяліу
падзяліць
падкаморага
падкаморы
падканцлер
падкарпацкае
падкрэсьлівае
падкрэсьліваецца
падкрэсьлівау
падкрэсьліу
падкрэсьліць
падлесьсе
падлеткау
падлога
падлогу
падлогі
падлужны
падлягае
падлягалі
падлягаюць
падляскага
падляскае
падляску
падляскі
падляскім
падляшша
падляшшы
падлік
падлікау
падліку
падмаскоу
падмурак
падмуркам
падмуркау
падмурку
падмуркі
падмэ
падначаленых
падножжа
падняпроу
падняу
падняць
падобна
падобнага
падобнае
падобнаи
падобная
падобную
падобны
падобным
падобнымі
падобных
падобныя
падольле
падольлі
падольскага
падольскаи
падольскі
падоу
падпалкоу
падпалілі
падпарадкавалі
падпарадкаваны
падпарадкаванымі
падпарадкаваных
падпарадкаваныя
падпарадкаваньне
падпарадкаваньня
падпарадкаваньні
падпарадкавау
падпарадкаваць
падпарадкоу
падпольле
падпольля
падпольлі
падпольнага
падпольнаи
падпольная
падпольную
падпольных
падпісала
падпісалі
падпісана
падпісанае
падпісаная
падпісаны
падпісаныя
падпісаньне
падпісаньнем
падпісаньня
падпісаньні
падпісау
падпісаць
падпісвае
падпісвау
падпіскі
падрабязна
падрабязнасьці
падрабязныя
падрае
падразьдзяленьне
падразьдзяленьня
падразьдзяленьняу
падразьдзяленьні
падручнік
падручніка
падручнікау
падручнікі
падрыу
падрыхт
падрыхтавала
падрыхтавалі
падрыхтаваная
падрыхтаваны
падрыхтаваныя
падрыхтавау
падрыхтаваць
падрыхтоу
падскарбі
падскарбія
падставаи
падставау
падставе
падставу
падставы
падстау
падстолі
падсямеи
падтрымала
падтрымалі
падтрыманы
падтрыманьне
падтрыманьня
падтрымау
падтрымаць
падтрымка
падтрымкаи
падтрымку
падтрымкі
падтрымлівае
падтрымліваецца
падтрымлівала
падтрымлівалі
падтрымлівау
падтрымліваць
падтрымліваюцца
падтрымліваюць
падтрымоу
падтрымцы
падуанскага
падуі
падчас
падчашы
падштурхнула
падыи
падымнага
падыход
падыходзіць
падыходу
падыходы
падышлі
падышоу
пае
паездак
паездку
паездкі
паехала
паехау
паехаць
пажадау
пажар
пажарау
пажарнаи
пажарная
пажару
пажары
пажыу
пажыцьце
пазбавілі
пазбавіу
пазбавіцца
пазбавіць
пазбау
пазднякоу
пазнае
пазнаньня
пазначае
пазначаецца
пазначала
пазначана
пазначаная
пазначаны
пазначаныя
пазначау
пазначаць
пазначаюцца
пазначаюць
пазначэньне
пазначэньнем
пазначэньня
пазначэньні
пазнеи
пазняк
пазоу
пазыкау
пазыку
пазыкі
пазытыу
пазыцыи
пазыцыю
пазыцыя
пазыцыяу
пазыцыях
пазыцыі
пазьбегнуць
пазьбягаць
пазьнеи
пазьняк
пазьняка
паи
пак
пакае
паказ
паказала
паказальнік
паказальнікі
паказалі
паказана
паказаная
паказаны
паказаныя
паказаньні
паказау
паказаць
паказвае
паказваецца
паказвалі
паказвау
паказваць
паказваюць
паказваючы
паказу
паказчык
паказчыкам
паказчыкау
паказчыку
паказчыкі
паказьнік
паказьнікам
паказьнікау
паказьнікі
пакаленьне
пакаленьня
пакаленьняу
пакаленьні
пакаралі
пакараны
пакараныя
пакараньне
пакараньня
пакараньні
пакатым
пакет
пакету
пакладзены
паклады
паклала
паклалі
пакласьці
паклау
пакле
паклеу
пакои
паколькі
пакояу
пакоі
пакрова
пакроу
пакрывае
пакрываюць
пакрыта
пакрытая
пакрыты
пакрытыя
пакрыу
пакрыцьце
пакрыцьця
пакт
пактам
пакту
пакуль
пакупнікоу
пакутавау
пакутнікау
пакутуе
пакуты
пакідае
пакідалі
пакідаць
пакідаюць
пакідаючы
пакінула
пакінулі
пакінуты
пакінутыя
пакінуу
пакінуць
пакістан
пакістанам
пакістане
пакістану
пал
пала
палажэньне
палажэньня
палажэньняу
палажэньні
паласа
паласе
паласои
паласу
паласы
палата
палатна
палатно
палату
палаты
палау
палац
палаца
палацава
палацавы
палацам
палацау
палаце
палацу
палацы
палацык
пале
палеаліту
палепшыць
палерма
палескага
палескае
палескаи
палеская
палескі
палескім
палескіх
палескія
палесся
палестына
палестыне
палестыну
палестыны
палесьсе
палесься
палесьсі
палец
палка
палком
палкоу
палку
палкі
палова
паловаи
палове
палову
паловы
паломніцтва
палон
палоне
палонных
палону
палос
палосамі
палосау
палосы
палотны
палотнішча
палоу
палтау
паль
пальма
пальнаи
пальцау
пальцы
палюбоу
паля
паляваньне
паляваньня
палявая
палявои
палявы
палявых
палявыя
палягае
паляк
паляка
палякам
палякамі
палякау
палякі
палямі
паляна
паляны
палянэз
палянізацыі
паляпшэньне
паляпшэньня
паляпшэньні
палярнага
палярны
палярных
паляу
палях
палі
паліва
палівам
палігон
палігоне
паліграфафармленне
паліклініка
палікрат
паліна
палітале
палітбюро
палітвязьняу
палітоляг
палітык
палітыка
палітыкаи
палітыкам
палітыкау
палітыку
палітыкі
палітыцы
палітычна
палітычнага
палітычнае
палітычнаи
палітычная
палітычную
палітычны
палітычным
палітычнымі
палітычных
палітычныя
паліу
паліцыи
паліцыю
паліцыя
паліцыяи
паліцыянт
паліцыянтау
паліцыянты
паліцыі
паліцэи
палічка
палічцы
палічылі
палічыу
пам
памагатым
паме
памежжа
памежжы
памежнага
памежнаи
памежная
памежны
памежным
памежных
памежныя
паменшылася
паменшыць
памер
памерам
памерамі
памерау
памерах
памерла
памерлага
памерлых
памерлі
памеру
памерці
памеры
памешчык
памешчыка
памешчыкау
памор
памочнік
памочніка
памочнікам
памылак
памылка
памылкаи
памылкова
памылку
памылкі
памяне
памяншаецца
памяншэньне
памяншэньня
памяркоу
памяти
памятная
памятник
памятники
памятную
памятны
памятных
памятныя
память
памяць
памяцьцю
памяці
памяшканьне
памяшканьня
памяшканьняу
памяшканьнях
памяшканьні
паміж
памілаваньня
памін
памінаецца
памінаюцца
памірае
пан
пана
панавала
панаваньне
панаваньнем
панаваньня
панавау
панам
панарама
пандэміі
пане
панесла
панесьлі
панк
панкавец
панна
панны
пано
паноу
панскага
панскі
пантыфікату
пантэрз
пану
пануе
пануцэвіч
панцеляи
панчанка
паны
панэлі
панядзелак
панядзелка
панятак
панятку
паняткі
панятоу
паняцьце
паняцьця
паняцьцяу
паняцьці
пані
паніжэньне
паніжэньня
панізоу
панізілі
паок
папа
папам
папараць
папау
папера
паперау
паперу
паперы
паплау
паплечнік
паплечнікам
паплечнікау
паплечнікі
папова
папоу
папрасіу
папрау
папскаи
папская
папскі
папскім
папу
папуа
папулярнага
папулярнае
папулярнаи
папулярнасьць
папулярнасьцю
папулярнасьці
папулярная
папулярнеи
папулярны
папулярным
папулярнымі
папулярных
папулярныя
папулярызатар
папулярызацыі
папуляцыі
папы
папяровая
папярэджаньне
папярэджаньню
папярэджаньня
папярэджаньні
папярэджвае
папярэдне
папярэднюю
папярэдняга
папярэдняе
папярэдняи
папярэдняя
папярэдні
папярэднік
папярэдніка
папярэднікам
папярэднікау
папярэднім
папярэдніх
папярэднічала
папярэднія
пар
пара
паравы
парагваи
парагваю
парад
парадак
парадзе
парадкаваньне
парадкаваньня
парадкавы
парадкам
парадкау
парадку
парадкі
параду
парады
парадыгмы
паражэньне
паражэньня
параза
паразаи
паразау
паразе
паразу
паразы
параи
паралельна
паралельных
паралелі
парамэтрау
парамэтры
парамі
паранена
паранены
параненымі
параненых
параненыя
параскевы
парау
парафію
парафія
парафіяльны
парафіянамі
парафіянау
парафіяу
парафіі
парашок
парашэнка
параіу
париж
парк
парка
паркавага
паркавы
паркам
паркау
парках
паркер
парку
паркі
парлямэнт
парлямэнта
парлямэнтам
парлямэнту
парлямэнце
парлямэнцкаи
парлямэнцкая
парлямэнцкіх
парлямэнцкія
парма
парнаграфія
парнаграфіі
парнасе
парны
парныя
парог
парод
парода
пародамі
пародау
пароды
паром
парослыя
пароу
парт
партал
парталам
партале
парталу
партизан
партии
партне
партнэра
партнэрам
партнэрамі
партнэрау
партнэрства
партоу
партрэт
партрэта
партрэтам
партрэтау
партрэты
партугальскага
партугальскаи
партугальская
партугальску
партугальскі
партугальскім
партугальцы
партугалію
партугалія
партугаліі
парты
партызан
партызана
партызанам
партызанамі
партызанау
партызанскага
партызанскаи
партызанская
партызанскі
партызанскім
партызанскіх
партызанскія
партызаны
партыи
партыю
партыя
партыяи
партыямі
партыяу
партыі
пару
паручнік
паручніка
парушае
парушаюць
парушыу
парушэньне
парушэньнем
парушэньня
парушэньняу
парушэньні
пары
парыж
парыжа
парыжу
парыжы
парыскага
парыскаи
парыская
парыскі
парыскім
парэ
парэформавы
парэцкага
парэчча
парэшткі
пас
пасаг
пасад
пасада
пасадам
пасадау
пасадах
пасадзе
пасадзілі
пасадзіу
пасадку
пасадкі
пасаду
пасады
пасажырау
пасажырскага
пасажырскі
пасажырскіх
пасажырскія
пасажыры
пасе
пасевы
паседжаньне
паседжаньня
паседжаньняу
паседжаньнях
паседжаньні
паселішча
паселішчам
паселішчамі
паселішчау
паселішчах
паселішчы
паскаль
паскарэньне
паскарэньня
пасла
пасланы
пасланьне
пасланьня
пасланьняу
пасланьні
паслау
паслом
паслоу
паслуг
паслугамі
паслугау
паслугі
паслужыла
паслужылі
паслужыу
паслы
пасля
пасляслоу
пасол
пасольскага
пасольства
паспалітае
паспалітаи
паспалітая
паспалітую
паспрабавалі
паспрабавау
паспрабаваць
паспрыяла
пасродкам
пассавету
паст
паста
паставак
паставау
паставах
паставы
паставіла
паставілі
паставіу
паставіць
пастанавіла
пастанавілі
пастанавіу
пастанау
пастанова
пастановаи
пастановау
пастановаю
пастанове
пастанову
пастановы
пастаноу
пастар
пастара
пастау
пастаянна
пастаяннага
пастаяннае
пастаяннаи
пастаянная
пастаянны
пастаянным
пастаянных
пастаянныя
пасту
паступае
паступаць
паступленьня
паступленьні
паступова
паступовага
паступовае
паступіла
паступілі
паступіу
паступіць
пастухоу
пасты
пасхалія
пасынкі
пасьведчаньне
пасьведчаньняу
пасьведчаньні
пасьвечаны
пасьля
пасьляваенны
пасьляваенныя
пасьлядоу
пасьляслоу
пасьмяротна
пасьпела
пасьпелі
пасьпеу
пасьпявае
пасьпяхова
пасьпяховага
пасьпяховае
пасьпяховаи
пасьпяховы
пасьпяховым
пасьпяховымі
пасьпяховых
пасьпяховыя
пасябравау
пасяджэньне
пасяджэньні
пасяленцау
пасяленцы
пасяленьне
пасяленьня
пасяленьняу
пасяленьні
пасялковага
пасялковы
пасялковым
пасялілася
пасяліліся
пасяліу
пасярод
пасярэдзіне
пасярэдніцтве
пасяу
пасіу
пат
патаемна
патлумачыу
патлумачыць
паток
патоку
патоцкага
патоцкі
патоцкіх
патрабавала
патрабавалася
патрабавалі
патрабаваньне
патрабаваньнем
патрабаваньня
патрабаваньням
патрабаваньнямі
патрабаваньняу
патрабаваньні
патрабавау
патрабаваць
патрабуе
патрабуецца
патрабуюць
патрапіла
патрапілі
патрапіу
патрапіць
патрои
патрон
патрона
патронау
патроны
патрые
патрык
патрыка
патрыярх
патрыярха
патрыярхам
патрыярхат
патрыярхату
патрыятызму
патрыятычнага
патрыятычнае
патрыятычнаи
патрыятычная
патрыятычны
патрыятычных
патрыятычныя
патрэба
патрэбау
патрэбе
патрэбна
патрэбная
патрэбны
патрэбным
патрэбных
патрэбныя
патрэбу
патрэбы
патэнт
патэнтау
патэнцыи
патэнцыял
патэнцыялу
пау
пах
пахавальня
пахавалі
пахавана
пахаваная
пахаваны
пахаваныя
пахаваньне
пахаваньня
пахаваньняу
пахаваньні
паход
паходау
паходжаньне
паходжаньнем
паходжаньня
паходжаньні
паходзе
паходзяць
паходзіла
паходзілі
паходзіу
паходзіць
паходу
паходы
пац
паца
пацау
паце
пацеи
пацукоу
пацыентау
пацьверджана
пацьверджаны
пацьверджаньне
пацьверджаньня
пацьвердзіла
пацьвердзілі
пацьвердзіу
пацьвярджае
пацьвярджаецца
пацьвярджаюць
пацягнула
пацяпленьне
пацярпела
пацярпелым
пацярпелых
пацярпелі
пацярпеу
пач
пачала
пачалася
пачало
пачалося
пачалі
пачаліся
пачата
пачатак
пачаткам
пачаткау
пачатках
пачаткова
пачатковага
пачатковаи
пачатковая
пачатковую
пачатковы
пачатковым
пачатковых
пачатковыя
пачаткоу
пачатку
пачаткі
пачаты
пачау
пачаць
пачне
пачобут
пачуу
пачуць
пачуцьце
пачуцьця
пачуцьцяу
пачуцьці
пачынае
пачынаецца
пачыналася
пачынальна
пачынальнік
пачынальнікау
пачыналі
пачынау
пачынаць
пачынаюцца
пачынаюць
пачынаючы
паша
пашаны
пашкевіч
пашков
пашкоджаны
пашкоджаньне
пашкоджаньня
пашкоджаньняу
пашкоджаньні
пашкодзіу
пашкоу
пашпарт
паштова
паштовага
паштовае
паштоваи
паштовая
паштовы
паштовых
паштовыя
паштоу
пашы
пашыраецца
пашыралася
пашырана
пашыранаи
пашыраная
пашыраны
пашыраным
пашыраныя
пашырау
пашырацца
пашырыла
пашырылася
пашырылі
пашырыліся
пашырыу
пашырыць
пашырэньне
пашырэньнем
пашырэньню
пашырэньня
пашырэньні
паэзію
паэзія
паэзіяи
паэзіі
паэм
паэма
паэмау
паэме
паэму
паэмы
паэт
паэта
паэтам
паэтау
паэтка
паэткі
паэту
паэты
паэтыка
паэтыкі
паэтычнага
паэтычнаи
паэтычная
паэтычны
паэтычным
паэтычных
паэтычныя
паядынку
паямі
паясоу
паясы
паі
пб
пвт
пд
пдв
пе
пед
педа
педзкага
пеи
пекла
пензенскаи
пер
пераабраны
пераадоленьня
пераадолець
перабрау
перабродзкім
перабудавалі
перабудаваны
перабудавау
перабудова
перабудове
перабудову
перабудовы
перабудоу
перавага
перавагаи
перавагу
перавагі
пераважае
пераважала
пераважалі
пераважаюць
пераважна
пераважнаи
пераважная
пераварот
перавароту
перавароце
пераве
пераведзеная
пераведзены
пераведзеныя
перавезены
перавезьлі
перавесьці
перавод
пераводу
перавозак
перавозкі
перавыдадзены
перавыданьне
перавысіла
перавысіу
перавышае
перавышала
перавышау
перавышаць
перавялі
пераганцау
перагляд
перагляду
перад
перадавалі
перадаваліся
перадавау
перадаваць
перададзена
перададзеная
перададзены
перададзеныя
перадае
перадаецца
перадала
перадалі
перадау
перадаць
перадач
перадача
перадачаи
перадачау
перадачу
перадачы
перадаюцца
перадаюць
перадгор
перадусім
пераезд
пераезду
пераемнасьць
пераемнік
пераемнікам
пераехала
пераехалі
пераехау
пераехаць
перажывае
перажыла
перажылі
перажыу
перазагрузка
пераи
перакананы
перакананьні
пераканау
пераканаць
перакл
пераклад
перакладае
перакладаецца
перакладалі
перакладаліся
перакладам
перакладамі
перакладау
перакладах
перакладзе
перакладзеная
перакладзены
перакладзеныя
перакладнік
перакладніца
перакладу
перакладчык
перакладчыка
перакладчыкам
перакладчыкау
перакладчыца
пераклады
пераклала
пераклалі
перакласьці
пераклау
пераконвае
перакрываецца
перакрываюцца
перакрыцьці
перале
пералом
пераломе
пералік
пераліку
пералічаных
пералічаныя
перамагае
перамагау
перамагла
перамаглі
перамагчы
пераменау
перамены
перамовау
перамовах
перамовы
перамог
перамога
перамогаи
перамогау
перамогу
перамогшы
перамогі
пераможнаи
пераможны
пераможным
пераможца
пераможцам
пераможцамі
пераможцау
пераможцы
перамозе
перамоу
перамяненьня
перамясьціу
перамяшчэньне
перамяшчэньня
перамір
пераназваная
пераназваны
перане
перанесена
перанесеная
перанесены
перанесеныя
перанесьлі
перанесьці
перанос
пераносу
пераносіць
пераняу
перападрыхтоу
перапе
перапоу
пераправа
пераправы
перапрау
перапрацоу
перапынкам
перапынкамі
перапынку
перапіс
перапісам
перапісау
перапісе
перапісу
перарабілі
пераселеныя
перасоу
перастала
перасталі
перастау
перасьлед
перасьледу
перасягнуу
перасякае
перасяленцамі
перасяленцау
перасяленцы
перасяленьне
перасяленьня
перасялілася
перасяліліся
перасяліу
перасячэньня
ператвараецца
ператварылася
ператварылі
ператварыу
ператварыць
ператварэньне
ператварэньня
ператвораная
ператвораны
ператрус
перау
пераход
пераходам
пераходау
пераходзе
пераходзяць
пераходзіла
пераходзілі
пераходзіу
пераходзіць
пераходнага
пераходны
пераходных
пераходныя
пераходу
пераходы
перац
перашкаджае
перашкодаи
перашкодау
перашкодзіла
перашкодзіць
перашкоды
пераяжджае
пераязджае
пераяслау
первая
первого
первое
первои
первыи
перевод
перед
переименовании
переносе
переписи
перепись
перехода
перечня
перешел
перешли
период
перм
пермскага
перспективы
перспектывы
перш
першага
першае
першаи
першамаи
першаму
першапачаткова
першапачатковага
першапачатковае
першапачатковаи
першапачатковая
першапачатковую
першапачатковы
першапачатковым
першаснаи
першаю
першая
першоі
першую
першы
першым
першымі
першынства
першынстве
першынство
першыню
першых
першыя
перыяд
песень
пескау
пескі
песни
песня
песні
пестрак
песьню
песьня
песьняи
песьнямі
песьняры
песьняу
песьнях
песьні
петербург
петербургъ
петра
петраград
петраградзе
петрапау
петреченко
петров
петрович
петруся
петрыкау
пеу
пецкага
пецкім
пецярбург
пецярбурга
пецярбургу
пецярбурзе
пецярбурскага
пецярбурскаи
пецярбурскі
пецярбурскім
печ
печані
печати
печы
печыва
пешка
пешшу
пинского
пирожника
письма
письмо
пк
пл
плаваньне
плаваньня
плаваньні
пладоу
плады
плае
плаи
план
планета
пласкагор
пласт
пластоу
пласты
пласьцінкі
плата
платнае
платон
плату
платы
плау
плаце
плацяжоу
плацяжы
плацілі
плаціна
плаціны
плаціць
плач
пле
племені
племя
плешчаніцкага
плод
плоскае
плоскаи
плоскасьці
плотка
плотнікау
плоу
плоцевага
плоцевых
плоцевыя
плоці
плошча
плошчаи
плошчау
плошчу
плошчы
плы
плывае
плывала
плывалі
плывау
плываць
плываюць
плыву
плывы
плым
плынь
плыньню
плыняу
плыні
плыу
плэи
плюс
плютон
плютона
плябанія
плябаніі
пляж
пляжы
плякат
пляма
плямамі
пляме
пляменьнік
пляменьніка
плямы
плян
плянавала
плянавалася
плянавалі
плянаваньне
плянаваньня
плянавау
плянам
плянау
плянах
пляне
пляну
плянуе
плянуецца
пляны
плянэт
плянэта
плянэтаи
плянэтау
плянэту
плянэты
плянэце
пляніроу
плястыка
плястыку
плято
плятона
плятформа
плятформау
плятформе
плятформу
плятформы
плятэр
плятэрау
пляу
пляц
пляцау
пляцовак
пляцоу
пляцу
пляцы
пліса
пліскага
пліта
плітау
пліты
пмр
пн
пнб
пнр
пнэу
по
побач
побыт
побытавага
побытавых
побыту
побыце
поверхностных
повести
повесть
повету
повязь
погляд
поглядамі
поглядау
поглядах
погляду
погляды
погостского
пограничья
под
податку
подимного
поднепровье
подписал
подписали
подписании
подпіс
подпісам
подпісау
подпісы
подъ
позвы
позна
познань
познані
позьняга
позьняи
позьні
позьнім
позьніх
позьнія
пои
покер
покинул
покліч
покрыва
пол
пола
полам
поласьці
полау
полацак
полацк
полацка
полацкага
полацкае
полацкаи
полацкам
полацкая
полацку
полацкую
полацкі
полацкім
полацкіх
полацкія
полаччыны
поле
полем
полесье
политика
политическая
политических
полк
полное
полномочного
полномочным
половине
половини
половины
полоцкого
полу
полымя
поль
польнага
польны
польск
польска
польскага
польскае
польскаи
польскамоу
польскаму
польская
польского
польску
польскую
польскі
польскім
польскімі
польскіх
польскія
польши
польшча
польшчаи
польшчаю
польшчу
польшчы
полюс
поля
полі
полісся
політэхнічнага
політэхнічны
політэхнічным
помнік
помніка
помнікам
помнікамі
помнікау
помніках
помніку
помнікі
помста
помсты
поп
поплавского
попул
популярная
попыт
попытам
попыту
пор
поразау
порна
порт
порта
портал
портам
портсмут
порту
порты
портык
портыкам
поруч
порце
поры
поселков
посла
после
послом
пособие
поссовета
пост
постановление
постаць
постацяу
постаці
постоянного
посту
посуд
посуду
посьпех
посьпехам
посьпехау
посьпеху
посьпехі
потенціал
потым
поу
поче
почему
почетнои
почтовые
пошта
пошту
пошты
пошук
пошукау
пошуках
пошуку
пошукі
пояс
пояса
поясе
пп
пр
пра
праабражэнская
праабражэньня
прабалта
праблем
праблема
праблемаи
праблемамі
праблемау
праблемах
праблему
праблемы
прабыу
прабіу
прабіцца
права
праваабаронца
праваабаронцы
праваабарончага
праваабарончы
праваахоу
прававая
прававога
прававои
прававы
прававых
прававыя
правага
правадзеи
праваднік
праваднікоу
правадыр
правадыра
правадыром
правадыроу
правае
правазнау
праваи
правалу
правам
правамі
правапарадку
правапарушэньняу
правапарушэньнях
правапарушэньні
правапіс
правапісам
правапісе
правапісу
праваруч
праваслау
правасудзьдзя
правах
правая
правда
праве
праведзена
праведзенага
праведзенае
праведзеная
праведзены
праведзеных
праведзеныя
праверана
праверка
праверку
праверкі
праверыць
правесьці
правительства
право
правобразам
праводзяцца
праводзяць
праводзячы
праводзіла
праводзілася
праводзілі
праводзіліся
праводзіу
праводзіцца
праводзіць
православная
православнои
правоу
правох
праву
правы
правым
правых
правыя
правядзеньне
правядзеньнем
правядзеньня
правядзеньні
правяла
правялі
правіла
правілам
правіламі
правілау
правілах
правілы
правільна
правільны
правінцыи
правінцыю
правінцыя
правінцыяи
правінцыямі
правінцыяу
правінцыях
правінцыі
правіць
прага
прагаласавала
прагаласавалі
прагляд
праглядау
прагляду
прагноз
праграм
праграма
праграмаваньне
праграмаваньня
праграмаваньні
праграмаи
праграмамі
праграмау
праграмах
праграме
праграмнага
праграмнае
праграмным
праграмных
праграму
праграмы
прагрэс
прагрэсу
прагрэсіу
прагу
прагучала
прагі
прад
прадавалі
прадавау
прадаваць
прададзена
прададзены
прададзеныя
прадае
прадаецца
прадалі
прадастау
прадау
прадаць
прадм
прадмесьце
прадмесьця
прадмесьці
прадмет
прадмета
прадметам
прадметамі
прадметау
прадметах
прадмету
прадметы
прадмова
прадмове
прадмовы
прадоу
прадпрыемства
прадпрыемствам
прадпрыемствамі
прадпрыемствау
прадпрыемствах
прадпрыемстве
прадпрыемствы
прадпрымальнік
прадпрымальніка
прадпрымальнікам
прадпрымальнікамі
прадпрымальнікау
прадпрымальніцкае
прадпрымальніцтва
прадставіла
прадставілі
прадставіу
прадставіць
прадстау
прадугледжана
прадугледжаных
прадугледжвае
прадугледжвала
прадугледжвалася
прадугледжвау
прадукт
прадуктам
прадуктамі
прадуктау
прадукту
прадукты
прадуктыу
прадукцыи
прадукцыю
прадукцыя
прадукцыі
прадусар
прадусара
прадусарам
прадухіленьня
прадухіленьні
прадухіліць
прадцечы
прадэманстравау
прадэш
прае
праезд
праезду
праект
праекта
праектаваньне
праектаваньня
праектам
праектамі
праектау
праектах
праекту
праекты
праекце
пражывае
пражывала
пражывалі
пражываньне
пражываньня
пражывау
пражываюць
пражыу
праз
празаік
празваны
празе
празь
праи
пракаповіч
пракат
пракату
пракаце
пракле
пракоф
практыка
практыкаи
практыку
практыкі
практыцы
практычна
практычнага
практычнае
практычнаи
практычная
практычны
практычных
практычныя
пракурат
пракуратура
пракуратуру
пракуратуры
пракурор
пракурора
пракурорам
пракуроры
прале
пралягае
пралівам
праліу
прама
прамагралізінг
прамау
прамая
прамежак
прамень
праметэи
прамова
прамоваи
прамове
прамову
прамовы
прамога
прамое
прамои
прамоу
прамы
прамым
прамыслова
прамысловага
прамысловае
прамысловаи
прамысловасьць
прамысловасьці
прамысловая
прамысловую
прамысловы
прамысловым
прамысловых
прамысловыя
прамыслоу
прамых
прамыя
прамяне
праміле
пранікненьне
пранікненьня
прапаведнік
прапаганда
прапагандзе
прапаганду
прапаганды
прапанавала
прапанавалі
прапанавана
прапанаваная
прапанаваны
прапанаваныя
прапанавау
прапанаваць
прапанова
прапановаи
прапановау
прапанове
прапанову
прапановы
прапаноу
прапануе
прапануецца
прапануюць
прапарцыи
прапои
прапорцыі
прапусьціу
прапусьціць
праразаюцца
прарасеи
прарок
прарока
прарокау
прароцтва
прарыву
прарыу
прасе
праскага
праскаи
праскі
праскім
праславянскае
праславянскаи
праславіу
праслау
праслухоу
прасоу
прасочваецца
прасп
праспэкт
праспэктам
праспэкту
праспэкце
прастакутнага
прастакутнае
прастакутнаи
прастакутная
прастакутны
прастакутным
прастакутнымі
прастакутныя
прастора
прастораваи
прасторавую
прастору
прасторы
прасунуцца
прасьв
прасьвятои
прасьцеи
прасьценках
прасілі
прасіу
прасіць
пратакол
пратаколау
пратаколе
пратаколу
пратаколы
пратасевіч
пратасевіча
прататып
прататыпам
пратока
пратокаи
пратокі
пратэктарат
пратэктаратам
пратэст
пратэстантау
пратэстанты
пратэстанцкага
пратэстанцкаи
пратэстанцкая
пратэстанцкі
пратэстанцкіх
пратэстанцкія
пратэстанцтва
пратэстау
пратэстоу
пратэсту
пратэсты
прау
праф
прафсаюзау
прафсаюзу
прафэсар
прафэсара
прафэсарам
прафэсарау
прафэсіи
прафэсіі
прафіляванымі
прах
праход
праходжаньня
праходзяць
праходзіла
праходзілі
праходзіу
праходзіць
праходу
прац
праца
працавала
працавалі
працавау
працаваць
працаздольнага
працаздольны
працаздольным
працаи
працамі
працау
працах
працоу
працу
працуе
працуюць
працуючы
працы
праць
працэдура
працэдуру
працэдуры
працэнтау
працэс
працэсам
працэсамі
працэсар
працэсарау
працэсау
працэсах
працэсе
працэсу
працэсуальна
працэсуальны
працэсуальным
працэсы
працяг
працягам
працягвае
працягваецца
працягвала
працягвалася
працягвалі
працягваліся
працягвау
працягваць
працягваюцца
працягваюць
працягваючы
працяглага
працяглае
працяглаи
працягласьць
працягласьцю
працягласьці
працяглая
працяглы
працяглым
працяглых
працяглыя
працягнула
працягнулася
працягнулі
працягнуу
працягнуць
працягу
працякае
працякаюць
праці
праціу
прачыстаи
прачысьценскаи
прачысьценская
прачытау
прачытаць
прашэньне
праяваи
праявау
праявы
праявіу
праяу
праіндаэу
праіснавала
праіснавау
президент
президента
президиума
премии
преобразовании
пресс
прессбол
при
природа
природное
природных
присвоении
приходам
приходов
про
проба
пробашч
пробашча
пробашчам
проблемы
прогресс
продаж
продажау
продажу
продажы
продак
продкам
продкамі
продкау
продкі
проект
проза
прозар
прозара
прозарау
прозе
прозу
прозы
прозьвішча
прозьвішчам
прозьвішчау
прозьвішчы
прои
происхождение
происхождении
промыслы
пропаведзі
пропуску
проса
просвещения
прост
проста
простага
простае
простаи
просталінеи
простая
простую
просты
простым
простымі
простых
простыя
просьбаи
просьбе
просьбу
просьбы
просіць
протаярэи
против
проф
профіль
профілю
прохоров
процівагу
пруднікау
прудок
пружана
пружанау
пружанах
пружане
пружанскага
пружанскаи
пружанская
пружанскии
пружанского
пружанскі
пружанскім
пружаншчыне
пружаншчыны
пружаны
прусау
пруска
прускага
прускаи
пруская
прускі
прускіх
прускія
прусы
прусію
прусія
прусіяи
прусіі
пруф
пры
прыазе
прыбалтыи
прыбалтыкі
прыбалтыцы
прыблізна
прыбор
прыборау
прыборы
прыбраць
прыбудавалі
прыбывае
прыбыла
прыбылі
прыбытак
прыбыткау
прыбытку
прыбыткі
прыбыу
прыбыцьце
прыбыцьця
прыбыцьці
прыбярэжнаи
прыбярэжных
прыбярэжныя
прыватнага
прыватнае
прыватнаи
прыватнасьці
прыватнау
прыватная
прыватную
прыватны
прыватным
прыватнымі
прыватных
прыватныя
прыватызацыі
прыве
прыведзены
прыведзеныя
прывезьлі
прывесьці
прыводзяцца
прыводзяць
прыводзіла
прыводзіу
прыводзіцца
прыводзіць
прывозілі
прывядзе
прывяла
прывяло
прывялі
прывід
прывілеем
прывілеи
прывілею
прывілеяу
прывілеі
прывітаньне
прыгавораны
прыгажосьць
прыгажосьці
прыгажэи
прыгарадзе
прыгараднага
прыгарады
прыгатаваньня
прыгне
прыгодау
прыгоды
прыгожая
прыгожы
прыгожых
прыгожыя
прыгоннага
прыгонных
прыгону
прыдарожная
прыдворны
прыдняпроу
прыднястроу
прыдумау
прые
прыездава
прыезду
прыехала
прыехалі
прыехау
прыехаць
прыз
прызваны
прызнавалі
прызнавау
прызнаваць
прызнае
прызнаецца
прызнала
прызналі
прызнана
прызнаная
прызнаны
прызнаных
прызнаныя
прызнаньне
прызнаньня
прызнаньні
прызнау
прызнаць
прызначае
прызначаецца
прызначалася
прызначаліся
прызначана
прызначанага
прызначанае
прызначаная
прызначаны
прызначаных
прызначаныя
прызначау
прызначаць
прызначаюцца
прызначыла
прызначылі
прызначыу
прызначыць
прызначэньне
прызначэньнем
прызначэньня
прызначэньні
прызнаюцца
прызнаюць
прызыу
прызэр
прызэрам
прызямліу
прыи
прыказкі
прыклад
прыкладам
прыкладамі
прыкладау
прыкладзе
прыкладна
прыкладнога
прыкладное
прыкладнои
прыкладу
прыклады
прыкметаи
прыкметамі
прыкметау
прыкметна
прыкметны
прыкметы
прыкмеце
прыкрыцьце
прылада
прыладаи
прыладамі
прыладау
прыладу
прылады
прылеглаи
прылеглых
прылеглыя
прылукі
прымае
прымаецца
прымала
прымалі
прымаліся
прымау
прымаць
прымаюцца
прымаюць
прымаючы
прыметнік
прыметнікау
прыметнікі
прымусова
прымусовага
прымусоваи
прымусовыя
прымусіла
прымусілі
прымусіу
прымусіць
прымушае
прымыкае
прымяненьне
прымяненьня
прымяняецца
прымяняюцца
прымітыу
прыназоу
прыналежала
прыналежалі
прыналежау
прыналежнасьць
прыналежнасьці
прыналежныя
прыналежыць
прынамсі
прыне
прынесла
прынесьлі
прынесьці
прыносяць
прыносілі
прыносіць
прынц
прынца
прынцып
прынцыпам
прынцыпамі
прынцыпау
прынцыпах
прынцыпе
прынцыпова
прынцыпу
прынцыпы
прынцэса
прынцэсы
прыняла
прыняло
прынялі
прынята
прынятага
прынятае
прынятаи
прынятая
прыняты
прынятым
прынятых
прынятыя
прыняу
прыняць
прыняцьце
прыняцьцем
прыняцьця
прыняцьці
прыпадае
прыпадала
прыпадаюць
прыпала
прыпау
прыпеу
прыправы
прыпынак
прыпыненьне
прыпынку
прыпыніла
прыпыніу
прыпыніць
прыпяцкага
прыпяцкі
прыпяць
прыпяці
прыпісаных
прыпісваецца
прыпісваюць
прырау
прырода
прыродаахоу
прыродазнау
прыродаи
прыродзе
прыроднага
прыроднаи
прыродны
прыродным
прыроднымі
прыродных
прыродныя
прыроду
прыроды
прырост
прысвоена
прысвоены
прысвои
прысвоіу
прысе
прыслоу
прыставак
прыстань
прыстасавалі
прыстасаваньне
прыстасаваньні
прыстау
прыстои
прыступкі
прыступіу
прысуд
прысуджаецца
прысуджана
прысуджаны
прысудзілі
прысудзіу
прысуду
прысутнасьць
прысутнасьці
прысутных
прысутныя
прысутнічае
прысутнічала
прысутнічалі
прысутнічау
прысутнічаць
прысутнічаюць
прысьвечана
прысьвечанаи
прысьвечаная
прысьвечаную
прысьвечаны
прысьвечаным
прысьвечаных
прысьвечаныя
прысьвяціу
прысягу
прысягі
прысязе
прытвор
прытворам
прыток
прытока
прытокам
прытокамі
прытокау
прытоку
прытокі
прытомнасьць
прытрымліваецца
прытрымліваліся
прытрымлівау
прытрымлівацца
прытрымліваюцца
прытулак
прытулку
прытым
прыу
прыхаджанамі
прыхаджанау
прыход
прыходам
прыходау
прыходзе
прыходзкаи
прыходзкая
прыходзяць
прыходзілася
прыходзілі
прыходзіу
прыходзіцца
прыходзіць
прыходу
прыхільнасьць
прыхільнік
прыхільнікам
прыхільнікамі
прыхільнікау
прыхільнікі
прыцэл
прыцягвае
прыцягвау
прыцягваць
прыцягненьне
прыцягненьня
прыцягнула
прыцягнулі
прыцягнуты
прыцягнуу
прыцягнуць
прычарнамор
прычым
прычын
прычына
прычынаи
прычынамі
прычынау
прычынах
прычынаю
прычыне
прычыну
прычыны
прычынілася
прыяжджау
прыярытэт
прэдатарз
прэзыдыюм
прэзыдыюма
прэзыдыюму
прэзыдэнт
прэзыдэнта
прэзыдэнтам
прэзыдэнтау
прэзыдэнту
прэзыдэнты
прэзыдэнце
прэзыдэнцкаи
прэзыдэнцкая
прэзыдэнцкі
прэзыдэнцкімі
прэзыдэнцкіх
прэзыдэнцкія
прэзыдэнцтва
прэзэнтаваны
прэзэнтавау
прэзэнтацыя
прэзэнтацыі
прэзідыума
прэзідэнт
прэзідэнта
прэи
прэм
прэміи
прэмію
прэмія
прэміяи
прэміяу
прэміі
прэпаратау
прэс
прэса
прэсе
прэстыж
прэстыжных
прэсы
прэсьлі
прэтэндэнтау
прэтэнзіяу
прэтэнзіі
прэфэктуры
прэшау
пс
псалтыр
псв
пскова
пскоу
псрл
псыхале
псыхалягічнаи
псыхалягічны
псыхалягічных
псыхоляг
псэу
пт
пталемэя
птау
птб
птушак
птушка
птушкагадоу
птушкі
пу
публікаваліся
публікавау
публікаваць
публікацыю
публікацыя
публікацыяу
публікацыях
публікацыі
публікуе
публікі
публіцы
публіцыст
публіцыстыка
публіцыстыкі
публіцыстычных
публіцыстычныя
публічна
публічнага
публічнае
публічнаи
публічная
публічных
публічныя
пуд
пудоу
пузыны
пункт
пункта
пунктам
пунктамі
пунктау
пунктах
пунктов
пункту
пунктуацыі
пункты
пункце
пуск
пуску
пуслоу
пустальга
пустыні
пустэльня
пустэльні
пусьцілі
путеводитель
путч
путчу
путчынскім
путь
пухавіцкага
пухавіцкі
пухавіцкім
пуховичского
пуце
пуцін
пуціна
пушкін
пушкіна
пушту
пушча
пушчу
пушчы
пуэрта
пфальц
пцы
пцыг
пцыгу
пціч
пцічы
пчалярства
пчолау
пшаніца
пшаніцы
пы
пыл
пылу
пытанняу
пытанні
пытаньне
пытаньнем
пытаньня
пытаньнямі
пытаньняу
пытаньнях
пытаньні
пэ
пэдагагічнага
пэдагагічнаи
пэдагагічную
пэдагагічны
пэдагагічным
пэдагагічных
пэдагог
пэдагогікі
пэдра
пэдру
пэи
пэкін
пэкіне
пэлас
пэн
пэнальці
пэнсыльванія
пэнсіи
пэнсію
пэнсіі
пэр
пэра
пэркусія
пэрс
пэрсанаж
пэрсанажа
пэрсанажам
пэрсанажау
пэрсанажы
пэрсанал
пэрсаналу
пэрсанальная
пэрсанальны
пэрсанальных
пэрсау
пэрспэктыве
пэрспэктывы
пэрспэктыу
пэрсы
пэрсыдзкага
пэрсыдзкае
пэрсыдзкаи
пэрсыдзкая
пэрсыдзку
пэрсыдзкі
пэрсыдзкім
пэрсыдзкіх
пэрсіі
пэру
пэры
пэрые
пэрымэтрам
пэрымэтры
пэрыфэрыи
пэрыяд
пэрыядам
пэрыядау
пэрыядзе
пэрыяду
пэрыяды
пэрыядычна
пэрыядычнаи
пэрыядычным
пэрыядычных
пэрыядычныя
пэрэс
пэтэр
пэу
пяле
пярну
пяро
пярои
пярсьце
пяршаи
пярэдняга
пярэдняи
пярэдняя
пярэднім
пярэдніх
пярэднія
пярэспа
пяскова
пясковыя
пяскоу
пяску
пяскі
пясок
пятага
пятае
пятаи
пятая
пяткевіч
пятнаццаць
пятнаццаці
пятніца
пятніцу
пятніцы
пятра
пятро
пятрова
пятровіч
пятровічы
пятром
пятроу
пятру
пятрусь
пятую
пяты
пятым
пяхота
пяхотнага
пяхотнаи
пяхотная
пяхотны
пяхотных
пяхотныя
пяхоту
пяхоты
пяце
пяць
пяцьцю
пяці
пяцігадовы
пяціканцовая
пяціразовы
пячатка
пячатку
пячаткі
пячора
пячоры
пячэрскаи
пі
піва
під
підляшшя
пік
піка
пікаса
піку
піле
пілсудзкага
пілсудзкі
пілястрамі
пілястры
піліп
піліпа
пінгвінз
піневіч
пінск
пінска
пінскага
пінскае
пінскаи
пінская
пінскдрэу
пінску
пінскі
пінскім
пірагоу
піраміды
пірэнэи
пірэнэі
пісала
пісалі
пісаньня
пісар
пісара
пісарам
пісау
пісаць
пісталет
пісталета
пісталеты
пісьма
пісьме
пісьменнасці
пісьменнасьць
пісьменнасьці
пісьменнік
пісьменніка
пісьменнікау
пісьменнікі
пісьменства
пісьменьнік
пісьменьніка
пісьменьнікам
пісьменьнікамі
пісьменьнікау
пісьменьніку
пісьменьнікі
пісьменьніца
пісьменьніцы
пісьмо
пісьмова
пісьмовага
пісьмовае
пісьмоваи
пісьмовасьць
пісьмовасьці
пісьмовая
пісьмовы
пісьмовым
пісьмовых
пісьмовыя
пісьмом
піт
пітнои
пітсбург
пітэр
пітэра
піу
піцеи
піць
піша
пішацца
пішуцца
пішуць
піюс
пія
піянэр
піянэрау
піяніна
піяніст
піярау
піі
р
ра
раба
рабамі
рабау
рабачаньне
рабачаньня
рабачаньні
работ
работа
работаи
работау
работнік
работнікау
работнікі
работніцкаи
работу
работы
рабоу
рабоце
рабоча
рабочага
рабочаи
рабочая
рабочы
рабочым
рабочых
рабочыя
рабства
рабы
рабэрта
рабіла
рабілася
рабілі
рабіліся
рабін
рабіна
рабіу
рабіць
рава
раваны
равіч
рагатаи
рагау
рагачове
рагачоу
рагвалод
рагвалода
рагнеды
рагои
рагу
рагуля
рад
рада
радавага
радаваи
радавая
радавод
радавы
радавым
радавых
радавыя
радаи
радам
радамі
радаслау
радасьць
радасьці
радау
радашкавіцкага
радашкавічах
радашкавічы
радаю
раджаи
раджаю
радзе
радзевіч
радзеи
радзівіл
радзівіла
радзівілам
радзівілау
радзівілу
радзівілы
радзіма
радзімаи
радзіме
радзіму
радзімы
радзімічау
ради
радио
радка
радкоу
радку
радкі
раднік
радовішча
радовішчау
радовішчы
радок
радоу
раду
радунскага
радунь
рады
радые
радыкальных
радыкальныя
радыюс
радыяактыу
радыяцыи
радыяцыі
радіо
рае
раеу
ражаньне
ражаньні
раз
раза
разабралі
разам
разанау
разанскаи
разараныя
разбои
разбурана
разбураная
разбураны
разбураныя
разбурылі
разбурыу
разбурэньне
разбурэньня
разбурэньні
развагі
разважаньні
развалу
развитие
развития
развод
разводзьдзе
развіцце
развіцця
развіцьце
разгарнулася
разгарнуу
разгляд
разглядае
разглядаецца
разглядалася
разглядалі
разглядаліся
разглядау
разглядацца
разглядаць
разглядаюцца
разглядаюць
разглядзе
разгляду
разгону
разгортваецца
разгортваньня
разграмілі
разграміу
разгром
разгрому
разе
разлад
размале
размау
размах
размешчаны
размешчаных
размнажэньня
размова
размове
размову
размовы
размоу
разнавіднасьць
разнавіднасьцяу
разнавіднасьці
разнастаи
разовы
разоу
разрабавалі
разрабаваны
разрад
разрадзе
разраду
разрезе
разрыву
разрыу
разу
разумее
разумеецца
разумелі
разуменьне
разуменьня
разуменьні
разумеу
разумець
разумеюць
разумеючы
разумны
разы
разыграныя
разыходзяцца
разышліся
разьбіла
разьбілі
разьбіты
разьбітыя
разьбіу
разьбіць
разьвяз
разьвязаньня
разьвязу
разьвяліся
разьвівае
разьвіваецца
разьвівалася
разьвіваліся
разьвівау
разьвівацца
разьвіваць
разьвіваюцца
разьвілася
разьвіліся
разьвіта
разьвітаи
разьвітаньне
разьвітая
разьвітую
разьвіты
разьвітым
разьвітых
разьвітыя
разьвіу
разьвіцьце
разьвіцьцю
разьвіцьця
разьвіцьці
разьдзел
разьдзелау
разьдзеле
разьдзелу
разьдзелы
разьлік
разьлікау
разьліку
разьлікі
разьлічаны
разьмежаваньне
разьмежаваньня
разьмеркаваныя
разьмеркаваньне
разьмеркаваньня
разьмеркаваньні
разьмешчана
разьмешчанага
разьмешчанае
разьмешчанаи
разьмешчаная
разьмешчаны
разьмешчаным
разьмешчанымі
разьмешчаных
разьмешчаныя
разьмяркоу
разьмясьцілася
разьмясьцілі
разьмясьціліся
разьмясьціу
разьмясьціць
разьмяшчаецца
разьмяшчалася
разьмяшчаліся
разьмяшчау
разьмяшчаюцца
разьмяшчэньне
разьмяшчэньнем
разьмяшчэньня
разьмяшчэньні
разіи
разіі
раи
рак
рака
ракако
ракау
ракацы
ракет
ракета
ракетамі
ракетау
ракетнага
ракетны
ракетных
ракетныя
ракеты
ракои
ракою
раку
ракубках
ракі
ракіроу
ракіта
ракіцкі
рал
рале
ральскае
ральф
раліт
рам
рама
рамаи
раман
рамана
раманава
раманавіч
раманам
раманау
раманах
рамане
раманоу
раманскіх
рамантызму
рамантычнаи
рамантычная
рамантычны
рамантычныя
раману
раманчук
раманы
раме
рамесьнікау
рамесьнікі
рамках
рамкі
рамонт
рамонтна
рамонту
рамонце
рамуальд
рамы
рамэо
рамі
ран
рана
ранак
ранау
ранг
ранга
рангу
ранеи
раненьне
раненьні
ранкам
рану
раны
раньняга
раньняе
раньняи
раньняя
раньні
раньнім
раньніх
раньнія
раніца
раніцаи
раніцы
рапановіч
рапарлямэнту
рапеи
раптам
раптоу
рапэи
рарадые
рас
раса
расаваи
расасна
расе
расеец
расеи
расею
расея
расеяи
расеі
расказау
расказвае
расклад
раскол
расколу
раскопак
раскопках
раскопкі
раскрывае
раскрыу
раскрыцьце
раскрыцьця
раскіданае
расла
расло
расна
расонскага
расонскім
распаве
распавядае
распавядаецца
распавядау
распавядаюць
распад
распадам
распадзе
распаду
распазнаваньня
распалася
распалубкамі
распараджэнняу
распараджэньне
распараджэньня
распараджэньняу
распараджэньні
распарадчымі
распасьціраецца
распау
распачала
распачалася
распачалося
распачалі
распачаліся
распачата
распачатая
распачаты
распачау
распачаць
расположении
расправы
распрацавала
распрацавалі
распрацавана
распрацаваная
распрацаваны
распрацаваныя
распрацавау
распрацаваць
распрацовак
распрацоу
распусьціу
распушчаны
рассказы
расстралялі
расстраляны
расстраляных
расстраляныя
расстрэл
расстрэлау
расстрэлу
расстрэлы
раства
раство
растлумачыць
растоу
раструм
растуць
расфармаваны
расход
расцэнкі
расче
расшыфроу
расы
расьлі
расьлін
расьліна
расьлінаводзтва
расьлінамі
расьлінау
расьліннага
расьліннасьць
расьліннасьцю
расьліннасьці
расьлінны
расьлінных
расьліны
расьсеи
расьсьледаваньне
расьсьледаваньня
расьсьледаваньняу
расьсьледаваньні
расьсяленьня
расьце
расьці
расьціслава
расьціслау
расэл
расіи
расіі
рат
ратаваць
ратаи
ратуша
ратушу
ратушы
ратуючыся
ратыфікацыі
рау
раус
рафал
рафала
рафаэль
рах
рахунак
рахункау
рахунку
рахункі
рацые
рацыи
рацыю
рацыя
рацыі
рацэ
рач
рачная
рачнога
рачнои
рачны
рачных
рачныя
рачыста
рачыстае
рачыстасьці
рачыстая
рашуча
рашучасьць
рашэнне
рашэнні
рашэньне
рашэньнем
рашэньня
рашэньняу
рашэньні
раю
раян
раіса
рб
рбк
рвз
рву
ргиа
рд
рда
рдага
рдае
рдаи
рдая
рду
рды
рдым
рдых
рдыя
революция
ред
редактор
редакциеи
редакция
редкол
режим
режима
реи
рек
республик
республика
республике
республики
ресурс
ресурсов
ресурсы
речицкии
речицкои
решение
решении
ржэу
риа
рк
рка
ркау
ркп
рку
ркі
рлс
рм
рн
рна
рнага
рнаи
рная
рнк
рны
рных
рныя
ро
роберт
робэрт
робэрта
робэртам
робяцца
робяць
робячы
робі
робін
робіцца
робіць
рова
ровам
ровар
ровары
ровенскаи
ровэрз
рог
рогі
род
рода
родам
родас
родау
роджэр
родзе
родзевіч
родзька
роднага
роднае
роднаи
роднасных
родная
родную
родны
родным
родных
родныя
родом
роду
роды
рождения
роза
розгалас
роздум
рознага
рознагалосьсяу
рознагалосьсі
рознае
рознаи
рознаму
розная
розную
розны
розным
рознымі
розных
розныя
розподіл
розум
розумам
розуму
розыгрыш
розыгрышу
розыгрышы
розьніца
розьніцу
розьніцы
рои
рок
рокам
рокамі
рокау
роках
рокаш
року
рокі
років
ролу
роль
ролю
роля
роляи
роляу
ролях
ролі
рома
роман
романов
романько
роменскаи
рому
ромэр
рон
рона
рональд
ропа
ропаи
ропе
ропу
ропы
рос
роса
роскага
росквіт
росквіту
рослау
роспуску
россии
россия
россіи
рост
ростам
ростанях
росту
росы
рось
росі
росіи
рот
рота
ротмістар
роту
роты
роу
роха
роце
роцлаве
роцлау
[...]
