!
"
#
##a
##aa
##ab
##ac
##ad
##ae
##af
##ag
##ah
##ai
##aj
##ak
##al
##am
##an
##ao
##ap
##aq
##ar
##as
##at
##au
##av
##aw
##ax
##ay
##az
##b
##ba
##bb
##bc
##bd
##be
##bf
##bg
##bh
##bi
##bj
##bk
##bl
##bm
##bn
##bo
##bp
##bq
##br
##bs
##bt
##bu
##bv
##bw
##bx
##by
##bz
##c
##ca
##cb
##cc
##cd
##ce
##cf
##cg
##ch
##ci
##cj
##ck
##cl
##cm
##cn
##co
##cp
##cq
##cr
##cs
##ct
##cu
##cv
##cw
##cx
##cy
##cz
##d
##da
##db
##dc
##dd
##de
##df
##dg
##dh
##di
##dj
##dk
##dl
##dm
##dn
##do
##dp
##dq
##dr
##ds
##dt
##du
##dv
##dw
##dx
##dy
##dz
##e
##ea
##eb
##ec
##ed
##ee
##ef
##eg
##eh
##ei
##ej
##ek
##el
##em
##en
##eo
##ep
##eq
##er
##es
##et
##eu
##ev
##ew
##ex
##ey
##ez
##f
##fa
##fb
##fc
##fd
##fe
##ff
##fg
##fh
##fi
##fj
##fk
##fl
##fm
##fn
##fo
##fp
##fq
##fr
##fs
##ft
##fu
##fv
##fw
##fx
##fy
##fz
##g
##ga
##gb
##gc
##gd
##ge
##gf
##gg
##gh
##gi
##gj
##gk
##gl
##gm
##gn
##go
##gp
##gq
##gr
##gs
##gt
##gu
##gv
##gw
##gx
##gy
##gz
##h
##ha
##hb
##hc
##hd
##he
##hf
##hg
##hh
##hi
##hj
##hk
##hl
##hm
##hn
##ho
##hp
##hq
##hr
##hs
##ht
##hu
##hv
##hw
##hx
##hy
##hz
##i
##ia
##ib
##ic
##id
##ie
##if
##ig
##ih
##ii
##ij
##ik
##il
##im
##in
##io
##ip
##iq
##ir
##is
##it
##iu
##iv
##iw
##ix
##iy
##iz
##j
##ja
##jb
##jc
##jd
##je
##jf
##jg
##jh
##ji
##jj
##jk
##jl
##jm
##jn
##jo
##jp
##jq
##jr
##js
##jt
##ju
##jv
##jw
##jx
##jy
##jz
##k
##ka
##kb
##kc
##kd
##ke
##kf
##kg
##kh
##ki
##kj
##kk
##kl
##km
##kn
##ko
##kp
##kq
##kr
##ks
##kt
##ku
##kv
##kw
##kx
##ky
##kz
##l
##la
##lb
##lc
##ld
##le
##lf
##lg
##lh
##li
##lj
##lk
##ll
##lm
##ln
##lo
##lp
##lq
##lr
##ls
##lt
##lu
##lv
##lw
##lx
##ly
##lz
##m
##ma
##mb
##mc
##md
##me
##mf
##mg
##mh
##mi
##mj
##mk
##ml
##mm
##mn
##mo
##mp
##mq
##mr
##ms
##mt
##mu
##mv
##mw
##mx
##my
##mz
##n
##na
##nb
##nc
##nd
##ne
##nf
##ng
##nh
##ni
##nj
##nk
##nl
##nm
##nn
##no
##np
##nq
##nr
##ns
##nt
##nu
##nv
##nw
##nx
##ny
##nz
##o
##oa
##ob
##oc
##od
##oe
##of
##og
##oh
##oi
##oj
##ok
##ol
##om
##on
##oo
##op
##oq
##or
##os
##ot
##ou
##ov
##ow
##ox
##oy
##oz
##p
##pa
##pb
##pc
##pd
##pe
##pf
##pg
##ph
##pi
##pj
##pk
##pl
##pm
##pn
##po
##pp
##pq
##pr
##ps
##pt
##pu
##pv
##pw
##px
##py
##pz
##q
##qa
##qb
##qc
##qd
##qe
##qf
##qg
##qh
##qi
##qj
##qk
##ql
##qm
##qn
##qo
##qp
##qq
##qr
##qs
##qt
##qu
##qv
##qw
##qx
##qy
##qz
##r
##ra
##rb
##rc
##rd
##re
##rf
##rg
##rh
##ri
##rj
##rk
##rl
##rm
##rn
##ro
##rp
##rq
##rr
##rs
##rt
##ru
##rv
##rw
##rx
##ry
##rz
##s
##sa
##sb
##sc
##sd
##se
##sf
##sg
##sh
##si
##sj
##sk
##sl
##sm
##sn
##so
##sp
##sq
##sr
##ss
##st
##su
##sv
##sw
##sx
##sy
##sz
##t
##ta
##tb
##tc
##td
##te
##tf
##tg
##th
##ti
##tj
##tk
##tl
##tm
##tn
##to
##tp
##tq
##tr
##ts
##tt
##tu
##tv
##tw
##tx
##ty
##tz
##u
##ua
##ub
##uc
##ud
##ue
##uf
##ug
##uh
##ui
##uj
##uk
##ul
##um
##un
##uo
##up
##uq
##ur
##us
##ut
##uu
##uv
##uw
##ux
##uy
##uz
##v
##va
##vb
##vc
##vd
##ve
##vf
##vg
##vh
##vi
##vj
##vk
##vl
##vm
##vn
##vo
##vp
##vq
##vr
##vs
##vt
##vu
##vv
##vw
##vx
##vy
##vz
##w
##wa
##wb
##wc
##wd
##we
##wf
##wg
##wh
##wi
##wj
##wk
##wl
##wm
##wn
##wo
##wp
##wq
##wr
##ws
##wt
##wu
##wv
##ww
##wx
##wy
##wz
##x
##xa
##xb
##xc
##xd
##xe
##xf
##xg
##xh
##xi
##xj
##xk
##xl
##xm
##xn
##xo
##xp
##xq
##xr
##xs
##xt
##xu
##xv
##xw
##xx
##xy
##xz
##y
##ya
##yb
##yc
##yd
##ye
##yf
##yg
##yh
##yi
##yj
##yk
##yl
##ym
##yn
##yo
##yp
##yq
##yr
##ys
##yt
##yu
##yv
##yw
##yx
##yy
##yz
##z
##za
##zb
##zc
##zd
##ze
##zf
##zg
##zh
##zi
##zj
##zk
##zl
##zm
##zn
##zo
##zp
##zq
##zr
##zs
##zt
##zu
##zv
##zw
##zx
##zy
##zz
$
%
&
'
(
)
*
+
,
-
.
/
0
00
000
0001
0002
0004
0006
001
002
0022
003
004
005
006
007
008
009
01
010
011
012
013
0147
02
020
0261
03
0362
04
05
06
06953
07
08
09
0a
0b
0c
0d
0e
0f
0g
0h
0i
0j
0k
0l
0m
0n
0o
0p
0q
0r
0s
0t
0u
0v
0w
0x
0y
0z
1
10
100
1000
1001
1002
1007
101
1016
1017
102
1021
103
1030
1038
104
1044
105
1051
106
107
107005218
1073
108
1080
1086
1088
109
1090
1093
1097
1098
11
110
1100
1103
111
1111
112
1126
113
1136
114
115
116
117
1177
118
1186
119
12
120
1200
1204
121
122
123
124
125
1250
126
127
128
129
13
130
1300
131
132
133
134
135
136
1365
137
1371
1377
138
1385
139
14
140
1400
141
142
143
144
145
1450
1453
146
147
1471
1475
148
149
1492
15
150
1500
1503
151
1510
1515
1516
1517
1519
152
1520
1521
1525
1526
1527
153
1530
1531
1534
1535
1536
1537
1538
154
1540
1542
1545
1549
155
1550
1553
1555
1556
1557
1558
1559
156
1560
1561
1565
1567
157
1570
1572
1573
1578
158
1580
1585
1587
1588
159
1590
1595
1598
16
160
1600
1602
1603
1604
1605
1607
1609
161
1610
1612
1613
1614
1615
1616
1618
162
1620
1621
1622
1623
1624
1625
163
1630
1632
1638
164
1640
1641
1642
1643
1644
1645
1648
1649
165
1650
1652
1654
166
1660
1661
1665
1666
1667
1668
167
1670
1672
1675
1676
1678
1679
168
1680
1682
1683
1685
1686
1688
1689
169
1690
1697
17
170
1700
1701
1702
1707
1709
171
1710
1711
1712
1713
1714
1715
1718
1719
172
1720
1721
1723
1724
1725
1727
1728
173
1730
1732
1733
1735
1736
1737
1738
1739
174
1740
1741
1742
1743
1744
1745
1746
1747
1748
1749
175
1750
1751
1752
1753
1754
1755
1756
1757
1758
1759
176
1760
1761
1762
1763
1764
1765
1766
1767
1768
1769
177
1770
1771
1772
1773
1774
1775
1776
1777
1778
1779
178
1780
1781
1782
1783
1784
1785
1786
1787
1788
1789
179
1790
1791
1792
1793
1794
1795
1796
1797
1798
1799
18
180
1800
1801
1802
1803
1804
1805
1806
1807
1808
1809
181
1810
1811
1812
1813
1814
1815
1816
1817
1818
1819
182
1820
1821
1822
1823
1824
1825
1826
1827
1828
1829
183
1830
1831
1832
1833
1834
1835
1836
1837
1838
1839
184
1840
1841
1842
1843
1844
1845
1846
1847
1848
1849
185
1850
1851
1852
1853
1854
1855
1856
1857
1858
1859
186
1860
1861
1862
1863
1864
1865
1866
1867
1868
1869
187
1870
1871
1872
1873
1874
1875
1876
1877
1878
1879
188
1880
1881
1882
1883
1884
1885
1886
1887
1888
1889
189
1890
1891
1892
1893
1894
1895
1896
1897
1898
1899
19
190
1900
1901
1902
1903
1904
1905
1906
1907
1908
1909
191
1910
1911
1912
1913
1914
1915
1916
1917
1918
1919
192
1920
1921
1922
1923
1924
1925
1926
1927
1928
1929
193
1930
1931
1932
1933
1934
1935
1936
1937
1938
1939
194
1940
1941
1942
1943
1944
1945
1946
1947
1948
1949
195
1950
1951
1952
1953
1954
1955
1956
1957
1958
1959
196
1960
1961
1962
1963
1964
1965
1966
1967
1968
1969
197
1970
1971
1972
1973
1974
1975
1976
1977
1978
1979
198
1980
1981
1982
1983
1984
1985
1986
1987
1988
1989
199
1990
1991
1992
1993
1994
1995
1996
1997
1998
1999
1a
1b
1c
1d
1e
1f
1g
1h
1i
1j
1k
1l
1m
1n
1o
1p
1q
1r
1s
1t
1u
1v
1w
1x
1y
1z
2
20
200
2000
2001
2002
2003
2004
2005
2006
2007
2008
2009
201
2010
2011
2012
2013
2014
2015
2016
2017
2018
2019
202
2020
2021
2022
2023
2024
203
2030
204
205
206
207
208
209
21
210
211
212
213
214
215
216
217
218
219
22
220
221
2218
222
2223
223
224
225
226
227
228
229
23
230
2305
2307
231
232
233
234
235
236
237
238
239
24
240
241
242
243
244
245
246
247
248
249
25
250
2500
251
252
253
2533
254
255
256
257
258
259
26
260
261
262
263
264
265
266
267
268
269
27
270
271
272
273
274
275
276
277
278
279
28
280
281
282
283
284
285
286
287
288
289
29
290
291
292
293
294
295
296
297
298
299
2a
2b
2c
2d
2e
2f
2g
2h
2i
2j
2k
2l
2m
2n
2o
2p
2q
2r
2s
2t
2u
2v
2w
2x
2y
2z
3
30
300
3000
301
302
303
304
305
306
307
3077
308
309
31
310
311
312
313
314
315
316
3166
317
318
319
32
320
321
322
323
324
325
326
327
328
329
33
330
331
332
333
334
335
336
337
338
339
34
340
341
342
343
344
345
346
347
348
349
35
350
351
352
353
354
355
356
357
358
359
36
360
361
362
363
364
365
366
367
368
369
37
370
371
372
373
374
375
376
377
378
379
38
380
381
382
383
384
385
38503252
386
387
388
389
39
390
391
392
393
394
395
396
397
398
399
3a
3b
3c
3d
3e
3f
3g
3h
3i
3j
3k
3l
3m
3n
3o
3p
3q
3r
3s
3t
3u
3v
3w
3x
3y
3z
4
40
400
4000
401
402
403
404
405
406
407
408
409
41
410
411
412
413
414
415
416
417
418
419
42
420
421
422
423
424
425
426
427
428
429
43
430
431
432
433
4331
434
435
436
437
438
439
44
440
441
442
443
444
445
446
447
448
449
45
450
451
452
453
454
455
456
457
458
459
46
460
461
462
463
464
465
466
467
468
469
47
470
471
472
473
474
475
476
477
478
479
48
480
481
482
483
484
485
486
487
488
489
49
490
491
492
493
494
495
496
497
498
499
4a
4b
4c
4d
4e
4f
4g
4h
4i
4j
4k
4l
4m
4n
4o
4p
4q
4r
4s
4t
4u
4v
4w
4x
4y
4z
5
50
500
5000
501
502
503
504
505
506
507
508
509
51
510
511
512
513
514
515
516
517
518
519
52
520
521
522
523
524
525
526
527
528
529
53
530
531
532
533
534
535
536
537
538
539
54
540
541
543
544
545
546
547
548
549
55
550
551
552
553
554
555
556
56
560
563
565
567
57
570
571
575
578
58
580
581
582
583
585
59
590
591
593
595
597
5a
5b
5c
5d
5e
5f
5g
5h
5i
5j
5k
5l
5m
5n
5o
5p
5q
5r
5s
5t
5u
5v
5w
5x
5y
5z
6
60
600
601
602
603
604
605
607
608
609
61
610
611
612
613
615
616
618
619
62
620
624
625
628
63
630
631
632
635
6361
637
639
64
640
641
642
645
646
647
649
65
650
66
660
664
666
667
67
670
671
673
674
679
68
680
684
69
691
6a
6b
6c
6d
6e
6f
6g
6h
6i
6j
6k
6l
6m
6n
6o
6p
6q
6r
6s
6t
6u
6v
6w
6x
6y
6z
7
70
700
701
705
707
71
710
711
72
720
727
73
730
737
74
740
747
75
750
76
760
767
77
774
775
777
78
780
787
79
796
7a
7b
7c
7d
7e
7f
7g
7h
7i
7j
7k
7l
7m
7n
7o
7p
7q
7r
7s
7t
7u
7v
7w
7x
7y
7z
8
80
800
8001
8018
802
81
82
820
8263
83
830
84
840
84433
85
850
85474
86
869
87
870
88
880
882
89
8a
8b
8c
8d
8e
8f
8g
8h
8i
8j
8k
8l
8m
8n
8o
8p
8q
8r
8s
8t
8u
8v
8w
8x
8y
8z
9
90
900
91
911
92
93
94
95
950
951
96
960
9630096
97
970
972
977
978
9780195327373
98
980
989
99
999
9a
9b
9c
9d
9e
9f
9g
9h
9i
9j
9k
9l
9m
9n
9o
9p
9q
9r
9s
9t
9u
9v
9w
9x
9y
9z
:
;
<
=
>
?
@
[
[CLS]
[MASK]
[PAD]
[SEP]
[UNK]
\
]
^
_
`
a
a0
a1
a2
a3
a4
a5
a6
a7
a8
a9
aa
aaliyah
aaron
ab
aba
abade
abadia
abaixo
abandona
abandonada
abandonadas
abandonado
abandonados
abandonando
abandonar
abandonaram
abandono
abandonou
abassida
abastecimento
abate
abatido
abba
abbey
abbott
abby
abc
abd
abdicacao
abdomen
abdominal
abdul
abdullah
abe
abel
abelha
abelhas
aberdeen
aberta
abertamente
abertas
aberto
abertos
abertura
aberturas
abigail
abilio
abismo
abobada
abolicao
abolicionista
aborda
abordado
abordados
abordagem
abordagens
abordar
abordou
aborto
about
above
abpd
abr
abra
abraao
abraca
abracar
abraco
abraham
abrams
abrange
abrangencia
abrangendo
abrangente
abrantes
abre
abrem
abreu
abreviacao
abreviado
abreviatura
abria
abriga
abrigar
abrigava
abrigo
abrigos
abrigou
abril
abrindo
abrir
abriram
abriu
abrs
abs
absoluta
absolutamente
absoluto
absorcao
absorver
absorvida
absorvido
abstracao
abstract
abstrata
abstrato
absurdo
abu
abundancia
abundante
abundantes
abuse
abuso
abusos
ac
acaba
acabado
acabam
acabamento
acabando
acabar
acabara
acabaram
acabaria
acabava
acabou
acacia
acacias
acad
academia
academias
academic
academica
academicas
academico
academicos
academie
academy
acalypha
acampamento
acao
acasalamento
acaso
acatou
acb
accao
access
accessed
accident
accoes
according
account
accreditations
ace
acedida
acedido
aceita
aceitacao
aceitam
aceitando
aceitar
aceitaram
aceitas
aceitavel
aceite
aceito
aceitos
aceitou
aceleracao
acelerado
acelerar
acento
acentuada
acentuado
acer
acerca
acerta
acertar
acerto
acertou
acervo
acervos
aces
acessada
acessado
acessar
acessibilidade
acessiveis
acessivel
acesso
acessodata
acessorios
acessos
acha
achado
achados
acham
achando
achar
acharam
acharts
acharya
achava
achavam
achei
achievement
acho
achou
acianthera
acid
acidental
acidentalmente
acidente
acidentes
acido
acidos
acima
acionista
acionistas
aclamacao
aclamada
aclamado
acm
aco
acoes
acolhe
acolher
acomodacoes
acomodar
acompanha
acompanhada
acompanhadas
acompanhado
acompanhados
acompanham
acompanhamento
acompanhando
acompanhar
acompanharam
acompanhava
acompanhou
aconselhou
acontece
acontecem
acontecendo
acontecer
acontecera
aconteceram
aconteceria
aconteceu
acontecia
acontecido
acontecimento
acontecimentos
acorda
acordado
acordar
acordes
acordo
acordos
acordou
acores
acoriana
acorianos
acoustic
acre
acredita
acreditam
acreditando
acreditar
acreditava
acreditavam
acredito
acreditou
acres
acrescenta
acrescentado
acrescentando
acrescentar
acrescentou
acrescimo
acronimo
across
act
acta
action
activa
active
actividade
actividades
activity
activo
acto
actor
actores
actors
actos
actress
actriz
acts
actuais
actual
actualidade
actualmente
acu
acucar
acude
acudiu
acumulacao
acumulada
acumulado
acumulando
acumular
acumulo
acumulou
acusa
acusacao
acusacoes
acusada
acusado
acusados
acusando
acusativo
acusou
acustica
acustico
ad
ada
adalberto
adam
adams
adao
adaptacao
adaptacoes
adaptada
adaptadas
adaptado
adaptados
adaptar
adaptation
adaptou
add
added
addison
address
adds
adelaide
adele
ademais
adeptos
adequada
adequadamente
adequadas
adequado
adequados
adequar
aderir
aderiu
adesao
adeus
adiada
adiado
adiamento
adiante
adiar
adicao
adiciona
adicionada
adicionadas
adicionado
adicionados
adicionais
adicional
adicionalmente
adicionando
adicionar
adicionou
adjacente
adjacentes
adjetivo
adjetivos
adjunto
adjust
adjusted
adjusts
adler
administra
administracao
administrada
administrado
administrador
administradores
administrar
administratia
administration
administrativa
administrativamente
administrativas
administrative
administrativo
administrativos
admiracao
admirar
admiravel
admissao
admite
admitido
admitir
admitiu
adn
adobe
adocao
adolescencia
adolescente
adolescentes
adolf
adolfo
adora
adoracao
adoro
adorocinema
adota
adotada
adotadas
adotado
adotados
adotando
adotar
adotaram
adotivo
adotou
adquire
adquirida
adquiridas
adquirido
adquiridos
adquirindo
adquirir
adquiriram
adquiriu
adrian
adriana
adriano
adriatico
adult
adulta
adulterio
adulto
adultos
adults
advance
advanced
advances
adventista
advento
adventure
adventures
adverbio
adversario
adversarios
advisory
advocacia
advogada
advogado
advogados
ae
aecio
aerea
aereas
aereo
aereos
aero
aerodromo
aeroespacial
aeronautica
aeronave
aeronaves
aeroporto
aeroportos
aerospace
aew
af
afa
afasta
afastada
afastado
afastados
afastamento
afastando
afastar
afastou
afc
afeganistao
afeicao
afelio
afeta
afetada
afetadas
afetado
afetados
afetam
afetando
afetar
afeto
afetou
affair
affairs
affonso
afganistan
afghanistan
afi
afiliacao
afiliada
afiliadas
afim
afinal
afinidade
afins
afirma
afirmacao
afirmacoes
afirmado
afirmam
afirmando
afirmar
afirmaram
afirmativo
afirmava
afirmou
afluente
afluentes
afonso
afora
afp
afrescos
africa
african
africana
africanas
africaner
africano
africanos
afrika
afrique
afro
afroamericanos
afrodite
after
afundado
afundou
ag
again
against
agatha
age
agem
agencia
agencias
agency
agenda
agent
agente
agentes
agents
ages
agil
agilidade
agindo
agir
agitacao
aglomerado
aglomerados
agnes
ago
agonia
agora
agostinho
agostini
agosto
agraciado
agraciados
agradar
agradavel
agradecer
agradecimento
agraria
agreement
agregacao
agregada
agregado
agregador
agregados
agremiacao
agremiacoes
agressao
agressiva
agressivo
agreste
agricola
agricolas
agricultor
agricultores
agricultura
agriculture
agrilus
agronomia
agropecuaria
agrostis
agrupadas
agrupado
agrupados
agrupamento
agua
aguarda
aguas
aguda
agudo
aguia
aguiar
aguias
aguilar
aguilera
aguirre
agulha
agulhas
agustin
ah
ahead
ahi
ahmad
ahmed
ai
aid
aida
aids
aim
aime
ain
ainda
air
airbus
aircraft
aires
airlines
airplay
airport
airways
aj
ajax
ajuda
ajudado
ajudam
ajudando
ajudante
ajudar
ajudaram
ajudou
ajustar
ajuste
ajustes
ak
aka
akademie
akira
al
ala
alabama
alagoano
alagoas
alain
alameda
alan
alarme
alas
alasca
alaska
alavanca
alba
albanes
albania
albano
albany
albergaria
albert
alberta
alberto
albin
albino
albrecht
albufeira
album
albums
albuns
albuquerque
alcacer
alcaide
alcanca
alcancada
alcancado
alcancando
alcancar
alcancaram
alcance
alcancou
alcantara
alchemilla
alcides
alckmin
alcobaca
alcool
alcoolicas
alcoolismo
alcorao
alcunha
aldeia
aldeias
aldo
ale
aleatoria
aleatorias
aleatorio
alec
alega
alegacao
alegacoes
alegadamente
alegam
alegando
alegaram
alegoria
alegou
alegre
alegres
alegria
aleixo
alejandro
aleksandr
alem
alema
alemaes
alemanha
alemao
alemas
alencar
alentejo
alepo
alerj
alert
alerta
alertas
alertou
alessandra
alessandro
alex
alexa
alexander
alexandra
alexandre
alexandria
alexei
alexis
alfa
alfabetica
alfabetizacao
alfabeto
alfandega
alferes
alfonso
alfred
alfredo
algae
algaebase
algarismos
algarve
algas
algebra
algebrica
algeria
algo
algodao
algoritmo
algoritmos
alguem
algum
alguma
algumas
alguns
alho
ali
aliada
aliadas
aliado
aliados
alianca
aliancas
alias
alice
alicia
alien
alienacao
alienigena
alienigenas
aliens
aligned
alimenta
alimentacao
alimentado
alimentam
alimentando
alimentar
alimentares
alimento
alimentos
aline
alinhamento
aliou
alison
alive
aliviar
alivio
alkaloids
all
alla
allan
alle
allen
aller
allgemeine
alli
alliance
allison
allkpop
allmovie
allmusic
alma
almada
almanac
almanaque
almas
almeida
almir
almirante
almoco
almost
alo
alocacao
aloe
alojamento
alone
along
alonso
alpes
alpha
alpina
alpine
alpino
als
also
alt
alta
altamente
altar
altares
altas
alter
altera
alteracao
alteracoes
alterada
alteradas
alterado
alterados
alterando
alterar
alternativa
alternativamente
alternativas
alternative
alternativo
alternativos
alterou
alteza
altitude
altitudes
alto
altos
altura
alturas
aluguel
aluminio
alumni
aluna
aluno
alunos
alusao
alva
alvara
alvarenga
alvares
alvarez
alvaro
alvenaria
alves
alvim
alvin
alvinegro
alvo
alvorada
alvos
always
alzheimer
am
ama
amada
amadeu
amado
amador
amadora
amadores
amalia
amanda
amanha
amanhecer
amante
amantes
amapa
amar
amaral
amarante
amarela
amarelas
amarelo
amarelos
amargo
amaro
amava
amavel
amazing
amazon
amazonas
amazonense
amazonia
amazonica
ambar
ambas
amber
ambicao
ambicioso
ambicoes
ambientado
ambientais
ambiental
ambiente
ambientes
ambito
ambos
ambrose
ambrosio
amc
amd
ame
ameaca
ameacada
ameacadas
ameacado
ameacando
ameacar
ameacas
ameacou
amelia
amer
america
american
americana
americanas
americano
americanos
americans
americas
americo
amerindios
ames
amesterdao
ami
amid
amiga
amigas
amigavel
amigo
amigos
amilcar
amin
amines
aminoacidos
amir
amistoso
amistosos
amizade
amo
among
amor
amore
amores
amorim
amorosa
amoroso
amos
amostra
amostras
amour
amp
amparo
amphibian
amphibiaweb
ampla
amplamente
amplas
amplia
ampliacao
ampliada
ampliado
ampliando
ampliar
ampliou
amplitude
amplo
amplos
amsterda
amsterdam
amt
amtern
amtliches
amtsfreien
amy
an
ana
anahi
anais
anal
analisa
analisado
analisados
analisando
analisar
analise
analises
analisou
analista
analistas
analitica
analogia
analogico
analogo
analysis
anao
anapolis
anarquia
anarquismo
anarquista
anarquistas
anas
anastacio
anastasia
anatel
anatolia
anatomia
anatomy
ancestrais
ancestral
anchieta
ancient
ancora
and
anda
andaluzia
andam
andamento
andando
andar
andares
andava
andebol
anders
andersen
anderson
andersson
andes
andorra
andrada
andrade
andre
andrea
andreas
andreeva
andrei
andreia
andres
andrew
andrews
android
andromeda
andronico
andy
aneis
anel
anemia
anes
anexacao
anexada
anexado
anexo
anfibio
anfibios
anfiteatro
anfitria
anfitriao
ang
angel
angela
angeles
angelica
angelina
angelo
angels
angiosperm
angiospermae
angiospermicas
angle
anglicana
anglo
angola
angolana
angolano
angolanos
angra
angular
angulo
angulos
angus
angustia
anhalt
anhanguera
anibal
anima
animacao
animacoes
animada
animado
animador
animados
animais
animal
animals
animated
animation
anime
animes
animo
anistia
anita
anitta
aniversario
anjo
anjos
anjou
ann
anna
annales
annals
annapolis
anne
annette
annie
anniversary
anno
annos
announce
announced
announcement
announces
annual
ano
anoes
anonima
anonimo
anormal
anos
anotacoes
another
ans
anselmo
ansiedade
ansioso
ant
anta
antagonista
antao
antarctica
antartica
antartico
antartida
antas
ante
antecedencia
antecedentes
antecessor
antecessores
antecipacao
antena
antenas
antepassados
anterior
anteriores
anteriormente
antero
antes
anthem
anthology
anthony
anthropology
anti
antibioticos
anticorpos
antiga
antigamente
antigas
antigo
antigos
antigua
antiguidade
antiguidades
antilhas
antioco
antioquia
antiquity
antoine
antologia
anton
antoni
antonia
antonieta
antonino
antonio
antony
antropologia
antropologo
antroponimo
antuerpia
antunes
anuais
anual
anualmente
anuario
anulacao
anular
anuncia
anunciacao
anunciada
anunciado
anunciados
anunciam
anunciando
anunciar
anunciaram
anuncio
anuncios
anunciou
anura
anvisa
any
anything
ao
aol
aonde
aos
ap
apa
apache
apagar
apaixona
apaixonada
apaixonado
apaixonou
apanhar
aparato
aparece
aparecem
aparecendo
aparecer
apareceram
apareceu
aparecia
aparecida
aparecido
aparecimento
aparelho
aparelhos
aparencia
aparentado
aparente
aparentemente
aparicao
aparicoes
apartamento
apartamentos
apartheid
apca
apeadeiro
apelacao
apelidada
apelidado
apelido
apelo
apelor
apenas
apendice
aperfeicoamento
apertar
apertura
apesar
apetite
apg
aphanes
api
apice
apj
aplica
aplicacao
aplicacoes
aplicada
aplicadas
aplicado
aplicados
aplicam
aplicando
aplicar
aplicativo
aplicativos
aplicavel
aplicou
apocalipse
apocalypse
apogeu
apoia
apoiada
apoiado
apoiadores
apoiados
apoiam
apoiando
apoiantes
apoiar
apoiaram
apoiava
apoio
apoiou
apollo
apolo
apolodoro
aponta
apontada
apontado
apontam
apontamentos
apontando
apontar
apontou
apos
aposematic
aposematism
aposentado
aposentadoria
aposentar
aposentos
aposentou
aposta
apostas
apostolica
apostolico
apostolo
apostolos
apoteose
app
apple
appleton
application
applications
applied
approach
apps
apr
apreciacao
apreciado
apreciar
apreensao
aprende
aprendendo
aprender
aprendeu
aprendido
aprendiz
aprendizado
aprendizagem
apresenta
apresentacao
apresentacoes
apresentada
apresentadas
apresentado
apresentador
apresentadora
apresentadores
apresentados
apresentam
apresentando
apresentar
apresentaram
apresentarem
apresentava
apresentavam
apresentou
april
aprofundar
apropriacao
apropriada
apropriado
aprova
aprovacao
aprovada
aprovadas
aprovado
aprovados
aprovar
aproveita
aproveitamento
aproveitando
aproveitar
aproveitou
aprovou
aproxima
aproximacao
aproximada
aproximadamente
aproximado
aproximando
aproximar
aproximava
aproximou
apt
aptidao
aptos
apud
apuracao
apuramento
apurar
apweb
aq
aquando
aquario
aquatica
aquaticas
aquatico
aquaticos
aquecimento
aqueduto
aquela
aquelas
aquele
aqueles
aquella
aquelle
aquelles
aqui
aquila
aquiles
aquilo
aquino
aquisicao
aquisicoes
aquitania
ar
ara
arab
arabe
arabes
arabia
arabic
aracaju
aracatuba
aragao
aragon
aragones
araguaia
arame
aranha
aranhas
arantes
araraquara
araujo
arbitragem
arbitrio
arbitro
arbitros
arbor
arbusto
arbustos
arc
arca
arcade
arcadia
arcaico
arcanjo
arcebispo
arch
archaeological
archaeology
archer
archibald
archie
architectural
architecture
archive
archived
archives
archivo
arco
arcos
arctic
arctiid
arctiidae
ardente
ardor
are
area
areas
areia
areias
arena
arenas
ares
aresta
arestas
arg
argel
argelia
argentina
argentino
argentinos
argila
argos
argumenta
argumentam
argumentando
argumento
argumentos
argumentou
ari
aria
ariana
arias
arido
ariel
aries
arild
aristides
aristocracia
aristoteles
aritmetica
arizona
ark
arkansas
arlindo
arlington
arm
arma
armacao
armada
armadas
armadilha
armadilhas
armado
armador
armados
armadura
armaduras
armamento
armamentos
armand
armando
armario
armas
armazem
armazenado
armazenados
armazenagem
armazenamento
armazenar
armazens
armed
armenia
armenian
armenio
armenios
armisticio
arms
armstrong
army
arnaldo
arnold
aroma
arouca
around
arqueiro
arqueologia
arqueologica
arqueologicas
arqueologico
arqueologicos
arqueologo
arqueologos
arquibancadas
arquidiocese
arquiduque
arquipelago
arquitecto
arquitectonico
arquitectos
arquitectura
arquiteto
arquitetonica
arquitetonico
arquitetonicos
arquitetos
arquitetura
arquivada
arquivado
arquivamento
arquivo
arquivodata
arquivos
arquivourl
arraial
arranca
arrancar
arranha
arranjador
arranjar
arranjo
arranjos
array
arrecadacao
arrecadar
arrecadou
arredores
arremesso
arrependimento
arrete
arrogante
arroio
arrondissement
arrondissements
arrow
arroz
arruda
ars
arsenal
art
arte
artefato
artefatos
artemis
arteria
arterial
arterias
artes
artesanal
artesanato
artesaos
arthropoda
arthur
article
articles
artico
articulacao
articulacoes
articular
artificiais
artificial
artificio
artigo
artigos
artilharia
artilheiro
artilheiros
artist
artista
artistas
artistica
artisticas
artistico
artisticos
artists
arts
artur
arturo
aruba
arvore
arvores
arxiv
ary
as
asa
asas
ascendencia
ascendente
ascendeu
ascendia
ascensao
asfalto
ash
ashley
ashton
asi
asia
asian
asiatica
asiatico
asiaticos
asilo
asin
ask
asma
asociacion
asp
aspecto
aspectos
aspects
aspiracoes
aspirante
aspx
ass
assad
assalto
assaltos
assassin
assassina
assassinada
assassinado
assassinados
assassinar
assassinato
assassinatos
assassino
assassinos
assault
assedio
assegura
assegurada
assegurando
assegurar
assegurou
assembleia
assembleias
assembly
assemelha
assenta
assentamento
assentamentos
assento
assentos
assessment
assessor
assessoria
assi
assim
assina
assinada
assinado
assinados
assinam
assinando
assinantes
assinar
assinaram
assinatura
assinaturas
assinou
assiria
assirio
assirios
assis
assista
assiste
assistencia
assistencias
assistente
assistentes
assistida
assistido
assistindo
assistir
assistiu
associa
associacao
associacoes
associada
associadas
associado
associados
associar
associated
associates
association
assume
assumem
assumido
assumindo
assumir
assumiram
assumiu
assuncao
assunto
assuntos
ast
asteraceae
asteroide
asteroides
aston
astragalus
astral
astro
astrologia
astronauta
astronautas
astronautica
astronomia
astronomica
astronomical
astronomico
astronomo
astronomos
astronomy
astrophysical
astrophysics
astros
asturiano
asturias
at
ata
ataca
atacada
atacado
atacados
atacam
atacando
atacante
atacantes
atacar
atacaram
atacou
ataide
atalaia
ataque
ataques
atari
ate
atelie
atelier
atena
atenas
atencao
atencoes
atende
atendendo
atender
atendida
atendido
atendimento
atentado
atentados
atento
aterro
atestado
athens
athletes
athletic
athletico
athletics
atica
atinge
atingem
atingida
atingido
atingidos
atingindo
atingir
atingiram
atingiu
atira
atirador
atiradores
atirando
atirar
atirou
atitude
atitudes
ativa
ativacao
ativado
ativamente
ativar
ativas
atividade
atividades
ativismo
ativista
ativistas
ativo
ativos
atkinson
atlanta
atlantic
atlantica
atlantico
atlantida
atlantis
atlas
atleta
atletas
atletica
atletico
atletismo
atmosfera
atmosferica
atmosfericas
atmospheric
ato
atol
atomic
atomica
atomico
atomo
atomos
ator
atores
atos
atp
atracao
atracoes
atraente
atrai
atraido
atraidos
atraindo
atrair
atraiu
atras
atrasado
atraso
atrasos
atrativo
atrativos
atraves
atravessa
atravessando
atravessar
atravessou
atribuem
atribui
atribuicao
atribuicoes
atribuida
atribuidas
atribuido
atribuidos
atribuindo
atribuir
atribuiu
atributo
atributos
atrio
atrito
atriz
atrizes
attachments
attack
attacks
atua
atuacao
atuacoes
atuado
atuais
atual
atualidade
atualizacao
atualizacoes
atualizada
atualizado
atualizados
atualizar
atualmente
atuam
atuando
atuar
atuaram
atuava
atuou
au
aubrey
auckland
audi
audicao
audiencia
audiencias
audio
audiovisual
auditiva
auditoria
auditorio
audrey
auf
auflage
aug
auge
august
augusta
auguste
augustin
augusto
augustus
aula
aulas
aulete
aulo
aumenta
aumentada
aumentado
aumentam
aumentando
aumentar
aumentaram
aumento
aumentou
aura
aurea
aurelia
aureliano
aurelio
aurora
aus
auschwitz
ausencia
ausente
ausentes
austin
austral
australia
australian
australiana
australianas
australiano
australianos
australis
austria
austriaca
austriaco
austriacos
austrian
austriancharts
austro
autarquia
autarquicas
autentica
autenticidade
autentico
author
authority
authors
autismo
auto
autobiografia
autocarros
autodromo
autoestrada
automacao
automatica
automaticamente
automatico
automobilismo
automobilista
automoveis
automovel
autonoma
autonomas
autonomia
autonomo
autonomos
autor
autora
autorais
autoral
autores
autoria
autoridade
autoridades
autoriza
autorizacao
autorizada
autorizado
autorizados
autorizou
autos
autosport
auvernia
aux
auxilia
auxiliado
auxiliar
auxiliares
auxilio
av
ava
avai
available
avalia
avaliacao
avaliacoes
avaliada
avaliado
avaliados
avaliar
avaliou
avanca
avancada
avancadas
avancado
avancados
avancam
avancando
avancar
avancaram
avanco
avancos
avancou
avant
avante
avatar
ave
avec
aveiro
avengers
avenida
avenidas
aventura
aventuras
aventureiro
avenue
average
avery
aves
aviacao
aviador
aviao
aviation
avila
avioes
avis
avisa
avisar
aviso
avisos
avisou
aviv
avn
avo
avos
avril
aw
award
awards
away
ax
axe
axel
axioma
axiomas
axis
ay
ayala
ayres
ayrton
az
azalea
azambuja
azar
azeite
azerbaijan
azerbaijao
azevedo
aziz
azuis
azul
azulejos
b
b0
b1
b2
b3
b4
b5
b6
b7
b8
b9
ba
baal
baba
babe
babel
babilonia
baby
bacalhau
bach
bacharel
bacharelado
bacia
bacias
back
background
backing
backstreet
baco
bacon
bacteria
bacterias
bad
badajoz
baden
badminton
bafta
bagagem
bagda
bage
baha
bahamas
bahia
bahrain
bahrein
baia
baiana
baiano
baianos
baiao
bailarina
baile
bailes
bailey
baillargeon
bailly
bairro
bairros
baixa
baixada
baixar
baixas
baixista
baixo
baixos
baja
baker
baku
bala
balada
baladas
balanca
balanco
balao
balas
balcao
balcas
balduino
baldwin
bale
baleado
baleia
baleias
bali
ball
ballet
balneario
baloes
balsa
baltico
baltimore
balzac
bambu
ban
banana
banca
bancada
bancaria
bancarias
bancario
bancarios
banco
bancos
band
banda
bandas
bandeira
bandeirante
bandeirantes
bandeiras
bandido
bandidos
bando
bang
bangkok
bangladesh
bangu
banha
banheiro
banho
banhos
banido
banjo
bank
banks
banner
banqueiro
banquete
baptista
baptiste
bar
barack
barangay
barao
barata
barato
baratos
barba
barbacena
barbados
barbara
barbaro
barbaros
barbeiro
barber
barbosa
barbra
barbuda
barca
barcelona
barcelos
barco
barcos
bares
bari
baritono
barker
barlow
barnes
barnett
barney
baroes
baron
baronesa
barr
barra
barracas
barrada
barragem
barragens
barras
barreira
barreiras
barreiro
barreto
barrett
barrie
barriga
barris
barro
barroca
barroco
barros
barroso
barry
bart
bartlett
bartolomeu
barton
barueri
barulho
bas
basal
basco
base
baseada
baseadas
baseado
baseados
baseando
baseball
based
baseia
baseiam
basel
baseou
bases
basic
basica
basicamente
basicas
basico
basicos
basil
basileia
basilica
basilio
basis
basket
basketball
basquete
basquetebol
basquetebolista
bass
basta
bastante
bastao
bastidores
basto
bastos
bat
bata
batalha
batalhao
batalhas
batalhoes
batata
batatas
bate
batendo
bater
bateria
baterias
baterista
bates
bateu
bath
batida
batidas
batido
batismo
batista
batizada
batizado
batman
bats
battista
battle
battles
bau
bauer
bauru
baviera
baxter
bay
bayer
bayerisches
bayern
bb
bbb
bbc
bc
bd
be
beach
bean
bear
bears
beast
beat
beatificacao
beatles
beato
beatrice
beatriz
beats
beaumont
beautiful
beauty
bebado
bebe
beber
bebes
bebida
bebidas
became
because
beck
becker
becky
beco
become
becomes
bedford
bee
been
beer
beethoven
before
begin
beginning
begins
begonia
behavior
behind
bei
beih
beija
beijar
beijing
beijo
beijos
being
beira
beirute
beisebol
beja
bel
bela
belarus
belas
belem
beleza
belezas
belfast
belfort
belga
belgas
belgica
belgium
belgrado
believe
belize
bell
bella
bellator
belle
bello
belmonte
belo
belos
belt
beltrao
bem
bemol
ben
bencao
benedict
benedito
beneficente
beneficiar
beneficio
beneficios
benfica
bengala
bengali
benguela
benim
benin
benito
benjamim
benjamin
bennett
benny
benoit
bens
benson
benth
bentley
bento
benton
benz
berco
berenice
berg
bergamo
bergen
berger
bergman
berkeley
berlim
berlin
bermudas
berna
bernard
bernardes
bernardino
bernardo
bernhard
bernie
bernstein
berry
bert
berta
bertha
bertrand
besouro
best
besta
bet
beta
beth
bethania
beto
bettencourt
better
betty
between
beverly
bevolkerung
bevolkerungsstandes
bexiga
beyonce
beyond
bezerra
bf
bfi
bg
bh
bhutan
bi
bia
bianca
bianchi
bibcode
bibel
bibi
bible
biblia
biblica
biblical
biblicas
biblico
biblicos
bibliografia
bibliografico
bibliography
biblioteca
bibliotecas
bicampeao
bicampeonato
bicho
bichos
bicicleta
bicicletas
bico
bicolor
bid
biden
bieber
bielorrussia
bielorrusso
bien
bienal
big
biggest
bigode
bike
bilac
bilateral
bilbao
bilhao
bilhete
bilheteria
bilheterias
bilhetes
bilhoes
bilingue
bill
billboard
billie
billion
billy
bin
binaria
binario
bing
bio
biodiversidade
biodiversity
biogeography
biografia
biografias
biografica
biografico
biografo
biographical
biographie
biography
biol
biolib
biologia
biologica
biological
biologicas
biologico
biologicos
biologiezentrum
biologo
biology
bioma
bioquimica
biotecnologia
biotropica
bipolar
bird
birdlife
birds
birmania
birmingham
birth
birthday
bis
bisavo
bisby
biscoito
biscoitos
bishop
bismarck
bisneto
bispado
bispo
bispos
bissau
bit
bitcoin
bitola
bits
bittencourt
biz
bizantina
bizantino
bizantinos
bj
bk
bl
blabbermouth
black
blackburn
blackpink
blacks
blackwell
blade
blair
blake
blanc
blanca
blanche
blanco
blast
blender
blick
blind
blindado
blindados
blindagem
bliss
blitz
bloch
block
bloco
blocos
blog
blogs
blogspot
blogue
blood
bloody
bloom
bloomberg
bloomington
bloomsbury
bloquear
bloqueio
bloqueios
blow
blu
blue
blues
blume
blumenau
bm
bmatrix
bmg
bmw
bn
bo
boa
board
boas
boat
boate
boatos
boaventura
boavista
bob
bobby
bobo
boca
bocas
bode
body
boeing
boemia
bogota
boi
boicote
bois
bol
bola
bolas
bolchevique
bolcheviques
boletim
bolha
bolhas
bolivar
bolivia
boliviana
boliviano
bolo
bologna
bolonha
bolos
bolsa
bolsas
bolso
bolsonaro
bolton
bom
bomb
bomba
bombaim
bombardeio
bombardeios
bombardeiro
bombardeiros
bombas
bombeiros
bon
bonaparte
bond
bondade
bonde
bondes
bone
boneca
bonecas
boneco
bonecos
bones
bonfim
bonifacio
bonita
bonitas
bonito
bonn
bonnie
bonniers
bono
bons
bonus
boo
boogie
book
booker
books
boom
boot
booth
bor
borba
borboleta
borboletas
borda
bordas
bordeaux
border
bordo
borges
borgias
borgonha
boris
borja
born
borneu
borracha
borussia
bosch
bosco
bosnia
bosnio
bosque
bosques
boss
bossa
boston
bot
bota
botafogo
botanic
botanica
botanical
botanico
botanique
botany
botao
botas
bote
botelho
both
botoes
botsuana
botswana
bottom
boulevard
bound
bourbon
bourgoin
bovino
bovinos
bow
bowie
bowl
box
boxe
boxes
boxing
boy
boyd
boyle
boys
bp
bpi
bq
br
bra
braco
bracos
brad
bradesco
bradford
bradley
brady
braga
braganca
bragantino
brain
branca
brancas
branch
branco
brancos
brand
brandao
brandemburgo
brandenburg
brando
brandon
brandt
brandy
bras
brasao
brasil
brasileira
brasileirao
brasileiras
brasileiro
brasileiros
brasilia
brasiliense
brasiliensis
brasoes
brauchler
braun
brava
brave
bravo
bravos
bravura
bray
braz
brazil
brazilian
braziliense
break
breaking
breaks
brejo
bremen
brenda
brendan
brennan
brent
brescia
bretanha
bretao
brett
breve
brevemente
breves
brian
bride
bridge
bridges
brief
brien
briga
brigada
brigadas
brigadeiro
brigas
briggs
bright
brighton
brilha
brilhante
brilhantes
brilhar
brilho
brill
brincadeira
brincadeiras
brincando
brincar
bring
brings
brinquedo
brinquedos
brisa
brisbane
bristol
brit
britain
britania
britanica
britanicas
britanico
britanicos
britannica
british
britney
brito
brittany
britto
brizola
broadcast
broadcasting
broadway
brock
broken
bronx
bronze
brook
brooke
brooklyn
brooks
bros
brother
brothers
broughton
brown
browne
browning
browser
bruce
bruges
brum
bruna
brunei
bruno
brunswick
brusque
bruta
brutal
bruto
bruxa
bruxas
bruxelas
bruxo
bryan
bryant
bs
bt
bts
bu
buarque
bucareste
buchanan
buck
buckingham
buckley
bucks
bucuresti
bud
buda
budapeste
buddy
budismo
budista
budistas
buena
bueno
buenos
buffalo
buffer
bug
build
building
built
bula
bulbophyllum
bulgara
bulgaria
bulgaro
bulgaros
bull
bullet
bulletin
bulls
bullying
bundesamt
bundesliga
bundestag
bunny
buprestidae
buraco
buracos
bureau
burgess
burgos
burguesa
burguesia
burke
burkina
burma
burn
burning
burns
burocracia
burro
burt
burton
burundi
bury
bus
busca
buscam
buscando
buscar
buscas
buscava
buscavam
busch
buscou
bush
business
busto
but
butan
butao
butler
butterflies
butterfly
button
buy
buzz
bv
bw
bx
by
bye
byrne
byron
bytes
byzantine
byzantium
bz
c
c0
c1
c2
c3
c4
c5
c6
c7
c8
c9
ca
caatinga
cabala
cabana
cabanas
cabe
cabeca
cabecas
cabeceira
cabello
cabelo
cabelos
cabine
cable
cabo
caboclo
cabos
cabra
cabral
cabras
cabrera
cabul
caca
cacada
cacador
cacadores
cacar
cacas
cacau
caceres
cachaca
cache
cachoeira
cachoeiras
cachorro
cachorros
cacique
cact
cacula
cad
cada
cadastro
cadastrul
cadaver
cadaveres
cade
cadeia
cadeias
cadeira
cadeiras
caderno
cadernos
cadete
cadetes
caem
caes
caesar
caetano
caf
cafe
cafes
cage
cai
caia
caido
cain
caindo
caio
caipira
cair
cairam
cairo
cais
caiu
caixa
caixao
caixas
caju
cal
calabria
caladenia
calado
calais
calca
calcada
calcados
calcao
calcario
calcas
calcio
calcula
calculada
calculado
calcular
calculo
calculos
caldas
caldeira
caldeirao
calderon
caldo
caldwell
caledonia
calendar
calendario
calgary
calheiros
calheta
cali
calibre
calice
califa
califado
california
call
calle
called
calling
calls
calma
calmo
calmon
calor
calouste
calvario
calvin
calvo
cam
cama
camacho
camada
camadas
camara
camarao
camaras
camargo
camaroes
cambio
cambodia
camboja
cambridge
cambrigia
came
camelo
camera
cameras
cameron
cameroon
camila
camille
camilo
caminha
caminhada
caminhadas
caminhando
caminhao
caminhar
caminho
caminhoes
caminhos
camisa
camisas
camoes
camp
campacci
campaign
campanario
campanha
campanhas
campania
campbell
campea
campeao
campeas
campeoes
campeonato
campeonatos
campi
campina
campinas
campista
campo
camponeses
camponotus
campos
campus
can
cana
canaa
canada
canadense
canadenses
canadian
canais
canal
canarias
canario
canas
canberra
cancao
cancela
cancelada
cancelado
cancelados
cancelamento
cancelar
cancelou
cancer
cancoes
cancro
candelaria
candida
candidata
candidatar
candidatas
candidate
candidato
candidatos
candidatou
candidatura
candidaturas
candido
candomble
candy
canela
caneta
canhao
canhoes
canis
cannabis
cannes
cannon
cano
canoa
canoagem
canoas
canon
canone
canones
canonica
canonico
cansaco
cansado
canta
cantabria
cantada
cantadas
cantado
cantam
cantando
cantao
cantar
cantaria
cantava
cantico
canticos
cantiga
cantigas
canto
cantons
cantor
cantora
cantoras
cantores
cantos
cantou
cantuaria
canudos
canyon
cao
caop
caos
cap
capa
capacete
capacidade
capacidades
capacitacao
capas
capaz
capazes
capcom
cape
capela
capelao
capelas
capelo
capim
capita
capitaes
capitais
capital
capitalismo
capitalista
capitania
capitanias
capitao
capitol
capitolio
capitulo
capitulos
capixaba
capo
capoeira
capricho
capsula
captacao
captain
captura
capturada
capturado
capturados
capturar
capturaram
capturou
car
cara
caracas
caracol
caracter
caractere
caracteres
caracteristica
caracteristicas
caracteristico
caracteristicos
caracteriza
caracterizacao
caracterizada
caracterizado
caracterizados
caracterizam
caracterizar
caracterizou
carajas
caranguejo
caras
carater
carbon
carbono
carcere
card
cardeais
cardeal
cardi
cardiaca
cardiaco
cardiff
cardinal
cardinals
cardoso
cards
care
carece
career
carentes
carex
carey
carga
cargas
cargo
cargos
caribbean
caribe
caridade
carinho
carioca
cariocas
cariri
carl
carla
carlinhos
carlo
carlos
carlota
carlson
carlton
carly
carmelo
carmen
carmo
carnaval
carnavalesco
carne
carnegie
carneiro
carnes
caro
carol
carolina
caroline
carolyn
caros
carpenter
carr
carrasco
carrega
carregada
carregadas
carregado
carregador
carregados
carregamento
carregando
carregar
carreira
carreiras
carreteras
carrie
carro
carroll
carros
carrossel
carruagem
carruagens
cars
carson
carta
cartagena
cartago
cartao
cartas
cartaz
cartazes
carteira
cartel
carter
cartoes
cartografia
cartoon
cartorio
cartucho
cartuchos
cartunista
caruaru
carvajal
carvalho
carvalhos
carvao
cas
casa
casablanca
casaco
casacomum
casada
casado
casados
casais
casal
casamento
casamentos
casar
casaram
casarao
casas
casca
cascais
cascata
cascavel
casco
case
caseiro
cases
casey
cash
casimiro
casino
caso
casos
casou
casper
cass
cassacao
cassado
cassel
cassete
cassia
cassidy
cassini
cassino
cassio
cast
casta
castanha
castanho
castela
castelhana
castelhano
castello
castelo
castelos
castigo
castilho
castilla
castillo
casting
castle
castlevania
castor
castro
castroviejo
cat
catala
catalao
catalina
catalog
catalogo
catalogue
catalunha
catalunya
catar
catarina
catarinense
catastrofe
catch
catecismo
catedra
catedral
catedratico
categoria
categorias
category
cathedral
catherine
catholic
cativeiro
cativos
catolica
catolicas
catolicismo
catolico
catolicos
catorze
cats
caucaso
cauda
caudal
caule
caules
caulfield
causa
causada
causadas
causado
causados
causam
causando
causar
causaram
causas
cause
causes
causou
cautela
cavaco
cavalaria
cavalcante
cavalcanti
cavaleiro
cavaleiros
cavalheiro
cavaliers
cavalo
cavalos
cave
cavendish
caverna
cavernas
cavidade
caxias
cayman
caymmi
cazaque
cazaquistao
cb
cbc
cbd
cbf
cbn
cbs
cbv
cc
cd
cdc
cdot
cdots
cds
cdu
ce
ceara
cearense
cebola
cebuano
cecil
cecilia
cede
ceder
cedeu
cedido
cedo
cedric
cedro
cega
cego
cegos
ceia
cel
cela
celebra
celebracao
celebracoes
celebrada
celebrado
celebrar
celebration
celebre
celebres
celebridade
celebridades
celebrity
celebrou
celeiro
celeste
celestes
celestial
celestino
celia
celina
celine
celio
cell
cells
celso
celta
celtas
celtic
celtics
celula
celular
celulares
celulas
celulose
cem
cemetery
cemiterio
cemiterios
cen
cena
cenario
cenarios
cenas
cenicas
censo
censos
censura
census
cent
centena
centenario
centenas
center
centers
centimetros
cento
centrada
centrado
centrais
central
centre
centro
centros
centuries
century
ceo
cep
cera
cerambycidae
ceramica
ceramicas
cerca
cercada
cercado
cerco
cereais
cerebrais
cerebral
cerebro
ceremony
ceres
cerimonia
cerimonial
cerimonias
cerqueira
cerrado
cerro
certa
certain
certame
certamente
certas
certeza
certidao
certificacao
certificacoes
certificado
certificados
certifications
certified
certo
certos
cervantes
cerveja
cervejaria
ces
cesar
cesare
cesareia
ceska
cessar
cessna
cessou
cesta
ceu
ceus
ceuta
cev
cevada
cezar
cf
cg
cgi
cgiii
ch
cha
chacara
chaco
chad
chade
chafariz
chagas
chain
chains
challenge
challenger
challenges
chama
chamada
chamadas
chamado
chamados
chamam
chamamos
chamando
chamar
chamaram
chamas
chamava
chamavam
chamber
chamberlain
chambers
chamou
champ
champagne
champion
champions
championship
championships
chan
chance
chancelaria
chanceler
chances
chandler
chang
change
changed
changes
changing
channel
chao
chaos
chapa
chapada
chapeco
chapecoense
chapel
chapeu
chapeus
chaplin
chapman
chapter
char
character
characters
charateristics
charente
charge
charles
charleston
charli
charlie
charlotte
charme
chart
charter
charts
chase
chat
chateau
chateaubriand
chave
chaves
chavez
che
checa
check
checklist
checo
checoslovaquia
chef
chefe
chefes
chefia
chega
chegada
chegado
chegados
chegam
chegamos
chegando
chegar
chegara
chegaram
chegarem
chegaria
chegasse
chegava
chegavam
chegou
chegue
cheguei
cheia
cheias
cheio
cheios
cheiro
chelsea
chem
chemical
chemistry
chen
cheney
cheng
chequia
cher
cherry
cheryl
chess
chester
chevrolet
chi
chiado
chiang
chicago
chico
chief
chiefs
chiesa
chifre
chifres
child
children
chile
chilena
chileno
chili
chin
china
chines
chinesa
chinesas
chinese
chineses
ching
chip
chipre
chips
chiquititas
chisholm
chloe
cho
chocolate
choi
choice
chomsky
chopin
choque
chora
chorando
chorar
choro
chosun
chris
christ
christi
christian
christianity
christie
christina
christine
christmas
christo
christoph
christophe
christopher
chronicle
chronicles
chronology
chu
chuck
chumbo
chun
chung
church
churchill
chute
chuva
chuvas
chuvoso
ci
cia
cicero
ciclismo
ciclista
ciclistas
ciclo
ciclone
ciclones
ciclos
cid
cidada
cidadania
cidadao
cidadaos
cidade
cidadela
cidades
cielo
ciencia
ciencias
ciente
cientifica
cientificamente
cientificas
cientifico
cientificos
cientista
cientistas
cifra
cifras
ciganos
cigarro
cigarros
cilindro
cilindros
cima
cimento
cimo
cincinnati
cinco
cindy
cine
cineasta
cineastas
cinecartaz
cinema
cinemas
cinemateca
cinematografica
cinematograficas
cinematografico
cineplayers
cinetica
cingapura
cinquenta
cinto
cintra
cintura
cinturao
cinza
cinzas
cinzenta
cinzento
cipiao
cipriano
circ
circle
circo
circuit
circuito
circuitos
circulacao
circular
circulares
circulo
circulos
circundante
circunferencia
circunscricao
circunstancia
circunstancias
circus
cirilico
cirilo
ciro
cirurgia
cirurgiao
cirurgias
cirurgica
cisalhamento
cisao
cisma
cisne
cit
cita
citacao
citacoes
citada
citadas
citado
citados
citando
citar
citation
cite
cities
citizen
citou
citroen
citta
city
ciudad
ciume
ciumes
civica
civico
civil
civilizacao
civilizacoes
civilization
civis
cj
ck
cl
cla
clado
claim
claims
clair
claire
clara
claramente
claras
clare
clarence
clarendon
clareza
clarice
claridade
clarin
clark
clarke
clarkson
claro
claros
clas
clash
class
classe
classes
classic
classica
classical
classicas
classico
classicos
classics
classifica
classificacao
classificacoes
classificada
classificadas
classificado
classificados
classificam
classificando
classificar
classificaram
classification
classificatoria
classificou
claude
claudia
claudio
claus
claustro
clausula
clausulas
clausura
clay
clayton
clean
clear
clement
clemente
clements
cleopatra
clerigo
clerigos
clero
cleveland
click
clicks
clicrbs
cliente
clientes
cliff
clifford
clima
climas
climate
climatica
climaticas
climax
clinica
clinical
clinicas
clinico
clinicos
clint
clinton
clio
clip
clipe
clipes
clique
clive
clock
clone
clones
cloreto
cloro
close
closer
cloud
clovis
club
clube
clubes
cluster
clyde
cm
cn
cnbb
cne
cneu
cnn
cnpq
cns
cnt
co
coa
coach
coadjuvante
coalizao
coast
coautor
coautores
cobb
coberta
cobertas
coberto
cobertos
cobertura
cobra
cobranca
cobrar
cobras
cobre
cobrem
cobria
cobrindo
cobrir
cobriu
coburgo
coca
cocaina
cochabamba
cochrane
coco
cod
code
codex
codice
codificacao
codigo
codigos
codinome
cody
coeficiente
coeficientes
coelho
coelhos
coerente
coffee
cofre
cognitiva
cognitivo
cogumelo
cogumelos
cohen
coi
coimbra
coincide
coincidencia
coisa
coisas
col
cola
colabora
colaboracao
colaboracoes
colaborador
colaboradores
colaborar
colaborativo
colaborou
colapso
colar
colaterais
cold
coldplay
cole
colecao
coleccao
coleccoes
colecionador
colecionadores
colecoes
colega
colegas
colegial
colegio
colegios
coleman
coleophora
coleophoridae
coleoptera
coleopteros
colera
coleta
coletada
coletados
coletanea
coletaneas
coletar
coletiva
coletivamente
coletivas
coletivo
coletivos
coletor
colheita
colher
colheres
coligacao
colin
colina
colinas
colisao
coliseu
coll
collaboration
collected
collection
collections
college
collider
collins
collor
colmeia
colo
coloca
colocacao
colocacoes
colocada
colocadas
colocado
colocados
colocam
colocando
colocar
colocaram
colocava
colocou
colombia
colombiana
colombiano
colombo
colon
colonia
coloniais
colonial
colonias
colonizacao
colonizadores
colonos
coloque
coloquial
coloquio
color
coloracao
colorado
colorida
coloridas
colorido
coloridos
colt
colts
columbia
columbus
coluna
colunas
colunista
com
coma
comanda
comandada
comandado
comandados
comandando
comandante
comandantes
comandar
comandava
comando
comandos
comandou
comarca
comarcas
combat
combate
combatentes
combater
combates
combateu
combina
combinacao
combinacoes
combinada
combinadas
combinado
combinados
combinando
combinar
combined
comboio
comboios
combustao
combustiveis
combustivel
come
comeback
comeca
comecado
comecam
comecando
comecar
comecara
comecaram
comecava
comecei
comeco
comecou
comedia
comediante
comedias
comedy
comelec
comem
comemora
comemoracao
comemoracoes
comemorado
comemorar
comemorativa
comemorativo
comemorou
comenda
comendador
comendo
comenta
comentando
comentar
comentario
comentarios
comentarista
comentaristas
comentou
comer
comerciais
comercial
comercializacao
comercializado
comercialmente
comerciante
comerciantes
comercio
comes
cometa
cometas
comete
cometer
cometeu
cometido
cometidos
comic
comica
comico
comics
comida
comidas
comigo
coming
comissao
comissario
comissarios
comissionado
comissoes
comite
comites
comitiva
command
commander
comment
commentary
comments
commerce
commercial
commercio
commission
committee
common
commons
commonwealth
commune
communes
communication
communications
communist
community
comneno
como
comocao
comores
compacta
compacto
compadre
compaixao
companheira
companheiro
companheiros
companhia
companhias
companies
companion
company
compara
comparacao
comparacoes
comparada
comparado
comparados
comparando
comparar
comparativa
comparative
comparavel
comparecer
compareceram
compareceu
comparison
comparou
compartilha
compartilhada
compartilhado
compartilham
compartilhamento
compartilhar
compartilhou
compartimento
compasso
compatibilidade
compativeis
compativel
compatriota
compendio
compensacao
compensar
compete
competem
competencia
competencias
competente
competentes
competicao
competicoes
competidores
competindo
competir
competiram
competition
competitiva
competitividade
competitivo
competiu
compilacao
compilado
compilador
complementar
complementares
complemento
completa
completada
completado
completamente
completando
completar
completas
complete
completo
completos
completou
complex
complexa
complexas
complexidade
complexo
complexos
complicacoes
complicada
complicado
compoe
compoem
compondo
componente
componentes
compor
comporta
comportamentais
comportamental
comportamento
comportamentos
compos
composicao
composicoes
composition
compositor
compositora
compositores
composta
compostas
compostela
composto
compostos
compra
comprada
comprado
comprador
compradores
comprados
comprar
compras
compreende
compreendem
compreendendo
compreender
compreendia
compreendida
compreendido
compreensao
comprehensive
compressao
comprido
comprimento
comprimentos
comprimido
comprometer
comprometeu
comprometido
comprometimento
compromisso
compromissos
comprou
comprovada
comprovado
comptes
compton
computacao
computacionais
computacional
computador
computadores
computational
computer
computing
comte
comum
comumente
comuna
comunas
comunhao
comunica
comunicacao
comunicacoes
comunicado
comunicar
comunidade
comunidades
comunismo
comunista
comunistas
comunitaria
comunitario
comunitarios
comuns
con
conan
concacaf
concebeu
concebida
concebido
concede
conceder
concedeu
concedida
concedidas
concedido
concedidos
conceicao
conceito
conceitos
conceitual
concelho
concelhos
concentra
concentracao
concentracoes
concentrada
concentrado
concentram
concentrando
concentrar
concentrou
concepcao
concepcion
concepcoes
concept
concepts
concert
concerto
concertos
concessao
concessionaria
concessoes
concha
conchas
conciliar
concilio
concise
conclave
conclui
concluida
concluidas
concluido
concluidos
concluindo
concluir
concluiram
concluiu
conclusao
conclusoes
concorda
concordam
concordancia
concordar
concordaram
concordia
concordou
concorrencia
concorrente
concorrentes
concorrer
concorreu
concreta
concreto
concurso
concursos
condado
condados
conde
condecoracao
condecoracoes
condecorado
condena
condenacao
condenada
condenado
condenados
condenou
condes
condessa
condicao
condicionado
condicional
condicoes
condita
condominio
condor
conducao
conduta
condutor
condutores
conduz
conduzida
conduzido
conduzidos
conduzindo
conduzir
conduziu
cone
conecta
conectada
conectado
conectados
conectar
conego
conert
conexao
conexoes
conf
confeccao
confederacao
confederacoes
confederados
confere
conference
conferencia
conferencias
conferido
conferir
confessa
confessar
confessor
confessou
confiabilidade
confianca
confiante
confiar
confiaveis
confiavel
configuracao
configuracoes
configurar
confina
confira
confirma
confirmacao
confirmada
confirmadas
confirmado
confirmados
confirmam
confirmando
confirmar
confirmaram
confirmed
confirmou
confirms
confissao
confissoes
conflict
conflito
conflitos
confluencia
conforme
conformidade
confortavel
conforto
confraria
confronta
confrontar
confronte
confronto
confrontos
confunde
confundida
confundido
confundir
confusa
confusao
confuso
conglomerado
congo
congregacao
congregacoes
congress
congressional
congresso
congressos
conheca
conhece
conhecem
conhecemos
conhecendo
conhecer
conheceram
conheceu
conhecia
conheciam
conhecida
conhecidas
conhecido
conhecidos
conhecimento
conhecimentos
conheco
conjugacao
conjugal
conjuncao
conjunta
conjuntamente
conjuntivo
conjunto
conjuntos
conmebol
connecticut
connection
conner
connor
conosco
conquest
conquista
conquistada
conquistadas
conquistado
conquistador
conquistados
conquistando
conquistar
conquistaram
conquistas
conquistou
conrad
conrado
cons
consagracao
consagrada
consagrado
consagrados
consagrou
consciencia
consciente
conscientizacao
consecutiva
consecutivas
consecutivo
consecutivos
consegue
conseguem
consegui
conseguia
conseguido
conseguindo
conseguinte
conseguir
conseguiram
conseguiria
conseguiu
conselheiro
conselheiros
conselho
conselhos
consenso
consentimento
consequencia
consequencias
consequente
consequentemente
conserva
conservacao
conservado
conservador
conservadora
conservadores
conservar
conservation
conservatorio
considera
consideracao
consideracoes
considerada
consideradas
considerado
considerados
consideram
considerando
considerar
consideraram
considerava
consideravam
consideraveis
consideravel
consideravelmente
considere
considerou
consiga
consigo
consiste
consistem
consistencia
consistente
consistia
consistindo
consistiu
consistorio
consoante
consoantes
consolacao
console
consoles
consolidacao
consolidar
consolidou
consorcio
consorte
conspiracao
conspiracy
conspiradores
consta
constam
constanca
constancia
constancio
constant
constante
constantemente
constantes
constantine
constantino
constantinopla
constatou
constelacao
constelacoes
constitucionais
constitucional
constitucionalista
constituem
constitui
constituia
constituicao
constituicoes
constituida
constituidas
constituido
constituidos
constituindo
constituinte
constituintes
constituir
constituiu
constitution
constroi
construcao
construcoes
construction
construida
construidas
construido
construidos
construindo
construir
construiram
construiu
construtor
construtora
construtores
consul
consulado
consular
consules
consult
consulta
consultada
consultado
consultar
consultas
consulte
consultivo
consultor
consultoria
consumer
consumida
consumido
consumidor
consumidores
consumir
consumo
conta
contabeis
contabilidade
contact
contacto
contada
contado
contador
contados
contagem
contam
contaminacao
contando
contar
contara
contaram
contas
contato
contatos
contava
contavam
conte
contem
contempla
contemplacao
contemplar
contemporanea
contemporaneas
contemporaneo
contemporaneos
contemporary
contencao
contendo
content
contente
conter
contest
contestada
contestado
conteudo
conteudos
context
contexto
contextos
conti
contida
contidas
contido
contidos
contigo
continentais
continental
continente
continentes
contingente
continha
continham
continua
continuacao
continuada
continuado
continuam
continuamente
continuando
continuar
continuara
continuaram
continuaria
continuas
continuasse
continuava
continuavam
continue
continues
continuidade
continuo
continuos
continuou
continuum
conto
contorno
contornos
contos
contou
contra
contrabaixo
contrabando
contracao
contract
contradicao
contradicoes
contraiu
contrapartida
contraponto
contraria
contrario
contrarios
contrarrelogio
contraste
contrata
contratacao
contratada
contratado
contratados
contratar
contrato
contratos
contratou
contribuem
contribui
contribuicao
contribuicoes
contribuido
contribuindo
contribuir
contribuiram
contribuiu
contribution
contributions
control
controla
controlada
controladas
controlado
controlador
controladores
controlados
controlar
controlava
controle
controles
controlo
controversa
controversia
controversias
controverso
controversy
contudo
conus
conveccao
convem
convencao
convence
convencer
convenceu
convencido
convencionais
convencional
convencoes
conveniencia
conveniente
convenio
convention
convento
conventos
convergencia
conversa
conversacao
conversando
conversao
conversar
conversas
conversation
converte
convertendo
converter
converteu
convertida
convertido
convertidos
conves
conviccao
convida
convidada
convidado
convidados
convidar
convidou
convite
convites
convivencia
convivio
convoca
convocacao
convocada
convocado
convocados
convocar
convocou
conway
cook
cooke
cool
cooper
cooperacao
cooperativa
cooperativas
coord
coordenacao
coordenada
coordenadas
coordenado
coordenador
coordenadora
coordenar
coordenou
cop
copa
copacabana
copas
cope
copenhaga
copenhague
copia
copiar
copias
copo
copos
copy
copyright
coqueiro
cor
cora
coracao
coracoes
coragem
corais
coral
corazon
corda
cordao
cordas
cordeiro
cordel
cordilheira
cordoba
cordova
core
corea
coreana
coreano
coreanos
coreia
coreografia
cores
corey
corinthians
corintios
corinto
coritiba
cornelio
cornelius
cornell
corner
coro
coroa
coroacao
coroada
coroado
coroas
corona
coronavirus
coronel
coros
corp
corpo
corporacao
corporacoes
corporais
corporal
corporate
corporation
corporativa
corporativo
corpos
corps
corpus
corre
correa
correcao
corredor
corredores
corregedor
corrego
corregos
correia
correio
correios
correlacao
correm
correndo
corrente
correntes
correr
corresponde
correspondem
correspondencia
correspondencias
correspondendo
correspondente
correspondentes
corresponder
correspondia
correta
corretamente
correto
correu
corria
corrida
corridas
corridos
corrigir
corrupcao
corsega
corso
corta
cortada
cortadas
cortado
cortando
cortar
corte
cortejo
cortes
cortesia
cortex
cortez
cortina
cortou
coruja
corumba
corunha
corvo
cos
cosme
cosmeticos
cosmic
cosmica
cosmologia
cosmos
cost
costa
costas
costeira
costeiras
costuma
costumam
costumava
costumavam
costume
costumes
costura
cota
cotas
cote
cotidiana
cotidiano
cotton
coube
could
council
count
countdown
counter
countries
country
county
coup
coupe
couracado
couracados
courier
couro
course
court
courtney
cousa
cousas
coutinho
couto
cov
cova
covas
cover
coverage
covers
covid
covilha
cowboy
cowboys
cox
coxa
cozido
cozinha
cozinhar
cp
cpc
cpdoc
cpi
cplp
cptm
cpu
cq
cr
cracovia
craig
crambidae
crane
cranio
craque
crash
cratera
crateras
crato
cravo
crawford
crazy
crb
crc
cre
cream
create
creation
creative
creator
credibilidade
credit
creditada
creditado
credito
creditos
credits
credo
credor
credores
creed
creek
creio
creme
crenca
crencas
crentes
crepusculo
crer
cresce
crescem
crescendo
crescente
crescentes
crescer
cresceram
cresceu
crescia
crescido
crescimento
crespo
creta
cretaceo
cretaceous
crew
cria
criacao
criacoes
criada
criadas
criado
criador
criadora
criadores
criados
criam
crianca
criancas
criando
criar
criaram
criativa
criativas
criatividade
criativo
criatura
criaturas
cribb
criciuma
cricket
crime
crimeia
crimes
criminais
criminal
criminalidade
criminosa
criminoso
criminosos
criou
crioulo
cripta
criptografia
criquete
cris
crise
crises
crisis
crista
cristais
cristal
cristalino
cristao
cristaos
cristas
cristian
cristianismo
cristiano
cristina
cristo
cristobal
cristovao
criterio
criterios
critic
critica
criticada
criticado
critical
criticando
criticar
criticaram
criticas
critico
criticos
criticou
critics
critique
croacia
croata
croatas
croatia
crocodilo
croix
cromossomo
cromossomos
cromwell
cronica
cronicas
cronista
cronograma
cronologia
cronologica
crosby
cross
crossing
crossover
crosta
crow
crowley
crown
cru
crucial
cruel
crueldade
cruise
crunchyroll
crush
crustaceos
cruz
cruza
cruzada
cruzadas
cruzado
cruzador
cruzadores
cruzados
cruzam
cruzamento
cruzamentos
cruzando
cruzar
cruzeiro
cruzeiros
cruzes
cruzou
cry
crystal
cs
csa
csi
csic
csiro
csv
ct
cu
cuba
cubana
cubano
cubanos
cube
cubicos
cubo
cuca
cuenca
cuiaba
cuida
cuidado
cuidados
cuidadosamente
cuidando
cuidar
cuja
cujas
cujo
cujos
culinaria
cullen
culminando
culminou
culpa
culpado
culpados
cult
cultivada
cultivadas
cultivar
cultivo
culto
cultos
cultura
culturais
cultural
culturalmente
culturas
culture
cultures
cum
cume
cumpre
cumprido
cumprimento
cumprindo
cumprir
cumpriu
cunha
cunhada
cunhado
cunho
cunningham
cup
cupula
cura
curado
curador
curadoria
curar
curdo
curdos
cure
curia
curiosa
curiosamente
curiosidade
curiosidades
curioso
curiosos
curitiba
current
curriculo
curriculum
curry
curse
curso
cursos
cursou
curt
curta
curtas
curtis
curto
curtos
curva
curvas
curvatura
custa
custo
custodia
custodio
custos
custou
cut
cv
cw
cx
cy
cyber
cycle
cycling
cyclone
cynthia
cyprus
cyril
cyrus
cz
czar
czech
d
d0
d1
d2
d3
d4
d5
d6
d7
d8
d9
da
dad
dada
dadas
daddy
dado
dados
dai
daily
daisy
dakar
dakota
dal
dalai
dale
dali
dall
dallas
dallwitz
dalton
daly
dam
dama
damage
damas
damasco
dame
damian
damiao
damien
damon
dan
dana
danca
dancando
dancar
dancarina
dancarino
dancarinos
dancas
dance
dancing
dando
danger
dangerous
dani
daniel
daniela
daniele
danielle
daniels
danificada
danificadas
danificado
danificados
danilo
danny
dano
danos
dans
dantas
dante
dantes
danubio
dao
daquela
daquelas
daquele
daqueles
daqui
daquilo
dar
dara
darcy
daria
dario
dark
darkness
darling
darmstadt
darren
darwin
daryl
das
dash
data
database
datacao
datada
datado
datados
datam
datas
date
datenverarbeitung
dates
dato
daughter
dava
davam
dave
davi
david
davidson
davies
davis
dawn
dawson
day
days
daytona
db
dc
dd
ddr
de
dead
deadline
deadly
deal
dean
dear
death
deaths
debaixo
debate
debates
debbie
debian
debora
deborah
debut
debuts
dec
decada
decadas
decade
decadencia
decano
decapitado
december
decepcao
decerto
decide
decidem
decidida
decidido
decidir
decidiram
decidiu
decima
decimal
decimo
decio
decisao
decision
decisiva
decisivo
decisoes
deck
declara
declaracao
declaracoes
declarada
declarado
declarados
declarando
declarar
declararam
declarou
declinacao
decline
declinio
deco
decolagem
decomposicao
decoracao
decoracoes
decorada
decorado
decorativos
decorre
decorrencia
decorrente
decorrentes
decorrer
decorreu
decrescente
decrescimo
decreto
decretos
decretou
dedica
dedicacao
dedicada
dedicadas
dedicado
dedicados
dedicando
dedicar
dedicou
dedo
dedos
dee
deep
def
default
defeito
defeitos
defence
defende
defendem
defendendo
defender
defendeu
defendia
defendiam
defendida
defendido
defense
defenses
defensiva
defensivas
defensivo
defensor
defensores
defesa
defesas
deficiencia
deficiencias
deficiente
deficientes
deficit
define
definem
definicao
definicoes
definida
definidas
definido
definidos
definindo
definir
definition
definitiva
definitivamente
definitivo
definitivos
definiu
deformacao
defronte
degli
degradacao
degraus
dei
deitado
deitar
deixa
deixada
deixado
deixados
deixam
deixando
deixar
deixara
deixaram
deixaria
deixasse
deixava
deixe
deixou
del
dela
delas
delaware
dele
delegacao
delegacia
delegacoes
delegado
delegados
deles
delfim
delgada
delgado
delhi
deli
deliberacao
deliberadamente
delicada
delicado
delimitacao
delirio
delito
delivers
dell
della
delle
delta
deluxe
dem
demais
demand
demanda
demandas
demarcacao
demasiado
demetrio
demi
demissao
demite
demitido
demitiu
demo
democracia
democracy
democrata
democratas
democratic
democratica
democraticas
democratico
demografia
demografica
demografiche
demografico
demolicao
demolida
demolido
demon
demonio
demonios
demonstra
demonstracao
demonstracoes
demonstrado
demonstram
demonstrando
demonstrar
demonstraram
demonstrou
demora
demorou
demos
den
dendrobium
dengue
denis
denise
denmark
dennis
denomina
denominacao
denominacoes
denominada
denominadas
denominado
denominados
denominar
denota
densa
densamente
densidade
density
denso
dente
dentes
dentista
dentre
dentro
denuncia
denunciar
denuncias
denunciou
denver
deodoro
deos
departamento
departamentos
departements
department
depende
dependem
dependencia
dependencias
dependendo
dependente
dependentes
depender
dependia
deperu
depoimento
depoimentos
depois
depor
deportes
deportivo
deposicao
deposito
depositos
deposto
depressa
depressao
depression
deputada
deputado
deputados
der
dera
deram
derby
derek
deriva
derivacao
derivada
derivadas
derivado
derivados
derrota
derrotada
derrotado
derrotados
derrotando
derrotar
derrotaram
derrotas
derrotou
derruba
derrubada
derrubado
derrubar
derrubou
des
desacordo
desafia
desafiante
desafiar
desafio
desafios
desafiou
desagradavel
desagua
desambiguacao
desaparece
desaparecer
desapareceram
desapareceu
desaparecido
desaparecidos
desaparecimento
desastre
desastres
desativada
desativado
descansar
descanso
descarga
descartado
descartes
desce
descendencia
descendente
descendentes
descendo
descer
desceu
descida
desclassificado
descoberta
descobertas
descoberto
descobertos
descobre
descobrem
descobrimento
descobrimentos
descobrindo
descobrir
descobriram
descobriu
desconfianca
desconforto
desconhecida
desconhecidas
desconhecido
desconhecidos
descontentamento
desconto
descreve
descrevem
descrevendo
descrever
descreveram
descreveu
descricao
descricoes
description
descriptions
descrita
descritas
descrito
descritos
descubra
desculpa
desculpas
desde
deseja
desejada
desejado
desejam
desejando
desejar
desejava
desejavam
desejo
desejos
desembarcou
desembargador
desembarque
desempate
desempenha
desempenhado
desempenham
desempenhar
desempenho
desempenhou
desemprego
desenhada
desenhado
desenhar
desenhista
desenho
desenhos
desenhou
desenvolve
desenvolvedor
desenvolvedora
desenvolvedores
desenvolvem
desenvolvendo
desenvolver
desenvolveram
desenvolveu
desenvolvida
desenvolvidas
desenvolvido
desenvolvidos
desenvolvimento
desenvolvimentos
desert
desertas
deserto
desertos
desesperada
desesperado
desespero
desfazer
desfecho
desfilar
desfile
desfiles
desfilou
desfrutar
desgaste
desgosto
desgraca
design
designa
designacao
designacoes
designada
designadas
designado
designados
designar
designer
designers
designou
designs
desigual
desigualdade
desigualdades
desire
desiste
desistencia
desistir
desistiu
desktop
deslocamento
deslocar
desmatamento
desmembrado
desmond
desordem
despacho
despede
despedida
despediu
despeito
desperta
despertar
despertou
despesa
despesas
desportiva
desportivas
desportivo
desportivos
desporto
desportos
desprezo
dessa
dessas
desse
desses
desta
destaca
destacada
destacado
destacados
destacam
destacamento
destacando
destacar
destacaram
destacou
destaque
destaques
destas
deste
desterro
destes
destina
destinada
destinadas
destinado
destinados
destination
destino
destinos
destiny
destrocos
destroi
destruction
destruicao
destruida
destruidas
destruido
destruidos
destruindo
destruir
destruiram
destruiu
desuso
desvantagem
desvantagens
desviar
desvio
desvios
det
detail
details
detalhada
detalhadas
detalhado
detalhados
detalhe
detalhes
deteccao
detectado
detectar
detective
detem
detencao
detentor
deter
deterioracao
determina
determinacao
determinada
determinadas
determinado
determinados
determinam
determinante
determinar
determinou
detetive
detido
detidos
detinha
detras
detrimento
detritos
detroit
deu
deus
deusa
deuses
deuteronomio
deutsch
deutsche
deutschen
deutscher
deutschland
deux
dev
deva
devagar
deve
devedor
developer
development
devem
devemos
devendo
dever
devera
deverao
deveras
deveres
deveria
deveriam
deveu
devia
deviam
devida
devidamente
devido
devil
devo
devocao
devolver
devon
devoto
devotos
dexter
dez
dezember
dezembro
dezenas
dezenove
dezesseis
dezessete
dezoito
df
dg
dh
dhabi
di
dia
diabetes
diablo
diabo
diacono
diadema
diagnosis
diagnosticado
diagnostico
diagonal
diagrama
dial
dialetica
dialeto
dialetos
dialogo
dialogos
diamante
diamantes
diamantina
diametro
diamond
diamonds
diana
diane
diante
dianteira
diao
diaria
diariamente
diarias
diaries
diario
diarios
diarreia
diary
dias
diaspora
diaz
dicas
diccionario
dicembre
dicionario
dicionariompb
dicionarios
dick
dickinson
dicotyledones
dictionary
dictionnaire
did
didatico
didaticos
didi
didier
didn
die
died
diego
dies
diesel
dieta
dieter
dietrich
diez
difere
diferem
diferenca
diferencas
diferencia
diferenciacao
diferenciado
diferenciais
diferencial
diferenciar
diferente
diferentemente
diferentes
different
differential
dificeis
dificil
dificilmente
dificuldade
dificuldades
difundida
difundido
difundir
difusao
difusora
diga
digest
digimon
digitais
digital
digitalmente
digite
digitos
digna
dignidade
digno
digo
digressao
dilema
dillon
dilma
diluvio
dimensao
dimensional
dimensoes
diminui
diminuicao
diminuido
diminuindo
diminuir
diminuiu
din
dina
dinamarca
dinamarques
dinamarquesa
dinamica
dinamicas
dinamico
dinamo
dinastia
dinastias
dinheiro
dinis
diniz
dino
dinosaur
dinosaurs
dinossauro
dinossauros
dio
diocesano
diocese
dioceses
diocleciano
diodoro
diogenes
diogo
dion
dionisio
dios
dioxido
diploma
diplomacia
diplomas
diplomata
diplomatas
diplomatica
diplomaticas
diplomatico
diplomaticos
dir
dirceu
direcao
direccao
direcionado
direcoes
direct
directa
directamente
direction
directo
director
directors
directory
direi
direita
direito
direitos
direta
diretamente
diretas
direto
diretor
diretora
diretores
diretoria
diretorio
diretorios
diretos
diretrizes
diria
dirige
dirigente
dirigentes
dirigia
dirigida
dirigidas
dirigido
dirigidos
dirigindo
dirigir
dirigiu
dirk
dirty
dis
disaster
disc
disciplina
disciplinar
disciplinas
discipulo
discipulos
disco
discografia
discography
discogs
discos
discovery
discreta
discreto
discriminacao
discurso
discursos
discussao
discussion
discussoes
discute
discutem
discutido
discutindo
discutir
discutiu
disease
diseases
disfarcado
disk
disney
disorder
disorders
dispara
disparar
disparo
disparos
disparou
dispensa
dispensado
dispersao
dispersos
display
displaystyle
dispoe
disponibilidade
disponibiliza
disponibilizada
disponibilizado
disponibilizados
disponibilizar
disponiveis
disponivel
dispor
disposicao
disposicoes
dispositivo
dispositivos
disposta
dispostas
disposto
dispostos
dispunha
disputa
disputada
disputadas
disputado
disputados
disputam
disputando
disputar
disputaram
disputas
disputava
disputou
disse
disseminacao
disseram
dissertacao
dissidentes
disso
dissolucao
dissolver
dissolvida
dissolvido
distance
distancia
distanciamento
distancias
distante
distantes
distincao
distincoes
distingue
distinguem
distinguido
distinguir
distinguiu
distinta
distintas
distintivo
distinto
distintos
disto
distribui
distribuicao
distribuicoes
distribuida
distribuidas
distribuido
distribuidora
distribuidos
distribuir
distribuiu
distribution
district
distrital
distrito
distritos
disturbio
disturbios
dita
ditador
ditadura
ditas
dito
ditos
diva
divas
divergencia
divergencias
diversa
diversao
diversas
diversidade
diversificada
diversity
diversos
divertida
divertido
divertir
divida
dividas
divide
dividem
dividida
divididas
dividido
divididos
dividindo
dividir
dividiram
dividiu
divina
divindade
divindades
divine
divino
divisa
divisao
division
divisoes
divisor
divorciaram
divorcio
divorciou
divulga
divulgacao
divulgada
divulgadas
divulgado
divulgados
divulgar
divulgou
dixon
diz
dize
dizem
dizendo
dizer
dizia
diziam
dj
djibouti
dk
dl
dm
dn
dna
dns
do
doacao
doacoes
doado
doar
dobra
dobrado
dobrar
dobro
doc
doce
docente
docentes
doces
docreader
docs
doctor
document
documentacao
documentada
documentado
documental
documentario
documentarios
documentary
documento
documentos
documents
dodge
doenca
doencas
doente
doentes
does
doesn
dog
dogg
dogma
dogs
doha
doi
dois
doja
dolar
dolares
doll
dollar
dolls
dolores
dolorosa
dom
domain
dome
domenico
domestic
domestica
domesticas
domestico
domesticos
domiciliar
domicilio
domicilios
domina
dominacao
dominada
dominado
dominante
dominantes
dominar
dominava
domingao
domingo
domingos
domingues
dominguez
dominic
dominica
dominical
dominicana
dominicano
dominika
dominio
dominios
dominique
domino
dominou
don
dona
donald
donatario
donato
donde
done
donetsk
dong
donna
donnell
dono
donos
donovan
dons
donzela
doo
doom
door
doors
doou
doping
dor
dora
dorado
dores
doria
dorian
doris
dorival
dorme
dormia
dormindo
dormir
doroteia
dorothy
dorsal
dorso
dortmund
dos
dose
doses
dossie
dossier
dot
dotada
dotado
dote
dots
dou
double
doubleday
doubles
doug
douglas
dourada
douradas
dourado
dourados
douro
dous
doutor
doutora
doutorado
doutoramento
doutores
doutrina
doutrinas
dove
dover
down
download
downloads
doyle
doze
dp
dq
dr
dra
draco
dracula
draft
drag
dragao
dragoes
dragon
dragons
drake
drama
dramas
dramatica
dramaticas
dramatico
dramaturgia
dramaturgo
draper
drasticamente
draw
dre
dream
dreams
drenagem
dresden
drew
dritte
drive
driver
drivers
droga
drogas
drop
drops
drug
drugs
drum
drummond
ds
dt
du
dua
dual
duarte
duas
dub
dubai
dublada
dublado
dublador
dublagem
dublin
ducado
duck
duda
dudley
dudu
due
duelo
dueto
duff
duke
dulce
dum
duma
dumas
dumbledore
dumont
dunas
duncan
dunn
dunning
duo
dupla
duplas
duplicacao
duplo
duplos
duque
duques
duquesa
dura
duracao
duradoura
duramente
duran
durante
durar
duras
dureza
durham
during
duro
duros
durou
dusseldorf
dust
dustin
dutch
dutchcharts
dutra
duty
duvida
duvidas
duzentos
duzia
dv
dvd
dvds
dw
dwight
dx
dy
dylan
dynamic
dynamics
dynamite
dynasty
dz
e
e0
e1
e2
e3
e4
e5
e6
e7
e8
e9
ea
each
eagle
eagles
earl
earliest
early
earth
east
eastern
easy
eat
eb
ebc
ebert
ebola
ec
eca
echo
echolocation
eclesiastica
eclesiasticas
eclesiastico
eclesiasticos
eclipse
eclosao
eco
ecole
ecologia
ecologica
ecologico
ecology
economia
economias
economic
economica
economicamente
economicas
economico
economicos
economics
economist
economista
economistas
economy
ecossistema
ecossistemas
ecuador
ecumenico
ecw
ed
eddie
eddy
eden
eder
edgar
edgard
edge
edicao
edicion
ediciones
edicoes
edificacao
edificacoes
edificado
edificio
edificios
edimburgo
edinburgh
edison
edit
editada
editado
edital
editar
edited
edith
edition
editions
editor
editora
editoras
editores
editoriais
editorial
editors
editou
edmond
edmonton
edmund
edmundo
edna
edo
edouard
eds
edson
edu
eduard
eduardo
educacao
educacionais
educacional
educada
educado
educador
educadora
educadores
educar
education
educational
educativa
educativo
edusp
edward
edwards
edwin
ee
eerdmans
ef
efe
efeito
efeitos
efeso
efetiva
efetivado
efetivamente
efetivo
efetivos
efetuar
effect
effects
eficacia
eficaz
eficazes
eficiencia
eficiente
eficientes
eg
ega
egeu
egg
egipcia
egipcio
egipcios
egipto
egito
ego
egypt
egyptian
eh
ei
eight
eilish
ein
eine
einer
einstein
einwohnerzahlen
eis
eisenhower
eisernen
eisner
eixo
eixos
ej
ek
el
ela
elaboracao
elaborada
elaboradas
elaborado
elaborados
elaborar
elaborou
elaine
elas
elba
elder
eldorado
ele
eleanor
election
elections
electric
electrica
electro
electronic
electronica
electronico
elefante
elefantes
elegancia
elegante
elege
eleger
elegeu
eleicao
eleicoes
eleita
eleito
eleitor
eleitorado
eleitorais
eleitoral
eleitores
eleitos
elementar
elementares
elementary
elemento
elementos
elements
elena
elenco
eles
eletrica
eletricas
eletricidade
eletrico
eletricos
eletron
eletronica
eletronicas
eletronico
eletronicos
eletrons
eleva
elevacao
elevada
elevadas
elevado
elevador
elevados
elevando
elevar
eleven
elevou
elfos
eli
eliana
eliane
elias
elimina
eliminacao
eliminada
eliminado
eliminados
eliminando
eliminar
elimination
eliminatoria
eliminatorias
eliminou
elio
eliot
eliptica
elis
elisa
elisabeth
eliseu
elite
elites
eliza
elizabeth
ella
ellas
elle
ellen
elles
ellie
elliot
elliott
ellis
elmo
elo
elogia
elogiada
elogiado
elogiando
elogiaram
elogio
elogios
elogiou
elon
elrei
elsa
else
elsevier
elton
elvas
elvira
elvis
elza
em
ema
email
emancipacao
emanuel
embaixada
embaixadas
embaixador
embaixadora
embaixadores
embaixo
embalagem
embalagens
embarcacao
embarcacoes
embarcada
embarcar
embarcou
embargo
embarque
embate
emblema
embora
emboscada
embraer
embrapa
embriao
emenda
emendas
emerge
emergencia
emergencial
emergency
emergente
emergentes
emergiu
emerito
emerson
emery
emi
emigracao
emigrantes
emigrou
emil
emile
emilia
emiliano
emilio
emily
eminem
emir
emirados
emirates
emissao
emissoes
emissora
emissoras
emite
emitida
emitidas
emitido
emitidos
emitir
emitiu
emma
emmanuel
emmy
emocao
emocionais
emocional
emocionante
emocoes
empata
empatado
empate
empates
empatou
empenho
emperor
empire
empossado
empreendedor
empreendedorismo
empreendimento
empreendimentos
emprega
empregada
empregadas
empregado
empregados
empregando
empregar
emprego
empregos
empregou
empresa
empresaria
empresariais
empresarial
empresario
empresarios
empresas
emprestado
emprestimo
emprestimos
en
encantado
encanto
encantos
encarnacao
encarregada
encarregado
encarregou
encarte
encenacao
encerra
encerrada
encerrado
encerramento
encerrando
encerrar
encerrou
enchentes
encher
enciclica
enciclopedia
encomenda
encomendada
encomendado
encomendas
encomendou
encontra
encontrada
encontradas
encontrado
encontrados
encontram
encontramos
encontrando
encontrar
encontrara
encontraram
encontrava
encontravam
encontre
encontrei
encontro
encontros
encontrou
encorajou
encore
encosta
encostas
encyclopaedia
encyclopedia
encyclopædia
end
endemica
endemicas
endereco
enderecos
ending
ends
enem
enemy
energetica
energetico
energia
energias
energy
enero
enfase
enfatiza
enfatizar
enfatizou
enfermagem
enfermeira
enfermidade
enfim
enfoque
enfraquecer
enfraqueceu
enfraquecimento
enfrenta
enfrentam
enfrentando
enfrentar
enfrentaram
enfrentou
eng
enganar
engano
engels
engenharia
engenheiro
engenheiros
engenho
engenhos
engine
engineering
engineers
england
english
engloba
engracado
enigma
enix
eno
enorme
enormes
enough
enquanto
enredo
enrico
enrique
enriquecimento
ensaio
ensaios
ensaista
enseada
ensemble
ensina
ensinado
ensinamentos
ensinando
ensinar
ensino
ensinou
entanto
entao
ente
entenda
entende
entendem
entender
entendeu
entendia
entendida
entendido
entendimento
entendo
enter
enterprise
enterrada
enterrado
enterrados
enterro
entertainment
entes
entidade
entidades
entomologia
entorno
entra
entrada
entradas
entrado
entram
entrando
entrar
entrara
entraram
entrarem
entrava
entre
entrega
entregando
entregar
entregou
entregue
entregues
entretanto
entretenimento
entrevista
entrevistado
entrevistados
entrevistas
entroncamento
entropia
entrou
entry
entusiasmo
envelhecimento
envelope
envenenamento
envergadura
envia
enviada
enviadas
enviado
enviados
enviando
enviar
enviaram
envio
enviou
environment
environmental
envolve
envolvem
envolvendo
envolvente
envolver
envolveram
envolveu
envolvia
envolvida
envolvidas
envolvido
envolvidos
envolvimento
enxofre
enzima
enzimas
enzo
eo
ep
epic
epica
epico
epidemia
epidendrum
episcopal
episode
episodes
episodio
episodios
epistola
epiteto
epoca
epocas
eps
epsilon
epstein
eq
equacao
equacoes
equador
equations
equatorial
equatoriano
equestre
equilibrio
equipa
equipada
equipado
equipados
equipamento
equipamentos
equipas
equipe
equipes
equiv
equivale
equivalencia
equivalente
equivalentes
er
era
eram
eramos
eras
erasmo
ergue
erguendo
erguer
ergueu
erguida
erguido
eric
erica
erich
erick
erickson
erico
erik
erika
eriksson
erin
eritrea
eritreia
erlewine
ermida
ernest
ernesto
ernie
ernst
eros
erosao
erotica
errada
errado
erro
erroneamente
erros
ers
erudita
erudito
erupcao
erupcoes
erva
ervas
erwin
es
esa
esboco
esbocos
escada
escadaria
escadas
escala
escalacao
escalada
escalado
escalao
escalar
escalas
escamas
escandalo
escandalos
escandinavia
escapa
escapar
escape
escapou
escassez
escavacao
escavacoes
esclarecer
escoamento
escobar
escoces
escocesa
escoceses
escocia
escola
escolar
escolares
escolas
escolha
escolhas
escolhe
escolhendo
escolher
escolheram
escolheu
escolhida
escolhidas
escolhido
escolhidos
escolta
esconde
escondendo
esconder
esconderijo
escondeu
escondida
escondidas
escondido
escondidos
escopo
escorpiao
escrava
escravatura
escravidao
escravo
escravos
escreve
escrevendo
escrever
escreveram
escreveu
escrevi
escrevia
escrita
escritas
escrito
escritor
escritora
escritores
escritorio
escritorios
escritos
escritura
escrituras
escrivao
escudeiro
escudo
escudos
escultor
escultura
esculturas
escura
escuras
escuridao
escuro
escuros
escuta
escutar
esfera
esferas
esforco
esforcos
esgoto
esgotos
esgrima
eslavo
eslavos
eslovaco
eslovaquia
eslovenia
esloveno
esmagadora
esmalte
esmeralda
esp
espaciais
espacial
espaco
espaconave
espacos
espada
espadas
espalha
espalhadas
espalhados
espalhar
espalharam
espalhou
espana
espanha
espanhois
espanhol
espanhola
espanholas
espanol
espanola
espanto
esparta
especiais
especial
especialidade
especialidades
especialista
especialistas
especializacao
especializada
especializadas
especializado
especializados
especializou
especialmente
especiarias
especie
especies
especifica
especificacao
especificacoes
especificado
especificamente
especificar
especificas
especifico
especificos
especime
especimes
espectaculo
espectaculos
espectador
espectadores
espectral
espectro
especulacao
especulacoes
espelho
espelhos
espera
esperada
esperado
esperam
esperanca
esperancas
esperando
esperanto
esperar
esperava
esperavam
espero
esperou
espessa
espessura
espetacular
espetaculo
espetaculos
espiao
espingarda
espinha
espinho
espinhos
espinosa
espionagem
espiral
espirita
espiritismo
espirito
espiritos
espirituais
espiritual
espiritualidade
esplendor
espn
espolio
espontanea
espontaneamente
esporos
esporte
esportes
esportiva
esportivas
esportivo
esportivos
esposa
esposas
esposo
espuma
esquadra
esquadrao
esquadroes
esquece
esquecer
esqueceu
esquecida
esquecido
esquecimento
esqueleto
esquema
esquemas
esquerda
esquerdo
esqui
esquilo
esquina
essa
essas
essay
essays
esse
essencia
essenciais
essencial
essencialmente
essential
esses
essex
est
esta
estabelece
estabelecem
estabelecendo
estabelecer
estabeleceram
estabeleceu
estabelecida
estabelecidas
estabelecido
estabelecidos
estabelecimento
estabelecimentos
estabilidade
estabilizacao
estacao
estacio
estacionamento
estacoes
estadao
estadia
estadio
estadios
estadista
estadistica
estado
estados
estadounidense
estaduais
estadual
estadunidense
estadunidenses
estagio
estagios
estaleiro
estaleiros
estamos
estampa
estancia
estandarte
estando
estanho
estao
estar
estara
estarao
estarem
estaria
estariam
estas
estatais
estatal
estate
estatica
estatistica
estatisticas
estatistico
estatisticos
estatua
estatuas
estatura
estatuto
estatutos
estava
estavam
estavamos
estaveis
estavel
este
esteban
esteira
esteja
estejam
estela
estelar
estende
estendem
estendendo
estender
estendeu
estendia
estendida
estendido
ester
estes
estetica
estetico
estevao
esteve
esteves
esther
estilista
estilizado
estilo
estilos
estima
estimacao
estimada
estimado
estimar
estimates
estimativa
estimativas
estimou
estimula
estimulacao
estimular
estimulo
estimulos
estiver
estiveram
estiverem
estivesse
estivessem
estocolmo
estomago
estonia
estoniano
estoque
estoril
estou
estrabao
estrada
estradas
estragos
estrangeira
estrangeiras
estrangeirismo
estrangeiro
estrangeiros
estranha
estranhas
estranho
estranhos
estrasburgo
estrategia
estrategias
estrategica
estrategicas
estrategico
estrategicos
estreando
estreante
estrear
estreia
estreias
estreita
estreitas
estreito
estreitos
estrela
estrelada
estrelado
estrelando
estrelar
estrelas
estrella
estrellas
estrelou
estremadura
estremoz
estreou
estresse
estritamente
estrutura
estruturacao
estruturada
estruturado
estruturais
estrutural
estruturas
estuario
estuda
estudada
estudadas
estudado
estudados
estudando
estudante
estudantes
estudantil
estudantis
estudar
estudava
estudio
estudios
estudioso
estudiosos
estudo
estudos
estudou
estufa
estupro
eswatini
et
eta
etanol
etapa
etapas
etaria
etat
etc
eter
eterna
eternal
eternamente
eternidade
eterno
ethan
ethics
ethiopia
ethnic
ethnologue
etica
etico
etienne
etimologia
etiope
etiopia
etiqueta
etnia
etnias
etnica
etnicas
etnico
etnicos
etnografia
etnografico
etudes
eu
eua
eucalyptus
eucaristia
euclides
eugen
eugene
eugenia
eugenio
eulalia
euler
eun
euphorbiaceae
eurasia
eure
eurico
euro
eurobasket
eurocopa
eurogamer
europa
europaea
europe
european
europeia
europeias
europeu
europeus
euros
eurosport
eurovisao
eurovision
eusebio
ev
eva
evacuacao
evaluation
evan
evandro
evanescence
evangelho
evangelhos
evangelica
evangelicas
evangelico
evangelicos
evangelista
evangelizacao
evans
evaristo
eve
evelyn
even
evening
event
evento
eventos
events
eventuais
eventual
eventualmente
ever
everett
everton
every
everybody
everyone
everything
evidence
evidencia
evidencias
evidente
evidentemente
evidentes
evil
evita
evitando
evitar
evitou
evo
evolucao
evoluir
evoluiram
evoluiu
evolution
evolutionary
evolutiva
evora
ew
ewald
ex
exame
exames
examinar
example
exata
exatamente
exatas
exato
excecao
excecoes
excel
excelencia
excelente
excelentes
excelsior
excentricidade
excepcao
excepcionais
excepcional
excepcionalmente
excepto
excessiva
excessivamente
excessivo
excesso
exceto
exchange
excitacao
exclamou
exclui
excluida
excluido
excluidos
excluindo
excluir
exclusao
exclusiva
exclusivamente
exclusivas
exclusive
exclusividade
exclusivo
exclusivos
excursao
execucao
execucoes
executa
executada
executadas
executado
executados
executando
executar
executiva
executive
executivo
executivos
executou
exemplar
exemplares
exemplo
exemplos
exerce
exercem
exercendo
exercer
exerceu
exercia
exercicio
exercicios
exercida
exercido
exercito
exercitos
exhibition
exibe
exibem
exibicao
exibicoes
exibida
exibidas
exibido
exibidos
exibindo
exibir
exibiu
exige
exigem
exigencia
exigencias
exigia
exigido
exigindo
exigir
exigiu
exilado
exilados
exile
exilio
exista
existam
existe
existem
existencia
existente
existentes
existia
existiam
existido
existindo
existir
existiram
existirem
existiu
exists
exit
exito
exitos
exkursionsflora
exmo
exo
exodo
exodus
exoticas
exp
expande
expandida
expandido
expandindo
expandir
expandiu
expansao
expansion
expectativa
expectativas
expedicao
expedicoes
expediente
expedition
experience
experiencia
experiencias
experiente
experientes
experiment
experimentacao
experimentais
experimental
experimentar
experimento
experimentos
experimentou
expert
explica
explicacao
explicacoes
explicado
explicam
explicando
explicar
explicita
explicitamente
explicito
explicou
explode
explodir
explodiu
explora
exploracao
explorada
explorado
explorador
exploradores
explorando
explorar
exploration
explorer
explorou
explosao
explosivo
explosivos
explosoes
expo
expoe
expoente
expoentes
exponencial
expor
exportacao
exportacoes
expos
exposicao
exposicoes
exposta
expostas
exposto
expostos
express
expressa
expressam
expressamente
expressando
expressao
expressar
expressas
expression
expressiva
expressivo
expresso
expressoes
expressos
expressou
expulsa
expulsao
expulsar
expulso
expulsos
expulsou
ext
extended
extensa
extensao
extensas
extension
extensivamente
extenso
extensoes
extensos
exterior
exteriores
exterminio
externa
externas
externo
externos
extincao
extinguiu
extinta
extintas
extinto
extintos
extra
extracao
extradicao
extragalactica
extraido
extrair
extraordinaria
extraordinarias
extraordinario
extras
extrato
extratropical
extrema
extremamente
extremas
extreme
extremidade
extremidades
extremo
extremos
ey
eye
eyed
eyes
ez
ezequiel
ezra
f
f0
f1
f2
f3
f4
f5
f6
f7
f8
f9
fa
fab
fabaceae
faber
fabian
fabiana
fabiano
fabio
fabrica
fabricacao
fabricada
fabricadas
fabricado
fabricados
fabricante
fabricantes
fabricar
fabricas
fabriciano
fabricio
fabrico
fabula
fabulas
fac
faca
facam
facas
faccao
faccoes
face
facebook
faceis
faces
fachada
fachadas
facial
facil
facilidade
facilita
facilitando
facilitar
facility
facilmente
faco
fact
factbook
facto
factor
factores
factory
factos
facts
faculdade
faculdades
faculty
fada
fadas
fadiga
fado
fagundes
faial
failure
fair
faith
faixa
faixas
faja
fake
fala
falada
faladas
falado
falam
falando
falante
falantes
falar
falas
falava
falavam
falcao
falcon
fale
falece
falecer
faleceu
falecida
falecido
falecimento
falei
falencia
falha
falhar
falhas
falhou
fall
fallen
falling
fallingrain
fallon
falls
falo
falou
falsa
falsas
false
falso
falsos
falta
faltam
faltando
faltar
faltas
faltava
fama
famalicao
fame
familia
familiar
familiares
familias
families
family
famosa
famosas
famoso
famosos
famous
fan
fandango
fanny
fans
fantasia
fantasias
fantasma
fantasmas
fantastic
fantastica
fantastico
fantasy
fao
fapesp
faq
far
fara
farao
farc
farei
faria
fariam
farias
farinha
farm
farmaceutica
farmaceutico
farmacia
farmaco
farmacos
faro
faroeste
farois
farol
farrell
farroupilha
farsa
fas
fascismo
fascista
fascistas
fase
fases
fashion
faso
fast
fat
fatais
fatal
fate
father
fatima
fato
fator
fatores
fatos
fatura
faturamento
fauna
faunaeur
faunal
faustao
fausto
favela
favelas
favor
favoraveis
favoravel
favorece
favorecer
favorita
favoritas
favorite
favorito
favoritos
fax
fay
faz
faze
fazem
fazemos
fazenda
fazendas
fazendeiro
fazendeiros
fazendo
fazer
fazerem
fazia
faziam
fb
fbi
fc
fd
fda
fe
fear
feat
feature
features
featuring
feb
febre
february
fecha
fechada
fechadas
fechado
fechados
fechamento
fechando
fechar
fechou
fed
federacao
federacoes
federais
federal
federation
federativa
federazione
federer
federico
feed
feedback
feel
feeling
feet
fei
feia
feicao
feicoes
feijao
feijo
feio
feira
feiras
feita
feitas
feiticeira
feiticeiro
feitico
feiticos
feito
feitos
feixe
felgueiras
felice
feliciano
felicidade
felipe
felix
feliz
felizes
felizmente
fellgiebel
fellow
fellows
female
femea
femeas
feminina
femininas
feminino
femininos
feminismo
feminist
feminista
feministas
femme
fenda
fenix
fenomeno
fenomenos
fenton
fera
ferdinand
ferguson
feriado
feriados
ferias
ferida
feridas
ferido
feridos
ferimento
ferimentos
ferindo
ferir
feriu
fermentacao
fermento
fernanda
fernandes
fernandez
fernando
fernao
feroz
ferramenta
ferramentas
ferrao
ferrara
ferrari
ferraz
ferrea
ferreas
ferreira
ferreiro
ferrer
ferro
ferros
ferrovia
ferroviaria
ferroviarias
ferroviario
ferroviarios
ferrovias
ferry
ferteis
fertil
fertilidade
fest
festa
festas
festejos
festivais
festival
festivals
festividades
feto
feudal
fev
fever
fevereiro
few
fey
fez
fezes
ff
fg
fgv
fh
fi
fia
fiat
fiba
fibra
fibras
fica
ficado
ficam
ficamos
ficando
ficar
ficara
ficaram
ficarem
ficaria
ficasse
ficava
ficavam
ficcao
ficcional
ficha
ficheiro
ficheiros
fico
ficou
ficticia
ficticio
fiction
fidalgo
fidalgos
fide
fidel
fidelidade
fieis
fiel
field
fields
fifa
fifth
fifty
fig
figado
figaro
fight
fighter
fighters
fighting
figueira
figueiredo
figueirense
figura
figurado
figuras
figure
figures
figurino
figurinos
fiji
fila
filadelfia
filarmonica
filas
file
fileiras
filemon
files
filha
filhas
filho
filhos
filhote
filhotes
filiacao
filiada
filiado
filiados
filiais
filial
filiou
filipa
filipe
filipina
filipinas
filipino
filippo
film
filmada
filmadas
filmado
filmagem
filmagens
filmar
filme
filmes
filming
filmmakers
filmografia
films
filo
filogenetica
filologia
filomena
filosofia
filosofica
filosoficas
filosofico
filosoficos
filosofo
filosofos
filtro
filtros
fim
fin
fina
finais
final
finale
finalidade
finalista
finalistas
finalizacao
finalizada
finalizado
finalizando
finalizar
finalizou
finally
finalmente
finals
financas
finance
financeira
financeiramente
financeiras
financeiro
financeiros
financiada
financiado
financial
financiamento
financiar
finas
find
finding
finds
fine
finita
finito
finland
finlandes
finlandesa
finlandia
finn
fino
finos
fins
fio
fiocruz
fiona
fios
fique
fiquei
fiquem
fire
firefox
firenze
firma
firmado
firmar
firme
firmemente
firmeza
firmino
firmou
first
fiscais
fiscal
fiscalizacao
fischer
fish
fishbase
fisher
fishes
fisica
fisicamente
fisicas
fisico
fisicos
fisiologia
fisionomia
fisioterapia
fit
fita
fitas
fitossociologia
fitzgerald
fivb
five
fixa
fixacao
fixada
fixado
fixar
fixas
fixo
fixos
fixou
fiz
fizemos
fizer
fizera
fizeram
fizesse
fizessem
fj
fk
fl
fla
flag
flags
flair
flame
flamengo
flamsteed
flanco
flandres
flash
flashback
flat
flauta
flavia
flavio
flecha
flechas
fleet
fleming
fletcher
flexao
flexibilidade
flexivel
flickr
flight
flip
flo
flood
floor
flor
flora
florenca
florence
florentino
flores
floresta
florestais
florestal
florestas
florian
floriano
florianopolis
florida
flow
flower
flowering
flowers
floyd
flu
flui
fluido
fluidos
fluminense
flutuante
fluviais
fluvial
fluxo
fluxos
fly
flying
flynn
fm
fmi
fn
fo
foca
focada
focado
focal
focar
focas
focinho
foco
focus
foge
fogem
fogo
fogos
fogueira
foguete
foguetes
foi
fokker
folclore
folclorica
folclorico
folego
foley
folga
folha
folhas
folia
folk
follow
following
fome
fomentar
fomento
fomos
fonografica
fonseca
fontaine
fontana
fonte
fontes
foo
food
fool
foot
football
for
fora
foral
forall
foram
forbes
forca
forcada
forcado
forcados
forcando
forcar
forcas
force
forces
forcou
ford
foreign
forem
forense
forest
forever
forget
forgotten
form
forma
formacao
formacoes
formada
formadas
formado
formados
formais
formal
formalmente
formam
formando
formar
formaram
formas
format
formation
formato
formatos
formatura
formava
formavam
former
formica
formicidae
formidavel
formiga
formigas
formosa
formoso
formou
forms
formula
formulacao
formulario
formulas
fornece
fornecedor
fornecedores
fornecem
fornecendo
fornecer
forneceu
fornecida
fornecidas
fornecido
fornecidos
fornecimento
forno
fornos
foro
forrest
forro
forst
forster
fort
fortalecer
fortaleceu
fortalecimento
fortaleza
fortalezas
forte
fortemente
fortes
fortificacao
fortificacoes
fortschreibung
fortuna
fortunato
fortune
forum
foruns
forward
fosfato
fosforo
fossa
fosse
fosseis
fossem
fossil
fosso
foster
foto
fotografia
fotografias
fotografica
fotografico
fotografo
fotos
foucault
found
foundation
foundations
founder
four
fourier
fourth
fowler
fox
foy
foz
fp
fpf
fq
fr
fra
frac
fraca
fracao
fracas
fracasso
fraco
fracos
frade
frades
fraga
fragata
fragil
fragmentacao
fragmento
fragmentos
fragoso
frame
framework
fran
franca
francais
francaise
france
frances
francesa
francesas
francesca
francesco
franceses
francia
francis
francisca
franciscano
franciscanos
francisco
franco
francois
francoise
francos
frango
frank
frankenstein
frankfurt
frankie
franklin
franquia
franquias
frans
franz
fraqueza
frase
fraser
frases
fraternidade
fratura
fraude
fraudes
freak
fred
freddie
freddy
frederic
frederick
frederico
free
freedom
freeman
freestyle
freguesia
freguesias
frei
freiburg
freio
freira
freiras
freire
freitas
freixo
french
frente
frentes
frequencia
frequencias
frequentado
frequentar
frequente
frequentemente
frequentes
frequentou
fresca
fresco
frescos
fresh
freud
frey
fria
frias
friburgo
friday
friedman
friedrich
friend
friends
frio
frios
fritz
frog
frohner
from
front
frontal
frontao
fronte
fronteira
fronteiras
frontier
frost
frota
frozen
fruherer
frustracao
frustrado
fruta
frutas
fruto
frutos
fs
ft
ftp
fu
fue
fuel
fuentes
fuga
fugido
fugindo
fugir
fugiram
fugitivos
fugiu
fui
fuji
fujiwara
fukushima
full
fullard
fuller
fumaca
fumar
fumo
fun
funcao
funchal
funciona
funcionais
funcional
funcionalidade
funcionalidades
funcionam
funcionamento
funcionando
funcionar
funcionaria
funcionario
funcionarios
funcionava
funcionou
funcoes
function
functional
functions
fund
funda
fundacao
fundacion
fundacoes
fundada
fundadas
fundado
fundador
fundadora
fundadores
fundamentais
fundamental
fundamentalmente
fundamento
fundamentos
fundando
fundao
fundar
fundaram
fundicao
fundida
fundido
fundir
fundiu
fundo
fundos
fundou
funebre
funeral
fungi
fungo
fungos
funk
funny
fur
furacao
furacoes
furia
furioso
furnas
furor
furtado
further
fury
fusao
fuselagem
fusion
fuso
futbol
futebol
futebolista
futon
futsal
futura
futuramente
futuras
future
futuro
futuros
fuzil
fuzileiros
fv
fw
fx
fy
fz
g
g0
g1
g2
g3
g4
g5
g6
g7
g8
g9
ga
gabao
gabinete
gabon
gabriel
gabriela
gabrielle
gaddafi
gado
gaelico
gaga
gaia
gail
gains
gaiola
gaita
gal
gala
galaxia
galaxias
galaxy
gale
galega
galego
galegos
galeria
galerias
gales
galhos
galia
galicia
galileo
galileu
galinha
galinhas
galiza
gallagher
gallery
gallimard
gallo
galo
galvao
gama
gambia
game
gamecube
gamer
gamerankings
games
gamespot
gamesradar
gaming
gamma
gana
gancho
gandhi
gang
gangue
gangues
ganha
ganhado
ganhador
ganhadores
ganham
ganhando
ganhar
ganharam
ganhava
ganho
ganhos
ganhou
gao
gaon
gap
gar
garagem
garante
garantem
garantia
garantias
garantida
garantido
garantindo
garantir
garantiu
garca
garcia
gard
garden
gardens
gardiner
gardner
gare
garfield
garganta
garibaldi
garland
garota
garotas
garoto
garotos
garra
garrafa
garrafas
garras
garrett
garrido
garros
gary
gas
gases
gasolina
gaspar
gasta
gastao
gastar
gasto
gaston
gastos
gastronomia
gastropode
gata
gate
gates
gateway
gatilho
gato
gatos
gaucha
gaucho
gauchos
gauleses
gaviao
gavin
gay
gays
gaza
gazeta
gazette
gazetteer
gazetteers
gb
gbif
gc
gcatholic
gct
gd
ge
gear
geek
gehrke
geiger
gelo
gem
gemas
gemea
gemeas
gemeinde
gemeinden
gemeindeteile
gemeo
gemeos
gemini
gen
gender
gene
genealogia
genealogica
genealogy
genebra
genera
generais
general
generale
generalidade
generalizada
generalizado
generation
generic
generica
generico
genericos
genero
generos
generosidade
generoso
genes
genese
genesis
genetic
genetica
geneticamente
geneticas
genetico
geneticos
genetics
genio
genitivo
genius
genocide
genocidio
genoma
genome
genomics
genova
genre
genro
gente
gentes
gentil
gentili
gentilico
gentilicos
genus
geo
geoff
geoffrey
geografia
geografica
geograficamente
geograficas
geografico
geograficos
geografo
geographic
geographical
geographies
geography
geologia
geologica
geological
geologico
geologo
geology
geometria
geometrica
geometry
georg
george
georges
georgetown
georgia
georgiano
geq
gera
geracao
geracoes
gerada
geradas
gerado
gerador
geradores
gerados
gerais
geral
gerald
geraldo
geralmente
geram
gerando
gerar
gerard
gerardo
gerencia
gerenciador
gerenciamento
gerenciar
gerente
gerhard
gerir
germain
german
germania
germanica
germanico
germanicos
germano
germany
germplasm
gerou
gerson
gertrudes
gerundio
geschichte
gesellschaft
gesso
gestacao
gestao
gesto
gestor
gestores
gestos
get
gets
getting
getty
getulio
gf
gfk
gg
gh
ghana
ghost
ghosts
gi
giacomo
gian
gianni
giant
giants
gibbs
gibraltar
gibson
gift
gigante
gigantes
gil
gilbert
gilberto
giles
gill
gilles
gilmar
gilson
gina
ginasio
ginasta
ginastas
ginastica
gini
giorgio
giovanna
giovanni
gira
girar
giria
girl
girls
giro
gisele
git
github
giulia
giulio
giuseppe
give
given
gives
gj
gjerde
gk
gl
glaciar
glamour
glandula
glandulas
glasgow
glass
glee
glen
glenea
glenn
gli
glicose
globais
global
globalizacao
globe
globo
globoesporte
globoplay
gloria
glorias
gloriosa
glorioso
glory
glossario
gloucester
glover
gm
gmbh
gmina
gminy
gn
gnome
gnu
go
goa
goal
gob
gobierno
god
godan
godinho
godofredo
godos
godoy
gods
goes
goethe
goff
gogh
goiana
goiania
goiano
goias
going
gois
goku
gol
gold
goldberg
golden
goldman
goldstein
goleada
goleia
goleiro
goleiros
golf
golfe
golfinho
golfinhos
golfo
golos
golpe
golpes
gols
gomes
gomez
goncalo
goncalves
gone
gong
gonna
gonzaga
gonzalez
gonzalo
good
goodbye
goodman
google
gorda
gordo
gordon
gordura
gore
gorman
gospel
gossip
gosta
gostam
gostar
gostaria
gostava
gosto
gostos
gostou
got
gota
gotas
gotemburgo
gotham
gotica
gotico
gottfried
gottingen
goulart
gould
gouveia
gov
govaerts
governa
governada
governado
governador
governadora
governadores
governamentais
governamental
governanca
governante
governantes
governar
government
governo
governor
governos
governou
goya
gozo
gp
gps
gq
gr
gra
graca
gracas
grace
gracie
graciosa
grade
grades
gradiente
graduacao
graduado
gradual
gradualmente
graduou
graf
grafado
grafia
grafica
graficas
grafico
graficos
grafite
grafo
grafos
graham
gram
grama
gramado
gramados
gramas
gramatica
gramaticais
gramatical
gramineas
grammar
grammy
gran
granada
granadas
grand
grande
grandemente
grandense
grandes
grandeza
granito
granja
grant
grao
graos
graphic
graphics
grass
gratidao
gratis
gratuita
gratuitamente
gratuito
gratuitos
grau
graus
grava
gravacao
gravacoes
gravada
gravadas
gravado
gravador
gravadora
gravadoras
gravados
gravando
gravar
gravaram
gravata
grave
gravemente
graves
gravida
gravidade
gravidez
gravitacional
gravity
gravou
gravura
gravuras
gray
great
greater
greatest
grecia
greco
greece
greek
green
greene
greenwich
greenwood
greg
grega
gregas
gregg
grego
gregoriano
gregorio
gregory
gregos
gremio
grenada
greta
greve
greves
grey
grid
griffin
griffith
grimes
grimm
grin
gripe
grita
gritando
gritar
grito
gritos
gritou
groenlandia
groove
gross
grossa
grossas
grossense
grosso
ground
group
groups
grove
groves
grow
growing
growth
grundlage
grupo
grupos
gruta
grutas
gruyter
gs
gshow
gt
gu
guadalajara
guadalupe
guaiba
guam
guanabara
guara
guarani
guararapes
guaratingueta
guard
guarda
guardado
guardar
guardas
guardian
guardiao
guardioes
guarnicao
guaruja
guarulhos
guatemala
guedes
guerra
guerras
guerre
guerreira
guerreiro
guerreiros
guerrero
guerrilha
guerrilheiro
guerrilheiros
guest
guetta
guevara
guggenheim
gui
guia
guiana
guiar
guias
guida
guide
guides
guido
guild
guilherme
guilhermina
guillaume
guillermo
guilty
guimaraes
guine
guinea
guinee
guinness
guiry
guitar
guitarra
guitarras
guitarrista
guitarristas
gulbenkian
gulf
gun
gundam
gunn
guns
gunter
gunther
gurgel
guru
gus
gusmao
gustav
gustave
gustavo
gutenberg
guterres
gutierrez
guy
guyana
guzman
guðmundur
gv
gw
gwen
gx
gy
gymnastics
gz
h
h0
h1
h2
h3
h4
h5
h6
h7
h8
h9
ha
haas
hab
habeas
habil
habilidade
habilidades
habilitacao
habita
habitacao
habitacionais
habitacional
habitacoes
habitada
habitado
habitam
habitante
habitantes
habitat
habitats
habitavam
habito
habitos
habituais
habitual
habitualmente
habsburgo
hacker
had
haddad
hades
hagrid
hahn
haia
hair
haiti
haitiano
haja
hal
hale
haley
half
hall
halle
halley
halloween
halo
halterofilismo
ham
hamas
hamburg
hamburgo
hamilton
hamlet
hammer
hammond
hampshire
hampton
han
hana
hancock
hand
handbook
handbuch
handebol
hands
hanglemezkiadok
hangul
hank
hanna
hannah
hanover
hans
hansen
hanson
hao
happened
happiness
happy
hara
harald
harbor
harcourt
hard
hardcore
harding
hardware
hardy
hare
harlem
harley
harmonia
harmonica
harmony
harold
haroldo
harpa
harper
harpercollins
harriet
harris
harrison
harry
hart
hartford
hartmann
harvard
harvey
has
hassan
hasta
haste
hastings
hat
hate
haute
havai
havana
have
haven
havendo
haver
havera
haveria
havia
haviam
havido
hawaii
hawk
hawkins
hawks
hay
hayden
hayes
hb
hbo
hc
hd
he
head
heads
health
hear
heard
hearst
heart
hearts
heat
heath
heather
heaven
heavy
heavyweight
hebe
hebraica
hebraico
hebreus
hectares
hector
hee
heer
hegel
hegemonia
hegi
hei
heidelberg
heidi
heights
heijmans
heineken
heinrich
heinz
heitor
held
helder
helen
helena
helene
helgason
helice
helicoptero
helicopteros
helio
hell
heller
hello
helmut
heloisa
help
helsinki
helsinque
helynevkonyve
hemeroteca
hemisferio
hemorragia
henderson
hendrix
henri
henriette
henrik
henrique
henriques
henriqueta
henry
hepatite
hepburn
her
hera
herald
heraldica
heranca
herbarium
herbert
herculano
hercules
herdade
herdado
herdeira
herdeiro
herdeiros
herdou
here
heresia
heritage
herman
hermann
hermano
hermes
hermione
hernan
hernandez
hero
herodes
herodoto
heroes
heroi
heroica
heroico
heroina
herois
heroismo
herrera
herschel
herzegovina
herzog
hesse
het
heubl
hey
hf
hg
hh
hi
hiato
hibrido
hibridos
hicks
hidalgo
hidden
hide
hidra
hidraulica
hidreletrica
hidricos
hidrocarbonetos
hidrogenio
hidrografica
hidrologie
hierarchy
hierarquia
higgins
high
higher
highest
highlights
highway
higiene
hilary
hilbert
hilda
hill
hillary
hills
hilton
him
himenopteros
hindi
hindu
hinduismo
hindus
hino
hinos
hip
hipertensao
hipolito
hipotese
hipoteses
hipparcos
hiragana
hiroshi
hiroshima
his
hispania
hispanic
hispanica
hispano
hispanos
hist
histoire
historia
historiador
historiadora
historiadores
historias
historic
historica
historical
historicamente
historicas
historico
historicos
histories
historiografia
historique
history
hit
hitchcock
hitler
hitparade
hits
hiv
hj
hk
hl
hm
hms
hn
ho
hockey
hoffman
hoffmann
hogan
hogwarts
hoje
holanda
holandes
holandesa
holandesas
holandeses
hold
holden
holding
holdings
hole
holiday
holland
holly
hollywood
holmes
holocaust
holocausto
holstein
holt
holy
home
homem
homenageada
homenageado
homenagear
homenageia
homenagem
homenagens
homenageou
homens
homepage
homer
homero
homicidio
homicidios
homme
homo
homonima
homonimo
homossexuais
homossexual
homossexualidade
honda
honduras
honestidade
honesto
honey
hong
honolulu
honor
honorario
honore
honorio
honoris
honour
honra
honrado
honrar
honras
honrosa
hood
hook
hooker
hooper
hoover
hop
hope
hopkins
hopper
hoquei
hora
horace
horacio
horario
horarios
horas
horizon
horizontais
horizontal
horizonte
horizontes
hormonio
hormonios
horn
horrivel
horror
horse
horst
horta
horto
hospedagem
hospede
hospedeiro
hospedes
hospitais
hospital
hospitalar
host
hostil
hostilidade
hostilidades
hostis
hosts
hot
hoteis
hotel
houaiss
houghton
hour
hours
house
housing
houston
houve
houver
houvesse
how
howard
howe
hoy
hp
hq
hr
hrsg
hs
hsd
ht
htm
html
http
https
hu
hua
huang
hub
hubble
hubert
hudson
huffington
hugh
hughes
hugo
hui
hulk
hull
hulu
hum
human
humana
humanas
humanidade
humanidades
humanismo
humanista
humanitaria
humano
humanos
humberto
humboldt
hume
humidas
humildade
humilde
humor
humorista
humoristico
humphrey
hundred
hung
hungara
hungaro
hungaros
hungary
hunger
hungria
hunt
hunter
hunters
huntington
hurricane
hurt
hussein
hutchinson
huxley
hv
hw
hx
hy
hybrid
hyde
hye
hype
hypericum
hyun
hz
i
i0
i1
i2
i3
i4
i5
i6
i7
i8
i9
ia
iaaf
iago
iam
ian
iata
iau
ib
iberia
iberica
ibero
ibge
ibid
ibm
ibn
ibne
ibope
ibrahim
ibsen
ic
icao
ice
iceland
ich
icmbio
icon
icone
icones
iconografia
id
ida
idade
idades
idaho
ide
idea
ideais
ideal
idealizado
ideas
ideia
ideias
idem
identica
identicas
identico
identicos
identidade
identidades
identifica
identificacao
identificada
identificadas
identificado
identificados
identificam
identificar
identification
identificou
identity
ideologia
ideologias
ideologica
idh
idicionario
idioma
idiomas
idiota
ido
idol
idolator
idolo
idolos
idoso
idosos
ie
ieee
iemen
if
ifpi
ig
iggy
iglesias
ign
ignacio
ignora
ignorado
ignorancia
ignorando
ignorar
igor
igp
igreja
igrejas
iguacu
iguais
igual
igualdade
igualmente
ih
ii
iii
ij
ik
il
ildis
ile
ilegais
ilegal
ilegalmente
ilegitimo
ilha
ilhas
ilheu
ilheus
illinois
illustrated
illustrations
illustrierte
iluminacao
iluminado
iluminismo
ilusao
ilusoes
ilustra
ilustracao
ilustracoes
ilustrada
ilustrado
ilustrador
ilustrar
ilustre
ilustres
im
ima
imaculada
image
imagem
imagens
images
imagina
imaginacao
imaginar
imaginaria
imaginario
imagine
imaterial
imdb
imediacoes
imediata
imediatamente
imediatas
imediato
imensa
imenso
imersao
imigracao
imigrante
imigrantes
iminente
imitacao
imitar
imobiliaria
imobiliario
imortal
imortalidade
imoveis
imovel
impact
impacto
impactos
impar
imparcial
impasse
impeachment
impede
impedido
impedimento
impedindo
impedir
impediu
imperador
imperadores
imperativo
imperatriz
imperfeito
imperiais
imperial
imperialismo
imperio
imperios
impeto
implacavel
implantacao
implantado
implantar
implementacao
implementada
implementado
implementar
implica
implicacoes
implications
impoe
imponente
impor
import
importa
importacao
importacoes
importados
importancia
important
importante
importantes
importar
impos
imposicao
impossibilidade
impossible
impossivel
imposta
impostas
imposto
impostos
imprensa
impressa
impressao
impressas
impressionado
impressionante
impressionantes
impresso
impressoes
impressora
impressos
imprimir
improvavel
impulso
impulsos
imune
imunidade
in
inacio
inanimado
inativa
inaugura
inauguracao
inaugurada
inaugurado
inaugural
inaugurou
inc
inca
incapacidade
incapaz
incapazes
incendio
incendios
incentivar
incentivo
incentivos
incentivou
incerta
incerteza
incerto
inch
incidencia
incidente
incidentes
inciso
inclinacao
inclinado
include
including
incluem
inclui
incluia
incluiam
incluida
incluidas
incluido
incluidos
incluindo
incluir
incluiram
incluiu
inclusao
inclusive
incompleta
incompleto
incomum
incomuns
inconsciente
incorpora
incorporacao
incorporada
incorporadas
incorporado
incorporados
incorporando
incorporar
incorporou
incremento
incriveis
incrivel
incursao
incursoes
inda
indefinido
indenizacao
independence
independencia
independent
independente
independentemente
independentes
independiente
indeterminado
index
india
indian
indiana
indianapolis
indiano
indianos
indians
indias
indica
indicacao
indicacoes
indicada
indicadas
indicado
indicador
indicadores
indicados
indicam
indicando
indicar
indicaram
indicativo
indicava
indice
indices
indicios
indico
indicou
indie
indiewire
indiferenca
indiferente
indigena
indigenas
indignacao
indio
indios
indireta
indiretamente
indireto
indispensavel
individuais
individual
individualmente
individuo
individuos
indo
indonesia
indonesio
indoor
inducao
industria
industriais
industrial
industrializacao
industrias
industries
industry
induzir
indy
indycar
ine
inedita
ineditas
inedito
ineditos
inerente
inerentes
ines
inesperada
inesperadamente
inesperado
inevitavel
inf
infame
infancia
infanta
infantaria
infante
infanterie
infantil
infantis
infanto
infarto
infeccao
infeccoes
infectados
infeliz
infelizmente
inferencia
inferior
inferiores
inferno
inferred
infinita
infinitas
infinite
infinitivo
infinito
infinity
inflacao
inflamacao
inflorescencia
influence
influencia
influenciada
influenciado
influenciados
influenciar
influenciaram
influencias
influenciou
influente
influentes
influenza
info
infopedia
informa
informacao
informacion
informacoes
informado
informal
informalmente
informando
informar
informatica
information
informativo
informe
informer
informou
infra
infraestrutura
infraestruturas
infty
ing
inga
ingestao
inglaterra
ingles
inglesa
inglesas
ingleses
ingredientes
ingressar
ingresso
ingressos
ingressou
ingrid
inhaber
inibicao
inicia
iniciacao
iniciada
iniciadas
iniciado
iniciados
iniciais
inicial
inicializacao
inicialmente
iniciam
iniciando
iniciantes
iniciar
iniciaram
iniciativa
iniciativas
inicio
inicios
iniciou
inimiga
inimigas
inimigo
inimigos
initiative
injecao
injury
injustica
inmet
inn
inner
innovation
innsbruck
inocencia
inocencio
inocente
inocentes
inovacao
inovacoes
inovador
inovadora
inovadoras
input
inquerito
inquieto
inquiry
inquisicao
ins
insatisfacao
inscrever
inscreveu
inscricao
inscricoes
inscrito
inscritos
insecta
insectos
insee
inseguranca
insercao
insere
inserida
inserido
inseridos
inserir
inseto
insetos
inside
insider
insight
insights
insignia
insiste
insistencia
insistiu
inspecao
inspector
inspetor
inspira
inspiracao
inspirada
inspiradas
inspirado
inspirados
inspirar
inspired
inspirou
insse
instabilidade
instagram
instala
instalacao
instalacoes
instalada
instaladas
instalado
instalados
instalar
instalaram
install
instalou
instancia
instancias
instantaneamente
instante
instantes
instavel
instinto
institucionais
institucional
instituicao
instituicoes
instituida
instituido
instituiu
institut
institute
institution
instituto
institutos
institutul
instrucao
instrucoes
instrumentacao
instrumentais
instrumental
instrumentista
instrumento
instrumentos
instrutor
insuficiencia
insuficiente
insular
insulares
insulina
insurgentes
insurreicao
int
integra
integracao
integrada
integradas
integrado
integrados
integral
integralmente
integram
integrando
integrante
integrantes
integrar
integrated
integridade
integrou
inteira
inteiramente
inteiras
inteiro
inteiros
intel
intelecto
intelectuais
intelectual
inteligencia
inteligente
inteligentes
intelligence
intelsat
intencao
intencional
intencionalmente
intencoes
intendente
intensa
intensamente
intensas
intensidade
intensificacao
intensificar
intensificou
intensiva
intenso
intensos
inter
interacao
interacoes
interactions
interactive
interagir
interativo
intercambio
intercontinental
interdisciplinar
interessa
interessada
interessadas
interessado
interessados
interessante
interessantes
interessar
interesse
interesses
interessou
interest
interface
interfaces
interferencia
interferir
interim
interinamente
interino
interior
interiores
intermediaria
intermediarias
intermediario
intermediarios
intermedio
intermitentes
interna
internacao
internacionais
internacional
internacionalmente
internado
internal
internamente
internas
international
internationale
internazionale
internet
interno
internos
interpreta
interpretacao
interpretacoes
interpretada
interpretadas
interpretado
interpretados
interpretando
interpretar
interpretation
interprete
interpretes
interpretou
interrompe
interromper
interrompeu
interrompida
interrompido
interrupcao
interscope
intervalo
intervalos
intervencao
intervencoes
interventor
interview
interviews
intervir
intestinal
intestino
intima
intimamente
intimidade
intimo
intimos
intitulada
intitulado
into
intolerancia
intransitivo
intrigas
intrinseca
introducao
introduction
introduz
introduzida
introduzidas
introduzido
introduzidos
introduzindo
introduzir
introduziu
intron
intuito
inumeras
inumeros
inundacao
inundacoes
inutil
invade
invadida
invadido
invadir
invadiram
invadiu
invalida
invalido
invasao
invasion
invasoes
invasores
inveja
invencao
invencoes
inventado
inventario
inventor
inventou
inverno
invernos
inversa
inversao
inverso
invertebrados
inves
investe
investido
investidor
investidores
investiga
investigacao
investigacoes
investigado
investigador
investigadores
investigar
investigation
investimento
investimentos
investir
investiu
invicta
invicto
invisible
invisivel
invocacao
io
ioc
ion
ions
iorque
ioruba
ios
iowa
ip
ipanema
ipatinga
iphan
iphone
ipiranga
ipni
iq
ir
ira
iracema
irak
iran
iraniana
iraniano
iranianos
irao
iraq
iraque
iraquiano
ireland
irem
irene
iria
iriam
iris
irish
irlanda
irlandes
irlandesa
irlandeses
irma
irmandade
irmao
irmaos
irmas
iron
ironia
ironicamente
irregular
irregulares
irregularidades
irrigacao
irritado
irving
irwin
is
isa
isaac
isabel
isabela
isabella
isabelle
isaias
isaura
isbn
isencao
isidoro
isis
isla
islam
islamic
islamica
islamico
islamicos
islamismo
island
islandes
islandia
islands
islao
isle
ismael
ismail
isn
iso
isolada
isoladas
isolado
isolados
isolamento
isolar
israel
israelense
israelenses
israeli
israelita
israelitas
iss
issn
isso
issue
issues
ist
istambul
istat
istituto
isto
istoe
isu
it
ita
itajai
italia
italian
italiana
italianas
italiano
italianos
italica
italico
italo
italy
itamar
itamaraty
itapemirim
itatiaia
itau
item
itens
itinerario
itis
ito
its
itu
itunes
itv
iu
iucn
iucnredlist
iugoslavia
iv
iva
ivan
ivete
ivo
ivoire
ivy
iw
ix
iy
iz
j
j0
j1
j2
j3
j4
j5
j6
j7
j8
j9
ja
jabuti
jacare
jacinto
jack
jackie
jackson
jacksonville
jaco
jacob
jacobs
jacqueline
jacques
jade
jae
jaguar
jaime
jair
jairo
jake
jakob
jam
jamaica
jamais
james
jamie
jamming
jan
jane
janeiro
janela
janelas
janet
jang
janio
jansen
jantar
januar
januario
january
janvier
japan
japanese
japao
japon
japones
japonesa
japonesas
japoneses
jaragua
jardas
jardim
jardin
jardins
jared
jarvis
jason
jasper
jato
java
javascript
javier
jay
jayme
jazeera
jazz
jb
jbc
jc
jd
je
jean
jeanne
jeans
jedi
jeff
jefferson
jeffrey
jeito
jejum
jena
jenkins
jenna
jennifer
jennings
jenny
jens
jensen
jeong
jeova
jeremias
jeremy
jericho
jeroen
jerome
jeronimo
jerry
jersei
jersey
jerusalem
jesse
jessica
jessie
jesuita
jesuitas
jesus
jet
jets
jewish
jews
jf
jg
jh
ji
jill
jim
jimenez
jimmy
jin
jitsu
jiu
jj
jk
jl
jm
jn
jo
joachim
joan
joana
joanna
joanne
joao
joaquim
joaquin
joaquina
job
jobim
jobs
jocelyn
joe
joel
joelho
joelhos
joey
joga
jogabilidade
jogada
jogadas
jogado
jogador
jogadora
jogadores
jogados
jogam
jogando
jogar
jogara
jogaram
jogava
jogavel
jogo
jogos
jogou
johan
johann
johannes
johansson
john
johnny
johns
johnson
johnston
joia
joias
join
joins
joint
joinville
jolie
jon
jonas
jonathan
jones
jong
joo
joon
jordan
jordania
jordao
jorge
jornada
jornadas
jornais
jornal
jornalismo
jornalista
jornalistas
jornalistica
jornalistico
jose
josef
josefa
josefina
josefo
josep
joseph
josephine
josh
joshua
josue
jota
journal
journey
jovem
jovens
joy
joyce
jozef
jp
jpg
jpl
jq
jr
js
jsp
jstor
jt
jtwc
ju
juan
juarez
juazeiro
jubileu
juca
juda
judaica
judaicas
judaico
judaismo
judas
judd
judeia
judeu
judeus
judge
judia
judiciais
judicial
judiciaria
judiciario
judith
judo
judy
juiz
juiza
juizes
juizo
jul
jules
julga
julgado
julgados
julgamento
julgamentos
julgar
julgou
julho
julia
julian
juliana
juliano
juliao
julie
julien
julieta
juliette
julio
julius
july
jump
jun
juncao
jundiai
june
jung
jungle
junho
junio
junior
juniores
juniors
juno
junqueira
junta
juntam
juntamente
juntando
juntar
juntaram
juntas
junto
juntos
juntou
jupiter
jura
jurado
jurados
juramento
jurassic
jurgen
juri
juridica
juridicas
juridico
juridicos
jurisdicao
jurisprudencia
jurista
juristas
juro
juros
jus
jusbrasil
juscelino
juss
just
justa
justamente
justica
justice
justifica
justificacao
justificar
justificativa
justin
justiniano
justino
justo
justos
juvenil
juvenis
juventude
juventus
jv
jw
jx
jy
jz
k
k0
k1
k2
k3
k4
k5
k6
k7
k8
k9
ka
kahn
kai
kaiser
kamen
kamerun
kan
kanada
kane
kang
kansas
kant
kanye
kaplan
kappa
kara
karate
karen
karin
karina
karl
karla
karlsruhe
karol
kart
kat
kata
katar
kate
katherine
kathleen
kathryn
kathy
katia
katie
katy
katz
kaufman
kay
kazakhstan
kazan
kazhdan
kb
kbs
kc
kd
kde
ke
keep
kei
keith
keller
kelley
kelly
ken
kendrick
kenia
kennedy
kenneth
kenny
kent
kentucky
kenya
kepler
kernel
kerr
kerry
kevin
kew
key
keynes
keys
kf
kg
kh
khalifa
khan
khmer
khz
ki
kick
kid
kidd
kids
kiel
kiev
kiko
kill
killed
killer
killers
killing
kills
kim
kimberly
kimi
kind
king
kingdom
kings
kingston
kirby
kiribati
kirk
kiss
kit
kitchen
kitts
kitty
kj
kk
kl
klaus
kleber
klein
km
kn
knicks
knight
knights
know
knowledge
knowles
known
knox
knyga
ko
kobayashi
kobe
koch
kodansha
kogut
kok
koln
kombat
konami
kondolojy
kong
kongo
konrad
koppen
korea
korean
kosovo
kotaku
kozigazgatasi
kp
kq
kr
kramer
krause
kreis
kremlin
kreuz
kreuzes
kriegsmarine
kris
kristen
kristensen
kroll
kruger
ks
ksiega
kt
ku
kuba
kubitschek
kuiper
kumar
kun
kung
kunze
kurt
kuwait
kv
kw
kx
ky
kyle
kylie
kyoto
kyung
kz
l
l0
l1
l2
l3
l4
l5
l6
l7
l8
l9
la
lab
label
labelo
labio
labios
labirinto
labor
laboratorio
laboratorios
laboratory
labour
labrador
labs
lac
lacerda
lachemilla
laco
lacos
lactarius
lactea
lacuna
lacunas
ladeira
laden
ladies
lado
lados
ladrao
ladroes
lady
lafayette
lagarto
lagartos
lage
lages
lago
lagoa
lagoas
lagos
lagrimas
laguna
lai
laje
lajes
lake
lakers
lakes
lam
lama
lamar
lamas
lamb
lambda
lambert
lamego
lamenta
lamina
laminas
lampada
lampadas
lampiao
lan
lana
lanca
lancada
lancadas
lancado
lancados
lancam
lancamento
lancamentos
lancando
lancar
lancaram
lancas
lancaster
lance
lances
lancet
lancou
land
lander
landesamt
landesbetrieb
landesmuseen
lands
lane
lang
lange
langle
language
languages
lanka
lanterna
lao
laos
lapa
lapis
lar
lara
laranja
laranjeiras
lares
larga
largada
largamente
largas
large
largest
largo
largos
largou
largura
larissa
larousse
larry
lars
larsen
larson
larsson
larvas
las
laser
last
lata
late
later
laterais
lateral
latest
latim
latin
latina
latinas
latino
latinos
latitude
latitudes
lato
lattes
latvia
lau
laudo
launch
launches
laura
laureado
laurel
lauren
laurence
laurent
laurie
lauro
lausanne
lava
lavagem
lavar
lavigne
lavoura
lavras
law
lawrence
laws
lawson
lay
layout
lazaro
lazer
lazio
lb
lc
ld
lda
ldots
le
lea
lead
leader
leaders
leadership
leading
leads
league
leah
leais
leal
lealdade
leandro
leao
learn
learning
least
leave
leaves
lebanon
leben
lecionar
lecionou
lecture
lectures
led
lee
leeds
left
leg
lega
legacy
legado
legais
legal
legales
legalidade
legalmente
legend
legenda
legendary
legendas
legends
legiao
legioes
legion
legislacao
legislativa
legislativas
legislative
legislativo
legislatura
legislaturas
legitima
legitimidade
legitimo
lego
leguas
legume
legumes
leguminosa
lei
leia
leibniz
leicester
leida
leiden
leigh
leigos
leila
leilao
leipzig
leiria
leis
leitao
leite
leito
leitor
leitores
leitos
leitte
leitura
leituras
lema
lembra
lembrado
lembram
lembranca
lembrancas
lembrando
lembrar
lembrava
lembre
lembro
lembrou
leme
lemos
len
lena
lencastre
lenco
lencois
lenda
lendaria
lendario
lendas
lendo
length
lenha
lenin
leningrado
lennon
lenta
lentamente
lente
lentes
lento
leo
leoa
leoes
leon
leona
leonard
leonardo
leone
leonel
leonor
leopardo
leopold
leopoldina
leopoldo
lepidoptera
lepidopteros
leq
leque
ler
leroy
les
lesao
lesbian
lesbica
lesbicas
lescharts
lesionado
lesley
leslie
lesnar
lesoes
lesotho
lesoto
less
lessa
lessons
leste
lester
let
letal
letao
leticia
letonia
letra
letras
letrista
letter
letters
lettres
leu
lev
leva
levada
levadas
levado
levados
levam
levando
levanta
levantada
levantado
levantamento
levantando
levantar
levante
levantou
levar
levara
levaram
levaria
levava
levavam
leve
level
levemente
leves
levi
levin
levine
levou
levy
lewis
lex
lexico
lexicon
lexikon
lexington
ley
lf
lg
lgbt
lh
lha
lhe
lhes
lho
li
lia
liam
lib
libanes
libano
libanon
liber
libera
liberacao
liberada
liberado
liberados
liberais
liberal
liberalismo
liberar
liberation
liberdade
liberdades
liberia
libero
liberou
liberta
libertacao
libertad
libertado
libertador
libertadores
libertados
libertar
liberty
libia
libio
libra
libraries
library
libras
libre
libreto
libri
libro
libya
licao
licenca
licencas
licenciada
licenciado
licenciamento
licenciatura
licenciou
license
liceu
licinio
licitacao
licoes
lida
lidar
lider
lidera
liderada
lideradas
liderado
liderados
lideranca
liderancas
liderando
liderar
lideres
liderou
lidia
lido
lie
liechtenstein
liege
lies
life
lifetime
liga
ligacao
ligacoes
ligada
ligadas
ligado
ligados
ligam
ligando
ligar
ligas
ligava
ligeira
ligeiramente
ligeiro
light
lightning
lights
ligne
ligou
ligue
like
lil
lili
lilian
lille
lily
lim
lima
limao
limeira
limiar
liminar
limit
limita
limitacao
limitacoes
limitada
limitadas
limitado
limitados
limitando
limitar
limite
limited
limites
limits
limoeiro
limpa
limpar
limpeza
limpo
lin
lina
lincoln
linda
lindas
lindl
lindo
lindsay
lindsey
line
linea
linear
lineares
lines
lineup
ling
lingua
linguagem
linguagens
linguas
linguista
linguistica
linguisticas
linguistico
linguisticos
linguistics
linha
linhagem
linhagens
linhares
linhas
linho
link
linkin
links
linnaean
linnaeus
lino
lins
linux
linz
lion
lionel
lions
lipa
liquida
liquido
liquidos
lira
lirica
lirico
lis
lisa
lisboa
lisbon
liso
list
lista
listada
listadas
listado
listados
listagem
listar
listas
listen
listing
listou
listras
lists
liszt
lit
literacia
literal
literalmente
literaria
literarias
literario
literarios
literary
literatura
literature
litio
litoral
litro
litros
little
littlefield
lituania
lituano
liturgia
liturgico
liu
liv
live
liverpool
lives
livia
living
livingston
livio
livramento
livrar
livraria
livre
livremente
livres
livro
livros
lixo
liz
lj
lk
ll
llc
lloyd
lm
ln
lo
lobao
lobato
lobby
lobisomem
lobo
lobos
locacao
locacoes
locais
local
localidade
localidades
localiza
localizacao
localizada
localizadas
localizado
localizados
localizam
localizar
localizava
localmente
location
lock
lockdown
locke
lockheed
loco
locomocao
locomotiva
locomotivas
locus
locutor
lodge
log
logan
logar
logements
logic
logica
logicas
logico
logicos
login
logistica
logistico
logo
logotipo
loire
lois
loja
lojas
loki
lola
lolita
lombardi
lombardia
lombardo
london
londres
londrina
lone
lonely
long
longa
longas
longe
longevidade
longitude
longitudinal
longo
longos
look
looking
looks
loop
lopes
lopez
lord
lorde
lordes
lorena
lorenzo
loreto
lorraine
los
lose
loss
lost
lot
lote
loteamento
lotes
lott
lotus
lou
louca
louco
loucos
loucura
loud
louis
louise
louisiana
louisville
loule
lourdes
loureiro
lourenco
loures
louro
lousa
louvor
louvre
lovato
love
loved
lover
lovers
loves
low
lowe
lowell
lower
loyola
lp
lq
lr
ls
lst
lt
ltd
ltda
lu
lua
luan
luana
luanda
luar
luas
luc
luca
lucas
lucena
lucero
lucia
luciana
luciano
lucien
lucifer
lucinda
lucio
lucius
luck
lucky
lucrativos
lucro
lucros
lucy
ludovico
ludwig
luer
luftwaffe
lugar
lugares
lugo
luigi
luis
luisa
luisiana
luiz
luiza
lukas
luke
lula
lulu
lume
luminosa
luminosidade
luminoso
luna
lunar
lund
lundberg
lupin
lupus
lusa
lusitana
lusitania
lusitano
luso
lusofonia
luta
lutador
lutadores
lutam
lutando
lutar
lutaram
lutas
lutava
luterana
lutero
luther
luthor
luto
lutou
lutz
luvas
lux
luxembourg
luxemburgo
luxo
luz
luzes
luzia
lv
lw
lx
ly
lydia
lynch
lyndon
lynn
lynx
lyon
lyra
lyrics
lz
m
m0
m1
m2
m3
m4
m5
m6
m7
m8
m9
ma
mabel
mac
maca
macaco
macacos
macae
macapa
macario
macas
macau
macdonald
macedo
macedonia
macedonio
maceio
mach
machado
machine
machines
macho
machos
macica
macico
maciel
mack
mackenzie
macmillan
maconaria
maconha
macro
macron
mactutor
mad
madagascar
madagaskar
madalena
madame
made
madeira
madeiras
madeleine
madison
madness
madonna
madrasta
madre
madri
madrid
madrinha
madrugada
madura
madureira
maduro
mae
maes
maestro
mafalda
mafia
mafra
mag
magalhaes
magazine
magda
magdalena
maggie
magia
magic
magica
magicas
magico
magicos
magisterio
magistrado
magistrados
magistratura
magna
magnesio
magnetic
magnetica
magnetico
magneticos
magnetismo
magnifica
magnifico
magnitude
magno
magnum
magnus
mago
magos
magro
magyar
magyarorszag
mahasz
mai
maia
maias
maiden
mail
mails
main
maine
mainstream
mainz
maio
maior
maiores
maioria
maioridade
maioritariamente
mais
maison
maiusculas
majestade
major
majoritariamente
make
maker
makes
making
mal
mala
malaga
malaio
malaria
malas
malasia
malawi
malaysia
malcolm
maldade
maldicao
maldivas
maldives
maldonado
male
males
malha
malhacao
mali
maligno
malik
mall
mallon
malone
malta
malvinas
mama
mamae
mamede
mamifero
mamiferos
mammal
mammals
man
mana
management
manager
manaus
mancebo
mancha
manchas
manchester
manchete
mancini
manda
mandado
mandados
mandamentos
mandando
mandante
mandar
mandarim
mandato
mandatos
mandava
mandela
mandibula
mandioca
mando
mandou
mane
maneira
maneiras
manejo
manfred
manga
mangas
mangueira
manha
manhas
manhattan
mania
manifesta
manifestacao
manifestacoes
manifestantes
manifestar
manifesto
manifestou
manila
manipulacao
manipular
manitoba
mann
manning
mano
manobra
manobras
manoel
manor
mans
mansa
mansao
manso
manson
mante
manteiga
mantem
mantendo
mantenha
manter
manteve
mantida
mantidas
mantido
mantidos
mantinha
mantinham
mantiveram
manto
mantua
manu
manuais
manual
manualmente
manuel
manuela
manufatura
manuscrito
manuscritos
manut
manutencao
many
mao
maome
maori
maos
map
mapa
mapas
mapeamento
maplandia
mapping
maps
maputo
maquiagem
maquina
maquinas
mar
mara
maraba
maracana
maradona
maranhao
maranhense
marathon
maratona
maravilha
maravilhas
maravilhosa
maravilhoso
marc
marca
marcacao
marcada
marcadas
marcado
marcador
marcadores
marcados
marcam
marcando
marcante
marcantes
marcar
marcaram
marcas
marcel
marcela
marcelino
marcello
marcelo
march
marcha
marchas
marche
marchou
marcia
marciais
marcial
marciano
marcio
marco
marcondes
marcos
marcou
marcus
mare
marechal
mares
marfim
margaret
margarida
margarita
margem
margens
marginal
margot
marguerite
mari
maria
mariah
marian
mariana
marianas
marianne
mariano
marido
maridos
marie
marilia
marilyn
marin
marina
marine
marinespecies
maringa
marinha
marinhas
marinheiro
marinheiros
marinho
marinhos
marino
mario
marion
mariposa
marisa
maritima
maritimas
maritime
maritimo
maritimos
marius
marjorie
mark
market
marketing
markku
marks
marktest
markus
marlene
marley
marlon
marmore
marne
marokko
marques
marquesa
marquez
marquinhos
marriage
married
marrocos
marrom
mars
marseille
marselha
marsh
marshall
mart
marta
marte
martelo
martha
martim
martin
martina
martindale
martinez
martinho
martini
martino
martins
martir
martires
martirio
marty
marvel
marvin
marx
marxismo
marxista
mary
maryland
mas
mascara
mascaras
mascarenhas
mascote
masculina
masculinas
masculino
masculinos
mask
mason
mass
massa
massachusetts
massacre
massas
massimo
massive
master
masterizacao
masters
mastro
mat
mata
matado
matagal
matam
matando
matar
mataram
matarazzo
matas
match
matches
mate
matematica
matematicas
matematico
matematicos
mateo
mater
materia
materiais
material
materials
materias
materna
maternidade
materno
maternos
mateus
math
mathbb
mathbf
mathcal
mathematical
mathematics
matheus
mathias
mathrm
matias
matilde
mato
matos
matosinhos
matou
matricula
matriculou
matrimonio
matrix
matriz
matrizes
matt
matteo
matter
matters
matthew
matthews
matthias
mattos
maturidade
mau
maua
maureen
maurice
mauricia
mauricio
mauritania
mauritius
mauro
maus
mausoleu
maverick
max
maxi
maxim
maxima
maximas
maximiliano
maximo
maximos
maxwell
may
maya
mayer
maynard
mayo
mayor
mb
mba
mbc
mbox
mc
mccain
mccarthy
mccartney
mccoy
mcdonald
mcfarland
mcgee
mcgraw
mcintyre
mclaren
mclean
mcmahon
md
mdb
me
mead
meados
mean
meaning
means
mec
meca
mecanica
mecanicas
mecanico
mecanicos
mecanismo
mecanismos
mechanics
mecklemburgo
med
medal
medalha
medalhas
medalhista
medalhistas
mede
medeiros
medellin
medem
media
mediacao
mediana
mediante
medias
medica
medical
medicamento
medicamentos
medicao
medicas
medici
medicina
medicinais
medicinal
medicine
medico
medicoes
medicos
medida
medidas
medido
medien
medievais
medieval
medina
medindo
medio
medios
medir
meditacao
mediterranean
mediterraneo
medium
medley
medo
medos
medula
meet
meeting
meets
meg
mega
megan
meghan
mei
meia
meias
meier
meiji
meio
meios
meira
meireles
meirelles
mel
melancolia
melanie
melbourne
melhor
melhora
melhorada
melhorado
melhoramento
melhoramentos
melhorando
melhorar
melhores
melhoria
melhorias
melhorou
melissa
mello
melo
melodia
melodias
melody
melon
melvin
mem
member
members
membrana
membranas
membro
membros
meme
memoire
memoirs
memoraveis
memoravel
memoria
memorial
memoriam
memorias
memories
memory
memphis
men
menages
mencao
menciona
mencionada
mencionadas
mencionado
mencionados
mencionar
mencionou
mendes
mendez
mendonca
mendoza
meneses
menezes
menina
meninas
menino
meninos
menor
menores
menos
mensageiro
mensagem
mensagens
mensais
mensal
mensalao
mentais
mental
mentalidade
mente
mentes
mentir
mentira
mentiras
mentor
menu
mer
mera
meramente
mercado
mercador
mercadores
mercadoria
mercadorias
mercados
mercante
mercantil
merce
mercedes
mercenarios
mercer
merces
mercosul
mercurio
mercury
mercy
merece
merecem
meredith
mergulho
merida
meridiano
meridional
merito
meritos
merlin
mero
merriam
merriman
merry
mes
mesa
mesas
meses
mesma
mesmas
mesmo
mesmos
mesopotamia
mesorregiao
mesquita
message
messenger
messi
messias
messier
messina
mestrado
mestre
mestres
met
meta
metabolismo
metacritic
metade
metafisica
metafora
metais
metal
metalica
metalicas
metalico
metalicos
metallica
metano
metas
metcalf
meteorologia
meteorologica
meteorological
meteorologicas
meteorologico
meteorologie
meteorology
meter
method
methods
metodista
metodo
metodologia
metodos
metragem
metragens
metralhadora
metralhadoras
metres
metrica
metro
metropole
metropoles
metropolis
metropolita
metropolitan
metropolitana
metropolitanas
metropolitano
metros
metz
meu
meus
mexican
mexicana
mexicano
mexicanos
mexico
meyer
mf
mg
mga
mgm
mh
mhz
mi
mia
miami
mianmar
michael
michaelis
michaels
michel
michelangelo
michele
michelle
michigan
mick
mickey
micro
microbiology
microfone
micronesia
microrregiao
microscopio
microsoft
mid
middle
middleton
midi
midia
midias
midland
midnight
midway
mifflin
mig
might
mighty
migracao
migracoes
migrantes
migraram
migrou
miguel
mika
mike
mikhail
mil
milagre
milagres
milan
milano
milao
mile
milenio
miles
miley
milha
milhao
milhares
milhas
milho
milhoes
milicia
milicias
milimetros
milionario
militancia
militante
militantes
militar
militares
military
milk
mill
millennium
miller
million
mills
milton
milwaukee
mim
mimi
mimosaceae
min
mina
minaj
minas
mind
minds
mine
mineira
mineiro
mineiros
mineracao
minerais
mineral
minerio
minerva
ming
minh
minha
minhas
minho
mini
miniatura
minima
minimas
minimizar
minimo
minimos
minisserie
minister
ministerial
ministerio
ministerios
ministra
ministro
ministros
ministry
minneapolis
minnesota
mino
minogue
minor
minoria
minorias
minsk
minuscula
minusculas
minute
minutes
minuto
minutos
mio
mir
mira
miracle
miradouro
miranda
mirante
miriam
mirim
mirror
mis
miseravel
miseria
misericordia
miss
missa
missao
missas
misseis
missil
missile
missing
mission
missionaria
missionario
missionarios
mississippi
missoes
missouri
mista
mistas
mister
misterio
misterios
misteriosa
misterioso
mistica
misticismo
mistico
misto
mistura
misturado
misturando
misturar
misturas
mit
mitch
mitchell
mito
mitologia
mitos
mitra
mitsubishi
mitteleuropa
mix
mixagem
mixed
mixtape
miz
mj
mk
ml
mlb
mls
mm
mma
mmajunkie
mn
mnet
mnras
mo
moacyr
mobile
mobiliario
mobilidade
mobilizacao
mobot
moca
mocambicano
mocambique
mocao
mocas
mocidade
moco
mod
moda
modalidade
modalidades
mode
model
modelagem
modelo
modelos
models
modena
moderada
moderado
moderados
modern
moderna
modernas
modernidade
modernismo
modernista
modernizacao
moderno
modernos
modesta
modesto
modificacao
modificacoes
modificada
modificadas
modificado
modificados
modificar
modo
modos
modular
modulo
modulos
moe
moeda
moedas
mogi
mohamed
mohammad
mohammed
moi
moinho
moinhos
moises
mojo
mol
mola
moldavia
molde
moldes
moldova
moldura
mole
molecula
molecular
moleculares
moleculas
molho
molina
molluscabase
molly
molusco
moluscos
mom
moment
momento
momentos
moments
mon
mona
monaco
monako
monarca
monarcas
monarquia
monasterio
monday
monde
mondo
monetaria
monetario
money
monge
monges
mongois
mongol
mongolia
monica
monique
monitor
monitoramento
monitorar
monitores
monitoring
moniz
monk
monkey
mono
monografia
monographs
monopolio
monroe
mons
monsenhor
monster
monsters
monstro
monstros
mont
monta
montada
montadas
montado
montados
montagem
montana
montanha
montanhas
montanhosa
montanhosas
montanhoso
montante
montar
monte
monteiro
montenegro
monterrey
montes
montevideo
montevideu
montgomery
month
monthly
montou
montpellier
montreal
montserrat
monumental
monumento
monumentos
monuments
moody
moon
moore
mor
mora
morada
moradia
moradias
morador
moradores
moraes
morais
moral
morales
moralidade
moram
moran
morando
morar
morava
moravam
moravia
morcego
morcegos
mordomo
more
moreira
morena
moreno
morfologia
morgado
morgan
mori
moritz
mormon
morning
moro
morocco
morou
morphology
morre
morrem
morrendo
morrer
morrera
morreram
morreu
morrido
morris
morrison
morro
morros
morse
mort
morta
mortais
mortal
mortalidade
mortas
morte
mortes
morto
morton
mortos
morumbi
mos
mosaico
mosaicos
mosca
moscas
moscou
moscovo
moscow
moses
moshe
mosquito
moss
mossoro
most
mosteiro
mosteiros
mostra
mostrada
mostradas
mostrado
mostrados
mostram
mostrando
mostrar
mostraram
mostras
mostrava
mostravam
mostrou
mota
mother
moths
motim
motion
motivacao
motivacoes
motivado
motivo
motivos
motivou
moto
motocicletas
motogp
motor
motores
motorista
motoristas
motors
motorsport
motos
motta
mount
mountain
moura
mourao
mouro
mouros
mouse
move
moveis
movel
movem
movement
movendo
mover
moves
moveu
movida
movido
movidos
movie
movies
movimentacao
movimentado
movimento
movimentos
moving
mozambique
mozart
mozilla
mp
mpb
mpf
mph
mpla
mq
mr
mrs
ms
msn
mt
mtv
mu
much
muculmana
muculmanas
muculmano
muculmanos
muda
mudado
mudam
mudanca
mudancas
mudando
mudar
mudaram
mudas
mudo
mudou
muerte
muhammad
mui
muita
muitas
muito
muitos
mujer
mujeres
mulher
mulheres
muller
multa
multas
multi
multidao
multidoes
multiesportivos
multijogador
multimedia
multimidia
multinacional
multipla
multiplas
multiplayer
multiple
multiplicacao
multiplo
multiplos
multishow
mumia
munchen
mundi
mundiais
mundial
mundialmente
mundo
mundos
municao
munich
municipais
municipal
municipalidade
municipality
municipio
municipios
municoes
munique
muniz
munoz
munster
murais
mural
muralha
muralhas
murcia
murder
murilo
murmurou
muro
muros
murphy
murray
mus
musa
muscular
musculares
musculo
musculos
muse
musee
museo
museu
museum
museus
music
musica
musicais
musical
musicale
musicalmente
musicas
musicline
musico
musicos
musik
musk
muslim
mussolini
must
mustafa
mutacao
mutacoes
mutante
mutantes
mutua
mutuamente
mutuo
muy
mv
mvp
mw
mx
my
myanmar
mycosphaerella
myers
myself
myspace
mysterio
mystery
myth
mythology
mz
n
n0
n1
n2
n3
n4
n5
n6
n7
n8
n9
na
nabla
nabuco
nacao
nach
nacion
nacionais
nacional
nacionalidade
nacionalidades
nacionalismo
nacionalista
nacionalistas
nacionalmente
nacoes
nad
nada
nadador
nadal
nadar
nadia
nado
nagar
nahum
nakamura
naked
nam
name
named
names
namibia
namorada
namorado
namorados
namorar
namoro
nan
nana
nancy
nando
nanquim
nantes
nao
naomi
napoleao
napoleon
napoleonicas
napoles
napoli
naquela
naquele
naqueles
nar
nara
narciso
nariz
narra
narracao
narrador
narrativa
narrativas
narrative
naruto
nas
nasa
nasal
nascar
nasce
nascem
nascente
nascentes
nascer
nasceram
nasceu
nascida
nascido
nascidos
nascimento
nash
nashville
nassau
nasser
nat
natacao
natal
natalia
natalie
natasha
nate
natelinha
nathan
nathaniel
nation
national
nationala
nationale
nations
nativa
nativas
native
natividade
nativo
nativos
nato
natur
natura
naturais
natural
naturalidade
naturalista
naturalizado
naturalmente
nature
natureza
nau
naufragio
nauru
naus
nautica
nautico
navais
naval
navarra
navarro
nave
navegacao
navegador
navegadores
navegar
naver
naves
navio
navios
navy
nazare
nazi
nazionale
nazis
nazismo
nazista
nazistas
nb
nba
nbb
nbc
nc
ncaa
ncbi
ncis
nct
nd
ne
neal
near
nebraska
nebulosa
necessaria
necessariamente
necessarias
necessario
necessarios
necessidade
necessidades
necessita
necessitam
necropole
ned
nederland
nederlandse
need
needs
neerlandes
neerlandesa
neg
nega
negacao
negado
negar
negativa
negativamente
negativas
negativo
negativos
negligencia
negociacao
negociacoes
negociado
negociante
negociar
negocio
negocios
negou
negra
negras
negrito
negro
negros
nei
neil
neill
neiva
nel
nela
nelas
nele
neles
nella
nellie
nelly
nelson
nem
nen
nene
nenhum
nenhuma
neo
neoclassico
neolitico
neon
neotropical
nepal
neptunian
nerd
neri
nero
nervo
nervos
nervosa
nervoso
nery
nes
nessa
nessas
nesse
nesses
nesta
nestas
neste
nestes
nestle
nestor
net
neta
netflix
netherlands
neto
netos
nets
netto
netuno
network
networks
neue
neumann
neural
neuronios
neutra
neutralidade
neutro
neutrons
nevada
neve
never
neves
neville
nevis
nevoa
new
newark
newcastle
newman
newport
news
newsletter
newspaper
newspapers
newsweek
newton
next
nexus
ney
neymar
nf
nfc
nfl
ng
nga
ngc
nguyen
nh
nha
nhc
nhk
nhl
nho
ni
nicaragua
nice
niceforo
niceia
nicho
nicholas
nicholls
nichols
nicholson
nichos
nick
nickelodeon
nicki
nicky
nico
nicola
nicolas
nicolau
nicole
nicolson
nielsen
niemeyer
nietzsche
nigel
niger
nigeria
nigeriano
night
nightmare
nights
nih
nike
nikita
nikki
nikolai
nilo
nilson
nilton
nina
nine
nineteenth
ninguem
ninho
ninhos
ninja
nino
nintendo
nippon
niquel
nirvana
nissan
nisso
nisto
niteroi
nitrogenio
niveis
nivel
nixon
nj
nk
nl
nle
nm
nme
nn
no
noaa
noah
nobel
nobelprize
nobiliarchico
nobiliarquico
noble
nobody
nobre
nobrega
nobres
nobreza
nocao
nocaute
nocc
noche
nocoes
noe
noel
nogueira
noir
noise
noite
noites
noiva
noivado
noivo
noivos
nokia
nolan
nom
nomades
nomadismo
nome
nomeacao
nomeacoes
nomeada
nomeadamente
nomeadas
nomeado
nomeados
nomeando
nomear
nomeia
nomenclatura
nomenclature
nomeou
nomes
nomina
nominais
nominal
nominations
nominativo
nominees
non
nona
nono
nor
nora
norberto
nord
nordeste
nordestino
nordica
nordico
norfolk
norma
normais
normal
normalmente
norman
normandia
normandos
normas
noroeste
noronha
norris
norstedts
norte
north
northern
northwest
norton
noruega
noruegues
norueguesa
norway
norwegian
norwich
nos
nossa
nossas
nosso
nossos
nostalgia
not
nota
notacao
notadamente
notado
notar
notas
notaveis
notavel
notavelmente
note
notes
nothing
notice
notices
noticia
noticiario
noticias
notoriedade
notorio
notou
notre
nottingham
noturna
noturnas
noturno
noturnos
nous
noutras
noutros
nouveau
nouvelle
nov
nova
novaes
novak
novamente
novas
novato
nove
novel
novela
novelas
novels
november
novembro
noventa
novidade
novidades
novo
novos
now
np
npr
nq
nr
ns
nsa
nso
nt
nu
nua
nubia
nuclear
nucleares
nucleo
nucleos
nudez
nueva
nuevo
nula
null
nulo
nulos
num
numa
number
numbers
numeracao
numerica
numerico
numero
numeros
numerosas
numerosos
numofregvoterbysexbycitymun
nunca
nuncio
nunes
nunez
nuno
nupcias
nuremberg
nus
nutricao
nutrientes
nuvem
nuvens
nv
nw
nwa
nx
nxt
ny
nyc
nytimes
nz
o
o0
o1
o2
o3
o4
o5
o6
o7
o8
o9
oa
oab
oak
oakland
oaks
oasis
ob
obama
obce
obedecer
obediencia
obelisco
obenberger
oberosterreich
obesidade
obito
obitos
obituario
obituary
object
objectivo
objectivos
objecto
objectos
objects
objetiva
objetivo
objetivos
objeto
objetos
oblast
obra
obras
obriga
obrigacao
obrigacoes
obrigada
obrigado
obrigados
obrigando
obrigatoria
obrigatoriamente
obrigatorio
obrigou
obs
obscura
obscuro
observa
observacao
observacoes
observada
observadas
observado
observador
observadores
observados
observancia
observando
observar
observations
observatorio
observatory
observe
observer
observou
obsessao
obsoleto
obsoletos
obstaculo
obstaculos
obstante
obstrucao
obtem
obtencao
obtendo
obter
obteve
obtida
obtidas
obtido
obtidos
obtiveram
obviamente
obvio
obyvatelov
oc
oca
ocasiao
ocasioes
ocasionais
ocasionalmente
occitania
occitano
ocean
oceania
oceanic
oceanica
oceano
oceanos
och
ocidentais
ocidental
ocidente
oclc
ocorra
ocorre
ocorrem
ocorrencia
ocorrencias
ocorrendo
ocorrer
ocorrera
ocorreram
ocorreria
ocorreu
ocorria
ocorrida
ocorridas
ocorrido
ocorridos
oct
octavio
october
octopus
ocular
oculos
oculta
oculto
ocupa
ocupacao
ocupacoes
ocupada
ocupadas
ocupado
ocupados
ocupam
ocupando
ocupantes
ocupar
ocuparam
ocupava
ocupavam
ocupou
od
oda
ode
odebrecht
odemira
odeon
oder
odessa
odio
odisseia
odontologia
odor
odyssey
oe
oeiras
oeste
of
ofensa
ofensiva
ofensivas
ofensivo
oferece
oferecem
oferecendo
oferecer
ofereceram
ofereceu
oferecia
oferecida
oferecidas
oferecido
oferecidos
oferta
ofertas
off
office
officer
official
officially
offs
oficiais
oficial
oficiales
oficializa
oficialmente
oficina
oficinas
oficio
oficios
ofuxico
og
oglobo
ogol
oh
ohio
oi
oil
oiro
oise
oitava
oitavas
oitavo
oitenta
oito
oj
ok
okinawa
oklahoma
ol
ola
olaria
olavo
old
oldest
ole
oleo
oleos
olga
olha
olhando
olhar
olhares
olhava
olhe
olho
olhos
olhou
olimpia
olimpiada
olimpiadas
olimpica
olimpicas
olimpico
olimpicos
olimpo
olinda
oliva
oliveira
oliver
olivia
olivier
olsen
olson
olympia
olympic
olympics
olympique
om
oma
oman
omar
ombro
ombros
omega
omelete
omissao
omnibus
omniglot
oms
on
onca
once
onda
ondas
onde
one
ones
ong
ongoing
ongs
onibus
online
only
ono
onofrio
ons
ontario
ontem
onthophagus
onu
onwards
onze
oo
op
opcao
opcional
opcoes
open
opening
opens
opera
operacao
operacionais
operacional
operacoes
operada
operado
operador
operadora
operadoras
operadores
operados
operam
operando
operar
operaria
operario
operarios
operas
operation
operations
operatorname
operava
operou
opiniao
opinioes
opinion
opoe
oponente
oponentes
opor
oportunidade
oportunidades
opos
oposicao
opositores
oposta
opostas
oposto
opostos
opressao
optar
optaram
optica
optico
option
optou
opus
oq
or
ora
oracao
oracle
oracoes
oraculo
orador
orais
oral
orange
oratorio
orbit
orbita
orbitais
orbital
orbitas
orcamentaria
orcamento
orchard
orchestra
orchid
orchidaceae
orchidacearum
ordem
ordena
ordenacao
ordenada
ordenado
ordenados
ordenamento
ordenar
ordenou
ordens
order
orders
ordinaria
ordinario
oregon
orelha
orelhas
orfanato
orfao
orfaos
orfeu
org
organic
organica
organicas
organico
organicos
organisation
organismo
organismos
organiza
organizacao
organizacional
organizacoes
organizada
organizadas
organizado
organizador
organizadores
organizados
organizando
organizar
organizaram
organization
organizou
orgao
orgaos
orgulho
orgulhoso
oricon
orient
orientacao
orientacoes
orientada
orientado
orientais
oriental
orientar
oriente
origem
origens
origin
origina
originado
originais
original
originalidade
originalmente
originals
originaria
originario
originarios
originou
origins
orion
oriunda
oriundas
oriundo
oriundos
orixa
orixas
orla
orlando
orleaes
orleans
ornamentais
ornamental
ornamentos
ornitologia
oro
orquestra
orquestras
orquidea
orquideas
orrell
ortega
orthodox
ortiz
ortodoxa
ortodoxo
ortodoxos
ortografia
ortografico
orton
os
osaka
osasco
osborne
oscar
oscars
oslo
osmar
osorio
osprey
ossea
osso
ossos
ost
osterreich
osvaldo
oswald
oswaldo
ot
otan
otao
otaviano
otavio
otelo
other
others
otica
otima
otimista
otimizacao
otimo
otis
otomana
otomano
otomanos
ottawa
otto
ou
ouca
our
ouro
ouros
out
outeiro
outer
outlook
outono
outra
outras
outrem
outro
outrora
outros
outside
outstanding
outubro
ouve
ouvi
ouvia
ouvida
ouvido
ouvidor
ouvidos
ouvindo
ouvinte
ouvintes
ouvir
ouviram
ouviu
ouvrard
ov
oval
ovario
ovelha
ovelhas
over
overdose
overline
overview
ovidio
ovo
ovos
ow
owen
owens
own
ox
oxford
oxidacao
oxido
oxigenio
oy
oz
p
p0
p1
p2
p3
p4
p5
p6
p7
p8
p9
pa
pabllo
pablo
pac
pacaembu
pace
pacers
pacheco
paciencia
paciente
pacientes
pacific
pacifica
pacifico
pack
package
packers
paco
pacos
pacote
pacotes
pacto
padrao
padrasto
padre
padres
padrinho
padroeira
padroeiro
padroes
padron
padronizacao
padua
pae
paes
pag
paga
pagamento
pagamentos
pagando
pagantes
pagaos
pagar
pagas
page
pages
pagina
paginas
paglinawan
pago
pagode
pagos
pagou
pags
pai
paige
pain
paineis
painel
painting
paio
pairs
pais
paisagem
paisagens
paises
paiva
paixao
paixoes
paiz
pakistan
pal
palace
palacete
palacio
palacios
palais
palatinado
palatino
palau
palavra
palavras
palazzo
palco
palcos
paleologo
paleontologia
palermo
palestina
palestine
palestino
palestinos
palestra
palestrante
palestras
palgrave
palha
palhaco
palida
palido
pallas
palm
palma
palmares
palmas
palmeira
palmeiras
palmer
paloma
pam
pamela
pampa
pamplona
pan
panama
panda
pandemia
pandora
panel
panela
panic
panico
panini
pano
panorama
panoramica
pantanal
pantano
pantanos
panteao
pantera
panther
panzer
pao
paola
paolo
papa
papado
papagaio
papai
papal
papas
papeis
papel
paper
paperback
papers
papiro
papo
papua
paquistao
par
para
parabens
parabola
parada
paradas
parade
paradeiro
paradigma
paradise
parado
paradoxo
paraense
paragem
paragrafo
paraguai
paraguaia
paraguaio
paraguay
paraiba
paraibano
paraiso
paralela
paralelamente
paralelas
paralelo
paralelos
paralimpico
paralimpicos
paralisia
paralympic
parametro
parametros
paramount
parana
paranaense
paranagua
paraquedistas
parar
pararam
parasita
parasitas
parceira
parceiro
parceiros
parcela
parcelas
parceria
parcerias
parciais
parcial
parcialmente
pardo
pare
pareca
parece
parecem
parecendo
parecer
pareceu
parecia
pareciam
parecida
parecido
parecidos
paredao
parede
paredes
parente
parentes
parentesco
parenteses
pares
paris
parisiense
park
parker
parkinson
parks
parlamentar
parlamentares
parlamento
parliament
parma
parnaiba
paroco
parodia
paroquia
paroquial
paroquias
parou
parque
parques
parra
parsons
part
parta
parte
partem
partes
partia
partial
particao
participa
participacao
participacoes
participado
participam
participando
participante
participantes
participar
participaram
participava
participio
participou
particula
particular
particulares
particularmente
particulas
partida
partidaria
partidario
partidarios
partidas
partido
partidos
parties
partilha
partindo
partir
partiram
partitura
partituras
partiu
partners
parto
parts
party
pas
pascal
pascoa
pascoal
paso
pass
passa
passada
passadas
passado
passados
passageiro
passageiros
passagem
passagens
passam
passando
passaporte
passar
passara
passaram
passarela
passaria
passaro
passaros
passasse
passava
passavam
passe
passear
passei
passeio
passeios
passes
passion
passiva
passivo
passo
passos
passou
past
pasta
pastagens
pasto
pastor
pastoral
pastores
pat
pata
patamar
patas
patch
patent
patente
patentes
paterna
paternidade
paterno
paternos
patetas
path
patients
patinacao
patins
patio
pato
patologia
patos
patrao
patria
patriarca
patriarcado
patriarcal
patricia
patricio
patrick
patrimonial
patrimonio
patriota
patriotica
patriotismo
patriots
patrocinado
patrocinador
patrocinadores
patrocinio
patrol
patrono
patrulha
patterns
patterson
patton
pau
paul
paula
paulina
pauline
paulinho
paulinia
paulino
paulista
paulistana
paulistano
paulistao
paulistas
paulo
pauly
paus
pausa
pausanias
pauta
pavao
pavel
pavia
pavilhao
pavimento
pavimentos
pax
pay
payne
pays
paysandu
paz
pb
pbs
pc
pcb
pcc
pcdob
pcp
pd
pdf
pds
pdt
pe
peace
peak
peao
pearce
pearl
pearson
pec
peca
pecado
pecados
pecas
peco
pecuaria
peculiar
pedaco
pedacos
pedagogia
pedagogica
pedagogico
pede
pedem
pedestres
pedia
pedido
pedidos
pedindo
pedir
pediram
pediu
pedra
pedras
pedreira
pedro
pedrosa
pedroso
peer
peerage
pega
pegando
pegar
pegasus
peggy
pego
pegou
peito
peixe
peixes
peixoto
pela
pelagem
pelas
pele
peles
pelicula
pelo
peloponeso
pelos
pelotao
pelotas
pelourinho
pen
pena
penais
penal
penalidade
penalidades
penalti
penaltis
penarol
penas
pendente
penedo
penelope
penetracao
penetrar
penguin
penha
peninsula
peninsular
penis
penitencia
penitenciaria
penn
penna
pennsylvania
penny
pensa
pensado
pensador
pensadores
pensam
pensamento
pensamentos
pensando
pensao
pensar
pensava
pensei
pensilvania
penske
penso
pensou
penteado
pentecostal
penultima
penultimo
peoes
people
peoples
pepe
pepino
pepper
peppers
pequena
pequenas
pequeno
pequenos
pequim
per
pera
perante
percebe
percebem
percebendo
perceber
perceberam
percebeu
percebida
percebido
percentagem
percentual
percepcao
percorre
percorrendo
percorrer
percorreu
percurso
percursos
percussao
percy
perda
perdao
perdas
perde
perdedor
perdem
perdendo
perder
perdera
perderam
perdeu
perdia
perdida
perdidas
perdido
perdidos
perdoa
pere
peregrinacao
peregrino
peregrinos
pereira
perene
peres
perez
perfect
perfeicao
perfeita
perfeitamente
perfeito
perfil
perfis
perform
performance
performances
perfume
pergunta
perguntado
perguntando
perguntar
perguntas
perguntou
peri
pericia
pericles
perielio
periferia
perifericos
perigo
perigos
perigosa
perigosas
perigoso
perigosos
perimetro
period
periodica
periodicamente
periodico
periodicos
periodo
periodos
perito
perkins
permanece
permanecem
permanecendo
permanecer
permaneceram
permaneceria
permaneceu
permanecia
permanecido
permanencia
permanent
permanente
permanentemente
permanentes
permissao
permita
permite
permitem
permitia
permitiam
permitida
permitido
permitidos
permitindo
permitir
permitira
permitiram
permitiria
permitiu
perna
pernambucana
pernambucano
pernambuco
pernas
pero
perola
perolas
peron
perpendicular
perpetua
perpetuo
perry
persa
persas
persegue
perseguicao
perseguicoes
perseguido
perseguidos
perseguir
persia
persian
persistencia
persistente
person
persona
personagem
personagens
personal
personalidade
personalidades
personality
perspectiva
perspectivas
perspective
perspectives
pertence
pertencem
pertencendo
pertencente
pertencentes
pertencer
pertenceu
pertencia
pertenciam
perth
perto
perturbacao
perturbacoes
peru
peruana
peruano
pes
pesa
pesada
pesadas
pesadelo
pesado
pesados
pesar
pesava
pesca
pescador
pescadores
pescoco
peso
pesos
pesquisa
pesquisador
pesquisadora
pesquisadores
pesquisar
pesquisas
pessoa
pessoais
pessoal
pessoalmente
pessoas
pestana
peste
pet
petalas
pete
peter
peters
petersburg
petersburgo
peterson
peticao
petit
petra
petrobras
petroleo
petropolis
petski
petty
peugeot
pf
pfalz
pfizer
pfl
pg
ph
phantom
phase
phd
phi
phil
philadelphia
philatlas
philip
philipp
philippe
philippine
philippines
philips
phillip
phillips
philosophical
philosophie
philosophy
phoenix
phone
phonographic
phonographique
photo
photography
photos
php
phylogenetic
phylogenetics
phylogeny
phys
physical
physics
physiology
phytochem
pi
pia
piada
piadas
pianista
piano
piaui
piauiense
piazza
pib
pic
pica
picada
picasso
pick
picks
pico
picos
picture
pictures
pid
pie
piece
pieces
piedade
piemonte
pier
pierce
piero
pierre
pieter
pietro
pike
pilar
pilares
pilha
pilot
piloto
pilotos
pilots
pimenta
pimentel
pin
pina
pinacoteca
pine
pinhal
pinheiro
pinheiros
pinho
pink
pino
pinos
pinta
pintada
pintadas
pintado
pintados
pintar
pinto
pintor
pintora
pintores
pintou
pintura
pinturas
pinyin
pio
pioneer
pioneira
pioneiras
pioneiro
pioneiros
pior
piores
pipe
piper
pique
piquet
piracicaba
pirai
piramide
piramides
pirata
pirataria
piratas
pirates
pireneus
pires
pisa
piscina
piscinas
piso
pisos
pista
pistao
pistas
pistola
pistolas
pistons
pit
pitchfork
pitkin
pitt
pittsburgh
piu
pivo
pixar
pixel
pixels
pizarro
pizza
pj
pk
pl
placa
placar
placas
place
places
placido
plain
plan
plana
planalto
planas
planck
plane
planeamento
planeja
planejada
planejado
planejamento
planejando
planejar
planejava
planejou
planet
planeta
planetario
planetary
planetas
planets
planicie
planicies
planning
plano
planos
plans
plant
planta
plantacao
plantacoes
plantar
plantarum
plantas
plantbase
plantel
plantio
plants
plasma
plastica
plasticas
plastico
plasticos
plastid
plata
plataforma
plataformas
platao
plate
plateia
platform
platina
platinum
plato
play
playboy
player
players
playing
playoff
playoffs
plays
playstation
plaza
plc
please
plebe
plebiscito
pleito
plena
plenamente
plenario
pleno
pleurothallidinae
pleurothallis
plinio
plos
plot
plumagem
plural
plus
plutao
plutarco
plymouth
pm
pmc
pmdb
pmid
pn
pnas
pneumonia
pneus
pnud
po
poa
poaceae
poblacion
pobre
pobres
pobreza
pocet
pocket
poco
pocos
podcast
pode
podem
podemos
podendo
poder
podera
poderao
poderem
poderes
poderia
poderiam
poderiamos
poderosa
poderosas
poderoso
poderosos
podes
podia
podiam
podio
podla
poe
poeira
poem
poema
poemas
poems
poente
poesia
poesias
poeta
poetas
poetica
poeticas
poetico
poetisa
poetry
pohlavia
point
points
pois
pokemon
poker
pol
polaca
polaco
poland
polar
polares
polarizacao
pole
polegadas
polegar
polemica
polemicas
polemico
polen
polibio
police
policia
policiais
policial
policiamento
policias
policy
polifagos
poligono
polimeros
polinesia
polinomial
polinomio
polish
politecnica
politecnico
politica
political
politicamente
politicas
politico
politicos
politics
poll
polo
polones
polonesa
poloneses
polonia
polos
polska
poluicao
polvora
polygon
polygram
polyrhachis
pomba
pombal
pombo
pomerania
pompeia
pompeu
ponce
ponderada
pondo
pont
ponta
pontas
ponte
ponteiro
pontes
pontevedra
pontifice
pontificia
pontificio
ponto
pontos
pontuacao
pontuacoes
pony
pool
poor
pop
popa
pope
popline
popmatters
popolazione
populacao
populacionais
populacional
populacoes
popular
populares
popularidade
popularizacao
popularizou
popularmente
populated
population
populations
populosa
populoso
por
porao
porcao
porcelana
porcentagem
porco
porcoes
porcos
porem
porfirio
porno
pornografia
porque
porsche
port
porta
portable
portador
portadores
portais
portal
portalegre
portanto
portao
portaria
portas
portateis
portatil
porte
portela
porter
portfolio
portico
portimao
portland
porto
portoes
portos
portrait
portuaria
portugal
portugues
portuguesa
portuguesas
portuguese
portugueses
portuguez
portugueza
porventura
pos
pose
posicao
posicionamento
posicionou
posicoes
position
positions
positiva
positivamente
positivas
positive
positivo
positivos
possa
possam
posse
posses
possessoes
possibilidade
possibilidades
possibilita
possibilitando
possibilitar
possibilitou
possible
possiveis
possivel
possivelmente
posso
possuem
possui
possuia
possuiam
possuindo
possuir
possuirem
post
posta
postais
postal
postas
poster
posterior
posteriores
posteriormente
posto
postos
postou
postuma
postumamente
postumo
postura
pot
potassio
potavel
potencia
potenciais
potencial
potencialmente
potencias
potente
potential
potiguar
potter
pouca
poucas
pouco
poucos
poupanca
pour
pousada
pousar
pouso
poverty
povo
povoa
povoacao
povoacoes
povoada
povoado
povoados
povoamento
povos
pow
powell
power
powers
pp
ppp
pps
ppv
pq
pr
pra
praca
pracas
practical
practice
pradesh
prado
praga
pragas
praia
praias
pranchas
pranto
prata
pratica
praticada
praticado
praticados
praticam
praticamente
praticante
praticantes
praticar
praticas
pratico
praticos
prato
pratos
pratt
prayer
prazer
prazeres
prazo
prazos
pre
precedente
precedentes
precedido
preceitos
preciosa
preciosas
precioso
preciosos
precipitacao
precisa
precisam
precisamente
precisamos
precisao
precisar
precisas
precisava
precisavam
preciso
precisos
precisou
preco
precoce
preconceito
preconceitos
precos
precursor
precursores
predador
predadores
predators
predecessor
predefinicao
predio
predios
predomina
predominancia
predominante
predominantemente
preencher
preenchido
prefacio
prefectoral
prefeita
prefeito
prefeitos
prefeitura
prefeituras
prefere
preferem
preferencia
preferencialmente
preferencias
preferia
preferida
preferido
preferindo
preferiu
prefixo
pregacao
pregador
pregar
preguica
prejudicar
prejudicial
prejuizo
prejuizos
prelado
preliminar
preliminares
preliminary
premiacao
premiacoes
premiada
premiado
premiados
premier
premiere
premieres
premiership
premio
premios
premissa
premissas
premium
prende
prender
prendeu
prenome
prensa
prentice
preocupa
preocupacao
preocupacoes
preocupada
preocupado
preocupados
preocupante
preocupar
prepara
preparacao
preparada
preparado
preparados
preparando
preparar
preparativos
preparava
preparo
preparou
presa
presas
presbiteriana
presbiterio
presbitero
presenca
present
presente
presentes
presents
preserva
preservacao
preservada
preservadas
preservado
preservados
preservar
presidencia
presidenciais
presidencial
president
presidenta
presidente
presidentes
presidential
presidida
presidido
presidio
presidir
presidiu
presley
preso
presos
press
pressa
pressao
presse
pressionado
pressionar
pressoes
pressrelease
pressure
presta
prestacao
prestado
prestados
prestar
prestes
prestigio
preston
prestou
presume
presumivelmente
preta
pretas
pretende
pretendem
pretendente
pretendia
pretendiam
pretensao
pretensoes
preterito
pretexto
preto
pretor
pretos
pretty
prevalencia
preve
prevencao
prevenir
prevention
preventiva
prever
previa
previamente
previdencia
preview
previo
previsao
previsoes
prevista
previstas
previsto
previstos
previu
prey
priberam
price
pride
pridgeon
priest
prima
primaria
primariamente
primarias
primario
primarios
primary
primas
primatas
primavera
prime
primeira
primeiramente
primeiras
primeiro
primeiros
primer
primera
primetime
primitiva
primitivas
primitivo
primitivos
primo
primogenito
primordial
primordios
primos
prince
princesa
princesas
princess
princeton
principado
principais
principal
principalmente
principe
principes
principio
principios
principles
print
printing
prior
prioridade
prioridades
prisao
priscila
priscilla
prisional
prisioneiro
prisioneiros
prisma
prisoes
prison
pristimantis
privacidade
privada
privadas
privado
privados
private
privatizacao
privilegiada
privilegio
privilegios
prix
prize
pro
proa
probabilidade
probabilidades
problem
problema
problemas
problematica
problems
proc
procede
proceder
procedeu
procedimento
procedimentos
proceedings
process
processado
processador
processadores
processamento
processar
processing
processo
processos
processual
procissao
proclamacao
proclamada
proclamado
proclamou
procopio
procura
procurado
procurador
procuradores
procuradoria
procuram
procurando
procurar
procuraram
procurava
procuravam
procure
procurou
procyclingstats
producao
producer
producoes
product
production
productions
productores
products
produtiva
produtividade
produtivo
produto
produtor
produtora
produtoras
produtores
produtos
produz
produzem
produzia
produzida
produzidas
produzido
produzidos
produzindo
produzir
produziram
produziu
proeminencia
proeminente
proeminentes
proenca
prof
profecia
professional
professor
professora
professores
profeta
profetas
profile
profiles
profissao
profissionais
profissional
profissionalismo
profissionalmente
profissoes
profunda
profundamente
profundas
profundidade
profundo
profundos
program
programa
programacao
programada
programado
programador
programadores
programas
programme
programming
programs
progress
progressao
progressista
progressistas
progressiva
progressivamente
progressive
progressivo
progresso
proibe
proibicao
proibida
proibidas
proibido
proibidos
proibir
proibiu
projecao
projecoes
project
projecto
projectos
projects
projeta
projetada
projetadas
projetado
projetados
projetar
projeteis
projetil
projeto
projetos
projetou
prol
prole
proletariado
proliferacao
prologo
prolongada
prolongado
prolongamento
promessa
promessas
promete
prometendo
prometeu
prometheus
prometida
prometido
promise
promo
promocao
promocionais
promocional
promocoes
promotor
promotores
promove
promovem
promovendo
promover
promoveu
promovida
promovidas
promovido
promovidos
promulgacao
promulgada
pronome
pronomes
pronta
prontamente
pronto
prontos
pronuncia
pronunciado
pronunciar
proof
propagacao
propaganda
properties
property
propina
propoe
propondo
propor
proporcao
proporciona
proporcional
proporcionando
proporcionar
proporcionou
proporcoes
propos
proposicao
proposicoes
proposito
propositos
proposta
propostas
proposto
propostos
propria
propriamente
proprias
propriedade
propriedades
proprietaria
proprietario
proprietarios
proprio
proprios
propulsao
propuseram
prorrogacao
pros
prosa
prosopography
prospera
prosperidade
prospero
prossegue
prosseguir
prosseguiu
prost
prostituicao
prostituta
prostitutas
protagonista
protagonistas
protagonizada
protagonizado
protagonizou
protecao
proteccao
protection
protege
protegem
protegendo
proteger
protegida
protegidas
protegido
protegidos
protein
proteina
proteinas
protest
protestante
protestantes
protestantismo
protestar
protesto
protestos
protetor
protetora
protetorado
proto
protocol
protocolo
protocolos
proton
protons
prototipo
prototipos
prova
provado
provar
provas
provavel
provavelmente
prove
provedor
proveito
provem
provenca
proveniente
provenientes
prover
proverbios
providence
providencia
providencias
province
provincia
provinciais
provincial
provincias
provisao
provisional
provisoes
provisoria
provisoriamente
provisorio
provoca
provocada
provocado
provocando
provocar
provocaram
provocou
provou
proxima
proximas
proximidade
proximidades
proximo
proximos
prp
prt
prudencia
prudente
prussia
prussiana
prussiano
ps
psa
psb
psc
psd
psdb
pseudo
pseudonimo
psi
psicanalise
psicologia
psicologica
psicologico
psicologicos
psicologo
psiquiatra
psiquiatria
psl
psol
psp
psychiatry
psycho
psychological
psychology
pt
ptb
ptolemeu
ptolomeu
pts
pu
pub
publ
public
publica
publicacao
publicacoes
publicada
publicadas
publicado
publicados
publicamente
publicando
publicar
publicaram
publicas
publication
publications
publicidade
publicitaria
publicitario
publico
publicos
publicou
publio
published
publisher
publishers
publishing
puc
pucci
pude
puder
puderam
pudesse
pudessem
puebla
pueblo
puerto
pular
pulitzer
pulmao
pulmoes
pulmonar
pulso
pulsos
puma
punch
punha
punho
punicao
punido
punir
punjab
punk
punta
pura
puramente
pure
pureza
purificacao
puro
puros
purple
purpura
puseram
push
pussycat
put
putin
putnam
puxa
puxar
pv
pw
pwi
pwinsider
pwtorch
px
py
pyongyang
python
pz
q
q0
q1
q2
q3
q4
q5
q6
q7
q8
q9
qa
qaeda
qatar
qb
qc
qd
qe
qf
qg
qh
qi
qing
qj
qk
ql
qm
qn
qo
qp
qq
qquad
qr
qs
qt
qu
quad
quadra
quadrada
quadrado
quadrados
quadrangular
quadras
quadrilha
quadrinhos
quadro
quadros
quaes
quais
quaisquer
qual
qualidade
qualidades
qualificacao
qualificada
qualificado
qualificados
qualificar
qualification
qualificou
quality
qualquer
quando
quanta
quantas
quantia
quantica
quantico
quantidade
quantidades
quanto
quantos
quantum
quao
quarenta
quarentena
quaresma
quarta
quartas
quarteis
quartel
quarterback
quarterly
quarteto
quarto
quartos
quartzo
quase
quasi
quatorze
quatro
quatrocentos
que
quebec
quebra
quebrada
quebrado
quebrando
quebrar
quebrou
quechua
queda
quedas
queen
queens
queensland
queer
queijo
queima
queimada
queimadas
queimado
queimados
queimar
queira
queiros
queiroz
queixa
queixas
queixo
quem
quenia
quente
quentes
quentin
quer
querem
queremos
querendo
querer
queres
queria
queriam
querida
querido
quero
query
quesito
quest
questao
question
questiona
questionada
questionado
questionar
questionou
questions
questoes
qui
quick
quien
quiet
quilombo
quilometro
quilometros
quilos
quimica
quimicas
quimico
quimicos
quincy
quinhentos
quinn
quinta
quintal
quintana
quintas
quinteto
quinto
quinze
quioto
quirguistao
quis
quiser
quisesse
quito
quixote
quiz
quo
quociente
qv
qw
qx
qy
qz
r
r0
r1
r2
r3
r4
r5
r6
r7
r8
r9
ra
raaf
rabbit
rabino
rabo
raca
racas
race
racer
rachel
raciais
racial
racing
raciocinio
racionais
racional
racismo
racista
radar
radiacao
radial
radialista
radicado
radicais
radical
radicalmente
radio
radiodifusao
radios
rae
raf
rafael
rage
rai
raia
raid
raiders
rail
railroad
railway
raimundo
rain
rainbow
rainer
rainha
rainhas
raio
raios
raiva
raiz
raizes
rajadas
rali
rally
ralph
ram
rama
ramal
ramalho
ramificacoes
ramirez
ramiro
ramo
ramon
ramos
rampa
ramsay
ramsey
ran
rana
rancho
rand
randall
randolph
random
randy
range
rangel
ranger
rangers
rangle
rank
ranked
ranking
rankings
rao
raoul
rap
rapariga
raparigas
rapaz
rapazes
rape
raphael
rapid
rapida
rapidamente
rapidas
rapidez
rapido
rapidos
rapids
raposa
raposo
rapper
rappers
raptors
raquel
rara
raramente
raras
rare
raro
raros
ras
rasa
rasmussen
rasos
rastreamento
rastrear
rat
rate
rating
ratings
rato
ratos
ratp
raul
raven
ravena
raw
ray
raymond
razao
razoavel
razoes
rb
rbd
rbs
rc
rca
rchb
rd
re
reabilitacao
reacao
reaccao
reach
reacoes
read
reader
reading
ready
reagan
reage
reagir
reais
real
realeza
realidade
realidades
realismo
realista
realistas
reality
realiza
realizacao
realizacoes
realizada
realizadas
realizado
realizador
realizados
realizam
realizando
realizar
realizaram
realizava
realizou
really
realmente
reason
reasons
reator
reatores
rebaixada
rebaixado
rebaixados
rebaixamento
rebanho
rebanhos
rebatizado
rebecca
rebel
rebelde
rebeldes
rebeliao
rebelioes
rebelo
rebels
reboot
rebotes
rec
recanto
recap
recebe
recebem
recebendo
receber
recebera
receberam
receberia
recebeu
recebia
recebiam
recebida
recebidas
recebido
recebidos
recebimento
receio
receita
receitas
recem
recenseamento
recenseamentos
recensement
recent
recente
recentemente
recentes
recepcao
recepcoes
receptor
receptores
recessao
reciclagem
recife
recifes
recinto
recipiente
recipients
reclamacoes
reclamar
reclusao
recognition
recolha
recolher
recolhido
recolhidos
recolhimento
recomenda
recomendacao
recomendacoes
recomendada
recomendado
recomendou
recompensa
recompensas
reconciliacao
reconhece
reconhecem
reconhecendo
reconhecer
reconheceram
reconheceu
reconhecida
reconhecidas
reconhecido
reconhecidos
reconhecimento
reconquista
reconstrucao
reconstruida
reconstruido
reconstruir
recopa
record
recorda
recordacoes
recordar
recorde
recorded
recordes
recording
recordings
recordista
records
recordtv
recorrente
recorrentes
recorrer
recorreu
recreacao
recreativa
recreativo
recreio
recruta
recrutamento
recta
recuar
recuo
recupera
recuperacao
recuperada
recuperado
recuperados
recuperando
recuperar
recuperou
recurso
recursos
recusa
recusado
recusando
recusar
recusaram
recusou
red
redacao
redaccao
redator
rede
redemption
redencao
redentor
redes
redetv
redireciona
redistricting
redonda
redondo
redor
reducao
reducoes
redundantes
reduto
reduz
reduzida
reduzidas
reduzido
reduzidos
reduzindo
reduzir
reduziu
reed
reeder
reedicao
reeleicao
reeleito
reestruturacao
reeve
reeves
ref
refeicao
refeicoes
refem
refens
refere
referem
reference
references
referencia
referencial
referencias
referendo
referente
referentes
referia
referida
referidas
referido
referidos
referindo
referir
referiu
refinado
refinaria
reflections
reflete
refletem
refletindo
refletir
refletor
reflexao
reflexo
reflexoes
reflexos
reforca
reforcada
reforcado
reforcar
reforco
reforcos
reforcou
reform
reforma
reformada
reformadas
reformado
reformador
reformar
reformas
reformulacao
refrao
refs
refugiados
refugio
regatas
regencia
regeneracao
regente
reggae
regia
regiao
regime
regiment
regimento
regimentos
regimes
regina
reginaldo
regio
regioes
region
regionais
regional
regions
regis
registado
register
registo
registos
registou
registra
registrada
registradas
registrado
registrados
registrando
registrar
registro
registros
registrou
regni
rego
regra
regras
regravacao
regravada
regressa
regressar
regresso
regressou
regula
regulacao
regulamentacao
regulamentar
regulamento
regulamentos
regular
regulares
regularidade
regularmente
rei
reich
reid
reign
reigns
reilly
reims
reina
reinado
reinados
reinaldo
reinante
reino
reinos
reinou
reis
reitor
reitoria
reivindicacao
reivindicacoes
reivindicar
reivindicou
rejeicao
rejeita
rejeitada
rejeitado
rejeitar
rejeitou
relacao
relaciona
relacionada
relacionadas
relacionado
relacionados
relacionam
relacionamento
relacionamentos
relacionar
relacoes
relampago
relancado
relancamento
relata
relatada
relatado
relatados
relatam
relatar
relataram
related
relations
relationship
relationships
relativa
relativamente
relativas
relatividade
relativo
relativos
relato
relator
relatorio
relatorios
relatos
relatou
release
released
releases
relembra
relembre
relevancia
relevante
relevantes
relevo
relevos
relief
religiao
religioes
religion
religions
religiosa
religiosas
religiosidade
religioso
religiosos
religious
reliquias
relogio
relogios
remains
remake
remanescente
remanescentes
remedio
remedios
remember
remete
remington
remix
remixes
remo
remocao
remodelacao
remonta
remontam
remorso
remota
remotas
remoto
remotos
remove
remover
removeu
removida
removidas
removido
removidos
remuneracao
ren
renaissance
renal
renan
renania
renascenca
renascentista
renascer
renascimento
renata
renato
renault
renda
rendas
render
renderam
rendeu
rendicao
rendimento
rendimentos
rene
renee
renewed
reno
renomado
renomados
renome
renomeada
renomeado
renova
renovacao
renovada
renovado
renovar
renovaveis
renovou
renuncia
renunciar
renunciou
reorganizacao
rep
reparacao
reparar
reparo
reparos
reparticao
repente
repentinamente
repercussao
repert
repertorio
repescagem
repete
repeticao
repetida
repetidamente
repetidas
repetido
repetindo
repetir
repetiu
repleto
replica
report
reportagem
reportagens
reporter
reporteres
reports
repositorio
repouso
represa
representa
representacao
representacoes
representada
representadas
representado
representados
representam
representando
representante
representantes
representar
representativa
representativo
representava
representavam
representou
repressao
reprint
reprinted
reprise
reproducao
reproduz
reproduzir
repteis
repubblica
republic
republica
republicado
republicana
republicano
republicanos
republicas
republik
republika
republique
reputacao
requer
requerem
requerimento
requiem
requisito
requisitos
res
rescue
research
resende
resenha
resenhas
reserva
reservada
reservado
reservas
reservatorio
reserve
resfriamento
resgata
resgatar
resgate
reside
residem
residence
residencia
residenciais
residencial
residencias
resident
residente
residentes
residia
residindo
residir
residiu
residuos
resistance
resiste
resistencia
resistente
resistentes
resistir
resistiu
resolucao
resolucoes
resolution
resolve
resolver
resolveram
resolveu
resolvida
resolvido
resolvidos
resort
resource
resources
respectiva
respectivamente
respectivas
respectivo
respectivos
respeita
respeitado
respeitar
respeito
respetivamente
respiracao
respirar
respiratoria
responde
respondem
respondendo
responder
responderam
respondeu
respondia
responsabilidade
responsabilidades
responsaveis
responsavel
response
responses
resposta
respostas
ressalta
ressaltar
ressaltou
ressonancia
ressurreicao
rest
resta
restabelecer
restam
restante
restantes
restauracao
restaurada
restaurado
restaurante
restaurantes
restaurar
restauro
restaurou
restava
resto
restos
restricao
restricoes
restringir
restrita
restrito
result
resulta
resultado
resultados
resultam
resultando
resultante
resultantes
resultar
resultaram
resultats
resultou
results
resume
resumo
reta
retabulo
retaguarda
retaliacao
retangular
retangulo
retas
retencao
reter
retira
retirada
retiradas
retirado
retirados
retirando
retirar
retiraram
retiro
retirou
reto
retoma
retomada
retomar
retomou
retorica
retorna
retornado
retornam
retornando
retornar
retornaram
retorno
retornou
retrata
retratada
retratado
retratam
retratando
retratar
retrato
retratos
retratou
retrieval
retrieved
retro
retrospectiva
return
returno
returns
reu
reune
reunem
reunia
reuniao
reunidas
reunido
reunidos
reunificacao
reunindo
reunioes
reunion
reunir
reuniram
reuniu
reus
reuters
rev
revanche
reveal
revealed
reveals
revela
revelacao
revelacoes
revelada
revelado
revelados
revelam
revelando
revelar
revelaram
revelou
revenge
rever
reverendo
reverso
reverter
revestimento
revezamento
review
reviews
revisada
revisado
revisao
revised
revision
revisited
revisoes
revista
revistas
revitalizacao
revival
reviver
revolta
revoltas
revoltosos
revolucao
revolucionaria
revolucionarias
revolucionario
revolucionarios
revolucoes
revolution
revolutionary
revolver
revue
rex
rey
reyes
reynolds
reza
rezar
rezende
rf
rfc
rfi
rft
rg
rh
rheinland
rho
rhode
rhodes
rhythm
ri
ria
riaa
riacho
riachos
riachuelo
riba
ribas
ribeira
ribeirao
ribeiras
ribeiro
ric
rica
ricardo
ricas
ricci
ricco
rice
rich
richard
richards
richardson
richie
richmond
richter
rick
ricky
rico
ricos
riddle
ride
rider
ridge
ridiculo
riemann
rifle
rifles
riga
right
rightarrow
rights
rigida
rigidez
rigido
rigidos
rigidula
rigor
rigorosa
rigoroso
rihanna
riley
rim
rindo
ring
ringo
rings
ringue
rins
rio
rione
rios
riot
riqueza
riquezas
rir
risco
riscos
rise
rises
rising
risk
riso
rita
ritchie
ritmica
ritmo
ritmos
rito
ritos
ritter
ritterkreuzes
ritterkreuztrager
rituais
ritual
riurile
rivais
rival
rivalidade
rivas
river
rivera
riverdale
rivers
rj
rk
rko
rl
rlts
rm
rms
rn
rna
ro
road
rob
robbie
robbins
robert
roberta
roberto
roberts
robertson
robin
robinson
robo
robos
robot
robotica
robson
robusta
robusto
roca
rocco
rocha
rochas
roche
rochedo
rochester
rochosas
rock
rockefeller
rocket
rockets
rocks
rockstar
rocky
rocne
rococo
rod
roda
rodada
rodadas
rodado
rodagem
rodano
rodar
rodas
rodeada
rodeado
rodes
rodgers
rodney
rodolfo
rodovia
rodoviaria
rodoviario
rodoviarios
rodovias
rodrigo
rodrigues
rodriguez
roedor
roedores
roger
rogerio
rogers
rogue
roh
roi
rojas
roland
rolando
role
rolf
roll
rolling
rollins
rolls
rolo
rom
roma
romaji
roman
romana
romanas
romance
romances
romancista
romane
romani
romania
romanica
romanico
romaniei
romaniz
romanizacao
romano
romanos
romantica
romantico
romanticos
romantismo
romao
romaria
romario
rome
romena
romenia
romeno
romeo
romero
romeu
romoleroux
rompe
romper
rompeu
rompimento
romulo
ron
ronald
ronaldo
ronda
rondon
rondonia
ronnie
rookie
room
rooney
roosevelt
root
roots
roque
roraima
ros
rosa
rosacea
rosaceae
rosado
rosario
rosas
rose
rosemary
rosen
rosenberg
roses
roskov
ross
rossi
rosso
roster
rosto
rostos
rota
rotacao
rotas
roteirista
roteiristas
roteiro
roteiros
roth
rothschild
rotina
rotten
rotterdam
rotulo
rouba
roubado
roubar
roubo
roubos
roubou
rouge
rough
round
roupa
roupas
rousseau
rousseff
route
routledge
rover
rovi
row
rowland
rowling
rowman
roxa
roxo
roy
royal
royale
royce
rp
rpg
rpm
rq
rr
rs
rss
rsssf
rt
rtp
ru
rua
ruanda
ruas
ruben
rubens
rubin
rubio
rubro
ruby
rude
rudeltaktik
rudolf
rudolph
rue
rufino
rufus
rugby
rui
ruido
ruim
ruina
ruinas
ruins
ruiz
rule
rules
rum
rumble
rumo
rumor
rumores
rumos
run
runner
running
runs
rupert
ruptura
rurais
rural
rus
rush
rusia
russ
russa
russas
russell
russia
russian
russo
russos
russula
ruta
ruth
rutherford
ruy
rv
rw
rwanda
rx
ry
ryan
ryder
ryu
rz
s
s0
s1
s2
s3
s4
s5
s6
s7
s8
s9
sa
saara
saba
sabado
sabados
sabao
sabbath
sabe
sabedoria
sabem
sabemos
sabendo
saber
sabes
sabia
sabiam
sabido
sabina
sabino
sabio
sabios
saboia
sabor
sabores
sabre
sabrina
sacerdocio
sacerdotal
sacerdote
sacerdotes
sachsen
saco
sacos
sacra
sacramento
sacramentos
sacred
sacrificar
sacrificio
sacrificios
sacristia
sacro
sad
sada
saddam
saem
safadao
safe
safety
safra
saga
sage
sagrada
sagradas
sagrado
sagrados
sagrando
sagrou
sahara
sai
saia
saiam
saiba
said
saida
saidas
saido
sailor
saindo
saint
sainte
saints
sair
saira
sairam
sais
saiu
sakura
sal
sala
salamanca
salao
salarial
salario
salarios
salas
salazar
saldanha
saldo
sale
salem
sales
salgada
salgado
salgueiro
salinas
salles
sally
salmo
salmos
saloes
salomao
salome
salon
salsa
salt
salta
saltar
salto
saltos
saltou
salva
salvacao
salvador
salvamento
salvar
salvatore
salve
salvo
salvou
salzburgo
sam
samantha
samba
sambas
same
sami
sammy
samoa
sampa
sampaio
sample
samsung
samuel
samurai
san
sancao
sanches
sanchez
sancho
sancionada
sancoes
sand
sanders
sandoval
sandra
sandro
sandy
saneamento
sang
sangalo
sangrenta
sangue
sanguinea
sanguineo
sanguineos
sanitaria
sanitario
sans
sanscrito
sant
santa
santana
santander
santarem
santas
santi
santiago
santidade
santissima
santissimo
santista
santo
santos
santuario
santuarios
sao
sapatos
sapo
sapomag
sapucai
saque
saques
sar
sara
saragoca
sarah
saraiva
sarajevo
sardenha
sargento
sargentos
sarmento
sarney
sars
sas
sasha
sassanida
sat
sata
satanas
satelite
satelites
satellite
satira
satisfacao
satisfaz
satisfazer
satisfeito
sato
saturday
saturn
saturno
saudacao
saudade
saudades
saudaveis
saudavel
saude
saudi
saudita
saul
saulo
saunders
savage
save
savela
saw
sawyer
sax
saxao
saxe
saxoes
saxofone
saxon
saxonia
say
says
sb
sbs
sbt
sc
scala
scale
scandal
scarabaeidae
scarabs
scarecrow
scene
scenes
schedule
scherzer
scherzinger
schleswig
schltr
schmidt
schmitt
schneider
scholar
school
schoolmeesters
schools
schumacher
schuster
schwartz
schweizer
sci
scielo
science
sciences
scientific
scientist
scientists
scooby
score
scores
scotland
scott
scottish
scout
scream
screen
script
scripts
sd
se
sea
seabra
seal
sean
search
season
seasons
seattle
sebastian
sebastiao
sebastien
sec
seca
secao
secas
seccao
seccoes
secessao
seco
secoes
second
seconds
secos
secrecao
secret
secreta
secretamente
secretaria
secretariado
secretarias
secretario
secretarios
secretary
secretas
secreto
secretos
secrets
section
sector
secular
seculares
seculo
seculos
secundaria
secundarias
secundario
secundarios
security
seda
sede
sedes
sediada
sediado
sediar
sedimentos
sediou
see
seed
seen
sega
segmento
segmentos
segredo
segredos
segregacao
segue
seguem
seguia
seguiam
seguida
seguidas
seguido
seguidores
seguidos
seguimento
seguindo
seguinte
seguintes
seguir
seguiram
seguiu
segunda
segundas
segundo
segundos
segura
seguranca
segurando
segurar
seguras
seguro
seguros
sei
seidman
seine
seio
seios
seis
seita
seixas
seja
sejam
sejm
sela
selecao
seleccao
selecionada
selecionadas
selecionado
selecionados
selecionar
selecione
selecionou
selecoes
select
selected
selection
selena
seletiva
seletivo
self
seller
sellers
selling
selma
selo
selos
selva
selvagem
selvagens
sem
semana
semanais
semanal
semanalmente
semanario
semanas
semantica
semblante
semelhanca
semelhancas
semelhante
semelhantes
semente
sementes
semestre
semi
semiarido
semieixo
semifinais
semifinal
seminario
seminarios
sempre
sen
sena
senac
senado
senador
senadora
senadores
senao
senate
sendo
seneca
senecio
senegal
senha
senhor
senhora
senhoras
senhores
senhorio
senior
seniores
senna
sensacao
sensacoes
sense
sensibilidade
sensiveis
sensivel
senso
sensor
sensores
sensoriais
sensorial
sensu
sensual
senta
sentada
sentado
sentados
sentar
sente
sentem
sentenca
sentencas
senti
sentia
sentido
sentidos
sentimental
sentimento
sentimentos
sentindo
sentinel
sentinela
sentir
sentiram
sentiu
sentou
seo
seoul
sep
sepalas
separa
separacao
separada
separadamente
separadas
separado
separador
separados
separam
separando
separar
separaram
separatistas
separou
sept
september
sepulcro
sepultada
sepultado
sepultamento
sepultura
sepulturas
sequeira
sequel
sequence
sequences
sequencia
sequencias
sequer
sequestrado
sequestro
ser
sera
serafim
serao
serbia
serbie
serei
sereia
serem
serena
sereno
seres
serge
sergei
sergey
sergio
sergipano
sergipe
seria
seriado
seriados
serial
seriam
seriamente
serias
serie
series
serio
serios
sermao
sermoes
serpa
serpente
serpentes
serra
serrana
serrano
serrao
serras
sertaneja
sertanejo
sertao
sertoes
serve
servem
server
servia
serviam
service
services
servico
servicos
servida
servido
servidor
servidores
servindo
servio
servios
servir
serviram
serviria
serviu
servo
servos
ses
sesc
sesi
sessao
sessenta
session
sessions
sessoes
set
seta
sete
setembro
setenta
setentrional
seth
setima
setimo
setlist
setor
setores
sets
setubal
seu
seul
seung
seus
seven
sevens
seventh
severa
several
severamente
severas
severino
severo
sevilha
sevilla
sex
sexo
sexos
sexta
sexto
sexuais
sexual
sexualidade
sexualmente
sexy
seychelles
seymour
sf
sg
sh
sha
shadow
shadows
shah
shake
shakespeare
shakira
shall
shan
shane
shang
shanghai
shannon
shape
shapiro
share
shares
shark
sharon
sharp
sharpe
shaun
shaw
shawn
she
sheeran
sheet
sheffield
sheila
sheldon
shell
shelley
shelton
shepard
shepherd
sherdog
sheridan
sherlock
sherman
shi
shield
shift
shin
shine
shinee
ship
ships
shirley
shock
shonen
shoot
shooting
shop
shopping
shore
short
shot
should
show
showbuzz
showbuzzdaily
shows
shtml
shu
shueisha
shulgin
si
sia
siao
siberia
sic
sicilia
siciliano
sicilias
siculo
sid
sida
side
sidney
sido
siecle
siegel
siegfried
siemens
siena
sierra
sig
siga
sigilo
sigla
siglo
sigma
sigmund
sign
signal
significa
significado
significados
significando
significante
significar
significativa
significativamente
significativas
significativo
significativos
significava
significou
signo
signos
signs
sigurd
sil
silaba
silabas
silas
silence
silencio
silenciosa
silencioso
silent
silesia
silicio
silva
silveira
silver
silverio
silves
silvestre
silvestres
silvia
silvio
sim
simao
simbad
simbolica
simbolico
simbolismo
simboliza
simbolo
simbolos
simeao
simetria
simetrica
similar
similares
simmons
simoes
simon
simone
simpatia
simpatico
simpatizantes
simple
simples
simplesmente
simplicidade
simplificada
simplificado
simposio
simpson
simpsons
sims
simulacao
simular
simultanea
simultaneamente
simultaneo
sin
sina
sinagoga
sinai
sinais
sinal
sinalizacao
sinatra
since
sincero
sinclair
sindical
sindicato
sindicatos
sindrome
sinfonia
sinfonica
sing
singapore
singapur
singapura
singer
singh
single
singles
singular
singulares
sinha
sinia
sino
sinodo
sinonimo
sinonimos
sinopse
sinos
sintaxe
sintese
sintetico
sintetizador
sintetizadores
sinto
sintomas
sintra
sipa
siqueira
sir
siria
sirio
sirios
sirius
sismo
sistema
sistemas
sistematica
sistematicamente
sistematico
sister
sisters
sitcom
site
sites
sitio
sitiodeciclismo
sitios
situa
situacao
situacoes
situada
situadas
situado
situados
situam
situation
situava
six
sixth
size
sj
sk
skate
skating
ski
skin
skinner
sky
sl
slalom
slam
slant
slash
slate
slater
slave
slavery
slayer
sleep
slide
slim
slogan
slovakia
slovenia
slow
sm
smackdown
small
smallville
smart
smartphones
smash
smile
smith
smithsonian
smoke
sms
sn
snake
snape
snooker
snoop
snow
snr
snyder
so
soa
soar
soares
sob
sobe
soberana
soberania
soberano
soberanos
sobrado
sobral
sobre
sobrenaturais
sobrenatural
sobrenome
sobretudo
sobrevive
sobrevivem
sobrevivencia
sobrevivente
sobreviventes
sobreviver
sobreviveram
sobreviveu
sobrinha
sobrinho
sobrinhos
soc
soccer
soccerway
sochi
sociais
social
socialismo
socialist
socialista
socialistas
socialmente
sociedad
sociedade
sociedades
societe
society
socio
socioambiental
sociologia
sociologo
sociology
socios
soco
socorro
socos
socrates
sodio
sodre
sofa
sofia
sofre
sofrem
sofrendo
sofrer
sofreram
sofreu
sofria
sofrida
sofrido
sofridos
sofrimento
soft
software
softwares
sogra
sogro
sois
soja
sol
sola
solange
solano
solanum
solar
solares
sold
soldado
soldados
soldier
soldiers
solene
solenidade
solicitacao
solicitado
solicitando
solicitar
solicitou
solid
solida
solidao
solidariedade
solido
solidos
solista
solitaria
solitario
solo
solomon
solos
solta
soltar
solteira
solteiro
solto
solucao
solucionar
solucoes
solution
solutions
som
soma
somali
somalia
somando
somar
sombra
sombras
sombria
sombrio
some
somebody
somente
someone
somerset
something
somme
somos
son
sonata
sonda
soneto
sonetos
song
songs
sonha
sonhar
sonho
sonhos
sonia
sonic
sonny
sono
sonora
sonoras
sonoridade
sonoro
sonoros
sons
sony
soo
soompi
soon
sopa
sope
sophia
sophie
soprano
sopro
sorbonne
soro
sorocaba
sorocabana
sorrindo
sorrir
sorriso
sorriu
sorry
sort
sorte
sorteio
sos
sossego
sotaque
soto
sou
soube
soubesse
soul
souls
sound
sounds
soundtrack
source
sources
sous
sousa
south
southampton
southeast
southern
southwest
souto
souza
soviet
sovietica
sovieticas
sovietico
sovieticos
sowie
soy
soyuz
sozinha
sozinho
sozinhos
sp
spa
space
spacer
spacex
spain
span
spanish
sparks
speak
spears
spec
special
specialist
species
spectrum
speech
speed
spencer
spermatophyta
spice
spider
spiegel
spielberg
spike
spin
spirit
split
spongebob
sport
sporting
sports
sportv
spot
spotify
spotlight
spp
spring
springer
springfield
springs
sprint
spurs
sputnik
spy
sq
sql
sqrt
squad
square
sr
sra
sri
srzd
ss
ssc
st
stacy
stade
stadium
staff
stage
stalin
stan
stand
standard
standards
standing
stanford
stanley
stanton
star
stark
starr
starring
stars
start
startle
starts
startup
stat
state
statement
states
static
station
statistica
statistical
statistiche
statistics
statistik
statistiques
statistisches
statoids
stats
status
stay
steam
steel
steele
steelers
stefan
stefani
stefano
steffen
stein
steiner
stella
stellar
step
stephan
stephane
stephanie
stephen
stephens
steps
sterling
stern
steve
steven
stevens
stevenson
stevie
stewart
stf
still
sting
stj
stock
stockholm
stokes
stone
stones
stop
store
storia
stories
storm
story
straight
strand
strange
stranger
strasbourg
strategic
strategy
strauss
stream
streaming
street
streets
streisand
stress
strike
strikeforce
strikes
string
strings
strip
strong
structural
structure
structures
struggle
sts
stuart
student
students
studies
studio
studios
study
stuff
stuttgart
style
styles
su
sua
suarez
suas
suave
suaves
sub
subconjunto
subdivisao
subdivision
subdivisoes
subespecie
subespecies
subfamilia
subgenero
subgrupo
subida
subindo
subir
subiram
subita
subitamente
subito
subiu
subjacente
subjuntivo
sublime
submarino
submarinos
submeter
submetida
submetido
submetidos
submissao
submundo
subordem
subordinada
subordinado
subordinados
subscricao
subsequente
subsequentemente
subsequentes
subsidiaria
subsidios
subsistencia
subsolo
subsp
substancia
substancial
substancialmente
substancias
substantivo
substantivos
substitui
substituicao
substituida
substituidas
substituido
substituidos
substituindo
substituir
substituiu
substituto
substrato
subterranea
subterraneas
subterraneo
subterraneos
subtropicais
subtropical
suburbio
suburbios
success
sucede
sucedendo
suceder
sucedeu
sucedida
sucedidas
sucedido
sucedidos
sucessao
sucessivamente
sucessivas
sucessivos
sucesso
sucessor
sucessora
sucessores
sucessos
such
suco
sud
sudan
sudao
sudeste
suditos
sudoeste
sudtirol
sue
sueca
suecia
sueco
suecos
suetonio
suez
suficiente
suficientemente
suficientes
sufixo
sufragio
sugababes
sugar
sugere
sugerem
sugerido
sugerindo
sugerir
sugeriram
sugeriu
sugestao
sugestoes
sui
suica
suicida
suicide
suicidio
suico
suicos
suit
suite
suja
sujeita
sujeitas
sujeito
sujeitos
sujo
sul
sula
sullivan
sultanato
sultao
sum
suma
sumario
sumatra
summary
summer
summerslam
summit
sumo
sun
sundance
sunday
sung
sunny
suns
sunset
sunshine
suor
super
supera
superacao
superada
superado
superando
superar
supercopa
superesportes
superfamilia
superficiais
superficial
superficie
superficies
supergirl
superintendencia
superintendente
superior
superiores
superioridade
superliga
superman
supermercado
supermercados
supernatural
supernova
superou
superstar
supertaca
supervisao
supervisionar
supervisor
suplementar
suplemento
suplente
supoe
suponha
supor
suporta
suportada
suportado
suportam
suportar
suporte
suportes
suposicao
suposta
supostamente
suposto
supostos
suppl
supplement
support
suprema
supremacia
supreme
supremo
supressao
suprimento
suprimentos
suprir
sur
surda
surdo
surdos
surf
surface
surge
surgem
surgery
surgido
surgimento
surgindo
surgir
surgiram
surgiu
surinam
suriname
surpreende
surpreendente
surpreendentemente
surpreendeu
surpresa
surprise
surrey
surto
suru
survey
survival
survivor
sus
susan
susana
suspeita
suspeitas
suspeito
suspeitos
suspende
suspender
suspendeu
suspensa
suspensao
suspensas
suspense
suspenso
suspensos
suspiro
sussex
sustenido
sustenta
sustentabilidade
sustentacao
sustentado
sustentados
sustentam
sustentar
sustentavel
sustento
susto
sutherland
sutil
sutton
suzana
suzanne
suzano
suzuki
sv
sven
svenska
sverige
sveriges
sverigetopplistan
sw
swan
swaziland
sweden
swedish
swedishcharts
sweet
swift
swimming
swing
swiss
swisscharts
switch
switzerland
sword
sx
sy
sydney
sylvia
symphony
symposium
syndicat
syndrome
synopsis
synthesis
syracuse
syria
syrian
syst
system
systematic
systematics
systems
sz
szovetsege
t
t0
t1
t2
t3
t4
t5
t6
t7
t8
t9
ta
tab
tabaco
tabela
tabelas
table
tables
tabu
tabua
tabuas
tabuleiro
taca
tacas
tacito
tadeu
tae
taekwondo
tag
tai
tailandes
tailandia
taipei
tais
taiwan
tajikistan
tajiquistao
takahashi
take
takeover
takes
taking
tal
talbot
tale
talent
talento
talentos
talentoso
tales
talha
taliba
taliban
talk
talking
talks
talvez
tam
tamanha
tamanho
tamanhos
tamara
tambem
tambor
tambores
tamil
tampa
tampouco
tan
tanaka
tancredo
tang
tanger
tango
tania
tank
tanque
tanques
tanta
tantas
tanto
tantos
tanzania
tao
tap
tapa
tape
tapete
tapetes
tar
tara
tarantulas
tarcisio
tarde
tardes
tardia
tardio
tarefa
tarefas
target
tarifa
tarifas
tarso
tartaro
tartaruga
tartarugas
tarzan
tas
task
tasmania
taste
tata
tate
tatiana
tatica
taticas
tatico
tatyana
tau
taubate
taunay
taurus
tavares
tavira
tavora
tax
taxa
taxas
taxi
taxis
taxon
taxones
taxonomia
taxonomic
taxonomica
taxonomy
taylor
tb
tc
tcheca
tcheco
tchecoslovaquia
tcm
tcp
td
te
tea
teacher
teaching
team
teams
tears
teaser
teatrais
teatral
teatro
teatros
tebas
tech
technical
techniques
technologies
technology
tecido
tecidos
tecla
tecladista
teclado
teclados
teclas
tecnica
tecnicamente
tecnicas
tecnico
tecnicos
tecnologia
tecnologias
tecnologica
tecnologicas
tecnologico
tecnologicos
tecto
ted
teddy
teen
teenage
teera
teia
teil
teixeira
tejo
tel
tela
telas
tele
telecom
telecomunicacoes
teledramaturgia
telefilme
telefone
telefones
telefonia
telefonica
telefonicas
telegrafos
telegrama
telegraph
telejornal
telemaco
telemundo
telenovela
telenovelas
teles
telescope
telescopio
telescopios
telesp
telespectadores
televisa
televisao
television
televisiva
televisivo
telhado
telhados
telhas
tell
telles
tem
tema
temas
tematica
tematicas
tematico
tematicos
teme
temendo
temer
temia
temor
temos
temperadas
temperado
temperamento
temperatura
temperaturas
tempestade
tempestades
templarios
temple
templo
templos
tempo
temporada
temporadas
temporais
temporal
temporaria
temporariamente
temporarias
temporario
tempos
temps
ten
tenda
tende
tendem
tendencia
tendencias
tendo
tenente
tenerife
tenha
tenham
tenho
tenis
tenista
tennessee
tennis
tenor
tens
tensao
tensoes
tenta
tentacao
tentado
tentam
tentando
tentar
tentaram
tentativa
tentativas
tentava
tentavam
tente
tentou
teobaldo
teodora
teodorico
teodoro
teodosio
teofilo
teologia
teologica
teologico
teologo
teologos
teor
teorema
teoria
teorias
teorica
teoricamente
teoricas
teorico
teoricos
ter
tera
terao
terapeutica
terapia
terca
terceira
terceiro
terceiros
terco
tercos
terem
teremos
teresa
teresina
teresopolis
tereza
terezinha
teria
teriam
term
termas
termica
termico
termina
terminada
terminado
terminais
terminal
terminam
terminando
terminar
terminaram
terminaria
termino
terminologia
terminou
termo
termodinamica
termos
terms
terno
ternura
terra
terraco
terramoto
terras
terre
terreiro
terremoto
terreno
terrenos
terreo
terrestre
terrestres
territoriais
territorial
territorio
territorios
territory
terriveis
terrivel
terror
terrorism
terrorismo
terrorista
terroristas
terry
tes
tese
teses
tesla
tesoureiro
tesouro
tesouros
test
testa
testado
testament
testamento
testar
teste
testemunha
testemunhas
testemunho
testemunhos
testemunhou
testes
testing
tests
tete
teto
teu
teus
teve
texas
text
texteis
textil
texto
textos
texts
textstyle
textual
textura
tf
tg
th
thai
thailand
thais
thalia
thames
than
thank
that
thatcher
the
theater
theatre
theatro
theft
their
them
theme
then
theo
theodor
theodore
theology
theoretical
theorie
theories
theory
theplantlist
theraphosidae
therapy
there
these
theta
they
thiago
thierry
thing
things
think
thinking
third
this
thomas
thomaz
thompson
thomson
thor
thornton
those
thought
thousand
thrash
thread
threat
threatened
three
thriller
thrones
through
thunder
thursday
ti
tia
tiago
tiberio
tibet
tibetano
tibete
tico
tida
tidal
tido
tie
tiempo
tierra
tiete
tiffany
tiger
tigre
tigres
tijolo
tijolos
tijuca
til
till
tim
timber
timberlake
timbre
time
timeline
times
timida
timido
timing
timor
timoteo
timothy
tin
tina
tinha
tinham
tinhamos
tinta
tintas
tiny
tio
tip
tipica
tipicamente
tipicas
tipico
tipicos
tipo
tipografia
tipos
tira
tirada
tiradas
tiradentes
tirado
tiragem
tirando
tirano
tirar
tiras
tiro
tirol
tiros
tiroteio
tirou
tita
titan
titanic
titans
titas
title
titles
tito
titular
titulares
titulo
titulos
titus
tive
tivemos
tiver
tivera
tiveram
tiverem
tivesse
tivessem
tj
tk
tl
tlc
tm
tn
tna
tnt
to
tobago
tobias
toby
toca
tocada
tocadas
tocado
tocam
tocando
tocantins
tocar
tocaram
tocava
tocha
tocou
toda
todas
todavia
today
todd
todo
todos
together
togo
tokugawa
tokyo
tol
told
toledo
tolerancia
tolkien
toll
tolo
tom
toma
tomada
tomadas
tomado
tomados
tomam
tomando
tomar
tomara
tomaram
tomas
tomate
tomatoes
tomava
tomb
tombada
tombado
tombamento
tombo
tome
tommy
tomo
tomorrow
tomou
ton
tona
tonalidade
toneladas
tonga
toni
tonica
tonight
toninho
tons
tony
too
tool
tools
top
topical
topico
topicos
topo
topografia
topologia
toponimia
toponimo
toponimos
tops
toque
toques
toquio
tor
tora
torax
torcedor
torcedores
torch
torcida
torcidas
torino
tormenta
torna
tornado
tornados
tornam
tornando
tornar
tornara
tornaram
tornarem
tornaria
tornasse
tornava
torne
torneio
torneios
torneo
torno
tornou
toro
toronto
torpedo
torque
torre
torres
tortura
torturado
toscana
totais
total
totalidade
totalizando
totalmente
totals
toto
tottenham
touch
touchdown
touchdowns
toulousain
toulouse
tour
tourism
tournament
touro
touros
tours
toward
towards
tower
town
towns
townsend
township
toxic
toxicidade
toxico
toxicos
toy
toyota
tp
tpls
tq
tr
tra
trabalha
trabalhado
trabalhador
trabalhadora
trabalhadores
trabalham
trabalhando
trabalhar
trabalharam
trabalhava
trabalhavam
trabalhista
trabalhistas
trabalho
trabalhos
trabalhou
traca
tracado
tracao
tracar
tracas
tracia
track
tracks
traco
tracos
tracy
trad
trade
tradicao
tradicionais
tradicional
tradicionalmente
tradicoes
tradition
traditional
traducao
traducoes
tradutor
traduz
traduzida
traduzido
traduzidos
traduzir
traduziu
trafego
traffic
traficante
traficantes
trafico
tragedia
tragedy
trager
tragica
tragico
traicao
traidor
trail
trailer
train
training
trajano
traje
trajes
trajeto
trajetoria
trama
trampolim
tranquila
tranquilidade
tranquilo
trans
transacao
transacoes
transactions
transcricao
transfer
transfere
transferencia
transferencias
transferida
transferidas
transferido
transferidos
transferindo
transferir
transferiu
transfermarkt
transform
transforma
transformacao
transformacoes
transformada
transformado
transformados
transformam
transformando
transformar
transformaram
transformation
transformou
transicao
transilvania
transit
transition
transitivo
transito
transl
translated
translation
transliteracao
transmissao
transmissoes
transmite
transmitida
transmitidas
transmitido
transmitidos
transmitindo
transmitir
transmitiu
transneptunian
transnetuniano
transparencia
transparente
transplante
transport
transporta
transportado
transportados
transportando
transportar
transportation
transporte
transportes
transtorno
transtornos
transversal
trap
tras
traseira
traseiras
traseiro
trata
tratada
tratadas
tratado
tratados
tratam
tratamento
tratamentos
tratando
tratar
tratava
trato
tratos
tratou
trauma
trava
travada
trave
travel
travessa
travessia
travis
traz
trazem
trazendo
trazer
trazia
traziam
trazida
trazidas
trazido
trazidos
tre
treasure
treatment
treaty
trecho
trechos
tree
trees
tregua
treina
treinado
treinador
treinadores
treinados
treinamento
treinamentos
treinando
treinar
treino
treinos
treinou
trek
trem
tremendo
trends
trens
trent
trento
tres
trevas
trevisan
trevor
treze
trezentos
tri
trial
triangle
triangular
triangulo
triangulos
tribais
tribal
tribo
tribos
tribuna
tribunais
tribunal
tribune
tribuno
tributacao
tributaria
tributario
tribute
tributo
tributos
tricampeao
tricampeonato
trick
tricolor
tridimensional
trieste
trigo
trilha
trilhas
trilho
trilhos
trilogia
trimestre
trincheiras
trindade
trinidad
trinity
trinta
trio
trip
tripla
triple
triplice
triplo
tripoli
tripulacao
tripulantes
tristao
triste
tristes
tristeza
triumph
triunfo
trivela
troca
trocado
trocando
trocar
trocas
troco
trocou
trofeu
trofeus
troia
trois
trombone
trompete
tronco
troncos
trono
troops
tropa
tropas
trophy
tropicais
tropical
tropico
tropicos
trouble
trouxe
trouxeram
trovao
troy
truck
true
trujillo
truman
trump
truques
trust
trustees
truth
try
ts
tse
tsunami
tt
tu
tua
tuas
tubarao
tubaroes
tuberculose
tubingen
tubo
tubos
tucano
tucker
tudo
tudor
tuesday
tufao
tulio
tumba
tumor
tumores
tumulo
tumulos
tumulto
tuna
tuneis
tunel
tunes
tunica
tunis
tunisia
tupi
turbina
turbinas
turbo
turbulencia
turca
turcas
turco
turcos
turim
turing
turingia
turismo
turista
turistas
turistica
turisticas
turistico
turisticos
turkey
turkish
turkmenistan
turma
turn
turne
turner
turnes
turning
turno
turnos
turns
turquia
tutela
tutor
tutorial
tuvalu
tv
tvbythenumbers
tve
tvi
tvline
tvs
tw
twain
tweet
twentieth
twenty
twice
twilight
twin
twins
twist
twitter
two
tx
txt
ty
tyler
typ
type
types
typhoon
tyson
tz
u
u0
u1
u2
u3
u4
u5
u6
u7
u8
u9
ua
uai
ub
uber
uberaba
uberlandia
ubisoft
uboat
ubuntu
uc
uci
ucla
ucrania
ucraniana
ucraniano
ucranianos
ud
udn
ue
uefa
uf
ufba
ufc
ufmg
ufrgs
ufrj
ufsc
ug
uganda
uh
uhf
ui
uicn
uj
uk
ukraina
ukraine
ukrainian
ul
ulisses
ulmer
ulrich
ultima
ultimamente
ultimas
ultimate
ultimo
ultimos
ultra
ultramar
ultramarino
ultrapassa
ultrapassado
ultrapassando
ultrapassar
ultrapassou
ultratop
ultravioleta
ulysses
um
uma
umas
umbanda
umberto
umidade
umidas
umido
un
una
unanime
unanimidade
unb
uncharted
und
under
underground
understanding
undertaker
une
unem
unesco
unesp
unforgettable
unhas
uni
uniao
unica
unicamente
unicamp
unicas
unicef
unico
unicos
unida
unidade
unidades
unidas
unidense
unido
unidos
unificacao
unificada
unificado
uniforme
uniformes
unindo
union
unique
unir
uniram
unit
unitario
united
units
unity
uniu
univ
universais
universal
universe
universidad
universidade
universidades
universitaria
universitario
universitarios
universitat
universite
university
universo
univision
unix
unknown
uno
uns
until
unveils
uo
uol
up
upcoming
update
updated
updates
upon
upper
uppsala
ups
uq
ur
uranio
urano
urban
urbana
urbanas
urbanismo
urbanizacao
urbano
urbanos
urbe
urgencia
urgente
urgentes
urina
url
urna
urnas
urs
ursa
urso
ursos
urss
ursula
urubu
uruguai
uruguaia
uruguaiana
uruguaio
uruguay
us
usa
usada
usadas
usado
usados
usam
usando
usar
usaram
usatoday
usava
usavam
usb
usda
use
used
user
users
usgs
usher
usina
usinas
using
uso
usos
usou
usp
uss
usual
usualmente
usuario
usuarios
ut
utad
utah
utc
uteis
utensilios
utero
uti
util
utilidade
utilities
utiliza
utilizacao
utilizada
utilizadas
utilizado
utilizador
utilizadores
utilizados
utilizam
utilizando
utilizar
utilizaram
utilizava
utilizavam
utilizou
utopia
utrecht
uu
uv
uva
uvas
uw
ux
uy
uz
uzbekistan
uzbequistao
v
v0
v1
v2
v3
v4
v5
v6
v7
v8
v9
va
vaca
vacas
vaccine
vacina
vacinacao
vacinas
vacuo
vae
vaga
vagamente
vagas
vagina
vago
vagoes
vai
vaidade
vais
val
vala
valadares
valdes
vale
valenca
valencia
valenciana
valendo
valente
valentim
valentin
valentina
valentine
valentino
valer
valeria
valerie
valerio
vales
valeu
valia
valida
validade
validas
valido
validos
valiosa
valioso
valiosos
valladolid
valle
valley
valois
valor
valores
valorizacao
valparaiso
valsa
value
values
valverde
valvula
valvulas
vamos
vampire
vampiro
vampiros
van
vancouver
vanessa
vanguarda
vanity
vantagem
vantagens
vanuatu
vao
vapor
var
vara
varanda
varao
varejo
varela
varepsilon
vargas
varia
variacao
variacoes
variada
variadas
variado
variados
variam
variando
variante
variantes
variar
varias
variaveis
variavel
variedade
variedades
variety
varinha
variola
varios
various
varphi
varsovia
varzea
varzim
vas
vasco
vasconcellos
vasconcelos
vascular
vaso
vasos
vassalo
vassalos
vasta
vastas
vasto
vatican
vaticano
vatikan
vaughan
vaz
vazamento
vazao
vazia
vazio
vazios
vazquez
vb
vc
vd
ve
veado
vec
vedras
veem
veg
vega
vegas
vegetacao
vegetais
vegetal
veia
veias
veiculo
veiculos
veiga
veio
veit
veja
vejo
vel
vela
velas
velasco
velasquez
velazquez
velez
velha
velhas
velhice
velho
velhos
velocidade
velocidades
veloso
velvet
vem
vemos
ven
venancio
vence
vencedor
vencedora
vencedoras
vencedores
vencem
vencendo
vencer
venceram
venceu
vencida
vencido
vencidos
venda
vendas
vende
vendedor
vendedores
vendendo
vender
venderam
vendeu
vendida
vendidas
vendido
vendidos
vendo
veneno
veneracao
veneravel
veneto
veneza
venezia
venezuela
venezuelana
venezuelano
venha
venham
venho
venice
venom
ventilacao
vento
ventos
ventral
ventre
ventura
venture
venus
ver
vera
veracidade
veracruz
verao
verba
verbais
verbal
verbandsgemeinde
verbas
verbete
verbetes
verbo
verbos
verdade
verdadeira
verdadeiramente
verdadeiras
verdadeiro
verdadeiros
verdades
verde
verdes
verdi
vereador
vereadora
vereadores
veremos
verge
vergonha
verifica
verificacao
verificado
verificar
verificou
verifique
verissimo
verlag
vermelha
vermelhas
vermelho
vermelhos
vermes
vermont
vernon
veroes
verona
veronica
versa
versailles
versalhes
versao
versatil
versiculo
version
verso
versoes
versos
versus
vert
vertebrados
vertente
vertentes
verticais
vertical
vertice
vertices
vertigo
very
verzeichnis
ves
vespas
vespera
vesperas
veste
vestes
vestfalia
vestibular
vestida
vestido
vestidos
vestigios
vestindo
vestir
vestiu
vestuario
veterano
veteranos
veterinaria
veto
vetor
vetores
vetorial
vettel
veu
vevo
vez
vezes
vf
vg
vh
vhf
vhs
vi
via
viabilidade
viacao
viacom
viaduto
viagem
viagens
viaja
viajam
viajando
viajante
viajantes
viajar
viajaram
viajou
vial
viam
viana
vianna
vias
viavel
vibe
vibracao
vibracoes
vibrante
vic
vicariato
vice
vicente
vicio
vicios
vickers
vicosa
victims
victor
victoria
victory
vida
vidal
vidas
vide
video
videoclipe
videoclipes
videogame
videogames
videos
vidro
vidros
vie
viegas
vieira
viena
vienna
vier
viera
vieram
vies
viesse
vietna
vietnam
vietname
vietnamita
view
viewers
views
vigario
vigencia
vigente
vigesima
vigesimo
vigia
vigilancia
vigilante
vigo
vigor
vigueur
vii
viic
viii
viking
vikings
viktor
vil
vila
vilao
vilar
vilarejo
vilas
vilela
vilhena
villa
village
villages
villas
ville
villeneuve
viloes
vim
vimos
vinagre
vince
vincent
vincenzo
vinci
vinculada
vinculado
vinculados
vinculo
vinculos
vinda
vindas
vindo
vindos
vingadores
vinganca
vingar
vinha
vinham
vinhas
vinho
vinhos
vinicius
vinil
vintage
vinte
vinyl
viola
violacao
violacoes
violao
[...]
