!
"
#
##0
##1
##10
##11
##12
##13
##14
##15
##16
##17
##18
##19
##2
##20
##21
##22
##23
##24
##25
##26
##27
##28
##29
##3
##30
##31
##32
##33
##34
##35
##36
##37
##38
##39
##4
##40
##41
##42
##43
##44
##45
##46
##47
##48
##49
##5
##50
##51
##52
##53
##54
##55
##56
##57
##58
##59
##6
##60
##61
##62
##63
##64
##65
##66
##67
##68
##69
##7
##70
##71
##72
##73
##74
##75
##76
##77
##78
##79
##8
##80
##81
##82
##83
##84
##85
##86
##87
##88
##89
##9
##90
##91
##92
##93
##94
##95
##96
##97
##98
##99
$
%
&
'
(
)
*
+
,
-
.
/
0
00
000
0000
000000
001
002
003
007
01
010
02
03
04
05
06
07
08
09
1
10
100
1000
10000
101
1016
102
103
1030
104
1044
105
106
107
108
1080
109
11
110
1100
111
112
113
114
1143
115
116
117
118
119
12
120
1200
121
12102001
122
123
124
125
1250
126
127
128
129
13
130
1300
131
132
133
134
135
136
137
1377
138
1385
139
14
140
1400
141
142
143
144
145
1450
1453
146
1460
147
148
149
1492
1495
15
150
1500
1503
151
1510
1512
1513
1514
1515
1516
1517
1519
152
1520
1521
1525
1526
1527
153
1530
1531
1532
1533
1534
1535
1536
1537
1538
154
1540
1541
1542
1543
1545
1547
1549
155
1550
1552
1553
1554
1555
1556
1557
1558
1559
156
1560
1561
1565
1566
1567
1568
157
1570
1572
1575
1578
158
1580
1582
1583
1584
1585
1587
1588
1589
159
1590
1592
1595
1597
1598
1599
16
160
1600
1602
1603
1604
1605
1606
1607
1608
1609
161
1610
1611
1612
1614
1615
1616
1617
1618
1619
162
1620
1621
1622
1623
1624
1625
1626
1627
1629
163
1630
1632
1633
1634
1635
1637
1638
164
1640
1641
1642
1643
1644
1645
1646
1648
1649
165
1650
1654
1655
1656
166
1660
1661
1662
1663
1665
1666
1667
1668
167
1670
1672
1674
1675
168
1680
1682
1683
1685
1686
1688
1689
169
1690
1694
1697
1699
17
170
1700
1701
1702
1704
1707
1708
1709
171
1710
1711
1712
1713
1714
1715
1716
1717
1718
1719
172
1720
1721
1722
1723
1724
1725
1726
1727
1728
1729
173
1730
1732
1733
1734
1735
1736
1737
1738
1739
174
1740
1741
1742
1743
1744
1745
1746
1747
1748
1749
175
1750
1751
1752
1753
1754
1755
1756
1757
1758
1759
176
1760
1761
1762
1763
1764
1765
1766
1767
1768
1769
177
1770
1771
1772
1773
1774
1775
1776
1777
1778
1779
178
1780
1781
1782
1783
1784
1785
1786
1787
1788
1789
179
1790
1791
1792
1793
1794
1795
1796
1797
1798
1799
18
180
1800
1801
1802
1803
1804
1805
1806
1807
1808
1809
181
1810
1811
1812
1813
1814
1815
1816
1817
1818
1819
182
1820
1821
1822
1823
1824
1825
1826
1827
1828
1829
183
1830
1831
1832
1833
1834
1835
1836
1837
1838
1839
184
1840
1841
1842
1843
1844
1845
1846
1847
1848
1849
185
1850
1851
1852
1853
1854
1855
1856
1857
1858
1859
186
1860
1861
1862
1863
1864
1865
1866
1867
1868
1869
187
1870
1871
1872
1873
1874
1875
1876
1877
1878
1879
188
1880
1881
1882
1883
1884
1885
1886
1887
1888
1889
189
1890
1891
1892
1893
1894
1895
1896
1897
1898
1899
19
190
1900
1901
1902
1903
1904
1905
1906
1907
1908
1909
191
1910
1911
1912
1913
1914
1915
1916
1917
1918
1919
192
1920
1921
1922
1923
1924
1925
1926
1927
1928
1929
193
1930
1931
1932
1933
1934
1935
1936
1937
1938
1939
194
1940
1941
1942
1943
1944
1945
1946
1947
1948
1949
195
1950
1951
1952
1953
1954
1955
1956
1957
1958
1959
196
1960
1961
1962
1963
1964
1965
1966
1967
1968
1969
197
1970
1971
1972
1973
1974
1975
1976
1977
1978
1979
198
1980
1981
1982
1983
1984
1985
1986
1987
1988
1989
199
1990
1991
1992
1993
1994
1995
1996
1997
1998
1999
2
20
200
2000
2001
2002
2003
2004
2005
2006
2007
2008
2009
201
2010
2011
2012
2013
2014
2015
2016
2017
2018
2019
202
2020
2021
2022
2023
2024
2025
203
2030
204
205
206
207
208
209
21
210
211
212
213
214
215
216
217
218
219
22
220
221
222
223
224
225
226
227
228
229
23
230
231
232
233
234
235
236
237
238
239
24
240
241
242
243
244
245
246
247
248
249
25
250
2500
251
252
253
254
255
256
257
258
259
26
260
261
262
263
264
265
266
267
268
269
27
270
271
272
273
274
275
276
277
278
279
28
280
281
282
283
284
285
286
287
288
289
29
290
291
292
293
294
295
296
297
298
299
3
30
300
3000
301
302
303
304
305
306
307
308
309
31
310
311
312
313
314
315
316
3166
317
318
319
32
320
321
322
323
324
325
326
327
328
329
33
330
331
332
333
334
335
336
337
338
339
34
340
341
342
343
344
345
346
347
348
349
35
350
351
352
353
354
355
356
357
358
359
36
360
361
362
363
364
365
366
367
368
369
37
370
371
372
373
374
375
376
377
378
379
38
380
381
382
383
384
385
386
387
388
389
39
390
391
392
393
394
395
396
397
398
399
4
40
400
4000
401
402
403
404
405
406
407
408
409
41
410
411
412
413
414
415
416
417
418
419
42
420
421
422
423
424
425
426
427
428
429
43
430
431
432
433
434
435
436
437
438
439
44
440
441
442
443
444
445
446
447
448
449
45
450
451
452
453
454
455
456
457
458
459
46
460
461
462
463
464
465
466
467
468
469
47
470
471
472
473
474
475
476
477
478
479
48
480
482
483
485
486
487
488
489
49
490
491
492
493
494
495
496
497
498
499
5
50
500
5000
501
502
503
504
505
506
507
508
509
51
510
511
512
514
515
517
518
52
520
521
523
524
525
527
528
529
53
530
531
532
533
534
535
536
537
538
539
54
540
542
55
550
552
553
555
556
56
560
565
569
57
570
576
58
580
582
583
585
59
590
591
6
60
600
601
602
603
604
609
61
610
611
612
613
618
62
620
625
627
628
63
630
631
632
635
639
64
640
645
647
649
65
650
66
660
666
67
670
674
68
680
69
7
70
700
707
71
712
72
720
727
73
730
737
74
747
75
750
76
760
767
77
777
78
780
787
79
796
8
80
800
8001
802
81
82
820
83
84
840
85
850
86
860
87
870
88
880
882
89
9
90
900
90264
91
911
92
93
930
94
95
950
951
96
960
97
970
972
978
98
989
99
999
:
;
<
=
>
?
@
\
^
_
`
a
aa
aaliyah
aaron
ab
aba
abade
abadia
abaixo
abandona
abandonada
abandonadas
abandonado
abandonados
abandonando
abandonar
abandonaram
abandono
abandonou
abas
abastecer
abastecimento
abate
abatido
abba
abbey
abbott
abby
abc
abdicac
abdo
abdominal
abdul
abdullah
abe
abeca
abedala
abel
abelha
abelhas
abenc
aberdeen
aberrac
aberta
abertamente
abertas
aberto
abertos
abertura
aberturas
abi
abigail
abismo
abo
abolic
abolicionista
abolida
abolido
aborda
abordado
abordados
abordagem
abordagens
abordando
abordar
abordou
abori
aborto
about
above
abr
abra
abraa
abrac
abraham
abrams
abrange
abrangem
abrangendo
abrangente
abrantes
abre
abrem
abreu
abreviac
abreviada
abreviado
abreviatura
abri
abria
abriga
abrigar
abrigava
abrigo
abrigos
abrigou
abril
abrindo
abrir
abriram
abriu
abrivio
abro
abrs
abruptamente
abs
abside
absoluta
absolutamente
absoluto
absolutos
absolvido
absorc
absorver
absorvida
absorvido
abstenc
abster
abstrac
abstract
abstrata
abstrato
absurda
absurdo
abu
abunda
abundante
abundantes
abusar
abusivo
abuso
abusos
abyss
ac
aca
acaba
acabado
acabam
acabamento
acabando
acabar
acabara
acabaram
acabaria
acabava
acabei
acabou
acacia
acacias
acade
academia
academias
academic
academy
acalmar
acalypha
acampamento
acampamentos
acas
acasalamento
acaso
acc
access
accessed
according
account
ace
acedida
acedido
aceita
aceitac
aceitam
aceitando
aceitar
aceitaram
aceitas
aceite
aceito
aceitos
aceitou
acelerac
acelerado
acelerar
acento
acentuada
acentuado
acer
acerca
acerta
acertado
acertar
acerto
acertou
acervo
acervos
aces
acessada
acessado
acessar
acessi
acessibilidade
acesso
acessos
acha
achado
achados
acham
achando
achar
acharam
acharem
acharya
achava
achavam
ache
achei
achievement
acho
achou
acid
acidental
acidentalmente
acidente
acidentes
acima
aciona
acionista
acionistas
aclamac
aclamada
aclamado
acm
aco
acolhe
acolher
acolheu
acolhimento
acomodac
acomodar
acompanha
acompanhada
acompanhadas
acompanhado
acompanhados
acompanham
acompanhamento
acompanhando
acompanhar
acompanharam
acompanhava
acompanhou
aconselha
aconselhamento
aconselhou
acontec
acontece
acontecem
acontecendo
acontecer
acontecera
aconteceram
aconteceria
aconteceu
acontecia
acontecido
acontecimento
acontecimentos
acoplamento
acorda
acordado
acordar
acordes
acordo
acordos
acordou
acos
acre
acredita
acreditam
acreditando
acreditar
acreditava
acreditavam
acredite
acredito
acreditou
acres
acrescenta
acrescentado
acrescentando
acrescentar
acrescentei
acrescentou
acro
across
act
acta
action
activa
actividade
actividades
activo
activos
acto
actor
actores
actors
actos
actriz
actuac
actuais
actual
actualidade
actualizac
actualmente
acu
acudiu
acumula
acumulac
acumulada
acumulado
acumulados
acumulando
acumular
acumulou
acusa
acusac
acusada
acusado
acusados
acusando
acusar
acusaram
acusou
ad
ada
adailton
adalberto
adam
adams
adapta
adaptac
adaptada
adaptadas
adaptado
adaptados
adaptar
adaptou
adas
add
addison
ade
adelaide
adele
ademais
ademar
ademir
adepto
adeptos
adequac
adequada
adequadamente
adequadas
adequado
adequados
adequar
adere
aderir
aderiram
aderiu
ades
adesa
adeus
adi
adiada
adiado
adiamento
adianta
adiante
adiar
adic
adiciona
adicionada
adicionadas
adicionado
adicionados
adicionais
adicional
adicionalmente
adicionando
adicionar
adicione
adicionei
adicionou
adjacente
adjacentes
adjetivo
adjetivos
adjunto
adler
adm
admin
administra
administrac
administrada
administradas
administrado
administrador
administradora
administradores
administrados
administrar
administrat
administration
administrativa
administrativamente
administrativas
administrativo
administrativos
admira
admirac
admirado
admirar
admissa
admite
admitido
admitir
admitiu
adms
adn
ado
adobe
adoc
adolesce
adolescente
adolescentes
adolf
adolfo
adopc
ador
adora
adorac
adores
adorocinema
ados
adota
adotada
adotadas
adotado
adotados
adotando
adotar
adotaram
adotivo
adotou
adquire
adquirida
adquiridas
adquirido
adquiridos
adquirindo
adquirir
adquiriram
adquiriu
adria
adrian
adriana
adriano
adult
adulta
adultas
adulte
adulto
adultos
advance
advanced
adve
adventista
advento
adventure
adventures
adversa
adversos
adverte
advocacia
advogada
advogado
advogados
ae
aede
aedes
aero
aerodina
aeroespacial
aerona
aeronave
aeronaves
aeroporto
aeroportos
aew
af
afa
afasta
afastada
afastado
afastados
afastamento
afastando
afastar
afastou
afc
afe
afega
afeganista
afeic
afeta
afetada
afetadas
afetado
afetados
afetam
afetando
afetar
afeto
afetou
affair
affairs
affonso
afi
afiliac
afiliada
afiliadas
afiliado
afiliados
afim
afinal
afinidade
afins
afirma
afirmac
afirmado
afirmam
afirmando
afirmar
afirmaram
afirmava
afirmou
afluente
afluentes
afonso
afora
afra
afresco
afrescos
africa
african
africana
africanas
africano
africanos
afro
afrodite
afronta
after
afundado
afundados
afundar
afundou
ag
aga
again
against
agatha
age
agem
agency
agenda
agent
agente
agentes
ages
agilidade
agindo
agir
agitac
agitado
agiu
aglomerac
aglomerado
aglomerados
agnes
ago
agonia
agora
agostinho
agostini
agosto
agra
agraciado
agraciados
agrada
agradar
agradec
agradecer
agradecimento
agradou
agregac
agregada
agregado
agregador
agregados
agremiac
agressa
agressiva
agressividade
agressivo
agresso
agreste
agri
agricola
agricultor
agricultores
agricultura
agrilus
agro
agronego
agronomia
agropecua
agrostis
agrupa
agrupadas
agrupados
agrupamento
agrupamentos
agua
aguardando
aguardar
aguardo
aguas
aguda
agudo
aguiar
aguilar
aguilera
aguirre
agulha
agulhas
agusti
ah
ahi
ahmad
ahmed
ahn
ahoy
ai
aid
aids
aime
ain
ainda
air
airbus
aircraft
aires
airlines
airplay
airport
airways
ais
aise
aisne
aj
ajax
ajuda
ajudado
ajudam
ajudando
ajudante
ajudar
ajudaram
ajudaria
ajudava
ajude
ajudou
ajusta
ajustado
ajustar
ajuste
ajustes
ak
aka
akira
al
ala
alabama
alaf
alagoano
alagoas
alain
alameda
alan
alargamento
alarme
alas
alasca
alaska
alavanca
alba
albane
albano
albany
albergaria
albert
alberta
alberto
albertoleoncio
albin
albino
albion
albmont
albrecht
albufeira
album
albums
albuquerque
alc
alca
alcaide
alcala
alcanc
alcance
alceu
alchemilla
alchimista
alcides
alckmin
alcobac
alcoo
alcoolismo
alcora
alcunha
aldeia
aldeias
aldo
ale
aleato
aleatoriamente
alec
alega
alegac
alegada
alegadamente
alegado
alegam
alegando
alegar
alegaram
alego
alegoria
alegorias
alegou
alegre
alegrense
alegres
alegria
aleixo
alejandro
aleksandr
alem
alema
alemanha
alencar
alentejo
alepo
alerta
alertar
alertas
alertou
alessandra
alessandro
alex
alexa
alexander
alexandra
alexandre
alexandria
alexei
alexg
alexis
alfa
alfabe
alfabetizac
alfabeto
alferes
alfonso
alfred
alfredo
algarve
algas
alge
algo
algoda
algoritmo
algoritmos
algue
alguem
algum
alguma
algumas
alguns
alheia
alheio
alho
ali
alia
aliada
aliadas
aliado
aliados
alianc
alianza
alias
aliases
alicante
alice
alicia
alien
alienac
alieni
align
alignbars
alimenta
alimentac
alimentado
alimentam
alimentando
alimentar
alimentares
alimenti
alimento
alimentos
aline
alinhado
alinhados
alinhamento
aliou
alison
alistou
alive
aliviar
alkaloids
all
alla
allan
allen
alli
alliance
allianz
allison
allmusic
alma
almada
almagro
almanaque
almanc
almas
almeida
almir
almirante
almo
almoc
alo
alocac
aloe
alojamento
alone
alongado
alonso
alpes
alpha
alpina
alpino
alquimia
als
alsa
also
alt
alta
altamente
altar
altares
altas
alter
altera
alterac
alterada
alteradas
alterado
alterados
alterando
alterar
alterna
alternada
alternando
alternativa
alternativamente
alternativas
alternative
alternativo
alternativos
alterou
alteza
alti
altitude
altitudes
alto
altos
altura
alturas
alucinac
aluguel
alumi
alumni
aluna
aluno
alunos
alusa
alva
alvara
alvarenga
alvarez
alvaro
alvenaria
alves
alvim
alvin
alvinegro
alviverde
alvo
alvorada
alvos
always
alzheimer
am
ama
amada
amade
amadeu
amado
amador
amadora
amadores
amadurecimento
amaldic
amanda
amanha
amanhecer
amante
amantes
amapa
amar
amaral
amarante
amarela
amarelas
amarelo
amarelos
amargo
amaro
amava
amazing
amazo
amazon
amazonas
amazonense
ambas
amber
ambi
ambic
ambicioso
ambientada
ambientadas
ambientado
ambientados
ambientais
ambiental
ambiente
ambientes
ambiguidade
ambique
ambos
ambro
ambrose
ambula
amc
amd
ame
ameac
amelia
ameno
amenta
amento
amentos
ameri
america
american
americana
americanas
americano
americanos
americans
ames
amesterda
ami
amiga
amigas
amigo
amigos
amin
amines
aminoa
amir
amistoso
amistosos
amizade
amizades
amo
among
amor
amore
amores
amorim
amorosa
amoroso
amos
amostra
amostragem
amostras
amour
amparo
amphibian
amphibiaweb
ampla
amplamente
amplas
ampliac
ampliada
ampliado
ampliando
ampliar
ampliou
amplitude
amplo
amplos
amsterda
amsterdam
amt
amy
an
ana
anais
anal
anali
analisa
analisada
analisado
analisados
analisando
analisar
analisou
analista
analistas
analo
analogia
analysis
anarquia
anarquismo
anarquista
anarquistas
anasta
anastasia
anato
anatomia
anatomy
ancestrais
ancestral
ancestralidade
anchieta
anchor
ancia
ancient
and
anda
andaluzia
andam
andamento
andando
andar
andares
andava
andebol
anders
andersen
anderson
andes
ando
andorinha
andorra
andou
andrada
andrade
andre
andrea
andreas
andrei
andrew
andrews
andro
android
andy
ane
anel
aneli
anemia
anes
anexa
anexac
anexada
anexado
anexo
anexos
anfi
anfiteatro
anfitria
ange
angel
angela
angeles
angelina
angelo
angels
angiospe
angiosperm
angle
anglicana
anglo
angola
angolana
angolano
angra
angu
angular
angus
anha
anhalt
anhanguera
ani
anima
animac
animada
animadas
animado
animador
animadores
animados
animais
animal
animals
animation
anime
animes
anistia
anita
anitta
aniversa
anjo
anjos
anjou
ann
anna
annales
annals
anne
annette
annie
anniversary
anno
annos
annual
ano
anomalias
anonimato
anormal
anos
anotac
another
ans
anselmo
ansiedade
ansioso
ant
anta
antagonista
antagonistas
antas
ante
antecede
antecedente
antecedentes
antecessor
antecessora
antecessores
antecipac
antecipada
antecipado
antena
antenas
antepassados
anterior
anteriores
anteriormente
antero
antes
anthology
anthony
anti
antiae
antibio
anticorpos
antiga
antigamente
antigas
antigo
antigos
antiguidade
antiguidades
antilhas
antioquia
antiqua
antissemitismo
anto
antoine
antologia
antologias
anton
antoni
antonia
antonieta
antonino
antonio
antony
antropo
antropolo
antropologia
antue
antunes
anu
anua
anuais
anual
anualmente
anulac
anulado
anular
anuncia
anunciac
anunciada
anunciadas
anunciado
anunciados
anunciando
anunciar
anunciaram
anuncio
anunciou
any
anything
ao
aonde
aos
ap
apa
apache
apaga
apagada
apagadas
apagado
apagados
apagar
apagou
apaixona
apaixonada
apaixonado
apaixonou
apanhar
aparato
apare
aparec
aparece
aparecem
aparecendo
aparecer
aparecera
apareceram
apareceu
aparecia
apareciam
aparecida
aparecido
aparecimento
aparelho
aparelhos
aparenta
aparente
aparentemente
aparic
apartamento
apartamentos
apartheid
apca
apde
ape
apeadeiro
apego
apelac
apelidada
apelidado
apelido
apelidos
apelo
apelor
apelos
apelou
apenas
aperfeic
apertar
apertura
apesar
apetite
apg
aphanes
api
aplica
aplicac
aplicada
aplicadas
aplicado
aplicados
aplicam
aplicando
aplicar
aplicativo
aplicativos
aplicou
apo
apocali
apocalipse
apocalypse
apogeu
apoia
apoiada
apoiadas
apoiado
apoiadores
apoiados
apoiam
apoiando
apoiantes
apoiar
apoiaram
apoiava
apoiavam
apoio
apoios
apoiou
apollo
apolo
apolodoro
apologe
apologia
aponta
apontada
apontadas
apontado
apontados
apontam
apontamentos
apontando
apontar
apontaram
apontou
apos
aposentado
aposentadoria
aposentados
aposentar
aposentos
aposentou
aposta
apostas
aposto
app
apple
application
applications
applied
approach
aprec
aprecia
apreciac
apreciada
apreciado
apreciar
apreensa
aprende
aprendendo
aprender
aprendeu
aprendi
aprendido
aprendiz
aprendizado
aprendizagem
apresenta
apresentac
apresentada
apresentadas
apresentado
apresentador
apresentadora
apresentadores
apresentados
apresentam
apresentando
apresentar
apresentaram
apresentarem
apresentava
apresentavam
apresente
apresentou
april
aprimoramento
aprimorar
aprofundar
apropriac
apropriada
apropriadas
apropriado
apropriados
aprova
aprovac
aprovada
aprovadas
aprovado
aprovados
aprovar
aprovaram
aproveita
aproveitado
aproveitamento
aproveitando
aproveitar
aproveitou
aprovou
aprox
aproxima
aproximac
aproximada
aproximadamente
aproximado
aproximam
aproximando
aproximar
aproximava
aproximou
aptida
apto
aptos
apu
apud
apurac
apurar
aqua
aquaman
aquando
aque
aquecimento
aqueduto
aquela
aquelas
aquele
aqueles
aquella
aquelle
aquelles
aqueme
aqui
aquiles
aquilo
aquino
aquisic
aquita
ar
ara
arab
arabic
arac
aracaju
araga
araguaia
aram
arame
aranha
aranhas
arantes
arara
araraquara
araras
arau
arauca
araujo
arbi
arbitra
arbitragem
arbo
arbusto
arbustos
arc
arca
arcade
arcaico
arcanjo
arcebispo
arcebispos
arch
archaeology
archer
archibald
archie
architectural
architecture
archive
archived
archives
archivo
arco
arcos
arctiid
arctiidae
arde
ardenas
ardente
ardor
are
area
areia
areias
arem
arena
arenas
arenito
ares
aresta
arestas
arg
arge
argel
argentina
argentinas
argentino
argentinos
argila
argo
args
argumenta
argumentac
argumentam
argumentando
argumentar
argumentaram
argumento
argumentos
argumentou
ari
aria
ariana
arias
arie
ariel
arina
arino
arinos
aristides
aristo
aristocra
aristocracia
aristocrata
aritme
arizona
arkansas
arlindo
arm
arma
armac
armada
armadas
armadilha
armadilhas
armado
armador
armados
armadura
armaduras
armagedon
armamento
armamentos
armand
armando
armas
armaze
armazenado
armazenados
armazenamento
armazenar
arme
armisti
arms
armstrong
army
arn
arnaldo
arnold
aro
arol
aroma
arouca
around
arque
arqueiro
arqueiros
arqueo
arqueolo
arqueologia
arquibancada
arquibancadas
arquidiocese
arquiduque
arquiduquesa
arquipe
arquitecto
arquitectos
arquitectura
arquiteto
arquitetos
arquitetura
arquivada
arquivado
arquivamento
arquivar
arquivo
arquivos
arraial
arrancar
arranha
arranjador
arranjar
arranjo
arranjos
arrasta
arrasto
array
arre
arrecadac
arrecadando
arrecadar
arrecadou
arredondada
arredores
arremesso
arremessos
arrendamento
arrependimento
arroga
arrogante
arroio
arrondissement
arrow
arroz
arruda
arrumar
ars
arse
arsenal
art
arte
artefato
artefatos
arterial
artes
artesa
artesanal
artesanato
arthemius
arthropoda
arthur
arti
article
articles
articulac
articulado
articular
artifi
artificiais
artificial
artigo
artigos
artilharia
artilheiro
artilheiros
artist
artista
artistas
artists
artro
arts
artur
arturo
arvore
ary
as
asa
asas
ascende
ascendente
ascendeu
ascendia
ascensa
ase
asfalto
ash
ashley
asi
asia
asian
asilo
ask
asma
asp
aspas
aspecto
aspectos
aspirac
aspirante
aspx
ass
assad
assalto
assaltos
assassin
assassina
assassinada
assassinado
assassinados
assassinar
assassinato
assassinatos
assassino
assassinos
asse
assegura
assegurada
assegurado
assegurando
assegurar
assegurou
assemble
assembleia
assembleias
assembly
assemelha
assemelham
assenta
assentamento
assentamentos
assento
assentos
assessment
assessor
assessores
assessoria
assi
assim
assime
assimilac
assina
assinada
assinado
assinados
assinala
assinando
assinantes
assinar
assinaram
assinatura
assinaturas
assinou
assis
assiste
assistente
assistentes
assistida
assistido
assistindo
assistir
assistiram
assistiu
associa
associac
associada
associadas
associado
associados
associar
associated
association
associazione
associou
assume
assumem
assumida
assumido
assumindo
assumir
assumiram
assumiu
assunc
assunto
assuntos
asteca
astecas
astera
asteraceae
astero
asteroide
asteroides
aston
astra
astragalus
astral
astro
astrofi
astrologia
astronauta
astronautas
astrono
astronomia
astronomical
astros
astu
at
ata
ataca
atacada
atacado
atacados
atacam
atacando
atacante
atacantes
atacar
atacaram
atacou
atai
atalaia
atalanta
ataque
ataques
atari
ate
atei
atelie
atelier
atena
atenas
atenc
atenciosamente
atende
atendem
atendendo
atender
atendeu
atendida
atendidas
atendido
atendidos
atendimento
ateniense
atenienses
atentado
atentados
atento
aterro
atesta
atestada
atestado
atestam
atestar
ateus
athena
athletic
athletico
ati
atinge
atingem
atingida
atingidas
atingido
atingidos
atingindo
atingir
atingiram
atingiu
atira
atirador
atiradores
atirando
atirar
atirou
atitude
atitudes
ativa
ativac
ativado
ativamente
ativar
ativas
atividade
atividades
ativismo
ativista
ativistas
ativo
ativos
atla
atlanta
atlantic
atlantis
atlas
atle
atleta
atletas
atletismo
atmosfe
atmosfera
ato
atol
atomic
ator
atores
atos
atp
atra
atrac
atraem
atraente
atrai
atraindo
atrair
atraiu
atrapalhar
atrasado
atraso
atrasos
atrativo
atrativos
atrave
atravessa
atravessam
atravessando
atravessar
atravessou
atribuem
atribui
atribuic
atribuindo
atribuir
atribuiu
atributo
atributos
atrito
atriz
atrizes
atrocidades
attack
atua
atuac
atuado
atuais
atual
atualidade
atualizac
atualizada
atualizadas
atualizado
atualizados
atualizar
atualizou
atualmente
atuam
atuando
atuante
atuar
atuaram
atuava
atuba
atuou
au
auckland
audi
audiat
audic
audie
audiendi
audio
audiovisual
auditiva
audito
auditoria
audrey
auf
auflage
auge
august
augusta
auguste
augustin
augusto
augustus
aula
aulas
aulo
aumenta
aumentada
aumentado
aumentam
aumentando
aumentar
aumentaram
aumentava
aumento
aumentos
aumentou
aura
aure
aureliano
aurora
aus
auschwitz
ause
ausente
ausentes
austin
austra
austral
australia
australian
australiana
australianas
australiano
australianos
australis
austri
austria
austro
auta
autarquia
autarquias
aute
autenticidade
author
authority
authors
autismo
auto
autobiogra
autobiografia
autocarros
autoestrada
autoestradas
automa
automac
automatic
automaticamente
automo
automobili
automobilismo
automobilista
autonomia
autor
autora
autorais
autoral
autores
autoria
autoridade
autoridades
autorita
autoriza
autorizac
autorizada
autorizadas
autorizado
autorizados
autorizar
autorizou
autorrevisor
autos
auve
aux
auxi
auxilia
auxiliado
auxiliar
auxiliares
av
ava
avai
available
avalia
avaliac
avaliada
avaliadas
avaliado
avaliados
avaliando
avaliar
avaliou
avam
avanc
avant
avante
avatar
ave
avec
aveiro
avelino
avengers
avenida
avenidas
aventura
aventuras
aventureiro
aventureiros
avenue
average
avermelhada
aversa
avery
aves
avia
aviac
aviador
aviadores
aviation
avio
avis
avisa
avisado
avisar
aviso
avisos
avisou
aviv
avn
avo
avril
aw
award
awards
away
awb
ax
axe
axel
axioma
axiomas
ay
ayres
ayrton
az
azambuja
azar
azeite
azerbaija
azevedo
azteca
azuis
azul
azulejos
b
ba
baal
baba
babe
babel
babilo
baby
bac
bacalhau
bach
bacharel
bacharelado
bacia
bacias
back
background
backing
bacon
bacte
bad
bada
badajoz
baden
badminton
bado
bados
bae
bafta
bagagem
bagda
bage
bagunc
baha
bahamas
bahia
bai
baia
baiana
baiano
baianos
bailarina
baile
bailes
bailey
bairro
bairros
baixa
baixada
baixar
baixas
baixista
baixo
baixos
baja
baker
baku
bal
bala
balada
baladas
balanc
balas
balca
baldui
baldwin
bale
baleado
baleares
baleia
baleias
bali
ball
ballet
balnea
balo
balsa
balsas
baltimore
baluarte
balzac
bambu
ban
banana
banca
bancada
banco
bancos
band
banda
bandas
bandeira
bandeirante
bandeirantes
bandeiras
bandido
bandidos
bando
bandos
bang
bangkok
bangladesh
bangu
banha
banhado
banheiro
banheiros
banho
banhos
banido
banidos
banimento
banjo
bank
banks
banner
bano
banqueiro
banquete
baptista
baptiste
bar
bara
barack
barata
baratas
barato
baratos
barba
barbacena
barbados
barbara
barbeiro
barbera
barbosa
barca
barcelona
barcelos
barco
barcos
bare
bares
bari
barker
barnes
barney
baro
baron
baronesa
barra
barraca
barracas
barrada
barradas
barragem
barragens
barramento
barras
barreira
barreiras
barreiro
barreto
barrett
barrie
barriga
barris
barro
barroca
barroco
barros
barroso
barry
barset
bart
bartolomeu
barton
barueri
barulho
bas
basa
basal
basco
base
baseada
baseadas
baseado
baseados
baseando
basear
baseava
baseball
based
baseia
baseiam
basel
baseou
bases
basi
basic
basicamente
basil
basileia
basketball
basquete
basquetebol
basquetebolista
basquetebolistas
bass
basta
bastante
bastantes
bastardo
bastava
bastidores
bastien
basto
bastos
bat
batalha
batalhas
batalho
batata
batatas
bate
batendo
bater
bateria
baterias
baterista
bateristas
bates
bateu
bath
batida
batidas
batido
batismo
batista
batistas
batizada
batizado
batman
bats
battista
battle
bau
bauer
bauru
bautista
baviera
baxter
bay
bayer
bayern
bb
bbb
bbc
bc
bd
be
beach
bean
bear
bears
beast
beat
beatificac
beatles
beato
beatrice
beatriz
beats
beaumont
beautiful
beauty
bebe
beber
bebida
bebidas
bec
because
beck
becker
becky
beco
beda
bedford
bee
been
beer
beethoven
before
begin
beginning
behavior
behind
bei
beih
beija
beijar
beijing
beijo
beijos
being
beira
beirute
beis
beisebol
beisebolistas
beja
bel
bela
belanidia
belanidiamsg
belas
bele
beleza
belezas
belfast
belfort
belga
belgas
belgrado
beli
believe
belize
bell
bella
bellator
belle
bello
belmiro
belmonte
belo
belos
below
beltra
bem
bemol
ben
benc
bene
benedict
benedito
benefi
beneficente
beneficia
beneficiar
benfica
bengala
benguela
beni
benim
benito
benjamim
benjamin
bennett
benny
benoit
bens
benson
benth
bento
benz
ber
berberes
berc
berg
bergen
berger
bergman
beria
berkeley
berlim
berlin
bermudas
berna
bernard
bernardes
bernardino
bernardo
bernhard
bernie
bernstein
bero
berry
bert
berta
bertha
bertrand
besouro
best
besta
bet
beta
beth
betha
beto
bettencourt
better
betty
between
beverly
bexiga
beyonce
beyond
bezerra
bf
bg
bh
bi
bia
bianca
bianchi
bias
bible
bibliogra
bibliografia
biblioteca
bibliotecas
bica
bicampea
bicampeonato
bicas
bicho
bichos
bicicleta
bicicletas
bico
bicolor
bicos
biden
bidos
bie
bieber
bielorru
bien
bienal
bier
big
bigode
bike
bil
bilaterais
bilateral
bilbao
bilha
bilhete
bilheteria
bilheterias
bilhetes
bilho
bili
biliona
bill
billboard
billie
bills
billy
bin
bina
bing
bingen
bio
biodiversidade
biodiversity
biogeography
biogra
biografada
biografado
biografia
biografias
biographical
biographie
biography
biojr
biolo
biologia
biological
biology
bioma
biome
bioqui
bios
biosfera
biotecnologia
bipolar
bird
birds
birma
birmingham
birth
birthday
bis
bisavo
bisbis
biscaia
biscoitos
bishop
bismarck
bisneto
bispado
bispo
bispos
bissau
bit
bita
bitcoin
bito
bitola
bitos
bits
bittencourt
bizantina
bizantinas
bizantino
bizantinos
bizarro
bjo
bl
bla
black
blackburn
blackwell
blade
blair
blake
blanc
blanca
blanche
blanco
blast
blazers
blia
blica
blicas
blico
blicos
blind
blindada
blindado
blindados
blindagem
blio
bliss
blitz
bloch
block
blockchain
bloco
blocos
blog
blogs
blogspot
blogue
blood
bloody
bloom
bloqbot
bloqueada
bloqueado
bloqueados
bloqueando
bloquear
bloqueia
bloqueio
bloqueios
bloqueou
blu
blue
blues
bluetooth
blume
blumenau
bm
bmatrix
bmg
bmw
bn
bo
boa
board
boas
boat
boate
boato
boatos
boaventura
boavista
bob
bobby
bobo
boca
bocas
bode
body
boe
boeing
bogota
boi
boicote
bois
bol
bola
bolan
bolas
bolchevique
bolcheviques
bold
boldsymbol
boletim
bolha
bolhas
bolhones
boli
boliviana
boliviano
bolo
bologna
bolonha
bolos
bolsa
bolsas
bolso
bolsonaro
bolton
bom
bomb
bomba
bombaim
bombardeamento
bombardeio
bombardeios
bombardeiro
bombardeiros
bombas
bombeiro
bombeiros
bon
bona
bonaparte
bond
bondade
bonde
bondes
bone
boneca
bonecas
boneco
bonecos
bones
bonfim
bonifa
bonita
bonitas
bonito
bonn
bonnie
bono
bons
boo
boogie
book
booker
books
boom
boomerang
boot
booth
boots
bora
borba
borboleta
borboletas
borda
bordas
borde
bordeaux
border
bordo
borges
borgonha
boris
borja
born
borne
borracha
borussia
bosch
bosco
bosque
bosques
boss
bossa
boston
bot
bota
botafogo
botanic
botanical
botany
botas
bote
botelho
botes
both
boto
bots
botswana
bottas
bottom
botucatu
boulevard
bound
bourbon
bovina
bovino
bovinos
bow
bowie
bowl
box
boxe
boxes
boy
boyd
boyle
boys
br
bra
brabante
brac
brad
bradesco
bradford
bradley
brady
braga
braganc
bragantino
brain
branca
brancas
branch
branco
brancos
brand
branda
brandemburgo
brando
brandon
brangane
bras
brasa
brasi
brasil
brasileira
brasileiras
brasileiro
brasileiros
brasiliense
brasiliensis
braso
braswiki
braun
brava
brave
bravo
bravos
bravura
braz
brazil
brazilian
bre
break
breaking
brega
brejo
bremen
brenda
brendan
brent
brest
bret
bretanha
brett
breve
brevemente
breves
bri
bria
brian
brica
bricas
brico
brida
bride
bridge
bridges
brido
bridos
brie
brief
brien
briga
brigada
brigadas
brigadeiro
brigas
briggs
bright
brighton
brilha
brilhante
brilhantes
brilhar
brilho
brill
brincadeira
brincadeiras
brincando
brincar
bring
brinquedo
brinquedos
brio
brisa
brisbane
bristol
brit
brita
britain
britannica
british
britney
brito
britto
brizola
bro
broadcast
broadcasting
broadway
brock
broken
broncos
bronx
bronze
brook
brooke
brooklyn
brooks
bros
brother
brothers
broughton
brown
browne
browning
browns
browser
bru
bruce
bruges
bruna
brunei
bruno
brunoy
brunsvique
brunswick
bruta
brutal
brutalmente
bruto
bruxa
bruxaria
bruxas
bruxelas
bryan
bryant
bs
bsre
bt
bts
bu
bua
buarque
buas
bucareste
buchanan
buck
buckingham
bucks
bucures
bud
buda
budapeste
buddy
budismo
budista
budistas
bue
buena
bueno
buenos
buffalo
bug
bugs
building
bula
bulas
bulbophyllum
bulga
bull
bullet
bulletin
bulls
bullying
bulo
bulos
bundesliga
bunny
buprestidae
buraco
buracos
bureau
burgos
burguesa
burguesia
burke
burkina
burn
burning
burns
burocra
burocracia
burocrata
burocratas
burro
burt
burton
burundi
bus
busca
buscam
buscando
buscar
buscaram
buscas
buscava
buscavam
buscou
bush
business
busto
but
buta
butler
butterflies
butterfly
button
buzz
bvia
bvio
by
bye
byrne
byron
bytes
c
ca
caatinga
cabala
cabana
cabe
cabec
cabeceira
cabelo
cabelos
cabendo
cabi
cabine
cable
cabo
caboclo
cabos
cabra
cabral
cabras
cabrera
cabul
cac
cacau
cachac
cache
cachoeira
cachoeiras
cachorrinho
cachorro
cachorros
cacique
cact
cada
cadas
cadastro
cadastrul
cade
cadeia
cadeias
cadeira
cadeiras
caderno
cadernos
cadete
cadetes
caem
caesar
caetano
caf
cafe
cage
cai
caia
caindo
caio
caipira
cair
cairo
cais
caiu
caixa
caixas
caju
cal
cala
calado
calais
calc
calca
calcio
calcula
calculada
calculado
calcular
caldas
caldeira
caldeiras
caldero
caldo
caldwell
cale
caledo
calenda
calgary
calheta
cali
calibre
calibres
califa
califado
califo
california
call
called
calma
calmo
calo
calor
calouro
calouste
calu
calva
calvados
calvin
calvino
calvo
cam
cama
camacho
camada
camadas
camara
camargo
camaro
camboja
cambridge
came
camelo
camera
cameron
camila
camille
camilo
caminha
caminhada
caminhadas
caminhando
caminhar
caminho
caminhos
camisa
camisas
camiseta
camo
camp
campa
campaign
campana
campanha
campanhas
campani
campbell
campea
campeo
campeonato
campeonatos
campi
campina
campinas
campista
campo
campone
camponeses
camponotus
campos
campus
can
cana
canaa
canada
canadense
canadenses
canadian
canais
canal
canato
canc
cancelada
cancelado
cancelados
cancelamento
cancelar
cancelou
cancer
cancioneiro
cancro
candela
candidata
candidatar
candidatas
candidato
candidatos
candidatou
candidatura
candidaturas
candido
candomble
candy
canela
caneta
canha
canho
cannabis
cannes
cannon
cano
canoa
canoagem
canoas
canoi
canon
canonizac
cansac
cansado
canta
cantada
cantadas
cantado
cantam
cantando
cantar
cantaram
cantaria
cantava
cantiga
cantigas
canto
cantor
cantora
cantoras
cantores
cantos
cantou
cantua
canudos
canvas
canyon
cao
caos
cap
capa
capacete
capacidade
capacidades
capacitac
capacitores
capado
capas
capaz
capazes
capcom
cape
capela
capelas
capella
capelo
capi
capim
capita
capitais
capital
capitalismo
capitalista
capitalistas
capitania
capitanias
capito
capitol
capitulo
capixaba
capo
capoeira
capricho
captac
captain
captar
captura
capturada
capturadas
capturado
capturados
capturando
capturar
capturaram
capturou
caput
car
cara
carabina
caracas
caracol
caractere
caracteres
caracteri
caracteriza
caracterizac
caracterizada
caracterizadas
caracterizado
caracterizados
caracterizam
caracterizando
caracterizar
caracterizou
carai
caraja
caranguejo
caras
carate
caravana
carbo
carbonato
carbono
card
cardeais
cardeal
cardi
cardiff
cardinal
cardinals
cardoso
care
carece
carecem
carentes
carex
carey
carga
cargas
cargo
cargos
cari
caribbean
caribe
caricatura
caridade
carinae
carinho
carioca
cariocas
cariri
carisma
carl
carla
carlinhos
carlo
carlos
carlota
carmelitas
carmelo
carmen
carmo
carnavais
carnaval
carnavalesco
carnavalescos
carne
carnegie
carneiro
carnes
carni
caro
carol
caroli
carolina
caroline
caros
carpenter
carpinteiro
carr
carrasco
carrega
carregada
carregadas
carregado
carregador
carregados
carregam
carregamento
carregando
carregar
carregava
carreira
carreiras
carreteras
carrie
carris
carro
carroc
carroll
carros
carrossel
carruagem
carruagens
cars
carson
cart
carta
cartagena
cartagineses
cartago
cartas
cartaz
cartazes
carteira
cartel
carter
carto
cartografia
cartola
cartoon
cartucho
cartuchos
cartunista
caruaru
carva
carvalho
carvalhos
cas
casa
casablanca
casaco
casada
casado
casados
casais
casal
casamento
casamentos
casando
casar
casara
casaram
casas
casca
cascais
cascata
cascavel
casco
case
caseiro
cases
casey
cash
casimiro
casino
caso
casos
casou
cass
cassac
cassado
cassel
cassete
cassiano
cassidy
cassino
cast
casta
castanha
castanho
castas
castel
castela
castelhana
castelhano
castelhanos
castello
castelo
castelobrancomsg
castelos
castigo
castilho
castilla
castillo
casting
castle
castor
castro
castroviejo
casual
cat
cata
catala
catalina
catalisador
catalog
catalogue
catalunha
catar
cataratas
catarina
catarinense
catastro
catch
catecismo
catedra
catedral
categoria
categorias
categorizac
categorizar
category
cathedral
catherine
catholic
cativeiro
cativos
cato
catolicismo
catorze
cats
cauda
caudal
caule
caules
causa
causada
causadas
causado
causados
causam
causando
causar
causaram
causas
cause
causou
cautela
cavaco
cavalaria
cavalcante
cavalcanti
cavaleiro
cavaleiros
cavalheiro
cavaliers
cavallo
cavalo
cavalos
cave
caveira
caverna
cavernas
cavidade
cavidades
caxemira
caxias
caymmi
cazaque
cazaquista
cb
cbc
cbd
cbf
cbn
cbs
cc
cd
cdn
cdot
cdots
cds
ce
cea
ceara
cearense
ceas
cebola
ceci
cecil
cecilia
cede
ceder
cedeu
cedido
cedo
cedro
cega
cegas
cego
cegos
cegueira
ceia
ceila
ceis
cel
cela
celebra
celebrac
celebrada
celebrado
celebrar
celebridade
celebridades
celebrou
celeiro
celeste
celestes
celestial
celestino
cell
celso
celta
celtas
celtic
celtics
celular
celulares
celulose
cem
cemetery
cemite
cena
cenas
cenografia
censita
censo
censos
censura
census
cent
cente
centena
centenas
center
centers
centi
cento
centra
centrada
centrado
centrais
central
centralizado
centre
centro
centros
century
ceo
ceos
cer
cera
cerca
cercada
cercado
cercados
cerco
cereais
cerebrais
cerebral
ceres
cerimo
cerimonial
cero
cerqueira
cerrado
cerro
cersei
certa
certame
certamente
certas
certeza
certida
certificac
certificado
certificados
certo
certos
cervantes
cerveja
cervejaria
ces
cesa
cesar
cesare
cesareia
cessa
cessar
cessna
cessou
cesta
ceticismo
ceuta
cevada
cezar
cf
cfg
cgi
cgn
ch
cha
chaco
chad
chade
chafariz
chagas
chain
challenge
challenger
chama
chamada
chamadas
chamado
chamados
chamam
chamamos
chamando
chamar
chamaram
chamas
chamava
chamavam
chamber
chamberlain
chambers
chamine
chamo
chamou
champ
champagne
champion
champions
championship
championships
chan
chance
chancelaria
chanceler
chances
chandler
chanel
chang
change
changes
channel
chaos
chapa
chapada
chape
chapeco
chapecoense
chapel
chaplin
chapman
chapter
character
charente
charles
charleston
charlie
charlotte
charme
chart
charts
chase
chassi
chassis
chat
chateaubriand
chato
chave
chaves
che
checa
check
checklist
checkuser
checo
checoslova
chef
chefe
chefes
chefia
chefiada
chefiado
chega
chegada
chegado
chegados
chegam
chegamos
chegando
chegar
chegara
chegaram
chegarem
chegaria
chegasse
chegava
chegavam
chegou
chegue
cheguei
cheia
cheias
cheio
cheios
cheiro
chelsea
chemical
chemistry
chen
cheng
cheque
cher
cherry
cheryl
chess
chester
chevrolet
chi
chiang
chiapas
chica
chicago
chico
chief
chiefs
chifre
chifres
child
children
chile
chilena
chileno
chili
chimpanze
chin
china
chine
chinesa
chinesas
chinese
chineses
ching
chip
chipre
chips
chiquinha
chita
chloe
cho
chocolate
choi
choice
chomsky
chopin
choque
choques
chora
chorando
chorar
choro
chos
chris
christ
christa
christi
christian
christianity
christie
christina
christine
christmas
christo
christoph
christophe
christopher
christus
chrome
chronicle
chronicles
chronology
chronus
chu
chuck
chumbo
chun
chung
church
churchill
chute
chutes
chuva
chuvas
chuvoso
ci
cia
ciar
cias
ciberne
cica
ciclismo
ciclista
ciclistas
ciclo
ciclone
ciclones
ciclos
cid
cida
cidada
cidadania
cidade
cidadela
cidades
cidas
cido
cidos
cie
cielo
ciente
cienti
cientificamente
cientista
cientistas
cies
cifra
ciganos
cigarro
cigarros
cil
cili
cilindro
cilindros
cima
cime
cimento
cimes
cimo
cimos
cincinnati
cinco
cinderela
cindy
cine
cineasta
cineastas
cinema
cinemas
cinematogra
cinematografia
cineos
cinqu
cinquenta
cinta
cinto
cintra
cintura
cinza
cinzas
cinzenta
cinzento
cio
cios
cipia
cipriano
circa
circle
circo
circuit
circuito
circuitos
circulac
circulam
circulante
circular
circulares
circundante
circunfere
circunscric
circunsta
circus
ciri
cirilo
ciro
ciru
cirurgia
cirurgias
cis
cisa
cisalhamento
cisco
cisjorda
cisma
cisne
cit
cita
citac
citada
citadas
citado
citados
citam
citando
citar
citas
citation
cite
citei
cities
cito
citoplasma
citos
citou
citroe
citta
city
ciu
ciudad
cius
civil
civilizac
civilization
civis
cj
ck
cken
cl
cla
clado
claims
clair
claire
clandestina
clara
claramente
claras
clare
clarence
clarendon
clareza
clarice
claridade
clarinete
clark
clarke
clarkson
claro
claros
clash
class
classe
classes
classic
classical
classicismo
classics
classifica
classificac
classificada
classificadas
classificado
classificados
classificam
classificando
classificar
classificaram
classification
classificato
classificou
claude
claudia
claudio
claus
claustro
clausura
clay
clayton
cle
clean
clear
clement
clemente
clements
cleo
cleos
clero
cleveland
cli
clica
clicar
cliche
clicks
clicos
cliente
clientes
cliff
clifford
clima
climas
climate
clinical
clint
clinton
clio
clipe
clipes
clippers
clique
clive
clo
clock
clone
clones
cloreto
cloro
close
cloud
club
clube
clubes
cluster
clyde
cm
cmt
cn
cneu
cnica
cnicas
cnico
cnicos
cnn
cnpq
cnt
co
coa
coadjuvante
coaliza
coast
coberta
cobertas
coberto
cobertos
cobertura
coberturas
cobic
cobra
cobranc
cobrar
cobras
cobre
cobrem
cobria
cobrindo
cobrir
cobriu
coburgo
coca
cocai
coco
code
codex
codificac
codinome
cody
coeficiente
coeficientes
coelho
coelhos
coere
coerente
coesa
cofre
cofres
cognitiva
cognitivo
cogumelo
cogumelos
cohen
coi
coimbra
coincide
coincidir
coincidiu
coisa
coisas
col
cola
colabora
colaborac
colaborador
colaboradores
colaborando
colaborar
colaboraram
colaborativa
colaborativo
colaborou
colapso
colar
colares
colas
colaterais
colbert
cold
coldplay
cole
colec
colecc
colecionador
colecionadores
colega
colegas
colegial
coleman
coleo
coleophora
coleophoridae
coleoptera
colesterol
coleta
coletadas
coletado
coletados
coletar
coletiva
coletivamente
coletivas
coletividade
coletivo
coletivos
coletor
colheita
colheitas
colher
coli
coligac
colin
colina
colinas
colisa
coliseu
coliso
coll
collected
collection
college
collins
collor
colmeia
colo
coloca
colocac
colocada
colocadas
colocado
colocados
colocam
colocando
colocar
colocaram
colocava
coloco
colocou
colombia
colombiana
colombiano
colombo
coloniais
colonial
colonialismo
colonizac
colonizadores
colonos
coloque
coloquei
color
colorac
colorado
colorida
coloridas
colorido
coloridos
colors
colt
colts
coltsfan
colu
columbia
columbus
coluna
colunas
colunista
com
coma
comanda
comandada
comandadas
comandado
comandados
comandando
comandante
comandantes
comandar
comandava
comando
comandos
comandou
comarca
comarcas
comba
combat
combate
combatendo
combatente
combatentes
combater
combates
combateu
combina
combinac
combinada
combinadas
combinado
combinados
combinam
combinando
combinar
comboio
comboios
combusta
combusti
come
comec
comecei
comediante
comedy
comem
comemora
comemorac
comemorado
comemorando
comemorar
comemorativa
comemorativo
comemorou
comenda
comendador
comendadores
comendo
comenta
comentado
comentando
comentar
comentarista
comentaristas
comentou
comer
comerciais
comercial
comercializac
comercializada
comercializado
comercializados
comercializar
comercialmente
comerciante
comerciantes
comes
comesti
cometa
cometas
comete
cometer
cometeu
cometido
cometidos
comi
comic
comics
comida
comidas
comigo
coming
comissa
comissionado
comisso
comite
comitiva
command
commentary
comments
commerce
commercial
commercio
commission
committee
common
commons
commonwealth
communication
communications
community
comneno
como
comoc
compacta
compacto
compactos
compadre
compaixa
companheira
companheiro
companheiros
companhia
companhias
companion
company
compara
comparac
comparada
comparadas
comparado
comparados
comparando
comparar
comparative
compare
comparecer
compareceram
compareceu
comparecimento
comparou
compartilha
compartilhada
compartilhado
compartilhados
compartilham
compartilhamento
compartilhando
compartilhar
compartilhou
compartimento
compartimentos
compasso
compati
compatibilidade
compatriota
compatriotas
compe
compensac
compensar
compete
competem
competente
competentes
competic
competidores
competindo
competir
competiram
competition
competitiva
competitividade
competitivo
competiu
compilac
compilado
compilador
complementar
complementares
complemento
completa
completada
completado
completamente
completando
completar
completaram
completas
complete
completo
completos
completou
complex
complexa
complexas
complexidade
complexo
complexos
complicac
complicada
complicado
compo
compondo
componente
componentes
compor
comporta
comportamentais
comportamental
comportamento
comportamentos
comportar
composic
compositor
compositora
compositores
composta
compostas
compostela
composto
compostos
compra
comprada
comprado
comprador
compradores
comprados
comprando
comprar
compraram
compras
compreende
compreendem
compreendendo
compreender
compreendeu
compreendia
compreendida
compreendido
compreendo
compreensa
compreensi
compressa
comprida
comprido
comprimento
comprimentos
comprimido
compromete
comprometer
comprometeu
comprometida
comprometido
comprometimento
compromisso
compromissos
comprou
comprova
comprovac
comprovada
comprovado
comprovam
comprovar
comprovem
compton
compulso
compunham
computac
computacionais
computacional
computador
computadores
computer
computing
comte
comum
comumente
comuna
comunas
comunha
comunica
comunicac
comunicado
comunicar
comunicou
comunidade
comunidades
comunismo
comunista
comunistas
comunita
comuns
con
conan
concacaf
conceber
concebeu
concebida
concebido
concede
concedendo
conceder
concedeu
concedida
concedidas
concedido
concedidos
conceic
conceito
conceitos
conceituais
conceitual
concelho
concelhos
concentra
concentrac
concentrada
concentrado
concentrados
concentram
concentrando
concentrar
concentrou
concepc
concepcio
concept
concert
concerto
concertos
concessa
concessiona
concesso
concha
conchas
conci
conciliar
conclave
conclui
concluindo
concluir
concluiu
conclusa
concluso
conco
concorda
concordam
concordando
concordar
concordaram
concorde
concordo
concordou
concorre
concorrendo
concorrente
concorrentes
concorrer
concorreu
concreta
concretas
concreto
concretos
concurso
concursos
condado
condados
conde
condecorac
condecorado
condena
condenac
condenada
condenado
condenados
condenar
condenou
condensac
condes
condessa
condic
condicionado
condicional
condita
condomi
condor
conduc
conduta
condutas
condutor
condutores
conduz
conduzida
conduzidas
conduzido
conduzidos
conduzindo
conduzir
conduziram
conduziu
cone
conecta
conectada
conectadas
conectado
conectados
conectando
conectar
cones
conexa
conexo
confecc
confederac
confederados
confere
conference
conferido
conferir
confessa
confessar
confesso
confessor
confessou
confia
confiabilidade
confianc
confiante
confiar
configura
configurac
configurar
confina
confinamento
confira
confirma
confirmac
confirmada
confirmadas
confirmado
confirmados
confirmam
confirmando
confirmar
confirmaram
confirmou
confissa
confisso
conflict
conflito
conflitos
conflue
conformac
conforme
conformidade
conforta
conforto
confraria
confronta
confrontado
confrontar
confronto
confrontos
confunde
confundida
confundido
confundir
confusa
confuso
conge
congelamento
conglomerado
congo
congonhas
congregac
congress
congresso
congressos
conhec
conhece
conhecedor
conhecem
conhecemos
conhecendo
conhecer
conheceram
conheceu
conheci
conhecia
conheciam
conhecida
conhecidas
conhecido
conhecidos
conhecimento
conhecimentos
coni
conjugac
conjugal
conjunc
conjunta
conjuntamente
conjuntas
conjunto
conjuntos
conmebol
connecticut
connection
conner
connie
connor
cono
conosco
conotac
conquista
conquistada
conquistadas
conquistado
conquistador
conquistados
conquistando
conquistar
conquistaram
conquistas
conquistou
conrad
conrado
cons
consagrac
consagrada
consagrado
consagrados
consagrou
conscie
consciente
conscientes
conscientizac
consecutiva
consecutivas
consecutivo
consecutivos
consegue
conseguem
consegui
conseguia
conseguiam
conseguido
conseguindo
conseguinte
conseguir
conseguira
conseguiram
conseguirem
conseguiria
conseguisse
conseguiu
conselheira
conselheiro
conselheiros
conselho
conselhos
consenso
consensual
consentimento
consequ
conseque
consequente
consequentemente
consertar
conserva
conservac
conservado
conservador
conservadora
conservadoras
conservadores
conservadorismo
conservam
conservar
conservation
conservato
considera
considerac
considerada
consideradas
considerado
considerados
consideram
considerando
considerar
consideraram
considerava
consideravam
consideravelmente
considere
considero
considerou
consiga
consigo
consiste
consistem
consistente
consistentemente
consistentes
consistia
consistiam
consistindo
consistiu
consisto
conso
consoante
consoantes
consolac
console
consoles
consolidac
consolidado
consolidar
consolidou
consome
consorte
conspirac
conspiradores
consta
constam
constanc
constant
constante
constantemente
constantes
constantine
constantino
constantinopla
constar
constatac
constatado
constatar
constatou
constelac
constitucionais
constitucional
constitucionalista
constituem
constitui
constituic
constituindo
constituinte
constituintes
constituir
constituiu
constro
construc
construction
construi
construindo
construir
construiu
construtiva
construtor
construtora
construtores
consulado
consular
consulta
consultada
consultado
consultar
consultas
consulte
consultivo
consulto
consultor
consultoria
consumida
consumido
consumidor
consumidores
consumidos
consumir
consumo
cont
conta
contabilidade
contact
contacto
contactos
contada
contadas
contado
contador
contados
contagem
contam
contaminac
contando
contanto
contar
contara
contaram
contas
contato
contatos
contava
contavam
conte
contem
contempla
contemplac
contemplar
contempora
contemporary
contenc
contendo
content
contente
conter
contest
contestac
contestada
contestado
contestar
conteu
conteudo
contexto
contextos
conti
contida
contidas
contido
contidos
contigo
continentais
continental
continente
continentes
contingente
continha
continham
continua
continuac
continuada
continuado
continuam
continuamente
continuando
continuar
continuara
continuaram
continuaria
continuasse
continuava
continuavam
continue
continuidade
continuo
continuou
conto
contornar
contorno
contornos
contos
contou
contra
contrabaixo
contrabando
contrac
contradic
contradito
contrai
contraiu
contrapartida
contraponto
contrariando
contrariar
contrario
contrarrelo
contrasta
contraste
contrata
contratac
contratada
contratado
contratados
contratar
contrato
contratorpedeiros
contratos
contratou
contratual
contrib
contribs
contribuem
contribui
contribuic
contribuindo
contribuinte
contribuintes
contribuir
contribuiu
contributions
control
controla
controlada
controladas
controlado
controlador
controladores
controlados
controlam
controlando
controlar
controlava
controle
controles
controlo
controve
controversa
controversas
controverso
controversos
contudo
conus
conve
convecc
convenc
convence
convencer
convenceu
convencido
convencionais
convencional
convenie
conveniente
convention
convento
conventos
converge
conversa
conversac
conversando
conversar
conversas
converte
convertendo
converter
converteu
convertida
convertido
convertidos
convi
convicc
convida
convidada
convidadas
convidado
convidados
convidando
convidar
convido
convidou
convincente
convite
convites
convive
conviver
convocac
convocada
convocado
convocados
convocar
convocou
convulso
conway
cook
cooke
cool
cooper
cooperac
cooperar
cooperativa
cooperativas
coord
coordenac
coordenada
coordenadas
coordenado
coordenador
coordenadora
coordenar
coordenou
coordinates
cop
copa
copacabana
copas
cope
copenhaga
copenhague
copiado
copiar
copo
copos
copta
copy
copyright
coqueiro
cor
cora
corac
coragem
corais
coral
corante
corantes
corazo
corbin
corda
cordas
cordeiro
cordel
cordilheira
cordilheiras
core
coreana
coreano
coreanos
coreia
coreo
coreografia
cores
corey
cori
coringa
corinthians
corinto
coritiba
corne
cornelius
cornell
corner
coro
coroa
coroac
coroada
coroado
coroas
corona
coronavi
coronel
coros
corp
corpo
corporac
corporais
corporal
corporation
corporativa
corporativo
corporativos
corpos
corps
corpus
corre
correa
correc
correcto
corredor
corredores
corregedor
correia
correio
correios
correlac
correm
correndo
corrente
correntes
correr
correram
corresponde
correspondem
correspondendo
correspondente
correspondentes
corresponder
correspondia
correta
corretamente
corretas
correto
correu
corria
corrida
corridas
corridos
corrigi
corrigida
corrigido
corrigidos
corrigir
corrosa
corrupc
corsa
corso
corta
cortada
cortadas
cortado
cortados
cortando
cortar
corte
cortejo
cortes
cortesa
cortesia
cortez
cortic
cortina
cortinas
cortou
coruja
corumba
corunha
corvo
cos
cosme
cosmo
cosmologia
cosmos
cossacos
costa
costas
costeira
costeiras
costello
costuma
costumam
costumava
costumavam
costume
costumes
costura
cota
cotas
cotidiana
cotidiano
coube
could
council
count
countdown
counter
country
county
coupe
courac
couro
course
court
courtney
cousa
cousas
coutinho
couto
cova
covarde
covas
cover
covers
covid
covilha
cowboy
cowboys
cox
coxa
cozido
cozinha
cozinhar
cp
cpi
cptm
cpu
cr
cra
craco
craig
crambidae
crane
craque
crash
crasso
cratera
crateras
crates
crato
cravo
cravos
crawford
crazy
crb
cre
create
creation
creative
creche
credi
credibilidade
creditada
creditado
credo
credor
credores
creed
creek
creio
creme
crenc
crentes
crepu
crer
cresce
crescem
crescendo
crescente
crescentes
crescer
cresceram
cresceu
crescia
crescido
crescimento
crespo
crespus
creta
crew
cri
cria
criac
criada
criadas
criado
criador
criadora
criadores
criados
criam
crianc
criando
criar
criaram
crias
criativa
criativas
criatividade
criativo
criatura
criaturas
criava
cribb
criciu
cricket
crie
criei
crime
crimeia
crimes
criminais
criminal
criminalidade
criminologia
criminosa
criminosas
criminoso
criminosos
crimson
criou
crioulo
cripta
criptografia
cris
crise
crises
crisis
criso
crista
cristais
cristal
cristalina
cristalino
cristianismo
cristiano
cristina
cristo
crite
critica
criticada
criticado
critical
criticamente
criticando
criticar
criticaram
criticas
criticou
critics
cro
croa
croata
croatas
crocodilo
croix
croma
cromossomo
cromossomos
cromwell
cronista
cronistas
cronograma
cronolo
cronologia
crosby
cross
crossover
crosta
crow
crowley
crown
cru
crucial
crucificac
crue
cruel
crueldade
cruise
crusta
cruz
cruza
cruzada
cruzadas
cruzado
cruzador
cruzadores
cruzados
cruzam
cruzamento
cruzamentos
cruzando
cruzar
cruzeiro
cruzeiros
cruzes
cruzou
cry
crystal
cs
csa
csi
csic
cska
css
ct
ctea
cter
ctica
ctico
ctor
ctrica
cu
cuba
cubana
cubano
cubanos
cube
cubo
cuca
cuenca
cuiaba
cuida
cuidado
cuidados
cuidadosamente
cuidando
cuidar
cuidou
cuja
cujas
cujo
cujos
cula
culas
culina
cullen
culminando
culminaram
culminou
culo
culos
culpa
culpado
culpados
cult
cultivada
cultivadas
cultivar
cultivo
culto
cultos
cultura
culturais
cultural
culturalmente
culturas
culture
cum
cume
cumpra
cumpre
cumprem
cumpria
cumprida
cumprido
cumprimento
cumprimentos
cumprindo
cumprir
cumpriu
cunha
cunhada
cunhado
cunho
cunningham
cuo
cup
cura
curado
curador
curadoria
curar
curdista
curdos
cure
curiosa
curiosamente
curiosidade
curiosidades
curioso
curiosos
curitiba
current
curri
curry
cursar
curso
cursos
cursou
curt
curta
curtas
curtis
curto
curtos
curva
curvas
curvatura
custa
custas
custo
custos
custou
cut
cuta
cv
cw
cycling
cynthia
cyril
cyrus
cz
czar
d
da
dada
dadas
daddy
dado
dados
daenerys
dai
daily
daimore
daisy
dakar
dakota
dal
dalai
dale
dali
dall
dallas
dallwitz
dalma
dalton
daly
dam
dama
damas
damasco
dame
damia
damien
damon
dan
dana
danc
dance
dancing
dando
danger
dangerous
dani
daniel
daniela
daniele
danielle
daniels
danificada
danificadas
danificado
danificados
danificou
danilo
danny
dano
danos
dans
dantadd
dantas
dante
dantes
danu
daquela
daquelas
daquele
daqueles
daqui
daquilo
dar
dara
darcy
dardo
darem
daria
dario
dark
darkness
darmstadt
darren
darwin
daryl
das
dash
data
database
datac
datada
datadas
datado
datados
datam
datas
date
dateformat
dates
datsu
daughter
dava
davam
dave
davemustaine
davi
david
davidson
davies
davis
dawkins
dawn
dawson
day
days
db
dbc
dc
dd
ddr
de
dea
dead
deal
dean
dear
deas
death
debaixo
debate
debater
debates
debatido
debbie
deborah
debruc
debut
debutou
dec
decade
decaimento
decano
dece
december
decepc
decerto
decide
decidem
decidi
decidida
decidido
decidindo
decidir
decidiram
decidiu
decimal
decisa
decisiva
decisivo
deciso
deck
declara
declarac
declarada
declarado
declarados
declarando
declarar
declararam
declaro
declarou
decli
declinac
decolagem
decomposic
decorac
decorada
decoradas
decorado
decorados
decorativas
decorativos
decorre
decorrente
decorrentes
decorrer
decorreu
decorrido
decre
decrescente
decreto
decretos
decretou
decurso
dedica
dedicac
dedicada
dedicadas
dedicado
dedicados
dedicando
dedicar
dedicou
dedo
dedos
deduc
dee
deep
def
default
defeito
defeitos
defende
defendem
defendendo
defender
defenderam
defendeu
defendia
defendiam
defendida
defendido
defendo
defense
defensiva
defensivas
defensivo
defensor
defensora
defensores
defesa
defesas
deficie
deficiente
deficientes
define
definem
definic
definida
definidas
definido
definidos
definindo
definir
definitiva
definitivamente
definitivo
definiu
deformac
defronte
degli
degradac
degraus
dehsim
dei
deitado
deitar
deixa
deixada
deixadas
deixado
deixados
deixam
deixando
deixar
deixara
deixaram
deixarem
deixaria
deixasse
deixava
deixavam
deixe
deixei
deixem
deixo
deixou
del
dela
delac
delas
delaware
dele
delegac
delegacia
delegado
delegados
deles
delfim
delgada
delgado
delhi
deli
deliberac
deliberadamente
deliberativo
delicada
delicado
delimitac
delito
delitos
dell
della
delle
delta
deluxe
dem
demais
demanda
demandas
demarcac
demasiado
deme
demi
demissa
demitido
demitir
demitiu
demo
democra
democracia
democracy
democrata
democratas
demogra
demografia
demolic
demolida
demolido
demon
demoni
demonstra
demonstrac
demonstrada
demonstrado
demonstram
demonstrando
demonstrar
demonstraram
demonstrou
demora
demorar
demorou
demos
den
dena
dendrobium
deng
denis
denise
dennis
denomina
denominac
denominada
denominadas
denominado
denominados
denominar
denominou
denota
densa
densamente
densas
densidade
denso
denta
dente
dentes
dentista
dentre
dentro
denu
denuncia
denunciado
denunciar
denunciou
denver
deo
deodoro
deos
departamento
departamentos
department
depende
dependem
dependendo
dependente
dependentes
depender
dependia
depo
depoimento
depoimentos
depois
depor
deportac
deportes
deportivo
deposic
depositado
depositados
deposto
depressa
depresso
deputada
deputado
deputados
der
dera
deram
derby
derek
deres
deriva
derivac
derivada
derivadas
derivado
derivados
derivam
derrame
derrota
derrotada
derrotado
derrotados
derrotando
derrotar
derrotaram
derrotas
derrotou
derruba
derrubada
derrubado
derrubar
derrubou
des
desa
desacordo
desafia
desafiante
desafiar
desafio
desafios
desafiou
desagrada
desambiguac
desaparece
desaparecer
desapareceram
desapareceu
desaparecida
desaparecidas
desaparecido
desaparecidos
desaparecimento
desapropriac
desastre
desastres
desastrosa
desativada
desativado
desavenc
desbloquear
desbloqueio
descalc
descansar
descanso
descarga
descarta
descartada
descartado
descartes
desce
descende
descendente
descendentes
descendo
descentralizac
descer
desceu
descida
desclassificado
descoberta
descobertas
descoberto
descobertos
descobre
descobrem
descobri
descobrimento
descobrimentos
descobrindo
descobrir
descobriram
descobriu
desconfianc
desconforta
desconforto
desconhece
desconhecida
desconhecidas
desconhecido
desconhecidoenviar
desconhecidos
desconhecimento
descontentamento
descontinuado
descreve
descrevem
descrevendo
descrever
descreveram
descreveu
descric
description
descriptions
descrita
descritas
descrito
descritos
desculpa
desculpas
desculpe
desculpem
desde
deseja
desejada
desejado
desejam
desejando
desejar
desejava
desejavam
desejo
desejos
desembarcar
desembarcaram
desembarcou
desembargador
desembarque
desempate
desempenha
desempenhado
desempenham
desempenhar
desempenho
desempenhou
desemprego
desencadeou
desenhada
desenhadas
desenhado
desenhados
desenhar
desenhista
desenho
desenhos
desenhou
desenrolar
desentendimentos
desenvolve
desenvolvedor
desenvolvedora
desenvolvedores
desenvolvem
desenvolvendo
desenvolver
desenvolveram
desenvolveu
desenvolvida
desenvolvidas
desenvolvido
desenvolvidos
desenvolvimento
desenvolvimentos
desequili
deserc
desert
deserta
desertas
deserto
desertos
desesperada
desesperado
desespero
desestabilizador
desfavora
desfazer
desfecho
desfez
desfilar
desfile
desfiles
desfilou
desfrutar
desgaste
desgosto
desgrac
design
designa
designac
designada
designadas
designado
designados
designar
designer
designers
designou
designs
desigual
desigualdade
desigualdades
desire
desiste
desistir
desistiu
desktop
desligado
desligamento
deslizamentos
desloca
deslocado
deslocamento
deslocar
deslocou
desmatamento
desmembrado
desmembramento
desmond
desnecessa
desnomeac
desordem
despacho
despedida
despediu
despeito
desperdi
desperdic
desperta
despertar
despertou
despesa
despesas
desportistas
desportiva
desportivas
desportivo
desportivos
desporto
desportos
desprezo
desqualificac
desrespeito
dessa
dessas
desse
desses
desta
destaca
destacada
destacadas
destacado
destacados
destacam
destacamento
destacando
destacar
destacaram
destacava
destacou
destaque
destaques
destas
deste
desterro
destes
destina
destinada
destinadas
destinado
destinados
destinata
destino
destinos
destiny
destitui
destro
destroc
destruction
destrui
destruic
destruindo
destruir
destruiu
desuso
desvantagem
desvantagens
desviar
desvio
desvios
det
details
detalhada
detalhadas
detalhado
detalhados
detalhe
detalhes
dete
detecc
detecta
detectado
detectados
detectar
detective
detector
detenc
detentor
detentora
detentores
deter
deteriorac
determina
determinac
determinada
determinadas
determinado
determinados
determinam
determinando
determinante
determinantes
determinar
determinou
detetive
deteve
detido
detidos
detinha
detra
detrimento
detritos
detroit
deu
deus
deusa
deusas
deuses
deutsche
deutschen
deutschland
deux
deva
devagar
devam
devastac
deve
devedor
development
devem
devemos
devendo
dever
devera
deveras
deveres
deveri
deveria
deveriam
deveu
devia
deviam
devida
devidamente
devidas
devido
devidos
devil
devo
devoc
devoluc
devolve
devolver
devolveu
devolvido
devon
devoto
devotos
dexter
dez
dezembro
dezenas
dezenove
dezesseis
dezessete
dezoito
df
dhabi
di
dia
diabetes
diablo
diabo
diadema
diagno
diagnosticada
diagnosticado
diagonal
diagrama
diagramas
dial
diale
dialeto
dialetos
dialogar
diamante
diamantes
diamantina
diamond
diamonds
diana
diane
diante
dianteira
diariamente
diario
diarreia
diary
dias
diaz
diboi
dica
dicas
diccionario
dice
dici
diciona
dick
dickens
dickinson
dico
dicos
dictionary
dictionnaire
did
dida
didi
didier
die
diego
dies
diesel
dieta
dieter
dietrich
difamac
difere
diferem
diferenc
diferencia
diferenciac
diferenciada
diferenciado
diferenciados
diferenciais
diferencial
diferenciar
diferente
diferentemente
diferentes
diff
different
diffs
difi
dificilmente
dificuldade
dificuldades
dificulta
dificultar
difundida
difundido
difundir
difusa
difusora
diga
digae
digam
digamos
digest
digesta
digestivo
digimon
digitais
digital
digitalizac
digitalmente
digna
dignidade
dignita
digno
dignos
digo
digos
digressa
dilema
dilige
dillon
dilma
dilu
dimensa
dimensional
dimenso
diminui
diminuic
diminuindo
diminuir
diminuiu
dimitri
din
dina
dinamarca
dinamarque
dinamarquesa
dinamarqueses
dinamo
dinastia
dinastias
dinheiro
dinis
diniz
dino
dinossauro
dinossauros
dio
diocesano
diocese
dioceses
diocleciano
diodoro
diogo
dion
dioni
dios
diploma
diplomacia
diplomas
diplomata
diplomatas
dir
dira
dirceu
direc
direcc
direcionada
direcionado
direcionados
direcionar
direct
directa
directamente
direction
directo
director
directory
direi
direita
direito
direitos
direta
diretamente
diretas
direto
diretor
diretora
diretores
diretoria
diretos
diretrizes
diria
dirige
dirigente
dirigentes
dirigi
dirigia
dirigida
dirigidas
dirigido
dirigidos
dirigindo
dirigir
dirigiram
dirigiu
dirk
dirty
dis
disc
disci
disciplina
disciplinar
disciplinas
disco
discogra
discografia
discogs
discorda
discordar
discordo
discos
discovery
discrepa
discreta
discreto
discriminac
discurso
discursos
discussa
discussion
discusso
discute
discutem
discuti
discutida
discutidas
discutido
discutidos
discutindo
discutir
discutiu
disease
diseases
disfarc
disfarce
disfunc
disney
disparar
disparo
disparos
disparou
dispensa
dispensado
dispersa
dispersos
display
dispo
disponi
disponibilidade
disponibiliza
disponibilizada
disponibilizado
disponibilizados
disponibilizar
disponibilizou
dispor
disposic
dispositivo
dispositivos
disposta
dispostas
disposto
dispostos
dispunha
disputa
disputada
disputadas
disputado
disputados
disputam
disputando
disputar
disputara
disputaram
disputas
disputava
disputou
disse
disseminac
disseminar
disseram
dissertac
disside
dissidentes
dissipou
disso
dissoluc
dissolver
dissolveu
dissolvida
dissolvido
dista
distancia
distanciamento
distante
distantes
distinc
distingue
distinguem
distingui
distinguido
distinguir
distinguiu
distinta
distintas
distintivo
distinto
distintos
disto
distorc
distrac
distrai
distribui
distribuic
distribuidora
distribuir
distribuiu
distribution
district
distritais
distrital
distrito
distritos
distu
dita
ditador
ditadura
ditas
ditions
dito
ditos
dium
div
diva
divas
diverge
divergentes
diversa
diversas
diversidade
diversificac
diversificada
diversificado
diversity
diverso
diversos
divertida
divertido
divertir
divide
dividem
dividia
dividida
divididas
dividido
divididos
dividindo
dividir
dividiram
dividiu
divina
divindade
divindades
divine
divino
divisa
divisio
division
diviso
divisor
divo
divorciaram
divorciou
divulga
divulgac
divulgada
divulgadas
divulgado
divulgados
divulgar
divulgou
dixon
diz
dize
dizem
dizendo
dizer
dizia
diziam
dj
djs
dl
dm
dna
do
doac
doada
doado
doador
doadores
doados
doar
dobra
dobrado
dobrar
dobro
doc
doca
doce
docente
docentes
doces
docreader
doctor
document
documenta
documentac
documentada
documentado
documental
documento
documentos
documents
dodge
dodo
doenc
doente
doentes
does
dog
dogg
dogma
dogs
doha
doi
doido
dois
doll
dolls
dolly
dolo
dolores
dolorosa
doloroso
dolos
dolphins
dom
domain
dome
domenico
domi
domici
domiciano
domiciliar
domina
dominac
dominada
dominado
dominando
dominante
dominantes
dominar
dominaram
dominava
domingo
domingos
domingues
dominic
dominica
dominical
dominicana
dominicano
dominicanos
dominique
domino
dominou
don
dona
donald
donata
donato
donde
done
donetsk
dong
donna
donnell
donner
dono
donos
donovan
dons
donzela
doo
doom
door
doou
doping
dor
dora
dorado
dores
doria
dorian
doris
dorival
dorme
dormia
dormindo
dormir
dormito
dornicke
dorothy
dorsal
dorso
dortmund
dos
dose
doses
dossie
dot
dotada
dotado
dotados
dote
doto
dots
dou
douard
double
doubleday
doug
douglas
dourada
douradas
dourado
dourados
douro
dous
doutor
doutora
doutorado
doutoramento
doutores
doutrina
doutrinas
dove
dover
down
download
downloads
doyle
doze
dp
dr
dra
draco
dracula
draft
drag
draga
drago
dragon
dragons
drake
drama
dramas
dramaturgia
dramaturgo
dramaturgos
draper
drasticamente
dre
dream
dreams
dreamworks
drenagem
dresden
drew
dreyfus
drica
drico
dricos
dritte
drive
driver
dro
droga
drogas
dromo
dromos
drop
drudo
drug
drum
drummond
drums
ds
dt
du
dua
dual
duarte
duas
dub
dubai
dublada
dublado
dublador
dubladora
dubladores
dublagem
duble
dublin
dublou
ducado
ducados
ducal
duck
duda
dudley
dudu
due
duelo
dueto
duff
duffy
duke
dula
dulas
dulce
dulo
dulos
dum
duma
dumas
dumont
dunas
duncan
dunn
dunning
duo
duos
dupla
duplas
duplicac
duplo
duplos
duque
duques
duquesa
dura
durac
duradoura
duramente
duran
durante
durar
duraram
duraria
duras
dureza
durham
during
duro
duros
durou
dust
dustin
dutch
dutra
duty
duvida
duvido
duvidosa
duvidoso
dux
duzentos
dvd
dvds
dwight
dx
dy
dylan
dynamics
dynamite
dynasty
dz
e
ea
each
ead
eads
eagle
eagles
earl
early
earth
east
eastern
easy
eb
ebert
ec
eca
ecf
echo
ecle
eclesia
eclipse
eclodiu
eclosa
eco
ecolo
ecologia
ecology
econo
economia
economias
economic
economicamente
economics
economista
economistas
economy
ecossistema
ecossistemas
ecra
ecume
ecw
ed
eddie
eddy
eden
edgar
edgard
edge
edi
edic
ediciones
edifi
edificac
edificada
edificado
edimburgo
edinburgh
edison
edit
edita
editada
editadas
editado
editados
edital
editando
editar
edite
edited
edith
edition
editions
edito
editor
editora
editoras
editores
editoriais
editorial
editors
editou
edits
edmond
edmonton
edmund
edmundo
edo
eds
edson
edu
eduard
eduardo
educac
educacionais
educacional
educada
educado
educador
educadora
educadores
educar
education
educativa
educativas
educativo
educativos
edward
edwards
edwin
ee
ef
efe
efectivamente
efectuar
efeito
efeitos
efeme
efetiva
efetivamente
efetivo
efetivos
efetuada
efetuado
efetuar
effect
effects
efi
efica
eficaz
eficazes
eficie
eficiente
eficientes
ega
egas
egeu
egi
egipto
egito
ego
egoi
egypt
egyptian
eh
ei
eight
ein
eindhoven
eine
einer
einstein
eis
eisenhower
eisernen
eisner
eixo
eixos
ek
el
ela
elaborac
elaborada
elaboradas
elaborado
elaborados
elaborar
elaborou
elaine
elas
elba
elder
eldorado
ele
eleanor
electric
electro
electronic
elefante
elefantes
elega
elegante
elege
eleger
elegeram
elegeu
elegi
eleic
eleita
eleito
eleitor
eleitorado
eleitorais
eleitoral
eleitores
eleitos
elementar
elementares
elemento
elementos
elements
elena
elenco
eles
eletricidade
eletro
eletromagne
eleva
elevac
elevada
elevadas
elevado
elevador
elevadores
elevados
elevando
elevar
eleven
elevou
elfos
eli
eliana
elias
elimina
eliminac
eliminada
eliminadas
eliminado
eliminador
eliminadores
eliminados
eliminando
eliminar
elimination
eliminato
elimino
eliminou
eliot
elis
elisa
elisabeth
eliseu
elite
elites
eliza
elizabeth
ella
ellas
elle
ellen
elles
ellie
elliot
elliott
ellis
elmo
elo
elogiada
elogiado
elogiando
elogiaram
elogio
elogios
elogiou
elrei
elsa
else
elseif
elsevier
elst
elton
elvas
elvira
elvis
elza
em
ema
email
emancipac
emanuel
embaixada
embaixadas
embaixador
embaixadora
embaixadores
embaixo
embalagem
embalagens
embarac
embarcac
embarcar
embarcou
embargo
embarque
embasamento
embate
emblema
embora
emboscada
embraer
embria
embrio
embriona
eme
emenda
emendas
emerge
emergencial
emergente
emergentes
emergiu
emerson
emery
emfim
emi
emigrac
emigrantes
emigrou
emil
emilia
emiliano
emilio
emily
eminem
eminente
emir
emirado
emirados
emissa
emisso
emissor
emissora
emissoras
emite
emitida
emitidas
emitido
emitidos
emitir
emitiu
emma
emmanuel
emmy
emoc
emocionais
emocional
emocionalmente
emocionante
empatado
empatando
empatar
empate
empates
empatou
empenho
emperor
empi
empire
empossado
empre
empreendedor
empreendedores
empreendedorismo
empreendeu
empreendimento
empreendimentos
emprega
empregada
empregadas
empregado
empregador
empregadores
empregados
empregando
empregar
emprego
empregos
empregou
empreitada
empresa
empresariais
empresarial
empresas
emprestado
emprestou
empty
empurra
empurrar
empuxo
emquanto
en
encabec
encaixa
encaixar
encaminhado
encantado
encanto
encantos
encargos
encarnac
encarregada
encarregado
encarregados
encarregou
encarregue
encarte
encenac
encenada
encerra
encerrada
encerradas
encerrado
encerrados
encerramento
encerrando
encerrar
encerro
encerrou
enchente
enchentes
encher
enci
enciclope
enciclopedia
encomenda
encomendada
encomendado
encomendas
encomendou
encontra
encontrada
encontradas
encontrado
encontrados
encontram
encontramos
encontrando
encontrar
encontrara
encontraram
encontrarem
encontrava
encontravam
encontre
encontrei
encontro
encontros
encontrou
encorajar
encorajou
encosta
encostas
encourac
encyclopaedia
encyclopedia
encyclopædia
end
ende
enderec
endo
ene
enemy
energe
energia
energias
energy
enfatiza
enfatizando
enfatizar
enfatizou
enfermagem
enfermeira
enfermidade
enfim
enfoque
enfraquecer
enfraqueceu
enfraquecido
enfraquecimento
enfrenta
enfrentam
enfrentando
enfrentar
enfrentaram
enfrentaria
enfrentava
enfrentou
eng
engajamento
engana
enganado
enganar
engano
engels
engenharia
engenheiro
engenheiros
engenho
engenhos
engine
engineering
england
english
engloba
engrac
enigma
enix
eno
enorme
enormes
enough
enquadra
enquadram
enquadramento
enquadrar
enquanto
enredo
enrico
enrique
enriquecimento
ensai
ensaio
ensaios
enseada
ensemble
ensina
ensinado
ensinamentos
ensinando
ensinar
ensino
ensinou
enta
entanto
ente
entemente
entenda
entende
entendem
entendendo
entender
entendeu
entendi
entendia
entendida
entendido
entendidos
entendimento
entendo
enterprise
enterrada
enterrado
enterrados
enterro
entertainment
entes
entidade
entidades
entity
entorno
entra
entrada
entradas
entrado
entram
entrando
entrar
entrara
entraram
entrarem
entraria
entrasse
entrava
entre
entrega
entregando
entregar
entregou
entregue
entregues
entrei
entrelac
entretanto
entretenimento
entrevista
entrevistado
entrevistados
entrevistas
entroncamento
entropia
entrou
entry
entusiasmo
entusiastas
enunciado
envelhecimento
envelope
envenenamento
envergadura
envia
enviada
enviadas
enviado
enviados
enviando
enviar
enviaram
envio
enviou
environment
environmental
envolto
envolve
envolvem
envolvendo
envolvente
envolver
envolveram
envolveu
envolvia
envolvida
envolvidas
envolvido
envolvidos
envolvimento
enwiki
enxergar
enxofre
enzima
enzimas
enzo
eo
eoceno
eos
ep
epi
epic
epidemia
epidemias
epidemiologia
epidendrum
episcopado
episcopal
episo
episode
epita
epo
eps
epsilon
epstein
equac
equador
equatorial
equatoriana
equatoriano
equestre
equi
equili
equilibrada
equilibrado
equilibrar
equipa
equipada
equipadas
equipado
equipados
equipamento
equipamentos
equipas
equipe
equipes
equiv
equivale
equivalente
equivalentes
equivocada
er
era
eram
eras
erasmo
eres
ergue
erguendo
erguer
ergueu
erguida
erguido
eric
erica
erich
erick
erigida
erik
erika
eriksson
erin
eritreia
ermida
ernest
ernesto
ernie
ernst
ero
eros
erosa
erra
errada
erradas
errado
errados
erro
erroneamente
error
erros
errou
ers
erudita
erudito
eruditos
erupc
erva
ervas
erwin
es
esa
esboc
esca
escada
escadaria
escadas
escala
escalac
escalada
escalado
escalar
escalas
escamas
escandina
escapa
escapar
escaparam
escape
escapou
escaramuc
escarlate
escassa
escassez
escassos
escavac
esclarecer
esclarecido
esclarecimento
esclarecimentos
esco
escoamento
escobar
escoce
escocesa
escoceses
escola
escolar
escolares
escolaridade
escolas
escolha
escolhas
escolhe
escolhendo
escolher
escolheram
escolheu
escolhida
escolhidas
escolhido
escolhidos
escolinha
escolta
esconde
escondendo
esconder
esconderijo
escondeu
escondida
escondidas
escondido
escondidos
escopo
escrava
escravatura
escravida
escravizados
escravo
escravos
escreva
escreve
escrevem
escrevendo
escrever
escreveram
escreveu
escrevi
escrevia
escrevo
escrita
escritas
escrito
escritor
escritora
escritoras
escritores
escritos
escritura
escrituras
escriva
escruti
escudeiro
escudo
escudos
esculpida
escultor
escultores
escultura
esculturas
escura
escuras
escurida
escuro
escuros
escuta
escutar
escuto
esfe
esfera
esferas
esforc
esgotamento
esgoto
esgotos
esgrima
esgrimistas
eslavo
eslavos
eslova
eslovaco
eslove
esloveno
esmagadora
esmalte
esmeralda
esmeraldas
eso
esote
esp
espa
espac
espaciais
espacial
espada
espadas
espalha
espalhadas
espalhado
espalhados
espalhando
espalhar
espalharam
espalhou
espan
espanha
espanho
espanhol
espanhola
espanholas
espanto
esparta
espe
especi
especiais
especial
especialidade
especialidades
especialista
especialistas
especializac
especializada
especializadas
especializado
especializados
especializou
especialmente
especiarias
especifica
especificac
especificado
especificamente
especificar
especta
espectador
espectadores
espectral
espectro
espectros
espectroscopia
especula
especulac
espelho
espelhos
espera
esperada
esperado
esperados
esperam
esperanc
esperando
esperanto
esperar
esperava
esperavam
espero
esperou
espessa
espessura
espeta
espetacular
espi
espia
espiga
espingarda
espinha
espinhal
espinho
espinhos
espio
espionagem
espirais
espiral
espiritismo
espirito
espirituais
espiritual
espiritualidade
esplanada
esple
esplendor
espn
espo
esponta
espontaneamente
espora
esporadicamente
esporos
esporte
esportes
esportistas
esportiva
esportivas
esportivo
esportivos
esposa
esposas
esposo
espuma
esquadra
esquadro
esquec
esquece
esquecer
esqueceu
esqueci
esquecida
esquecido
esquecimento
esqueleto
esquema
esquemas
esquerda
esquerdo
esqui
esquina
esquizofrenia
esr
essa
essas
essays
esse
essenciais
essencial
essencialmente
essential
esses
essex
est
esta
estabelece
estabelecem
estabelecendo
estabelecer
estabeleceram
estabeleceu
estabelecia
estabelecida
estabelecidas
estabelecido
estabelecidos
estabelecimento
estabelecimentos
estabilidade
estabilizac
estac
estaciona
estacionamento
estada
estadia
estadista
estado
estados
estadounidense
estaduais
estadual
estadunidense
estadunidenses
estagia
estaleiro
estaleiros
estames
estamos
estampa
estandarte
estando
estanho
estar
estara
estarei
estarem
estaria
estariam
estas
estatais
estatal
estati
estatua
estatura
estatuto
estatutos
estava
estavam
este
esteban
esteira
esteja
estejam
estela
estelar
estelares
estende
estendem
estendendo
estender
estendeu
estendia
estendida
estendido
ester
estereo
estes
esteva
esteve
esteves
esther
esti
estigma
estili
estilista
estilizado
estilo
estilos
estima
estimac
estimada
estimado
estimados
estimar
estimativa
estimativas
estimou
estimula
estimulac
estimular
estipulado
estive
estiver
estiveram
estiverem
estivesse
estivessem
esto
estocolmo
estoniano
estoque
estoril
estou
estourou
estraba
estrada
estradas
estragos
estrangeira
estrangeiras
estrangeiro
estrangeiros
estranha
estranhas
estranho
estranhos
estrasburgo
estrate
estre
estreado
estreando
estreante
estrear
estrearam
estreia
estreias
estreita
estreitamente
estreitas
estreito
estreitos
estrela
estrelada
estrelado
estrelando
estrelar
estrelas
estrella
estrellas
estrelou
estremadura
estremoz
estreou
estresse
estrita
estritamente
estrito
estro
estrutura
estruturac
estruturada
estruturado
estruturais
estrutural
estruturas
estu
estua
estuda
estudada
estudadas
estudado
estudados
estudam
estudando
estudante
estudantes
estudantil
estudantis
estudar
estudava
estudiantes
estudioso
estudiosos
estudo
estudos
estudou
estufa
estupro
et
eta
etanol
etapa
etapas
etc
ete
eterna
eternal
eternamente
eternidade
eterno
ethan
ethnologue
eti
etimologia
etio
etiqueta
etnia
etnias
etno
etnogra
etnografia
eu
eua
eucari
eucaristia
euclides
eufrates
euge
eugen
eugene
eugenia
eugenio
eula
euler
eun
euphorbiaceae
eure
euri
eurico
euro
eurobasket
eurocopa
europa
europaea
europe
european
europeia
europeias
europeu
europeus
euros
eurovisa
eurovision
euse
eusta
eutugamsg
ev
eva
evacuac
evan
evandro
evange
evangelho
evangelhos
evangelista
evangelizac
evans
evaporac
evaristo
evasa
eve
evelyn
even
evening
event
evento
eventos
events
eventuais
eventual
eventualmente
ever
everett
everton
every
everybody
everything
evic
evide
evidence
evidencia
evidenciada
evidenciado
evidente
evidentemente
evidentes
evil
evita
evitado
evitando
evitar
evitou
evo
evoluc
evolui
evoluir
evoluiu
evolution
evolutiva
ex
exactamente
exagerada
exagerado
exagero
exaltac
exame
exames
examinar
example
exata
exatamente
exatas
exato
exausta
exce
excec
excedente
exceder
excele
excelente
excelentes
excelsior
excentricidade
excepc
excepcionais
excepcional
excepcionalmente
excepto
excessiva
excessivamente
excessivo
excesso
excessos
exceto
exchange
excitac
exclamou
exclui
excluindo
excluir
exclusa
exclusiva
exclusivamente
exclusivas
exclusividade
exclusivo
exclusivos
excursa
exe
execuc
executa
executada
executadas
executado
executados
executando
executar
executiva
executivo
executivos
executou
exemplar
exemplares
exemplo
exemplos
exerce
exercem
exercendo
exercer
exerceu
exerci
exercia
exercida
exercido
exercito
exi
exibe
exibem
exibia
exibic
exibida
exibidas
exibido
exibidos
exibindo
exibir
exibiu
exige
exigem
exigente
exigia
exigiam
exigida
exigido
exigidos
exigindo
exigir
exigiram
exigiu
exilado
exilados
exista
existam
existe
existem
existencial
existente
existentes
existia
existiam
existido
existindo
existir
existiram
existirem
existisse
existiu
exists
exo
exoplanetas
expande
expandida
expandido
expandindo
expandir
expandiu
expansa
expanso
expatriados
expectativa
expectativas
expedic
expediciona
expediente
experie
experience
experiente
experientes
experimenta
experimentac
experimentado
experimentais
experimental
experimentar
experimento
experimentos
experimentou
expli
explica
explicac
explicada
explicado
explicam
explicando
explicar
explicitamente
explicou
expliquei
explode
explodir
explodiu
explora
explorac
explorada
explorado
explorador
exploradores
explorados
explorando
explorar
explorer
explorou
explosa
explosivo
explosivos
exploso
expo
expoente
expoentes
expondo
exponencial
expor
exportac
exposic
exposta
expostas
exposto
expostos
express
expressa
expressam
expressamente
expressando
expressar
expressaram
expressas
expressiva
expressivo
expressivos
expresso
expressos
expressou
expulsa
expulsar
expulso
expulsos
expulsou
extended
extensa
extensas
extensivamente
extenso
extensos
exterior
exteriores
extermi
externa
externamente
externas
externo
externos
extinc
extinguir
extinguiu
extinta
extintas
extinto
extintos
extra
extrac
extragala
extrai
extrair
extraordina
extras
extrato
extratropical
extravagante
extrema
extremamente
extremas
extreme
extremidade
extremidades
extremo
extremos
eye
eyed
eyes
ez
ezequiel
f
fa
fab
fabaceae
faber
fabiana
fabiano
fabio
fabiobarros
fabri
fabrica
fabricac
fabricada
fabricadas
fabricado
fabricados
fabricante
fabricantes
fabricar
fabriciano
fabrico
fac
faca
facas
facc
face
facebook
faces
fachada
fachadas
faciais
facial
facilidade
facilita
facilitando
facilitar
facility
facilmente
fact
facto
factor
factores
factory
factos
facts
faculdade
faculdades
fada
fadas
fadiga
fado
fago
fagos
fagundes
fai
faial
fair
faith
faixa
faixas
faja
fake
fala
falada
faladas
falado
falae
falam
falando
falante
falantes
falar
falaram
falas
falava
falavam
falca
falco
falcon
fale
falecer
faleceu
falecida
falecido
falecidos
falecimento
falecimentos
falei
falem
falha
falhado
falhar
falharam
falhas
falhou
fall
falling
falls
falo
falou
falsa
falsas
false
falsidade
falsificac
falso
falsos
falta
faltam
faltando
faltar
faltas
faltava
faltou
fam
fama
famalica
fame
fami
familia
familiar
familiares
families
family
famosa
famosas
famoso
famosos
famous
fan
fana
fancruft
fanes
fanny
fano
fanta
fantasia
fantasias
fantasma
fantasmas
fantastic
fantasy
fantoche
fantoches
fao
far
fara
farao
farei
faria
fariam
farias
farinha
farm
farma
farmace
faro
faroe
faroeste
farol
farrell
farroupilha
farsa
fasci
fascismo
fascista
fascistas
fase
fases
fashion
faso
fast
fat
fatais
fatal
fate
father
fati
fato
fator
fatores
fatos
faturamento
faturou
fauna
faunaeur
faunal
fausta
faustino
fausto
favela
favelas
favor
favora
favorece
favorecendo
favorecer
favoreceu
favores
favorita
favoritas
favorito
favoritos
faz
faze
fazem
fazemos
fazenda
fazendas
fazendeiro
fazendeiros
fazendo
fazer
fazerem
fazia
faziam
fb
fbi
fc
fe
fear
feat
feature
features
featuring
feb
febre
february
fecha
fechada
fechadas
fechado
fechados
fechamento
fechando
fechar
fecharam
fecho
fechou
fectoral
fecundidade
federac
federais
federal
federalista
federation
federativa
federico
feedback
feel
feeling
fego
feia
feic
feija
feijo
feio
feira
feiras
feita
feitas
feitic
feiticeira
feiticeiro
feito
feitos
feixe
feixes
feld
felgueiras
feli
felice
feliciano
felicidade
felipe
felix
feliz
felizes
felizmente
fellgiebel
fellow
fellows
female
feminina
femininas
feminino
femininos
feminismo
feminista
feministas
femme
fenda
fendas
feni
feno
fenton
fer
fera
feras
ferdinand
fere
ferguson
feriado
feriados
ferida
feridas
ferido
feridos
ferimento
ferimentos
ferindo
ferir
feriu
fermentac
fermi
ferna
fernanda
fernandes
fernandez
fernando
fero
feros
feroz
ferra
ferramenta
ferramentas
ferrara
ferrari
ferraz
ferreira
ferreiro
ferrer
ferro
ferros
ferrovia
ferrovias
ferry
fertilidade
fertilizac
fertilizantes
feso
fest
festa
festas
festejos
festivais
festival
festividades
feto
feudal
feudo
fev
fever
fevereiro
fey
fez
fezes
ff
ffffff
fgv
fi
fia
fiabilidade
fianc
fiat
fiba
fibra
fibras
fica
ficado
ficam
ficamos
ficando
ficar
ficara
ficaram
ficarem
ficaria
ficariam
ficas
ficasse
ficassem
ficava
ficavam
ficc
ficcional
fice
ficha
ficheiro
ficheiros
ficit
fico
ficos
ficou
ficti
fiction
fidalgo
fidalgos
fide
fidel
fidelidade
fie
fiel
field
fields
fifa
fifth
fig
fight
fighter
fighters
fighting
figueira
figueiredo
figueirense
figura
figurar
figuras
figure
figurino
figurinos
figurou
fiji
fila
filade
filantro
filarmo
filas
file
fileira
fileiras
files
filha
filhas
filho
filhos
filhote
filhotes
filiac
filiada
filiado
filiados
filiais
filial
filiou
filipa
filipe
filipina
filipinas
filipino
filippo
film
filmada
filmadas
filmado
filmagem
filmagens
filmar
filme
filmes
filmografia
filmou
films
filo
filogene
filogenia
filologia
filomena
filos
filoso
filosofia
filtro
filtros
fim
fin
fina
finais
final
finale
finalidade
finalidades
finalista
finalistas
finalizac
finalizada
finalizado
finalizando
finalizar
finalizaram
finalizo
finalizou
finalmente
financ
finance
financeira
financeiramente
financeiras
financeiro
financeiros
financiada
financiado
financial
financiamento
financiar
finas
find
findo
fine
fingindo
fingir
finita
finito
finla
finlande
finlandesa
finn
fino
finos
fins
fio
fiona
fiorentina
fios
fique
fiquei
fiquem
fire
firefox
firenze
firma
firmado
firmar
firme
firmemente
firmeza
firmino
firmou
first
fiscais
fiscal
fiscalizac
fiscalizar
fischer
fish
fisher
fishes
fisicamente
fisiolo
fisiologia
fisionomia
fisioterapia
fissa
fita
fitas
fito
fitos
fitossociologia
fitzgerald
five
fixa
fixac
fixada
fixado
fixados
fixando
fixar
fixas
fixo
fixos
fixou
fiz
fizemos
fizer
fizera
fizeram
fizesse
fizessem
fk
fl
fla
flag
flagrante
flags
flair
flame
flamengo
flamsteed
flanco
flancos
flandres
flash
flashback
flauta
flavio
flecha
flechas
fleming
fletcher
flexa
flexi
flexibilidade
flickr
flight
flip
flo
flood
floor
flor
flora
florac
florais
flore
florenc
florence
florentino
flores
floresce
floresceu
floresta
florestais
florestal
florestas
floriano
florida
flow
flower
flowering
flowers
floyd
flu
flui
fluido
fluidos
fluminense
flutuac
flutuante
fluviais
fluvial
fluxo
fluxos
fly
flying
flynn
fm
fml
fn
fo
foca
focada
focado
focal
focando
focar
focas
focinho
foco
focos
focus
foge
fogem
fogo
fogos
fogueira
foguete
foguetes
foi
fokker
folclo
folclore
foley
folga
folha
folhagem
folhas
folheto
foli
folia
folio
folk
follow
fome
fomentar
fomento
fomos
fona
fone
fonemas
fono
fonogra
fonologia
fonos
fonseca
font
fontaine
fontana
fonte
fontes
fontsize
foo
food
foot
football
for
fora
foral
forall
foram
foras
forbes
forc
force
forces
ford
foreign
forem
forense
forest
forever
form
forma
formac
formada
formadas
formado
formados
formais
formal
formalmente
formam
formando
formar
formaram
formas
format
formatac
formation
formato
formatos
formatura
formava
formavam
formicidae
formicinae
formida
formiga
formigas
formosa
formoso
formou
forms
formula
formulac
formular
fornece
fornecedor
fornecedores
fornecem
fornecendo
fornecer
forneceram
forneceu
fornecia
fornecida
fornecidas
fornecido
fornecidos
fornecimento
forno
fornos
foro
foros
forrest
forro
forst
fort
fortalecer
fortaleceu
fortalecimento
fortaleza
fortalezas
forte
fortemente
fortes
fortificac
fortificada
fortuna
fortunato
fortune
forum
forward
fosfato
fossa
fosse
fossem
fosso
foster
foto
fotogra
fotografia
fotografias
fotos
foucault
found
foundation
four
fourier
fourth
fowler
fox
foy
foz
fp
fpf
fr
fra
frac
fraca
fracas
fracassada
fracassado
fracasso
fracassou
fraco
fracos
frade
frades
fraga
fragata
fragilidade
fragmentac
fragmento
fragmentos
fragoso
frame
framework
franc
franca
francamente
france
frances
francesa
francesas
francesca
francesco
franceses
francis
francisca
franciscana
franciscano
franciscanos
francisco
franco
francos
frango
frank
frankenstein
frankfurt
frankie
franklin
franquia
franquias
franz
fraqueza
frase
fraser
frases
fraternidade
fratura
fraude
fraudes
fre
fred
freddie
freddy
frederic
frederick
frederico
free
freedom
freeman
freestyle
freguesia
freguesias
frei
freiburg
freio
freios
freira
freiras
freire
freitas
freixo
french
frente
frentes
frequ
freque
frequentado
frequentar
frequente
frequentemente
frequentes
frequentou
fresca
fresco
frescos
fresh
freud
frey
fri
fria
frias
friburgo
frica
friday
friedman
friedrich
friend
friends
frio
frios
friso
fritz
fro
from
front
fronta
frontal
fronte
fronteira
fronteiras
fronteiric
frontier
frost
frota
frotas
frozen
frustrac
frustrada
frustrado
fruta
frutas
fruti
fruto
frutos
fs
fsogumo
ft
fte
ftp
fu
fuentes
fuga
fugido
fugindo
fugir
fugiram
fugitivos
fugiu
fui
fuji
fujiwara
fulano
full
fuller
fumac
fumar
fumo
fun
func
funchal
funciona
funcionais
funcional
funcionalidade
funcionalidades
funcionam
funcionamento
funcionando
funcionar
funcionava
funcionou
function
functions
fund
funda
fundac
fundada
fundadas
fundado
fundador
fundadora
fundadores
fundados
fundamentac
fundamentada
fundamentais
fundamental
fundamentalmente
fundamento
fundamentos
fundando
fundar
fundaram
fundic
fundida
fundidas
fundido
fundidos
fundir
fundiu
fundo
fundos
fundou
funera
funeral
fungo
fungos
funk
furaca
furaco
furioso
furnas
furor
furtado
fury
fusa
fuselagem
fusion
fuso
futebol
futeboli
futebolista
futebolistas
futsal
futura
futuramente
futuras
future
futurista
futuro
futuros
fuzil
fuzileiros
fuzis
fx
g
ga
gaba
gabinete
gabinetes
gabriel
gabriela
gabrielle
gaddafi
gadget
gado
gae
gaetano
gaf
gaga
gaia
gail
gaiola
gaita
gal
gala
galaxy
gale
galea
galega
galego
galegos
galera
galeria
galerias
gales
galhos
gali
galicia
galileu
galinha
galinhas
galiza
gallagher
gallery
gallimard
gallo
galo
galva
gama
gamba
game
gamecube
games
gamespot
gaming
gamma
gana
gancho
gandhi
gang
gangue
gangues
ganha
ganhado
ganhador
ganhadores
ganham
ganhando
ganhar
ganharam
ganharia
ganhava
ganho
ganhos
ganhou
ganso
gaon
gap
garagem
garante
garantem
garantia
garantias
garantida
garantido
garantindo
garantir
garantiram
garantiu
garavello
garc
garci
garcia
gard
garde
garden
gardens
gardner
gare
garfield
garganta
garibaldi
garland
garota
garotas
garoto
garotos
garra
garrafa
garrafas
garras
garrett
garrido
garrincha
garros
gary
gas
gases
gasolina
gaspar
gasta
gastar
gasto
gaston
gastos
gastou
gastro
gastrono
gastronomia
gata
gate
gates
gatilho
gato
gatos
gau
gauleses
gaulle
gauss
gavia
gavin
gay
gays
gaza
gazeta
gazette
gazetteers
gb
gc
ge
gean
gear
geiger
geis
geisel
gel
gelo
gema
gemini
gen
gena
genas
gender
gene
genealo
genealogia
genebra
genera
generais
general
generalidade
generalista
generalizac
generalizada
generalizado
generation
generic
generosidade
generoso
genes
genesis
geneticamente
genius
geno
genoci
genoma
genos
genro
gente
gentes
gentil
gentileza
gentili
genui
genus
geo
geode
geoestaciona
geoff
geoffrey
geofi
geogra
geografia
geograficamente
geographic
geolo
geologia
geome
geometria
geometry
geopoli
georg
george
georges
georgetown
georgia
georgiana
georgiano
geosapiens
ger
gera
gerac
gerada
geradas
gerado
gerador
geradores
gerados
gerais
geral
gerald
geraldo
geralmente
geram
gerando
gerar
geraram
gerard
gerardo
gere
gerenciamento
gerenciar
gerente
gerhard
gerir
germa
germain
german
germano
germany
gerou
gerson
gertrudes
gerva
geschichte
gesellschaft
gesso
gesta
gestac
gesto
gestor
gestores
gestos
get
gets
getu
ghost
ghostp
ghz
gi
gia
giacomo
gian
gianni
giant
giants
gias
gibbs
gibraltar
gibson
gica
gicas
gico
gicos
gida
gidas
gide
gido
gidos
gif
gift
gigante
gigantes
gigantesca
gigantesco
gil
gilbert
gilberto
giles
gill
gilles
gilmar
gilson
gina
ginas
ginasta
ginastas
ginetes
gino
gio
giorgio
gios
giovanna
giovanni
gira
girando
girar
girato
girino
girl
girls
giro
girona
gis
gitos
giulia
giulio
giuseppe
give
given
gjpab
gl
gla
glacial
glaciar
glam
glasgow
glass
glen
glenea
glenn
gli
glicose
glifos
glo
globais
global
globalizac
globalmente
globe
globo
globoesporte
gloria
gloriosa
glorioso
glory
gloucester
glover
glu
gm
gmbh
gmina
gminy
gmt
gnia
gnias
gno
gnome
gnu
go
goa
goal
gob
god
godinho
godofredo
godos
godoy
gods
goes
goethe
goff
gogh
goia
goiana
goiano
going
goku
gol
gola
gold
goldberg
golden
goldman
goldstein
goldwyn
goleada
goleiro
goleiros
golf
golfe
golfinhos
golfo
golo
golos
golpe
golpes
gols
gomes
gomez
gonc
gone
gong
gonna
gono
gonza
gonzaga
gonzalez
gonzalo
goo
good
goodbye
goodman
google
goras
gordo
gordon
gordura
gore
gospel
gosta
gostam
gostar
gostaria
gostava
gostei
gosto
gostos
gostou
got
gota
gotas
gotemburgo
gotham
gottfried
goulart
gould
gouveia
gov
govaerts
governa
governada
governado
governador
governadora
governadores
governamentais
governamental
governanc
governante
governantes
governar
governava
government
governo
governos
governou
goya
goytacazes
gozar
gozo
gp
gps
gr
gra
grac
grace
gracie
graciosa
gradativamente
grade
grades
gradiente
grado
graduac
graduado
graduados
gradual
gradualmente
graduou
graf
grafa
grafado
grafia
grafite
grafo
grafos
graham
gram
grama
gramado
gramados
gramas
gramaticais
gramatical
grami
grammar
grammy
gran
granada
granadas
grand
grande
grandemente
grandense
grandes
grandeza
grandezas
granito
granja
grant
graphic
gratida
grato
gratuita
gratuitamente
gratuitas
gratuito
gratuitos
grau
graus
grava
gravac
gravada
gravadas
gravado
gravador
gravadora
gravadoras
gravados
gravando
gravar
gravaram
gravata
grave
gravemente
graves
gravidade
gravidez
gravitacional
gravou
gravura
gravuras
gray
graz
gre
great
greatest
greco
greece
greek
green
greene
greenwich
greenwood
greg
grega
gregas
gregg
grego
gregor
gregoriana
gregoriano
gregorio
gregory
gregos
greta
greve
greves
grey
grid
griffin
griffith
grimas
grimes
grimm
grin
gripe
grita
gritando
gritar
grito
gritos
gritou
gro
groenla
groove
gross
grossa
grossas
grossense
grosso
ground
group
groups
grove
growth
grs
gru
grunge
grupo
grupos
gruta
grutas
gruyter
gs
gsub
gt
gu
gua
guac
guadalajara
guadalupe
guai
guam
guanabara
guara
guarani
guararapes
guaratingueta
guard
guarda
guardado
guardar
guardas
guardia
guardian
guardio
guarnic
guaruja
guarulhos
guas
guatemala
gue
gueda
guedes
guerra
guerras
guerreira
guerreiro
guerreiros
guerrero
guerrilha
guerrilheiro
guerrilheiros
guevara
guez
guggenheim
gui
guia
guiana
guiar
guias
guida
guide
guido
guild
guilherme
guilhermina
guilhotina
guillaume
guillermo
guimara
guine
guinea
guinness
guitar
guitarra
guitarras
guitarrista
guitarristas
gula
gulbenkian
gun
gundam
gunn
gunnex
guns
guo
gurgel
guru
gus
gusma
gustav
gustave
gustavo
gutenberg
gutie
guy
guzma
gwen
h
ha
haas
hab
habeas
habilidade
habilidades
habilitac
habita
habitac
habitacionais
habitacional
habitada
habitadas
habitado
habitam
habitante
habitantes
habitat
habitats
habitavam
habituais
habitual
habitualmente
habsburgo
habsburgos
hac
hacker
had
haddad
hades
hahn
hai
haia
hair
haiti
haja
hal
hale
haleakala
haley
half
halifax
hall
halle
halley
halloween
halo
halterofilismo
ham
hamas
hamburg
hamburgo
hamilton
hamlet
hammer
hammond
hampshire
hampton
han
hana
hancock
hand
handbook
handbuch
handebol
handebolistas
hands
hangar
hangul
hank
hanna
hannah
hannover
hano
hans
hansen
happy
hara
harbor
hard
hardcore
harding
hardware
hardy
hare
harlem
harley
harmo
harmonia
harmony
harold
haroldo
harpa
harper
harriet
harris
harrison
harry
hart
hartmann
harvard
harvey
has
hash
hassan
hasta
haste
hastings
hat
hate
haute
havai
havana
have
haven
havendo
haver
havera
haveria
havia
haviam
havido
havilland
hawaii
hawk
hawkins
hawks
hay
hayden
hayes
hbo
hc
hd
he
head
health
heart
hearts
heat
heath
heather
heaven
heavy
heavyweight
hebe
hebraica
hebraico
hebreus
hectares
hector
hee
heer
hegel
hegemonia
hehe
hei
heidelberg
height
heights
hein
heinrich
heinz
heisei
heitor
helder
hele
helen
helena
heleni
helico
helio
hell
hello
helmut
heloi
help
helsinki
helsinque
hemeroteca
hemisfe
hemorragia
henderson
hendrix
henri
henriette
henrik
henrique
henriques
henriqueta
henry
hepa
hepatite
hepburn
her
hera
herald
heranc
herba
herbarium
herbert
herbi
herculano
hercules
herdada
herdade
herdado
herdeira
herdeiro
herdeiros
herdou
here
heredita
heresia
heritage
herman
hermann
hermano
hermes
herna
hernandez
hero
herodes
heroes
heroi
herrera
herschel
herzegovina
herzog
hesse
het
heteroge
hexagonal
hey
hi
hiato
hidalgo
hidden
hidra
hidrele
hidro
hidrocarbonetos
hidroge
hidrogra
hidrografia
hidrologie
hiera
hierarchy
hierarquia
hieroglyph
higgins
high
higher
highway
higiene
hila
hilary
hilbert
hilda
hill
hillary
hills
hilton
him
himeno
hindi
hindu
hindui
hindus
hinkel
hino
hinos
hip
hipertensa
hipo
hipote
hipparcos
hiroshi
hiroshima
his
hispa
hispano
hispanos
hist
histo
histoire
historia
historiador
historiadora
historiadores
historic
historical
historicamente
historico
historiografia
history
hit
hitchcock
hitler
hits
hiv
hl
hm
hms
ho
hoc
hockey
hoffman
hoffmann
hogan
hohenzollern
hoje
hokkaido
holanda
holande
holandesa
holandesas
holandeses
hold
holden
holding
holdings
hole
holiday
holland
holly
hollywood
holmes
holo
holocaust
holocausto
holstein
holt
holy
home
homem
homenageada
homenageado
homenagear
homenageia
homenagem
homenagens
homenageou
homens
homepage
homer
homero
homici
homme
homo
homofobia
homoge
homossexuais
homossexual
homossexualidade
honda
honduras
honesta
honestidade
honesto
honey
hong
hono
honolulu
honor
honora
honore
honori
honoris
honra
honrado
honrar
honrarias
honras
honrosa
hood
hook
hooker
hooper
hop
hope
hopkins
hopper
hora
horace
horas
horda
horizon
horizontais
horizontal
horizonte
horizontes
hormo
horn
hornets
horri
horror
horse
horta
horto
hospedado
hospedagem
hospedeiro
hospitais
hospital
hospitalar
host
hostil
hostilidade
hostilidades
hostis
hot
hote
hotel
houaiss
hour
hours
house
houston
houve
houver
houvesse
how
howard
howe
hp
hq
hr
hrer
hrsg
hs
htm
html
htpf
http
https
hu
hua
huang
hub
hubble
hubert
hudson
huggle
hugh
hughes
hugo
hui
hulk
hull
hum
huma
humaita
human
humana
humanas
humanidade
humanidades
humanismo
humanista
humanistas
humanita
humano
humanos
humberto
humboldt
hume
humildade
humilde
humildes
humilhac
humor
humori
humorista
humoristas
humphrey
hundred
hungria
hunos
hunt
hunter
hurricane
hurt
hussein
huxley
hvl
hyde
hye
hyperbroad
hyun
hz
i
ia
iaaf
iago
iam
ian
ias
iate
ib
iba
ibe
iberica
ibero
ibge
ibid
ibirapuera
ibm
ibn
ibne
ibope
ibrahim
ic
ica
ice
ich
icmbio
ico
icon
iconografia
id
ida
idade
idades
idaho
ide
idea
ideais
ideal
idealismo
idealizada
idealizado
ideas
ideia
ideias
idem
identidade
identidades
identifica
identificac
identificada
identificadas
identificado
identificador
identificados
identificam
identificando
identificar
identificaram
identification
identificou
identity
ideolo
ideologia
ideologias
ides
idh
idioma
idiomas
idiota
ido
idol
idosa
idoso
idosos
ie
ieee
if
ig
iga
igarape
iglesias
ign
ignacio
ignic
ignora
ignorada
ignorado
ignorando
ignorar
ignorou
igor
igreja
igrejas
iguac
iguais
igual
igualdade
igualita
igualmente
ii
iii
ik
il
ildis
ile
ilegais
ilegal
ilegalmente
ilegi
ilha
ilhas
ilhe
ili
illinois
illustrated
illustrations
ilo
iluminac
iluminada
iluminado
iluminismo
ilusa
iluso
ilustra
ilustrac
ilustrada
ilustrado
ilustrador
ilustradores
ilustrar
ilustre
ilustres
im
ima
imaculada
image
imagem
imagens
images
imagesize
imagina
imaginac
imaginar
imagine
imagino
imaterial
imdb
imediac
imediata
imediatamente
imediatas
imediato
imediatos
imensa
imenso
imersa
img
imigrac
imigrante
imigrantes
iminente
imitac
imitando
imitar
immortal
imo
imobilia
imortais
imortal
imortalidade
impact
impacto
impactos
imparcial
imparcialidade
impasse
impe
impeachment
impec
impede
impedem
impedi
impedia
impedido
impedidos
impedimento
impedindo
impedir
impediram
impediu
imperador
imperadores
imperativo
imperatore
imperatriz
imperiais
imperial
imperialismo
imperio
implaca
implantac
implantada
implantado
implantar
implantou
implementac
implementada
implementadas
implementado
implementar
implementou
impli
implica
implicac
implications
impo
impondo
imponente
impopular
impor
importa
importac
importado
importados
importante
importantes
importar
imposic
impossi
impossibilidade
imposta
impostas
imposto
impostos
imprensa
imprescindi
impressa
impressas
impressionado
impressionante
impressionantes
impressionou
impresso
impressos
imprevisi
imprimir
impro
improva
improvisac
impulsionado
impulsionar
impulso
impulsos
imune
imunidade
imunolo
in
ina
inaceita
inacessi
inadequada
inadequado
inatividade
inativo
inaugura
inaugurac
inaugurada
inauguradas
inaugurado
inaugurados
inaugural
inaugurou
inc
inca
incapacidade
incapaz
incapazes
incas
ince
incentiva
incentivar
incentivo
incentivos
incentivou
incerta
incerteza
incerto
inch
incide
incidente
incidentes
inciso
inclinac
inclinada
inclinado
including
incluem
inclui
incluindo
incluir
incluiu
inclusa
inclusive
incluso
inco
incompati
incompleta
incompleto
incomum
incomuns
inconclusiva
incondicional
inconsciente
incontesta
inconteste
incorpora
incorporac
incorporada
incorporadas
incorporado
incorporados
incorporando
incorporar
incorporou
incorreta
incorretamente
incorreto
increment
incremento
incri
incrivelmente
incubac
incumbe
incursa
incurso
inda
indech
indefinidamente
indefinido
indenizac
independe
independence
independent
independente
independentemente
independentes
independiente
indeseja
indeterminado
indevida
indevidamente
indevido
index
indi
india
indian
indiana
indianapolis
indianas
indiano
indianos
indica
indicac
indicada
indicadas
indicado
indicador
indicadores
indicados
indicam
indicando
indicar
indicaram
indicativo
indicava
indicou
indie
indiferenc
indiferente
indignac
indique
indireta
indiretamente
indireto
indispensa
indivi
individuais
individual
individualmente
indo
indochina
indone
indoor
indu
induc
industria
industriais
industrial
industrializac
industries
industry
induzida
induzido
induzir
indy
indycar
ine
inerente
inerentes
inesperada
inesperadamente
inesperado
inesqueci
inevita
inevitavelmente
inexiste
inexistente
inexistentes
infa
infame
infanta
infantaria
infante
infantil
infantis
infanto
infarto
infec
infecc
infectados
infeliz
infelizmente
infere
inferior
inferiores
inferno
inferred
infiltrac
infinidade
infinita
infinitamente
infinitas
infinite
infinito
infinity
inflac
inflamac
inflamato
infloresce
influe
influence
influencia
influenciada
influenciadas
influenciado
influenciados
influenciam
influenciar
influenciaram
influenciou
influente
influentes
info
infobox
infocaixa
informa
informac
informada
informado
informados
informais
informal
informalmente
informando
informar
information
informativo
informe
informou
infra
infrac
infraestrutura
infraestruturas
infravermelho
infty
inga
inge
ingesta
inglaterra
ingle
inglesa
inglesas
ingleses
ingredientes
ingressar
ingresso
ingressos
ingressou
ingrid
ini
inibic
inibidores
inicia
iniciac
iniciada
iniciadas
iniciado
iniciados
iniciais
inicial
inicialmente
iniciam
iniciando
iniciar
iniciaram
iniciativa
iniciativas
iniciava
inicio
iniciou
inimiga
inimigas
inimigo
inimigos
injec
injustamente
injustic
injusto
inn
inner
ino
inoce
inocente
inocentes
inorga
inovac
inovador
inovadora
inovadoras
inovadores
inox
input
inque
inquisic
insatisfac
insatisfeito
inscrever
inscreveu
inscric
inscrita
inscrito
inscritos
insecta
insectos
inseguranc
inserc
insere
inserida
inseridas
inserido
inseridos
inserindo
inserir
inseriu
insert
inseto
insetos
insi
inside
insignificante
insiste
insistindo
insistir
insistiu
inso
inspec
inspector
inspetor
inspira
inspirac
inspirada
inspiradas
inspirado
inspirados
inspirar
inspirou
insta
instabilidade
instagram
instala
instalac
instalada
instaladas
instalado
instalados
instalar
instalaram
instalou
instanta
instantaneamente
instante
instantes
instaurac
instinto
institucionais
institucional
institui
instituic
instituiu
institut
institute
institution
instituto
institutos
instruc
instrui
instrumentac
instrumentais
instrumental
instrumentista
instrumento
instrumentos
instrutor
insuficie
insuficiente
insuficientes
insular
insulares
insulina
insulto
insultos
insurge
insurgentes
insurreic
int
inte
integra
integrac
integrada
integradas
integrado
integrados
integrais
integral
integralmente
integram
integrando
integrante
integrantes
integrar
integridade
integrou
inteira
inteiramente
inteiras
inteiro
inteiros
intel
intelecto
intelectuais
intelectual
intelige
inteligente
inteligentes
intelligence
intelsat
intenc
intencional
intencionalmente
intendente
intensa
intensamente
intensas
intensidade
intensificac
intensificar
intensificou
intensiva
intenso
intensos
intento
inter
interac
interactions
interactive
interagem
interagir
interativa
interativo
interca
interceptac
intercontinental
interdisciplinar
interessa
interessada
interessadas
interessado
interessados
interessante
interessantes
interessar
interesse
interesses
interessou
interestadual
interface
interfaces
interfere
interferir
interinamente
interino
interior
interiores
interme
intermedia
intermina
intermitentes
interna
internac
internacionais
internacional
internacionalizac
internacionalmente
internado
internamente
internas
international
internationale
internato
internazionale
internet
interno
internos
interpreta
interpretac
interpretada
interpretadas
interpretado
interpretados
interpretam
interpretando
interpretar
interpretaram
interpretou
interrogato
interromper
interrompeu
interrompida
interrompidas
interrompido
interrupc
interscope
intersec
intersecc
intervalo
intervalos
interveio
intervenc
interventor
interview
intervir
interwiki
interwikis
intestinal
intestino
intimamente
intimidade
intitulada
intitulado
into
intolera
intoxicac
intra
intri
intrigas
intro
introduc
introduction
introduto
introduz
introduzida
introduzidas
introduzido
introduzidos
introduzindo
introduzir
introduziram
introduziu
intuic
intuito
inu
inundac
inva
invade
invadida
invadido
invadir
invadiram
invadiu
invasa
invasion
invaso
invasor
invasoras
invasores
inve
inveja
invenc
inventa
inventada
inventado
inventar
inventor
inventores
inventou
inverno
invernos
inversa
inverso
invertebrados
invertido
investido
investidor
investidores
investiga
investigac
investigado
investigador
investigadores
investigar
investigation
investigou
investimento
investimentos
investir
investiu
invia
invicta
invicto
invisi
invisible
invocac
invocar
involunta
io
ion
ionala
iorque
ioruba
ios
iowa
ip
ipa
ipanema
ipatinga
ipe
iphan
iphone
ipiranga
ipod
ips
ir
ira
iracema
iran
iraniana
iraniano
iranianos
iraque
iraquiana
iraquiano
iraquianos
irc
irei
ireland
irem
irene
iria
iriam
irineu
iris
irish
irlanda
irlande
irlandesa
irlandeses
irma
irmandade
iro
iron
ironia
ironicamente
irreduti
irregular
irregulares
irregularidade
irregularidades
irrelevante
irrelevantes
irreversi
irrigac
irritac
irritado
irving
irwin
is
isa
isaac
isabel
isabela
isabella
isabelle
isai
isaura
isbn
ise
isenc
ishiai
isidoro
isla
islam
islamismo
island
islande
islands
isle
ismael
ismail
iso
isolada
isoladas
isolado
isolados
isolamento
isolar
israel
israelense
israelenses
israelita
israelitas
iss
issn
isso
issue
issues
ist
istambul
isto
istoe
it
ita
itajai
italia
italian
italiana
italianas
italiano
italianos
italy
itamar
itapemirim
itau
item
itens
iterac
itinera
ito
its
itu
itunes
itv
iu
iucn
iugosla
iugoslava
iv
iva
ivan
ivete
ivo
ivy
iw
ix
iz
izunoryu
j
ja
jabuti
jacare
jacarepagua
jacarta
jacinto
jack
jackie
jackson
jacksonville
jaco
jacob
jacobs
jacopo
jacqueline
jacques
jade
jadolfo
jae
jaguar
jaime
jair
jairo
jake
jakob
jam
jamaica
jamais
james
jamie
jan
jane
janeiro
janela
janelas
janet
jang
jansen
jantar
janua
january
japa
japan
japanese
japone
japonesa
japonesas
japoneses
jaqueta
jar
jaragua
jardas
jardel
jardi
jardim
jardins
jared
jarvis
jason
jasper
jato
jatos
jau
java
javascript
javier
jay
jayme
jazz
jb
jd
je
jean
jeanne
jeans
jedi
jeff
jefferson
jeffrey
jeito
jejum
jena
jenkins
jenna
jennifer
jennings
jenny
jens
jensen
jeova
jeremias
jeremy
jericho
jero
jerome
jerry
jersey
jerusale
jerusalem
jesse
jessica
jessie
jesu
jesui
jesus
jet
jets
jewish
jf
jg
jh
ji
jill
jim
jime
jimi
jimmy
jin
jitsu
jiu
jk
jlca
jma
jmagalha
jmgm
jo
joa
joachim
joalpe
joan
joana
joanna
joao
joaqui
joaquim
joaquina
job
jobim
jobs
joe
joel
joelho
joelhos
joey
joga
jogabilidade
jogada
jogadas
jogado
jogador
jogadora
jogadoras
jogadores
jogados
jogam
jogando
jogar
jogara
jogaram
jogava
jogo
jogos
jogou
johan
johann
johannes
johansson
john
johnny
johns
johnson
johnston
joia
joias
joint
joinville
jon
jonas
jonathan
jones
jong
jonny
joo
joon
jorda
jordan
jorge
jornada
jornadas
jornais
jornal
jornali
jornalismo
jornalista
jornalistas
jose
josef
josefa
josefina
josefo
josep
joseph
josh
joshua
josue
jota
journal
journey
jovem
jovens
joy
joyce
jp
jpeg
jpg
jr
js
jssx
jstor
jtwc
ju
jua
juan
juarez
juazeiro
jubileu
juca
juda
judai
judaica
judaicas
judaico
judas
judd
jude
judeia
judeu
judeus
judge
judia
judicia
judiciais
judicial
judith
judo
judocas
judy
jugosla
jui
juiz
jul
jules
julga
julgado
julgados
julgamento
julgamentos
julgando
julgar
julgava
julgo
julgou
julho
julia
julian
juliana
juliano
julie
julien
julieta
juliette
julio
julius
july
jump
jun
junc
jundiai
june
jung
jungle
junho
juninho
junior
juniores
juniors
junius
juno
junqueira
junta
juntam
juntamente
juntando
juntar
juntaram
juntas
junto
juntos
juntou
jura
jurado
jurados
juramento
jure
jurema
juri
jurisdic
jurisprude
jurista
juristas
juro
juros
jus
jusante
juscelino
juss
just
justa
justamente
justic
justice
justiceiro
justifica
justificac
justificada
justificado
justificando
justificar
justificativa
justificativas
justificou
justifique
justify
justin
justiniano
justino
justo
justos
juvenil
juvenis
juventude
juventus
k
ka
kahn
kai
kaiser
kamen
kami
kan
kane
kang
kansas
kant
kanye
kappa
kara
karate
karen
karin
karina
karl
karlsruhe
karol
kart
kascyo
kat
kata
kate
katherine
kathleen
kathy
katie
katrina
katy
katz
kaufman
kay
kazan
kb
kbs
kde
ke
keaton
keep
kei
keith
keller
kelley
kelly
kelvin
ken
kennedy
kenneth
kenny
kent
kentucky
kepler
kernel
kerr
kerry
kevin
kew
key
keynes
keys
kg
khan
khmer
khz
ki
kick
kid
kidd
kids
kiel
kiev
kiko
kill
killer
killing
kim
kimi
kind
king
kingdom
kings
kingston
kira
kirby
kirk
kiss
kit
kitt
kitty
kk
klaus
klein
kleiner
km
knicks
knight
knights
know
knowledge
knowles
known
knox
ko
kobayashi
kobe
koch
koehne
kombat
konami
kong
konrad
korea
korean
kos
kosovo
kra
kramer
kreis
kremlin
kreuzes
kriegsmarine
kris
kristen
kristensen
kru
ku
kubitschek
kuiper
kun
kung
kurt
kuwait
kv
kw
kyle
kylie
kyo
kyoto
kyu
kyung
l
la
lab
laba
labas
label
labelo
labirinto
labor
laborato
laboratory
labrador
labs
lac
lacerda
lactarius
lacuna
lacunas
ladeira
laden
ladies
lado
lados
ladra
ladro
lady
lae
lafayette
laga
lagarto
lagartos
lage
lages
lago
lagoa
lagoas
lagos
laguna
lai
laje
lajes
lake
lakers
lam
lama
lamar
lamas
lamb
lambda
lambert
lamego
lamenta
lamento
lamo
lampia
lampiao
lan
lana
lanc
lancaster
lance
lances
land
lander
landing
lane
lang
lange
langle
language
languages
lanka
lannister
lanterna
lanternas
lao
laobc
laos
lapa
lar
lara
laranja
laranjas
laranjeiras
lares
larga
largada
largamente
largar
largas
large
largo
largos
largou
largura
larissa
larry
lars
larva
larvas
las
laser
last
lat
lata
latas
late
later
laterais
lateral
latim
latin
latina
latinas
latindo
latino
latinos
latitude
latitudes
lato
latra
lattes
laudo
laura
laureado
laureados
laurel
lauren
laurence
laurent
laurie
lauro
lausanne
lava
lavagem
lavar
lavigne
lavoura
lavouras
lavras
law
lawrence
laws
lawson
lay
layer
layout
lazer
lazio
lb
lbum
lbuns
lc
lca
lcio
lcool
lculo
lculos
ld
lda
lder
ldica
ldots
le
lea
lead
leader
league
leais
leal
lealdade
leandro
learn
learning
leave
leben
lebre
lebres
lec
lechatjaune
lecionar
lecionou
lecture
lectures
led
lee
leeds
leefeniaures
left
leg
legacy
legado
legais
legal
legalidade
legalizac
legalmente
legend
legenda
legendas
legends
legi
legia
legio
legiona
legislac
legislador
legislativa
legislativas
legislativo
legislativos
legislatura
legislaturas
legitimidade
lego
legume
legumes
leguminosa
lei
leia
leibniz
leicester
leiden
leigh
leigo
leigos
leila
leipzig
leiria
leis
leita
leite
leito
leitor
leitores
leitos
leitura
leituras
lema
lembra
lembrada
lembrado
lembram
lembranc
lembrando
lembrar
lembrava
lembre
lembro
lembrou
leme
lemmon
lemos
len
lena
lenc
lencastre
lenda
lendas
lendo
lenha
lenin
leningrado
lennon
lenta
lentamente
lente
lentes
lento
lentos
leo
leoa
leon
leonard
leonardo
leone
leonel
leonor
leopardo
leopold
leopoldina
leopoldo
leos
lepido
lepidoptera
leq
leque
ler
lera
leroy
les
lesa
lesionado
leslie
lesnar
leso
less
lessa
leste
lester
let
leta
letal
leti
leto
letra
letras
letrista
letter
letters
lettres
leu
leucemia
lev
leva
levada
levadas
levado
levados
levam
levando
levanta
levantada
levantadas
levantado
levantados
levantamento
levantando
levantar
levantaram
levante
levantou
levar
levara
levaram
levaria
levava
levavam
leve
level
levemente
leves
levi
levine
levou
levy
lewis
lex
lexikon
leytor
lez
lfia
lg
lgara
lgaro
lgaros
lgbt
lgebra
lgica
lh
lha
lhe
lhes
lho
li
lia
liam
lias
libane
libanesa
libe
liber
libera
liberac
liberada
liberado
liberados
liberais
liberal
liberalismo
liberando
liberar
liberdade
liberdades
liberou
liberta
libertac
libertad
libertada
libertado
libertador
libertadores
libertados
libertar
libertou
liberty
libra
library
libras
libre
libreto
libri
libro
lic
lica
licas
lice
licenc
licenciada
licenciado
licenciados
licenciamento
licenciatura
licenciou
license
lices
liceu
lici
licitac
lico
licos
lida
lidar
lidas
lidera
liderada
lideradas
liderado
liderados
lideranc
liderando
liderar
lideraram
liderava
liderou
lido
lidos
lie
liechtenstein
lies
life
lifetime
liga
ligac
ligada
ligadas
ligado
ligados
ligam
ligando
ligar
ligas
ligava
ligeira
ligeiramente
ligeiro
light
lightning
lights
ligne
ligou
ligue
lijealso
like
lil
lila
lili
lille
lily
lim
lima
limbo
limeira
limi
limiar
liminar
limita
limitac
limitada
limitadas
limitado
limitados
limitam
limitando
limitar
limite
limited
limites
limitou
limits
limoeiro
limpa
limpar
limpeza
limpo
lin
lina
lincoln
linda
lindas
lindl
lindo
lindsay
line
linear
lineares
lines
lineu
linfa
linfo
ling
lingu
lingua
linguagem
linguagens
lingui
linguista
linguistas
linguistics
linha
linhagem
linhagens
linhares
linhas
linho
link
linkin
links
linnaean
linnaeus
lino
lins
linux
linz
lio
lion
lionel
lions
lios
lipe
lipi
liquidac
lira
liricamente
lis
lisa
lisboa
lise
lises
liso
list
lista
listada
listadas
listado
listados
listagem
listar
listas
listou
listras
liszt
lit
lita
lite
litera
literacia
literal
literalmente
literary
literatura
literature
lites
liti
lito
litora
litoral
litos
litros
little
litu
litua
lituano
liturgia
liu
liv
live
liverpool
lives
living
livingston
livramento
livrar
livraria
livre
livremente
livres
livro
livros
lix
lixo
liz
ll
llc
lle
ller
lloyd
ln
lo
loba
lobato
lobby
lobisomem
lobo
lobos
locac
locais
local
localidade
localidades
localiza
localizac
localizada
localizadas
localizado
localizados
localizam
localizar
localizava
localmente
lock
locke
lockheed
loco
locomoc
locomotiva
locomotivas
locutor
lodge
log
loga
logan
logar
loge
logi
logic
login
logo
logos
logotipo
loir
loira
loire
lois
loja
lojas
loki
lol
lola
lolita
lombardi
lombardia
lombardo
lon
london
londres
londrina
lone
lonely
loneos
long
longa
longas
longe
longevidade
longi
longitude
longitudinal
longo
longos
look
looking
loop
lope
lopes
lopez
lopo
lor
lord
lorde
lordes
lorena
lorenzo
loreto
lori
lorib
loribd
lorraine
los
lost
lot
lote
loteamento
lotes
lotus
lou
louc
louca
louco
loucos
loucura
loud
louis
louise
louisiana
louisville
loule
lourdes
loureiro
lourenc
loures
louro
lousa
louva
louvor
louvre
lovato
love
lovecraft
lover
lovers
loves
low
lowe
lowell
lower
loyola
lp
ls
lson
lst
lt
ltd
ltda
ltica
ltico
lticos
ltima
ltimas
ltimo
ltimos
ltipla
ltiplas
ltiplo
ltiplos
lu
lua
luan
luanda
luar
luas
lublin
luc
luca
lucas
lucca
lucena
lucero
luci
lucia
luciana
luciano
lucien
lucio
luck
lucky
lucrativos
lucre
lucro
lucros
lucy
ludovico
ludwig
luer
luftwaffe
lugar
lugares
lugo
lugusto
lui
luigi
luis
luisa
luisiana
luiz
luiza
luka
luke
lula
lulas
lulu
lume
luminosa
luminosidade
luminoso
luna
lunar
lunares
lund
lundberg
lusa
lusi
lusita
lusitana
lusitano
luso
lusofonia
lustmoon
luta
lutador
lutadora
lutadores
lutam
lutando
lutar
lutaram
lutas
lutava
lutavam
luterana
luteranos
lutero
luther
luthor
luto
lutou
lutz
luvas
lux
luxemburgo
luxo
luz
luzes
luzia
lv
lvares
lvarez
lvaro
lver
lvia
lvio
lvora
lvula
lvulas
lx
lydia
lynch
lynn
lyon
lyra
m
ma
mabel
mac
maca
macaco
macacos
macae
macapa
macarthur
macau
macdonald
macedo
maceio
mach
machado
machine
macho
machocarioca
machos
macic
maciel
mack
mackenzie
macmillan
maco
maconha
macos
macro
mad
madaga
madagascar
madalena
madame
maddox
made
madeira
madeiras
madeirense
madeleine
mades
madison
madness
madonna
madrasta
madre
madri
madrid
madrinha
madrugada
madura
madureira
maduro
mae
maestro
maestros
mafalda
mafra
mag
magalha
magazine
magda
magdalena
mage
maggie
magia
magic
magiste
magistrado
magistrados
magistratura
magma
magna
magnata
magne
magnetismo
magni
magnitude
magno
magnum
magnus
mago
magos
magro
mai
maia
maias
maiden
maike
mail
maillot
mails
main
maine
mainstream
mainz
maio
maior
maiorca
maiores
maioria
maioridade
maioritariamente
mais
maison
maiu
majestade
major
majorita
majoritariamente
make
maker
makes
making
mal
mala
malaca
malaio
malas
malawi
malcolm
maldade
maldic
maldonado
male
males
malha
malhac
mali
maligno
mall
mallorca
malone
malta
maluco
maluf
malvinas
mam
mama
mamede
mami
mammal
man
mana
management
manager
manaus
mancebo
mancha
manchas
manchester
manchete
manchu
mancini
manda
mandado
mandados
mandamento
mandamentos
mandando
mandante
mandar
mandarim
mandato
mandatos
mandava
mande
mandei
mandela
mandi
mandioca
mando
mandou
mane
maneira
maneiras
manejo
manfred
manga
mangane
mangas
mangueira
manha
manhattan
mani
mania
manifesta
manifestac
manifestantes
manifestar
manifestaram
manifesto
manifestou
manila
manipulac
manipular
manitoba
mann
mannheim
manning
mano
manobra
manobras
manoel
manope
mans
mansa
manso
manson
mante
manteiga
mantendo
mantenha
mantenho
manter
manteve
mantida
mantidas
mantido
mantidos
mantimentos
mantinha
mantinham
mantiveram
manto
manu
manuais
manual
manualmente
manuel
manuela
manufatura
manuscrito
manuscritos
manuseio
manutenc
many
mao
maome
map
mapa
mapas
mapeamento
maps
maputo
maquiagem
maquina
mar
mara
maraba
maracana
maradona
maranha
maranhense
maras
maratona
maravilha
maravilhas
maravilhosa
maravilhoso
marc
marca
marcac
marcada
marcadas
marcado
marcador
marcadores
marcados
marcam
marcando
marcante
marcantes
marcar
marcaram
marcas
marcel
marcela
marcelino
marcello
marcelo
march
marcha
marchar
marcharam
marchas
marche
marchou
marcia
marciais
marcial
marciano
marcio
marco
marcondes
marcos
marcou
marcus
mare
marechal
mares
marfim
margaret
margarida
margarita
margem
margens
marginais
marginal
marguerite
mari
maria
mariah
mariana
marianas
marianne
mariano
marido
maridos
marie
marilyn
marin
marina
marine
maringa
marinha
marinhas
marinheiro
marinheiros
marinho
marinhos
marino
mario
marion
mariposa
marisa
maritime
marius
marjorie
mark
marker
market
marketing
markku
marks
markus
marlene
marley
marlon
marne
marque
marques
marquesa
marqueses
marquinhos
marriage
marrocos
marrom
marroquina
marroquino
mars
marseille
marselha
marsh
marshall
mart
marta
marte
martelo
martha
marti
martim
martin
martina
martinez
martinho
martini
martino
martins
marty
marvel
marvin
marx
marxismo
marxista
marxistas
mary
maryland
mas
mascarenhas
mascote
masculina
masculinas
masculino
masculinos
mask
mason
mass
massa
massachusetts
massacre
massacres
massagem
massas
massimo
massiva
master
masterizac
masters
mastro
mata
matado
matagal
matam
matanc
matando
matar
mataram
matarazzo
matas
match
mate
matema
mater
materiais
material
materialismo
materna
maternidade
materno
maternos
mateus
math
mathbb
mathbf
mathcal
mathematical
mathematics
matheus
mathias
mathrm
matias
matilde
mato
matos
matosinhos
matou
matri
matriculou
matrimo
matrix
matriz
matrizes
matt
matteo
matter
matthew
matthews
matthias
mattos
maturac
maturidade
mau
maua
mauri
maurice
mauricio
maurita
mauro
maus
mausole
mavericks
max
maxi
maxim
maximiliano
maxwell
may
maya
mayer
maynard
mayo
mayor
mazuco
mazucomsg
mb
mba
mbar
mbc
mbia
mbio
mbito
mbolo
mbolos
mbox
mbria
mc
mccain
mccarthy
mccartney
mccoy
mcdonald
mcdonnell
mcgraw
mcgregor
mcintyre
mclaren
mcmahon
md
mdb
me
mea
meados
mean
meaning
means
meas
meat
mec
meca
mecanismo
mecanismos
mechanics
mecklemburgo
meclemburgo
med
meda
medal
medalha
medalhas
medalhista
medalhistas
mede
medeiros
medelli
medem
medi
media
mediac
mediador
medial
mediana
mediante
mediawiki
medic
medicac
medical
medicamento
medicamentos
medici
medicina
medicinais
medicinal
medicine
medida
medidas
medido
medievais
medieval
medina
medindo
medir
meditac
mediterra
medium
medley
medo
medos
medula
meet
meeting
meg
mega
megan
mei
meia
meias
meiji
meio
meios
meira
meireles
meirelles
mel
mela
melanco
melancolia
melanie
melbourne
melhor
melhora
melhorada
melhorado
melhorados
melhoramento
melhoramentos
melhorando
melhorar
melhores
melhoria
melhorias
melhorou
melissa
mello
melo
melodia
melodias
melody
mem
members
membrana
membranas
membro
membros
meme
memo
memoirs
memora
memorando
memoria
memorial
memories
memory
memphis
men
menc
menciona
mencionada
mencionadas
mencionado
mencionados
mencionam
mencionar
mencionou
mendes
mendonc
mendoza
mene
meneses
menezes
menina
meninas
menino
meninos
meno
menor
menores
menos
mensageiro
mensageiros
mensagem
mensagens
mensais
mensal
mensalmente
mentais
mental
mentalidade
mentalmente
mente
mentes
mentir
mentira
mentiras
mentor
menu
meo
meos
mer
mera
meramente
meras
mercado
mercador
mercadores
mercadoria
mercadorias
mercados
mercante
mercantes
mercantil
merce
mercedes
mercena
mercosul
mercu
mercury
mercy
merec
merece
merecem
merecer
merecia
meredith
mergulho
meridiano
meridional
merlin
mero
meros
merriman
merry
mes
mesa
mesas
meses
mesma
mesmas
mesmo
mesmos
mesopota
mesorregia
mesquita
mesquitas
message
messi
messias
messier
messina
mestic
mestrado
mestre
mestres
met
meta
metabo
metabolismo
metacritic
metade
metafi
metais
metal
metallica
metalu
metalurgia
metano
metas
meteorolo
meteorologia
meteorologie
meter
method
methods
meto
metodista
metodolo
metodologia
metodologias
metragem
metragens
metralhadora
metralhadoras
metro
metropolita
metropolitan
metropolitana
metropolitanas
metropolitano
metropolitanos
metros
metz
meu
meus
mexer
mexicana
mexicano
mexicanos
mexico
meyer
mez
mg
mgm
mhz
mi
mia
miami
mianmar
mias
mica
micas
mice
michael
michaels
michel
michelangelo
michele
michelle
michigan
mick
mickey
mico
micos
micro
microfone
microrregia
microsco
microsoft
mid
mida
midas
middle
mide
mides
midi
midia
midnight
mido
midos
mie
mig
might
mighty
migrac
migrantes
migraram
migrato
migrou
miguel
mika
mike
mikhail
mil
mila
milagre
milagres
milan
milano
mile
miles
miley
milha
milhares
milhas
milho
mili
miliona
milita
militante
militantes
militar
militares
militarmente
military
milk
mill
millennium
miller
million
mills
milos
milton
milwaukee
mim
mimi
min
mina
minaj
minas
mind
mine
mineira
mineiro
mineiros
minerac
minerais
mineral
minerva
ming
minh
minha
minhas
minho
mini
miniatura
miniaturadaimagem
miniaturas
minimamente
minimizar
minisse
ministe
ministerial
ministra
ministro
ministros
ministry
minneapolis
minnesota
minogue
minor
minoria
minorias
minorita
minsk
minu
minute
minutes
minuto
minutos
mio
mioca
mioceno
mios
mir
mira
miracle
miradouro
mirage
miranda
mirante
miriam
mirim
mirror
mis
mise
misera
miserico
miss
missa
missas
missing
mission
missiona
missionary
mississippi
misso
missouri
mista
mistas
miste
mister
misteriosa
misterioso
misticismo
misto
mistos
mistura
misturado
misturados
misturando
misturar
misturas
mit
mitch
mitchell
mitidika
mito
mitolo
mitologia
mitos
mitra
mitsubishi
miu
mix
mixagem
mixtape
miz
mk
ml
mlb
mls
mm
mma
mme
mms
mn
mnet
mo
mobile
mobilia
mobilidade
mobilizac
moc
mocidade
mod
moda
modalidade
modalidades
mode
model
modelagem
modelo
modelos
models
moderac
moderada
moderadamente
moderado
moderados
modern
moderna
modernas
modernidade
modernismo
modernista
modernizac
moderno
modernos
modesta
modesto
modifica
modificac
modificada
modificadas
modificado
modificados
modificar
modificou
modo
modos
modulac
modular
module
moe
moeda
moedas
mogi
mogol
mohamed
mohammad
mohammed
moi
moinho
moinhos
moise
moita
mol
mola
molda
molde
moldes
moldura
mole
molecular
moleculares
molho
molina
molly
molusco
moluscos
moment
momento
momentos
mon
mona
monaco
monarca
monarcas
monarquia
monarquias
monaste
monc
monday
monde
mondego
moneta
money
monge
monges
mongo
mongol
monica
monique
monitor
monitoramento
monitorar
monitores
moniz
monk
monkey
mono
monografia
monopo
monoti
monroe
mons
monsenhor
monster
monsters
monstro
monstros
mont
monta
montada
montadas
montado
montados
montagem
montana
montanha
montanhas
montanhosa
montanhosas
montanhoso
montante
montar
monte
monteiro
montemor
montenegro
monterrey
montes
montevide
montevideo
montgomery
month
monthly
monti
montou
montpellier
montreal
monumental
monumento
monumentos
monuments
monza
moody
moon
moore
mor
mora
morada
moradia
moradias
morador
moradores
moraes
morais
moral
morales
moralidade
moralmente
moram
moran
morando
morar
morato
morava
moravam
morcego
morcegos
mordomo
more
moreira
morena
moreno
morfolo
morfologia
morgado
morgan
mori
moritz
morley
morning
moro
morou
morre
morrem
morrendo
morrer
morrera
morreram
morreu
morrido
morris
morrison
morro
morros
morse
mort
morta
mortais
mortal
mortalidade
mortas
morte
mortes
morto
morton
mortos
morumbi
mos
mosaico
mosaicos
mosca
moscas
moscou
moscovo
moscow
mosela
moselle
moses
mosquito
moss
mossoro
most
mosteiro
mosteiros
mostra
mostrada
mostradas
mostrado
mostrados
mostram
mostrando
mostrar
mostraram
mostras
mostrava
mostravam
mostre
mostrou
mota
motafala
mother
moths
motim
motion
motivac
motivada
motivado
motivo
motivos
motivou
moto
motocicletas
motogp
motor
motores
motorista
motoristas
motors
motorsport
motos
motta
mount
mountain
moura
mouro
mouros
mouse
move
movem
movement
movendo
mover
moveu
movia
movida
movidas
movido
movidos
movie
movies
movimentac
movimentado
movimentar
movimento
movimentos
mozart
mozilla
mp
mpada
mpadas
mpago
mpar
mpb
mpeto
mpf
mph
mpia
mpica
mpicas
mpico
mpicos
mpla
mr
mrs
ms
mschlindwein
msg
msgs
msn
mt
mtv
mu
muay
muc
much
muda
mudada
mudado
mudam
mudanc
mudando
mudar
mudaram
mudaria
mudas
mude
mudei
mudo
mudos
mudou
muhammad
mui
muita
muitas
muito
muitos
mujer
mujeres
mula
mulas
mulher
mulheres
muller
mulo
mulos
multa
multas
multi
multida
multido
multijogador
multimi
multinacionais
multinacional
multiplayer
multiplicac
multishow
mun
mundiais
mundial
mundialmente
mundo
mundos
munic
munici
municipais
municipal
municipalidade
munique
muniz
murais
mural
muralha
muralhas
murder
murdoch
muriel
murilo
murmurou
muro
muros
murphy
murray
mus
musa
muscular
musculares
muse
museo
museolo
museu
museum
museus
music
musica
musicais
musical
musicalmente
musico
mussolini
must
mustafa
mutac
mutante
mutantes
mutuamente
muy
muyto
mv
mvp
mw
mwaldeck
mx
my
myanmar
myers
myspace
mysterio
mystery
myth
n
na
nabla
nabuco
nac
nach
nacionais
nacional
nacionalidade
nacionalidades
nacionalismo
nacionalista
nacionalistas
nacionalizac
nacionalmente
naco
nad
nada
nadador
nadadora
nadadores
nadal
nadar
nadia
nado
nadu
nagar
nagasaki
nai
nakamura
naked
nalti
naltis
nam
namco
name
names
namespace
nami
namo
namorada
namorado
namorados
namorar
namoro
namorou
nana
nancy
nando
nano
nanquim
nantes
nao
naomi
napolea
napoleo
napoli
naquela
naquelas
naquele
naqueles
naquilo
nara
narciso
nariz
narra
narrac
narrador
narrativa
narrativas
naruto
nas
nasa
nasais
nasal
nascar
nasce
nascem
nascente
nascentes
nascer
nasceram
nasceu
nascida
nascidas
nascido
nascidos
nascimento
nascimentos
nash
nashville
nassau
nasser
nat
nata
natac
natal
natalia
natalidade
natalie
natasha
nate
nathan
nathaniel
nation
national
nationale
nations
nativa
nativas
native
natividade
nativo
nativos
nato
natura
naturais
natural
naturalidade
naturalismo
naturalista
naturalistas
naturalizado
naturalmente
nature
natureza
nau
naufra
naus
navais
naval
navarra
navarro
nave
navecaixas
navega
navegac
navegador
navegadores
navegar
naves
navio
navios
navy
nazare
nazareth
nazi
nazismo
nazista
nazistas
nb
nba
nbb
nbc
nc
ncaa
ncavo
ncbi
ncer
nchen
nchez
ncia
ncias
ncio
ncios
ncipe
ncipes
ncora
nct
ncton
nculo
nculos
nd
ndalo
ndalos
nde
ndega
ndez
ndia
ndias
ndice
ndices
ndico
ndida
ndido
ndio
ndios
ndola
ndrome
ndula
ndulas
ne
nea
neal
near
neas
neat
neblina
nebraska
nebre
nebulosa
necessa
necessariamente
necessidade
necessidades
necessita
necessitam
necro
ned
need
neerlande
neerlandesa
neerlandeses
neg
nega
negac
negada
negado
negando
negar
negativa
negativamente
negativas
negativo
negativos
neglige
nego
negociac
negociado
negociante
negociar
negociou
negou
negra
negras
negrito
negro
negros
nei
neil
neill
neis
neiva
nel
nela
nelas
nele
neles
nella
nelly
nelson
nem
nen
nene
nenhum
nenhuma
neo
neocla
neoli
neon
neos
neozelande
nepal
nero
neros
nervo
nervos
nervosa
nervoso
nery
nes
nese
nesis
nessa
nessas
nesse
nesses
nesta
nestas
neste
nestes
nestle
nestor
net
neta
netflix
netherlands
neto
netos
nets
netto
netuno
network
networks
neue
neumann
neural
neuro
neurocie
neurolo
neutra
neutralidade
neutro
neutros
nevada
neve
never
neves
neville
new
newark
newcastle
newell
newman
newport
news
newton
nexo
next
nexus
ney
neymar
nez
nf
nfase
nfc
nfl
ng
ngara
ngaro
ngaros
ngc
ngel
ngela
ngelo
nger
ngia
ngios
ngua
nguas
ngue
ngulo
ngulos
nh
nha
nhamos
nhc
nhk
nhl
ni
nia
nias
nibus
nica
nicara
nicas
nice
niceia
nicho
nicholas
nicholls
nichols
nicholson
nichos
nick
nickelodeon
nicki
nico
nicola
nicolas
nicolau
nicole
nicolson
nicos
nida
nidas
nie
niei
nielsen
niemeyer
nietzsche
nig
nige
nigel
nigeriana
nigeriano
night
nightmare
nights
nike
nikita
nikki
nikolai
nil
nilo
nima
nimas
nime
nimo
nimos
nin
nina
nine
ningue
ninguem
ninho
ninhos
ninja
ninjas
nino
nintendo
nio
nior
nios
nipo
nippon
nirvana
nis
nissan
nisso
nisto
nita
nitero
nito
nitroge
nix
nixon
nj
njan
nk
nl
nm
nme
no
noaa
noah
nobel
nobilia
noble
nobody
nobre
nobres
nobreza
noc
nocaute
noche
nodo
noe
noel
nogueira
noir
noise
noite
noites
noiva
noivado
noivo
noivos
nokia
nolan
nom
noma
nomas
nome
nomeac
nomeada
nomeadamente
nomeadas
nomeado
nomeados
nomeando
nomear
nomeia
nomenclatura
nomeou
nomes
nominais
nominal
nominalmente
nomo
nomos
non
nona
none
nones
nono
nor
nora
norberto
nord
nordeste
nordestino
norfolk
norma
normais
normal
normalmente
norman
normandia
normandos
normas
normativa
noroeste
noronha
norris
norte
north
northern
norton
noruega
noruegue
norueguesa
noruegueses
norwich
nos
nossa
nossas
nosso
nossos
nostalgia
not
nota
notabilidade
notabilizou
notac
notadamente
notado
notando
notar
notaram
notas
notavelmente
note
notei
notes
nothing
noti
notice
noticia
noticiado
noticias
noticiou
notificac
noto
notoc
notoriedade
notou
notre
nottingham
noturna
noturnas
noturno
noturnos
noutra
noutras
noutro
noutros
nouveau
nouvelle
nov
nova
novak
novamente
novas
novato
novatos
nove
novel
novela
novelas
novels
november
novembro
noventa
novi
novic
novidade
novidades
novo
novos
now
nozes
np
nr
ns
nsa
nscrito
nseca
nsia
nsito
nster
nsul
nsula
nsules
nt
ntano
ntanos
ntara
ntegra
ntese
nteses
nther
ntia
ntica
nticas
ntico
nticos
ntida
ntima
ntimo
ntimos
ntrica
ntrico
ntua
ntulas
nu
nua
nuas
nuclear
nucleares
nudez
nueva
nuevo
nuggets
nula
nulo
nulos
num
numa
number
numbers
nume
numerac
numero
numerosa
numerosas
numerosos
nun
nunca
nunes
nuno
nuo
nuos
nuremberg
nus
nutric
nutrientes
nuvem
nuvens
nwa
nxt
ny
o
oa
oab
oada
oado
oak
oakland
oamento
oar
oasis
oaxaca
ob
oba
obama
obedece
obedecer
obedie
obelisco
obenberger
obesidade
objec
objecc
object
objectivo
objectivos
objecto
objectos
objetiva
objetivo
objetivos
objeto
objetos
oblast
obli
obra
obras
obriga
obrigac
obrigada
obrigado
obrigados
obrigando
obrigar
obrigato
obrigatoriamente
obrigatoriedade
obrigou
obs
obscura
obscuro
observa
observac
observada
observadas
observado
observador
observadores
observados
observam
observando
observar
observaram
observato
observatore
observatory
observe
observer
observou
obsessa
obsoleto
obsta
obstante
obstruc
obte
obtenc
obtendo
obter
obteve
obtida
obtidas
obtido
obtidos
obtiveram
obviamente
oc
oca
ocasia
ocasio
ocasionais
ocasionalmente
occita
ocea
ocean
oceania
oceano
oceanos
ocidentais
ocidental
ocidente
oclc
oco
ocorra
ocorre
ocorrem
ocorrendo
ocorrer
ocorrera
ocorreram
ocorreria
ocorreu
ocorria
ocorriam
ocorrida
ocorridas
ocorrido
ocorridos
ocre
oct
octa
october
octogonal
octopus
ocular
oculta
ocultar
ocultas
oculto
ocupa
ocupac
ocupacional
ocupada
ocupadas
ocupado
ocupados
ocupam
ocupando
ocupantes
ocupar
ocuparam
ocupava
ocupavam
ocupou
oda
ode
odebrecht
odeia
odemira
odeon
oder
odessa
odin
odisseia
odo
odontolo
odontologia
odor
odos
odyssey
oe
oeiras
oes
oeste
of
ofender
ofendido
ofensa
ofensas
ofensiva
ofensivas
ofensivo
oferece
oferecem
oferecendo
oferecer
ofereceram
ofereceu
oferecia
oferecida
oferecidas
oferecido
oferecidos
oferendas
oferta
ofertas
off
office
official
offs
ofi
oficiais
oficial
oficializada
oficializado
oficialmente
oficina
oficinas
og
ogimoc
ogol
oh
ohio
oi
oil
oiro
ois
oise
oitava
oitavas
oitavo
oitenta
oito
oizumi
ok
okinawa
oklahoma
ol
ola
olaria
olavo
old
ole
olga
olha
olhada
olhando
olhar
olhares
olhava
olhe
olho
olhos
olhou
oli
olimpi
olimpia
olimpo
olinda
oliva
oliveira
oliver
olivia
olivier
olo
olos
olsen
olympia
olympic
olympique
om
oma
omar
ombro
ombros
omega
omi
omissa
oms
on
onaria
onave
onc
once
onda
ondas
onde
one
ones
ong
ongs
oni
onjackmsg
online
only
ono
ons
onta
ontario
ontem
onthophagus
onu
onwards
onze
oo
oou
op
opa
opc
opcionais
opcional
ope
open
opera
operac
operacionais
operacional
operada
operado
operador
operadora
operadoras
operadores
operados
operam
operando
operar
operation
operations
operatorname
operava
operou
opinar
opinia
opinio
opinou
opo
opole
oponente
oponentes
opor
oportunidade
oportunidades
oposic
opositor
opositores
oposta
opostas
oposto
opostos
opressa
ops
optando
optar
optaram
option
options
optou
opunha
opus
opuseram
or
ora
orac
oracle
orador
orais
oral
orange
orato
orbigny
orbita
orbitais
orbital
orc
orchestra
orchid
orchidaceae
orchidacearum
ordem
ordena
ordenac
ordenada
ordenado
ordenados
ordenamento
ordenanc
ordenando
ordenar
ordenou
ordens
order
ordina
ore
oregon
orelha
orelhas
ores
orestes
orfanato
orfeu
org
orga
organismo
organismos
organista
organiza
organizac
organizacional
organizada
organizadas
organizado
organizador
organizadora
organizadores
organizados
organizam
organizando
organizar
organizaram
organization
organizou
orgulho
orgulhoso
ori
oriana
orianos
oricon
orienta
orientac
orientada
orientado
orientados
orientais
oriental
orientar
orientation
oriente
orifi
origem
origens
origin
origina
originado
originais
original
originalidade
originalmente
originando
originaram
originou
origins
orion
oriunda
oriundas
oriundo
oriundos
orixa
orkut
orla
orlando
orle
orlea
orleans
ornamentac
ornamentais
ornamental
ornamentos
oro
orquestra
orquestras
orqui
orson
ortega
ortiz
ortodoxa
ortodoxas
ortodoxia
ortodoxo
ortodoxos
ortogra
ortografia
orton
os
osa
osaka
osasco
oscar
oscilac
osi
oslo
osmar
oso
osso
ossos
ostenta
osvaldo
oswald
oswaldo
ota
otan
otaviano
otavio
otelo
other
others
otimista
otimizac
otis
otomana
otomano
otomanos
ottawa
otto
ou
ouc
our
ouro
ousadia
ousado
out
outeiro
outono
outorga
output
outra
outras
outrem
outro
outrora
outros
outubro
ouve
ouvi
ouvia
ouvida
ouvidas
ouvido
ouvidor
ouvidos
ouvindo
ouvinte
ouvintes
ouvir
ouviram
ouviu
ov
ova
oval
ovelha
ovelhas
over
overdose
overline
overview
ovi
oviedo
ovo
ovos
owen
owens
own
oxe
oxford
oxidac
oxige
oz
ozalid
ozinho
p
pa
pablo
pac
pacaembu
pace
pacers
pacheco
paci
pacie
paciente
pacientes
pacific
pack
packers
pacote
pacotes
pacto
padra
padrasto
padre
padres
padrinho
padro
padroeira
padroeiro
padronizac
padula
pae
paes
pag
paga
pagamento
pagamentos
pagando
pagantes
pagar
pagas
pagasa
page
pages
pagina
paginas
pago
pagode
pagos
pagou
pags
pai
paige
pain
paine
painel
paio
pairs
pais
paisagem
paisagens
paisagi
paiva
paixa
paixo
paiz
pal
pala
palace
palacete
palacio
palais
palas
palatinado
palatino
palau
palavra
palavras
palazzo
palco
palcos
pale
paleo
paleoli
paleonto
paleontologia
palermo
palestina
palestino
palestinos
palestra
palestrante
palestras
palgrave
palha
palhac
pallas
palm
palma
palmare
palmares
palmas
palmeira
palmeiras
palmela
palmer
palmira
palomar
pam
pamela
pampa
pamplona
pan
panama
panda
pandemia
pandora
panela
panfleto
panfletos
panic
panini
pano
panora
panorama
panos
pantanal
pantea
pantera
panther
panzer
paola
paolo
pap
papa
papado
papagaio
papai
papais
papal
papas
pape
papeis
papel
paper
papers
papiro
papo
papua
paquista
par
para
parabe
parada
paradas
parade
paradeiro
paradigma
paradise
parado
paradoxo
paraense
paragem
paragens
paraguai
paraguaia
paraguaio
paraguaios
paraguay
parai
paraibano
paralela
paralelamente
paralelas
paralelo
paralelos
parali
paralisac
paralisia
param
parameter
parameters
paramount
params
parana
paranaense
paranagua
parando
paraquedistas
parar
pararam
parasita
parasitas
parceira
parceiro
parceiros
parcela
parcelas
parceria
parcerias
parciais
parcial
parcialidade
parcialmente
pardo
pardos
pare
parec
parece
parecem
parecendo
parecer
pareceres
pareceu
parecia
pareciam
parecida
parecidas
parecido
parecidos
pareda
parede
paredes
parent
parente
parentes
parentesco
pares
pari
paridade
paris
parisiense
park
parker
parkinson
parks
parlamentar
parlamentares
parlamento
parliament
parma
parnai
paro
paroquial
parou
parque
parques
parsons
part
parta
parte
partem
partes
parti
partial
partic
participa
participac
participado
participam
participando
participante
participantes
participar
participaram
participarem
participava
participavam
participou
particular
particulares
particularidades
particularmente
partida
partidas
partido
partidos
partilha
partindo
partir
partiram
partitura
partituras
partiu
partners
parto
parts
party
pas
pascal
pascoal
paso
pass
passa
passada
passadas
passado
passados
passageiro
passageiros
passagem
passagens
passam
passando
passaporte
passaportes
passar
passara
passaram
passarela
passarem
passaria
passasse
passava
passavam
passe
passei
passeio
passeios
passes
passi
passion
passiva
passivo
passo
passos
passou
past
pasta
pastagens
paste
pasto
pastor
pastorais
pastoral
pastores
pat
pata
patamar
patas
pate
patente
patentes
paterna
paternidade
paterno
paternos
patetas
path
patinac
patinador
patinadora
patinadores
patins
pato
patolo
patologia
patos
patra
patri
patria
patriarca
patriarcado
patriarcal
patriarcas
patricia
patrick
patrimo
patrimonial
patrio
patriota
patriotas
patriotismo
patriots
patro
patroci
patrocinada
patrocinado
patrocinador
patrocinadores
patrol
patrono
patrulha
patrulhas
pattern
patterson
patton
pau
paul
paula
pauli
paulina
pauline
paulinho
paulino
paulista
paulistana
paulistano
paulistas
paulo
paulomsimoes
paus
pausa
pauta
pava
pavel
pavia
pavilha
pavilho
pavimento
pavimentos
pax
paxa
pay
payne
pays
paysandu
paz
pb
pbs
pc
pcb
pcc
pcdob
pci
pcia
pcias
pcio
pcios
pcmsg
pcp
pd
pdf
pds
pdt
pdu
pe
pea
peace
peak
pearl
pearson
pec
pecado
pecados
pecua
peculiar
peculiares
peda
pedac
pedago
pedagogia
pede
pedem
pedes
pedestal
pedestres
pedi
pedia
pedido
pedidos
pedindo
pedir
pediram
pediu
pedo
pedofilia
pedra
pedras
pedreira
pedrinho
pedro
pedrosa
pedroso
peer
pega
pegando
pegar
pegasus
peggy
pego
pegou
peito
peixe
peixes
peixoto
pela
pelagem
pelas
pele
peles
peli
pelo
peloponeso
pelos
pelota
pelotas
pelourinho
pen
pena
penafiel
penais
penal
penalidade
penalidades
penas
pendente
pendentes
pendurado
penedo
penetrac
penetrar
penguin
penha
peni
peniche
peninsular
penite
penitencia
penn
penna
pennsylvania
penny
pensa
pensado
pensador
pensadores
pensam
pensamento
pensamentos
pensando
pensar
pensava
pense
pensei
pensilva
penso
pensou
penta
penteado
pentecostal
penu
peo
people
pepe
pepino
pepper
peppers
pequena
pequenas
pequeno
pequenos
pequim
per
pera
perante
peras
perca
percebe
percebem
percebendo
perceber
perceberam
percebeu
percebi
percebida
percebido
percebo
percentagem
percentual
percepc
percepti
percorre
percorrendo
percorrer
percorreu
percurso
percursos
percussa
percy
perda
perdas
perde
perdedor
perdem
perdendo
perder
perdera
perderam
perderia
perdesse
perdeu
perdi
perdia
perdida
perdidas
perdido
perdidos
perdoa
perdurou
peregrinac
peregrino
peregrinos
pereira
pereirafalae
perene
peres
perez
perfect
perfeic
perfeita
perfeitamente
perfeito
perfeitos
perfil
perfis
performance
performances
perfume
perfumes
perfurac
pergaminho
pergunta
perguntado
perguntando
perguntar
perguntas
perguntei
pergunto
perguntou
peri
perie
perife
periferia
perigo
perigos
perigosa
perigosas
perigoso
perigosos
perio
period
periodicamente
perito
peritos
perkins
permane
permanec
permanece
permanecem
permanecendo
permanecer
permanecera
permaneceram
permaneceria
permaneceu
permanecia
permanecido
permanente
permanentemente
permanentes
permissa
permita
permitam
permite
permitem
permitia
permitiam
permitida
permitidas
permitido
permitidos
permitindo
permitir
permitira
permitiram
permitiria
permitiu
perna
pernambucana
pernambucano
pernambuco
pernas
pero
perpe
perpendicular
perry
persa
persas
persegue
perseguic
perseguido
perseguidos
perseguindo
perseguir
persiste
persistente
person
persona
personagem
personagens
personal
personalidade
personalidades
personificac
perspectiva
perspectivas
perspective
perspectives
persuadir
pertenc
pertence
pertencem
pertencendo
pertencente
pertencentes
pertencer
pertenceu
pertencia
pertenciam
perth
pertinente
pertinentes
perto
perturbac
perturbado
peru
peruana
peruano
pes
pesa
pesada
pesadas
pesadelo
pesado
pesados
pesando
pesar
pesava
pesca
pescador
pescadores
pescoc
peso
pesos
pesqueira
pesquisa
pesquisador
pesquisadora
pesquisadores
pesquisar
pesquisas
pessoa
pessoais
pessoal
pessoalmente
pessoas
pestana
peste
pet
pete
peter
peters
petersburgo
peterson
petic
petit
petra
petro
petrobras
petroli
petty
peugeot
peyton
pez
pf
pfl
pflanzen
pg
ph
phantom
phase
phd
phi
phil
philadelphia
philatlas
philip
philipp
philippe
philips
phillip
phillips
philosophical
philosophie
philosophy
phocaea
phoenix
phone
photo
php
phylogenetic
phylogenetics
phylogeny
physical
physics
phytochem
pi
pia
piada
piadas
pianista
pianistas
piano
pias
piaui
piauiense
piazza
pib
pic
pica
picada
picas
picasso
pice
pick
pico
picos
picto
picture
pictures
pida
pidas
pide
pido
pidos
pie
piece
piedade
piemonte
pier
pierce
piero
pierre
pieter
pietro
pigmentos
pilar
pilares
pilastras
pilatos
pilha
pilot
piloto
pilotos
pimenta
pimentel
pin
pina
pinacoteca
pine
ping
pinguim
pinhal
pinheiro
pinheiros
pinho
pink
pino
pinos
pinta
pintada
pintadas
pintado
pintados
pintar
pinto
pintor
pintora
pintores
pintou
pintura
pinturas
pinus
pinyin
pio
pioneer
pioneira
pioneiras
pioneiro
pioneiros
pior
piorar
piores
pios
piper
pique
piquet
pira
piracicaba
pirai
pirata
pirataria
piratas
pirates
pirene
pires
pis
pisa
piscina
piscinas
piso
pisos
pista
pistas
pistola
pistolas
pistons
pit
pita
pitchfork
piter
pitkin
pitt
pittsburgh
pivo
pixar
pixel
pixels
pizarro
pizza
pj
pl
pla
placa
placar
placas
place
places
plain
plan
plana
planalto
planaltos
planas
planck
planeamento
planeja
planejada
planejadas
planejado
planejamento
planejando
planejar
planejava
planejou
planet
planeta
planetas
plani
plano
planos
plant
planta
plantac
plantar
plantarum
plantas
plantbase
plantel
plantio
plants
plasma
plastid
plata
plataforma
plataformas
plate
plateia
platina
platinum
plato
plausi
play
playboy
player
players
playing
playoff
playoffs
plays
playstation
plaza
please
plebe
plebeus
plebiscito
pleistoceno
pleito
plena
plenamente
pleno
pleurothallis
pli
plica
plicas
plice
plotarea
plotdata
pls
plumagem
plural
plus
pluta
plutarco
pluto
pluviome
plymouth
pm
pmatrix
pmdb
pmid
pneu
pneumonia
pneus
png
po
poa
poaceae
pobre
pobres
pobreza
poc
poca
pocas
pocket
podcast
pode
podem
podemos
podendo
poder
podera
poderem
poderes
poderi
poderia
poderiam
poderio
poderosa
poderosas
poderoso
poderosos
podes
podia
podiam
poe
poeira
poema
poemas
poems
poente
poesia
poesias
poeta
poetas
poetisa
poetry
point
points
pois
poke
poker
pol
pola
polaca
polaco
polar
polares
polarizac
pole
polegadas
polegar
poles
poli
police
policia
policiais
policial
policiamento
policy
poline
polino
polinomial
polis
polite
politica
political
politicamente
politico
politics
polo
polone
polonesa
poloneses
polos
poluentes
poluic
poly
polydor
polyethylen
polygram
pomba
pombal
pombo
pomera
pompeia
pompeu
ponce
ponderada
pondo
pont
ponta
pontape
pontas
ponte
ponteiro
pontes
pontevedra
ponti
pontifi
pontificado
ponto
pontos
pontuac
pontuais
pontual
pony
pool
pop
popa
pope
populac
populacionais
populacional
popular
populares
popularidade
popularizac
popularizou
popularmente
populated
population
populosa
populoso
por
pora
porantim
porc
porcelana
porcentagem
porco
porcos
pore
porem
porfi
pormenores
porno
pornogra
pornografia
poro
poros
porquanto
porque
porsche
port
porta
portable
portador
portadores
portais
portal
portalegre
portanto
portaria
portas
porte
portela
porter
portfo
portima
portland
porto
portos
portrait
portsmouth
portua
portugal
portugue
portuguesa
portuguesas
portuguese
portugueses
portuguez
portugueza
porventura
pos
posic
posicionado
posicionamento
posicionar
posicionou
position
positiva
positivamente
positivas
positivismo
positivo
positivos
possa
possam
possamos
posse
posses
possessa
possesso
possi
possibilidade
possibilidades
possibilita
possibilitando
possibilitar
possibilitou
possible
possivel
possivelmente
posso
possua
possuam
possuem
possui
possuia
possuindo
possuir
possuiu
post
posta
postado
postagem
postais
postal
postar
postas
poste
posterior
posteriores
posteriormente
postes
posto
postos
postou
postumamente
postura
posturas
pot
pota
pote
potenciais
potencial
potencialmente
potente
potentes
potes
potiguar
potsdam
potter
pouca
poucas
pouco
poucos
pound
poupanc
poupar
pouqui
pour
pousada
pousar
pouso
pousou
pov
povo
povoac
povoada
povoado
povoados
povoamento
povos
powell
power
powers
pp
ppen
pps
pq
pr
pra
prac
practice
pradesh
prado
prados
praga
pragas
pragma
praia
praias
pranto
prata
pratica
praticada
praticado
praticados
praticam
praticamente
praticando
praticante
praticantes
praticar
praticou
prato
pratos
pratt
prayer
prazer
prazeres
prazo
prazos
pre
prec
preca
precauc
precede
precedente
precedentes
precedida
precedido
preceitos
preciosa
preciosas
precioso
preciosos
precipitac
precisa
precisam
precisamente
precisamos
precisando
precisar
precisaria
precisas
precisava
precisavam
preciso
precisos
precisou
precoce
preconceito
preconceitos
precursor
precursora
precursores
predador
predadores
predators
predecessor
predecessores
predef
predefinic
predomi
predomina
predominam
predominante
predominantemente
predominantes
preencher
preenchido
preenchimento
prefa
prefeita
prefeito
prefeitos
prefeitura
prefeituras
prefere
preferem
preferencialmente
preferi
preferia
preferida
preferido
preferindo
preferir
preferiu
prefiro
prefix
prefixo
prefixos
prega
pregac
pregador
pregar
prego
preguic
prejudica
prejudicada
prejudicado
prejudicando
prejudicar
prejudiciais
prejudicial
prejui
prelado
prelados
preliminar
preliminares
prelu
prematura
premiac
premiada
premiadas
premiado
premiados
premie
premier
premio
premios
premissa
premissas
premium
prende
prender
prendeu
preocupa
preocupac
preocupada
preocupado
preocupados
preocupante
preocupar
prepara
preparac
preparada
preparadas
preparado
preparados
preparando
preparar
preparativos
preparato
preparava
preparo
preparou
preposic
pres
presa
presas
presbi
presbite
presbiteriana
prescott
prescric
presenc
present
presente
presentes
presents
preserva
preservac
preservada
preservadas
preservado
preservados
preservar
presi
preside
presidenciais
presidencial
president
presidente
presidentes
presidia
presidida
presidido
presidir
presidiu
presley
preso
presos
press
pressa
pressas
pressionado
pressionar
presso
pressupo
pressuposto
pressupostos
presta
prestac
prestado
prestados
prestando
prestar
prestes
presti
preston
prestou
presume
presumivelmente
presunc
preta
pretas
pretende
pretendem
pretendente
pretendentes
pretendia
pretendiam
pretendido
pretendo
pretensa
pretenso
pretexto
preto
pretor
pretos
pretty
prevale
preve
prevenc
prevendo
prevenir
preventiva
prever
previa
previamente
previde
previsa
previsi
previso
prevista
previstas
previsto
previstos
previu
prey
pri
pria
prias
price
pride
pridgeon
priest
prima
primariamente
primas
primatas
primavera
primazia
prime
primeira
primeiramente
primeiras
primeiro
primeiros
primera
primetime
primitiva
primitivas
primitivo
primitivos
primo
primoge
primordial
primos
prince
princesa
princesas
princess
princeton
princi
principado
principais
principal
principalmente
principe
principio
principles
print
prio
prior
priori
prioridade
prioridades
priorita
prios
prisa
priscila
prisioneiro
prisioneiros
prisma
priso
pristimantis
privac
privacidade
privada
privadas
privado
privados
private
privatizac
privile
privilegiada
privilegiado
prix
prize
pro
proa
probabilidade
probabilidades
problem
problema
problemas
problems
proc
procede
proceder
procedeu
procedimento
procedimentos
proceedings
process
processado
processador
processadores
processados
processamento
processar
processo
processos
processou
processual
procissa
procisso
proclamac
proclamada
proclamado
proclamou
proco
procura
procurado
procurador
procuradores
procuradoria
procuram
procurando
procurar
procuraram
procurava
procuravam
procure
procurei
procurou
prodi
produc
production
productions
products
produtiva
produtivas
produtividade
produtivo
produto
produtor
produtora
produtoras
produtores
produtos
produz
produzem
produzia
produzida
produzidas
produzido
produzidos
produzindo
produzir
produziram
produziu
proemine
proeminente
proeminentes
proenc
prof
profe
profecia
profecias
proferiu
professional
professor
professora
professores
profeta
profetas
profile
profissa
profissionais
profissional
profissionalismo
profissionalizou
profissionalmente
profisso
profunda
profundamente
profundas
profundidade
profundo
profundos
progno
program
programa
programac
programada
programado
programador
programadores
programados
programas
programming
progress
progressa
progressista
progressistas
progressiva
progressivamente
progressivo
progresso
progressos
proi
proibia
proibic
proibida
proibidas
proibido
proibidos
proibindo
proibir
proibiu
proje
projec
project
projecto
projectos
projeta
projetada
projetadas
projetado
projetados
projetar
projeto
projetos
projetou
prol
prole
proleta
proletariado
proli
proliferac
prolongada
prolongado
prolongamento
prolongar
promessa
promessas
promete
prometendo
prometeu
prometida
prometido
promissor
promo
promoc
promocionais
promocional
promotor
promotores
promove
promovem
promovendo
promover
promoveu
promovida
promovidas
promovido
promovidos
promulgac
promulgada
pronome
pronomes
pronta
prontamente
pronto
prontos
pronu
pronuncia
pronunciada
pronunciado
pronunciar
pronunciou
propagac
propaganda
propagandas
properties
property
propi
propina
propo
propondo
proponente
proponentes
proponho
propor
proporc
proporciona
proporcional
proporcionando
proporcionar
proporcionou
proposic
proposta
propostas
proposto
propostos
propria
propriamente
propriedade
propriedades
proprieta
proprio
propulsa
propunha
propus
propuseram
prorrogac
prorrogada
pros
prosa
prosperidade
prossegue
prosseguir
prosseguiu
prost
prostituic
prostituta
prostitutas
prota
protagonista
protagonistas
protagonizada
protagonizado
protagonizou
protec
protecc
protection
protege
protegendo
proteger
protegida
protegidas
protegido
protegidos
protei
protestante
protestantes
protestantismo
protestar
protesto
protestos
protetor
protetora
protetorado
protetores
proto
protocolo
protocolos
prova
provado
provando
provar
provas
provavelmente
prove
provedor
provedores
proveito
provenc
proveniente
provenientes
prover
provi
provide
providence
providenciar
provincia
provinciais
provincial
provisa
proviso
provisoriamente
provoca
provocac
provocada
provocado
provocam
provocando
provocar
provocaram
provocou
provou
prowiki
proximidade
proximidades
proxy
prp
pru
prude
prudente
prussiana
prussiano
ps
psb
psc
psd
psdb
pseudo
psi
psia
psicana
psico
psicode
psicolo
psicologia
psicoterapia
psiquia
psiquiatra
psiquiatria
psl
psol
psp
psula
psv
psycho
psychology
pt
ptb
pteis
ptero
pteros
ptica
pticas
ptico
pticos
ptolemeu
ptolomeu
pts
ptwiki
pu
pub
public
publica
publicac
publicada
publicadas
publicado
publicados
publicamente
publicando
publicar
publicaram
publication
publications
publicidade
publicita
publico
publicou
published
publisher
publishers
publishing
puc
pude
puder
puderam
pudesse
pudessem
puebla
pueblo
puerto
pugliesi
pula
pular
pulas
pulitzer
pulma
pulmo
pulmonar
pulo
pulos
pulso
pulsos
puma
punch
punha
punhado
punho
punic
punido
punir
punjab
punk
punta
puppet
puppets
pura
puramente
puras
pure
pureza
purificac
puro
puros
purple
pus
puseram
put
putin
putnam
puxa
puxar
puy
pv
px
pxrua
py
python
q
qaeda
qatar
qi
qid
qing
qquad
qu
qua
quad
quadra
quadrada
quadrado
quadrados
quadrangular
quadras
quadril
quadrilha
quadrinhos
quadro
quadros
quaes
quais
quaisquer
qual
qualidade
qualidades
qualificac
qualificada
qualificado
qualificados
qualificar
qualificato
qualificou
quality
qualquer
quando
quanta
quantas
quantia
quantidade
quantidades
quanto
quantos
quantum
quarenta
quarentena
quaresma
quark
quarta
quartas
quarte
quarteira
quartel
quarterback
quarterly
quarteto
quarto
quartos
quartzo
quase
quasi
quatorze
quatro
quatrocentos
que
quebec
quebra
quebrada
quebradas
quebrado
quebrados
quebrando
quebrar
quebrou
queda
quedas
queen
queens
queensland
queer
quei
queijo
queijos
queima
queimada
queimadas
queimado
queimados
queimaduras
queimar
queira
queiram
queiro
queiroz
queixa
queixas
queixo
quel
quela
quele
queles
quem
quente
quentes
quentin
quer
querem
queremos
querendo
querer
queres
queria
queriam
querida
querido
quero
quesito
quesitos
quest
questa
question
questiona
questionada
questionado
questionamento
questionamentos
questionando
questionar
questiono
questionou
questions
questo
quete
qui
quia
quias
quick
quico
quida
quido
quidos
quieve
quilo
quilombo
quilos
quina
quinas
quincy
quinhentos
quinn
quinta
quintal
quintana
quintas
quinteto
quintinense
quinto
quinze
quio
quioto
quirguista
quis
quiser
quiseram
quiserem
quisesse
quite
quito
quixote
quiz
quntal
quo
quociente
quota
r
ra
raaf
rabbit
rabe
rabes
rabi
rabino
rabo
rac
race
rachel
raciais
racial
racing
racioci
racionais
racional
racionalidade
racismo
racista
racistas
radar
radiac
radial
radialista
radicado
radicais
radical
radicalmente
radio
radiodifusa
radiofo
radix
rae
raf
rafa
rafaazevedo
rafael
rage
rai
raia
raid
raiders
rail
railroad
railway
raimundo
rain
rainbow
rainer
rainha
rainhas
raio
raios
raiva
raiz
raja
rajada
rajadas
rali
rally
ralph
ram
rama
ramal
ramalho
rami
ramificac
ramirez
ramiro
ramo
ramon
ramos
rampa
rams
ramsay
ramsey
ran
rana
rancho
rand
randall
randolph
random
randy
range
rangel
ranger
rangers
rangle
rank
ranking
rankings
raoul
rap
rapariga
raparigas
rapaz
rapazes
raphael
rapid
rapidamente
rapidez
rapids
raposa
raposo
rapper
rappers
raptors
raquel
rara
raramente
raras
rard
rare
raro
raros
ras
rasa
rascunho
rasmussen
rasos
rastreamento
rastrear
rate
ratificac
rating
ration
rato
ratos
ratp
rau
raul
raven
ravena
ravens
raw
rax
ray
raymond
raza
razo
razoa
razoavelmente
rb
rbara
rbaros
rbio
rbios
rbita
rbitas
rbitro
rbitros
rbs
rc
rca
rcere
rchb
rcia
rcio
rcios
rcito
rcitos
rcules
rculo
rculos
rd
rda
rdi
rdia
rdica
rdico
rdicos
rdio
rdios
rdoba
rdova
re
rea
reabertura
reabilitac
reac
reacc
read
reader
reading
ready
reagan
reage
reagir
reagiu
reais
real
realc
realeza
realidade
realidades
realismo
realista
realistas
reality
realiza
realizac
realizada
realizadas
realizado
realizador
realizados
realizam
realizando
realizar
realizaram
realizava
realizavam
realizou
really
realmente
reas
reason
reator
reatores
rebaixada
rebaixado
rebaixados
rebaixamento
rebanho
rebanhos
rebatizado
rebecca
rebel
rebelde
rebeldes
rebelia
rebelio
rebelo
rebotes
rebro
recado
recai
recanto
rece
recebe
recebedores
recebem
recebendo
receber
recebera
receberam
receberem
receberia
recebeu
recebi
recebia
recebiam
recebida
recebidas
recebido
recebidos
recebimento
receio
receita
receitas
recent
recente
recentemente
recentes
recepc
receptor
receptores
recessa
rechac
reci
reciclagem
recife
recifes
recinto
recipiente
recipientes
reclamac
reclamar
reclamou
reclusa
reco
recolha
recolher
recolheu
recolhido
recolhidos
recolhimento
recomec
recomenda
recomendac
recomendada
recomendado
recomendo
recomendou
recompensa
recompensas
reconciliac
reconhec
reconhece
reconhecem
reconhecendo
reconhecer
reconheceram
reconheceu
reconheci
reconhecida
reconhecidas
reconhecido
reconhecidos
reconhecimento
reconhecimentos
reconquista
reconquistar
reconstruc
reconstrui
reconstruir
recopa
record
recorda
recordac
recordar
recorde
recordes
recording
recordings
recordista
records
recordtv
recorre
recorrendo
recorrente
recorrentes
recorrer
recorreu
recreac
recreativa
recreativo
recreio
recriac
recriado
recriar
recruta
recrutado
recrutados
recrutamento
recrutar
recrutas
rect
recta
recuar
recuo
recuou
recupera
recuperac
recuperada
recuperado
recuperados
recuperando
recuperar
recuperaram
recuperou
recurso
recursos
recusa
recusado
recusando
recusar
recusaram
recusou
red
redac
redacc
redator
rede
redenc
redentor
redes
redetv
redigido
redirecionado
redirecionamento
redirecionamentos
redirecionar
redirect
redirects
redonda
redondo
redor
reduc
redunda
redundante
reduto
reduz
reduzem
reduzida
reduzidas
reduzido
reduzidos
reduzindo
reduzir
reduziu
reed
reeder
reedic
reeditado
reeleic
reeleito
reencarnac
reescrever
reestreia
reestruturac
reeve
reeves
ref
refazer
refe
refeic
refeito
refere
referem
reference
referencia
referenciada
referenciadas
referenciado
referenciados
referencial
referenciar
referencias
referendo
referente
referentes
referia
referida
referidas
referido
referidos
referindo
referir
referiu
refinaria
reflete
refletem
refletindo
refletir
refletiu
refletor
reflexa
reflexo
reflexos
reforc
reforma
reformada
reformadas
reformado
reformador
reformados
reformar
reformas
reformulac
refra
refrigerac
refrigerante
refs
refu
refugiados
regal
regatas
rege
regenerac
regente
reggae
regia
regime
regiment
regimento
regimentos
regimes
regina
reginaldo
regio
region
regionais
regional
regis
registada
registado
registados
register
registo
registos
registou
registra
registrada
registradas
registrado
registrados
registrando
registrar
registraram
registro
registros
registrou
regni
rego
regra
regras
regravac
regravada
regressa
regressar
regresso
regressou
regula
regulac
regulador
regulamentac
regulamentar
regulamento
regulamentos
regular
regulares
regularidade
regularmente
rei
reich
reid
reigns
reilly
reims
reina
reinado
reinados
reinaldo
reinante
reincide
reino
reinos
reinou
reis
reitor
reitoria
reivindicac
reivindicar
reivindicou
rejeic
rejeita
rejeitada
rejeitado
rejeitar
rejeitaram
rejeitou
rela
relac
relaciona
relacionada
relacionadas
relacionado
relacionados
relacionam
relacionamento
relacionamentos
relacionar
relanc
relata
relatada
relatadas
relatado
relatados
relatam
relatando
relatar
relataram
related
relations
relativa
relativamente
relativas
relatividade
relativo
relativos
relato
relator
relatos
relatou
release
releva
relevante
relevantes
relevo
relevos
reli
religia
religio
religion
religiosa
religiosas
religiosidade
religioso
religiosos
religious
relo
reluta
relutante
rem
remadores
remake
remanescente
remanescentes
reme
remember
remete
remington
reminisce
remix
remixes
remo
remoc
remodelac
remonta
remontam
remorso
remota
remotas
remoto
remotos
remove
removendo
remover
removeu
removi
removida
removidas
removido
removidos
remunerac
ren
rena
renaissance
renal
renan
renascenc
renascentista
renascer
renascimento
renata
renato
renault
renda
rendas
render
renderam
rendeu
rendic
rendimento
rendimentos
rene
rennes
reno
renomado
renomados
renome
renomeac
renomeada
renomeado
renomear
renova
renovac
renovada
renovado
renovar
renovou
renta
renu
renuncia
renunciar
renunciou
reo
reorganizac
reos
reparac
reparar
reparo
reparos
repartic
repelir
repente
repentina
repentinamente
repercussa
repert
reperto
repescagem
repete
repetic
repetida
repetidamente
repetidas
repetido
repetidos
repetindo
repetir
repetiu
repito
repleta
repleto
replicac
repo
report
reportado
reportagem
reportagens
reporter
reportou
reports
reposic
reposito
repouso
represa
representa
representac
representada
representadas
representado
representados
representam
representando
representante
representantes
representar
representaram
representativa
representativas
representatividade
representativo
representativos
representava
representavam
representou
repressa
reprimir
reprinted
reprise
reproduc
reprodutiva
reprodutivo
reproduz
reproduzir
repu
republic
republica
republicana
republicano
republicanos
reputac
reputadas
requer
requerem
requerer
requerido
requerimento
request
requested
requiem
require
required
requisic
requisito
requisitos
rer
res
rescisa
research
resende
resenha
resenhas
reserva
reservada
reservado
reservados
reservas
reservato
reserve
resfriamento
resgata
resgatado
resgatar
resgate
resi
reside
residem
residenciais
residencial
resident
residente
residentes
residia
residindo
residir
residiu
residuais
resina
resiste
resistente
resistentes
resistir
resistiu
resoluc
resolution
resolve
resolvem
resolver
resolveram
resolveu
resolvi
resolvida
resolvidas
resolvido
resolvidos
resort
resources
respaldo
respectiva
respectivamente
respectivas
respectivo
respectivos
respeita
respeitada
respeitado
respeitados
respeitando
respeitar
respeito
respetivamente
respirac
respirar
respirato
responde
respondem
respondendo
responder
responderam
respondeu
respondi
respondia
respondida
respondido
responsa
responsabilidade
responsabilidades
responses
resposta
respostas
ressalta
ressaltar
ressentimento
ressona
ressurgimento
ressurreic
resta
restabelecer
restabelecimento
restam
restando
restante
restantes
restaurac
restaurada
restaurado
restaurante
restaurantes
restaurar
restauro
restaurou
restava
restinga
resto
restos
restou
restric
restringe
restringir
restrita
restritas
restrito
result
resulta
resultado
resultados
resultam
resultando
resultante
resultantes
resultar
resultaram
resultou
results
resume
resumida
resumindo
resumo
ret
reta
retaguarda
retaliac
retangular
retas
rete
retenc
reter
retina
retira
retirada
retiradas
retirado
retirados
retirando
retirar
retiraram
retirei
retiro
retirou
reto
retoma
retomada
retomado
retomar
retomou
retorna
retornado
retornam
retornando
retornar
retornaram
retornaria
retorno
retornou
retrata
retratada
retratado
retratados
retratam
retratando
retratar
retrato
retratos
retratou
retrieved
retro
retrospectiva
retrospecto
return
returno
returns
reu
reunia
reuniam
reunida
reunidas
reunido
reunidos
reunificac
reunindo
reunio
reunir
reuniram
reuniu
reuters
rev
revalidac
revanche
reve
revela
revelac
revelada
reveladas
revelado
revelados
revelam
revelando
revelar
revelaram
revelou
revenge
rever
revere
reverendo
reversa
reverso
reversor
reverte
revertendo
reverter
reverteu
revertida
revertidas
revertido
revestido
revestimento
revezamento
review
reviews
reviravolta
revisa
revisada
revisado
revisar
revised
reviso
revisor
revista
revistas
revisto
revitalizac
revival
reviver
revo
revogac
revogada
revogado
revolta
revoltas
revoltosos
revoluc
revoluciona
revolution
revue
rex
rey
reyes
reynaldo
reynolds
rez
reza
rezar
rezende
rfa
rfc
rg
rga
rgamo
rgb
rgen
rgia
rgica
rgicas
rgico
rgicos
rgio
rgula
rho
rhode
rhodes
rhythm
ri
ria
riaa
riacho
riachos
riachuelo
rias
riba
ribas
ribeira
ribeiras
ribeiro
ric
rica
ricamente
ricardo
ricas
riccardo
ricci
ricciardo
rice
rich
richard
richards
richardson
richelieu
richie
richmond
richter
rick
ricky
ricles
rico
ricos
rida
ridas
ride
rider
rides
ridge
ridi
rido
rie
riemann
ries
rifle
rifles
riga
right
rightarrow
rights
rigidez
rigidula
rigo
rigor
rigorosa
rigorosamente
rigoroso
rigos
rihanna
ril
riley
rim
rima
rimet
rin
rindo
ring
ringo
rings
ringue
rins
rio
rios
riot
ripley
riqueza
riquezas
rir
ris
risco
riscos
rise
rising
riso
rita
ritas
ritchie
ritmo
ritmos
rito
ritos
ritter
ritterkreuzes
rituais
ritual
rivais
rival
rivalidade
rivalidades
river
rivera
rivers
rj
rjclaudio
rk
rko
rm
rma
rmaco
rmacos
rmica
rmicas
rmico
rmino
rmon
rmore
rms
rmsilva
rmula
rmulas
rn
rna
rnia
rnio
ro
road
rob
robbie
robbins
robert
roberta
roberto
robertogilnei
roberts
robertson
robin
robinson
robo
robot
robson
robusta
robusto
roc
roca
rocco
rocha
rochas
roche
rochedo
rochester
rochosas
rock
rockefeller
rocket
rockets
rocks
rockstar
rocky
roco
rococo
rod
roda
rodada
rodadas
rodado
rodagem
rodape
rodar
rodas
rode
rodeada
rodeado
rodes
rodgers
rodney
rodolfo
rodovia
rodovias
rodri
rodrigo
rodrigues
rodriguez
roedor
roedores
roge
roger
rogers
roh
roi
rojas
rokhov
rola
roland
rolando
rolas
role
rolf
roll
rolling
rollins
rolo
rom
roma
roman
romana
romanas
romance
romances
romancista
romancistas
romano
romanos
romantismo
romaria
rome
romena
romeno
romenos
romeo
romero
romeu
rompe
romper
rompeu
rompimento
ron
ronald
ronaldinho
ronaldo
ronda
rondo
rondon
ronnie
rookie
room
roosevelt
root
roots
roque
roraima
rory
ros
rosa
rosaceae
rosario
rosas
rosberg
rose
rosemary
rosenberg
roses
ross
rossi
rosso
rosto
rostos
rota
rotac
rotas
roteirista
roteiristas
roteiro
roteiros
roterda
roth
rothschild
rotina
rotten
rotterdam
rouba
roubada
roubadas
roubado
roubar
roubo
roubos
roubou
rouge
rough
round
rounds
roupa
roupas
rousseau
rousseff
route
routledge
rover
rovers
row
rowland
rowling
roxa
roxo
roy
royal
royale
royce
rpg
rpia
rpm
rprete
rpretes
rpura
rquica
rquicas
rquico
rquicos
rr
rrea
rrego
rregos
rreo
rrez
rs
rsega
rsei
rsia
rsias
rsico
rss
rsssf
rsula
rt
rte
rtebras
rteis
rter
rteres
rtex
rtica
rtice
rtices
rtico
rtida
rtil
rtir
rtires
rtp
rttemberg
ru
rua
ruanda
ruas
rube
rubens
rubi
rubia
rubin
rubio
rubro
ruby
rude
rudeltaktik
rudolf
rudolph
rue
rufino
rufus
rugby
rui
ruim
ruins
ruiz
rule
rules
rum
rumble
rumo
rumor
rumores
rumos
run
runner
running
runs
rupert
ruptura
rurais
rural
rus
rush
russa
russas
russell
russia
russian
russo
russos
russula
ruth
rutherford
ruy
rvia
rvio
rvios
rvore
rvores
ry
ryan
ryder
ryo
ryu
rzea
s
sa
saara
saba
sabbath
sabe
sabedoria
sabem
sabemos
sabendo
saber
sabera
sabes
sabia
sabiam
sabido
sabina
sabino
saboia
sabor
sabores
sabre
sabrina
sacave
sacerdo
sacerdotal
sacerdote
sacerdotes
saco
sacos
sacra
sacramento
sacramentos
sacred
sacrifi
sacrificar
sacristia
sacro
sad
saddam
saem
safety
safra
saga
sage
sagra
sagrada
sagradas
sagrado
sagrados
sagrando
sagrou
sai
saia
saiba
said
sailor
saindo
saint
sainte
saints
sair
sais
saiu
sakura
sal
sala
salamanca
salarial
salas
salazar
saldanha
saldo
sale
salem
sales
salgada
salgado
salgueiro
salientar
salinas
salle
salles
sally
salma
salmo
salmos
salo
saloma
salome
salon
salsa
salt
salta
saltadores
saltar
salto
saltos
saltou
salva
salvac
salvador
salvamento
salvando
salvar
salvatore
salve
salvo
salvos
salvou
salzburgo
sam
sama
samantha
samba
sambas
sambo
same
sammy
samoa
sampaio
samsung
samuel
samurai
san
sana
sanc
sancha
sanches
sanchez
sancho
sancionada
sand
sanders
sanderson
sandoval
sandra
sandro
sandy
saneamento
sang
sangalo
sangrenta
sangue
sangui
sanita
sans
sansa
sant
santa
santana
santander
santare
santas
santi
santiago
santidade
santista
santo
santos
santua
sao
sapatos
sapiens
sapo
sapor
sapos
sapucai
saque
saques
sar
sara
saragoc
sarah
saraiva
sarajevo
sarco
sardenha
sargento
sargentos
sarmento
sarney
sars
sartre
sas
sasha
saskatchewan
sassa
sat
sata
satana
sate
satellite
sati
satisfac
satisfato
satisfaz
satisfazer
satisfeita
satisfeito
sato
saturday
saturn
saturnalia
saturnino
saturno
sau
sauber
sauda
saudac
saudade
saudades
saudanha
saudita
saul
saunders
savage
savana
save
savela
saw
sax
saxa
saxe
saxo
saxofone
saxofonista
say
says
sazonal
sb
sbica
sbicas
sbs
sbt
sc
scala
scale
scalemajor
scar
scara
scarabaeidae
scaras
scene
schleswig
schloss
schltr
schmidt
schneider
scho
school
schro
schu
schumacher
schuster
schwartz
sci
scia
science
sciences
scientific
scimo
scimos
scoa
scooby
score
scotland
scott
scottish
scream
screen
script
scripts
scula
sculas
sculo
sculos
sd
sds
sdss
se
sea
seabra
sean
search
season
seattle
sebastia
sebastian
sec
seca
secas
secc
secessa
seco
second
secos
secrec
secret
secreta
secretamente
secretaria
secretariado
secretarias
secretas
secreto
secretos
secrets
section
sector
sectores
secular
seculares
seculo
secunda
security
seda
sedan
sede
sedes
sediada
sediado
sediados
sediar
sedimentos
sediou
seduc
see
seed
sega
segmento
segmentos
segredo
segredos
segregac
segue
seguem
segui
seguia
seguiam
seguida
seguidamente
seguidas
seguido
seguidores
seguidos
seguimento
seguindo
seguinte
seguintes
seguir
seguiram
seguiu
segunda
segundas
segundo
segundos
segura
seguranc
segurando
segurar
seguras
seguro
seguros
sei
seine
seio
seios
seis
seita
seixas
seja
sejam
sejm
sela
sele
selec
selecc
selecionada
selecionadas
selecionado
selecionados
selecionar
selecionou
select
selected
selection
selena
seletiva
seletivo
self
selju
seller
selma
selo
selos
selva
selvagem
selvagens
sem
sema
semana
semanais
semanal
semanalmente
semanas
semblante
semelhanc
semelhante
semelhantes
semente
sementes
semestre
semi
semia
semicondutores
semieixo
semifinais
semifinal
semina
semio
semmoldura
sempre
sen
sena
senado
senador
senadora
senadores
sendo
senegal
senha
senhor
senhora
senhoras
senhores
senhorio
senior
seniores
senna
sensac
sense
sensi
sensibilidade
senso
sensor
sensores
sensoriais
sensorial
sensu
sensual
senta
sentada
sentado
sentados
sentar
sente
sentem
sentenc
senti
sentia
sentido
sentidos
sentimental
sentimento
sentimentos
sentindo
sentinela
sentir
sentiram
sentiu
sentou
seo
seoul
sep
separa
separac
separada
separadamente
separadas
separado
separados
separam
separando
separar
separaram
separatistas
separou
september
sepulcro
sepultada
sepultado
sepultados
sepultamento
sepultura
sepulturas
sequ
seque
sequeira
sequences
sequer
sequestrado
sequestro
ser
sera
serafim
serei
sereia
serem
serena
sereno
seres
serge
sergei
sergey
serginho
sergio
sergipano
sergipe
seri
seria
seriado
seriados
serial
seriam
seriamente
serie
seriedade
series
serma
sermo
serpa
serpente
serpentes
serra
serrana
serrano
serras
serta
sertaneja
sertanejo
serto
serve
servem
server
servi
servia
serviam
servic
service
services
servida
servido
servidor
servidores
servindo
servir
servira
serviram
serviria
serviu
servo
servos
ses
sesc
sesi
sesmaria
sessa
sessenta
session
sessions
sesso
set
seta
sete
setembro
setenta
setentrional
seth
setor
setores
sets
setu
seu
seul
seung
seus
seven
sevens
severa
severamente
severas
severi
severino
severo
sevilha
sevilla
sex
sexo
sexos
sexta
sexto
sexuais
sexual
sexualidade
sexualmente
sexy
seymour
sf
sforo
sg
sgt
sh
sha
shackleton
shadow
shadows
shah
shake
shakespeare
shakira
shan
shane
shang
shanghai
shannon
share
sharon
sharp
shaw
shawn
she
sheamus
sheffield
sheila
sheldon
shell
shelley
shepard
shepherd
sheridan
sherlock
sherman
shgu
shi
shield
shields
shift
shin
shine
ship
shirley
sho
shock
shogun
shop
shopping
shoppings
shore
short
shot
should
show
showa
shows
shrek
shtml
shu
si
sia
sias
sibe
sic
sica
sicas
sici
sico
sicos
sid
sida
side
sideru
siding
sidney
sido
sie
siegfried
siemens
siena
sierra
sig
siga
sigilo
sigla
siglas
siglo
sigma
sigmund
sign
signal
signata
significa
significado
significados
significam
significando
significante
significar
significativa
significativamente
significativas
significativo
significativos
significava
significou
signo
signos
sigo
sigurd
sil
silas
sile
silence
silencio
silenciosa
silencioso
silent
sili
silla
silva
silveira
silver
silves
silvestre
silvestres
silvia
silvio
sim
sima
simbo
simbolismo
simboliza
simbolizando
sime
simea
simetria
similar
similares
similaridade
similarmente
simmons
simo
simon
simone
simpa
simpatia
simpatizantes
simple
simples
simplesmente
simplicidade
simplificac
simplificada
simplificado
simplificar
simpo
simpson
simpsons
sims
simulac
simulador
simular
simulta
simultaneamente
sin
sina
sinagoga
sinai
sinais
sinal
sinalizac
sinatra
since
sincera
sinceramente
sinceridade
sincero
sinclair
sindicais
sindical
sindicato
sindicatos
sine
sines
sinfo
sinfonia
sing
singapore
singapura
singer
singh
single
singles
singular
singulares
singularidade
sinha
sinistro
sino
sinoni
sinopse
sinos
sinta
sintaxe
sinte
sintetizador
sintetizadores
sinto
sintoma
sintomas
sintra
sio
sios
sipa
siqueira
sir
siri
sis
sismo
siste
sistema
sistemas
sistematicamente
sister
sisters
sisto
sitcom
site
sites
sitio
sito
sitos
situa
situac
situada
situadas
situado
situados
situam
situava
six
size
sk
ska
skartaris
skate
ski
skin
skinner
skip
sky
skyshifter
sl
slade
slalom
slam
slash
slater
slave
slayer
sleep
slide
slim
slogan
slow
sm
smackdown
small
smart
smartphones
smash
smica
smico
smile
smith
smithsonian
smo
sms
sn
snake
snia
snoop
snow
snr
snyder
so
soa
soar
soares
sob
sobe
soberana
soberania
soberano
soberanos
sobra
sobrado
sobral
sobre
sobrenaturais
sobrenatural
sobrenome
sobrenomes
sobrepo
sobreposic
sobretudo
sobrevive
sobrevivem
sobrevivente
sobreviventes
sobreviver
sobreviveram
sobreviveu
sobrevivido
sobrinha
sobrinho
sobrinhos
soc
soccer
soccerway
sociais
social
socialismo
socialista
socialistas
socialmente
socie
sociedad
sociedade
sociedades
societa
society
socio
socioecono
sociolo
sociologia
sock
socks
soco
socorro
socorros
socos
sodre
sofa
sofia
sofisticado
sofo
sofos
sofre
sofrem
sofrendo
sofrer
sofreram
sofreu
sofria
sofrida
sofrido
sofridos
sofrimento
soft
software
softwares
sogra
sogro
sois
soja
sol
sola
solano
solar
solares
soldado
soldados
soldier
solene
solenidade
solicitac
solicitada
solicitado
solicitando
solicitar
solicito
solicitou
solid
solida
solidariedade
solista
solita
solo
solomon
solon
solos
solta
soltar
solteira
solteiro
solto
soltou
solu
soluc
solucionar
solvente
som
soma
somado
somali
somam
somando
somar
somato
sombra
sombras
sombria
sombrio
some
somebody
somente
somerset
something
somme
somos
somou
son
sona
sonata
sonda
sondas
soneto
sonetos
song
songs
sonha
sonhar
sonho
sonhos
sonia
sonic
sonny
sono
sonora
sonoras
sonoridade
sonoro
sonoros
sons
sony
soo
soon
sopa
sope
sophia
sophie
soprano
sopro
sor
sora
sorbonne
soro
sorocaba
sorocabana
sorrindo
sorrir
sorriso
sorriu
sorry
sort
sorte
sorteio
sos
sossego
sotaque
soto
sou
soube
soubesse
soul
souls
sound
sounds
soundtrack
source
sources
sous
sousa
south
southampton
southern
souto
souza
sovie
soviet
sox
soy
soyuz
sozinha
sozinho
sozinhos
sp
spa
space
spacer
spacewatch
spacex
spain
spam
spanish
sparks
spartacus
spartak
speak
spears
spec
special
specialist
species
spectrum
spedes
speech
speed
speedy
spencer
spera
speras
spermatophyta
spero
spice
spider
spielberg
spike
spin
spirit
split
spoladore
spora
sport
sporting
sportiva
sports
sportv
spotify
spp
spring
springer
springfield
springs
sprint
spurs
spy
sqrt
squad
square
sr
sra
sri
ss
ssa
ssaro
ssaros
sse
ssea
sseis
sseldorf
ssem
ssemos
ssia
ssica
ssicas
ssico
ssicos
ssida
ssil
ssima
ssimas
ssimo
ssimos
ssio
sss
st
sta
stabile
stade
stadium
staff
stage
stalin
stan
stand
standard
standing
stanford
stanglavine
stanley
stanton
star
stark
starr
starrs
stars
start
stas
stata
state
statement
states
station
statistical
statistics
status
stay
ste
steam
steel
steele
steelers
stefan
stefano
stego
stegop
stein
steiner
stella
step
stephan
stephanie
stephen
stephens
ster
steres
sterling
stern
sterreich
steve
steven
stevens
stevenson
stevie
stewart
stf
stia
stias
stica
sticas
stico
sticos
still
stimo
stimos
sting
stj
sto
stock
stokes
stola
stolas
stolo
stolos
stone
stones
stop
store
storia
stories
storm
story
str
straight
strand
strange
stranger
strategy
strauss
stream
streaming
street
streets
stress
stria
strias
strike
strikeforce
string
strings
strip
strofe
strong
structure
sts
stu
stuart
stuckkey
student
studies
studio
studios
study
stuma
stumas
stumo
sturm
stuttgart
style
styles
su
sua
suas
suave
suaves
sub
subclasse
subconjunto
subdivisa
subdiviso
subespe
subfami
subge
subgrupo
subida
subindo
subir
subiram
subitamente
subiu
subjacente
subjetiva
subjetividade
subjetivo
sublime
submarino
submarinos
submeter
submeteu
submetida
submetido
submetidos
submissa
submundo
subordem
subordinac
subordinada
subordinado
subordinados
subpa
subsec
subsequ
subsequente
subsequentemente
subsequentes
subsi
subsidia
subsiste
subsolo
subsp
subst
substa
substanciais
substancial
substancialmente
substantivo
substantivos
substitui
substituic
substituindo
substituir
substituiu
substituta
substituto
substrato
subterra
subti
subtropicais
subtropical
subu
subunidade
subversa
succ
sucede
sucedendo
suceder
sucederam
sucedeu
sucedida
sucedidas
sucedido
sucedidos
sucessa
sucessivamente
sucessivas
sucessivos
sucesso
sucessor
sucessora
sucessores
sucessos
such
sucinto
suco
sud
suda
sudeste
sudoeste
sue
sueca
sueco
suecos
sueste
sueto
suez
suficiente
suficientemente
suficientes
sufixo
sufixos
sufra
sugar
sugere
sugerem
sugerida
sugerido
sugerindo
sugerir
sugeriram
sugeriu
sugesta
sugesto
sugiro
sui
suici
suicida
suicidas
suicide
suit
suite
suja
sujeita
sujeitas
sujeito
sujeitos
sujo
sul
sula
sulfato
sullivan
sulta
sultanato
sum
suma
sumatra
sume
summary
summer
summerslam
summit
sumo
sun
sundance
sunday
sunderland
sung
sunny
suns
sunset
sunshine
suor
supe
super
supera
superac
superada
superado
superando
superar
supercopa
superfami
superfi
superficiais
superficial
supergirl
superintende
superintendente
superior
superiores
superioridade
superliga
superman
supermercado
supermercados
supernova
superou
superstar
superstic
supertac
supervisa
supervisionar
supervisionou
supervisor
suplementar
suplemento
suplementos
suplente
suplentes
supo
supondo
suponha
supor
suporta
suportado
suportam
suportar
suporte
suportes
suposic
suposta
supostamente
supostas
suposto
supostos
support
supra
suprema
supremacia
supremo
supressa
suprimento
suprimentos
suprimir
suprir
sur
surda
surdo
surdos
surf
surge
surgem
surgido
surgimento
surgindo
surgir
surgiram
surgiu
suriname
surpreende
surpreendente
surpreendentemente
surpreendeu
surpreendido
surpresa
surpreso
surrey
surto
survey
survival
survivor
sus
susan
susana
susceti
suspeita
suspeitas
suspeito
suspeitos
suspender
suspendeu
suspensa
suspensas
suspense
suspenso
suspensos
suspiro
sussex
sustenta
sustentabilidade
sustentac
sustentada
sustentado
sustentados
sustentam
sustentar
sustento
susto
sutherland
sutil
sutton
suzana
suzanne
suzano
suzuki
sv
svg
swan
sway
sweet
swift
swing
swiss
switch
sword
sydney
syllable
sylvia
symbol
symphony
sysop
sysops
system
systematics
systems
t
ta
tab
tabaco
tabela
tabelas
taberna
table
tables
tabu
tabuleiro
tac
tadeu
tae
taekwondo
taes
tag
tags
tai
tail
taila
tailande
taipa
tais
taiwan
tajiquista
takahashi
take
takeover
takes
tal
talas
talbot
tale
talent
talento
talentos
talentoso
tales
talha
taliba
talk
talking
tallinn
talo
talvez
tam
tamanha
tamanho
tamanhos
tambe
tambem
tambor
tambores
tamil
tampa
tampouco
tan
tanaka
tancredo
tang
tange
tango
tank
tanque
tanques
tanta
tantas
tanto
tantos
tanza
tao
tap
tapa
tape
tapec
tapete
tapetes
tara
tarde
tardes
tardia
tardio
tarefa
tarefas
target
tarifa
tarifas
taro
tarragona
tarso
tartaruga
tartarugas
tarzan
tas
tasma
tata
tate
tatiana
tatu
tatyana
tau
taubate
taunay
taurus
tavares
tavira
taxa
taxas
taxi
taxon
taxono
taxonomia
taxonomic
taxonomy
taylor
tb
tbol
tc
tche
tcheca
tcheco
tchecoslova
tcp
td
tdt
te
tea
team
tears
teaser
teatrais
teatral
teatro
teatros
teau
tebas
tecelagem
tech
technical
technologies
technology
tecido
tecidos
tecla
tecladista
teclado
teclados
teclas
tecnicamente
tecnolo
tecnologia
tecnologias
tecto
ted
teddy
tedra
teen
teenage
teera
teia
teil
teis
teixeira
tejo
tel
tela
telas
tele
telecom
telecomunicac
telefe
telefilme
telefilmes
telefo
telefone
telefones
telefonia
telegrama
telegraph
telejornais
telejornal
telenovela
telenovelas
teles
telesco
telesp
telespectadores
televisa
televisio
television
televisiva
televisivas
televisivo
televisivos
telhado
telhados
telhas
tell
telles
telo
tem
tema
temas
teme
temendo
temer
temia
temor
temos
temperadas
temperado
temperamento
temperatura
temperaturas
tempestade
tempestades
templa
template
templates
temple
templo
templos
tempo
tempora
temporada
temporadas
temporais
temporal
temporariamente
tempos
temps
ten
tenda
tende
tendem
tendo
tenente
tenerife
tenha
tenham
tenho
tenista
tenistas
tennessee
tennis
tenor
tens
tensa
tenso
tensor
tenta
tentac
tentado
tentam
tentando
tentar
tentaram
tentativa
tentativas
tentava
tentavam
tente
tentei
tento
tentou
teo
teobaldo
teodo
teodora
teodorico
teodoro
teolo
teologia
teor
teorema
teoria
teorias
teoricamente
ter
tera
terape
terapia
terc
terceira
terceiro
terceiros
tercia
terei
terem
teremos
teresa
teresina
tereso
tereza
terezinha
teri
teria
teriam
term
termas
termina
terminac
terminada
terminado
terminais
terminal
terminam
terminando
terminar
terminaram
terminaria
terminava
terminologia
terminou
termo
termodina
termos
terno
ternura
tero
teros
terra
terrac
terramoto
terras
terreiro
terremoto
terremotos
terreno
terrenos
terrestre
terrestres
terri
territo
territoriais
territorial
terror
terrorismo
terrorista
terroristas
terry
tes
tese
teses
tesla
tesoureiro
tesouro
tesouros
tessa
test
testa
testado
testament
testamento
testar
teste
testemunha
testemunhar
testemunhas
testemunho
testemunhos
testemunhou
testes
testi
testosterona
testou
teto
tetos
tetra
tetraktys
teu
teus
teuto
teve
tex
texas
text
textcolor
texto
textos
texts
textual
textura
tf
th
tha
thai
thales
than
thank
thanks
thanos
that
thatcher
the
theater
theatre
theatro
theft
their
them
theme
then
theo
theodor
theodore
theology
theory
theplantlist
theraphosidae
there
these
theta
they
thiago
thiagoruiz
thierry
thing
things
think
third
this
thomas
thomaz
thompson
thomson
thor
thornton
those
thought
thousand
thrash
threat
threatened
three
thriller
thrones
through
thumb
thumbnail
thunder
thundercats
ti
tia
tiago
tibe
tibetano
tibete
tica
ticas
tico
ticos
tida
tidas
tido
tidos
tie
tienne
tierra
tiete
tiffany
tiger
tigre
tigres
tiinstitutul
tijolo
tijolos
tijuca
til
tila
tilgon
till
tim
tima
timas
timber
timberlake
timberwolves
timbre
time
timeaxis
times
timo
timor
timos
timothy
tin
tina
tinha
tinham
tinta
tintas
tinto
tio
tios
tip
tipicamente
tipo
tipografia
tipologia
tipos
tira
tirada
tiradas
tiradentes
tirado
tiragem
tirando
tirania
tirano
tirar
tiras
tire
tiro
tirol
tiros
tiroteio
tirou
tis
tita
titan
titanic
titans
title
tito
titular
titulares
titularidade
titulo
tive
tivemos
tiver
tivera
tiveram
tiverem
tivesse
tivessem
tj
tko
tlc
tm
tmica
tna
tnica
tnicas
tnico
tnicos
tnt
to
toa
tobago
tobias
toby
toc
toca
tocada
tocadas
tocado
tocam
tocando
tocante
tocantins
tocar
tocaram
tocava
tocha
tocou
toda
todas
todavia
today
todd
todo
todos
together
togo
tokugawa
tokyo
tol
toledo
tolera
tolkien
tolo
tom
toma
tomada
tomadas
tomado
tomados
tomam
tomando
tomar
tomara
tomaram
tomas
tomate
tomatoes
tomava
tomb
tombada
tombado
tombamento
tombo
tome
tomei
tommaso
tommy
tomo
tomorrow
tomos
tomou
ton
tona
tonalidade
tone
tonelada
toneladas
tonga
toni
tonight
toninho
tono
tons
tony
too
tool
tools
top
topic
topical
topo
topogra
topografia
topologia
toponi
topos
toque
toques
tor
tora
torc
torcedor
torcedores
torcida
torcidas
torino
tormenta
torna
tornado
tornados
tornam
tornando
tornar
tornara
tornaram
tornarem
tornaria
tornariam
tornasse
tornava
tornavam
torne
torneio
torneios
torneo
torno
tornou
tornozelo
toro
toronto
torpedo
torpedos
torque
torra
torre
torres
tortura
torturado
torturas
tos
toscana
tosco
tosqueira
tosse
totais
total
totalidade
totalizando
totalmente
toto
tottenham
touch
touchdown
touchdowns
toulouse
tour
tournament
touro
touros
tours
tower
town
township
toxic
toxicidade
toy
toyota
tr
tra
trabalha
trabalhado
trabalhador
trabalhadora
trabalhadores
trabalham
trabalhando
trabalhar
trabalharam
trabalhava
trabalhavam
trabalhista
trabalhistas
trabalho
trabalhos
trabalhou
trac
track
tracks
tracy
trad
trade
tradic
tradicionais
tradicional
tradicionalmente
tradition
traduc
tradutor
tradutores
traduz
traduzida
traduzidas
traduzido
traduzidos
traduzindo
traduzir
traduziu
traficante
traficantes
trage
trago
trai
traic
traidor
trail
trailer
train
training
trajano
traje
trajes
trajeto
trama
tramas
trampolim
tranc
trance
tranqu
tranquila
tranquilidade
tranquilo
trans
transac
transatla
transcric
transfere
transferida
transferidas
transferido
transferidos
transferindo
transferir
transferiu
transforma
transformac
transformada
transformadas
transformado
transformados
transformam
transformando
transformar
transformaram
transformou
transge
transic
transilva
transito
translated
translation
transliterac
transmissa
transmisso
transmissor
transmite
transmitem
transmitida
transmitidas
transmitido
transmitidos
transmitindo
transmitir
transmitiu
transnetuniano
transnetunianos
transpare
transparente
transplante
transport
transporta
transportada
transportado
transportados
transportando
transportar
transporte
transportes
transposic
transtorno
transtornos
transversal
trap
trapalho
traria
traseira
traseiras
traseiro
trata
tratada
tratadas
tratado
tratados
tratam
tratamento
tratamentos
tratando
tratar
tratava
trate
trato
tratos
tratou
trauma
trava
travada
travar
trave
travel
travessa
travessia
travis
travou
traz
traze
trazem
trazendo
trazer
trazia
traziam
trazida
trazidas
trazido
trazidos
tre
treasure
treatment
trecho
trechos
tree
trees
treina
treinada
treinado
treinador
treinadores
treinados
treinamento
treinamentos
treinando
treinar
treino
treinos
treinou
trek
trem
tremendo
trens
trent
trento
tres
trevas
trevo
trevor
treze
trezentos
tri
tria
triagem
trial
triangle
triangular
tribais
tribal
tribo
tribos
tribuna
tribunais
tribunal
tribune
tribuno
tribunos
tributa
tributac
tribute
tributo
tributos
trica
tricampea
tricampeonato
tricas
trick
trico
tricolor
tricos
tridimensional
trierweiller
trieste
trige
trigo
trilha
trilhas
trilho
trilhos
trilogia
trimestre
trincheiras
trindade
trinidad
trinity
trinta
trio
trios
trip
tripla
triple
triplo
tripulac
tripulantes
trista
triste
tristes
tristeza
triunfal
triunfo
triunfos
trivial
tro
troc
troca
trocado
trocados
trocando
trocar
trocaram
trocas
troco
trocou
trofe
trofes
troia
trois
troll
trolls
trombone
trompete
tron
tronco
troncos
trono
trons
tropa
tropas
tropec
tropeiros
trophy
tropicais
tropical
tropicos
trouble
trouxe
trouxeram
trova
troy
truck
true
trujillo
truman
trump
truque
truques
trust
trustees
truth
try
ts
tse
tsunami
tt
ttingen
tu
tua
tuas
tubara
tubaro
tube
tuberculose
tubo
tubos
tucker
tudes
tudo
tudor
tufa
tufo
tuga
tula
tulo
tulos
tumba
tumbas
tumnus
tumor
tumores
tumulto
tumultos
tuna
tunes
tuni
tuo
tupi
tupinamba
turbina
turbinas
turbo
turbule
turca
turcas
turco
turcos
turi
turim
turing
turismo
turistas
turma
turn
turne
turner
turno
turnos
turquia
tus
tutela
tutor
tutoria
tutorial
tv
tve
tvi
tvs
tvynovelas
twentieth
twenty
twilight
twin
twitter
two
ty
tyler
type
types
typhoon
tyrion
tyson
tz
u
ua
uai
ub
uberaba
uberla
uc
ucaso
uci
ucla
ucra
ucraniana
ucranianas
ucraniano
ucranianos
ude
udia
udio
udn
ue
uefa
ufc
ufmg
ufrgs
ufrj
ufsc
uganda
uhf
ui
uicn
uk
ukraine
ul
ula
ulica
ulisses
ulmana
ulmanas
ulmano
ulmanos
ulmer
ulrich
ultima
ultimamente
ultimate
ultimato
ultimo
ultra
ultramar
ultramarino
ultrapassa
ultrapassado
ultrapassando
ultrapassar
ultrapassou
ultravioleta
ulysses
um
uma
umas
umbanda
umberto
umidade
un
una
unanimidade
unb
und
under
underground
understanding
undertaker
une
unem
unesco
unesp
unforgettable
unha
unhas
uni
unia
unica
unicamente
unicamp
unicef
unico
unicode
unida
unidade
unidades
unidas
unidense
unido
unidos
unificac
unificada
unificado
unificar
uniforme
uniformes
unilateral
unindo
unio
union
unir
uniram
unit
unita
united
units
unity
uniu
univ
universais
universal
universalmente
universe
universi
universidad
universidade
universidades
universita
universite
university
universo
unix
unknown
uno
uns
unspecified
until
uol
up
update
upload
upon
upper
uppsala
upright
ups
ur
ura
urano
urban
urbana
urbanas
urbani
urbanismo
urbanizac
urbano
urbanos
urbe
urc
urea
urge
urgente
uri
urile
urina
url
urna
urnas
urraca
urs
ursa
urso
ursos
urss
ursula
urubu
uruguai
uruguaia
uruguaiana
uruguaio
uruguaios
us
usa
usada
usadas
usado
usados
usam
usando
usar
usaram
usarem
usava
usavam
usb
usd
usda
use
used
usei
user
userbox
userboxes
users
usher
usina
usinas
using
uso
usos
usou
usp
uss
ustria
ustring
usua
usuais
usual
usualmente
usula
usulas
ut
utad
utah
utc
utensi
utica
uticas
utico
uticos
utilidade
utilita
utiliza
utilizac
utilizada
utilizadas
utilizado
utilizador
utilizadores
utilizados
utilizam
utilizando
utilizar
utilizaram
utilizava
utilizavam
utilize
utilizou
uto
utopia
utrecht
utrons
uv
uva
uvas
uzbequista
v
va
vaca
vacas
vacina
vacinac
vacinas
vader
vae
vaga
vagamente
vagas
vago
vagos
vai
vaidade
vais
val
vala
valada
valadares
vale
valem
valenc
valencia
valenciana
valendo
valente
valentim
valentina
valentine
valentino
valer
valeria
valerie
vales
valeu
valia
validac
validade
valiosa
valiosas
valioso
valiosos
valladolid
valle
valley
valo
valois
valor
valores
valorizac
valorizar
valparai
valsa
value
values
valverde
vamos
vampire
vampiro
vampiros
van
vancouver
vandalismo
vandalismos
vandalizar
vanessa
vanguarda
vantagem
vantagens
vanthorn
vanuatu
vapor
var
vara
varanda
varas
varejo
varela
varepsilon
vargas
vari
varia
variabilidade
variac
variada
variadas
variado
variados
variam
variando
variante
variantes
variar
varias
variedade
variedades
variety
various
varo
varphi
varso
varzim
vas
vasco
vasconcellos
vasconcelos
vascular
vasculares
vaso
vasos
vasques
vassalo
vassalos
vasta
vastas
vasto
vaticano
vaughan
vaughn
vaz
vaza
vazamento
vazia
vazias
vazio
vazios
vc
vcs
vda
ve
vea
veado
vec
vector
vedras
veem
veg
vega
vegas
vegeta
vegetac
vegetais
vegetal
vei
veia
veias
veiga
veio
veis
veit
veja
vejam
vejamos
vejo
vel
vela
velas
velasco
velejadores
velha
velhas
velhice
velho
velhos
velo
velocidade
velocidades
veloso
veloz
veludo
velvet
vem
vemos
vena
venancio
vence
vencedor
vencedora
vencedoras
vencedores
vencendo
vencer
venceram
venceu
vencida
vencido
vencidos
venda
vendas
vende
vendedor
vendedores
vendendo
vender
venderam
vendeu
vendida
vendidas
vendido
vendidos
vendo
veneno
venera
venerac
veneza
venezia
venezuela
venezuelana
venezuelano
venha
venham
venho
venom
ventilac
vento
ventos
ventral
ventre
ventri
ventura
venture
venus
ver
vera
veracidade
veracruz
verba
verbais
verbal
verbandsgemeinde
verbas
verbete
verbetes
verbo
verbos
verdade
verdadeira
verdadeiramente
verdadeiras
verdadeiro
verdadeiros
verdades
verde
verdes
verdi
vereador
vereadora
vereadores
verem
veres
vergonha
veri
verifica
verificabilidade
verificac
verificada
verificado
verificador
verificadores
verificar
verificou
verifique
verlag
vermelha
vermelhas
vermelho
vermelhos
vermes
vermont
verna
vernon
vero
verona
veronica
versa
versailles
versalhes
versi
version
verso
versos
verstappen
versus
vert
vertebrados
vertente
vertentes
verticais
vertical
verticalmente
very
vesi
vespas
vespasiano
vesta
veste
vestes
vestfa
vesti
vestia
vestibular
vestida
vestido
vestidos
vestimenta
vestindo
vestir
vestiu
vestua
veterano
veteranos
veterina
veto
vetor
vetores
vetorial
vettel
vevo
vez
vezes
vh
vhf
vhs
vi
via
viabilidade
viac
viaduto
viagem
viagens
viaja
viajam
viajando
viajante
viajantes
viajar
viajaram
viajava
viajou
viam
viana
vianna
vias
vibrac
vibrante
vic
vica
vicariato
vice
vicente
vices
vickers
vico
victor
victoria
victory
vida
vidal
vidas
vide
vidente
video
videoclipe
videoclipes
videogame
videogames
videos
vido
vidro
vidros
vie
viegas
vieira
viena
vienna
vienne
vier
viera
vieram
viesse
vietna
vietnam
vietname
vietnamita
vietnamitas
view
views
viga
vigas
vige
vigente
vigentes
vigi
vigia
vigiados
vigiar
vigila
vigilante
vigo
vigor
vii
viii
viking
vikings
viktor
vil
vila
vilar
vilarejo
vilas
vilela
vilhena
villa
village
villas
ville
villeneuve
vilo
vim
vimos
vin
vinagre
vince
vincent
vincenzo
vinci
vinculada
vinculado
vinculados
vinda
vindas
vindo
vindos
vingadores
vinganc
vingar
vinha
vinham
vinhas
vinho
vinhos
vini
vinicius
viniciusmc
vinil
vintage
vinte
vio
viola
violac
violar
viole
violence
violenta
violentamente
violentas
violento
violentos
violet
violeta
violinista
violino
violoncelo
violonista
vip
vir
vira
virada
virais
viral
viram
virando
virar
virgem
virgen
virgens
virgi
virgin
virginia
virgo
viria
viriam
virou
virtuais
virtual
virtualmente
virtude
virtudes
vis
visa
visam
visando
visava
visconde
visconti
viseu
visi
visibilidade
visigodos
vision
visita
visitac
visitada
visitado
visitados
visitam
visitando
visitante
visitantes
visitar
visitaram
visitas
visitou
visivelmente
viso
visse
vista
vistas
visto
vistos
visuais
visual
visualizac
visualizar
visualmente
vita
vitais
vital
vitali
vitamina
vito
vitor
vitoriana
vitorino
vitoriosa
vitorioso
vitrais
vittorio
viu
viva
vivas
vive
vivem
vivendo
viver
viveram
viveu
vivi
vivia
viviam
vivian
vivida
vivido
vivo
vivos
vizinha
vizinhanc
vizinhas
vizinho
vizinhos
vizir
vlad
vladimir
vo
voa
voador
voando
voar
voca
vocabula
vocac
vocais
vocal
vocalista
vocalistas
vocalizac
vocals
voce
voco
vogais
vogal
vogue
voice
voices
void
voivodia
vol
vola
volante
voleibol
voleibolistas
volga
volkswagen
vols
volta
voltada
voltadas
voltado
voltados
voltaire
voltam
voltando
voltar
voltara
voltaram
voltaria
voltas
voltasse
voltava
volte
voltei
volto
voltou
volume
volumes
volunta
voluntariamente
volvo
vom
von
vontade
voo
voos
voou
vora
voro
voros
vos
vossa
vossas
vosso
vossos
vota
votac
votada
votado
votados
votam
votando
votantes
votar
votaram
vote
votei
voto
votos
votou
vou
vouga
vous
vovo
vox
voyage
voyager
voz
vozes
vr
vre
vres
vs
vt
vu
vulca
vulco
vulgar
vulgarmente
vulnera
vulnerabilidade
vulto
vv
vy
w
wa
wade
waffen
wageningen
wagner
wagnerc
wait
waiting
wake
waldemar
waldir
wales
walk
walker
walking
wall
wallace
wally
walsh
walt
walter
walther
walton
wan
wanda
wanderers
wanderley
wang
wanna
want
wanted
war
ward
warfare
warner
warning
warp
warren
warrior
warriors
wars
warwick
was
washington
watanabe
watch
water
waterloo
waters
watkins
watson
watt
wattle
watts
wave
way
wayne
ways
wcw
wd
we
weather
weaver
web
webb
webber
weber
webse
website
websites
webster
wec
wedding
week
weekend
weekly
wehrmacht
wei
weimar
weiss
welcome
well
wellesley
wellington
wells
wembley
wendy
were
werewolf
werneck
werner
wes
wesley
west
western
westminster
what
wheeler
when
where
which
while
white
whitehead
whitman
whitney
who
whole
why
wi
wide
width
wie
wien
wiener
wife
wii
wiki
wikiconcurso
wikidata
wikifer
wikificac
wikimasterbz
wikimedia
wikipe
wikipedia
wikipedista
wikipedistas
wikiprojeto
wikis
wikisource
wikitext
wild
wilde
wilder
wiley
wilhelm
wilkinson
will
willem
william
williams
williamson
willian
willie
willis
willy
wilson
wimbledon
win
winchester
wind
window
windows
windsor
wine
winehouse
wing
wings
winner
winnipeg
winston
winter
winterfell
wire
wisconsin
wise
wish
witch
with
within
without
wizard
wizards
wmf
wo
wolf
wolfe
wolff
wolfgang
wolverine
woman
women
won
wonder
wonderful
wong
woo
wood
woods
woody
woolly
worcester
word
words
work
workflow
working
works
workshop
world
worlds
worldwide
worms
worth
would
wouters
wp
wptbr
wrestlemania
wrestler
wrestling
wright
write
writer
writers
writing
writings
written
wrong
wta
wu
wuhan
wwe
wwf
www
wyatt
wyoming
x
xa
xadrez
xama
xangai
xavier
xbox
xd
xe
xeque
xerife
xh
xi
xia
xias
xica
xicas
xico
xicos
xido
xidos
xii
xiii
xiitas
xima
ximas
ximo
ximos
xingu
xis
xisto
xito
xitos
xiv
xix
xl
xm
xml
xodo
xon
xp
xteis
xtil
xu
xuxa
xv
xvi
xvii
xviii
xx
xxi
xxii
xxiii
xxiv
xxv
xxvi
xxx
y
ya
yahoo
yale
yamato
yan
yang
yanguas
yanguasdiz
yankees
ye
year
years
yellow
yeon
yes
yet
yeung
yg
yi
yin
yo
yoga
yoko
yokohama
yong
yoo
yoon
york
yorkshire
you
young
your
yourself
youth
youtube
youtuber
ypiranga
yu
yuan
yugo
yuji
yuki
yuri
yves
yyyy
z
za
zac
zacarias
zach
zack
zagreb
zagueiro
zaire
zamora
zappa
zar
zaragoza
zaro
ze
zealand
zebra
zeca
zeitschrift
zela
zelda
zelo
zen
zenit
zeppelin
zero
zes
zeta
zeus
zeze
zh
zhang
zhao
zhou
zi
zia
zico
ziggler
zimba
zimbabwe
zinco
zio
zios
zo
zodi
zoe
zoldyick
zombie
zona
zonas
zone
zoo
zool
zoolo
zoologia
zoology
zoom
zorro
zos
zquez
zu
zum
zumbi
zumbis
zur
zurique
zł
{
|
}
~






¡
¢
£
¤
¥
§
¨
©
ª
«
¬
­
®
°
±
²
³
´
µ
¶
·
¹
º
»
½
¿
×
ß
æ
ð
ø
ı
ł
ŋ
ſe
ɔ
ə
ɛ
ʃ
ʰ
ʲ
ʷ
ʻ
ʼ
ʾ
ʿ
ˈ
ː
̀
́
̂
̃
̄
̆
̇
̈
̉
̊
̋
̌
̓
̔
̛
̣
̦
̧
̨
̪
̮
̯
̱
̸
͂
͡
α
β
γ
δ
ε
ζ
η
θ
ι
κ
λ
μ
ν
ο
π
ρ
ς
σ
τ
υ
φ
χ
ψ
ω
а
в
г
е
и
к
м
н
о
п
порох
с
т
у
ф
ц
я
҉
ְ
ִ
ֵ
ֶ
ַ
ָ
ֹ
ּ
א
ב
ה
י
ל
מ
ר
ש
،
ا
َ
ُ
ِ
ْ
ٔ
ٕ
ं
क
त
द
न
प
ब
म
य
र
ल
व
स
ह
ा
ि
ी
ु
े
ो
्
র
া
ি
ে
্
்
ล
ั
ิ
ี
ุ
่
้
์
་
ာ
ု
း
်
្
​
‌
‎
‏
‐
‑
–
—
―
‘
’
“
”
„
†
‡
•
…
′
″
‴
‹
›
※
‾
⁄
₪
€
№
™
℣
ℳ
←
↑
→
↔
↷
⇄
⇆
⇒
⇨
∈
∑
−
∞
∧
∴
∽
≈
≡
≤
≥
⋅
③
④
⑦
ⓐ
⓬
─
━
│
└
├
█
░
■
▪
►
◄
●
◥
◴
★
☆
☉
☎
☜
☯
♂
♠
♦
♪
♫
♭
♯
⚡
✁
✈
✉
✍
✓
✠
❤
❧
⟨
⟩
⺀
⺄
⺆
⺈
⺊
⺌
⺕
⺝
⺸
⺼
⿰
⿱
⿲
⿳
⿴
⿵
⿶
⿷
⿸
⿹
⿺
⿻
、
。
《
》
「
」
『
』
〜
〢
〽
あ
い
う
え
お
か
き
く
け
こ
さ
し
す
た
ち
っ
つ
て
と
な
に
の
は
ひ
へ
ま
み
め
も
よ
ら
り
る
れ
を
ん
゙
゚
ア
ィ
イ
ウ
ェ
エ
オ
カ
キ
ク
ケ
コ
サ
シ
ス
セ
ソ
タ
チ
ッ
ツ
テ
ト
ナ
ニ
ネ
ノ
ハ
ヒ
フ
ヘ
ホ
マ
ミ
ム
メ
モ
ャ
ヤ
ュ
ユ
ョ
ラ
リ
ル
レ
ロ
ワ
ン
・
ー
㇁
㇂
㇄
㇇
㇈
㇉
㇓
㐁
㐄
㐅
㐌
㐫
㐬
㐭
㐮
㐱
㑒
㒵
㒸
㒼
㓁
㓞
㔾
㕛
㕣
㖾
㘝
㚅
㚇
㚔
㚘
㝉
㝡
㝴
㝵
㞋
㞢
㞷
㠩
㠭
㠯
㡀
㡭
㡿
㢲
㢴
㣇
㣺
㥯
㪅
㫄
㫐
㫒
㫺
㬅
㬎
㬥
㬰
㲋
㳄
㷠
㸒
㸚
㸦
㼌
㼲
㽞
㿟
䀠
䂞
䍃
䏍
䒑
䖍
䖒
䖝
䖵
䙴
䚻
䜌
䝿
䡛
䧹
䪞
一
丁
丂
七
丄
丅
丆
万
丈
三
上
下
丌
不
与
丏
丐
丑
专
且
丕
世
丘
丙
业
东
丞
丢
丣
两
严
並
丨
丩
个
丫
丬
中
丮
丰
丱
串
丵
丶
丷
丸
丹
为
主
丽
丿
乀
乂
乃
久
乆
乇
么
义
之
乌
乍
乎
乏
乐
乑
乔
乖
乗
乘
乙
乚
乛
乜
九
乞
也
习
乡
乳
乾
亀
亅
了
亇
予
争
事
二
亍
于
亏
亐
云
互
亓
五
井
亘
亚
亜
亞
亟
亠
亡
亢
交
亥
亦
产
亨
亩
享
京
亭
亮
亯
亰
亲
亳
亶
亷
人
亻
亼
亾
仁
今
介
仌
从
仐
仑
仒
仓
仕
他
付
仝
代
令
以
任
企
伊
伏
伐
休
会
伯
但
位
何
佘
余
作
佥
使
來
侈
侌
侖
侯
侵
便
保
俞
信
修
倉
倍
候
倠
備
僉
僕
儿
兀
允
兂
元
兄
充
兆
兇
先
光
兊
克
兌
免
兑
兒
兓
兔
党
兜
兟
入
全
兩
兪
八
公
六
兮
兰
共
关
兵
其
具
典
兹
兼
冀
冂
冃
冄
内
冈
冉
冊
冋
册
再
冎
冏
冐
冒
冓
冖
冗
冘
军
农
冝
冡
冥
冫
冬
冷
几
凡
凢
凵
凶
凷
凸
凹
出
函
凾
刀
刁
刂
刃
刄
刅
分
切
刍
刑
刕
刖
列
刘
则
初
別
利
别
到
制
刺
則
削
剌
前
剡
剽
劉
力
功
加
劦
助
劫
劳
劵
勃
勇
勉
勒
動
務
勞
勤
勹
勺
勻
勾
勿
匀
匂
包
匆
匈
匊
匋
匍
匕
化
北
匚
匝
匡
匪
匱
匸
匹
区
医
匽
匿
區
十
卂
千
卄
卅
卆
升
午
卉
半
卌
华
卑
卒
卓
单
卖
南
卜
卝
卞
占
卡
卢
卣
卤
卦
卩
卪
卬
卯
印
危
即
却
卵
卷
卸
卻
厂
厃
厄
历
厈
厉
厌
厓
厘
厚
原
厤
厥
厨
厭
厲
厶
厷
厸
去
厼
厽
叀
参
參
叅
又
叉
及
友
双
反
叐
发
叒
叔
叕
取
受
叚
叜
叟
口
古
句
另
叩
只
召
可
台
叱
史
右
叵
号
司
叹
吂
各
吅
合
吉
吊
吋
同
名
后
吏
向
吕
君
吝
吞
否
含
启
吳
吴
吹
吾
呂
呆
呈
告
员
呙
周
命
咅
和
咎
咠
咢
咨
咸
咼
哀
品
哉
員
哥
哲
唐
商
啇
問
啚
啬
啻
善
喜
喬
單
喿
嗇
噩
嚴
囊
囗
囘
囙
囚
四
回
囟
因
囧
囬
困
囱
図
囷
固
国
圂
圅
國
圍
圓
土
圡
圣
圥
在
圭
地
圶
圼
坐
坒
坚
坴
垂
垔
垚
埀
埋
城
埶
執
基
堂
堅
堆
堇
堯
塞
墨
壘
士
壬
壯
声
壳
壴
壹
壺
壽
夂
处
夅
夆
备
夊
夋
夌
复
夏
夒
夕
外
夗
夘
多
夜
夢
大
夨
天
太
夫
夬
夭
央
失
夲
头
夷
夸
夹
夻
夾
奂
奄
奇
奈
奉
奎
奏
奐
契
奓
奔
奚
奞
奠
奢
奥
奭
女
奴
奻
好
如
妄
妙
妟
妥
妻
妾
姑
委
姜
威
娄
婁
婴
嬰
嬴
子
孑
孔
孕
孖
字
存
孚
孛
孝
孟
季
孤
学
孫
孱
學
宀
宁
宂
它
宅
宇
守
安
宋
完
宏
宓
宗
官
定
宛
宜
宝
客
宣
室
宮
宰
害
家
容
宾
宿
寄
寅
密
富
寒
察
寧
審
寫
寬
寮
寸
对
寺
寻
寽
対
寿
封
尃
射
将
將
專
尉
尊
尋
尌
對
小
少
尒
尓
尔
尖
尗
尚
尞
尢
尣
尤
尧
尨
尭
就
尸
尹
尺
尻
尼
尽
尾
尿
局
居
屈
屋
屎
屏
屑
展
屖
屚
属
屠
屡
屬
屮
屯
屰
山
屵
屾
岁
岂
岑
岡
岩
岳
岸
峯
島
崇
崑
崔
崖
崙
崩
嵬
嶲
巂
巛
川
州
巟
巠
巢
巤
工
左
巧
巨
巩
巫
差
己
已
巳
巴
巷
巸
巽
巾
巿
帀
市
布
希
帚
帛
帝
带
師
席
帶
常
干
平
年
幵
并
幷
幸
幺
幻
幼
幽
幾
广
広
庄
床
底
店
庚
府
度
庫
庭
庶
康
庸
廉
廌
廛
廣
廩
廴
延
廷
建
廾
廿
开
弁
弃
弄
弇
弋
式
弓
弔
引
弗
弘
弜
弟
弥
弦
弱
張
強
强
彊
彌
彎
彐
彑
当
彔
录
彖
彗
彡
形
彥
彦
彧
彭
彳
役
彼
往
待
律
徒
得
徙
從
復
微
徵
心
忄
必
忌
忍
志
忝
忠
忩
快
念
忽
忿
思
怠
急
怱
恆
恒
恩
恭
息
悉
患
悤
悲
悶
惠
惡
惢
愁
愈
意
愛
感
慈
慧
慮
憂
憲
應
戀
戈
戉
戊
戋
戌
戍
戎
成
我
戒
戔
或
戚
戠
戢
截
戲
戶
户
戹
戼
戾
房
所
扁
扇
手
扌
才
打
托
执
承
折
拉
拜
拳
拿
掌
推
提
摩
支
攴
攵
收
攸
改
放
政
敄
敏
敕
敖
敗
教
敝
敞
敢
散
敦
敫
敬
数
敷
數
斂
文
斉
斊
斗
斤
斥
斩
斬
斯
新
方
於
施
斿
旁
旋
族
无
旡
既
旣
日
旦
旧
旨
早
旬
旱
旲
时
旾
昆
昇
昌
昍
明
昏
易
昔
昗
昜
星
春
昬
是
昱
昴
昷
時
晃
晋
晏
普
景
晶
智
暑
暴
曇
曩
曰
曲
曳
更
曷
書
曹
曼
曾
替
最
朁
會
月
有
朋
服
朔
朕
朗
望
朝
木
朩
未
末
本
札
朮
术
朱
朵
朶
朿
杀
李
杏
村
杜
束
条
来
東
杲
杳
松
析
林
枚
果
枝
枲
枼
某
柔
查
柬
柰
柴
栗
桀
桑
桼
梁
條
梟
梨
棘
棠
棥
森
楚
業
楽
榮
樂
樊
欠
次
欣
欮
欲
欶
欽
款
歆
歇
歌
歛
止
正
此
步
武
歨
歪
歮
歯
歰
歲
歴
歷
歸
歹
歺
死
殳
段
殷
殸
殹
殺
殻
殿
毋
毌
母
每
毒
比
毕
毚
毛
毳
氏
氐
民
气
氣
水
氵
氶
氷
永
氺
氾
求
汝
汞
江
沃
沓
沙
沝
泉
法
波
泣
泥
泰
洛
洪
活
派
流
浦
浪
浮
海
淡
淮
清
渚
渠
湯
滿
漸
火
灬
灭
灰
灵
灷
炅
炎
炏
炗
炙
炭
為
烈
烏
烝
焉
無
焦
焱
然
煞
熊
熏
燕
營
燮
爪
爫
爭
爯
爰
爱
爲
爵
父
爻
爽
爾
爿
片
版
牙
牚
牛
牜
牟
牢
牧
物
牪
牽
犀
犬
犭
犮
狂
狄
狊
独
狺
猋
猒
猪
猫
献
獻
玄
率
玉
王
玟
玨
珎
班
球
琴
瑟
瑩
瓜
瓦
甘
甚
生
産
用
甫
甬
田
由
甲
申
电
甶
男
甸
甹
画
甾
畀
界
畏
畐
留
畜
畟
畢
畧
畨
番
畫
異
畱
當
畺
畾
疊
疋
疌
疑
疒
疾
癶
癸
癹
登
發
白
百
皀
皃
的
皆
皇
皋
皐
皕
皮
皷
皿
盃
盆
盇
盈
益
盍
盎
监
盒
盖
盛
盡
監
盤
盧
目
直
相
盾
省
眇
眉
看
眔
眞
真
眷
眼
眾
着
睘
睪
睿
瞏
瞢
瞿
矍
矛
矞
矢
矣
知
矦
短
石
破
碎
磊
磨
示
礻
礼
社
神
祟
票
祭
禀
禁
禸
禹
禺
离
禽
禾
禿
秀
秃
秉
秋
科
秝
秦
移
稟
穀
穌
穴
究
穹
空
穿
突
窄
窒
立
竒
竜
竝
竟
章
童
竹
笑
笠
第
筆
等
答
箕
算
箴
節
篤
篭
米
粉
粛
粟
粤
粦
粲
糞
糸
糹
系
約
納
素
索
紫
累
細
絜
絫
絲
維
綿
縣
繇
纍
纟
缶
网
罒
罔
罕
罗
罙
罡
罢
罪
署
罷
羅
羊
羌
羍
美
羔
羕
羗
羞
羡
羣
群
義
羲
羸
羽
翁
翏
習
翕
翟
翠
翼
老
耂
考
者
耆
而
耎
耑
耒
耳
耴
耶
耷
聂
聊
聖
聚
聶
聿
肀
肃
肅
肉
肖
肙
肥
肩
肯
育
肴
胃
背
胡
胥
能
脊
脩
膚
臣
臤
臧
自
臬
臭
臯
臱
至
致
臺
臼
臽
臾
臿
舀
舂
舄
與
興
舉
舌
舍
舛
舜
舞
舟
般
艮
良
色
艸
艹
艾
芒
芔
芬
芮
花
芳
芺
芻
苔
苗
苟
若
苦
英
茶
茸
荅
草
荒
荣
荼
莆
莧
莫
莽
菆
菊
菐
華
萬
落
葉
著
葛
董
葵
蒙
蒦
蒼
蓋
蓬
蓺
蔑
蔡
蕉
蕭
薄
薛
薦
薰
藍
藏
藤
藥
蘭
虍
虎
虐
虒
虔
處
虖
虗
虘
虚
虛
虜
虞
虫
虽
蚤
蚩
蜀
蜜
蟲
蠡
血
行
衍
衛
衣
衤
表
衮
衰
袁
袞
褭
褱
襄
襾
西
覀
要
覃
見
規
覓
覧
親
覽
见
角
解
言
訁
訇
計
話
詹
語
誩
諸
讠
语
谷
豆
豈
豊
豐
豕
豖
豙
象
豦
豩
豪
豸
貇
貝
貞
貟
負
貢
貧
貪
貫
責
貳
貴
買
費
賁
資
賈
賏
賓
賔
賛
賞
賢
賣
質
賴
贊
贝
贡
责
贯
贲
贵
赖
赞
赤
赦
走
越
足
路
蹇
身
躬
車
軍
軎
軟
輦
车
辛
辜
辟
辥
辰
辱
農
辵
辶
边
达
过
近
连
迷
追
退
送
逆
逐
通
速
造
逢
連
逮
進
遀
遂
過
道
達
遣
適
遷
遺
邊
邑
邕
那
邦
邪
郎
郡
部
郭
都
鄉
酉
酋
配
酓
釆
采
里
重
野
量
金
釒
錢
钅
長
镸
长
門
閃
閉
開
閏
閑
閒
間
閔
閵
閻
闌
门
间
闷
阑
阜
阝
阿
降
陳
隆
隊
隋
隡
隨
隱
隶
隹
隺
隻
隼
隽
难
雀
雁
集
雈
雋
雍
雐
雔
雙
雚
雜
雝
離
難
雨
雩
雪
雲
零
雷
需
霍
霜
霝
霞
霸
靈
靑
青
非
靡
面
靣
革
韋
韦
韭
韯
韱
音
頁
頃
項
須
頗
頡
頻
顛
页
風
风
飛
飞
食
飠
養
饣
首
香
馬
馮
駦
马
骨
高
髟
鬥
鬯
鬲
鬼
魚
魯
鮮
鱼
鲁
鳥
鳳
鸟
鹵
鹿
麃
麗
麥
麦
麻
黃
黄
黍
黎
黑
黒
黨
黹
黽
黾
鼎
鼓
鼠
鼻
齊
齋
齐
齒
齿
龍
龙
龜
龟
龠
龰
龱
龴
龵
龶
龷
龸
龹
ꞌ
者
艹
ﬁ
ﬅ
️
﻿
！
（
）
，
：
？
～
￼
�
𝑷
𝒂
𝒄
𝒅
𝒆
𝒊
𝒏
𝒐
𝒓
𝒛
💬
📖
📝
📩
🔔
🖖
𠀁
𠀃
𠀆
𠀉
𠀎
𠀐
𠁁
𠁣
𠂆
𠂇
𠂈
𠂉
𠂊
𠂋
𠂎
𠂒
𠂔
𠂛
𠂡
𠂢
𠂤
𠂬
𠂭
𠂹
𠃊
𠃋
𠃌
𠃍
𠃎
𠃑
𠃓
𠃔
𠃜
𠄌
𠄎
𠄠
𠄢
𠆢
𠆥
𠇍
𠈌
𠌵
𠓜
𠔉
𠔥
𠔼
𠔽
𠔿
𠕀
𠕁
𠕋
𠘧
𠘨
𠙻
𠙼
𠚏
𠚒
𠚤
𠚪
𠣏
𠤎
𠤕
𠥓
𠦄
𠦑
𠦝
𠧒
𠧗
𠧪
𠩺
𠪚
𠫓
𠫔
𠫤
𠬛
𠬝
𠬞
𠬢
𠬤
𠬶
𠮛
𠮦
𠮷
𠯑
𠱠
𠳮
𠷎
𡈼
𡉀
𡉵
𡌥
𡍮
𡏳
𡕒
𡕩
𡕰
𡖅
𡗗
𡗜
𡘆
𡘤
𡧱
𡨄
𡩧
𡬠
𡭽
𡰣
𡰥
𡰪
𡰯
𡰱
𡷈
𡸁
𡿨
𡿩
𡿪
𡿺
𢀖
𢀛
𢀩
𢁙
𢆉
𢆰
𢆶
𢇁
𢇇
𢉖
𢌬
𢌿
𢏚
𢑑
𢑚
𢖻
𢙣
𢛳
𢦏
𢦒
𢧵
𢼄
𢾕
𣁋
𣄼
𣅀
𣅽
𣍘
𣎳
𣎵
𣏋
𣏼
𣗥
𣥂
𣥖
𣦵
𣦼
𣧄
𣪊
𣪠
𣬉
𣳾
𣶒
𤇾
𤊽
𤐫
𤓰
𤔔
𤕨
𤣩
𤰇
𤰔
𤰞
𤴓
𤴔
𤽄
𥁑
𥁕
𥃦
𥃩
𥃭
𥇡
𥑟
𥘅
𥘈
𥝢
𥫗
𥱡
𦈢
𦉪
𦉬
𦉼
𦍌
𦍒
𦎧
𦐇
𦓔
𦔮
𦘒
𦙃
𦚏
𦣝
𦣞
𦣻
𦥑
𦥔
𦥯
𦨉
𦭝
𦰩
𧆞
𧈧
𧘇
𧰨
𧴪
𧴮
𧵩
𧾷
𨸏
𨾴
𩙿
𩠐
𩫏
𩵋
𪉷
𪜀
𪟽
𪠲
𪩲
𫇦
𫔭
𫜸
𫝀
𫠣
𫠩
𫢉
𫥞
𫩏
𫩠
𫪡
𫲽
𫶧
𬀷
𬐘
𬗌
𬙙
𬛸
𬜯
𬟩
𬯁
𬴘
𬺻
𬼉
𬼖
𭀰
𭁈
𭁨
𭅰
𭑈
𭕄
𭗼
𭤨
𭥫
𭻾
𮅕
𮊿
𮍌
𮍏
𮓗
𮥼
𮧮
廾
𰀁
𰀄
𰀈
𰀉
𰀕
𰀠
𰀡
𰀢
𰀪
𰁜
𰃮
𰆊
𰆘
𰋙
𰕎
𰢴
𰧭
𰯲
00--
01--
02--
03--
04--
05--
06--
07--
08--
09--
104--
123--
48--
51--
54--
55--
56--
57--
58--
59--
60--
61--
62--
63--
64--
65--
66--
67--
68--
69--
70--
71--
72--
73--
74--
75--
76--
77--
78--
79--
80--
81--
82--
83--
84--
85--
86--
87--
88--
89--
90--
91--
92--
93--
94--
95--
96--
97--
978--
97805--
98--
99--
a--
aa--
ab--
aba--
abe--
abi--
abo--
abort--
abra--
abs--
absol--
absolut--
absor--
abu--
ac--
aca--
acant--
acarr--
acc--
ace--
acid--
acir--
aco--
acolh--
acres--
acro--
act--
activ--
acu--
ad--
ada--
add--
ade--
adi--
adju--
adm--
admit--
ado--
adopt--
ador--
ae--
aero--
af--
afa--
afe--
afect--
afi--
aflor--
afog--
afri--
afro--
afund--
ag--
aga--
agarr--
age--
aglu--
ago--
agost--
agre--
agred--
agri--
agro--
agui--
ah--
ai--
air--
aj--
ajoe--
ajun--
ak--
aka--
al--
ala--
alc--
alca--
alche--
aldr--
ale--
alek--
alente--
alfa--
alga--
algi--
ali--
all--
alle--
allge--
alme--
almo--
alo--
along--
alpen--
alph--
alqui--
alt--
alta--
alu--
alve--
aly--
am--
ama--
amadu--
amar--
ambi--
ame--
ami--
amo--
amorte--
amphi--
ampli--
an--
ana--
anarc--
and--
ane--
anfi--
anga--
angli--
ani--
ann--
anna--
ano--
ans--
ant--
ante--
anthr--
anti--
antide--
anu--
any--
ao--
ap--
apa--
ape--
apert--
api--
apla--
aplau--
apli--
apo--
apos--
app--
[...]
