!
"
#
##0
##1
##10
##11
##12
##13
##14
##15
##16
##17
##18
##19
##2
##20
##21
##22
##23
##24
##25
##26
##27
##28
##29
##3
##30
##31
##32
##33
##34
##35
##36
##37
##38
##39
##4
##40
##41
##42
##43
##44
##45
##46
##47
##48
##49
##5
##50
##51
##52
##53
##54
##55
##56
##57
##58
##59
##6
##60
##61
##62
##63
##64
##65
##66
##67
##68
##69
##7
##70
##71
##72
##73
##74
##75
##76
##77
##78
##79
##8
##80
##81
##82
##83
##84
##85
##86
##87
##88
##89
##9
##90
##91
##92
##93
##94
##95
##96
##97
##98
##99
$
%
&
'
(
)
*
+
,
-
.
/
0
00
000
0001
0002
0004
0006
001
002
0022
003
004
005
006
007
008
009
01
010
011
012
013
014
0140
0147
015
017
02
020
0261
0284
03
0362
04
040
05
050
06
06953
07
071
08
09
1
10
100
1000
1001
1002
1006
1007
101
1016
1017
102
1021
103
1030
1037
1038
104
1044
105
1051
106
1066
107
107005218
1073
108
1080
1086
1088
109
1090
1093
1095
1097
1098
11
110
1100
1103
1109
111
1111
112
1126
113
1130
1136
114
1143
1146
115
116
117
1177
118
1186
119
12
120
1200
1204
121
122
123
1235
124
125
1250
126
127
128
129
13
130
1300
131
132
133
134
135
1350
136
1365
137
1371
1377
138
1385
139
14
140
1400
141
1415
142
143
144
145
1450
1453
146
1460
1469
147
1471
1475
1476
148
149
1492
15
150
1500
1503
1505
151
1510
1512
1514
1515
1516
1517
1519
152
1520
1521
1522
1523
1524
1525
1526
1527
153
1530
1531
1532
1533
1534
1535
1536
1537
1538
154
1540
1541
1542
1543
1545
1547
1549
155
1550
1552
1553
1554
1555
1556
1557
1558
1559
156
1560
1561
1562
1564
1565
1566
1567
1568
157
1570
1571
1572
1573
1575
1578
158
1580
1582
1583
1584
1585
1586
1587
1588
1589
159
1590
1591
1592
1595
1597
1598
1599
16
160
1600
1601
1602
1603
1604
1605
1606
1607
1608
1609
161
1610
1611
1612
1613
1614
1615
1616
1617
1618
1619
162
1620
1621
1622
1623
1624
1625
1626
1627
1628
1629
163
1630
1632
1633
1634
1635
1637
1638
1639
164
1640
1641
1642
1643
1644
1645
1646
1647
1648
1649
165
1650
1652
1654
1655
1656
166
1660
1661
1662
1663
1664
1665
1666
1667
1668
167
1670
1671
1672
1674
1675
1676
1677
1678
1679
168
1680
1681
1682
1683
1685
1686
1688
1689
169
1690
1694
1696
1697
17
170
1700
1701
1702
1703
1704
1706
1707
1708
1709
171
1710
1711
1712
1713
1714
1715
1716
1717
1718
1719
172
1720
1721
1722
1723
1724
1725
1726
1727
1728
1729
173
1730
1732
1733
1734
1735
1736
1737
1738
1739
174
1740
1741
1742
1743
1744
1745
1746
1747
1748
1749
175
1750
1751
1752
1753
1754
1755
1756
1757
1758
1759
176
1760
1761
1762
1763
1764
1765
1766
1767
1768
1769
177
1770
1771
1772
1773
1774
1775
1776
1777
1778
1779
178
1780
1781
1782
1783
1784
1785
1786
1787
1788
1789
179
1790
1791
1792
1793
1794
1795
1796
1797
1798
1799
18
180
1800
1801
1802
1803
1804
1805
1806
1807
1808
1809
181
1810
1811
1812
1813
1814
1815
1816
1817
1818
1819
182
1820
1821
1822
1823
1824
1825
1826
1827
1828
1829
183
1830
1831
1832
1833
1834
1835
1836
1837
1838
1839
184
1840
1841
1842
1843
1844
1845
1846
1847
1848
1849
185
1850
1851
1852
1853
1854
1855
1856
1857
1858
1859
186
1860
1861
1862
1863
1864
1865
1866
1867
1868
1869
187
1870
1871
1872
1873
1874
1875
1876
1877
1878
1879
188
1880
1881
1882
1883
1884
1885
1886
1887
1888
1889
189
1890
1891
1892
1893
1894
1895
1896
1897
1898
1899
19
190
1900
1901
1902
1903
1904
1905
1906
1907
1908
1909
191
1910
1911
1912
1913
1914
1915
1916
1917
1918
1919
192
1920
1921
1922
1923
1924
1925
1926
1927
1928
1929
193
1930
1931
1932
1933
1934
1935
1936
1937
1938
1939
194
1940
1941
1942
1943
1944
1945
1946
1947
1948
1949
195
1950
1951
1952
1953
1954
1955
1956
1957
1958
1959
196
1960
1961
1962
1963
1964
1965
1966
1967
1968
1969
197
1970
1971
1972
1973
1974
1975
1976
1977
1978
1979
198
1980
1981
1982
1983
1984
1985
1986
1987
1988
1989
199
1990
1991
1992
1993
1994
1995
1996
1997
1998
1999
2
20
200
2000
2001
2002
2003
2004
2005
2006
2007
2008
2009
201
2010
2011
2012
2013
2014
2015
2016
2017
2018
2019
202
2020
2021
2022
2023
2024
2025
203
2030
204
205
206
207
208
209
21
210
211
212
213
214
215
216
217
218
219
22
220
221
2218
222
2223
223
224
225
226
227
228
229
23
230
2305
2307
231
232
233
234
235
236
2367117
237
238
239
24
240
241
242
243
244
245
246
247
248
249
25
250
2500
251
2510
252
253
2533
254
255
256
257
258
259
26
260
261
262
263
26378027
264
265
266
267
268
269
27
270
271
272
273
274
275
276
277
278
279
28
280
281
282
283
284
285
286
287
288
289
29
290
291
292
293
294
295
296
297
298
299
3
30
300
3000
301
302
303
304
305
306
307
3077
308
309
31
310
311
312
313
314
315
316
3166
317
318
319
32
320
321
322
323
324
325
326
327
328
329
33
330
331
332
333
334
335
336
337
338
339
34
340
341
342
343
344
345
346
347
348
349
35
350
351
352
353
354
355
356
357
358
359
36
360
361
362
363
364
365
366
367
368
369
37
370
371
372
373
374
375
376
377
378
379
38
380
381
382
383
384
385
38503252
386
387
388
389
39
390
391
392
393
394
395
396
397
398
399
4
40
400
4000
401
402
403
404
405
406
407
408
409
41
410
411
412
413
414
415
416
417
418
419
42
420
421
422
423
424
425
426
427
428
429
43
430
431
432
433
4331
434
435
436
437
438
439
44
440
441
442
443
444
445
446
447
448
449
45
450
451
452
453
454
455
456
457
458
459
46
460
461
462
463
464
465
466
467
468
469
47
470
471
472
473
474
475
476
477
478
479
48
480
481
482
483
484
485
486
487
488
489
49
490
491
492
493
494
495
496
497
498
499
5
50
500
5000
501
502
503
504
505
506
507
508
509
51
510
511
512
513
514
515
516
517
518
519
52
520
521
522
523
524
525
526
527
528
529
53
530
531
532
533
534
535
536
537
538
539
54
540
541
542
543
544
545
546
547
548
549
55
550
551
552
553
554
555
556
557
558
559
56
560
561
563
565
567
568
569
57
570
571
572
573
575
576
578
579
58
580
581
582
583
585
586
587
589
59
590
591
592
593
595
596
597
598
6
60
600
601
602
603
604
605
607
608
609
61
610
611
612
613
615
616
617
618
619
62
620
624
625
626
627
628
63
630
631
632
634
635
636
6361
637
639
64
640
641
642
643
644
645
646
647
649
65
650
653
654
66
660
661
664
665
666
667
67
670
671
673
674
675
679
68
680
684
685
688
69
690
691
695
7
70
700
701
705
707
71
710
711
715
719
72
720
727
73
730
737
74
740
741
747
75
750
751
757
76
760
767
77
770
774
775
777
78
780
781
787
79
790
7909
796
8
80
800
8001
8018
802
81
810
813
82
820
8263
83
830
84
840
842
84433
85
850
85474
86
860
867
869
87
870
88
880
882
89
9
90
900
91
910
911
92
920
93
930
94
940
95
950
951
96
960
9630096
97
970
972
977
978
9780195327373
9780643067172
98
980
981
987
989
99
990
999
:
;
<
=
>
?
@
[
\
]
^
_
`
a
aa
aaliyah
aaron
ab
aba
abade
abadia
abaixo
abandona
abandonada
abandonadas
abandonado
abandonados
abandonando
abandonar
abandonaram
abandono
abandonou
abastecimento
abate
abatido
abba
abbey
abbott
abby
abc
abd
abdicac
abdo
abdominal
abdul
abdullah
abe
abeca
abel
abelha
abelhas
abenc
aberdeen
aberta
abertamente
abertas
aberto
abertos
abertura
aberturas
abi
abigail
abismo
abo
abolic
abolicionista
abolida
aborda
abordado
abordados
abordagem
abordagens
abordando
abordar
abordou
abori
aborto
about
above
abpd
abr
abra
abraa
abrac
abraham
abrams
abrange
abrangem
abrangendo
abrangente
abrantes
abre
abrem
abreu
abreviac
abreviada
abreviado
abreviatura
abria
abriga
abrigar
abrigava
abrigo
abrigos
abrigou
abril
abrindo
abrir
abriram
abriu
abrs
abs
absoluta
absolutamente
absolute
absoluto
absolvido
absorc
absorver
absorvida
absorvido
abstenc
abstrac
abstract
abstrata
abstrato
absurdo
abu
abucay
abunda
abundante
abundantes
abuse
abuso
abusos
ac
aca
acaba
acabado
acabam
acabamento
acabando
acabar
acabara
acabaram
acabaria
acabava
acabou
acacia
acacias
acad
acade
academia
academias
academic
academy
acalypha
acampamento
acampamentos
acas
acasalamento
acaso
acb
acc
accademia
access
accessed
accident
according
account
accreditations
ace
acedida
acedido
aceita
aceitac
aceitam
aceitando
aceitar
aceitaram
aceitas
aceite
aceito
aceitos
aceitou
acelerac
acelerado
acelerar
acento
acentuada
acentuado
acepc
acer
acerca
acerta
acertar
acerto
acertou
acervo
acervos
aces
acessada
acessado
acessar
acessi
acessibilidade
acesso
acessodata
acessos
acha
achado
achados
acham
achando
achar
acharam
acharts
acharya
achava
achavam
achei
achievement
acho
achou
acianthera
acid
acidental
acidentalmente
acidente
acidentes
acima
aciona
acionista
acionistas
aclamac
aclamada
aclamado
acm
aco
acolhe
acolher
acolhimento
acomodac
acomodar
acompanha
acompanhada
acompanhadas
acompanhado
acompanhados
acompanham
acompanhamento
acompanhando
acompanhar
acompanharam
acompanhava
acompanhou
aconselha
aconselhou
acontec
acontece
acontecem
acontecendo
acontecer
acontecera
aconteceram
aconteceria
aconteceu
acontecia
acontecido
acontecimento
acontecimentos
acoplamento
acorda
acordado
acordar
acorde
acordes
acordo
acordos
acordou
acos
acosta
acoustic
acquires
acre
acredita
acreditam
acreditando
acreditar
acreditava
acreditavam
acredito
acreditou
acres
acrescenta
acrescentado
acrescentando
acrescentar
acrescentou
acro
across
act
acta
actas
acting
action
activa
active
actividade
actividades
activities
activity
activo
acto
actor
actores
actors
actos
actress
actriz
acts
actuac
actuais
actual
actualidade
actually
actualmente
acu
acudiu
acumula
acumulac
acumulada
acumulado
acumulados
acumulando
acumular
acumulou
acusa
acusac
acusada
acusado
acusados
acusando
acusativo
acusou
ad
ada
adalberto
adam
adams
adapta
adaptac
adaptada
adaptadas
adaptado
adaptados
adaptar
adaptation
adaptou
adas
add
added
addison
address
adds
ade
adelaide
adele
adelino
ademais
ademar
ademir
adeptos
adequac
adequada
adequadamente
adequadas
adequado
adequados
adequar
adere
aderir
aderiu
ades
adesa
adeus
adi
adiada
adiado
adiamento
adiante
adiar
adic
adiciona
adicionada
adicionadas
adicionado
adicionados
adicionais
adicional
adicionalmente
adicionando
adicionar
adicionou
adjacente
adjacentes
adjetivo
adjetivos
adjunto
adjust
adjusted
adjusts
adler
administra
administrac
administrada
administradas
administrado
administrador
administradores
administrados
administrar
administrat
administration
administrativa
administrativamente
administrativas
administrative
administrativo
administrativos
admira
admirac
admirado
admirar
admissa
admite
admitido
admitir
admitiu
adn
ado
adobe
adoc
adolesce
adolescente
adolescentes
adolf
adolfo
ador
adora
adorac
adores
adorno
adoro
adorocinema
ados
adota
adotada
adotadas
adotado
adotados
adotando
adotar
adotaram
adotivo
adotou
adquire
adquirida
adquiridas
adquirido
adquiridos
adquirindo
adquirir
adquiriram
adquiriu
adria
adrian
adriana
adriano
adult
adulta
adulte
adulto
adultos
adults
advance
advanced
advances
adve
adventista
advento
adventure
adventures
adversa
adverte
advisory
advocacia
advogada
advogado
advogados
ae
aero
aerodina
aeroespacial
aerona
aeronave
aeronaves
aeroporto
aeroportos
aerospace
aew
af
afa
afasta
afastada
afastado
afastados
afastamento
afastando
afastar
afastou
afc
afe
afega
afeganista
afeic
afeta
afetada
afetadas
afetado
afetados
afetam
afetando
afetar
afeto
afetou
affair
affairs
affonso
afganistan
afghan
afghanistan
afi
afiliac
afiliada
afiliadas
afim
afinal
afinidade
afins
afirma
afirmac
afirmado
afirmam
afirmando
afirmar
afirmaram
afirmativo
afirmava
afirmou
aflic
afluente
afluentes
afonso
afora
afp
afra
afrescos
africa
african
africana
africanas
africano
africanos
afrika
afrique
afro
afroamericanos
afrodite
after
afundado
afundou
ag
aga
again
against
agatha
age
aged
agem
agencia
agency
agenda
agent
agente
agentes
agents
ages
agilidade
agindo
agir
agitac
agitado
aglomerac
aglomerado
aglomerados
agnes
ago
agonia
agora
agostinho
agostini
agosto
agra
agraciado
agraciados
agrada
agradar
agradecer
agradecimento
agreement
agregac
agregada
agregado
agregador
agregados
agremiac
agressa
agressiva
agressivo
agresso
agreste
agri
agricola
agricultor
agricultores
agricultura
agricultural
agriculture
agrilus
agro
agronego
agronomia
agropecua
agrostis
agrupadas
agrupado
agrupados
agrupamento
agu
agua
aguarda
aguardente
aguas
aguda
agudo
aguiar
aguilar
aguilera
aguirre
agulha
agulhas
agusti
ah
ahead
ahi
ahmad
ahmed
ai
aid
aids
aiea
aim
aime
ain
ainda
air
airbus
aircraft
aire
aires
airlines
airplay
airport
airways
ais
aise
aj
ajax
ajuda
ajudado
ajudam
ajudando
ajudante
ajudar
ajudaram
ajudou
ajustar
ajuste
ajustes
ak
aka
akademie
akb
akira
al
ala
alabama
alagoano
alagoas
alain
alameda
alan
alargamento
alarme
alas
alasca
alaska
alavanca
alba
albane
albania
albano
albany
albergaria
albert
alberta
alberto
albin
albino
albion
albrecht
albufeira
album
albums
albuquerque
alc
alca
alcaide
alcala
alcanc
alcance
alceu
alchemilla
alchemillinae
alcides
alckmin
alcobac
alcoo
alcoolismo
alcora
alcunha
aldeia
aldeias
aldo
ale
aleato
aleatoriamente
alec
alega
alegac
alegadamente
alegam
alegando
alegaram
alego
alegoria
alegou
alegre
alegres
alegria
aleixo
alejandra
alejandro
aleksandr
alem
alema
alemanha
alencar
alentejo
alepo
alerj
alert
alerta
alertas
alertou
alessandra
alessandro
alex
alexa
alexander
alexandra
alexandre
alexandria
alexei
alexis
alfa
alfabe
alfabetizac
alfabeto
alface
alferes
alfonso
alfred
alfredo
algae
algaebase
algarismos
algarve
algas
alge
algebra
algeria
algo
algoda
algoritmo
algoritmos
algue
algum
alguma
algumas
alguns
alheia
alheio
alho
ali
alia
aliada
aliadas
aliado
aliados
alianc
alianza
alice
alicia
alien
alienac
alieni
aliens
aligned
alimenta
alimentac
alimentado
alimentam
alimentando
alimentar
alimentares
alimenti
alimento
alimentos
aline
alinhamento
aliou
alison
alistou
alive
aliviar
alkaloids
all
alla
allan
alle
allen
aller
allgemeine
alli
alliance
allison
allkpop
allmovie
allmusic
alma
almada
almanac
almanaque
almanc
almas
almeida
almir
almirante
almoc
almost
alo
alocac
aloe
alojamento
alone
along
alongado
alonso
alpes
alpha
alphonse
alpina
alpine
alpino
already
als
alsa
also
alt
alta
altamente
altamira
altar
altares
altas
alter
altera
alterac
alterada
alteradas
alterado
alterados
alterando
alterar
alterna
alternada
alternativa
alternativamente
alternativas
alternative
alternativo
alternativos
alterou
alteza
alti
altitude
altitudes
alto
altos
altura
alturas
alucinac
aluguel
alui
alumi
alumni
aluna
aluno
alunos
alusa
alva
alvara
alvarenga
alvarez
alvaro
alvenaria
alves
alvim
alvin
alvinegro
alvo
alvorada
alvoroc
alvos
always
alzheimer
am
ama
amada
amade
amadeu
amado
amador
amadora
amadores
amaldic
amam
amanda
amanha
amanhecer
amante
amantes
amapa
amar
amaral
amarante
amarela
amarelas
amarelo
amarelos
amarga
amargo
amaro
amava
amazing
amazo
amazon
amazonas
amazonense
ambas
ambassador
amber
ambi
ambic
ambicano
ambicioso
ambientado
ambientais
ambiental
ambiente
ambientes
ambique
ambos
ambro
ambrose
ambula
amc
amd
ame
ameac
amelia
amendoim
ameno
amenta
amento
amentos
amer
ameri
america
american
americana
americanas
americano
americanos
americans
americas
amerindios
ames
amesterda
ami
amid
amiga
amigas
amigo
amigos
amin
amines
aminoa
amir
amistoso
amistosos
amizade
amizades
amo
amon
among
amor
amore
amores
amorim
amorosa
amoroso
amos
amostra
amostras
amour
amp
amparo
amphibian
amphibiaweb
ampla
amplamente
amplas
amplia
ampliac
ampliada
ampliado
ampliando
ampliar
ampliou
amplitude
amplo
amplos
ams
amsterda
amsterdam
amt
amtliches
amtsfreien
amy
an
ana
anahi
anais
anal
anali
analisa
analisado
analisados
analisando
analisar
analisou
analista
analistas
analo
analogia
analysis
anarquia
anarquismo
anarquista
anarquistas
anasta
anastasia
anatel
anato
anatomia
anatomy
ancestrais
ancestral
ancestralidade
anchieta
ancia
ancient
and
anda
andaluzia
andam
andamento
andando
andar
andares
andava
andebol
anders
andersen
anderson
andersson
andes
ando
andorinha
andorra
andou
andrada
andrade
andre
andrea
andreas
andreeva
andrei
andrew
andrews
andrey
andro
android
andrzej
andy
ane
anel
anemia
anes
anexa
anexac
anexada
anexado
anexas
anexo
anexos
anfi
anfiteatro
anfitria
ang
ange
angel
angela
angeles
angelina
angelo
angels
angiospe
angiosperm
angiospermae
angle
anglicana
anglo
angola
angolana
angolano
angra
angry
angu
angular
angus
anha
anhalt
anhanguera
ani
anil
anima
animac
animada
animado
animador
animados
animais
animal
animals
animated
animation
anime
animes
anistia
anita
anitta
aniversa
anjo
anjos
anjou
ann
anna
annales
annals
annapolis
anne
annette
annie
anniversary
anno
annos
annotated
announce
announced
announcement
announces
annuaire
annual
ano
anormal
anos
anotac
another
ans
anselmo
ansiedade
ansioso
answer
ant
anta
antagonista
antarctic
antarctica
antas
ante
antecede
antecedentes
antecessor
antecessora
antecessores
antecipac
antecipada
antecipado
antena
antenas
antepassados
anterior
anteriores
anteriormente
antero
antes
anthem
anthology
anthony
anthropology
anti
antiae
antibio
anticorpos
antiga
antigamente
antigas
antigo
antigos
antigua
antiguidade
antiguidades
antilhas
antioquia
antiqua
antiquity
anto
antoine
antologia
anton
antoni
antonia
antonieta
antonino
antonio
antony
antropo
antropolo
antropologia
antue
antunes
anu
anua
anuais
anual
anualmente
anulac
anular
anuncia
anunciac
anunciada
anunciadas
anunciado
anunciados
anunciam
anunciando
anunciar
anunciaram
anunciou
anura
anuro
anvisa
any
anything
ao
aol
aonde
aos
ap
apa
apache
apaga
apagar
apaixona
apaixonada
apaixonado
apaixonou
apanhar
aparato
apare
aparec
aparece
aparecem
aparecendo
aparecer
aparecera
apareceram
apareceu
aparecia
aparecida
aparecido
aparecimento
aparelho
aparelhos
aparenta
aparentado
aparente
aparentemente
aparic
apartamento
apartamentos
apartheid
apca
ape
apeadeiro
apego
apelac
apelidada
apelidado
apelido
apelo
apelor
apelou
apenas
aperfeic
apertar
apertura
apesar
apetite
apg
aphanes
aphia
api
apj
aplausos
aplica
aplicac
aplicada
aplicadas
aplicado
aplicados
aplicam
aplicando
aplicar
aplicativo
aplicativos
aplicou
apo
apocali
apocalipse
apocalypse
apogeu
apoia
apoiada
apoiado
apoiadores
apoiados
apoiam
apoiando
apoiantes
apoiar
apoiaram
apoiava
apoiavam
apoio
apoios
apoiou
apollo
apolo
apolodoro
aponta
apontada
apontado
apontam
apontamentos
apontando
apontar
apontou
apos
aposematic
aposematism
aposentado
aposentadoria
aposentados
aposentar
aposentos
aposentou
aposta
apostas
aposto
apoteose
app
apple
appleton
application
applications
applied
approach
apps
apr
apre
aprecia
apreciac
apreciado
apreciar
apreensa
aprende
aprendendo
aprender
aprendeu
aprendido
aprendiz
aprendizado
aprendizagem
apresenta
apresentac
apresentada
apresentadas
apresentado
apresentador
apresentadora
apresentadores
apresentados
apresentam
apresentando
apresentar
apresentaram
apresentarem
apresentava
apresentavam
apresentou
april
aprimoramento
aprimorar
aprofundar
apropriac
apropriada
apropriadas
apropriado
aprova
aprovac
aprovada
aprovadas
aprovado
aprovados
aprovam
aprovar
aproveita
aproveitado
aproveitamento
aproveitando
aproveitar
aproveitou
aprovou
aproxima
aproximac
aproximada
aproximadamente
aproximado
aproximam
aproximando
aproximar
aproximava
aproximou
apt
aptida
apto
aptos
apu
apud
apurac
apuramento
apurar
apweb
aqua
aquando
aque
aquecimento
aqueduto
aquela
aquelas
aquele
aqueles
aquella
aquelle
aquelles
aqui
aquiles
aquilo
aquino
aquisic
aquita
ar
ara
arab
arabia
arabic
arac
aracaju
araga
arago
aragone
araguaia
aram
arame
aranha
aranhas
arantes
arara
araraquara
arau
arauca
araujo
arbi
arbitra
arbitragem
arbo
arbor
arbusto
arbustos
arc
arca
arcade
arcaica
arcaico
arcanjo
arcebispo
arch
archaeological
archaeology
archer
archibald
archie
architectural
architecture
archiv
archive
archived
archives
archivo
arco
arcos
arctic
arctiid
arctiidae
ardente
ardor
are
area
areas
areia
areias
arem
arena
arenas
ares
aresta
arestas
arg
arge
argel
argentina
argentinas
argentino
argentinos
argila
argo
argos
argumenta
argumentac
argumentam
argumentando
argumentista
argumento
argumentos
argumentou
ari
aria
ariana
ariane
arias
arie
ariel
arild
arina
arino
arinos
aristides
aristo
aristocra
aristocracia
aristocrata
aritme
arizona
ark
arkansas
arlindo
arlington
arm
arma
armac
armada
armadas
armadilha
armadilhas
armado
armador
armados
armadura
armaduras
armamento
armamentos
armand
armando
armas
armaze
armazenado
armazenados
armazenagem
armazenamento
armazenar
arme
armed
armenia
armenian
armisti
armour
arms
armstrong
army
arn
arnaldo
arno
arnold
aro
arol
aroma
aronson
arouca
around
arque
arqueiro
arqueo
arqueolo
arqueologia
arquibancadas
arquidiocese
arquiduque
arquipe
arquitecto
arquitectos
arquitectura
arquiteto
arquitetos
arquitetura
arquivada
arquivado
arquivo
arquivodata
arquivos
arquivourl
arra
arraial
arranca
arrancar
arranha
arranjador
arranjar
arranjo
arranjos
arrasta
arrasto
array
arre
arrecadac
arrecadando
arrecadar
arrecadou
arredondada
arredores
arremesso
arrependimento
arrogante
arroio
arrondissement
arrondissements
arrow
arroyo
arroz
arruda
ars
arse
arsenal
art
arte
artefato
artefatos
arterial
artes
artesa
artesanais
artesanal
artesanato
arthropoda
arthur
arti
article
articles
articulac
articular
artifi
artificiais
artificial
artigo
artigos
artilharia
artilheiro
artilheiros
artist
artista
artistas
artistic
artists
artro
arts
artur
arturo
aruba
arxiv
ary
as
asa
asahi
asas
ascap
ascende
ascendente
ascendeu
ascendia
ascensa
ase
asfalto
ash
ashley
ashton
asi
asia
asian
asilo
asin
ask
asma
asociacio
asp
aspecto
aspectos
aspects
aspirac
aspirante
aspx
ass
assad
assalto
assaltos
assassin
assassina
assassinada
assassinado
assassinados
assassinar
assassinato
assassinatos
assassino
assassinos
assault
asse
assegura
assegurada
assegurando
assegurar
assegurou
assemble
assembleia
assembleias
assembly
assemelha
assemelham
assenta
assentamento
assentamentos
assento
assentos
assessment
assessor
assessoria
assi
assim
assime
assimilac
assina
assinada
assinado
assinados
assinala
assinam
assinando
assinantes
assinar
assinaram
assinatura
assinaturas
assinou
assis
assista
assiste
assistente
assistentes
assistida
assistido
assistindo
assistir
assistiu
associa
associac
associada
associadas
associado
associados
associar
associated
associates
association
associou
assume
assumem
assumido
assumindo
assumir
assumiram
assumiu
assunc
assunto
assuntos
ast
asteraceae
astero
asteroide
asteroides
aston
astra
astragalus
astral
astro
astrofi
astrologia
astronaut
astronauta
astronautas
astrono
astronomia
astronomical
astronomy
astrophysical
astrophysics
astros
astu
asturiano
asuka
at
ata
ataca
atacada
atacado
atacados
atacam
atacando
atacante
atacantes
atacar
atacaram
atacou
atai
atalaia
ataque
ataques
atari
ate
atei
atelie
atelier
atena
atenas
atenc
atende
atendem
atendendo
atender
atendeu
atendida
atendido
atendimento
ateniense
atentado
atentados
atento
aterro
atestado
athena
athens
athletes
athletic
athletico
athletics
ati
atinge
atingem
atingida
atingidas
atingido
atingidos
atingindo
atingir
atingiram
atingiu
atira
atirador
atiradores
atirando
atirar
atirou
atitude
atitudes
ativa
ativac
ativado
ativamente
ativar
ativas
atividade
atividades
ativismo
ativista
ativistas
ativo
ativos
atkinson
atla
atlanta
atlantic
atlantis
atlas
atle
atleta
atletas
atletismo
atmosfe
atmosfera
atmospheric
ato
atol
atom
atomic
ator
atores
atos
atp
atra
atrac
atraem
atraente
atrai
atraindo
atrair
atraiu
atrasado
atraso
atrasos
atrativo
atrativos
atrave
atravessa
atravessam
atravessando
atravessar
atravessou
atribuem
atribui
atribuic
atribuindo
atribuir
atribuiu
atributo
atributos
atrito
atriz
atrizes
atrocidades
attack
attacks
attempt
atua
atuac
atuado
atuais
atual
atualidade
atualizac
atualizada
atualizado
atualizados
atualizar
atualmente
atuam
atuando
atuante
atuar
atuaram
atuava
atuba
atuou
au
aubrey
auckland
audi
audic
audie
audio
audiovisuais
audiovisual
auditiva
audito
auditoria
audrey
auf
auflage
aug
auge
august
augusta
auguste
augustin
augusto
augustus
aula
aulas
aulete
aulo
aumenta
aumentada
aumentado
aumentam
aumentando
aumentar
aumentaram
aumento
aumentou
aura
aure
aureliano
aurora
aus
auschwitz
ause
ausente
ausentes
austen
austin
austra
austral
australia
australian
australiana
australianas
australiano
australianos
australis
austri
austria
austrian
austriancharts
austro
auta
autarquia
aute
autenticac
autenticidade
author
authority
authors
autismo
auto
autobiogra
autobiografia
autobiography
autocarros
autoestrada
automa
automac
automaticamente
automo
automobili
automobilismo
automobilista
autonomia
autor
autora
autorais
autoral
autores
autoria
autoridade
autoridades
autorita
autoriza
autorizac
autorizada
autorizadas
autorizado
autorizados
autorizou
autos
autosport
autumn
auve
aux
auxi
auxilia
auxiliado
auxiliar
auxiliares
av
ava
avai
available
avalia
avaliac
avaliada
avaliado
avaliados
avaliar
avaliou
avalon
avam
avanc
avant
avante
avatar
avc
ave
avec
aveiro
avelino
avengers
avenida
avenidas
aventura
aventuras
aventureiro
aventureiros
avenue
average
avermelhada
aversa
avery
aves
avia
aviac
aviador
aviation
avila
avio
avis
avisa
avisar
aviso
avisos
aviv
avn
avo
avril
aw
award
awards
away
ax
axe
axel
axiality
axioma
axiomas
axis
ay
ayala
ayres
ayrton
az
azalea
azambuja
azar
azeite
azerbaija
azerbaijan
azerbaijano
azeredo
azevedo
aziz
azteca
azuis
azul
azulejos
b
ba
baal
baba
babe
babel
babilo
baby
babylon
babymetal
bac
bacalhau
bach
bacharel
bacharelado
bacia
bacias
back
background
backing
backstreet
bacon
bacte
bad
bada
badajoz
baden
badminton
bado
bados
bae
bafta
bagagem
bagda
bage
baha
bahamas
bahia
bahrain
bahrein
bai
baia
baiana
baiano
baianos
bailarina
baile
bailes
bailey
baillargeon
bailly
bairro
bairros
baixa
baixada
baixar
baixas
baixista
baixo
baixos
baja
baker
baku
bal
bala
balada
baladas
balanc
balance
balas
balca
baldui
baldwin
bale
baleado
baleia
baleias
bali
ball
ballet
balnea
balo
balsa
baltimore
balzac
bambu
ban
banana
banca
bancada
banco
bancos
band
banda
bandas
bandeira
bandeirante
bandeirantes
bandeiras
bandido
bandidos
bando
bandos
bang
bangkok
bangladesh
bangu
banha
banhado
banheiro
banheiros
banho
banhos
banido
banjo
bank
banks
banner
bano
banqueiro
banquete
baptista
baptiste
bar
bara
barack
baralho
barangay
barata
baratas
barato
baratos
barba
barbacena
barbados
barbara
barbas
barbeiro
barber
barbera
barbie
barbosa
barbra
barbuda
barca
barcelona
barcelos
barco
barcos
bare
bares
bari
barker
barlow
barnes
barnett
barney
baro
baron
baronesa
barr
barra
barraca
barracas
barrada
barragem
barragens
barramento
barranco
barras
barreira
barreiras
barreiro
barreto
barrett
barrie
barriga
barril
barris
barro
barroca
barroco
barros
barroso
barry
bart
bartlett
bartolomeu
barton
barueri
barulho
bas
basal
basco
base
baseada
baseadas
baseado
baseados
baseando
baseball
based
baseia
baseiam
basel
baseou
bases
bash
basi
basic
basicamente
basil
basileia
basin
basis
basket
basketball
basquete
basquetebol
basquetebolista
bass
basta
bastante
bastardo
bastidores
bastien
basto
bastos
bat
bata
batalha
batalhas
batalho
batata
batatas
bate
batendo
bater
bateria
baterias
baterista
bates
bateu
bath
batida
batidas
batido
batismo
batista
batistas
batizada
batizado
batman
bats
battista
battle
battles
bau
bauer
bauru
bautista
baviera
baxter
bay
bayer
bayerisches
bayern
bb
bbb
bbc
bc
bd
be
beach
bean
bear
bears
beast
beat
beatificac
beatles
beato
beatrice
beatriz
beats
beau
beaumont
beautiful
beauty
beaux
beaver
bebe
beber
bebida
bebidas
bec
became
because
beck
becker
becky
beco
become
becomes
bed
beda
bedford
bee
been
beer
beethoven
before
begin
beginning
begins
begonia
behavior
behaviour
behind
bei
beih
beija
beijar
beijing
beijo
beijos
being
beira
beirute
beis
beisebol
beja
bel
bela
belarus
belas
belchior
bele
beleza
belezas
belfast
belfort
belga
belgas
belgian
belgium
belgrado
beli
believe
belize
bell
bella
bellator
belle
bello
belmonte
belo
belos
belt
beltra
bem
bemol
ben
benc
bend
bene
benedict
benedita
benedito
benefi
beneficente
beneficia
beneficiar
benfica
bengala
bengali
benguela
beni
benim
benin
benito
benjamim
benjamin
bennett
benny
bens
benson
benth
bentley
bento
benton
benz
ber
berc
berenice
berg
bergen
berger
bergman
berkeley
berlim
berlin
berman
bermudas
berna
bernard
bernardes
bernardino
bernardo
bernhard
bernie
bernstein
bero
berry
bert
berta
bertha
bertrand
besouro
bessa
best
besta
bet
beta
beth
betha
beto
bettencourt
better
betty
between
beverly
bevo
bexiga
beyonce
beyond
bezerra
bf
bfi
bg
bh
bhutan
bi
bia
bianca
bianchi
bias
bibcode
bibel
bibi
bible
biblical
bibliogra
bibliografia
bibliography
biblioteca
bibliotecas
bibliothe
bibliotheca
bica
bicampea
bicampeonato
bicas
bicho
bichos
bicicleta
bicicletas
bico
bicolor
bicos
bid
biden
bie
bieber
bielorru
bielorrusso
bien
bienal
big
biggest
bigode
bike
bil
bilac
bilaterais
bilateral
bilbao
bilha
bilhete
bilheteria
bilheterias
bilhetes
bilho
bili
biliona
bill
billboard
billie
billion
bills
billy
bin
bina
binding
bing
bingen
bio
biodiversidade
biodiversity
biogeography
biogra
biografia
biografias
biographical
biographie
biography
biol
biolib
biolo
biologia
biological
biologiezentrum
biology
bioma
biome
bioqui
bios
biosfera
biotecnologia
biotropica
bipolar
bird
birdlife
birds
birma
birmingham
birth
birthday
bis
bisavo
bisby
biscoito
biscoitos
bishop
bismarck
bisneto
bispado
bispo
bispos
bissau
bit
bita
bitcoin
bito
bitola
bitos
bits
bittencourt
biz
bizantina
bizantino
bizantinos
bjo
bl
bla
blabbermouth
black
blackburn
blackpink
blacks
blackwell
blade
blair
blake
blanc
blanca
blanchard
blanche
blanco
blast
blender
blia
blica
blicas
blick
blico
blicos
blind
blindado
blindados
blindagem
blio
bliss
blitz
bloch
block
blockchain
bloco
blocos
blog
blogs
blogspot
blogue
blood
bloody
bloom
bloomberg
bloomington
bloomsbury
bloquear
bloqueio
bloqueios
blow
blu
blue
blues
blume
blumenau
bm
bmatrix
bmg
bmi
bmw
bn
bndes
bo
boa
board
boas
boat
boate
boato
boatos
boaventura
boavista
bob
bobby
bobo
boca
bocas
bodas
bode
bodies
body
boe
boeing
bogota
boi
boicote
bois
bol
bola
bolan
bolas
bolchevique
bolcheviques
bold
boletim
bolha
bolhas
boli
bolivia
boliviana
boliviano
bolo
bologna
bolonha
bolos
bolsa
bolsas
bolso
bolsonaro
bolton
bom
bomb
bomba
bombaim
bombardeio
bombardeios
bombardeiro
bombardeiros
bombas
bombeiro
bombeiros
bon
bona
bonaparte
bond
bondade
bonde
bondes
bone
boneca
bonecas
boneco
bonecos
bones
bonfim
bonifa
bonita
bonitas
bonito
bonn
bonnie
bonniers
bono
bons
bonus
boo
boogie
book
booker
books
boom
boomerang
boot
booth
bor
bora
borba
borboleta
borboletas
borda
bordas
borde
bordeaux
border
bordo
borges
borgonha
boris
borja
born
borne
borracha
borussia
borys
bosch
bosco
bosnia
bosque
bosques
boss
bossa
boston
bosworth
bot
bota
botafogo
botanic
botanica
botanical
botanique
botany
botas
bote
botelho
both
boto
botsuana
botswana
bottom
botucatu
boulder
boulevard
bound
bourbon
bourgoin
bovina
bovino
bovinos
bow
bowie
bowl
box
boxe
boxer
boxes
boxing
boy
boyd
boyer
boyle
boys
bp
bpi
br
bra
brabante
brac
brad
bradesco
bradford
bradley
brady
braga
braganc
bragantino
brain
branca
brancas
branch
branco
brancos
brand
branda
brandemburgo
brandenburg
brando
brandon
brands
brandt
brandy
brant
bras
brasa
brasi
brasil
brasileira
brasileiras
brasileiro
brasileiros
brasiliense
brasiliensis
braso
bratislava
braun
brava
brave
bravo
bravos
bravura
bray
braz
brazil
brazilian
braziliense
bre
break
breaking
breaks
breath
brega
brejo
bremen
brenda
brendan
brennan
brent
bret
breta
bretanha
brett
breve
brevemente
breves
brewer
bri
bria
brian
brica
bricas
brida
bride
bridge
bridges
brido
bridos
brie
brief
brien
briga
brigada
brigadas
brigadeiro
brigas
briggs
bright
brighton
brigitte
brilha
brilhante
brilhantes
brilhar
brilho
brill
brincadeira
brincadeiras
brincando
brincar
bring
brings
brinquedo
brinquedos
brio
brisa
brisbane
bristol
brit
brita
britain
britannica
british
britney
brito
brittany
britto
brizola
bro
broadcast
broadcasting
broadway
brock
broken
bronx
bronze
brook
brooke
brooklyn
brooks
bros
brother
brothers
broughton
brown
browne
browning
browser
brt
bru
bruce
bruges
brum
bruna
brunei
bruno
brunsvique
brunswick
brusque
bruta
brutal
bruto
bruxa
bruxas
bruxelas
bruxo
bryan
bryant
bs
bsd
bt
bts
bu
bua
buarque
buas
bucareste
buchanan
buck
buckingham
buckley
bucks
bucures
bud
buda
budapeste
buddhism
buddhist
buddy
budismo
budista
budistas
bue
buena
bueno
buenos
buffalo
buffer
bug
bugs
build
building
built
bula
bulas
bulbophyllum
bulga
bulgaria
bull
bullet
bulletin
bulls
bullying
bulo
bulos
bum
bundesamt
bundesliga
bundestag
bunny
buprestidae
buraco
buracos
bureau
burgess
burgos
burguesa
burguesia
burke
burkina
burlington
burma
burn
burning
burns
burocra
burocracia
burro
burt
burton
burundi
bury
bus
busca
buscam
buscando
buscar
buscas
buscava
buscavam
busch
buscou
bush
business
busto
but
buta
butler
butterflies
butterfly
button
buy
buzz
bvio
by
bye
byrne
byron
bytes
byzantine
byzantium
c
ca
caatinga
cabala
cabana
cabe
cabec
cabeceira
cabello
cabelo
cabelos
cabine
cable
cabo
caboclo
cabos
cabra
cabral
cabras
cabrera
cabul
cac
cacau
cachac
cache
cachoeira
cachoeiras
cachorro
cachorros
cacique
caco
cact
cada
cadas
cadastro
cadastrul
cade
cadeia
cadeias
cadeira
cadeiras
caderno
cadernos
cadete
cadetes
caem
caesar
caetano
caf
cafe
cage
cagematch
cai
caia
cain
caindo
caio
caipira
cair
cairo
cais
caiu
caixa
caixas
caju
cal
cala
caladenia
calado
calais
calc
calca
calcio
calcula
calculada
calculado
calcular
caldas
caldeira
caldeiras
caldero
caldo
caldwell
cale
caleb
caledo
calenda
calendar
calgary
calheiros
calheta
cali
calibre
calibres
califa
califado
califo
california
call
calle
called
calling
calls
calma
calmo
calmon
calo
calor
calouste
calu
calva
calvin
calvino
calvo
calypso
cam
cama
camacho
camada
camadas
camara
camargo
camaro
cambodia
camboja
cambri
cambridge
came
camelo
camera
cameron
cameroon
camila
camilla
camille
camilo
caminha
caminhada
caminhadas
caminhando
caminhar
caminho
caminhos
camisa
camisas
camo
camp
campa
campacci
campaign
campana
campanha
campanhas
campbell
campea
campeo
campeonato
campeonatos
campi
campina
campinas
campista
campo
campone
camponeses
camponotus
campos
campus
can
cana
canaa
canada
canadense
canadenses
canadian
canais
canal
canberra
canc
cancela
cancelada
cancelado
cancelados
cancelamento
cancelar
cancelou
cancer
cancioneiro
cancro
candela
candidata
candidatar
candidatas
candidate
candidato
candidatos
candidatou
candidatura
candidaturas
candido
candomble
candy
canela
caneta
canha
canho
canis
cannabis
cannes
cannon
cano
canoa
canoagem
canoas
canon
cansac
cansado
canta
cantada
cantadas
cantado
cantam
cantando
cantar
cantaria
cantava
cantiga
cantigas
canto
cantons
cantor
cantora
cantoras
cantores
cantos
cantou
cantua
canudos
canyon
cao
caop
caos
cap
capa
capacete
capacidade
capacidades
capacitac
capado
capas
capaz
capazes
capcom
cape
capela
capelas
capella
capelo
capi
capim
capita
capitais
capital
capitalism
capitalismo
capitalista
capitalistas
capitania
capitanias
capito
capitol
capitulo
capixaba
capo
capoeira
capricho
captac
captain
captar
captura
capturada
capturado
capturados
capturando
capturar
capturaram
capturou
car
cara
caracas
caracol
caracter
caractere
caracteres
caracteri
caracteriza
caracterizac
caracterizada
caracterizadas
caracterizado
caracterizados
caracterizam
caracterizar
caracterizou
carai
caraja
caranguejo
caras
carate
caravana
carbo
carbon
carbono
card
cardeais
cardeal
cardi
cardiff
cardinal
cardinali
cardinals
cardoso
cards
care
carece
career
carentes
carex
carey
carga
cargas
cargo
cargos
cari
caribbean
caribe
caridade
carina
carinho
carioca
cariocas
cariri
carisma
carl
carla
carlinhos
carlo
carlos
carlota
carlson
carlton
carly
carmelitas
carmelo
carmen
carmo
carnaval
carnavalesco
carne
carnegie
carneiro
carnes
carni
caro
carol
caroli
carolina
caroline
carolyn
caros
carpenter
carpinteiro
carr
carrasco
carrega
carregada
carregadas
carregado
carregador
carregados
carregam
carregamento
carregando
carregar
carregava
carreira
carreiras
carreteras
carrie
carris
carro
carroc
carroll
carros
carrossel
carruagem
carruagens
carry
cars
carson
carta
cartagena
cartagineses
cartago
cartas
cartaz
cartazes
carteira
cartel
carter
carto
cartogra
cartografia
cartoon
cartucho
cartuchos
cartunista
caruaru
carva
carvajal
carvalho
carvalhos
cas
casa
casablanca
casaco
casacomum
casada
casado
casados
casais
casal
casamento
casamentos
casar
casara
casaram
casas
casca
cascais
cascata
cascavel
casco
case
caseiro
cases
casey
cash
casimiro
casino
caso
casos
casou
cass
cassac
cassado
cassel
cassete
cassiano
cassidy
cassini
cassino
cast
casta
castanha
castanho
castas
castel
castela
castelhana
castelhano
castello
castelo
castelos
castigo
castilho
castilla
castillo
casting
castle
castlevania
castor
castro
castroviejo
casts
casual
cat
cata
catala
catalina
catalisador
catalog
catalogue
catalunha
catalunya
catar
cataratas
catarina
catarinense
catastro
catch
catecismo
catedra
catedral
categoria
categorias
category
cathedral
catherine
catholic
cativeiro
cativos
cato
catolicismo
catorze
cats
cauda
caudal
caule
caules
caulfield
causa
causada
causadas
causado
causados
causam
causando
causar
causaram
causas
cause
causes
causou
cautela
cavaco
cavalaria
cavalcante
cavalcanti
cavaleiro
cavaleiros
cavalheiro
cavaliers
cavallo
cavalo
cavalos
cave
caveira
cavendish
caverna
cavernas
cavidade
cavidades
caxemira
caxias
cayman
caymmi
cazaque
cazaquista
cb
cbc
cbd
cbf
cbn
cbs
cbv
cc
cd
cdc
cdot
cdots
cds
cdu
ce
cea
ceara
cearense
ceas
cebola
cebuano
ceci
cecil
cecilia
cedar
cede
ceder
cedeu
cedido
cedo
cedro
cega
cego
cegos
cegueira
ceia
ceila
ceis
cel
cela
celebra
celebrac
celebrada
celebrado
celebrar
celebration
celebridade
celebridades
celebrity
celebrou
celeiro
celeste
celestes
celestial
celestino
celina
cell
cells
celso
celta
celtas
celtic
celtics
celular
celulares
celulose
cem
cemetery
cemite
cen
cena
cenas
censo
censos
censura
census
cent
centena
centenas
center
centers
centi
cento
centra
centrada
centrado
centrais
central
centralizado
centre
centro
centros
centuries
century
ceo
ceos
cep
cer
cera
cerambycidae
cerca
cercada
cercado
cerco
cereais
cerebrais
cerebral
ceremony
ceres
cerimo
cerimonial
cero
cerqueira
cerrado
cerro
certa
certain
certame
certamente
certas
certeza
certida
certificac
certificado
certificados
certifications
certified
certo
certos
cervantes
cerveja
cervejaria
ces
cesa
cesar
cesare
cesareia
cessa
cessar
cessem
cessna
cessou
cesta
ceta
ceticismo
ceuta
cev
cevada
cezar
cf
cg
cgi
cgiii
ch
cha
chaco
chad
chade
chafariz
chagas
chain
chains
challenge
challenger
challenges
chama
chamada
chamadas
chamado
chamados
chamam
chamamos
chamando
chamar
chamaram
chamas
chamava
chamavam
chamber
chamberlain
chambers
chamine
chamou
champ
champagne
champion
champions
championship
championships
champs
chan
chance
chancelaria
chanceler
chances
chandler
chanel
chang
change
changed
changes
changing
channel
chao
chaos
chapa
chapada
chape
chapeco
chapecoense
chapel
chaplin
chapman
chapter
char
character
characters
charateristics
charente
charge
charity
charles
charleston
charli
charlie
charlotte
charme
chart
charter
charts
chase
chassi
chassis
chat
chateaubriand
chave
chaves
che
checa
check
checklist
checo
checoslova
chef
chefe
chefes
chefia
chefiado
chega
chegada
chegado
chegados
chegam
chegamos
chegando
chegar
chegara
chegaram
chegarem
chegaria
chegasse
chegava
chegavam
chegou
chegue
cheguei
cheia
cheias
cheio
cheios
cheiro
chelsea
chem
chemical
chemistry
chen
cheney
cheng
cheque
cher
cherry
cheryl
chess
chester
chevrolet
chi
chiado
chiang
chica
chicago
chicken
chico
chief
chiefs
chiesa
chifre
chifres
child
children
chile
chilena
chileno
chili
chimpanze
chin
china
chine
chinesa
chinesas
chinese
chineses
ching
chip
chipre
chips
chiquititas
chisholm
chita
chloe
cho
chocolate
choi
choice
chomsky
chopin
choque
choques
chora
chorando
chorar
choro
chos
chosun
chris
christ
christa
christensen
christi
christian
christianity
christie
christina
christine
christmas
christo
christoph
christophe
christopher
chronicle
chronicles
chronology
chu
chua
chuck
chumbo
chun
chung
church
churches
churchill
chute
chuva
chuvas
chuvoso
ci
cia
cias
ciberne
cica
cicli
ciclismo
ciclista
ciclistas
ciclo
ciclone
ciclones
ciclos
cid
cida
cidada
cidadania
cidade
cidadela
cidades
cidas
cido
cidos
cie
cielo
ciencias
ciente
cienti
cientificamente
cientista
cientistas
cies
cifra
cifras
ciganos
cigarro
cigarros
cil
cili
cilindro
cilindros
cima
cime
cimento
cimes
cimo
cincinnati
cinco
cindy
cine
cineasta
cineastas
cinecartaz
cinema
cinemas
cinemateca
cinematogra
cineplayers
cinqu
cinquenta
cinta
cinto
cintra
cintura
cinza
cinzas
cinzenta
cinzento
cio
cios
cipia
cipo
cipriano
circ
circle
circo
circuit
circuito
circuitos
circulac
circulam
circular
circulares
circundante
circunfere
circunscric
circunsta
circus
ciri
cirilo
ciro
ciru
cirurgia
cirurgias
cis
cisa
cisalhamento
cisco
cisma
cisne
cit
cita
citac
citada
citadas
citado
citados
citam
citando
citar
citas
citation
cite
cited
cities
citizen
citizens
cito
citoplasma
citos
citou
citroe
citta
city
ciu
ciudad
cius
civil
civilizac
civilization
civis
cj
ck
cken
cl
cla
clado
claim
claims
clair
claire
clara
claramente
claras
clare
clarence
clarendon
clareza
clari
clarice
claridade
clark
clarke
clarkson
claro
claros
clash
class
classe
classes
classic
classical
classics
classifica
classificac
classificada
classificadas
classificado
classificados
classificam
classificando
classificar
classificaram
classification
classificato
classificou
claude
claudia
claudio
claus
claustro
clausura
clay
clayton
cle
clean
clear
clement
clemente
clements
cleo
cleos
clero
cleveland
cli
clica
clicar
cliche
click
clicks
clicrbs
cliente
clientes
cliff
clifford
clima
climas
climate
clin
clinical
clint
clinton
clio
clip
clipe
clipes
clique
clive
clo
clock
clone
clones
cloreto
cloro
close
closed
closer
cloud
club
clube
clubes
cluster
clyde
cm
cmt
cn
cnb
cnbb
cne
cnet
cneu
cnica
cnicas
cnico
cnicos
cnm
cnn
cnpq
cnt
co
coa
coach
coadjuvante
coaliza
coast
coautor
coautores
cobb
coberta
cobertas
coberto
cobertos
cobertura
coberturas
cobic
cobra
cobranc
cobrar
cobras
cobre
cobrem
cobria
cobrindo
cobrir
cobriu
coburgo
coca
cocai
cochabamba
cochrane
coco
cod
code
codex
codificac
codinome
cody
coeficiente
coeficientes
coelho
coelhos
coerente
coesa
coffee
cofre
cofres
cognitiva
cognitive
cognitivo
cogumelo
cogumelos
cohen
coi
coimbra
coincide
coincidiu
coisa
coisas
col
cola
colabora
colaborac
colaborador
colaboradores
colaborar
colaborativa
colaborativo
colaborou
colapso
colar
colas
colaterais
colbert
cold
coldplay
cole
colec
colecc
colecionador
colecionadores
colega
colegas
colegial
coleman
coleo
coleophora
coleophoridae
coleoptera
colesterol
coleta
coletada
coletadas
coletado
coletados
coletar
coletiva
coletivamente
coletivas
coletivo
coletivos
coletor
colheita
colheitas
colher
colheres
coli
coligac
colin
colina
colinas
colisa
coliseu
coliso
coll
collaboration
collected
collection
collections
collective
collector
college
collider
collier
collins
collor
colo
coloca
colocac
colocada
colocadas
colocado
colocados
colocam
colocando
colocar
colocaram
colocava
colocou
colombia
colombiana
colombiano
colombianos
colombo
coloniais
colonial
colonialismo
colonizac
colonizadores
colonos
coloque
coloquial
color
colorac
colorado
colorida
coloridas
colorido
coloridos
colors
colour
colt
colts
colu
columbia
columbus
coluna
colunas
colunista
com
coma
comanda
comandada
comandadas
comandado
comandados
comandando
comandante
comandantes
comandar
comandava
comando
comandos
comandou
comarca
comarcas
combat
combate
combatente
combatentes
combater
combates
combateu
combina
combinac
combinada
combinadas
combinado
combinados
combinam
combinando
combinar
combined
comboio
comboios
combusta
combusti
come
comeback
comec
comecei
comediante
comedy
comem
comemora
comemorac
comemorado
comemorar
comemorativa
comemorativo
comemorou
comenda
comendador
comendo
comenta
comentando
comentar
comentarista
comentaristas
comentou
comer
comerciais
comercial
comercializac
comercializado
comercializados
comercialmente
comerciante
comerciantes
comercio
comes
comesti
comet
cometa
cometas
comete
cometer
cometeu
cometido
cometidos
comi
comic
comics
comida
comidas
comigo
coming
comingsoon
comissa
comissionado
comisso
comite
comitiva
command
commander
comme
comment
commentary
comments
commerce
commercial
commercio
commission
committee
common
commons
commonwealth
commune
communes
communication
communications
communist
communities
community
comneno
como
comoc
comores
comoros
compact
compacta
compacto
compadre
compaixa
companheira
companheiro
companheiros
companhia
companhias
companies
companion
company
compara
comparac
comparada
comparado
comparados
comparando
comparar
comparativa
comparative
comparativo
compare
comparecer
compareceram
compareceu
comparison
comparou
compartilha
compartilhada
compartilhado
compartilhados
compartilham
compartilhamento
compartilhando
compartilhar
compartilhou
compartimento
compasso
compati
compatibilidade
compatriota
compatriotas
compe
compensac
compensar
compete
competem
competente
competentes
competic
competidores
competindo
competir
competiram
competition
competitiva
competitividade
competitivo
competiu
compilac
compilado
compilador
complementar
complementares
complemento
completa
completada
completado
completamente
completando
completar
completas
complete
completo
completos
completou
complex
complexa
complexas
complexidade
complexo
complexos
complicac
complicada
complicado
compo
compondo
componente
componentes
compor
comporta
comportamentais
comportamental
comportamento
comportamentos
composic
composition
compositor
compositora
compositores
composta
compostas
compostela
composto
compostos
compra
comprada
comprado
comprador
compradores
comprados
comprando
comprar
compraram
compras
compreende
compreendem
compreendendo
compreender
compreendeu
compreendia
compreendida
compreendido
compreensa
comprehensive
compressa
comprida
comprido
comprimento
comprimentos
comprimido
comprometer
comprometeu
comprometida
comprometido
comprometimento
compromisso
compromissos
comprou
comprovac
comprovada
comprovado
comprovar
comptes
compton
computac
computacionais
computacional
computador
computadores
computational
computer
computing
comte
comum
comumente
comuna
comunas
comunha
comunica
comunicac
comunicaciones
comunicado
comunicar
comunicou
comunidade
comunidades
comunismo
comunista
comunistas
comunita
comuns
con
conan
concacaf
conceber
concebeu
concebida
concebido
concede
conceder
concedeu
concedida
concedidas
concedido
concedidos
conceic
conceito
conceitos
conceitual
concelho
concelhos
concentra
concentrac
concentrada
concentrado
concentrados
concentram
concentrando
concentrar
concentrou
concepc
concepcio
concept
concepts
concert
concerto
concertos
concessa
concessiona
concesso
concha
conchas
conci
conciliar
concise
conclave
conclui
concluindo
concluir
concluiu
conclusa
concluso
conco
concorda
concordam
concordar
concordaram
concordou
concorre
concorrente
concorrentes
concorrer
concorreu
concreta
concretas
concreto
concurso
concursos
condado
condados
conde
condecorac
condecorado
condena
condenac
condenada
condenado
condenados
condenar
condenou
condephaat
condes
condessa
condic
condicionado
condicional
condita
conditions
condomi
condor
conduc
conduta
condutor
condutores
conduz
conduzida
conduzido
conduzidos
conduzindo
conduzir
conduziu
cone
conecta
conectada
conectado
conectados
conectar
conert
cones
conexa
conexo
conf
confecc
confederac
confederados
confere
conference
conferido
conferir
confessa
confessar
confessions
confessor
confessou
confia
confiabilidade
confianc
confiante
confiar
configura
configurac
configurar
confina
confinamento
confira
confirma
confirmac
confirmada
confirmadas
confirmado
confirmados
confirmam
confirmando
confirmar
confirmaram
confirmed
confirmou
confirms
confissa
confisso
conflict
conflito
conflitos
conflue
conformac
conforme
conformidade
conforta
conforto
confraria
confronta
confrontar
confronte
confronto
confrontos
confunde
confundida
confundido
confundir
confusa
confuso
conge
conglomerado
congo
congregac
congress
congressional
congresso
congressos
conhec
conhece
conhecem
conhecemos
conhecendo
conhecer
conheceram
conheceu
conheci
conhecia
conheciam
conhecida
conhecidas
conhecido
conhecidos
conhecimento
conhecimentos
coni
conidae
conjugac
conjugal
conjunc
conjunta
conjuntamente
conjuntivo
conjunto
conjuntos
conmebol
connecticut
connection
connell
conner
connie
connor
cono
conosco
conotac
conquest
conquista
conquistada
conquistadas
conquistado
conquistador
conquistados
conquistando
conquistar
conquistaram
conquistas
conquistou
conrad
conrado
cons
consagrac
consagrada
consagrado
consagrados
consagrou
conscie
consciente
conscientizac
consecutiva
consecutivas
consecutivo
consecutivos
consegue
conseguem
consegui
conseguia
conseguiam
conseguido
conseguindo
conseguinte
conseguir
conseguira
conseguiram
conseguiria
conseguisse
conseguiu
conselheiro
conselheiros
conselho
conselhos
consenso
consentimento
consequ
conseque
consequences
consequente
consequentemente
consertar
conserva
conservac
conservado
conservador
conservadora
conservadores
conservadorismo
conservar
conservation
conservato
considera
considerac
considerada
consideradas
considerado
considerados
consideram
considerando
considerar
consideraram
considerava
consideravam
consideravelmente
considere
considerou
consiga
consigo
consiste
consistem
consistente
consistentes
consistia
consistindo
consistiu
consisto
conso
consoante
consoantes
consolac
console
consoles
consolidac
consolidados
consolidar
consolidou
consome
consorte
conspirac
conspiracy
conspiradores
consta
constam
constanc
constant
constante
constantemente
constantes
constantine
constantino
constantinopla
constatou
constelac
constitucionais
constitucional
constitucionalista
constituem
constitui
constituic
constituindo
constituinte
constituintes
constituir
constituiu
constitution
constro
construc
construction
construi
construindo
construir
construiu
construtor
construtora
construtores
consulado
consular
consult
consulta
consultada
consultado
consultar
consultas
consulte
consultivo
consulto
consultor
consultoria
consumer
consumida
consumido
consumidor
consumidores
consumidos
consumir
consumo
conta
contabilidade
contact
contacto
contada
contado
contador
contados
contagem
contam
contaminac
contando
contar
contara
contaram
contas
contato
contatos
contava
contavam
conte
contem
contempla
contemplac
contemplar
contempora
contemporary
contenc
contendo
content
contente
conter
contest
contestac
contestada
contestado
conteu
context
contexto
contextos
conti
contida
contidas
contido
contidos
contigo
continentais
continental
continente
continentes
contingente
continha
continham
continua
continuac
continuada
continuado
continuam
continuamente
continuando
continuar
continuara
continuaram
continuaria
continuasse
continuava
continuavam
continue
continues
continuidade
continuou
continuum
conto
contornar
contorno
contornos
contos
contou
contra
contrabaixo
contrabando
contrac
contract
contradic
contradito
contrai
contraiu
contrapartida
contraponto
contrariando
contrarrelo
contrasta
contraste
contrata
contratac
contratada
contratado
contratados
contratar
contrato
contratos
contratou
contribuem
contribui
contribuic
contribuindo
contribuintes
contribuir
contribuiu
contribution
contributions
control
controla
controlada
controladas
controlado
controlador
controladores
controlados
controlam
controlar
controlava
controle
controles
controlo
controve
controversa
controverso
controversy
contudo
conus
conve
convecc
convenc
convence
convencer
convenceu
convencido
convencionais
convencional
convenie
conveniente
convention
convento
conventos
converge
conversa
conversac
conversando
conversar
conversas
conversation
converte
convertendo
converter
converteu
convertida
convertido
convertidos
convi
convicc
convida
convidada
convidadas
convidado
convidados
convidar
convidou
convincente
convite
convites
convive
convoca
convocac
convocada
convocado
convocados
convocar
convocou
convulso
conway
cook
cooke
cool
cooper
cooperac
cooperar
cooperativa
cooperativas
coord
coordenac
coordenada
coordenadas
coordenado
coordenador
coordenadora
coordenar
coordenou
cop
copa
copacabana
copas
cope
copenhaga
copenhagen
copenhague
copiar
copo
copos
copta
copy
copyright
coqueiro
cor
cora
corac
coragem
corais
coral
corante
corazo
corbin
corda
cordas
cordeiro
cordel
cordilheira
core
corea
coreana
coreano
coreanos
coreia
coreo
coreografia
cores
corey
cori
coringa
corinthians
corinto
coritiba
corne
cornelius
cornell
corner
coro
coroa
coroac
coroada
coroado
coroas
corona
coronavi
coronavirus
coronel
coros
corp
corpo
corporac
corporais
corporal
corporate
corporation
corporativa
corporativo
corpos
corps
corpus
corre
correa
correc
corredor
corredores
corregedor
correia
correio
correios
correlac
correm
correndo
corrente
correntes
correr
corresponde
correspondem
correspondendo
correspondente
correspondentes
corresponder
correspondia
correta
corretamente
correto
correu
corria
corrida
corridas
corridos
corrigir
corrupc
corsa
corso
corta
cortada
cortadas
cortado
cortados
cortando
cortar
corte
cortejo
cortes
cortesa
cortesia
cortez
cortic
cortina
cortinas
cortou
coruja
corumba
corunha
corvo
cory
cos
cosme
cosmic
cosmo
cosmologia
cosmopolita
cosmos
cost
costa
costas
costeira
costeiras
costello
costuma
costumam
costumava
costumavam
costume
costumes
costura
cota
cotas
cotidiana
cotidiano
cotton
coube
could
council
count
countdown
counter
countries
country
county
coup
coupe
couple
courac
courier
couro
course
court
courtney
cousa
cousas
coutinho
couto
cov
cova
covas
cover
coverage
covers
covid
covilha
cowboy
cowboys
cox
coxa
cozido
cozinha
cozinhar
cp
cpc
cpdoc
cpi
cplp
cptm
cpu
cr
cra
crack
craco
craig
crambidae
crane
craque
crash
crasso
cratera
crateras
crates
crato
cravo
crawford
crazy
crb
crc
cre
creac
cream
create
created
creation
creative
creator
creche
credibilidade
creditada
creditado
credits
credo
credor
credores
creed
creek
creio
creme
crenc
crentes
crepu
crer
cresce
crescem
crescendo
crescente
crescentes
crescer
cresceram
cresceu
crescia
crescido
crescimento
crespo
creta
cretaceous
crew
cri
cria
criac
criada
criadas
criado
criador
criadora
criadores
criados
criam
crianc
criando
criar
criaram
crias
criativa
criativas
criatividade
criativo
criatura
criaturas
cribb
criciu
cricket
crime
crimeia
crimes
criminais
criminal
criminalidade
criminalizac
criminosa
criminoso
criminosos
crimson
criou
crioulo
cripta
criptografia
cris
crise
crises
crisis
criso
crista
cristais
cristal
cristalina
cristalino
cristiane
cristianismo
cristiano
cristina
cristo
crite
critic
critica
criticada
criticado
critical
criticamente
criticando
criticar
criticaram
criticism
criticou
critics
critique
cro
croa
croata
croatas
croatia
crocodilo
croix
cromossomo
cromossomos
cromwell
cronista
cronistas
crono
cronograma
cronolo
cronologia
crosby
cross
crossing
crossover
crosta
crow
crowley
crown
cru
crucial
crucificac
crue
cruel
crueldade
cruise
crunchyroll
crush
crusta
cruz
cruza
cruzada
cruzadas
cruzado
cruzador
cruzadores
cruzados
cruzam
cruzamento
cruzamentos
cruzando
cruzar
cruzeiro
cruzeiros
cruzes
cruzou
cry
crystal
cs
csa
csi
csic
csiro
css
csv
ct
ctea
cter
ctica
ctico
ctor
ctrica
ctrl
cu
cuba
cubana
cubano
cubanos
cubas
cube
cubo
cuca
cuenca
cui
cuiaba
cuida
cuidado
cuidados
cuidadosamente
cuidando
cuidar
cuidou
cuja
cujas
cujo
cujos
cula
culas
culham
culina
cullen
culminando
culminou
culo
culos
culpa
culpado
culpados
cult
cultivada
cultivadas
cultivar
cultivo
culto
cultos
cultura
culturais
cultural
culturalmente
culturas
culture
cultures
cum
cume
cummings
cumpre
cumprido
cumprimento
cumprindo
cumprir
cumpriu
cunha
cunhada
cunhado
cunho
cunningham
cuo
cup
cura
curado
curador
curadoria
curar
curdo
curdos
cure
curie
curiosa
curiosamente
curiosidade
curiosidades
curioso
curiosos
curitiba
current
curri
curriculum
curry
cursar
curse
curso
cursos
cursou
curt
curta
curtas
curtis
curto
curtos
curva
curvas
curvatura
cusco
custa
custas
custo
custos
custou
cut
cuta
cuvier
cv
cw
cy
cyber
cycle
cycling
cyclone
cynthia
cyprus
cyril
cyrus
cz
czar
czech
d
da
dad
dada
dadas
daddy
dado
dados
dai
daily
daisy
dakar
dakota
dal
dalai
dale
dali
dall
dalla
dallas
dallwitz
dalma
dalton
daly
dam
dama
damage
damas
damasco
dame
damia
damian
damien
damon
dan
dana
danc
dance
dancing
dando
danger
dangerous
dani
daniel
daniela
daniele
danielle
daniels
danificada
danificadas
danificado
danificados
danilo
danish
danny
dano
danos
dans
dantas
dante
dantes
danu
daquela
daquelas
daquele
daqueles
daqui
daquilo
dar
dara
darcy
dardo
dare
dari
daria
dario
dark
darkness
darling
darmstadt
darren
darwin
daryl
das
dash
data
database
datac
datada
datadas
datado
datados
datam
datas
date
datenverarbeitung
dates
dato
daughter
dava
davam
dave
davi
david
davidson
davies
davis
dawkins
dawn
dawson
day
days
dayton
daytona
db
dc
dd
ddr
de
dea
dead
deadline
deadly
deal
dean
dear
deas
death
deaths
debaixo
debate
debates
debbie
debian
deborah
debruc
debut
debutou
debuts
dec
decade
decano
december
decepc
decerto
decide
decidem
decidida
decidido
decidir
decidiram
decidiu
decimal
decisa
decision
decisiva
decisivo
deciso
deck
declara
declarac
declarada
declarado
declarados
declaram
declarando
declarar
declararam
declarou
decli
declinac
decline
decock
decolagem
decomposic
decorac
decorada
decoradas
decorado
decorados
decorativos
decorre
decorrente
decorrentes
decorrer
decorreu
decre
decrescente
decreta
decreto
decretos
decretou
dedica
dedicac
dedicada
dedicadas
dedicado
dedicados
dedicando
dedicar
dedicou
dedo
dedos
deduc
dee
deep
def
default
defeito
defeitos
defence
defende
defendem
defendendo
defender
defenderam
defendeu
defendia
defendiam
defendida
defendido
defense
defenses
defensiva
defensivas
defensivo
defensor
defensora
defensores
defesa
defesas
deficie
deficiente
deficientes
define
definem
definic
definida
definidas
definido
definidos
definindo
definir
definition
definitiva
definitivamente
definitive
definitivo
definitivos
definiu
deformac
defronte
degli
degradac
degradadas
degraus
dei
deitado
deitar
deixa
deixada
deixadas
deixado
deixados
deixam
deixando
deixar
deixara
deixaram
deixaria
deixasse
deixava
deixavam
deixe
deixem
deixou
del
dela
delac
delas
delaware
dele
delegac
delegacia
delegado
delegados
deles
delfim
delfino
delgada
delgado
delhi
deli
deliberac
deliberadamente
delicada
delicado
delimitac
delito
delitos
delivers
dell
della
delle
dello
delta
deluxe
dem
demais
demand
demanda
demandas
demarcac
demasiado
deme
demi
demissa
demite
demitido
demitir
demitiu
demo
democra
democracia
democracy
democrata
democratas
democratic
demogra
demografia
demografiche
demolic
demolida
demolido
demon
demoni
demonstra
demonstrac
demonstrado
demonstram
demonstrando
demonstrar
demonstraram
demonstrou
demora
demorou
demos
den
dena
dendrobium
deng
dengue
denis
denise
denmark
dennis
denomina
denominac
denominada
denominadas
denominado
denominados
denominar
denota
densa
densamente
densidade
density
denso
denta
dental
dente
dentes
dentista
denton
dentre
dentro
denu
denuncia
denunciado
denunciar
denunciou
denver
deo
deodoro
deos
dep
departamento
departamentos
department
depende
dependem
dependendo
dependente
dependentes
depender
dependia
deperu
depo
depoimento
depoimentos
depois
depor
deportac
deportes
deportivo
deposic
deposto
depressa
depression
deputada
deputado
deputados
der
dera
deram
derby
derek
deres
deriva
derivac
derivada
derivadas
derivado
derivados
derivam
derrame
derrota
derrotada
derrotado
derrotados
derrotando
derrotar
derrotaram
derrotas
derrotou
derruba
derrubada
derrubado
derrubar
derrubou
des
desa
desacordo
desafia
desafiante
desafiar
desafio
desafios
desafiou
desagrada
desagua
desambiguac
desaparece
desaparecer
desapareceram
desapareceu
desaparecida
desaparecidas
desaparecido
desaparecidos
desaparecimento
desapropriac
desastre
desastres
desativada
desativado
descalc
descansar
descanso
descarga
descarta
descartada
descartado
descartes
desce
descende
descendente
descendentes
descendo
descentralizac
descer
desceu
descida
desclassificado
descoberta
descobertas
descoberto
descobertos
descobre
descobrem
descobrimento
descobrimentos
descobrindo
descobrir
descobriram
descobriu
desconfianc
desconforto
desconhecida
desconhecidas
desconhecido
desconhecidos
descontentamento
desconto
descreve
descrevem
descrevendo
descrever
descreveram
descreveu
described
descric
description
descriptions
descrita
descritas
descritiva
descrito
descritos
desculpa
desculpas
desde
deseja
desejada
desejado
desejam
desejando
desejar
desejava
desejavam
desejo
desejos
desembarcou
desembargador
desembarque
desempate
desempenha
desempenhado
desempenham
desempenhar
desempenho
desempenhou
desemprego
desencadeou
desenhada
desenhado
desenhados
desenhar
desenhista
desenho
desenhos
desenhou
desenvolve
desenvolvedor
desenvolvedora
desenvolvedores
desenvolvem
desenvolvendo
desenvolver
desenvolveram
desenvolveu
desenvolvida
desenvolvidas
desenvolvido
desenvolvidos
desenvolvimento
desenvolvimentos
desequili
desert
deserta
desertas
deserto
desertos
desesperada
desesperado
desespero
desfavora
desfazer
desfecho
desfilar
desfile
desfiles
desfilou
desfrutar
desgaste
desgosto
desgrac
design
designa
designac
designada
designadas
designado
designados
designar
designer
designers
designou
designs
desigual
desigualdade
desigualdades
desire
desiste
desistir
desistiu
desktop
desligado
desligamento
deslizamentos
deslocamento
deslocar
deslocou
desmatamento
desmembrado
desmembramento
desmond
desnecessa
desordem
despacho
despedac
despede
despedida
despediu
despeito
desperdi
desperdic
desperta
despertar
despertou
despesa
despesas
desportiva
desportivas
desportivo
desportivos
desporto
desportos
desprezo
desqualificac
dessa
dessas
desse
desses
desta
destaca
destacada
destacadas
destacado
destacados
destacam
destacamento
destacando
destacar
destacaram
destacou
destaque
destaques
destas
deste
desterro
destes
destina
destinada
destinadas
destinado
destinados
destinata
destination
destino
destinos
destiny
destitui
destro
destroc
destruction
destrui
destruic
destruindo
destruir
destruiu
desuso
desvantagem
desvantagens
desviar
desvio
desvios
det
detail
details
detalhada
detalhadas
detalhado
detalhados
detalhe
detalhes
dete
detecc
detectado
detectar
detective
detector
detenc
detentor
detentora
deter
deteriorac
determina
determinac
determinada
determinadas
determinado
determinados
determinam
determinando
determinante
determinantes
determinar
determinou
detetive
deteve
detido
detidos
detinha
detra
detrimento
detritos
detroit
deu
deus
deusa
deuses
deuterono
deutsch
deutsche
deutschen
deutscher
deutschland
deux
dev
deva
devagar
devastac
deve
devedor
developer
development
devem
devemos
devendo
dever
devera
deveres
deveria
deveriam
deveu
devia
deviam
devida
devidamente
devidas
devido
devil
devo
devoc
devoluc
devolve
devolver
devon
devoto
devotos
dewey
dexter
dez
dezember
dezembro
dezenas
dezenove
dezesseis
dezessete
dezoito
df
dgpc
dh
dhabi
di
dia
diabetes
diablo
diabo
diadema
diagno
diagnosis
diagnosticada
diagnosticado
diagonal
diagrama
dial
diale
dialeto
dialetos
diamante
diamantes
diamantina
diamond
diamonds
diana
diane
diante
dianteira
diariamente
diaries
diario
diarreia
diary
dias
diaz
dica
dicas
diccionario
dice
dicembre
diche
dici
diciona
dicionariompb
dick
dickens
dickinson
dico
dicos
dicotyledones
dictionary
dictionnaire
did
dida
didi
didier
didn
didz
die
died
diego
dies
diesel
dieta
dieter
dietrich
difere
diferem
diferenc
diferencia
diferenciac
diferenciada
diferenciado
diferenciais
diferencial
diferenciar
diferente
diferentemente
diferentes
difference
different
differential
difi
dificilmente
dificuldade
dificuldades
difundida
difundido
difundir
difusa
difusora
diga
digest
digestivo
digimon
digitais
digital
digitalizac
digitalmente
digite
digna
dignidade
digno
dignos
digo
digos
digressa
dilema
dilige
dillon
dilma
dilu
dimensa
dimension
dimensional
dimenso
diminui
diminuic
diminuindo
diminuir
diminuiu
diminutivo
dimitri
din
dina
dinamarca
dinamarque
dinamarquesa
dinamarqueses
dinastia
dinastias
dinheiro
dinis
diniz
dino
dinosaur
dinosaurs
dinossauro
dinossauros
dio
diocesano
diocese
dioceses
diocleciano
diodoro
diogo
dion
dioni
dios
diploma
diplomacia
diplomas
diplomata
diplomatas
dir
dira
dirceu
direc
direcc
direcionada
direcionado
direct
directa
directamente
direction
directo
director
directors
directory
direi
direita
direito
direitos
direta
diretamente
diretas
direto
diretor
diretora
diretores
diretoria
diretos
diretrizes
diria
dirige
dirigente
dirigentes
dirigi
dirigia
dirigida
dirigidas
dirigido
dirigidos
dirigindo
dirigir
dirigiram
dirigiu
dirk
dirty
dis
disaster
disc
disci
disciplina
disciplinar
disciplinas
disco
discogra
discografia
discography
discogs
discorda
discos
discovered
discovery
discreta
discreto
discriminac
discurso
discursos
discussa
discussion
discusso
discute
discutem
discutida
discutido
discutindo
discutir
discutiu
disease
diseases
disfarc
disfunc
disk
disney
disorder
disorders
dispara
disparar
disparo
disparos
disparou
dispensa
dispensado
dispersa
dispersos
display
displaystyle
dispo
disponi
disponibilidade
disponibiliza
disponibilizada
disponibilizado
disponibilizados
disponibilizar
dispor
disposic
dispositivo
dispositivos
disposta
dispostas
disposto
dispostos
dispunha
disputa
disputada
disputadas
disputado
disputados
disputam
disputando
disputar
disputara
disputaram
disputas
disputava
disputou
disse
disseminac
disseram
dissertac
disside
dissidentes
dissipou
disso
dissoluc
dissolver
dissolvida
dissolvido
dista
distance
distancia
distanciamento
distante
distantes
distinc
distingue
distinguem
distinguido
distinguir
distinguiu
distinta
distintas
distintivo
distinto
distintos
disto
distorc
distrac
distrai
distribui
distribuic
distribuidora
distribuir
distribuiu
distribution
district
distritais
distrital
distrito
distritos
distu
dita
ditador
ditadura
ditas
dition
ditions
dito
ditos
dium
diva
divas
diverge
diversa
diversas
diversidade
diversificada
diversity
diverso
diversos
divertida
divertido
divertir
divide
dividem
dividia
dividida
divididas
dividido
divididos
dividindo
dividir
dividiram
dividiu
divina
divindade
divindades
divine
divino
divisa
divisio
division
diviso
divisor
divo
divorciaram
divorciou
divulga
divulgac
divulgada
divulgadas
divulgado
divulgados
divulgar
divulgou
dixon
diz
dize
dizem
dizemos
dizendo
dizer
dizia
diziam
dizionario
dj
djibouti
dk
dl
dlc
dm
dmitri
dn
dna
dns
do
doac
doada
doado
doador
doar
dobra
dobrado
dobrar
dobro
doc
doce
docente
docentes
doces
docreader
docs
doctor
document
documenta
documentac
documentada
documentado
documental
documentary
documento
documentos
documents
dodge
dodo
dodson
doenc
doente
doentes
does
doesn
dog
dogg
dogma
dogs
doha
doi
doido
doing
dois
doja
doll
dollar
dolls
dolly
dolo
dolores
dolorosa
doloroso
dolos
dolphins
dom
domain
dome
domenico
domestic
domi
domici
domiciliar
domina
dominac
dominada
dominado
dominam
dominante
dominantes
dominar
dominava
dominga
domingo
domingos
domingues
dominic
dominica
dominical
dominicana
dominicano
dominika
dominique
domino
dominou
don
dona
donald
donata
donato
donde
done
donetsk
dong
donna
donne
donnell
dono
donos
donovan
dons
donzela
doo
doom
door
doors
doou
doping
dor
dora
dorado
dores
doria
dorian
doris
dorival
dorme
dormia
dormindo
dormir
dormito
dorothy
dorsal
dorso
dortmund
dos
dose
doses
dossie
dossier
dot
dotada
dotado
dote
doto
dots
dou
douard
double
doubleday
doubles
doug
douglas
dourada
douradas
dourado
dourados
douro
dous
doutor
doutora
doutorado
doutoramento
doutores
doutrina
doutrinas
dove
dover
down
download
downloads
downtown
doyle
doze
dp
dq
dr
dra
draco
dracula
draft
drag
draga
drago
dragon
dragons
drake
drama
dramas
dramaturgia
dramaturgo
draper
drasticamente
draw
dre
dream
dreams
dreamworks
drenagem
dresden
drew
dreyfus
drica
drico
dricos
dritte
drive
driver
drivers
dro
droga
drogas
dromo
drones
drop
drops
drug
drugs
drum
drummond
ds
dt
dtirol
du
dua
dual
duarte
duas
dub
dubai
dublada
dublado
dublador
dubladora
dublagem
duble
dublin
ducado
ducados
ducal
duck
duda
dudley
dudu
due
duelo
dueto
duff
duffy
duke
dula
dulas
dulce
dulo
dulos
dum
duma
dumas
dumbledore
dumont
dunas
duncan
dunn
dunning
duo
duos
dupla
duplas
duplicac
duplo
duplos
duque
duques
duquesa
dura
durac
duradoura
duramente
duran
durante
durar
duras
dureza
durham
during
duro
duros
durou
dust
dustin
dutch
dutchcharts
dutra
duty
duvida
duzentos
dvd
dvds
dw
dwarf
dwight
dx
dy
dying
dylan
dynamic
dynamics
dynamite
dynasty
dz
e
ea
each
ead
eagle
eagles
earl
earliest
early
earth
east
easter
eastern
eastwood
easy
eat
eb
ebal
ebc
ebert
ebola
ec
eca
echo
echolocation
ecle
eclesia
eclipse
eclodiu
eclosa
eco
ecolo
ecologia
ecological
ecology
econo
economia
economias
economic
economicamente
economics
economist
economista
economistas
economy
ecossistema
ecossistemas
ecuador
ecume
ecw
ed
eddie
eddy
eden
edgar
edgard
edge
edi
edic
edicio
ediciones
edifi
edificac
edificado
edimburgo
edinburgh
edison
edit
edita
editada
editado
editados
edital
editar
edited
edith
edition
editions
editor
editora
editoras
editores
editoriais
editorial
editors
editou
edmond
edmonton
edmund
edmundo
edna
edo
eds
edson
edu
eduard
eduardo
educac
educacionais
educacional
educada
educado
educador
educadora
educadores
educar
education
educational
educativa
educativas
educativo
edusp
edward
edwards
edwin
ee
eerdmans
ef
efe
efeito
efeitos
efetiva
efetivado
efetivamente
efetivo
efetivos
efetuar
effect
effects
efica
eficaz
eficazes
eficie
eficiente
eficientes
ega
egas
egeu
egg
egi
egipto
egito
ego
egoi
egypt
egyptian
eh
ei
eight
eilish
ein
eine
einer
einstein
einwohnerzahlen
eira
eiro
eis
eisenhower
eisernen
eisner
eixo
eixos
ek
el
ela
elaborac
elaborada
elaboradas
elaborado
elaborados
elaborar
elaborou
elaine
elas
elba
elder
eldorado
ele
eleanor
elected
election
elections
electric
electro
electronic
electronics
elefante
elefantes
elega
elegans
elegante
elegantes
elege
eleger
elegeram
elegeu
elegi
elegibilidade
eleic
eleicoes
eleita
eleito
eleitor
eleitorado
eleitorais
eleitoral
eleitores
eleitos
element
elementar
elementares
elementary
elemento
elementos
elements
elena
elenco
eles
eletricidade
eletro
eletromagne
eleva
elevac
elevada
elevadas
elevado
elevador
elevadores
elevados
elevando
elevar
eleven
elevou
elfos
eli
eliana
eliane
elias
elimina
eliminac
eliminada
eliminado
eliminados
eliminando
eliminar
elimination
eliminato
eliminou
eliot
elis
elisa
elisabeth
eliseu
elite
elites
eliza
elizabeth
ella
ellas
elle
ellen
eller
elles
ellie
elliot
elliott
ellis
elmo
elo
elogia
elogiada
elogiado
elogiando
elogiaram
elogio
elogios
elogiou
elon
elrei
elsa
else
elsevier
elton
elucidario
elvas
elvira
elvis
elza
em
ema
email
emancipac
emanuel
embaixada
embaixadas
embaixador
embaixadora
embaixadores
embaixo
embalagem
embalagens
embarac
embarcac
embarcada
embarcar
embarcou
embargo
embarque
embassy
embate
emblema
embora
emboscada
embraer
embrapa
embria
embriona
eme
emenda
emendas
emerge
emergencial
emergency
emergente
emergentes
emerging
emergiu
emerson
emery
emfim
emi
emigrac
emigrantes
emigrou
emil
emile
emilia
emiliano
emilio
emily
eminem
eminente
emir
emirados
emirates
emissa
emisso
emissor
emissora
emissoras
emite
emitida
emitidas
emitido
emitidos
emitir
emitiu
emma
emmanuel
emmy
emoc
emocionais
emocional
emocionalmente
emocionante
empata
empatado
empatar
empate
empates
empatou
empenho
emperor
empi
empire
empires
empossado
empre
empreendedor
empreendedores
empreendedorismo
empreendimento
empreendimentos
emprega
empregada
empregadas
empregado
empregador
empregados
empregando
empregar
emprego
empregos
empregou
empresa
empresariais
empresarial
empresas
emprestado
emprestou
empurra
empuxo
emquanto
en
encabec
encaixa
encantada
encantado
encanto
encantos
encarar
encargos
encarnac
encarregada
encarregado
encarregados
encarregou
encarte
encenac
encerra
encerrada
encerrado
encerramento
encerrando
encerrar
encerrou
enche
enchente
enchentes
encher
enci
enciclope
enciclopedia
encomenda
encomendada
encomendado
encomendas
encomendou
encontra
encontrada
encontradas
encontrado
encontrados
encontram
encontramos
encontrando
encontrar
encontrara
encontraram
encontrarem
encontrava
encontravam
encontre
encontrei
encontro
encontros
encontrou
encorajar
encorajou
encore
encosta
encostas
encourac
encyclopaedia
encyclopedia
encyclopædia
end
ende
enderec
ending
endo
ends
endurance
ene
enem
enemy
energe
energia
energias
energy
enero
enfatiza
enfatizando
enfatizar
enfatizou
enfermagem
enfermeira
enfermidade
enfim
enfoque
enfraquecer
enfraqueceu
enfraquecimento
enfrenta
enfrentam
enfrentamento
enfrentando
enfrentar
enfrentara
enfrentaram
enfrentou
eng
engajamento
engana
enganado
enganar
engano
engels
engenharia
engenheiro
engenheiros
engenho
engenhos
engine
engineering
engineers
england
engler
english
engloba
engrac
enigma
enix
eno
enorme
enormes
enough
enquadramento
enquanto
enredo
enrico
enrique
enriquecimento
ensai
ensaio
ensaios
enseada
ensemble
ensina
ensinado
ensinamentos
ensinando
ensinar
ensino
ensinou
enta
entanto
ente
entemente
entenda
entende
entendem
entendendo
entender
entendeu
entendia
entendida
entendido
entendimento
entendo
enter
enterprise
enterprises
enterrada
enterrado
enterrados
enterro
entertainment
entes
entidade
entidades
entomologia
entorno
entra
entrada
entradas
entrado
entram
entrando
entrar
entrara
entraram
entrarem
entrava
entre
entrega
entregando
entregar
entregou
entregue
entregues
entrelac
entretanto
entretenimento
entrevista
entrevistado
entrevistados
entrevistas
entroncamento
entropia
entrou
entry
entusiasmo
envelhecimento
envelope
envenenamento
envergadura
envia
enviada
enviadas
enviado
enviados
enviando
enviar
enviaram
envio
enviou
environment
environmental
envolto
envolve
envolvem
envolvendo
envolvente
envolver
envolveram
envolveu
envolvia
envolvida
envolvidas
envolvido
envolvidos
envolvimento
enxofre
enzima
enzimas
enzo
eo
ep
epi
epic
epidemia
epidendrum
episcopado
episcopal
episo
episode
episodes
epita
epo
eps
epsilon
epstein
equac
equador
equations
equatorial
equatoriano
equestre
equi
equili
equipa
equipada
equipadas
equipado
equipados
equipamento
equipamentos
equipas
equipe
equipes
equiv
equivale
equivalente
equivalentes
er
era
eram
eras
erasmo
ergue
erguendo
erguer
ergueu
erguida
erguido
eri
eric
erica
erich
erick
erickson
erigida
erik
erika
eriksson
erin
erisipela
eritrea
eritreia
erlewine
ermida
ernest
ernesto
ernie
ernst
ero
eros
erosa
erra
errada
errado
erro
erroneamente
error
erros
ers
erudita
erudito
erupc
erva
ervas
erwin
es
esa
esboc
esc
esca
escada
escadaria
escadas
escala
escalac
escalada
escalado
escalar
escalas
escamas
escandina
escapa
escapar
escape
escapou
escaravelho
escarlate
escassa
escassez
escassos
escavac
esclarecer
esco
escoamento
escobar
escoce
escocesa
escoceses
escola
escolar
escolares
escolaridade
escolas
escolha
escolhas
escolhe
escolhendo
escolher
escolheram
escolheu
escolhida
escolhidas
escolhido
escolhidos
escolinha
escolta
esconde
escondendo
esconder
esconderijo
escondeu
escondida
escondidas
escondido
escondidos
escopo
escorpia
escoteiro
escrava
escravatura
escravida
escravo
escravos
escreve
escrevendo
escrever
escreveram
escreveu
escrevi
escrevia
escrita
escritas
escrito
escritor
escritora
escritores
escritos
escritura
escrituras
escriva
escudeiro
escudo
escudos
esculpida
escultor
escultura
esculturas
escura
escuras
escurida
escuro
escuros
escuta
escutar
esdras
esfe
esfera
esferas
esforc
esgotamento
esgoto
esgotos
esgrima
eska
eslavo
eslavos
eslova
eslovaco
eslove
esloveno
esmagadora
esmalte
esmeralda
eso
esote
esp
espa
espac
espaciais
espacial
espada
espadas
espalha
espalhadas
espalhados
espalhando
espalhar
espalharam
espalhou
espan
espanha
espanho
espanhol
espanhola
espanholas
espanto
esparta
espe
especi
especiais
especial
especialidade
especialidades
especialista
especialistas
especializac
especializada
especializadas
especializado
especializados
especializou
especialmente
especiarias
especifica
especificac
especificado
especificamente
especificar
especta
espectador
espectadores
espectral
espectro
espectros
especulac
espelho
espelhos
espera
esperada
esperado
esperados
esperam
esperanc
esperando
esperanto
esperar
esperava
esperavam
espero
esperou
espessa
espessura
espeta
espetacular
espi
espia
espiga
espingarda
espinha
espinho
espinhos
espinosa
espio
espionagem
espiral
espiritismo
espirito
espirituais
espiritual
espiritualidade
esplanada
esple
esplendor
espn
espo
esponta
espontaneamente
espora
esporos
esporte
esportes
esportiva
esportivas
esportivo
esportivos
esposa
esposas
esposo
espuma
esquadra
esquadro
esquec
esquece
esquecer
esqueceu
esquecida
esquecido
esquecimento
esqueleto
esquema
esquemas
esquerda
esquerdo
esqui
esquina
esquizofrenia
essa
essas
essay
essays
esse
essenciais
essencial
essencialmente
essential
esses
essex
esso
est
esta
estabelece
estabelecem
estabelecendo
estabelecer
estabeleceram
estabeleceu
estabelecida
estabelecidas
estabelecido
estabelecidos
estabelecimento
estabelecimentos
estabilidade
estabilizac
estac
estaciona
estacionamento
estada
estadao
estadi
estadia
estadio
estadista
estado
estados
estadounidense
estaduais
estadual
estadunidense
estadunidenses
estagia
estaleiro
estaleiros
estamos
estampa
estandarte
estando
estanho
estar
estara
estarem
estaria
estariam
estas
estatais
estatal
estate
estati
estatura
estatuto
estatutos
estava
estavam
este
esteban
esteira
esteja
estejam
estela
estelar
estende
estendem
estendendo
estender
estendeu
estendia
estendida
estendido
ester
estereo
estes
esteva
esteve
esteves
esther
esti
estili
estilista
estilizado
estilo
estilos
estima
estimac
estimada
estimado
estimados
estimar
estimates
estimativa
estimativas
estimou
estimula
estimulac
estimular
estive
estiver
estiveram
estiverem
estivesse
estivessem
esto
estocolmo
estonia
estoniano
estoque
estoril
estou
estraba
estrada
estradas
estragos
estrangeira
estrangeiras
estrangeirismo
estrangeiro
estrangeiros
estranha
estranhas
estranho
estranhos
estrasburgo
estrate
estraviz
estre
estreando
estreante
estrear
estreia
estreias
estreita
estreitamente
estreitas
estreito
estreitos
estrela
estrelada
estrelado
estrelando
estrelar
estrelas
estrella
estrellas
estrelou
estremadura
estremoz
estreou
estresse
estrita
estritamente
estro
estrutura
estruturac
estruturada
estruturado
estruturais
estrutural
estruturas
estu
estua
estuda
estudada
estudadas
estudado
estudados
estudam
estudando
estudante
estudantes
estudantil
estudantis
estudar
estudava
estudiantes
estudios
estudioso
estudiosos
estudo
estudos
estudou
estufa
estupro
eswatini
et
eta
etanol
etapa
etapas
etc
ete
eterna
eternal
eternamente
eternidade
eterno
ethan
ethics
ethiopia
ethnic
ethnologue
eti
etimolo
etimologia
etio
etiopia
etiqueta
etnia
etnias
etno
etnogra
etnografia
etnologia
eu
eua
eucalyptus
eucaristia
euclides
euge
eugen
eugene
eugenia
eugenio
eula
euler
eun
euphorbiaceae
eur
eure
euri
eurico
euro
eurobasket
eurocopa
eurogamer
europa
europaea
europe
european
europeia
europeias
europeu
europeus
euros
eurosport
eurovisa
eurovision
euse
eusta
ev
eva
evacuac
evaluation
evan
evandro
evanescence
evange
evangelho
evangelhos
evangelista
evangelizac
evans
evaristo
eve
evelyn
even
evening
event
evento
eventos
events
eventuais
eventual
eventualmente
ever
everett
everton
every
everybody
everyone
everything
evic
evide
evidence
evidencia
evidente
evidentemente
evidentes
evil
evita
evitando
evitar
evitou
evo
evoluc
evolui
evoluir
evoluiu
evolution
evolutionary
evolutiva
ew
ewald
ex
exaltac
exame
exames
examinar
example
exata
exatamente
exatas
exato
exausta
exce
excec
excedente
excel
excele
excelente
excelentes
excelsior
excentricidade
excepc
excepcionais
excepcional
excepcionalmente
excepto
excessiva
excessivamente
excessivo
excesso
excessos
exceto
exchange
excitac
exclamou
exclui
excluindo
excluir
exclusa
exclusiva
exclusivamente
exclusivas
exclusive
exclusividade
exclusivo
exclusivos
excursa
exe
execuc
executa
executada
executadas
executado
executados
executando
executar
executiva
executive
executivo
executivos
executou
exemplar
exemplares
exemplo
exemplos
exerce
exercem
exercendo
exercer
exerceu
exerci
exercia
exercida
exercido
exercito
exhibition
exi
exibe
exibem
exibic
exibida
exibidas
exibido
exibidos
exibindo
exibir
exibiu
exige
exigem
exigia
exigiam
exigida
exigido
exigindo
exigir
exigiu
exilado
exilados
exile
exista
existam
existe
existem
existente
existentes
existia
existiam
existido
existindo
existir
existiram
existirem
existiu
exists
exit
exkursionsflora
exmo
exo
exodus
exp
expande
expandida
expandido
expandindo
expandir
expandiu
expansa
expansion
expectativa
expectativas
expedic
expediciona
expediente
expedition
experie
experience
experiente
experientes
experiment
experimentac
experimentais
experimental
experimentar
experimento
experimentos
experimentou
expert
expli
explica
explicac
explicada
explicado
explicam
explicando
explicar
explicitamente
explicou
explode
explodir
explodiu
explora
explorac
explorada
explorado
explorador
exploradores
explorando
explorar
exploration
explorer
exploring
explorou
explosa
explosiva
explosivo
explosivos
exploso
expo
expoente
expoentes
expondo
exponencial
expor
exportac
exposic
exposta
expostas
exposto
expostos
express
expressa
expressam
expressamente
expressando
expressar
expressas
expression
expressiva
expressivo
expresso
expressos
expressou
expulsa
expulsar
expulso
expulsos
expulsou
ext
extended
extensa
extensas
extension
extensivamente
extenso
extensos
exterior
exteriores
extermi
externa
externamente
externas
externo
externos
extinc
extinguiu
extinta
extintas
extinto
extintos
extra
extrac
extradic
extragala
extrai
extrair
extraordina
extras
extrato
extratropical
extravagante
extrema
extremamente
extremas
extreme
extremidade
extremidades
extremo
extremos
eye
eyed
eyes
ez
ezequiel
ezra
f
fa
fab
fabaceae
faber
fabian
fabiana
fabiano
fabio
fabri
fabrica
fabricac
fabricada
fabricadas
fabricado
fabricados
fabricante
fabricantes
fabricar
fabriciano
fabricius
fabrico
fac
faca
facas
facc
face
facebook
faces
fachada
fachadas
faciais
facial
facilidade
facilita
facilitando
facilitar
facility
facilmente
fact
factbook
facto
factor
factores
factors
factory
factos
facts
faculdade
faculdades
faculty
fada
fadas
fadiga
fado
fago
fagos
fagundes
fai
faial
failure
fair
fairy
faith
faixa
faixas
faja
fake
fala
falada
faladas
falado
falam
falando
falante
falantes
falar
falaram
falas
falava
falavam
falca
falco
falcon
fale
falecer
faleceu
falecida
falecido
falecimento
falei
falha
falhado
falhar
falharam
falhas
falhou
fall
fallen
falling
fallingrain
fallon
falls
falo
falou
falsa
falsas
false
falsificac
falso
falsos
falta
faltam
faltando
faltar
faltas
faltava
fama
famalica
fame
fami
familia
familiar
familiares
families
family
famosa
famosas
famoso
famosos
famous
fan
fana
fandango
fanes
fanny
fans
fanta
fantasia
fantasias
fantasma
fantasmas
fantastic
fantasy
fao
fapesp
faq
far
fara
farao
farc
farei
faria
fariam
farias
farinha
farm
farma
farmace
farmer
faro
faroeste
farol
farrell
farroupilha
farsa
fasci
fascism
fascismo
fascista
fascistas
fase
fases
fashion
faso
fast
fat
fatais
fatal
fate
father
fati
fato
fator
fatores
fatos
fatura
faturamento
fauna
faunaeur
faunal
fausta
faustino
fausto
favela
favelas
favor
favora
favorece
favorecer
favorita
favoritas
favorite
favoritismo
favorito
favoritos
fax
fay
faz
faze
fazem
fazemos
fazenda
fazendas
fazendeiro
fazendeiros
fazendo
fazer
fazerem
fazia
faziam
fbi
fc
fda
fe
fear
feat
feature
features
featuring
feb
febre
february
fecha
fechada
fechadas
fechado
fechados
fechamento
fechando
fechar
fecho
fechou
fectoral
fed
federac
federais
federal
federation
federativa
federazione
federer
federico
feed
feedback
feel
feeling
feet
fego
fei
feia
feic
feija
feijo
feio
feira
feiras
feita
feitas
feitic
feiticeira
feiticeiro
feito
feitos
feixe
feixes
felgueiras
feli
felice
feliciano
felicidade
felipe
felix
feliz
felizes
felizmente
fellgiebel
fellow
fellows
fellowship
female
feminina
femininas
feminino
femininos
feminism
feminismo
feminist
feminista
feministas
femme
fen
fenda
fender
feni
feno
fenton
fer
fera
feras
ferdinand
ferguson
feriado
feriados
ferida
feridas
ferido
feridos
ferimento
ferimentos
ferindo
ferir
feriu
fermentac
fermento
fermi
ferna
fernanda
fernandes
fernandez
fernando
fero
feros
feroz
ferra
ferramenta
ferramentas
ferrara
ferrari
ferraz
ferreira
ferreiro
ferrer
ferro
ferros
ferrovia
ferrovias
ferry
fertilidade
feso
fest
festa
festas
festejos
festivais
festival
festivals
festividades
feto
feudal
fev
fever
fevereiro
few
fey
fez
fezes
ff
fgv
fi
fia
fianc
fiat
fiba
fibra
fibras
fica
ficado
ficam
ficamos
ficando
ficar
ficara
ficaram
ficarem
ficaria
ficas
ficasse
ficava
ficavam
ficc
ficcional
fice
ficha
ficheiro
ficheiros
ficit
fico
ficos
ficou
ficti
fiction
fidalgo
fidalgos
fide
fidel
fidelidade
fie
fiel
field
fields
fifa
fifth
fifty
fig
figaro
fight
fighter
fighters
fighting
figueira
figueiredo
figueirense
figura
figurado
figurar
figuras
figure
figures
figurino
figurinos
figurou
fiji
fila
filade
filantro
filarmo
filas
file
fileira
fileiras
files
filha
filhas
filho
filhos
filhote
filhotes
filiac
filiada
filiado
filiados
filiais
filial
filiou
filipa
filipe
filipina
filipinas
filipino
filippo
film
filmada
filmadas
filmado
filmagem
filmagens
filmar
filme
filmes
filming
filmmakers
filmografia
filmou
films
filo
filogene
filogenia
filologia
filomena
filos
filoso
filosofia
filtro
filtros
fim
fin
fina
finais
final
finale
finalidade
finalidades
finalista
finalistas
finalizac
finalizada
finalizado
finalizando
finalizar
finalizaram
finalizou
finally
finalmente
finals
financ
finance
financeira
financeiramente
financeiras
financeiro
financeiros
financiada
financiado
financial
financiamento
financiar
finas
find
finding
finds
fine
finita
finito
finla
finland
finlande
finlandesa
finlandia
finn
fino
finos
fins
fio
fiocruz
fiona
fios
fique
fiquei
fiquem
fire
firefox
firenze
firma
firmado
firmar
firme
firmemente
firmeza
firmino
firmou
first
fis
fiscais
fiscal
fiscalizac
fischer
fish
fishbase
fisher
fishes
fisicamente
fisiolo
fisiologia
fisionomia
fisioterapia
fissa
fit
fita
fitas
fito
fitos
fitossociologia
fitzgerald
fivb
five
fixa
fixac
fixada
fixado
fixando
fixar
fixas
fixo
fixos
fixou
fixtures
fiz
fizemos
fizer
fizera
fizeram
fizesse
fizessem
fk
fl
fla
flag
flagrante
flags
flair
flame
flamengo
flames
flamsteed
flanco
flandres
flash
flashback
flat
flauta
flavio
flecha
flechas
fleet
fleming
fletcher
fleury
flexa
flexi
flexibilidade
flickr
flight
flip
flo
flood
floor
flor
flora
florac
florais
flore
florenc
florence
florentino
flores
floresceu
floresta
florestais
florestal
florestas
florian
floriano
florida
flow
flower
flowering
flowers
floyd
flu
flui
fluido
fluidos
fluminense
flutuac
flutuante
fluviais
fluvial
fluxo
fluxos
fly
flying
flynn
fm
fmi
fn
fo
foca
focada
focado
focal
focando
focar
focas
focinho
foco
focos
focus
foge
fogem
fogo
fogos
fogueira
foguete
foguetes
foi
fokker
folclo
folclore
foley
folga
folha
folhagem
folhas
folia
folio
folk
folklore
follow
following
fome
fomentar
fomento
fomos
fona
fone
fonemas
fono
fonogra
fonos
fonseca
font
fontaine
fontana
fonte
fontes
foo
food
fool
foot
football
for
fora
foral
forall
foram
foras
forbes
forc
force
forces
ford
foreign
forem
forense
forest
forever
forget
forgotten
form
forma
formac
formada
formadas
formado
formados
formais
formal
formalmente
formam
formando
formar
formaram
formas
format
formation
formato
formatos
formatura
formava
formavam
former
formicidae
formida
formiga
formigas
formosa
formoso
formou
forms
formula
formulac
formular
fornece
fornecedor
fornecedores
fornecem
fornecendo
fornecer
forneceram
forneceu
fornecida
fornecidas
fornecido
fornecidos
fornecimento
forno
fornos
foro
foros
forrest
forro
forst
forster
fort
fortalecer
fortaleceu
fortalecimento
fortaleza
fortalezas
forte
fortemente
fortes
fortificac
fortificada
fortschreibung
fortuna
fortunato
fortune
forum
forward
fosfato
foslie
fossa
fosse
fossem
fossil
fosso
foster
foto
fotogra
fotografia
fotografias
fotos
foucault
found
foundation
foundations
founder
four
fourier
fourth
fowler
fox
foy
foz
fpf
fr
fra
frac
fraca
fracas
fracassada
fracasso
fracassou
fraco
fracos
frade
frades
fraga
fragata
fragmentac
fragmento
fragmentos
fragoso
frame
framework
fran
franc
franca
france
frances
francesa
francesas
francesca
francesco
franceses
franchise
francia
francis
francisca
franciscano
franciscanos
francisco
franco
francos
frango
frank
frankenstein
frankfurt
frankie
franklin
franquia
franquias
frans
franz
fraqueza
frase
fraser
frases
fraternidade
fratura
fraude
fraudes
fre
freak
fred
freddie
freddy
frederic
frederick
frederico
free
freedom
freeman
freestyle
freguesia
freguesias
frei
freiburg
freio
freios
freira
freiras
freire
freitas
freixo
french
frente
frentes
frequ
freque
frequentado
frequentar
frequente
frequentemente
frequentes
frequentou
fresca
fresco
frescos
fresh
freud
frey
fri
fria
frias
friburgo
frica
friday
friedman
friedrich
friend
friends
friendship
frio
frios
fritz
fro
frog
from
front
fronta
frontal
fronte
fronteira
fronteiras
fronteiric
frontier
frontiers
frost
frota
frozen
frs
fru
frustrac
frustrado
fruta
frutas
fruti
fruto
frutos
fry
fs
ft
fte
ftp
fu
fue
fuel
fuentes
fuga
fugido
fugindo
fugir
fugiram
fugitivos
fugiu
fui
fuji
fujiwara
full
fullard
fuller
fumac
fumar
fumo
fun
func
funchal
funciona
funcionais
funcional
funcionalidade
funcionalidades
funcionam
funcionamento
funcionando
funcionar
funcionava
funcionou
function
functional
functions
fund
funda
fundac
fundacio
fundada
fundadas
fundado
fundador
fundadora
fundadores
fundamentais
fundamental
fundamentalmente
fundamento
fundamentos
fundando
fundar
fundaram
fundic
fundida
fundido
fundir
fundiu
fundo
fundos
fundou
funera
funeral
fungi
fungo
fungorum
fungos
funk
funny
furaca
furaco
furioso
furious
furnas
furor
furtado
further
fury
fusa
fuselagem
fusion
fuso
futebol
futeboli
futebolista
futon
futsal
futura
futuramente
futuras
future
futurista
futuro
futuros
fuzil
fuzileiros
fuzis
fx
g
ga
gaba
gabinete
gabon
gabriel
gabriela
gabriele
gabrielle
gaddafi
gado
gae
gaetano
gaga
gaia
gail
gains
gaiola
gaita
gal
gala
galaxy
gale
galea
galega
galego
galegos
galera
galeria
galerias
gales
galhos
gali
galicia
galileo
galileu
galinha
galinhas
galiza
gallagher
gallery
gallimard
gallo
galo
galva
gama
gamba
gambia
game
gamecube
gamer
gamerankings
games
gamespot
gamesradar
gaming
gamma
gan
gana
gancho
gandhi
gang
gangue
gangues
ganha
ganhado
ganhador
ganhadores
ganham
ganhando
ganhar
ganharam
ganhava
ganho
ganhos
ganhou
ganso
gao
gaon
gap
gar
garagem
garante
garantem
garantia
garantias
garantida
garantido
garantindo
garantir
garantiu
garay
garc
garci
garcia
gard
garde
garden
gardens
gardiner
gardner
gare
garfield
garganta
garibaldi
garland
garota
garotas
garoto
garotos
garra
garrafa
garrafas
garras
garrett
garrido
garros
garry
gary
gas
gases
gasolina
gaspar
gasta
gastar
gasto
gaston
gastos
gastou
gastro
gastrono
gastronomia
gata
gate
gates
gateway
gatilho
gato
gatos
gau
gauleses
gaulle
gauss
gavia
gavin
gay
gays
gaza
gazeta
gazette
gazetteer
gazetteers
gb
gbif
gc
gcatholic
gct
ge
gear
geek
gehrke
geiger
geis
geisel
gel
gelo
gem
gema
gemas
gemeinde
gemeinden
gemeindeteile
gemini
gen
gena
genas
gender
gene
genealo
genealogia
genealogy
genebra
genera
generais
general
generalidade
generalizac
generalizada
generalizado
generation
generic
generosidade
generoso
genes
genesis
genetic
geneticamente
genetics
geneva
genital
genitivo
genius
geno
genoci
genocide
genoma
genome
genomics
genos
genre
genro
gente
gentes
genti
gentil
gentili
genui
genus
geo
geode
geoestaciona
geoff
geoffrey
geofi
geogra
geografia
geograficamente
geographic
geographical
geographies
geography
geolo
geologia
geological
geology
geome
geometria
geometry
geophysical
geopoli
georg
george
georges
georgetown
georgia
georgiana
georgiano
geq
ger
gera
gerac
gerada
geradas
gerado
gerador
geradores
gerados
gerais
geral
gerald
geraldo
geralmente
geram
gerando
gerar
geraram
gerard
gerardo
gere
gerenciador
gerenciamento
gerenciar
gerente
gerhard
gerir
germa
germain
german
germania
germano
germany
germplasm
gerou
gerson
gertrudes
geru
geschichte
gesellschaft
gesso
gesta
gestac
gesto
gestor
gestores
gestos
get
gets
getting
getty
getu
gfk
ghana
ghost
ghosts
ghtml
gi
gia
giacomo
gian
gianni
giant
giants
gias
gibb
gibbs
gibraltar
gibson
gica
gicas
gico
gicos
gida
gidas
gido
gidos
gift
gigante
gigantes
gil
gilbert
gilberto
giles
gill
gilles
gilmar
gilmore
gilson
gina
ginas
ginasta
ginastas
gine
gini
gino
gio
gions
giorgio
gios
giovanna
giovanni
gira
girar
girl
girlfriend
girls
giro
gis
gisele
git
github
gitos
giulia
giulio
giuseppe
give
given
gives
gjerde
gl
gla
glacial
glaciar
glamour
glasgow
glass
glee
glen
glenea
glenn
gli
glicose
glo
globais
global
globalizac
globalmente
globe
globo
globoesporte
globoplay
gloria
gloriosa
glorioso
glory
glossa
glossary
gloucester
glover
glu
gm
gmbh
gmina
gminy
gnia
gno
gnome
gnt
gnu
go
goa
goal
gob
gobierno
god
godan
godinho
godofredo
godos
godoy
gods
goes
goethe
goff
gogh
goia
goiana
goiano
going
goku
gol
gold
goldberg
golden
goldman
goldstein
goleada
goleia
goleiro
goleiros
golf
golfe
golfinho
golfinhos
golfo
golo
golos
golpe
golpes
gols
gomes
gomez
gonc
gone
gong
gonna
gono
gonza
gonzaga
gonzalez
gonzalo
good
goodbye
goodman
google
goras
gorbachev
gorda
gordo
gordon
gordura
gore
gorman
gospel
gossip
gosta
gostam
gostar
gostaria
gostava
gosto
gostos
gostou
got
gota
gotas
gotemburgo
gotham
gottfried
goulart
gould
gouveia
gov
govaerts
governa
governabilidade
governada
governado
governador
governadora
governadores
governamentais
governamental
governanc
governante
governantes
governar
governava
government
governo
governor
governos
governou
govt
goya
gozar
gozo
gp
gps
gq
gr
gra
grac
grace
gracie
graciosa
gradativamente
grade
grades
gradiente
grado
graduac
graduado
gradual
gradualmente
graduate
graduou
graf
grafa
grafado
grafia
grafite
grafo
grafos
graham
gram
grama
gramado
gramados
gramas
gramaticais
gramatical
grami
grammar
grammy
gran
granada
granadas
grand
grande
grandemente
grandense
grandes
grandeza
grandezas
granito
granja
grant
graphic
graphics
grass
gratida
gratuita
gratuitamente
gratuitas
gratuito
gratuitos
grau
graus
grava
gravac
gravada
gravadas
gravado
gravador
gravadora
gravadoras
gravados
gravando
gravar
gravaram
gravata
grave
gravemente
graves
gravidade
gravidez
gravitacional
gravity
gravou
gravura
gravuras
gray
graz
gre
great
greater
greatest
greco
greece
greek
green
greene
greenwich
greenwood
greg
grega
gregas
gregg
grego
gregor
gregoriano
gregorio
gregory
gregos
grenada
greta
greve
greves
grey
grid
griffin
griffith
griffiths
grima
grimas
grimes
grimm
grin
gripe
grita
gritando
gritar
grito
gritos
gritou
gro
groenla
groove
gross
grossa
grossas
grossense
grosso
ground
group
groups
grove
groves
grow
growing
growth
gru
grundlage
grupo
grupos
gruta
grutas
gruyter
gs
gshow
gt
gu
gua
guac
guadalajara
guadalupe
guai
guam
guanabara
guara
guarani
guararapes
guaratingueta
guard
guarda
guardado
guardar
guardas
guardia
guardian
guardio
guarnic
guaruja
guarulhos
guas
guatemala
gue
guedes
guerra
guerras
guerre
guerreira
guerreiro
guerreiros
guerrero
guerrilha
guerrilheiro
guerrilheiros
guest
guetta
guevara
guez
guggenheim
gugu
gui
guia
guiana
guiar
guias
guida
guide
guides
guido
guild
guilherme
guilhermina
guillaume
guillermo
guilty
guimara
guine
guinea
guineense
guinness
guiry
guitar
guitarra
guitarras
guitarrista
guitarristas
gula
gulbenkian
gulf
gun
gundam
gunn
gunnar
guns
gunter
guo
gurgel
guru
gus
gusma
gustav
gustave
gustavo
gutenberg
guterres
gutie
guy
guyana
guys
guzma
guðmundur
gw
gwen
gymnastics
gyo
h
ha
haas
hab
habeas
habilidade
habilidades
habilitac
habita
habitac
habitacionais
habitacional
habitada
habitadas
habitado
habitam
habitante
habitantes
habitar
habitat
habitats
habitavam
habituais
habitual
habitualmente
habsburgo
hac
hachette
hacker
hackers
had
haddad
hades
hagen
hagrid
hahn
hai
haia
hair
haiti
haitiano
haja
hal
hale
haley
half
halifax
hall
halle
halley
halloween
halo
halsey
halterofilismo
ham
hamas
hamburg
hamburgo
hamilton
hamlet
hammer
hammond
hampshire
hampton
han
hana
hancock
hand
handbook
handbuch
handebol
hands
hanglemezkiado
hangul
hank
hanna
hannah
hannover
hano
hans
hansen
hanson
happened
happiness
happy
hara
harald
harbor
harcourt
hard
hardcore
harding
hardware
hardy
hare
harlem
harley
harmo
harmonia
harmony
harold
haroldo
harpa
harper
harpercollins
harriet
harrington
harris
harrison
harry
hart
hartford
hartley
hartmann
harvard
harvey
has
hash
hassan
hasta
haste
hastings
hat
hate
haute
havai
havana
have
haven
havendo
haver
havera
haveria
havia
haviam
havido
havilland
hawaii
hawk
hawkins
hawks
hay
hayden
hayek
hayes
hbo
hc
hd
he
head
heads
health
hear
heard
hearst
heart
hearts
heat
heath
heather
heaven
heavy
heavyweight
hebe
hebraica
hebraico
hebreus
hectares
hector
hedgehog
hee
heer
hegel
hegemonia
hegi
hei
heidelberg
heidi
heights
heijmans
hein
heineken
heinrich
heinz
heitor
held
hele
helen
helena
helene
heleni
helgason
helico
helio
hell
heller
hello
helm
helmut
heloi
help
helsinki
helsinque
helyne
hemeroteca
hemisfe
hemorragia
hen
henderson
hendrix
henri
henriette
henrik
henrique
henriques
henriqueta
henry
hepa
hepatite
hepburn
her
hera
herald
heranc
herba
herbal
herbarium
herbert
herbi
herculano
hercules
herdade
herdado
herdeira
herdeiro
herdeiros
herdou
here
heredita
herer
heresia
heritage
herman
hermann
hermano
hermes
hermione
herna
hernandez
hero
herodes
heroes
heroi
herrera
herschel
herzegovina
herzog
hess
hesse
het
heteroge
heubl
hey
hi
hiato
hicks
hidalgo
hidden
hide
hidra
hidrele
hidro
hidrocarbonetos
hidroge
hidrogra
hidrologie
hiera
hierarchy
hierarquia
higgins
high
higher
highest
highlights
highway
higiene
hila
hilary
hilbert
hilda
hill
hillary
hills
hilton
him
himeno
himself
hindi
hindu
hindui
hindus
hino
hinos
hip
hipertensa
hipo
hipote
hipparcos
hiragana
hiroshi
hiroshima
his
hispa
hispanic
hispano
hispanos
hist
histo
histoire
historia
historiador
historiadora
historiadores
historic
historical
historicamente
historico
histories
historiografia
historique
history
hit
hitchcock
hitler
hitparade
hits
hiv
hk
hl
hler
hlungen
hm
hms
hner
ho
hoc
hockey
hoffman
hoffmann
hogan
hogwarts
hoje
hokkaido
holanda
holande
holandesa
holandesas
holandeses
hold
holden
holding
holdings
holds
hole
holiday
holland
hollow
holly
hollywood
holmes
holo
holocaust
holocausto
holstein
holt
holy
hombre
home
homem
homenageada
homenageado
homenagear
homenageia
homenagem
homenagens
homenageou
homens
homepage
homer
homero
homici
homme
homo
homofobia
homoge
homossexuais
homossexual
homossexualidade
hon
honda
honduras
honesta
honestidade
honesto
honey
hong
hono
honolulu
honor
honora
honore
honori
honoris
honors
honour
honra
honrado
honrar
honras
honrosa
hood
hook
hooker
hooper
hoover
hop
hope
hopkins
hopper
hora
horace
horas
horizon
horizontais
horizontal
horizonte
horizontes
hormo
horn
hornets
horri
horror
horse
horst
horta
horte
horto
hospedagem
hospedeiro
hospitais
hospital
hospitalar
host
hostil
hostilidade
hostilidades
hostis
hosts
hot
hote
hotel
houaiss
houghton
hour
hours
house
household
households
housewives
housing
houston
houve
houver
houvesse
how
howard
howe
howell
hoy
hp
hq
hr
hrer
hrsg
hs
htm
html
http
https
hu
hua
huang
hub
hubbard
hubble
huber
hubert
hudson
huffington
huffpost
hugh
hughes
hugo
hui
hulk
hull
hulu
hum
huma
humaita
human
humana
humanas
humanidade
humanidades
humanismo
humanista
humanita
humano
humanos
humans
humberto
humboldt
hume
humildade
humilde
humildes
humilhac
humor
humori
humorista
humphrey
hun
hundred
hung
hungary
hunger
hungria
hunt
hunter
hunters
huntington
hurricane
hurt
hussein
hutchinson
huxley
hwang
hybrid
hyde
hye
hype
hypericum
hyun
hz
i
ia
iaaf
iago
iam
ian
ias
iata
iate
iau
ib
iba
ibe
iberica
ibero
ibge
ibid
ibirapuera
ibm
ibn
ibne
ibope
ibrahim
ibsen
ic
ica
icao
icarus
ice
iceland
ich
ichi
ichidan
icmbio
ico
icon
iconografia
id
ida
idade
idades
idaho
ide
idea
ideais
ideal
idealizada
idealizado
ideas
ideia
ideias
idem
identidade
identidades
identifica
identificac
identificada
identificadas
identificado
identificados
identificam
identificar
identificaram
identification
identificou
identity
ideolo
ideologia
ideologias
ides
idh
idiciona
idioma
idiomas
idiota
ido
idol
idolator
idosa
idoso
idosos
ie
iec
ieee
iema
if
ifpi
ig
iga
igarape
iggy
iglesias
ign
igna
ignacio
ignic
ignora
ignorado
ignorando
ignorar
igor
igp
igreja
igrejas
iguac
iguais
igual
igualdade
igualmente
ii
iii
ij
ik
il
ilbo
ildis
ile
ilegais
ilegal
ilegalmente
ilegi
ilha
ilhas
ilhe
ili
ill
illinois
illustrated
illustrations
illustrierte
ilo
iluminac
iluminada
iluminado
iluminismo
ilusa
iluso
ilustra
ilustrac
ilustrada
ilustrado
ilustrador
ilustrar
ilustre
ilustres
im
ima
imaculada
image
imagem
imagens
images
imagina
imaginac
imaginar
imagine
imaterial
imdb
imediac
imediata
imediatamente
imediatas
imediato
imensa
imenso
imersa
imigrac
imigrante
imigrantes
iminente
imitac
imitar
immortal
imo
imobilia
imortais
imortal
imortalidade
impact
impacto
impactos
imparcial
impasse
impe
impeachment
impede
impedem
impedia
impedido
impedimento
impedindo
impedir
impediram
impediu
imperador
imperadores
imperativo
imperatriz
imperfeito
imperiais
imperial
imperialismo
imperio
implaca
implantac
implantada
implantado
implantar
implementac
implementada
implementadas
implementado
implementar
impli
implica
implicac
implications
impo
imponente
impor
import
importa
importac
importados
important
importante
importantes
importar
imposic
impossi
impossibilidade
impossible
imposta
impostas
imposto
impostos
imprensa
impressa
impressas
impressionado
impressionante
impressionantes
impresso
impressora
impressos
imprimir
impro
improva
improvisac
impulsionado
impulsionar
impulso
impulsos
imune
imunidade
imunolo
in
ina
inaceita
inacessi
inadequado
inanimado
inativa
inaugura
inaugurac
inaugurada
inaugurado
inaugural
inaugurou
inc
inca
incapacidade
incapaz
incapazes
ince
incentiva
incentivar
incentivo
incentivos
incentivou
incerta
incerteza
incerto
inch
incide
incidente
incidentes
inciso
inclinac
inclinado
include
includes
including
incluem
inclui
incluindo
incluir
incluiu
inclusa
inclusive
incluso
inco
incompati
incompleta
incompleto
incomum
incomuns
inconsciente
inconta
incorpora
incorporac
incorporada
incorporadas
incorporado
incorporados
incorporando
incorporar
incorporou
incremento
incri
incrivelmente
incursa
incurso
inda
indefinido
indenizac
independe
independence
independent
independente
independentemente
independentes
independiente
indeterminado
index
indi
india
indian
indiana
indianapolis
indianas
indiano
indianos
indians
indica
indicac
indicada
indicadas
indicado
indicador
indicadores
indicados
indicam
indicando
indicar
indicaram
indicativo
indicava
indicou
indie
indiewire
indiferenc
indiferente
indignac
indireta
indiretamente
indireto
indispensa
indivi
individuais
individual
individualmente
indo
indone
indonesia
indoor
indu
induc
induced
industria
industriais
industrial
industrializac
industries
industry
induzida
induzir
indy
indycar
ine
inerente
inerentes
inesperada
inesperadamente
inesperado
inesqueci
inevita
inexiste
inexistente
inf
infa
infame
infanta
infantaria
infante
infanterie
infantil
infantis
infanto
infarto
infec
infecc
infectados
infeliz
infelizmente
infere
inferior
inferiores
inferno
inferred
infiltrac
infinita
infinitas
infinite
infinitivo
infinito
infinity
inflac
inflamac
inflamato
infloresce
influe
influence
influencia
influenciada
influenciado
influenciados
influenciam
influenciar
influenciaram
influenciou
influente
influentes
influenza
info
infope
informa
informac
informacio
informado
informados
informal
informalmente
informando
informar
information
informativo
informe
informer
informou
infortu
infra
infrac
infraestrutura
infraestruturas
infravermelho
infty
ing
inga
inge
ingesta
inglaterra
ingle
ingles
inglesa
inglesas
ingleses
ingrediente
ingredientes
ingressar
ingresso
ingressos
ingressou
ingrid
inhaber
ini
inibic
inicia
iniciac
iniciada
iniciadas
iniciado
iniciados
iniciais
inicial
inicializac
inicialmente
iniciam
iniciando
iniciantes
iniciar
iniciaram
iniciativa
iniciativas
inicio
iniciou
inimiga
inimigas
inimigo
inimigos
initiative
injec
injury
injustic
injusto
inmet
inn
inner
innovation
innsbruck
ino
inoce
inocente
inocentes
inorga
inovac
inovador
inovadora
inovadoras
inovadores
input
inque
inquirer
inquiry
inquisic
ins
insatisfac
inscrever
inscreveu
inscric
inscrito
inscritos
insecta
insectos
insee
inseguranc
inserc
insere
inserida
inseridas
inserido
inseridos
inserir
inseto
insetos
insi
inside
insider
insight
insights
insiste
insistiu
inso
inspec
inspector
inspetor
inspira
inspirac
inspirada
inspiradas
inspirado
inspirados
inspirar
inspired
inspirou
insse
insta
instabilidade
instagram
instala
instalac
instalada
instaladas
instalado
instalados
instalar
instalaram
install
instalou
instanta
instantaneamente
instante
instantes
instinto
institucionais
institucional
institui
instituic
instituiu
institut
institute
institution
instituto
institutos
institutul
instruc
instrui
instrumentac
instrumentais
instrumental
instrumentista
instrumento
instrumentos
instruments
instrutor
insuficie
insuficiente
insular
insulares
insulina
insurge
insurgentes
insurreic
int
inte
integra
integrac
integrada
integradas
integrado
integrados
integrais
integral
integralmente
integram
integrando
integrante
integrantes
integrar
integrated
integridade
integrou
inteira
inteiramente
inteiras
inteiro
inteiros
intel
intelecto
intelectuais
intelectual
intelige
inteligente
inteligentes
intellectual
intelligence
intelsat
intenc
intencional
intencionalmente
intendente
intensa
intensamente
intensas
intensidade
intensificac
intensificar
intensificou
intensiva
intenso
intensos
intento
inter
interac
interactions
interactive
interagem
interagir
interativa
interativo
interca
interceptac
intercontinental
interdisciplinar
interessa
interessada
interessadas
interessado
interessados
interessante
interessantes
interessar
interesse
interesses
interessou
interest
interface
interfaces
interfere
interferir
interinamente
interino
interior
interiores
interli
interme
intermedia
intermitentes
interna
internac
internacionais
internacional
internacionalmente
internado
internal
internamente
internas
international
internationale
internato
internazionale
internet
interno
internos
interpreta
interpretac
interpretada
interpretadas
interpretado
interpretados
interpretando
interpretar
interpretation
interpretou
interrogato
interrompe
interromper
interrompeu
interrompida
interrompido
interrupc
interscope
intersec
intersecc
intervalo
intervalos
interveio
intervenc
interventor
interview
interviews
intervir
intestinal
intestino
intimamente
intimidade
intitulada
intitulado
into
intolera
intoxicac
intra
intransitivo
intri
intrigas
intro
introduc
introduction
introduz
introduzida
introduzidas
introduzido
introduzidos
introduzindo
introduzir
introduziu
intron
intuic
intuito
inu
inundac
inva
invade
invadida
invadido
invadir
invadiram
invadiu
invasa
invasion
invaso
invasor
invasores
inve
inveja
invenc
invenci
inventa
inventada
inventado
inventor
inventou
inverno
invernos
inversa
inverso
invertebrados
investe
investido
investidor
investidores
investiga
investigac
investigado
investigador
investigadores
investigados
investigar
investigation
investigou
investimento
investimentos
investir
investiu
investment
invicta
invicto
invisi
invisible
invocac
involunta
io
ioc
ion
ionala
iorque
ioruba
ios
iowa
ip
ipa
ipanema
ipatinga
ipe
iphan
iphone
ipiranga
ipni
ir
ira
iracema
irak
iran
iranian
iraniana
iraniano
iranianos
iraq
iraque
iraquiano
ire
irei
ireland
irem
irene
iria
iriam
irina
irineu
iris
irish
irlanda
irlande
irlandesa
irlandeses
irma
irmandade
iro
iron
ironia
ironicamente
irregular
irregulares
irregularidades
irreversi
irrigac
irrita
irritac
irritado
irvine
irving
irwin
is
isa
isaac
isabel
isabela
isabella
isabelle
isai
isaura
isbn
ise
isenc
isidoro
isidro
isis
isla
islam
islamic
islamismo
island
islande
islands
isle
ismael
ismail
isn
iso
isolada
isoladas
isolado
isolados
isolamento
isolar
israel
israelense
israelenses
israeli
israelita
israelitas
iss
issn
isso
issue
issues
ist
istambul
istanbul
istat
istituto
isto
istoe
isu
it
ita
itaipu
itajai
italia
italian
italiana
italianas
italiano
italianos
italy
itamar
itamaraty
itapemirim
itatiaia
itau
item
itens
iterac
itf
ithaca
itinera
itis
ito
its
itu
itunes
itv
iu
iucn
iucnredlist
iugosla
iulis
iv
iva
ivan
ivete
ivo
ivoire
ivy
ix
iz
izabel
j
ja
jabuti
jacare
jacarepagua
jacarta
jacinto
jack
jackie
jackson
jacksonville
jaco
jacob
jacobs
jacqueline
jacques
jade
jae
jaguar
jaime
jair
jairo
jake
jakob
jam
jamaica
jamais
james
jamie
jamming
jan
jana
jane
janeiro
janela
janelas
janet
jang
jansen
jantar
janua
january
janvier
japa
japan
japanese
japone
japonesa
japonesas
japoneses
jar
jaragua
jardas
jardi
jardim
jardins
jared
jarvis
jason
jasper
jato
jatos
java
javascript
javier
jay
jayme
jazeera
jazz
jb
jbc
jc
jd
je
jean
jeanne
jeans
jedi
jeff
jefferson
jeffrey
jeito
jejum
jemen
jen
jena
jenkins
jenna
jenner
jennifer
jennings
jenny
jens
jensen
jeong
jeova
jeremias
jeremy
jericho
jero
jeroen
jerome
jerry
jersey
jerusale
jerusalem
jess
jesse
jessica
jessie
jesu
jesui
jesus
jet
jets
jewish
jews
jg
jh
ji
jia
jiang
jill
jim
jime
jimenez
jimmy
jin
jinping
jitsu
jiu
jj
jk
jm
jma
jn
jo
joa
joachim
joan
joana
joanna
joanne
joao
joaqui
joaquim
joaquina
job
jobim
jobs
jocelyn
joe
joel
joelho
joelhos
joey
joga
jogabilidade
jogada
jogadas
jogado
jogador
jogadora
jogadores
jogados
jogam
jogando
jogar
jogara
jogaram
jogava
jogo
jogos
jogou
johan
johann
johanna
johannes
johansson
john
johnny
johns
johnson
johnston
joia
joias
join
joins
joint
joinville
jojo
jolie
jon
jonah
jonas
jonathan
jones
jong
joo
joon
jor
jorda
jordan
jordi
jorge
jornada
jornadas
jornais
jornal
jornali
jornalismo
jornalista
jornalistas
jose
josef
josefa
josefina
josefo
josep
joseph
josephine
josh
joshua
josue
jota
journal
journey
jovem
jovens
joy
joyce
jp
jpg
jpl
jr
js
jstor
jtwc
ju
jua
juan
juarez
juazeiro
jubileu
juca
juda
judai
judaica
judaicas
judaico
judas
judd
jude
judeu
judeus
judge
judia
judicia
judiciais
judicial
judith
judo
judy
jugo
jui
juiz
jul
jules
julga
julgado
julgados
julgamento
julgamentos
julgar
julgou
julho
julia
julian
juliana
juliano
julie
julien
julieta
juliette
julio
julius
july
jump
jun
junc
jundiai
june
jung
jungle
junho
juni
junior
juniores
juniors
juno
junqueira
junta
juntam
juntamente
juntando
juntar
juntaram
juntas
junto
juntos
juntou
jupiter
jura
jurado
jurados
juramento
jurassic
jure
juri
jurisdic
jurisprude
jurista
juristas
juro
juros
jus
jusbrasil
juscelino
juss
just
justa
justamente
justic
justice
justifica
justificac
justificar
justificativa
justin
justiniano
justino
justo
justos
juvenil
juvenis
juventude
juventus
k
ka
kafka
kahn
kai
kaiser
kamen
kamerun
kan
kanada
kane
kang
kanji
kansas
kant
kanye
kap
kaplan
kappa
kara
karate
kardec
karen
karin
karina
karl
karla
karlsruhe
karol
kart
kas
kat
kata
katar
kate
katherine
kathleen
kathryn
kathy
katie
kato
katrina
katy
katz
kaufman
kay
kazakhstan
kazan
kazhdan
kb
kbs
kc
kde
ke
keaton
keep
kei
keith
keller
kelley
kelly
kelvin
ken
kendall
kendrick
kenia
kennedy
kenneth
kenny
kent
kentucky
kenya
kepler
kernel
kerr
kerry
kevin
kew
key
keynes
keys
kg
khalifa
khan
khmer
khz
ki
kia
kick
kid
kidd
kids
kiel
kiev
kiko
kill
killed
killer
killers
killing
kills
kim
kimberly
kimi
kind
king
kingdom
kings
kingston
kira
kirby
kirchner
kiribati
kirk
kiss
kit
kitchen
kits
kitts
kitty
kk
klaus
kleber
klein
km
kn
knew
knicks
knight
knights
knopf
know
knowledge
knowles
known
knox
knyga
ko
kobayashi
kobe
koch
kodansha
kofi
kogut
kok
kombat
konami
kondolojy
kong
kongo
konrad
kore
korea
korean
kos
kosovo
kotaku
kr
kra
kramer
krause
kreis
kreise
kremlin
kreuz
kreuzes
kriegsmarine
kris
kristen
kristensen
kro
kroll
kru
ksie
ku
kuba
kubitschek
kuiper
kumar
kun
kung
kunze
kurt
kusnetzova
kuwait
kv
kw
ky
kyiv
kyle
kylie
kyo
kyoto
kyu
kyung
l
la
lab
laba
labas
label
labelo
labirinto
labor
laborato
laboratory
labour
labrador
labs
lac
lacerda
lachemilla
lactarius
lacuna
lacunas
ladeira
laden
ladies
lado
lados
ladra
ladro
lady
lae
lafayette
laga
lagarto
lagartos
lage
lages
lago
lagoa
lagoas
lagos
laguna
lai
laje
lajes
lake
lakers
lakes
lam
lama
lamar
lamas
lamb
lambda
lambert
lamego
lamenta
lamo
lampia
lan
lana
lanc
lancaster
lance
lances
lancet
land
landau
lander
landesamt
landesbetrieb
landesmuseen
landfall
landing
lands
landscape
lane
lang
lange
langle
language
languages
lanka
lanterna
lao
laos
lapa
lar
lara
laranja
laranjas
laranjeiras
lares
larga
largada
largamente
largas
large
largest
largo
largos
largou
largura
larissa
larousse
larry
lars
larsen
larson
larsson
larva
larvas
las
laser
last
lata
latas
late
later
laterais
lateral
latest
latim
latin
latina
latinas
latino
latinos
latitude
latitudes
lato
latra
lattes
latvia
lau
laudo
launch
launches
laura
laureado
laurel
lauren
laurence
laurent
laurie
lauro
lausanne
lava
lavagem
lavar
lavigne
lavoura
lavouras
lavras
law
lawrence
laws
lawson
lay
layout
lazer
lazio
lb
lbum
lbuns
lc
lca
lcio
lcool
lculo
lculos
ld
lda
lder
ldica
ldots
le
lea
lead
leader
leaders
leadership
leading
leads
league
leah
leais
leal
lealdade
leandro
learn
learned
learning
least
leave
leaves
leaving
lebanon
leben
lebre
lebres
lec
lecionar
lecionou
leclerc
lecture
lectures
led
lee
leeds
left
leg
lega
legacy
legado
legais
legal
legalidade
legalizac
legalmente
legend
legenda
legendary
legendas
legends
legi
legia
legio
legion
legiona
legislac
legislador
legislativa
legislativas
legislative
legislativo
legislativos
legislatura
legislaturas
legitimidade
lego
legume
legumes
leguminosa
lei
leia
leibniz
leicester
leida
leiden
leigh
leigos
leila
leipzig
leiria
leis
leita
leite
leito
leitor
leitores
leitos
leitte
leitura
leituras
lema
lembra
lembrada
lembrado
lembram
lembranc
lembrando
lembrar
lembrava
lembre
lembro
lembrou
leme
lemos
len
lena
lenc
lencastre
lenda
lendas
lendo
length
lenha
lenin
leningrado
lennon
lenny
lenta
lentamente
lente
lentes
lento
lentos
leo
leoa
leon
leona
leonard
leonardo
leone
leonel
leonid
leonor
leopardo
leopold
leopoldina
leopoldo
leos
lepido
lepidoptera
leq
leque
ler
lera
leroy
les
lesa
lesbian
lescharts
lesionado
lesley
leslie
lesnar
leso
lesotho
lesoto
less
lessa
lessons
leste
lester
let
leta
letal
leti
leto
letra
letras
letrista
letter
letters
lettres
leu
leucemia
lev
leva
levada
levadas
levado
levados
levam
levando
levanta
levantada
levantadas
levantado
levantamento
levantando
levantar
levantaram
levante
levantou
levar
levara
levaram
levaria
levava
levavam
leve
level
levemente
leves
levi
levin
levine
levou
levy
lewis
lex
lexicon
lexikon
lexington
ley
lez
lfia
lg
lgara
lgaro
lgaros
lgbt
lgebra
lgica
lh
lha
lhe
lhes
lho
li
lia
liam
lias
lib
libane
libanon
libe
liber
libera
liberac
liberada
liberado
liberados
liberais
liberal
liberalismo
liberar
liberation
liberdade
liberdades
liberia
liberou
liberta
libertac
libertad
libertada
libertado
libertador
libertadores
libertados
libertar
liberty
libia
libra
libraries
library
libras
libre
libreto
libri
libro
libya
lic
lica
licas
lice
licenc
licenciada
licenciado
licenciados
licenciamento
licenciatura
licenciou
license
lices
liceu
lici
licitac
lico
licos
lida
lidar
lidas
lidera
liderada
lideradas
liderado
liderados
lideranc
liderando
liderar
lideraram
liderou
lido
lidos
lie
liechtenstein
lies
life
lifetime
liga
ligac
ligada
ligadas
ligado
ligados
ligam
ligando
ligar
ligas
ligava
ligeira
ligeiramente
ligeiro
light
lightning
lights
ligne
ligou
ligue
like
lil
lila
lili
lilian
lille
lillian
lily
lim
lima
limeira
limi
limiar
liminar
limit
limita
limitac
limitada
limitadas
limitado
limitados
limitando
limitar
limite
limited
limites
limitou
limits
limoeiro
limpa
limpar
limpeza
limpo
lin
lina
lincoln
linda
lindas
lindl
lindo
lindsay
lindsey
line
linear
lineares
lines
lineu
lineup
linfa
linfo
ling
lingu
lingua
linguagem
linguagens
lingui
linguista
linguistic
linguistics
linha
linhagem
linhagens
linhares
linhas
linho
link
linkedin
linkin
links
linnaean
linnaeus
linnean
lino
lins
linux
linz
lio
lion
lionel
lions
lios
lipa
lipi
liquidac
lira
liricamente
lis
lisa
lisboa
lisbon
lise
lises
liso
list
lista
listada
listadas
listado
listados
listagem
listar
listas
listen
listing
listou
listras
lists
liszt
lit
lita
lite
litera
literacia
literal
literalmente
literary
literatura
literature
lites
liti
lito
litora
litoral
litos
litro
litros
little
littlefield
litu
litua
lituania
lituano
liturgia
liu
liv
live
liverpool
lives
living
livingston
livramento
livrar
livraria
livre
livremente
livres
livro
livros
lix
lixo
liz
lkerung
lkerungsstandes
ll
lla
llc
lle
ller
lloyd
lm
ln
lo
loba
lobato
lobby
lobisomem
lobo
lobos
loc
locac
locais
local
localidade
localidades
localiza
localizac
localizada
localizadas
localizado
localizados
localizam
localizar
localizava
localmente
location
lock
lockdown
locke
lockheed
loco
locomoc
locomotiva
locomotivas
locuc
locus
locutor
lodge
log
loga
logan
logar
logements
logi
logic
login
logo
logos
logotipo
loira
loire
lois
loja
lojas
loki
lola
lolita
lombardi
lombardia
lombardo
lon
london
londres
londrina
lone
lonely
long
longa
longas
longe
longevidade
longi
longitude
longitudinal
longman
longo
longos
look
looking
looks
loop
lope
lopes
lopez
lopo
lor
lord
lorde
lordes
lords
lorena
lorenz
lorenzo
loreto
lori
lorraine
los
lose
loss
lost
lot
lote
loteamento
loteria
lotes
lott
lotus
lou
louc
louca
louco
loucos
loucura
loud
louis
louise
louisiana
louisville
loule
lourdes
loureiro
lourenc
loures
louro
lousa
louvor
louvre
lovato
love
loved
lover
lovers
loves
loving
low
lowe
lowell
lower
loyola
lp
ls
lson
lst
lt
ltd
ltda
ltica
ltico
ltima
ltimas
ltimo
ltimos
ltipla
ltiplas
ltiplo
ltiplos
lu
lua
luan
luana
luanda
luar
luas
lublin
luc
luca
lucas
luce
lucena
lucero
luci
lucia
luciana
luciano
lucien
lucinda
lucio
lucius
luck
lucky
lucrativos
lucre
lucro
lucros
lucy
ludovico
ludwig
luer
luftwaffe
lugar
lugares
lugo
lui
luigi
luis
luisa
luisiana
luiz
luiza
luka
lukas
luke
lula
lulas
lulu
lume
luminosa
luminosidade
luminoso
luna
lunar
lund
lundberg
lupin
lusa
lusi
lusita
lusitana
lusitano
luso
lusofonia
luta
lutador
lutadores
lutam
lutando
lutar
lutaram
lutas
lutava
luterana
lutero
luther
luthor
luto
lutou
lutz
luva
luvas
lux
luxembourg
luxemburgo
luxo
luz
luzes
luzia
lv
lvares
lvarez
lvaro
lver
lvia
lvio
lvora
lvula
lvulas
ly
lydia
lynch
lyndon
lynn
lynx
lyon
lyons
lyra
lyrics
m
ma
mabel
mac
maca
macaco
macacos
macae
macapa
macau
macdonald
macedo
macedonia
maceio
mach
machado
machine
machines
macho
machos
macia
macic
maciel
mack
mackenzie
macmillan
maco
maconha
macro
macron
mactutor
mad
madaga
madagascar
madagaskar
madalena
madame
made
madeira
madeiras
madeirense
madeleine
mades
madison
madness
madonna
madrasta
madre
madri
madrid
madrinha
madrugada
madura
madureira
maduro
mae
maestro
mafalda
mafia
mafra
mag
magalha
magazine
magda
magdalena
mage
maggie
magia
magic
magiste
magistrado
magistrados
magistratura
magma
magna
magne
magnetic
magnetismo
magni
magnitude
magno
magnum
magnus
mago
magos
magra
magro
magyar
magyarorsza
mahasz
mai
maia
maias
maiden
mail
mails
main
maine
mainstream
mainz
maio
maior
maiorca
maiores
maioria
maioridade
maioritariamente
mais
maison
maiu
majestade
major
majorita
majoritariamente
make
maker
makes
making
mal
mala
malaca
malaio
malas
malawi
malaysia
malcolm
maldade
maldic
maldita
maldito
maldivas
maldives
maldonado
male
males
malha
malhac
mali
maligno
malik
mall
mallon
malmo
malone
malta
malte
maltin
maluf
malvinas
mam
mama
mamede
mami
mammal
mammals
man
mana
management
manager
manaus
mancebo
mancha
manchas
manchester
manchete
manchu
mancini
manda
mandado
mandados
mandamento
mandamentos
mandando
mandante
mandar
mandarim
mandato
mandatos
mandava
mandela
mandi
mandioca
mando
mandou
mane
maneira
maneiras
manejo
manfred
manga
mangane
mangas
mangueira
manha
manhattan
mani
mania
manifesta
manifestac
manifestantes
manifestar
manifesto
manifestou
manila
manipulac
manipular
manitoba
mann
manning
mano
manobra
manobras
manoel
manor
mans
mansa
mansfield
manso
manson
mante
manteiga
mantendo
mantenha
manter
manteve
mantida
mantidas
mantido
mantidos
mantinha
mantinham
mantiveram
manto
manu
manuais
manual
manualmente
manuel
manuela
manufacturing
manufatura
manuscrito
manuscritos
manut
manutenc
many
mao
maome
map
mapa
mapas
mapeamento
maplandia
mapping
maps
maputo
maquiagem
maquina
mar
mara
maraba
maracana
maradona
maranha
maranhense
maras
marathon
maratona
maravilha
maravilhas
maravilhosa
maravilhoso
marc
marca
marcac
marcada
marcadas
marcado
marcador
marcadores
marcados
marcam
marcando
marcante
marcantes
marcar
marcaram
marcas
marcel
marcela
marcelino
marcello
marcelo
march
marcha
marchar
marchas
marche
marchou
marcia
marciais
marcial
marciano
marcio
marco
marcondes
marconi
marcos
marcou
marcus
mare
marechal
mares
marfim
margaret
margarida
margarita
margem
margens
marginais
marginal
margot
marguerite
mari
maria
mariah
marian
mariana
marianas
marianne
mariano
marido
maridos
marie
marilyn
marin
marina
marine
marinespecies
maringa
marinha
marinhas
marinheiro
marinheiros
marinho
marinhos
marino
mario
marion
mariposa
marisa
marismas
maritime
marius
marjorie
mark
market
marketing
markku
marks
marktest
markus
marlene
marley
marlon
marne
maroc
marokko
maroon
marque
marques
marquesa
marquez
marquinhos
marriage
married
marrocos
marrom
marroquino
mars
marseille
marselha
marsh
marshall
mart
marta
marte
martelo
martha
marti
martial
martim
martin
martina
martindale
martinez
martinho
martini
martino
martins
marty
marvel
marvin
marx
marxismo
marxista
marxistas
mary
maryland
marzo
mas
mascarenhas
mascote
masculina
masculinas
masculino
masculinos
mask
mason
mass
massa
massachusetts
massacre
massacres
massagem
massas
massimo
massive
master
masterizac
masters
mastro
mat
mata
matado
matador
matagal
matam
matanc
matando
matar
mataram
matarazzo
matas
match
matches
mate
matema
mateo
mater
materia
materiais
material
materialismo
materials
materna
maternidade
materno
maternos
mateus
math
mathbb
mathbf
mathcal
mathematical
mathematics
matheus
mathias
mathrm
matias
matilde
mato
matos
matosinhos
matou
matri
matriculou
matrimo
matrix
matriz
matrizes
matt
matteo
matter
matters
matthew
matthews
matthias
mattos
maturac
maturidade
mau
maua
maureen
mauri
maurice
mauricio
maurita
mauritania
mauritius
mauro
maus
mausole
maverick
max
maxi
maxim
maximilian
maximiliano
maxwell
may
maya
mayer
maynard
mayo
mayor
mb
mba
mbar
mbc
mbia
mbio
mbito
mbolo
mbolos
mbox
mbria
mc
mccain
mccarthy
mccartney
mccoy
mcdonald
mcdonnell
mcfarland
mcgee
mcgill
mcgraw
mcintyre
mckay
mclaren
mclaughlin
mclean
mcmahon
md
mdb
me
mea
mead
meados
mean
meaning
means
meas
mec
meca
mecanismo
mecanismos
mechanics
mecklemburgo
med
meda
medal
medalha
medalhas
medalhista
medalhistas
mede
medeiros
medelli
medem
media
mediac
mediana
medianet
mediante
medic
medicac
medical
medicamento
medicamentos
medici
medicina
medicinais
medicinal
medicine
medida
medidas
medido
medien
medievais
medieval
medina
medindo
medio
medir
meditac
mediterra
mediterranean
medium
medley
medo
medos
medula
meet
meeting
meets
meg
mega
megan
meghan
mei
meia
meias
meiji
meio
meios
meira
meireles
meirelles
mejor
mel
mela
melanco
melancolia
melanie
melbourne
melhor
melhora
melhorada
melhorado
melhoramento
melhoramentos
melhorando
melhorar
melhores
melhoria
melhorias
melhorou
melissa
mello
melo
melodia
melodias
melodrama
melody
melon
melvin
mem
member
members
membrana
membranas
membro
membros
meme
memo
memoir
memoirs
memora
memoria
memorial
memoriam
memorias
memories
memory
memphis
men
mena
menc
menciona
mencionada
mencionadas
mencionado
mencionados
mencionar
mencionou
mendes
mendonc
mendoza
mene
meneses
menezes
menina
meninas
menino
meninos
meno
menor
menores
menos
mensageiro
mensagem
mensagens
mensais
mensal
mensala
ment
mentais
mental
mentalidade
mentalmente
mente
mentes
mentir
mentira
mentiras
mentor
menu
meo
meos
mer
mera
meramente
meras
mercado
mercador
mercadores
mercadoria
mercadorias
mercados
mercante
mercantil
merce
mercedes
mercena
mercer
mercosul
mercu
mercury
mercy
merece
merecem
meredith
mergulho
meridiano
meridional
merlin
mero
meros
merriam
merrill
merriman
merry
mes
mesa
mesas
meses
mesma
mesmas
mesmo
mesmos
mesopota
mesorregia
mesquita
mesquitas
message
messenger
messi
messias
messier
messina
mestic
mestra
mestrado
mestre
mestres
met
meta
metabo
metabolismo
metacritic
metade
metafi
metais
metal
metallica
metalu
metano
metas
metcalf
meteorolo
meteorologia
meteorological
meteorologie
meteorology
meter
method
methods
meto
metodista
metodolo
metodologia
metodologias
metragem
metragens
metralhadora
metralhadoras
metres
metro
metropolita
metropolitan
metropolitana
metropolitanas
metropolitano
metros
metz
meu
meus
mexer
mexican
mexicana
mexicano
mexicanos
mexico
meyer
mez
mg
mga
mgm
mhz
mi
mia
miami
mianmar
mias
mic
mica
micas
mice
michael
michaelis
michaels
michel
michelangelo
michele
michelle
michigan
mick
mickey
mico
micos
micro
microbiology
microfone
microne
microrregia
microsco
microsoft
mid
mida
midas
middle
middleton
mide
mides
midi
midia
midland
midnight
mido
midos
midway
mie
mifflin
mig
might
mighty
migrac
migrantes
migraram
migration
migrato
migrou
miguel
mika
mike
mikhail
mil
mila
milagre
milagres
milan
milano
mile
miles
miley
milha
milhares
milhas
milho
mili
miliona
milita
militante
militantes
militar
militares
military
milk
mill
millennium
miller
million
mills
milos
milton
milwaukee
mim
mimi
mimosaceae
min
mina
minaj
minamoto
minas
mind
minds
mine
mineira
mineiro
mineiros
minerac
minerais
mineral
minerva
ming
minh
minha
minhas
minho
mini
miniatura
minimizar
mining
minisse
ministe
minister
ministerial
ministerio
ministra
ministro
ministros
ministry
minneapolis
minnesota
minogue
minor
minoria
minorias
minorita
minsk
minu
minuta
minute
minutes
minuto
minutos
mio
mios
mir
mira
miracle
miradouro
mirage
miranda
mirante
miriam
mirim
miro
mirror
mis
mise
misera
miserico
miss
missa
missas
missile
missing
mission
missiona
mississippi
misso
missouri
mista
mistas
miste
mister
misteriosa
misterioso
misticismo
misto
mistos
mistura
misturado
misturando
misturar
misturas
mit
mitch
mitchell
mito
mitolo
mitologia
mitos
mitra
mitsubishi
mitteleuropa
miu
mix
mixagem
mixed
mixtape
miz
mj
mk
ml
mlb
mls
mm
mma
mmajunkie
mme
mn
mnet
mnras
mo
moacyr
mobile
mobilia
mobilidade
mobilizac
mobot
moc
mocidade
mod
moda
modalidade
modalidades
mode
model
modelagem
modelo
modelos
models
moderada
moderadamente
moderado
moderados
modern
moderna
modernas
modernidade
modernismo
modernista
modernizac
moderno
modernos
modesta
modesto
modifica
modificac
modificada
modificadas
modificado
modificados
modificar
modificou
modo
modos
modulac
modular
moe
moeda
moedas
mogi
mohamed
mohammad
mohammed
moi
moinho
moinhos
moise
mojo
mol
mola
molda
molde
moldes
moldova
moldura
mole
molecular
moleculares
molho
molina
molluscabase
molly
molusco
moluscos
mom
moment
momento
momentos
moments
mon
mona
monaco
monako
monarca
monarcas
monarquia
monaste
monc
monday
monde
mondego
mondo
moneta
money
monge
monges
mongo
mongol
mongolia
monica
monique
monitor
monitoramento
monitorar
monitores
monitoring
moniz
monk
monkey
mono
monografia
monographs
monopo
monoti
monroe
mons
monsenhor
monster
monsters
monstro
monstros
mont
monta
montada
montadas
montado
montados
montagem
montana
montanha
montanhas
montanhosa
montanhosas
montanhoso
montante
montar
monte
monteiro
montemor
montenegro
monterrey
montes
montevide
montevideo
montgomery
month
monthly
months
monti
montou
montpellier
montre
montreal
montserrat
monumental
monumento
monumentos
monuments
monza
moody
moon
moore
mor
mora
morada
moradia
moradias
morador
moradores
moraes
morais
moral
morales
moralidade
moralmente
moram
moran
morando
morar
morava
moravam
morcego
morcegos
mordomo
more
moreira
morena
moreno
morfolo
morfologia
morgado
morgan
mori
moritz
morley
morning
moro
morocco
morou
morphology
morre
morrem
morrendo
morrer
morrera
morreram
morreu
morrido
morris
morrison
morro
morros
morrow
morse
mort
morta
mortais
mortal
mortalidade
mortas
morte
mortes
morto
morton
mortos
morumbi
mos
mosaico
mosaicos
mosca
moscas
moscou
moscovo
moscow
moses
moshe
mosquito
mosquitos
moss
mossoro
most
mosteiro
mosteiros
mostra
mostrada
mostradas
mostrado
mostrados
mostram
mostrando
mostrar
mostraram
mostras
mostrava
mostravam
mostrou
mota
motel
mother
moths
motim
motion
motivac
motivada
motivado
motivo
motivos
motivou
moto
motocicletas
motogp
motor
motores
motorista
motoristas
motors
motorsport
motos
motta
mount
mountain
mountains
moura
mouro
mouros
mouse
mouth
move
movem
movement
movendo
mover
moves
moveu
movia
movida
movido
movidos
movie
movies
movimentac
movimentado
movimentar
movimento
movimentos
moving
mozambique
mozart
mozilla
mp
mpada
mpadas
mpago
mpar
mpb
mpeto
mpf
mph
mpia
mpica
mpicas
mpico
mpicos
mpio
mpla
mr
mrs
ms
msn
mt
mtern
mtv
mu
muc
much
muda
mudado
mudam
mudanc
mudando
mudar
mudaram
mudas
mude
mudo
mudos
mudou
muerte
muhammad
mui
muita
muitas
muito
muitos
mujer
mujeres
mula
mulas
mulher
mulheres
muller
mulo
mulos
multa
multas
multi
multida
multido
multiesportivos
multijogador
multime
multimi
multinacional
multiplayer
multiple
multiplicac
multishow
mun
mundi
mundiais
mundial
mundialmente
mundo
mundos
munic
munich
munici
municipais
municipal
municipalidade
municipality
municipio
municipios
munique
muniz
mur
murais
mural
muralha
muralhas
murder
murilo
murmurou
muro
muros
murphy
murray
mus
musa
muscular
musculares
muse
museo
museolo
museu
museum
museus
music
musica
musicais
musical
musicale
musicalmente
musicline
musik
musique
musk
muslim
mussolini
must
mustafa
mutac
mutante
mutantes
mutuamente
muy
mv
mvp
mw
mx
my
myanmar
mycosphaerella
myers
myself
myspace
mysterio
mysterious
mystery
myth
mythology
n
na
nabla
nabuco
nac
nach
nacio
nacionais
nacional
nacionalidade
nacionalidades
nacionalismo
nacionalista
nacionalistas
nacionalmente
naco
nad
nada
nadador
nadadora
nadal
nadar
nadia
nadine
nado
nadu
nagar
nagasaki
nages
nahum
nai
nakamura
naked
nalti
naltis
nam
namco
name
named
names
nami
namibia
namo
namorada
namorado
namorados
namorar
namoro
namorou
nan
nana
nancy
nando
nano
nanquim
nantes
nao
naomi
napolea
napoleo
napoleon
napoli
naquela
naquele
naqueles
nar
nara
narciso
nariz
narra
narrac
narrador
narrativa
narrativas
narrative
naruto
nas
nasa
nasal
nascar
nasce
nascem
nascente
nascentes
nascer
nasceram
nasceu
nascida
nascido
nascidos
nascimento
nascimentos
nash
nashville
nassau
nasser
nast
nat
nata
natac
natal
natalia
natalidade
natalie
natasha
nate
natelinha
nathan
nathaniel
nation
national
nationale
nationalism
nations
nativa
nativas
native
natividade
nativo
nativos
nato
natur
natura
naturais
natural
naturalidade
naturalista
naturalizado
naturalmente
nature
natureza
nau
naufra
naughty
nauru
naus
navais
naval
navarra
navarro
nave
navega
navegac
navegador
navegadores
navegar
naver
naves
navio
navios
navsource
navy
nazare
nazareth
nazi
nazionale
nazis
nazismo
nazista
nazistas
nba
nbb
nbc
nc
ncaa
ncavo
ncbi
ncer
nchen
nchez
ncia
ncias
ncio
ncios
ncipe
ncipes
ncis
ncora
nct
nculo
nculos
nd
ndalo
ndalos
nde
ndega
nder
ndez
ndia
ndias
ndice
ndices
ndico
ndida
ndido
ndio
ndios
ndola
ndrome
ndula
ndulas
ne
nea
neal
near
nearly
neas
nebraska
nebre
nebulosa
necessa
necessariamente
necessidade
necessidades
necessita
necessitam
necro
ned
nederland
nederlandse
need
needs
neerlande
neerlandesa
neerlandeses
neg
nega
negac
negado
negar
negativa
negativamente
negativas
negativo
negativos
neglige
nego
negociac
negociado
negociante
negociar
negociou
negou
negra
negras
negreiros
negrito
negro
negros
nei
neil
neill
neis
neiva
nel
nela
nelas
nele
neles
nell
nella
nellie
nelly
nelson
nem
nen
nene
nenhum
nenhuma
neo
neocla
neoli
neon
neos
neotropical
neozelande
nepal
neptunian
neq
ner
nerd
nero
neros
nervo
nervos
nervosa
nervoso
nery
nes
nese
nesis
nessa
nessas
nesse
nesses
nesta
nestas
neste
nestes
nestle
nestor
net
neta
netflix
netherlands
neto
netos
nets
netto
netuno
network
networks
neue
neumann
neural
neuro
neurocie
neurolo
neuroscience
neutra
neutralidade
neutro
nevada
neve
never
neves
neville
nevis
new
newark
newcastle
newell
newman
newport
news
newsletter
newspaper
newspapers
newsweek
newton
next
nexus
ney
neymar
nez
nfase
nfc
nfl
ng
nga
ngara
ngaro
ngaros
ngc
ngel
ngela
ngelo
nger
ngia
ngo
ngua
nguas
ngue
ngulo
ngulos
nguyen
nh
nha
nhamos
nhc
nhk
nhl
nho
ni
nia
nias
nibus
nic
nica
nicara
nicaragua
nicas
nice
niceia
nicho
nicholas
nicholls
nichols
nicholson
nichos
nick
nickelodeon
nicki
nicky
nico
nicola
nicolas
nicolau
nicole
nicolson
nicos
nida
nidas
nie
niei
nielsen
niemeyer
nietzsche
nig
nige
nigel
niger
nigeria
nigeriano
night
nightmare
nights
nih
nihon
nike
nikita
nikki
nikolai
nil
nilo
nilson
nilton
nima
nimas
nime
nimo
nimos
nin
nina
nine
nineteenth
ningue
ninguem
ninho
ninhos
ninja
nino
nintendo
nio
nion
nior
nios
nipo
nippon
nirvana
nis
nissan
nisso
nisto
nita
nitero
nito
nitroge
niue
nix
nixon
nj
nk
nl
nm
nme
no
noaa
noah
nobel
nobelprize
nobilia
nobiliarchico
noble
nobody
nobre
nobres
nobreza
noc
nocaute
nocc
noche
nodo
noe
noel
nogueira
noir
noise
noite
noites
noiva
noivado
noivo
noivos
nokia
nola
nolan
nom
noma
nomas
nome
nomeac
nomeada
nomeadamente
nomeadas
nomeado
nomeados
nomeando
nomear
nomeia
nomenclatura
nomenclature
nomeou
nomes
nomina
nominais
nominal
nominations
nominativo
nominees
nomo
nomos
non
nona
none
nones
nono
nonstop
nor
nora
norbert
norberto
norceca
nord
nordeste
nordestino
norfolk
norma
normais
normal
normalmente
norman
normandia
normandos
normas
noroeste
noronha
norris
norske
norstedts
norte
north
northern
northwest
norton
noruega
noruegue
norueguesa
norway
norwegian
norwegiancharts
norwich
nos
nossa
nossas
nosso
nossos
nostalgia
not
nota
notabilizou
notac
notadamente
notado
notar
notaram
notas
notavelmente
note
notes
nothing
noti
notice
notices
noticia
noticias
notificac
noto
notoriedade
notou
notov
notre
nottingham
noturna
noturnas
noturno
noturnos
nous
noutras
noutros
nouveau
nouvelle
nov
nova
novaes
novak
novamente
novas
novato
nove
novel
novela
novelas
novels
november
novembre
novembro
noventa
novi
novidade
novidades
novo
novos
now
nozes
np
npr
nr
ns
nsa
nscrito
nseca
nsia
nsito
nso
nster
nsul
nsula
nsules
nt
ntano
ntanos
ntara
ntegra
nter
ntese
nteses
nther
ntia
ntica
nticas
ntico
nticos
ntida
ntima
ntimo
ntimos
ntios
ntrica
ntrico
ntua
ntulas
nu
nua
nuas
nuclear
nucleares
nudez
nueva
nuevo
nuggets
nula
null
nulo
nulos
num
numa
number
numbers
nume
numerac
numeral
numero
numerosa
numerosas
numerosos
nun
nunca
nunes
nuno
nuo
nuos
nuovo
nuremberg
nus
nutric
nutrientes
nutrition
nuvem
nuvens
nwa
nxt
ny
nyc
nytimes
nyve
nz
o
oa
oab
oada
oado
oak
oakland
oaks
oamento
oar
oasis
ob
oba
obama
obce
obedecer
obedie
obelisco
obenberger
obero
obesidade
obitua
obituary
objec
object
objectivo
objectivos
objecto
objectos
objects
objetiva
objetivo
objetivos
objeto
objetos
oblast
obli
obra
obras
obriga
obrigac
obrigada
obrigado
obrigados
obrigando
obrigar
obrigato
obrigatoriamente
obrigatoriedade
obrigou
obs
obscura
obscuro
observa
observac
observada
observadas
observado
observador
observadores
observados
observam
observando
observar
observaram
observations
observato
observatory
observe
observer
observou
obsessa
obsoleto
obsoletos
obsta
obstante
obstruc
obte
obtem
obtenc
obtendo
obter
obteve
obtida
obtidas
obtido
obtidos
obtiveram
obviamente
obyvatel
oc
oca
ocasia
ocasio
ocasionais
ocasionalmente
occita
occitano
ocea
ocean
oceania
oceanic
oceano
oceanos
och
ocidentais
ocidental
ocidente
oclc
oco
ocorra
ocorre
ocorrem
ocorrendo
ocorrer
ocorrera
ocorreram
ocorreria
ocorreu
ocorria
ocorrida
ocorridas
ocorrido
ocorridos
oct
octa
october
octopus
ocular
oculta
ocultar
oculto
ocupa
ocupac
ocupada
ocupadas
ocupado
ocupados
ocupam
ocupando
ocupantes
ocupar
ocuparam
ocupava
ocupavam
ocupou
oda
odd
ode
odebrecht
odeia
odemira
odeon
oder
odessa
odin
odisseia
odo
odontologia
odor
odos
odyssey
oe
oeiras
oeste
of
ofensa
ofensiva
ofensivas
ofensivo
oferece
oferecem
oferecendo
oferecer
ofereceram
ofereceu
oferecia
oferecida
oferecidas
oferecido
oferecidos
oferta
ofertas
off
offensive
office
officer
official
officially
officials
offs
offshore
ofi
oficiais
oficial
oficiales
oficializa
oficializado
oficialmente
oficina
oficinas
ofuxico
og
oglobo
ogol
oh
ohio
oi
oil
oiro
ois
oise
oitava
oitavas
oitavo
oitenta
oito
ok
okinawa
oklahoma
ol
ola
olaf
olaria
olavo
old
oldest
ole
olga
olha
olhando
olhar
olhares
olhava
olhe
olho
olhos
olhou
oli
olimpi
olimpo
olinda
oliva
olive
oliveira
oliver
olivia
olivier
olo
olos
olsen
olson
olympedia
olympia
olympic
olympics
olympio
olympique
om
oma
oman
omar
ombro
ombros
omega
omelete
omi
omissa
omnibus
omniglot
oms
on
onaria
onave
onc
once
onda
ondas
onde
one
ones
ong
ongoing
ongs
oni
online
only
ono
onofrio
ons
onta
ontario
ontem
onthophagus
onu
onwards
onze
oo
oou
op
opc
opcional
ope
open
opening
opens
opera
operac
operacionais
operacional
operada
operado
operador
operadora
operadoras
operadores
operados
operam
operando
operar
operation
operations
operatorname
operava
operou
opinia
opinio
opinion
opo
opole
oponente
oponentes
opor
oportunidade
oportunidades
oposic
opositor
opositores
oposta
opostas
oposto
opostos
opposition
opressa
ops
optar
optaram
option
optou
opus
opuseram
or
ora
orac
oracle
orador
orais
oral
orange
orato
orbigny
orbit
orbita
orbitais
orbital
orc
orchard
orchestra
orchid
orchidaceae
orchidacearum
ordem
ordena
ordenac
ordenada
ordenado
ordenados
ordenamento
ordenanc
ordenando
ordenar
ordenou
ordens
order
orders
ordina
ore
oregon
orelha
orelhas
ores
orestes
orfanato
orfeu
org
orga
organic
organisation
organismo
organismos
organista
organiza
organizac
organizacional
organizada
organizadas
organizado
organizador
organizadora
organizadores
organizados
organizam
organizando
organizar
organizaram
organization
organizou
orgulho
orgulhoso
ori
oriana
oriano
orianos
oricon
orient
orienta
orientac
orientada
orientado
orientados
orientais
oriental
orientar
oriente
orifi
origem
origens
origin
origina
originado
originais
original
originalidade
originalmente
originals
originou
origins
orion
oriunda
oriundas
oriundo
oriundos
orixa
orla
orlando
orle
orlea
orleans
ornamentais
ornamental
ornamentos
ornitologia
oro
orquestra
orquestras
orqui
orrell
ortega
orthodox
ortiz
ortodoxa
ortodoxia
ortodoxo
ortodoxos
ortogra
ortografia
orton
os
osa
osaka
osasco
osborne
oscar
oscars
oscilac
osi
oskar
oslo
osmar
oso
osprey
osso
ossos
ost
ostenta
osvaldo
oswald
oswaldo
ota
otan
otaviano
otelo
other
others
otimista
otimizac
otis
otomana
otomano
otomanos
ottawa
otto
ou
ouc
our
ouric
ouro
ouros
ousadia
ousado
out
outeiro
outer
outlook
outono
outorga
outra
outras
outrem
outro
outrora
outros
outside
outstanding
outubro
ouve
ouvi
ouvia
ouvida
ouvidas
ouvido
ouvidor
ouvidos
ouvindo
ouvinte
ouvintes
ouvir
ouviram
ouviu
ouvrard
ov
ova
oval
ovelha
ovelhas
over
overdose
overline
overview
ovi
oviedo
ovo
ovos
owen
owens
own
oxford
oxidac
oxige
oxo
oz
ozinho
p
pa
pabllo
pablo
pac
pacaembu
pace
pacers
pacheco
paci
pacie
paciente
pacientes
pacific
pack
package
packers
paco
pacote
pacotes
pacto
padilha
padra
padrasto
padre
padres
padrinho
padro
padroeira
padroeiro
padronizac
pae
paes
pag
paga
pagamento
pagamentos
pagando
pagantes
pagar
pagas
pagasa
page
pages
pagina
paglinawan
pago
pagode
pagos
pagou
pai
paige
pain
paine
painel
painting
paio
pairs
pais
paisagem
paisagens
paisagi
paiva
paixa
paixo
paiz
pak
pakistan
pal
pala
palace
palacete
palacio
palais
palas
palatinado
palatino
palau
palavra
palavras
palazzo
palco
palcos
pale
paleo
paleoli
paleonto
paleontologia
paleontology
palermo
palestina
palestine
palestino
palestinos
palestra
palestrante
palestras
palgrave
palha
palhac
pallas
palm
palma
palmare
palmares
palmas
palmeira
palmeiras
palmela
palmer
palmira
palo
paloma
pam
pamela
pampa
pamplona
pan
panama
panchayat
panda
pandemia
pandora
panel
panela
panfletos
panic
panini
pano
panora
panorama
panos
pantanal
pantea
pantera
panther
panzer
paola
paolo
papa
papado
papagaio
papai
papais
papal
papas
pape
papeis
papel
paper
paperback
papers
papiro
papo
papua
paquista
par
para
parabe
parada
paradas
parade
paradeiro
paradigma
paradise
parado
paradoxo
paraense
paragem
paraguai
paraguaia
paraguaio
paraguaios
paraguay
parai
paraibano
paralela
paralelamente
paralelas
paralelo
paralelos
parali
paralisac
paralisia
paralympic
param
paramore
paramount
parana
paranaense
paranagua
paraquedistas
parar
pararam
parasita
parasitas
parceira
parceiro
parceiros
parcela
parcelas
parceria
parcerias
parciais
parcial
parcialmente
pardal
pardo
pardos
pare
parec
parece
parecem
parecendo
parecer
pareceu
parecia
pareciam
parecida
parecidas
parecido
parecidos
pareda
parede
paredes
parente
parentes
parentesco
parents
pares
pari
paridade
paris
parish
parisiense
park
parker
parkinson
parks
parlamentar
parlamentares
parlamento
parliament
parma
parnai
paro
paroquial
parou
parque
parques
parra
parsons
part
parta
parte
partem
partements
partes
parti
partial
partic
partici
participa
participac
participado
participam
participando
participante
participantes
participar
participara
participaram
participava
participou
particular
particulares
particularidades
particularmente
partida
partidas
partido
partidos
parties
partilha
partindo
partir
partiram
partitura
partituras
partiu
partner
partners
partnership
parto
parts
party
pas
pascal
pascoal
paso
pass
passa
passada
passadas
passado
passados
passageiro
passageiros
passagem
passagens
passam
passando
passaporte
passaportes
passar
passara
passaram
passarela
passarem
passaria
passarinho
passasse
passava
passavam
passe
passear
passei
passeio
passeios
passes
passi
passion
passiva
passivo
passo
passos
passou
past
pasta
pastagens
paste
pasto
pastor
pastoral
pastores
pat
pata
patamar
patas
patch
patent
patente
patentes
paterna
paternidade
paterno
paternos
patetas
path
patients
patinac
patins
pato
patolo
patologia
patos
patra
patri
patria
patriarca
patriarcado
patriarcal
patricia
patrick
patrimo
patrimonial
patrio
patriota
patriotismo
patriots
patro
patroci
patrocinado
patrocinador
patrocinadores
patrol
patrono
patrulha
patterns
patterson
patton
pau
paul
paula
pauli
paulina
pauline
paulinho
paulino
paulista
paulistana
paulistano
paulistas
paulo
pauly
paus
pausa
pauta
pava
pavel
pavia
pavilha
pavimento
pavimentos
pax
pay
payne
pays
paysandu
paz
pb
pbs
pc
pcb
pcc
pcdob
pci
pcia
pcias
pcio
pcios
pcp
pd
pdf
pds
pdt
pe
pea
peace
peak
pearce
pearl
pearson
pec
pecado
pecados
peck
pecua
peculiar
peda
pedac
pedago
pedagogia
pede
pedem
pedersen
pedes
pedestres
pedi
pedia
pedido
pedidos
pedindo
pedir
pediram
pediu
pedra
pedras
pedreira
pedreiro
pedro
pedrosa
pedroso
peer
peerage
pega
pegando
pegar
pegasus
peggy
pego
pegou
peito
peixe
peixes
peixoto
pejorativo
pela
pelagem
pelas
pele
peles
peli
pelo
peloponeso
pelos
pelota
pelotas
pelourinho
pen
pena
penafiel
penais
penal
penalidade
penalidades
penas
pendente
pendentes
penedo
penetrac
penetrar
penguin
penha
peni
peniche
peninsula
peninsular
penite
penitencia
penn
penna
pennsylvania
penny
pensa
pensado
pensador
pensadores
pensam
pensamento
pensamentos
pensando
pensar
pensava
pense
pensei
pensilva
penske
penso
pensou
penta
penteado
pentecostal
penu
peo
people
peoples
pepe
pepino
pepper
peppers
pequena
pequenas
pequeno
pequenos
pequim
per
pera
perante
peras
perca
percebe
percebem
percebendo
perceber
perceberam
percebeu
percebida
percebido
percentagem
percentual
percepc
percepti
percorre
percorrendo
percorrer
percorreu
percurso
percursos
percussa
percy
perda
perdas
perde
perdedor
perdem
perdendo
perder
perdera
perderam
perdeu
perdi
perdia
perdida
perdidas
perdido
perdidos
perdoa
perdoar
peregrinac
peregrino
peregrinos
pereira
perene
peres
perez
perfect
perfeic
perfeita
perfeitamente
perfeito
perfil
perfis
perform
performance
performances
perfume
perfumes
perfurac
pergaminho
pergunta
perguntado
perguntando
perguntar
perguntas
perguntou
peri
perie
perife
periferia
perigo
perigos
perigosa
perigosas
perigoso
perigosos
perio
period
periodicamente
perito
perkins
permane
permanec
permanece
permanecem
permanecendo
permanecer
permanecera
permaneceram
permaneceria
permaneceu
permanecia
permanecido
permanent
permanente
permanentemente
permanentes
permissa
permita
permite
permitem
permitia
permitiam
permitida
permitido
permitidos
permitindo
permitir
permitira
permitiram
permitiria
permitiu
perna
pernambucana
pernambucano
pernambuco
pernas
pero
perpe
perpendicular
perro
perry
persa
persas
persegue
perseguic
perseguido
perseguidos
perseguir
perseu
perseus
persian
persiste
persistente
person
persona
personagem
personagens
personal
personalidade
personalidades
personality
personificac
perspectiva
perspectivas
perspective
perspectives
pertenc
pertence
pertencem
pertencendo
pertencente
pertencentes
pertencer
pertenceu
pertencia
pertenciam
perth
perto
perturbac
peru
peruana
peruano
pesa
pesada
pesadas
pesadelo
pesado
pesados
pesando
pesar
pesava
pesca
pescador
pescadores
pescoc
peso
pesos
pesquisa
pesquisador
pesquisadora
pesquisadores
pesquisar
pesquisas
pessoa
pessoais
pessoal
pessoalmente
pessoas
pestana
peste
pet
pete
peter
peters
petersburg
petersburgo
peterson
petic
petit
petra
petro
petrobras
petroli
petrus
petski
petty
peugeot
peyton
pez
pf
pfalz
pfl
pflanzen
pg
ph
phane
phantom
pharrell
phase
phd
phi
phil
philadelphia
philatlas
philip
philipp
philippe
philippine
philippines
philips
phillip
phillips
philosophical
philosophie
philosophy
phoebe
phoenix
phone
phonographic
phonographique
photo
photography
photos
php
phylogenetic
phylogenetics
phylogeny
phys
physical
physics
physiology
phytochem
pi
pia
piada
piadas
pianista
piano
pias
piaui
piauiense
piazza
pib
pic
pica
picada
picas
picasso
pice
pick
picks
pico
picos
picto
picture
pictures
pid
pida
pidas
pide
pido
pidos
pie
piece
pieces
piedade
piemonte
pier
pierce
piero
pierre
pieter
pietro
pike
pilar
pilares
pilha
pilot
piloto
pilotos
pilots
pimenta
pimentel
pin
pina
pinacoteca
pine
ping
pinhal
pinheiro
pinheiros
pinho
pink
pino
pinos
pinta
pintada
pintadas
pintado
pintados
pintar
pinto
pintor
pintora
pintores
pintou
pintura
pinturas
pinyin
pio
pioneer
pioneira
pioneiras
pioneiro
pioneiros
pior
piores
pios
piotr
pipa
pipe
piper
pique
piquet
pira
piracicaba
pirai
pirata
pirataria
piratas
pirates
pirene
pires
pis
pisa
piscina
piscinas
piso
pisos
pista
pistas
pistola
pistolas
pistons
pit
pita
pitbull
pitchfork
pitching
piter
pitkin
pitt
pittsburgh
piu
pivo
pixar
pixel
pixels
pizarro
pizza
pj
pl
pla
placa
placar
placas
place
places
plain
plan
plana
planalto
planas
planck
plane
planeamento
planeja
planejada
planejado
planejamento
planejando
planejar
planejava
planejou
planet
planeta
planetary
planetas
planets
plani
planning
plano
planos
plans
plant
planta
plantac
plantar
plantarum
plantas
plantbase
plantel
plantio
plants
plasma
plastic
plastid
plata
plataforma
plataformas
plate
plateia
platform
platina
platinum
plato
plausi
play
playboy
player
players
playing
playoff
playoffs
plays
playstation
plaza
plc
pleasant
please
plebe
plebiscito
pleito
plena
plenamente
pleno
pleurothallidinae
pleurothallis
pli
plica
plicas
plice
plos
plot
plumagem
plumas
plural
plus
pluta
plutarco
pluto
pluviome
plymouth
pm
pmc
pmdb
pmid
pnas
pneumonia
pneus
pnud
po
poa
poaceae
poblacio
pobre
pobres
pobreza
poc
poca
pocas
pocket
podcast
pode
podem
podemos
podendo
poder
podera
poderem
poderes
poderi
poderia
poderiam
poderosa
poderosas
poderoso
poderosos
podes
podia
podiam
podl
podzun
poe
poeira
poema
poemas
poems
poente
poesia
poesias
poeta
poetas
poetisa
poetry
pohlavia
point
points
pois
poke
pokemon
poker
pol
pola
polaca
polaco
poland
polar
polares
polarizac
pole
polegadas
polegar
poles
poli
police
policia
policiais
policial
policiamento
policy
poline
polino
polinomial
poliomielite
polis
polish
polite
politica
political
politicamente
politico
politics
politique
poll
polo
polone
polonesa
poloneses
polonia
polos
polpa
polska
poluentes
poluic
polygon
polygram
polyrhachis
pomar
pomba
pombal
pombo
pomera
pompeia
pompeu
ponce
ponderada
pondo
pone
pont
ponta
pontas
ponte
ponteiro
pontes
pontevedra
ponti
pontifi
pontificado
ponto
pontos
pontuac
pony
pool
poor
pop
popa
pope
popline
popmatters
popolazione
populac
populacionais
populacional
popular
populares
popularidade
popularizac
popularizou
popularmente
populated
population
populations
populosa
populoso
por
pora
porc
porcelana
porcentagem
porco
porcos
pore
porem
porfi
porn
porno
pornogra
pornografia
porquanto
porque
porsche
port
porta
portable
portador
portadores
portais
portal
portalegre
portanto
portaria
portas
porte
portela
porter
portfo
portima
portland
porto
portos
portrait
portsmouth
portua
portugal
portugue
portugues
portuguesa
portuguesas
portuguese
portugueses
portuguez
portugueza
porventura
pos
pose
posic
posicionado
posicionamento
posicionou
position
positions
positiva
positivamente
positivas
positive
positivismo
positivo
positivos
possa
possam
posse
posses
possessa
possesso
possi
possibilidade
possibilidades
possibilita
possibilitando
possibilitar
possibilitou
possible
possivel
possivelmente
posso
possua
possuem
possui
possuindo
possuir
post
posta
postais
postal
postas
poste
poster
posterior
posteriores
posteriormente
posto
postos
postou
posts
postumamente
postura
pot
pota
pote
potenciais
potencial
potencialmente
potente
potential
potiguar
potter
pouca
poucas
pouco
poucos
pound
poupanc
pour
pousada
pousar
pouso
poverty
povo
povoac
povoada
povoado
povoados
povoamento
povos
pow
powell
power
powerful
powers
pp
ppen
ppp
pps
ppv
pr
pra
prac
practical
practice
practices
pradesh
prado
prados
praga
pragas
pragma
praia
praias
prairie
pranchas
pranto
prata
pratica
praticada
praticado
praticados
praticam
praticamente
praticante
praticantes
praticar
praticou
prato
pratos
pratt
prayer
prazer
prazeres
prazo
prazos
pre
prec
preca
precauc
precede
precedente
precedentes
precedido
preceitos
preciosa
preciosas
precioso
preciosos
precipitac
precisa
precisam
precisamente
precisamos
precisar
precisas
precisava
precisavam
preciso
precisos
precisou
precoce
preconceito
preconceitos
precursor
precursores
predador
predadores
predators
predecessor
predefinic
predomina
predominante
predominantemente
preencher
preenchido
prefa
prefeita
prefeito
prefeitos
prefeitura
prefeituras
prefere
preferem
preferencialmente
preferia
preferida
preferido
preferindo
preferiu
prefixo
prega
pregac
pregador
pregar
prego
preguic
prejudicado
prejudicar
prejudicial
prejui
prelado
preliminar
preliminares
preliminary
prelu
prematura
premiac
premiada
premiado
premiados
premie
premier
premiere
premiership
premio
premios
premissa
premissas
premium
prende
prender
prendeu
prenome
prensa
prentice
preocupa
preocupac
preocupada
preocupado
preocupados
preocupante
preocupar
prepara
preparac
preparada
preparado
preparados
preparam
preparando
preparar
preparativos
preparato
preparava
preparo
preparou
preposic
pres
presa
presas
presbi
presbite
presbiteriana
prescric
presenc
present
presente
presented
presentes
presents
preserva
preservac
preservada
preservadas
preservado
preservados
preservar
presi
preside
presidencia
presidenciais
presidencial
president
presidenta
presidente
presidentes
presidential
presidida
presidido
presidir
presidiu
presley
preso
presos
press
pressa
presse
pressionado
pressionar
presso
pressure
presta
prestac
prestado
prestados
prestando
prestar
prestes
presti
preston
prestou
presume
presumivelmente
preta
pretas
prete
pretende
pretendem
pretendente
pretendentes
pretendia
pretendiam
pretensa
pretenso
pretexto
preto
pretor
pretos
pretty
prevale
preve
prevenc
prevendo
prevenir
prevention
preventiva
prever
previa
previamente
previde
preview
previsa
previsi
previso
prevista
previstas
previsto
previstos
previu
prey
prf
pri
pria
prias
priberam
price
pride
pridgeon
priest
prima
primariamente
primary
primas
primatas
primavera
prime
primeira
primeiramente
primeiras
primeiro
primeiros
primer
primera
primetime
primitiva
primitivas
primitivo
primitivos
primo
primoge
primordial
primos
prince
princesa
princesas
princess
princeton
princi
principado
principais
principal
principalmente
principe
principio
principles
print
printing
prio
prior
prioridade
prioridades
priorita
prios
prisa
priscila
priscilla
prisioneiro
prisioneiros
prisma
priso
prison
pristimantis
privac
privacidade
privada
privadas
privado
privados
private
privatizac
privile
privilegiada
privilegiado
prix
prize
prizes
pro
proa
probabilidade
probabilidades
problem
problema
problemas
problems
proc
procede
proceder
procedeu
procedimento
procedimentos
proceedings
process
processado
processador
processadores
processados
processamento
processar
processes
processing
processo
processos
processual
procissa
proclamac
proclamada
proclamado
proclamou
proco
procura
procurado
procurador
procuradores
procuradoria
procuram
procurando
procurar
procuraram
procurava
procuravam
procurou
procyclingstats
prodi
produc
produce
producer
product
production
productions
productores
products
produtiva
produtivas
produtividade
produtivo
produto
produtor
produtora
produtoras
produtores
produtos
produz
produzem
produzia
produzida
produzidas
produzido
produzidos
produzindo
produzir
produziram
produziu
proemine
proeminente
proeminentes
proenc
prof
profecia
professional
professor
professora
professores
profeta
profetas
profile
profiles
profissa
profissionais
profissional
profissionalismo
profissionalizou
profissionalmente
profisso
profunda
profundamente
profundas
profundidade
profundo
profundos
progno
program
programa
programac
programada
programado
programador
programadores
programas
programme
programming
programs
progress
progressa
progressista
progressistas
progressiva
progressivamente
progressive
progressivo
progresso
progressos
proi
proibic
proibida
proibidas
proibido
proibidos
proibir
proibiu
proje
projec
project
projecto
projectos
projects
projeta
projetada
projetadas
projetado
projetados
projetar
projeto
projetos
projetou
prol
prole
proleta
proletariado
proli
proliferac
prolongada
prolongado
prolongamento
promessa
promessas
promete
prometendo
prometeu
prometheus
prometida
prometido
promise
promissor
promo
promoc
promocionais
promocional
promotor
promotores
promove
promovem
promovendo
promover
promoveu
promovida
promovidas
promovido
promovidos
promulgac
promulgada
pronome
pronomes
pronta
prontamente
pronto
prontos
pronu
pronuncia
pronunciado
pronunciamento
pronunciar
proof
propagac
propaganda
properties
property
propi
propina
propo
propondo
propor
proporc
proporciona
proporcional
proporcionando
proporcionar
proporcionou
proposic
proposta
propostas
proposto
propostos
propria
propriamente
propriedade
propriedades
proprieta
proprio
propulsa
propunha
propuseram
prorrogac
pros
prosa
prosopography
prosperidade
prossegue
prosseguir
prosseguiu
prost
prostituic
prostituta
prostitutas
prota
protagonista
protagonistas
protagonizada
protagonizado
protagonizou
protec
protecc
protected
protection
protege
protegendo
proteger
protegida
protegidas
protegido
protegidos
protei
protein
protest
protestante
protestantes
protestantismo
protestar
protesto
protestos
protests
protetor
protetora
protetorado
proto
protocol
protocolo
protocolos
prova
provado
provar
provas
provavelmente
prove
provedor
provedores
proveito
provenc
provence
proveniente
provenientes
prover
provi
provide
providence
province
provincia
provinciais
provincial
provisa
provisional
proviso
provisoriamente
provoca
provocac
provocada
provocado
provocam
provocando
provocar
provocaram
provocou
provou
proximidade
proximidades
prp
prt
pru
prude
prudente
prussiana
prussiano
ps
psa
psb
psc
psd
psdb
pseudo
psg
psi
psia
psicana
psico
psicode
psicolo
psicologia
psicoterapia
psiquia
psiquiatra
psiquiatria
psl
psol
psp
psula
psychiatry
psycho
psychological
psychology
pt
ptb
pteis
ptero
pteros
ptica
pticas
ptico
pticos
ptolemeu
ptolomeu
pts
pu
pub
publ
public
publica
publicac
publicacoes
publicada
publicadas
publicado
publicados
publicamente
publicando
publicar
publicaram
publication
publications
publicidade
publicita
publico
publicou
publique
published
publisher
publishers
publishing
puc
pucci
pude
puder
puderam
pudesse
pudessem
puebla
pueblo
puerto
pula
pular
pulas
pulitzer
pulma
pulmo
pulmonar
pulo
pulos
pulso
pulsos
puma
punch
punha
punho
punic
punido
punir
punjab
punk
punta
pura
puramente
puras
pure
pureza
purificac
puro
puros
purple
pus
puseram
push
pussycat
put
putin
putnam
puxa
puxar
puzzle
pv
pw
pwi
pwinsider
pwtorch
py
python
q
qaeda
qatar
qi
qing
qquad
qu
qua
quad
quadra
quadrada
quadradas
quadrado
quadrados
quadrangular
quadras
quadril
quadrilha
quadrinhos
quadro
quadros
quaes
quais
quaisquer
qual
qualidade
qualidades
qualificac
qualificada
qualificado
qualificados
qualificar
qualification
qualificato
qualificou
qualifying
quality
qualquer
quando
quanta
quantas
quantia
quantidade
quantidades
quanto
quantos
quantum
quarenta
quarentena
quaresma
quarta
quartas
quarte
quarteira
quartel
quarterback
quarterly
quarteto
quarto
quartos
quartzo
quase
quasi
quatorze
quatro
quatrocentos
que
quebec
quebra
quebrada
quebrado
quebrando
quebrar
quebrou
queda
quedas
queen
queens
queensland
queer
quei
queijo
queima
queimada
queimadas
queimado
queimados
queimar
queira
queiro
queiroz
queixa
queixas
queixo
quel
quela
quele
queles
quem
quen
quente
quentes
quentin
quer
querem
queremos
querendo
querer
queres
queria
queriam
querida
querido
quero
query
quesito
quest
questa
question
questiona
questionada
questionado
questionam
questionar
questionou
questions
questo
quete
qui
quia
quias
quick
quico
quida
quido
quidos
quie
quiet
quieve
quilo
quilombo
quilos
quina
quinas
quincy
quinhentos
quinn
quinta
quintal
quintana
quintas
quinteto
quinto
quinze
quio
quioto
quirguista
quis
quiser
quisesse
quite
quito
quixote
quiz
quo
quociente
quota
r
ra
raaf
raamat
rabbit
rabe
rabes
rabi
rabino
rabo
rac
race
racer
rachel
raciais
racial
racing
racioci
racionais
racional
racismo
racista
racistas
radar
radiac
radial
radialista
radiation
radicado
radicais
radical
radicalmente
radio
radiodifusa
radiofo
rae
raf
rafael
rafaela
rage
rahman
rai
raia
raid
raiders
rail
railroad
railway
raimundo
rain
rainbow
rainer
rainha
rainhas
raio
raios
raiva
raiz
raja
rajadas
ral
rale
ralf
rali
rally
ralph
ram
rama
ramal
ramalho
rami
ramificac
ramirez
ramiro
ramo
ramon
ramos
rampa
rams
ramsay
ramsey
ran
rana
rancho
rand
randall
randolph
random
randy
range
rangel
ranger
rangers
rangle
rank
ranked
ranking
rankings
raoul
rap
rapariga
raparigas
rapaz
rapazes
rape
raphael
rapid
rapidamente
rapidez
rapids
raposa
raposo
rapper
rappers
raptors
raquel
rara
raramente
raras
rard
rare
raro
raros
ras
rasa
rascunho
rasmussen
rasos
rastreamento
rastrear
rat
rate
ratificac
rating
ratings
ratinho
ration
rato
ratos
ratp
rau
raul
raven
ravena
raw
rax
ray
raymond
raza
razo
razoa
razoavelmente
rb
rbara
rbaro
rbaros
rbd
rbio
rbios
rbita
rbitas
rbitro
rbitros
rbs
rc
rca
rcere
rchb
rcia
rcio
rcios
rcito
rcitos
rcules
rculo
rculos
rd
rda
rdia
rdica
rdico
rdicos
rdio
rdios
rdoba
rdova
re
rea
reabertura
reabilitac
reac
reacc
reach
reaction
read
reader
reading
ready
reagan
reage
reagir
reagiu
reais
real
realc
realeza
realidade
realidades
realismo
realista
realistas
reality
realiza
realizac
realizada
realizadas
realizado
realizador
realizados
realizam
realizando
realizar
realizaram
realizava
realizavam
realizou
really
realmente
reas
reason
reasoning
reasons
reator
reatores
rebaixada
rebaixado
rebaixados
rebaixamento
rebanho
rebanhos
rebatizado
rebeca
rebecca
rebel
rebelde
rebeldes
rebelia
rebelio
rebellion
rebelo
rebels
reboot
rebotes
rebro
rec
recado
recanto
recap
rece
recebe
recebem
recebendo
receber
recebera
receberam
receberia
recebeu
recebi
recebia
recebiam
recebida
recebidas
recebido
recebidos
recebimento
receio
receita
receitas
recenseamento
recenseamentos
recensement
recent
recente
recentemente
recentes
recepc
receptor
receptores
recessa
recheio
reci
reciclagem
recife
recifes
recinto
recipiente
recipients
reclamac
reclamar
reclamou
reclusa
reco
recognition
recolha
recolher
recolheu
recolhido
recolhidos
recolhimento
recomec
recomenda
recomendac
recomendada
recomendado
recomendou
recompensa
recompensas
reconciliac
reconhece
reconhecem
reconhecendo
reconhecer
reconheceram
reconheceu
reconheci
reconhecida
reconhecidas
reconhecido
reconhecidos
reconhecimento
reconquista
reconstruc
reconstrui
reconstruir
recopa
record
recorda
recordac
recordar
recorde
recorded
recordes
recording
recordings
recordista
records
recordtv
recorre
recorrente
recorrentes
recorrer
recorreu
recovery
recreac
recreation
recreativa
recreativo
recreio
recruta
recrutado
recrutamento
recrutar
recta
recuar
recuo
recuou
recupera
recuperac
recuperada
recuperado
recuperados
recuperando
recuperar
recuperaram
recuperou
recurso
recursos
recusa
recusado
recusando
recusar
recusaram
recusou
red
redac
redacc
redator
rede
redemption
redenc
redentor
redes
redetv
redireciona
redistricting
redonda
redondo
redor
reduc
redundantes
reduto
reduz
reduzida
reduzidas
reduzido
reduzidos
reduzindo
reduzir
reduziu
reed
reeder
reedic
reeditado
reeleic
reeleito
reencarnac
reestruturac
reeve
reeves
ref
refe
refeic
refeito
refere
referem
reference
references
referencial
referendo
referente
referentes
referia
referida
referidas
referido
referidos
referindo
referir
referiu
refinado
refinaria
reflections
reflete
refletem
refletindo
refletir
refletiu
refletor
reflexa
reflexo
reflexos
reforc
reform
reforma
reformada
reformadas
reformado
reformador
reformar
reformas
reformulac
refra
refrigerante
refs
refu
refugiados
reg
regatas
rege
regenerac
regente
reggae
regia
regime
regiment
regimento
regimentos
regimes
regina
reginald
reginaldo
regio
region
regionais
regional
regions
regis
registada
registado
register
registered
registo
registos
registou
registra
registrada
registradas
registrado
registrados
registram
registrando
registrar
registraram
registro
registros
registrou
regni
rego
regra
regras
regravac
regravada
regressa
regressar
regresso
regressou
regula
regulac
regulador
regulamentac
regulamentar
regulamento
regulamentos
regular
regulares
regularidade
regularmente
regulation
rei
reich
reid
reign
reigns
reilly
reimpressa
reims
reina
reinado
reinados
reinaldo
reinante
reino
reinos
reinou
reintroduc
reis
reitor
reitoria
reivindicac
reivindicar
reivindicou
rejeic
rejeita
rejeitada
rejeitado
rejeitar
rejeitou
rela
relac
relaciona
relacionada
relacionadas
relacionado
relacionados
relacionam
relacionamento
relacionamentos
relacionar
relanc
relata
relatada
relatadas
relatado
relatados
relatam
relatar
relataram
related
relation
relations
relationship
relationships
relativa
relativamente
relativas
relatividade
relativo
relativos
relato
relator
relatos
relatou
relay
release
released
releases
relembra
relembre
releva
relevante
relevantes
relevo
relevos
reli
relief
religia
religio
religion
religions
religiosa
religiosas
religiosidade
religioso
religiosos
religious
relo
rem
remains
remake
remanescente
remanescentes
reme
remember
remete
remington
reminisce
remix
remixes
remo
remoc
remodelac
remonta
remontam
remorso
remota
remotas
remoto
remotos
remove
remover
removeu
removida
removidas
removido
removidos
remunerac
ren
rena
renaissance
renal
renan
renascenc
renascentista
renascer
renascimento
renata
renato
renault
renda
rendas
rende
render
renderam
rendeu
rendic
rendimento
rendimentos
rene
renewed
renner
rennes
reno
renomado
renomados
renome
renomeada
renomeado
renova
renovac
renovada
renovado
renovar
renovou
renu
renuncia
renunciar
renunciou
reo
reorganizac
reos
rep
reparac
reparar
reparo
reparos
repartic
repente
repentina
repentinamente
repercussa
repert
reperto
repescagem
repete
repetic
repetida
repetidamente
repetidas
repetido
repetidos
repetindo
repetir
repetiu
repleta
repleto
replicac
repo
report
reportagem
reportagens
reporter
reportou
reports
reposic
reposito
repouso
represa
representa
representac
representada
representadas
representado
representados
representam
representando
representante
representantes
representar
representativa
representativo
representava
representavam
representou
repressa
reprimir
reprint
reprinted
reprise
reproduc
reprodutiva
reproduz
reproduzir
repu
repubblica
republic
republica
republicado
republican
republicana
republicano
republicanos
republik
republika
reputac
requer
requerem
requerimento
requiem
requisic
requisito
requisitos
rer
res
rescue
research
resende
resenha
resenhas
reserva
reservada
reservado
reservas
reservato
reserve
resfriamento
resgata
resgatado
resgatados
resgatar
resgate
resi
reside
residem
residenciais
residencial
resident
residente
residentes
residia
residindo
residir
residiu
resistance
resiste
resistente
resistentes
resistir
resistiu
resoluc
resolution
resolve
resolver
resolveram
resolveu
resolvida
resolvido
resolvidos
resort
resource
resources
respectiva
respectivamente
respectivas
respectivo
respectivos
respeita
respeitado
respeitando
respeitar
respeito
respetivamente
respirac
respirar
respirato
responde
respondem
respondendo
responder
responderam
respondeu
respondia
responsa
responsabilidade
responsabilidades
response
responses
resposta
respostas
ressalta
ressaltar
ressaltou
ressentimento
ressona
ressurreic
rest
resta
restabelecer
restam
restante
restantes
restaurac
restaurada
restaurado
restaurante
restaurantes
restaurar
restauro
restaurou
restava
restinga
resto
restos
restric
restringir
restrita
restrito
result
resulta
resultado
resultados
resultam
resultando
resultante
resultantes
resultar
resultaram
resultou
results
resume
resumo
reta
retaguarda
retaliac
retangular
retas
rete
retenc
reter
retina
retira
retirada
retiradas
retirado
retirados
retirando
retirar
retiraram
retire
retirem
retiro
retirou
reto
retoma
retomada
retomado
retomar
retomou
retorna
retornado
retornam
retornando
retornar
retornaram
retornaria
retorno
retornou
retrata
retratada
retratado
retratam
retratando
retratar
retrato
retratos
retratou
retrieval
retrieved
retro
retrospectiva
return
returno
returns
reu
reunia
reunida
reunidas
reunido
reunidos
reunificac
reunindo
reunio
reunion
reunir
reuniram
reuniu
reuso
reuters
rev
revanche
reve
reveal
revealed
reveals
revela
revelac
revelada
revelado
revelados
revelam
revelando
revelar
revelaram
revelou
revenge
rever
revere
reverendo
reversa
reverso
reverter
revestido
revestimento
revezamento
review
reviews
revisa
revisada
revisado
revised
revisio
revision
revisited
reviso
revista
revistas
revitalizac
revival
reviver
revo
revogac
revolta
revoltas
revoltosos
revoluc
revoluciona
revolution
revolutionary
revolver
revue
rex
rey
reyes
reynolds
rez
reza
rezar
rezende
rf
rfa
rfc
rft
rg
rga
rgamo
rgen
rgia
rgica
rgicas
rgico
rgicos
rgio
rgula
rh
rheinland
rho
rhode
rhodes
rhythm
ri
ria
riaa
riacho
riachos
riachuelo
rias
riba
ribas
ribeira
ribeiras
ribeiro
ric
rica
ricamente
ricardo
ricas
riccardo
ricci
ricco
rice
rich
richard
richards
richardson
richie
richmond
richter
rick
ricky
ricles
rico
ricos
rida
ridas
riddle
ride
rider
rides
ridge
ridi
ridley
rido
rie
riemann
ries
rifle
rifles
riga
right
rightarrow
rights
rigidez
rigidula
rigo
rigor
rigorosa
rigoroso
rigos
rihanna
rika
ril
riley
rim
rima
rin
rindo
ring
ringer
ringo
rings
ringue
rins
rio
rione
rios
riot
rip
ripley
riqueza
riquezas
rir
ris
risco
riscos
rise
rises
rising
risk
riso
rita
ritas
ritchie
ritmo
ritmos
rito
ritos
ritter
ritterkreuzes
ritterkreuztra
rituais
ritual
rivais
rival
rivalidade
rivalidades
rivals
rivas
river
rivera
riverdale
rivers
rj
rk
rko
rlts
rm
rma
rmaco
rmacos
rmica
rmicas
rmico
rmino
rmore
rms
rmula
rmulas
rn
rna
rnia
rnico
rnio
ro
road
rob
robbie
robbins
robert
roberta
roberto
roberts
robertson
robin
robinson
robo
robot
robson
robusta
robusto
roc
roca
rocco
rocha
rochas
roche
rochedo
rochester
rochosas
rock
rockefeller
rocket
rockets
rocks
rockstar
rocky
roco
rococo
rod
roda
rodada
rodadas
rodado
rodagem
rodar
rodas
rode
rodeada
rodeado
rodes
rodgers
rodney
rodolfo
rodovia
rodovias
rodri
rodrigo
rodrigues
rodriguez
roedor
roedores
roge
roger
rogers
rogue
roh
roi
rojas
rojo
rola
roland
rolando
rolas
role
rolf
roll
rolling
rollins
rolls
rolo
rom
roma
romain
roman
romana
romanas
romance
romances
romancista
romani
romania
romaniz
romanizac
romano
romanos
romantismo
romaria
rome
romena
romeno
romeo
romero
romeu
romoleroux
rompe
romper
rompeu
rompimento
ron
ronald
ronaldo
ronda
rondo
rondon
ronnie
rookie
room
rooney
roosevelt
root
roots
roque
roraima
rory
ros
rosa
rosaceae
rosado
rosario
rosas
rose
rosemary
rosen
rosenberg
roses
roskov
ross
rossi
rosso
roster
rosto
rostos
rota
rotac
rotas
roteirista
roteiristas
roteiro
roteiros
roterda
roth
rothschild
rotina
rotten
rotterdam
rouba
roubada
roubado
roubados
roubar
roubo
roubos
roubou
rouge
rough
round
rounds
roupa
roupas
rousseau
rousseff
route
routledge
rover
rovers
rovi
row
rowan
rowland
rowling
rowman
roxa
roxo
roy
royal
royale
royce
rp
rpg
rpia
rpm
rprete
rpretes
rpura
rquez
rquica
rquicas
rquico
rquicos
rr
rrea
rreas
rrego
rregos
rreo
rrez
rs
rsega
rsei
rsia
rsias
rsico
rss
rsssf
rsula
rt
rtaro
rte
rtebras
rteis
rter
rteres
rtex
rtica
rtice
rtices
rtico
rtida
rtil
rtir
rtires
rtp
rttemberg
ru
rua
ruanda
ruas
rube
ruben
rubens
rubi
rubia
rubin
rubio
rubro
ruby
rude
rudeltaktik
rudolf
rudolph
rudy
rue
rufino
rufus
rugby
rui
ruim
ruins
ruivo
ruiz
rule
rules
rum
rumble
rumo
rumor
rumores
rumos
run
runner
running
runs
rupert
rupestres
ruptura
rurais
rural
rus
rush
rusia
russ
russa
russas
russel
russell
russia
russian
russo
russos
russula
ruta
rute
ruth
rutherford
ruy
rvia
rvio
rvios
rvore
rvores
rwanda
ry
ryan
ryder
ryo
ryu
rzea
s
sa
saara
saba
sabbath
sabe
sabedoria
sabem
sabemos
sabendo
saber
sabes
sabesp
sabia
sabiam
sabido
sabina
sabino
saboia
sabor
sabores
sabre
sabrina
sacerdo
sacerdotal
sacerdote
sacerdotes
sachs
sachsen
saco
sacos
sacra
sacramento
sacramentos
sacred
sacrifi
sacrificar
sacristia
sacro
sad
sada
saddam
sae
saem
safada
safe
safety
safra
saga
sage
sagrada
sagradas
sagrado
sagrados
sagrando
sagrou
sahara
sai
saia
saiba
said
sailor
saindo
saint
sainte
saints
sair
sais
saiu
sakura
sal
sala
salamanca
salarial
salas
salazar
saldanha
saldo
sale
salem
sales
salgada
salgado
salgueiro
salientar
salinas
salisbury
salle
salles
sally
salma
salmo
salmos
salo
saloma
salome
salon
salsa
salt
salta
saltar
salto
saltos
saltou
salva
salvac
salvador
salvamento
salvar
salvatore
salve
salvo
salvos
salvou
salzburgo
sam
sama
samantha
samba
sambafoot
sambas
sambo
same
sami
sammy
samoa
sampa
sampaio
sample
samples
samsung
samuel
samurai
san
sana
sanc
sancha
sanches
sanchez
sancho
sancionada
sand
sanders
sandoval
sandra
sandro
sands
sandui
sandy
saneamento
sang
sangalo
sangrenta
sangue
sangui
sanita
sankt
sans
sansa
sant
santa
santana
santander
santare
santas
santi
santiago
santidade
santista
santo
santos
santua
sao
sapato
sapatos
sapiens
sapo
sapomag
sapor
sapucai
saque
saques
sar
sara
saragoc
sarah
saraiva
sarajevo
sarco
sardenha
sardinha
sargento
sargentos
sarmento
sarney
sars
sartre
sas
sasha
saskatchewan
sassa
sat
sata
satana
sate
satellite
satellites
sati
satisfac
satisfato
satisfaz
satisfazer
satisfeita
satisfeito
sato
saturday
saturn
saturnino
saturno
sau
sauda
saudac
saudade
saudades
saude
saudi
saudita
saul
saulo
saunders
savage
savana
savanas
save
savela
saw
sawyer
sax
saxa
saxe
saxo
saxofone
saxon
say
says
sb
sbica
sbicas
sbs
sbt
sc
scala
scale
scandal
scar
scara
scarabaeidae
scarabs
scaras
scarecrow
scarlett
scene
scenes
scha
schedule
scherzer
scherzers
scherzinger
schleswig
schltr
schmidt
schmitt
schneider
scho
scholar
school
schoolmeesters
schools
schro
schu
schubert
schultz
schulz
schumacher
schuster
schwartz
schwarz
schweizer
sci
scia
scielo
science
sciences
scientific
scientist
scientists
scimo
scio
scoa
scooby
score
scores
scotland
scott
scottish
scout
scream
screen
script
scripts
scula
sculas
sculo
sculos
sd
se
sea
seabra
seal
sean
seara
search
seas
season
seasons
seattle
sebastia
sebastian
sec
seca
secas
secc
secessa
seco
second
seconds
secos
secrec
secret
secreta
secretamente
secretaria
secretariado
secretarias
secretary
secretas
secreto
secretos
secrets
section
sector
sectores
secular
seculares
seculo
secunda
security
seda
sedan
sede
sedes
sediada
sediado
sediar
sedimentos
sediou
seduc
see
seed
seen
sega
segmento
segmentos
segredo
segredos
segregac
segue
seguem
segui
seguia
seguiam
seguida
seguidas
seguido
seguidor
seguidores
seguidos
seguimento
seguindo
seguinte
seguintes
seguir
seguiram
seguiu
segunda
segundas
segundo
segundos
segura
seguranc
segurando
segurar
seguras
seguro
seguros
sei
seidman
seine
seio
seios
seis
seita
seixas
seja
sejam
sejm
sela
sele
selec
selecc
selecionada
selecionadas
selecionado
selecionados
selecionar
selecione
selecionou
select
selected
selection
selena
seletiva
seletivo
self
selju
seller
sellers
selling
selma
selo
selos
selva
selvagem
selvagens
sem
sema
semana
semanais
semanal
semanalmente
semanas
semblante
semelhanc
semelhante
semelhantes
semente
sementes
semestre
semi
semia
semicondutores
semieixo
semifinais
semifinal
semina
semio
sempre
sen
sena
senac
senado
senador
senadora
senadores
senate
sendo
senecio
senegal
senha
senhor
senhora
senhoras
senhores
senhorio
senior
seniores
senna
sensac
sense
sensi
sensibilidade
senso
sensor
sensores
sensoriais
sensorial
sensu
sensual
sent
senta
sentada
sentado
sentados
sentar
sente
sentem
sentenc
senti
sentia
sentido
sentidos
sentimental
sentimento
sentimentos
sentindo
sentinel
sentinela
sentir
sentiram
sentiu
sentou
seo
seoul
sep
separa
separac
separada
separadamente
separadas
separado
separador
separados
separam
separando
separar
separaram
separata
separatistas
separou
sept
september
sepulcro
sepultada
sepultado
sepultamento
sepultura
sepulturas
sequ
seque
sequeira
sequel
sequence
sequences
sequer
sequestrado
sequestro
ser
sera
serafim
serbia
serbie
serei
sereia
serem
serena
sereno
seres
serge
sergei
sergey
sergio
sergipano
sergipe
seri
seria
seriado
seriados
serial
seriam
seriamente
serie
series
serious
serma
sermo
serpa
serpente
serpentes
serra
serrana
serrano
serras
serta
sertaneja
sertanejo
serto
serve
servem
server
servi
servia
serviam
servic
service
services
servida
servido
servidor
servidores
servindo
servir
servira
serviram
serviria
serviu
servo
servos
ses
sesc
sesi
sessa
sessenta
session
sessions
sesso
set
seta
sete
setembro
setenta
setentrional
seth
setlist
setor
setores
sets
setu
seu
seul
seung
seus
seven
sevens
seventh
seventy
severa
several
severamente
severas
severe
severino
severo
severos
sevilha
sevilla
sex
sexo
sexos
sexta
sextas
sexto
sexuais
sexual
sexualidade
sexualmente
sexy
seychelles
seymour
sf
sforo
sg
sgt
sh
sha
shackleton
shadow
shadows
shah
shake
shakespeare
shakira
shall
shan
shane
shang
shanghai
shannon
shape
shapiro
share
shares
shark
sharon
sharp
sharpe
shaun
shaw
shawn
she
shea
sheamus
sheeran
sheet
sheffield
sheila
shelby
sheldon
shell
shelley
shells
shelton
shen
shepard
shepherd
sherdog
sheridan
sherlock
sherman
shi
shield
shields
shift
shin
shine
shinee
ship
ships
shirley
sho
shock
shoot
shooting
shop
shopping
shore
short
shot
should
show
showbuzz
showbuzzdaily
showcase
shows
showtime
shtml
shu
shueisha
shulgin
si
sia
sias
sibe
sic
sica
sicas
sici
siciliano
sick
sico
sicos
sid
sida
side
sideru
sidi
sidney
sido
sie
siege
siegel
siegfried
siemens
siena
sierra
sig
siga
sigilo
sigla
siglo
sigma
sigmund
sign
signal
signata
significa
significac
significado
significados
significam
significando
significante
significar
significativa
significativamente
significativas
significativo
significativos
significava
significou
signo
signos
signs
sigurd
sil
silas
sile
silence
silencio
silenciosa
silencioso
silent
sili
silk
silva
silvana
silveira
silver
silves
silvestre
silvestres
silvia
silvinei
silvio
sim
sima
simbad
simbo
simbolismo
simboliza
simbolizando
sime
simea
simetria
similar
similares
simmons
simo
simon
simone
simpa
simpatia
simpatizantes
simple
simples
simplesmente
simplicidade
simplificac
simplificada
simplificado
simpo
simpson
simpsons
sims
simulac
simular
simulta
simultaneamente
sin
sina
sinagoga
sinai
sinais
sinal
sinalizac
sinatra
since
sincera
sinceridade
sincero
sinclair
sindicais
sindical
sindicato
sindicatos
sine
sinfo
sinfonia
sing
singapore
singapur
singapura
singer
singh
single
singles
singular
singulares
singularidade
sinha
sinia
sinistro
sino
sinopse
sinos
sinta
sintaxe
sinte
sintetizador
sintetizadores
sinto
sintoma
sintomas
sintra
sio
sios
sipa
siqueira
sir
siri
siria
sirius
sirva
sis
sismo
siste
sistema
sistemas
sistematicamente
sister
sisters
sisto
sitcom
site
sites
sitio
sitiodeciclismo
sito
sitos
situa
situac
situada
situadas
situado
situados
situam
situation
situava
six
sixth
size
sj
sk
ska
skate
skating
sketch
ski
skin
skinner
sko
sky
sl
sla
slalom
slam
slant
slash
slate
slater
slave
slavery
slayer
sleep
slide
slim
sloan
slogan
slovakia
slovenia
slow
sm
smackdown
small
smallville
smart
smartphone
smartphones
smash
smica
smile
smith
smithsonian
smo
smoke
sms
sn
snake
snape
snia
snio
snooker
snoop
snow
snr
snyder
so
soa
soar
soares
sob
sobe
soberana
soberania
soberano
soberanos
sobra
sobrado
sobral
sobre
sobrenaturais
sobrenatural
sobrenome
sobreposic
sobretudo
sobrevive
sobrevivem
sobrevivente
sobreviventes
sobreviver
sobreviveram
sobreviveu
sobrevivido
sobrinha
sobrinho
sobrinhos
soc
soccer
soccerway
sociais
social
socialism
socialismo
socialist
socialista
socialistas
socialmente
socie
sociedad
sociedade
sociedades
societa
society
socio
socioambiental
socioecono
sociolo
sociologia
sociology
soco
socorro
socorros
socos
sodre
sofa
sofia
sofisticado
sofo
sofos
sofre
sofrem
sofrendo
sofrer
sofreram
sofreu
sofria
sofrida
sofrido
sofridos
sofrimento
soft
software
softwares
sogra
sogro
sois
soja
sol
sola
solange
solano
solanum
solar
solares
sold
soldado
soldados
soldier
soldiers
sole
solene
solenidade
solicitac
solicitado
solicitando
solicitar
solicitou
solid
solida
solidariedade
solista
solita
solo
solomon
solos
solta
soltar
solteira
solteiro
solto
soltou
solu
soluc
solucionar
solution
solutions
solvente
som
soma
somali
somalia
somam
somando
somar
sombra
sombras
sombria
sombrio
some
somebody
somente
someone
somerset
something
somme
somos
son
sonata
sonda
sondas
soneto
sonetos
song
songs
sonha
sonhar
sonho
sonhos
sonia
sonic
sonny
sono
sonora
sonoras
sonoridade
sonoro
sonoros
sons
sony
soo
soompi
soon
sopa
sope
sophia
sophie
soprano
sopro
sor
sora
sorbonne
soro
sorocaba
sorocabana
sorrindo
sorrir
sorriso
sorriu
sorry
sort
sorte
sorteio
sos
sossego
sotaque
soto
sou
soube
soubesse
soul
souls
sound
sounds
soundtrack
source
sources
sous
sousa
south
southampton
southeast
southern
southwest
souto
souza
sovie
soviet
sowie
soy
soyuz
sozinha
sozinho
sozinhos
sp
spa
space
spacer
spacex
spain
span
spanish
sparks
speak
spears
spec
special
specialist
species
specific
spectrum
spede
spedes
speech
speed
spencer
spera
speras
spermatophyta
spero
spi
spice
spider
spiegel
spielberg
spike
spin
spinoff
spirit
spiritual
splash
split
spongebob
spora
sport
sporting
sports
sportv
spot
spotify
spotlight
spp
spring
springer
springfield
springs
sprint
spurs
sputnik
spy
sql
sqrt
squad
square
sr
sra
sri
srzd
ss
ssa
ssaro
ssaros
ssc
sse
ssea
sseis
sseldorf
ssem
ssemos
ssia
ssica
ssicas
ssico
ssicos
ssida
ssil
ssima
ssimas
ssimo
ssimos
ssio
st
sta
stable
stacy
stade
stadium
stadt
staff
stage
stalin
stan
stand
standard
standards
standing
stanford
stanley
stanton
star
stark
starr
starring
stars
start
started
starters
starting
startle
starts
startup
stas
stat
stata
state
statement
states
static
station
statistica
statistical
statistiche
statistics
statistik
statistiques
statistisches
statoids
stats
status
stay
ste
steam
steel
steele
steelers
stefan
stefani
stefano
steffen
stein
steiner
stella
stellar
step
stephan
stephanie
stephen
stephens
steps
ster
sterling
stern
sterreich
steve
steven
stevens
stevenson
stevie
stewart
stf
stia
stias
stica
sticas
stick
stico
sticos
still
stimo
stimos
sting
stirling
stj
sto
stock
stockholm
stokes
stola
stolo
stolos
stone
stones
stop
store
storia
stories
storm
story
str
straight
straits
strand
strange
stranger
strasbourg
strategic
strategies
strategy
strauss
stream
streaming
street
streets
streisand
streitkra
stress
stria
strias
strike
strikeforce
strikes
string
strings
strip
strofe
strong
structural
structure
structures
struggle
sts
stu
stuart
student
students
studies
studio
studios
study
stuff
stuma
stumo
stuttgart
style
styles
su
sua
suas
suave
suaves
sub
subclasse
subconjunto
subdivisa
subdivision
subdiviso
subespe
subfami
subge
subgrupo
subida
subindo
subir
subiram
subitamente
subiu
subjacente
subjuntivo
sublime
submarino
submarinos
submeter
submetida
submetido
submetidos
submissa
submundo
subordem
subordinada
subordinado
subordinados
subscric
subsequente
subsequentemente
subsequentes
subset
subsi
subsidia
subsiste
subsolo
subsp
subst
substa
substanciais
substancial
substancialmente
substantivo
substantivos
substitui
substituic
substituindo
substituir
substituiu
substituto
substrato
subterra
subtropicais
subtropical
subu
succ
success
sucede
sucedendo
suceder
sucederam
sucedeu
sucedida
sucedidas
sucedido
sucedidos
sucessa
sucessivamente
sucessivas
sucessivos
sucesso
sucessor
sucessora
sucessores
sucessos
such
suco
sud
suda
sudamericano
sudan
sudeste
sudoeste
sue
sueca
sueco
suecos
sueto
suez
suffolk
suficiente
suficientemente
suficientes
sufixo
sufra
sugababes
sugar
sugere
sugerem
sugerido
sugerindo
sugerir
sugeriram
sugeriu
sugesta
sugesto
sui
suici
suicida
suicide
suit
suite
suja
sujeita
sujeitas
sujeito
sujeitos
sujo
sul
sula
sulfato
sullivan
sulta
sultan
sultanato
sultats
sum
suma
sumatra
sume
summary
summer
summerslam
summit
sumo
sun
sundance
sunday
sunderland
sung
sunny
suns
sunset
sunshine
suor
supe
super
supera
superac
superada
superado
superando
superar
supercopa
superesportes
superfami
superfi
superficiais
superficial
supergirl
superintende
superintendente
superior
superiores
superioridade
superliga
superman
supermercado
supermercados
supernatural
supernova
superou
superstar
superstic
supertac
supervisa
supervisionar
supervisionou
supervisor
suplementar
suplemento
suplente
supo
suponha
supor
suporta
suportada
suportado
suportam
suportar
suporte
suportes
suposic
suposta
supostamente
suposto
supostos
suppl
supplement
supply
support
suprema
supremacia
supreme
supremo
supressa
suprimento
suprimentos
suprimir
suprir
sur
surda
surdo
surdos
surf
surface
surge
surgem
surgery
surgido
surgimento
surgindo
surgir
surgiram
surgiu
surinam
suriname
surpreende
surpreendente
surpreendentemente
surpreendeu
surpreendido
surpresa
surpreso
surprise
surrey
surto
suru
survey
survival
survivor
sus
susan
susana
susceti
suspeita
suspeitas
suspeito
suspeitos
suspende
suspender
suspendeu
suspensa
suspensas
suspense
suspenso
suspensos
suspiro
sussex
sustainable
sustenido
sustenta
sustentabilidade
sustentac
sustentada
sustentado
sustentados
sustentam
sustentar
sustento
susto
sutherland
sutil
sutton
suzana
suzanne
suzano
suzuki
sv
sven
svenska
sverige
sveriges
sverigetopplistan
sw
swan
swaziland
sweden
swedish
swedishcharts
sweet
swift
swim
swimming
swing
swiss
swisscharts
switch
switzerland
sword
sy
sydney
sylvester
sylvia
symphony
symposium
syndicat
syndrome
synopsis
synthesis
syracuse
syria
syrian
syst
system
systema
systematic
systematics
systems
szo
t
ta
tab
tabaco
tabela
tabelas
taberna
table
tables
tabu
tabuleiro
tac
tadeu
tae
taekwondo
tag
tai
tail
taila
tailande
taipa
taipei
tais
taiwan
tajikistan
tajiquista
takahashi
take
taken
takeover
takes
taking
tal
tala
talas
talbot
tale
talent
talento
talentos
talentoso
tales
talha
taliba
taliban
talk
talking
talks
tallinn
talo
talvez
tam
tamanha
tamanho
tamanhos
tamara
tambe
tambem
tambor
tambores
tamil
tampa
tampouco
tan
tanaka
tancredo
tang
tango
tank
tanner
tanque
tanques
tanta
tantas
tanto
tantos
tanza
tanzania
tao
tap
tapa
tapajo
tape
tapec
tapete
tapetes
tar
tara
tarci
tarde
tardes
tardia
tardio
tarefa
tarefas
target
tarifa
tarifas
taro
tarso
tartaruga
tartarugas
tarzan
tas
task
tasma
tasso
taste
tat
tata
tate
tatiana
tatu
tatyana
tau
taubate
taunay
taurus
tavares
tavira
tax
taxa
taxas
taxdetails
taxi
taxon
taxono
taxonomia
taxonomic
taxonomy
taylor
tb
tbol
tc
tcheca
tcheco
tchecoslova
tcm
tcp
td
te
tea
teacher
teaching
team
teams
tears
teaser
teatrais
teatral
teatro
teatros
teau
tebas
tebet
tech
technical
techniques
technologies
technology
tecido
tecidos
tecla
tecladista
teclado
teclados
teclas
tecnicamente
tecnolo
tecnologia
tecnologias
tecto
ted
teddy
tedra
teen
teenage
teera
tei
teia
teil
teis
teixeira
tejo
tel
tela
telas
tele
telecom
telecomunicac
teledramaturgia
telefe
telefilme
telefo
telefone
telefones
telefonia
telegrama
telegraph
telejornal
telemundo
telenovela
telenovelas
teles
telesco
telescope
telesp
telespectadores
televisa
televisio
television
televisiva
televisivas
televisivo
televisivos
telhado
telhados
telhas
telinha
tell
telles
tells
telo
tem
tema
temas
teme
temendo
temer
temia
temor
temos
temperadas
temperado
temperamento
temperatura
temperaturas
tempestade
tempestades
templa
temple
templo
templos
tempo
tempora
temporada
temporadas
temporais
temporal
temporariamente
tempos
temps
ten
tenda
tende
tendem
tendo
tenente
tenerife
tenha
tenham
tenho
tenista
tennessee
tennis
tenor
tens
tensa
tenso
tensor
tenta
tentac
tentado
tentam
tentando
tentar
tentaram
tentativa
tentativas
tentava
tentavam
tente
tentou
teo
teobaldo
teodo
teodora
teodorico
teodoro
teolo
teologia
teor
teorema
teoria
teorias
teoricamente
ter
tera
terape
terapeuta
terapia
terc
terceira
terceiro
terceiros
tercia
terem
teremos
teresa
teresina
tereso
tereza
terezinha
teri
teria
teriam
term
termas
termina
terminac
terminada
terminado
terminais
terminal
terminam
terminando
terminar
terminaram
terminaria
terminologia
terminou
termo
termodina
termos
terms
terno
ternura
tero
terra
terrac
terramoto
terras
terre
terreiro
terremoto
terremotos
terreno
terrenos
terrestre
terrestres
terri
territo
territoriais
territorial
territory
terror
terrorism
terrorismo
terrorista
terroristas
terry
tes
tese
teses
tesla
tesoureiro
tesouro
tesouros
tessa
test
testa
testado
testament
testamento
testar
teste
testemunha
testemunhar
testemunhas
testemunho
testemunhos
testemunhou
testes
testi
testing
testou
tests
teto
tetra
teu
teus
teuto
teve
tex
texas
text
texto
textos
texts
textstyle
textual
textura
tf
tg
th
tha
thai
thailand
thali
thames
than
thank
that
thatcher
the
theater
theatre
theatro
theft
their
them
theme
then
theo
theodor
theodore
theology
theoretical
theories
theory
theplantlist
theraphosidae
therapy
there
theresa
these
thesis
theta
they
thiago
thierry
thing
things
think
thinking
third
this
tho
thomas
thomaz
thompson
thomson
thor
thorne
thornton
those
thought
thoughts
thousand
thrash
thread
threat
threatened
three
thriller
thrones
through
thu
thunder
thursday
ti
tia
tiago
tibe
tibet
tibetano
tibete
tic
tica
ticas
ticket
tico
ticos
tida
tidal
tido
tidos
tie
tiempo
tienne
tierra
ties
tiete
tiffany
tiger
tigre
tigres
tijolo
tijolos
tijuca
tiktok
til
tila
till
tim
tima
timas
timber
timberlake
timbre
time
timeline
times
timing
timo
timor
timos
timothy
tin
tina
tinha
tinham
tinta
tintas
tinto
tiny
tio
tios
tip
tipicamente
tipo
tipografia
tipologia
tipos
tira
tirada
tiradas
tiradentes
tirado
tiragem
tirando
tirania
tirano
tirar
tiras
tire
tiro
tirol
tiros
tiroteio
tirou
tis
tita
titan
titanic
titans
title
titles
tito
titular
titulares
titularidade
titulo
titus
tive
tivemos
tiver
tivera
tiveram
tiverem
tivesse
tivessem
tj
tlc
tm
tma
tmica
tn
tna
tnica
tnicas
tnico
tnicos
tnt
to
tobago
tobias
toby
toca
tocada
tocadas
tocado
tocam
tocando
tocante
tocantins
tocar
tocaram
tocava
tocha
tocou
toda
todas
todavia
today
todd
todo
todos
together
togo
tokugawa
tokyo
tol
told
toledo
tolera
tolkien
toll
tolo
tom
toma
tomada
tomadas
tomado
tomados
tomam
tomando
tomar
tomara
tomaram
tomas
tomate
tomatoes
tomava
tomb
tombada
tombado
tombamento
tombo
tome
tommaso
tommy
tomo
tomorrow
tomos
tomou
ton
tona
tonalidade
tone
toneladas
tonga
toni
tonight
toninho
tono
tons
tony
too
took
tool
tools
top
topical
topo
topogra
topografia
topologia
toponi
topos
tops
toque
toques
tor
tora
torc
torcedor
torcedores
torch
torcida
torcidas
torino
tormenta
torna
tornado
tornados
tornam
tornando
tornar
tornara
tornaram
tornarem
tornaria
tornasse
tornava
tornavam
torne
torneio
torneios
torneo
torno
tornou
tornozelo
toro
toronto
torpedo
torpedos
torque
torra
torre
torres
torta
tortura
torturado
torturas
tos
toscana
tosse
totais
total
totalidade
totalizando
totalmente
totals
toto
tottenham
touch
touchdown
touchdowns
toulousain
toulouse
tour
tourism
tournament
touro
touros
tours
tout
toward
towards
tower
town
towns
townsend
township
toxic
toxicidade
toy
toyota
tr
tra
trabalha
trabalhado
trabalhador
trabalhadora
trabalhadores
trabalham
trabalhando
trabalhar
trabalharam
trabalhava
trabalhavam
trabalhista
trabalhistas
trabalho
trabalhos
trabalhou
trac
track
tracking
tracks
tracy
trad
trade
tradic
tradicionais
tradicional
tradicionalmente
trading
tradition
traditional
traduc
tradutor
traduz
traduzida
traduzidas
traduzido
traduzidos
traduzir
traduziu
traffic
traficante
traficantes
trage
tragedy
trai
traic
traidor
trail
trailer
train
training
trajano
traje
trajes
trajeto
trama
trampolim
tranc
tranqu
tranquila
tranquilidade
tranquilo
trans
transac
transactions
transatla
transcric
transfer
transfere
transferida
transferidas
transferido
transferidos
transferindo
transferir
transferiu
transfermarkt
transform
transforma
transformac
transformada
transformadas
transformado
transformados
transformam
transformando
transformar
transformaram
transformation
transformers
transformou
transge
transic
transilva
transit
transition
transitivo
transito
transl
translated
translation
transliterac
transmissa
transmission
transmisso
transmissor
transmite
transmitida
transmitidas
transmitido
transmitidos
transmitindo
transmitir
transmitiu
transneptunian
transnetuniano
transpare
transparente
transplante
transport
transporta
transportada
transportado
transportadores
transportados
transportando
transportar
transportation
transporte
transportes
transtorno
transtornos
transversal
trap
trapalho
tras
traseira
traseiras
traseiro
trata
tratada
tratadas
tratado
tratados
tratam
tratamento
tratamentos
tratando
tratar
tratava
trato
tratos
tratou
trauma
trava
travada
trave
travel
travessa
travessia
travis
travou
traz
trazem
trazendo
trazer
trazia
traziam
trazida
trazidas
trazido
trazidos
tre
treasure
treatment
treaty
trecho
trechos
tree
trees
treina
treinado
treinador
treinadores
treinados
treinamento
treinamentos
treinando
treinar
treino
treinos
treinou
trek
trem
tremendo
trends
trens
trent
trentino
trento
tres
trevas
trevisan
trevo
trevor
treze
trezentos
tri
tria
trial
trials
triangle
triangular
tribais
tribal
tribe
tribo
tribos
tribuna
tribunais
tribunal
tribune
tribuno
tributa
tributac
tribute
tributo
tributos
trica
tricampea
tricampeonato
tricas
trick
trico
tricolor
tricos
tridimensional
trieste
trige
trigo
trilha
trilhas
trilho
trilhos
trilogia
trilogy
trimestre
trincheiras
trindade
trinidad
trinity
trinta
trio
trios
trip
tripla
triple
triplo
tripulac
tripulantes
trista
triste
tristes
tristeza
triumph
triunfal
triunfo
trivela
trivial
tro
troc
troca
trocado
trocando
trocar
trocas
trocou
trofe
troia
trois
trombone
trompete
tron
tronco
troncos
trono
trons
troops
tropa
tropas
tropec
tropeiros
trophy
tropicais
tropical
tropicos
trouble
trouxe
trouxeram
trova
troy
truck
true
trujillo
truman
trump
truque
truques
trust
trustees
truth
try
tryptamines
ts
tse
tsu
tsunami
tt
ttingen
tu
tua
tuas
tubara
tubaro
tube
tuberculose
tubo
tubos
tucano
tucker
tucuma
tudes
tudo
tudor
tuesday
tufa
tufo
tula
tulo
tulos
tum
tumba
tumbas
tumor
tumores
tumulto
tumultos
tuna
tunes
tuni
tunisia
tuo
tupi
tupinamba
turbina
turbinas
turbo
turbule
turca
turcas
turco
turcos
turi
turim
turing
turismo
turista
turistas
turkey
turkish
turkmenistan
turma
turn
turne
turner
turning
turno
turnos
turns
turquia
tus
tutela
tutor
tutorial
tuvalu
tv
tvbythenumbers
tve
tvi
tvline
tvs
twain
tweet
twentieth
twenty
twice
twilight
twin
twins
twist
twitch
twitter
two
tx
txt
ty
tyler
typ
type
types
typhoon
tyson
tz
u
ua
uai
uberaba
uberla
ubisoft
uboat
ubuntu
uc
ucaso
uchler
uci
ucla
ucra
ucraniana
ucranianas
ucraniano
ucranianos
ude
udia
udio
udn
udo
ue
uefa
ufba
ufc
uff
ufmg
ufo
ufrgs
ufrj
ufsc
uganda
uhf
ui
uicn
uk
ukraina
ukraine
ukrainian
ul
ula
ulica
ulisses
ulmana
ulmanas
ulmano
ulmanos
ulmer
ulrich
ultima
ultimamente
ultimate
ultimato
ultimo
ultra
ultramar
ultramarino
ultrapassa
ultrapassado
ultrapassando
ultrapassar
ultrapassou
ultratop
ultravioleta
ulysses
um
uma
umas
umbanda
umberto
umidade
un
una
unanimidade
unb
unc
uncharted
uncle
und
under
underground
understanding
undertaker
underwood
une
unem
unesco
unesp
unforgettable
unha
unhas
uni
unia
unicamente
unicamp
unicef
unico
unicode
unida
unidade
unidades
unidas
unidense
unido
unidos
unificac
unificada
unificado
uniforme
uniformes
unindo
unio
union
unique
unir
uniram
unit
unita
united
units
unity
uniu
univ
universais
universal
universalmente
universe
universi
universidad
universidade
universidades
universita
universite
university
universo
univisio
univision
unix
unknown
uno
uns
until
unveils
uol
up
upcoming
update
updated
updates
uploads
upon
upper
uppsala
ups
ur
ura
urano
urban
urbana
urbanas
urbani
urbanismo
urbanizac
urbano
urbanos
urbe
urdu
urea
urge
urgente
uri
uribe
urile
urina
url
urna
urnas
urs
ursa
urso
ursos
urss
ursula
urubu
uruguai
uruguaia
uruguaiana
uruguaio
uruguay
us
usa
usada
usadas
usado
usados
usam
usando
usar
usaram
usatoday
usava
usavam
usb
usd
usda
use
used
user
users
uses
usgs
usher
usina
usinas
using
uso
usos
usou
usp
usr
uss
ustria
usua
usual
usualmente
usula
usulas
ut
utad
utah
utc
utensi
uti
utica
uticas
utico
uticos
utilidade
utilita
utilities
utility
utiliza
utilizac
utilizada
utilizadas
utilizado
utilizador
utilizadores
utilizados
utilizam
utilizando
utilizar
utilizaram
utilizava
utilizavam
utilizou
utopia
utrecht
utrons
uv
uva
uvas
uy
uzbekistan
uzbequista
v
va
vaca
vacante
vacas
vaccine
vacina
vacinac
vacinas
vae
vaga
vagamente
vagas
vagina
vago
vai
vaidade
vais
val
vala
valada
valadares
valde
valdemar
vale
valem
valenc
valencia
valenciana
valendo
valente
valentim
valentin
valentina
valentine
valentino
valer
valeria
valerie
vales
valeu
valia
validac
validade
valiosa
valioso
valiosos
valladolid
valle
valley
valo
valois
valor
valores
valorizac
valorizar
valparai
valsa
value
values
valve
valverde
vamos
vampire
vampiro
vampiros
van
vance
vancouver
vanessa
vanguarda
vanity
vantagem
vantagens
vanuatu
vapor
vaqueiro
var
vara
varanda
varas
varejo
varela
varepsilon
vargas
vari
varia
variabilidade
variac
variada
variadas
variado
variados
variam
variando
variante
variantes
variar
varias
variedade
variedades
variety
varinha
various
varo
varphi
varso
varzim
vas
vasco
vasconcellos
vasconcelos
vascular
vasculares
vaso
vasos
vasques
vassalo
vassalos
vasta
vastas
vasto
vatican
vaticana
vaticano
vaughan
vaz
vaza
vazamento
vazia
vazio
vazios
vc
ve
vea
veado
vec
vector
vedras
veem
veg
vega
vegas
vegetac
vegetais
vegetal
vehicle
vei
veia
veias
veiga
veio
veis
veit
veja
vejam
vejo
vel
vela
velas
velasco
velha
velhas
velhice
velho
velhos
velo
velocidade
velocidades
veloso
veloz
veludo
velvet
vem
vemos
ven
vena
vence
vencedor
vencedora
vencedoras
vencedores
vencem
vencendo
vencer
vencera
venceram
venceu
vencida
vencido
vencidos
venda
vendas
vende
vendedor
vendedores
vendem
vendendo
vender
venderam
vendeu
vendida
vendidas
vendido
vendidos
vendo
veneno
venera
venerac
veneza
venezia
venezuela
venezuelana
venezuelano
venezuelanos
vengeance
venha
venham
venho
venice
venom
ventilac
vento
ventos
ventral
ventre
ventura
venture
ventures
venus
ver
vera
veracidade
veracruz
verba
verbais
verbal
verbandsgemeinde
verbas
verbete
verbetes
verbo
verbos
verdade
verdadeira
verdadeiramente
verdadeiras
verdadeiro
verdadeiros
verdades
verde
verdes
verdi
vereador
vereadora
vereadores
veremos
veres
verge
vergonha
veri
verifica
verificac
verificado
verificar
verificou
verifique
verlag
verme
vermelha
vermelhas
vermelho
vermelhos
vermes
vermont
verna
vernon
vero
verona
veronica
versa
versailles
versalhes
versi
version
verso
versos
verstappen
versus
vert
vertebrados
vertebrate
vertente
vertentes
verticais
vertical
vertigo
very
verzeichnis
ves
vesi
vespas
vespasiano
veste
vestes
vestfa
vesti
vestia
vestibular
vestida
vestido
vestidos
vestindo
vestir
vestiu
vestua
veterano
veteranos
veterina
veto
vetor
vetores
vetorial
vetse
vettel
vevo
vez
vezes
vg
vh
vhf
vhs
vi
via
viabilidade
viac
viacom
viaduto
viagem
viagens
viaja
viajam
viajando
viajante
viajantes
viajar
viajaram
viajava
viajou
vial
viam
viana
vianna
vias
vibe
vibrac
vibrante
vic
vica
vicariato
vice
vicente
vickers
vico
victims
victor
victoria
victory
vida
vidal
vidas
vide
video
videoclipe
videoclipes
videogame
videogames
videos
vido
vidro
vidros
vie
viegas
vieira
viena
vienna
vier
viera
vieram
viesse
vietna
vietnam
vietname
vietnamita
view
viewers
views
viga
vige
vigente
vigi
vigia
vigila
vigilante
vigo
vigor
vigueur
vii
viic
viii
viking
vikings
viktor
vil
vila
vilar
vilarejo
vilas
vilela
vilhena
villa
village
villages
villar
villas
ville
villeneuve
vilo
vim
vimos
vin
vinagre
vince
vincent
vincenzo
vinci
vinculada
vinculado
vinculados
vinda
vindas
vindo
vindos
vingadores
vinganc
vingar
vinha
vinham
vinhas
vinho
vinhos
vini
vinicius
vinil
vintage
vinte
vinyl
vio
viola
violac
violante
violar
viole
violence
violenta
violentamente
violentas
violento
violentos
violet
violeta
violinista
violino
violoncelo
violonista
vip
vir
vira
virada
viral
viram
virando
virar
virgem
virgen
virgens
virgi
virgin
virginia
virgo
viria
viriam
virou
virtuais
virtual
virtualmente
virtude
virtudes
virus
vis
visa
visam
visando
visava
visayas
visconde
visconti
viseu
visi
visibilidade
visigodos
vision
visions
visit
visita
visitac
visitada
visitado
visitam
visitando
visitante
visitantes
visitar
visitaram
visitas
visitou
viso
visse
vista
vistas
visto
vistos
visuais
visual
visualizac
visualizador
visualizar
visualmente
vita
vitae
vitais
vital
vitali
vitamina
vito
vitor
vitorino
vitoriosa
vitorioso
vitrais
vitro
vittar
vittorio
viu
viva
vivas
vive
vivem
vivemos
vivendo
viver
vivera
viveram
viveu
vivi
vivia
viviam
vivian
viviane
vivida
vivido
vivo
vivos
viz
vizinha
vizinhanc
vizinhas
vizinho
vizinhos
vizir
vko
vladimir
vlt
vo
voa
voador
voando
voar
voca
vocabula
vocac
vocais
vocal
vocalista
vocalistas
vocals
voce
vogais
vogal
vogel
vogue
voice
voices
void
voivodia
vol
vola
volante
voldemort
voleibol
voleibolista
volga
volkssturm
volkswagen
volley
volleyball
vols
volta
voltada
voltadas
voltado
voltados
voltaire
voltam
voltando
voltar
voltara
voltaram
voltaria
voltas
voltasse
voltava
volte
voltou
volume
volumes
volunta
voluntariamente
vom
von
vontade
voo
voos
voou
vora
voro
voros
vos
vossa
vossas
vosso
vossos
vota
votac
votada
votado
votar
votaram
vote
voted
voters
voto
votos
votou
vou
vouga
vous
vovo
vox
voyage
voyager
voz
vozes
vp
vr
vre
vs
vt
vu
vuelta
vulca
vulco
vulgar
vulgaris
vulgarmente
vulnera
vulnerabilidade
vulto
vulture
vv
vy
w
wa
wade
waffen
wageningen
wagner
wait
waiting
wake
waldemar
waldir
wales
walk
walker
walking
wall
wallace
wallis
walls
wally
walsh
walt
walter
walters
walther
walton
wan
wanda
wanderers
wanderley
wanessa
wang
wanna
want
wanted
wants
war
waray
ward
ware
warfare
warner
warning
warren
warrior
warriors
wars
warwick
was
washington
watanabe
watch
water
waterloo
waters
watkins
watson
watt
wattle
watts
wave
waves
way
wayback
wayne
ways
wb
wcw
we
weapon
weapons
wear
weasley
weather
weaver
web
webb
webber
weber
website
webster
wec
wedding
wednesday
week
weekend
weekly
weeknd
weeks
wehrmacht
wei
weight
weimar
weird
weiss
weiszflog
welch
welcome
well
welle
wellington
wells
welsh
welt
wembley
wen
wendy
went
were
werneck
werner
wes
wesley
west
western
westminster
weston
westport
wever
whale
what
whatsapp
wheel
wheeler
when
where
which
while
whiplash
white
whitehead
whitley
whitman
whitney
who
whole
why
wi
wicked
wide
widow
wie
wien
wiener
wife
wii
wikciona
wiki
wikidata
wikimapia
wikimedia
wikinoti
wikipe
wikipedia
wikiquote
wikisource
wikispecies
wilaya
wild
wilde
wilder
wildlife
wiley
wilhelm
wilkins
wilkinson
will
willard
willem
william
williams
williamson
willian
willie
willis
willy
wilson
wimbledon
win
winchester
wind
window
windows
windsor
wine
winehouse
wing
wings
winner
winners
winning
winnipeg
wins
winston
winter
wire
wired
wireless
wisconsin
wisdom
wise
wish
wissenschaften
witch
with
within
without
witness
wizard
wizards
wm
wo
wolf
wolfe
wolff
wolfgang
wolfram
wolverine
wolves
woman
women
won
wonder
wonderful
wonderland
wong
woo
wood
woods
woodward
woody
wook
woolly
worcester
word
wordpress
words
work
workers
working
works
workshop
world
worldfloraonline
worldfootball
worlds
worldwide
worms
worst
worth
would
wow
wp
wrestlemania
wrestler
wrestleview
wrestling
wright
write
writer
writers
writing
writings
written
wrong
wta
wu
wuhan
wulfenia
ww
wwe
wwf
www
wyatt
wynn
wyoming
x
xa
xadrez
xama
xangai
xavier
xbox
xd
xe
xeno
xeque
xerife
xi
xia
xias
xica
xico
xicos
xido
xidos
xii
xiii
xiitas
xima
ximas
ximo
ximos
xingu
xis
xisto
xito
xitos
xiv
xix
xl
xls
xmain
xml
xo
xodo
xon
xones
xp
xpgid
xpid
xportal
xteis
xtil
xu
xuxa
xv
xvi
xvii
xviii
xx
xxi
xxii
xxiii
xxiv
xxix
xxv
xxvi
xxvii
xxviii
xxx
xxxi
xy
y
ya
yahoo
yale
yamato
yan
yang
yankee
yankees
yates
ye
year
years
yellow
yemen
yeon
yes
yesterday
yet
yg
yi
yin
yn
yo
yoga
yoko
yokohama
yolanda
yong
yoo
yoon
york
yorker
yorkshire
you
young
your
yourself
youth
youtube
youtuber
ypiranga
yu
yuan
yugo
yuri
yves
yvonne
z
za
zacarias
zach
zack
zagreb
zagueiro
zahar
zaire
zambia
zamora
zap
zappa
zapping
zar
zara
zaragoza
zaro
zayn
ze
zealand
zebra
zeca
zeit
zeitschrift
zeitung
zela
zelda
zelensky
zelo
zen
zenit
zensus
zeppelin
zero
zerozero
zes
zeta
zeus
zeze
zh
zhang
zhao
zheng
zhou
zhu
zi
zia
zico
zigazgata
ziggler
zimba
zimbabwe
zimmermann
zinco
zio
zios
zip
zipcodezoo
ziva
zo
zodi
zoe
zombie
zona
zonas
zone
zoo
zool
zoolo
zoologia
zoology
zoom
zootaxa
zorro
zos
zquez
zu
zulu
zum
zumbi
zumbis
zur
zurique
zł
{
|
}
~





¡
£
¥
§
¨
©
ª
«
¬
­
®
¯
°
±
²
³
´
[...]
