!
"
#
##0
##1
##10
##11
##12
##13
##14
##15
##16
##17
##18
##19
##2
##20
##21
##22
##23
##24
##25
##26
##27
##28
##29
##3
##30
##31
##32
##33
##34
##35
##36
##37
##38
##39
##4
##40
##41
##42
##43
##44
##45
##46
##47
##48
##49
##5
##50
##51
##52
##53
##54
##55
##56
##57
##58
##59
##6
##60
##61
##62
##63
##64
##65
##66
##67
##68
##69
##7
##70
##71
##72
##73
##74
##75
##76
##77
##78
##79
##8
##80
##81
##82
##83
##84
##85
##86
##87
##88
##89
##9
##90
##91
##92
##93
##94
##95
##96
##97
##98
##99
$
%
&
'
(
)
*
+
,
-
.
/
0
00
000
001
002
003
004
006
007
008
009
01
010
011
012
014
015
017
018
02
020
021
022
023
024
025
026
027
029
03
030
031
033
034
035
036
037
039
04
040
041
042
043
044
045
046
049
05
050
051
052
053
054
055
056
057
058
059
06
060
061
062
063
064
065
066
067
068
069
07
070
071
072
073
076
077
078
079
08
080
082
083
084
085
086
087
088
089
09
090
091
092
093
094
095
096
097
099
1
10
100
1000
1001
1005
1008
1009
101
1014
102
1020
102398
1025
103
1036
1038
104
1040
105
1050
1056
105690470
106
1065
107
1077
108
1080
1082
1087
109
1095
1098
11
110
1100
111
1111
112
1120
1128
113
114
1148
115
1150
116
1160
1165
117
1172
1174
118
1188
119
1190
1193
1196
12
120
1200
121
1215
122
1221
123
1232
1234
12345
1236
1238
124
1245
1246
1247
125
1252
1253
1254
126
1265
127
1271
128
129
13
130
1300
1301
131
132
1321
1323
1327
133
1337
134
1343
1349
135
1350
136
1365
1367
137
1370
1375
138
139
1395
1396
14
140
1400
141
1413
142
1427
143
1430
1431
1433
14331
1436
1438
144
1440
1442
1448
145
1451
1453
1458
1459
146
1464
1467
1469
147
1470
1471
1472
1473
1476
148
1480
1485
1487
149
1490
1492
1493
1496
1497
1499
15
150
1500
1501
1507
1508
151
1510
1514
1515
1517
152
1520
1522
1523
1524
1526
1527
153
1530
1532
1533
1535
1536
1538
1539
154
1540
1541
1542
1543
1544
1545
1546
1547
1548
155
1550
1551
1552
1554
1555
1556
1557
1558
1559
156
1560
1562
1564
1565
1566
1568
157
1570
1572
1574
1575
1576
1577
1578
1579
158
1580
1582
1583
1584
1585
1587
1589
159
1590
1591
1592
1593
1594
1595
16
160
1600
1603
1604
1605
1606
1607
1609
161
1610
1611
1614
1615
1616
1619
162
1620
1621
1622
1623
1626
1627
1628
1629
163
1630
1631
1632
1633
1634
1635
1637
1638
164
1640
1642
1646
1649
165
1650
1654
1656
1657
1658
1659
166
1660
1661
1662
1663
1664
1665
1666
167
1672
1673
1675
1676
1678
1679
168
1680
1683
1684
1685
1686
1688
1689
169
1690
1691
1692
1693
1694
1695
1696
1697
1698
1699
17
170
1700
1701
1702
1703
1704
1705
1707
1708
1709
171
1710
1711
1712
1714
1716
1717
1718
1719
172
1720
1721
1722
1723
1724
1725
1726
1727
1729
173
1730
1731
1732
1733
1735
1736
1737
1738
1739
174
1740
1741
1742
1743
1744
1745
1746
1747
1748
1749
175
1750
1751
1752
1753
1754
1755
1756
1757
1758
1759
176
1760
1761
1762
1763
1764
1765
1766
1767
1768
1769
177
1770
1771
1772
1773
1774
1775
1776
1777
1778
1779
178
1780
1781
1782
1783
1784
1785
1786
1787
1788
1789
179
1790
1791
1792
1793
1794
1795
1796
1797
1798
1799
18
180
1800
1801
1802
1803
1804
1805
1806
1807
1808
1809
181
1810
1811
1812
1813
1814
1815
1816
1817
1818
1819
182
1820
1821
1822
1823
1824
1825
1826
1827
1828
1829
183
1830
1831
1832
1833
1834
1835
1836
1837
1838
1839
184
1840
1841
1842
1843
1844
1845
1846
1847
1848
1849
185
1850
1851
1852
1853
1854
1855
1856
1857
1858
1859
186
1860
1861
1862
1863
1864
1865
1866
1867
1868
1869
187
1870
1871
1872
1873
1874
1875
1876
1877
1878
1879
188
1880
1881
1882
1883
1884
1885
1886
1887
1888
1889
189
1890
1891
1892
1893
1894
1895
1896
1897
1898
1899
19
190
1900
1901
1902
1903
1904
1905
1906
1907
1908
1909
191
1910
1911
1912
1913
1914
1915
1916
1917
1918
1919
192
1920
1921
1922
1923
1924
1925
1926
1927
1928
1929
193
1930
1931
1932
1933
1934
1935
1936
1937
1938
1939
194
1940
1941
1942
1943
1944
1945
1946
1947
1948
1949
195
1950
1951
1952
1953
1954
1955
1956
1957
1958
1959
196
1960
1961
1962
1963
1964
1965
1966
1967
1968
1969
197
1970
1971
1972
1973
1974
1975
1976
1977
1978
1979
198
1980
1981
1982
1983
1984
1985
1986
1987
1988
1989
199
1990
1991
1992
1993
1994
1995
1996
1997
1998
1999
2
20
200
2000
2001
2002
2003
2004
2005
2006
2007
2008
2009
201
2010
2011
20110223202952
2012
2013
2014
2015
2016
2017
20170306023755
2018
2019
202
2020
2021
2022
2023
203
2030
204
205
206
207
2070
208
209
21
210
2100
211
212
213
214
215
216
217
218
219
22
220
221
222
223
224
225
226
227
228
229
23
230
231
232
233
234
235
236
237
23701
238
239
24
240
241
242
243
244
245
246
247
248
2481
249
25
250
2500
251
252
253
254
255
256
2564602
257
258
259
26
260
261
262
263
264
265
266
267
268
269
27
270
271
272
273
274
275
276
277
278
279
28
280
281
282
283
284
285
286
287
288
289
29
290
291
292
293
294
295
296
297
298
299
3
30
300
3000
301
302
303
304
305
306
307
308
309
31
310
311
312
313
314
315
316
317
318
319
32
320
3200
321
322
323
324
325
326
327
328
329
33
330
331
332
333
334
335
336
337
338
339
34
340
341
342
343
344
345
346
347
348
349
35
350
351
352
353
354
355
356
357
358
359
36
360
361
362
363
364
365
366
367
368
369
37
370
371
372
373
374
375
376
377
378
379
38
380
381
382
383
3831
384
385
386
387
388
389
39
390
391
392
393
394
395
396
397
398
399
4
40
400
4000
401
402
403
404
405
406
407
408
409
41
410
411
412
413
414
415
416
417
418
419
42
420
421
422
423
424
425
426
427
428
429
43
430
431
432
433
434
435
436
437
438
439
44
440
441
442
443
444
445
44519
446
447
448
449
45
450
451
452
453
454
455
456
457
458
459
46
460
461
462
463
464
465
466
467
468
469
47
470
471
472
473
474
475
476
477
478
479
48
480
481
482
483
484
485
486
487
488
489
49
490
491
492
493
494
495
496
497
498
499
5
50
500
5000
501
502
503
504
505
506
507
508
509
51
510
511
512
513
514
515
516
517
518
519
52
520
521
522
523
524
525
526
527
528
529
53
530
53049
531
532
533
534
535
536
537
538
539
54
540
541
542
543
544
545
546
547
548
549
55
550
551
552
553
554
555
556
557
558
559
56
560
561
562
563
564
565
566
567
568
569
57
570
571
572
573
574
575
576
577
578
579
58
580
581
582
583
584
585
586
587
588
589
59
590
591
592
593
594
595
596
597
598
599
6
60
600
6000
601
602
603
604
605
606
607
608
609
61
610
611
612
613
614
615
616
617
618
619
62
620
621
622
623
625
626
627
628
629
63
630
631
632
633
634
635
636
637
638
639
64
640
641
642
643
644
645
646
647
648
649
65
650
651
652
653
654
655
656
657
658
659
66
660
661
662
663
664
665
666
667
668
669
67
670
671
672
673
674
675
676
677
678
679
68
680
681
682
6822
683
684
685
686
687
688
689
69
690
691
692
693
694
695
696
697
698
699
7
70
700
7000
701
702
703
704
70425
705
706
707
708
709
71
710
711
712
713
714
715
716
717
718
719
72
720
721
722
723
724
725
726
727
728
729
73
730
731
732
733
734
735
736
737
738
739
74
740
741
742
743
744
745
746
747
748
749
75
750
751
752
753
754
755
756
757
758
759
76
760
761
762
763
764
765
766
767
768
769
77
770
771
772
773
774
775
776
777
778
779
78
780
781
782
783
784
785
786
787
788
789
79
790
791
792
794
795
796
797
798
799
8
80
800
801
8018
802
803
804
805
8051
806
807
808
809
81
810
811
812
813
814
815
816
817
818
819
82
820
821
822
8221
823
824
825
826
827
828
829
83
830
831
832
833
834
835
836
837
838
839
84
840
841
842
843
844
845
846
847
848
849
85
850
851
852
853
854
855
856
857
858
859
86
860
8601
861
86142
862
863
864
865
866
867
868
869
87
870
871
873
874
875
876
877
878
879
88
880
881
882
883
884
885
886
887
888
889
89
890
891
892
894
895
896
897
898
899
9
90
900
901
902
903
904
905
906
907
908
909
91
910
911
912
913
9135
914
915
916
917
918
919
92
920
921
922
9223372036854775808
923
924
925
926
927
928
929
93
930
931
932
933
934
935
936
937
938
939
94
940
941
943
944
945
946
947
948
949
95
950
951
952
953
954
955
956
95696
957
958
959
96
960
961
962
963
964
965
966
967
968
969
97
970
971
972
973
974
975
976
977
978
979
98
980
98085
981
982
983
984
985
986
987
988
989
99
990
991
992
993
994
995
996
997
998
999
:
;
<
=
>
?
@
\
^
_
`
a
aa
aabat
aakhmedova
aaron
aaronsohnia
ab
abafi
abana
abandoned
abano
abbot
abbott
abbotti
abbreviata
abbreviatum
abc
abdomen
abe
abel
abelmoschus
abendsonne
aberrans
abia
abidin
abies
ability
abkhazia
able
ablepharus
ablon
ablono
abortiva
about
above
abraham
abramites
abroad
abs
abstract
absurde
abtei
abusefilter
abusefilters
abyssinica
abyssinicus
ac
acacallis
acacia
acaciella
acad
academy
acadicus
acampe
acanthaceae
acanthephippium
acanthis
acanthisitti
acanthizdae
acanthodii
acanthosaura
acaulis
accept
acceptable
accepted
accepting
access
accessdate
accessibility
accessible
accipiter
accipitridae
accipitriformes
accipitrimorphae
accipitrinus
accordingly
account
accounts
accused
ace
acer
aceras
aceratorchis
acero
acerodon
achievements
achille
acianthera
acianthus
acicarpha
acicularis
acineta
acinonyx
aciopea
acipenseriformes
ackerman
ackermania
acnodon
aconitoides
acontias
acosta
acostaea
acridotheres
acriopsis
acrocephalus
acrochaene
acrolophia
across
acta
actes
actinistia
actinopterygii
actinostrobus
action
actions
activate
active
activities
actm
actualdate
actualdateboundariesproperty
actuelles
aculeata
acuminata
acuminatipetala
acuminatum
acuminatus
acun
acuta
acuticaudata
acuticaudatus
acutiflora
acutifolia
acutirostris
acutus
acıgo
acıpayam
ad
ada
adac
adag
adaklı
adalar
adam
adamantinensis
adamawa
adameros
adams
adamsi
adamsii
adansonia
adaptation
adası
add
added
adding
addison
addition
additional
address
addresses
adelphe
adenocheilae
adenochila
adenoncos
adilcevaz
adis
adiye
adjust
adler
admin
administrators
admins
adnata
adolf
adolfo
adolfus
adolph
adolphe
adonis
adrian
adriana
adrianae
adrianus
adscitus
adspersus
advance
advanced
advancedsearch
advantages
adventures
adventus
advocate
ady
adıyaman
ae
aegean
aegirtica
aegithalidae
aegithina
aegithinidae
aegolius
aelan
aellen
aemula
aene
aenea
aeneus
aepyceros
aequornithes
aerangis
aeranthes
aerial
aerides
aeruginosus
aesculapii
aesthetics
aestiva
aethia
aethiopicus
af
afar
afer
affair
affect
affected
affecting
affects
affiliate
affiliates
affine
affinis
afghanistan
afr
afra
afric
africa
african
africana
africano
africanus
afrikalı
afroablepharus
afroedura
afs
after
afternoon
afterwards
afyonkarahisar
afzelia
afzelius
ag
again
against
agama
agamodon
aganisia
agapornis
agapornithinae
agassiz
agathis
age
ageimpl
agenda
aggarwal
agilis
aglossorrhyncha
agnarsson
agnatha
ago
agric
agropsar
agrostophyllum
aguiar
aguiaria
aguilar
aharoni
ahead
ahinbey
ahl
ahlat
ahlstrom
ahmad
ahmed
ahmet
ahmetli
ahtna
ahırlı
ai
aid
aigner
aii
ailanthus
ailuridae
ailuronyx
aime
aims
ain
air
airport
ais
aise
aix
ajania
ak
akale
akarere
akc
akdag
akdeniz
akent
akhisar
akko
akkus
akkıs
akman
akniste
ako
akoca
akpınar
aks
aksaray
akseki
aksu
akten
akwa
akyaka
akyazı
akyurt
akıncılar
al
ala
alabat
alac
alaca
alacakaya
aladag
alaemon
alain
alainii
alam
alan
alanya
alaplı
alaris
alas
alaska
alaskan
alata
alatum
alatus
alauda
alaudidae
alba
albania
albany
albatrus
albert
albertiana
albertinum
albertis
albertisii
alberto
albescens
albicilla
albicollis
albida
albidinuchus
albifacies
albiflora
albifrons
albigularis
albilinea
albinucha
albipectus
albipennis
albirostris
albitarsis
albitorques
albivenis
albiventris
albivitta
albizia
albocinctus
albogularis
albopurpurea
alborosea
album
albuquerque
albus
alcala
alcea
alcedo
alcelaphus
alces
aldabra
aldasoro
aldrich
aldıran
ale
alectoris
alectroenas
alejandro
aleksandrovich
alema
alemania
alessandrini
alessandro
alestes
alestopetersius
alex
alexander
alexandra
alexandrae
alexandre
alexandri
alexandrovich
alexei
alexis
alfaro
alfonso
alfred
alfredi
alfredo
alge
alger
algeria
algeriensis
alho
alhoniemi
ali
aliag
alibertia
alibertis
alice
aliciae
alipiopsitta
alison
alisterus
alius
all
allakaket
allan
alle
allegro
allemand
allen
alleni
allenii
alleyne
allg
allgayer
alligator
allison
allocate
allomycterus
allomyrina
allow
allowed
allows
allowtables
allpropertyclaims
allred
allsnaks
alman
almeida
almenda
almost
almus
aloe
alois
aloisii
alongside
alonso
alopex
alp
alpazarı
alpestre
alpestris
alphonse
alpicola
alpina
alpinum
alpinus
alps
alpu
already
als
alseuosmia
also
alsophylax
alston
alstroemeria
alt
alta
altaica
altaicus
altar
altensteinia
alter
although
alticola
altigena
altiphylax
altissima
alto
altstadt
altunhisar
altus
altındag
altınekin
altıno
altınova
altıntas
altınyayla
aluco
alucra
alutiiq
alvarado
alvarez
alvarezi
alvaroi
alves
always
alzate
am
amabilis
amadina
amajyaruguru
amajyepfo
amaliae
amanensis
amaral
amardı
amaro
amas
amasra
amasya
amazon
amazona
amazonas
amazonica
amazonina
amazonum
amba
ambae
ambassador
amber
ambigua
ambiguus
amblyospiza
amblyrhynchus
amboinensis
ambon
ambrensis
ambrosia
ambrym
ame
ameli
amer
america
american
americana
americanus
amerikan
ames
amesiana
amesianum
amesiella
amethistina
amethystinus
amey
amherstiae
ami
amir
amis
amitostigma
amk
amlıdere
amlıhems
amlıyayla
ammocryptocharax
ammodendri
ammomanes
ammoperdix
amoena
amoluk
among
amoro
amoropsittacini
amos
amount
amour
amparoana
amphibia
amphibolurus
amphiglossus
amphisbaenia
amphisbaenidae
amplectens
amplexicaulis
amr
amurensis
an
ana
anacamptis
anadolu
anakc
anakkale
analis
anambra
anamur
ananjeva
anaplectes
anas
anaspida
anastasio
anastomus
anathallis
anatidae
anatinae
anatolica
anatololacerta
anatom
anceps
anchietae
ancipitia
ancistrochilus
ancistrorhynchus
and
andamanensis
andelnans
anders
andersen
anderson
andersoni
andersson
anderssonii
andigena
andinus
andorra
andra
andrade
andre
andrea
andreas
andreetta
andreettae
andreeva
andrei
andreone
andrew
andrews
andringitrana
androcorys
androglossini
android
androngo
andy
andır
andırın
aneityum
anelytropsis
anexos
anfiteatro
anfracta
anfractum
ang
ange
angel
angela
angelfish
angeli
angelica
angelinae
angelo
angle
angola
angolensis
angraecopsis
angraecum
anguidae
anguis
angulata
angulo
anguloa
angulosa
angus
angustata
angustifolia
angustifolium
angustifolius
angustilabia
angustilabris
angustissima
anh
anhimidae
anhisar
animal
animated
animation
anisognathus
aniwa
ankara
ankaya
ankent
ankn
ankırı
anlı
anlıurfa
ann
anna
annae
annamensis
annandale
anne
annectens
annette
anniella
anniversary
annona
announce
announced
announcement
announcements
annual
annulata
anodorhynchus
anoectochilus
anomala
anomalopus
anomalospiza
anostomoides
anostomus
another
ans
ansellia
anselm
anser
anseranatidae
anseriformes
anserinae
ansicht
ansorgii
answer
ant
antakya
antalya
antarctica
antarcticus
antaresia
antennata
antennifera
anthoceros
anthony
anthopeplus
anthracina
anthrax
anthropoides
anthropophora
anthus
anti
antigua
antilla
antiochiana
antioquiae
antioquiensis
antipodensis
antipodes
antiquity
anto
antoine
antoinette
anton
antoni
antonio
antthrush
any
anyol
anyone
anything
anyurt
ao
aoba
aonyx
aorchis
aou
ap
apalharpactes
apalis
apaloderma
aphane
aphaniotis
aphelandra
aphelocoma
aphrodite
aphylla
api
apiales
apicauda
apicula
apiculata
apifera
apis
aplin
aplocheilichthys
aplonis
apoda
apolemichthys
apollinaire
apollo
apologies
apologize
aporoides
apostasia
app
appearance
appeared
appears
appendicula
appendiculata
appendimpl
appendproperty
appendqualifiers
appendsnaks
appendtocategory
appia
applanata
apple
applicable
applicants
application
applications
apply
appreciate
appreciated
approach
appropriate
approval
approximately
apr
april
aprosmictus
aptenodytes
apteryx
apulica
apus
aq
aquaticus
aquila
ar
ara
arab
araban
arabia
arabian
arabic
arabicus
arac
aracari
arachniformis
arachnis
arachnites
arachnitiformis
araguaiensis
araklı
aral
aralık
aramaic
araneola
aranifera
arapgir
ararauna
arashiyama
aratinga
arau
araucana
araucariaceae
arausiaca
arbademli
arbitrary
arbor
arborea
arborescens
arboreum
arboreus
arborophila
arcanus
arch
archer
archeri
archibald
archipel
archipelago
archive
arcila
arctata
arctic
arctica
arcticus
arctos
arcuata
arcuatus
arculeo
ard
ardahan
ardak
ardanuc
ardea
ardens
ardes
are
area
areas
arecaceae
aren
arenaria
arenas
arenicola
arethusa
arevarevauupa
arfakensis
arfaki
arg
argentaria
argentata
argentea
argenteus
argentina
argolica
argophyllum
args
argsarg
argsi
argument
argus
arguvan
arhavi
ariadnae
arias
ariasae
ariasii
arida
ariel
arifiye
arikan
arikani
arinae
arini
aristata
arizonica
ark
arkikaraag
arko
arkıs
arle
arlı
armand
armandii
armas
armenia
armeniaca
armenian
armillata
arms
armutlu
army
arnaldoa
arnaud
arnaudi
arnavutko
arndt
arne
arnold
arnoldi
arntzen
aromatica
aromaticus
around
arpac
arq
arquata
arquatrix
arr
arrange
array
arredondo
arriba
arribas
arrival
arrow
arroyo
ars
arsin
art
artamella
artamidae
arthropoda
arthur
article
articles
articulata
artificialsnaks
artisornis
artist
artiste
artists
artova
arts
arturo
artvin
aru
aruensis
arunachal
arvense
arvensis
arxiv
arıcak
as
asarcık
ascalaphus
ascendens
ascidieria
ascocenda
ascocentrum
ascoglossum
ashe
ashmole
ashy
asia
asian
asiat
asiatica
asiaticus
asio
asioninae
ask
asking
asks
aslanapa
asp
aspasia
aspects
asper
aspera
aspidites
aspidogyne
asplundii
aspx
assam
assamica
assemian
assertnotnull
assigned
assimilis
assistance
assisted
associate
ast
aster
asteraceae
asteriscus
astrapia
astriata
astronium
asv
at
atabey
atak
atakum
atalca
atalpınar
atalzeytin
atas
atatu
atelerix
ateles
ater
aterrimus
ateuchosaurus
athabaskan
athene
atherina
athletes
athrotaxis
atibene
aticae
atii
ation
atkaracalar
atkinson
atlantic
atlantica
atlas
atnahwt
atoll
atra
atractocarpus
atractosteus
atrata
atratus
atricapilla
atriceps
atrichornithidae
atricollis
atrogularis
atrohiata
atronitens
atropurpurea
atropurpureum
atrorubens
attacus
attaviria
attend
attended
attention
attenuata
atthis
attica
atticora
attingens
attributes
attrstring
atwood
atwoodii
au
aube
aubert
aubery
auct
audebert
audenaerde
audience
audinet
audio
audouin
auf
auffenberg
auffenbergi
auflage
aufsa
aug
august
augusta
auguste
augusto
augustus
aulacorhynchus
aulosepalum
aurantia
aurantiaca
aurantiacum
aurantiacus
aurantiifrons
aurantiocephala
aurantius
aurata
auratus
aurea
aurelia
aurelio
aureola
aureum
aureus
auricapilla
auriceps
auricollis
auricularis
auriculata
aurifrons
aurita
auritus
aurivillius
auropalliata
aurora
aurorae
aus
ausstellungskatalog
austen
austin
austral
australes
australia
australiensis
australis
austria
austriaca
auteur
author
authority
authors
auto
autocthones
autofill
automatic
automatically
autres
autumnalis
aux
auxopus
av
available
avanos
avant
avcılar
avdarhisar
avdır
avec
avena
aveniformis
aver
average
averyanova
aveyronensis
avicennia
avila
avis
aviv
avril
avs
avustralyalı
avusturyalı
award
aware
axel
axillaris
axis
ay
ayancık
ayas
aybas
aybastı
aycuma
aydın
aydıncık
aydınlar
aydıntepe
ayeli
ayerbe
aykara
aymara
aymoninii
ayrancı
ayres
ayrey
aythya
ayuntamiento
ayvacık
ayvalık
ayıralan
ayırlı
ayırova
az
azara
azarkina
azdavay
azerbaijan
azerbaiya
azevedo
aziziye
azkale
azlıyan
azorella
azorica
azpelicueta
azurea
ałixi
b
ba
baba
babadag
babaeski
babar
babel
babri
baby
bacan
baccata
back
backed
background
backward
bad
badger
badia
badius
baehr
baeolophus
bafra
bag
baglafecht
bagnall
baha
bahamas
bahc
bahi
bahia
bahiensis
bahir
bahorucensis
bahrain
bahs
baig
bail
bailey
baileyi
baill
baillon
baird
bairdii
baker
bakeri
bakkamoena
baklan
bakteriyolog
bakırko
bal
bala
balabac
balaenoptera
balance
balansae
balass
balc
baldwin
baleares
balearica
balfouriana
bali
baliensis
balkan
ball
ballatrix
ballet
balli
ballii
balos
balsamorhiza
balsas
balthasar
baltimore
balya
balı
balıkesir
balıs
bamberg
bamboo
bambusicola
bamendae
banaz
band
banda
banded
bandyopadhyay
bandırma
bangii
bangladesh
bangs
bangsi
bangsia
bank
banks
banksii
banner
bannermani
bans
bao
baobab
baps
baptist
baptista
baptiste
bar
baran
barani
barat
barb
barbadensis
barbados
barbae
barbara
barbarossa
barbarus
barbata
barbosa
barbosella
barbour
barbuda
barbulata
barcelona
baremoze
barker
barkeri
barkeria
barklyi
barkudia
barlia
barnard
barnardius
barneville
barombi
baron
baronii
barrabandi
barre
barred
barrera
barrett
barretto
barriers
barrio
barros
barrows
barry
bars
bartholina
bartholomew
bartlett
bartletti
bartolome
barton
bartın
bas
base
based
baseline
basement
baseresult
basi
basic
basilica
basilika
basiliscus
basilisk
basiphyllaea
basis
baskervilla
basket
baskil
basoglu
basoglui
bass
bassel
bassiana
bastianii
bastos
bat
batanta
batavicus
bate
bateman
batemannia
bates
batesi
bathans
bathiei
bathmocercus
bathyaethiops
batista
batman
batoidea
battalgazi
battandieri
battista
battle
batzulnetas
bauchi
baudii
bauer
baumann
baumanniana
bautista
bavay
bay
bayat
bayburt
bayelsa
bayer
baykan
bayle
bayraklı
bayram
bayramic
bayramo
bayrampas
bayındır
bb
bbg
bc
bd
bdateend
bdatestart
bday
be
beach
beaked
bean
bear
beatles
beautiful
beauvois
beaux
bec
because
beccarii
becerra
beck
becker
become
beddard
beddome
beddomei
bedotia
bedriaga
bee
beecher
been
beethoven
before
begin
beginning
begins
begun
behalf
behavior
behind
behrii
bei
beih
beilstein
beim
being
beinn
bekannter
bekilli
belarus
belc
belen
belfort
belg
belize
bell
bella
bellatorias
bellied
bello
bells
bellus
beloglottis
belongs
beloved
below
belvedere
ben
benavides
bendilna
beneden
benedict
benetice
bengal
bengalensis
benghalensis
benham
benin
benine
benjamin
benn
bennett
bennettii
benoist
benson
bensoni
bensonii
benth
benthamia
benue
benzingii
ber
berardius
berg
bergama
bergonii
bergquist
bergtocht
beringei
berkenzwam
berlepsch
berlepschi
berli
berlin
bernal
bernard
bernarde
bernardi
bernardo
bernaysii
bernhard
bernieri
bernoullia
bernsteinii
berry
berrya
bert
bertaco
berthold
bertolonii
bertoloniiformis
bertram
bertrand
berus
beryllinus
bes
besni
best
bet
beta
betafeatures
betta
better
betulinus
between
beutler
bewickii
beyag
beydag
beykoz
beylikdu
beylikova
beyog
beyond
beypazarı
beyrichii
beyrodtiana
beys
beytu
bezy
bf
bg
bhatta
bhattacharjee
bhutan
bhutanica
bi
biak
bianca
biancae
bianch
bianchi
bianconi
bibliographic
bibliographie
bibliothe
bibron
bicalcarata
bicalcaratus
bicalho
bicalliata
bicallosa
bicallosum
bicarinata
bicinctus
bicolor
bicornis
bicornuta
bicornutum
bidens
bidentata
bidupensis
bieb
bifalcis
bifida
biflora
bifolia
bifrenaria
big
biga
bigadic
bigelow
bigger
bigogwe
bijdr
bikkia
bilate
bilecik
bilineata
biliran
bill
billed
billion
billy
biloba
bilobulata
bilunulata
bimaculata
bin
bingen
bingo
binn
binotia
biographie
biographies
biol
biologiste
biology
bipedidae
bipes
bipinnula
bipunctata
bir
bird
birds
birecik
birgit
birindelli
birthday
birula
bis
bischoff
biscutella
bishkek
bishop
bismarck
bismarckii
bismil
bispinosa
bissau
bissei
bistriata
biswas
bit
bithynica
bitlis
bitorquata
bitorquatus
biv
bivalvis
bivittatus
biyolog
bjn
bkz
bl
bla
black
blackbird
blackburn
blaesodactylus
blainville
blair
blake
blakistoni
blanc
blanchard
blanche
blanco
blanford
blanfordi
blanidae
blanus
blasius
blatt
blaubeuren
blaue
blechtrommel
bleeker
bleheri
blender
bletia
bletilla
blewitti
bleyensis
blica
blick
bliss
bloch
block
blocker
blocks
bloem
bloemknoppen
blog
blonde
blood
blossfeldiana
blowin
blue
bluebonnet
blues
blume
blumea
blumenzeitung
blyth
blythii
bm
bms
bn
bnf
bo
board
boat
bob
bocage
bocagei
bock
bocourt
boddaert
bodrum
body
boeadi
boehlkei
boehmei
boeleni
boettger
boettgeri
bog
bogert
bogerti
bogor
bogoriensis
bogotensis
boie
boiss
bojer
bojerii
bokchoonara
bol
bolbopsittacus
bolborhynchus
boli
bolivia
bolivian
boliviana
bolivianum
bolivianus
boliviensis
bolivyalı
bolle
bollii
bolu
bolus
bolusiana
bolvadin
bomarea
bomb
bombax
bombycilla
bombycillidae
bombyliflora
bonaparte
bonapartei
bonasa
bonasia
bond
bonett
boneza
bonkowski
bonn
bonnaterre
bonnet
bonplandia
boobook
book
bookmark
books
bookseries
bookseriesentity
bookseriesissue
bookseriesvolume
boolean
boone
boopis
bor
bora
boraquira
borbonica
borbonicus
borc
border
boreale
borealis
borges
boris
bornea
bornean
borneense
borneensis
borneo
bornm
bornmuelleri
borno
bornova
borodin
borough
bory
bosc
bosca
bosch
boselaphus
bosnia
bosse
bosser
boston
bostrychia
bot
botanic
botanical
botanikc
botaniste
botaurus
both
bots
botsuana
botswana
bottae
bottom
bougainville
boulenger
boulengeri
bound
boundaries
bountyphaps
bouqins
bouquins
bour
bourin
bourkii
bourne
bourquin
bourret
boutonii
bouvardia
bouvieri
bove
bowdich
bowmanii
box
boy
boyabat
boyd
boyer
bozcaada
bozdog
bozkurt
bozkır
bozova
boztepe
bozu
bozyazı
bprecision
br
braccata
brachiata
brachiatum
brachiloba
brachionidium
brachyceras
brachychiton
brachycolumna
brachydactyla
brachyglottis
brachylaena
brachymeles
brachypetalum
brachypetersius
brachypeza
brachypterus
brachyramphus
brachyrhaphis
brachyrhynchus
brachystachya
brachystele
brachyteles
brachyurus
bracteata
bracteatum
bracteatus
bracteosa
bractescens
brade
bradea
bradei
bradford
bradley
brady
bradı
braem
brahim
brain
brama
bramocharax
branch
brand
brandon
brandt
branickii
branta
bras
brasil
brasilianum
brasiliensis
brasiliscincus
brassavola
brassia
brassicae
brauer
braun
bravo
brazil
brazilian
break
breaking
breasted
breda
brehm
brehmeri
brehmii
brenchleyi
brenesia
brenesii
brenneri
brett
brettingham
breuning
breve
brevetto
brevicaulis
breviceps
breviflora
brevifolia
brevilabris
brevipedunculata
brevipes
brevipetala
brevipinguis
brevirostris
brevis
breviscapa
brewer
brewster
brian
brichardi
bridge
briefe
brieger
bright
brighton
brimley
bring
bringing
brisout
brisville
brit
britain
britanyalı
british
britski
britton
britz
broadley
brocchi
brocket
brodiei
broken
bromheadia
brongersma
brongersmai
brongniart
bronze
brooke
brookii
brooklyn
brooks
broom
brosme
brothers
brotogeris
broughtonia
brown
browne
browni
brownii
brownleea
brownlowia
browser
browsers
bru
bruce
brucei
bruijnii
brumalis
brunei
brunnea
brunneiceps
brunnescens
bruno
brussels
brutia
bryan
bryant
bryceana
brycinus
brycon
bryconacidnus
bryconaethiops
brygoo
bryopsida
bs
bst
bstructure
bt
btable
bu
bua
bubalornis
bubo
buca
bucak
bucarest
buccinator
bucephala
buch
buchanan
buchananii
buchtienia
buchtienii
buckland
buckleyi
buckup
budak
budaki
budget
buen
bug
bugarama
bugesera
bugeshi
bugs
buharkent
build
building
built
buitenzorg
bujumbura
buka
bukure
bulancak
bulanık
bulbocodioides
bulbophylloides
bulbosa
buldan
bulgar
bulgaria
bull
buller
bulleri
bumbogo
bungwe
buninga
bunker
bunopus
buphagus
burdur
burega
burera
burg
burger
burgess
burhani
burhaniye
burke
burkina
burm
burmanniana
burmeister
burmese
burning
burns
burt
burton
buru
buruensis
buruhukiro
burundi
bus
busais
busanze
busasamana
busengo
bush
bushekeri
bushenge
bushoki
busogo
busoro
bussing
busuanga
but
butantan
butare
butaro
butcheri
buteo
buthraupis
butler
butleri
butt
button
buttons
buyoga
buysson
buzau
bvalue
bw
bweramana
bweyeye
bwira
bwishyura
bwisige
by
byar
byer
byimana
byrne
byumba
c
ca
cabanisi
cabo
cabrera
cacatua
cacatuidae
cacatuinae
cacatuini
cacciali
cache
cached
cactorum
cadeidae
cadenat
cadetia
cadle
caecus
caenotropus
caerulea
caeruleogularis
caerulescens
caeruleus
caesalpinioideae
caesarea
caesaris
caespitosa
caetensis
cafe
caffer
cai
caica
caillei
caiman
cake
calabresi
caladenia
calamonastes
calandra
calandrella
calantha
calanthe
calanthoides
calatayud
calathea
calcarata
calcarea
calceolaris
calceolus
calcicola
calculatedage
calculateenddatetimestamp
caldensis
caldero
caldwell
caleana
caledonicus
caledoniscincus
calendar
calendula
calendulauda
calicalicus
calidris
california
californicum
californicus
call
callaeas
callaeidae
callargs
called
calliantha
calligonum
calling
calliope
calliparaea
calliptera
callitris
callocephalon
callosum
callotis
calocedrus
calocitta
caloenadinae
caloenas
caloglossa
calophylla
calopogon
calothorax
calotriton
calthropae
calvo
calvus
calycera
calycinum
calypso
calypsus
calyptomena
calyptophilus
calyptorhynchinae
calyptorhynchus
calyptotis
calyptrochilum
camacho
camarhynchus
cambridge
camellia
camelus
cameron
cameroon
cameroun
camerunensis
cami
camiguinensis
camii
camillo
camilo
camp
campacci
campaign
campanulata
campbell
campbelli
campbellii
campephagidae
campestris
campo
campos
camptostemon
campylocentrum
camus
can
cana
canacorum
canad
canada
canadensis
canadian
canal
canaliculata
canaliculatum
canariensis
canary
candica
candida
candidacy
candidate
candidates
candidum
candollei
canedo
canescens
caniceps
canicularis
canifrons
canigularis
canik
canis
canorus
canseco
cant
canterbury
canthin
canthium
cantor
cantwell
canus
cao
caparaoensis
cape
capellei
capense
capensis
capicola
capillaris
capital
capitata
capitol
capnodes
capped
capreolus
caprimulgidae
caprimulgus
caprina
captain
captcha
caption
caputo
caramaschi
carassius
carbo
carboeiro
card
cardinal
cardinalidae
cardinalis
cardiophylla
cardis
cardoso
cards
carduelis
carel
caribaea
caribbean
caribe
caribou
carica
caricifolia
carillo
carinata
carinatum
carinifera
carl
carleton
carlia
carlo
carlos
carlson
carmen
carnaval
carnea
carnets
carnevali
carnival
carnosa
carnosiflora
carnosifolia
carnosula
carnota
carola
carolina
carolinae
caroline
carolinensis
carpathians
carpenter
carpinterae
carpodacus
carpodiptera
carr
carranza
carrera
carrii
carrikeri
carrillo
carsonii
cartas
carteri
carunculata
carunculatus
carvajal
carvalho
carvalhoi
carving
carya
caryocatactes
casa
casasia
casciotta
cascon
case
cases
casiquiare
caspar
caspia
caspius
cassin
cassini
cast
castan
castanea
castaneiceps
castaneus
castanho
castanops
castanopterum
castanotis
castanotum
castaway
castelnau
castillo
castle
castre
castri
castro
casualis
casuariidae
casuarina
casuarius
cat
catago
catalan
catalaunica
catalpa
catamene
catarina
catasetum
cate
catedral
categori
categoria
categorie
categories
categorizebyplaceofbirthanddeath
category
categorynameprefix
categoryunknowndeathdate
catemaco
catenazzi
catentity
cath
cathartidae
catharus
cathcartii
cathedral
catherine
catling
catonly
catopuma
catostemma
cattle
cattleya
caucae
caucaea
caucasica
caucasicus
caucasus
cauda
caudalis
caudata
caudatum
caudatus
caudimaculatus
caudomaculatus
caularthron
caulescens
cauliflora
caused
cauta
cav
cavanillesia
cave
cayana
cayennensis
cayman
caymanensis
cazorlensis
cc
cd
ce
ceb
cebus
cecil
ceciliae
cecropis
cee
ceiba
ceiling
cek
celatiscincus
celebensis
celebica
celebration
cells
celtis
cembra
cembre
cembroides
cemetery
cenisia
census
center
centers
central
centralbl
centralis
centralnotice
centre
centro
centroame
centrocercus
centropyge
century
cephalanthera
cephalantheropsis
cephalanthus
cephalaspidomorphi
cephalonica
cephalophus
cephalorhyncus
cephalotes
cephalus
cepphus
cerastes
ceratandra
ceratobranchia
ceratophora
ceratostylis
ceremonies
ceremony
cerf
ceriagrion
cerina
cernua
certain
certhia
certhiidae
certhilauda
cervus
ceryle
ces
cesar
cesmeensis
cessite
cest
cet
cetti
ceyhan
ceylanpınar
cf
cg
ch
cha
chabanaud
chabot
chacoensis
chadiza
chaetodontoplus
chair
chalceus
chalcides
chalconota
chalcophaps
chalcopsitta
chalcoptera
chalcopterus
chalcosoma
chalcospilos
chalcurus
challenge
challengeri
chama
chamaegastrodia
chamaeza
chamberlin
chambers
chameleon
chan
chance
chanda
chandler
chang
change
changed
changes
changin
changing
channel
chanson
chaos
chapaensis
chaparro
chapin
chapman
chapmani
chapple
characidium
characiformes
characin
character
characters
charadriiformes
charadrius
charax
charge
charles
charleston
charlesworthii
charlotte
charmosyna
charpentier
charter
charts
chase
chatham
chathamensis
chathamica
chaubardia
chauna
chauve
chavuma
che
cheboksary
check
checking
checktype
cheeseman
cheilinus
cheirodendron
cheirodon
cheirostylis
chelonistele
chemin
chen
cheng
chenonetta
chernovi
cherry
chersomanes
chester
chestermanii
chestnut
chevalieri
chez
chi
chiaje
chiapas
chiapensis
chibombo
chicago
chicken
chien
chiengi
chihi
child
children
chile
chilensis
chililabombwe
chilodus
chiloglottis
chilomycterus
chilopogon
chiloschista
chilubi
chimaera
chimanimaniensis
china
chinensis
chinese
chingola
chinsali
chioninia
chipata
chiranthodendron
chirio
chiriquensis
chiriri
chiron
chiroptera
chiroxiphia
chistochina
chitina
chlidonias
chloraea
chlorantha
chloris
chlorocebus
chlorocercus
chlorochrysa
chlorolepidotus
chloroleuca
chlorophanes
chlorops
chloropseidae
chloroptera
chloropterus
chlorornis
chlorospingus
chlorothraupis
cho
chobe
chocoensis
chocolate
choice
choisie
choliba
choma
chondrichthyes
chondrodactylus
chondrorhyncha
chondrostei
chongwe
choose
chopin
chosen
choudhury
chris
christ
christchurch
christenson
christensonii
christian
christiana
christina
christinae
christine
christmas
christoph
christophe
christopher
chron
chronicle
chroniques
chrysantha
chrysanthemum
chrysia
chrysobrycon
chrysocome
chrysocycnis
chrysogaster
chrysoglossum
chrysolaus
chrysolophus
chrysomelas
chrysonotus
chrysoptera
chrysopterygius
chrysostoma
chrysothlypis
chu
chuaynkern
chubb
chugach
chukar
chun
chunii
church
churchill
chute
chysis
chytroglossa
ci
cia
ciccaba
cichlidae
cicinnurus
ciconia
ciconiiformes
cicur
cidades
cide
cihanbeyli
cile
ciliaris
ciliata
ciliatum
ciliatus
cilicica
ciliolata
cina
cinclidae
cinclosomatidae
cinclus
cinctus
cineracea
cinerascens
cinerea
cinereiceps
cinereus
cinnabarina
cinnabarinum
cinnamomeus
cintra
cio
circaea
circle
circumflexa
circumstances
circus
cirillo
cirrhaea
cirrhopetalum
cisneros
cissa
cisticola
cisticolidae
citation
citations
cite
citeref
citetype
citharinus
cities
citoid
citoyen
citreolaemus
citrina
citrinella
citta
city
cius
civilians
cizre
ck
ckbr
cke
ckel
cker
ckoerner
clade
claes
claim
claimid
claims
claimspropertyid
claire
clamator
clancey
clandestina
clanga
clangula
clara
clarae
claravis
clareae
clarence
clarissa
clark
clarke
clarkei
clarkii
class
classe
classical
clastolepis
claude
claudia
claudio
claudius
claus
clausa
clavata
clavicornis
clavigera
clay
cle
clear
cleisocentron
cleisostoma
cleistes
cleistogama
clem
clemens
clemensiae
clemente
clements
clench
cleveland
click
clicked
clicking
cliff
clifford
cliftonii
climacteridae
climat
clinton
clock
cloes
cloesii
clone
close
clouds
cloudsley
clowesia
clowesii
club
clupeiformes
cluster
clymene
clypeata
cm
cmp
cn
cnesterodon
co
coa
coast
coat
cobanense
cobanensis
cobb
cobelli
coccinea
coccineorchis
coccoloba
cochinchinensis
cochleanthes
cochlearis
cochleata
cochlioda
cochoa
cochran
cockatoo
cockrum
cocos
cocroft
cocteau
code
codemirror
codes
codonorchis
codonosiphon
coelebs
coelestis
coelia
coeloglossa
coeloglossum
coelogyne
coeranoscincus
coerebidae
coerulea
coerulescens
coffee
cogger
coggeri
cogn
cognatus
cohen
coilostylis
coko
colchicus
coleman
colemanii
colenso
colensoi
colgan
colin
coll
collaborate
collaboration
collapsed
collared
collari
collaria
collaris
colleagues
collected
collectif
collecting
collection
collections
college
collembola
colleyi
collina
collins
cologne
colombia
colombian
colombiana
colombianus
colon
colony
color
colorado
colorata
colored
colossoma
colossus
colubridae
columba
columbia
columbianus
columbina
columbinae
columbininae
columboides
column
columnaris
columns
com
comata
comayaguensis
combat
comber
combine
combined
come
comet
comfortable
coming
comma
command
commands
commas
comme
commemo
comment
commente
comments
commersonii
commit
committee
common
commons
commonsmedia
commonwealth
communicate
communication
communis
communities
community
communityhealth
comorensis
comoros
compact
compacta
compagnons
compan
companion
company
compare
comparettia
comparison
compat
competition
complaints
complete
completed
complex
complexdate
composita
composite
compressa
compressicaulis
compressus
computer
comstock
comte
comu
con
conant
concat
concava
conceptual
concerns
concert
concinna
concinnia
concolor
condition
condorensis
conduct
cone
confe
conference
conferta
confertus
config
configuration
confirmed
conflict
conflicting
conflicts
confusa
confusum
congesta
congestum
congo
congratulations
conirostrum
conjunction
conjunctor
conn
connata
connivens
connochaetes
conopophaga
conopophagidae
conopsea
conoscenza
conothraupis
conrad
conradiae
consensus
consider
consideration
consistent
consobrina
consp
conspersa
conspicillatus
constant
constantin
constantine
constraints
constricta
consultation
consultations
contact
contain
contains
conte
content
contentlanguagecode
contents
contenttranslation
contes
contest
contests
context
continent
continents
continue
contorta
contr
contra
contre
contreras
contribute
contributions
contributor
contributors
control
controlled
conuropsis
convallariiforme
conversation
conversations
conversiontosiunit
convert
converted
converttodate
converttodatecommonpart
converttodatenewstylepart
convexa
convoluta
cook
cooke
cooki
cooper
cooperation
cooperi
coord
coordinate
coordinator
cope
copeoglossum
cophoscincopus
copper
coprosma
copy
copyright
copyto
coracias
coraciiformes
coracopsinae
coracopsis
coral
coralensis
corallorhiza
corax
corbic
corcoracidae
cordata
cordatum
cordem
cordifera
cordifolia
cordigera
cordilabia
core
corensis
coriacea
coriaceum
coriophora
coripatae
coris
corneliana
cornelis
cornelius
corniculata
cornuta
cornutula
cornutus
corokia
coromandus
coronaria
coronatus
coronavirus
corone
coronella
coronulatus
correa
correct
correll
correspondance
corresponding
corse
cortez
corticicola
corucia
corun
corunastylis
corvidae
corvina
corvoidea
corvus
cory
coryanthes
corybas
corycium
corylus
corymborkis
corymbosa
corymbosum
corythaixoides
corythornis
corytophanes
cosmic
cosmoledo
cosmos
costa
costaricanum
costaricensis
costata
costes
cot
cotingidae
cottontail
coturnix
could
couloni
council
count
countbythousands
counting
countries
country
countryentity
countryentityid
countryflags
countryoptions
county
couper
course
court
cousin
covacevich
coventry
coventryi
cover
covid
cowboy
cox
coyle
cp
cr
crabronifera
cracticidae
craig
cramer
crampton
crassa
crassicaule
crassicaulis
crassicornis
crassifolia
crassifolium
crassilabia
crassirostris
crassum
crassus
crawford
cre
cream
create
created
creating
creation
creative
crecca
creek
cremasta
cremastra
crenata
crenatum
crenulata
crested
crete
cretensis
cretica
creurgops
crew
crex
crh
cribb
crimea
crinifer
crinigera
crinita
crinitum
crippen
crispa
crispum
crispus
crista
cristata
cristatum
cristatus
cristina
cristo
crit
critical
crits
crivains
croacia
croatia
croatii
crocodeilanthe
crocodiliceps
crocodylus
croix
crop
cropped
cross
crossing
crossoptilon
crotaphytus
crottini
crow
crowned
crucianella
cruciforme
cruciger
cruenta
cruentata
cruentus
cruz
cruziana
cry
crypsirina
cryptantha
cryptarrhena
cryptoblepharus
cryptocentrum
cryptophaps
cryptophoranthoides
cryptopus
cryptostylis
cryptoxanthus
crypturellus
crystal
cs
csa
css
ct
ctenobrycon
ctenotus
ctor
cu
cuba
cuban
cubensis
cuc
cuckoo
cucullata
cucullatus
cuculoides
cuculus
cuisine
cuitlauzina
culik
culion
culminatus
culminicola
cultivar
cultratus
cultura
cultural
culture
cumayeri
cumi
cumingi
cundinamarcae
cuneata
cunha
cunicularia
cunninghami
cunninghamia
cunninghamii
cup
cupania
cuprea
cupressaceae
curr
curran
curranii
current
currententity
currentframe
currently
cursor
curti
curtis
curtisii
curviflora
curvirostra
curvirostris
cuspidata
custom
customize
customizing
customtitle
cut
cutler
cuvier
cuvieri
cv
cy
cyabakamyi
cyabingo
cyahinda
cyanaeorchis
cyanea
cyanerpes
cyaneus
cyanika
cyanistes
cyanocephala
cyanocharax
cyanocitta
cyanocorax
cyanogenia
cyanolaemus
cyanoliseus
cyanolyca
cyanomelana
cyanopica
cyanopis
cyanopsitta
cyanoptera
cyanoptila
cyanopygius
cyanoramphus
cyanurus
cyanzarwe
cyathigerum
cyato
cyclichthys
cyclochila
cyclodomorphus
cyclopense
cyclopogon
cyclopsitta
cyclopsittini
cyclostomata
cycnoches
cyeru
cyeza
cygnoides
cygnus
cyinzuzi
cylindrica
cymbidiella
cymbidifolia
cymbidium
cymboglossum
cynocephalus
cynopotamus
cynops
cynorkis
cynthia
cypelligera
cyphochilus
cyprinidae
cypripedioides
cypripedium
cyprus
cypselomorphae
cyreni
cyril
cyrtopodium
cyrtostylis
cystorchis
cyumba
cyungo
cyuve
czech
czechura
czi
cılar
d
da
dabeshanensis
dachilleae
dacnis
dactylorhiza
daday
daget
dahl
dahlem
dahlia
dai
daily
daiss
daisy
dakota
dalaman
dalatensis
dale
dalessandroi
dall
dalla
dallas
dalli
dallol
dalstro
dalstroemii
dam
dama
damal
damaliscus
damarensis
dame
damselfly
dan
dana
dance
dancer
dancers
dances
danesch
dangerous
danie
daniel
danilowa
danimarkalı
danmark
danny
dans
danse
dansk
dante
danzhit
dao
dar
darende
darevskia
darevsky
dargec
dark
darling
darmstadt
dart
darter
darwin
darwinii
darıca
das
dasia
dasilva
dasypus
data
datatype
datatypes
datavalue
datc
date
dateclaims
dateofbirth
dateofcreation
dateofdeath
dateofpublication
datepart
dates
datesi
dau
daubenton
daudin
daugherty
daurica
dauurica
dauuricus
david
davidi
davidiana
davidii
davidson
davies
davis
davison
davisoni
day
daya
dayana
dayanum
days
daza
dazkırı
dc
dd
ddr
de
dea
dead
deadline
dealing
dean
dear
death
debelius
debilis
deborah
debruyneara
debussy
dec
decaocto
decaryana
december
decide
decided
decimals
decine
decipiens
decision
declaration
decora
decumbens
decurrens
deeann
deeleman
deep
deepcopy
deer
default
defaultinfobox
defaults
define
deg
deiregyne
del
delarbrea
delavayi
delegorguei
delete
deleted
delforge
delhi
delhierroi
delicata
delicatula
delice
delichon
delivered
delivery
della
delle
deloy
delphinensis
delphinus
delta
deltoglossa
deltoidea
dem
demersus
demirci
demirko
demiro
demis
demissa
demo
democratic
demonstration
demoski
demre
den
denali
denburgh
dendragapus
dendrobium
dendrochilum
dendrocitta
dendrocolaptinae
dendrocopos
dendrocygna
dendrocygninae
dendrohyrax
dendroperdix
dendrophylax
dendu
dene
denetha
deng
denh
denis
denise
deniz
denizli
denmark
dennis
denny
densa
densiflora
densiflorum
densiflorus
dentata
dentatum
dentatus
denticulata
denticulatum
dentifera
denudata
department
depauperata
dependens
depending
deploy
deployed
deploying
deployment
deployments
deppei
deprecated
deprecatedsources
depressa
der
dera
deraniyagala
derbent
derbiana
derbianus
derebucak
dereli
derepazarı
derik
derince
derinkuyu
derlein
dernekpazarı
deroptyus
des
desc
descent
described
describing
descriptifs
description
descriptions
desde
desert
deserti
desf
desierto
design
designed
desire
desired
desjardins
desktop
desmarestii
desna
despectans
destination
det
detail
details
detective
deuterodon
deutsches
deutschland
deux
deva
develi
develop
developed
developer
developers
development
device
devices
devillei
devillers
devoniana
devrek
devrekani
dewildei
df
dghelaayce
di
dia
diadema
dialects
dialog
dialoghi
dialogs
dialogues
diamonds
dianica
diapoma
diardi
dias
diaz
dicaeidae
dichaea
dichinanek
dichotoma
dichroa
dichroma
dichromanthus
dickerson
dicle
dicruridae
dicrurus
dictionary
dictionnaire
did
didactylus
didim
didunculinae
didunculus
didyma
didymoplexis
die
diego
diesmos
dieter
dietr
dietrich
dieu
diff
differ
difference
different
difficult
diffs
diffusus
diffy
digit
digital
digitata
digits
digitus
diglossa
digor
dikili
dikmen
dil
dilatata
dilectissimus
diliff
dillon
dilomilis
dilovası
diluta
dimerandra
dimidia
dimidiatus
dimorpha
dimunitive
din
dinagat
dinar
dinarolacerta
dinasoedd
dine
dinemelli
dinemellia
dinesh
ding
diodia
diodon
diomedea
diophthalma
diopsittaca
diphylla
diplocaulobium
diplodiscus
dipnoi
dipodium
dippenaar
dipterocarpus
dipterolog
dipteropterolog
dir
direct
direction
directly
dirk
dirksen
disa
disable
disabled
disambiguation
disaster
disc
dischorensis
discifera
discoidea
discolor
discophylla
discours
discover
discurus
discuss
discussion
discussions
disney
disperis
display
displaycount
displayed
displays
disruption
dissemination
dissimilis
distans
disticha
distichum
distribute
district
districts
disud
dit
diterrane
dites
dition
ditions
diuris
divaricata
divergens
diverse
diversity
dives
divorce
divrig
dixon
diyadin
diz
dji
djibouti
dk
dmitry
do
doan
doc
dockrill
dockrillia
doctor
document
documentary
documentation
documents
dod
dodekanensis
dodii
dodson
dodsoniana
dodsonii
dodurga
does
doesn
dog
doh
dohertyi
doi
dois
dolichopus
dollar
dolphin
dom
domain
domanic
dome
domenico
domergue
domestica
domesticus
domicella
domin
domingensis
domingoa
dominica
dominican
dominicensis
don
donald
donaldsoni
done
dong
donn
donnellan
donnelly
door
dorado
doreanus
doria
doritaenopsis
doritis
dorotheae
dorsalis
dorsomaculatus
dorst
dos
dot
doteli
douard
double
doubleday
dougherty
doughty
douglas
dove
dowiana
down
downie
download
dozen
dprecision
dr
draan
dracontia
dracophyllum
dracula
draft
drafting
drag
dragging
drakaea
drake
drakensberg
drawing
draws
dream
dreams
dreher
drepanididae
drepanoptila
drepanornis
dresden
dressler
dresslerella
dressleri
dressleria
dressleriana
drewes
driessenii
drinking
drive
dromaiidae
drone
drop
dropdown
dropped
druce
drumana
drummond
drummondii
dryadum
drymoanthus
drymoda
dryomys
dryoscopus
dsb
dsc
dsee
dstructure
dt
dtable
du
dual
duan
duarte
duartei
dubia
dubius
dubois
duboisi
duboisialestes
duboulayi
duck
duckeella
duclouxii
ducrotay
ducula
dudley
due
duff
dufresniana
duge
dugesii
duidae
duisburg
duivenbodei
dulidae
dumas
dume
dumlupınar
dumur
duncan
dune
dunin
dunn
dunst
dunstervillei
dunstervilleorum
dupetit
dupetithouarsii
duplex
duponti
duque
dura
durag
durand
durangensis
durbin
during
durio
dursunbey
dusenii
dusk
dusky
dussumieri
dusumieri
dutch
dutra
dutrae
duvaucelii
duya
duzee
dvalue
dvd
dwarf
dwight
dwyer
dy
dybowski
dyke
dylan
dynastes
dyris
dz
dır
e
ea
each
eada
eagle
eared
earina
earl
earlier
early
earth
easier
easily
east
easter
eastern
easy
eat
eating
eaton
eau
ebap
eberhard
ebey
ebinkarahisar
eburnea
eburneum
ec
ecallosa
eceabat
echinacea
echinata
echinocarpa
echinotriton
eclectus
eclipse
economica
ecornuta
ectopistes
ecuador
ecuadorana
ecuadorense
ecuadorensis
ed
eda
edeling
edentulum
edgar
edhiitat
edinburgh
edirne
edison
edit
editathon
edited
edithistory
editing
edition
editions
editor
editors
edits
edmond
edmund
edmunds
edouard
edremit
eds
edt
edu
eduard
eduardo
eduardogobi
educational
edulis
edvard
edward
edwards
edwardsi
edwardsii
edwin
edze
edłoha
ee
een
eesti
ef
efaatli
efate
effect
effects
effort
effusa
eflani
eg
ege
egernia
egertonianum
egg
egre
egregia
egret
egretta
egypt
ehem
ehir
ehlers
ehrenberg
ehri
ei
eibesfeldt
eibl
eichwald
eiffel
eigenmann
eight
ein
einar
eine
einer
eines
eiro
eiselt
either
ek
ekdag
ekerek
ekino
ekmanii
ekmece
ekmeko
ekvadorlu
el
ela
elachocharax
elamu
elasmobranchii
elasy
elata
elatior
elatum
elatus
elazıg
elbeyli
elbistan
eldivan
elebi
election
elections
elegans
elegantula
elements
eleonorae
eleorchis
eleoscytalopus
elephant
elephas
eles
eleutherococcus
eli
elias
eliasii
elievler
eligible
elikhan
eliomys
eliot
elitre
elizabeth
elleanthus
ellen
elliot
elliotii
elliottii
elliptica
ellis
ellisii
ellsworth
elmadag
elmalı
elmer
elmeri
elongata
elongatia
elongatum
elongatus
elphinstonii
else
elseif
eltik
eltikc
elyoy
emae
email
emanuel
emarginata
emarginatum
embe
emberiza
emberizidae
emblem
embrace
embreea
embreei
emdinli
emeiensis
emergency
emery
emet
emil
emiliana
emilio
emini
eminibey
emirates
emirdag
emirgazi
emis
emma
emmanuel
emmett
emoia
emperor
empire
empty
emu
emwae
en
enable
enabled
enabling
enallagma
encephalartos
enclosed
encode
encodedvalue
encourage
encyclia
end
endangered
endara
enddatetimestamp
ende
ended
ending
endl
endonezyalı
endres
endresii
ends
enemy
enez
enforce
enforceable
enforcement
eng
engagement
enganensis
engel
engelmannii
engine
engineer
engineerguy
england
engler
english
enhance
enicognathus
enkaya
enobarbia
enpazar
enrico
enrique
ensata
ensifolia
ensign
ensure
entandrophragma
entities
entity
entityid
entityoptions
entodinium
entomodestes
entomolog
entre
entriestolookupcategory
environment
environments
enwut
eo
eolophus
eos
epeiros
ephippiorhynchus
ephippium
epi
epibator
epiblastus
epidendrum
epigeneium
epilobium
epimachus
epipactis
epipactoides
epiphyticus
epipogium
episcopalis
eques
equestris
equinum
equisetum
equus
er
erakor
eratap
erbaa
ercis
erdek
erdemli
erecta
erectiflora
ereflikoc
ereg
eremias
eremiascincus
eremita
eremomela
eremophila
eremopterix
erenler
ergani
ergueta
eria
eric
erica
erich
erichson
erik
erinacea
erinaceus
eriochilus
eriogonum
eriopsis
eriotheca
erithacus
eritrea
erkes
erkezko
erl
ermenek
ermik
ermita
ernest
ernesto
ernodea
ernst
ernstia
erosa
erromango
error
errors
erubescens
eruh
eruption
erwin
erycina
erythrocephala
erythrodes
erythrogaster
erythrogenys
erythropitta
erythrops
erythroptera
erythropterus
erythropus
erythropygius
erythrorhyncha
erythrotis
erythroxantha
erythrozonus
erythrura
erza
erzin
erzincan
es
esa
esaray
escalerensis
escapepattern
escobar
escobariana
escobarii
esenler
esenyurt
eski
eskil
eskipazar
eskis
esmeralda
esmeraldae
esocast
esox
espan
especially
especie
espejo
espi
espinal
espinoza
espiritu
espiye
esprit
essai
essais
essays
essential
est
estado
estados
estatal
este
estonia
estradae
estrellensis
estrilda
estrildidae
et
etc
eterovick
etheostoma
ethiopia
ethnic
ethnologue
etimesgut
etolog
etruscus
etymology
etzel
eu
euanthe
eubalaena
eublepharis
eudocimus
eudorcas
eudromia
eudyptes
eudyptula
eufalconimorphae
euge
eugen
eugene
eugeniae
eugenii
eugenio
eugongylus
eulagos
eulophia
eulophiella
eumeces
eumecia
eumecocaulon
eunomus
eunymphicus
euonymus
euops
eupatria
eupetidae
eupeus
euplectes
euproctus
eupsittula
eur
eurasian
europa
europaea
europaeus
europara
europe
european
euroscaptor
eurycentrum
eurychone
eurylaimidae
eurylaimides
eurylaimus
euteles
eutoxeres
eutropis
euxina
eva
evaluate
evaluated
evaluation
evalwikimediaorg
evans
evciler
even
event
events
eventually
ever
everett
everetti
evermann
eversmann
eversmanni
every
everyone
everything
evidence
evolution
evrardii
evren
ewose
ex
exaltata
example
examples
exasperata
excavata
excelsa
except
excited
executive
exercise
exhibition
exigua
exilis
eximia
eximius
exist
existent
existing
exoplanets
expanded
expanding
expandspecialsqualifiers
expandtemplate
expansa
expansum
expect
expected
expenses
experience
experienced
experiences
experiment
experimental
experiments
explains
explanata
exploring
export
express
expression
exsul
extended
extension
extensiontag
exterior
external
extinct
extra
extractcategory
eyak
eye
eyed
eyh
eylesii
eynesil
eyu
ez
ezine
f
fa
faberi
fabio
fabiobarrosii
faboideae
fabrei
fabrice
fabricius
facade
face
facebook
faced
facel
facilitating
fagaceae
fain
faint
fairbanks
fairy
falakalı
falanruw
falcata
falcatifolium
falcatus
falcinellus
falcipennis
falco
falcon
falconiformes
falea
fall
fallax
fallow
falls
false
falsely
famberhorst
familiaris
family
familycolor
fan
fang
fantasy
faq
far
fargesii
farinosa
farm
farmer
farquhar
farreri
fasciata
fasciatum
fasciatus
fascicularis
fasciculata
fasciolata
fasciolatus
fashion
faso
faster
fastest
fastigiata
fastuosa
fate
father
fatih
fatsa
fauriei
faust
favorite
fawc
fawn
fayard
fdc
fe
fea
feadensis
feae
feature
featured
features
feb
february
federal
federated
federation
federico
feedback
feel
feels
fei
feichtinger
feigenpirol
feio
feke
fela
felder
feldmann
feldweg
felipe
felis
felix
female
feminism
femlabels
femme
femoralis
fen
feng
fer
ferdinand
ferdinandii
ferdinando
ferenc
ferguson
ferizli
ferna
fernanda
fernandes
fernando
ferox
ferr
ferrari
ferreira
ferret
ferruginea
ferrugineifrons
ferrugineus
ferrum
fest
festiva
festival
festivals
festivus
fete
fethiye
few
feylinia
ffer
fff
fi
ficedula
field
fifa
fig
fight
fiji
filamentosa
file
fileexporter
fileimporter
files
filho
filholi
filifolia
filiformis
filip
filipinli
filippo
fill
filled
film
filosofi
fils
filter
filterbylanguage
filterbyrank
filtered
filteredclaims
fimbriata
fimbriatum
fin
final
finally
find
findclaimsbyvalue
findings
finds
finet
finike
finish
finished
finisterrae
fink
finland
finlandiyalı
finlaysoniana
finn
finned
finnougoria
finsch
finschi
finschii
fire
fireworks
first
fischer
fischeri
fisek
fish
fishbase
fisher
fishes
fishing
fissa
fit
fitch
fittonia
fitzg
fitzgerald
fitzgeraldii
fitzinger
fitzingeri
fitzsimons
fiu
five
fix
fixed
fixing
fj
fl
fla
flabellata
flabelliformis
flac
flaccida
flag
flagbegindate
flagimage
flagimagestatement
flags
flagstarttime
flame
flammea
flammeolus
flammeus
flat
flava
flaveola
flaveolus
flavescens
flavicans
flavicollis
flavida
flavifrons
flavigularis
flavipes
flavirostris
flaviventris
flavopectus
flavovirens
flavoviridis
flavum
fleischm
fleischmannii
fleming
fletcher
flexilis
flexions
flexuosa
flickingeria
flight
flokkur
flood
floor
flora
flores
floribunda
floribundum
florida
floridana
floris
florum
flosculus
flow
flower
flowers
floyd
flu
fluviatile
fluviatilis
fluviphylax
fly
flying
fm
fo
focke
focus
focused
foersteri
foetida
fog
fol
foldats
folders
foliata
foliosa
folk
folklore
follow
following
follows
fonscolombe
fonseca
food
fooentity
footage
footnotes
for
forbes
forbesi
forbesii
force
forcipata
ford
fordii
foreign
forest
forever
forget
form
format
formatcommonsmedia
formatcountryclaimwithflag
formatdatavalue
formatdateimpl
formatentityid
formatentitywithgenderclaim
formatexternalid
formatmath
formatnum
formatplacewithqualifiers
formatproperty
formatpropertydefault
formatpropertywithmostrecentclaimandindicator
formatredlinkwithinfobox
formatrefs
formatsnak
formatstatement
formatstatementdefault
formatted
formattedclaims
formattedstatement
formatter
formatting
formaturlimpl
formaturlsingle
formaturlvalue
formdate
formerly
formicariidae
formicarius
formicifera
formosa
formosae
formosana
formosanus
formosum
formula
formulas
formulæ
forpini
forpus
forrester
forrestii
forsius
forsska
forst
forsteni
forster
forsteri
forsyth
fort
fortier
fortress
fortunae
fortunei
fortunella
forum
forward
foster
foto
foudia
found
foundation
fountain
fouquieria
four
fowler
fowlie
fox
fps
fr
fractal
fractiflexa
fragaria
fragilis
fragrans
frame
frameless
framework
franc
france
francesco
franch
francia
francis
francisco
franco
francolinus
frank
frankfurt
franklin
frankreich
frankreichs
frankrike
frans
fransız
frantis
frantzii
franz
franzen
frapp
fraser
fraseri
fratercula
frau
fre
fred
frederic
frederick
frederik
fredrik
free
freedom
freestyle
freezes
freiburg
freight
freire
freitas
fremontodendron
frenata
french
frequently
frey
frhdkazan
frica
friday
friedhof
friedmann
friedrich
friend
friendly
fringilla
fringillidae
frisch
fritillary
fritts
fritz
fro
froehlich
froese
frog
from
front
frontalis
fronted
froriep
frost
frr
fru
fruit
fry
fte
fu
fuchs
fuchsia
fuchsii
fuciflora
fuelleborni
fuente
fuentes
fuertesi
fugax
fuhn
fuiten
fujita
fukushima
fukuy
fulgens
fulgidus
fuliginosa
fuliginosus
full
fullname
fully
fulva
fulvescens
fulvicollis
fumbwe
fun
func
function
functionality
functions
functiontocall
fund
fundamental
funding
funds
funerea
funereus
funkhouser
funkiella
furcata
furcatipetala
furcifera
furnariidae
fusca
fuscata
fuscater
fuscescens
fuscicollis
fuscus
fusiformis
futuna
future
fußballspieler
fy
fındıklı
g
ga
gabon
gabriel
gacaca
gacurabwenge
gadget
gadgets
gadus
gaga
gagnep
gahanga
gahara
gahengeri
gahini
gahunga
gaimard
gajbe
gakenke
gakona
gal
gala
galactotes
galapagoensis
galaxia
galaxy
galbula
galeandra
galearis
galeaspida
galeata
galeatum
galega
galena
galeocharax
galeola
galeotti
galeottia
galeottiana
galerida
galerita
galgulus
galicia
galicien
galictis
gallagher
gallego
galleries
gallery
gallica
gallicolumba
galliformes
gallimard
gallinago
galloanserae
gallopavo
galloperdix
galloti
gallotia
gallus
galpinii
galvis
gambel
gambelia
gambia
gambier
gamble
gambusia
game
games
gandhi
gans
gao
gap
garavello
garay
garayana
garayi
garci
garcia
gard
garden
gardens
gardiner
gardineri
gardner
gardneri
garganica
garman
garrett
garrulus
garry
gart
garten
garth
gary
gas
gasabo
gasaka
gasange
gashaki
gashanda
gashenyi
gashonga
gashora
gaspard
gasparini
gaston
gastrochilus
gastropholis
gataraga
gatare
gate
gatebe
gatenga
gates
gather
gathering
gatore
gatsata
gatsibo
gatumba
gatunda
gaua
gaudich
gaulke
gautierensis
gavia
gay
gazella
gazetteer
gaziemir
gazimag
gaziosmanpas
gazipas
gd
ge
geburt
gebze
gecko
gedichte
gediz
geelvink
geelvinkensis
geelvinkiana
geerinck
gehring
gehrtii
geisleri
geissler
gekko
gel
gelaltar
gelendost
gelibolu
gemerek
gemlik
gemma
gemmula
gen
genc
gender
gene
genera
general
generation
genetikc
genicanthus
geniez
genitivusmonthesnm
genitivusmonthesom
genitivusyear
gentilis
gentner
gentryi
genychila
genyorchis
geobot
geodorum
geoffrey
geoffroy
geoffroyi
geoffroyus
geographic
geopelia
geophaps
geophyte
georg
george
georges
georgia
georgii
geospiza
geotrygon
gephyrocharax
ger
gerais
gerald
gerardo
gercu
gerede
gerger
gerhard
gerlach
germain
german
germany
germencik
geronticus
gert
gervais
geryi
gerze
geschichte
gespra
gessner
get
getbeststatements
getboolean
getcategory
getcategorybycode
getcode
getconfig
getcontentlanguage
getdate
getelementlink
getentity
getentityobject
getflag
getlabel
getlabelwithlang
getparameters
getparent
getparentsinboundariessnakimpl
getpeopleaswikitext
getpersonnameaslabel
getpropertydatatype
getpropertyparams
getrefhtml
gets
getsingle
getsinglestringqualifiervalue
getsitelink
getsourcingcircumstances
gettimeboundariesfromqualifier
getting
getuserfunction
geva
gevas
gewo
geyve
gezek
ggaał
ggax
ghana
gharakhanyan
ghillanyi
ghost
gi
gianfranco
giant
giaretta
gibbes
gibbons
gibbosa
gibbs
gibbsiae
gibsoni
gibsonii
gicumbi
giebel
gif
gigantea
giganteum
giganteus
gigas
gigoura
gihango
giheke
gihombo
gihundwe
gikomero
gikondo
gikonko
gikundamvura
gil
gilbert
gilbertoi
gilchrist
gill
gilles
gillespie
gilli
gilliard
ginkgo
giovanni
girard
girardinus
giraud
giresun
giri
girl
girls
girne
gisagara
gisenyi
gishamvu
gishari
gishubi
gishyita
gisovu
gisozi
gitambi
gitega
gitesi
githaginea
giti
gitoki
gitovu
gitr
giuliano
giuseppe
give
given
giving
gj
gje
gjellerupii
gl
glaberrima
glabra
glabrata
glacensis
glacialis
glaciar
glacier
gladiator
gladioliflora
glandarius
glandulifera
glanduligera
glandulosa
glareola
glass
glauca
glaucescens
glaucidium
glaucogularis
glaucus
glauert
glaw
glaziovii
glen
glenn
glennallen
glis
global
globe
globicephala
globifera
globosa
globosus
glomera
gloria
gloriosa
glos
glossary
glossas
glossodia
glossopsitta
glover
glumacea
glumaceum
gmelin
gn
gnathostomata
gnato
gnd
gnoma
go
goal
goals
gobiidae
gobio
god
godefrida
godferyana
godfrey
godman
goeldi
goes
goethalsia
goethe
goin
going
gold
golden
goldiei
goldman
goldmani
golesta
goliath
golubev
gombe
gomerae
gomes
gomesa
gomphichis
gonatostylis
gonc
gone
gong
gongonensis
gongora
gongylomorphus
gonza
gonzales
gonzalez
gonzalezii
gonzalo
good
goodarticle
goode
goodflag
goodnight
goodsoni
goodyera
goodyeroides
google
goose
gordon
gores
gorie
gorilla
gornomany
gornomarijskij
gosse
got
gottfried
gottlieb
gottlob
gould
gouldii
gouldingi
goura
gourinae
gov
govenia
governing
gp
gr
gra
graceful
gracile
gracilenta
gracilicaulis
gracilipes
gracilis
gracilisepala
gracillima
gracillimum
gracupica
gradovi
gradually
graeca
graeme
graham
graminea
gramineus
graminifolia
graminifolium
graminoides
grammangis
grammar
grammatik
grammatophyllum
grammica
grammicus
gran
granatensis
grand
grande
grandidier
grandidieri
grandiflora
grandiflorum
grandiflorus
grandifolia
grandis
grandison
grandisquamis
grandjean
granitica
graniticola
grant
granted
granti
grants
granulifrons
granulosa
graphiurus
graphs
grass
grasshoff
grasshopper
grassioto
grateful
gratiosa
gravend
gravenhorst
graveolens
gray
graydidascalus
grayi
graysoni
grayumii
great
greater
greatest
greco
greece
greek
green
greenbaum
greenm
greenw
greenwoodiana
greer
greeri
greetings
gregorii
gregory
gren
grenier
greuter
grey
greyii
grial
griechenland
griff
griffin
griffith
griffithii
griscom
griseb
grisebachiana
griseicauda
griseiceps
griseicollis
griseigularis
griseiventris
griselinia
griseus
grismer
griveaudi
grobya
groni
groove
grossmann
grote
ground
group
groups
grown
growth
großer
gru
gruber
gruidae
gruiformes
grundulus
grus
gsater
gsub
gt
gu
guadalajara
guadalupe
guadeloupe
guan
guanajuato
guang
guangxi
guangxiensis
guaporensis
guarantee
guard
guarianthe
guarouba
guaruba
guatemala
guatemalae
guatemalensis
gue
guentheri
guerra
guerrero
guettarda
guez
gui
guianensis
guichenot
guichenoti
guide
guidelines
guido
guildingii
guillaume
guillaumin
guillermo
guilloux
guimara
guimaraensii
guimbeaui
guine
guinea
guineensis
gularis
gulf
gulielmi
gulielmitertii
gulo
gumprechtii
guo
guppy
gurney
gurneyi
gururaja
gustaf
gustav
gustave
gustavi
gustavii
gustavo
gutberlet
gutie
guttata
guttatus
guttulata
guy
guyana
gv
gvoz
gwembe
gwich
gwichya
gyi
gymnadenia
gymnocorymbus
gymnopedie
gymnophaps
gymnophthalmidae
gymnoris
gyo
gyps
gyranthera
h
ha
haacke
haad
haas
habenaria
haberi
habia
hack
hackathon
hacıbektas
hacıko
hacılar
had
haddad
hadim
haematochila
haematodus
haematogaster
haematonotus
haematopus
haematopygus
haematorrhous
haematotis
haematuropygia
hafen
hafik
hagedash
hagsatera
hagsateri
hahn
hai
hainan
hainanensis
hainanus
hairy
haiti
hakenschnabel
hakka
halan
halconensis
half
halfeti
halia
haliaeetus
haliaetus
halil
halkapınar
hall
halle
halli
halloween
hallowell
hallstatt
halmahera
ham
hamadryas
hamamo
hamburg
hamburger
hameenlinna
hamelia
hamer
hamilton
hamiltonii
hamina
hammer
hamur
han
hanak
hand
handle
handling
hands
hane
hangout
hani
hanlaih
hanna
hannover
hano
hans
hansen
hansju
hapalopsittaca
hapalorchis
happen
happens
happy
har
harald
harassment
harbour
harcourt
hard
harding
hardwicke
hardy
hardyi
haren
harington
harlan
harmancık
harold
harpactes
harpago
harper
harpophylla
harran
harris
harrisii
harrison
harrisoni
harry
hart
hartert
harterti
hartlaub
hartlaubi
hartman
hartmann
hartweg
hartwegii
harv
harvey
harveyana
has
hasadditionalqualifiers
hasan
hasanbeyli
hasankeyf
haseman
hasemania
hash
hashim
hasko
haslamii
hasnotdeprecated
haspreferred
hassa
hasselt
hasta
hastata
hastifera
hatay
hatch
hatschbachii
hatt
hauptbahnhof
haus
hausdu
hautz
have
haven
having
havran
havsa
havza
hawk
hawkes
hay
hayat
hayata
hayekii
haymana
haynes
hayrabolu
hayrat
hazro
hd
hdr
he
head
headed
headings
headstander
health
healthy
heana
hear
heart
heath
hebe
hebes
hebrew
heckel
hectori
hederorkis
hedges
hedley
hedwig
heemstra
heilig
heiligengrabe
heiliggrabkapelle
heinaste
heine
heiner
heinrich
heinz
hekimhan
held
heldreichii
helen
helena
helenae
helga
heliconia
heliconiscapa
heliobolus
helios
helleborine
hellenikes
heller
helleri
hellmich
hello
helmeted
helmintolog
helmut
helmutii
heloderma
helodermatidae
helonoma
help
helped
helper
helpful
helping
helps
helsinki
hemibrycon
hemidactylus
hemiechinus
hemiergis
hemigrammopetersius
hemigrammus
hemiphaga
hemipilia
hemirhoda
hemisphere
hemispingus
hemithraupis
hems
hemsl
hendek
henderson
hendricks
hendrik
henicophaps
henle
henn
hennig
hennisiana
henri
henrici
henriette
henrik
henrique
henriquezia
henry
henryi
hensel
henshaw
hentschel
her
heracleum
herae
herb
herbacea
herbert
herbst
hercule
hercules
here
heredia
hereroensis
heringeri
heritage
herman
hermann
hermans
herminium
herna
hero
heron
herpetelog
herptil
herr
herre
herrera
herrerae
herrick
herrmann
hertel
herve
herzegovina
herzogii
hespenh
het
hetaeria
heterandria
heterocharax
heteroclita
heteroclitus
heteromirafra
heterophylla
heterospingus
heuglin
heuglini
hewitson
hewitt
hexalectris
hexandra
hexisea
hey
heyden
heyer
hi
hians
hibiscus
hidalgo
hidden
hide
hideaway
hieroglyphica
hif
higgins
high
highlands
highlight
highlighted
highlighting
highlights
highly
highway
hikida
hilaire
hilarii
hildebrand
hildebrandti
hildebrandtii
hilgendorf
hill
hillii
hills
hilton
hilvan
him
himalaya
himalayana
himalayas
himalayensis
himantoglossum
himantopus
himoriara
hindi
hindiro
hinton
hintonella
hippocamelus
hippochaete
hippokrates
hippolais
hippolyte
hippotragus
hircinum
hirst
hirsuta
hirsutum
hirta
hirth
hirtz
hirtzii
hirundinidae
hirundo
his
hisar
hisarcık
hispanica
hispaniola
hispaniolensis
hispida
hispidus
hist
histo
histoire
historia
historians
historic
historical
histories
history
histrio
histrionica
histrionicus
histurgops
hit
hitchmough
hits
hiu
hiva
hiw
hiye
hizan
hjalmar
hk
hl
hle
hler
hlke
hlung
hm
hme
ho
hobart
hocalar
hochst
hochstetteri
hodgson
hodgsoni
hodgsonii
hoedeman
hoedtii
hoeges
hoehne
hoehnea
hoehnei
hoeijeri
hoematotis
hoff
hoffman
hoffmann
hoffmanni
hoffmannseggiana
hoge
hogg
hohenlohii
holacanthus
holaspis
holcoglossum
hold
hole
holikachuk
holland
hollandalı
hollandicus
hollister
holmberg
holmes
holocephali
holochlora
holochlorus
hologlossa
holopogon
holoserica
holosericea
holostei
holothrix
holstii
holtonii
holttum
holy
home
homme
honaz
honduras
hondurensis
honey
honeyeater
hong
hongkongensis
honore
hoogmoed
hook
hooker
hookeri
hookeriana
hoolock
hoone
hooper
hoopoe
hopa
hope
hopkins
hopper
hopson
horace
horasan
horichiana
horichii
horn
horned
horner
horornis
horse
horses
horsfield
horst
horton
hortulorum
hortus
horva
hose
hosei
hosii
hoskin
hoskinsii
hosmer
hospital
host
hostdelimeterposition
hosted
hosting
hoststartposition
hot
hotel
houlletia
hour
hourmin
hours
house
houston
houtteana
houttuyn
hovercards
how
howard
howe
howell
however
hoyi
hozat
hp
hr
hrnheim
hrsg
hs
hsangazi
hsaniye
hsb
ht
hta
htm
html
http
https
hu
hua
huallagae
huang
hubb
hubbard
hubble
hubblecast
hubbs
huber
huberodendron
hubert
hudleston
huds
hudson
hue
huegelii
huet
huetii
hugh
hughes
hugo
huhula
hui
human
humbertii
humberto
humblotii
humbly
humboldt
humboldti
hume
humeralis
humiae
humilis
hummel
hummingbird
hummon
humpback
humphrey
humphreys
hundert
hung
hunga
hungarian
hungary
hunt
hunter
hunteriana
hunting
huntleya
huon
hur
huslia
hussain
husted
hut
hutchinson
huttoni
huye
hvi
hwt
hy
hyacinthinus
hyanuary
hyatt
hybrid
hybrida
hybridus
hydrocynus
hydrornis
hyemale
hyemalis
hygrophila
hylomys
hylopanchax
hylophila
hymenoptera
hymn
hyogastrus
hypericum
hyperoartia
hyperoodon
hypobrycon
hypocoliidae
hypoglauca
hypogramma
hypoinochrous
hypoleuca
hypomasticus
hypopyrrha
hypositta
hypoxanthus
hypselonotus
hypsopanchax
hystrix
hınıs
hırvat
i
ia
iade
ian
iba
iberolacerta
ibis
ibm
ibom
iborlu
iburasirazuba
ic
ice
iceland
iceliensis
icerikdetay
icerikkatid
ich
ichi
icon
iconographie
icons
icteridae
icterorhynchus
icterotis
ictonyx
id
ida
idaea
ide
idea
idealab
ideas
identical
identified
ie
if
ifteler
iftlik
iftlikko
ig
iglesia
ignacio
ignaz
ignea
ignita
igniventris
ignobilis
ignore
iguana
iguania
iguanodectes
iguapensis
igyagiiq
ihan
ihering
ii
iii
ik
ikalı
ikdu
iki
ikinyarwanda
iktas
il
ilc
ile
ilgaz
ilgın
ilha
ilhas
ilhisar
ili
iliacus
ilili
ilimli
ill
illi
illusion
illyrica
ilot
ilova
ilyurt
im
image
imagemap
images
imagine
imbeault
imberbis
imbricata
imerologio
img
imidugudu
imirenge
imitans
immaculata
immanuel
immature
immense
immer
immutabilis
imo
imp
impact
impar
impatiens
imperator
imperial
imperialis
implement
implemented
implementing
import
important
imported
impression
impressions
improve
improved
improvement
improvements
improving
imre
in
ina
inaequalis
inalco
inca
incana
incantata
incanus
incarnata
incertae
include
includemetatable
includes
including
inclusive
incognitus
increase
increased
increases
incubacea
indagator
independent
indes
index
india
indian
indica
indices
indicus
indifferens
indigo
individual
individuals
indo
indolagus
indonesia
ine
ined
ineich
inermis
inexpectata
infectus
inflata
info
infobox
infocardclass
infocards
infocardtemplate
inform
information
informed
infrastructure
infuscatus
ingens
inger
ingram
ingramii
inia
initcontext
initial
initially
initiative
initpos
innenansicht
innenraum
inodora
inopinatum
inornata
inornatus
input
inquisitor
inscriptus
insectifera
insert
inserted
inserter
insertfromsnak
inserting
inside
insigne
insignis
insolitus
inspector
inspire
inst
instead
institut
institute
instructions
insularis
intara
integer
integra
integrated
integrilabia
intellectuelle
intended
interact
interested
interface
interior
interjecta
interlanguage
intermedia
intermedium
intermedius
internal
international
internationale
internationalization
internet
interruptus
interview
interwiki
into
intonsa
intricata
introduce
introduction
intuitive
inversed
inversion
investigates
investigations
invisible
invitation
invite
invited
inviting
invoke
invoked
involuta
involved
involvement
inyear
io
iodopleura
ios
iota
iozonus
ip
ipairs
ipermedium
iprage
ips
ipsea
iqua
ir
ira
iran
iranolacerta
iraq
irdir
ireland
ireneae
irenidae
iri
iricolor
iriditorques
iridosornis
irifa
iririki
iris
iron
irrorata
irvan
irving
irwiniana
is
isa
isabel
isabelia
isabelle
isaoara
isblank
isbn
isbns
isbru
iscountry
isele
isempty
isfaha
isfemale
isgoodformat
isinstanceof
isinversed
iskandar
iskele
isla
island
islandia
islands
islas
ismatchlanguage
ismatchunit
isnew
iso
isochilus
isoka
isopachys
isotria
isparta
isqualifierfound
israel
israelitica
isranked
isrc
isreferencedeprecated
iss
issn
issue
issues
ist
istanbul
istva
isunion
isvalidrank
it
italia
italian
italica
italie
italiens
italy
item
itemid
items
iterator
itezhi
its
itself
itu
iturra
iv
ivan
ivanovich
ivanovo
iverson
ivoire
ivril
ix
ixobrychus
ixora
iz
j
ja
jaan
jabana
jabiru
jack
jackman
jackmann
jacks
jackson
jacksoni
jacob
jacobs
jacobsen
jacobson
jacobus
jacq
jacqueline
jacques
jacquet
jacquiniella
jacquinot
jacquinoti
jacuiensis
jafeluv
jaguar
jahrb
jaime
jairo
jakob
jakovlev
jali
jalisco
jamaica
jamaicensis
jambu
james
jamesi
jameson
jamesonii
jamhuri
jamii
jan
janak
jandaya
jane
janeiro
janet
janetaescincus
janetiae
janja
jansen
jansson
janthina
january
japan
japanese
japonica
japonicum
japonicus
jarae
jarama
jaramillo
jarandersonia
jard
jardine
jardinii
jason
java
javanica
javanicum
javanicus
javascript
javed
javier
jawa
jawless
jay
jazz
jbwr
je
jean
jeanes
jeanette
jeanson
jeanyves
jeff
jeffrey
jekel
jelski
jenda
jenkins
jenmanii
jennifer
jenny
jens
jensen
jenyns
jeolog
jerdon
jeremy
jerep
jerry
jery
jespersen
jesse
jessica
jesu
jesup
jesupiae
jesupii
jesupiorum
jesus
jethrobt
jeude
jeune
jfk
jhon
ji
jia
jian
jiang
jie
jigawa
jik
jim
jimburae
jime
jimenezii
jimii
jin
jing
jitno
jo
joa
joachim
joan
joannis
job
jobi
jobiensis
jobs
jocque
joe
joger
johan
johann
johanna
johannae
johannes
johannis
john
johns
johnson
johnsonii
johnst
johnston
johnstone
johnstoni
johnstoniae
johnstonii
join
jolandae
jomba
jon
jonas
jonathan
jones
jong
jonquillaceus
jonss
jorda
jordan
jordanensis
jorge
jose
josef
josefinae
joseph
josephi
joshua
jost
jostia
jostii
joulupukki
journal
journe
jouyi
jpeg
jpg
jr
js
jst
ju
juan
jubatus
jubula
jugularis
jukoff
jules
julia
julian
juliana
juliancomment
julie
julio
julius
july
jumellea
jumelleana
jump
jumping
jun
juncifolia
june
jung
jungle
juno
junoniae
jupiaba
juraske
juru
just
justes
justin
juvenile
jv
k
ka
kaas
kabacuzi
kabadu
kabagari
kabare
kabarondo
kabarore
kabatas
kabatwa
kabaya
kabompo
kabwe
kacyiru
kadavoor
kadirli
kaduha
kadıko
kadınhanı
kadıs
kafue
kag
kagano
kagarama
kageyo
kagogo
kahramanmaras
kai
kaiser
kaiyr
kaks
kakula
kal
kalabo
kalanchoe
kale
kalecik
kalimantan
kalkandere
kallaveden
kallman
kalomo
kalopissii
kaltag
kalulushi
kalı
kamabuye
kaman
kamegeli
kamembe
kamerunensis
kami
kammerer
kamonyi
kampen
kamubuga
kanama
kanazawa
kandıra
kangal
kaniensis
kaniga
kanjongo
kano
kanombe
kansi
kant
kanyinya
kanzenze
kaohsiung
kaoma
kapiri
kaplan
kaplinski
kaputa
karabag
karabu
karaburun
karac
karacabey
karacasu
karadeniz
karago
karahallı
karaisalı
karakec
karakoc
karakoyunlu
karama
karaman
karamanlı
karambi
karambo
karamu
karangazi
karapu
karapınar
karasu
karatas
karatay
karayazı
kareba
karel
karembo
karen
karenge
karengera
kareniae
kargı
karjalan
karkamıs
karkkila
karl
karlıova
karongi
karpuzlu
kars
kartal
kartepe
kas
kasama
kasempa
kashan
kaspar
kastamonu
kastanje
katabagemu
katangae
katangensis
katastromatos
kate
katego
kategooria
kategori
kategoria
kategorie
kategorija
kategorio
kategoriya
kateguore
katete
kath
katharina
kathleen
kathryn
katie
kato
kattegerie
katz
kaudern
kaupungit
kautskyi
kavak
kavaklıdere
kavumu
kawakamii
kawalli
kawambwa
kay
kayapınar
kayenzi
kaynarca
kaynas
kayonza
kayumbu
kaza
kazakhstan
kazan
kazo
kazungula
kazımkarabekir
kb
kc
ke
kealley
keayi
keban
kec
kee
keegan
keep
keeping
kefermarkt
kefersteinia
kegeliella
kegelii
kei
keiensis
keila
keith
kelaart
keles
kelkit
keller
kellogg
kelly
kemah
kemal
kemaliye
kemalpas
kemer
ken
kenai
kendall
kenli
kennedy
kenneth
kennicottii
kenny
kent
kenya
keogh
kepez
kepsut
kepulauan
ker
kermadec
kermadecensis
kern
kerr
kerrii
kes
keskin
kessler
kestel
ket
keteleeria
ketupa
ketupu
kevin
kew
key
keyboard
keyflower
keyserling
kg
khac
khan
ki
kibangu
kibeho
kibilizi
kibirizi
kibumbwe
kibungo
kicukiro
kid
kiel
kieli
kien
kiener
kievica
kig
kigabiro
kigali
kigarama
kigembe
kigeyo
kigina
kigoma
kilis
killifish
kim
kimdo
kimihurura
kimironko
kimisagara
kimonyi
kina
kinabaluensis
kinazi
kind
kindly
king
kingdom
kingdon
kingfisher
kinghorn
kinghorni
kingiella
kingii
kingsley
kinigi
kinihira
kinoni
kintobo
kinyababa
kinyinya
kionophyton
kiramuruzi
kiraz
kirby
kirche
kirchspiel
kirehe
kiribati
kirik
kirimbi
kirk
kirkii
kirkko
kirkland
kirt
kisaro
kistnasamy
kitabi
kitaibelii
kitchen
kittr
kitwe
kivu
kivumu
kivuruga
kivuye
kiwi
kiyombe
kiyomizu
kiyumba
kizdere
kiziguro
kk
kkaakk
kl
klabatensis
klassillinen
klaus
klausewitz
klein
kleine
kleinii
klemmer
klincksieck
kloss
kloster
klotzsch
kluge
klutina
km
kn
knapp
kner
knerii
knifefishes
knight
knodus
know
knowledge
knowles
known
knud
knut
ko
kobus
koc
kocaali
kocako
kocasinan
koch
kochi
kodiak
koehleri
koellensteinia
koelreuteria
koeniswaldiana
koepckeae
kofc
kogan
kogia
koi
kok
kolbe
kolenati
kommentare
komodoensis
konak
kondratieff
kong
konrad
konstantin
konstantinovich
konya
konyaaltı
kopenhagen
kopstein
koraiensis
korea
korean
koreana
kores
korfu
korgan
korgun
korhan
korkut
korkuteli
kornmann
kostarikalı
kotschy
kotschyana
kotschyi
kovancılar
koyama
koyukon
koyukuk
koyulhisar
kozaklı
kozan
kozlov
kozluk
kr
kraatz
krabbe
kraenzl
kraenzlinella
kramer
krameri
kratochvi
kraus
krause
krauss
kray
krefft
kremlin
kreodanthus
kretzschmar
kreutz
kreuz
krishna
kristensen
kro
kru
kruger
krøyer
ks
ksa
ksekova
ksun
ktem
ku
kuang
kubaryi
kuhl
kuhlhasseltia
kuhlii
kuhn
kuiter
kula
kullander
kulp
kultur
kulu
kuluncak
kumar
kumlu
kumluca
kumlutas
kumru
kuna
kunda
kunst
kunstleri
kunth
kuntze
kunya
kuopio
kuopion
kupriyanova
kurs
kurt
kurtalan
kurucas
kurumu
kurzweil
kus
kuskokwim
kuwae
kuwait
kuyucak
kv
kwakea
kwangsiensis
kwazulu
ky
kyi
kyoto
kyrenia
kyrgyzstan
kyryk
kıbrıscık
kınık
kırkag
kırklareli
kırs
kırıkhan
kırıkkale
kızılcahamam
kızılo
kızıltepe
kızılırmak
l
la
labati
label
labeled
labellanguagecode
labels
labelslangcode
labiata
labiatus
labill
lac
lacaena
lacaita
lace
lacerata
lacerda
lacernulata
lacerta
lacertidae
lacertoidea
laciniata
lack
lactea
lacteus
lacustricola
lad
ladenbergia
ladiges
ladik
lady
laelia
laemanctus
laemolyta
laeta
laevigata
laevigatum
laevis
laffont
lafon
lag
lagarophyta
lagenorhynchus
lagerstroemia
lago
lagopus
lagos
laguna
lagunaria
lahti
lai
laika
lais
lajos
lake
lakim
lal
lalapas
lam
lamarck
lamarcki
lamb
lambert
lambiris
lambrecht
lamellaris
lamellata
laminata
lampeye
lamprolepis
lampropholis
lan
lanata
lanceana
lanceolata
lanceolatum
lanceolatus
lancifolia
lancilabris
lancipetala
land
landing
landscape
landschaftspark
lane
lang
langcode
langentityid
langrefcodeclaims
langrefentity
langrefs
langs
language
languagegeek
languages
languagescode
langues
laniarius
laniidae
laniocera
lanius
lanka
lankalı
lankester
lankesteri
lanthanotidae
lantz
lanwis
lanza
laos
laporte
lapparent
lapponica
lapse
lapseki
lar
lara
large
larger
largest
lark
lars
larus
larva
larvata
las
lasianthus
lasioglossa
lasiorhiza
last
lasteraamat
lasts
lasun
latakiana
lataste
latastia
late
later
lateralis
latex
latham
lathami
lathamus
laticauda
latifolia
latifolium
latifolius
latilabris
latimer
latipetala
latipinna
latisepala
latitude
latrans
latus
latvia
latvija
latvijas
lau
lauara
laudakia
laughing
launch
launched
laura
laurasiatheria
laurence
laurensis
laurent
laurie
laurifolium
lauterbach
lautus
lava
laval
lavauden
lawrence
lawrencii
lawrie
lawson
laxa
laxiflora
laxiflorum
laxiflorus
laxum
lay
layal
layancerit
layard
layardi
layardii
lb
lbas
lbe
lcu
ldensta
ldi
le
lea
leach
leache
lead
leadbeater
leadbeateri
leading
leaf
leafl
leandro
lear
leari
learn
learned
learners
learning
least
leave
leaving
lebanon
leben
lebesque
leburgaz
lecanorchis
leclancheri
leclerc
leconte
lecture
led
ledermannii
ledum
lee
lefkos
left
leg
legacy
legal
legged
legs
leh
lehm
lehmann
lehmanni
lehmanniana
lehmannii
lehtinen
leiolopisma
leiophylla
leis
leita
leite
lek
lem
lema
lemaire
lemeur
lemma
lemmon
lemos
lempiji
len
leneu
leng
lenglet
length
leningrad
lennon
lentiginosa
lenz
lenzini
leo
leochilus
leonard
leonardi
leonardo
leone
leonhard
leonpascoi
leontoglossa
leontopithecus
leopardus
leopold
leou
lepanthes
lepanthopsis
lepida
lepidopterolog
lepidothyris
lepidus
lepisosteus
leporellus
leporinus
leptantha
leptochila
leptogrammica
leptoptilos
leptorhynchus
leptosittaca
leptotes
leptotifolia
leptotila
leptotilinae
lepus
ler
lerista
lerwa
les
leschenault
leschenaultii
leslie
lesotho
less
lesser
lesson
lessonii
lesueur
let
leti
lets
letter
letters
lettia
lettii
lettre
lettres
letzte
leucantha
leuciscus
leuckart
leucocephala
leucocephalus
leucogaster
leucogenys
leucomela
leucomelas
leucometopia
leuconeura
leuconota
leucophthalma
leucophthalmus
leucops
leucoptera
leucopterus
leucorodia
leucoryphus
leucosticta
leucosticte
leucostictus
leucotis
leucoxantha
leucura
leucurus
leur
lev
leventisi
leviton
levu
lewis
lewisiae
lex
lexico
leyte
leytensis
lez
lg
lgesi
lherminieri
lhisar
li
lia
liaison
lian
liang
liard
liasis
lib
liber
liberia
libertaires
libocedrus
library
libraryutil
libre
libri
libro
libya
lic
lica
licania
lice
license
licensed
lichen
lichenophila
lichtenstein
lidth
lie
liebe
lied
liem
life
light
lighthouse
lights
ligulata
like
likely
lila
lilacina
lilianae
liliifera
lilijae
lilljeborg
lily
lim
lima
limbata
limia
limit
limitations
limited
limites
limnolog
limosa
limprichtii
lin
lincoln
linda
lindau
linden
lindeniana
lindenii
linder
lindholm
lindl
lindley
lindleyalis
lindleyana
lindleyanum
line
linearifolia
linearifolium
linearis
lineata
lineatus
lineola
lineolata
ling
lingua
linguistic
linguistics
link
linked
linkem
linking
links
linn
linnad
linnaea
linnaeus
linnean
linsley
linua
lio
lion
lionel
lions
liopholis
liparis
lipinia
liquidambar
liquidthreads
lira
lisi
lissochiloides
lissodelphis
lissolepis
lissotriton
list
liste
lister
listera
lists
listtotext
lit
litensis
literary
literatur
literature
lithocarpus
lithuania
litorale
litoralis
litsitsirupa
litte
little
littoralis
lituanie
liu
liukiuensis
live
livebearer
lives
livia
livida
livingstone
livingstonii
livre
lix
lizard
ljubljana
lkadım
lko
ll
llamachoi
llave
lle
ller
llp
lma
lmarmara
lmen
lmener
ln
lnar
lo
loa
loaddata
loaded
loader
loading
lobata
lobo
lobos
lobulia
local
localidades
localidatz
located
locatie
location
loch
locket
lockhartia
locomotive
locustella
lodd
loddigesii
lodo
loefgr
log
logged
logo
logos
loh
loheri
loisele
lojae
lombok
london
londonoi
long
longa
longer
longibracteata
longicalcarata
longicauda
longicaudata
longicaulis
longicornis
longicornu
longiflora
longifolia
longifolium
longilabris
longipedicellata
longipes
longipetala
longipetalum
longipinnis
longiracemosa
longirepens
longirostris
longisepala
longispicata
longissima
longitarsus
longitude
longman
longus
lontra
look
looking
looks
lopes
lopez
lophochroa
lopholaimus
lophophanes
lophophorus
lophopsittacus
lophostrix
lophotes
lophotibis
lophura
lord
loren
lorenae
lorenz
lorenzo
loreziana
loriculus
loriinae
loriini
lorius
lors
lory
los
lose
lost
lot
lota
lothar
lottman
lou
loubet
louis
louise
loumont
lourdes
lourenc
lova
love
loveridge
loveridgei
loves
lovich
lovitch
low
lowe
lower
loweryi
lowii
lowland
loxia
loxodonta
lozano
lpazarı
lr
lreuter
ls
lt
lu
lua
luangwa
luanshya
lubbock
luc
lucas
lucena
luchterhand
lucia
luciana
luciano
lucida
lucidum
lucien
lucinda
lucionensis
lucis
lucius
lucksom
luconensis
luctuosa
luculia
ludvig
ludwig
lue
lueddemannia
lueddemanniana
luer
luerorum
lufwanyama
lugens
lugentoides
lugubris
lui
luigi
luik
luis
luisa
luisia
luiz
lukio
lukulu
lullula
luna
lunata
lunatus
lund
lundazi
lune
lunulata
lunulatus
luo
luokka
lupine
lupinus
lupus
lusaka
luschani
luscinia
lusitanica
lutea
luteocilium
luteola
luteovirens
luteus
lutley
lutra
lutrinae
lutz
luulekogu
luwingu
luz
luzon
luzonensis
luzonica
lv
lvarez
lvaro
lviv
lvm
lwin
ly
lyaka
lyalı
lycaste
lyciasalamandra
lyciensis
lycomormium
lycopodioides
lydia
lygosoma
lynch
lyngdoh
lynn
lynx
lyon
lyonii
lyroglossa
lyrurus
lyseon
lz
lzaga
lı
lıc
lıdere
m
ma
maas
mabbett
mabille
maboroensis
mabouya
mabuya
mac
macaca
macao
macedonia
macedonica
macgillivrayi
machado
machadoi
machine
maciel
mackay
mackenzie
mackinlayi
macklot
mackloti
macleay
macodes
macquarie
macra
macraei
macrantha
macranthum
macranthus
macrobulbon
macrocarpa
macrocorys
macrodon
macrolepidotus
macrolepis
macrophylla
macrophyllum
macropomum
macroptera
macropus
macropygia
macrorhynchos
macrorhynchus
macrostachya
macrotolagus
macroura
macuba
macuconensis
maculata
maculatum
maculatus
maculicollis
maculirostris
maculosa
mad
mada
madag
madagascar
madagascariensis
madagaskarlı
madame
madara
madaraszi
made
madeira
maden
madeni
maderensis
madisonii
madonna
madoqua
madrid
madsen
maduroi
mae
maek
maewo
mag
magdalena
magdalenae
magellanicus
mageragere
magic
magicus
magna
magnifica
magnificus
magniflora
magnipetala
magnirostris
magnolia
magnus
maguirei
magyar
mahali
mahama
mahembe
mahmudiye
mahnert
mahony
mai
mail
mailing
main
maingayi
mainly
mainpage
mainsnak
mainsnakdatavaluevalue
mainsnakdatavaluevalueunit
maintain
maintenance
maintenant
maire
maison
majalis
major
mak
makc
make
maker
makes
makgadikgadi
making
makino
makira
makoyana
makura
mal
mala
malabarba
malabarica
malachantha
malachitacea
malachite
malaconotus
maladroxiensis
malaita
malakula
malampa
malatya
malawi
malaxis
malay
malaya
malayan
malayana
malaysia
malazgirt
malcolm
maldonado
male
malezyalı
malherbe
malherbi
malherbii
mali
malimbus
malindangensis
malkara
mallnitz
malmeana
malmquistiana
malo
malonza
malta
maltepe
maluku
maluridae
malus
malvaceae
mamak
mamba
mambwe
mammal
mammalia
mammea
mammosa
mamog
mamonekene
man
manabina
manacus
manadensis
manager
manali
manavgat
mandellii
mandir
mandonii
manfred
manif
manihira
manihot
manilata
manipurensis
manis
manisa
manley
mann
manner
mannerheim
mannheim
manniella
mannii
manning
manquante
mansa
mansf
mantananensis
mantelli
mantis
manual
manually
manucode
manucodia
manuel
manueli
many
manyagiro
manyas
manzanilla
mao
map
maplandia
maps
maquilingensis
mar
maraba
maracana
maranta
marayaarmiut
marbled
marc
marcel
marcelo
march
marche
marchei
marco
marcos
marcus
mardin
mare
mareba
marek
margaret
margaretae
margarethae
margarita
margaritae
margarobyas
marginata
marginatus
mari
maria
mariae
mariana
mariano
marie
marin
marina
marine
marinho
marino
marinus
mario
marion
maritima
maritimus
marius
mariuver
mariuverm
marjorie
mark
marked
market
marks
markup
markus
marla
marmara
marmaris
marmaronetta
marmorata
marmoratus
maroon
marples
marquet
marquises
mars
marseille
marsh
marshall
marshalli
marshallia
marsu
marsupialis
mart
martae
martelli
martens
martes
martha
marti
martin
martinezii
martini
martinica
martino
martins
martinsi
martius
marula
marumbyana
marx
mary
mas
masaiti
masaka
masam
mascarenotus
mascarin
mascarinus
mascula
masdevallia
mashonaland
masked
maskenpitpit
mason
masonry
masoro
masroor
mass
massimo
massmessage
master
mastersiana
masvingo
mata
mataba
matah
mataso
match
matched
matches
matching
mateo
material
materials
math
mathematics
mathers
mathew
mathews
matimba
mating
matisia
matschie
matsui
matsumoto
matter
matthes
matthew
matthewsii
matthias
matyazo
matzerath
maugei
maura
maurice
mauricio
mauritian
mauritius
mauro
maus
mausfeld
mausoleo
max
maxauthors
maxillaria
maxillariella
maxillaris
maxima
maximilian
maximiliani
maximus
may
mayange
maybe
mayeri
maynard
mayorga
mayottensis
mayr
mazabuka
mazama
mazgirt
mazz
mazıdag
mbala
mbazi
mbe
mbogo
mbuye
mccann
mccarthy
mcconkey
mccormick
mccoy
mcculloch
mcdonald
mcgregor
mcgregorii
mcmahan
mcvaugh
md
mdf
me
meade
meadow
meaningful
means
meantime
mearns
mearnsii
mec
mecito
med
meded
media
mediawiki
medina
medinae
mediocalcar
mediocarinata
mediodactylus
medit
mediterranean
mediterraneo
medium
medusa
meek
meeki
meet
meeting
meetings
megadyptes
megalocephala
megaloceros
megalops
megalorynchos
megalotis
megalura
megalurus
megarhynchus
megascops
megasoma
megastylis
mehmet
mei
meier
mein
meinken
meiracyllium
meirax
meisner
meji
melachila
melalophos
melampus
melanitta
melanocaulon
melanocephala
melanocephalus
melanocharacidium
melanocharitidae
melanochroa
melanocorypha
melanogaster
melanogenys
melanoleuca
melanonotus
melanophylla
melanopis
melanops
melanoptera
melanopterus
melanoseps
melanospilus
melanosticta
melanota
melanotis
melanotos
melanura
melanurus
melchior
mele
meleagridinae
meleagris
meles
meliaceae
melikgazi
melin
meliphagidae
melki
mellisuga
mello
melo
meloda
melogale
melopsittacini
melopsittacus
mem
member
members
membracidoides
membranaceum
memorial
men
menagei
mendaesde
mendeltna
menderes
mendes
mendez
mendiculus
mendonc
mendoza
mendozae
menemen
menenh
menetia
menezes
mengen
menidia
menon
mens
menstruus
mentasta
mentawi
mentosa
ments
menu
menuridae
menus
mephitidae
mer
meram
mercedes
mercenaria
mercierii
mercury
mercy
merfeld
merge
mergellus
mergus
meric
meridana
meridionale
meridionalis
merkez
merkezi
merli
meroles
merops
merrett
merriam
merrilli
merrillii
merry
mersin
mertens
mertensi
mertensiella
merula
merulaxis
meryta
merzifon
mesa
mesadenella
mesadenus
mesalina
mesechinus
mesobuthus
mesoplodon
mesospinidium
mesquita
message
messages
mesta
mesudiye
met
meta
metae
metallica
metallicus
metasequoia
metcalf
method
methuen
metoma
metriopelia
metro
metropol
metynnis
metz
mexican
mexicana
mexicanus
mexico
meyer
meyeri
mez
mezitli
mezquita
mg
mhnt
mhr
mi
micans
michael
michaeli
michail
michel
michele
michigan
michoacan
micholitzianum
micralestes
micrantha
micranthum
micranthus
micrathene
microblephara
microcharacidium
microcharis
microchila
microchilus
microcoelia
microdactylus
microgenys
microglossa
microglossini
microlepis
micromesistius
micronesia
micropanchax
micropetala
microphylla
microphyta
micropoecilia
micropsitta
micropsittini
micropterus
micropus
microschemobrycon
microscopica
microthelys
microtis
mid
midas
middle
midi
midyat
miestai
mig
might
migrans
migrate
migratorius
miguel
miguelii
miha
mihail
mihalgazi
mihalıc
mihaylovic
miji
mikado
mike
mikhai
mikhailovich
mikkeli
miklo
mikolog
mil
milas
mile
milenge
miles
militaris
military
milk
mill
miller
milleri
millet
millie
million
mills
milne
milton
miltonia
miltoniopsis
milvus
mimagoniates
mimidae
mimosoideae
mimuli
min
minahassae
minas
minax
minazi
mind
mindanaensis
mindanao
mindorensis
mindoro
ming
mini
miniata
miniatum
miniatur
minima
minimize
minimus
minna
minor
minus
minuta
minutalis
minutes
minuticauda
minutiflora
minutissima
minutissimum
minutus
miq
mirabilis
mirafra
miralles
miranda
mirande
mirongo
mirus
miryapodolog
mirza
misc
mischobulbum
mise
misera
miserum
miss
missing
mission
mississippi
missouri
mit
mitchell
mitchella
mitchelli
mitchill
mitragyna
mitrata
mitratus
mitrospingus
mitt
mitte
mitterbach
miut
mix
miya
miyove
mjbmr
mk
mkushi
ml
mla
mlokosiewiczi
mlu
mm
mn
mningen
mo
mobile
moc
mochlus
mocoana
mocquard
mod
mode
model
models
modern
moderne
modernes
modes
modesta
modestus
modifying
modigliani
module
moduleurl
moeda
mogera
mohammad
moheliensis
mohoidae
mohr
mola
mole
moles
molina
molinae
mollis
mollissima
molloy
molly
molucca
moluccensis
molva
mon
monacha
monachus
monard
monasterio
monastery
monday
monde
mondetoura
monedula
mongolia
mongolicus
mongu
monika
monitor
monitoring
monkey
monniot
monobook
monod
monodon
monogr
monolinguallangtemplate
monolingualtext
monomeria
monophylla
monophyllum
monosepalum
monotocheirodon
monroe
monsieur
montan
montana
montanum
montanus
montbe
montbeliard
monte
montenegro
montes
montezumae
montgomery
month
monthg
monthgm
monthgom
monthly
months
monticola
montifringilla
montis
montreal
montserratensis
monument
monze
moon
moore
mooreana
moorei
mooreorum
moorii
mora
moraceae
morais
moral
morale
morales
morat
morato
moravec
more
moreau
moreira
morelia
moreno
morenoi
morethia
morgan
morganii
morii
morio
morisii
moritz
moritzi
moritzii
moriya
morizot
mormodes
mormolyca
mornicola
morning
morocco
morotai
morren
morris
morrison
morrisonicola
mort
mortem
mortensen
morton
morvan
mosambik
mosasauridae
mosasauroidea
moschata
moschatus
moschopsis
moscosoa
moscow
moscu
mosmetro
moso
mosque
most
mota
motacilla
motacillidae
motd
moth
mother
motion
motta
motu
mount
mountain
mountains
moura
mouse
mouton
move
moved
movement
movementcharter
movie
moving
moyer
mozambique
mozart
mp
mpanga
mpika
mpongwe
mporokoso
mposhi
mpulungu
mpumalanga
mr
mraniye
mranlı
mrcpk
mrj
mrs
ms
msd
msg
msk
mt
mu
mubuga
much
mucronata
mucronatum
mucur
mudanya
mudende
mudurnu
muell
muelleri
mufulira
mufumbwe
mug
mugano
muganza
mugesera
mugina
mugombwa
mugunga
muhanda
muhanga
muhazi
muhima
muhondo
muhororo
muhoza
muhtar
muhura
muir
mukama
mukamira
mukarange
mukindo
mukingo
muko
mukura
mul
mulaik
mullerii
mult
multi
multiclavia
multicolor
multifasciata
multiflora
multilingual
multiple
multistriata
mumbwa
mumpuni
mun
munch
mundo
mungwi
munich
municipal
munini
munro
muntiacus
muntjac
munyaga
munyiginya
muradiye
mural
murama
murambi
muratlı
muratpas
murexoidea
murgul
muricata
muricatus
muricaudata
muringa
murinus
murphy
murphyi
murray
murti
murunda
murundi
mururu
mus
musa
musabeyli
musambira
musange
musanze
musasa
musaza
muscicapa
muscicapidae
muscicola
muscosa
muscosum
musculus
musebeya
musenyi
museum
musha
musheli
mushikiri
mushishiro
mushonyi
mushubati
mushubi
music
musicians
musophaga
musschenbroekii
must
mustafa
mustafakemalpas
mustela
mustelidae
mustelinae
mustelinus
musteloidea
mut
muta
mutabilis
mute
mutel
mutenderi
mutete
mutki
mutuntu
muyira
muyongwe
muyumbu
muzo
mw
mwendo
mwense
mwinilunga
mwiri
mwl
mwogo
mwulire
my
myadestes
myanmar
myanmarlı
mycteria
myers
myersi
myiopsitta
mylanguage
mylesinus
myleus
myloplus
mylossoma
myodocarpus
myomimus
myophonus
myoxanthus
myriochaetum
myristicivora
myrmechila
myrmechis
myrmecodia
myrmecophila
myrtaceae
myrticola
myrtillus
mysolensis
mysorensis
mystacea
mystacidium
mystax
mythistorima
mythology
mytnik
myv
myxini
məscidi
n
na
naar
nabhitabhata
nac
nach
nacht
nachtr
nacional
nad
nagaoka
nagelii
nagy
nah
nainus
naithani
nakai
nakonde
nalbant
nallıhan
namakura
namaquensis
name
named
names
namespace
namespaces
namibia
naming
namwala
nan
nana
nancy
nandayus
nanger
nannopetersius
nannopsittaca
nanterre
nanus
nap
naped
napensis
napintzae
napoli
narcissus
naretha
narethae
narlıdere
narman
narod
narrow
nasa
nascimento
nasho
nashville
nasirolmolk
nastanthus
nasuta
nat
natal
natalensis
natalia
natalis
nathan
nation
national
nationalmuseum
native
natl
natrix
natterer
nattereri
natunaornis
natural
naturaliste
nature
naturhist
nauclea
naumann
naumanni
naurois
nauru
nauta
navarro
navbox
navigate
navigation
navy
nawila
nazca
nazilli
nazımiye
nb
nbg
nc
ncesu
nchelenge
nchen
nchez
ncipe
ncirliova
ncu
nd
ndaro
nde
ndefaultlanguage
ndego
ndera
ndez
ndn
ndog
ndola
ndora
nds
nduba
ne
near
neas
nebolu
nebula
nebulosa
necessary
necked
necropsittacus
nectarifera
nectariniidae
nedersettings
neditors
need
needed
needs
nees
neets
negadensis
neglecta
neglectum
nego
negros
neil
neill
nek
nel
nelepsittacus
nelly
nelson
nelsonii
nematoceras
nematolog
nemba
nemorosa
nemosia
nen
nenday
neobathiea
neobuchia
neocogniauxia
neocossyphus
neodrepanis
neofelis
neofinetia
neognathae
neogobius
neoheterandria
neomixis
neomoorea
neomys
neon
neophema
neopsephotus
neopsittacus
neopterygii
neosittidae
neotinea
neotragus
neottia
neottianthe
neovison
nepal
nepalensis
nephelaphyllum
nepomuk
nertera
nervilia
nervosa
nesasio
nesoenas
nesolagus
nessia
nestor
nestoridae
net
netherlands
neto
netta
nettapus
netto
network
neudecker
neudeckeri
neumann
neumanni
neurergus
neuwied
neuwiedia
nevada
neville
nevs
new
newattributes
newclaim
newclaims
newcomers
newer
newly
newman
newoptions
newparentsnaks
newplacesindex
newplacestr
news
newsletter
newton
newtonia
next
nextlabel
nextwikitext
ney
neysu
neysınır
nez
nf
nfelder
ng
ngamba
ngara
ngarama
ngc
ngel
nger
ngera
ngeruka
ngo
ngoma
ngororero
ngu
nguna
nguyen
nhisar
ni
nia
niboye
nica
nicaragua
nice
nich
nicholas
nicholls
nichols
nicholson
nick
nicobar
nicobarica
nicol
nicola
nicolai
nicolas
nicolaus
nicolet
nidus
nieden
niels
nielsen
niesch
niesseniae
niethammer
nieto
nig
niger
nigeria
night
nightwish
nigra
nigrescens
nigricans
nigricauda
nigriceps
nigricollis
nigrifrons
nigrigenis
nigripes
nigrirostris
nigritella
nigrolineata
nigrorum
nihilisme
nihtat
nijssen
nikaragualı
nikolaevich
nikolai
nikolsky
niksar
nil
nile
nilotica
niloticus
nils
nilson
nilsson
nilu
nin
nina
ning
ninox
nio
nipalensis
nippon
nipponia
nipponica
nir
nissue
nitens
nitida
nitidissima
nitidum
nitidus
niugini
nivalis
nivea
niveoglobula
niveoscincus
niveum
nivicolum
nizip
nkanka
nkele
nkomane
nkombo
nkotsi
nkungu
nl
nm
nmk
nmn
nmwel
nn
nnberg
nnrot
nnrotin
nnumberofpages
no
nobile
nobilis
nocat
noces
nocoord
noctilio
noctua
node
nodosa
noe
nogueira
nolinks
nom
nome
nominate
nominations
nominativemonthesnm
nominativeyear
non
noon
nootkatensis
nord
nordeste
nordic
nordmann
noreg
norfolciensis
norfuk
norge
normal
norman
normani
normativetitle
noroeste
norris
norte
north
northern
northiella
northwards
northwest
norway
nos
not
notabilis
notable
note
notes
nothocercus
nothofagus
nothoprocta
nothosubsp
nothura
nothurinae
notialis
notice
notifications
notify
notizbl
notoc
notophthalmus
notoscincus
notre
notul
notylia
nouvelle
nouvelles
nov
nova
novaeguineae
novaehollandiae
novaeseelandiae
novaezelandiae
novalue
noveboracensis
novelle
november
novgorod
now
nox
np
npages
nr
nrf
ns
nster
ntarabana
ntarama
nter
nther
ntirage
nto
ntongwe
ntyazo
nu
nuages
nubicola
nubigena
nuchalis
nucifraga
nucras
nuda
nudipes
nui
nuit
nulato
num
number
numberofpages
numbers
numenius
numeric
numida
nummularia
nun
nunam
nupta
nurdag
nuremberg
nurhak
nurse
nus
nusa
nusaybin
nussbaum
nutans
nutt
nuttall
nuytsia
nv
nvolume
nw
ny
nya
nyabihu
nyabimata
nyabinoni
nyabirasi
nyabitekeri
nyagatare
nyagihanga
nyagisozi
nyakabanda
nyakabuye
nyakarenzo
nyakariro
nyakiliba
nyamabuye
nyamagabe
nyamasheke
nyamata
nyamirama
nyamirambo
nyamiyaga
nyamugari
nyamyumba
nyan
nyange
nyankenke
nyanza
nyarubaka
nyarubuye
nyarugenge
nyarugunga
nyaruguru
nyarusange
nycticorax
nye
nyi
nyimba
nymphicinae
nymphicus
nyu
nyundo
nzahaha
nzige
nzst
o
oa
oasis
oatesi
oaxaca
obama
oban
obanlar
oberonia
obi
obiensis
objective
oblanceolata
obliqua
obliquipetala
obliquus
oblonga
oblongifolia
obovata
obra
obscura
obscurus
obsoleta
obsoletus
obst
obtusa
obtusata
obtusifolia
oc
oca
occidentale
occidentalis
occipitalis
occupation
ocean
oceanica
oceanodroma
ocellata
ocellatus
och
ochoa
ochracea
ochreata
ochrocephala
ochroleuca
ochroma
oct
octahedron
octavioi
october
octomeria
octopus
ocularis
ocyphaps
od
oder
odiosa
odoardo
odobeniceps
odobenidae
odocoileus
odontochilus
odontoglossum
odontonema
odontorrhynchus
odontostilbe
odorata
odoratissima
odoratum
odore
odunpazarı
oe
oeceoclades
oedipus
oena
oenanthe
oenas
oenops
oenpelliensis
oeonia
oeoniella
oerstedii
oertzeni
oeste
oesterr
oestrifera
of
off
offer
offered
office
official
officinalis
offline
often
og
oga
ogg
ogilby
ogilvie
ognorhynchus
ogv
oh
ohwi
oi
ois
oj
okada
oklahoma
oktober
ol
ola
olax
olbiensis
old
oldenlandia
older
ole
olearia
olga
olgun
oligantha
oliger
oligolepis
oligosarcus
oligosoma
oligotricha
olivacea
olivaceiceps
olivaceus
olive
oliveira
oliver
oliveri
oliveriana
oliveros
oliviae
olivier
olof
olor
olson
olszewski
oltu
olur
olympic
om
omar
ombre
ombuds
ombudsperson
omegaifera
omissa
ommatotriton
on
onagriceps
onard
once
oncidium
oncorhynchus
ondokuzmayıs
one
ones
onh
onkel
online
only
ono
onocrotalus
oo
oommen
ooui
op
opaca
open
opened
opening
opera
operation
operator
ophelma
ophidion
ophioglossoides
ophiomorus
ophiopogonoides
ophiorrhiza
ophisops
ophrys
ophthalmicus
opinions
opportunities
opportunity
oppose
oppositifolia
opt
option
optional
options
opus
or
ora
orange
oratrix
orbicularis
orbigny
orbygnesius
orca
orcaella
orce
orcesi
orch
orchadian
orchestra
orchi
orchid
orchidaceae
orchidee
orchideen
orchids
orchis
orcinus
ord
order
ordered
ordu
oreadum
oreophila
oreopsittacus
oreorchis
oreotragus
orestias
org
organization
organize
organized
organizing
orgel
orhaneli
orhangazi
ori
orientale
orientalis
orig
original
orinocensis
oriolidae
oriolus
orion
orlando
orleanesia
orley
orlov
orlu
ormerod
ornata
ornatum
ornatus
ornithocephalus
ornithochilus
ornithologue
oro
orobanchoides
orqui
orquideologia
ort
orta
ortaca
ortako
ortega
ortegae
orter
orthoceras
orthographie
orthonychidae
orthopsittaca
orthotomus
ortiz
orum
oryx
os
osaka
osborne
oscar
oscitans
osgoodi
osiris
oskar
osman
osmancık
osmaneli
osmangazi
osmanica
osmaniye
osmo
osphronemus
ost
osteichthyes
osteospermum
osteostraci
ostralegus
osvaldo
oswald
ota
otariidae
other
others
otia
otidiphabinae
otidiphaps
otlukbeli
otostylis
otrs
otter
otto
otus
ou
ouboter
oudemans
ouest
our
oustalet
out
outcome
outdated
outer
output
outreach
outside
outvalue
ouverte
ouvrage
ouvrages
ouvrie
ova
ovacık
ovalifolia
ovalis
ovata
ovatilabia
ovatum
over
overlay
override
overview
owen
owl
own
oxford
oxt
oxycoccoides
oxycoccus
oxyglossa
oxyrrhynchos
oxyrrhynchossubsp
oxyura
oxyurus
oy
oyama
oyster
oz
p
pa
paama
pablo
pabst
pabstia
pabstii
pacher
pachira
pachites
pachycephalidae
pachyglossa
pachyphylla
pachyphyllum
pachyphyta
pachypodium
pachyramphus
pachyrhyncha
pachystachys
pachytriton
pacific
pacifica
pacificum
pacificus
padilla
paederia
paedocypris
page
pageara
pagenstecher
pages
pageviews
pagos
paid
painted
painter
painteri
painting
pairs
paisaje
pakistan
pakistanica
pakistanlı
pal
palace
palacio
palaeognathae
palando
palau
palawan
palawanensis
palawensis
pale
paleontolog
paleosuchus
palicourea
palisot
pallas
pallasii
pallens
pallescens
pallid
pallida
pallidiceps
pallidiflavens
pallidum
pallidus
palm
palma
palmarum
palmer
palmeri
palu
paludicola
paludosa
palumboides
palumbus
palustre
palustris
pam
pamphorichthys
pamukkale
pamukova
pan
panama
panamensis
panaspis
panattensis
panayensis
pandurata
panduratum
panduripetala
panfilov
pangong
paniculata
paniculatum
panisea
pannoniae
pano
panoptes
panorama
panoramic
panormitana
pans
panthera
pantherina
pantl
panychlora
paolo
pap
papenfuss
paphinia
paphiopedilum
papilio
papilionacea
papilionanthe
papillosa
papillosum
papillosus
papio
papou
papua
papuana
papuanum
papuligera
par
para
paracheirodon
paracontias
parade
paradigalla
paradisaea
paradisaeidae
paradisanthus
paradise
paradoxa
paradoxornithidae
paraensis
paraguay
paraguayensis
paralaudakia
param
paramesotriton
parameter
parameters
params
paramythiidae
parana
paranaensis
paranapiacabensis
parapara
paraphalaenopsis
parastremma
parazitolog
pardalina
pardalis
pardalotidae
pardipes
pardo
parent
parententities
parententitiesi
parentoptions
parentsnak
parentsnaks
parfait
parfois
paridae
parin
paris
parish
parishii
parisx
park
parker
parkeri
parkinson
parliament
parmelee
parole
paroles
parotia
parque
parra
parrot
parse
parseclaim
parseddate
parsedflagstarttime
parsedtime
parseiso
parsetimefromsnak
part
partial
participants
participate
participated
participating
participation
particular
particularly
partim
partner
partridge
parturl
party
parulidae
parus
parva
parviflora
parviflorum
parviflorus
parvifolia
parvifolium
parvilabris
parvirostris
parvula
parvulum
pas
pasinler
pass
passage
passe
passer
passeri
passerida
passeridae
passeriformes
passerina
passerinum
passerinus
passionis
passos
password
passwords
past
paste
pasteur
pastinator
pastorellii
pat
patagioenas
patagonicus
patagonus
patens
path
pathways
patinoa
patnos
patricia
patrick
patrol
pattern
patterson
patula
pau
pauciflora
pauciflorus
paul
paula
paulara
paulensis
pauliani
paulinae
paulo
pauloensis
paulownia
paulskirche
paulson
paulus
pauly
pauper
pauwels
pav
pavan
pavanelli
pavel
pavetta
pavo
paxton
pay
payandeei
payot
paz
pazar
pazarcık
pazarlar
pazaryeri
pazaryolu
pc
pcall
pdf
pdt
pdx
pe
peace
peaceful
peach
peacock
peahoone
peak
pearce
pearcei
pearl
pearson
peck
peckham
pectinata
pectoralis
pedersen
pedilochilus
pedioplanis
pedro
pedunculata
peel
pehlivanko
pehr
peine
peixoto
pelagicus
pele
pelecaniformes
pelecanus
pelegri
pelewensis
peli
peliperdix
pellegrin
pellegrino
pellucida
pelzelni
pemba
pembaensis
pen
penama
pencil
pendens
pendik
pendula
penduliflora
peng
penicillata
peninsula
pennantia
pennata
pense
pensilis
pentace
pentaplaris
pentecost
penther
pentlandii
people
peoples
peperomioides
pepper
pequenas
per
pera
peracca
perca
percentage
perciformes
percivali
percy
perdicula
perdita
perdix
pereira
perennis
perez
perform
performance
performed
performing
period
periparus
perisoreus
peristeria
perkins
perlata
perlatum
perlatus
perle
permission
permissions
perner
peronii
peroupavae
perousii
perplexum
perpusilla
perrault
perrier
perrieri
perrin
perry
perryi
pers
persa
perse
persian
persica
persicaria
persicus
person
personal
personata
personatus
personname
personnametoauthorname
personnametoresponsiblename
persons
perspicillata
pertek
perthensis
pertinax
peru
peruanum
perugia
perulu
peruv
peruviana
peruvianum
peruvianus
pervari
petauke
pete
petelotii
peter
peters
petersburg
petersiana
peterson
petersoni
petiolaris
petiolata
petit
petite
petr
petri
petrochelidon
petroicidae
petromyzontida
petromyzontidae
petronia
petrophassa
petrophila
petropolitana
petrosus
pett
petter
petulanos
peucedramidae
peyrotii
pez
pezophaps
pezoporini
pezoporus
pfarrkirche
pfavii
pfeffer
pfennig
pfg
pfisteri
pfitzer
pflanzen
pfrimeri
phabricator
phacochoerus
phaenicophilus
phaeolaemus
phaius
phalacrocorax
phalaenopsis
phalaropus
phallichthys
phalloceros
phallotorynus
pham
phapitreron
phaps
pharia
pharomachrus
phase
phasianus
phataginus
phayrei
pheasant
phedina
phelsum
phelsuma
phenacogaster
phenacogrammus
phigys
philadelphia
philantomba
philepitta
philepittidae
philesturnus
philetairus
philip
philipp
philippe
philippensis
philippi
philippinense
philippinensis
philippines
phillip
phillips
phillipsi
philochortus
philomelos
philosophes
philosophie
phimosus
phocidae
phocoena
phodilus
phoebastria
phoebetria
phoenicopterus
phoenicurus
phoenix
pholcoidea
pholidota
photo
photographic
photos
php
phragmipedium
phragmotheca
phreatia
phrygia
phyllocladus
phylloscopus
phylogeny
physogyne
phytologia
phytotax
phytotomidae
pi
pia
piabucus
piaggiae
piano
piaractus
piazza
pica
picathartidae
picazuro
picea
pickard
pickerel
pickeringii
picta
pictet
picturata
picture
pictus
picui
picus
pie
piece
pieces
pied
pier
pierce
pieris
pierre
pieter
pietro
pigeon
pike
pilaris
pileata
pileatum
pileatus
pilifera
pilosa
pilosissima
pilot
pin
pinaceae
pinarocorys
pinaster
pinceana
pindo
pine
pinea
pinetorum
ping
pingaud
pinicola
pinilla
pink
pinnata
pinnatus
pinnipedia
pinon
pinta
pintadeanus
pinto
pinus
pio
pionites
pionopsitta
pionus
piperia
pipra
pipridae
piprites
piptoporus
piran
piranga
piranha
piratiningana
piraziz
pires
pisinna
pistrinaria
pita
pitcairn
pithecia
pitta
pittasoma
pittidae
pittieri
pituriaspida
pityphyllum
piza
pizarro
pk
pl
plaats
place
placeid
placentis
places
placida
placodermi
plain
plaindata
plains
plan
planaltina
planet
planifrons
planned
planning
planquette
plans
plant
plantae
plantaginea
plantas
plante
plantes
plastik
platalea
platanthera
plataplochilus
plateau
platenae
platform
platforms
platon
platurus
platycephalus
platycercinae
platycercini
platycercus
platychila
platycichla
platyfish
platynota
platypetala
platyphylla
platyrhynchos
platysteiridae
platystele
platystylis
platz
playfair
playing
plays
plaza
ple
please
pleased
pleasure
plectorrhiza
plectrophenax
plegadis
pleione
pleskei
pleurodeles
pleurothallis
pleurothalloides
pleurothallopsis
plicata
plo
ploceidae
plocepasser
ploceus
plocoglottis
plumbea
plumbeus
plumifera
plumosa
plus
pluto
pluvialis
pm
pmid
pms
png
po
pocock
podarginus
podiceps
podocarpaceae
podoces
podochilus
podogymnura
poe
poecile
poecilia
poeciliidae
poeciliopsis
poecilocharax
poecilolagus
poecilorrhoa
poensis
poepp
poeser
poey
pogona
pogonia
pogoniopsis
poicephalus
poilanei
point
poir
poland
polar
polateli
polatlı
poldine
polen
poli
police
policy
poliocephala
poliocephalus
polioptilidae
polis
polish
politique
politische
poll
pollachius
pollard
pollen
pollenii
pollinensis
polonia
poly
polyantha
polychroma
polycycnis
polygonoides
polylepis
polyphon
polyphylla
polyphyllus
polyplectron
polypteriformes
polystachya
polysticta
polytelini
polytelis
pomacanthus
pomatocalpa
pomatostomidae
pompadora
ponapensis
ponce
pond
ponderosa
pondicerianus
pone
ponera
ponerorchis
pongo
pont
ponthieva
pop
popayanensis
pope
popta
poptella
popular
populatedatafromclaims
populatesourcedataimpl
population
popups
poropanchax
porosus
porpax
porphyraceus
porphyrea
porphyreus
porphyrio
porphyrocephala
porphyrostachys
porroglossum
porsch
porsche
port
porta
portal
portekizli
portentosa
porter
portilla
portillae
portland
portlandia
porto
portoi
portrait
portugal
portuguese
porzana
pos
posadae
posadarum
position
positions
positive
posof
possible
possibleage
possiblebookseriesentityid
possibledatestring
possibly
post
posted
poster
posthumous
posting
postponed
postrema
postuumi
potd
potential
potenziani
potter
pour
pouteria
powell
powellii
power
pozantı
pozoi
pp
ppchen
ppelberg
ppell
pr
pra
pradesh
prado
praecipua
praecox
praemorsa
praestans
praetermissa
prague
praha
prasinohaema
prasinus
prasophyllum
pratense
pratensis
pre
prec
precision
prefer
preference
preferences
preferids
preferred
prefix
prefsection
prepare
preparing
presbytis
prescottia
presentation
presentations
preserve
preset
presets
president
presl
press
presser
presses
pretiosa
pretrei
preussi
prev
prevent
preview
previews
previous
previously
prevlabel
prey
pri
priapella
priapichthys
pribik
price
pride
pridgeon
prieto
primary
primatolog
primolius
prince
princei
princeps
pringlei
prinia
print
printemps
priocharax
prionailurus
prioniturus
prionopidae
prior
priorities
prioritize
priotelus
priscilla
prison
prisons
pristobrycon
privacy
private
privigna
prix
prizes
pro
probably
problem
problems
probolodus
probosciger
proc
procapra
procatopus
proce
procellariiformes
procera
process
processes
procter
procyonidae
prodontocharax
prodr
produce
product
productivity
proeulagus
prof
profil
progenetica
progne
program
programming
progress
project
projects
projecttocheck
prolifera
promenaea
promeropidae
promerops
promontorii
pronolagus
proper
properly
properties
property
propertyentity
propertyid
propertyids
propertyparams
propertyselector
propinqua
proportion
proposal
proposals
propose
proposed
prorepentia
proscelotes
prosopeia
prospect
prosthechea
prostrata
protest
prototype
prototypes
prov
provence
provide
provided
providedlabel
providence
provides
providing
province
provinces
provincialis
provins
proxima
pru
prunella
prunellidae
przewalskii
ps
psala
psalidoprocne
psammodromus
psephotus
pseudalopex
pseudanos
pseudemoia
pseudeos
pseuderanthemum
pseuderemias
pseuderia
pseudibis
pseudoacontias
pseudoanatolica
pseudoapulica
pseudobertolonii
pseudobombax
pseudocentrum
pseudochalceus
pseudochelidon
pseudocymbiformis
pseudogoodyera
pseudolaelia
pseudonigrita
pseudopanax
pseudopoecilia
pseudosciadium
pseudoscops
pseudospeculum
pseudovanilla
psilantha
psilopsiagon
psiloscops
psitta
psittacara
psittacella
psittacellinae
psittaceus
psittacidae
psittacina
psittacinae
psittacopasserae
psittacula
psittaculidae
psittaculinae
psittaculini
psittaculirostris
psittacus
psitteuteles
psittinus
psittrichas
psittrichasiidae
psittrichasinae
psyche
psychilis
psychopsis
psychotria
pt
pteraspidomorphi
pterichis
pternistis
pteroceras
pterodroma
pteroglossa
pteroglossus
pteroptochos
pterostylis
pterygota
ptilinopinae
ptilinopus
ptilogonatidae
ptilonorhynchidae
ptilopachus
ptilope
ptilopsis
ptiloris
ptyonoprogne
pu
pubentity
puberula
pubescens
pubipetala
publ
public
publication
publications
publique
publish
published
publisher
publishing
pudica
pudu
puerto
puesta
puffinus
pugioniformis
pula
pulau
pulchella
pulchellum
pulchellus
pulcher
pulcherrima
pulcherrimus
pulchra
pulchricollis
pulchrum
pulla
pullarius
pullei
pullicauda
pulong
pulsatrix
pulvinata
puma
pumila
pumilio
pumilum
pump
puna
punctata
punctatum
punctatus
punctulata
pungens
punicea
pupulin
purcell
purple
purpose
purpurascens
purpurata
purpuratum
purpuratus
purpurea
purpureicephalus
purpurella
purpureum
purpusii
pursaklar
pusilla
pusillus
pusio
put
putorius
puttemansii
puyo
puzzle
px
pycnonotidae
pygargus
pygmaea
pygmaeum
pygmaeus
pygocentrus
pygomeles
pygoplites
pygoscelis
pyle
pyramidalis
pyrenees
pyrgilauda
pyrilia
pyrrhocorax
pyrrhops
pyrrhoptera
pyrrhula
pyrrhura
pyrroglaux
python
pywikibot
pywikipedia
pywikipediabot
pınarbas
pınarhisar
q
qalqaq
qi
qian
qing
qnotlaterthan
qnotsoonerthan
qu
quadricornis
quadrilineata
quadriloba
quadrilobum
quadriocellata
quadripunctata
quadrupes
quagio
quail
qualconfig
qualifier
qualifierid
qualifierids
qualifierpropertyid
qualifiers
qualifiervalue
qualifiervalues
quality
quan
quand
quang
quant
quantity
quararibea
que
queen
queensland
queer
quekettia
quel
quelea
querquedula
question
questions
quez
qui
quick
quickly
quiddity
quijano
quijote
quilliot
quintero
quinzaine
quipe
quiroga
quisqueya
quisqueyana
quisumb
quito
quotation
quotations
quoy
quyet
r
ra
rabei
rabibisoa
rabor
racemosa
rachovii
racine
rada
radcliffe
radda
raddi
radialis
radiata
radiatum
radierungen
radio
radiosa
raf
rafael
raffaele
raggiana
railway
rain
rainbow
rainer
raire
raires
rajon
rakvere
ralfr
rallidae
ralph
ramanamanjato
rambura
rami
ramifera
ramirez
ramo
ramonensis
ramos
ramosa
ramosii
ramosissimum
rampart
ramphastos
ramphocelus
ramsay
ramuana
ramulosa
ran
rand
randall
randi
range
rangiro
rank
rankin
rao
raoul
raphicerus
raphinae
raphus
rara
rard
rarotongensis
rarus
ras
raselimanana
raski
rasmussen
rassemble
rat
rate
rathaus
rathbun
rather
rattray
rature
rauchengerger
rauhiella
rauhii
ravel
raven
ravenga
raw
rawlinson
rawlinsoni
rawrule
rawrulepattern
raxworthy
ray
raymond
rb
rbu
rc
rchb
rd
rdes
rdh
rdova
rdu
re
reach
read
readability
readers
reading
ready
real
really
receive
received
receives
recent
recently
rechingeri
recognize
recommend
recommendations
recommended
reconst
record
recorded
records
recruiting
recurva
recurvata
recurvum
red
rede
reden
redesigned
redirect
redlink
redtenbacher
reduce
reduced
redunca
reed
reeder
reedii
reef
rees
reeve
reevesi
ref
refahiye
refanchor
reference
references
reflection
reflexa
refracta
refreshed
reftext
reg
regalis
regan
regarding
regardless
regards
regel
regenass
regia
regie
regina
reginae
reginald
region
regions
regis
registered
registration
regius
regni
regular
regulidae
regulus
reichard
reichenbach
reichenbachiana
reichenow
reichenowi
reid
reina
reindeer
reinhard
reinhardt
reinhold
reinholdii
reinwardt
reinwardti
reinwardtii
reinwardtoena
reis
reisinger
relate
related
relatively
rele
release
released
releases
relevant
reli
reliable
reliably
religion
religiosa
remain
remaining
remains
remastered
remember
remera
remiz
remizidae
remota
removal
remove
removed
removing
ren
renaissance
renanthera
renata
renato
rence
rences
rendahl
rendered
renderreferenceimpl
rendersource
rendle
rene
renessaince
reniformis
renner
renou
rental
renz
renzii
rep
repens
repert
repetitions
replace
replaced
reply
report
reports
repository
represented
reptans
reptile
reptilia
repu
republic
republika
request
requested
requesting
requests
require
required
requirements
requires
res
research
reserva
reserve
resinosa
resnum
resolution
resources
respond
responded
responsible
rest
restored
restrepia
restrepioides
restrepo
result
resultclaims
resultlist
resultproperty
resultresultproperty
results
resultwikitext
resupinata
ret
reticulata
reticulatum
reticulatus
return
returns
retusa
retusum
reuss
reuter
rev
reverse
reverting
review
revision
revisions
revisionslider
revoluta
revolution
revue
rex
rey
reyes
reyhanlı
reyi
rez
rfc
rfez
rg
rge
rgen
rgentepe
rgio
rgu
rgy
rh
rhabdalestes
rhabdophora
rhea
rhellicani
rhexipanchax
rhinerrhiza
rhineuridae
rhinocryptidae
rhizanthella
rhizophora
rhizothera
rho
rhodocephala
rhodochila
rhodocorytha
rhodognaphalon
rhodostephane
rhombeus
rhombilabia
rhomboglossa
rhomboidalis
rhomboidea
rhyncholaelia
rhynchophreatia
rhynchopsitta
rhynchostele
rhynchostylis
rhynchotus
rhytiodus
rhytionanthos
ri
ria
ribeiro
ribera
ric
rica
ricain
ricardo
rice
rich
richard
richardi
richardiana
richards
richardsii
richardson
richardsonii
richmond
richteri
ricii
rico
ride
ridgwayi
ridl
rie
riefferii
riens
riflebird
rig
riga
right
rights
rigida
rigidula
rijks
ril
riley
rilima
rilke
rimbachii
rimbaud
rin
ring
ringens
rio
riparia
risoria
risso
rita
ritchie
ritter
riva
rivas
river
rivera
rivero
rivoli
rivularis
riyanto
riz
rize
rk
rkc
rkeli
rkiye
rkog
rlandalı
rm
rmene
rn
rnberg
rner
rnste
ro
roa
road
rob
robb
robber
robert
roberto
roberts
robertsi
robertsii
robertson
robin
robinet
robins
robinson
robinsoni
robinsonii
robiquetia
roboratus
robson
robusta
robustum
robustus
rocha
roche
rock
rocket
rodericana
rodney
rodolfo
rodr
rodri
rodrigo
rodrigoi
rodrigues
rodriguesii
rodriguez
rodriguezia
roeboides
roezlii
rofesseur
roger
rogers
rohtang
roi
roig
roja
rojas
roland
rolando
role
roles
rolf
rolfe
rolfeana
rolfei
roll
rolli
rolling
rom
roma
roman
romana
romanesque
romania
romano
romans
romen
romer
romero
ron
ronald
ronde
rong
rongi
ronkay
ronney
roof
rooij
room
roosevelt
roraimae
roratus
ros
rosa
rosacea
rosaceae
rosali
rose
rosea
roseata
rosei
roseicapilla
roseicollis
roseifrons
rosen
rosenberg
roseoalba
roseogrisea
roseum
roseus
rosillo
ross
rossi
rossii
rostellata
rostliny
rostock
rostrata
rostratum
rostratus
rot
rotating
rote
roth
rothschild
rothschildi
rotundata
rotundifolia
rotundifolius
rouge
rough
roumanicus
round
rouse
roux
rovaniemi
rover
row
rowa
rowland
rowley
roxb
roxburghii
roy
royal
royen
roymak
rpınar
rquez
rrez
rsel
rster
rsu
rt
rtdivan
rtu
rtyol
ru
rubavu
rubaya
rubecula
rubengera
rubens
ruber
rubescens
rubiaceae
rubicunda
rubiginosus
rubona
rubra
rubric
rubriceps
rubricera
rubrigularis
rubrirostris
rubritorquis
rubrogenys
rubronotata
rubus
rucervus
ruckeri
rudbeck
rudbeckia
rudis
rudolf
rudolfi
rudolfiella
rudolfii
rudolph
rudolphi
rue
ruedi
ruellia
rueppellii
rufa
rufescens
ruficauda
ruficeps
ruficollis
rufifrons
rufigaster
rufigula
rufilatus
rufina
rufinus
rufipennis
rufipes
rufiventris
rufoscapulatus
rufous
rufulus
rufus
rugabano
rugalika
ruganda
rugarama
rugendabari
rugera
rugerero
rugosa
ruhango
ruharambuga
ruhashya
ruheru
ruhuha
ruhunde
rui
ruiz
rukara
rukira
rukoma
rukomo
rukozo
rukumberi
rule
rules
ruli
rulindo
rumani
rumex
rummad
rumseyi
run
runa
runda
rung
rungweensis
running
runs
rupephaps
rupestris
rupicola
rupp
ruramba
ruramira
rurembo
rurenge
rus
rusa
rusarabuge
rusasa
rusatira
rusby
rusbyi
ruscifolia
rusebeya
rusenge
rushaki
rushashi
rusia
rusiga
rusizi
rusororo
ruspolii
russell
russia
russian
rustica
rusty
rusumo
rutare
ruthven
rutilans
rutilus
rutk
rutsiro
rutter
rutunga
ruvune
rv
rvi
rw
rwabicuma
rwamagana
rwamiko
rwanda
rwaniro
rwankuba
rwaza
rwempasha
rwerere
rweru
rwezamenyo
rwimbogo
rwimiyaga
rwinkwavu
ry
rydb
ryder
ryf
rzano
rı
s
sa
sabana
sabanalagus
sabulosa
saccata
saccatum
saccifera
saccoderma
saccoglossum
saccolabium
sacculata
sacd
sachalinensis
sacred
saddle
sadler
sadlier
safe
safety
saffron
safranbolu
sagittata
sagittatus
sagittifera
saguinus
sah
sahlberg
sahtu
sai
saimbeyli
saimiri
saint
saisseti
saito
sakai
sakalava
sakarya
sakata
sake
sakha
salamonis
salar
salas
salazar
saldanha
salgar
salicifolia
salihli
salminus
salmo
salomonsen
salpistele
salpornis
salt
salvador
salvadori
salvadorii
salvator
salvatore
salvatoris
salvini
salzburg
salıpazarı
samandag
samar
samarensis
sambar
sambiranoensis
sambucus
same
samfya
samoa
samoensis
samp
sample
samsat
samuel
san
sanap
sancaktepe
sanches
sanchezi
sanchezii
sancta
sanctae
sanctaecatarinae
sanctaecrucis
sancti
sanctithomae
sand
sandbox
sander
sanderae
sanderiana
sanders
sandy
sandıklı
sanford
sanfordi
sang
sangirensis
sanguinea
sanguineus
sanma
sans
santa
santaclauslive
santana
santiago
santo
santolina
santorin
santos
santuario
sanyal
sapanca
saparua
sapayoidae
saphirina
sapindaceae
saproscincus
sar
sarah
sarasin
saratamata
saratoi
sarawak
sarawakensis
saray
saraydu
saraykent
sarayko
sarayo
sarcanthopsis
sarcochilus
sarcoglottis
sarcophylla
sarcopterygii
sarcostoma
sardegna
sardinia
sargentii
sarkar
sarocchi
sars
sartor
sartorii
sartre
saruhanlı
sarıc
sarıcakaya
sarıgo
sarıkamıs
sarıkaya
sarıog
sarıveliler
sarıyahs
sarıyer
sarız
sason
sassafras
sato
saturatus
saturday
saturnino
satyrium
saudade
sauleda
saunders
saundersiana
saurocephala
sauroglossum
saut
sauvage
savage
savas
save
saved
savi
saville
savur
saw
sawyer
saxatilis
saxicola
say
says
sazima
sc
scalaris
scale
scan
scandens
scandiacus
scansor
scapanus
scaphosepalum
scaphyglottis
scapigerum
scaposa
scapularis
scarabaeidae
scariosa
sce
scehisar
scelochilus
sceloglaux
scelorchilus
scenes
scepomycter
scha
schaefer
schaffneri
schalow
schalowi
schartl
schauensee
schedul
schedule
scheduled
scheel
schefflera
schelpe
scheme
schemedelimeterposition
schick
schiedeella
schiesari
schiffornis
schilleriana
schindler
schindleria
schinopsis
schinus
schinz
schio
schistochlamys
schistolais
schizodon
schlechter
schlechteri
schlechteriana
schlegel
schlegeli
schlegelii
schleich
schliewen
schlimii
schlo
schloss
schlosser
schlossgarten
schltdl
schltr
schlu
schmidt
schmidti
schmidtianum
schmidtler
schmitz
schneider
schneideri
scho
scholarship
scholarships
schomburgk
schomburgkia
schomburgkii
school
schreiben
schubert
schudelii
schuit
schult
schulte
schultz
schultzei
schulz
schulze
schulzei
schumann
schutzgeb
schwartz
schwarz
schweinf
schweinfurthianum
schweinfurthii
schweitzer
schwetzingen
sci
science
sciences
scincella
scincidae
scincoides
scincus
scintillata
scirpoidea
sciureus
sclater
sclateri
scleronema
sclerophylla
scleroptila
scn
sco
scolecoseps
scolopax
scoparium
scope
scops
scopulorum
scortecci
scorza
scotland
scotopelia
scott
scottish
screen
screens
screenshot
script
scripta
scripts
scriptum
scrugli
sculpture
scuticaria
scutulata
scytalopus
se
sea
seal
seale
seamless
search
searches
seats
seattle
sebastian
seben
secc
sechellarum
second
secondary
seconds
sect
section
sections
secunda
secundiflora
secundus
securepoll
security
sedis
seductus
see
seed
seegers
seehawer
seeking
seen
seferihisar
seidenf
seidenfadenii
seimundi
sein
seine
seipp
seitenschiff
sel
selachii
selasphorus
selbyana
selc
select
selectclaims
selected
selectedsnaks
selecting
selection
selector
selectors
selectorsstring
selendi
selenidera
selenitepala
self
selim
sellas
seloputo
selskab
semenanjung
semenov
semicirculatus
semifuscus
semilarvata
semitorquata
semitorques
semperflorens
sen
sena
senanga
send
sending
senegal
senegalensis
senegalus
senghas
sengoku
senilis
seniloides
senirkent
sent
sentation
sente
separate
separated
separator
sephaena
sepium
sepsina
september
septentrionalis
septotheca
seram
seranica
serapias
serbia
serdivan
serenje
sergei
sergey
sergio
sericeus
series
serik
serinhisar
serinus
seriz
serna
serotina
serpens
serpentes
serpentilingua
serra
serrapinnus
serrasalmus
serrata
serrulata
sertifera
sertularioides
serve
server
service
services
serville
ses
sesheke
sessiliflora
sessilis
session
set
setaceus
setigera
setting
settings
seuil
seura
seven
several
severus
sevilla
sex
sexlineatus
seychellarum
seychellensis
seychelles
seydiler
seydis
seyhan
seyitgazi
sezen
sf
sfsr
sg
sganzini
sgrabarczuk
sh
shaffer
shag
shah
shan
shane
shangasha
shanghai
shangi
shangombo
shannon
shao
share
shared
sharing
shark
sharks
sharma
sharp
sharpe
sharpei
sharpii
shaughnessy
shaw
shea
sheet
shefa
sheldon
shelford
shelley
shelleyi
shen
sheng
shepherd
sheppard
sherman
sheviak
shi
shift
shim
shin
shingiro
shinisauria
shinjuku
ship
shiraz
shop
short
shortcut
shorter
shot
shouche
should
shouldn
show
showcase
showed
showing
shown
shows
shreve
shrew
shu
shyara
shyira
shyogwe
shyorongi
si
sia
sialia
siamensis
siaoensis
siavonga
siberia
sibilans
sibirica
sich
sicilia
sick
sicklebill
siconversion
sicula
side
sidebar
sidney
sie
siebold
sieboldii
siegerist
sierra
sievekingia
sigfig
sigmoidea
sign
signatus
signed
significant
signs
siirt
sijm
sijmii
siju
sikkimensis
silences
siler
silifke
silivri
silopi
silva
silvae
silvan
silvana
silveira
silver
silverstone
silverstonei
silvestrii
silvestris
silvicola
sima
simalia
simarouba
simaroubaceae
simav
simbi
simia
similar
similis
simo
simon
simondii
simonyi
simple
simpledate
simpler
simplex
simpliciglossa
simply
simpson
simulans
sin
sinanpas
sinazongwe
sincan
since
sincik
sinclairii
sind
sindaco
sine
sinense
sinensis
singapore
singapurlu
singers
single
singles
sinica
sinolagus
sinop
sinotoi
sintillata
siprage
siqueira
sir
sister
site
sitelink
sitelinks
sitelinksproject
sites
sitewide
sitiaca
sitta
sittidae
situations
siu
sivas
sivaslı
siverek
sivrice
sivrihisar
sivusto
six
size
sizes
sjostedti
sk
ska
skaits
skele
skenderun
skeptrostachys
sketch
sketches
ski
skilip
skills
skin
skinneri
skins
skoc
sku
sky
skyline
sl
slahiye
slana
slater
slaty
slavey
sler
slider
slightly
slo
slovakia
slovenia
slow
slower
slowly
sm
sma
small
smaller
smallii
smaragdina
smartphone
smartphones
smarty
smg
smith
smithi
smithii
smithornis
smitinand
smooth
smuts
smutsia
sn
snak
snakpropertyid
snaks
snaktype
snakvalue
snow
snyder
so
soares
soberano
sobralia
sobre
soc
social
socialis
socie
society
socius
socorrensis
socorroensis
socotranus
socrates
sodiroi
software
sokrateen
sol
sola
solanaceae
solano
solar
soleil
solhan
solidaire
solitaire
solitaria
solitarius
solium
solo
solomon
solomonensis
solstitialis
solwezi
soma
somali
somalica
somateria
some
someone
somestring
something
sometimes
somevalue
somewhere
sommer
sommieri
somptuosus
son
sonata
sond
sonda
song
sonnenberg
sont
soo
soon
sophora
sophronitis
soratana
sorbonne
sordida
sordidus
sorgun
soria
sororcula
sororia
sorry
sort
sossusvlei
sotalia
soto
sotoana
souance
souef
souliei
sound
source
sourceclaim
sourceentity
sourceid
sourcepropertyclaim
sourcepropertyentity
sourcepropertyid
sources
souris
sousa
sousae
south
southeast
southern
southwell
southwest
southwestern
souvenirs
souza
soviet
sovu
sovyet
sowerby
sp
space
spacecraft
spaces
spacex
spacing
spadicea
spaeth
spain
spam
spanischer
spanish
spannageliana
spanyol
sparrow
sparseconcat
sparsiflora
spathilabia
spathoglottis
spathulata
spathulatus
spathuliformis
spathulipetala
spatula
spatulata
spawls
spb
speak
speaking
speaks
spec
special
species
specific
specified
speciosa
speciosum
specklinia
spectabilis
speculum
speed
spekei
spell
spence
spencer
spending
sphaerodactylus
sphecotheres
sphegodes
spheniscus
sphenomorphus
sphenurus
spicata
spider
spielfilm
spike
spilocephala
spilocephalus
spilonotus
spilopelia
spilorrhoa
spilotantha
spindalis
spinicollis
spinning
spinosus
spintherobolus
spinus
spir
spiral
spiralis
spiranthes
spirotheca
spit
spiti
spitzelii
spitzschnabel
spix
spixii
spizocorys
splendens
splendida
split
spondias
sponville
sporopipes
spot
spotted
sprache
spread
spreng
spring
springs
spruce
sprucei
spruneri
spumans
spurfowl
spuria
spurius
squamata
squamatus
squamipila
squammata
squamosa
square
squarrosa
squez
sr
srailli
src
srcproperty
sri
ss
sser
ssp
ssr
st
sta
stabilized
stachyodes
stad
stadium
staff
stafford
stage
stairi
stalkeri
stamariaara
stammt
stanbul
standard
standards
standing
standleyi
stanhopea
stanley
stapelioides
star
starling
stars
start
startboundaries
started
starting
starts
state
statedas
statement
statements
statementvalue
states
static
station
statistics
statue
status
stay
ste
steam
stebbins
steel
steere
steerii
stefan
stefani
stefano
steffen
stegastes
steidl
stein
steindachner
steindachneri
steiner
stejneger
stejnegeri
stelgidopteryx
stelis
stella
stellagama
stellaris
stellata
steller
stellilabium
stellio
stenella
stenia
stenoglossa
stenopetala
stenophylla
stenoptera
stenorrhynchos
stenosepala
stenostachya
step
stepa
stephani
stephen
stepheni
stephenson
ster
stercorarius
stereo
stereosandra
sterna
sternberg
sternfeld
sterreich
steven
stevens
stevensonii
steward
stewards
stewart
steyermarkii
stiassny
stictonettinae
stictophylla
stictopterus
stift
stiftskirche
stigmatopelia
stigmatus
stiles
still
stimson
stipulatum
stirling
stl
sto
stock
stockholm
stokesii
stoliczka
stoliczkana
stolzmanni
stone
stop
stopped
stora
stored
stories
storm
storr
storri
story
str
strasser
strategy
strauch
straussii
stream
strecker
street
streets
streifenkopftangare
strelitzia
strenua
strenuus
streptopelia
streptopetala
stresemann
stresemanni
striata
striatum
striatus
stricta
strigidae
strigiformes
striginae
strigopidae
strigops
strindberg
string
strings
striolata
striped
strix
strobus
strodt
strong
strpages
structure
strupifolia
struthio
strvalue
sts
stsci
stu
stuart
stuartiana
studied
studies
study
stunde
sturm
sturnia
sturnidae
sturnus
stygius
style
styles
styling
stylosa
su
sua
suahelicus
suarezii
suaveolens
suavis
sub
subbuteo
subclausa
subconcolor
subdialect
subdivision
subfamily
subflavescens
subgenus
subgroup
subgularis
subgutturosa
subject
submission
submit
submitted
subnulla
subrule
subrules
subscribe
subscription
subsection
subsp
substring
subtilis
subtitle
subulata
subvinacea
subway
suc
successful
such
sud
suda
sudan
sudeste
sue
suffix
suggest
suggested
sugpiaq
suitable
sul
sula
sulaensis
sulakyurt
sulawesi
sulcata
sulcatus
sulfuratus
sullivan
sulphurea
sultan
sultanbeyli
sultandag
sultangazi
sultanhisar
suluova
sulusaray
sum
sumatra
sumatrana
sumatranus
sumba
sumbaensis
sumbas
sumbawa
summarizes
summary
summerh
summerhayesiana
sumontha
sun
suncus
sunda
sundbergi
sung
sungurlu
sunia
sunrise
sunset
suomalais
suomi
sup
superba
superbiens
superbus
superciliaris
superciliosus
superfl
suppl
support
supported
supporting
supports
sur
surame
surdus
sure
surface
suriname
surinamensis
surinamus
surname
surnia
surniinae
surround
suruc
surveille
survey
survival
sus
susanna
sushi
susitna
suspectum
sustainability
sustainable
susurluk
susuz
sutherland
sutingara
sutorius
sutton
suðurland
sv
svecica
sven
svg
svic
sw
swainson
swainsoni
swainsonii
swallow
swamp
swan
swann
swaziland
sweden
swedish
sweet
swift
swindernianus
swinhoe
switch
switching
switzerland
swordtail
sydney
sykes
sylvatica
sylvaticum
sylvestre
sylvestris
sylvia
sylvicola
sylviidae
sylvilagus
sympetrum
symphony
syn
synagogue
synaptolaemus
sync
syncerus
syncing
synonym
syntax
syria
syriacus
syrmaticus
syst
system
systems
sz
szczepanek
szczerbak
sze
szidat
szlach
szlo
szu
sørensen
sındırgı
sœur
t
ta
tab
tabagwe
table
tables
tablets
tablevalue
tabs
tabuensis
tachycineta
tachyeres
tachyphonus
tacud
taczanowskii
tadorna
tadorninae
taeniata
taeniatus
taeniophyllum
taeniopterus
tafea
tag
tagebuch
tags
tahitensis
tahya
tail
tailed
tailorbird
tainia
taipei
tait
taita
taitensis
taiwan
taiwanensis
taiwaniana
take
taken
takes
taketake
taki
taking
takydromus
talas
talaud
talautensis
talbot
tale
tales
talk
talking
tallmountain
talpa
talpacoti
talpinaria
tamanini
tamil
tan
tana
tanaka
tanase
tandy
tang
tanganyika
tangara
tangare
tanimbar
tankervilleae
tanna
tannensis
tanner
tanygnathus
tanzania
tanzaniae
tao
taoniscus
taounde
tap
tapaculo
tapes
taphorn
taprobanis
tara
taraba
taraklı
taral
taranta
taras
tare
target
taricha
tarik
tarimolagus
tarsus
tartu
tas
task
taskforce
tasks
tasman
tasmania
tat
tate
tattersall
tatvan
tatyana
taubenheim
tauraco
taurotragus
taurus
tavares
tavas
tavs
taxonomic
tay
taylandlı
taylor
taylori
taylorii
tayvanlı
tbl
tc
tchagra
te
teach
teaguei
team
teams
teau
tech
technical
technology
teetl
teetł
tefenni
tegua
tehera
teiidae
teira
tekirdag
tekkeko
tekman
tel
telenesetes
teleostei
telescope
telida
tell
telmateia
telophorus
temminck
temminckii
temnurus
temp
temperature
templat
template
templatedata
templates
temple
templo
temporalis
temporary
temps
ten
tenebrosa
tenella
tenellum
teneriffae
tenggara
tennessee
tenompokense
tentaculata
tenthredinifera
tenue
tenuicaulis
tenuiflora
tenuifolia
tenuirostris
tenuis
tenuissima
teoksessa
tepe
tepebas
tephronotum
tequilana
ter
tercan
teres
teresa
teretifolia
term
termal
terme
terminal
terms
ternary
ternate
ternetzi
terrestris
terrisi
territory
tersch
tersina
teruel
terver
tes
teschner
tessellata
test
testacea
tested
testing
tests
tetra
tetradactyla
tetradactylus
tetragona
tetragonopterus
tetramicra
tetrao
tetraogallus
tetraophasis
tetraspis
tetrastes
tetrix
teuscheria
texana
texensis
text
texte
teynie
teysmannii
tezdlen
tezhi
tf
tg
th
tha
thai
thailand
thailandica
thalassarche
thamnophilidae
than
thanh
thank
thanks
that
thatta
thaumatibis
thayeria
the
theaceae
thecostele
thectocercus
their
thekkady
thelodonti
thelymitra
them
theme
themselves
then
theobald
theodor
theodore
theomacha
theragra
there
theresae
theristicus
these
they
thiago
thiele
thienemann
thienii
thilohoffmanni
thin
thing
things
think
thinking
thiriouxi
this
thlypopsis
thomas
thomasi
thomensis
thompson
thomson
thoracica
thorn
thorpe
those
thouars
though
thought
thoughts
thraupidae
thraupis
thread
threatened
three
threnetes
threskiornis
thrixspermum
throated
through
throughout
throwerror
thrush
thu
thudufushi
thumb
thumbnail
thumbnails
thunb
thunberg
thunbergia
thunbergii
thunia
thursday
thwaites
thys
ti
tian
tibet
tibetan
tibetanus
tibeticum
tica
ticket
ticoglossum
tidore
tied
tien
tienne
tiger
tigerfish
tigrina
tigrinum
tigrinus
tigris
tilaya
tili
tiliqua
till
timaliidae
time
timelapse
times
timidus
timneh
timon
timor
timorensis
timorlaoensis
timothy
timur
tina
tinaminae
tinamotis
tinamus
tinbergen
tinca
ting
tinnunculus
tiphia
tipo
tipularia
tirage
tire
tirebolu
tirica
title
titledelimeterposition
titlewerepresent
tityra
tityridae
tjbot
tjmoel
tken
tl
tlicho
tlingit
tlu
tn
to
tobagensis
tobago
toboolean
tochak
toco
tod
toda
today
todd
todo
toed
toga
together
toggle
togian
togo
togoensis
toijala
toinsert
tok
tokachii
tokat
tokenized
tokenizename
tokyo
toledo
tolumnia
tom
toma
tomarza
tome
tomentosa
tometes
tominaga
tommaso
ton
tone
tong
tonga
tongan
tongariki
tongoa
tonkinensis
tonsina
tonumber
tonya
too
tool
toolbar
tools
tooltip
tooth
top
topic
topics
topminnow
toprakkale
torba
torbalı
tornier
toronto
toroslar
torquata
torquatus
torre
torres
torrey
torricellensis
torricellia
torringtoniae
torta
tortilis
tortonese
tortum
torul
tos
toscano
tostring
tostringsnak
tosunog
tosunoglu
tosya
totable
total
totextwithtip
touch
touit
toujours
tour
tourlsnak
toussaint
toute
tove
towards
tower
towers
towikibaseentityidsnak
town
townsend
townsendi
townsendii
toxicodendron
toxicofera
toxopei
tpi
tr
trabzon
trachylepis
tracks
tracyae
tradition
traditional
traduction
traffic
tragelaphus
tragopan
trail
trailer
trailing
train
training
trains
tran
tranquebarica
trans
transform
transforming
transhyrcana
transit
transition
transitional
transitoria
translatable
translate
translated
translates
translatewiki
translathon
translating
translation
translations
translator
translators
translucida
transparens
transport
transvaal
trap
trape
traunsteineri
travassos
travaux
travel
traveling
travers
traversii
tre
treadwell
tree
trees
treron
treroninae
trevoria
trewavas
trg
tri
triage
trial
triangularis
trias
tribe
tribes
tribolonotus
tricallosa
tricarinata
trichocentrum
trichoglossus
trichoglottis
trichophora
trichopilia
trichopsis
trichosalpinx
trichotosia
triclaria
tricolor
tridactyla
tridactylus
tridens
tridentata
trier
trifida
trifurcata
trigonidium
trilineata
trilling
triloba
trilobata
trim
trimaculatus
trimen
trimmed
trimstr
trinervia
tringa
trinidad
trip
triphora
triplicata
trisetella
triste
tristigmata
tristis
triturus
trivittatus
trizek
trnc
trocaz
troglodytes
troglodytidae
trogon
trogonophidae
trollen
trollii
trollkarlens
tron
troodi
trop
tropical
tropicalis
tropidia
tropidophorus
tropidosaura
troschel
trottier
truck
true
trugon
trujillo
trulla
trullata
trullifera
trullifolia
truncata
truncatus
truncicola
trung
truong
trust
trustees
try
trying
tryon
ts
tschudi
tsedi
tsemendivabriku
tsi
tsiigehtchic
tsiistl
tsikma
tsina
tso
tsubotae
tt
tte
ttin
ttingen
ttler
tu
tuamotu
tuber
tuberculata
tuberculatum
tuberculatus
tuberosa
tubuai
tucanus
tucker
tucumana
tudes
tue
tuerckheimii
tuesday
tuesdays
tufanbeyli
tul
tumba
tumultuosus
tun
tunceli
tunguraguae
tunisia
turacoena
turcomanica
turdidae
turdus
turfosa
turgutlu
turhal
turid
turk
turkana
turkey
turkherptil
turkish
turkmenistan
turn
turnagridae
turned
turner
turneri
turning
turns
tursiops
turtur
tut
tutak
tuttle
tuvalu
tuvaluan
tuyama
tuzla
tuzluca
tuzlukc
tv
tw
twelve
twenty
twice
twin
twist
twitter
two
twumba
ty
tyler
tylototriton
tympanistria
tympanuchus
tyone
type
types
typha
typhlosaurus
typing
typography
typus
tyranni
tyrannidae
tyrannides
tyteca
tytler
tytleri
tyto
tytonidae
tyttobrycon
tyttocharax
tz
tze
tłı
təzəpir
u
ua
uaf
uboundary
ubuk
ucoc
udm
ueda
ug
uganda
uhd
uhut
ui
uj
uk
ukkopekka
uklu
ukraine
ukrainian
ukraynalı
ukurca
ukurova
ul
ula
uladendron
ulas
ulc
ulietanus
uliginosa
uliginosum
ullenbruch
ulmus
ulrich
ultra
ultramarina
ulubey
uluborlu
uludere
ulukıs
ulula
ulus
ulysses
um
umbellata
umbelliformis
umbilicata
umblicata
umbonata
umbra
umbrosa
ume
umra
umujyi
umurenge
un
unangan
unangax
uncata
uncatum
unchall
unciferia
uncinata
und
under
underside
understand
understanding
unduavica
undulata
undulatum
undulatus
une
unesco
unexpected
unfortunately
unguiculata
unguja
unicincta
unicolor
unicornis
unidos
uniflora
uniflorum
unifolia
union
uniq
unit
united
unitentity
unitentityid
univ
universal
universitaires
universite
university
unixavailable
unixdateofdeath
unkenrufe
unknown
unlu
unmanned
unnamed
unregistered
unsubscribe
until
up
upcoming
update
updated
updates
upiaq
upload
uploading
uploads
uploadwizard
upon
upper
upperbound
upright
ups
ur
uralensis
urb
urban
urbicum
urdu
ure
uri
uribei
url
urla
urls
urludag
urocissa
urocyon
urogallus
uroglaux
uropelia
uropsilus
urrutia
urs
ursidae
ursinus
ursoidea
ursula
ursus
urtica
uruguay
uruguaylı
urvilleana
us
usa
usability
usage
usd
use
used
useful
user
username
users
uses
using
uss
ussheri
ustring
ustulata
ustulatus
usual
usually
usuan
ut
utc
utf
utiaritichthys
utils
utqiag
utriculata
utugari
uturere
uvaeensis
uwe
uwinkingi
uyuni
uzel
uzeli
uzlar
uzundere
uzunko
v
va
vaasa
vaccinium
vachon
vagans
vaginata
vaginatum
vahe
vaillant
vakfıkebir
val
valdez
vale
valencia
valenciennes
valentine
valerio
valerioi
valery
valeur
valid
valida
valide
validus
valle
valley
value
values
valuetofind
van
vancouver
vanda
vandalism
vandewegheara
vandopsis
vanegas
vanellus
vanessa
vangidae
vanilla
vanoverberghii
vanua
vanuatu
vanzolini
var
varanidae
varanoidea
varanus
varemed
vargas
vargasii
vari
varia
variabilis
variable
variation
variatus
varie
variegata
variegatum
variegatus
various
varius
varnent
varnum
varto
varzea
vasa
vasconcelos
vasconica
vasquezii
vasudevan
vater
vaughan
vaughn
ve
vector
ved
veg
vega
veitchiana
vejdovsky
velatus
velazco
veleziana
vell
velox
velutina
velutinum
velvet
vences
venez
venezuela
venezuelae
venezuelalı
venezuelana
venezuelensis
venice
venosa
vented
ventralis
ventricosa
ventricosum
venulosa
venus
venusta
venustus
vera
veracruz
verao
veratrifolia
verboonenii
verdade
verdc
verde
verecunda
verm
vermiculatus
vernalis
vernans
vernixia
vernixioidea
vernon
vernonia
verreaux
verreauxi
verrucolineata
verrucosa
verrucosus
verruculosa
vers
versicolor
versicolurus
version
versions
versteegii
versuch
vertebrates
verticalis
verticillata
very
vespa
vespertilio
vestita
vestitum
veyrier
vezirko
vhs
vi
via
viaf
vicente
vicina
victor
victoria
victoriae
vida
vidal
video
videos
vidivici
vidua
viduata
viduidae
vie
vieillot
vieira
vieites
vienna
vier
vietnam
vietnamensis
vietnamlı
view
viewed
viewer
views
vigle
vigny
vigors
viguieri
vii
viii
viivi
vik
viktor
vila
vilhelm
viljandi
villa
village
villarreal
villas
ville
villela
villiers
villosa
vinacea
vincent
vinci
vinciguerra
vinecea
vini
vinn
vinson
viola
violacea
violaceomaculata
violaceus
violence
vipera
virans
vircondelet
virens
vireonidae
virescens
virgata
virgil
virginalis
virginia
virginiana
virginianus
virgo
viridescens
viridicata
viridiflora
viridigenalis
viridis
virtual
vis
visbeck
viscivorus
viscosa
visible
vision
visit
vista
visual
visualeditor
visualeditordid
visually
vitellina
vitellinus
viti
vitiensis
vitis
vittata
vittatus
vitticeps
vivipara
vize
vkontakte
vladimir
vladislaus
vlei
vls
vo
voeltzkowia
vogel
vogt
voice
voir
voix
vol
volcanes
volcano
volker
vollesii
vols
voltaire
volte
volume
volunteer
volunteering
volunteers
vom
von
vorator
vorlage
vorohuensis
voshell
vosmaer
vosseleri
vote
voters
votes
voting
voyage
vp
vr
vrindi
vro
vs
vu
vulcanica
vulgaris
vulpes
vulturina
vulturine
w
wa
waalia
wade
waechter
wageneri
wagleri
wagner
wagneri
wait
waite
waiting
wake
walbaum
waldo
wales
walk
walker
walking
wall
wallace
wallacei
wallacii
walleri
wallich
wallichiana
wallichii
wallicus
wallis
wallisii
walpers
walravens
walsh
walt
walter
walteri
waltl
wang
wangii
wanna
want
wanted
wanting
wants
war
warbler
ward
wardell
wardi
wardii
wariana
warm
warmingia
warneri
warrakkk
warren
warriors
warsaw
warscewiczii
warsz
warszawa
warszewiczii
was
wasa
washington
watch
watching
watchlist
watchlists
water
waterhouse
waterstradti
watling
watson
watsonii
waves
way
ways
wbstatus
wc
wds
we
wear
weasel
weaver
web
webb
webber
weber
weberbaueriana
weberi
webm
website
webster
weddellii
wedding
wednesday
week
weekly
weeks
wei
weibchen
weinland
weissinger
weitzman
weitzmani
welcome
welcoming
well
wellington
wells
welteri
welwitschii
wen
wendell
wendlandii
wendtii
wengen
wenker
went
wenzelii
wercklei
were
werner
werneri
wesley
west
westc
western
westwood
wetar
wetmorei
wettstein
weynsi
whale
whartoni
what
whatamidoing
whatever
wheeler
when
where
whether
which
whichever
while
whistler
whitaker
whitakeri
white
whitehead
whiteheadi
whitelianus
whitespace
whitfieldia
whitley
whitneyi
who
why
wickramasinghe
widdringtonia
wide
wider
widgrenii
wie
wiegmann
wien
wiersze
wiese
wight
wightiana
wiki
wikibase
wikibooks
wikidata
wikidataitemid
wikidataselectors
wikieval
wikifunctions
wikigap
wikimania
wikimedia
wikimedians
wikipe
wikipedia
wikipedias
wikipedie
wikis
wikisource
wikitech
wikitext
wikiversity
wikivoyage
wikivoyages
wilburys
wild
wilde
wildekamp
wilder
wildpark
wiley
wilfred
wilhelm
wilhelminae
wilhering
wilkinson
will
willd
wille
willem
william
williams
williamsii
willing
willis
willy
wilmer
wilms
wilson
wilsoni
wilsonii
wilton
win
wind
window
wing
winged
wink
winkler
winners
winning
winter
winterbottom
wirth
wish
wishes
wishlist
witch
witches
with
within
withner
without
witte
wittmann
wittsteinia
wm
wmde
wmf
wmru
wo
wolf
wolff
wolfgang
wollaston
woman
wombey
women
wonderful
wood
wooden
woodfordii
woodii
woods
worcester
word
wordpress
words
work
workboard
worked
workflow
working
worklist
works
world
worm
worthington
worthy
wosiacki
wot
would
wps
wpwp
wranik
wrapinurl
wrapperextraargs
wrapqualifier
wraps
wrapsnak
wrapstatement
wrapvalue
wren
wright
wrightii
write
writing
written
wroclaw
wrong
wslink
wsw
wu
wullschlaegelia
www
wynne
x
xal
xanthina
xanthogenys
xantholeuca
xantholora
xanthomerius
xanthonura
xanthops
xanthopterygius
xanthurus
xavier
xeno
xenoglaux
xenoperdix
xenopipo
xenopirostris
xenopsaris
xenurobrycon
xerorchis
xi
xia
xiang
xiao
xico
xie
xii
xiii
ximenae
xin
xinag
xing
xiong
xiphophorus
xiv
xix
xu
xv
xvi
xvii
xviii
xx
xxi
xxx
xylobium
xytriophora
y
ya
yaa
yag
yahs
yahyalı
yakakent
yakutiye
yalc
yalova
yalvac
yalıhu
yamam
yamamoto
yambun
yan
yandex
yang
yao
yapraklı
yarkandensis
yarrow
yasuda
yatag
yauaperyensis
yavuzeli
yayla
yayladag
yayladere
yazıhan
yceg
ye
year
years
yedisu
yehudahi
yellow
yellowtail
yemen
yeni
yenic
yenice
yeniceoba
yenifakılı
yenimahalle
yenipazar
yenis
yeriomtschenko
yerko
yes
yet
yi
yidateni
yiddish
yidere
yin
ying
ylla
ynu
yo
yoania
yomra
yong
yoo
york
you
young
your
youtube
yozgat
ypirangae
yu
yuan
yue
yugoslav
yuko
yukon
yulania
yumurtalık
yun
yunak
yunan
yung
yunnan
yunnanensis
yup
yupiget
yusufeli
yves
yy
yyyy
yıg
yıldırım
yıldızeli
z
za
zaher
zak
zalp
zambezi
zambia
zamboangensis
zamfara
zamorensis
zanata
zanda
zara
zaragoza
zaratananae
zarske
zarudnyi
zaza
zbyszewski
zce
ze
zea
zealand
zealandicus
zebra
zebrata
zebrina
zee
zeichnungen
zelandalı
zelandica
zelbahc
zelenkoa
zelyurt
zenaida
zentrale
zentrygon
zero
zeuxine
zeylonensis
zeytinburnu
zh
zhang
zhao
zheh
zheng
zhi
zhong
zhou
zhrii
zhu
zhurn
zic
ziegler
ziegleri
ziervgel
zietz
zile
zimbabue
zimbabwe
zimmer
zimmerman
zimmermann
zinnia
zio
ziyaretiana
zko
zmir
zmit
znik
zo
zoeae
zollingeri
zonarius
zonata
zone
zones
zonguldak
zoo
zoolog
zoology
zoom
zoothera
zootrophion
zosteropidae
zosterops
zquez
zri
zsef
zu
zug
zum
zunagensis
zur
zvatan
zwei
zweifel
zygopetalum
zygosepalum
zygostates
{
|
}
~
¤
§
«
¬
­
®
¯
°
±
²
³
´
¶
·
¹
º
»
½
¿
×
æ
ø
ı
ıbas
ık
ılca
ıldır
ılı
ın
ınar
ınarcık
ırnak
ıthane
ıyaka
ızları
ızman
ł
ła
łeggi
ŋ
œuvre
ɑ
ə
ɡ
ɪ
ʉ
ʔ
ʲ
ʷ
ʻ
ʼ
ʾ
ʿ
ˈ
ˌ
ː
˛
ˠ
̀
́
̂
̃
̄
̆
̇
̈
̉
̊
̋
̌
̍
̓
̔
̛
̢
̣
̤
̦
̧
̨
̱
̲
͂
ͅ
α
β
γ
γιο
γος
δ
ε
ζ
η
ημερολο
ι
κ
καταστρω
κατηγορι
κι
λο
ματος
ν
νη
νος
ο
ον
πο
πτερο
ρ
ς
σος
υ
ω
а
аа
аалто
аана
абактохромис
абалос
абана
абботина
аббуд
абдулла
абеба
абзац
абиджан
абидин
абиссин
абиссини
абиу
абия
абрамитес
абрикос
абу
абуджа
абукаев
абхаз
абхази
абхазин
абхазла
абхазлала
ава
аванос
аварцы
аваук
аваха
авахан
авахашты
авачинскии
аввохутеп
август
августа
августын
авджылар
авенир
авиньон
авокадо
австралази
австралазишты
австрали
австралии
австралин
австралишты
австралия
австри
австрии
австрин
австришты
австрия
австро
австроцедрус
автобиографическии
автобус
автобусеш
автомобиль
автономи
автономная
автономныи
автор
авторвла
авторжы
авторитета
авторын
авторышты
ага
агалега
агама
агамавла
агаман
аганиси
агата
агатис
агач
агачо
агеп
агератум
агласун
агломерацишты
аглосоринка
аглы
агнес
агрикола
агрор
агры
агуаскальентес
агыл
агылеп
агын
ада
адаклы
адалар
адам
адамава
адамантини
адамс
адана
адансони
адапазары
адвент
аддис
аделаида
адели
аджыго
аджыпаям
ади
адилджеваз
адин
административ
административно
административное
административные
административныи
администраци
администрацин
адмирал
адмиралтеи
адмиралти
адольф
адонара
адрес
адресшы
адриатика
адыяман
ажак
ажаккек
ажедма
ажедмашвла
ажедшы
аз
азан
азаным
азанышты
азаныштыш
азбукы
аздаваи
азербаи
ази
азиатские
азиатскии
азиз
азизие
азии
азин
азишты
азия
азов
азор
азым
аи
аига
аист
ак
акаа
академи
академик
академин
академическии
аказ
аказа
аказан
аказын
акакаллис
акампе
акан
акантефиппиум
акантолабрус
акапулько
акарихтис
акаролог
акарологи
акарони
акат
акациелла
аква
аквариум
аквитани
акдагмадени
акдениз
аки
акиак
акиачак
акко
аккра
аккуш
аккышла
аклавик
акмазик
акмяне
акнисте
акнодон
ако
акозын
аконтиас
аконтиасвла
акостэа
акпарс
акпарса
акпарсын
акпатыр
акпынар
акрет
акриопсис
акролофи
аксаи
аксараи
аксеки
акситы
аксу
аксункур
акте
актеон
активно
активныи
актриса
актрисы
актуальныи
актусола
акулавла
акхисар
акцорин
акча
акчаабат
акчадаг
акчакале
акчакент
акчакоджа
акшак
акшехир
акынджылар
акьюрт
акьяка
акязы
ал
ала
алааддин
алабама
алабат
алавиры
алавы
алагек
аладаг
аладжа
аладжакая
аладжахо
алаи
алаканук
алалыды
аламани
алан
алангы
алангывла
аландскии
аланья
алаплы
алатаи
алатна
алачам
алаша
алашехир
алашоэ
алая
албани
албанин
алберт
алвар
алдаи
алдиар
алдушкин
алдыр
але
алекнагик
алекса
александр
александра
александрия
александров
александрович
александровна
алексеев
алексеевич
алексеевна
алексеи
алексис
аленева
алестес
алестесвла
алестопетерсиус
алеут
алеутвла
алеутла
алжир
алжирин
алжиришты
али
алиага
алигьери
аликов
алингсос
алитус
алколапи
аллакакет
аллигаторовые
аллю
аллюзи
аллюзивла
алманов
алмус
алор
алп
алпаи
алпу
алт
алтаи
алтунхисар
алтын
алтындаг
алтынекин
алтыно
алтынова
алтынташ
алтынъяи
алуджра
алфавит
алфавиты
алык
алыквла
алыкмарла
алыкты
аль
альбатрос
альбатросвла
альберт
альбертина
альбертович
альбинскии
альбици
альбом
альбомвла
альбомжы
альбомым
альбукерке
альдабра
альманахеш
альп
альпии
альпини
альпывла
альсевосми
альстро
альтолампрологус
альфаро
альфонс
альфред
альфреды
альциона
алютик
алютиквла
алютикла
аляска
аляскын
аляскышты
ам
ама
амадина
амазон
амазонвла
амазонка
амазонская
амазонскии
амал
амала
амален
амалымы
аман
аманыр
амаса
амасавла
амасажым
амасам
амасра
амасья
аматисола
аматитлани
амашкек
амбае
амблер
амбон
амбрим
амдф
америка
американ
американская
американские
американскии
америки
америкы
америкын
америкыш
америкышты
америкыштыш
америции
амерорхис
аметист
ами
амивла
амирант
амитостигма
амишвла
аммокриптохаракс
ампат
амстердам
амстердамын
амстердамышкы
амур
амфилофус
амфисбена
амфисбены
амыж
амыжгек
ан
ана
анабар
анаи
анакамптис
анактувук
аналаклит
анализ
анализу
анамбра
анампсес
анамур
анан
ананьинскии
анастасия
анаталлис
анатоли
анатолии
анатом
анатоми
анатомижы
анвик
анггун
анге
ангелина
ангелы
ангилал
ангилья
англ
англи
англии
англичан
англичанвла
англишты
англла
англо
ангола
анголан
ангольскии
ангрекум
ангулоа
ангы
анд
андаман
андаманская
андвла
анджелес
андигена
андиноакара
андорра
андраш
андре
андреевич
андреевна
андреи
андрианов
андрокорис
андронго
андскии
андуганов
андырын
ане
анеи
анектохил
анетан
анеш
анешла
анжа
анжал
анжалат
анжалаш
анжалда
анжалтыш
анжалтышан
анжалтышвла
анжалтышыжы
анжалтышыжым
анжалтышышты
анжалтышыштым
анжалына
анжат
анжаш
анже
анжелесы
анжен
анжена
анжены
анжет
анжуан
анжы
анжыде
анжыкта
анжыкталеш
анжыкталтеш
анжыкталтыт
анжыктат
анжыкташ
анжыктен
анжыктены
анжыкты
анжыктылын
анжыктымаш
анжыктымашвла
анжыктымашты
анжыктымы
анжыктышы
анжыктышым
анжымаш
анжымы
анжымыла
анжышы
анжышывла
анзы
анзыкы
анзыкыла
анзыкылашы
анзыл
анзылны
анзыц
анзыцок
анзыцшы
анзыцын
анзыцырак
ани
анибар
анива
аникщяи
анис
анисимов
анкара
анкоридж
анн
анна
аннангвла
аннаполис
аннона
анолис
аномалохромис
анонимныи
анонимус
аноси
аностомоидес
аностомус
аностомусвла
анош
ансамбль
ансамбльвла
ансамбльым
ансамбльын
ансамбльышты
анселли
антакья
анталья
антананариву
антарктида
антарктидышты
антигуа
антик
антил
антилопа
антимилитаризм
антипод
антогониюм
антологи
антологивла
антологим
антон
антоним
антонио
антониус
антониусым
антркасто
антрополог
антуан
ануш
анхальт
анхихеропс
анципити
анцистроринхус
анцистрохилус
анышты
аньяланкоски
аоба
аопа
апаи
апакаев
апалис
апатеев
апаче
апельсин
апиа
апистограмма
аплектрум
аплонис
аплонисвла
аполемихт
аполима
апоростилис
апостаси
аппендикула
апрель
апрельы
апрельын
апреля
ар
ара
араб
арабан
арабла
арабскии
арабского
аравашты
арави
аравишты
аравла
аражы
араклы
аралаш
арали
аралык
аран
арапгир
арасари
аратинга
араукари
арафура
арахнис
арахнолог
арахнологи
арач
арашы
арбуз
арва
арвервлак
арво
аргек
аргекы
аргентин
аргентина
аргентинын
аргентинышты
аргон
аргуван
аргумент
аргументы
аргус
ардануч
ардахан
арде
ардешен
аре
ареалжы
аретуса
аржан
ари
ариель
аризона
арин
аристотель
аристотельы
арифие
арк
аркадии
арканзас
арктик
арктика
арлекин
арм
армары
армени
арми
армивл
армижы
армии
армим
армин
армиш
армишкы
армишты
армутлу
армян
арнавутко
арнольдихтис
ароматан
арпад
арпачаи
арпы
арсении
арсии
арсин
артвин
арте
артикльвла
артист
артиствла
артистшы
артньык
артньыквла
артова
арторима
артур
ару
аруба
арундина
архави
архангельск
археолог
археологвла
археологи
архив
архиввла
архивныи
архивы
архиепископын
архип
архипелаг
архипелагышты
архипов
архипович
архитектор
архитекторвла
архитекторжы
архитектур
архитектура
архитектурныи
архоцентрус
ары
арыджак
арын
арыслан
асарджык
аскари
аскоцентрум
аслан
асланапа
асмэра
аспаси
аспекты
аспиидогине
аспирантурышты
ассам
ассамблеи
ассампшен
ассоциацивла
асср
астана
астатореохромис
астатотиляпи
астианакс
астов
астра
астрахань
астрид
астрильд
астроном
астрономи
астронотус
астурвла
астурин
асфальт
асфальтым
ат
ата
атабаск
атабеи
атакум
атату
аташехир
атерина
атик
атикамек
аткараджалар
аткасук
атланта
атланти
атлантик
атлантическии
атлас
атласкин
атмаутлуак
атмосфера
атмосферы
атна
атнавла
атнала
атнер
ато
атолл
атом
атсимо
атсинанана
аттила
атуа
атчин
атьсола
атюлов
атя
атяжы
аугсбург
аугуст
аукционышкы
аулонокара
аулонокранус
аурелио
аустралохерос
ауффенберг
ауш
аушн
афалина
афанасьевич
афганистан
афганистанышты
афега
афеландра
афиллорхис
афины
афиодита
афиохаракс
афогнак
африка
африканская
африканскии
африкын
африкыш
африкышты
африкыштыш
афротропика
афцели
афшин
афьонкарахисар
ах
ахен
ахеродус
ахиок
ахлат
ахмет
ахметли
ахо
ахтисаари
ахырлы
ациантера
ациантус
ацинета
аш
ашаффенбург
ашкале
ашкед
ашкедеш
ашкедмы
ашкеды
ашкыл
ашкылым
ашмор
аштаваи
аштываи
ашу
ашы
аэропорт
аэропортшы
аюн
ая
аянджык
аяр
аяран
аярлы
аярын
аят
аяш
б
ба
баба
бабадаг
бабар
бабаэски
баббо
бабелдаоб
бабитс
бабич
бабичы
бабун
бавари
багамвла
багджылар
баглар
бад
баден
бадшахи
база
базар
баи
баити
бакенбардовыи
баклан
бакленд
баку
бакырко
балабак
баласси
балашши
балашшин
балдаев
балеар
балзаса
бали
балинт
балти
балтимор
балчова
балыкесир
балышеи
бальса
балья
баля
бамако
бамана
бамбара
бамбаравла
бами
баназ
банан
бананоед
бананоеды
бангаи
бангладеш
бангладешы
банда
бандырма
банжул
банк
банкс
баннерман
баннерная
баннернои
бантаи
банту
бантувла
баобаб
бар
баран
барат
барбадос
барбадосын
барбарис
барбоселла
барбродри
барбуда
барбур
барбус
баркери
барнард
барокко
бароккон
баромби
баронов
барроу
барсук
бартенс
бартолина
бартын
бархатные
бархатныи
бас
басе
басилаки
басилан
баск
басквла
баскервилла
баски
баскиль
басньывла
бассеи
бастили
басты
батальон
батанта
батист
батиэфиопс
батлер
батман
батон
батталгази
батуми
баунти
баучи
бафра
бахреи
бахта
бахтин
бахче
бахчелиэвлер
бахчесараи
бахчисараи
бахшылы
бачан
баш
башакшехир
башискеле
башкале
башкири
башмакчы
башньы
башчифтлик
башъяи
башы
баят
бвеи
бверамана
бвира
бвисиге
бвишьура
бег
без
безансон
безопасность
безопасностьышты
беи
бек
бекард
бекилли
беккари
бела
беларусь
белая
белен
белиз
белизин
беллона
белобокии
белобровая
белобрюхии
белоглазыи
белогорлая
белогорск
белозатылочныи
белозубки
белокрылая
белокрылыи
белолицая
белолицые
белолобая
белонезокс
белорусси
белоруссин
белорусскии
белоспинные
белохвостая
белоще
белыи
бельги
бельгии
бельгин
бельгишты
бельгия
беляев
бен
бенгал
бенгалила
бенгаль
бенгальскии
бенедиктинвла
бени
бенин
бенинин
бенуэ
бербери
бергама
бердеи
берега
береговая
берегово
беринг
берлин
берлины
берри
беррии
бертольт
бертранд
беседы
бескоготная
бесни
бесполосыи
бета
бетел
бетлен
бетлены
бетлехемы
беттлс
бешикду
бешикташ
бешири
беягач
би
биак
библи
библим
библин
библиотека
библиотекарь
библиотекы
библишты
бива
бига
бигадич
бигнаи
бигогве
бизнес
бизнесмен
бизнесы
бик
биледжик
билет
билиран
биллингс
бин
бинго
биндура
биноти
биогеографи
биографижы
биолог
биологи
биосфера
биотодома
биотэкус
бипиннула
биреджик
биржаи
бириба
бирма
бирмингем
бирч
бирюле
биса
бисавла
бисау
бисаун
бисл
бисламала
бисмарк
бисмаркская
бисмиль
битлис
бифренари
бич
бишкек
благодарим
благодарностью
блан
бланус
бледная
бледныи
блестящая
блестящии
блети
блетилла
ближаи
блика
блин
блок
блокады
блюз
бо
боб
бобо
богазкале
богазлыян
богеми
богерт
бодианус
бодлер
бодрум
боевои
боз
бозджаада
боздоган
бозкурт
бозкыр
бозмен
бозо
бозова
бозовла
бозтепе
бозу
бозязы
бои
болвадин
болг
болгари
болгарин
болгаришты
болгарла
более
боливи
боливии
боливин
боливишты
боливишы
боливия
болониха
болотная
болотныи
болу
больницы
большая
больше
большевик
большевиквла
большие
большим
большои
бомареи
бомбакс
бонеза
бонин
бонн
бонналь
бонобо
бор
бордо
борис
борлу
борнеи
борнемисса
борнео
борно
борнова
бородавчатыи
бородатая
борон
бортинженер
боруджерд
борчка
босни
боснии
бостон
ботаник
ботаника
ботвла
ботническии
ботсвана
бохоль
боэ
боябат
бр
брагестад
бразили
бразилин
бразилишты
бразилишы
бразильская
бразильскии
браи
брама
браминскии
бранденбург
бранка
брассавола
брасси
брат
браунлеи
браунлови
брахионидиум
брахипетерсиус
брахистеле
брахихальцинус
брахихитон
бреи
брем
бремен
бретань
бретонвла
брехт
брехты
бриджпорт
брикон
бриконопс
бриконэфиопс
бриллиантовая
британ
британи
британии
британин
британишты
британскии
брицинус
бродскии
бродскин
бромхэди
бру
бругтони
бруин
брума
брунеи
брэми
брюссельы
бсбургвла
бу
буада
бубен
буби
бубивла
бубук
буг
бугарама
бугенвиль
бугесера
бугеши
бугсук
буд
буда
будак
будапешт
будапешты
будем
будет
буджа
буджак
буджаквла
будут
бужумбура
буи
бука
буква
буквавла
буквам
букварь
букуре
буланджак
буланык
булат
булдан
буленджерохромис
буллер
бульбофиллум
бумбого
бунгве
бунинга
бурая
бурдур
буревестник
бурега
бурера
буриас
буркина
бурмалы
буробрюхая
буроголовыи
буроспинныи
бурса
бурт
буру
бурунди
бурундин
бурухукиро
бурхание
буса
бусанзе
бусасамана
бусенго
бусого
бусоро
бусуанга
бутан
бутаре
бутаро
бутон
бутылконос
бухара
бухаркент
бухгалтер
бухта
буш
бушекери
бушенге
бушоки
българия
бы
был
были
было
бытовои
быть
бычков
бьимана
бьумба
бэи
бэнкс
бюллетень
бюллетеня
в
ва
ваа
вааса
ваасышты
вабальнинкас
ваглер
вагнер
вадеш
ваджык
вадим
вадны
вады
вадывекы
вадывел
вадывелны
вадывелы
вадын
важ
важан
важвла
важи
важоты
важшым
важыкнер
важына
важынкапшангы
ваза
вазеш
вазы
вазымы
вазын
вазыныт
вазыт
ваи
ваилоа
ваисигано
вакфыкебир
вал
вала
валат
валвел
валвелны
валгалт
валгыды
валдиз
вален
валенкупты
валентин
валентина
валери
валериан
валерии
валерин
валиде
валкеала
валли
валлонвла
валмиера
валны
валтари
валтарин
валтен
валты
валык
валь
валька
валькан
валькеакоскии
вальтер
валюта
вам
вами
ваммала
ван
ванавана
ванатинаи
ванга
ванги
ванда
ванде
вандопсис
ванды
вандывла
ванжа
ванжаш
ванжен
ванжены
ванжымы
ванжымыла
ванжышы
ванжышывла
ваниль
вантаа
вануа
вануату
вануатун
вануатушты
вань
вао
вар
вара
варажы
варажым
варан
варанвла
варарак
вараракшы
вараш
варашы
варберг
варварвла
варена
варештеш
варешты
варжы
варзеи
вариабилихромис
вариант
вариантвла
варианте
вариантжы
вариантышты
варкаус
варлана
варланы
варминги
варня
варняи
варто
варшава
варым
вас
васа
васикова
васили
василии
василиск
василла
васильев
васильева
васильевич
васин
васли
вац
вацак
вацшы
ваш
ваше
вашего
вашеи
вашем
ваши
вашингтон
ваших
вашлии
вашт
вашталт
вашталта
вашталташ
вашталтен
вашталтеш
вашталтмашвла
вашталтмы
вашталтшан
вашталтымашым
вашталтымы
вашталтын
ваштар
ваштареш
ваштаров
ваштарсир
ваштарсиры
ваштарын
вашташ
ваштены
вашток
ваштшы
ваштылеш
ваштылмаш
ваштымы
ваштышты
ввв
ввп
вдовушка
вдоль
ве
веб
вегас
везирко
веи
век
века
векил
векы
вел
велды
веле
великии
великобритания
великолепныи
велны
велы
вен
вена
венг
венгерскии
венгр
венгрвла
венгри
венгрин
венгриш
венгришты
венгрла
венда
вендавла
венедикт
венера
венесуэла
венесуэлаышты
венесуэлы
венесуэлышты
венети
венеци
вениамин
венскии
венценосные
венценосныи
веныш
венышты
веньы
вепс
вепсвла
вепсла
вер
вера
верагуа
веракрус
верао
вервла
вервуи
верде
верден
верем
верема
веретенник
верланен
верланыше
верлен
вермонт
вернер
вернони
верси
версижы
версии
версия
верховныи
верц
верцы
верч
веры
верысе
вес
весвла
весела
веселов
весин
веске
вескид
весна
вессир
вест
вестминстер
вестфали
весы
вет
ветар
ветаунде
ветвь
ветлуга
ветморелла
ветчина
вец
вецы
вещества
веюк
взглядам
ви
виа
вивла
вид
вида
видвла
видеман
виден
видео
видеографи
видеть
видны
видъе
виды
вижы
виз
византи
визе
визит
визым
визын
вии
вик
вика
вики
викиданные
викиданных
викимарафоне
викимедиа
викимедии
викингвла
википеди
википедии
википедила
википедин
википедишкы
википедишты
википедия
викискладышты
викта
виктарен
виктор
виктори
викторовна
викы
вила
вилкавишкис
вилладж
вилле
виллидж
вилма
виловат
виловатовраж
виловатовыи
виловатышты
вилохвостая
вилы
вильгельм
вильгельмина
вильнюс
вильсон
вильянди
вилюкова
вим
вимгы
виндхук
виника
винная
винница
винно
винногрудыи
виноград
виноградов
винсент
вираншехир
виргин
виргини
виргинские
виргинскии
вирджини
виреон
виреоны
виржы
виртуоз
вирумаа
висагинас
висаи
висконсин
виста
висы
вит
вита
витали
виталии
вити
вихерн
вихманн
вичы
виш
вишкы
вишне
вишня
вка
вклад
включает
включая
включить
вл
вла
владивосток
владимир
владимирович
владимирскии
владислав
влажы
влак
влаклан
влакым
влакын
власть
вместе
внести
внешние
внутренние
во
воды
водьвла
военныи
возаш
возвращает
возен
возеныт
возможно
возможность
возрастом
возыктыш
возымо
вои
воинвла
вокал
вокалист
вокзал
воксеокат
вол
волаан
волга
волгоград
волгыдо
волжск
волк
вологда
володькин
волонте
волость
волостьвла
волостьыш
волоф
волчок
волынски
волынь
вольперт
вольфганг
вольык
вольыквла
вольыкым
вольыкын
волям
вооруженныи
вопроса
вопросам
вопросов
вопросы
воробеи
воробьи
воробьиные
воробьиныи
ворон
ворона
воронок
воротничковыи
воротын
воспитаним
воспользуи
восстани
восстаним
восстановленныи
вост
восток
восточная
восточно
восточнои
восточные
восточныи
вот
вр
враг
врач
времени
временная
время
врига
врик
все
всего
всем
всероссии
всех
встреч
встреча
встрече
встречи
встречу
встри
встрин
всы
вт
втор
второго
второи
вторын
ву
вувер
вуем
вуеш
вуешы
вуи
вулкан
вулны
вулшлегели
вургымла
вургымлашты
вурдан
вурдыжы
вурс
вуц
вуя
вуян
вы
выборам
выборах
выборг
выборов
выборы
выд
выдра
выдры
вые
выж
выжалат
выжалаш
выжалевы
выжален
выжалены
выжалымаш
выжалымы
выжалышы
вызов
вызова
вызове
выльдырцан
выльдырцанвла
вымершии
вын
вып
выпуск
выпускники
выргем
выргема
выргемвла
выргемжы
выргемы
вырсы
вырсывла
вырсым
вырсын
вырсыш
вырсышты
выру
выселок
выскажите
высказать
высокогорье
выходит
выч
выча
вычат
вычен
вычыде
вычымы
вышгород
выше
вьетнам
вьетнамышты
вьюрковые
вьюрок
вячеслав
г
га
габон
габонын
габриэль
габсбургвла
гаваи
гаврениха
гавриил
гаврилов
гаврилович
гага
гагаифомауга
гагарка
гагаэмауга
гаги
гагра
газ
газель
газет
газетвл
газетвла
газетеш
газеты
гази
газиантеп
газимагуса
газиосманпаша
газипаша
газиэмир
гаи
гаити
гаитин
гак
гакенке
гакона
галан
галапагос
галеандра
галеарис
галеола
галеохаракс
галереи
галерея
галилеи
галилео
галина
галис
галиси
галисивла
галисин
галич
галкин
галлереи
галло
гамби
гамбин
гамбург
гамбье
ган
гана
ганан
ганга
ганновер
ганс
ганскии
гань
ганьвла
ганьок
ганьы
ганьывла
ганьырак
гарады
гаргждаи
гардени
гардинер
гармонь
гарольд
гарри
гасабо
гасака
гасанге
гастер
гастроди
гастрохилус
гатарага
гатаре
гатвла
гатебе
гатенга
гаторе
гатсата
гатсибо
гатумба
гатунда
гауа
гаханга
гахара
гахенгери
гахини
гахунга
гач
гачача
гачеш
гачурабвенге
гашаки
гашанда
гашеньи
гашонга
гашора
гаяк
гваделупа
гванда
гваруба
гватемала
гватемалан
гватемалышты
гватемальская
гвембе
гверу
гвиана
гвинеи
гвичин
гвичинвла
гвичинла
гвла
гг
гггг
где
гдр
ге
гебзе
гебрид
геваш
гедиз
геза
гезер
геи
гек
геквла
геккель
геккон
гекконвла
гекконы
гекльберри
гектор
гелендост
гелиболу
гельде
гемерек
гемлик
ген
генаикантус
генерал
генеральныи
гениорхис
генипа
геннадии
геновеса
геноцид
генри
генрик
генрих
генч
гео
географи
географижы
геолог
геологи
георг
георги
георгиевич
георгиевна
георгии
георгина
геофагус
гер
герасимов
герб
гербера
герберт
гербшы
гергер
герджу
гереде
гержы
герзе
герихтис
геркулес
герла
герм
герман
германи
германии
германин
германишты
герменджик
герои
герос
герпетолог
герпетологи
герреро
геррозавр
герта
герцеговина
герцог
герцогвла
герцогын
гессен
геста
геставла
гетеротиляпи
ги
гиацинт
гиацинтовыи
гибридвла
гибсон
гигант
гигантская
гигантскии
гикомеро
гикондо
гиконко
гикори
гикундамвура
гилберт
гиллен
гильдебрандт
гималаи
гимарас
гимн
гимнадени
гимнази
гимнвла
гимнжы
гимногеофагус
гимнокоримбус
гимнофталмус
гимнура
гимнуры
гинды
гипомастикус
гипотеза
гирардинус
гиресун
гирне
гисагара
гисеньи
гисову
гисози
гитамби
гитара
гитарама
гитарист
гитега
гитеси
гити
гитлер
гитлеры
гитову
гитоки
гиусва
гиханго
гихеке
гихомбо
гихундве
гичумби
гиш
гиша
гишамву
гишан
гишари
гишуби
гишьита
главы
глагол
глаголвла
глаголым
глаголын
гладкие
гладкии
глазчатые
глауэрт
глездене
глен
гленналлен
глин
глобальное
гломера
глоссоди
глэдис
гн
гнатодолус
гнатохаракс
гном
гномвла
го
говени
говор
говорит
говоруны
говорю
гог
гоголь
год
года
годового
годовои
годом
годсо
году
годшаш
годшашыжы
годшен
годшенжок
годшенок
годшы
годы
годым
годымат
годымок
гож
гои
голанд
голди
голланд
голландвла
голланди
голландин
голландишкы
головин
гологлазыи
голоногая
голоса
голосистыи
голосов
голосование
голосовании
голосования
голосующим
голубая
голуби
голубои
голубь
голь
гомбе
гомера
гомфихис
гомфозус
гонгиломорфус
гонгора
гондурас
гонконг
гонолулу
гоплоцеркус
гор
горбатые
горбунов
гордеев
гордон
горилла
горлица
горная
горно
горномарии
горныи
горных
город
города
городе
городище
городов
городок
горохов
горькии
гост
государственныи
государство
гоффин
гр
градове
градови
градус
граждан
гражданвл
гражданвла
гражданины
гражданскии
грамматика
грамматофиллум
грамотым
гран
гранада
гранд
гранде
гранит
граница
границы
грант
гранты
грасс
граф
график
греи
грек
греквла
грекла
греко
гренада
гренадинвла
гренланд
гренланди
греци
грецин
грецишты
греч
греческии
грея
григ
григишкес
григориан
григории
григорь
григорьев
григорьеван
григорьевич
григорьевы
гризон
гримм
гринда
гриф
грифвла
гровер
гросу
грот
груз
грузи
грузым
группа
группе
группеш
группы
группывла
группылан
группым
группын
группыш
группышкы
груша
гу
гуа
гуадалканал
гуам
гуанахуато
гуандун
гуарианте
губерни
губернивла
губернии
губернин
губерништы
губерня
губернян
губерняш
губкавла
губы
гугиг
гуденаф
гуди
гудньюс
гуза
гуи
гулкана
гульд
гум
гуманизм
гуманист
гуманиствла
гуманитарныи
гумбат
гумбольдт
гуннвла
гуппи
гур
гурами
гурамивла
гурии
гуро
гусеницеед
гуси
гусиная
гусли
гуслия
густав
густава
гусь
гусянов
гусянова
гы
гыл
гылеп
гын
гына
гынат
гынят
гыт
гыц
гыч
гэмпшир
гэс
гюнтер
гюстав
д
да
даваи
давид
давида
даг
дагы
дадаи
даже
дажы
дажым
дазкыры
даи
дак
дакар
дакка
дакнис
дакота
дактилориза
даламан
далаш
даллас
далмаци
дам
дама
дамал
даман
дамар
дамскии
дан
дани
даниил
данилован
данилович
данин
данио
данного
данное
данные
данныи
данным
данных
данс
данте
дар
дарваз
дарвин
даргечит
даревски
даренде
дарыджа
дарьен
дарья
дат
дата
датировать
датироваться
датча
датчан
датчанла
даты
дать
даугавпилс
даугаи
даури
дахо
дая
дв
два
две
двел
двиг
движение
движением
движению
движения
двла
двор
дворецвла
дворецы
дворян
дворянвла
дворянин
двоякодышащие
двулны
двусогласныи
двуцветныи
дд
дде
ддемани
дды
де
деа
дебрецен
девели
девиз
деврек
деврекани
девятыи
дег
дед
деж
дежа
дежвла
дежы
дезерташ
деи
дек
декабрь
декабрьы
декабрьын
декабрьынок
декабря
декадент
деке
декодон
декоративныи
дел
делавэр
делам
делегации
делегацин
деление
делидже
делыт
дель
дельта
дельфин
дельфинвла
дельфины
дем
демар
демд
демда
демден
демды
демирджи
демирко
демиро
демиш
демократ
демократвл
демократи
демократик
демократим
демократин
демотическии
демре
демы
ден
дена
денали
денвер
дендробиум
дендрофилакс
дендрохилум
дене
деневла
денетавла
дени
денигомоду
денизли
денис
дены
день
деок
деп
департамент
департаментжы
депутат
депутатвл
дер
дербент
дерби
дервиш
дере
деребуджак
деревне
деревня
дерек
дерели
дерепазары
держава
дерик
дериндже
деринкую
дернекпазары
десерт
десертеш
дет
детеи
детективвла
дети
детрои
деч
деш
дешифровка
дешкен
деятельности
дж
джа
джабана
джаз
джазым
джали
джама
джамала
джами
джамия
джамі
джан
джанджа
джаник
джанла
джанын
джарама
дже
джегиз
джеззар
джеи
джек
джексон
джемс
дженда
джеральд
джери
джерси
джефферсон
джибути
джибутин
джигава
джиде
джизре
джимми
джин
джиханбеи
джлук
джо
джованни
джого
джои
джомба
джон
джона
джонсон
джонстон
джордж
джорджи
джуа
джуба
джума
джумаери
джунглевая
джунглевыи
джуно
джуру
джут
джы
джык
джэксонвилл
ди
диалект
диалектвла
диалекте
диалекты
диаметржы
диаметры
диана
дивриги
диг
дигор
диджле
дидим
диего
дизаи
дизи
дикасони
дикая
диквла
дикии
дикили
диккенс
дикмен
диктинвла
дикуша
дилер
диллинхэм
диловасы
димидиохромис
динагат
динар
династи
динка
динозаврвла
диплодактилус
диплокаулобиум
диплом
дипломат
дипломжым
дипломым
диподиум
дипомат
диптерокарп
директор
директоржы
дириже
дирижерско
диринг
диса
дискифус
дискографи
дискриминаци
дискус
дискуссивла
дискуссии
дискым
дисперис
диссертацим
дисциплины
дите
дитрих
диурис
дихромантус
дишехир
диядин
диярбакыр
дкаля
дкы
дкыва
длагы
длиннохвостая
длиннохвостыи
для
дмитриев
дмитриевич
дмитрии
дн
дна
днепр
днепропетровск
дня
до
доброго
добрыи
дов
довер
доганкент
доганхисар
доганшар
доганшехир
доганье
доганьюрт
договор
договорым
догубаязыт
додо
додурга
дои
док
доказательство
доклад
докладвла
докладшым
докладым
доко
докрилли
доктор
докторантжы
докторжы
документ
документвл
документвла
документы
докы
докыжы
докыла
должен
должно
должны
долина
доманич
домингоа
доминика
доминикан
доминиканвла
доминиканская
дон
дональд
донат
донгхои
донецк
донецкая
донжы
донна
доннаат
доно
донок
доны
доныш
донышна
донышы
дополнени
дополнительные
допустимые
дор
доран
дорис
доритэноппсис
доров
дорович
дорога
дорогои
дорц
дорцна
дорцын
достижение
достопримечательностьвла
доступен
доступна
доступны
доталабрус
др
дракула
дракэа
драма
драматург
драматургвла
драмывла
древесная
древесницевые
древесные
древесныи
древнесинаи
древнеханаанеи
древолазовые
дреслерелла
дреслери
дриаделла
дримода
дрозд
дроздовидная
дрозды
дронго
дронт
другие
других
другои
дружба
друскининкаи
дсы
ду
дуаи
дуалавла
дублин
дублины
дуглас
дулидовые
дума
думаран
думлупынар
дун
дунаи
дупель
дураган
дуранго
дуриан
дурсунбеи
дут
духовныи
душ
душанбе
дцы
дшы
дъял
ды
дыв
дыкшыдымылык
дым
дымчатые
дымчатыи
дымы
дын
дынджык
дынлар
дынтепе
дыр
дырамаш
дырна
дьа
дьо
дьони
дьула
дьюла
дьюлавла
дэ
дэвеи
дэвид
дэвисон
дэнфорд
дюбуаалестес
дюма
дюмериль
дюси
дятел
е
ева
евангелим
евгении
евгения
евграф
еврази
евразин
евразишты
евреи
евро
евровидени
европа
европеи
европы
европым
европын
европысо
европыш
европышты
европыштыш
египет
египетин
египетишты
египеты
его
егор
егоров
егорович
егоровна
егоровын
ед
едерацин
единая
единственныи
едису
ее
ежеквартально
ежи
ежы
езд
езуитвла
еи
еип
екатерина
екатеринбург
екатерининскии
екп
ела
елена
ель
ельса
емен
еменишты
ен
енг
ендаи
ензи
ени
енидже
ениджеоба
енимахалле
енипазар
енисеи
енифакылы
еничага
енишарбадемли
енишехир
енн
енна
енот
ены
епархин
епископ
епископшы
епископын
ер
ера
ери
ерко
ермолаев
еропов
ерошкин
ес
если
еспа
есть
ет
еу
ефимов
ефимовын
ефреи
ече
ечняшты
ечы
еш
ешил
ешилли
ешилова
ешилхисар
ешиль
ешильюрт
еще
еҥ
ж
жа
жава
жаворонок
жак
жако
жаковла
жалобывл
жалобым
жан
жанеи
жанет
жанна
жанр
жанран
жанрвла
жап
жапын
жапыште
жашков
жвал
жвла
жвы
жга
жгы
жде
же
желтогрудая
желтоклювая
желтоногии
желтоспинныи
желтоуздечныи
жем
жема
жемчужнокрылыи
жемчужныи
жемы
жеп
жепа
жепвла
жепем
жепеш
жепла
жеплы
жепшая
жепшы
жепы
жепын
жера
жеш
животных
жизни
жизнь
жика
жиронд
житомир
жмы
жозефина
жок
жоффруа
жра
жсир
жты
жумеллеи
журавль
журнал
журналвла
журналеш
журналист
журналистика
журналисты
журналым
журналын
журналышты
жчатые
жшы
жы
жым
жын
жыр
жырнер
жырнервла
з
за
забудьте
завершится
завирушка
завирушковые
зависимые
зависимыи
завод
заводвла
заводыш
заводышты
заглавную
загрос
заж
заза
заи
заинтересованных
закко
закон
законвл
законвла
законым
зал
заливы
залп
замбези
замби
замбин
замбишты
заместитель
заместительжы
замфара
занзибар
зап
западная
западноафриканскии
западнои
западные
западныи
запись
заполнив
запон
запорожье
запятои
зара
зарянки
заслуженныи
затем
зауроглоссум
захар
заявки
заявление
заявлении
заявления
заявок
заяц
зватан
зве
звезда
звезды
звено
зга
згар
зданижы
здесь
здже
здравствуи
зды
зе
зебровая
зевксина
зеи
зеланди
зеландин
зеландишты
зелбахче
зеле
зеленыи
зельюрт
землерои
земли
земля
землям
землянои
земляные
земляш
земскии
зенворт
зет
зеш
зи
зивла
зигопеталум
зигостатес
зид
зии
зиле
зимбабве
зимбабвен
зимбабвешты
зинаида
зингер
зит
зичи
зишты
зия
зко
зкраукле
златоспинныи
зм
змеи
знак
знаквла
знакым
знамя
знание
знании
значени
значениа
значение
значенижы
значении
значения
золотая
золотистая
золотистыи
золотои
золтан
зоната
зонгулдак
зонда
зонышты
зоолог
зоологвла
зоологи
зоологии
зоотрофион
зорина
зосим
зотин
зотина
зоя
зпуте
зрини
зриним
зринин
зу
зубков
зубчатоклювые
зуе
зулу
зулувла
зы
и
иа
иами
ибадан
ибери
ибибиовла
ибис
ибисвла
ибн
ибом
ибрады
ибрахим
ибсен
ибсене
ива
иван
иванды
ивано
иванов
иванова
иванович
ивановна
ивл
ивла
ивлан
иволга
ивринди
иврит
ивритла
ивуар
ивуарын
ивук
игалавла
игбиравла
игбовла
игечы
иглоногая
иглоногие
игнатии
игнатьев
игнатьевы
игорь
игуана
игуанавла
игуанодектес
игуаны
игы
ид
ида
идеалвла
идеи
идеографическии
идеологиды
идеологижы
идере
иджовла
идиль
идиш
идон
иератическии
иероглифика
иероглифическии
иерро
иерусалим
ижы
из
иза
изабели
избирательная
избирателя
избранные
извинения
извините
изд
издательство
издательствышты
изделивла
изи
изиа
изивла
изиво
изижы
изик
изиксола
изимо
изин
изинекок
изира
изитымана
изитыманавла
изическии
изиш
изиша
изиэш
измаил
изменении
изменения
изменчивыи
измир
измит
изначально
изник
изображение
израиль
израильишты
израильы
изумруд
изучающии
изящная
ии
иисус
ик
ика
икань
икв
иква
иквареш
икгаи
икебана
икелесымаш
икиа
икиздере
икиздже
икманяр
икмыняр
иконвла
икпоратка
икса
иксодвла
иксольывла
иксора
икт
икта
иктаж
иктаманяр
икте
иктешлен
иктешлы
икто
икты
иктыже
икуа
икша
икшы
икы
икымше
ил
илама
иланг
илаш
илвла
илдушкина
илжы
или
илич
илкадым
илламна
иллинои
иллюстратор
иллюстраци
иллюстрацивла
иллюстрацижы
ило
илче
илчевла
илчежы
илы
илыш
иль
ильин
ильы
илья
ильяков
ильяковын
им
има
имам
имамоглу
имарет
иматра
име
имеет
имели
имени
имешты
имни
имнивичы
имнивла
имнижы
имним
имнио
имниэшкы
имо
имон
император
императорскии
импери
империн
импрессионизмы
импульсым
имр
имранлы
имре
имя
ин
ина
индеи
индекс
инджесу
инджирлиова
инди
индиана
индианаполис
индии
индила
индишты
индия
индо
индоевропа
индокитаи
индомалаи
индон
индонези
индонезии
индонезила
индонезин
индонезишты
индустри
индустришты
инеболу
инего
инженер
инжир
инии
иниистиус
инициатива
инка
инквизици
ино
инок
инспектор
инспирацим
институт
институтвла
институтым
институтын
институтыш
институтышты
инструмент
инструмента
инструментвла
инструментов
инструменты
инсценировкывла
инт
интеллигенци
интеллигенцим
интеллигенцин
интервью
интерес
интересвла
интересне
интересныи
интересуялтеш
интересшы
интересы
интернатышты
интернационал
интернет
интернеты
интернетышты
интерфеи
инувик
инуит
инуитвла
инуктитут
инфлуэнсы
информаци
информацим
информационного
информационныи
информацию
информация
инфраструктура
инхисар
инюпиак
инюпиаквла
инюпиакла
иоанн
иога
иоганн
иони
иордани
иосиф
ипаи
ипатии
ипполит
иппологи
ипсала
ипсеи
ир
ира
иравади
ирак
иракышты
иран
иранышты
ирв
ирвекы
ирвел
ирвелишты
ирвелны
ирвелы
ире
ирен
ирина
иририки
ирис
ирифа
ирланди
ирландин
ирландишты
ирландия
ирмызы
ирок
ирокок
ирокшы
ирта
иртыш
иры
иса
исаак
исабела
исабель
исаев
исангел
исджехисар
искандер
исквл
искеле
искендерун
искилип
искоскина
искусства
искусство
искусствывла
искусствын
ислам
исланди
исландскии
ислахие
исока
исоковла
исохилус
исп
испан
испани
испанила
испанин
испаништы
испанла
испир
исполинские
использование
использованию
использовать
исследовательскии
исследователя
ист
истж
истори
историа
историжы
истории
историк
историквла
историко
историм
историн
историческая
историческии
историшты
историэш
история
источник
источники
исус
исусын
исуткан
исфахан
ит
итаганым
итал
итали
италин
италиш
италишты
италия
итальян
итальянла
итгази
итежи
ити
итоги
итсекиривла
иты
иудаизм
иулы
их
ихсангази
ихсание
ихтиолог
ихтиологи
иш
ишвл
ишвла
ишеш
ишжы
ишкы
ишла
иштв
иштван
ишты
ишы
иэш
июв
июль
июльын
июля
июнь
июньын
июня
иҧа
к
ка
каарина
кабагари
кабаду
кабаи
кабаре
кабарондо
кабароре
кабаташ
кабатва
кабачузи
кабве
кабо
кабомпо
кабус
кабье
кавак
каваклыдере
кавалержы
кавалл
кавамбва
кавафис
кавафисы
каваштан
каваштанвла
кавашты
каваштым
кавказ
кавкази
кавуму
кавшта
кавштавичы
кавырля
кагаз
кагано
кагарама
кагеи
кагого
кагызман
кагыль
кагыльвла
кагыльым
кадама
кадеа
кадирли
кадуна
кадуха
кады
кадыко
кадынханы
кадышехри
кадьяк
каеш
кажар
каждые
каждыи
кажне
каз
казаков
казан
казанскии
казанскои
казань
казаньышты
казарка
казахстан
казахстанын
казахстанысе
казахстанышты
казин
казо
казуар
казуарвла
казунгула
казымкарабекир
каи
каир
как
кака
какаду
какадувла
какадун
какапо
какие
какляка
какого
кактовик
кактус
какула
какшан
кал
калабо
калабри
каладени
каламиан
каламондин
каланте
каланхоэ
калатеи
калауит
калвин
кале
калеана
калевала
каледжик
каледони
каледонин
каледоништы
календарь
календарьым
календарьын
календаря
календерхане
калимантан
калининград
калинов
калипсо
калиптрохилум
калифорни
калифорнии
калифорништы
калицера
калкандере
каллот
каломо
калопанакс
калопогон
калп
калпак
калпакан
калскаг
калтаг
калугасир
калулуши
калык
калыкым
калыкын
кальвинист
кальции
каля
калява
каляиа
камабуи
камака
камаканыр
камакашты
каман
камбоджа
камегели
камели
камембе
каменец
каменка
каменные
каменныи
камень
камерун
камерунын
камерунышты
камигин
камоньи
кампала
кампании
кампания
кампетка
кампилоцентрум
кампора
камубуга
камчатка
камчатке
камчатскии
камышевка
кан
канада
канадашты
канадская
канадын
канадышты
канаи
канал
канама
канар
канари
канберра
кангал
канда
кандат
кандаш
канден
кандены
канджонго
кандидат
кандидатам
кандидатвла
кандидатов
кандидатшы
кандидаты
кандымы
кандынежы
кандыра
кандышы
кандышывла
канев
канзас
канзензе
канига
канна
каннада
кано
каномбе
канонвла
канси
кант
кантвел
кантиум
кантонын
канури
каньиньа
канюшков
каома
каоо
кап
капаен
капаи
капан
капири
капитан
капка
каплинскии
капская
капскии
капута
капшангы
капшангывла
капшангын
кар
кара
карабаглар
карабу
карабурун
караго
карадениз
караджабеи
караджасу
караева
караисалы
карак
караквла
каракелонг
каракечили
каракочан
каракоюнлу
карама
караман
караманлы
карамби
карамбо
караму
карамуша
карангази
карангеш
карапу
карапынар
карас
карасу
каратаи
караташ
карахаллы
карачобан
караязы
карбоеи
каргы
кардинал
каре
кареба
карел
карелвла
карели
карелин
карелишты
карелла
карем
карембо
каремвла
каремы
каренге
каренгера
кари
кариб
карка
каркамыш
каркар
карл
карла
карлик
карликовая
карликовые
карликовыи
карло
карлссон
карлсхамн
карлук
карлыова
карман
карманым
карнавал
каролин
каролина
каролиналан
каронги
карп
карпат
карпвла
карпузлу
карру
карс
карсон
карт
карта
картал
картепе
картин
картинвла
картинжы
картины
карточке
картук
картывла
картыжы
картышты
картыштыжы
картье
карфодактилус
карцинолог
карцинологи
карш
каршта
карштымашым
каршызы
каршызывла
каршызын
каршым
каршын
каршыяка
карьеры
карьерыжы
касама
касвел
касемпа
касим
каске
каспи
каспии
кассики
кастамону
кастанопсис
кастрен
кастрируи
кастэвеи
кат
катабагему
каталан
каталоништы
катальпа
катанга
катандуанес
катар
катасетум
катег
категори
категории
категория
категорија
категорія
катерина
катете
каткова
католик
католиквла
католицизм
катоприон
катри
каттлеелла
каттлеи
каттлея
катынь
катэгорыя
каукси
каукэа
каулартрон
каунас
кауниаи
каури
каурисма
кафе
кафедральныи
кафедры
кафедрын
кафка
кафуе
ках
каховка
кахраманмараш
кацина
качестве
качкаш
качкашыжы
качкеш
качкын
качкыт
качкыш
качкышвла
качкышеш
качкышым
качкышышты
качмы
качурка
качшы
качшывла
качы
качьиру
каш
кашак
кашакын
кашалот
кашар
кашарварня
кашарварням
кашеп
кашмир
каштан
каштановобрюхии
каштановоголовыи
каштановолобыи
каштановоспинныи
каштановощекыи
каштановыи
кашташ
каштеш
каштмы
каштмыжы
каштшы
каштшывла
каштын
каштыныт
каштыт
кашуб
кашубвла
кашубла
кашутин
кая
каянгел
каяпынар
каяш
кв
квадратныи
квазулу
кваква
квакеа
кваньяма
квара
квартиры
квезаль
кветлук
квигиллингок
квинсленд
квл
квла
квы
кг
кды
ке
кеа
кеаму
кебан
кебби
кегелиелла
кеда
кедаи
кедров
кеен
кеи
кек
кеквла
кекетти
кекешы
кеклик
кекликвла
кекшы
кекы
кел
келгы
келемен
келес
келеса
келесен
келесы
келесымаш
келеш
келкит
келмы
келты
келшен
келшы
келы
келыштарымаш
келыштарыме
кель
кельме
кельт
кем
кема
кемалие
кемальпаша
кемах
кембридж
кемер
кемы
кен
кенаи
кенвазыт
кенвла
кени
кенин
кеништы
кеннеди
кент
кентукки
кены
кепез
кепсут
кер
кера
керава
керд
керда
кердде
кердделыт
кердды
кердеп
кердеш
кердмы
керды
керек
керемет
кермадек
кертес
кертеш
кертыт
керы
кескин
кестель
кестен
кесы
кет
кетологи
кетчикан
кетшава
кефаль
кефели
кеча
кече
кечеш
кечешы
кечиборлу
кечио
кечкемет
кечуа
кечуала
кечы
кечыва
кечын
кеш
кешан
кешап
кешы
кеҥеж
ки
киа
кибангу
кибехо
кибилизи
кибиризи
кибумбве
кибунго
кивалина
киви
кивин
киву
кивуи
кивуму
кивуруга
кигабиро
кигали
кигарама
кигеи
кигембе
кигина
кигома
кигы
кид
кидвла
кидешы
кидшы
киды
кидым
киев
киевскии
кизигуро
кии
кикуи
килва
килеватые
килизе
килики
килис
киломберо
километр
ким
кимберли
кимиронко
кимисагара
кимихурура
кимоньи
кин
кина
кинази
кинг
кинды
кинематографи
кинжалым
киниги
кинихира
кинли
кино
киноакте
киноактриса
кинологи
кинони
кинотеатр
киношты
кинтобо
кинхагак
киншаса
киньабаба
киньиньа
киоск
киосквла
киото
кипнук
кипр
киприн
кираз
киракира
кирамурузи
киргизи
кирехе
кирибати
кирибатин
кирибатишты
кирилл
кириллица
киримби
киритимати
киров
кировоград
кируна
кисаро
кит
китаби
китаи
китве
китвла
китеэ
китовидныи
китс
киты
кихот
кихотын
кичукиро
киш
киша
кишы
киэн
кия
киямат
ккек
кко
ккуп
кл
кла
клаас
клавиатур
клавиатурын
клавишлам
клада
клаи
кларкс
класс
классан
классвла
классик
классикшы
классификаци
классификацижы
классификация
классицизм
классическии
классым
классыш
классышты
кластер
клаус
клаусвици
клауслан
клаусын
клеи
клен
клены
клеткавла
клетке
клещи
кливленд
клим
клима
климат
климатан
клинтон
клип
кловеси
кловои
клуб
клубым
клубын
клузия
клун
клупеохаракс
клутина
клы
клювач
клюворыл
км
кма
кмы
кн
кна
книг
книга
книгажы
книгам
книги
кнопку
кнут
кны
кныр
кныршты
кнырышты
князь
ко
кобе
кобра
кобук
ков
кова
кованджылар
коваш
ковашан
ковыи
когарнян
когда
когершы
когечы
коги
кого
когоа
коговарня
коговла
когово
коговуи
когога
когогорны
когогорным
когожы
когожын
когомо
когон
когонжат
когонжок
когонок
когоохырец
когорак
когораквла
когосир
когосола
когоургаля
когоэмы
когоэш
когоэшна
когоэшнен
когоэшны
код
кода
кодат
кодаш
кодвлакым
кодде
кодделыт
кодекс
кодекса
коден
кодены
кодеш
коджа
коджаали
коджако
коджасинан
коджатепе
коджаэли
кодшашлык
кодшы
кодшывла
коды
кодыде
кодымы
кодымыжы
кодын
кодыныт
кодыт
кодышы
коели
коелиопсис
коелоглоссум
коепскова
кож
кожваж
кожвла
кожерла
кожла
кожлана
кожым
коз
козаклы
козан
козлов
козлук
козодои
козьмодемьянск
козьмодемьянскии
козьмодемьянскышты
кои
коилостилис
кок
кока
кокема
кокиа
коккола
кокла
кокласола
коклаште
коклы
коклышы
кокос
кокты
коктыге
коктым
коктын
коктынжы
кокханок
кокшу
кокшы
кокшыжы
кокшын
кокымшо
кокэн
кокэнын
кол
кола
колат
колвла
колгучкыж
колгучкыжвла
колен
колены
колеш
колибри
колибривла
колиганек
колимскии
количество
коллеги
коллегы
коллегывла
коллегыжым
колледжы
коллективвла
коллективизаци
коллективныи
коллекционер
коллоэц
коллоэцвла
колонии
колонок
колорадо
колоссома
колт
колта
колтат
колташ
колтен
колтена
колтены
колтымы
колтымыкы
колтыш
колтышым
колумб
колумби
колумбин
колумбишты
колумбия
колумбус
колумбын
колхоз
колхозвла
колхозниквла
колхозым
колхозын
колхозыш
колхозышты
колцам
колшы
колым
колымаш
колымашын
колымешкы
колымы
колымыжы
колын
колышпичы
колышт
колышташ
колыштшы
колыштын
колыштыныт
колыштыт
колышы
колышывла
кольмы
ком
коман
команда
команде
командир
командои
командора
команды
комароловы
комбинат
комбы
комбывла
комбын
комета
коми
комисси
комиссии
комиссил
комиссин
комиссишты
комиссия
комитет
комитета
комитеты
комментариев
комментарии
комментариями
коммерсант
коммерческии
коммуна
коммунист
коммуниствла
коммунистическии
коммунын
коммунышты
комодо
комоксвла
комор
коморвла
комосская
компаретти
компас
компаса
компасом
компенсацию
компери
комплекс
композитор
композиторвла
композицивла
компостела
компьютер
комсомол
комсомольскии
комы
комышты
конак
конакри
конвенци
конвенцивл
конвенцижы
конвенцим
конвенцин
конгиганак
конго
конгохромис
конгресс
конгрессы
кондилаго
кондор
коне
конкорд
конкурс
конкурса
конкурсвла
конкурсе
конкурсу
конкурсы
конкурсым
конкурсыш
конкурсышты
коннектикут
конныи
коно
конрад
консерваторвла
консервируи
константин
константинович
константиновна
конституцижы
конституцишты
консультации
контекст
континент
континентвла
континентин
континенты
конторыжы
контролируи
контроль
конус
конференци
конференцишты
конфессивла
конфликтвл
конфликтвла
концерт
концертвла
концерты
концессии
коньки
конья
коньяалты
коньяк
конюга
копадихромис
копека
копенгаген
копон
копона
копонлык
коппер
коппербелт
копперфильд
копросма
коптодон
коптьымы
кор
корабль
корабльын
коралл
кораллориза
коран
корватунтури
корган
коргун
коргы
кордова
кореи
корелла
кореллавла
корзины
кори
кориантес
корибас
коримборкис
корис
корициум
коричневая
коричневыи
коркут
коркутели
корнан
корно
корны
корнывла
корныгешы
корныжы
корныжым
корным
корнын
корныш
корнышкы
корнышто
корнышты
корныштыжы
коробеи
короле
королевская
коромандель
корон
корона
короныжы
корор
коротков
короткоклювая
короткоклювыи
короткохвостая
короткохвостые
короткохвостыи
коротняк
корпус
корреспондент
корсика
корхан
коршокеш
кос
коса
косавла
косатка
косир
косиры
коскороба
космическии
космоледо
космонавтвла
космос
косово
коста
костан
костариканскии
косте
кострома
кот
коти
котивла
котилыкышты
котинга
котка
котлик
котону
которая
которые
которыи
которых
коувола
коуволышты
коулун
кофчаз
кох
кохлеантес
кохлиода
кохоа
коцебу
кочарлы
кочкыш
кошка
кошкен
кошки
коштымы
кошы
кошыгек
кошыгеквла
коэ
коэа
коэвла
коэжы
коэла
коэшта
коюкон
коюконвла
коюконла
коюлхисар
коя
коҥга
коҥгам
кпеллевла
кпрф
кр
кра
краи
краков
краковышты
крапивники
крапивниковые
крапчатыи
краселицы
красивая
красная
красноармеи
краснов
красноволжскии
красноглазыи
красноголовыи
красногребенчатыи
красногрудыи
краснозатылочныи
красноклювая
краснококшаи
краснокрылыи
краснолицая
красноногии
краснополосая
красныи
крачка
края
кред
креда
креи
кремастра
кремль
креницихла
кренухус
кренухусвла
креодантус
креольскии
крепость
креса
крет
кретинга
кри
крик
крио
крипица
криптарена
криптостилис
криптохерос
криптоцентрум
криптуреллус
крисам
кристи
кристиан
кристина
кристобаль
крит
критери
критик
критика
критиквла
критикуен
критикуены
критикуи
критикуя
крозе
крокодил
крокодилвла
кролик
кроличии
кроме
кроноцкии
кроншнеп
кросс
крот
кроты
кроу
крохаль
крошечныи
крошка
круглых
крукид
крупнозубыи
крупняков
крупская
крус
крусес
крылов
крым
крымын
крымышты
крючкоклюв
кс
кса
ксекова
ксенозавр
ксенопсарис
ксенотиляпи
ксенофонт
ксенохромис
ксенуробрикон
ксерорхис
ксилобиум
ксир
ксирихтис
ксифофорус
ксун
ксы
кт
кта
кташ
ктвла
ктен
ктенобрикон
ктенохромис
ктерла
ктеш
кто
кты
ктыд
ктымы
ку
куанен
куатан
куатше
куатым
куба
кубан
кубинскии
кубышты
куваэ
кувеи
кувшин
кугарня
кугезы
куги
кугиж
кугижа
кугижаны
кугил
кугила
кугим
кугу
кугуза
кугузалан
кугузам
кугузан
кугыжаныш
кугыжанышын
кугыт
куд
кудвичы
кудлу
кудряшов
куду
куды
кудывечыште
кудывичы
кудыло
кудымшы
кудыт
кудытынжы
куженер
кужика
кужлиды
кужу
кужы
кужын
кужырак
кужыцшы
куза
кузаш
кузе
кузен
кузнецов
кузнецово
кузнецовы
кузнецовыш
кузьма
кузьмич
кук
куксин
куку
кукугынзалаванды
кукушечья
кукушка
кукушковыи
кукша
кукшо
кукшы
кукшыгечы
кукшылиды
кула
кулаковы
кулидж
кулик
кулион
кулп
кулу
кулунджак
культивируи
культивируят
культур
культура
культуран
культуре
культурныи
культуры
культурывл
культурывла
культурыжы
культурыжым
культурылан
культурым
культурын
культурына
культурышкышты
культурышты
культурыштым
культурыштыш
кум
кумдан
кумкват
кумлу
кумлуджа
кумру
кумшо
кундем
куница
куннингтони
кунст
кунствла
кунстым
кунстын
кунстышты
кунья
куопио
куопион
куопиошты
куп
купан
купвла
купец
купецвла
куплагы
куплагывла
куплонга
куприанов
куприна
куприсир
кураж
кураторжы
курземе
курил
курильница
курица
курмызак
курныгучкыж
курныж
куропатка
куропатки
куропатковыи
курорт
курс
курсвла
курсе
курск
курсым
курсышты
курт
курталан
курув
куруджашиле
курук
куршенаи
куршунлу
курык
курыкмарии
курым
курымаш
курымвла
курымеш
курымжы
курымжым
курымкатегори
курымым
курымын
курымынок
курымышто
курымышты
кусаие
кускоквим
кускоквимвла
кускоквимла
куснаш
кустарниковая
кустарниковые
кустарниковыи
кутко
кутубии
кутюна
куусамо
куусанкоски
куцубаи
кучкыж
кучылталтеш
кучылташ
кучылтмаш
кучылтмо
кучылтын
куш
кушадасы
кушкаш
кушкеш
кушкыл
кушкын
кушкыныт
кушкыт
кушкыш
кушкышвла
кушкышым
кушкышын
кушмы
кушмыкыжы
кушны
кушта
куштат
кушташ
куштен
куштены
кушто
куштылгы
куштылгыжок
куштылгын
куштылгынок
куштылгырак
куштымаш
куштымашвла
куштымы
куштымыжы
куштышы
кушшы
кушы
кушыргы
куюджак
кцишты
кчеада
кчебеи
кчекмедже
кчем
кш
кша
кшвла
кшика
кшкаля
кшкек
кшлап
кшлу
кшты
кшы
кы
кыбрысджык
кыва
кывла
кывыл
кыдал
кыдалаш
кыдалеш
кыдалыт
кыдалыштеш
кыды
кыдывл
кыдывла
кыдыжы
кыдыжын
кыдылан
кыдыланжы
кыдым
кыдын
кызыл
кызылджахамам
кызыло
кызылтепе
кызылырмак
кызыт
кызытсе
кызытшы
кыи
кыл
кылдалтше
кылдалтын
кылым
кылыч
кыльы
кыльыкал
кым
кымалаш
кымалмаш
кымалмашым
кымалмы
кымд
кымда
кымдан
кымданер
кымданервла
кымдапач
кымдарак
кымдаэмы
кымдем
кымдемвла
кымдемна
кымдемшы
кымдемы
кымдемын
кымдемышты
кымдец
кымдецшы
кымдецы
кымдык
кымдыкеш
кымлы
кымлышы
кымшы
кымыжвуи
кымык
кымыл
кымылан
кымылангдымы
кымылжым
кымылым
кымылын
кымыт
кымытын
кымытынжы
кын
кынам
кынамжы
кынык
кыравец
кыралшы
кыргельы
кыргыж
кыргыжеш
кыргыжталеш
кыргызстан
кыркагач
кыркларели
кырла
кырля
кыршехир
кырык
кырыкан
кырыквла
кырыкжы
кырыккале
кырыкмарла
кырыкхан
кырыкшы
кырыкы
кырыкышты
кыт
кытаи
кытан
кыташ
кыткы
кыткывла
кыткылоэц
кытла
кытлан
кытшы
кытышты
кыц
кыце
кыч
кыча
кычат
кычаш
кычен
кычены
кычыктен
кычыктымы
кычыкым
кычылт
кычылталт
кычылталтеш
кычылталтшы
кычылталтын
кычылталтыт
кычылташ
кычылтеп
кычылтеш
кычылтмаш
кычылтмы
кычылтын
кычылтыныт
кычылтыт
кычымаш
кычымашты
кычымы
кычышы
кыш
кышак
кышец
кышкевек
кышкы
кышкыжеш
кышты
кьенга
кэм
кэмпбелл
кэтлин
кювьер
кюрасао
кягытхане
кяи
кяхта
л
ла
лабеотрофеус
лабидохромис
лабиринтанвла
лабрадор
лаброидес
лава
лавал
лавалвла
лавонгаи
лаврентьев
лавровыи
лагач
лагереш
лагерстро
лагерьы
лагос
лагы
лагывла
ладагы
ладере
ладигези
ладик
ладинвла
ладна
ладнан
ладын
лазоревая
лазоревка
лаи
лаика
лакаторо
лаккадив
лаксак
лаксыртымы
лакты
лакшадвип
лакшы
лакэна
лалапаша
ламприхтхис
лан
лангедок
ланди
ландшафт
ландшафтвла
ланды
ланзылымашты
ланка
ланкышты
ланпынар
лансароте
лаос
лап
лапажери
лапата
лапатажы
лапка
лапкавла
лапкашты
лапландишты
лаппеэнранта
лапсеки
лапсола
лапышты
лар
ларабанга
ларат
ларс
ларсен
лас
ласка
ласло
ластоногие
ласточка
ласточки
ласточковые
лат
лата
латансола
латви
латвии
латвин
латвишты
латен
латены
латин
латиница
латинла
латымы
латымыжы
латыш
латышеш
латышы
латышывл
латышывла
латышыжы
латышым
латышын
латышышты
лауреат
лауреатвла
лауреатшы
лаури
лахиш
лахнолаимус
лахти
лач
лача
лачин
лачок
лачокат
лачокла
лачокшы
лачокшым
лачокшымат
лачокшымок
лачплесис
лаш
лашаш
лашашан
лашашым
лаште
лаштык
лаштыквла
лаштыкеш
лаштыкшы
лаштыкшым
лаштыкым
лаштыкын
лаштыкышты
лаштыра
лающая
лва
лвекы
лвел
лвелны
лвелы
лвл
лвла
лг
лга
лген
лгом
лгомышты
лгы
лгыды
лгым
лгышы
лд
лда
лде
лден
лдеок
лдисола
лдпр
лды
ле
лебургаз
лев
лева
левелок
леви
левитанын
левичы
леву
легенда
легенды
легендывла
легендыжы
легко
леда
ледовитыи
леи
лека
лекаи
леклезио
лексикы
лектеш
лектын
лелепа
лели
лем
лемар
лемвла
лемда
лемден
лемдены
лемды
лемеур
лемисте
лемы
лен
лена
ленд
ленеу
ленин
ленинград
ленинградышты
ленинградыштыш
ленинскии
ленины
леннон
ленок
ленорман
лентварис
ленточныи
лены
леон
леонард
леоне
леонен
леонид
леопард
леп
лепантес
лепантопсис
лепидархус
лепидиолампрологус
леписостеус
лепка
лепореллус
лепоринус
лептотес
лептотила
лептотиловые
лептохарацидиум
лер
лес
лесная
леснои
лесные
лессинг
лессон
лет
лети
летописьвла
летучие
летчик
леулумоега
лефкоша
лец
лецы
леш
лжы
лзы
ли
лиа
лиалтма
либери
либерин
либо
либревиль
лив
ливан
ливанышты
ливвла
ливи
ливин
ливингстон
лигозома
лида
лиде
лидерства
лидже
лидия
лиды
лиетува
лиеш
лижы
лизм
лизуи
лии
лик
ликасте
ликвидамбар
ликвидируи
ликду
ликии
ликова
ликомормиум
лили
лилиан
лилонгве
лим
лиман
лими
лимнотиляпи
лимодорум
лимон
лимонная
лимы
лин
лина
линг
лингвист
лингвистика
линдберг
линдгрен
линдгрены
линдон
лини
линивла
линишты
линквла
линкольн
линт
линуа
линус
лины
лио
лиолемус
липарис
лир
лирик
лирика
лирикы
лирическии
лирохвостые
лирунг
лисица
лиссабон
лист
листера
листовковые
листовкывла
листы
лит
литва
литван
литератор
литератур
литература
литературныи
литературы
литературывла
литературылан
литературым
литературымат
литературын
литературышты
литературыштына
литии
литикы
литл
литурги
лихир
лихнохромис
лиц
лица
лицеи
лицкы
личи
личинкоедовые
лиш
лиша
лишкы
лишнок
лишны
лишты
лишы
лишыл
лиэш
лия
лияш
лка
лкы
лл
лле
лленштаи
ллер
ллеры
ллы
лм
лма
лмармара
лмен
лмок
лмы
лмышты
лн
лна
лнем
лнешта
лны
ло
лоар
лобанов
лобохилотус
лов
лова
ловии
лович
ловичы
ловна
ловын
логалеш
логер
логера
логеры
логон
логы
лози
лозонци
лои
лок
локализованного
локальная
локхарти
ломберскии
ломблен
ломбок
ломбы
ломе
ломыж
лонг
лондон
лондонын
лондонышты
лопастепе
лор
лорд
лори
лоривла
лорикет
лорикетвла
лос
лосола
лососьвла
лот
лотаринги
лотман
лотмана
лоуэр
лофура
лох
лохья
лош
лошкы
лоштат
лошты
лоштыжы
лоштыш
лоштышты
лоштышы
лоэц
лоэш
лпазары
лпы
лрла
лт
лта
лтая
лтде
лтем
лтен
лтеп
лтеш
лтма
лтмы
лтмыжы
лтшы
лты
лтыи
лтымы
лтын
лтыт
лу
луаи
луан
луангва
луаншья
луапула
луатвы
луатик
луатикты
луатикшы
луатка
луаткок
луаткокты
луаткоктынжы
луаткокшы
луаткуд
луаткымыт
луатны
луатшы
луаты
луба
лувингу
лувр
луганвилл
луганск
луговои
лугыч
лудалгы
лудика
луды
луж
лужавуи
лузин
луи
луиз
луизи
луизиада
луизиана
луис
лук
лука
лукас
луктын
лукулу
лукум
лукьянов
лум
лунда
лундавла
лундази
лунь
лупане
луроникс
лусака
лусон
луток
луфаньяма
луфилуфи
лучепе
лучше
лучших
лушы
луэ
лш
лша
лшен
лшехир
лшты
лшы
лшыкым
лшышывла
лъял
лы
лывалан
лывыргы
лыдат
лыдаш
лыдеш
лыдмаш
лыдмы
лыдмыкы
лыдшы
лыдшывла
лыдшылан
лыдшым
лыды
лыдывла
лыдын
лыдына
лыдыныт
лыдыт
лыдыш
лыдышвл
лыдышвла
лыдышвлам
лыдышешы
лыдышлан
лыдышыжы
лыдышыжым
лыдышым
лыдышын
лыдышышты
лыдышыштыжы
лызы
лыи
лык
лыкан
лыквла
лыкл
лыкмаш
лыкмашты
лыкмы
лыкмыла
лыксола
лыксолашты
лыкт
лыкташ
лыктеш
лыктын
лыктыныт
лыктыт
лыкшы
лыкшым
лыкым
лыкын
лым
лыма
лыман
лымаш
лымы
лымыжы
лын
лыпша
лыпшен
лысково
лысые
лыт
лыш
лышкыжы
лышта
лышты
ль
льбашы
льбу
львинизм
львиниствла
львов
льд
льджу
льевич
льке
лькеа
лько
льн
льнар
льне
льныи
льоглу
льреи
льхисар
льы
льын
льыртык
льыскыды
льяка
льялы
лэи
лэмолита
лэнсинг
любовь
любом
людвиг
людеи
людмила
люнетныи
люси
лют
лютеран
лютеранвла
ля
лявы
лягушкороты
лянен
ляпца
лярка
м
ма
маа
мабуи
маврикии
мавритани
мавританин
магдалена
магеллан
магерагере
магнетрон
магноли
мадагаскар
мадагаскарская
мадагаскарские
мадагаскарын
мадагаскарышты
маданг
мадарас
мадаш
мадеи
маден
мадеш
маджо
мади
мадмашвла
мадре
мадрид
мадриды
мадура
мадшы
мадшывла
мадын
мадыныт
мадыт
мадыш
мадышвла
мадьяр
мадьярвла
мажеи
мазабука
мазама
мазгирт
мазыдагы
маи
мак
макак
макамын
макар
макарсир
макарсиры
макатеа
макграт
макдональд
македон
македони
македонин
макира
маккарти
маккои
маккуори
маклака
макодес
макрофарингодон
макс
макси
максиллари
максим
максимович
мактат
мактен
мактена
мактымы
макура
малабар
малабо
малави
малазгирт
малаи
малаита
малакка
малаколог
малакологи
малаксис
малакула
маламакибо
малампа
малатья
малая
малекула
малерб
мали
малимбус
малин
малиновошапочныи
малкара
малкоч
малларме
малмыж
мало
маломбе
малтепе
малуку
малые
малыи
малын
мальва
малюровые
малютка
мам
мамак
мамба
мамбве
мамберамо
мамич
маммеи
мамнан
мамык
ман
мана
манавгат
манак
манакин
манакинвла
манакины
маналташ
маналтеш
маналтын
маналтыт
манам
манаш
манго
манговая
мангровая
мандарин
манде
мандевла
мандельштам
манден
мандинка
мандинкавла
мандрил
мане
манеш
мание
маниеризм
манинка
манинкавла
маниса
манитоба
манихира
манмы
манмыла
манмым
манн
маннвла
мано
манокотак
маноно
манса
мансии
манстрихты
мансури
мантананская
ману
манус
манчестер
манчжури
манын
манына
маныныт
маныт
маньагиро
маньчжури
маньым
маньяр
маньяс
маняр
маняры
мао
маорила
мар
мара
мараба
марабу
марамба
марганец
маргарита
маргиты
мардан
мардеж
мардежы
мардин
мареба
мари
мариа
мариан
мариана
марианна
мариехамн
мариехамнан
марии
марин
марина
мариндуке
маритим
мариуполь
мария
мариямполе
марк
марка
маркес
маркиз
марковы
марку
маркугпеди
марла
марлаат
марлан
марлангдымы
марлаш
марлашкы
мармара
мармарис
марн
марнии
марокко
мароккон
марсель
марсельезым
март
марта
марте
мартен
мартин
мартинес
мартиника
мартти
мартын
марутеа
марш
маршалл
маршалли
маршым
мары
марывла
марыжы
марыжын
марын
марынвл
марынвла
марынжы
марынлан
марышты
марьям
марьянои
марьясола
мас
масаи
масаити
масака
масаквла
масакым
масбате
масвинго
масдевалли
масджид
маска
маскан
маскарен
маскелаи
масковая
масковыи
маскым
масоала
масоро
масс
масса
массачусетс
масср
массышты
мастар
мастарвла
мастарлыкшы
мастарлыкшым
мастарлыкышты
мастарлыкыштым
мастарын
мастер
мастерскои
мат
мата
матаба
матабелеленд
матасо
матах
матвеи
математик
матери
материал
материалвла
материалжы
материалым
матиас
матиаш
матиашын
матимба
матрос
маттиас
мату
матуреивавао
мать
матьазо
матьяш
матьяшын
матюковскии
мауке
маунтин
маус
мафи
махама
махань
махембе
махмудие
махмут
мачка
мачуба
маш
машвла
машина
машинам
машоналенд
машты
машы
маэ
маэво
маюк
мая
мб
мбази
мбал
мбала
мбалны
мбалныш
мбе
мбел
мбелвла
мбелжы
мбого
мбуи
мва
мвали
мвен
мвендо
мвинилунга
мвири
мвла
мвлак
мвого
мвулире
мгек
мгц
мд
мда
мден
мдены
мдер
мдервла
мдеры
мды
ме
мебель
мегиддо
медаль
медальвла
медведев
меджидие
меджито
медиафаи
медина
медицин
медицина
медицины
медоеды
медосос
медососовые
медососы
медьежы
медьен
меек
между
международныи
мезитли
мезонаута
меи
мекори
мексика
мексикан
мексиканская
мексиканскии
мексикаышты
мексико
мексикышты
мелаки
меланези
меланезишты
меланохарацидиум
меле
мелекеок
мелена
меликгази
мелодии
мелы
мельников
мем
мемфис
мемы
мен
менген
менделеевын
менделтна
мендерес
менемен
мененг
менли
ментаваи
ментаста
меньы
меню
меня
мер
мера
мерам
мере
мерен
мерзифон
мери
мериг
мерида
мерис
мерита
мерич
мерли
мероприятивла
меррилла
мерсин
мертенс
месаденелла
мест
местное
местоимени
местоименивла
местоименим
месудие
месяц
месяца
мет
мета
метал
металл
металлвла
метиннис
метки
метома
метр
метропели
метропол
меты
механик
мехмет
меца
меч
мечеть
мечетьвла
мечетьшы
мечта
меш
меша
мешкы
мешы
мжа
мжы
ми
миа
миангас
мигель
мидьят
миж
мижа
мижгем
мижгемжы
мижгемы
мии
мик
мика
микаи
микеш
микита
микитама
микишка
миккели
миккелин
микл
миклаи
миклош
миколаи
микольны
микор
микорсир
микорсола
микорын
микра
микрак
микралестес
микроволновыи
микрогеофагус
микрокоэа
микронези
микронезишты
микрорасбора
микротис
микрохарацидиум
микрохилус
мил
милан
милас
миленге
милесинус
милеус
миллард
миллер
миллион
миллионан
милоплюс
милоссома
милуоки
мильтони
мильтониопсис
мимар
мимоза
мимули
мимы
мин
мина
минази
минаре
миндан
минданао
миндоро
минерал
мини
миник
минимум
министерствышты
министр
министрвл
министрвла
министржы
минна
миннеаполис
миннесота
минск
минтаи
миняшкин
миоксантус
миос
мир
мира
миреи
мири
мирмехила
мирныи
мировои
мисима
мисоол
миссионер
миссисипи
миссури
мистика
мистикыжы
мистраль
митри
митрисола
митрусир
митчелл
миф
мифвла
мифологи
мифы
михаи
михаил
михала
михалгази
михалыччык
михкель
михримах
мичиган
мичу
мичурин
мишель
мишеля
мишен
мишка
мишши
миэн
миэны
мкуши
мкымд
мл
мла
млен
млешта
млн
млоец
млрд
млу
млы
мм
мммм
мн
мна
мная
мне
мнение
мнением
мненижы
мненим
мненишты
мные
мныи
мо
моа
моаш
мовск
могаи
могели
могера
могли
могут
могырым
модел
модель
модерн
модернизм
модернист
модерниствла
модеста
модуль
модуля
может
можете
можно
мозазавр
мозамбик
мозамбикишты
мозес
мои
моисеевна
моисеи
мок
мокша
мол
молат
молдави
молекула
молитва
молла
моллинези
моллюсквла
молнам
молнамжы
молнамшы
молнар
моло
молода
молох
молуккская
молы
молывла
молымат
моляров
мом
момент
момин
момоца
момоцавла
момоцашты
момы
мон
монал
монам
монастир
монастирвла
монастиры
монастирын
монастырь
монахвл
монгол
монголи
монгу
монгыр
монгыран
монгырвла
монгыреш
монгыржы
монгыржым
монгырым
монгырыш
монгырышкыла
монгырышты
монгырыштыжы
монгырыштыш
монда
мондаш
монден
мондеп
монды
мондыделыт
мондымы
монзе
моника
монне
монографивла
монотипан
монро
монрови
монрон
монт
монтана
монтгомери
монтпилиер
монтсеррат
монумент
моныт
мор
морави
мораль
морган
моргауш
мордва
мордови
мордовин
мордовишты
море
морен
моренвла
морено
морены
мореплавателя
морж
морко
моркы
мормодес
мормолика
мороженыи
морозын
моротаи
морохин
моррисон
морсби
морская
морские
морскои
морфемым
морфологически
морфологическии
моря
москва
москваш
москвашкы
москвашты
москваштыш
москваштышы
москови
московин
мосо
мосты
мот
мота
моту
мохаммад
мохачи
мохноногии
мохо
моэш
моя
мпанга
мпика
мпонгве
мпорокосо
мпоши
мпулунгу
мпьютер
мрамор
мрание
мридха
мс
мса
мтс
му
мубуга
муганза
мугано
мугесера
мугина
мугла
мугомбва
мугунга
муданья
муденде
муджур
мудурну
мужик
музеи
музо
музыка
музыкальныи
музыкант
музыкантвла
музыки
музыкы
музыкыжы
музыкым
музыкын
муи
мукама
мукамира
мукаранге
мукинго
мукиндо
муко
мукура
мула
муланды
мулифануа
мумбва
мумилап
мумитроль
мумитрольвла
муна
мунгви
мунини
муниципалитет
муниципалитетвла
муниципалитеты
муниципальныи
муньага
муньигиньа
мур
муравеи
муравьеловка
муравьеловки
муравьиные
муравьянки
мурадие
мурама
мурамби
мурат
муратлы
муратпаша
мургул
мурем
мурза
муринга
муро
муром
мурунда
мурунди
муруру
мурым
муса
мусабеи
мусаза
мусамбира
мусанге
мусанзе
мусаса
мусебеи
мусеньи
мускатныи
мускус
мускусныи
мусоро
мустафа
мустафакемальпаша
мусульман
мусульманвла
мусшенбрук
мут
мутаре
мутендери
мутете
мутки
мутлан
мутунту
мутым
муфулира
муфумбве
мухази
муханга
муханда
мухима
мухин
мухоза
мухоловка
мухоловки
мухондо
мухороро
мухтар
мухура
муш
муша
мушели
мушикири
мушиширо
мушоньи
мушубати
мушуби
мшы
мшыл
мы
мыгила
мыгыльонг
мыж
мыжы
мыжыр
мыжырым
мызы
мызывла
мызымо
мыи
мыктешкы
мыл
мылам
мыли
мым
мынастирвла
мынастиры
мыни
мынивла
мыны
мынывла
мыным
мынь
мыр
мыра
мыралтен
мырат
мыраш
мырем
мырен
мырены
мыры
мырывла
мырыжы
мырызы
мырызывла
мырым
мырымат
мырымы
мырымыжы
мырын
мырышты
мырышы
мырышыжы
мыскылен
мытык
мыч
мычаш
мычашан
мычашвла
мычашеш
мычашешы
мычашты
мычашыжы
мычашыжым
мычашышты
мычашыштыжы
мычкы
мышевидная
мышевидные
мыши
мышкаш
мышкын
мышмы
мышт
мышта
мыштат
мышташ
мыштен
мышты
мыштыдымы
мыштымаш
мыштымыла
мыштышы
мыштышывла
мьюир
мья
мьянма
мэдисон
мэи
мэн
мэри
мэриленд
мэрилин
мэрилины
мэришты
міста
н
на
наантали
набави
набесна
навахо
наваховла
навахола
навила
навла
нагорная
наградывла
над
надежда
надо
надотряд
нажи
нажмите
название
названия
назилли
назым
назымие
наи
наиболее
наибольшее
наибольшеи
наказани
накнек
наконде
налаш
налларбор
наллыхан
налме
налогым
налын
нам
намалаш
намалеш
намалмы
намалшы
намалшывла
намалын
намалыштыт
намвала
намерениях
нами
намиби
нан
нандопсис
нанду
наннакара
наннопетерсиус
нань
напакиак
напаскиак
написано
напо
напоминаем
направлении
например
нарвал
нарджа
наре
наречи
наречивла
наречие
наречим
нарицательныи
нарлыдере
нарман
народа
народная
народные
народов
нары
нарынзалгы
нарынзы
нас
насарава
населе
население
населению
населения
наставники
настольнои
настоящее
настоящие
настрои
натал
наталия
наталь
наталья
нато
наттерер
натуна
натурал
натуралист
науи
наук
наука
наукан
наукы
наукын
науманн
науру
наурула
наурун
наурушты
научно
научныи
националистическии
национальность
национальностьвла
национальныи
начала
начале
началось
начальныи
начать
начи
начкы
наш
наша
наше
нашего
наших
нашлы
нашо
нашу
ная
наябад
нбек
нвичы
нвл
нвла
нг
нга
нгазиджа
нгалы
нгамба
нгарама
нгвл
нгвла
нгд
нгда
нгден
нгдены
нгды
нге
нгеа
нгель
нгельи
нгельмычаш
нгем
нгемы
нген
нгены
нгера
нгерука
нгерулмуд
нгеш
нгешла
нгешы
нгжы
нгла
нгма
нгмы
нго
нгома
нгорореро
нгорореролан
нгр
нгрвла
нгри
нгрин
нгришты
нгу
нгуна
нгшы
нгы
нгыж
нгымы
нгыр
нгырвла
нд
нда
ндалы
ндаро
ндартыш
ндары
нде
ндебеле
ндебелевла
ндего
ндежы
ндекш
ндекшлу
ндекшы
нделаг
ндем
нден
ндена
ндены
ндера
ндерт
нджамена
ндзуани
ндогмуш
ндола
ндон
ндонат
ндоно
ндонок
ндора
ндр
ндтын
ндуба
нды
ндышы
ндьо
не
неаполь
неарктика
небо
небраска
невада
неверен
неволя
невшехир
негативныи
него
негр
негрос
негы
негызеш
неда
недели
неделю
недоимка
неды
нее
нежы
независимыи
незер
незервла
незеры
неи
неизвестно
неизвестныи
нек
некоторые
нектарницевые
нела
неле
нелы
нельчина
нем
нематоцерас
немба
немецвл
немецкии
немецкого
немецком
немои
немы
нен
нена
ненец
нены
необентами
неогетерандри
неоконьокси
неолампрологус
неомуреи
неон
неотропика
неотропическая
неотти
неоттианте
неофинети
неп
непал
непальскии
неподдающии
нептунии
нер
нера
нерат
нервили
нерген
нергы
нержы
нерка
неруда
неры
несил
нескольких
несколько
нестор
несторвла
нет
нетерпением
неувиди
неш
неясыти
неясыть
нж
нжа
нжен
нжок
нжы
нжыкт
нжыктен
нз
нза
нзахаха
нзен
нзены
нзеш
нзиге
нзы
нзыкы
нзыкыл
нзылны
ни
ниамеи
ниамниам
ниас
нибелунгын
нибои
нибок
нивла
нигде
нигер
нигери
нигерин
нигеришты
нигериы
нигерия
нигрителла
нигынамат
нигыцеа
нигышкат
нигыштат
нидерл
нидерланд
нидерландвла
нидерланди
нидерландын
ниж
ниже
нижегородскии
низ
низип
низуи
нии
ник
ника
никандр
никарагуа
никарагуан
никитин
никифоров
никобар
ников
никовая
никовыи
никола
николаас
николаев
николаевич
николаевна
николаи
никольскии
николя
никон
никсар
никсон
нил
нилгири
нилу
ним
нима
нимат
нимахань
нимбохромис
нимфы
нин
нина
ниниго
нис
ниствла
нисы
ниугат
ниуэ
них
ница
ницца
ницше
ницшен
ништадтскии
ништы
нка
нканка
нквд
нко
нкомане
нкомбо
нкотси
нкунгу
нлан
нланд
нмвел
нмы
нн
нна
нная
нне
нного
ннон
ннрот
нные
нныи
нных
но
ноатак
нобелист
нобель
нобельы
нов
новакулихтис
новакулоидес
новакулопс
новая
новгород
новелла
новеллывла
нович
ново
нового
новоград
новодевичи
новозеландские
новостеи
новости
новость
новые
новыи
новых
нозанлык
нок
нолгы
нолжым
ном
номера
номержы
номеры
нор
норв
норвег
норвеги
норвегин
норвегишты
норвегла
норвежскии
норка
норма
норманди
нормывл
нормывла
норт
нортуэст
норфолк
носкивла
носола
носферату
нотили
нотолабрус
нотофагус
нотоцеркус
нотура
ноэль
ноябрь
ноябрьы
ноябрьын
ноября
нпичы
нр
нра
нраи
нс
нсильв
нскии
нсола
нсолашты
нств
нт
нтарабана
нтарама
нтвла
нтер
нтжы
нтин
нтонгве
нтр
нтрвла
нтьазо
ну
нуакшот
нуж
нужанал
нужгол
нужголвла
нужна
нужно
нуиксат
нуку
нукуалофа
нулато
нум
нумфор
нунам
нунапитчук
нунивак
нуно
нуным
нунын
нур
нурвик
нурдагы
нуруосмание
нурхак
нусаи
нусретие
нхаузи
нхен
нц
нци
нцин
нциск
нцишты
нцы
нча
нчеленге
нчонвла
нштеи
ншы
ны
нывуӄаӷмит
ные
ныи
нык
ным
нымбакы
нымбал
нымбалны
нымбалныш
нымбалым
нымбалын
нымы
нын
ныны
ныным
нынын
ныр
нырвла
ныржы
ныри
нырок
нырым
нырыш
нырышты
ныряльщик
ныт
ныугат
ныш
нь
ньабимата
ньабинони
ньабираси
ньабитекери
ньабиху
ньагатаре
ньагисози
ньагиханга
ньакабанда
ньакабуи
ньакарензо
ньакариро
ньакилиба
ньамабуи
ньамагабе
ньамата
ньамашек
ньамии
ньамирама
ньамирамбо
ньамугари
ньамьумба
ньанге
ньанза
ньанкенке
ньарубака
ньарубуи
ньаругенге
ньаругунга
ньаругуру
ньарусанге
ньвла
нье
ньжы
ньимба
ньиредьхаза
ньма
ньок
ньра
ньундо
ньшы
ньы
ньымыштшы
ньымыштшывла
нью
ньюарк
ньюток
ньютон
ньютони
ньюфаундленд
ньян
ньянджа
ньянджавла
ньяса
нэшвилл
нюцзе
няи
нямбал
нян
няна
нянем
нянен
няны
няр
нят
няш
о
оа
оаз
оани
оахака
оаэ
об
оба
обе
оберони
обеспечен
[...]
