!
"
#
##0
##1
##10
##11
##12
##13
##14
##15
##16
##17
##18
##19
##2
##20
##21
##22
##23
##24
##25
##26
##27
##28
##29
##3
##30
##31
##32
##33
##34
##35
##36
##37
##38
##39
##4
##40
##41
##42
##43
##44
##45
##46
##47
##48
##49
##5
##50
##51
##52
##53
##54
##55
##56
##57
##58
##59
##6
##60
##61
##62
##63
##64
##65
##66
##67
##68
##69
##7
##70
##71
##72
##73
##74
##75
##76
##77
##78
##79
##8
##80
##81
##82
##83
##84
##85
##86
##87
##88
##89
##9
##90
##91
##92
##93
##94
##95
##96
##97
##98
##99
$
%
&
'
(
)
*
+
,
-
.
/
0
00
000
0004
001
002
003
004
005
006
007
009
01
010
011
013
02
03
035
04
05
06
07
08
09
1
10
100
1000
10000
1001
1002
1007
101
1016
1017
102
1021
103
1038
104
105
1050
1051
106
107
1073
108
1080
1086
1088
109
1093
1097
1098
11
110
1100
1103
111
1111
112
1126
113
1130
1136
114
115
1150
116
117
1170
1177
118
1180
1186
119
1190
12
120
1200
1204
121
1212
122
1220
123
1230
124
1240
125
1250
126
1260
1266
127
1270
128
1280
1282
1285
129
1290
1295
1298
13
130
1300
1304
131
1310
1312
1313
132
1320
1325
1328
133
1330
1336
134
1340
1347
1348
1349
135
1350
136
1360
1365
137
1370
1371
1378
138
1380
1385
139
1390
1399
14
140
1400
1404
1405
1409
141
1410
1412
1415
1418
142
1420
1425
1427
143
1430
1431
1435
1438
1439
144
1440
1443
1444
1445
1447
1448
1449
145
1450
1451
1452
1453
1455
1456
1458
146
1460
1461
1462
1463
1464
1465
1466
1467
1468
1469
147
1470
1471
1472
1473
1474
1475
1476
1477
1478
1479
148
1480
1481
1482
1483
1484
1485
1486
1487
1488
1489
149
1490
1491
1492
1493
1494
1495
1496
1497
1498
1499
15
150
1500
1501
1502
1503
1504
1505
1506
1507
1508
1509
151
1510
1511
1512
1513
1514
1515
1516
1517
1518
1519
152
1520
1521
1522
1523
1524
1525
1526
1527
1528
1529
153
1530
1531
1532
1533
1534
1535
1536
1537
1538
1539
154
1540
1541
1542
1543
1544
1545
1546
1547
1548
1549
155
1550
1551
1552
1553
1554
1555
1556
1557
1558
1559
156
1560
1561
1562
1563
1564
1565
1566
1567
1568
1569
157
1570
1571
1572
1573
1574
1575
1576
1577
1578
1579
158
1580
1581
1582
1583
1584
1585
1586
1587
1588
1589
159
1590
1591
1592
1593
1594
1595
1596
1597
1598
1599
16
160
1600
1601
1602
1603
1604
1605
1606
1607
1608
1609
161
1610
1611
1612
1613
1614
1615
1616
1617
1618
1619
162
1620
1621
1622
1623
1624
1625
1626
1627
1628
1629
163
1630
1631
1632
1633
1634
1635
1636
1637
1638
1639
164
1640
1641
1642
1643
1644
1645
1646
1647
1648
1649
165
1650
1651
1652
1653
1654
1655
1656
1657
1658
1659
166
1660
1661
1662
1663
1664
1665
1666
1667
1668
1669
167
1670
1671
1672
1673
1674
1675
1676
1677
1678
1679
168
1680
1681
1682
1683
1684
1685
1686
1687
1688
1689
169
1690
1691
1692
1693
1694
1695
1696
1697
1698
1699
17
170
1700
1701
1702
1703
1704
1705
1706
1707
1708
1709
171
1710
1711
1712
1713
1714
1715
1716
1717
1718
1719
172
1720
1721
1722
1723
1724
1725
1726
1727
1728
1729
173
1730
1731
1732
1733
1734
1735
1736
1737
1738
1739
174
1740
1741
1742
1743
1744
1745
1746
1747
1748
1749
175
1750
1751
1752
1753
1754
1755
1756
1757
1758
1759
176
1760
1761
1762
1763
1764
1765
1766
1767
1768
1769
177
1770
1771
1772
1773
1774
1775
1776
1777
1778
1779
178
1780
1781
1782
1783
1784
1785
1786
1787
1788
1789
179
1790
1791
1792
1793
1794
1795
1796
1797
1798
1799
18
180
1800
1801
1802
1803
1804
1805
1806
1807
1808
1809
181
1810
1811
1812
1813
1814
1815
1816
1817
1818
1819
182
1820
1821
1822
1823
1824
1825
1826
1827
1828
1829
183
1830
1831
1832
1833
1834
1835
1836
1837
1838
1839
184
1840
1841
1842
1843
1844
1845
1846
1847
1848
1849
185
1850
1851
1852
1853
1854
1855
1856
1857
1858
1859
186
1860
1861
1862
1863
1864
1865
1866
1867
1868
1869
187
1870
1871
1872
1873
1874
1875
1876
1877
1878
1879
188
1880
1881
1882
1883
1884
1885
1886
1887
1888
1889
189
1890
1891
1892
1893
1894
1895
1896
1897
1898
1899
19
190
1900
1901
1902
1903
1904
1905
1906
1907
1908
1909
191
1910
1911
1912
1913
1914
1915
1916
1917
1918
1919
192
1920
1921
1922
1923
1924
1925
1926
1927
1928
1929
193
1930
1931
1932
1933
1934
1935
1936
1937
1938
1939
194
1940
1941
1942
1943
1944
1945
1946
1947
1948
1949
195
1950
1951
1952
1953
1954
1955
1956
1957
1958
1959
196
1960
1961
1962
1963
1964
1965
1966
1967
1968
1969
197
1970
1971
1972
1973
1974
1975
1976
1977
1978
1979
198
1980
1981
1982
1983
1984
1985
1986
1987
1988
1989
199
1990
1991
1992
1993
1994
1995
1996
1997
1998
1999
2
20
200
2000
2001
2002
2003
2004
2005
2006
2007
2008
2009
201
2010
2011
2012
2013
2014
2015
2016
2017
2018
2019
202
2020
2021
2022
2023
2024
203
204
205
206
207
208
209
21
210
211
212
213
214
215
216
217
218
219
22
220
221
222
223
224
225
226
227
228
229
23
230
2307
231
232
233
234
235
236
237
238
239
24
240
241
242
243
244
2449
245
246
247
248
249
25
250
2500
25000
251
252
253
254
255
256
257
258
259
26
260
2600
261
262
263
264
265
266
267
268
269
27
270
271
272
273
274
275
276
277
278
279
28
280
281
282
283
284
285
286
287
288
289
29
290
291
292
293
294
295
296
297
298
299
3
30
300
3000
301
302
303
304
305
306
307
308
309
31
310
311
312
313
314
315
316
3166
317
318
319
32
320
321
322
323
324
325
326
327
328
329
33
330
331
332
333
334
335
336
337
338
339
34
340
341
342
343
344
345
346
347
348
349
35
350
351
352
353
354
355
356
357
358
359
36
360
361
362
363
364
365
366
367
368
369
37
370
371
372
373
374
375
376
377
378
379
38
380
381
382
383
384
385
386
387
388
389
39
390
391
392
393
394
395
396
397
398
399
4
40
400
4000
401
402
403
404
405
406
407
408
409
41
410
411
412
413
414
415
416
417
418
419
42
420
421
422
423
424
425
426
427
428
429
43
430
431
432
433
434
435
436
437
438
439
44
440
441
442
443
444
445
446
447
448
449
45
450
451
452
453
454
455
456
457
458
459
46
460
461
462
463
464
465
466
467
468
469
47
470
471
472
473
474
475
476
477
478
479
48
480
481
482
483
484
485
486
487
488
489
49
490
491
492
493
494
495
496
497
498
499
5
50
500
5000
501
502
503
504
505
506
507
508
509
51
510
511
512
513
514
515
516
517
518
519
52
520
521
522
523
524
525
526
527
528
529
53
530
531
532
533
534
535
536
537
538
539
54
540
541
542
543
544
545
546
547
548
549
55
550
551
552
553
554
555
556
557
558
559
56
560
561
562
563
564
565
566
567
568
569
57
570
571
572
574
575
576
577
579
58
580
581
582
583
584
585
586
587
588
589
59
590
591
593
595
596
597
598
599
6
60
600
6000
601
602
603
604
605
606
607
608
609
61
610
6105
611
612
613
614
615
616
617
618
619
62
620
621
624
625
626
627
628
63
630
631
632
633
634
635
636
637
639
64
640
641
642
643
645
646
65
650
651
653
655
656
66
660
663
664
665
666
667
668
67
670
671
674
675
679
68
680
684
685
689
69
690
691
695
7
70
700
7000
701
704
705
707
71
710
711
715
716
718
72
720
725
727
73
730
737
74
740
747
75
750
754
757
76
760
767
77
770
774
775
777
78
780
787
79
790
8
80
800
8000
801
8018
802
807
808
81
810
814
815
82
820
8221
83
830
84
840
85
850
855
858
86
860
87
870
88
880
883
888
89
9
90
900
91
910
911
917
92
920
93
930
94
940
95
950
951
96
960
962
963
965
97
970
972
975
978
98
980
99
990
999
:
;
<
=
>
?
@
[
\
]
^
_
`
a
aa
aaron
aas
ab
aba
abate
abati
abba
abbandona
abbandonando
abbandonano
abbandonare
abbandonarono
abbandonata
abbandonate
abbandonati
abbandonato
abbandono
abbas
abbassa
abbassamento
abbassare
abbasso
abbastanza
abbate
abbatte
abbattere
abbattimento
abbattuta
abbattuti
abbattuto
abbaye
abbazia
abbaziale
abbe
abbey
abbi
abbia
abbiam
abbiamo
abbiano
abbiate
abbigliamento
abbinato
abbondante
abbondantemente
abbondanti
abbondanza
abbondio
abbott
abbozzo
abbraccia
abbracciare
abbraccio
abbreviata
abbreviato
abbreviazione
abby
abc
abd
abdicazione
abdu
abdul
abdullah
abe
abeba
abel
aberdeen
aberdeendisposizioni
abete
abi
abigail
abile
abili
abilita
abilitazione
abissi
abisso
abita
abitacolo
abitano
abitante
abitanti
abitare
abitata
abitate
abitati
abitative
abitato
abitatori
abitava
abitavano
abitazione
abitazioni
abiti
abito
abituale
abitualmente
abituati
abituato
abitudine
abitudini
ablativo
abolire
abolita
abolito
abolizione
aborto
about
above
abraham
abramo
abrams
abrogato
abruzzese
abruzzesi
abruzzi
abruzzo
abruzzodisposizioni
abs
absidale
abside
absidi
abstract
abu
abulafia
abusi
abuso
ac
acacia
acade
academia
academic
academy
acb
acc
accadde
accade
accademia
accademica
accademiche
accademici
accademico
accademie
accadere
accadeva
accaduti
accaduto
accampamento
accanto
accede
accedere
accedono
acceduto
accelerare
accelerazione
accende
accendere
accenna
accennato
accenno
accensione
accenti
accento
accertamento
accertare
accertata
accertati
accertato
accesa
accese
accesi
acceso
access
accessed
accessi
accessibile
accessibili
accessibilita
accesso
accessori
accetta
accettabile
accettando
accettano
accettare
accettarono
accettata
accettate
accettati
accettato
accettazione
accetti
accetto
accezione
acciaio
accident
accidentale
accidentalmente
accidente
accidenti
accio
acciocche
acclamato
accoglie
accoglienza
accogliere
accolse
accolta
accolti
accolto
accompagna
accompagnamento
accompagnano
accompagnare
accompagnata
accompagnate
accompagnati
accompagnato
accompagnava
accompagno
acconsenti
accoppiamento
accorda
accordato
accordi
according
accordo
accorge
accorgersi
accorpato
accorse
accorsero
accorsi
accorto
accosta
accosto
account
accreditata
accreditati
accreditations
accreditato
accrescere
accrescimento
accresciuta
accumulare
accumulato
accumulo
accurata
accuratamente
accurate
accuratezza
accurato
accusa
accusare
accusata
accusati
accusativo
accusato
accuse
accuso
ace
acerbo
acero
aces
aceto
acheni
achenio
achievement
achille
aci
acid
acidi
acido
acireale
acnp
acoustic
acqua
acquario
acquatici
acquatico
acquaviva
acque
acquedotto
acqui
acquirente
acquisendo
acquisi
acquisire
acquisisce
acquisita
acquisite
acquisiti
acquisito
acquisizione
acquisizioni
acquista
acquistando
acquistare
acquistata
acquistate
acquistati
acquistato
acquisti
acquisto
acre
acri
acronimo
acropoli
across
act
acta
actes
action
active
activity
actor
actors
actress
acts
acustica
acustico
acuta
acute
acuti
acuto
ad
ada
adagio
adalberto
adam
adamo
adams
adatta
adattamenti
adattamento
adattare
adattarsi
adattata
adattati
adattato
adatte
adatti
adatto
add
adda
addams
addestramento
addestrati
addestrato
addetti
addetto
addietro
addio
addirittura
addis
addison
addizionale
addizione
addolorata
addome
addominale
addormentata
addormentato
addosso
adds
ade
adeguamento
adeguata
adeguatamente
adeguate
adeguati
adeguato
adelaide
adele
adelphi
adempiere
adempimento
aderente
aderenti
aderenza
aderi
aderire
aderisce
aderiscono
aderito
adesione
adesso
adi
adiacente
adiacenti
adibita
adibiti
adibito
adidas
adige
adigedisposizioni
adjusted
adler
admin
administration
admiral
adnkronos
adobe
adolescente
adolescenti
adolescenza
adolf
adolfo
adolph
adolphe
adone
adopera
adoperare
adoperato
adopero
adora
adorazione
adorna
adorno
adotta
adottando
adottare
adottarono
adottata
adottate
adottati
adottato
adottiva
adottivo
adotto
adozione
adria
adrian
adriana
adriano
adriatica
adriatico
adrien
adrienne
adult
adulta
adulterio
adulti
adulto
adunanza
adunque
advameg
advance
advanced
adventure
adventures
advisory
ae
aequo
aere
aerea
aeree
aerei
aereo
aero
aerodinamica
aeromobile
aeromobili
aeronautica
aeronautico
aeroplani
aeroplano
aeroporti
aeroporto
aeroportuale
aerospace
aes
aevi
af
afa
afc
affaccia
affacciano
affair
affairs
affanni
affanno
affare
affari
affascinante
affascinato
affatto
afferma
affermando
affermano
affermare
affermarsi
affermato
affermava
affermazione
affermazioni
affermo
afferra
afferrare
afferro
affetta
affetti
affetto
affettuoso
affezione
affianca
affiancare
affiancata
affiancati
affiancato
affianco
affida
affidabile
affidabili
affidabilita
affidamento
affidare
affidata
affidate
affidati
affidato
affido
affiliata
affiliate
affiliati
affiliato
affiliazione
affinche
affine
affini
affinita
affitto
afflitto
affluente
affluenti
affluenza
afflusso
affonda
affondamento
affondare
affondata
affondato
affondo
affrescata
affreschi
affresco
affretto
affronta
affrontando
affrontano
affrontare
affrontarono
affrontate
affrontati
affrontato
affronto
affusto
afghanistan
afi
afp
africa
african
africana
africane
africani
africano
afrique
afro
afroamericana
afroamericani
afroamericano
afrodite
after
ag
aga
again
against
agamennone
agata
agatha
age
agency
agenda
agendo
agent
agente
agenti
agents
agenzia
agenzie
ages
agevolare
agevole
agevolmente
aggancio
aggettivi
aggettivo
aggiornamenti
aggiornamento
aggiornata
aggiornate
aggiornati
aggiornato
aggira
aggirare
aggiudica
aggiudicandosi
aggiudicarsi
aggiudicata
aggiudicato
aggiudico
aggiunge
aggiungendo
aggiungere
aggiungeva
aggiungila
aggiungili
aggiungono
aggiunse
aggiunsero
aggiunta
aggiunte
aggiunti
aggiuntiva
aggiuntive
aggiuntivi
aggiuntivo
aggiunto
agglomerato
aggredito
aggregata
aggregati
aggregato
aggregazione
aggressione
aggressiva
aggressivita
aggressivo
agguato
agi
agile
agilita
agio
agire
agisce
agiscono
agitato
agitazione
agito
agl
agli
aglio
agnelli
agnello
agnes
agnese
agnolo
ago
agonia
agonistica
agora
agostini
agostiniani
agostino
agosto
agrari
agraria
agrarie
agrario
agreement
agricola
agricole
agricoli
agricolo
agricoltore
agricoltori
agricoltura
agriculture
agrigento
agrigentodisposizioni
agrilus
agrippa
agro
agronomo
aguilar
aguilera
agusti
ah
ahead
ahi
ahime
ahmad
ahmed
ai
aia
aic
aid
aida
aids
aim
aime
ain
air
airbus
aircraft
aire
aires
airlines
airone
airplay
airport
airwar
airways
ais
aise
aiuta
aiutando
aiutano
aiutante
aiutare
aiutarla
aiutarli
aiutarlo
aiutata
aiutati
aiutato
aiutera
aiuti
aiuto
aix
aj
aja
ajax
ak
aka
akademie
aki
akira
al
ala
alabama
aladdin
alain
alan
alare
alari
alarico
alaska
alato
alatri
alba
albanese
albanesi
albani
albania
albano
albany
albatros
albe
albenga
alberghi
albergo
alberi
alberico
albero
albert
alberta
albertelli
alberti
albertini
alberto
albertoni
albi
albin
albini
albino
albion
albo
albori
albrecht
album
albums
albuquerque
alca
alcamo
alchimia
alcide
alcol
alcolici
alcolismo
alcool
alcun
alcuna
alcune
alcuni
alcuno
alda
aldila
aldo
aldrich
ale
alec
alegre
alejandro
aleksandar
aleksander
aleksandr
aleksandra
aleksandrovic
aleksej
alema
aleppo
alessandra
alessandria
alessandriadisposizioni
alessandrini
alessandrino
alessandro
alessia
alessio
alex
alexa
alexander
alexandra
alexandre
alexandria
alexandru
alexis
alf
alfa
alfabetico
alfabeto
alfano
alfiere
alfieri
alfin
alfine
alfio
alfonso
alfred
alfredo
algarve
algebra
algebrica
algeri
algeria
algerino
alghe
alghero
algoritmi
algoritmo
ali
alia
alias
alibi
alice
alicia
alien
aliena
alienazione
alieni
alieno
aliens
alighieri
aligned
alimenta
alimentare
alimentari
alimentata
alimentato
alimentazione
alimenti
alimento
alison
alive
all
alla
allah
allan
allarga
allargamento
allargare
allargata
allargato
allarme
alle
alleanza
alleanze
alleata
alleate
alleati
alleato
allegati
allegato
allegoria
allegorico
allegra
allegramente
allegrezza
allegri
allegria
allegro
allen
allena
allenamenti
allenamento
allenare
allenarsi
allenata
allenato
allenatore
allenatori
allenatrice
alleo
allestimenti
allestimento
allestire
allestita
allestito
allevamento
allevato
allevatori
alleviare
alley
allgemeine
alli
alliance
allied
allieva
allievi
allievo
allineamento
allison
allmovie
allmusic
allo
alloggi
alloggio
allontana
allontanamento
allontanando
allontanare
allontanarsi
allontanato
allontano
allor
allora
allorche
alloro
allorquando
allsvenskan
allucinazioni
allude
alluminio
allunga
allungamento
allungata
allungate
allungato
allusione
alluvione
ally
alma
almanacco
alme
almeida
almen
almeno
almost
aln
alo
alogique
alois
alone
along
alonso
alpe
alpes
alpha
alphabetic
alphabetical
alphonse
alpi
alpidisposizioni
alpina
alpine
alpini
alpinismo
alpinista
alpino
alquanto
als
alsazia
also
alt
alta
altamente
altamura
altar
altare
altari
altavilla
alte
alter
altera
alterare
alterata
alterato
alterazione
alterazioni
alterna
alternano
alternanza
alternata
alternate
alternati
alternativa
alternativamente
alternative
alternativi
alternativo
alterne
altero
altervista
altezza
altezze
alti
altieri
altipiano
altissima
altissimo
altista
altitudine
altitudini
alto
altomfotball
altopiani
altopiano
altra
altre
altresi
altrettante
altrettanti
altrettanto
altri
altrimenti
altro
altronde
altrove
altrui
altura
alture
alunni
alunno
alvarez
alvaro
alveo
alvernia
alves
alvin
alvise
always
alza
alzando
alzano
alzare
alzarsi
alzata
alzato
alzheimer
alzo
am
ama
amabile
amadeus
amalfi
amalia
amanda
amando
amano
amante
amanti
amar
amara
amaranto
amare
amarezza
amari
amaro
amata
amate
amateur
amati
amato
amatori
amatoriale
amatoriali
amava
amazing
amazon
amazzoni
ambasciata
ambasciatore
ambasciatori
ambe
ambedue
amber
ambientale
ambientali
ambientata
ambientate
ambientati
ambientato
ambientazione
ambientazioni
ambiente
ambienti
ambiguita
ambiguo
ambiti
ambito
ambizione
ambizioni
ambizioso
ambo
ambra
ambrogio
ambrose
ambrosiana
ambrosio
ambulanza
amburgo
amd
ame
amedeo
amelia
amen
amendola
amendue
america
americadisposizioni
american
americana
americane
americani
americano
americans
americas
americhe
amerigo
ames
ami
amica
amiche
amichevole
amichevoli
amici
amicis
amicizia
amicizie
amico
amiens
amiga
amilcare
amin
amir
amis
amleto
ammad
ammalati
ammalato
ammalo
ammassi
ammasso
ammazzare
ammazzato
ammenda
ammessa
ammesse
ammessi
ammesso
ammette
ammettere
ammiano
amministrare
amministrata
amministrativa
amministrativamente
amministrative
amministrativi
amministrativo
amministrato
amministratore
amministratori
amministrazione
amministrazioni
amminoacidi
ammira
ammiraglia
ammiragliato
ammiraglio
ammirare
ammirato
ammiratore
ammirazione
ammise
ammissione
ammodernamento
ammoniaca
ammontare
ammontava
amnesty
amnh
amnistia
amo
amon
among
amor
amore
amori
amorosa
amorose
amorosi
amoroso
amos
amour
amp
ampezzo
ampi
ampia
ampiamente
ampie
ampiezza
ampio
ampliamento
ampliare
ampliata
ampliato
amplificatore
amplio
amsterdam
amt
amur
amy
an
ana
anagrafe
anal
anale
analisi
analitica
analizza
analizzando
analizzare
analizzato
analoga
analogamente
analoghe
analoghi
analogia
analogico
analogie
analogo
analysis
anarchia
anarchica
anarchici
anarchico
anas
anastasia
anastasija
anastasio
anatole
anatolia
anatolij
anatomia
anatomista
anatomy
anatra
anca
anch
anche
anchor
ancien
ancient
anco
ancona
anconadisposizioni
ancor
ancora
ancorche
and
andai
andaluci
andalusia
andalusiadisposizioni
andamento
andando
andar
andare
andarono
andarsene
andasse
andata
andate
andati
andato
andava
andavano
ande
anderlecht
anders
andersen
anderson
andersson
andiamo
ando
andorra
andra
andrade
andranno
andre
andrea
andreas
andrebbe
andreeva
andrei
andreini
andrej
andremo
andreotti
andrew
andrews
andria
andro
androceo
android
andromeda
andronico
andrzej
andy
aneddoti
aneddoto
anelli
anello
anfibi
anfibio
anfiteatro
ang
ange
angel
angela
angeles
angeli
angelica
angelico
angelina
angelini
angelis
angelo
angels
angers
angie
angio
angioini
angiolo
angiosperm
angle
anglicana
anglo
anglosassone
anglosassoni
angola
angolare
angolari
angoli
angolo
angoscia
anguilla
angus
anhalt
ani
anidride
anima
animal
animale
animali
animals
animata
animate
animated
animati
animation
animato
animatore
animazione
animazioni
anime
animeclick
animenewsnetwork
animi
animo
anita
ankara
ann
anna
annales
annali
annalisa
annals
annamaria
annapolis
annata
annate
anne
annessa
annesse
annessi
annessione
annesso
annette
anni
annibale
annie
anniversario
anniversary
anno
annotated
annotazioni
announce
announced
announces
annovera
annoverano
annoverata
annoverato
annua
annual
annuale
annuali
annualmente
annuario
annue
annui
annulla
annullamento
annullare
annullata
annullato
annunci
annuncia
annunciando
annunciano
annunciare
annunciata
annunciati
annunciato
annunciazione
annuncio
annunziata
annunzio
annuo
ano
anomalia
anomalie
anonima
anonimi
anonimo
another
anpi
ans
ansa
ansaldo
anselmi
anselmo
ansia
ant
antagonista
antagonisti
antarctic
antartica
antartico
antartide
ante
antecedente
antecedenti
antenati
antenato
antenna
antenne
anteprima
antere
anteriore
anterioredisposizioni
anteriori
anteriormente
anthem
anthology
anthony
anti
antica
anticamente
anticarro
antiche
antichi
antichissima
antichita
anticipa
anticipare
anticipata
anticipato
anticipo
antico
anticorpi
antifascista
antifascisti
antigone
antille
antimafia
antinave
antincendio
antiochia
antioco
antipapa
antiquario
antiquity
antisemitismo
antistante
anto
antoine
antologia
antologica
anton
antonella
antonelli
antonello
antoni
antonia
antonietta
antonini
antonino
antonio
antoniogenna
antonov
antony
antro
antropologia
antropologo
anulare
anversa
any
anything
anzi
anziana
anziani
anzianita
anziano
anziche
anzio
anzitutto
ao
aosta
aostadisposizioni
ap
apache
ape
aperse
aperta
apertamente
aperte
aperti
aperto
apertura
aperture
apg
api
apicale
apice
apocalisse
apocalypse
apogeo
apollinare
apollo
apollodoro
apollonio
apologia
apostolato
apostoli
apostolica
apostolico
apostolo
app
appaiono
appalto
appannaggio
apparati
apparato
appare
apparecchi
apparecchiature
apparecchio
apparendo
apparente
apparentemente
apparenza
apparenze
apparira
apparire
appariva
apparivano
apparizione
apparizioni
apparsa
apparse
apparsi
apparso
appartamenti
appartamento
appartenente
appartenenti
appartenenza
appartenere
apparteneva
appartenevano
appartengono
appartenne
appartenuta
appartenuto
appartiene
apparve
apparvero
appassionata
appassionati
appassionato
appellativo
appello
appena
appendice
appendici
appennini
appennino
appesi
appeso
appetito
appia
appiano
appieno
applausi
apple
appleton
applica
applicabile
applicabili
applicando
applicano
applicare
applicata
applicate
applicati
application
applications
applicato
applicazione
applicazioni
applied
appo
appoggia
appoggiare
appoggiata
appoggiato
appoggio
apportare
apportate
apporto
apposita
appositamente
apposite
appositi
apposito
apposta
apprende
apprendere
apprendimento
apprendista
apprendistato
apprese
appreso
appresso
appresta
apprezzamento
apprezzare
apprezzata
apprezzate
apprezzati
apprezzato
approach
approcci
approccio
approda
approdare
approdo
approfitta
approfittando
approfittare
approfitto
approfondimenti
approfondimento
approfondire
approfondita
approfondito
appropriato
approssimativamente
approssimazione
approva
approvare
approvata
approvate
approvati
approvato
approvazione
approvo
approvvigionamento
appuntamenti
appuntamento
appunti
appunto
apr
apre
aprendo
apri
april
aprile
aprilia
aprire
aprirono
aprirsi
apriva
aprono
apskritis
apskritisdisposizioni
apud
aq
aqua
aquila
aquiladisposizioni
aquile
aquileia
aquino
aquisgrana
aquitaine
aquitania
aquitaniadisposizioni
ar
ara
arab
araba
arabe
arabi
arabia
arabo
arago
aragona
aragonese
aragonesi
araldica
araldico
araldo
aranci
arancia
arancio
arancione
araneae
araneidae
araneus
aratro
arazzi
arbe
arbitrale
arbitrato
arbitri
arbitrio
arbitro
arbor
arbore
arborea
arbusti
arc
arca
arcade
arcadi
arcadia
arcaica
arcaico
arcana
arcangeli
arcangelo
arcata
arcate
arch
archaeological
archaeology
arche
archeologi
archeologia
archeologica
archeologiche
archeologici
archeologico
archeologo
archer
archetti
archi
archibald
archie
archimede
architecture
architetti
architetto
architettonica
architettoniche
architettonici
architettonico
architettori
architettura
architetture
architrave
archiv
archive
archived
archives
archivi
archiviata
archiviato
archiviazione
archivio
archiviolastampa
archiviostorico
archivista
archivistiche
arcidiocesi
arciduca
arciere
arcieri
arcipelago
arciprete
arcivescovi
arcivescovile
arcivescovo
arco
arcobaleno
arctic
arda
arde
ardenne
ardente
ardenti
ardire
ardita
arditi
ardito
ardore
arduino
are
area
areale
areas
aree
arena
arenaria
ares
aretino
arezzo
arezzodisposizioni
arg
argenti
argentina
argentine
argentini
argentino
argento
argilla
argine
argini
argo
argomentazioni
argomenti
argomento
ari
aria
ariana
arianna
ariano
arias
aride
arido
arie
ariel
ariete
ariosto
aristide
aristocratica
aristocratici
aristocratico
aristocrazia
aristofane
aristotele
aristotile
aritmetica
arizona
ark
arkansas
arkham
arlecchino
arles
arlington
arm
arma
armada
armadio
armamenti
armamento
armand
armando
armata
armate
armati
armato
armatura
armature
arme
armed
armena
armeni
armenia
armeno
armi
armin
armistizio
armonia
armonica
armonico
armonie
arms
armstrong
army
arn
arnaldo
arnaud
arne
arno
arnold
arnoldo
arnolfo
aron
around
arpa
arrabbia
arrabbiato
arrampicata
arrangiamenti
arrangiamento
arrangiatore
array
arredamento
arredi
arredo
arrende
arrendersi
arrese
arresta
arrestare
arrestata
arrestati
arrestato
arresti
arresto
arricchire
arricchita
arricchito
arrigo
arriva
arrivando
arrivano
arrivare
arrivarono
arrivata
arrivate
arrivati
arrivato
arrivava
arrivavano
arrivera
arrivi
arrivo
arrogante
arroganza
arrondissement
arrosto
arrotondata
arrow
arruolato
arruolo
ars
arse
arsenal
arsenale
arsizio
art
arte
artefice
artefici
artemide
artemisia
arteria
arterie
artes
arthur
arti
article
articles
artico
articola
articolata
articolato
articolazione
articolazioni
articoli
articolo
artificiale
artificiali
artificio
artigianale
artigianali
artigianato
artigiani
artigiano
artigli
artiglieria
artiglierie
artillery
artist
artista
artiste
artisti
artistica
artistiche
artistici
artistico
artists
arto
artois
arts
artt
artu
artur
arturo
artusi
arxiv
as
asa
asahi
asburgo
ascanio
ascendente
ascendenti
ascensione
ascensore
ascensori
ascesa
ascia
ascii
asciutto
ascoli
ascolta
ascoltando
ascoltare
ascoltato
ascoltatori
ascoltava
ascolti
ascolto
asd
asfalto
ash
asher
ashes
ashley
ashton
asi
asia
asiago
asian
asiatica
asiatiche
asiatici
asiatico
asilo
asimov
asini
asino
ask
asma
asn
asociacio
asp
aspects
aspetta
aspettando
aspettano
aspettare
aspettativa
aspettative
aspettato
aspettava
aspettavano
aspetti
aspetto
aspirante
aspiranti
aspirazione
aspirazioni
aspra
aspramente
aspre
aspri
aspro
aspx
ass
assai
assale
assalito
assalti
assalto
assassin
assassina
assassinare
assassinato
assassini
assassinio
assassino
assault
asse
assediata
assediati
assedio
assegna
assegnare
assegnata
assegnate
assegnati
assegnato
assegnazione
assegno
assemblaggio
assemblea
assemblee
assembly
assenso
assente
assenti
assenza
asserisce
assessment
assessorato
assessore
assetto
assi
assia
assiadisposizioni
assicura
assicurare
assicurarsi
assicurata
assicurato
assicurazione
assicurazioni
assicuro
assieme
assimilazione
assise
assisi
assist
assiste
assistente
assistenti
assistenza
assistere
assistette
assistita
assistito
asso
associa
associac
associata
associate
associated
associati
association
associato
associazione
associazioni
assolo
assolto
assoluta
assolutamente
assoluti
assoluto
assoluzione
assomiglia
assommava
assommavano
assorbe
assorbimento
assorbire
assorbita
assorbito
assume
assumendo
assumere
assumono
assunse
assunsero
assunta
assunti
assunto
assunzione
assurdo
asta
astana
aste
asteraceae
asterix
asteroide
asteroidi
asti
astidisposizioni
aston
astor
astra
astratta
astratto
astrazione
astri
astrid
astro
astrologia
astrologo
astronauta
astronauti
astronave
astronomi
astronomia
astronomica
astronomical
astronomico
astronomo
astronomy
astrophysical
astrophysics
asturie
astuto
astuzia
asuka
asuncio
asylum
at
ata
atalanta
atanasio
atari
ateismo
atelier
atena
atene
ateneo
ateniese
ateniesi
ateo
athens
athletic
athletics
atkins
atkinson
atlanta
atlante
atlantic
atlantica
atlantico
atlantide
atlantis
atlas
atle
atleta
atlete
atleti
atletica
atletico
atm
atmosfera
atmosfere
atmosferica
atmosferici
atmosferico
atollo
atom
atomi
atomic
atomica
atomico
atomo
atp
atptour
atpworldtour
atque
atri
atrio
atroce
atrocita
atta
attacca
attaccamento
attaccando
attaccano
attaccante
attaccanti
attaccare
attaccarono
attaccata
attaccate
attaccati
attaccato
attacchi
attacco
attack
atte
atteggiamenti
atteggiamento
attende
attendere
attendeva
attenta
attentamente
attentati
attentato
attenti
attento
attenzione
attenzioni
atterraggio
atterrare
attesa
attese
atteso
attesta
attestano
attestata
attestato
attestazione
atti
attica
attico
attiguo
attila
attilio
attimo
attira
attirare
attirato
attiro
attitudine
attitudini
attiva
attivamente
attivare
attivata
attivato
attivazione
attive
attivi
attivista
attivisti
attivita
attivo
atto
attore
attori
attorno
attraente
attrarre
attratta
attratto
attraversa
attraversamento
attraversando
attraversano
attraversare
attraversarono
attraversata
attraversato
attraversava
attraverso
attrazione
attrazioni
attrezzato
attrezzatura
attrezzature
attrezzi
attrezzo
attribui
attribuire
attribuisce
attribuiscono
attribuita
attribuite
attribuiti
attribuito
attributi
attributo
attribuzione
attribuzioni
attrice
attrici
attrito
attuale
attuali
attualita
attualmente
attuare
attuata
attuato
attuazione
au
aubrey
auckland
audace
audaci
audacia
audi
audience
audio
audiolibri
audiovisivi
auditel
auditorium
audizione
audizioni
audrey
auf
aug
auge
auguri
augurio
august
augusta
auguste
augusti
augustin
augusto
augustus
aula
aule
aulo
aumenta
aumentando
aumentano
aumentare
aumentarono
aumentata
aumentato
aumenti
aumento
aura
aure
aurea
aurelia
aureliano
aurelio
aureo
aurora
aus
auschwitz
ausiliare
ausiliari
ausiliarie
ausiliario
ausilio
austin
australe
australia
australiadisposizioni
australian
australiana
australiane
australiani
australiano
austria
austriaca
austriache
austriaci
austriaco
austriadisposizioni
austrian
austriancharts
austro
aut
autem
autentica
autentici
autenticita
autentico
author
authority
autista
auto
autobiografia
autobiografico
autobus
autodidatta
autografo
autolinee
automatica
automaticamente
automatici
automatico
automobile
automobili
automobilistica
automobilistiche
automobilistico
automotrici
autonoma
autonomamente
autonome
autonomi
autonomia
autonomie
autonomo
autopsia
autor
autore
autorevole
autorevoli
autori
autorita
autoritratto
autorizzata
autorizzati
autorizzato
autorizzazione
autorizzo
autostrada
autostradale
autostrade
autovettura
autovetture
autre
autres
autrice
autumn
autunnale
autunno
auvergne
aux
auxerre
av
ava
available
avalon
avalos
avambraccio
avamposto
avana
avanguardia
avant
avanti
avanza
avanzamento
avanzando
avanzano
avanzare
avanzarono
avanzata
avanzate
avanzati
avanzato
avanzava
avanzi
avanzo
avari
avarizia
avaro
avatar
ave
avea
avean
aveano
avec
avellino
avellinodisposizioni
avena
avendo
avengers
avente
aventi
avenue
aver
avere
avergli
averla
averle
averli
averlo
averne
aversa
avery
avesse
avessero
avessi
avete
aveva
avevamo
avevan
avevano
avevi
avevo
avezzano
avg
avi
aviation
aviatore
aviazione
avibase
avidita
avignone
avila
aviv
avn
avogadro
avon
avorio
avra
avrai
avranno
avrebbe
avrebbero
avrei
avremmo
avremo
avresti
avrete
avril
avro
avuta
avute
avuti
avuto
avv
avvale
avvalendosi
avvelenamento
avvelenato
avvenga
avvengono
avvenimenti
avvenimento
avvenire
avveniva
avvenne
avvennero
avvento
avventura
avventure
avventurieri
avventuriero
avvenuta
avvenute
avvenuti
avvenuto
avverra
avversa
avversari
avversaria
avversarie
avversario
avverse
avversione
avversita
avverso
avverte
avvertenze
avverti
avvertimento
avvertire
avvertito
avvia
avviamento
avviare
avviata
avviati
avviato
avvicina
avvicinamento
avvicinandosi
avvicinano
avvicinare
avvicinarsi
avvicinato
avvicinava
avvicino
avviene
avvio
avvisa
avvisi
avviso
avvistamento
avvocati
avvocato
avvolge
avvolta
avvolto
aw
award
awards
away
ax
axe
axel
ay
aya
ayala
az
azeglio
azerbaigian
azerbaijan
azero
azienda
aziendale
aziendali
aziende
azione
azioni
azionista
azionisti
aziz
azoto
azur
azzardo
azzurra
azzurradisposizioni
azzurre
azzurri
azzurro
b
ba
bab
baba
babbo
babe
babilonese
babilonia
baby
babylon
bac
bacche
bacchetta
bacco
bach
bachelor
baci
bacia
baciare
bacini
bacino
bacio
back
background
backstage
bacon
bad
bada
badare
baden
badessa
badia
badminton
badoglio
badtaste
bae
baffi
bafta
bag
bagagli
bagaglio
baggio
baghdad
baglioni
bagna
bagnata
bagnato
bagni
bagno
bagnoli
baha
bahamas
bahia
bahn
bahrein
bai
baia
bailey
bailly
bain
bains
baionetta
baker
baku
bal
bala
balance
balaustra
balbi
balbo
balcani
balcanica
balcone
balconi
baldassarre
baldi
baldini
baldo
baldovino
baldwin
balena
balene
balestra
bali
balia
ball
balla
ballad
ballando
ballard
ballare
ballata
ballate
ballerina
ballerini
ballerino
ballet
balletti
balletto
balli
ballo
ballottaggio
balneare
balsamo
baltic
baltici
baltico
baltimora
baltimore
baluardo
balzo
bam
bambina
bambine
bambini
bambino
bambola
bambole
bambu
ban
banale
banana
banca
bancaria
bancario
bancarotta
banche
banchetto
banchi
banchiere
banchieri
banchina
banchine
banco
banconote
band
banda
bandcamp
bande
bandello
bandi
bandiera
bandiere
bandini
banditi
bandito
bando
bang
bangkok
bangladesh
banjo
bank
banks
banner
baptist
baptiste
bar
bara
baracca
barack
barba
barbara
barbari
barbariche
barbarie
barbaro
barbarossa
barbe
barber
barbera
barberini
barbie
barbiere
barbieri
barca
barcellona
barcelona
barche
bardi
bare
baretti
bari
baridisposizioni
barile
barili
barista
baritono
barker
barletta
barlow
barnaba
barnard
barnes
barnett
barney
barocca
barocche
barocchi
barocco
baron
barone
baronessa
baronetto
baroni
baronia
barr
barra
barre
barrett
barriera
barriere
barrow
barry
bart
barthe
bartlett
bartoli
bartolini
bartolo
bartolomeo
barton
bas
basa
basale
basali
basamento
basandosi
basano
basata
basate
basati
basato
basava
baschi
basco
base
baseball
based
basi
basic
basil
basile
basilea
basilica
basilicata
basilicatadisposizioni
basiliche
basilio
basin
basket
basketball
bass
bassa
bassano
basse
bassi
bassidisposizioni
bassista
basso
bassorilievi
bassorilievo
basta
bastano
bastardo
bastava
bastera
basti
bastia
bastien
bastione
bastioni
basto
bastogne
bastone
bastoni
bat
bates
bath
batista
batman
battaglia
battaglie
battaglione
battaglioni
battalion
batte
battelli
battello
battendo
battenti
battere
batteri
batteria
batterie
batterio
batterista
battesimale
battesimo
batteva
battezzata
battezzati
battezzato
battiato
battista
battistero
battisti
battito
battle
battles
battono
battuta
battute
battuti
battuto
baudelaire
bauer
bautista
bava
bavarese
baviera
bavieradisposizioni
baxter
bay
bayer
bayern
bazar
bb
bbc
bc
bd
bdfutbol
be
bea
beach
bean
bear
bears
beast
beat
beata
beati
beatificazione
beatitudine
beatles
beato
beatrice
beats
beau
beaufort
beaumont
beautiful
beauty
beaux
beaver
bebe
bec
because
beccaria
becco
beck
becker
beckett
becky
become
becomes
bed
bedford
bee
been
beer
beethoven
beffa
before
begin
beginning
begins
begli
beh
behavior
behind
bei
beic
beijing
bein
being
beirut
beitra
bel
bela
bele
belfast
belga
belgi
belgio
belgiodisposizioni
belgique
belgrado
belgradodisposizioni
believe
belinda
belisario
belize
bell
bella
bellamy
belle
belles
bellezza
bellezze
belli
bellica
belliche
bellici
bellico
bellini
bellinzona
bellinzonadisposizioni
bellisonetti
bellissima
bellissime
bellissimi
bellissimo
bello
belloni
bells
belluno
bellunodisposizioni
belmonte
belo
belt
belta
beltrami
belva
belve
belvedere
bembo
bemolle
ben
benche
bender
bene
benedetta
benedetti
benedettina
benedettini
benedettino
benedetto
benedict
benedizione
benefattore
benefica
beneficenza
benefici
beneficio
benefico
benelli
benessere
benestante
benetton
benevento
beneventodisposizioni
benevolenza
benfica
bengala
bengals
beni
beniamino
beniculturali
benigni
benigno
benin
benissimo
benito
benjamin
bennet
bennett
benny
benoi
benoit
bensi
benson
benth
bentivoglio
bentley
benton
benvenuti
benvenuto
benz
benzina
beppe
ber
berardi
bere
berengario
berenice
beretta
berg
bergamasca
bergamaschi
bergamasco
bergamo
bergamodisposizioni
bergen
berger
bergman
berkeley
berlin
berlina
berliner
berlinguer
berlino
berlinodisposizioni
berlusconi
bermuda
bern
berna
bernadette
bernard
bernardi
bernardini
bernardino
bernardo
bernd
bernerio
bernhard
berni
bernie
bernini
bernstein
berretto
berry
bersagli
bersaglieri
bersaglio
bersani
bert
berta
berti
bertini
berto
bertoldo
bertolucci
bertone
bertram
bertrand
bes
best
bestia
bestiame
bestie
bet
beta
beth
betlemme
bett
better
betti
bettina
betty
between
bevanda
bevande
beve
beverly
bevilacqua
bevuto
beweb
bey
beyonce
beyond
bf
bfi
bg
bhutan
bi
bia
biagi
biagio
bianca
biancaneve
bianche
biancheria
bianchi
bianchini
bianco
bianconeri
bianconero
biancorossi
biasimo
biathlon
biatleta
bibbia
bibcode
bibl
bible
biblica
biblical
biblici
biblico
bibliografia
bibliografica
bibliografico
bibliography
biblioteca
bibliotecario
biblioteche
bibliothe
bibliotheca
bicchiere
bicchieri
bici
bicicletta
biciclette
biden
bie
bieber
biella
bielladisposizioni
biellese
bielorussa
bielorussia
bielorusso
bien
biennale
biennio
big
biggest
biglietteria
biglietti
biglietto
bike
bilanci
bilancia
bilancio
bilbao
bile
bilingue
bill
billboard
billie
bills
billy
bimba
bimbi
bimbo
bin
binari
binaria
binario
bing
bini
binocolo
bio
biochimica
biodiversita
biogeography
biogra
biografia
biografica
biografiche
biografici
biografico
biografie
biografo
biograph
biographical
biographie
biography
biol
biologia
biologica
biological
biologiche
biologici
biologico
biologo
biology
bionda
biondi
biondo
biplano
biposto
bir
bird
birdlife
birds
birmania
birmingham
birra
birth
birthday
bis
bisanzio
biscotti
bishop
bismarck
bisogna
bisognava
bisognera
bisognerebbe
bisogni
bisogno
bisognosi
bit
bitch
bitter
bivacco
bivio
bivona
biz
bizantina
bizantine
bizantini
bizantino
bizzarra
bizzarri
bizzarro
bjo
bl
bla
blabbermouth
black
blackburn
blacks
blackwell
blade
blair
blake
blanc
blanca
blanchard
blanche
blanco
blasi
blast
blaze
blekinge
blekingedisposizioni
blenio
bleniodisposizioni
bleu
blica
blind
bliss
blitz
blocca
bloccare
bloccata
bloccati
bloccato
blocchi
blocco
bloch
block
blog
blogger
blogs
blogspot
blois
blonde
blood
bloody
bloom
bloomberg
bloomsbury
blow
blu
blue
blues
blunt
bmatrix
bmg
bmw
bn
bnf
bo
boa
board
boat
bob
bobbio
bobbista
bobby
bobina
bobine
bobo
boca
bocca
boccaccio
bocche
bocconi
body
boe
boeing
boemia
boemo
bogdan
bogota
bohe
boia
bois
boiss
bol
bold
boli
bolivia
boliviano
bolla
bollati
bolle
bollente
bollettino
bollire
bologna
bolognadisposizioni
bolognese
bolognesi
bolognini
bolscevichi
bolt
bolton
bolzano
bolzanodisposizioni
bomb
bomba
bombardamenti
bombardamento
bombardiere
bombardieri
bombay
bombe
bomber
bompiani
bon
bona
bonaparte
bonaventura
boncompagni
bond
bone
bonelli
bones
boni
bonifacio
bonifacius
bonifica
bonn
bonnie
bono
bonomi
bonta
bonus
boogie
book
booker
books
boom
boomerang
boone
boot
booth
bor
bora
borbone
borboni
borbonica
borbonico
bordeaux
border
bordi
bordo
boreale
borg
borgata
borges
borghese
borghesi
borghesia
borghi
borgia
borgo
borgogna
boringhieri
boris
born
borneo
borough
borromeo
borsa
borse
borsellino
bortoli
borussia
bos
bosch
boschetto
boschi
bosco
bose
bosnia
bosniaco
boss
bossi
boston
bot
botanic
botanica
botanical
botanici
botanico
botany
both
botswana
botta
bottas
botte
bottega
botteghe
botteghino
botti
bottiglia
bottiglie
bottino
botto
bottom
bottone
bottoni
boulder
boulevard
boulogne
bound
bourbon
bourgogne
bourne
bovini
bow
bowen
bowie
bowl
bowling
bowman
box
boxe
boxer
boxing
boxrec
boy
boyd
boyer
boyle
boys
boyz
boz
bozza
bozzetti
bozzetto
bozzolo
bp
bpi
br
bra
brabante
brabham
bracci
braccia
braccio
bracciolini
brace
brad
bradford
bradley
brady
braga
braganza
brahms
brain
bram
brama
bramante
brambilla
branca
branch
branche
branco
brand
brandeburgo
brandeburgodisposizioni
brandenburg
brandi
brando
brandon
brandt
brani
brann
brano
bras
brasil
brasile
brasileira
brasileiro
brasiliana
brasiliani
brasiliano
brasov
brasovdisposizioni
brass
bratislava
brattee
braun
braunschweig
brava
brave
bravi
bravo
bravura
bray
brazil
bre
break
breakfast
breaking
breaks
breath
breccia
brecht
breda
bree
brema
brenda
brendan
brennan
brennero
brent
brenta
brera
brescia
bresciadisposizioni
bresciana
bresciani
bresciano
breslavia
bressanone
brest
bretagna
bretagne
breton
bretone
brett
breve
brevemente
brevetti
brevetto
brevi
brevissimo
brevita
brian
brianza
brianzadisposizioni
brick
bride
bridge
bridges
bridget
brie
brief
brien
briga
brigade
brigadiere
brigantaggio
brigante
briganti
brigata
brigate
briggs
brighella
bright
brighton
brigida
brigitte
brill
brillante
brillanti
brindisi
brindisidisposizioni
bring
brinkster
brisbane
bristol
bristoldisposizioni
brit
britain
britannia
britannica
britanniche
britannici
britannico
british
britney
brittany
britten
brividi
brivido
brizzi
brno
broadcast
broadcasting
broadway
brock
brodo
brody
broken
broncho
broncos
bronx
bronze
bronzi
bronzo
brook
brooke
brooklyn
brooks
bros
brother
brothers
brown
browne
browning
browns
browser
bru
bruce
brucia
bruciare
bruciata
bruciato
bruges
bruna
brune
brunei
brunetto
bruni
bruno
brunswick
bruscamente
brusco
brutale
brutalmente
bruto
brutta
brutte
brutti
brutto
bruxelles
bryan
bryant
bryce
bs
bt
bts
bu
buc
buca
bucarest
bucca
buccaneers
buchanan
buche
buchi
buck
buckingham
buckley
bucks
buco
bud
budapest
budapestdisposizioni
buddha
buddhismo
buddhista
buddista
buddy
budget
bue
buenos
bufera
buffa
buffalo
buffon
buffy
bug
bugatti
bugia
bugiardo
bugie
bugs
buia
build
building
built
buio
bulbo
bulbophyllum
bulgara
bulgari
bulgaria
bulgaro
bull
bullet
bulletin
bullock
bulls
bum
bun
bundesliga
bundesverband
bunker
bunny
buoi
buon
buona
buonarroti
buone
buongiorno
buoni
buono
bur
bureau
burgess
burgos
burke
burkina
burla
burn
burnett
burning
burns
burocrazia
burrasca
burro
burt
burton
burundi
bury
bus
bush
business
bussola
busta
buster
busti
busto
but
butch
butler
butt
butta
butterflies
butterfly
button
buy
buzz
bv
bwv
by
bye
byrd
byrne
byron
byte
byzantine
bz
c
ca
cabala
cabaret
cabina
cabine
cabinet
cable
cabrera
cabriolet
cacao
caccia
cacciare
cacciata
cacciati
cacciato
cacciatore
cacciatori
cacciatorpediniere
caccio
cache
cactus
cada
cadavere
cadaveri
cadde
caddero
cade
cadendo
cadenza
cader
cadere
cadetta
cadetti
cadetto
cadeva
cadice
cadillac
cadono
cadore
cadorna
caduta
cadute
caduti
caduto
caen
caesar
caetani
caf
cafe
caffe
cage
cagematch
cagion
cagione
cagioni
cagliari
cagliaridisposizioni
cai
cain
caino
caio
cairo
cal
cala
calabrese
calabresi
calabria
calabriadisposizioni
calabro
calais
calamita
calandra
calare
calcare
calcarea
calcareo
calce
calcestruzzo
calci
calciatore
calciatori
calciatrice
calcio
calciomercato
calcistica
calcistiche
calcistico
calco
calcola
calcolare
calcolata
calcolato
calcolatore
calcoli
calcolo
calcutta
calda
caldaia
caldaie
calde
caldi
caldo
caldwell
cale
caleb
caledonia
calendar
calendario
calgary
cali
calibro
calice
califfato
califfo
california
caligola
call
calle
called
calling
callisto
calls
calma
calmo
calo
calogero
calore
caltagirone
caltanissetta
caltanissettadisposizioni
calvario
calvi
calvin
calvino
calvo
calze
calzettoni
cam
cambi
cambia
cambiamenti
cambiamento
cambiando
cambiano
cambiare
cambiarono
cambiata
cambiati
cambiato
cambiera
cambio
cambogia
cambrai
cambridge
camden
came
cameo
camera
camerata
camere
cameriera
cameriere
camerini
camerino
cameron
camerun
camerunese
camicia
camicie
camila
camilla
camille
camilleri
camillo
camino
camion
camme
cammina
camminando
camminare
camminava
cammino
camonica
camorra
camp
campagna
campagnadisposizioni
campagne
campaign
campale
campana
campanaria
campane
campanella
campani
campania
campaniadisposizioni
campanile
campanili
campano
campanula
campata
campate
campbell
campeggio
campeonato
campestre
campi
campidoglio
campionamento
campionati
campionato
campione
campionessa
campionesse
campioni
campo
campobasso
campobassodisposizioni
campos
campus
camus
can
canada
canadese
canadesi
canadian
canaglia
canal
canale
canali
canapa
canarie
canavese
canberra
cancellare
cancellata
cancellati
cancellato
cancellazione
cancelleria
cancelli
cancelliere
cancello
cancer
cancro
candela
candele
candia
candida
candidarsi
candidata
candidate
candidati
candidato
candidatura
candidature
candido
candy
cane
cani
canis
canna
cannabis
canne
cannella
cannes
cannon
cannone
cannoni
cannoniere
cano
canoa
canoe
canoista
canon
canone
canoni
canonica
canonici
canonico
canonizzazione
canossa
canottaggio
canottiere
canova
canta
cantando
cantano
cantante
cantanti
cantar
cantare
cantata
cantate
cantato
cantautore
cantautrice
cantava
canterbury
canti
cantico
cantiere
cantieri
cantina
cantine
canto
canton
cantone
cantoni
cantons
cantore
cantori
cantoria
cantu
canyon
canzone
canzoni
canzoniere
cao
caos
cap
capace
capaci
capacita
capanna
capanne
capcom
cape
capella
capelli
capello
capi
capienza
capire
capisce
capisci
capisco
capiscono
capita
capital
capitale
capitaledisposizioni
capitali
capitalismo
capitan
capitanata
capitani
capitano
capitato
capite
capitelli
capitello
capito
capitol
capitolare
capitolazione
capitoli
capitolina
capitolo
capiva
capo
capocannoniere
capodanno
capodimonte
capodistria
capogruppo
capolavori
capolavoro
capolinea
capolini
capolino
capolista
capoluogo
capone
caporale
caporetto
capostipite
cappa
cappadocia
cappella
cappellano
cappelle
cappelletti
cappelli
cappello
capponi
cappotto
cappuccini
cappuccio
capra
capre
capri
capricci
capriccio
caproni
capsula
capsule
captain
capua
capuano
caput
caputo
car
cara
carabina
carabiniere
carabinieri
caracalla
caracas
caracciolo
carafa
caraibi
carattere
caratteri
caratteristica
caratteristiche
caratteristici
caratteristico
caratterizza
caratterizzano
caratterizzata
caratterizzate
caratterizzati
caratterizzato
caratterizzazione
caravaggio
carboidrati
carbon
carbonato
carbone
carboni
carbonica
carbonio
carburante
carburatore
carcano
carcere
carceri
carcinoma
card
cardi
cardiaca
cardiaco
cardiff
cardinal
cardinale
cardinali
cardinalizio
cardinals
cardine
cardini
cardo
cardona
carducci
care
career
carena
carenza
carenze
carestia
carey
carezze
cargo
cari
caribbean
carica
caricamento
caricare
caricato
caricatore
caricatura
cariche
carichi
carico
carignano
carina
carini
carinzia
carioca
carisma
carissimo
carita
carl
carla
carli
carlino
carlisle
carlo
carlos
carlotta
carlson
carlton
carly
carme
carmela
carmelitani
carmelo
carmen
carmina
carmine
carne
carnegie
carnevale
carni
carnival
carnivori
caro
carocci
carol
carole
carolina
caroline
carolyn
carosello
carovana
carpazi
carpegna
carpelli
carpenter
carpi
carr
carra
carracci
carrara
carraradisposizioni
carre
carreggiata
carrelli
carrello
carrera
carretto
carri
carrie
carrier
carriera
carriere
carro
carroll
carrozza
carrozze
carrozzeria
cars
carso
carson
carta
cartacea
cartagena
cartagine
cartaginese
cartaginesi
carte
carteggio
cartella
cartelli
cartellino
cartello
carter
cartesio
cartografia
cartografo
cartolina
cartoline
cartone
cartoni
cartoon
cartucce
cartuccia
cartulaire
caruso
carvalho
cary
cas
casa
casablanca
casacca
casagrande
casal
casale
casali
casalinga
casalinghe
casalingo
casanova
casata
casati
casato
cascata
cascate
casciano
cascina
cascine
casco
case
casella
caselle
caselli
casello
caserma
caserta
casertadisposizioni
cases
casetta
casey
cash
casi
casimiro
casini
casino
caso
caspar
casper
caspio
cass
cassa
cassandra
cassano
cassazione
casse
cassetta
cassette
cassiano
cassidy
cassie
cassini
cassino
cassio
cast
casta
castagna
castagne
castagno
caste
castel
castelfranco
castella
castellammare
castellana
castellani
castellano
castelletto
castelli
castello
castelnuovo
castelvecchio
castiglia
castiglione
castiglioni
castigo
castilla
castillo
casting
castita
castle
castoldi
castoro
castro
castrum
casuale
casuali
casualmente
cat
catacombe
catalana
catalani
catalano
cataldo
catalina
catalizza
catalizzatore
catalog
catalogazione
cataloghi
catalogna
catalognadisposizioni
catalogo
catalogue
catalun
catalunya
catanese
catania
cataniadisposizioni
catanzaro
catanzarodisposizioni
catarina
catasto
catastrofe
catch
cate
catechismo
categoria
categorie
catena
catene
caterina
cathedral
catherine
catholic
catholica
catholicae
cathy
catino
cato
catone
cats
cattaneo
cattedra
cattedrale
cattedrali
cattiva
cattive
cattivi
cattivita
cattivo
cattolica
cattolicesimo
cattoliche
cattolici
cattolico
cattura
catturare
catturata
catturate
catturati
catturato
catturo
catullo
caucaso
caudale
causa
causando
causano
causare
causarono
causata
causate
causati
causato
cause
causo
cautela
cav
cava
cavalcanti
cavalcare
cavalier
cavaliere
cavalieri
cavalleresco
cavalleria
cavalli
cavallo
cave
cavendish
caverna
caverne
cavi
caviglia
cavita
cavo
cavolo
cavour
cazzo
cb
cbc
cbs
cc
cd
cda
cdc
cdot
cdots
cdp
ce
ceca
cecadisposizioni
cecchi
cecchini
cecchino
cecco
cechi
ceci
cecil
cecilia
cecina
cecita
ceco
cecoslovacca
cecoslovacchia
cecoslovacco
cede
cedendo
cedere
cedette
cedimento
cedric
cedro
ceduta
ceduti
ceduto
cee
cei
cel
cela
celano
celebra
celebrare
celebrata
celebrate
celebrati
celebration
celebrato
celebrazione
celebrazioni
celebre
celebri
celebrita
celebrity
celebro
celentano
celeste
celesti
celestino
celia
celio
cell
cella
celle
cellini
cells
cellula
cellulare
cellulari
cellule
celso
celti
celtic
celtica
celtico
celtics
cemento
cemetery
cena
cenci
cenere
cenerentola
ceneri
cenni
cenno
censimento
censiti
censo
censura
census
censusindia
cent
centaurea
centauri
centauro
centenario
center
centesimi
centesimo
centimetri
centinaia
centinaio
cento
centomila
central
centrale
centrali
centrato
centravanti
centre
centri
centro
centrocampista
centrocampo
centrodestra
centrodisposizioni
centrosinistra
centuries
centurione
century
ceo
ceppi
ceppo
cera
ceramica
ceramiche
cerca
cercando
cercano
cercar
cercare
cercarono
cercate
cercato
cercava
cercavano
cerchera
cerchi
cerchia
cerchiamo
cerchio
cerco
cereali
cerebrale
cerebrali
cerere
ceres
cerimonia
cerimoniale
cerimonie
cerreto
cerro
certa
certain
certamente
certe
certezza
certi
certificati
certifications
certificato
certificazione
certified
certo
certosa
cervantes
cervello
cervi
cervia
cervo
ces
cesare
cesarea
cesareo
cesari
cesarini
cesario
cesena
cesenadisposizioni
cespugli
cessa
cessare
cessarono
cessata
cessate
cessato
cessazione
cessione
cesso
cestista
cestistica
ceti
ceto
cetra
cette
cev
ceva
cf
cfr
cg
cgd
cgi
cgil
ch
cha
chabad
chad
chain
challenge
challenger
chamber
chamberlain
chamberlin
chambers
champ
champagne
champion
champions
championship
championships
champs
chan
chance
chandler
chanel
chang
change
changed
changes
changing
channel
chanson
chant
chao
chaos
chapel
chapelle
chaplin
chapman
chapter
char
character
characters
charge
chargers
charity
charles
charleston
charley
charlie
charlot
charlotte
charlton
chart
charter
chartes
chartres
charts
chase
chat
che
check
checklist
chef
chel
chelsea
chem
chemical
chemistry
chen
cheney
cheng
cher
cherokee
cherry
cherubini
cheryl
chess
chessgames
chester
chet
chevalier
chevrolet
cheyenne
chez
chi
chia
chiacchiere
chiama
chiamando
chiamano
chiamare
chiamarlo
chiamarono
chiamarsi
chiamata
chiamate
chiamati
chiamato
chiamava
chiamavano
chiami
chiamiamo
chiamo
chiang
chianti
chiara
chiaramente
chiaravalle
chiare
chiarezza
chiari
chiarimento
chiarire
chiarito
chiaro
chiasso
chiavari
chiave
chiavi
chiba
chicago
chicken
chico
chiede
chiedendo
chiedendogli
chiedere
chiedergli
chiedeva
chiedevano
chiedo
chiedono
chief
chiefs
chierici
chierico
chiesa
chiesacattolica
chiese
chiesero
chiesetta
chiesi
chiesto
chieti
chietidisposizioni
chievo
chigi
child
children
chile
chili
chilogrammi
chilometri
chilometro
chimica
chimiche
chimici
chimico
chin
china
chinese
ching
chino
chio
chiodi
chiodo
chioggia
chioma
chiome
chiostro
chip
chirurgia
chirurgica
chirurgico
chirurgo
chisciotte
chissa
chitarra
chitarre
chitarrista
chiude
chiudendo
chiudere
chiudono
chiunque
chiusa
chiuse
chiusi
chiuso
chiusura
chloe
cho
chocolate
choi
choice
choir
chopin
chorus
chre
chrestomathie
chris
christ
christensen
christi
christian
christiana
christianity
christie
christina
christine
christmas
christo
christoph
christophe
christopher
christy
chronica
chronicle
chronicles
chronicon
chronique
chroniques
chronology
chrysler
chu
chuck
chun
chung
church
churchill
ci
cia
ciad
ciak
ciampi
ciano
ciao
ciascun
ciascuna
ciascuno
cibi
cibo
cic
cicceide
ciccio
cicerone
ciclabile
cicli
ciclismo
ciclista
ciclisti
ciclistica
ciclo
ciclone
cicogna
cid
cie
cieca
ciechi
cieco
ciel
cieli
cielo
cifra
cifre
ciglia
ciglio
cigni
cigno
cil
cile
cilena
cileno
cilento
cilicia
cilindrata
cilindri
cilindrica
cilindrico
cilindro
cima
cime
cimento
cimiteri
cimitero
cin
cina
cincinnati
cinderella
cindy
cine
cinecitta
cinedatabase
cinema
cinematografia
cinematografica
cinematografiche
cinematografici
cinematografico
cinematografo
cinese
cinesi
cinetica
cinghiale
cinico
cinisello
cino
cinquant
cinquanta
cinquantina
cinque
cinquecentesca
cinquecentesco
cinquecento
cinta
cinto
cintura
cinture
cinzia
cio
cioccolato
cioe
ciononostante
ciottoli
cipolla
cipolle
cipriani
cipriano
cipriota
ciprioti
cipro
ciprodisposizioni
circ
circa
circe
circle
circo
circolare
circolari
circolazione
circoli
circolo
circonda
circondano
circondari
circondario
circondata
circondati
circondato
circonferenza
circonvallazione
circoscrizione
circoscrizioni
circostante
circostanti
circostanza
circostanze
circuit
circuiti
circuito
circumpolare
circus
ciriaco
cirillico
cirillo
ciro
cis
cisalpina
cisco
cistercense
cisterna
cit
cita
citando
citano
citare
citata
citate
citati
citato
citazione
citazioni
cite
cities
citizen
cito
citroe
citta
cittadella
cittadina
cittadinanza
cittadine
cittadini
cittadino
city
citypopulation
ciudad
ciuffo
ciurma
civ
civetta
civica
civici
civico
cividale
civil
civile
civili
civilization
civilta
civita
civitas
civitavecchia
civitella
cj
ck
cke
cken
cl
cla
clade
cladonia
claims
clair
claire
clamoroso
clan
clancy
clandestina
clandestino
clapton
clara
clare
clarence
clarendon
clarice
clarinetto
clarisse
clark
clarke
clarkson
clash
class
classe
classi
classic
classica
classical
classiche
classici
classicismo
classico
classics
classifica
classificandosi
classificare
classificata
classificate
classificati
classification
classificato
classificazione
classifiche
classifico
claude
claudia
claudio
claus
clausola
clausole
clausura
clavicembalo
clay
clayton
cle
clean
clear
clelia
clemens
clement
clemente
clements
clemenza
cleopatra
clerici
clermont
clero
cles
cleveland
clic
cliccare
click
client
cliente
clientela
clienti
cliff
clifford
clifton
clima
climate
climatica
climatiche
climatici
climatico
climax
climi
clin
clinica
clinical
cliniche
clinici
clinico
clint
clinton
clio
clip
clive
clock
clone
cloni
cloro
cloruro
close
closer
cloud
clown
club
clube
cluj
cluny
cluster
clyde
cm
cn
cnn
cnr
co
coa
coach
coadiutore
coadiuvato
coalizione
coast
coautore
cobb
cobra
coburgo
coca
cocaina
cocco
coccodrilli
coccodrillo
cochrane
cocktail
coco
cod
coda
code
codes
codesto
codex
codice
codici
codifica
cody
coe
coefficiente
coefficienti
coen
coerente
coerenza
coesione
cofanetto
cofano
coffee
cofondatore
cogli
coglie
cogliere
cognata
cognato
cognitive
cognizione
cognizioni
cognome
cognomi
cohen
coi
coimbra
coincide
coincidenza
coincidere
coincidono
coinvolge
coinvolgendo
coinvolgere
coinvolgimento
coinvolgono
coinvolse
coinvolta
coinvolte
coinvolti
coinvolto
col
cola
colazione
colbert
cold
coldplay
cole
colei
coleman
colera
coletti
coli
colin
coll
colla
collabora
collaborando
collaborano
collaborare
collaboration
collaborato
collaboratore
collaboratori
collaborazione
collaborazioni
collaboro
collana
collane
collare
collasso
collaterale
collaterali
collaudatore
collaudo
colle
collected
collection
collections
collector
collega
collegamenti
collegamento
collegano
collegare
collegata
collegate
collegati
collegato
collegava
college
colleghi
collegi
collegiata
collegio
collera
collettiva
collettive
collettivi
collettivita
collettivo
colletto
colleziona
collezionando
collezionato
collezione
collezioni
collezionista
collezionisti
colli
collier
collina
collinare
collinari
colline
collins
collisione
collo
colloca
collocano
collocare
collocata
collocate
collocati
collocato
collocazione
colloqui
colloquio
colmare
colmo
colo
colomba
colombano
colombia
colombiana
colombiano
colombina
colombo
colon
coloni
colonia
colonial
coloniale
coloniali
colonialismo
colonie
colonizzazione
colonna
colonnato
colonne
colonnello
colonnine
color
colorado
colorata
colorate
colorati
colorato
colorazione
colore
colori
colorito
coloro
colossale
colosseo
colosso
colour
colpa
colpe
colpendo
colpevole
colpevolezza
colpevoli
colpi
colpire
colpirono
colpisce
colpiscono
colpita
colpite
colpiti
colpito
colpo
colse
colt
colta
coltelli
coltello
colti
coltivare
coltivata
coltivate
coltivati
coltivato
coltivazione
coltivazioni
colto
coltrane
colts
coltura
colture
colui
columbia
columbus
com
coma
comanda
comandamenti
comandamento
comandante
comandanti
comandare
comandata
comandate
comandati
comandato
comandava
comandi
comando
combat
combatte
combattendo
combattente
combattenti
combattere
combatterono
combatteva
combattimenti
combattimento
combattono
combattuta
combattuto
combina
combinare
combinata
combinati
combinato
combinazione
combinazioni
combined
combustibile
combustibili
combustione
come
comedy
comencini
comes
comet
cometa
comete
comfort
comic
comica
comiche
comici
comico
comics
comincia
cominciando
cominciano
cominciare
cominciarono
cominciata
cominciato
cominciava
cominciavano
comincio
coming
comingsoon
comitati
comitato
comite
comm
comma
command
commander
commando
comme
commedia
commedie
commediografo
commemorare
commemorativa
commemorativo
commemorazione
commendatore
commenta
commentario
commentary
commentato
commentatore
commentatori
commenti
commento
commerce
commerci
commercial
commerciale
commerciali
commercializzata
commercializzato
commercializzazione
commerciante
commercianti
commercio
commessa
commesse
commessi
commesso
commette
commettere
commi
commissari
commissariato
commissario
commission
commissionata
commissionato
commissione
commissioni
commissiono
committee
committente
commodo
commodore
common
commons
commonwealth
commossa
commosso
commozione
commune
communes
communication
communications
community
como
comoda
comodisposizioni
comodita
comodo
comp
compact
compagine
compagini
compagna
compagne
compagni
compagnia
compagnie
compagno
compaiono
companion
company
comparata
comparative
comparativo
comparazione
compare
comparire
comparison
comparsa
comparse
comparso
compartimento
comparto
comparve
comparvero
compassione
compasso
compatibile
compatibili
compatibilita
compatta
compatto
compendio
compensare
compensazione
compenso
compete
competente
competenti
competenza
competenze
competere
competition
competitiva
competitivita
competitivo
competizione
competizioni
compi
compianto
compie
compiendo
compiere
compilation
compilato
compilatore
compilazione
compimento
compiono
compiti
compito
compiuta
compiute
compiuti
compiuto
compleanno
complementare
complementari
complemento
complessa
complesse
complessi
complessita
complessiva
complessivamente
complessive
complessivi
complessivo
complesso
completa
completamente
completamento
completando
completano
completare
completata
completate
completati
completato
complete
completi
completo
complex
complicata
complicato
complicazioni
complice
complici
complicita
complimenti
complotto
compone
componente
componenti
compongono
componimenti
componimento
comporre
comporta
comportamenti
comportamento
comportano
comportare
comportarsi
comportato
comportava
comporto
compose
compositae
composition
composito
compositore
compositori
compositrice
composizione
composizioni
composta
composte
composti
composto
compra
comprare
comprato
comprende
comprendendo
comprendente
comprendenti
comprendere
comprendeva
comprendevano
comprendono
comprensibile
comprensione
comprensivo
comprensorio
compresa
comprese
compresi
compreso
compressa
compressione
compresso
compressore
compro
compromessi
compromesso
compromettere
compton
computer
computing
computo
comte
comtes
comun
comunale
comunali
comune
comunemente
comuni
comunica
comunicare
comunicati
comunicato
comunicazione
comunicazioni
comunico
comunidad
comunione
comunismo
comunista
comunisti
comunita
comunitaria
comunitario
comunque
con
conan
conca
concacaf
concattedrale
concavo
concede
concedere
concentra
concentramento
concentrano
concentrare
concentrarsi
concentrata
concentrate
concentrati
concentrato
concentrazione
concentrazioni
concentro
concepire
concepita
concepito
concept
concerne
concernente
concernenti
concert
concerti
concerto
concessa
concesse
concessi
concessione
concessioni
concesso
concetti
concetto
concettuale
concezione
concezioni
conchiglia
conchiglie
conci
conciliare
conciliazione
concilio
concise
concistoro
concittadini
conclave
conclude
concludendo
concludere
conclusa
conclusasi
concluse
conclusero
conclusi
conclusione
conclusioni
conclusiva
conclusivo
concluso
concomitanza
concordano
concordato
concorde
concordi
concordia
concorrente
concorrenti
concorrenza
concorrere
concorrono
concorsi
concorso
concreta
concrete
concreto
condanna
condannare
condannata
condannati
condannato
condanne
condanno
conde
condita
condivide
condividendo
condividere
condivideva
condividi
condividono
condivisa
condivise
condivisione
condiviso
condizionale
condizionata
condizionato
condizione
condizioni
condominio
condor
condotta
condotte
condotti
condottiero
condotto
conduce
conducendo
conducente
conduceva
conducono
condurre
condusse
condussero
conduttore
conduttori
conduttrice
conduzione
conegliano
confederati
confederazione
conference
conferenza
conferenze
conferi
conferimento
conferire
conferisce
conferita
conferito
conferma
confermando
confermano
confermare
confermata
confermate
confermati
confermato
confermo
confessa
confessare
confessato
confessione
confessioni
confesso
confessore
confezione
confida
confidente
confidenza
configurazione
configurazioni
confina
confinante
confinanti
confinato
confine
confini
confino
confirmed
confirms
confisca
conflict
conflitti
conflitto
confluenza
confluire
confluisce
confonde
confondere
conformazione
conforme
conformemente
conformi
conformita
conforti
conforto
confratelli
confraternita
confraternite
confronta
confrontare
confrontarsi
confronti
confronto
confusa
confuse
confusi
confusione
confuso
congedo
congettura
congiunge
congiunta
congiuntamente
congiunte
congiunti
congiuntivo
congiunto
congiunzione
congiura
congiurati
congo
congregazione
congregazioni
congress
congressi
congresso
coni
coniata
coniate
coniato
conica
conifere
conigli
coniglio
conio
coniugale
coniugata
coniugazione
coniuge
coniugi
conmebol
connazionale
connazionali
connecticut
connection
connell
connessa
connesse
connessi
connessione
connessioni
connesso
connie
connolly
connor
connors
connotazione
cono
conobbe
conosca
conosce
conoscendo
conoscenti
conoscenza
conoscenze
conoscere
conoscete
conosceva
conoscevano
conosci
conosciamo
conosciuta
conosciute
conosciuti
conosciuto
conosco
conoscono
conquest
conquista
conquistando
conquistare
conquistarono
conquistata
conquistate
conquistati
conquistato
conquistatore
conquiste
conquisto
conrad
cons
consacrata
consacrato
consacrazione
consacro
consapevole
consapevolezza
consapevoli
conscio
consecutiva
consecutive
consecutivi
consecutivo
consegna
consegnare
consegnata
consegnate
consegnati
consegnato
consegne
consegno
consegue
conseguendo
conseguente
conseguentemente
conseguenti
conseguenza
conseguenze
consegui
conseguimento
conseguire
conseguita
conseguiti
conseguito
conseil
consensi
consenso
consente
consentendo
consenti
consentire
consentita
consentito
consentiva
consentono
conserva
conservando
conservano
conservare
conservata
conservate
conservati
conservation
conservativo
conservato
conservatore
conservatori
conservatorio
conservatrice
conservava
conservazione
conservo
considera
considerando
considerano
considerare
considerarsi
considerata
considerate
considerati
considerato
considerava
consideravano
considerazione
considerazioni
considerevole
considerevoli
considerevolmente
consideri
consideriamo
considero
consigli
consiglia
consigliato
consigliere
consiglieri
consiglio
consiste
consistente
consistenti
consistenza
consisteva
consistono
consolare
consolato
consolazione
console
consoli
consolidamento
consolidare
consolidata
consolidato
consolle
consonante
consonanti
consorte
consorti
consorzi
consorzio
conspiracy
consta
constance
constant
constantin
constantine
constatare
constitution
construction
consueta
consueto
consuetudine
consuetudini
consulente
consulenza
consulta
consultabile
consultare
consultato
consultazione
consultazioni
consultivo
consuma
consumare
consumata
consumato
consumatore
consumatori
consumer
consumi
consumo
conta
contabile
contabilita
contact
contadina
contadine
contadini
contadino
contado
contagio
container
contaminazione
contando
contano
contanti
contare
contarini
contatta
contattare
contattato
contatti
contatto
contava
contavano
conte
contea
conteadisposizioni
contee
conteggio
contegno
contemplare
contemplazione
contempo
contemporanea
contemporaneamente
contemporanee
contemporanei
contemporaneo
contemporary
contendenti
contenente
contenenti
contenere
conteneva
contenevano
contengono
contenimento
contenitore
contenitori
content
contenta
contenti
contento
contenuta
contenute
contenuti
contenuto
contesa
contese
conteso
contessa
contest
contestata
contestato
contestazione
contesti
contesto
contestualmente
context
conti
contiene
continental
continentale
continentali
continente
continenti
contingente
contingenti
contini
continua
continuamente
continuando
continuano
continuare
continuarono
continuata
continuato
continuava
continuavano
continuazione
continue
continuera
continui
continuita
continuo
continuum
conto
contorni
contorno
contra
contrabbando
contrabbasso
contract
contrada
contraddistingue
contraddistinto
contraddizione
contraddizioni
contrade
contraenti
contraerea
contrafforti
contralto
contrammiraglio
contrapposizione
contrapposti
contrari
contraria
contrariamente
contrarie
contrario
contrastanti
contrastare
contrasti
contrasto
contrattacco
contratti
contratto
contrattuale
contrazione
contre
contribuendo
contribui
contribuire
contribuirono
contribuisce
contribuiscono
contribuito
contributi
contributo
contro
controfacciata
controffensiva
control
controlla
controllare
controllata
controllate
controllati
controllato
controllava
controller
controlli
controllo
controllore
controparte
controversa
controversia
controversie
controverso
convegni
convegno
conveniente
convenienza
conveniva
conventi
convention
convento
convenuto
convenzionale
convenzionali
convenzionalmente
convenzione
convenzioni
convergenza
conversazione
conversazioni
conversione
conversioni
converte
converti
convertire
convertita
convertiti
convertito
convesso
convien
conviene
convince
convincente
convincere
convincerlo
convinse
convinta
convinti
convinto
convinzione
convinzioni
convitto
convivenza
convivere
convoca
convocata
convocati
convocato
convocazione
convocazioni
convoco
convogli
convoglio
conway
cook
cooke
cookie
cool
coop
cooper
cooperativa
cooperative
cooperazione
coordinamento
coordinare
coordinata
coordinate
coordinato
coordinatore
coordinazione
cop
copa
cope
copenaghen
coperchio
copernico
coperta
coperte
coperti
copertina
copertinadisposizioni
copertine
coperto
copertura
coperture
copia
copiare
copie
copione
coppa
coppe
coppi
coppia
coppie
coppola
copre
coprendo
coprire
copriva
coprono
copy
copyright
cor
cora
coraggio
coraggiosa
coraggiosi
coraggioso
coral
corale
coralli
corallina
corallo
corano
corazza
corazzata
corazzate
corazzati
corazzato
corazzatura
corbetta
corbucci
corda
corde
cordiale
cordone
cordova
core
corea
coreana
coreani
coreano
coreografia
coreografie
coreografo
corey
corfu
cori
corinthians
corinto
corinzi
cork
corleone
corna
cornelia
cornelio
cornelis
cornelius
cornell
corner
corni
cornice
cornici
cornicione
corno
cornovaglia
coro
corolla
corologico
corona
coronamento
coronata
coronato
coronavirus
corone
corp
corpi
corpo
corporate
corporation
corporazione
corporazioni
corporea
corporeo
corps
corpus
corrado
corre
correa
corredo
correggere
correggilo
correggio
correlata
correlate
correlati
correlato
correlazione
correndo
corrente
correnti
correr
correre
corretta
correttamente
corrette
correttezza
corretto
correva
correvano
correzione
correzioni
corri
corridoi
corridoio
corridore
corridori
corriere
corrieredellosport
corrispettivo
corrisponde
corrispondente
corrispondenti
corrispondenza
corrispondere
corrispondeva
corrispondono
corrono
corrotta
corrotti
corrotto
corruzione
corsa
corsari
corsaro
corse
corsi
corsia
corsica
corsicadisposizioni
corsie
corsini
corsivo
corso
corta
corte
corteccia
corteo
cortese
cortesi
cortesia
corti
cortigiana
cortigiani
cortile
cortili
cortina
corto
cortometraggi
cortometraggio
cortona
corvetta
corvette
corvi
corvo
cory
cos
cosa
cosacchi
coscia
cosciente
coscienza
cose
cosenza
cosenzadisposizioni
cosi
cosicche
cosiddetta
cosiddette
cosiddetti
cosiddetto
cosimo
cosma
cosmic
cosmica
cosmico
cosmo
cosmopolita
cosmos
cospetto
cospicua
cospicuo
cospirazione
cossa
cost
costa
costante
costantemente
costanti
costantini
costantino
costantinopoli
costanza
costanzo
costato
coste
costei
costellazione
costellazioni
costello
costi
costiera
costiere
costieri
costiero
costituendo
costituente
costituenti
costitui
costituire
costituirono
costituisce
costituiscono
costituita
costituite
costituiti
costituito
costituiva
costituivano
costituzionale
costituzionali
costituzione
costituzioni
costo
costole
costoro
costosa
costose
costosi
costoso
costretta
costrette
costretti
costretto
costringe
costringendo
costringendolo
costringere
costrinse
costrinsero
costruendo
costrui
costruire
costruirono
costruisce
costruita
costruite
costruiti
costruito
costruttiva
costruttore
costruttori
costruzione
costruzioni
costui
costume
costumi
costumista
cosworth
cotal
cotanto
cotesta
cotesto
cotone
cotta
cottage
cotti
cotto
cotton
cottura
could
council
count
countdown
countries
country
county
coupe
cour
courage
courier
cours
course
court
courtney
cov
cova
cove
coventry
cover
covid
covo
cow
cowboy
cowboys
cox
coyote
cp
cpc
cpu
cq
cqranking
cr
crack
cracovia
craig
crane
cranio
crash
crasso
cratere
crateri
cravatta
craven
crawford
craxi
crazy
crc
cre
crea
cream
creando
creano
creare
crearono
creata
create
creati
creation
creativa
creative
creativita
creativo
creato
creator
creatore
creatori
creatura
creature
creazione
creazioni
crebbe
creda
crede
credendo
credente
credenti
credenza
credenze
credere
credete
credette
credeva
credevano
credevo
credi
crediamo
credibile
credibilita
credit
crediti
credito
creditore
creditori
credits
credo
credono
creduto
creed
creek
crema
cremlino
cremona
cremonadisposizioni
cremonese
creo
crepuscolo
cresce
crescendo
crescente
crescenti
crescere
cresceva
crescita
cresciuta
cresciuti
cresciuto
crescono
crespi
cresta
creste
cret
creta
cretaceo
cretaceous
crew
cri
cricket
crime
crimea
crimes
criminal
criminale
criminali
criminalita
crimine
crimini
crimson
crinale
cripta
crisi
crisis
crispi
cristalli
cristallino
cristallo
cristian
cristiana
cristiane
cristianesimo
cristiani
cristianita
cristiano
cristina
cristo
cristoforo
criteri
criterio
criterium
critica
critical
criticata
criticato
critiche
critici
critico
critics
critique
crittografia
crivelli
cro
croata
croati
croatia
croato
croazia
croaziadisposizioni
croce
croci
crociata
crociate
crociati
crociato
crociera
crociere
crocifissione
crocifisso
croix
crolla
crollare
crollo
cromatica
cromosoma
cromwell
cronaca
cronache
cronica
cronista
cronisti
cronologia
cronologica
cronologico
cronometro
cronosquadre
crosby
cross
crossing
crossover
crosta
crostacei
crotone
crotonedisposizioni
crow
crowley
crown
cruciale
crucis
cruda
crudel
crudele
crudeli
crudelta
crudo
cruise
crunchyroll
crusca
cruz
cry
crystal
cs
csi
cska
css
ct
ctor
cu
cuba
cubana
cubano
cube
cubi
cubo
cucchiaio
cuccioli
cucciolo
cucina
cucinare
cucine
cuetracker
cugina
cugini
cugino
cui
culla
cullen
culmina
culmine
culo
cult
culti
culto
cultura
cultural
culturale
culturali
culturalmente
culture
cum
cumberland
cummings
cumulo
cun
cuneo
cuneodisposizioni
cunningham
cuocere
cuoco
cuoio
cuor
cuore
cuori
cup
cupa
cupido
cupo
cupola
cupole
cur
cura
curando
curare
curata
curati
curato
curatore
curcio
cure
curia
curiosa
curiosamente
curiosi
curiosita
curioso
curling
curo
curr
current
curriculum
curry
curse
curt
curtis
curva
curvatura
curve
curvo
curzio
cus
cuscino
cusio
cuspide
custer
custode
custodi
custodia
custodisce
custodita
custodite
custoditi
custodito
custom
cut
cute
cv
cw
cx
cy
cyber
cyborg
cycle
cyclebase
cycling
cyclingbase
cyclingnews
cyclisme
cynthia
cyprus
cyril
cyrus
cz
czech
czso
d
da
dacche
dacia
dad
daddy
dadi
dado
dae
dag
dagli
dahl
dai
daily
daimler
daisy
dakar
dakota
dal
dalai
dale
dali
dall
dalla
dallara
dallas
dalle
dalli
dallo
dalmata
dalmazia
dals
dalton
daly
dam
dama
damasco
dame
damian
damiani
damiano
damien
dammi
damon
dan
dana
danari
danaro
dance
dancer
dancing
dando
dandogli
dandolo
dane
danese
danesi
danger
dangerous
dani
daniel
daniela
daniele
danielle
daniels
danilo
danimarca
danimarcadisposizioni
danmark
dannati
danneggiare
danneggiata
danneggiate
danneggiati
danneggiato
danni
danno
danny
dans
dansha
dante
danubio
danza
danzatrice
danze
danzica
daphne
dappertutto
dapprima
dar
dara
daranno
dardo
dare
dargli
daria
dario
darius
dark
darkness
darle
darling
darmi
darmstadt
darne
daro
darren
darryl
darsi
dart
darwin
daryl
das
dash
dassault
dat
data
database
databile
databili
datata
datati
datato
datazione
date
datenbank
dates
dati
dativo
dato
datore
daughter
dava
davano
davanti
dave
davenport
david
davide
davidemaggio
davidson
davies
davis
daviscup
davos
davvero
davy
dawn
dawson
day
days
dayton
daytona
dazi
db
dc
dd
ddr
de
dea
dead
deadline
deadly
deal
dean
dear
death
debba
debbano
debbe
debbie
debbo
debbono
debian
debiti
debito
debitore
debole
debolezza
debolezze
deboli
debolmente
deborah
debra
debussy
debut
debutta
debuttando
debuttare
debuttato
debutto
dec
deca
decade
decadenza
decadimento
decameron
decano
decapitato
decca
deceduto
december
decennale
decenni
decennio
decentramento
decessi
decesso
decide
decidendo
decidera
decidere
decidono
decima
decimale
decimo
decina
decine
decio
decisa
decisamente
decise
decisero
decisi
decision
decisione
decisioni
decisiva
decisivo
deciso
declinazione
declino
decollo
decomposizione
decorare
decorata
decorate
decorati
decorative
decorativi
decorativo
decorato
decoratore
decorazione
decorazioni
decoro
decorrere
decorso
decretato
decreti
decreto
dedalo
dedica
dedicandosi
dedicano
dedicare
dedicarsi
dedicata
dedicate
dedicati
dedicato
dedico
dedita
dedito
dedizione
deduce
dedurre
dee
deejay
deep
def
default
defence
defender
defense
defensive
deficit
definendo
definendolo
defini
definire
definisce
definiscono
definita
definite
definiti
definition
definitiva
definitivamente
definitive
definitivo
definito
definiva
definizione
definizioni
deformazione
defunta
defunti
defunto
degl
degli
degna
degne
degni
degno
degradazione
degrado
deh
dei
del
delaware
deledda
delega
delegati
delegato
delegazione
delfi
delfini
delfino
delgado
delhi
delia
delibera
deliberatamente
deliberato
deliberazione
deliberazioni
delibero
delicata
delicate
delicatezza
delicati
delicato
delimitata
delimitato
delinquente
delirio
delitti
delitto
delizia
delizie
dell
della
delle
delli
dello
delta
deludente
delusa
delusione
deluso
deluxe
dem
demand
demanio
demetrio
demi
demille
demo
democracy
democratic
democratica
democratiche
democratici
democratico
democrazia
demografica
demografico
demography
demolita
demolito
demolizione
demon
demone
demoni
demonio
den
denari
denaro
denis
denise
denmark
dennis
denny
denominata
denominate
denominati
denominato
denominazione
denominazioni
denota
densa
densamente
densita
denso
dent
dentatura
dente
denti
dentro
denuncia
denunciare
denunciato
denver
deo
department
depone
deporre
deportati
deportato
deportazione
deportivo
depose
depositato
depositi
deposito
deposizione
deposto
depressione
depuis
deputata
deputati
deputato
deputazione
der
derby
derek
deriva
derivano
derivante
derivanti
derivare
derivata
derivate
derivati
derivato
derivava
derivazione
deriverebbe
derivi
derivo
deroga
derrick
des
description
descrisse
descritta
descritte
descritti
descrittivo
descritto
descrive
descrivendo
descrivere
descriveva
descrivono
descrizione
descrizioni
desert
deserta
deserti
deserto
desidera
desiderano
desiderare
desiderata
desiderato
desiderava
desideri
desiderio
desidero
desideroso
design
designa
designare
designata
designated
designati
designato
designazione
designer
desinare
desinenza
desio
desire
desktop
desmond
desperate
desse
dessi
desta
destinare
destinata
destinatario
destinate
destinati
destinato
destinazione
destinazioni
destini
destino
destiny
desto
destra
destro
destruction
det
details
detective
deteneva
detentore
detentori
detentrice
detenuti
detenuto
detenzione
deterioramento
determina
determinando
determinano
determinante
determinare
determinata
determinate
determinati
determinato
determinazione
determino
detiene
detriti
detroit
detta
dettagli
dettagliata
dettagliate
dettagliati
dettagliato
dettaglio
dettata
dettato
dette
detti
detto
deus
deuteronomio
deutsch
deutsche
deutschen
deutscher
deutsches
deutschland
deux
dev
deva
devastante
devastata
devastato
deve
development
devi
deviare
deviazione
devil
devils
devin
devo
devon
devono
devota
devoti
devoto
devozione
dewey
dexter
df
dfb
dg
dh
dhabi
dharma
dhs
di
dia
diabete
diablo
diacono
diaframma
diagnosi
diagnosis
diagonale
diagramma
dialettale
dialetti
dialettica
dialetto
dialoghi
dialogo
diamante
diamanti
diametro
diamo
diamond
diamonds
diana
diane
diano
dianzi
diari
diaries
diario
diary
dias
diaspora
diavoli
diavolo
diaz
dibattiti
dibattito
dic
dica
dicastero
diccionario
dice
dicea
dicembre
dicendo
dicendogli
dicendole
dicesi
dicesse
diceva
dicevano
dicevo
dichiara
dichiarando
dichiarano
dichiarare
dichiararono
dichiarata
dichiarate
dichiarati
dichiarato
dichiarava
dichiarazione
dichiarazioni
dichiaro
dici
diciamo
diciannove
diciannovesimo
diciassette
diciassettesimo
diciottesimo
diciotto
dicitura
dick
dickens
dickinson
dico
dicono
dictionary
dictionnaire
did
didattica
didattiche
didattici
didattico
didier
didn
die
dieci
diecimila
died
diede
diedero
diego
dies
diesel
dieta
dieter
dietrich
dietro
dieu
difatti
difende
difendere
difendersi
difensiva
difensive
difensivi
difensivo
difensore
difensori
difesa
difese
difeso
difetti
difetto
different
differente
differenti
differenza
differenze
differenzia
differenziale
differenziali
differenziano
differenziazione
differisce
differiscono
difficile
difficili
difficilmente
difficolta
diffidenza
diffonde
diffondere
diffondersi
diffusa
diffuse
diffusero
diffusi
diffusione
diffuso
dig
diga
digest
dighe
digimon
digione
digital
digitale
digitales
digitali
digitare
digiuno
dignita
dil
dilemma
diletta
dilettante
dilettanti
dilettantistica
diletto
diligenza
dillon
diluvio
dim
dimension
dimensionale
dimensione
dimensioni
dimentica
dimenticare
dimenticata
dimenticati
dimenticato
dimesso
dimette
dimettersi
diminuendo
diminuire
diminuisce
diminuita
diminuito
diminutivo
diminuzione
dimise
dimissioni
dimitri
dimmi
dimora
dimore
dimostra
dimostrando
dimostrano
dimostrare
dimostrarono
dimostrata
dimostrato
dimostrava
dimostrazione
dimostrazioni
dimostro
din
dina
dinamica
dinamiche
dinamici
dinamico
dinamo
dinanzi
dinastia
dinastie
dini
dino
dinosaur
dinosauri
dinosauro
dinosaurs
dintorni
dio
diocesana
diocesano
diocesi
diocleziano
diodati
diodoro
dioecesis
diogene
diomede
dion
dione
dionigi
dionisio
dioniso
dip
dipartimentali
dipartimenti
dipartimento
dipende
dipendente
dipendenti
dipendenza
dipendenze
dipendere
dipendeva
dipendono
dipinge
dipingere
dipinse
dipinta
dipinte
dipinti
dipinto
diploma
diplomata
diplomatica
diplomatiche
diplomatici
diplomatico
diplomato
diplomazia
diplomi
diplomo
dipoi
diptera
dir
dira
dirai
diramazione
dire
direbbe
direct
direction
director
directors
directory
direi
diremo
diresse
diressero
diretta
direttamente
dirette
diretti
direttiva
direttive
direttivo
diretto
direttore
direttori
direttorio
direttrice
direzione
direzioni
dirgli
dirige
dirigendo
dirigendosi
dirigente
dirigenti
dirigenza
dirigere
dirigersi
dirigeva
dirigono
diritta
diritti
diritto
dirk
dirle
dirlo
dirmi
diro
dirsi
dirti
dirty
dirvi
dis
disabili
disabilita
disabitata
disaccordo
disagi
disagio
disambigua
disambiguazione
disarmo
disaster
disastri
disastro
disastrosa
disastroso
disc
discapito
discende
discendente
discendenti
discendenza
discendere
discepoli
discepolo
discesa
discese
dischi
disciplina
disciplinare
disciplinari
discipline
disco
discografia
discografica
discografiche
discografico
discography
discogs
discordia
discorrere
discorsi
discorso
discosta
discoteca
discovery
discreta
discreto
discrezione
discriminazione
discussa
discusse
discussione
discussioni
discusso
discute
discutere
discutono
disease
diseases
disegna
disegnare
disegnata
disegnate
disegnati
disegnato
disegnatore
disegni
disegno
disfatta
disgrazia
disgraziato
disgrazie
disgusto
disk
dislivello
dislocamento
dismessa
dismesso
disney
disneyland
disoccupazione
disorders
disordine
disordini
dispari
disparte
dispensa
disperata
disperatamente
disperati
disperato
disperazione
disperse
dispersi
dispersione
disperso
dispetto
dispiace
dispiacere
display
displaystyle
dispone
disponendo
disponeva
disponevano
dispongono
disponibile
disponibili
disponibilita
disporre
dispose
dispositivi
dispositivo
disposizione
disposizioni
disposta
disposte
disposti
disposto
disprezzo
disputa
disputando
disputano
disputare
disputarono
disputata
disputate
disputati
disputato
dispute
disputo
diss
disse
disseminazione
dissenso
dissero
dissertazione
dissi
dissidenti
dissoluzione
dista
distaccamento
distaccata
distaccato
distacco
distance
distante
distanti
distanza
distanze
distesa
distese
disteso
distingue
distinguere
distingueva
distinguono
distinse
distinta
distintamente
distinte
distinti
distintivi
distintivo
distinto
distinzione
distinzioni
distorsione
distratto
distrazione
distretti
distretto
distrettuale
distribuire
distribuisce
distribuita
distribuite
distribuiti
distribuito
distribution
distributore
distribuzione
distribuzioni
district
distrugge
distruggendo
distruggere
distrusse
distrussero
distrutta
distrutte
distrutti
distrutto
distruzione
distruzioni
disturbi
disturbo
disuguaglianza
disuso
dit
dita
dite
ditemi
dition
ditions
dito
ditta
dittatore
dittatura
ditte
diurne
div
diva
divano
divario
dive
divenendo
divengono
divenire
divenne
divennero
diventa
diventando
diventano
diventare
diventarono
diventata
diventate
diventati
diventato
diventava
diventera
diventi
divento
divenuta
divenute
divenuti
divenuto
divergenti
divergenze
diverra
diversa
diversamente
diverse
diversi
diversita
diversity
diverso
diverte
divertente
divertenti
divertimenti
divertimento
divertirsi
divide
dividendo
dividere
dividono
diviene
divieto
divin
divina
divine
divini
divinita
divino
divisa
divise
divisero
divisi
divisio
division
divisione
divisioni
divisjon
diviso
divisori
divo
divorziato
divorzio
divulgazione
dixie
dixon
dizionari
dizionario
dizione
dj
django
djvu
dk
dl
dla
dlc
dm
dmitrij
dn
dna
do
dobbiamo
doc
doccia
docente
docenti
doctor
document
documenta
documentari
documentario
documentary
documentata
documentate
documentati
documentato
documentazione
documenti
documento
documents
dodge
dodicesima
dodicesimo
dodici
does
dog
dogana
doganale
doge
dogg
doglia
dogma
dogs
doha
doi
dolce
dolcemente
dolcezza
dolci
dolente
doll
dollar
dollari
dollaro
dolls
dolly
dolo
dolomiti
dolor
dolore
dolores
dolori
dolorosa
doloroso
dolphins
dom
domain
domanda
domandare
domande
domando
domani
dome
domenica
domenicani
domenicano
domenico
domestic
domestica
domestiche
domestici
domestico
domi
domicilio
domina
dominante
dominanti
dominare
dominata
dominato
dominava
dominazione
domingo
domini
dominic
dominicana
dominici
dominik
dominio
dominique
domino
dominus
domiziano
domus
don
dona
donald
donaldson
donare
donata
donatella
donatello
donati
donato
donatore
donazione
donazioni
donde
done
dong
doni
donizetti
donna
donne
donnell
donner
dono
donovan
donsker
donzella
donzelli
doo
doom
door
doors
dop
doping
dopo
dopodiche
dopoguerra
doppi
doppia
doppiaggio
doppiata
doppiato
doppiatore
doppiatori
doppiatrice
doppie
doppietta
doppio
doppo
dor
dora
doraemon
dorata
dorate
dorati
dorato
dore
doria
dorian
dorico
doris
dorme
dormi
dormire
dormitorio
dormiva
dorna
dorotea
dorothy
dorsale
dorsali
dorso
dortmund
dos
dose
dosi
dossier
dosso
dot
dotata
dotate
dotati
dotato
dotazione
dote
doti
dots
dott
dotti
dotto
dottor
dottorato
dottore
dottoressa
dottori
dottrina
dottrine
douard
double
doubleday
doug
douglas
dov
dove
dovea
dovendo
dover
dovere
doveri
doversi
dovesse
dovessero
dovessi
dovete
dovette
dovettero
doveva
dovevano
dovevo
dovra
dovranno
dovrebbe
dovrebbero
dovrei
dovremmo
dovresti
dovunque
dovuta
dovute
dovuti
dovuto
down
download
downtown
doyle
dozzina
dozzine
dp
dpr
dq
dr
dra
dracula
draft
drag
draghi
drago
dragon
dragone
dragoni
dragons
drake
drama
dramatic
dramma
drammatica
drammatiche
drammatici
drammatico
drammaturgia
drammaturgo
drammi
drappello
drappo
drasticamente
draw
dre
dream
dreams
dresda
dresden
dress
drew
dreyfus
drink
dritta
dritto
drive
driver
driverdb
dro
droga
droghe
drop
drug
drugs
drum
drummond
dry
ds
dss
dt
dtirol
du
dua
dual
duarte
dub
dubai
dubbi
dubbia
dubbio
dubitare
dubito
dublin
dublino
dubois
dubrovac
duc
duca
ducale
ducati
ducato
duccio
duce
duchessa
duchi
duck
duden
dudley
due
duecento
duel
duelli
duello
duemila
duetto
duff
duffy
dugento
dui
duilio
duisburg
duke
dum
dumas
dumont
duncan
dundee
dune
dungeon
dunkerque
dunn
dunque
duo
duole
duomo
duplice
dupont
dura
duramente
duran
durand
durano
durante
durare
durarono
durata
durato
durava
durazzo
dure
durera
durezza
durham
durhamdisposizioni
duri
during
durium
duro
dus
dust
dustin
dutch
dutchcharts
duty
dux
dvd
dwan
dwds
dwight
dx
dy
dying
dyke
dylan
dynamic
dynamics
dynamite
dynasty
dz
e
ea
each
eagle
eagles
earl
earliest
early
earone
earth
east
eastern
eastwood
easy
eat
eaton
eau
eb
ebbe
ebbene
ebbero
ebbi
ebbrezza
eberhard
ebert
ebook
ebraica
ebraiche
ebraici
ebraico
ebraismo
ebrea
ebrei
ebreo
ec
ecc
ecce
eccellente
eccellenti
eccellenza
eccentricita
eccentrico
eccessi
eccessiva
eccessivamente
eccessivo
eccesso
eccetera
eccetto
eccezionale
eccezionali
eccezionalmente
eccezione
eccezioni
eccidio
eccitato
eccitazione
eccle
ecclesia
ecclesiae
ecclesiastica
ecclesiastiche
ecclesiastici
ecclesiastico
ecco
eccolo
eccomi
echi
echo
eclettico
eclipse
eclissi
eclittica
ecm
eco
ecologia
ecologica
ecology
economia
economic
economica
economicamente
economiche
economici
economico
economics
economie
economist
economista
economisti
economy
ecoregione
ecosistema
ecuador
ecuadoriano
ecumenico
ecw
ed
edagricole
edda
eddie
eddy
eden
edera
edgar
edgardo
edge
edi
ediciones
edicola
edificare
edificata
edificate
edificato
edificazione
edifici
edificio
edile
edilizia
edilizio
edimburgo
edinburgh
edipo
edison
edit
edita
edite
edited
edith
editi
editing
edition
editions
edito
editor
editore
editori
editoria
editorial
editoriale
editoriali
editors
editrice
editto
ediz
edizione
edizioni
edmond
edmondo
edmonton
edmund
edna
edo
edoardo
eds
edt
edu
eduard
eduardo
educare
education
educational
educativa
educativi
educativo
educato
educatore
educazione
edward
edwards
edwin
ee
eesti
ef
efeso
effect
effects
effetti
effettiva
effettivamente
effettivi
effettivo
effetto
effettua
effettuando
effettuano
effettuare
effettuata
effettuate
effettuati
effettuato
effettuo
efficace
efficacemente
efficaci
efficacia
efficiente
efficienti
efficienza
effigie
eg
egan
egemonia
egeo
egg
egida
egidio
egisto
egitto
egizi
egizia
egiziana
egiziani
egiziano
egizio
egli
eglino
ego
egoismo
egoista
egon
egregio
eguaglianza
egual
eguale
eguali
egualmente
egypt
egyptian
eh
ehi
ei
eight
eileen
ein
einaudi
eindhoven
eine
einer
eines
einstein
eir
eis
eisenhower
eisha
eius
ej
ek
ekaterina
eki
el
ela
elaborare
elaborata
elaborate
elaborati
elaborato
elaborazione
elaboro
elaine
elasticita
elastico
elba
elder
ele
eleanor
electa
election
elections
electric
electro
electronic
electronics
elefante
elefanti
elegante
eleganti
eleganza
elegge
eleggere
elegia
element
elementare
elementari
elementi
elemento
elements
elemosina
elena
elenca
elencate
elencati
elenchi
elenco
eleonora
elephant
elesse
eletta
eletti
eletto
elettorale
elettorali
elettorato
elettore
elettori
elettra
elettrica
elettriche
elettrici
elettricita
elettrico
elettromagnetica
elettrone
elettroni
elettronica
elettroniche
elettronici
elettronico
elettrotecnica
eleva
elevata
elevate
elevati
elevato
elevazione
eleven
elevo
elezione
elezioni
elezionistorico
elfi
elgar
eli
elia
elias
elica
eliche
elicotteri
elicottero
elijah
elimina
eliminando
eliminare
eliminata
eliminate
eliminati
elimination
eliminato
eliminazione
elio
eliot
elisa
elisabeth
elisabetta
elise
eliseo
elite
eliteprospects
eliteserien
eliza
elizabeth
ell
ella
elle
ellen
ellenistica
elli
ellie
ellington
elliot
elliott
ellis
ellittica
ello
elmer
elmo
elo
elogi
elogiato
elogio
eloquenza
els
elsa
else
elsevier
elton
elvira
elvis
em
ema
email
emanato
emanazione
emancipazione
emano
emanuel
emanuela
emanuele
emblema
embrione
emendamento
emerge
emergency
emergente
emergenti
emergenza
emergere
emergono
emerito
emerse
emerso
emerson
emery
emessa
emesse
emessi
emesso
emette
emettere
emi
emidio
emigranti
emigrare
emigrati
emigrato
emigrazione
emigro
emil
emile
emilia
emiliadisposizioni
emiliana
emiliani
emiliano
emilio
emily
eminem
eminente
eminenti
emirati
emiro
emise
emisferi
emisfero
emissario
emissione
emissioni
emittente
emittenti
emma
emmanuel
emmett
emmy
emo
emorragia
emotiva
emotivo
emozione
emozioni
emperor
empio
empire
empoli
emporis
en
enciclica
enciclopedia
enciclopediadelcalcio
enciclopedico
enciclopedie
encore
encyclopaedia
encyclopedia
encyclopædia
end
endemica
endemiche
endemico
ending
endless
ends
endurance
enea
eneide
enel
enemy
energetica
energetici
energetico
energia
energico
energie
energy
enfasi
eng
engel
engels
engine
engineer
engineering
england
english
eni
enigma
enigmi
enim
enix
enko
enna
ennadisposizioni
enne
ennesima
ennesimo
ennio
eno
enorme
enormemente
enormi
enough
enrica
enrichetta
enrico
enrique
enseignement
ensemble
ent
ente
entella
enter
enterprise
enterprises
entertainment
enti
entita
entomologo
entra
entrambe
entrambi
entrando
entrano
entrar
entrare
entrarono
entrata
entrate
entrati
entrato
entrava
entre
entrera
entrez
entri
entro
entropia
entroterra
entry
entusiasmo
entusiasta
environment
environmental
enza
enzima
enzimi
enzo
eo
eocene
eos
ep
eparchia
epatica
epic
epica
epico
epidemia
epidemie
epifania
epigrafe
epigramma
epigrammi
epilogo
epiro
episcopale
episcopato
episcoporum
episode
episodi
episodio
epistola
epistolare
epistolario
epistole
epitaffio
epiteto
epoca
epoche
eponimo
epopea
eppure
epsilon
epstein
equatore
equatoriale
equazione
equazioni
equestre
equilibri
equilibrio
equipaggi
equipaggiamenti
equipaggiamento
equipaggiata
equipaggiate
equipaggiati
equipaggiato
equipaggio
equitazione
equivale
equivalente
equivalenti
equivalenza
equivoco
equo
er
era
eracle
eraclio
eran
erano
erasi
erasmo
eravamo
erba
erbacee
erbe
ercolano
ercole
ere
erede
eredi
eredita
ereditaria
ereditario
ereditato
eredito
eredivisie
eremita
eremo
eresia
eresse
eretici
eretico
eretta
erette
eretti
eretto
erezione
erfurt
ergastolo
erge
ergo
eri
eric
erica
erich
erickson
erigere
erik
erika
erin
eritrea
erlewine
erma
ermafroditi
ermanno
ermes
erminio
ernest
ernesto
ernie
ernst
ero
erode
erodoto
eroe
erogare
erogazione
eroi
eroica
eroico
eroina
eroismo
eros
erosione
erotica
erotico
errante
errata
errato
errico
erroneamente
error
errore
errori
ers
eruditi
erudito
erudizione
eruzione
eruzioni
erwin
erzegovina
es
esa
esaltazione
esame
esami
esamina
esaminando
esaminare
esaminati
esaminato
esatta
esattamente
esatte
esattezza
esatto
esaurimento
esaurito
esca
escape
esce
eschilo
esclamo
esclude
escludendo
escludere
esclusa
escluse
esclusi
esclusione
esclusiva
esclusivamente
esclusivo
escluso
escobar
escono
escursione
escursioni
esecutiva
esecutivo
esecutore
esecutori
esecuzione
esecuzioni
esegue
eseguendo
esegui
eseguire
eseguita
eseguite
eseguiti
eseguito
eseguono
esempi
esempio
esemplare
esemplari
esenzione
esequie
esercita
esercitano
esercitare
esercitata
esercitato
esercitava
esercitazione
esercitazioni
eserciti
esercito
esercizi
esercizio
esibendosi
esibi
esibirsi
esibisce
esibiscono
esibita
esibito
esibizione
esibizioni
esige
esigenza
esigenze
esiliato
esilio
esiodo
esista
esistano
esiste
esistente
esistenti
esistenza
esistenziale
esistere
esistesse
esisteva
esistevano
esistita
esistito
esistono
esita
esitazione
esiti
esito
eso
esodo
esonerato
esonero
esopo
esordendo
esordi
esordiente
esordio
esordire
esordisce
esordito
esorta
esp
espan
espandere
espandersi
espanse
espansione
espe
espediente
esperanto
esperienza
esperienze
esperimenti
esperimento
esperta
esperti
esperto
espinosa
esplicita
esplicitamente
esplicito
esplode
esplodere
esplora
esplorare
esploratore
esploratori
esplorazione
esplorazioni
esplose
esplosione
esplosioni
esplosiva
esplosivi
esplosivo
espn
espone
esponente
esponenti
esponenziale
esporre
esportazione
esportazioni
espose
espositivo
esposito
esposizione
esposizioni
esposta
esposte
esposti
esposto
espressa
espressamente
espresse
espressi
espressione
espressioni
espressiva
espressivo
espresso
esprime
esprimere
esprimersi
esprimeva
esprimono
esprit
espulsi
espulsione
espulso
essa
essai
essanay
essays
esse
essen
essendo
essendosi
essential
essenza
essenziale
essenziali
essenzialmente
esser
esserci
essere
esseri
esserlo
esserne
essersi
esservi
essex
essi
esso
est
esta
estadi
estado
estasi
estate
estati
estdisposizioni
este
esteban
estende
estendere
estendeva
estendono
estense
estensi
estensione
estensioni
ester
estera
estere
esteri
esteriore
esterna
esternamente
esterne
esterni
esterno
estero
estesa
estese
estesi
esteso
estetica
estetico
esther
estinse
estinta
estinti
estinto
estinzione
estiva
estive
estivi
estivo
estone
estonia
estrae
estranea
estranei
estraneo
estrarre
estratta
estratti
estratto
estrazione
estrema
estremamente
estreme
estremi
estremita
estremo
estuario
esule
esuli
et
eta
etc
etere
eterna
eternal
eternamente
eterne
eterni
eternita
eterno
ethan
ethel
ethniki
ethnologue
etiam
etica
etichetta
etichette
etico
etienne
etimo
etimologia
etimologico
etiope
etiopia
etna
etnia
etnica
etniche
etnici
etnico
etnie
etnografico
etruria
etrusca
etruschi
etrusco
ettari
ettore
etymology
eu
eubel
eucaristia
euclide
eufemia
eufrate
euge
eugen
eugene
eugenia
eugenio
eun
euphorbia
eur
eure
euripide
euro
eurobasket
eurogamer
euroleague
europa
europaea
europarl
europe
europea
european
europee
europei
europeo
eurosport
eurovision
eurovoix
eusebio
eustachio
eutanasia
ev
eva
evacuare
evacuazione
evadere
evaluation
evan
evangelica
evangelico
evangelion
evangelista
evangelisti
evangelizzazione
evans
evasione
eve
evelyn
even
evening
event
eventi
evento
events
eventuale
eventuali
eventualita
eventualmente
ever
everest
everett
everton
every
everybody
everyeye
everything
evgenij
evic
evidence
evidente
evidentemente
evidenti
evidenza
evidenze
evidenzia
evidenziano
evidenziare
evidenziato
evil
evince
evita
evitando
evitare
evitato
evito
evo
evoca
evocare
evoluta
evoluti
evolution
evolutionary
evolutiva
evoluto
evoluzione
evoluzioni
evolve
ew
ex
exchange
exclusive
executive
exercise
exeter
exhibition
exit
exp
expansion
expedition
experience
experiment
experimental
exploration
explorer
expo
export
express
expression
extended
extension
extra
extreme
eye
eyed
eyes
ez
eziandio
ezio
ezra
f
fa
faa
fabbisogno
fabbri
fabbrica
fabbricare
fabbricati
fabbricato
fabbricazione
fabbriche
fabbro
faber
fabian
fabiano
fabio
fabri
fabriano
fabrizio
fac
facce
faccenda
faccende
facchinetti
faccia
facciale
facciamo
facciano
facciata
facciate
faccio
face
facea
facebook
facendo
facendogli
facendola
facendole
facendolo
facendone
facendosi
facente
facenti
faces
facesse
facessero
faceva
facevano
facezie
facile
facili
facilita
facilitare
facilmente
facolta
fact
factfinder
facto
factor
factory
facts
faenza
faggio
fagioli
fai
faida
failure
fair
faire
fairfax
fairy
fait
faith
fake
falange
falce
falchi
falco
falcon
falcone
falconi
falcons
falda
falde
falkland
fall
falla
fallen
falli
fallimentare
fallimenti
fallimento
falling
fallingrain
fallire
fallisce
fallita
fallito
fallo
falls
falo
falsa
false
falsi
falsita
falso
fama
fame
famiglia
famigliare
famigliari
famiglie
familia
familiare
familiari
familiarita
families
family
fammi
famosa
famose
famosi
famoso
famous
fan
fanali
fanciulla
fanciulle
fanciulli
fanciullo
fandango
fandom
fanfani
fang
fango
fanno
fanny
fano
fanpage
fans
fantascientifico
fantascienza
fantasia
fantasie
fantasma
fantasmi
fantastic
fantastica
fantastici
fantastico
fantasy
fante
fanteria
fanti
fantino
fantoni
fantozzi
fanucci
fao
faq
far
fara
farai
faranno
faraone
farci
fare
farebbe
farei
faremo
farete
farewell
farfalla
farfalle
fargli
fargo
fari
farina
farla
farle
farli
farlo
farm
farmaceutica
farmaci
farmacia
farmacista
farmaco
farmacologia
farmer
farmi
farne
farnese
faro
farrell
farsa
farsi
farti
farvi
fas
fasano
fasc
fasce
fasci
fascia
fascicoli
fascicolo
fascino
fascio
fascismo
fascista
fasciste
fascisti
fase
fashion
fasi
faso
fassa
fast
fasti
fastidio
fat
fata
fatal
fatale
fate
father
fatica
fatiche
fatima
fato
fatta
fatte
fattezze
fatti
fattispecie
fatto
fattore
fattori
fattoria
fattorie
fattura
fatturato
fauci
fauna
faust
faustina
faustino
fausto
fautore
fautori
fava
favella
favola
favole
favor
favore
favorendo
favorevole
favorevoli
favorevolmente
favori
favorire
favorisce
favorita
favorite
favoriti
favorito
fax
fay
faye
fazio
fazione
fazioni
fazzoletto
fb
fbi
fc
fda
fe
fear
feat
feature
features
featuring
feb
febbraio
febbre
febo
february
fece
fecero
feci
feconda
fecondazione
fecondo
fed
fede
fedele
fedeli
fedelmente
fedelta
federal
federale
federali
federation
federato
federazione
federazioni
federconsorzi
federer
federica
federici
federico
federigo
feel
feeling
feet
fegato
fei
feldmaresciallo
felice
felicemente
felici
feliciano
felicita
felipe
felix
fell
fellini
fellow
feltre
feltrinelli
female
femina
femme
femmes
femmina
femmine
femminile
femminili
femminismo
femminista
fender
fenerbahc
feng
fenice
fenici
fenicia
fenomeni
fenomeno
fer
ferdinand
ferdinando
ferenc
ferguson
feri
ferire
ferisce
ferita
ferite
feriti
ferito
ferma
fermamente
fermandosi
fermano
fermare
fermarlo
fermarono
fermarsi
fermata
fermate
fermati
fermato
ferme
fermentazione
fermezza
fermi
fermo
fermodisposizioni
ferna
fernand
fernanda
fernandes
fernandez
fernando
fero
feroce
feroci
ferocia
ferrante
ferrara
ferraradisposizioni
ferrarese
ferrari
ferrario
ferraris
ferraro
ferrata
ferrate
ferreira
ferrer
ferreri
ferrero
ferretti
ferri
ferro
ferroni
ferrovia
ferroviari
ferroviaria
ferroviarie
ferroviario
ferrovie
ferruccio
ferry
fertile
fertili
fertilita
fervente
fervore
fessura
fessure
fest
festa
feste
festeggia
festeggiamenti
festeggiare
festeggiato
festival
festivalbar
festivi
festivita
feto
fetta
fette
feud
feudale
feudali
feudatari
feudatario
feudi
feudo
fever
feyenoord
ff
fff
fi
fia
fiaba
fiabe
fiamma
fiamme
fiamminga
fiamminghi
fiammingo
fianchi
fianco
fiandra
fiandre
fiandredisposizioni
fiasco
fiat
fiati
fiato
fiba
fibra
fibre
fica
fichi
fico
fiction
fida
fidal
fidanzamento
fidanzata
fidanzati
fidanzato
fidarsi
fidato
fide
fidel
fido
fiducia
fie
field
fields
fiemme
fieno
fiera
fieramente
fiere
fieri
fiero
fieschi
fiesole
fiesta
fifa
fifth
fig
figaro
figc
fight
fighter
fighters
fighting
figi
figli
figlia
figlie
figlio
figliuol
figliuola
figliuoli
figliuolo
figura
figurano
figurato
figure
figures
fil
fila
filadelfia
filamenti
filamento
filantropo
filarmonica
file
files
fili
filiale
filiali
filiberto
filip
filippi
filippina
filippine
filippini
filippino
filippo
fille
film
filmaffinity
filmati
filmato
filmografia
filmportal
films
filmtv
filo
filocolo
filogenetico
filologia
filologo
filone
filosofi
filosofia
filosofica
filosofiche
filosofici
filosofico
filosofo
fils
filtri
filtro
fimi
fin
fina
final
finale
finali
finalista
finalisti
finalita
finalizzata
finalizzato
finalmente
finals
finance
financial
finanza
finanze
finanziamenti
finanziamento
finanziare
finanziari
finanziaria
finanziarie
finanziario
finanziata
finanziato
finch
finche
find
fine
finemente
finendo
finestra
finestre
finezza
finge
fingendo
finger
fingere
fini
finira
finire
finirono
finisce
finiscono
finita
finite
finiti
finito
finiva
fink
finland
finlandese
finlandesi
finlandia
finn
fino
finora
finta
finto
finzione
fio
fiocco
fiona
fior
fiorale
fiordo
fiore
fiorella
fiorello
fiorente
fiorentina
fiorentine
fiorentini
fiorentino
fiorenza
fiorenzo
fioretto
fiori
fiorini
fiorire
fiorita
fiorito
fioritura
fip
fire
firefox
firenze
firenzedisposizioni
firma
firmando
firmare
firmarono
firmata
firmatari
firmati
firmato
firme
firmo
first
fis
fisarmonica
fiscale
fiscali
fischer
fischio
fisco
fish
fishbase
fisher
fisi
fisica
fisicamente
fisiche
fisici
fisico
fisiologia
fisionomia
fisioterapista
fissa
fissando
fissare
fissata
fissate
fissati
fissato
fisse
fissi
fisso
fit
fitness
fitta
fitte
fittizia
fittizio
fitto
fitz
fitzgerald
fiu
fiume
fiumi
fiumicino
fivb
five
fk
fl
fla
flacco
flag
flagello
flair
flame
flamengo
flames
flaminia
flaminio
flash
flashback
flat
flauti
flauto
flavia
flavio
fle
fleet
fleischer
fleming
flesh
flessibile
flessibilita
flessione
fletcher
flight
flint
flip
flixster
flo
flood
floor
flop
flor
flora
floreali
florence
flores
florian
floriano
florida
florindo
florio
floris
flotta
flotte
flottiglia
flow
flower
flowering
flowers
floyd
flu
fluidi
fluido
flussi
flusso
fluviale
fluviali
fly
flying
flynn
fm
fmg
fn
fo
foca
focale
foce
foco
focolare
focus
foggia
foggiadisposizioni
fogli
foglia
foglie
foglio
foix
fokker
fol
folco
foley
folgore
foligno
folk
folklore
folla
folle
folli
follia
follie
follow
following
folta
folto
fonda
fondale
fondali
fondamenta
fondamentale
fondamentali
fondamentalmente
fondamenti
fondamento
fondando
fondare
fondarono
fondata
fondate
fondati
fondato
fondatore
fondatori
fondatrice
fondazione
fondazioni
fonde
fondere
fonderia
fondi
fondista
fondo
fondovalle
fonetica
foniche
fonit
fono
fonseca
font
fontaine
fontana
fontane
fontanelli
fonte
fonti
food
fool
foot
football
footballfacts
for
fora
foradejogo
forall
forbes
forca
force
forcella
forces
ford
fore
foreign
foreman
forense
forest
foresta
forestale
forestali
foreste
forestieri
forever
forget
forgotten
fori
forli
form
forma
formaggi
formaggio
formale
formali
formalmente
formando
formano
formare
formarono
formarsi
format
formata
formate
formati
formation
formativo
formato
formatosi
formava
formavano
formazione
formazioni
forme
former
formica
formiche
formidabile
formo
formosa
formula
formulare
formulazione
formule
fornace
fornaciari
fornendo
forni
fornire
fornisce
forniscono
fornita
fornite
forniti
fornito
fornitore
fornitori
fornitura
forniture
forniva
forno
foro
forrest
fors
forse
forster
fort
forte
fortemente
fortezza
fortezze
forti
fortificata
fortificate
fortificato
fortificazione
fortificazioni
fortis
fortissimo
fortitudo
fortress
fortuna
fortunata
fortunatamente
fortunati
fortunato
fortune
forum
forward
forza
forzare
forzata
forzati
forzato
forze
fosca
foscari
fosco
foscolo
fosfato
fosforo
foss
fossa
fossati
fossato
fosse
fossero
fossi
fossil
fossile
fossili
fossilworks
fosso
foster
fotball
foto
fotocamera
fotografa
fotografato
fotografi
fotografia
fotografica
fotografiche
fotografici
fotografico
fotografie
fotografo
found
foundation
four
fourier
fourth
fowler
fox
fr
fra
frac
fragile
fragili
fragilita
fragmenta
frame
framework
frammentazione
frammenti
frammento
fran
frana
franc
franca
francavilla
france
francedisposizioni
frances
francesca
francescana
francescani
francescano
franceschi
franceschini
francesco
francese
francesi
franche
franchi
franchigia
franchigie
franchise
francia
franciadisposizioni
francis
francisco
franck
franco
francoangeli
francobolli
francobollo
francoforte
franconia
frangente
frank
frankenstein
frankfurt
frankie
franklin
frans
frantis
franz
frascati
frase
fraser
frasi
frate
fratellanza
fratellastro
fratelli
fratello
fraternita
frati
frattanto
frattempo
frattura
fratture
frau
frauen
frazione
frazioni
fre
freak
frecce
freccia
fred
fredda
fredde
freddezza
freddi
freddie
freddo
freddy
frederic
frederick
frederik
fredrik
free
freedom
freeman
freestyle
fregata
fregate
fregi
fregio
frenante
frenare
french
freni
freno
frequenta
frequentando
frequentano
frequentare
frequentata
frequentato
frequentava
frequentazione
frequente
frequentemente
frequenti
frequento
frequenza
frequenze
fresca
fresche
freschezza
freschi
fresco
fresh
fretta
freud
frey
fri
friburgo
friday
friedman
friedrich
friend
friendly
friends
frisia
fritto
fritz
friulana
friulani
friulano
friuli
frizione
fro
frode
from
fronde
front
frontale
frontali
fronte
fronteggiare
frontespizio
fronti
frontier
frontiera
frontiere
frontman
frontone
frosinone
frosinonedisposizioni
frost
frozen
fru
fruit
fruizione
frumento
frusta
frutta
frutti
frutto
fry
fs
ft
fu
fuchs
fucilati
fucilato
fucile
fucili
fucilieri
fuck
fue
fuentes
fuga
fugge
fuggendo
fuggi
fuggir
fuggire
fuggirono
fuggita
fuggiti
fuggitivi
fuggito
fuggono
fui
fuit
fuji
fujiwara
fukuoka
fulci
fulcro
fulham
full
fuller
fulmine
fulmini
fulton
fulvia
fulvio
fumagalli
fumare
fumble
fumetti
fumettista
fumetto
fumi
fummo
fumo
fun
function
fund
fune
funebre
funebri
funeral
funerale
funerali
funeraria
funerario
funge
fungere
fungeva
funghi
fungo
funicolare
funivia
funk
funky
funny
funziona
funzionale
funzionali
funzionalita
funzionamento
funzionano
funzionante
funzionare
funzionari
funzionario
funzione
funzioni
fuochi
fuoco
fuor
fuora
fuorche
fuori
fuorilegge
fuoristrada
fuoriuscita
fur
furgone
furia
furie
furio
furiosa
furiosamente
furioso
furious
furon
furono
furor
furore
further
furti
furto
fury
fusa
fusco
fuse
fusi
fusion
fusione
fuso
fusoliera
fussballdaten
fusse
fussi
fusti
fusto
futbol
futebol
futsal
futura
future
futuri
futurismo
futurista
futuro
fußball
fuðborgarsvæðið
fuðborgarsvæðiðdisposizioni
fw
fx
fær
g
ga
gabbia
gabbiano
gaber
gabinetto
gabon
gabriel
gabriela
gabriele
gabriella
gabrielle
gabrielli
gadget
gae
gaelico
gaeta
gaetano
gag
gaga
gagliardi
gagliardo
gai
gaia
gail
gaio
gal
gala
galante
galantuomo
galassia
galassie
galatasaray
galattico
galaxy
gale
galeazzo
galee
galeotto
galera
galerie
galicia
galilea
galilei
galileo
galizia
galiziadisposizioni
galla
gallagher
gallarate
galleggiante
galleggianti
galleria
gallerie
gallery
galles
gallese
gallesi
galletti
galli
gallia
gallica
gallico
gallimard
gallina
galline
gallipoli
gallo
gallone
gallura
galoppo
gama
gamba
gambe
gambo
game
gamefaqs
gameplay
gamer
games
gamespot
gaming
gamma
gams
gan
gand
gandhi
gandolfo
gang
gangster
gao
gaon
gap
gara
garage
garante
garantendo
garanti
garantire
garantisce
garantita
garantito
garantiva
garanzia
garanzie
garbo
garci
garcia
garda
garde
garden
gardena
gardens
gardiner
gardner
gare
gareggia
gareggiare
gareggiato
gareth
garfagnana
garfield
gargano
garibaldi
garibaldini
garland
garnier
garonna
garrett
garrison
garrone
garros
garry
gary
garzanti
garzantilinguistica
garzone
gas
gasolio
gaspar
gaspara
gaspare
gasparo
gasperi
gaston
gastone
gastronomia
gate
gates
gateway
gatta
gatti
gatto
gau
gaudenzio
gaudio
gaulle
gauss
gavin
gay
gaza
gazette
gazetteer
gazzetta
gazzettaufficiale
gb
gc
gcatholic
ge
gear
gel
gela
gelato
gelli
gelo
gelocal
gelosa
gelosia
geloso
gemella
gemellaggio
gemelle
gemelli
gemello
gemini
gemma
gemme
gen
gender
gene
genealogia
genealogico
genealogy
genera
general
generale
generali
generalita
generalmente
generando
generano
generare
generata
generate
generati
generation
generato
generatore
generatori
generazione
generazioni
genere
generi
generica
genericamente
generico
genero
generosa
generosi
generosita
generoso
genesi
genesis
genetic
genetica
geneticamente
genetiche
genetico
geni
geniale
genio
genitali
genitivo
genitore
genitori
genius
genna
gennaio
gennaro
genoa
genocide
genocidio
genoma
genomics
genova
genovadisposizioni
genovese
genovesi
gens
gent
gente
genti
gentil
gentile
gentilezza
gentili
gentiluomini
gentiluomo
gentleman
genus
geo
geocities
geoff
geoffrey
geografia
geografica
geograficamente
geografiche
geografici
geografico
geografo
geographic
geologia
geologica
geological
geologico
geologo
geology
geometria
geometrica
geometriche
geometrici
geometrico
geonames
geonet
georg
george
georges
georgia
georgiana
georgiano
geq
ger
gerais
gerald
gerarchia
gerarchie
gerard
gerardo
gerd
geremia
gergale
gergo
gerhard
gerlista
germain
german
germani
germania
germaniadisposizioni
germaniae
germanica
germaniche
germanici
germanico
germano
germany
germi
germogli
gerolamo
geronimo
gerry
gershwin
gertrude
gerundio
gerundivo
gerusalemme
gerusalemmedisposizioni
gervasio
ges
geschichte
gesellschaft
gesso
gesta
gestapo
gestazione
gesti
gestione
gestire
gestisce
gestita
gestite
gestiti
gestito
gestiva
gesto
gestore
gesu
gesualdo
gesuita
gesuiti
get
gets
getta
gettando
gettare
gettati
gettato
getti
getting
getto
getty
gewest
gf
gfdl
gg
gh
ghana
ghanese
ghe
gheorghe
gherardo
ghetto
ghiacci
ghiacciai
ghiacciaio
ghiaccio
ghiaia
ghiandola
ghiandole
ghibellini
ghisa
ghost
ghosts
ghz
gi
gia
giacca
giacche
giace
giaceva
giacimenti
giacimento
giacinta
giacinto
giacobbe
giacomo
giada
gialla
giallastro
gialle
gialli
giallo
gialloblu
giamaica
giamaicano
giambattista
giammai
giampaolo
giampiero
gian
giancarlo
gianfranco
giani
gianluca
gianluigi
gianna
gianni
giannina
giannini
giano
giant
giants
giappone
giapponedisposizioni
giapponese
giapponesi
giardini
giardiniere
giardino
giasone
giava
giavellotto
gibbons
gibbs
gibilterra
gibson
gideon
gift
gigante
gigantesca
gigantesco
giganti
gigi
gigli
giglio
gil
gilbert
gilberto
gilda
giles
gill
gilles
gillespie
gillian
gilmore
gime
gin
gina
gineceo
ginevra
ginger
ginnasio
ginnasta
ginnastica
gino
ginocchia
ginocchio
gio
gioacchino
gioachino
giobbe
gioca
giocabile
giocando
giocano
giocare
giocata
giocate
giocati
giocato
giocatore
giocatori
giocatrice
giocatrici
giocattoli
giocattolo
giocava
giochera
giochi
gioco
gioconda
giocondo
giogo
gioia
gioie
gioielli
gioiello
giolitti
gion
giordana
giordani
giordania
giordano
giorgi
giorgia
giorgio
giornale
giornali
giornaliera
giornaliere
giornalieri
giornaliero
giornalismo
giornalista
giornalisti
giornalistica
giornalistico
giornata
giornate
giorni
giorno
giostra
giosue
giotto
giova
giovan
giovane
giovani
giovanile
giovanili
giovanissima
giovanissimi
giovanissimo
giovanna
giovanni
giovannini
giovannino
giovanotto
giove
giovedi
gioventu
giovine
giovinetta
giovinetto
giovinezza
gira
girando
girano
girard
girare
girata
girate
girati
girato
giraud
girava
giri
girl
girlfriend
girls
giro
girolamo
girone
gironi
gis
gita
github
gittata
giu
giubileo
giuda
giudaica
giudea
giudei
giudica
giudicare
giudicata
giudicati
giudicato
giudice
giudici
giudicio
giudico
giuditta
giudizi
giudiziari
giudiziaria
giudiziarie
giudiziario
giudizio
giuffre
giugno
giulia
giuliadisposizioni
giuliana
giuliani
giuliano
giulianova
giulietta
giulio
giunge
giungendo
giungere
giungeva
giungevano
giungla
giungono
giunone
giunse
giunsero
giunta
giunte
giunti
giunto
giuochi
giuoco
giura
giuramento
giurare
giurassico
giurati
giurato
giureconsulto
giuria
giuridica
giuridiche
giuridici
giuridico
giurisdizione
giurisprudenza
giurista
giuristi
giuro
giuseppe
giuseppina
giusta
giustamente
giuste
giusti
giustifica
giustificare
giustificato
giustificazione
giustina
giustiniani
giustiniano
giustino
giustizia
giustiziati
giustiziato
giustiziere
giusto
give
gl
glaciale
glacier
gladiatori
glasgow
glass
glauco
glee
glen
glenn
gli
glie
gliel
gliela
glielo
gliene
glise
glo
global
globale
globali
globalizzazione
globe
globo
gloria
glorie
gloriosa
glorioso
glory
glossario
glossary
gloucester
glover
glu
gluck
glucosio
glulx
gm
gmbh
gn
gne
gneo
gnocchi
gnome
gnu
go
goa
goal
gob
gobbo
goblin
gocce
goccia
god
godard
gode
godere
godette
godeva
godevano
godfrey
godimento
godono
gods
goduto
godzilla
goes
goethe
goffredo
gogh
going
goku
gol
gola
gold
goldberg
golden
goldman
goldoni
goldstein
goldwyn
gole
golf
golfo
golpe
gomes
gomez
gomito
gomma
gomme
gonc
gone
gonfalone
gong
gonna
gonza
gonzaga
gonzales
gonzalez
gonzalo
good
goodbye
goodman
goodreads
goodwin
google
gora
goran
gordon
gore
gori
gorilla
gorizia
goriziadisposizioni
gorman
gospel
gossip
got
gotha
gotham
gothic
goti
gotica
gotiche
gotico
goto
gotta
gottardo
gottfried
gotti
gottinga
gottlieb
goud
gould
gouv
gov
governa
governance
governante
governanti
governare
governata
governativa
governative
governativi
governativo
governato
governatorato
governatore
governatori
governava
governi
government
governo
governor
goya
gozzi
gp
gpl
gps
gr
gra
grace
gradevole
gradi
gradiente
gradimento
gradini
gradino
gradito
grado
graduale
gradualmente
graduatoria
grady
graf
graffiti
grafia
grafica
graficamente
grafiche
grafici
grafico
grafo
graham
gram
grammar
grammatica
grammi
grammophon
grammy
gramsci
gran
grana
granada
granata
granate
granatieri
granchio
grand
granda
grande
grandemente
grandes
grandezza
grandezze
grandi
grandidizionari
grandiosa
grandioso
grandissima
grandissimo
granduca
granducato
grange
granger
grani
granito
grano
grant
graphic
grappa
grass
grassa
grasse
grassetto
grassi
grasso
grata
gratia
gratis
gratitudine
grato
grattacieli
grattacielo
gratuita
gratuitamente
gratuiti
gratuito
grave
gravemente
graves
gravi
gravidanza
gravina
gravissime
gravita
gravitazionale
gravity
gray
grayson
graz
grazia
graziani
graziano
grazie
graziella
graziosa
grazioso
grc
gre
great
greater
greatest
greca
greche
greci
grecia
greco
greece
greek
green
greene
greenwich
greenwood
greer
greg
gregg
gregge
gregor
gregori
gregoriana
gregoriano
gregorio
gregory
grembo
gremese
grenoble
greta
grey
gribaudo
grida
gridando
gridare
gridava
grido
griffin
griffith
griffiths
grifone
grigi
grigia
grigie
grigio
grigioni
grigionidisposizioni
griglia
grigor
grillo
grimaldi
grimm
gro
groenlandia
groningen
groningendisposizioni
groove
groppa
gross
grossa
grosse
grosseto
grossetodisposizioni
grossi
grosso
grotta
grotte
ground
group
groups
grove
growth
gru
grupo
gruppi
gruppo
gruyter
gs
gsfc
gt
gu
gua
guadagna
guadagnando
guadagnandosi
guadagnare
guadagnarsi
guadagnato
guadagni
guadagno
guadalajara
guadalcanal
guadalupe
guado
guai
gualtieri
gualtiero
guance
guancia
guanda
guanti
guanto
guard
guarda
guardando
guardano
guardare
guardate
guardato
guardava
guardavano
guardi
guardia
guardian
guardiani
guardiano
guardie
guardo
guari
guarigione
guarino
guarire
guarito
guarnieri
guarnigione
guascogna
guasta
guastalla
guasti
guasto
guatemala
gubbio
gucci
gue
guelfa
guelfi
guerra
guerre
guerrero
guerriera
guerrieri
guerriero
guerriglia
guerriglieri
guerrini
guerrino
guest
guevara
guez
gufo
guggenheim
guglia
guglielmi
guglielmo
gui
guicciardini
guida
guidando
guidare
guidata
guidate
guidati
guidato
guidava
guide
guides
guidi
guido
guild
guillaume
guillermo
guilty
guinea
guinness
guisa
guitar
guittone
gulf
gun
gundam
gunn
gunnar
guns
guru
gus
guscio
gustare
gustav
gustave
gustavo
gusti
gusto
gutenberg
guthrie
gutie
guy
guyana
guys
guzma
gv
gwen
gymnastics
gyo
gypsy
h
ha
haas
habitat
hachette
hack
hacker
hackett
had
haec
hagen
hahn
hai
haifa
hainaut
hair
haiti
hajduk
hal
hale
haley
half
halifax
hall
halle
halloween
halo
ham
hamburg
hamburger
hamilton
hammer
hammond
hampshire
hampton
han
hana
hancock
hand
handball
handbook
handbuch
handicap
hands
hang
hangar
hank
hanna
hannah
hannibal
hanno
hannover
hanoi
hans
hansen
hanson
hapoel
happened
happiness
happy
hara
harald
harbor
harbour
harcourt
hard
hardcore
harding
hardware
hardy
hare
harem
harlan
harlem
harley
harmon
harmony
harold
harper
harriet
harris
harrison
harry
hart
hartford
hartley
hartmann
harvard
harvest
harvey
has
hasan
hassan
hastings
hat
hate
hathaway
hatzafon
haus
haut
haute
hauts
have
haven
haver
haveva
havilland
havre
hawaii
hawk
hawkins
hawks
hay
hayden
haydn
hayes
hayley
haynes
hayward
hbo
hc
hd
he
head
headquarters
heads
health
hear
heard
heart
hearts
heat
heath
heather
heaven
heavy
heavyweight
hector
hedgehog
hee
heel
hegel
hei
heidegger
heidelberg
heidi
heights
heim
heineken
heinrich
heinz
held
helen
helena
hell
hellas
heller
hello
helmut
help
helsinki
hemingway
hen
henderson
hendrik
hendrix
henley
henning
henri
henrik
henry
hepburn
hepworth
her
herald
heraldica
herb
herbert
hercules
here
heritage
herman
hermann
hermes
herna
hernandez
hero
heroes
herrera
herschel
herve
herzog
hess
hessen
het
hewitt
hey
hi
hic
hicks
hidalgo
hidden
hierarchy
higgins
high
higher
highlights
highway
hilary
hildesheim
hill
hillary
hills
hilton
him
himalaya
himmler
hindi
hindu
hip
hippolyte
hiragana
hiro
hiroshi
hiroshima
his
hist
histo
histoire
historia
historiae
historic
historica
historical
historique
history
hit
hitchcock
hitler
hitparade
hitparadeitalia
hits
hiv
hk
hl
hler
hls
hm
hms
ho
hobart
hobbit
hobby
hoc
hockeista
hockey
hockeydb
hoepli
hoffman
hoffmann
hogan
hohenzollern
hokkaido
hold
holden
holding
hole
holiday
holland
hollow
holly
hollywood
holm
holmes
holocaust
holstein
holt
holy
home
homepage
homer
homme
hommes
homo
hon
honda
honduras
honey
hong
honolulu
honor
honore
honoris
honour
hood
hook
hooker
hooper
hop
hope
hopkins
hopper
hor
hora
horace
horacio
horizon
horizons
horn
horne
horror
horse
horst
horton
hospital
host
hot
hotel
houghton
hour
hours
house
housing
houston
hovedstaden
hovedstadendisposizioni
how
howard
howe
howell
hp
hr
hrer
hrsg
hs
htm
html
http
https
hu
hua
huang
hub
hubbard
hubble
huber
hubert
hudson
huffington
hugh
hughes
hugo
hugues
hui
hulk
hull
human
humboldt
hume
humphrey
hundred
hung
hunger
hunt
hunter
hunting
huntington
huomini
huomo
hur
hurricane
hurt
husband
hussein
huston
hutchinson
hutton
hybrid
hyde
hye
hyun
hyundai
hz
i
ia
iaaf
iacopo
iam
ian
ias
iata
iau
ib
iba
iberia
iberica
ibge
ibid
ibidem
ibm
ibn
ibrahim
ibridi
ibrido
ibsf
ic
icao
iccu
ice
ich
ichi
icon
icona
icone
iconografia
ictus
id
ida
idaho
iddii
iddio
ide
idea
ideale
ideali
idealismo
idealmente
ideas
ideata
ideato
ideatore
ideazione
idee
idem
identica
identiche
identici
identico
identifica
identificabile
identificano
identificare
identificata
identificate
identificati
identification
identificato
identificazione
identifier
identita
identity
ideo
ideologia
ideologica
ideologico
ideologie
idioma
idiota
idol
idoli
idolo
idonei
idoneo
idraulica
idraulico
idrico
idrocarburi
idroelettrica
idrogeno
idrografico
idrovolante
idrovolanti
ie
ieee
iene
ieri
if
ifpi
ig
iga
igiene
igienici
igino
igl
iglesias
ign
ignacio
ignaro
ignazio
ignora
ignorando
ignorante
ignoranti
ignoranza
ignorare
ignorato
ignota
ignoti
ignoto
igor
ii
iihf
iii
ij
ik
ike
ikko
il
ila
ilaria
ilario
ilfattoquotidiano
ilg
ilgiornale
ili
iliade
ill
illa
ille
illecito
illegale
illegali
illegalmente
illegittimo
illinois
illumina
illuminare
illuminata
illuminati
illuminato
illuminazione
illuminismo
illusione
illusioni
illustra
illustrare
illustrata
illustrate
illustrated
illustrati
illustrativo
illustrato
illustratore
illustrazione
illustrazioni
illustre
illustri
ilo
ils
ilsole
im
ima
image
images
imagine
imaging
imam
imbarazzo
imbarcati
imbarcato
imbarcazione
imbarcazioni
imbarco
imbatte
imbattuto
imboscata
imdb
imitare
imitazione
immacolata
immagina
immaginare
immaginaria
immaginario
immaginato
immaginazione
immagine
immagini
immagino
immanuel
immediata
immediatamente
immediate
immediato
immensa
immense
immensi
immenso
immersa
immersi
immersione
immerso
immette
immigrati
immigrazione
imminente
immissione
immobile
immobili
immobiliare
immobiliari
immortal
immortale
immortali
immortalita
immune
immunita
imo
imola
imp
impact
impadronirsi
impara
imparare
imparato
imparentato
imparo
impasto
impatto
impaziente
impazienza
impazzire
impedendo
impedi
impedimento
impedire
impedisce
impediscono
impedito
impediva
impegna
impegnarsi
impegnata
impegnate
impegnati
impegnato
impegni
impegno
imperadore
imperativo
imperator
imperatore
imperatori
imperatrice
imperfetto
imperi
imperia
imperiadisposizioni
imperial
imperiale
imperiali
imperialismo
imperio
impero
imperocche
impeto
impetuoso
impianti
impianto
impiccato
impiega
impiegando
impiegare
impiegata
impiegate
impiegati
impiegato
impieghi
impiego
implacabile
implementare
implementazione
implica
implications
implicazioni
impollinazione
impone
imponendo
imponente
imponenti
imponeva
impongono
imporre
imporsi
importa
important
importante
importanti
importanza
importazione
importazioni
importo
impose
imposizione
impossessarsi
impossibile
impossibili
impossibilita
impossible
imposta
impostare
impostata
impostato
impostazione
impostazioni
imposte
imposti
imposto
impotente
impotenza
imprenditore
imprenditori
imprenditoriale
imprenditrice
impresa
impresario
imprese
impressa
impressionante
impressionato
impressione
impressioni
impresso
imprigionati
imprigionato
improbabile
impronta
impronte
impropriamente
improvvisa
improvvisamente
improvvisazione
improvviso
impulsi
impulso
imputati
imputato
in
ina
inanzi
inaspettata
inaspettatamente
inaspettato
inattivita
inaugura
inaugurale
inaugurata
inaugurato
inaugurazione
inauguro
inazuma
inc
inca
incantata
incantato
incantesimi
incantesimo
incanto
incapace
incapaci
incapacita
incarcerato
incarica
incaricata
incaricati
incaricato
incarichi
incarico
incarnato
incarnazione
incassato
incassi
incasso
ince
incendi
incendio
incenso
incentrata
incentrato
incerta
incerte
incertezza
incertezze
incerti
incerto
incessante
inch
inchiesta
inchieste
inchino
inchiostro
incide
incidente
incidenti
incidenza
incidere
incinta
incipit
incirca
incisa
incise
incisi
incisione
incisioni
inciso
incisore
inclinata
inclinato
inclinazione
incline
include
includendo
includere
includeva
includevano
includiintestazione
including
includono
inclusa
incluse
inclusi
inclusione
incluso
incognito
incomincia
incominciato
incomincio
incompiuta
incompiuto
incompleta
incompleto
inconscio
incontra
incontrando
incontrano
incontrare
incontrarono
incontrarsi
incontrati
incontrato
incontri
incontro
inconveniente
inconvenienti
incoraggia
incoraggiamento
incoraggiare
incoraggiato
incoraggio
incoronata
incoronato
incoronazione
incorpora
incorporata
incorporated
incorporato
incorporazione
incredibile
incredibili
incredibilmente
incredible
incrementare
incremento
incroci
incrociate
incrociatore
incrociatori
incrocio
incubi
incubo
incursione
incursioni
ind
indaga
indagare
indagati
indagato
indagine
indagini
indarno
inde
indegno
indennita
independence
independent
independiente
indeterminato
indetto
index
indi
india
indian
indiana
indianapolis
indiane
indiani
indiano
indians
indiapost
indica
indicando
indicano
indicante
indicare
indicata
indicate
indicati
indicativo
indicato
indicatore
indicatori
indicava
indicazione
indicazioni
indice
indici
indico
indie
indietro
indifferente
indifferenti
indifferenza
indigena
indigene
indigeni
indignazione
indipendente
indipendentemente
indipendenti
indipendenza
indiretta
indirettamente
indiretto
indirizzata
indirizzato
indirizzi
indirizzo
indispensabile
indispensabili
individua
individual
individuale
individuali
individualita
individualmente
individuare
individuata
individuate
individuati
individuato
individuazione
individui
individuo
indizi
indizio
indo
indocina
indole
indomani
indonesia
indonesiano
indoor
indossa
indossando
indossano
indossare
indossato
indossava
indosso
indotta
indotto
indovina
indovinare
indro
indu
indubbiamente
induce
induced
inducks
indugio
induismo
indulgenza
indumenti
indurre
indusse
industria
industrial
industriale
industriali
industrializzazione
industrie
industries
industry
induzione
ine
inedita
inedite
inediti
inedito
inerente
inerenti
inerte
inerzia
inesistente
inesorabile
inevitabile
inevitabilmente
inf
infame
infamia
infante
infantile
infantry
infanzia
infarto
infatti
infedele
infedeli
infelice
infelici
infelicita
inferi
inferiore
inferiori
inferiorita
infermi
infermiera
infermiere
infermita
infermo
infernale
inferno
infero
infezione
infezioni
infiammazione
infine
infinita
infinitamente
infinite
infiniti
infinito
infinity
infino
infiorescenza
infiorescenze
inflazione
infliggere
influence
influente
influenti
influenza
influenzare
influenzata
influenzati
influenzato
influenze
influenzo
influssi
influsso
info
inform
informa
informale
informare
informati
informatica
informatici
informatico
information
informativa
informativi
informativo
informato
informatore
informazione
informazioni
informo
infortunato
infortuni
infortunio
infra
infrastruttura
infrastrutture
infty
infuori
ing
ingaggia
ingaggiare
ingaggiata
ingaggiato
ingaggio
inganna
ingannare
ingannato
inganni
inganno
inge
ingegner
ingegnere
ingegneri
ingegneria
ingegni
ingegno
ingente
ingenti
ingenua
ingenuita
ingenuo
inghilterra
inghilterradisposizioni
ingiuria
ingiurie
ingiustamente
ingiustizia
ingiusto
inglese
inglesi
inglobata
inglobato
ingram
ingrandimento
ingrato
ingrediente
ingredienti
ingressi
ingresso
ingrid
inibitori
inibizione
iniezione
ininterrottamente
inizi
inizia
iniziale
iniziali
inizialmente
iniziando
iniziano
iniziare
iniziarono
iniziata
iniziate
iniziati
iniziativa
iniziative
iniziato
iniziava
iniziazione
iniziera
inizio
inn
innalza
innalzamento
innalzare
innalzato
innamora
innamorarsi
innamorata
innamorati
innamorato
innamoro
innanzi
innanzitutto
inner
innesto
inni
inno
innocent
innocente
innocenti
innocenza
innocenzo
innovation
innovativa
innovative
innovativi
innovativo
innovazione
innovazioni
innsbruck
innumerevoli
inoltre
inondazione
inondazioni
input
inquadrato
inquietante
inquieto
inquietudine
inquinamento
inquisitore
inquisizione
ins
insalata
insaputa
insects
insediamenti
insediamento
insediarono
insedio
insee
insegna
insegnamenti
insegnamento
insegnante
insegnanti
insegnare
insegnato
insegnava
insegne
insegno
insegue
inseguimento
inseguire
inseguito
insenatura
inserendo
inseri
inserimento
inserire
inserisce
inserita
inserite
inseriti
inserito
inserti
insetti
insetto
inside
insider
insidie
insieme
insiemi
insigne
insigni
insignita
insignito
insino
insiste
insistenza
insolita
insolitamente
insolito
insomma
insopportabile
insorgenza
insorgere
insorti
instabile
instabilita
instagram
installare
installata
installate
installati
installato
installazione
installazioni
instat
instaura
instaurare
institut
institute
institution
instituto
instrumental
instruments
insuccesso
insufficiente
insufficienti
insufficienza
insulti
insulto
insurrezione
int
intanto
intatta
intatto
inte
integra
integrale
integrali
integralmente
integrante
integrare
integrata
integrate
integrated
integrati
integrato
integrazione
integrita
integro
intel
intelletto
intellettuale
intellettuali
intelligence
intelligente
intelligenti
intelligenza
intenda
intende
intendendo
intendente
intendere
intendersi
intendeva
intendevano
intendimento
intendo
intendono
intensa
intensamente
intense
intensi
intensita
intenso
intenti
intento
intenzionato
intenzione
intenzioni
inter
intera
interactive
interagire
interamente
interazione
interazioni
intercessione
intercettare
intercetti
intercetto
intercontinental
intercontinentale
intere
interessa
interessamento
interessano
interessante
interessanti
interessarsi
interessata
interessate
interessati
interessato
interesse
interessi
interesso
interest
interfaccia
interferenza
interferenze
interferire
interi
interim
interior
interiore
interlocutore
interlude
intermedi
intermedia
intermedie
intermedio
intermezzo
interna
internacional
internamente
internati
international
internationale
internazionale
internazionali
interne
internet
interni
interno
intero
interpreta
interpretando
interpretare
interpretata
interpretate
interpretati
interpretato
interpretava
interpretazione
interpretazioni
interprete
interpreti
interpreto
interregionale
interroga
interrogare
interrogato
interrogatorio
interrogazione
interrompe
interrompere
interrotta
interrotte
interrotti
interrotto
interruppe
interruzione
interruzioni
interscambio
intersezione
intertoto
intervalli
intervallo
intervengono
intervenire
intervenne
interventi
intervento
intervenuto
interviene
interview
intervista
intervistato
interviste
intesa
intese
intesi
inteso
intestazione
intestinale
intestino
intima
intimi
intimita
intimo
intitola
intitolata
intitolate
intitolati
intitolato
into
intonaco
intonazione
intorno
intra
intrappolato
intraprende
intraprendere
intrapresa
intraprese
intrapreso
intrattenimento
intreccio
intrighi
intrigo
intrinseca
intrinseco
intro
introdotta
introdotte
introdotti
introdotto
introduce
introducendo
introduction
introdurre
introdusse
introduzione
intuire
intuisce
intuito
intuizione
inusuale
inutile
inutili
inutilmente
inv
invadere
invano
invariata
invariato
invasa
invase
invasero
invasion
invasione
invasioni
invaso
invasori
invecchiamento
invece
inventa
inventare
inventario
inventata
inventato
invento
inventore
invenzione
invenzioni
invernale
invernali
inverni
inverno
invero
inversa
inversione
inverso
invertebrati
investe
investi
investigare
investigation
investigatore
investigatori
investimenti
investimento
investire
investito
investitori
investitura
invia
inviando
inviare
inviarono
inviata
inviate
inviati
inviato
invidia
invincibile
invio
invisibile
invisibili
invisible
invita
invitare
invitata
invitati
invitato
inviti
invito
invocazione
involontariamente
involucro
inyxception
io
ioan
ioc
ion
ione
ioni
ionica
ionico
ionio
ios
iowa
ip
ipa
ipad
ipertensione
iphone
ipni
ipocrisia
ipotesi
ipotetica
ipotetico
ipotizza
ipotizzare
ipotizzato
ippolita
ippolito
ir
ira
iracheno
iran
iraniana
iraniano
iranica
iraq
ire
ireland
irene
iridata
iridate
iridato
iride
irina
iris
irish
irlanda
irlandese
irlandesi
irma
iron
ironia
ironicamente
ironico
ironman
irregolare
irregolari
irregolarita
irresistibile
irrigazione
irrompe
irruzione
irvine
irving
irwin
is
isa
isaac
isabel
isabella
isabelle
isacco
isaia
isbn
ischia
iscrisse
iscritta
iscritte
iscritti
iscritto
iscrive
iscriversi
iscrizione
iscrizioni
ise
iseo
isernia
iserniadisposizioni
iside
isidoro
isis
isla
islam
islamic
islamica
islamici
islamico
island
islanda
islandadisposizioni
islandese
islands
isle
ismail
iso
isola
isolamento
isolani
isolare
isolata
isolate
isolati
isolato
isole
isolotti
isolotto
isonzo
isotta
ispanici
ispettore
ispezione
ispira
ispirandosi
ispirata
ispirate
ispirati
ispirato
ispirazione
ispiro
israel
israele
israeledisposizioni
israeli
israeliana
israeliane
israeliani
israeliano
israeliti
iss
issn
issue
issues
ist
istanbul
istanbuldisposizioni
istantanea
istante
istanti
istanza
istanze
istat
istessa
istesso
istinti
istinto
istitui
istituire
istituisce
istituita
istituite
istituiti
istituito
istituti
istituto
istituzionale
istituzionali
istituzione
istituzioni
istmo
istoria
istorie
istria
istruito
istruttore
istruzione
istruzioni
istva
it
ita
ital
italia
italiadisposizioni
italian
italiana
italiancharts
italiane
italiani
italiano
italiaracing
italica
italici
italico
italie
italien
italo
italy
ite
item
iter
itf
itftennis
itinerante
itinerari
itinerario
itis
ito
its
itunes
itv
iu
iucn
iupac
iure
iuris
ius
iv
iva
ivan
ivana
ivano
ivanov
ivanovic
ivi
ivo
ivoriano
ivrea
ivy
ix
iz
izzo
j
ja
jaca
jack
jackie
jackson
jacksonville
jacob
jacobs
jacopo
jacqueline
jacques
jade
jae
jagger
jaguar
jaguars
jahre
jaime
jak
jake
jakob
jam
jamal
james
jameson
jamie
jan
jana
jane
janeiro
janet
jang
jansen
january
japan
japanese
jar
jared
jarod
jaroslav
jasmine
jason
jasper
java
javier
jay
jazz
jc
je
jean
jeanne
jeans
jedi
jeep
jeff
jefferson
jeffrey
jekyll
jen
jena
jenkins
jenna
jennifer
jennings
jenny
jens
jensen
jeong
jeremy
jericho
jerome
jerry
jersey
jerseydisposizioni
jerusalem
jerzy
jesi
jess
jesse
jessica
jessie
jesu
jesus
jet
jets
jeu
jeune
jewish
jews
ji
jia
jiang
jill
jim
jime
jimi
jimmy
jin
jir
jj
jm
jo
joa
joachim
joan
joanna
joanne
joaqui
job
jobs
jockey
jody
joe
joel
joey
johan
johann
johanna
johannes
johannesburg
johansson
john
johnny
johns
johnson
johnston
join
joins
joint
jojo
joker
jolly
jon
jonah
jonas
jonathan
jones
jong
jonny
joo
joon
jordan
jordi
jorge
jos
jose
josef
josep
joseph
josephine
josh
joshua
jour
journal
journey
jours
jovanotti
jovi
joy
joyce
jozef
jp
jpg
jpl
jr
js
jstor
ju
juan
jubilee
judaism
judd
jude
judge
judith
judo
judoka
judy
jugoslava
jugoslavia
jugoslavo
jul
jules
julia
julian
julie
julien
juliet
juliette
julio
julius
july
jump
jun
junction
june
jung
jungle
junior
juniores
juniors
junkers
juno
jupiter
jurassic
jure
jurij
jury
jus
jusqu
just
justice
justin
justine
juve
juventus
k
ka
kabul
kadereit
kadokawa
kafka
kahn
kai
kaiser
kal
kamen
kan
kane
kang
kanji
kansas
kant
kanye
kaplan
kappa
kar
kara
karabakh
karate
karel
karen
karim
karin
karl
karlsruhe
karma
karol
kart
kas
kashmir
kassel
kat
kate
katherine
kathleen
kathryn
kathy
katia
katie
kato
katrina
katy
katz
kaufman
kaunas
kawasaki
kay
kayak
kazakistan
kazako
kazan
kazimierz
kb
kc
ke
keaton
keep
kei
keith
keller
kelley
kellogg
kelly
kelvin
kemp
ken
kendall
kendrick
keniota
kenji
kennedy
kenneth
kenny
kent
kentucky
kentuckydisposizioni
kenya
kepler
ker
kerala
kermesse
kern
kernel
kerr
kerry
kevin
kew
key
keynes
keys
kg
kha
khalid
khalifa
khan
khmer
khz
ki
kick
kid
kidd
kids
kiel
kiev
kiki
kill
killed
killer
killers
killing
kim
kimberly
kimi
kin
kind
king
kingdom
kings
kingston
kino
kira
kirby
kirghizistan
kirk
kirsten
kiss
kit
kita
kitchen
kitty
kla
klaus
klein
klub
km
kmh
kn
knew
knight
knights
knock
know
knowledge
knowles
known
knows
knox
ko
kobayashi
kobe
koch
koda
kodansha
kom
kombat
kon
kong
konrad
konstantin
korea
korean
kos
kosovo
kov
kova
kr
kra
kraft
kramer
kraus
krause
kreis
kris
kristen
kristin
kristina
kru
krzysztof
ks
ku
kuala
kubrick
kumar
kun
kung
kunst
kupfer
kurt
kuwait
kv
kw
ky
kyj
kyle
kylie
kyo
kyoto
kyu
l
la
lab
labbra
labbro
label
labirinto
labor
laboratori
laboratorio
laboratory
labs
laburista
lac
lacci
laccio
lacrime
lacuna
lacune
laddove
laden
ladies
ladino
ladislao
ladri
ladro
lady
lafayette
laga
lager
laggiu
laghetto
laghi
lago
lagos
lagrime
laguna
lai
laica
laici
laico
lake
lakers
lam
lama
lamar
lamb
lambda
lambert
lamberto
lamborghini
lambro
lame
lamenta
lamenti
lamento
lamezia
lamina
lamine
lampada
lampade
lampedusa
lampi
lampo
lan
lana
lancaster
lance
lanci
lancia
lanciando
lanciano
lanciare
lanciarono
lanciata
lanciate
lanciati
lanciato
lanciatore
lanciatori
lancio
land
landau
landi
landing
landkreis
lando
landon
lands
lane
lanfranco
lang
lange
langle
language
languages
langue
languedoc
lanka
lanterna
lanterne
lanza
lanzo
lao
laonde
laos
laparola
lapide
lapidi
lara
larga
largamente
large
larghe
larghezza
larghi
largo
larino
lario
larousse
larry
lars
larsen
larson
larsson
larva
larve
las
lascera
lasci
lascia
lasciami
lasciamo
lasciando
lasciano
lasciar
lasciare
lasciarla
lasciarlo
lasciarono
lasciarsi
lasciata
lasciate
lasciati
lasciato
lasciava
lasciavano
lascio
lascito
laser
lasky
lassa
lasso
lassu
last
lastampa
lastra
lastre
lat
late
later
laterale
laterali
lateralmente
lateranense
laterano
laterizio
laterza
latest
lati
latin
latina
latinadisposizioni
latine
latini
latino
latinos
latitudine
latitudini
lato
latte
lattea
lau
lauda
laude
launch
launches
laura
laurea
laureandosi
laureata
laureati
laureato
laureatosi
laurel
lauren
laurence
laurent
laurenti
laureo
laurie
lauro
lausanne
lava
lavaggio
lavagna
laval
lavare
lavinia
lavora
lavorando
lavorano
lavorare
lavorarono
lavorativa
lavorativo
lavorato
lavoratore
lavoratori
lavorava
lavoravano
lavorazione
lavorazioni
lavori
lavoro
law
lawrence
laws
lawson
lay
laziale
lazio
laziodisposizioni
lazzari
lazzaro
lb
lc
lccn
ld
ldots
le
lea
leach
lead
leader
leaders
leadership
leading
leads
leaf
league
leale
leali
lealta
leandro
lear
learned
learning
leave
leaves
leben
lecce
leccedisposizioni
lecco
leccodisposizioni
lech
lecito
leclerc
led
lee
leeds
lefebvre
left
leg
lega
legabasket
legacy
legadue
legal
legale
legali
legalita
legalmente
legame
legamento
legami
legano
legare
legaseriea
legata
legate
legati
legato
legava
legavolley
legavolleyfemminile
legazione
lege
legend
legenda
legendary
legends
legge
leggenda
leggendaria
leggendario
leggende
leggendo
leggera
leggere
leggerezza
leggeri
leggermente
leggero
leggeva
leggi
leggo
leggono
leghe
legifrance
legio
legion
legionari
legione
legioni
legislativa
legislative
legislativi
legislativo
legislatore
legislatura
legislature
legislazione
legittima
legittimi
legittimita
legittimo
legna
legname
legnano
legni
legno
lego
legumi
lei
leibniz
leicester
leida
leiden
leigh
leila
leipzig
leita
lele
lelio
lembo
lemma
lemmario
lemon
len
lena
length
lenin
leningrado
lennon
lennox
lenny
lens
lenta
lentamente
lente
lentezza
lenti
lentini
lento
lenzi
leo
leon
leonard
leonardi
leonardo
leone
leonessa
leoni
leonid
leonida
leopard
leopardi
leopardizibaldone
leopardo
leopold
leopoldo
leopoli
lepidoptera
lepre
leq
lequipe
leroy
les
lesbia
lesbian
lescharts
lesene
lesione
lesioni
lesley
leslie
less
lesse
lessico
lesson
lester
let
letale
letizia
leto
lett
letta
letter
lettera
letterale
letteralmente
letterari
letteraria
letterarie
letterario
letterati
letterato
letteratura
letterature
lettere
letters
letti
letto
lettone
lettonia
lettore
lettori
lettres
lettura
letture
leu
leur
lev
leva
levante
levar
levare
levata
levato
leve
level
leventina
leventinadisposizioni
levi
levin
levine
levitico
levo
levy
lew
lewis
lex
lexicon
lexikon
lexington
lez
lezione
lezioni
lfp
lg
lgbt
lgs
li
lia
liam
liang
lib
libanese
libano
libbre
libe
liber
libera
liberal
liberale
liberali
liberalismo
liberalita
liberamente
liberando
liberare
liberarsi
liberata
liberati
liberation
liberato
liberatore
liberazione
libere
liberi
liberia
libero
liberta
libertadores
libertas
liberty
libia
libico
libra
libraria
library
libre
libreria
librerie
libretti
librettista
libretto
libri
librivox
libro
lica
licata
liceale
license
licenza
licenze
licenziamento
licenziato
liceo
licia
licinio
lidia
lido
lie
liebe
liechtenstein
liegi
lies
lieta
lieti
lieto
lieve
lievemente
lievi
lievito
life
lifetime
liga
ligabue
light
lightning
lights
ligi
lignaggio
ligne
lignea
lignee
ligneo
ligue
liguori
ligure
liguri
liguria
liguriadisposizioni
like
lil
liliana
lilla
lille
lillehammer
lillian
lilly
lily
lim
lima
limbo
limes
limit
limita
limitano
limitare
limitata
limitatamente
limitate
limitati
limitation
limitato
limitazione
limitazioni
limite
limited
limiti
limito
limitrofe
limitrofi
limits
limoges
limone
limpido
lin
lina
lincei
lincoln
linda
lindsay
lindsey
line
linea
lineamenti
lineare
lineari
linee
lines
linfociti
ling
lingua
linguaggi
linguaggio
lingue
linguista
linguistica
linguistiche
linguistici
linguistico
link
linkin
links
linnaeus
linnean
lino
linus
linux
linyphiidae
linz
lio
lion
lione
lionel
lionello
lions
lipari
lippi
lipsia
liquid
liquida
liquidazione
liquidi
liquido
liquore
liquori
lira
lire
lirica
liriche
lirici
lirico
lis
lisa
lisboa
lisbona
lisbonadisposizioni
liscia
liscio
list
lista
liste
listen
listino
liszt
lit
lite
literary
literates
literature
liti
litigare
litigio
litio
litografia
litorale
litri
litro
litta
litte
little
littoriale
littorio
lituana
lituani
lituania
lituaniadisposizioni
lituano
liturgia
liturgica
liturgici
liturgico
liu
liv
live
livelli
livello
liverpool
lives
livia
living
livingston
livio
livonia
livorno
livornodisposizioni
livre
livrea
lix
liz
lizzie
ll
lla
llc
lle
ller
llewellyn
lli
llo
lloyd
lm
ln
lnb
lnd
lo
loan
lobi
lobo
loc
local
locale
locali
localita
localizzare
localizzata
localizzato
localizzazione
localmente
locanda
locarno
locarnodisposizioni
locatelli
location
locations
locazione
loch
lock
locke
lockheed
loco
locomotiva
locomotive
locus
locuzione
loda
lodato
lode
lodge
lodi
lodidisposizioni
lodo
lodovico
log
logan
logge
loggia
loggiato
logic
logica
logiche
logici
logico
logistica
logistico
logo
logos
loi
loira
loiradisposizioni
loire
lois
loki
lokomotiv
lola
lolita
lombarda
lombarde
lombardi
lombardia
lombardiabeniculturali
lombardiadisposizioni
lombardo
londinese
london
londra
londradisposizioni
lone
lonely
long
longa
longanesi
longhi
longitudinale
longitudinali
longitudine
longman
longo
longobarda
longobardi
longobardo
lontana
lontananza
lontane
lontani
lontano
look
looking
looney
loop
lopes
lopez
lor
lord
lordo
lords
loredana
loren
lorena
lorenz
lorenzi
lorenzo
loreto
loretta
lori
loris
loro
lorraine
los
losanna
losannadisposizioni
lose
loser
loss
lost
lot
lotario
lothar
loto
lotta
lottare
lottatore
lottatori
lotte
lotteria
lotti
lotto
lotus
lou
loud
louie
louis
louisa
louise
louisiana
louisville
lounge
lourdes
louvre
lovanio
love
lovecraft
loved
lover
lovers
loves
loving
low
lowe
lowell
lower
lp
ls
lt
ltd
lu
lubiana
lubin
luc
luca
lucania
lucano
lucarelli
lucas
lucca
luccadisposizioni
lucchese
lucchesi
luce
lucente
lucera
lucerna
lucernadisposizioni
lucertola
luchino
luci
lucia
luciana
luciani
luciano
lucida
lucido
lucie
lucien
lucifero
lucio
lucius
luck
lucky
lucrezia
lucrezio
lucro
lucy
ludovica
ludovico
ludovisi
ludwig
luftwaffe
lug
lugano
luganodisposizioni
luglio
lugo
lui
luigi
luigia
luis
luisa
luiz
luka
lukas
luke
lulu
lume
lumi
lumie
luminosa
luminose
luminosi
luminosita
luminoso
lun
luna
lunar
lunare
lunari
lund
lune
lunedi
lunetta
lunette
lung
lunga
lungamente
lunghe
lunghezza
lunghezze
lunghi
lunghista
lungi
lungo
lungomare
lungometraggi
lungometraggio
luni
lunigiana
luoghi
luogo
luogotenente
lupa
lupi
lupin
lupo
lupus
lur
lussemburghese
lussemburgo
lusso
lussuria
lust
lustro
luterana
lutero
luther
luthor
lutto
lutz
lux
luxembourg
luz
lv
lvarez
lvaro
lx
ly
lydia
lyle
lyn
lynch
lynn
lynx
lyon
lyons
lyric
lyrics
m
ma
mabel
mac
macao
macario
macarthur
macbeth
maccabi
macchi
macchia
macchie
macchina
macchinari
macchine
macdonald
macedone
macedoni
macedonia
macerata
maceratadisposizioni
macerie
mach
machado
machiavelli
machine
machines
macintosh
mack
mackay
mackenzie
macmillan
macos
macro
mad
madagascar
madama
madame
maddalena
madden
made
madeleine
madeline
mademoiselle
madison
madness
madonna
madre
madrepatria
madri
madrid
madriddisposizioni
madrigale
mae
maesta
maestoso
maestra
maestranze
maestri
maestria
maestro
maffei
mafia
mafiosa
mafiosi
mafioso
mag
maga
magari
magazine
magazzini
magazzino
magda
magdalena
magdeburgo
magenta
maggi
maggie
maggio
maggior
maggioranza
maggiordomo
maggiore
maggiori
maggioritario
maggiormente
maghi
magi
magia
magic
magica
magiche
magici
magico
magister
magistero
magistrale
magistrati
magistrato
magistratura
maglia
maglie
maglietta
magma
magna
magnani
magnanimo
magnate
magnesio
magnetic
magnetica
magnetici
magnetico
magni
magnifica
magnificenza
magnifici
magnifico
magnitudine
magnitudo
magno
magnolia
magnum
magnus
mago
magonza
magra
magro
magyar
mah
maha
mahler
mahmud
mai
maia
maiale
maiali
maid
maiden
maigret
mail
maimonide
main
maine
mainstream
maio
maiolica
maiorca
mairie
mais
maison
major
make
maker
makes
making
makoto
maksim
mal
mala
malaga
malamente
malaria
malaspina
malata
malatesta
malati
malato
malattia
malattie
malavita
malawi
malaysia
malcolm
malcontento
male
maledetta
maledetto
maledizione
malese
malesi
malesia
malgrado
mali
maligno
malik
malinconia
malinconico
malizia
mall
malmo
malo
malone
malore
malta
maltadisposizioni
maltempo
maltese
malvagi
malvagia
malvagio
malvagita
mama
mamma
mammal
mammals
mammiferi
mammifero
man
mana
management
manager
manca
mancando
mancano
mancante
mancanti
mancanza
mancare
mancarono
mancata
mancato
mancava
mancavano
manche
manchester
manchi
mancia
mancini
mancino
manco
mancuso
manda
mandamento
mandando
mandare
mandarino
mandata
mandate
mandati
mandato
mandava
mandibola
mando
mandolino
mandorle
mandy
mane
maneggio
manera
manetti
manfred
manfredi
manfredo
manfredonia
manga
mangia
mangiano
mangiar
mangiare
mangiato
mangio
mango
manhattan
mani
mania
manica
maniche
manico
manicomio
maniera
maniere
maniero
manifattura
manifesta
manifestano
manifestanti
manifestare
manifestarsi
manifestato
manifestazione
manifestazioni
manifesti
manifesto
manila
manipolare
manipolazione
manlio
mann
manna
mannelli
mannheim
manni
manning
mannini
manno
manny
mano
manodopera
manon
manor
manoscritti
manoscritto
manovra
manovre
mans
mansfield
mansioni
manson
mantegna
mantello
mantenendo
mantenere
mantenersi
manteneva
mantengono
mantenimento
mantenne
mantennero
mantenuta
mantenuti
mantenuto
mantiene
manto
mantova
mantovadisposizioni
mantovani
mantovano
manu
manual
manuale
manuali
manualmente
manuel
manuela
manuele
manufacturing
manufatti
manufatto
manutenzione
many
manzo
manzoni
mao
maometto
map
mappa
mappe
maps
mar
mara
maradona
marano
marathon
maratona
maratoneta
maratti
maraviglia
marc
marca
marcantonio
marcata
marcato
marcatore
marcatori
marcatura
marcature
marce
marcel
marcella
marcellino
marcello
marcelo
march
marche
marchedisposizioni
marchesa
marchesato
marchese
marchesi
marchetti
marchi
marchio
marcia
marciano
marciapiede
marciapiedi
marciare
marcio
marco
marconi
marcos
marcus
mare
marea
marek
maremma
marengo
maresciallo
margaret
margarita
marge
margherita
marginale
marginali
margine
margini
margot
margravio
marguerite
mari
maria
mariah
marian
mariana
mariani
marianna
marianne
mariano
maribor
marie
marija
marijuana
marilyn
marin
marina
marinai
marinaio
marine
marinelli
marines
marinetti
marini
marinisti
marino
marinodisposizioni
mario
marion
marionette
mariotti
marisa
mariti
maritime
marito
marittima
marittime
marittimi
marittimo
marius
marjorie
mark
market
marketing
marko
marks
markus
marlborough
marlene
marley
marlon
marmi
marmo
marmorea
marmoreo
marna
marne
marocchino
marocco
marquis
marra
marrakech
marriage
married
marrone
marroni
mars
marsala
marseille
marsh
marshal
marshall
marsi
marsica
marsiglia
marsilio
mart
marta
marte
martedi
martelli
martello
martha
marti
martin
martina
martinelli
martinengo
martinez
martini
martino
martins
martire
martiri
martirio
martirologio
marty
marvel
marvin
marx
marxismo
marxista
mary
maryland
marzano
marziale
marziali
marziano
marzio
marzo
mas
mascella
mascelle
maschera
mascherato
maschere
maschi
maschile
maschili
maschio
mascotte
maserati
masi
masini
mask
maso
mason
mass
massa
massachusetts
massacre
massacri
massacro
massari
masse
masseria
massi
massicce
massicci
massiccia
massiccio
massima
massimamente
massime
massimi
massimiano
massimiliano
massimino
massimo
massive
masso
masson
massoneria
master
mastering
masters
mastino
mastro
mastroianni
mat
mata
match
mate
matematica
matematiche
matematici
matematico
mateo
mater
matera
materadisposizioni
materia
material
materiale
materiali
materialismo
materials
materie
materna
maternita
materno
math
mathbb
mathbf
mathcal
mathematical
mathematics
mathias
mathieu
mathis
mathrm
mati
matilda
matilde
matita
mato
matrice
matrici
matricola
matrigna
matrimoni
matrimoniale
matrimonio
matrix
matt
matta
mattarella
mattei
matteo
matteotti
matter
matthew
matthews
matthias
matti
mattia
mattina
mattinata
mattino
mattioli
matto
mattoli
mattone
mattoni
matura
maturato
maturazione
maturi
maturita
maturo
maud
maura
maureen
mauri
maurice
mauricio
mauritania
mauritius
maurizio
mauro
mausoleo
maverick
max
maxi
maxim
maxime
maximilian
maximum
maxwell
may
maya
mayer
maynard
mayo
mayor
mayr
mazara
mazda
mazza
mazzarino
mazzi
mazzini
mazzo
mazzola
mazzoni
mb
mbox
mc
mccarthy
mccartney
mccoy
mcdonald
mcdonnell
mcfarland
mcgee
mcgraw
mcgregor
mcintyre
mckay
mckenzie
mclaren
mclean
mcmahon
md
me
mea
mean
meaning
means
meat
mecca
meccanica
meccaniche
meccanici
meccanico
meccanismi
meccanismo
meccanizzata
mecenate
mecklenburg
meclemburgo
meco
med
medaglia
medaglie
medaglione
medaglioni
medal
medea
medesima
medesime
medesimi
medesimo
medi
media
mediagroup
mediale
mediamente
mediana
mediano
mediante
mediaset
mediatore
mediazione
medica
medical
medicea
mediche
medici
medicina
medicinali
medicine
medico
medie
medien
medieval
medievale
medievali
medii
medina
medio
mediocre
medioevale
medioevali
medioevo
mediolanum
meditazione
meditazioni
mediterranea
mediterranean
mediterranee
mediterraneo
medium
medley
medusa
meet
meeting
meets
meg
mega
megan
meglio
mehmed
mehmet
mehoz
mei
meier
meiji
mein
meis
mel
mela
melanie
melbourne
melchiorre
mele
melfi
meli
melinda
melissa
mello
melo
melodia
melodica
melodie
melodramma
melody
meloni
melville
melvin
member
members
membra
membrana
membrane
membri
membro
memo
memoire
memoirs
memorabile
memorabili
memorandum
memoria
memorial
memoriale
memorie
memories
memory
memphis
men
mena
mendelssohn
mendes
mendoza
mendrisio
mendrisiodisposizioni
mene
menelao
meno
mens
mensa
mensile
mensili
mensole
ment
mental
mentale
mentali
mentalita
mentalmente
mente
mentha
menti
mentire
mentito
mento
mentore
mentre
menu
menziona
menzionare
menzionata
menzionati
menzionato
menzione
menzogna
menzogne
meo
mer
mera
merano
meraviglia
meraviglie
meravigliosa
meraviglioso
mercante
mercanti
mercantile
mercantili
mercati
mercato
merce
mercede
mercedes
mercenari
mercenario
mercer
merci
mercoledi
mercurio
mercury
mercy
merda
meredith
meridiana
meridiano
meridionale
meridionali
meridione
merita
meritano
meritato
meriti
merito
merli
merlin
merlino
merlo
mero
merriam
merrill
merry
mes
mesa
meschino
mescola
mescolanza
mese
mesi
mesopotamia
mesoregione
mess
messa
message
messaggero
messaggi
messaggio
messe
messenger
messer
messi
messia
messianica
messicana
messicani
messicano
messico
messicodisposizioni
messina
messinadisposizioni
messo
mestiere
mestieri
mesto
mestre
met
meta
metabolismo
metabrainz
metacritic
metafisica
metafora
metal
metalli
metallica
metalliche
metallici
metallico
metallo
metallum
metamorfosi
metano
metastasio
mete
meteo
meteorologia
meteorologica
meteorologiche
meteorologico
method
methods
metodi
metodo
metodologia
metodologie
metri
metrica
metrico
metro
metropoli
metropolis
metropolita
metropolitan
metropolitana
metropolitane
metropolitano
metta
mette
mettendo
mettendosi
metter
mettera
mettere
metterlo
mettersi
metteva
mettevano
metti
metto
mettono
metz
mexican
mexicana
mexico
meyer
mez
mezo
mezz
mezza
mezzaluna
mezzanotte
mezzetti
mezzi
mezzo
mezzodi
mezzofondista
mezzogiorno
mezzosoprano
mf
mg
mgm
mh
mhz
mi
mia
miami
mic
mica
michael
michaela
michaels
michail
michajlovic
michal
michał
michel
michela
michelangelo
michele
micheli
michelin
michelle
michigan
mick
mickey
micro
microfono
microregione
microscopio
microsoft
mid
middle
middleton
midi
midnight
midollo
midway
mie
miei
miele
mig
might
mighty
miglia
migliaia
migliaio
miglio
miglior
migliora
miglioramenti
miglioramento
migliorando
migliorare
migliorata
migliorati
migliorato
migliore
migliori
migliorie
miglioro
migranti
migrazione
migrazioni
miguel
mihai
mihi
mika
mikael
mike
mikhail
miki
mil
mila
milan
milanese
milanesi
milani
milano
milanodisposizioni
milazzo
mile
milena
miles
mileto
miley
miliardario
miliardi
miliardo
milione
milioni
milita
militante
militanti
militanza
militare
militari
militarmente
military
militato
militi
milito
milizia
milizie
milk
mill
mille
millenni
millennio
millennium
miller
millimetri
million
mills
milo
milord
milos
milton
milwaukee
mimesis
mimi
mimmo
min
mina
minacce
minaccia
minacciando
minacciare
minacciata
minacciato
minacciava
minaccio
minaccioso
minaj
minas
minato
minatori
mincio
mind
minds
mine
mineiro
mineral
minerale
minerali
mineraria
minerario
minerva
minestra
minetest
ming
minh
mini
miniato
miniatura
miniature
miniera
miniere
minima
minime
minimi
minimo
miniserie
ministe
minister
ministeri
ministeriale
ministero
ministri
ministro
ministry
minneapolis
minnesota
mino
minor
minoranza
minoranze
minore
minorenne
minorenni
minori
minorplanetcenter
minsk
minus
minuscolo
minuta
minute
minutes
minuti
minuto
mio
miocene
mir
mira
mirabile
miracle
miracoli
miracolo
miracolosa
miracolosamente
miracoloso
mirage
miranda
mirando
mirandola
mirano
mirava
mircea
mire
mirella
miriam
mirino
mirko
miro
miroslav
mirror
mirza
mis
miscela
miscellanea
mischia
mise
misera
miserabile
miserabili
miseramente
miseri
miseria
misericordia
miserie
misero
mishneh
miss
missa
missaggio
missile
missili
missing
mission
missionari
missionaria
missionarie
missionario
missione
missioni
mississippi
missouri
missy
mista
miste
mister
misteri
misteriosa
misteriosamente
misteriose
misteriosi
misterioso
mistero
misti
mistica
misticismo
mistico
misto
misura
misurano
misurare
misurata
misurato
misurazione
misurazioni
misure
mit
mitch
mitchell
mite
miti
mitica
mitico
mito
mitologia
mitologico
mitra
mitragliatrice
mitragliatrici
mitragliere
mitridate
mitsubishi
miu
mix
mixed
mixtape
miyazaki
mj
mk
ml
mlb
mln
mls
mm
mma
mme
mn
mo
mob
mobile
mobili
mobilita
mobilitazione
moby
mobygames
mod
moda
modalita
mode
model
modella
modellato
modelli
modello
models
modena
modenadisposizioni
modenese
moderata
moderatamente
moderati
moderato
moderazione
modern
moderna
moderne
moderni
modernita
modernizzazione
moderno
modesta
modeste
modesti
modestia
modesto
modi
modica
modifica
modificando
modificare
modificata
modificate
modificati
modificato
modificazione
modificazioni
modifiche
modifico
modo
modugno
modulare
modulazione
moduli
modulo
moe
mogli
moglie
mogol
mohamed
mohammad
mohammed
moi
moire
moires
mojo
mol
mola
molari
moldavia
moldavo
mole
molecola
molecolare
molecolari
molecole
molecular
molestie
molfetta
moli
molie
molina
molinari
molino
molise
molisedisposizioni
molla
molle
molli
molluschi
molly
molo
molta
molte
molteplici
molteplicita
molti
moltiplicazione
moltissime
moltissimi
moltissimo
moltitudine
molto
mom
moment
momentaneamente
momentaneo
momenti
momento
mon
mona
monaca
monache
monachi
monaci
monaco
monacodisposizioni
monarca
monarchi
monarchia
monarchico
monarchie
monasteri
monastero
monastica
monastico
moncada
mondadori
monday
monde
mondi
mondiale
mondiali
mondo
mondovi
monet
moneta
monetaria
monetario
monetazione
monete
money
monfalcone
monferrato
mongoli
mongolia
mongolo
monica
monicelli
monique
monitor
monitoraggio
monitorare
monk
monkey
monnier
mono
monofore
monografia
monografie
monologo
monomotore
monopoli
monopolio
monoposto
monreale
monroe
mons
monsieur
monsignor
monsignore
monster
monsters
mont
monta
montaggio
montagna
montagne
montalbano
montale
montalto
montana
montanari
montane
montanelli
montani
montano
montare
montata
montate
montati
montato
montatore
montava
monte
montecarlo
montecassino
montecatini
montecuccoli
montefeltro
monteleone
montenegrino
montenegro
montepremi
montepulciano
montero
montes
monteverdi
montevideo
montfort
montgomery
month
monthly
monti
monticelli
montichiari
montone
montpellier
montre
montreal
montreux
montuosa
montuose
montuoso
monty
monument
monumenta
monumentale
monumentali
monumenti
monumento
monuments
monza
moody
moon
moonlight
moore
mor
mora
moral
morale
morales
morali
moralita
moralmente
moran
morandi
morandini
moravia
morbida
morbido
morbo
more
moreau
morelli
morena
morendo
moreno
morente
moretti
morfologia
morgan
morgana
mori
morir
morira
morire
morirono
moritz
moriva
mormoro
morning
moro
moroni
morosini
morra
morricone
morris
morrison
morrow
morse
morsi
morso
mort
morta
mortai
mortaio
mortal
mortale
mortali
mortalita
mortalmente
morte
morti
mortimer
morto
morton
mos
mosa
mosaici
mosaico
mosca
mosche
moschea
moschee
moschettieri
moscow
mose
mosella
moser
moses
moshe
moskva
moskvadisposizioni
moss
mossa
mosse
mossero
mossi
mosso
most
mosto
mostra
mostrando
mostrano
mostrare
mostrarono
mostrarsi
mostrata
mostrate
mostrati
mostrato
mostrava
mostravano
mostre
mostri
mostro
mostruoso
motel
mother
moths
moti
motion
motivato
motivazione
motivazioni
motivi
motivo
moto
motocicletta
motociclette
motociclistico
motogp
motomondiale
motor
motore
motori
motorizzata
motorizzazione
motorizzazioni
motors
motorsport
motrice
motrici
motta
motti
motto
motu
moulin
mount
mountain
mountains
mouse
mouth
move
movement
moves
movie
movieplayer
movies
movimenti
movimento
moving
moyen
mozambico
mozart
mozilla
mozione
mozzo
mp
mpc
mr
mrs
ms
msi
msn
mss
mt
mta
mtv
mu
mucca
mucchio
much
mugello
muh
muhammad
mulini
mulino
muller
mulo
multa
multi
multimedia
multimediale
multimediali
multinazionale
multipla
multiplayer
multiple
multipli
multiplista
multiplo
mumbai
mummia
mun
mundi
mundo
munich
municipal
municipale
municipali
municipalita
municipalite
municipio
municipios
munita
muniti
munito
munizioni
muoiono
muore
muove
muovere
muoversi
muovono
mur
mura
murad
muraglia
murale
muraria
murat
murata
muratore
muratori
muratura
murcia
murder
murdoch
muri
muro
murphy
murray
mursia
mus
musa
muscle
muscolare
muscolari
muscoli
muscolo
muse
museale
musei
museo
museodelciclismo
museum
music
musica
musical
musicale
musicali
musicalmente
musicbrainz
musiche
musicians
musicista
musicisti
musicologo
musiikkituottajat
musik
musikindustrie
musique
muslim
muso
mussolini
must
mustafa
mustang
musulmana
musulmani
musulmano
muta
mutamenti
mutamento
mutante
mutanti
mutare
mutata
mutato
mutazione
mutazioni
mute
muti
muto
mutua
mutuo
muzio
mv
mvp
mw
mx
my
myanimelist
myanmar
myers
mymovies
myself
myspace
myste
mystery
mystic
myth
mythology
n
na
nabla
nach
nacional
nacque
nacquero
nad
nada
nadal
nadia
nadir
nadu
nagano
nagasaki
nagorno
nagoya
nagy
nai
naik
nairobi
nakamura
naked
nam
name
named
names
namibia
namur
nan
nana
nanchino
nancy
nando
nane
nani
nanna
nanni
nannini
nano
nantes
naomi
napoleon
napoleone
napoleonica
napoleoniche
napoleonico
napoletana
napoletane
napoletani
napoletano
napoli
napolidisposizioni
napolitano
nara
narbona
narciso
nardi
nardo
nare
narentanadisposizioni
narici
naro
narod
narra
narrano
narrante
narrare
narrata
narrate
narrati
narrativa
narrative
narrativo
narrato
narratore
narrazione
narrazioni
narro
naruto
nas
nasa
nasale
nascar
nasce
nascente
nascere
nasceva
nascimento
nascita
nascite
nasconde
nascondere
nascondersi
nascondiglio
nascondono
nascono
nascose
nascosta
nascoste
nascosti
nascosto
nash
nashville
naso
nassau
nastri
nastro
nasty
nat
nata
natal
natale
natali
natalia
natalie
natalizio
natasha
nate
nathalie
nathan
nathaniel
nati
natia
natio
nation
national
nationale
nations
nativa
native
nativi
nativita
nativo
nato
natura
natural
naturale
naturali
naturalis
naturalismo
naturalista
naturalistica
naturalistico
naturalizzata
naturalizzato
naturalmente
nature
nau
naufraghi
naufragio
naughty
nausea
nautica
nautiche
nava
naval
navale
navali
navarra
navarro
navata
navate
nave
naver
navetta
navi
navicella
navigare
navigatore
navigazione
naviglio
navra
navy
naxos
nazareth
nazi
nazionale
nazionali
nazionalismo
nazionalista
nazionalisti
nazionalita
nazione
nazioni
nazismo
nazista
naziste
nazisti
nb
nba
nbc
nbdl
nbl
nc
ncaa
ncbi
nchen
nchez
ncis
nd
nde
ndel
nder
ndez
ndrangheta
ne
nea
neal
neanche
near
nebbia
nebbie
nebraska
nebula
nebulosa
nebulose
neburg
nec
necessari
necessaria
necessariamente
necessarie
necessario
necessita
necessitano
necrologio
necropoli
ned
nederlandse
need
nega
negare
negata
negativa
negativamente
negative
negativi
negativo
negato
negazione
negli
negligenza
nego
negozi
negoziare
negoziati
negozio
negra
negri
negro
nei
neil
neill
nek
nel
nell
nella
nelle
nelli
nellie
nello
nelly
nelson
nemica
nemiche
nemici
nemico
nemmeno
nemo
nen
neo
neoclassica
neoclassico
neogotico
neolitico
neon
neonata
neonati
neonato
neozelandese
nepal
neppur
neppure
neq
ner
nera
nerazzurri
nere
neretvanska
neri
nero
nerone
nervi
nervo
nervosa
nervoso
nes
nesso
nessun
nessuna
nessuno
nestor
net
netflix
netherlands
netta
nettamente
nettare
netto
nettuno
network
networks
neucha
neue
neumann
neuroni
neutrale
neutralita
neutro
neutroni
nevada
neve
never
nevers
nevi
neville
new
newark
newcastle
newell
newman
newport
news
newsletter
newton
next
nexus
nez
nf
nfc
nfl
ng
ngc
ngel
nger
nh
nhl
ni
nia
niagara
nic
nica
nicaragua
nicchia
nicchie
niccolo
nice
nicea
niceforo
nichel
nicholas
nichols
nicholson
nicht
nick
nickelodeon
nicki
nicky
nico
nicola
nicolae
nicolai
nicolas
nicole
nicoletta
nicoletti
nicolini
nicolo
nicosia
nicosiadisposizioni
nidi
nido
nie
niedero
niedersachsen
niels
nielsen
nient
niente
nietzsche
nig
nigel
niger
nigeria
nigeriano
night
nightmare
nights
nigsberg
nih
nihil
nik
nike
niki
nikita
nikki
nikola
nikolaevic
nikolaj
nikolaus
niles
nilo
nils
nilsson
nimici
nin
nina
nine
ninfa
ninfe
nini
ninja
nino
nintendo
nio
nipote
nipoti
nippon
nipponica
nirvana
nis
nisi
nissan
nitrato
nitro
niun
niuna
niuno
nixon
niz
nizza
nj
nk
nl
nlm
nm
nme
nn
nno
no
noaa
noah
nobel
nobelprize
nobil
nobildonna
nobile
nobili
nobiliare
nobiliari
nobilissima
nobilta
nobis
noble
nobody
noce
nocera
noci
nodi
nodo
noe
noel
noemi
noi
noia
noioso
noir
noise
nokia
nol
nola
nolan
noleggio
noli
nom
noma
nomadi
nome
nomen
nomenclatura
nomenclature
nomi
nomina
nominale
nominare
nominata
nominati
nomination
nominations
nominativo
nominato
nomine
nominees
nomino
non
nona
nonche
nondimeno
none
nonna
nonni
nonno
nono
nonostante
nor
nora
norbert
norcia
nord
nordafrica
nordamerica
nordamericana
nordamericano
norddisposizioni
nordest
nordica
nordico
nordirlandese
nordoccidentale
nordorientale
nordovest
nordrhein
norfolk
norge
norimberga
norma
normal
normale
normali
normalita
normalmente
norman
normandia
normandiadisposizioni
normandie
normanna
normanni
normanno
normativa
normative
normativo
norme
norris
norte
north
northern
northumberland
northwest
norton
norvegese
norvegesi
norvegia
norvegiadisposizioni
norway
norwegian
norwich
nos
nossa
nostalgia
nostra
nostre
nostri
nostro
not
nota
notabile
notabili
notai
notaio
notando
notano
notare
notarile
notata
notato
notazione
note
notes
notevole
notevoli
notevolmente
nothing
noti
notice
notices
notifica
notitia
notizia
notiziario
notizie
noto
notorieta
notre
notte
notti
nottingham
notturna
notturne
notturni
notturno
nou
nous
nouveau
nouvelle
nouvelles
nov
nova
novak
novanta
novara
novaradisposizioni
novarese
nove
novecento
novel
novella
novelle
novelli
novello
november
novembre
novgorod
novi
novita
novo
now
nowhere
nozione
nozioni
nozze
np
npr
nps
nr
ns
nster
nt
nta
nter
nther
nu
nube
nubi
nuca
nuclear
nucleare
nucleari
nuclei
nucleo
nuda
nude
nudi
nudo
nueva
nuevo
nuit
null
nulla
nulle
nullita
nullo
num
number
numbers
nume
numerate
numerazione
numeri
numerica
numerico
numero
numerosa
numerose
numerosi
numerosissimi
numeroso
numi
numismatica
numismatico
nun
nunc
nunzio
nuora
nuoro
nuorodisposizioni
nuotare
nuotatore
nuotatrice
nuoto
nuova
nuovamente
nuove
nuovi
nuovo
nur
nuraghe
nus
nutre
nutrice
nutrimento
nutrire
nutrirsi
nutrito
nutriva
nutrizione
nutrono
nuvola
nuvole
nuziale
nwa
nxt
ny
nyc
nye
nyi
nyj
nytimes
nz
o
oa
oak
oakland
oasi
oasis
oav
ob
obama
obbedienza
obbedire
obbiettivo
obbliga
obbligata
obbligati
obbligato
obbligatoria
obbligatorio
obbligazione
obbligazioni
obblighi
obbligo
obelisco
obi
obiettivi
obiettivo
obiezioni
obituary
object
objects
oblast
oblio
oboe
observations
observatory
observer
obsoleto
oc
oca
occasionale
occasionali
occasionalmente
occasione
occasioni
occhi
occhiali
occhiata
occhio
occidentale
occidentali
occidente
occitania
occitaniadisposizioni
occitano
occorre
occorrenza
occorreva
occulta
occulto
occupa
occupando
occupandosi
occupano
occupanti
occupare
occuparono
occuparsi
occupata
occupate
occupati
occupato
occupava
occupavano
occupazione
occupazioni
occupo
ocean
oceani
oceania
oceanica
oceano
och
oclc
oct
october
octopus
oculare
od
oda
odd
oddone
ode
odeon
oder
odescalchi
odessa
odi
odia
odiare
odiato
odierna
odierni
odierno
odino
odio
odissea
odo
odoardo
odore
odori
odyssey
of
off
offende
offendere
offensiva
offensive
offensivo
offerta
offerte
offerti
offerto
offesa
offese
offeso
office
officer
official
officialcharts
officina
officine
officio
offre
offrendo
offri
offrire
offriva
offrono
oficial
og
oggetti
oggettiva
oggetto
oggi
oggidi
oggigiorno
oglio
ogn
ogni
ognissanti
ognor
ognun
ognuna
ognuno
ographie
oh
ohio
oi
oil
oime
ois
oise
ok
okinawa
oklahoma
ol
ola
olaf
olanda
olandese
olandesi
olbia
old
oldenburg
oldid
ole
oleg
oleksandr
olga
oli
olimpia
olimpiade
olimpiadi
olimpica
olimpiche
olimpici
olimpico
olimpo
olindo
olio
oliva
olive
oliveira
oliver
olivetti
olivia
olivier
olivieri
oliviero
olivo
olmi
olmo
olocausto
ologie
olomouc
olona
olotipo
olschki
olsen
olson
oltra
oltraggio
oltre
oltreche
oltremare
oltretutto
olympedia
olympia
olympiakos
olympic
olympics
olympique
om
omaggio
omai
oman
omar
ombra
ombre
ombrello
omega
omegatiming
omero
omettono
omicida
omicidi
omicidio
omnes
omnia
omnibus
omnium
omo
omogenea
omogeneo
omonima
omonimo
omosessuale
omosessuali
omosessualita
oms
on
ona
once
ond
onda
ondarock
ondata
ondate
onde
one
onere
oneri
ones
onesta
onesti
onesto
ong
online
onlus
only
onnipotente
ono
onofrio
onomastica
onomastico
onor
onora
onorare
onoraria
onorario
onorata
onorati
onorato
onore
onorevole
onori
onorificenza
onorificenze
onorifico
onorio
ons
ont
onta
ontario
onu
onze
op
opac
ope
opel
open
opening
openmlol
openpolis
opera
operai
operaia
operaie
operaio
operando
operano
operante
operanti
operare
operata
operate
operation
operations
operativa
operative
operativi
operativo
operato
operatore
operatori
operatorname
operava
operavano
operazione
operazioni
opere
operetta
operette
opero
opinion
opinione
opinioni
opinionista
oppio
oppone
opporre
opporsi
opportuna
opportunamente
opportune
opportuni
opportunita
opportuno
oppose
opposero
oppositori
opposizione
opposizioni
opposta
opposte
opposti
opposto
oppressi
oppressione
oppresso
oppure
opra
opre
opt
opto
opus
opuscoli
opuscolo
opzione
opzioni
or
ora
oracle
oracolo
oral
orale
orali
oramai
orange
orari
orario
oratore
oratori
oratorio
orazio
orazione
orazioni
orbita
orbitale
orbitali
orbite
orchestra
orchestrale
orchestre
orchi
orchidee
orco
ord
orda
order
orders
ordigni
ordigno
ordina
ordinamenti
ordinamento
ordinando
ordinanza
ordinanze
ordinare
ordinari
ordinaria
ordinariamente
ordinarie
ordinario
ordinata
ordinate
ordinati
ordinato
ordinazione
ordine
ordini
ordino
ordre
ore
orecchi
orecchie
orecchio
oregon
oreste
orfana
orfani
orfano
orfanotrofio
orfeo
org
organ
organi
organic
organica
organiche
organici
organico
organisation
organismi
organismo
organista
organization
organizza
organizzando
organizzano
organizzare
organizzarono
organizzata
organizzate
organizzati
organizzativa
organizzativo
organizzato
organizzatore
organizzatori
organizzazione
organizzazioni
organizzo
organo
orgoglio
orgoglioso
ori
oricon
orient
oriental
orientale
orientali
orientalista
orientamento
orientata
orientato
oriente
origin
origina
original
originale
originali
originalita
originals
originari
originaria
originariamente
originarie
originario
origine
origini
origins
orion
orione
oristano
oristanodisposizioni
orizzontale
orizzontali
orizzontalmente
orizzonte
orizzonti
orlandi
orlando
orle
orleans
orlo
ormai
orme
ormone
ormoni
ornamentale
ornamentali
ornamenti
ornamento
ornata
ornati
ornato
ornella
ornithologists
oro
orologi
orologio
orribile
orribili
orrore
orrori
orsa
orsay
orsi
orsini
orso
orsola
orson
orsu
orta
ortega
orti
ortiz
orto
ortodossa
ortodossi
ortodossia
ortodosso
ortografia
ortolani
orton
ortona
orvieto
orzo
os
osa
osaka
osato
osborn
osborne
osbourne
oscar
oscillazioni
oscura
oscure
oscuri
oscurita
oscuro
osi
osimo
osiride
oskar
oslo
osman
oso
ospedale
ospedali
ospedaliero
ospita
ospitalita
ospitano
ospitante
ospitare
ospitata
ospitati
ospitato
ospitava
ospite
ospiti
ospito
ospizio
osprey
ossa
ossei
osseo
osserva
osservabile
osservando
osservano
osservanza
osservare
osservata
osservate
osservati
osservato
osservatore
osservatori
osservatorio
osservazione
osservazioni
osservo
ossessionato
ossessione
ossia
ossidazione
ossido
ossigeno
osso
ossola
ossoladisposizioni
ost
ostacolare
ostacoli
ostacolista
ostacolo
ostaggi
ostaggio
ostante
oste
osteria
ostia
ostile
ostili
ostilita
ostinato
osvaldo
oswald
ot
otello
other
others
otis
otranto
ott
ottagonale
ottanta
ottava
ottave
ottavi
ottaviano
ottavio
ottavo
ottawa
ottenendo
ottenere
otteneva
ottengono
ottenimento
ottenne
ottennero
ottenuta
ottenute
ottenuti
ottenuto
otterra
ottica
ottiche
ottici
ottico
ottiene
ottima
ottimale
ottime
ottimi
ottimismo
ottimizzazione
ottimo
otto
ottobre
ottocentesca
ottocentesco
ottocento
ottoman
ottomana
ottomane
ottomani
ottomano
ottone
ottoni
ottorino
otturatore
ou
ouest
our
out
outdoor
outer
output
outside
outstanding
ouverture
ov
ova
ovale
ovali
ovario
ove
over
overdose
overline
overo
overview
ovest
ovidio
oviedo
ovunque
ovvero
ovviamente
ovviare
ovvio
owen
owens
own
oxford
oxfordshire
oxfordshiredisposizioni
oz
ozio
p
pa
pablo
pac
pacchetti
pacchetto
pacco
pace
pacheco
paci
pacific
pacifica
pacifico
pacifista
pacini
pack
package
packers
paco
pacor
pad
padana
padella
padiglione
padiglioni
padova
padovadisposizioni
padovano
padre
padri
padrino
padron
padrona
padronanza
padrone
padroni
paesaggi
paesaggio
paese
paesi
paesino
pag
paga
pagamenti
pagamento
pagan
pagana
pagando
pagani
paganini
pagano
pagare
pagata
pagate
pagati
pagato
page
pages
pagg
pagina
pagine
paglia
pago
pagoda
pai
paia
paige
pain
painting
paio
paiono
pak
pakistan
pal
pala
palace
paladini
paladino
palagio
palais
palatina
palatinato
palatinatodisposizioni
palatino
palato
palau
palazzetto
palazzi
palazzina
palazzo
palazzolo
palchi
palco
palcoscenico
pale
paleolitico
paleologo
paleontologo
paleontology
palermo
palermodisposizioni
palese
palestina
palestine
palestinese
palestinesi
palestra
palestrina
palgrave
pali
palinsesto
palio
palla
pallacanestro
palladio
pallamanista
pallamano
pallanuotista
pallanuoto
pallavicini
pallavicino
pallavolista
pallavolo
palle
pallida
pallido
pallone
palloni
pallottola
palm
palma
palmare
palmas
palme
palmeiras
palmer
palmi
palmieri
palmo
palo
palombi
palpebre
palude
paludi
palumbo
paluzzi
paluzzo
pam
pamela
pamplona
pan
panama
panamericana
panamericani
panchina
pancia
pancrazio
panda
pandemia
pandolfo
pandora
pane
panfilo
pani
panic
panico
panini
panna
pannelli
pannello
panni
panno
pannonia
panorama
panoramica
pantaloncini
pantalone
pantaloni
pantera
pantheon
panther
panthers
panzer
paola
paoli
paolina
paoline
paolini
paolino
paolo
paolucci
pap
papa
papale
papato
paper
paperino
paperone
papers
papi
papiro
pappagallo
pappo
papua
par
para
parabola
paracadute
paracadutisti
parade
paradigma
paradise
paradiso
paradosso
paragonabile
paragonato
paragone
paragrafi
paragrafo
paraguaiano
paraguay
paralimpici
paralimpico
paralisi
parallela
parallelamente
parallele
paralleli
parallelo
paralympic
parametri
parametro
paramount
parana
parapetto
parassita
parassiti
paraste
parata
paraurti
paravia
parc
parcheggi
parcheggio
parchi
parco
pardo
pare
parea
parecchi
parecchie
parecchio
pareggi
pareggiata
pareggiato
pareggio
parente
parentela
parentesi
parenti
parer
parere
pareri
parete
pareti
pareva
parevano
pari
paride
parigi
parigina
parigini
parigino
parimente
parimenti
parini
paris
parish
parisi
parita
park
parker
parkinson
parks
parla
parlamentare
parlamentari
parlamento
parlando
parlano
parlante
parlanti
parlar
parlare
parlarne
parlata
parlate
parlato
parlava
parlavano
parli
parliament
parliamo
parlo
parma
parmadisposizioni
parmense
parmi
parmigiano
paro
parodi
parodia
parola
parole
paroliere
parra
parrebbe
parrocchia
parrocchiale
parrocchiali
parrocchie
parroco
parry
pars
parsons
part
parte
partecipa
partecipando
partecipano
partecipante
partecipanti
partecipare
parteciparono
partecipato
partecipavano
partecipazione
partecipazioni
partecipo
partement
partendo
partenza
partenze
parti
partial
particella
particelle
participi
participio
particolar
particolare
particolari
particolarita
particolarmente
partido
parties
partigiana
partigiane
partigiani
partigiano
partir
partire
partirono
partita
partite
partiti
partito
partitura
partiva
partizan
partizione
partner
partners
partnership
parto
partono
parts
party
parve
parziale
parziali
parzialmente
pas
pascal
pascia
pascoli
pascolo
pasha
paso
pasolini
pasqua
pasquale
pasquali
pass
passa
passage
passaggi
passaggio
passando
passano
passante
passanti
passaporto
passar
passare
passarono
passata
passate
passati
passato
passava
passavano
passeggeri
passeggero
passeggiare
passeggiata
passeggiate
passera
passerella
passero
passi
passim
passion
passione
passioni
passiva
passivo
passo
password
past
pasta
pasti
pasticceria
pasto
pastor
pastorale
pastorali
pastore
pastori
pat
patagonia
patata
patate
patch
patent
patente
patenti
pater
paterna
paternita
paterno
path
pathe
patients
patire
patologia
patologie
patria
patriarca
patriarcale
patriarcato
patriarchi
patrice
patricia
patrick
patrigno
patrimoni
patrimoniale
patrimonio
patriota
patrioti
patriots
patriottica
patriottico
patrizi
patrizia
patriziale
patriziato
patrizio
patrocinio
patrol
patron
patrona
patronale
patronato
patroni
patrono
pattern
patterson
patti
pattinaggio
pattinatore
pattinatrice
patto
patton
pattuglia
pattugliamento
patty
pau
paul
paula
pauli
pauline
paulista
paulo
paulus
paura
paure
pausa
pausania
pause
pausini
pavel
pavese
pavesi
pavia
paviadisposizioni
pavimentazione
pavimenti
pavimento
pavlovic
pavone
pax
pay
payne
pays
paz
paziente
pazienti
pazienza
pazza
pazzi
pazzia
pazzo
pb
pbs
pc
pci
pd
pdf
pdl
pe
peace
peak
peaks
pearce
pearl
pearson
pec
peccati
peccato
peccatore
peccatori
pechino
peck
peckham
pecora
pecore
peculiare
peculiari
peculiarita
pedagogia
pedagogista
pedale
pedaliera
pedersen
pedonale
pedone
pedoni
pedro
peduncolo
peel
peer
pegaso
pegasus
peggio
peggior
peggiorare
peggiore
peggiori
peggy
pegno
pei
pel
peli
pelle
pellegrinaggi
pellegrinaggio
pellegrini
pellegrino
pelli
pelliccia
pellicola
pellicole
pelo
peloponneso
pen
pena
penale
penali
penalita
penalizzato
penalizzazione
pende
pendente
pendenza
pendici
pendii
pendio
pene
penelope
penetra
penetrare
penetrazione
peng
penguin
penisola
penitenza
penitenziario
penn
penna
penne
pennello
pennsylvania
penny
pensa
pensai
pensando
pensano
pensare
pensata
pensate
pensato
pensatore
pensatori
pensava
pensavano
pensavo
pensi
pensiamo
pensier
pensieri
pensiero
pensionamento
pensione
pensioni
penso
pentathlon
pentecoste
pentimento
pentito
pentium
pentola
penultima
penultimo
people
pepe
peperoncino
peppe
pepper
peppino
per
pera
peraltro
percentuale
percentuali
percepire
percepita
percepito
percezione
perch
perche
percio
perciocche
percorre
percorrendo
percorrenza
percorrere
percorrono
percorsa
percorse
percorsi
percorso
percosse
percussioni
percy
perde
perdendo
perdente
perdenti
perder
perdera
perdere
perdeva
perdita
perdite
perdona
perdonare
perdonato
perdono
perduta
perdute
perduti
perduto
pere
pereira
perenne
perenni
perez
perfect
perfetta
perfettamente
perfetti
perfetto
perfezionamento
perfezione
perfido
perfino
perform
performance
performer
performing
pergamena
pergola
peri
pericle
pericoli
pericolo
pericolosa
pericolose
pericolosi
pericolosita
pericoloso
periferia
periferica
periferiche
periferici
perimetro
period
periodi
periodica
periodicamente
periodiche
periodici
periodico
periodo
perito
perizia
perkins
perla
perle
perlopiu
permanente
permanentemente
permanenti
permanenza
permessi
permesso
permetta
permette
permettendo
permettera
permettere
permettersi
permetteva
permettevano
permettono
permise
permisero
perno
pero
perocche
perpendicolare
perpetua
perpetuo
perplessita
perrin
perrone
perry
pers
persa
perse
persecuzione
persecuzioni
perseguire
perseguitati
perseguitato
perseo
persero
perseus
persi
persia
persiana
persiane
persiani
persiano
persico
persino
persistente
perso
person
persona
personaggi
personaggio
personal
personale
personali
personalita
personalmente
persone
personificazione
perspective
perspectives
persuadere
persuasione
persuaso
pertanto
perth
pertinenza
pertini
peru
perugia
perugiadisposizioni
perugino
peruviana
peruviano
peruzzi
pervenire
pervenne
pervenuto
pes
pesa
pesante
pesantemente
pesanti
pesaro
pesava
pesca
pescara
pescaradisposizioni
pescare
pescatore
pescatori
pesce
peschiera
pesci
pescia
pesi
pesista
peso
pessima
pessime
pessimo
peste
pestilenza
pet
petali
pete
peter
peters
petersburg
petersen
peterson
petit
petite
petizione
petr
petra
petrarca
petri
petrolifera
petrolio
petronio
petrovic
petrucci
petrus
petti
petto
peugeot
peyton
pez
pezza
pezzi
pezzo
pf
pfalz
pg
ph
phane
phantom
phase
phi
phil
philadelphia
philharmonic
philip
philipp
philippe
philippine
philips
phillip
phillips
philosophical
philosophie
philosophy
phoebe
phoenix
phone
phonographic
photo
photography
photos
php
phyllis
phylogenetic
phylogeny
phys
physical
physics
pi
pia
piaccia
piacciono
piace
piacentini
piacentino
piacenza
piacenzadisposizioni
piacer
piacere
piaceri
piaceva
piacevole
piacevoli
piacimento
piaciuto
piacque
piaga
piaggio
piaghe
pian
piana
pianale
piane
pianeggiante
pianeta
pianeti
piange
piangendo
piangere
piangeva
piani
pianificare
pianificata
pianificato
pianificazione
pianigiani
pianista
piano
pianoforte
pianta
piantagione
piantagioni
piantato
piante
pianti
pianto
pianura
pianure
piastra
piastre
piatta
piattaforma
piattaforme
piatti
piatto
piave
piazza
piazzale
piazzamenti
piazzamento
piazzandosi
piazzato
piazze
piazzetta
piazzo
pic
picard
picasso
picchi
picchiata
picchiato
picchio
piccin
piccioli
picciolo
piccioni
picco
piccola
piccole
piccoli
piccolo
piccolomini
piceno
picenodisposizioni
pick
pickwick
pico
picture
pictures
pie
piece
pieces
piede
piedi
piedistallo
piega
piegare
pieghe
piemme
piemonte
piemontedisposizioni
piemontese
piemontesi
pien
piena
pienamente
piene
pieni
pieno
pier
pierce
piergiorgio
pieri
pierino
pierluigi
piero
pierpaolo
pierre
pieta
pieter
pietosa
pietoso
pietra
pietrasanta
pietre
pietro
pietroburgo
pieve
pievi
pig
piglia
pigliar
pigliare
piglio
pignatelli
pignatti
pii
pike
pil
pila
pilar
pilastri
pilastro
pilato
pile
pillole
pilone
piloni
pilot
pilota
pilotaggio
piloti
pin
pina
pinacoteca
pincode
pindaro
pine
pinelli
pinerolo
pineta
ping
pini
pink
pinna
pinne
pino
pinocchio
pinto
pinus
pinyin
pio
piogge
pioggia
piombino
piombo
pioneer
pioniere
pionieri
piotr
piove
pipa
piper
pipino
pipistrelli
pipistrello
pippo
piquet
piramidale
piramide
piramidi
pirandello
piranesi
pirata
pirateria
pirates
pirati
pirelli
pirenei
pireneidisposizioni
piroscafo
pirro
pisa
pisadisposizioni
pisana
pisani
pisano
piscina
pista
pistard
piste
pistoia
pistoiadisposizioni
pistoiese
pistola
pistole
pistone
pistoni
pit
pitagora
pitchfork
pitt
pitti
pittore
pittori
pittorica
pittoriche
pittorico
pittrice
pittsburgh
pittura
pitture
piu
piuccheperfetto
piuma
piumaggio
piume
pius
piuttosto
pixar
pixel
pizza
pizzeria
pizzi
pizzo
pk
pl
pla
placca
placche
place
placebo
places
placid
placida
placido
plain
plan
plancia
planck
plane
planet
planetario
planetary
planets
planimetria
planning
plans
plant
plants
plasma
plastic
plastica
plastiche
plastico
plata
plate
platea
plateau
platform
platin
platina
platino
platinum
platnick
platone
plausibile
plauso
play
playbill
playboy
player
players
playhouse
playing
playoff
plays
playstation
plaza
plc
ple
please
pleasure
plebe
plebiscito
pleistocene
pli
plinio
plo
plos
plotone
plu
plur
plurale
pluralita
plus
plutarco
pluto
plutone
pluviale
plymouth
plzen
pm
pmatrix
pmc
pmid
pn
pnas
pneumatici
pnl
po
pob
poc
poca
poche
pochi
pochissime
pochissimi
pochissimo
pocket
poco
pod
podcast
podere
podesta
podi
podio
poe
poema
poemetti
poemetto
poemi
poems
poesia
poesias
poesie
poeta
poetessa
poeti
poetica
poetiche
poetici
poetico
poetry
poggi
poggia
poggio
poi
poiche
point
points
poirot
poison
poitiers
poke
poker
pol
pola
polacca
polacche
polacchi
polacco
poland
polar
polare
polari
pole
polemica
polemiche
polenta
polesine
poli
polibio
police
policromi
policy
poligonale
poligono
polinomio
polis
polish
polisportiva
polistrumentista
politecnico
politica
political
politicamente
politiche
politici
politico
politics
politique
polittico
polizia
poliziesco
poliziotti
poliziotto
pollard
polli
pollice
pollici
polline
pollo
polly
polmonare
polmone
polmoni
polmonite
polo
polonia
polpa
polso
poltrona
polvere
polveri
polydor
polyscope
pomerania
pomeriggio
pomodori
pomodoro
pompa
pompe
pompei
pompeo
pon
ponce
pone
ponendo
ponente
poneva
pongono
pons
pont
ponte
pontedera
pontefice
pontefici
ponti
pontificato
pontifici
pontificia
pontificie
pontificio
ponto
pontremoli
pony
ponzio
pooh
pool
poole
poor
pop
pope
popol
popolano
popolare
popolari
popolarita
popolata
popolato
popolazione
popolazioni
popoli
popolo
popolosa
poppa
popular
population
por
porcellana
porco
pordenone
pordenonedisposizioni
porge
porn
porno
pornografica
pornografico
porpora
porre
porro
porsche
porse
porsi
port
porta
portable
portaerei
portafoglio
portal
portale
portali
portamento
portando
portandolo
portandosi
portano
portant
portante
portanti
portar
portare
portarla
portarlo
portarono
portarsi
portasse
portata
portate
portati
portatile
portatili
portato
portatore
portatori
portava
portavano
portavoce
porte
porter
portera
porteranno
porti
porticato
portici
portico
portiere
portieri
portland
porto
portogallo
portogallodisposizioni
portoghese
portoghesi
portogruaro
portone
portoricano
portrait
portsmouth
portuale
portugal
portuguesa
porzione
porzioni
pos
posa
posato
poscia
pose
posero
position
positiva
positivamente
positive
positivi
positivo
posiziona
posizionamento
posizionata
posizionate
posizionati
posizionato
posizione
posizioni
possa
possano
posse
possedere
possedeva
possedevano
possedimenti
possedimento
posseduta
posseduto
posseggono
possente
possenti
possesso
possessore
possessori
possiamo
possibile
possibili
possibilita
possibilmente
possible
possiede
possiedono
posso
possono
post
posta
postale
postali
postazione
postazioni
poste
poster
posteri
posteriore
posteriori
posteriormente
postfazione
posti
posticipata
posto
postuma
postumi
postumo
pot
potabile
potassio
pote
potea
potendo
potente
potenti
potential
potenza
potenzadisposizioni
potenze
potenziale
potenziali
potenzialita
potenzialmente
potenziamento
potenziare
potenziato
poter
potere
poteri
poterla
poterlo
poterono
potersi
potesse
potessero
potessi
potesta
potete
poteva
potevano
potevo
potra
potrai
potranno
potrebbe
potrebbero
potrei
potremmo
potremo
potreste
potresti
potrete
potro
potsdam
potter
potuto
poule
pound
pour
povera
povere
poveri
povero
poverta
powell
power
powers
powo
poznan
pozza
pozzi
pozzo
pozzuoli
pp
ppe
pr
pra
practice
prada
pradesh
prado
praga
pragadisposizioni
prairie
pranzo
prassi
prateria
praterie
prati
pratica
praticamente
praticare
praticata
praticato
pratiche
pratici
pratico
prato
pratodisposizioni
pratt
prayer
pre
prealpi
precauzione
precauzioni
precede
precedendo
precedente
precedentemente
precedenti
precedenza
precedono
preceduta
preceduto
precetti
precetto
precettore
precipita
precipitare
precipitato
precipitazioni
precipito
precisa
precisamente
precisare
precisato
precise
precisi
precisione
preciso
precoce
precursore
precursori
preda
predator
predatore
predatori
prede
predecessore
predecessori
predetto
predica
predicare
predicato
predicatore
predicatori
predicazione
prediletto
predilezione
predilige
predisposizione
predisposto
predominante
predominio
preesistente
preesistenti
prefazione
preferendo
preferenza
preferenze
preferi
preferibile
preferire
preferisce
preferisco
preferiscono
preferita
preferite
preferiti
preferito
preferiva
prefetto
prefettura
prefisso
prega
pregare
pregato
pregevole
pregevoli
preghiera
preghiere
pregi
pregio
pregiudizi
pregiudizio
prego
preistoria
preistorica
prelati
prelato
prelevato
prelievo
preliminare
preliminari
preludio
prem
prematura
prematuramente
preme
premendo
premere
premessa
premesse
premi
premiata
premiati
premiato
premiazione
premie
premier
premiere
premiership
premio
premium
premura
prencipe
prenda
prende
prendendo
prender
prendera
prendere
prenderlo
prendersi
prendesse
prendete
prendeva
prendevano
prendi
prendo
prendono
prenotazione
preoccupa
preoccuparsi
preoccupata
preoccupati
preoccupato
preoccupazione
preoccupazioni
prepara
preparando
preparano
preparare
prepararsi
preparata
preparate
preparati
preparativi
preparato
preparatore
preparatori
preparava
preparazione
preparo
preposto
prepotente
prequel
prerogative
pres
presa
presbiterio
presbitero
prescelto
prescindere
prescritto
prescrizione
prescrizioni
prese
present
presenta
presentando
presentano
presentare
presentarono
presentarsi
presentata
presentate
presentati
presentato
presentatore
presentava
presentavano
presentazione
presente
presenti
presento
presents
presenza
presenze
presepe
presero
preservare
presi
preside
president
presidente
presidenti
presidential
presidenza
presidenziale
presidenziali
presidio
presiede
presieduta
presieduto
presley
preso
press
presse
presses
pressi
pressione
pressioni
presso
pressoche
pressure
presta
prestando
prestare
prestato
prestazione
prestazioni
presti
prestigio
prestigiosa
prestigiose
prestigiosi
prestigioso
prestiti
prestito
presto
preston
presume
presumibilmente
presunta
presunte
presunti
presunto
presuppone
presupposti
presupposto
prete
pretende
pretendente
pretendenti
pretendere
pretesa
pretese
pretesto
preti
pretore
pretorio
prettamente
pretty
preuves
prevale
prevalente
prevalentemente
prevalenza
prevalere
prevalse
prevede
prevedendo
prevedere
prevedeva
prevedevano
prevedono
prevenire
prevention
preventiva
preventivo
prevenzione
previa
previdenza
preview
previo
previsione
previsioni
prevista
previste
previsti
previsto
prevosto
preziosa
preziose
preziosi
prezioso
prezzi
prezzo
pri
pria
priamo
price
pride
priest
prigione
prigioni
prigionia
prigioniera
prigionieri
prigioniero
prim
prima
primari
primaria
primarie
primario
primary
primate
primati
primato
primavera
primaverile
prime
primer
primera
primi
primis
primissimi
primitiva
primitive
primitivi
primitivo
primo
primogenita
primogenito
primordiale
primus
prince
princeps
princess
princeton
princi
principal
principale
principali
principalmente
principati
principato
principe
principessa
principesse
principi
principii
principio
principles
print
printing
priorato
priore
priori
priorita
priscilla
prisco
prisma
prison
priva
privacy
privata
privatamente
private
privati
privato
prive
privi
privilegi
privilegiato
privilegio
privo
prix
prize
pro
probabile
probabili
probabilita
probabilmente
problem
problema
problematica
problematiche
problemi
problems
proc
procede
procedendo
procedere
procedette
procedeva
procedimenti
procedimento
procedura
procedure
proceedings
process
processato
processi
processione
processioni
processo
processore
processori
procinto
proclama
proclamata
proclamato
proclamazione
proclamo
procopio
procura
procurare
procurarsi
procurato
procuratore
procuro
procyclingstats
prod
prode
prodi
prodigio
prodigo
prodotta
prodotte
prodotti
prodotto
produce
producendo
producento
producer
produceva
producono
product
production
productions
productores
products
produrre
produsse
produssero
produttiva
produttive
produttivi
produttivita
produttivo
produttore
produttori
produttrice
produzione
produzioni
proemio
prof
profano
professional
professionale
professionali
professione
professioni
professionismo
professionista
professionisti
professionistica
professionistico
professor
professore
professoressa
professori
profeta
profeti
profezia
profezie
profile
profili
profilo
profit
profitti
profitto
profonda
profondamente
profonde
profondi
profondita
profondo
profughi
profumi
profumo
progetta
progettare
progettata
progettate
progettati
progettato
progettazione
progetti
progettista
progettisti
progetto
progettuale
program
programma
programmata
programmato
programmatore
programmazione
programme
programmi
programming
progredire
progress
progressi
progressione
progressista
progressiva
progressivamente
progressive
progressivo
progresso
proibita
proibiti
proibito
proiettato
proietti
proiettile
proiettili
proiezione
proiezioni
project
projects
prole
proletaria
proletariato
proliferazione
prolifico
prologo
prolungamento
prolungata
prolungato
promessa
promesse
promessi
promesso
prometeo
prometheus
promette
promettendo
promettente
promettere
prometto
promise
promo
promontorio
promossa
promosse
promossi
promosso
promotion
promotore
promotori
promozionale
promozione
promozioni
promulgazione
promuove
promuovendo
promuovere
pron
pronipote
pronome
pronomi
pronta
prontamente
pronte
prontezza
pronti
pronto
pronuncia
pronunciare
pronunciata
pronunciate
pronunciato
pronuncio
pronunzia
proof
propaganda
propagazione
propensione
properties
propone
proponendo
proponeva
propongono
proporre
proporzionale
proporzione
proporzioni
propose
propositi
proposito
proposizione
proposizioni
proposta
proposte
proposti
proposto
propri
propria
propriamente
proprie
proprieta
proprietari
proprietaria
proprietario
proprio
propulsion
propulsione
propulsore
propulsori
prora
prosa
prosciutto
prose
prosecuzione
prosegue
proseguendo
prosegui
proseguire
proseguirono
proseguita
proseguito
proseguiva
proseguono
prosieguo
prosopographie
prosperita
prospero
prospettiva
prospettive
prospetto
prossima
prossime
prossimi
prossimita
prossimo
prost
prostituta
prostitute
prostituzione
protagonista
protagoniste
protagonisti
protection
protegge
proteggere
protein
proteina
proteine
protennislive
protesi
protesta
protestante
protestanti
protestare
proteste
protesto
protetta
protette
protetti
protettivo
protetto
protettorato
protettore
protettori
protettrice
protezione
protezionecivile
protezioni
proto
protocol
protocolli
protocollo
prototipi
prototipo
proud
proust
prov
prova
provando
provano
provare
provata
provate
provato
provava
prove
provence
provengono
proveniente
provenienti
provenienza
provenire
proveniva
provenivano
proventi
provenza
provenzale
proverbi
proverbio
provi
providence
proviene
province
provincia
provinciale
provinciali
provincie
provino
provo
provoca
provocando
provocano
provocare
provocarono
provocata
provocati
provocato
provoco
provvede
provvedere
provvedimenti
provvedimento
provveduto
provvide
provvidenza
provvisori
provvisoria
provvisoriamente
provvisorio
provvista
provviste
provvisti
provvisto
pru
prua
prudente
prudenza
pruova
prussia
prussiana
prussiani
prussiano
prva
ps
psd
pseudo
pseudonimo
psg
psi
psiche
psichiatra
psichiatria
psichiatrico
psicoanalisi
psicologia
psicologica
psicologiche
psicologici
psicologico
psicologo
psv
psychiatry
psycho
psychology
pt
pu
pub
pubblica
pubblicamente
pubblicando
pubblicano
pubblicare
pubblicarono
pubblicata
pubblicate
pubblicati
pubblicato
pubblicazione
pubblicazioni
pubbliche
pubblici
pubblicista
pubblicita
pubblicitari
pubblicitaria
pubblicitarie
pubblicitario
pubblico
public
publica
publication
publications
publico
publio
publique
published
publishers
publishing
pubmed
pucci
puccini
pudore
pueblo
puerto
pugilato
pugile
puglia
pugliadisposizioni
pugliese
pugliesi
pugna
pugnale
pugni
pugno
pulci
pulcinella
pulcini
pulita
pulite
pulito
pulitzer
pulizia
pullman
pulp
pulpito
pulsante
puma
punch
punica
punire
puniti
punito
punizione
punizioni
punjab
punk
punta
puntando
puntare
puntata
puntate
punte
punteggi
punteggio
punti
punto
puntualmente
puo
puoi
puote
pupi
pupilla
pupille
pur
pura
puramente
purcell
purche
pure
purezza
purgatorio
puri
purificazione
puro
purple
purtroppo
pus
push
pussy
put
putin
putnam
puttana
putti
puy
puzzle
pv
py
pyeongchang
python
q
qa
qatar
qb
qi
qin
qing
qquad
qu
qua
quad
quaderni
quaderno
quadrangolare
quadrante
quadrata
quadrate
quadrati
quadrato
quadri
quadriennale
quadro
quae
quai
qual
qualche
qualcosa
qualcun
qualcuno
quale
quali
qualifica
qualificandosi
qualificano
qualificarsi
qualificata
qualificate
qualificati
qualificato
qualificazione
qualificazioni
qualifiche
qualifico
qualita
quality
qualora
qualsiasi
qualsivoglia
qualunque
quam
quand
quando
quant
quanta
quante
quanti
quantistica
quantita
quantitativo
quanto
quantum
quantunque
quarant
quaranta
quarantena
quaresima
quark
quarta
quarterback
quarterly
quartet
quartetto
quarti
quartier
quartiere
quartieri
quarto
quarzo
quasi
quatre
quattordicesima
quattordicesimo
quattordici
quattrini
quattro
quattrocento
quattroruote
quatuor
que
quebec
queen
queens
queensland
queer
quegli
quei
quel
quell
quella
quelle
quelli
quello
quels
quem
quentin
querce
quercia
quercus
query
quesito
quest
questa
queste
questi
question
questione
questioni
questions
questo
questore
questura
qui
quia
quibus
quick
quid
quien
quiet
quiete
quinci
quincy
quindi
quindicesima
quindicesimo
quindici
quinn
quinquennale
quinta
quintana
quinte
quintetto
quintino
quinto
quipe
quirico
quirinale
quirino
quistione
quito
quivi
quiz
quo
quod
quorum
quota
quotata
quote
quotidiana
quotidianamente
quotidiane
quotidiani
quotidiano
quoziente
r
ra
rabat
rabbi
rabbia
rabbini
rabbino
rabbit
racchiude
racchiuso
raccoglie
raccogliendo
raccogliere
raccoglieva
raccolgono
raccolse
raccolta
raccolte
raccolti
raccolto
raccomanda
raccomandato
raccomandazione
raccomandazioni
raccomando
racconta
raccontando
raccontano
raccontare
raccontata
raccontato
raccontava
racconti
racconto
raccordo
race
rachel
rachele
racing
racingmemo
rad
rada
radar
raddoppio
radiale
radiato
radiazione
radiazioni
radical
radicale
radicali
radicalmente
radice
radici
radio
radiocorriere
radiofonica
radiofoniche
radiofonici
radiofonico
radioradicale
rado
radu
raduno
rae
raf
rafael
raffaele
raffaella
raffaello
raffigura
raffigurano
raffigurante
raffiguranti
raffigurata
raffigurati
raffigurato
raffigurazione
raffigurazioni
raffinata
raffinato
rafforzamento
rafforzare
raffreddamento
raffreddato
rag
ragazza
ragazze
ragazzi
ragazzina
ragazzini
ragazzino
ragazzo
rage
raggi
raggio
raggiunge
raggiungendo
raggiungere
raggiungerlo
raggiungeva
raggiungibile
raggiungimento
raggiungono
raggiunse
raggiunsero
raggiunta
raggiunte
raggiunti
raggiunto
raggruppa
raggruppamento
raggruppate
raggruppati
ragguaglio
ragion
ragiona
ragionamenti
ragionamento
ragionare
ragionato
ragione
ragionevole
ragionevolmente
ragioni
ragni
ragno
ragusa
ragusadisposizioni
raguseo
rahman
rai
raid
raider
raiders
rail
railroad
railway
raimondi
raimondo
rain
rainbow
rainer
rainews
raj
raja
rajon
ral
rale
ralf
rallentare
rally
ralph
ram
rama
ramazzotti
rame
rami
ramirez
ramiro
rammarico
ramo
ramon
ramos
rampa
rampe
rams
ramsay
ramses
ramsey
ran
rana
ranch
rancore
rand
randall
randolph
random
randy
rane
range
ranger
rangers
ranghi
rangle
rango
ranieri
ranking
rao
raoul
rap
rapaci
rapallo
raphael
rapid
rapida
rapidamente
rapide
rapidi
rapidita
rapido
rapids
rapimento
rapina
rapine
rapire
rapisardi
rapisce
rapita
rapito
rapper
rapporti
rapporto
rappresaglia
rappresenta
rappresentando
rappresentano
rappresentante
rappresentanti
rappresentanza
rappresentare
rappresentata
rappresentate
rappresentati
rappresentativa
rappresentative
rappresentativi
rappresentativo
rappresentato
rappresentava
rappresentavano
rappresentazione
rappresentazioni
rappresenti
rappresento
rara
raramente
rard
rare
rari
rarita
raro
ras
rasa
rasmussen
raso
rassegna
rassegne
rat
rata
rate
rateyourmusic
ratifica
ratificato
rating
ratings
ratio
ration
ratisbona
ratti
ratto
rature
rau
raul
rav
ravel
raven
ravenna
ravennadisposizioni
ravens
raw
ray
raymond
razionale
razionali
razionalita
razza
razze
razzi
razziale
razziali
razzie
razzismo
razzista
razzo
rb
rc
rca
rcs
rd
rdoba
re
rea
reach
read
reader
reading
ready
reagan
reagire
reagisce
real
reale
realgm
reali
realismo
realista
realistica
realistici
realistico
reality
realizza
realizzando
realizzano
realizzare
realizzarono
realizzata
realizzate
realizzati
realizzato
realizzazione
realizzazioni
realizzo
really
realmente
realta
reame
reason
reati
reato
reattore
reattori
reazione
reazioni
rebecca
rebel
rebellion
rebels
rebiba
reboot
rebus
rec
reca
recanati
recano
recante
recare
recarono
recarsi
recato
recava
recco
recensione
recensioni
recent
recente
recentemente
recenti
recettore
recettori
recherche
rechtschreibungswo
recinto
recipiente
reciproca
reciprocamente
reciproco
recita
recital
recitando
recitare
recitativo
recitato
recitava
recitazione
recito
reclamo
reclusione
reclutamento
reclutare
reclute
reco
record
recorded
recording
recordings
records
recueil
recupera
recuperare
recuperata
recuperati
recuperato
recupero
red
redatta
redatto
redattore
redazione
redditi
reddito
redemption
redentore
redenzione
redigere
redini
reds
redskins
reduce
reduci
reed
reeder
reel
reese
reeves
ref
reference
referendum
referto
refettorio
reform
reg
regala
regalato
regale
regali
regalo
reggae
regge
reggente
reggenza
reggere
reggia
reggiana
reggiano
reggie
reggimenti
reggimento
reggina
reggio
reggono
regi
regia
regie
regime
regiment
regimi
regina
reginald
regine
regio
region
regional
regionale
regionali
regione
regioni
regions
regis
regista
register
registi
registra
registrando
registrano
registrare
registrarono
registrata
registrate
registrati
registrato
registrazione
registrazioni
registri
registro
regna
regnante
regnanti
regnare
regnava
regni
regno
regola
regolamentare
regolamentari
regolamentazione
regolamenti
regolamento
regolano
regolare
regolari
regolarita
regolarmente
regolata
regolato
regolatore
regolazione
regole
regolo
regular
rei
reich
reid
reign
reigns
reilly
reims
reina
reine
reiner
reinhard
reinhold
reis
related
relation
relations
relationship
relationships
relativa
relativamente
relative
relativi
relativita
relativo
relatore
relazione
relazioni
release
released
releases
religion
religione
religioni
religiosa
religiose
religiosi
religiosita
religioso
religious
reliquia
reliquiario
reliquie
relitto
rem
remains
remake
rembrandt
remember
remi
remigio
remix
remixes
remo
remota
remote
remoti
remoto
ren
rena
renaissance
renale
renania
renata
renato
renault
renda
rende
rendendo
rendendola
rendendolo
rendendosi
render
rendera
rendere
renderla
renderlo
rendersi
rendeva
rendevano
rendimento
rendina
rendita
rendite
rendono
rene
reni
rennes
reno
renoir
rent
renzi
renzo
reo
rep
reparti
reparto
reperibile
reperire
reperti
repertorio
replica
repliche
replico
report
reportage
reporter
reports
repressione
reprimere
reprise
repu
repubblica
repubblicana
repubblicane
repubblicani
repubblicano
repubbliche
republic
republica
reputazione
requiem
requisiti
requisito
rer
rerum
res
resa
rescue
rese
research
resero
reserve
resi
resident
residente
residenti
residenza
residenze
residenziale
residenziali
residui
residuo
resina
resistance
resiste
resistente
resistenti
resistenza
resistenze
resistere
resistette
reso
resoconti
resoconto
resolution
resort
resource
resources
respinge
respingere
respinse
respinta
respinti
respinto
respirare
respirazione
respiro
responsabile
responsabili
responsabilita
response
resse
rest
resta
restando
restano
restante
restanti
restar
restare
restarono
restaurant
restaurare
restaurata
restaurato
restaurazione
restauri
restauro
restava
restavano
restera
resti
restituire
restituisce
restituita
restituito
restituzione
resto
restrizioni
restyling
result
results
resurrection
resurrezione
ret
retaggio
rete
reti
reticolo
retorica
retribuzione
retrieved
retro
retrocede
retrocedere
retrocessa
retrocesse
retrocessione
retrocessioni
retrocesso
retroguardia
retrospettiva
retrovie
retta
rettangolare
rettangolari
rettangolo
rette
retti
rettile
rettili
rettilineo
retto
rettore
return
returns
reunion
reuters
rev
revealed
reveals
revenge
reverendo
review
reviews
revised
revision
revisiondatestamp
revisione
revisited
revista
revival
revoca
revocato
revolution
revolver
revue
rex
rey
reyes
reykjavi
reynolds
rez
reza
rf
rfc
rfi
rg
rgen
rgph
rgy
rheinland
rho
rhode
rhodes
rhys
rhythm
ri
ria
riaa
riabilitazione
rialzato
riaperta
riaperto
riapertura
riappare
riassume
riassunto
ribalta
ribattezzata
ribattezzato
ribeiro
ribellarsi
ribelle
ribelli
ribellione
ribello
ribera
ric
rica
ricade
ricadente
ricadere
ricambio
ricardo
ricarica
ricatto
ricava
ricavandone
ricavare
ricavata
ricavate
ricavati
ricavato
ricavi
ricca
riccamente
riccardi
riccardo
ricche
ricchezza
ricchezze
ricchi
ricchissimo
ricci
ricciardi
ricciardo
riccio
riccione
ricco
rice
ricerca
ricercare
ricercata
ricercati
ricercato
ricercatore
ricercatori
ricerche
ricetta
ricettacolo
ricette
riceve
ricevendo
ricevera
ricevere
ricevette
ricevettero
riceveva
ricevevano
ricevimento
ricevitore
ricevono
ricevuta
ricevute
ricevuti
ricevuto
ricezione
rich
richard
richards
richardson
richelieu
richiama
richiamano
richiamare
richiamato
richiami
richiamo
richie
richiede
richiedere
richiedeva
richiedevano
richiedono
richiese
richiesta
richieste
richiesti
richiesto
richmond
richter
riciclaggio
rick
ricky
rico
ricognizione
ricomincia
ricominciare
ricomincio
ricompensa
riconciliazione
riconducibile
riconducibili
ricondurre
riconfermato
riconobbe
riconosce
riconoscendo
riconoscenza
riconoscere
riconosceva
riconoscibile
riconoscibili
riconoscimenti
riconoscimento
riconosciuta
riconosciute
riconosciuti
riconosciuto
riconoscono
riconquista
riconquistare
ricoperta
ricoperte
ricoperti
ricoperto
ricopre
ricoprendo
ricopri
ricoprire
ricopriva
ricorda
ricordando
ricordano
ricordare
ricordata
ricordate
ricordati
ricordato
ricordava
ricordi
ricordiamo
ricordo
ricorre
ricorrendo
ricorrente
ricorrenti
ricorrenza
ricorrere
ricorso
ricostituito
ricostruire
ricostruita
ricostruito
ricostruzione
ricostruzioni
ricotta
ricoverato
ricovero
ricreare
rida
ride
ridendo
rider
ridere
riders
rideva
ridge
ridicolo
riding
ridley
ridolfi
ridolfo
ridoppiaggio
ridosso
ridotta
ridotte
ridotti
ridotto
riduce
riducendo
riducono
ridurre
ridusse
riduzione
riduzioni
rie
riedizione
rielaborazione
rieletto
riempie
riempire
riempirlo
riempito
rien
rientra
rientrando
rientrano
rientrare
rientrato
rientro
ries
riesca
riesce
riesco
riescono
rieti
rietidisposizioni
rieur
rif
rifa
rifacimento
rifare
rifatta
rifatto
riferendosi
riferi
riferimenti
riferimento
riferire
riferirsi
riferisce
riferiscono
riferita
riferite
riferiti
riferito
riferiva
riff
rifiuta
rifiutando
rifiutano
rifiutare
rifiutarono
rifiutata
rifiutato
rifiuti
rifiuto
riflessa
riflessi
riflessione
riflessioni
riflesso
riflette
riflettere
riflettono
rifondazione
riforma
riformare
riformata
riformato
riformatore
riforme
riformista
rifornimenti
rifornimento
rifornire
rifugi
rifugia
rifugiarsi
rifugiati
rifugiato
rifugio
riga
rigenerazione
righe
right
rightarrow
rights
rigida
rigide
rigidi
rigidita
rigido
rigoletto
rigore
rigori
rigorosa
rigorosamente
rigoroso
riguarda
riguardano
riguardante
riguardanti
riguardare
riguardava
riguardavano
riguardi
riguardo
rihanna
rilancio
rilascia
rilasciare
rilasciata
rilasciate
rilasciati
rilasciato
rilascio
rileva
rilevamento
rilevante
rilevanti
rilevanza
rilevare
rilevata
rilevati
rilevato
rilevazione
rilevo
riley
rilievi
rilievo
riluttante
riluttanza
rim
rima
[...]
