!
"
#
##0
##1
##10
##11
##12
##13
##14
##15
##16
##17
##18
##19
##2
##20
##21
##22
##23
##24
##25
##26
##27
##28
##29
##3
##30
##31
##32
##33
##34
##35
##36
##37
##38
##39
##4
##40
##41
##42
##43
##44
##45
##46
##47
##48
##49
##5
##50
##51
##52
##53
##54
##55
##56
##57
##58
##59
##6
##60
##61
##62
##63
##64
##65
##66
##67
##68
##69
##7
##70
##71
##72
##73
##74
##75
##76
##77
##78
##79
##8
##80
##81
##82
##83
##84
##85
##86
##87
##88
##89
##9
##90
##91
##92
##93
##94
##95
##96
##97
##98
##99
$
%
&
'
(
)
*
+
,
-
.
/
0
00
000
001
002
003
006
007
01
02
03
04
05
050
06
07
08
09
1
10
100
1000
10000
1001
101
102
103
104
105
1050
106
1066
107
108
1080
109
11
110
1100
111
112
113
1130
114
115
1150
1154
116
117
1170
118
1180
1185
119
1190
1198
12
120
1200
1204
121
1215
1216
122
1220
123
1230
124
1240
125
1250
1254
126
1260
1266
127
1270
1275
1276
128
1280
1282
1285
129
1290
1291
1295
1296
1297
13
130
1300
1302
1303
1308
131
1310
1311
1312
1313
132
1320
1325
1328
133
1330
1333
1335
134
1340
1342
1343
1345
1346
1347
1348
1349
135
1350
136
1360
1368
137
1370
1371
1375
1378
138
1380
1385
1386
1388
1389
139
1390
1392
1399
14
140
1400
1402
1404
1405
1406
1408
1409
141
1410
1412
1415
1418
1419
142
1420
1422
1423
1424
1425
1427
1428
143
1430
1431
1432
1433
1434
1435
1436
1438
1439
144
1440
1441
1442
1443
1444
1445
1447
1448
1449
145
1450
1451
1452
1453
1454
1455
1456
1457
1458
1459
146
1460
1461
1462
1463
1464
1465
1466
1467
1468
1469
147
1470
1471
1472
1473
1474
1475
1476
1477
1478
1479
148
1480
1481
1482
1483
1484
1485
1486
1487
1488
1489
149
1490
1491
1492
1493
1494
1495
1496
1497
1498
1499
15
150
1500
1501
1502
1503
1504
1505
1506
1507
1508
1509
151
1510
1511
1512
1513
1514
1515
1516
1517
1518
1519
152
1520
1521
1522
1523
1524
1525
1526
1527
1528
1529
153
1530
1531
1532
1533
1534
1535
1536
1537
1538
1539
154
1540
1541
1542
1543
1544
1545
1546
1547
1548
1549
155
1550
1551
1552
1553
1554
1555
1556
1557
1558
1559
156
1560
1561
1562
1563
1564
1565
1566
1567
1568
1569
157
1570
1571
1572
1573
1574
1575
1576
1577
1578
1579
158
1580
1581
1582
1583
1584
1585
1586
1587
1588
1589
159
1590
1591
1592
1593
1594
1595
1596
1597
1598
1599
16
160
1600
1601
1602
1603
1604
1605
1606
1607
1608
1609
161
1610
1611
1612
1613
1614
1615
1616
1617
1618
1619
162
1620
1621
1622
1623
1624
1625
1626
1627
1628
1629
163
1630
1631
1632
1633
1634
1635
1636
1637
1638
1639
164
1640
1641
1642
1643
1644
1645
1646
1647
1648
1649
165
1650
1651
1652
1653
1654
1655
1656
1657
1658
1659
166
1660
1661
1662
1663
1664
1665
1666
1667
1668
1669
167
1670
1671
1672
1673
1674
1675
1676
1677
1678
1679
168
1680
1681
1682
1683
1684
1685
1686
1687
1688
1689
169
1690
1691
1692
1693
1694
1695
1696
1697
1698
1699
17
170
1700
1701
1702
1703
1704
1705
1706
1707
1708
1709
171
1710
1711
1712
1713
1714
1715
1716
1717
1718
1719
172
1720
1721
1722
1723
1724
1725
1726
1727
1728
1729
173
1730
1731
1732
1733
1734
1735
1736
1737
1738
1739
174
1740
1741
1742
1743
1744
1745
1746
1747
1748
1749
175
1750
1751
1752
1753
1754
1755
1756
1757
1758
1759
176
1760
1761
1762
1763
1764
1765
1766
1767
1768
1769
177
1770
1771
1772
1773
1774
1775
1776
1777
1778
1779
178
1780
1781
1782
1783
1784
1785
1786
1787
1788
1789
179
1790
1791
1792
1793
1794
1795
1796
1797
1798
1799
18
180
1800
1801
1802
1803
1804
1805
1806
1807
1808
1809
181
1810
1811
1812
1813
1814
1815
1816
1817
1818
1819
182
1820
1821
1822
1823
1824
1825
1826
1827
1828
1829
183
1830
1831
1832
1833
1834
1835
1836
1837
1838
1839
184
1840
1841
1842
1843
1844
1845
1846
1847
1848
1849
185
1850
1851
1852
1853
1854
1855
1856
1857
1858
1859
186
1860
1861
1862
1863
1864
1865
1866
1867
1868
1869
187
1870
1871
1872
1873
1874
1875
1876
1877
1878
1879
188
1880
1881
1882
1883
1884
1885
1886
1887
1888
1889
189
1890
1891
1892
1893
1894
1895
1896
1897
1898
1899
19
190
1900
1901
1902
1903
1904
1905
1906
1907
1908
1909
191
1910
1911
1912
1913
1914
1915
1916
1917
1918
1919
192
1920
1921
1922
1923
1924
1925
1926
1927
1928
1929
193
1930
1931
1932
1933
1934
1935
1936
1937
1938
1939
194
1940
1941
1942
1943
1944
1945
1946
1947
1948
1949
195
1950
1951
1952
1953
1954
1955
1956
1957
1958
1959
196
1960
1961
1962
1963
1964
1965
1966
1967
1968
1969
197
1970
1971
1972
1973
1974
1975
1976
1977
1978
1979
198
1980
1981
1982
1983
1984
1985
1986
1987
1988
1989
199
1990
1991
1992
1993
1994
1995
1996
1997
1998
1999
2
20
200
2000
2001
2002
2003
2004
2005
2006
2007
2008
2009
201
2010
2011
2012
2013
2014
2015
2016
2017
2018
2019
202
2020
2021
2022
2023
2024
2025
203
204
205
206
207
208
209
21
210
211
212
213
214
215
216
217
218
219
22
220
221
222
223
224
225
226
227
228
229
23
230
231
232
233
234
235
236
237
238
239
24
240
241
242
243
244
245
246
247
248
249
25
250
2500
251
252
253
254
255
256
257
258
259
26
260
2600
261
262
263
264
265
266
267
268
269
27
270
271
272
273
274
275
276
277
278
279
28
280
281
282
283
284
285
286
287
288
289
29
290
291
292
293
294
295
296
297
298
299
3
30
300
3000
301
302
303
304
305
306
307
308
309
31
310
311
312
313
314
315
316
3166
317
318
319
32
320
321
322
323
324
325
326
327
328
329
33
330
331
332
333
334
335
336
337
338
339
34
340
341
342
343
344
345
346
347
348
349
35
350
3500
351
352
353
354
355
356
357
358
359
36
360
361
362
363
364
365
366
367
368
369
37
370
371
372
373
374
375
376
377
378
379
38
380
381
382
383
384
385
386
387
388
389
39
390
391
392
393
394
395
396
397
398
399
4
40
400
4000
401
402
403
404
405
406
407
408
409
41
410
411
412
413
414
415
416
417
418
419
42
420
421
422
423
424
425
426
427
428
429
43
430
431
432
433
434
435
436
437
438
439
44
440
441
442
443
444
445
446
447
448
449
45
450
451
452
453
454
455
456
457
458
459
46
460
461
462
463
464
465
466
467
468
469
47
470
471
472
473
474
475
476
477
478
479
48
480
481
482
483
484
485
486
487
488
489
49
490
491
492
493
494
495
496
497
498
499
5
50
500
5000
501
502
503
504
505
506
507
508
509
51
510
511
512
513
514
515
516
517
518
519
52
520
521
522
523
524
525
526
527
528
529
53
530
531
532
533
534
535
536
537
538
54
540
541
542
543
544
545
546
547
548
549
55
550
551
552
553
554
555
556
558
56
560
561
562
565
566
567
568
569
57
570
571
575
576
58
580
581
582
583
585
586
589
59
590
591
595
6
60
600
6000
601
602
603
604
605
607
609
61
610
611
612
613
615
616
617
618
62
620
625
626
63
630
631
633
634
635
636
639
64
640
641
642
645
65
650
656
66
660
666
667
668
67
670
675
679
68
680
69
690
691
7
70
700
7000
701
705
707
71
710
711
72
720
725
727
73
730
737
74
740
747
75
750
757
76
760
767
77
770
774
777
78
780
787
79
8
80
800
8000
802
81
810
815
82
820
83
830
84
840
85
850
86
860
87
870
875
879
88
880
883
888
89
9
90
900
91
910
911
914
917
92
920
93
930
94
940
95
950
96
960
962
963
97
970
975
978
98
980
987
99
990
999
:
;
<
=
>
?
@
\
^
_
`
a
aa
aaron
aas
ab
aba
abarth
abate
abati
abba
abbandona
abbandonando
abbandonano
abbandonare
abbandonarono
abbandonata
abbandonate
abbandonati
abbandonato
abbandono
abbas
abbassa
abbassamento
abbassare
abbastanza
abbate
abbatte
abbattere
abbattimento
abbattuta
abbattuti
abbattuto
abbaye
abbazia
abbaziale
abbazie
abbe
abbey
abbia
abbiamo
abbiano
abbienti
abbigliamento
abbinamenti
abbinamento
abbinato
abbonamento
abbondante
abbondantemente
abbondanti
abbondanza
abbott
abbraccia
abbracciare
abbraccio
abbreviata
abbreviato
abbreviazione
abby
abc
abd
abdicazione
abdu
abdul
abdullah
abe
abeba
abel
aberdeen
abete
abi
abigail
abile
abili
abilita
abilitazione
abilmente
abissi
abisso
abita
abitabile
abitacolo
abitano
abitante
abitanti
abitare
abitata
abitate
abitati
abitativa
abitative
abitativo
abitato
abitava
abitavano
abitazione
abitazioni
abiti
abito
abituale
abitualmente
abituato
abitudine
abitudini
aboli
abolire
abolita
abolito
abolizione
aborigeni
aborto
about
above
abraham
abramo
abrams
abrogato
abrogazione
abruzzese
abruzzesi
abruzzi
abruzzo
abs
absidale
abside
absidi
abstract
abteilung
abu
abusi
abuso
ac
acacia
acade
academia
academic
academy
accadde
accade
accademia
accademica
accademiche
accademici
accademico
accademie
accadere
accadeva
accaduti
accaduto
accampamenti
accampamento
accanto
accasa
accede
accedendo
accedere
accedono
acceduto
accelerare
acceleratore
accelerazione
accende
accendere
accenna
accennato
accenno
accensione
accenti
accento
accentuata
accentuato
accerchiamento
accertamenti
accertamento
accertare
accertata
accertati
accertato
accesa
accese
accesi
acceso
access
accessed
accessi
accessibile
accessibili
accessibilita
accesso
accessori
accetta
accettabile
accettando
accettano
accettare
accettarono
accettata
accettate
accettati
accettato
accettazione
accetto
accezione
acciai
acciaio
accidentale
accidentalmente
accio
acclamato
accoglie
accoglienza
accogliere
accolse
accolta
accolti
accolto
accompagna
accompagnamento
accompagnano
accompagnare
accompagnata
accompagnate
accompagnati
accompagnato
accompagnatore
accompagnava
accompagno
acconsente
acconsenti
accoppiamenti
accoppiamento
accorda
accordato
accordi
accordo
accorge
accorgimenti
accorgono
accorpato
accorse
accorsi
accorto
account
accreditata
accreditati
accreditato
accrescere
accrescimento
accumulare
accumulato
accumulo
accurata
accuratamente
accuratezza
accurato
accusa
accusando
accusandolo
accusare
accusata
accusati
accusato
accuse
accuso
ace
acerbo
acero
aces
aceto
acheni
achenio
achievement
achille
aci
acid
acidi
acido
acireale
acoustic
acqua
acquario
acquatiche
acquatici
acquatico
acquaviva
acque
acquedotti
acquedotto
acqui
acquirente
acquirenti
acquisendo
acquisi
acquisire
acquisirono
acquisisce
acquisita
acquisite
acquisiti
acquisito
acquisizione
acquisizioni
acquista
acquistando
acquistare
acquistarono
acquistata
acquistate
acquistati
acquistato
acquisti
acquisto
acri
acronimo
acropoli
across
act
acta
actes
action
active
actor
actors
actress
acts
acustica
acustiche
acustici
acustico
acuta
acute
acuti
acuto
ad
ada
adagio
adalberto
adam
adamo
adams
adatta
adattamenti
adattamento
adattare
adattarsi
adattata
adattate
adattati
adattato
adatte
adatti
adatto
add
adda
addams
addestramento
addestrare
addestrati
addestrato
addetti
addetto
addietro
addio
addirittura
addis
addison
addizionale
addizionali
addizione
addolorata
addome
addominale
addormentata
addossato
addosso
ade
adeguamento
adeguata
adeguatamente
adeguate
adeguati
adeguato
adelaide
adele
adelphi
adempiere
adempimento
aden
aderente
aderenti
aderenza
aderi
aderire
aderirono
aderisce
aderiscono
aderito
adesione
adesso
adi
adiacente
adiacenti
adibita
adibiti
adibito
adidas
adige
adler
administration
admiral
adobe
adolescente
adolescenti
adolescenza
adolescenziale
adolf
adolfo
adolphe
adone
adoperato
adopero
adora
adorazione
adorno
adotta
adottando
adottano
adottare
adottarono
adottata
adottate
adottati
adottato
adottiva
adottivo
adotto
adozione
adria
adrian
adriana
adriano
adriatica
adriatico
adrien
adult
adulta
adulterio
adulti
adulto
adunque
advance
advanced
adventure
adventures
ae
aequo
aerea
aeree
aerei
aereo
aero
aerodinamica
aerodinamico
aeromobile
aeromobili
aeronautica
aeronautiche
aeronautici
aeronautico
aeroplani
aeroplano
aeroporti
aeroporto
aeroportuale
aerospace
aerospaziale
aevi
af
afa
afc
affaccia
affacciano
affacciata
affacciato
affair
affairs
affare
affari
affascinante
affascinato
affatto
afferma
affermando
affermano
affermare
affermarono
affermarsi
affermata
affermati
affermato
affermava
affermazione
affermazioni
affermo
afferra
afferrare
affetta
affetti
affetto
affianca
affiancando
affiancano
affiancare
affiancata
affiancate
affiancati
affiancato
affianco
affida
affidabile
affidabili
affidabilita
affidamento
affidando
affidare
affidata
affidate
affidati
affidato
affido
affiliata
affiliate
affiliati
affiliato
affiliazione
affinche
affine
affini
affinita
affitto
afflitto
affluente
affluenti
affluenza
afflusso
affonda
affondamento
affondare
affondata
affondato
affondo
affrescata
affrescate
affrescato
affreschi
affresco
affronta
affrontando
affrontano
affrontare
affrontarono
affrontate
affrontati
affrontato
affronto
affusto
afghanistan
afi
afl
africa
african
africana
africane
africani
africano
afrique
afro
afroamericana
afroamericani
afroamericano
afrodite
after
ag
aga
again
against
agamennone
agata
agatha
agatocle
age
agency
agenda
agendo
agent
agente
agenti
agenzia
agenzie
ages
agevolare
agevole
agevolmente
aggancio
aggettivi
aggettivo
aggiornamenti
aggiornamento
aggiornare
aggiornata
aggiornate
aggiornati
aggiornato
aggira
aggirare
aggiudica
aggiudicandosi
aggiudicarsi
aggiudicata
aggiudicato
aggiudico
aggiunge
aggiungendo
aggiungere
aggiungeva
aggiungono
aggiunse
aggiunsero
aggiunta
aggiunte
aggiunti
aggiuntiva
aggiuntive
aggiuntivi
aggiuntivo
aggiunto
agglomerato
aggravata
aggredisce
aggredito
aggregata
aggregati
aggregato
aggregatore
aggregazione
aggressione
aggressioni
aggressiva
aggressivi
aggressivita
aggressivo
agguato
aghi
agi
agile
agilita
agio
agire
agisce
agiscono
agitazione
agito
agli
aglio
agnelli
agnello
agnes
agnese
agnolo
ago
agonia
agonistica
agonistico
agora
agostini
agostiniani
agostino
agosto
agrari
agraria
agrarie
agrario
agricola
agricole
agricoli
agricolo
agricoltori
agricoltura
agrigento
agrilus
agrippa
agro
agrumi
aguilera
agusta
agusti
ah
ahl
ahly
ahmad
ahmed
ai
aia
aid
aida
aids
aim
aime
ain
air
airbus
aircraft
aires
airlines
airone
airport
airways
ais
aise
aisne
aiuta
aiutando
aiutano
aiutante
aiutare
aiutarla
aiutarli
aiutarlo
aiutarono
aiutata
aiutati
aiutato
aiutera
aiuti
aiuto
aix
aj
aja
ajax
ajkovskij
ak
aka
akademie
aki
akira
al
ala
alabama
aladdin
alain
alan
alare
alari
alarico
alaska
alata
alati
alato
alatri
alba
albanese
albanesi
albani
albania
albano
albany
albatros
albenga
alberghi
albergo
alberi
alberico
albero
albert
alberta
alberti
albertini
alberto
albertoni
albi
albino
albion
albo
albori
albrecht
album
albums
albuquerque
alca
alcamo
alcatraz
alchimia
alcide
alcol
alcolici
alcolismo
alcool
alcun
alcuna
alcune
alcuni
alcuno
alda
aldila
aldo
aldrich
ale
alec
alegre
alejandro
aleksandr
aleksandra
aleksandrovic
aleksej
alema
alemanni
aleppo
alesaggio
alessandra
alessandria
alessandrini
alessandrino
alessandro
alessia
alessio
alex
alexa
alexander
alexandra
alexandre
alexandria
alexandru
alexis
alf
alfa
alfabetico
alfabeto
alfano
alfiere
alfieri
alfio
alfonso
alfred
alfredo
algarve
algebra
algebrica
algeri
algeria
algerino
alghe
alghero
algoritmi
algoritmo
ali
alias
alibi
alicarnasso
alice
alicia
alien
aliena
alienazione
alieni
alieno
aliens
alighieri
align
alimenta
alimentare
alimentari
alimentata
alimentati
alimentato
alimentazione
alimenti
alimento
aliquota
alison
alitalia
alive
all
alla
allah
allan
allarga
allargamento
allargare
allargata
allargato
allarme
alle
allea
alleanza
alleanze
allearsi
alleata
alleate
alleati
alleato
allegati
allegato
allegoria
allegorie
allegra
allegri
allegria
allegro
allen
allena
allenamenti
allenamento
allenare
allenarsi
allenata
allenato
allenatore
allenatori
allenatrice
allende
alleno
alleo
allerta
allestimenti
allestimento
allestire
allestita
allestito
allevamento
allevato
allevatori
alleviare
alley
allgemeine
alliance
allied
allieva
allieve
allievi
allievo
allineamento
allineati
allison
allmusic
allo
alloggi
alloggio
allontana
allontanamento
allontanando
allontanano
allontanare
allontanarsi
allontanato
allontano
allora
allorche
alloro
allsvenskan
allucinazioni
allude
alluminio
allungamento
allungata
allungate
allungati
allungato
allusione
alluvionale
alluvione
alluvioni
ally
alma
almanacco
almeida
almeno
almirante
almost
aln
alogique
alone
along
alonso
alpe
alpes
alpha
alphonse
alpi
alpina
alpine
alpini
alpinismo
alpinista
alpinisti
alpino
alquanto
als
alsazia
also
alt
alta
altamente
altamura
altar
altare
altari
altavilla
alte
altenberg
alter
alterare
alterata
alterati
alterato
alterazione
alterazioni
alterna
alternando
alternano
alternanza
alternata
alternate
alternati
alternativa
alternativamente
alternative
alternativi
alternativo
alternato
alterne
alterno
altezza
altezze
alti
altieri
altipiano
altissima
altissimo
altitudine
altitudini
altman
alto
altomedievale
altopiani
altopiano
altra
altre
altresi
altrettante
altrettanti
altrettanto
altri
altrimenti
altro
altronde
altrove
altrui
altura
alture
alunni
alunno
alvarez
alvaro
alveo
alvernia
alves
alvin
alvise
always
alza
alzano
alzare
alzata
alzato
alzheimer
alzo
am
ama
amadeus
amalfi
amalia
amanda
amano
amante
amanti
amar
amara
amaranto
amare
amaro
amata
amateur
amati
amato
amatori
amatoriale
amatoriali
amava
amazing
amazon
amazzoni
ambasciata
ambasciatore
ambasciatori
ambedue
amber
ambientale
ambientali
ambientata
ambientate
ambientati
ambientato
ambientazione
ambientazioni
ambiente
ambienti
ambigua
ambiguita
ambiguo
ambiti
ambito
ambizione
ambizioni
ambiziosa
ambizioso
ambo
ambra
ambrogio
ambrose
ambrosiana
ambrosiano
ambrosio
ambulanza
amburgo
amd
ame
amedeo
amelia
amelio
amen
amendola
america
american
americana
americane
americani
americano
americans
americhe
amerigo
ames
amg
ami
amica
amiche
amichevole
amichevoli
amici
amicizia
amicizie
amico
amiens
amiga
amilcare
amir
amleto
ammad
ammalati
ammalato
ammalo
ammassi
ammasso
ammenda
ammessa
ammesse
ammessi
ammesso
ammette
ammettendo
ammettere
ammiano
amministrare
amministrata
amministrativa
amministrativamente
amministrative
amministrativi
amministrativo
amministrato
amministratore
amministratori
amministrazione
amministrazioni
amminoacidi
ammiraglia
ammiragliato
ammiraglio
ammirare
ammirato
ammiratore
ammirazione
ammise
ammissione
ammodernamento
ammoniaca
ammonta
ammontare
ammontava
ammortizzatori
ammutinamento
amnesia
amnesty
amnistia
amo
amon
among
amor
amore
amori
amorosa
amoroso
amos
amour
ampezzo
ampi
ampia
ampiamente
ampie
ampiezza
ampio
ampliamenti
ampliamento
ampliare
ampliata
ampliato
amplificatore
amplio
amsterdam
amt
amy
an
ana
anagrafe
anakin
anal
anale
analisi
analista
analitica
analizza
analizzando
analizzare
analizzato
analoga
analogamente
analoghe
analoghi
analogia
analogico
analogie
analogo
analysis
anarchia
anarchica
anarchici
anarchico
anas
anastasia
anastasija
anastasio
anatole
anatolia
anatomia
anatomy
anatra
anca
ancestrale
anch
anche
anchor
ancien
ancient
anco
ancona
ancor
ancora
ancoraggio
and
andalus
andalusia
andamento
andando
andante
andar
andare
andarono
andarsene
andasse
andata
andate
andati
andato
andava
andavano
ande
anderlecht
anders
andersen
anderson
andersson
andiamo
ando
andorra
andra
andrade
andranno
andre
andrea
andreas
andrebbe
andrei
andrej
andreotti
andretti
andrew
andrews
andria
androceo
android
androide
andromeda
andronico
andrzej
andy
aneddoti
aneddoto
anelli
anello
anemia
anestesia
anfibi
anfibio
anfiteatro
anfore
ang
ange
angel
angela
angeles
angeli
angelica
angelico
angelina
angelini
angelis
angelo
angels
angers
angie
angio
angioini
angle
anglicana
anglo
anglosassone
anglosassoni
angola
angolare
angolari
angoli
angolo
angoscia
angoule
angry
angus
anhalt
ani
anidride
anima
animal
animale
animali
animals
animata
animate
animated
animati
animation
animato
animatore
animatori
animazione
animazioni
anime
animi
animo
anita
ankara
ann
anna
annales
annali
annalisa
annata
annate
anne
annessa
annesse
annessi
annessione
annesso
annette
anni
annibale
annie
anniversario
anniversary
anno
annotazioni
annovera
annoverano
annoverata
annoverato
annua
annual
annuale
annuali
annualmente
annuario
annue
annui
annulla
annullamento
annullare
annullata
annullato
annullo
annunci
annuncia
annunciando
annunciano
annunciare
annunciarono
annunciata
annunciati
annunciato
annunciatore
annunciazione
annuncio
annunziata
annunzio
annuo
ano
anomalia
anomalie
anonima
anonimi
anonimo
another
anpi
ans
ansa
ansaldo
anselmo
ansia
ant
antagonista
antagonisti
antarctic
antartica
antartico
antartide
ante
antecedente
antecedenti
antefatti
antefatto
antenati
antenato
antenna
antenne
anteprima
antere
anteriore
anteriori
anteriormente
anthem
anthology
anthony
anti
antiaereo
antibiotici
antica
anticamente
anticarro
antiche
antichi
antichissima
antichita
anticipa
anticipando
anticipare
anticipata
anticipate
anticipato
anticipazione
anticipo
antico
anticorpi
anticrimine
antidoping
antidoto
antifascismo
antifascista
antifascisti
antigene
antille
antimafia
antincendio
antiochia
antioco
antipapa
antiquario
antisemitismo
antisommergibile
antistante
anto
antoine
antologia
antologica
antologie
anton
antonella
antonelli
antonello
antoni
antonia
antonietta
antonini
antonino
antonio
antonov
antony
antropica
antropologia
antropologo
anulare
anversa
any
anything
anzi
anziana
anziane
anziani
anzianita
anziano
anziche
anzio
anzitutto
ao
aoi
aosta
ap
apache
apartheid
ape
apeldoorn
aperta
apertamente
aperte
aperti
aperto
apertura
aperture
api
apicale
apice
apocalisse
apocalypse
apogeo
apollinare
apollo
apollodoro
apollonia
apollonio
apologia
apostolato
apostoli
apostolica
apostolici
apostolico
apostolo
app
appaiono
appalti
appalto
appannaggio
apparati
apparato
appare
apparecchi
apparecchiature
apparecchio
apparendo
apparente
apparentemente
apparenza
apparira
apparire
appariva
apparivano
apparizione
apparizioni
apparsa
apparse
apparsi
apparso
appartamenti
appartamento
appartenente
appartenenti
appartenenza
appartenere
apparteneva
appartenevano
appartengono
appartenne
appartenuta
appartenuti
appartenuto
appartiene
apparve
apparvero
appassionata
appassionati
appassionato
appellativo
appello
appena
appendice
appendici
appennini
appennino
appesi
appeso
appetito
appia
appiano
appieno
applausi
apple
applica
applicabile
applicabili
applicando
applicano
applicare
applicata
applicate
applicati
application
applicato
applicazione
applicazioni
applico
appoggia
appoggiare
appoggiata
appoggiato
appoggio
apportare
apportate
apporto
apposita
appositamente
apposite
appositi
apposito
apposta
apprende
apprendere
apprendimento
apprendista
apprendistato
apprese
appreso
appresso
appresta
apprezzamento
apprezzare
apprezzata
apprezzate
apprezzati
apprezzato
approach
approcci
approccio
approda
approdando
approdare
approdo
approfitta
approfittando
approfittare
approfitto
approfondimenti
approfondimento
approfondire
approfondita
approfondito
appropriata
appropriato
approssimativamente
approssimazione
approva
approvare
approvata
approvate
approvati
approvato
approvazione
approvo
approvvigionamento
appuntamenti
appuntamento
appunti
appuntito
appunto
apr
apre
aprendo
apri
april
aprile
aprilia
aprire
aprirono
aprirsi
apriva
aprono
aq
aqua
aquila
aquile
aquileia
aquino
aquisgrana
aquitania
ar
ara
arab
araba
arabe
arabi
arabia
arabo
aracnologo
arago
aragona
aragonese
aragonesi
araldica
araldico
aramaico
arancia
arancio
arancione
arancioni
araneae
araneidae
araneus
arantxa
arazzi
arbe
arbitrale
arbitrato
arbitri
arbitrio
arbitro
arborea
arbusti
arc
arca
arcade
arcadia
arcaica
arcaico
arcana
arcangeli
arcangelo
arcata
arcate
arch
archaeology
arche
archeologi
archeologia
archeologica
archeologiche
archeologici
archeologico
archeologo
archer
archetipo
archetti
archi
archibald
archie
archimede
architecture
architetti
architetto
architettonica
architettoniche
architettonici
architettonico
architettura
architetture
architrave
archiv
archive
archives
archivi
archiviazione
archivio
arciconfraternita
arcidiocesi
arciduca
arciere
arcieri
arcipelago
arciprete
arcivescovi
arcivescovile
arcivescovo
arco
arcobaleno
arda
arde
ardenne
ardente
arditi
ardito
arduino
are
area
areale
aree
arena
arenaria
ares
aretino
arezzo
argenti
argentina
argentine
argentini
argentino
argento
argilla
argine
argini
argo
argomentazioni
argomenti
argomento
ari
aria
ariana
ariani
arianna
ariano
arias
ariccia
aride
aridi
arido
arie
ariel
ariete
ariosto
aristide
aristocratica
aristocratici
aristocratico
aristocrazia
ariston
aristotele
aritmetica
arizona
ark
arkansas
arkham
arles
arlington
arm
arma
armada
armadio
armageddon
armamenti
armamento
armand
armando
armata
armate
armati
armato
armatura
armature
arme
armena
armeni
armenia
armeno
armi
armin
armistizio
armonia
armonica
armonico
armonie
armor
arms
armstrong
army
arn
arnaldo
arnaud
arne
arno
arnold
arnoldo
arnolfo
arnoux
arol
around
arp
arpa
arrabbia
arrabbiata
arrabbiato
arrampicata
arrangiamenti
arrangiamento
arrangiatore
arras
array
arredamento
arredi
arredo
arrende
arrendersi
arrese
arresero
arresta
arrestare
arrestata
arrestati
arrestato
arresti
arresto
arretrata
arretrato
arricchi
arricchimento
arricchire
arricchita
arricchito
arrigo
arriva
arrivando
arrivano
arrivare
arrivarono
arrivata
arrivate
arrivati
arrivato
arrivava
arrivavano
arrivera
arrivi
arrivo
arrogante
arrondissement
arrotondata
arrotondate
arrotondato
arrow
arrows
arruolamento
arruolarsi
arruolati
arruolato
arruolo
ars
arsenal
arsenale
arsizio
art
arte
artefatti
artefatto
artefice
artefici
artemide
artemisia
arteria
arterie
arteriosa
arthur
arti
article
articles
artico
articola
articolare
articolata
articolato
articolazione
articolazioni
articoli
articolo
artificiale
artificiali
artificialmente
artificio
artigianale
artigianali
artigianato
artigiani
artigiano
artigli
artiglieria
artiglierie
artiglio
artillery
artist
artista
artiste
artisti
artistica
artistiche
artistici
artistico
artists
arto
artois
arts
artt
artu
arturo
as
asa
asahi
asburgica
asburgico
asburgo
ascanio
ascari
ascendente
ascendenti
ascendenza
ascensione
ascensore
ascensori
ascesa
ascia
asciutto
ascoli
ascolta
ascoltando
ascoltare
ascoltato
ascoltatori
ascolti
ascolto
asd
asfalto
asgard
ash
asher
ashes
ashley
ashton
asi
asia
asiago
asian
asiatica
asiatiche
asiatici
asiatico
asilo
asimov
asino
ask
asma
asp
aspen
aspetta
aspettando
aspettano
aspettare
aspettativa
aspettative
aspettava
aspetti
aspetto
aspirante
aspiranti
aspirato
aspirazione
aspirazioni
aspra
aspramente
aspre
aspri
aspro
aspx
ass
assai
assale
assalito
assalti
assalto
assassin
assassina
assassinare
assassinati
assassinato
assassini
assassinio
assassino
assault
asse
assedi
assediare
assediata
assediati
assediato
assedio
assegna
assegnando
assegnare
assegnata
assegnate
assegnati
assegnato
assegnazione
assegno
assemblaggio
assemblea
assemblee
assembly
assenso
assente
assenti
assenza
assenze
asserisce
assessorato
assessore
asset
assetto
assi
assia
assiale
assicura
assicurando
assicurare
assicurarsi
assicurata
assicurato
assicurazione
assicurazioni
assicuro
assieme
assimilazione
assiri
assiria
assiro
assise
assisi
assist
assiste
assistente
assistenti
assistenza
assistere
assistette
assistita
assistiti
assistito
assistono
asso
associa
associare
associata
associate
associated
associati
association
associato
associazione
associazioni
assolo
assolto
assoluta
assolutamente
assolute
assoluti
assoluto
assoluzione
assolvere
assomiglia
assommava
assommavano
assorbe
assorbimento
assorbire
assorbita
assorbito
assume
assumendo
assumere
assumeva
assumono
assunse
assunsero
assunta
assunte
assunti
assunto
assunzione
assurdo
asta
astana
aste
asteraceae
asterix
asteroid
asteroide
asteroidi
asti
astinenza
aston
astor
astra
astratta
astratto
astrazione
astrid
astro
astrologia
astronauta
astronauti
astronave
astronomi
astronomia
astronomica
astronomical
astronomici
astronomico
astronomo
asturie
astuto
astuzia
asuka
asuncio
asylum
at
ata
atalanta
atanasio
atari
ateismo
atelier
atena
atene
ateneo
ateniese
ateniesi
athena
athens
athletic
athletics
atkins
atkinson
atlanta
atlante
atlantic
atlantica
atlantico
atlantide
atlantis
atlas
atle
atleta
atlete
atleti
atletica
atletico
atm
atmosfera
atmosfere
atmosferica
atmosferiche
atmosferici
atmosferico
atollo
atom
atomi
atomic
atomica
atomico
atomo
atp
atri
atrio
atrocita
atta
attacca
attaccamento
attaccando
attaccano
attaccante
attaccanti
attaccare
attaccarono
attaccata
attaccate
attaccati
attaccato
attacchi
attacco
attack
atte
atteggiamenti
atteggiamento
attende
attendere
attendeva
attendibile
attenta
attentamente
attentati
attentato
attenti
attento
attenzione
attenzioni
atterraggio
atterrare
attesa
attese
atteso
attesta
attestano
attestata
attestati
attestato
attestazione
atti
attica
attico
attigua
attiguo
attila
attilio
attimo
attira
attirando
attirare
attirato
attiro
attitudine
attiva
attivamente
attivare
attivata
attivati
attivato
attivazione
attive
attivi
attivismo
attivista
attivisti
attivita
attivo
atto
attore
attori
attorno
attracco
attraente
attrarre
attratta
attratti
attratto
attraversa
attraversamento
attraversando
attraversano
attraversare
attraversarono
attraversata
attraversato
attraversava
attraverso
attrazione
attrazioni
attrezzata
attrezzato
attrezzatura
attrezzature
attrezzi
attrezzo
attribui
attribuibile
attribuire
attribuisce
attribuiscono
attribuita
attribuite
attribuiti
attribuito
attributi
attributo
attribuzione
attribuzioni
attrice
attrici
attriti
attrito
attua
attuale
attuali
attualita
attualmente
attuare
attuata
attuato
attuazione
au
aubrey
auckland
audace
audacia
aude
audi
audience
audio
auditorium
audizione
audizioni
audrey
auf
aug
auge
auguri
august
augusta
auguste
augustea
augusti
augustin
augustine
augusto
augustus
aula
aule
aulo
aumenta
aumentando
aumentano
aumentare
aumentarono
aumentata
aumentate
aumentati
aumentato
aumenti
aumento
aura
aurea
aurelia
aureliano
aurelio
aurora
aus
auschwitz
ausiliare
ausiliari
ausiliaria
ausiliarie
ausiliario
ausilio
austin
australe
australia
australian
australiana
australiane
australiani
australiano
austria
austriaca
austriache
austriaci
austriaco
austro
aut
autentica
autenticazione
autenticita
autentico
authority
autista
auto
autobiografia
autobiografico
autoblindo
autobus
autocarri
autodidatta
autodifesa
autodromo
autolinee
automatica
automaticamente
automatici
automatico
automobile
automobili
automobilismo
automobilistica
automobilistiche
automobilistico
automotrici
autonoma
autonomamente
autonome
autonomi
autonomia
autonomie
autonomo
autoprodotto
autopsia
autore
autorevole
autorevoli
autori
autorita
autoritario
autoritratto
autorizzare
autorizzata
autorizzate
autorizzati
autorizzato
autorizzazione
autorizzazioni
autorizzo
autostrada
autostradale
autostrade
autoveicoli
autovettura
autovetture
autrice
autumn
autunnale
autunno
auvergne
aux
auxerre
av
ava
avalon
avalos
avambraccio
avamposto
avana
avanguardia
avanguardie
avant
avanti
avantreno
avanza
avanzamento
avanzando
avanzare
avanzarono
avanzata
avanzate
avanzati
avanzato
avanzi
avanzo
avari
avaro
avatar
avati
ave
avea
avec
avellino
avena
avendo
avengers
avente
aventi
aventino
avenue
aver
avere
avergli
averla
averle
averli
averlo
averne
aversa
avery
avesse
avessero
avessi
avete
aveva
avevamo
avevano
avevo
avezzano
avi
aviation
aviatore
aviatori
aviazione
avignone
avila
aviv
avn
avon
avorio
avra
avranno
avrebbe
avrebbero
avrei
avremo
avril
avro
avulsa
avuta
avuti
avuto
avv
avvale
avvalendosi
avvalersi
avvelenamento
avvelenato
avvenga
avvengono
avvenimenti
avvenimento
avvenire
avveniva
avvenne
avvennero
avvento
avventura
avventure
avventurieri
avventuriero
avvenuta
avvenute
avvenuti
avvenuto
avverra
avversari
avversaria
avversarie
avversario
avverse
avversione
avversita
avverso
avverte
avverti
avvertimento
avvertire
avvertito
avvia
avviamento
avviando
avviare
avviata
avviate
avviati
avviato
avvicina
avvicinamento
avvicinando
avvicinandosi
avvicinano
avvicinare
avvicinarsi
avvicinato
avvicino
avviene
avvio
avvisa
avvisare
avviso
avvistamenti
avvistamento
avvistato
avvocati
avvocato
avvolge
avvolta
avvolto
awakening
award
awards
away
ax
axe
axel
ay
aya
ayala
ayumi
ayutthaya
az
azeglio
azera
azerbaigian
azeri
azero
azienda
aziendale
aziendali
aziende
azionario
azione
azioni
azionista
azionisti
aziz
azoto
azul
azzardo
azzorre
azzurra
azzurre
azzurri
azzurro
b
ba
baba
babbo
babe
babes
babilonese
babilonia
baby
babylon
bac
bacche
bacchetta
bacco
bach
bachelor
baci
bacia
baciano
baciare
bacini
bacino
bacio
back
background
backstage
backup
bacon
bad
bada
baden
badessa
badia
badoglio
baffi
bafta
bag
bagagli
bagagliaio
bagaglio
baggio
baghdad
baglioni
bagnata
bagnato
bagni
bagno
bagnoli
baha
bahamas
bahia
bahn
bahrein
bai
baia
baie
bailey
bailly
bain
bains
baionetta
baker
baku
bal
bala
balaustra
balbo
balcani
balcanica
balcone
balconi
baldacchino
baldassarre
baldi
baldini
baldovino
baldwin
baleari
balena
balene
balestra
bali
balia
ball
balla
ballad
ballando
ballard
ballare
ballata
ballate
ballerina
ballerini
ballerino
ballet
balletti
balletto
balli
ballo
ballottaggio
balneare
balsamo
baltici
baltico
baltimora
baltimore
baluardo
balzo
bam
bambina
bambine
bambini
bambino
bambola
bambole
bambu
ban
banale
banana
banca
bancari
bancaria
bancario
bancarotta
banche
banchetti
banchetto
banchi
banchiere
banchieri
banchina
banchine
banco
banconota
banconote
band
banda
bande
bandi
bandiera
bandiere
bandini
banditi
bandito
bando
bang
bangkok
bangladesh
banjo
bank
banks
banner
bao
baptist
baptiste
bar
bara
baracca
barack
barba
barbara
barbari
barbariche
barbaro
barbarossa
barbe
barber
barbera
barberini
barbie
barbiere
barbieri
barbora
barca
barcellona
barcelona
barche
barclay
bardi
bare
bari
baricentro
barile
barili
barista
baritono
barker
barletta
barlow
barnaba
barnes
barney
barocca
barocche
barocchi
barocco
baron
baronale
barone
baronessa
baronetto
baroni
baronia
barr
barra
barre
barrett
barrichello
barriera
barriere
barrow
barry
bart
barthe
bartlett
bartoli
bartolini
bartolo
bartolomeo
barton
bas
basa
basale
basali
basamento
basandosi
basano
basata
basate
basati
basato
basava
baschi
basco
base
baseball
based
bash
basi
basic
basil
basile
basilea
basilica
basilicata
basiliche
basilio
basket
basketball
bass
bassa
bassano
basse
bassi
bassista
basso
bassorilievi
bassorilievo
basta
bastardi
basti
bastia
bastien
bastione
bastioni
basto
bastogne
bastone
bastoni
bat
bates
bath
batista
batman
battaglia
battaglie
battaglione
battaglioni
battalion
batte
battelli
battello
battendo
battenti
battere
batteri
batteria
batterica
batterie
batterio
batterista
batterono
battery
battesimale
battesimo
battezzata
battezzati
battezzato
battiato
battista
battistero
battisti
battito
battle
battono
battuta
battute
battuti
battuto
bau
baudelaire
bauer
bautista
bava
bavarese
bavaresi
baviera
baxter
bay
bayer
bayern
bayley
bazar
bb
bbc
bc
bd
be
beach
bean
bear
bears
beast
beat
beata
beati
beatificazione
beatles
beato
beatrice
beatty
beau
beaufort
beaumont
beautiful
beauty
beaux
beaver
bebe
bec
because
beccaria
becco
beck
becker
beckett
becky
bed
bedford
bee
been
beer
beethoven
before
begin
beginning
begins
behind
bei
beijing
being
beirut
bel
bela
bele
belfast
belga
belgi
belgio
belgique
belgrado
believe
belinda
belisario
belize
bell
bella
bellamy
belle
belles
bellezza
bellezze
belli
bellica
belliche
bellici
bellico
bellini
bellinzona
bellissima
bellissimo
bello
bellocchio
bells
belluno
belmonte
belo
belvedere
bembo
bemolle
ben
benche
bend
bender
bene
benedetta
benedetti
benedettina
benedettine
benedettini
benedettino
benedetto
benedicente
benedict
benedizione
beneficenza
benefici
beneficiare
beneficio
benefico
benelli
benemerenza
benessere
benestante
benetton
benevento
benevolenza
benfica
bengala
bengals
bengasi
beni
beniamino
benigni
benigno
benin
benissimo
benito
benjamin
bennet
bennett
benny
benoi
benoit
bensi
benson
benth
bentivoglio
bentley
benton
benvenuti
benvenuto
benz
benzina
beppe
ber
berardi
berardo
bere
berengario
berenice
beretta
berg
bergamasca
bergamaschi
bergamasco
bergamo
bergen
berger
bergman
berio
berkeley
berlin
berlina
berliner
berlinguer
berlino
berlusconi
bermuda
bern
berna
bernabo
bernadette
bernard
bernardi
bernardini
bernardino
bernardo
bernd
bernerio
bernhard
bernie
bernini
bernstein
berretti
berretto
berry
bersagli
bersaglieri
bersaglio
bersani
bert
berta
berte
berti
bertini
bertoldo
bertolucci
bertone
bertram
bertrand
bes
besanc
best
bestia
bestiame
bestie
bet
beta
beth
betlemme
betsy
bette
better
betti
betty
between
bevanda
bevande
beve
beverly
bevilacqua
bevuto
bey
beyonce
beyond
bf
bg
bhutan
bi
biagi
biagio
bianca
biancaneve
biancastro
bianche
bianchi
bianchini
bianco
biancoceleste
bianconera
bianconeri
bianconero
biancorossa
biancorossi
biathlon
bibbia
bible
biblica
bibliche
biblici
biblico
bibliografia
bibliografiche
biblioteca
bibliotecario
biblioteche
bibliothe
bibliotheca
bicchiere
bici
bicicletta
biciclette
biden
bieber
biella
biellese
bielorussa
bielorussia
bielorusso
bien
biennale
biennio
bifora
bifore
big
biglietteria
biglietti
biglietto
bike
bikini
bilanci
bilancia
bilancio
bilaterali
bilbao
bilingue
bill
billboard
billie
bills
billy
bimba
bimbo
bimotore
bin
binari
binaria
binario
binate
bing
binocolo
bio
biochimica
biodiversita
biografia
biografica
biografiche
biografici
biografico
biografie
biografo
biograph
biographical
biographie
biography
biologia
biologica
biologiche
biologici
biologico
biologo
biology
bionda
biondi
biondo
biplano
biposto
bir
bird
birds
birmania
birmano
birmingham
birra
birth
birthday
bis
bisanzio
bisceglie
biscotti
bishop
bismarck
bisogna
bisognava
bisognera
bisogni
bisogno
bisognosi
bit
bitch
bitonto
bitter
bivacco
bivio
bizantina
bizantine
bizantini
bizantino
bizzarri
bizzarro
bjo
bl
bla
black
blackburn
blacks
blackwell
blade
blaine
blair
blake
blanc
blanca
blanche
blanco
blasetti
blasi
blasone
blast
blaze
blazers
bleu
blind
bliss
blitz
blocca
bloccando
bloccare
bloccata
bloccate
bloccati
bloccato
blocchi
blocco
bloch
block
blog
blois
blonde
blood
bloody
bloom
blow
blu
blue
blues
bluetooth
bmatrix
bmg
bmw
bo
boa
board
boat
bob
bobbio
bobby
bobina
bobine
bobo
boca
bocca
boccaccio
bocche
bocconi
body
boe
boeing
boemia
bogdan
bogota
bohe
boia
boicottaggio
bois
boiss
bol
bold
boldsymbol
boleslao
boli
bolivia
bolla
bollati
bolle
bollente
bollettino
bologna
bolognese
bolognesi
bolognini
bolscevichi
bolt
bolton
bolzano
bomb
bomba
bombardamenti
bombardamento
bombardare
bombardiere
bombardieri
bombay
bombe
bomber
bompiani
bon
bona
bonanza
bonaparte
bonaventura
boncompagni
bond
bone
bonelli
bones
bong
boni
bonifacio
bonifacius
bonifica
bonino
bonn
bonnard
bonnie
bono
bonomi
bonta
bonus
boo
boogie
book
booker
books
boom
boomerang
boone
boot
booth
bootleg
boots
bor
bora
borbone
borboni
borbonica
borbonico
bordeaux
bordello
border
bordi
bordo
boreale
borg
borgata
borges
borghese
borghesi
borghesia
borghi
borgia
borgo
borgogna
boringhieri
boris
bormio
born
borneo
borough
borromeo
borsa
borse
borsellino
borussia
bosch
boschetto
boschi
bosco
bose
bosforo
bosnia
bosniaco
boss
bossi
boston
bot
botafogo
botanica
botanici
botanico
botswana
botta
bottas
botte
bottega
botteghe
botteghino
botti
bottiglia
bottiglie
bottino
bottom
bottoni
boulder
boulevard
boulogne
bound
bourbon
bourgogne
bourne
bovini
bovino
bow
bowen
bowie
bowl
bowling
bowman
box
boxe
boxer
boxing
boy
boyd
boyer
boyle
boys
boyz
bozza
bozze
bozzetti
bozzetto
bp
br
bra
brabante
brabham
bracci
braccia
braccio
brad
bradford
bradley
brady
braga
bragaglia
braganza
brahms
brain
bram
bramante
brambilla
branca
branch
branche
branco
brand
brandeburgo
brandi
brando
brandon
brandt
brani
brann
brano
bras
brasil
brasile
brasileiro
brasiliana
brasiliane
brasiliani
brasiliano
brass
bratislava
brattee
braun
braunschweig
brava
brave
bravi
bravo
bravura
bray
brazil
bre
break
breakfast
breaking
breath
breccia
brecht
breda
bree
brema
brenda
brendan
brennan
brennero
brent
brenta
brera
brescia
bresciana
bresciani
bresciano
breslavia
bressanone
brest
bret
bretagna
bretagne
breton
bretone
brett
breve
brevemente
brevetti
brevetto
brevi
brevissimo
brian
brianza
brick
bride
bridge
bridges
bridget
brie
brief
brien
briga
brigade
brigadiere
brigantaggio
brigante
briganti
brigata
brigate
briggs
bright
brighton
brigida
brigitte
brignone
brill
brillante
brillanti
brindisi
bring
brisbane
bristol
brit
britain
britannia
britannica
britanniche
britannici
britannico
british
britney
brittany
britten
brivido
brizzi
brno
broadcast
broadcasting
broadway
brock
brodo
brody
broken
bromus
broncho
broncos
bronson
bronx
bronze
bronzea
bronzi
bronzo
brook
brooke
brooklyn
brooks
bros
brother
brothers
brown
browne
browning
browns
browser
bru
bruce
brucia
bruciare
bruciata
bruciati
bruciato
bruges
bruna
brune
brunei
bruni
bruno
brunswick
brusca
bruscamente
brusco
brutale
brutalita
brutalmente
bruto
brutta
brutto
bruxelles
bryan
bryant
bryce
bs
bt
bts
bu
buca
bucarest
buccaneers
buchanan
buche
buchi
buck
buckingham
buckley
bucks
buco
bud
budapest
buddha
buddhismo
buddhista
buddhisti
buddismo
buddista
buddy
budget
bue
buenos
buffa
buffalo
buffy
bug
bugatti
bugia
bugiardo
bugie
bugnato
bugs
build
building
buio
bulbo
bulbophyllum
bulgara
bulgari
bulgaria
bulgaro
bull
bulldog
bullet
bulletin
bullismo
bullock
bulls
bum
bun
bundesliga
bunker
bunny
buoi
buon
buona
buonarroti
buone
buongiorno
buoni
buono
bur
bureau
burgess
burgos
burke
burkina
burn
burnett
burning
burns
burocrazia
burr
burro
burt
burton
burundi
bury
bus
bush
business
bussola
busta
buster
busti
busto
but
butch
butcher
butler
butt
butta
butterfly
button
buy
buzz
bv
bwv
by
bye
byrd
byrne
byron
byte
c
ca
cabala
cabaret
cabina
cabine
cabinet
cable
cabrera
cabriolet
cacao
caccia
cacciare
cacciata
cacciati
cacciato
cacciatore
cacciatori
cacciatorpediniere
cacciatrice
cache
cactus
cadavere
cadaveri
cadde
caddero
cade
cadendo
cadenza
cadere
cadetta
cadetteria
cadetti
cadetto
cadice
cadillac
cadono
cadore
cadorna
caduta
cadute
caduti
caduto
caen
caesar
caetani
caf
cafe
caffe
cage
cagione
cagliari
cahiers
cai
cain
caino
caio
cairo
cake
cal
cala
calabrese
calabresi
calabria
calabro
calais
calamita
calandra
calare
calata
calcare
calcarea
calcaree
calcareo
calce
calcestruzzo
calci
calciatore
calciatori
calciatrice
calciatrici
calcio
calciomercato
calcistica
calcisticamente
calcistiche
calcistico
calcola
calcolare
calcolata
calcolato
calcolatore
calcoli
calcolo
calcutta
calda
caldaia
caldaie
calde
caldi
caldo
caldwell
cale
caleb
caledonia
calendario
calgary
cali
calibri
calibro
calice
califfato
califfo
california
californiana
caligola
call
calle
called
callie
calling
callisto
calma
calmo
calo
calogero
calore
calotta
caltagirone
caltanissetta
calvario
calvi
calvin
calvino
calvo
calze
calzettoni
cam
cambi
cambia
cambiamenti
cambiamento
cambiando
cambiano
cambiare
cambiarono
cambiata
cambiati
cambiato
cambiera
cambio
cambogia
cambrai
cambridge
camden
came
camelot
cameo
camera
camere
cameriera
cameriere
camerini
camerino
cameron
camerun
camicia
camicie
camila
camilla
camille
camillo
camino
camion
camme
cammina
camminando
camminare
cammino
camonica
camorra
camp
campagna
campagne
campaign
campale
campana
campanaria
campane
campanella
campani
campania
campanile
campanili
campano
campanula
campata
campate
campbell
campeggia
campeggio
campeonato
campestre
campi
campidoglio
campionamento
campionati
campionato
campione
campionessa
campionesse
campioni
campo
campobasso
campos
campus
camus
can
canada
canadese
canadesi
canadian
canal
canale
canali
canapa
canarie
canavese
canberra
cancellare
cancellata
cancellate
cancellati
cancellato
cancellazione
cancelleria
cancelli
cancelliere
cancello
cancer
cancro
candela
candele
candia
candice
candida
candidarsi
candidata
candidate
candidati
candidato
candidatura
candidature
candido
candy
cane
cani
canini
canna
cannabis
canne
cannella
cannes
cannon
cannone
cannoni
cannoniere
canoa
canon
canone
canoni
canonica
canonici
canonico
canonizzazione
canossa
canottaggio
canottieri
canova
canta
cantando
cantano
cantante
cantanti
cantare
cantata
cantate
cantati
cantato
cantautore
cantautori
cantautrice
cantava
canterbury
canti
cantiere
cantieri
cantina
cantine
canto
canton
cantonale
cantone
cantonese
cantoni
cantore
cantori
cantoria
cantu
canvas
canyon
canzone
canzoni
canzoniere
cao
caos
cap
capace
capaci
capacita
capanna
capanne
capcom
cape
capeggiata
capella
capelli
capello
capendo
capi
capienza
capillare
capire
capisce
capiscono
capita
capital
capitale
capitali
capitalismo
capitalista
capitan
capitanata
capitani
capitano
capite
capitelli
capitello
capito
capitol
capitolare
capitolazione
capitoli
capitolina
capitolini
capitolo
capo
capocannoniere
capodanno
capodimonte
capodistria
capofamiglia
capogruppo
capolavori
capolavoro
capolinea
capolini
capolino
capolista
capoliste
capoluogo
capone
caporale
caporedattore
caporetto
capostipite
cappa
cappadocia
cappella
cappellano
cappelle
cappelletti
cappelli
cappello
capponi
cappotto
cappuccini
cappuccio
capra
capre
capri
capriate
capriccio
caproni
capsula
capsule
captain
capua
capuano
caputo
car
cara
carabina
carabiniere
carabinieri
carabus
caracalla
caracas
caracciolo
carafa
caraibi
caramelle
carattere
caratteri
caratteristica
caratteristiche
caratteristici
caratteristico
caratterizza
caratterizzano
caratterizzata
caratterizzate
caratterizzati
caratterizzato
caratterizzazione
caratterizzo
caravaggio
carboidrati
carbon
carbonato
carbone
carboni
carbonica
carbonio
carburante
carburatore
carcere
carceri
carcinoma
card
cardiaca
cardiaco
cardiff
cardinal
cardinale
cardinali
cardinalizio
cardinals
cardine
cardini
cardo
cardona
cards
carducci
care
career
carena
carenza
carenze
carestia
carey
cargo
cari
caribbean
carica
caricamento
caricare
caricata
caricati
caricato
caricatore
cariche
carichi
carico
carignano
carina
carini
carinzia
carioca
carisma
carita
carl
carla
carli
carlino
carlisle
carlo
carlos
carlotta
carlson
carlton
carly
carmela
carmelitani
carmelo
carmen
carmine
carne
carnegie
carnevale
carni
carnival
carnivori
caro
carocci
carol
carole
carolina
caroline
carolingi
carolingia
carolingio
carolyn
carosello
carovana
carpazi
carpegna
carpelli
carpenter
carpi
carr
carra
carracci
carrara
carre
carreggiata
carrelli
carrello
carrera
carretto
carri
carrie
carrier
carriera
carriere
carro
carroll
carrozza
carrozze
carrozzeria
carrozzina
cars
carso
carson
carta
cartacea
cartagena
cartagine
cartaginese
cartaginesi
carte
carteggio
cartella
cartelli
cartellino
cartello
cartellone
carter
cartesio
cartiglio
cartografia
cartolina
cartoline
cartone
cartoni
cartoon
cartucce
cartuccia
cartulaire
caruso
carvalho
carver
cary
cas
casa
casablanca
casacca
casagrande
casal
casale
casali
casalinga
casalinghe
casalinghi
casalingo
casanova
casata
casate
casati
casato
cascata
cascate
cascina
cascine
casco
case
casella
caselle
caselli
casello
caserma
caserme
caserta
cases
casetta
casey
cash
casi
casimiro
casini
casino
caso
casper
caspio
cass
cassa
cassaforte
cassandra
cassano
cassazione
casse
cassetta
cassette
cassettoni
cassiano
cassidy
cassie
cassini
cassino
cassio
cast
casta
castagna
castagne
castagno
castel
castelfranco
castell
castellammare
castellana
castellani
castellano
castelletto
castelli
castello
castelnuovo
castelvecchio
castiel
castiglia
castigliano
castiglione
castiglioni
castigo
castilla
castillo
casting
castita
castle
castoldi
castro
castrum
casuale
casuali
casualmente
cat
catacombe
catalana
catalani
catalano
cataldo
catalina
catalizza
catalizzatore
catalog
catalogazione
cataloghi
catalogna
catalogo
catalogue
catalunya
catanese
catania
catanzaro
catarina
catasto
catastrofe
catch
catechismo
categoria
categorie
catena
catene
caterina
cathedral
catherine
catholic
catholica
catholicae
cathy
catino
cato
catone
cats
cattaneo
cattedra
cattedrale
cattedrali
cattiva
cattive
cattivi
cattivita
cattivo
cattolica
cattolicesimo
cattoliche
cattolici
cattolico
cattura
catturando
catturano
catturare
catturarono
catturata
catturate
catturati
catturato
catturo
caucaso
caudale
cauline
causa
causando
causano
causare
causarono
causata
causate
causati
causato
cause
causo
cautela
cautelare
cauzione
cav
cava
cavalcata
cavalier
cavaliere
cavalieri
cavaliers
cavalleggeri
cavalleresco
cavalleria
cavalli
cavallino
cavallo
cave
cavendish
caverna
caverne
cavi
caviglia
cavita
cavo
cavour
cb
cbs
cc
ccd
cd
cda
cdc
cdot
cdots
cdp
ce
ceca
cecchi
cecchini
cecchino
cecco
cechi
ceci
cecil
cecilia
cecina
cecita
ceco
cecoslovacca
cecoslovacchia
cecoslovacco
cede
cedendo
cedere
cedette
cedettero
cedimento
cedric
cedro
ceduta
cedute
ceduti
ceduto
cee
cei
cela
celano
celebra
celebrano
celebrare
celebrata
celebrate
celebrati
celebration
celebrato
celebrazione
celebrazioni
celebre
celebri
celebrita
celebrity
celebro
celentano
celeste
celesti
celestino
celia
celio
cell
cella
celle
cellini
cellula
cellulare
cellulari
cellule
celso
celti
celtic
celtica
celtiche
celtico
celtics
cemento
cemetery
cena
cenacolo
cenere
cenerentola
ceneri
cenni
cenno
censimento
censura
census
cent
centaurea
centauro
centenario
center
centesimi
centesimo
centimetri
centinaia
centinaio
cento
centomila
centra
central
centrale
centrali
centralita
centrare
centrata
centrato
centravanti
centre
centri
centro
centrocampista
centrocampo
centrodestra
centrosinistra
centurione
century
ceo
ceppi
ceppo
cera
ceramica
ceramiche
cerca
cercando
cercano
cercare
cercarono
cercato
cercava
cercavano
cerchera
cerchi
cerchia
cerchio
cerco
cereali
cerebrale
cerebrali
cerere
ceres
cerimonia
cerimoniale
cerimonie
cerreto
cerro
certa
certain
certamente
certe
certezza
certi
certificati
certificato
certificazione
certo
certosa
cervantes
cervello
cervi
cervia
cervo
ces
cesare
cesarea
cesareo
cesari
cesario
cesaro
cesena
cespugli
cessa
cessare
cessarono
cessata
cessate
cessato
cessazione
cessione
cessioni
cesso
cestista
cestisti
cestistica
ceti
ceto
cetra
cev
cf
cfr
cgd
cgi
cgil
ch
cha
chad
chain
challenge
challenger
chamber
chamberlain
chamberlin
chambers
champ
champagne
champion
champions
championship
championships
champs
chan
chance
chandler
chanel
chang
change
changes
channel
chanson
chant
chao
chaos
chapel
chapelle
chaplin
chapman
chapter
char
character
charente
charge
chargers
charity
charles
charleston
charley
charlie
charlotte
charlton
chart
charter
chartes
chartres
charts
chase
chat
che
check
checklist
cheerleader
chef
chel
chelsea
chemical
chemioterapia
chemistry
chen
cheng
cher
cherokee
cherry
cherubini
cheryl
chess
chester
chet
chevalier
chevrolet
cheyenne
chez
chi
chiama
chiamando
chiamano
chiamare
chiamarlo
chiamarono
chiamarsi
chiamata
chiamate
chiamati
chiamato
chiamava
chiamavano
chiamo
chiana
chiang
chianti
chiara
chiaramente
chiaravalle
chiare
chiarezza
chiari
chiarire
chiarisce
chiarito
chiaro
chiasso
chiavari
chiave
chiavi
chiba
chicago
chick
chicken
chico
chiede
chiedendo
chiedendogli
chiedere
chiedergli
chiedeva
chiedevano
chiedono
chief
chiefs
chierici
chierico
chiesa
chiese
chiesero
chiesetta
chiesto
chieti
chievo
chigi
child
children
chile
chili
chilogrammi
chilometri
chilometro
chimica
chimiche
chimici
chimico
chin
china
chinese
ching
chiodi
chiodo
chioggia
chioma
chiostro
chip
chirico
chirurgia
chirurgica
chirurgici
chirurgico
chirurgo
chisciotte
chitarra
chitarre
chitarrista
chitarristi
chiude
chiudendo
chiudere
chiudono
chiunque
chiusa
chiuse
chiusero
chiusi
chiuso
chiusura
chloe
cho
chocolate
choi
choice
choir
chopin
chorus
chre
chris
christ
christensen
christi
christian
christiana
christie
christina
christine
christmas
christoph
christophe
christopher
christy
chronica
chronicle
chronicles
chronicon
chronique
chroniques
chrysler
chu
chuck
chun
chung
church
churchill
ci
cia
ciad
ciak
ciambellano
ciampi
ciano
ciao
ciascun
ciascuna
ciascuno
cibi
cibo
cicatrice
ciccio
cicerone
ciclabile
cicli
ciclismo
ciclista
ciclisti
ciclistica
ciclo
ciclocross
ciclone
ciclope
cicogna
cid
cie
cieca
ciechi
cieco
ciel
cieli
cielo
cifra
cifre
cigni
cigno
cile
cilena
cileno
cilento
cilicia
cilindrata
cilindri
cilindrica
cilindrico
cilindro
cima
cime
cimeli
cimiteri
cimitero
cin
cina
cincinnati
cinderella
cindy
cine
cinecitta
cinema
cinematic
cinematografia
cinematografica
cinematografiche
cinematografici
cinematografico
cinese
cinesi
cinetica
cinghiale
cingoli
cinico
cinisello
cino
cinquant
cinquanta
cinquantina
cinque
cinquecentesca
cinquecentesco
cinquecento
cinta
cinto
cintura
cinture
cinzia
cio
cioccolato
cioe
ciononostante
ciottoli
cipolla
cipolle
cippo
cipriani
cipriano
cipriota
ciprioti
cipro
circa
circe
circle
circo
circolare
circolari
circolazione
circoli
circolo
circoncisione
circonda
circondano
circondari
circondario
circondata
circondati
circondato
circonferenza
circonvallazione
circoscrizione
circoscrizioni
circostante
circostanti
circostanza
circostanze
circuit
circuiti
circuito
circumpolare
circus
cirenaica
ciriaco
cirillico
cirillo
ciro
cirsium
cis
cisalpina
cisco
cistercense
cistercensi
cisterna
cisterne
cit
cita
citando
citano
citare
citata
citate
citati
citato
citazione
citazioni
cite
cities
citizen
cito
citroe
citta
cittadella
cittadina
cittadinanza
cittadine
cittadini
cittadino
city
ciudad
ciuffo
ciurma
civ
civetta
civica
civiche
civici
civico
cividale
civil
civile
civili
civilization
civilta
civita
civitas
civitavecchia
civitella
ck
cke
cken
cl
cla
clade
cladogramma
cladonia
clair
claire
clamoroso
clan
clancy
clandestina
clandestinamente
clandestini
clandestinita
clandestino
clapton
clara
clare
clarence
clarendon
clarinetto
clarisse
clark
clarke
clash
class
classe
classi
classic
classica
classical
classiche
classici
classicismo
classico
classics
classifica
classificandosi
classificare
classificata
classificate
classificati
classification
classificato
classificazione
classificazioni
classifiche
classifico
claude
claudia
claudio
claus
clausola
clausole
clausura
clavicembalo
clay
clayton
cle
clean
clear
clemens
clement
clemente
clements
clemenza
cleo
cleopatra
clerici
clermont
clero
cles
cleveland
client
cliente
clientela
clienti
cliff
clifford
clifton
clima
climate
climatica
climatiche
climatici
climatico
climax
climi
clinica
clinical
cliniche
clinici
clinico
clint
clinton
clio
clip
clippers
clive
cln
clock
clone
cloni
cloro
cloruro
close
closer
cloud
clown
club
clube
cluj
cluny
cluster
clyde
cm
cn
cnn
cnr
co
coa
coach
coadiutore
coadiuvato
coalizione
coast
coat
coautore
cobb
cobra
coburgo
coca
cocaina
cocco
coccodrilli
coccodrillo
cock
cocktail
coco
cod
coda
code
codex
codice
codici
codifica
cody
coe
coefficiente
coefficienti
coen
coerente
coerenti
coerenza
coesione
coetanei
cofanetto
cofano
coffee
cofondatore
coglie
cogliendo
cogliere
cognata
cognato
cognitiva
cognitive
cognitivo
cognizione
cognome
cognomi
cohen
coi
coimbra
coincide
coincidenza
coincidere
coincidono
coincise
coinvolge
coinvolgendo
coinvolgere
coinvolgimento
coinvolgono
coinvolse
coinvolta
coinvolte
coinvolti
coinvolto
col
cola
colazione
colbert
cold
cole
colei
coleman
coleotteri
colera
colesterolo
coletti
colin
coliseum
coll
colla
collabora
collaborando
collaborano
collaborare
collaborarono
collaborato
collaboratore
collaboratori
collaborazione
collaborazioni
collaboro
collage
collana
collane
collare
collasso
collaterale
collaterali
collaudatore
collaudo
colle
collected
collection
collector
collega
collegamenti
collegamento
collegando
collegano
collegare
collegata
collegate
collegati
collegato
collegava
college
colleghi
collegi
collegiale
collegiata
collegio
collera
collettiva
collettivamente
collettive
collettivi
collettivita
collettivo
colletto
colleziona
collezionando
collezionato
collezione
collezioni
collezionista
collezionisti
colleziono
colli
collier
collina
collinare
collinari
colline
collins
collisione
collo
colloca
collocano
collocare
collocata
collocate
collocati
collocato
collocazione
colloqui
colloquio
colluttazione
colmare
colmo
colo
colomba
colombano
colombia
colombiana
colombiano
colombo
colon
coloni
colonia
colonial
coloniale
coloniali
colonialismo
colonie
colonizzazione
colonna
colonnato
colonne
colonnello
colonnine
color
colorado
coloranti
colorata
colorate
colorati
colorato
colorazione
colorazioni
colore
colori
coloro
colors
colossale
colosseo
colosso
colour
colpa
colpe
colpendo
colpevole
colpevolezza
colpevoli
colpi
colpire
colpirono
colpisce
colpiscono
colpita
colpite
colpiti
colpito
colpo
colse
colt
colta
coltelli
coltello
colti
coltivare
coltivata
coltivate
coltivati
coltivato
coltivazione
coltivazioni
colto
coltrane
colts
coltura
colture
colui
columbia
columbus
com
coma
comanda
comandamenti
comandante
comandanti
comandare
comandata
comandate
comandati
comandato
comandava
comandi
comando
combat
combatte
combattendo
combattente
combattenti
combattere
combatterono
combatteva
combattevano
combattimenti
combattimento
combattono
combattuta
combattuto
combina
combinando
combinare
combinata
combinate
combinati
combinato
combinazione
combinazioni
combo
combustibile
combustibili
combustione
come
comedy
comencini
comes
comet
cometa
comete
comfort
comic
comica
comiche
comici
comico
comics
comincia
cominciando
cominciano
cominciare
cominciarono
cominciata
cominciato
cominciava
comincio
coming
comique
comitati
comitato
comitum
comizio
comma
command
commander
commando
comme
commedia
commedie
commediografo
commemorare
commemorativa
commemorativo
commemorazione
commenda
commendatore
commendatori
commenta
commentario
commentary
commentato
commentatore
commentatori
commenti
commento
commerce
commerci
commercial
commerciale
commerciali
commercializzata
commercializzato
commercializzazione
commercialmente
commerciante
commercianti
commercio
commessa
commesse
commessi
commesso
commette
commettere
commi
commissari
commissariato
commissario
commission
commissionata
commissionato
commissione
commissioni
commissiono
committee
committente
committenti
committenza
commodore
common
commons
commonwealth
commozione
communication
communications
community
comneno
como
comodita
comodo
compact
compagine
compagini
compagna
compagne
compagni
compagnia
compagnie
compagno
compaiono
companion
company
comparata
comparative
comparazione
compare
comparire
comparsa
comparse
comparso
compartecipazione
compartimento
comparto
comparve
comparvero
compassione
compasso
compatibile
compatibili
compatibilita
compatta
compatto
compendio
compensare
compensazione
compenso
compete
competente
competenti
competenza
competenze
competere
competition
competitiva
competitivita
competitivo
competizione
competizioni
compi
compianto
compie
compiendo
compiere
compilation
compilato
compilazione
compimento
compiono
compiti
compito
compiuta
compiute
compiuti
compiuto
compleanno
complementare
complementari
complemento
complessa
complesse
complessi
complessita
complessiva
complessivamente
complessive
complessivi
complessivo
complesso
completa
completamente
completamento
completando
completano
completare
completata
completate
completati
completato
complete
completi
completo
complex
complicanze
complicata
complicato
complicazioni
complice
complici
complicita
complotto
compone
componente
componenti
componevano
compongono
componimenti
componimento
comporre
comporta
comportamentali
comportamenti
comportamento
comportano
comportare
comportarsi
comportato
comportava
comporto
compose
composito
compositore
compositori
composizione
composizioni
composta
composte
compostela
composti
composto
compra
comprare
comprato
comprende
comprendendo
comprendente
comprendenti
comprendere
comprendeva
comprendevano
comprendono
comprensibile
comprensione
comprensivo
comprensorio
compresa
comprese
compresi
compreso
compressa
compressione
compresso
compressore
compro
compromessa
compromessi
compromesso
compromettere
comproprieta
compton
computer
computing
computo
comte
comunale
comunali
comune
comunemente
comuni
comunica
comunicano
comunicare
comunicati
comunicato
comunicazione
comunicazioni
comunico
comunione
comunismo
comunista
comuniste
comunisti
comunita
comunitaria
comunitarie
comunitario
comunque
con
conan
conca
concacaf
concattedrale
concede
concedendo
concedere
concedeva
concentra
concentramento
concentrandosi
concentrano
concentrare
concentrarono
concentrarsi
concentrata
concentrate
concentrati
concentrato
concentrazione
concentrazioni
concentro
concepire
concepita
concepito
concept
concerne
concernente
concernenti
concert
concerti
concerto
concessa
concesse
concessi
concessione
concessioni
concesso
concetti
concetto
concettuale
concezione
concezioni
conchiglia
conchiglie
conci
concili
conciliare
conciliazione
concilio
concistoro
concittadini
conclave
conclude
concludendo
concludera
concludere
concludersi
concludono
conclusa
conclusasi
concluse
conclusero
conclusi
conclusione
conclusioni
conclusiva
conclusivo
concluso
conclusosi
concomitanza
concordano
concordato
concorde
concordi
concordia
concorrente
concorrenti
concorrenza
concorrere
concorsi
concorso
concreta
concretamente
concrete
concretizzo
concreto
condanna
condannare
condannata
condannati
condannato
condanne
condanno
conde
condita
condivide
condividendo
condividere
condivideva
condividono
condivisa
condivise
condivisi
condivisione
condiviso
condizionale
condizionamento
condizionata
condizionato
condizione
condizioni
condominio
condor
condotta
condotte
condotti
condottieri
condottiero
condotto
conduce
conducendo
conducente
conduceva
conducono
condurre
condusse
condussero
conduttore
conduttori
conduttrice
conduzione
conegliano
confederate
confederati
confederations
confederato
confederazione
conference
conferenza
conferenze
conferi
conferimento
conferire
conferisce
conferiscono
conferita
conferito
conferma
confermando
confermano
confermare
confermarono
confermata
confermate
confermati
confermato
confermo
confessa
confessare
confessato
confessione
confessioni
confesso
confessore
confezione
confida
confidente
confidenza
configurazione
configurazioni
confina
confinante
confinanti
confinato
confine
confini
confino
confisca
confiscati
conflict
conflitti
conflitto
confluenza
confluire
confluisce
confluiscono
confondere
conformazione
conforme
conformemente
conformi
conformita
conforto
confratelli
confraternita
confraternite
confronta
confrontare
confrontarsi
confronti
confronto
confusa
confuse
confusi
confusione
confuso
congedato
congedo
congelamento
congettura
congiunge
congiunta
congiuntamente
congiunti
congiuntivo
congiunto
congiunzione
congiura
congiurati
congo
congrega
congregazione
congregazioni
congress
congressi
congresso
coni
coniata
coniate
coniato
conica
conico
conifere
conigli
coniglio
conio
coniugale
coniugazione
coniuge
coniugi
connazionale
connazionali
connecticut
connection
connell
connessa
connesse
connessi
connessione
connessioni
connesso
connettore
connie
connolly
connor
connors
connotazione
cono
conobbe
conobbero
conosce
conoscendo
conoscenti
conoscenza
conoscenze
conoscere
conosceva
conoscevano
conosciamo
conosciuta
conosciute
conosciuti
conosciuto
conosco
conoscono
conquest
conquista
conquistando
conquistano
conquistare
conquistarono
conquistata
conquistate
conquistati
conquistato
conquistatore
conquiste
conquisto
conrad
cons
consacranti
consacrata
consacrato
consacrazione
consacro
consapevole
consapevolezza
consapevoli
conscio
consecutiva
consecutivamente
consecutive
consecutivi
consecutivo
consegna
consegnare
consegnata
consegnate
consegnati
consegnato
consegne
consegno
consegue
conseguendo
conseguente
conseguentemente
conseguenti
conseguenza
conseguenze
consegui
conseguimento
conseguire
conseguita
conseguiti
conseguito
consensi
consenso
consente
consentendo
consenti
consentire
consentirono
consentita
consentito
consentiva
consentivano
consentono
conserva
conservando
conservano
conservare
conservata
conservate
conservati
conservation
conservativo
conservato
conservatore
conservatori
conservatorio
conservatrice
conservava
conservazione
conservo
considera
considerando
considerano
considerare
considerarsi
considerata
considerate
considerati
considerato
considerava
consideravano
considerazione
considerazioni
considerevole
considerevoli
considerevolmente
consideri
consideriamo
considero
consigli
consiglia
consigliati
consigliato
consigliere
consiglieri
consiglio
consiste
consistente
consistenti
consistenza
consisteva
consistevano
consistono
consolare
consolato
consolazione
console
consoli
consolidamento
consolidare
consolidata
consolidato
consolido
consolle
consonante
consonanti
consorte
consorti
consorzi
consorzio
conspiracy
consta
constance
constant
constantin
constantine
constatare
construction
consueta
consueto
consuetudine
consulente
consulenti
consulenza
consulta
consultabile
consultare
consultato
consultazione
consultazioni
consultivo
consuma
consumare
consumata
consumato
consumatore
consumatori
consumi
consumo
conta
contabile
contabili
contabilita
contact
contadina
contadine
contadini
contadino
contado
contagio
container
contaminazione
contando
contano
contare
contarini
contatta
contattare
contattato
contatti
contatto
contava
contavano
conte
contea
contee
conteggio
contemplazione
contempo
contemporanea
contemporaneamente
contemporanee
contemporanei
contemporaneo
contemporary
contendente
contendenti
contenente
contenenti
contenere
conteneva
contenevano
contengono
contenimento
contenitore
contenitori
content
contenta
contenti
contento
contenuta
contenute
contenuti
contenuto
contenzioso
contesa
contese
conteso
contessa
contest
contestata
contestato
contestazione
contestazioni
contesti
contesto
contestualmente
conti
contiene
continental
continentale
continentali
continente
continenti
contingente
contingenti
contini
continua
continuamente
continuando
continuano
continuare
continuarono
continuata
continuato
continuava
continuavano
continuazione
continue
continuera
continui
continuita
continuity
continuo
continuum
conto
contorni
contorno
contra
contrabbando
contrabbasso
contract
contrada
contraddistingue
contraddistinta
contraddistinto
contraddizione
contraddizioni
contrade
contraente
contraenti
contraerea
contrafforti
contralto
contrammiraglio
contrappone
contrapposizione
contrapposte
contrapposti
contrari
contraria
contrariamente
contrarie
contrario
contrarre
contrastanti
contrastare
contrasti
contrasto
contrattacco
contratti
contratto
contrattuale
contrattuali
contrazione
contre
contribuendo
contribui
contribuire
contribuirono
contribuisce
contribuiscono
contribuito
contributi
contributo
contro
controfacciata
controffensiva
control
controlla
controllano
controllare
controllata
controllate
controllati
controllato
controllava
controllavano
controller
controlli
controllo
controllore
controparte
controriforma
controversa
controverse
controversi
controversia
controversie
controverso
convalescenza
convegni
convegno
conveniente
conventi
convention
convento
conventuale
conventuali
convenuto
convenzionale
convenzionali
convenzionalmente
convenzione
convenzioni
convergenza
conversano
conversazione
conversazioni
conversione
conversioni
converti
convertire
convertita
convertiti
convertito
convesso
conviene
convince
convincente
convincere
convincerla
convincerlo
convincono
convinse
convinsero
convinta
convinti
convinto
convinzione
convinzioni
convitto
conviventi
convivenza
convivere
convoca
convocare
convocata
convocati
convocato
convocazione
convocazioni
convoco
convogli
convoglio
conway
cook
cooke
cookie
cool
coop
cooper
cooperativa
cooperative
cooperativo
cooperazione
coordina
coordinamento
coordinare
coordinata
coordinate
coordinato
coordinatore
coordinazione
cop
copa
cope
copenaghen
coperchio
coperta
coperte
coperti
copertina
copertine
coperto
copertura
coperture
copia
copie
copione
coppa
coppe
coppi
coppia
coppie
coppola
copre
coprendo
copricapo
coprire
copriva
coproduzione
coprono
copyright
cor
cora
coraggio
coraggiosa
coraggioso
corale
corali
coralli
corallo
corano
corazza
corazzata
corazzate
corazzati
corazzato
corazzatura
corbetta
corbin
corbucci
corda
cordata
corde
cordone
cordova
core
corea
coreana
coreani
coreano
coreografia
coreografie
coreografo
corey
corfu
cori
corinthians
corinto
corinzi
corinzie
corinzio
cork
corleone
corna
cornelia
cornelio
cornelius
cornell
corner
corni
cornice
cornici
cornicione
corno
cornovaglia
coro
corolla
corolle
corologico
corona
coronamento
coronata
coronato
coronavirus
corone
corp
corpi
corpo
corporate
corporation
corporatura
corporazione
corporazioni
corporea
corporeo
corps
corpus
corrado
corre
corredo
correggere
correggio
correlata
correlate
correlati
correlato
correlazione
correndo
corrente
correnti
correre
corretta
correttamente
correttezza
corretto
correva
correzione
correzioni
corridoi
corridoio
corridore
corridori
corriere
corrispettivo
corrisponde
corrispondente
corrispondenti
corrispondenza
corrispondenze
corrispondere
corrispondeva
corrispondono
corrono
corrosione
corrotta
corrotti
corrotto
corruzione
corsa
corsari
corsaro
corse
corsi
corsia
corsica
corsie
corsini
corsivo
corso
corta
corte
corteccia
corteggiamento
corteo
cortese
cortesia
corti
cortile
cortili
cortina
corto
cortometraggi
cortometraggio
cortona
corun
corvetta
corvette
corvi
corvo
cory
cos
cosa
cosacchi
coscia
cosciente
coscienza
cose
cosenza
cosi
cosicche
cosiddetta
cosiddette
cosiddetti
cosiddetto
cosimo
cosma
cosmetici
cosmic
cosmica
cosmico
cosmo
cosmologia
cosmopolita
cosmos
cospetto
cospicua
cospicuo
cospiratori
cospirazione
cosroe
cossiga
cost
costa
costante
costantemente
costanti
costantini
costantino
costantinopoli
costanza
costanzo
costato
coste
costellazione
costellazioni
costello
costi
costiera
costiere
costieri
costiero
costituendo
costituente
costituenti
costitui
costituire
costituirono
costituisce
costituiscono
costituita
costituite
costituiti
costituito
costituiva
costituivano
costitutivo
costituzionale
costituzionali
costituzione
costituzioni
costo
costole
costoro
costosa
costose
costosi
costoso
costretta
costrette
costretti
costretto
costringe
costringendo
costringendolo
costringere
costringono
costrinse
costrinsero
costruendo
costrui
costruire
costruirono
costruisce
costruiscono
costruita
costruite
costruiti
costruito
costruttiva
costruttive
costruttore
costruttori
costruzione
costruzioni
costui
costume
costumi
costumista
cosworth
cotone
cotta
cottage
cotto
cotton
cottura
could
coulthard
council
count
countdown
country
county
coupe
cour
courage
course
court
courtney
cov
cova
cove
covent
coventry
cover
covid
covo
cow
cowboy
cowboys
cox
coyote
cp
cpu
cr
crack
cracovia
craig
crane
cranica
cranio
crash
crasso
cratere
crateri
craven
crawford
craxi
crazy
cre
crea
cream
creando
creano
creare
crearono
creata
create
creati
creation
creativa
creative
creativita
creativo
creato
creatore
creatori
creatura
creature
creazione
creazioni
crebbe
crebbero
crede
credendo
credenti
credenza
credenze
credere
credette
credeva
credevano
credi
credibile
credibilita
credit
crediti
credito
creditore
creditori
credo
credono
creduto
creed
creek
crema
cremlino
cremona
cremonese
creo
crepuscolo
cresce
crescendo
crescente
crescenti
crescere
crescita
cresciuta
cresciuti
cresciuto
crescono
crespi
cresta
creste
creta
cretaceo
cretaceous
crew
cri
cricket
crime
crimea
crimes
criminal
criminale
criminali
criminalita
crimine
crimini
crimson
crinale
cripta
crisi
crisis
crispi
cristal
cristalli
cristallino
cristallo
cristian
cristiana
cristiane
cristianesimo
cristiani
cristianita
cristiano
cristina
cristo
cristoforo
crite
criteri
criterio
criterium
critica
critical
criticata
criticato
critiche
critici
critico
critics
critique
crittografia
crivelli
cro
croata
croati
croato
croazia
croce
crocefisso
crocetta
crocevia
croci
crociata
crociate
crociati
crociato
crociera
crociere
crocifissione
crocifisso
croix
crolla
crollare
crollo
cromatica
cromo
cromosoma
cromosomi
cromosomico
cromwell
cronaca
cronache
cronica
cronista
cronisti
cronistoria
cronologia
cronologica
cronologicamente
cronologico
cronometro
cronosquadre
cronotassi
cropped
crosby
cross
crossing
crossover
crosta
crostacei
crotone
crow
crowe
crowley
crown
cruciale
crucis
crudele
crudeli
crudelta
crudo
cruise
cruscotto
cruz
cruzeiro
cry
crystal
cs
csi
cska
css
ct
ctor
cu
cuba
cubana
cubani
cubano
cube
cubi
cubo
cuccioli
cucciolo
cucina
cucinare
cucine
cugina
cugini
cugino
cui
cukor
culla
cullen
culmina
culminata
culmine
culmino
cult
culti
cultivar
culto
cultura
cultural
culturale
culturali
culturalmente
culture
cum
cumberland
cummings
cun
cuneo
cunningham
cuoco
cuoio
cuor
cuore
cuori
cup
cupa
cupido
cupo
cupola
cupole
cur
cura
curando
curare
curata
curate
curati
curato
curatore
curatori
curcio
curdi
cure
curia
curie
curiosa
curiosamente
curiosi
curiosita
curioso
curling
curo
curr
current
curriculum
curry
curse
curt
curtis
curtiz
curva
curvatura
curve
cus
cuscinetti
cuscinetto
cuspide
custer
custode
custodi
custodia
custodisce
custodita
custodite
custoditi
custodito
custom
cut
cute
cv
cx
cy
cyber
cyborg
cycle
cycling
cynthia
cyril
cyrus
cz
d
da
dachau
dacia
dad
daddy
dadi
dado
dagger
dagli
dahl
dai
daily
daimler
daimyo
daisy
dakar
dakota
dal
dalai
dale
dali
dall
dalla
dallara
dallas
dalle
dallo
dalmata
dalmazia
dals
dalton
daly
dam
dama
damasco
dame
damian
damiani
damiano
damien
damon
dan
dana
dance
dancer
dancing
dando
dandogli
dane
danese
danesi
danger
dangerous
dani
daniel
daniela
daniele
danielle
daniels
danilo
danimarca
dannati
danneggiamento
danneggiando
danneggiare
danneggiata
danneggiate
danneggiati
danneggiato
danneggio
danni
danno
danny
dans
dante
danubio
danza
danze
danzica
daphne
dapprima
dar
dara
darcy
dare
dargli
daria
dario
darius
dark
darkness
darle
darling
darmstadt
darren
darsi
dart
darwin
daryl
das
dash
dat
data
database
databile
databili
datata
datate
datati
datato
datazione
date
dati
dato
datore
datori
daughter
dauphine
dava
davano
davanti
dave
davenport
davey
david
davide
davidson
davies
davis
davos
davvero
davy
dawn
dawson
day
days
dayton
daytona
dazi
db
dc
dd
ddr
de
dea
dead
deadly
deal
dean
dear
death
debba
debbano
debbie
debbono
debiti
debito
debitore
debole
debolezza
deboli
debolmente
deborah
debra
debussy
debutantes
debutta
debuttando
debuttante
debuttare
debuttato
debutto
dec
decade
decadenza
decadimento
decano
decapitato
decapitazione
decca
deceduta
deceduti
deceduto
december
decennale
decenni
decennio
decessi
decesso
decide
decidendo
decidera
decidere
decidono
decima
decimale
decimi
decimo
decina
decine
decio
decisa
decisamente
decise
decisero
decisi
decisionale
decisione
decisioni
decisiva
decisivi
decisivo
deciso
deck
declinazione
declino
decollare
decollo
decomposizione
decorare
decorata
decorate
decorati
decorativa
decorative
decorativi
decorativo
decorato
decorazione
decorazioni
decoro
decorrere
decorso
decretare
decretato
decreti
decreto
dedalo
dedica
dedicandosi
dedicano
dedicare
dedicarono
dedicarsi
dedicata
dedicate
dedicati
dedicato
dedicazione
dedico
dedita
dedito
dedizione
deduce
dedurre
dee
deejay
deep
def
default
defence
defense
defensive
deficit
definendo
definendolo
defini
definire
definisce
definiscono
definita
definite
definiti
definitiva
definitivamente
definitive
definitivo
definito
definiva
definizione
definizioni
deformazione
defunta
defunti
defunto
degenerazione
degl
degli
degna
degne
degni
degno
degradazione
degrado
dei
del
delaware
delega
delegati
delegato
delegazione
delegazioni
delfi
delfini
delfino
delgado
delhi
delia
delibera
deliberatamente
deliberato
deliberazione
deliberazioni
delibero
delicata
delicate
delicati
delicato
delimita
delimitata
delimitato
delirio
delitti
delitto
dell
della
delle
delli
dello
delta
deludente
deludenti
delusa
delusione
deluso
deluxe
dem
demand
demanio
demarcazione
demetra
demetrio
demi
demille
demo
democracy
democratica
democratiche
democratici
democratico
democrazia
demografia
demografica
demografico
demolire
demolita
demolite
demoliti
demolito
demolizione
demon
demone
demoni
demonio
den
denari
denaro
denis
denise
dennis
denny
denominata
denominate
denominati
denominato
denominazione
denominazioni
denota
densa
densamente
densita
denso
dent
dentaria
dentatura
dente
denti
dentro
denunce
denuncia
denunciare
denunciato
denuncio
denver
deo
department
depone
deporre
deportati
deportato
deportazione
deportivo
depositati
depositato
depositi
deposito
deposizione
deposte
deposto
depressione
deputata
deputati
deputato
deputazione
der
derby
derek
deriva
derivano
derivante
derivanti
derivare
derivata
derivate
derivati
derivato
derivava
derivazione
deriverebbe
derivi
derivo
deroga
derrick
des
description
descrisse
descritta
descritte
descritti
descritto
descrive
descrivendo
descrivere
descriveva
descrivono
descrizione
descrizioni
desert
deserta
deserti
deserto
desidera
desiderano
desiderare
desiderata
desiderato
desiderava
desideri
desiderio
desideroso
design
designa
designare
designata
designated
designati
designato
designazione
designer
desinenza
desio
desire
desistere
desktop
desmond
desperate
destinare
destinata
destinatari
destinatario
destinate
destinati
destinato
destinazione
destinazioni
destini
destino
destiny
destra
destro
destruction
det
detachment
detective
deteneva
detentore
detentori
detentrice
detenuti
detenuto
detenzione
deterioramento
determina
determinando
determinano
determinante
determinanti
determinare
determinata
determinate
determinati
determinato
determinazione
determino
detiene
detriti
detroit
detta
dettagli
dettagliata
dettagliate
dettagliato
dettaglio
dettami
dettata
dettato
dette
detti
detto
deus
deutsch
deutsche
deutschen
deutscher
deutsches
deutschland
deux
dev
deva
devastante
devastanti
devastata
devastato
devastazione
devastazioni
deve
development
devi
deviare
deviato
deviazione
devil
devils
devo
devon
devono
devota
devoti
devoto
devozione
dewey
dexter
df
dg
dh
dhabi
dharma
di
dia
diabete
diablo
diabolico
diacono
diaframma
diagnosi
diagnostica
diagnosticata
diagnosticato
diagnostico
diagonale
diagramma
dialettale
dialettali
dialetti
dialettica
dialetto
dialoghi
dialogo
diamante
diamanti
diametro
diamond
diamonds
diana
diane
diano
diari
diaries
diario
diarrea
diary
diaspora
diavoli
diavolo
diaz
dibattiti
dibattito
dic
dica
dicastero
dice
dicembre
dicendo
dicendogli
dicendole
diceva
dichiara
dichiarando
dichiarano
dichiarare
dichiararono
dichiarata
dichiarate
dichiarati
dichiarato
dichiarava
dichiarazione
dichiarazioni
dichiaro
diciannove
diciannovesimo
diciassette
diciassettenne
diciassettesima
diciassettesimo
diciottenne
diciottesimo
diciotto
dicitura
dick
dickens
dickinson
dico
dicono
dictionary
dictionnaire
did
didattica
didattiche
didattici
didattico
didier
die
dieci
diecimila
diede
diedero
diego
dies
diesel
dieta
dieter
dietrich
dietro
dieu
difatti
difende
difendendo
difendere
difendersi
difensiva
difensive
difensivi
difensivo
difensore
difensori
difesa
difese
difeso
difetti
difetto
diffamazione
different
differente
differenti
differenza
differenze
differenzia
differenziale
differenziali
differenziano
differenziazione
differisce
differiscono
difficile
difficili
difficilmente
difficolta
diffidenza
diffonde
diffondendo
diffondere
diffondersi
diffusa
diffuse
diffusero
diffusi
diffusione
diffuso
dig
diga
dighe
digimon
digione
digital
digitale
digitali
digiuno
dignita
dil
dilatazione
dilemma
dilettante
dilettanti
dilettantistica
dilettantistico
diletto
diligenza
dillon
diluvio
dimension
dimensionale
dimensione
dimensioni
dimentica
dimenticare
dimenticata
dimenticato
dimesso
dimessosi
dimette
dimettersi
diminuendo
diminui
diminuire
diminuisce
diminuita
diminuito
diminutivo
diminuzione
dimise
dimissionario
dimissioni
dimitri
dimmi
dimora
dimore
dimorfismo
dimostra
dimostrando
dimostrano
dimostrare
dimostrarono
dimostrata
dimostrato
dimostrazione
dimostrazioni
dimostro
din
dina
dinamica
dinamiche
dinamici
dinamico
dinamite
dinamo
dinanzi
dinastia
dinastica
dinastie
dini
dinner
dino
dinosaur
dinosauri
dinosauro
dintorni
dio
diocesana
diocesano
diocesi
diocleziano
diodoro
dioecesis
diogene
diomede
dion
dione
dionigi
dionisio
dioniso
dios
dip
dipartimentali
dipartimenti
dipartimento
dipende
dipendente
dipendenti
dipendenza
dipendenze
dipendere
dipendeva
dipendevano
dipendono
dipinge
dipingere
dipinse
dipinta
dipinte
dipinti
dipinto
diploma
diplomata
diplomatica
diplomatiche
diplomatici
diplomatico
diplomato
diplomazia
diplomi
diplomo
dir
dira
diramazione
dire
direct
direction
director
directory
diresse
diressero
diretta
direttamente
dirette
diretti
direttiva
direttive
direttivo
diretto
direttore
direttori
direttorio
direttrice
direttrici
direzionale
direzione
direzioni
dirgli
dirige
dirigendo
dirigendosi
dirigente
dirigenti
dirigenza
dirigenziale
dirigere
dirigersi
dirigeva
dirigibile
dirigono
diritti
diritto
dirk
dirlo
diro
dirsi
dirty
dis
disabili
disabilita
disabitata
disabitate
disaccordo
disagio
disambigua
disappunto
disarmo
disaster
disastri
disastro
disastrosa
disastroso
disc
discapito
discarica
discende
discendente
discendenti
discendenza
discepoli
discepolo
discesa
discese
dischi
disciolto
disciplina
disciplinare
disciplinari
discipline
disco
discografia
discografica
discografiche
discografico
discogs
discontinuita
discordia
discorsi
discorso
discosta
discoteca
discovery
discreta
discreto
discrezione
discriminazione
discriminazioni
discussa
discusse
discussione
discussioni
discusso
discute
discutendo
discutere
discutono
disease
disegna
disegnare
disegnata
disegnate
disegnati
disegnato
disegnatore
disegni
disegno
disfatta
disgrazia
disk
dislivello
dislocamento
dislocate
dislocati
dismessa
dismesso
dismissione
disney
disneyland
disoccupazione
disordine
disordini
dispari
dispensa
disperata
disperatamente
disperato
disperazione
dispersa
disperse
dispersi
dispersione
disperso
dispetto
dispiacere
display
dispone
disponendo
disponeva
disponevano
dispongono
disponibile
disponibili
disponibilita
disporre
dispose
dispositivi
dispositivo
disposizione
disposizioni
disposta
disposte
disposti
disposto
disprezzo
disputa
disputando
disputano
disputare
disputarono
disputata
disputate
disputati
disputato
dispute
disputo
disse
disseminazione
dissenso
dissero
dissi
dissidenti
dissidi
dissoluzione
dista
distaccamento
distaccata
distaccato
distacco
distale
distance
distante
distanti
distanza
distanze
distesa
distese
distillazione
distingue
distinguendosi
distinguere
distinguersi
distingueva
distinguono
distinse
distinta
distinte
distinti
distintivi
distintivo
distinto
distinzione
distorsione
distrazione
distretti
distretto
distrettuale
distribui
distribuire
distribuisce
distribuita
distribuite
distribuiti
distribuito
distribution
distributore
distributori
distribuzione
distribuzioni
district
distrugge
distruggendo
distruggere
distrusse
distrussero
distrutta
distrutte
distrutti
distrutto
distruzione
distruzioni
disturbi
disturbo
disuguaglianza
disuso
dit
dita
dite
dition
ditions
dito
ditta
dittatore
dittatura
ditte
diurne
diva
divano
divario
divas
dive
divenendo
divenendone
divengono
divenire
divenne
divennero
diventa
diventando
diventandone
diventano
diventare
diventarono
diventasse
diventata
diventate
diventati
diventato
diventava
diventera
diventeranno
diventi
divento
divenuta
divenute
divenuti
divenuto
divergenti
divergenza
divergenze
diverra
diversa
diversamente
diverse
diversi
diversita
diverso
diverte
divertente
divertenti
divertimenti
divertimento
divertirsi
divi
divide
dividendo
dividere
divideva
dividono
diviene
divieti
divieto
divina
divine
divini
divinita
divino
divisa
divise
divisero
divisi
divisio
division
divisione
divisioni
divisjon
diviso
divisori
divo
divorziato
divorzio
divulgazione
dixie
dixon
dizionari
dizionario
dizione
dj
django
djvu
dl
dla
dlc
dm
dmitrij
dna
dnepr
do
dobbiamo
doc
doccia
docente
docenti
docenza
docg
doctor
doctors
documenta
documentari
documentario
documentary
documentata
documentate
documentati
documentato
documentazione
documenti
documento
documents
dodge
dodicesima
dodicesimo
dodici
doe
does
dog
dogana
doganale
doganali
doge
dogg
dogma
dogs
doha
doi
dolce
dolcemente
dolcezza
dolci
doll
dollar
dollari
dollaro
dolls
dolly
dolo
dolomiti
dolore
dolores
dolori
dolorosa
doloroso
dolph
dolphins
dom
domanda
domande
domando
domani
dome
domenica
domenicale
domenicani
domenicano
domenico
domestica
domestiche
domestici
domestico
domiciliari
domicilio
domina
dominano
dominante
dominanti
dominare
dominata
dominato
dominava
dominazione
domingo
domini
dominic
dominicana
dominici
dominik
dominio
dominique
domino
dominus
domiziano
domodossola
domus
don
dona
donald
donaldson
donare
donata
donate
donatella
donatello
donati
donato
donatore
donatori
donazione
donazioni
donde
done
donec
dong
doni
donizetti
donna
donne
donnell
donner
dono
donovan
donzelli
doo
doom
door
doors
dop
doping
dopo
dopodiche
dopoguerra
doppi
doppia
doppiaggio
doppiata
doppiati
doppiato
doppiatore
doppiatori
doppiatrice
doppiatrici
doppie
doppietta
doppio
dor
dora
dorado
dorata
dorate
dorati
dorato
doria
dorian
dorico
doris
dorme
dormire
dormitorio
dorotea
dorothy
dorsale
dorsali
dorset
dorso
dortmund
dos
dosaggio
dose
dosi
dossier
dosso
dot
dotare
dotata
dotate
dotati
dotato
dotazione
dote
doti
dots
dott
dotti
dotto
dottor
dottorato
dottore
dottoressa
dottori
dottrina
dottrine
douard
double
doug
douglas
dov
dove
dovendo
dover
dovere
doveri
doversi
dovesse
dovessero
dovette
dovettero
doveva
dovevano
dovra
dovranno
dovrebbe
dovrebbero
dovuta
dovute
dovuti
dovuto
down
downhill
download
downtown
doyle
dozzina
dozzine
dp
dq
dr
dra
dracula
draft
drag
draghi
drago
dragon
dragone
dragoni
dragons
drake
drama
dramatic
dramma
drammatica
drammatiche
drammatici
drammatico
drammaturgia
drammaturgo
drammi
drappo
drasticamente
draw
dre
dream
dreams
drei
drenaggio
dresda
dresden
dress
dretg
drew
dreyfus
drink
dritta
dritto
drive
driver
dro
droga
droghe
drone
drop
drug
druga
drum
drummond
drums
druso
dry
ds
dt
dtirol
du
dual
duale
dualismo
duarte
dub
dubai
dubbi
dubbia
dubbio
dubitare
dublin
dublino
dubois
duc
duca
ducale
ducati
ducato
duccio
duce
duchessa
duchi
duck
dudley
due
duecento
duel
duelli
duello
duemila
duetti
duetto
duff
duffy
duilio
duisburg
duke
dumas
dumont
duncan
dundee
dune
dungeon
dungeons
dunkerque
dunn
dunne
dunque
duo
duomo
duplice
dupont
dura
duramente
duran
durand
durano
durante
durare
durarono
durata
durato
duratura
durava
durazzo
dure
durera
durezza
durham
duri
during
durium
duro
dus
dust
dustin
dusty
dutch
duty
dux
dvd
dwan
dwight
dx
dy
dying
dyke
dylan
dynamic
dynamics
dynamite
dynasty
dz
e
ea
eagle
eagles
earl
early
earp
earth
east
eastern
eastwood
easy
eat
eaton
eau
eb
ebbe
ebbero
eberhard
ebert
ebraica
ebraiche
ebraici
ebraico
ebraismo
ebrea
ebrei
ebreo
ec
ecc
ecce
eccellente
eccellenti
eccellenza
eccentricita
eccentrico
eccessi
eccessiva
eccessivamente
eccessivo
eccesso
eccetera
eccetto
eccezion
eccezionale
eccezionali
eccezionalmente
eccezione
eccezioni
eccidio
eccitazione
eccle
ecclesia
ecclesiae
ecclesiastica
ecclesiastiche
ecclesiastici
ecclesiastico
ecco
echo
echov
eclettico
eclipse
eclissi
eclittica
eco
ecologia
ecologica
ecologico
economia
economic
economica
economicamente
economiche
economici
economico
economics
economie
economista
economisti
economy
ecoregione
ecosistema
ecosistemi
ecuador
ecumenico
ecw
ed
edda
eddie
eddy
edema
eden
edessa
edgar
edge
edicola
edicole
edificare
edificata
edificate
edificato
edificazione
edifici
edificio
edile
edilizia
edilizio
edimburgo
edinburgh
edipo
edison
edit
edita
edite
edited
edith
editi
editing
edition
editions
edito
editor
editore
editori
editoria
editorial
editoriale
editoriali
editrice
editrici
editto
ediz
edizione
edizioni
edmond
edmondo
edmonton
edmund
edna
edo
edoardo
eds
edu
eduard
eduardo
educare
education
educativa
educative
educativi
educativo
educato
educatore
educazione
edward
edwards
edwin
ee
ef
efeso
effect
effects
effetti
effettiva
effettivamente
effettivi
effettivo
effetto
effettua
effettuando
effettuano
effettuare
effettuarono
effettuata
effettuate
effettuati
effettuato
effettuo
efficace
efficacemente
efficaci
efficacia
efficiente
efficienti
efficienza
effigie
egemonia
egeo
egg
egida
egidio
egitto
egizi
egizia
egiziana
egiziane
egiziani
egiziano
egizio
egli
ego
egoista
eguale
eguali
egualmente
egypt
egyptian
eh
ei
eiffel
eight
eileen
ein
einaudi
eindhoven
eine
einer
eines
einstein
eintracht
eisenhower
ek
ekaterina
el
elabora
elaborare
elaborata
elaborate
elaborati
elaborato
elaborazione
elaboro
elaine
elasticita
elastico
elba
elder
ele
eleanor
electa
electric
electro
electronic
electronics
elefante
elefanti
elegante
eleganti
eleganza
elegge
eleggere
elegia
elektra
elementare
elementari
elementary
elementi
elemento
elena
elenca
elencate
elencati
elenchi
elenco
eleonora
elephant
elesse
eletta
eletti
eletto
elettorale
elettorali
elettorato
elettore
elettori
elettra
elettrica
elettriche
elettrici
elettricita
elettrico
elettrificata
elettrificazione
elettrodi
elettrodomestici
elettromagnetica
elettromagnetico
elettrone
elettroni
elettronica
elettroniche
elettronici
elettronico
eleva
elevata
elevate
elevati
elevato
elevazione
eleven
elevo
elezione
elezioni
elfi
elfo
elgar
eli
elia
elias
elica
eliche
elicotteri
elicottero
elijah
elimina
eliminando
eliminare
eliminata
eliminate
eliminati
elimination
eliminato
eliminatori
eliminatorie
eliminatorio
eliminazione
elimino
elio
eliot
elisa
elisabeth
elisabetta
elise
eliseo
elisir
elite
eliteserien
eliza
elizabeth
ell
ella
elle
ellen
ellenica
ellenistica
ellenistico
elli
ellie
ellington
elliot
elliott
ellis
ellittica
elmer
elmo
elo
elogi
elogiato
elogio
eloquenza
els
elsa
else
elst
elton
elvetica
elvira
elvis
em
email
emanare
emanata
emanate
emanato
emanazione
emancipazione
emano
emanuel
emanuela
emanuele
emblema
embrione
emendamenti
emendamento
emerald
emerge
emergency
emergente
emergenti
emergenza
emergenze
emergere
emergono
emerito
emersa
emerse
emersero
emersi
emerso
emerson
emessa
emesse
emessi
emesso
emette
emettere
emettono
emi
emicriptofita
emigranti
emigrare
emigrati
emigrato
emigrazione
emigro
emil
emile
emilia
emiliana
emiliani
emiliano
emilio
emily
eminem
eminenti
emirati
emirato
emiro
emise
emisferi
emisfero
emissario
emissione
emissioni
emittente
emittenti
emma
emmanuel
emmett
emmy
emo
emorragia
emotiva
emotivo
emozione
emozioni
emperor
empire
empoli
en
ena
enciclica
enciclopedia
enciclopedico
enclave
encore
encyclopaedia
encyclopedia
end
endemica
endemiche
endemico
endless
endurance
enea
eneide
enel
enemy
energetica
energetiche
energetici
energetico
energia
energico
energie
energy
enfant
enfants
enfasi
engel
engels
engine
engineer
engineering
england
english
eni
enigma
enigmi
enko
enna
enne
ennesima
ennesimo
ennio
eno
enorme
enormemente
enormi
enough
enrica
enrichetta
enrico
enrique
ensemble
ent
ente
entella
enter
enterprise
entertainment
enti
entita
entourage
entra
entrambe
entrambi
entrando
entrano
entrare
entrarono
entrata
entrate
entrati
entrato
entrava
entre
entrera
entro
entropia
entroterra
entry
entusiasmo
entusiasta
enunciato
environment
environmental
enza
enzima
enzimi
enzo
eo
eocene
ep
eparchia
epatica
epatite
epic
epica
epicentro
epico
epidemia
epidemie
epidemiologia
epifania
epigrafe
epilessia
epilogo
epiro
episcopale
episcopali
episcopato
episcoporum
episode
episodi
episodio
epistola
epistolare
epistolario
epitaffio
epiteto
epoca
epoche
eponimo
epopea
eppure
epsilon
epstein
equatore
equatoriale
equazione
equazioni
equestre
equilibrato
equilibri
equilibrio
equipaggi
equipaggiamenti
equipaggiamento
equipaggiare
equipaggiata
equipaggiate
equipaggiati
equipaggiato
equipaggio
equitazione
equivale
equivalente
equivalenti
equivalenza
equivoco
equo
er
era
eracle
eraclio
eran
erano
erasmo
eravamo
erba
erbacea
erbacee
erbe
erbivori
ercolano
ercole
ere
erede
eredi
eredita
ereditaria
ereditario
ereditata
ereditato
eredito
eredivisie
eremita
eremo
eresia
eresse
eretici
eretico
eretta
erette
eretti
eretto
erezione
erfurt
ergastolo
erge
eri
eric
erica
erich
erickson
ericsson
erigere
erik
erika
erin
eritrea
erma
ermafroditi
ermanno
ermes
erminio
ernest
ernesto
ernie
ernst
ero
erode
erodoto
eroe
erogare
erogava
erogazione
eroi
eroica
eroico
eroina
eroismo
eros
erosione
erotica
erotici
erotico
errante
errata
errato
errico
erroneamente
errore
errori
ers
erudito
erudizione
eruzione
eruzioni
erwin
erzegovina
es
esa
esagonale
esaltazione
esame
esami
esamina
esaminare
esaminati
esaminato
esarcato
esatta
esattamente
esattezza
esatto
esaurimento
esaurito
esca
escape
esce
esclamo
esclude
escludendo
escludere
esclusa
escluse
esclusi
esclusione
esclusiva
esclusivamente
esclusivi
esclusivo
escluso
escobar
escono
escort
escursione
escursioni
esecutiva
esecutivi
esecutivo
esecutore
esecutori
esecuzione
esecuzioni
esegesi
esegue
eseguendo
esegui
eseguire
eseguita
eseguite
eseguiti
eseguito
eseguono
esempi
esempio
esemplare
esemplari
esenzione
esequie
esercita
esercitano
esercitare
esercitata
esercitato
esercitava
esercitazione
esercitazioni
eserciti
esercito
esercizi
esercizio
esibendosi
esibi
esibirsi
esibisce
esibiscono
esibita
esibiti
esibito
esibizione
esibizioni
esigenza
esigenze
esiliati
esiliato
esilio
esista
esistano
esiste
esistente
esistenti
esistenza
esistenziale
esistere
esistesse
esisteva
esistevano
esistita
esistito
esistono
esita
esiti
esito
esodo
esonerato
esonero
esordendo
esordi
esordiente
esordienti
esordio
esordire
esordisce
esordito
esorta
esp
espan
espande
espandere
espandersi
espanse
espansione
espansioni
espanso
espe
espediente
espellere
esperanto
esperienza
esperienze
esperimenti
esperimento
esperta
esperti
esperto
espinosa
esplicative
esplicita
esplicitamente
esplicito
esplode
esplodere
esplora
esplorare
esploratore
esploratori
esplorazione
esplorazioni
esplose
esplosione
esplosioni
esplosiva
esplosivi
esplosivo
espn
espone
esponente
esponenti
esponenziale
esporre
esportazione
esportazioni
espose
espositivo
esposito
esposizione
esposizioni
esposta
esposte
esposti
esposto
espressa
espressamente
espresse
espressi
espressione
espressioni
espressiva
espressivo
espresso
esprime
esprimendo
esprimere
esprimersi
esprimeva
esprimono
espulsi
espulsione
espulso
essa
essai
essanay
essays
esse
essen
essendo
essendosi
essential
essenza
essenziale
essenziali
essenzialmente
esser
esserci
essere
esseri
esserne
essersi
esservi
essex
essi
esso
est
esta
estasi
estate
estati
este
esteban
estende
estendere
estendersi
estendeva
estendono
estense
estensi
estensione
estensioni
ester
estera
estere
esteri
esteriore
esterna
esternamente
esterne
esterni
esterno
estero
estesa
estese
estesi
esteso
estetica
esteticamente
estetiche
estetici
estetico
esther
estinse
estinta
estinti
estinto
estinzione
estiva
estive
estivi
estivo
estone
estoni
estonia
estorsione
estradizione
estrae
estranea
estranei
estraneo
estrarre
estratta
estratti
estratto
estrazione
estrema
estremamente
estreme
estremi
estremita
estremo
estromesso
estuario
estudiantes
esule
esuli
et
eta
etc
etere
eterna
eternal
eternita
eterno
ethan
ethel
ethniki
etica
etichetta
etichette
etico
etienne
etimologia
etiope
etiopi
etiopia
etna
etnia
etnica
etniche
etnici
etnico
etnie
etnografico
etruria
etrusca
etruschi
etrusco
ettari
ettore
eu
eubel
eucaristia
eucaristica
eufemia
eufrate
euge
eugen
eugene
eugenia
eugenio
eulero
eun
euphorbia
eur
eure
eureka
euridice
euripide
euro
eurocup
eurolega
europa
europarlamentari
europe
europea
european
europee
europei
europeo
eurovision
eusebio
eustachio
eutanasia
ev
eva
evacuare
evacuazione
evadere
evan
evangelica
evangelico
evangelion
evangelista
evangelisti
evangelizzazione
evans
evaporazione
evasione
eve
evelyn
even
evening
event
eventi
evento
events
eventuale
eventuali
eventualita
eventualmente
ever
everest
everett
everton
every
everybody
everything
evgenij
evic
evidence
evidente
evidentemente
evidenti
evidenza
evidenze
evidenzia
evidenziando
evidenziano
evidenziare
evidenziato
evil
evince
evita
evitando
evitare
evitato
evito
evo
evoca
evocare
evoluta
evoluti
evolution
evolutiva
evolutivo
evoluto
evoluzione
evoluzioni
evolve
evolversi
ewing
ex
excelsior
exchange
executive
exercise
exeter
exhibition
exit
expected
expedition
experience
experiment
explorer
expo
export
express
extended
extra
extraterrestri
extreme
eye
eyed
eyes
eyre
ez
ezio
eziologia
ezra
f
fa
faa
fabbisogno
fabbri
fabbrica
fabbricare
fabbricati
fabbricato
fabbricazione
fabbriche
fabbro
faber
fabian
fabiano
fabio
fabri
fabriano
fabrizio
facce
faccenda
faccende
facchinetti
faccia
facciale
facciamo
facciano
facciata
facciate
faccio
face
facebook
facendo
facendogli
facendola
facendole
facendoli
facendolo
facendone
facendosi
facente
facenti
faces
facesse
facessero
faceva
facevano
facile
facili
facilita
facilitare
facilmente
facolta
facto
factor
factory
faenza
faggio
fagioli
faglia
fagotto
fai
faida
fair
fairfax
fairy
faith
falange
falce
falchi
falco
falcon
falcone
falcons
falda
falde
falegname
falkland
fall
falla
fallen
fallendo
falli
fallimentare
fallimenti
fallimento
falling
fallire
fallirono
fallisce
fallita
falliti
fallito
fallo
fallon
falls
falo
falsa
false
falsi
falsita
falso
fama
fame
famiglia
famigliare
famigliari
famiglie
familia
familiare
familiari
familiarita
family
famosa
famose
famosi
famoso
famous
fan
fanali
fanciulla
fanciulle
fanciulli
fanciullo
fanfani
fang
fango
fanno
fanny
fano
fans
fantascientifico
fantascienza
fantasia
fantasie
fantasma
fantasmi
fantastic
fantastica
fantastici
fantastico
fantasy
fante
fanteria
fanti
fantino
fantoccio
fantozzi
fanucci
far
fara
farah
faranno
faraone
faraoni
fare
farebbe
farewell
farfalla
farfalle
fargli
fargo
fari
farina
farla
farle
farli
farlo
farm
farmaceutica
farmaci
farmacia
farmacista
farmaco
farmer
farne
farnese
faro
farrell
farsa
farsi
fasano
fasc
fasce
fasci
fascia
fascicoli
fascicolo
fascino
fascio
fascismo
fascista
fasciste
fascisti
fase
fashion
fasi
faso
fassa
fast
fasti
fastidio
fat
fata
fatal
fatale
fate
father
fatica
fatiche
fatima
fato
fatta
fatte
fattezze
fatti
fattispecie
fatto
fattore
fattori
fattoria
fattorie
fattura
fatturato
fauci
fauna
faust
faustino
fausto
fautore
fautori
fava
favola
favole
favore
favorendo
favorevole
favorevoli
favorevolmente
favori
favorire
favorisce
favorita
favorite
favoriti
favorito
fax
fay
faye
fayette
fazio
fazione
fazioni
fbi
fc
fe
fear
feat
feature
features
featuring
feb
febbraio
febbre
february
fece
fecero
feci
fecondazione
fed
fede
fedele
fedeli
fedelmente
fedelta
federal
federale
federali
federati
federation
federato
federazione
federazioni
federcalcio
federconsorzi
federer
federica
federici
federico
federigo
fedit
feedback
feel
feeling
feet
fegato
fei
feldmaresciallo
felice
felicemente
felici
felicia
feliciano
felicita
felicity
felipe
felix
fell
fellini
fellow
fellowship
feltre
feltrinelli
female
femme
femmes
femmina
femmine
femminile
femminili
femminismo
femminista
femministe
femore
fender
fenerbahc
feng
fenice
fenici
fenicia
fenomeni
fenomeno
fer
ferdinand
ferdinando
ferenc
ferguson
ferire
ferisce
ferita
ferite
feriti
ferito
feritoie
ferma
fermamente
fermandosi
fermano
fermare
fermarlo
fermarono
fermarsi
fermata
fermate
fermati
fermato
ferme
fermentazione
fermezza
fermi
fermo
ferna
fernand
fernanda
fernandez
fernando
feroce
feroci
ferrante
ferrara
ferrarese
ferrari
ferrario
ferraris
ferraro
ferrata
ferrate
ferreira
ferrer
ferreri
ferrero
ferretti
ferri
ferro
ferrovia
ferroviari
ferroviaria
ferroviarie
ferroviario
ferrovie
ferruccio
ferry
fertile
fertili
fertilita
fervente
fervore
fessura
fessure
fest
festa
feste
festeggia
festeggiamenti
festeggiare
festeggiato
festival
festivalbar
festivita
feto
fetta
feud
feudale
feudali
feudatari
feudatario
feudi
feudo
feuillade
fever
feyenoord
ff
fi
fia
fiaba
fiabe
fiamma
fiamme
fiamminga
fiamminghi
fiammingo
fiancata
fianchi
fianco
fiandra
fiandre
fiat
fiati
fiato
fiba
fibra
fibre
fichi
fico
fiction
fida
fidal
fidanzamento
fidanzata
fidanzati
fidanzato
fidarsi
fidato
fide
fidel
fido
fiducia
field
fields
fiemme
fieno
fiera
fiere
fiero
fieschi
fiesole
fiesta
fifa
fifth
fig
figaro
figc
fight
fighter
fighters
fighting
figi
figli
figlia
figlie
figlio
figliuoli
figliuolo
figura
figurano
figurativa
figurative
figure
fil
fila
filadelfia
filamenti
filamento
filarmonica
file
files
fili
filiale
filiali
filiberto
filip
filippi
filippina
filippine
filippini
filippino
filippo
fille
film
filmati
filmato
filmografia
films
filo
filobus
filogenesi
filogenetica
filogenetico
filologia
filologo
filone
filosofi
filosofia
filosofica
filosofiche
filosofici
filosofico
filosofo
fils
filtri
filtro
fimi
fin
fina
final
finale
finali
finalissima
finalista
finaliste
finalisti
finalita
finalizzata
finalizzato
finalmente
finals
financial
finanza
finanze
finanziamenti
finanziamento
finanziare
finanziari
finanziaria
finanziariamente
finanziarie
finanziario
finanziata
finanziati
finanziato
finanzio
finch
finche
find
fine
finemente
finendo
finestra
finestre
finge
fingendo
fingendosi
fingere
fini
fininvest
finira
finire
finirono
finisce
finiscono
finita
finite
finiti
finito
fink
finlandese
finlandesi
finlandia
finn
fino
finora
finta
finte
finto
finzione
fiocco
fiona
fior
fiorale
fiordo
fiore
fiorella
fiorello
fiorente
fiorentina
fiorentine
fiorentini
fiorentino
fiorenza
fiorenzo
fioretto
fiori
fiorini
fioritura
fire
firefox
firenze
firma
firmando
firmano
firmare
firmarono
firmata
firmatari
firmati
firmato
firme
firmo
first
fis
fisarmonica
fiscale
fiscali
fischer
fischio
fish
fisher
fisica
fisicamente
fisiche
fisici
fisico
fisiologia
fisionomia
fisioterapista
fissa
fissando
fissare
fissata
fissate
fissati
fissato
fissazione
fisse
fissi
fisso
fist
fit
fitness
fitta
fitte
fittipaldi
fittizia
fittizio
fitto
fitz
fitzgerald
fiume
fiumi
fiumicino
five
fk
fl
flacco
flag
flagello
flaiano
flair
flame
flamengo
flames
flaminia
flaminio
flash
flashback
flat
flauti
flauto
flavia
flavio
fleet
fleischer
fleming
flesh
flessibile
flessibili
flessibilita
flessione
fletcher
flight
flint
flip
flo
flood
floor
flop
floppy
flor
flora
floreali
florence
flores
florian
floriano
florida
florio
flotta
flotte
flottiglia
flow
flower
flowers
floyd
flu
fluidi
fluido
fluisce
fluminense
flussi
flusso
fluviale
fluviali
fly
flying
flynn
fm
fn
fo
foca
focale
foce
focus
foggia
fogli
foglia
foglie
foglio
foix
fokker
folclore
folco
foley
folgore
foligno
folio
folk
folklore
folla
folle
folli
follia
follow
folta
folto
fonda
fondale
fondali
fondamenta
fondamentale
fondamentali
fondamentalmente
fondamenti
fondamento
fondando
fondano
fondare
fondarono
fondata
fondate
fondati
fondato
fondatore
fondatori
fondatrice
fondazione
fondazioni
fonde
fondere
fonderia
fondersi
fondi
fondo
fondono
fondovalle
fonetica
fonit
fonseca
font
fontaine
fontainebleau
fontana
fontane
fonte
fonti
fontsize
food
fool
foot
football
for
fora
forall
forbes
forbidden
force
forcella
forces
forcetoc
ford
foreign
foreman
forense
forest
foresta
forestale
forestali
foreste
forever
forfait
forget
forgotten
fori
forli
form
forma
formaggi
formaggio
formale
formali
formalmente
formando
formano
formare
formarono
formarsi
format
formata
formate
formati
formation
formativo
formato
formatosi
formava
formavano
formazione
formazioni
forme
formica
formiche
formidabile
formo
formosa
formula
formulare
formulata
formulazione
formule
fornace
fornaci
fornaciari
fornendo
forni
fornire
fornirono
fornisce
forniscono
fornita
fornite
forniti
fornito
fornitore
fornitori
fornitura
forniture
forniva
fornivano
forno
foro
forrest
forse
forster
fort
forte
fortemente
fortezza
fortezze
forti
fortificata
fortificate
fortificato
fortificazione
fortificazioni
fortino
fortissimo
fortitudo
fortuna
fortunata
fortunatamente
fortunato
fortune
forum
forward
forza
forzare
forzata
forzati
forzato
forze
foscari
foscolo
fosdinovo
fosfato
fosforo
fossa
fossati
fossato
fosse
fossero
fossi
fossile
fossili
fosso
foster
foto
fotocamera
fotocamere
fotografa
fotografato
fotografi
fotografia
fotografica
fotografiche
fotografici
fotografico
fotografie
fotografo
fotogrammi
fotoni
found
foundation
four
fourier
fourth
fowler
fox
fr
fra
frac
fragile
fragili
fragilita
frame
framework
frammentazione
frammenti
frammento
fran
frana
franc
franca
francavilla
france
frances
francesca
francescana
francescane
francescani
francescano
franceschini
francesco
francese
francesi
franchi
franchigia
franchigie
franchise
francia
francis
francisco
franck
franco
francobolli
francobollo
francoforte
franconia
frangente
frank
frankenstein
frankfurt
frankie
franklin
frans
franz
frascati
frase
fraser
frasi
frate
fratellanza
fratellastro
fratelli
fratello
fraternita
frati
frattanto
frattempo
frattura
fratture
frau
frauen
frazione
frazioni
fre
freak
frecce
freccia
fred
fredda
fredde
freddi
freddie
freddo
freddy
frederic
frederick
frederik
free
freedom
freeman
freestyle
fregata
fregate
fregi
fregiarsi
fregio
frenante
frenare
frenata
french
freni
freno
frequenta
frequentando
frequentano
frequentare
frequentata
frequentato
frequentava
frequentazione
frequente
frequentemente
frequenti
frequento
frequenza
frequenze
fresca
fresche
freschi
fresco
fresh
fretta
freud
frey
friburgo
friday
friedman
friedrich
friend
friends
frisia
fritto
fritz
friulana
friulano
friuli
frizione
frizzante
frode
from
front
frontale
frontali
frontalmente
fronte
fronteggiare
frontespizio
fronti
frontier
frontiera
frontiere
frontman
frontone
frosinone
frost
frozen
fru
fruizione
frumento
frusta
frustrazione
frutta
frutti
frutto
fry
fs
ft
fu
fucilati
fucilato
fucilazione
fucile
fucili
fucilieri
fuck
fuerza
fuga
fugge
fuggendo
fuggi
fuggire
fuggirono
fuggita
fuggiti
fuggitivi
fuggito
fuggono
fui
fuji
fujiwara
fukuoka
fulci
fulcro
fulda
fulham
full
fuller
fulmine
fulmini
fulton
fulvio
fumare
fumble
fumetti
fumettista
fumetto
fumi
fumo
fun
function
fund
fune
funebre
funebri
funeral
funerale
funerali
funerari
funeraria
funerario
funge
fungere
fungeva
funghi
fungo
fungono
funicolare
funivia
funk
funky
funny
funziona
funzionale
funzionali
funzionalita
funzionamento
funzionano
funzionante
funzionanti
funzionare
funzionari
funzionario
funzione
funzioni
fuochi
fuoco
fuor
fuori
fuoricampo
fuorilegge
fuoristrada
fuoriuscita
fur
furgone
furia
furie
furio
furiosa
furioso
furious
furono
furore
furti
furto
fury
fusa
fusco
fuse
fusi
fusion
fusione
fuso
fusoliera
fusse
fusti
fusto
futbol
futsal
futura
future
futures
futuri
futurismo
futurista
futuro
fußball
fw
fx
fær
g
ga
gabbia
gabbiano
gabe
gaber
gabinetto
gabon
gabriel
gabriela
gabriele
gabriella
gabrielle
gabrielli
gadget
gae
gaelico
gaeta
gaetano
gag
gaga
gage
gagliardi
gaia
gail
gaio
gal
gala
galactica
galante
galassia
galassie
galatasaray
galatina
galattica
galattico
galaxy
gale
galeazzo
galee
galera
galerie
galilea
galilei
galileo
galizia
galla
gallagher
gallarate
galleggiante
galleggianti
galleria
gallerie
gallery
galles
gallese
gallesi
galletti
galli
gallia
gallica
gallico
gallimard
gallina
gallipoli
gallo
gallone
gallows
gallura
gama
gamba
gambe
gambo
game
gameplay
games
gamma
gams
gan
gancio
gand
gandhi
gandolfo
gang
gangster
gao
gap
gara
garage
garante
garantendo
garanti
garantire
garantisce
garantiscono
garantita
garantiti
garantito
garantiva
garanzia
garanzie
garci
garcia
garda
garde
garden
gardena
gardens
gardiner
gardner
gare
gareggia
gareggiando
gareggiare
gareggiato
gareggio
gareth
garfagnana
garfield
gargano
garibaldi
garibaldini
garland
garmisch
garnett
garnier
garonna
garrett
garrison
garrone
garros
garry
garth
gary
garzanti
gas
gasly
gasolio
gaspar
gaspare
gasperi
gassman
gaston
gastone
gastronomia
gate
gates
gatta
gatti
gatto
gaudenzio
gaulle
gavin
gay
gaza
gazette
gazzetta
gb
gcatholic
ge
gear
gehrels
gel
gela
gelato
gelo
gelosa
gelosia
geloso
gemella
gemellaggi
gemellaggio
gemellata
gemelle
gemelli
gemello
gemini
gemma
gemme
gen
gendarmeria
gender
gene
genealogia
genealogico
genealogy
genera
general
generale
generali
generalita
generalmente
generando
generano
generare
generata
generate
generati
generation
generato
generatore
generatori
generazione
generazioni
genere
generi
generica
genericamente
generico
genero
generosa
generosita
generoso
genesi
genesis
genetica
geneticamente
genetiche
genetici
genetico
geni
geniale
genio
genitale
genitali
genitivo
genitore
genitori
genius
gennaio
gennaro
genoa
genocidio
genoma
genova
genovese
genovesi
gens
gent
gente
genti
gentile
gentilezza
gentili
gentilizia
gentiluomo
gentleman
genus
genzano
geo
geoff
geoffrey
geografia
geografica
geograficamente
geografiche
geografici
geografico
geografo
geographic
geologia
geologica
geological
geologiche
geologici
geologico
geologo
geometria
geometrica
geometriche
geometrici
geometrico
geonet
georg
george
georges
georgia
georgiana
georgiano
geova
ger
gerais
gerald
gerarchia
gerarchica
gerarchie
gerard
gerardo
gerd
geremia
gergo
gerhard
germain
german
germani
germania
germaniae
germanica
germaniche
germanici
germanico
germano
germany
germi
germogli
gerolamo
geronimo
gerry
gershwin
gertrude
gerusalemme
gervasio
ges
geschichte
gesellschaft
gesso
gesta
gestapo
gestazione
gesti
gestione
gestire
gestisce
gestiscono
gestita
gestite
gestiti
gestito
gestiva
gesto
gestore
gestori
gesu
gesualdo
gesuita
gesuiti
get
gets
getta
gettando
gettare
gettati
gettato
getti
getting
getto
gf
gg
gh
ghana
ghanese
gheddafi
gheorghe
gherardo
ghetto
ghiacci
ghiacciai
ghiacciaio
ghiaccio
ghiaia
ghiandola
ghiandole
ghibellina
ghibellini
ghisa
ghost
ghosts
ghz
gi
gia
giacca
giacche
giace
giacimenti
giacimento
giacinto
giacitura
giacobbe
giacobini
giacomo
giada
gialla
giallastro
gialle
gialli
giallo
gialloblu
giallorossi
giamaica
giambattista
giampaolo
giampiero
gian
giancarlo
gianfranco
gianluca
gianluigi
gianna
gianni
giannini
giano
giant
giants
giappone
giapponese
giapponesi
giardinaggio
giardini
giardiniere
giardino
giasone
giava
giavellotto
gibbons
gibbs
gibilterra
gibson
gideon
gif
gift
gigante
gigantesca
gigantesco
giganti
gigi
gigli
giglio
gil
gilbert
gilberto
gilda
giles
gill
gilles
gillespie
gillian
gilmore
gime
gin
gina
gineceo
ginevra
ginger
ginnasio
ginnasta
ginnastica
gino
ginocchia
ginocchio
gio
gioacchino
gioachino
giobbe
gioca
giocabile
giocabili
giocando
giocano
giocare
giocarono
giocata
giocate
giocati
giocato
giocatore
giocatori
giocatrice
giocatrici
giocattoli
giocattolo
giocava
giochera
giochi
gioco
giogo
gioia
gioielli
gioiello
giolitti
gion
giordana
giordani
giordania
giordano
giorgi
giorgia
giorgio
giornale
giornali
giornaliera
giornaliere
giornalieri
giornaliero
giornalismo
giornalista
giornalisti
giornalistica
giornalistiche
giornalistico
giornata
giornate
giorni
giorno
giostra
giosue
giotto
giovan
giovane
giovani
giovanile
giovanili
giovanissima
giovanissimi
giovanissimo
giovanna
giovanni
giovannini
giovannino
giove
giovedi
gioventu
giovine
giovinezza
gira
girando
girare
girata
girate
girati
girato
giraud
giri
girl
girlfriend
girls
giro
girolami
girolamo
girone
gironi
gis
gita
gittata
giu
giubileo
giuda
giudaica
giudea
giudei
giudica
giudicare
giudicata
giudicati
giudicato
giudice
giudici
giudico
giuditta
giudizi
giudiziale
giudiziari
giudiziaria
giudiziarie
giudiziario
giudizio
giuffre
giugno
giulia
giuliana
giuliani
giuliano
giulianova
giulietta
giulio
giunge
giungendo
giungere
giungeva
giungevano
giungla
giungono
giunone
giunse
giunsero
giunta
giunte
giunti
giunto
giunzione
giuoco
giura
giuramento
giurare
giurassico
giurati
giurato
giuria
giuridica
giuridiche
giuridici
giuridico
giurisdizionale
giurisdizione
giurisprudenza
giurista
giuristi
giuro
giuseppe
giuseppina
giusta
giustamente
giuste
giusti
giustifica
giustificare
giustificato
giustificazione
giustina
giustiniani
giustiniano
giustino
giustizia
giustiziare
giustiziati
giustiziato
giustiziere
giusto
give
gl
glabra
glabro
glaciale
glacier
gladiatore
gladiatori
gladys
glam
glasgow
glass
glauco
glee
glen
glenn
gli
glielo
glise
global
globale
globali
globalizzazione
globalmente
globe
globo
globuli
gloria
gloriosa
glorioso
glory
glossario
gloucester
glover
glu
gluck
glucosio
gm
gmbh
gn
gne
gneo
gnome
gnu
go
goa
goal
gobbo
goblin
gocce
goccia
god
godard
gode
godere
godette
godeva
godevano
godfrey
godimento
godono
gods
goduto
godzilla
goes
goethe
goffredo
gogh
goia
going
goku
gol
gola
gold
goldberg
golden
goldman
goldoni
goldstein
goldwyn
gole
golf
golfo
golia
golpe
gomes
gomez
gomito
gomma
gomme
gonc
gone
gonfalone
gong
gonna
gonza
gonzaga
gonzales
gonzalez
gonzalo
good
goodbye
goodman
goodwin
google
gora
goran
gordon
gore
gori
goria
gorilla
gorizia
gospel
gossip
got
gotha
gotham
gothic
goti
gotica
gotiche
gotici
gotico
goto
gott
gotta
gottardo
gottfried
gottinga
gottlieb
gould
goulding
gov
governa
governance
governante
governanti
governare
governata
governativa
governative
governativi
governativo
governato
governatorato
governatore
governatori
governava
governi
government
governo
goya
gp
gpl
gps
gr
gra
graal
grace
grade
gradevole
gradi
gradiente
gradimento
gradinata
gradini
gradino
gradito
grado
graduale
gradualmente
graduatoria
grady
graf
graffiti
grafia
grafica
graficamente
grafiche
grafici
grafico
grafo
graham
gram
grammatica
grammi
grammophon
grammy
gramsci
gran
grana
granada
granata
granate
granatieri
grand
grande
grandemente
grandes
grandezza
grandezze
grandi
grandiosa
grandioso
grandissima
grandissimo
granduca
granducato
granduchessa
grani
granito
grano
grant
granuli
graphic
grappa
grass
grasse
grassetto
grassi
grasso
grata
gratitudine
grato
grattacieli
grattacielo
gratuita
gratuitamente
gratuiti
gratuito
grave
gravemente
graves
gravi
gravidanza
gravina
gravissime
gravita
gravitazionale
gravity
gray
grayson
graz
grazia
graziani
graziano
grazie
gre
great
greater
greatest
greca
greche
greci
grecia
greco
greece
greek
green
greene
greenwich
greenwood
greer
greg
gregg
gregge
gregor
gregori
gregoriana
gregoriano
gregorio
gregory
grembo
gremese
grenoble
greta
grey
grezzo
grid
grida
gridando
grido
griffin
griffith
griffiths
grifone
grigi
grigia
grigiastro
grigie
grigio
grigioni
griglia
grigor
grillo
grimaldi
grimm
gro
groeneveld
groenlandia
groove
grosjean
gross
grossa
grosse
grosseto
grossi
grosso
grote
grotta
grotte
ground
group
grove
growth
große
gru
grupo
gruppi
gruppo
gs
gt
gu
gua
guadagna
guadagnando
guadagnandosi
guadagnare
guadagnarsi
guadagnato
guadagni
guadagno
guadalajara
guadalcanal
guadalupe
guado
guai
guaina
gualtieri
gualtiero
guam
guance
guanda
guangzhou
guanti
guanto
guard
guarda
guardando
guardano
guardare
guardava
guardi
guardia
guardiamarina
guardian
guardiani
guardiano
guardie
guardo
guarigione
guarino
guarire
guarito
guarnieri
guarnigione
guarnigioni
guascogna
guastalla
guastatori
guasti
guasto
guatemala
gubbio
gucci
guccini
gue
guelfa
guelfi
guelfo
guerra
guerre
guerrero
guerriera
guerriere
guerrieri
guerriero
guerriglia
guerriglieri
guerrini
guerrino
guest
guevara
guez
gufo
guggenheim
guglia
guglielmo
gui
guida
guidando
guidare
guidata
guidate
guidati
guidato
guidava
guide
guidi
guido
guild
guillaume
guillermo
guilty
guinea
guinness
guisa
guitar
gulf
gun
gundam
gunn
gunnar
guns
guru
gus
guscio
gustav
gustave
gustavo
gusti
gusto
guthrie
gutie
guy
guyana
guys
guzma
gwen
gyo
gypsy
h
ha
haas
habitat
hack
hacker
had
hagen
hahn
hai
haifa
hainaut
hair
haiti
hajduk
hal
hale
haley
half
halifax
hall
halle
halloween
halo
ham
hamburg
hamilton
hammer
hammond
hampshire
hampton
han
hana
hancock
hand
handbook
handicap
hands
hang
hangar
hank
hanna
hannah
hannibal
hanno
hannover
hanoi
hans
hansen
hanson
hapoel
happened
happiness
happy
hara
harald
harbor
hard
hardcore
harding
hardware
hardy
hare
harem
harlan
harlem
harley
harmon
harmony
harold
harper
harriet
harris
harrison
harry
hart
hartford
hartley
hartmann
harvard
harvest
harvey
has
hasan
hash
hassan
hastings
hat
hate
hathaway
haunted
haus
haut
haute
have
haven
havilland
havre
hawaii
hawk
hawkins
hawks
hay
hayden
haydn
hayes
hayley
haynes
hayward
hbo
hc
hd
he
head
headquarters
heads
health
hear
heart
hearts
heat
heath
heather
heaven
heavy
heavyweight
hector
hedgehog
hee
heel
hegel
heidegger
heidelberg
heidi
height
heights
heinrich
heinz
hel
helen
helena
hell
hellas
heller
hello
helmut
help
helsinki
hemingway
hen
henderson
hendrix
henley
henri
henrietta
henrik
henry
hepburn
hepworth
her
herald
herb
herbert
herbie
hercules
here
heritage
herman
hermann
hermes
herna
hernandez
hero
heroes
herr
herrera
herschel
herve
herzog
hess
het
hewitt
hey
hf
hi
hicks
hidalgo
hidden
hieracium
hierarchia
hierarchy
higgins
high
higher
highway
hikaru
hilary
hilda
hildesheim
hill
hillary
hills
hilton
him
himalaya
himmler
hindi
hindu
hip
hiram
hiro
hiroshi
hiroshima
his
hist
histo
histoire
historia
historiae
historic
historica
historical
historiens
historique
history
hit
hitchcock
hitler
hits
hiv
hl
hler
hm
hms
ho
hobart
hobbit
hobbs
hobby
hoc
hockeista
hockey
hoepli
hoffman
hoffmann
hogan
hohenlohe
hohenzollern
hokkaido
hold
holden
holding
hole
holiday
holland
hollow
holly
hollywood
holm
holmes
holocaust
holstein
holt
holy
home
homer
homme
hommes
homo
honda
honduras
honey
hong
honolulu
honor
honore
honoris
hood
hook
hooker
hooper
hoover
hop
hope
hopkins
hopper
hora
horace
horacio
horizon
horn
horne
horror
horse
horst
horton
horus
hospital
host
hot
hotel
hour
hours
house
housewives
houston
houten
how
howard
howe
howell
hp
hr
hrer
hrsg
hs
htm
html
http
https
hu
hua
huang
hub
hubbard
hubble
huber
hubert
hudson
hugh
hughes
hugo
hugues
hui
hulk
hull
human
humboldt
hume
humphrey
hundred
hung
hunger
hunt
hunter
hunting
huntington
hurley
hurricane
hurt
husband
hussein
hustle
huston
hutchinson
hutton
hybrid
hyde
hydra
hye
hyun
hyundai
hz
i
ia
iaaf
iacopo
ian
ias
iata
ib
iba
iberia
iberica
ibid
ibidem
ibis
ibiza
ibm
ibn
ibrahim
ibrida
ibridi
ibrido
ic
ica
icao
ice
ich
ichi
icon
icona
icone
iconografia
ictus
id
ida
idaho
iddio
ide
idea
ideale
ideali
idealismo
idealmente
ideata
ideato
ideatore
ideazione
idee
idem
identica
identiche
identici
identico
identifica
identificabile
identificano
identificare
identificata
identificate
identificati
identificativo
identificato
identificazione
identita
identity
ideo
ideologia
ideologica
ideologico
ideologie
idioma
idol
idoli
idolo
idonea
idonei
idoneita
idoneo
idraulica
idrauliche
idraulici
idraulico
idrica
idrico
idrocarburi
idroelettrica
idrogeno
idrografia
idrografico
idrovolante
idrovolanti
ie
ieee
iene
ieri
if
ifk
ig
iga
igiene
igienici
iglesias
ign
ignacio
ignaro
ignazio
ignora
ignorando
ignoranza
ignorare
ignorato
ignota
ignoti
ignoto
igor
ii
iii
ij
ik
ike
ikko
il
ilaria
ilario
iliade
ill
illeciti
illecito
illegale
illegali
illegalmente
illegittima
illegittimo
illimitato
illinois
illirico
illumina
illuminare
illuminata
illuminati
illuminato
illuminazione
illuminismo
illusione
illusioni
illustra
illustrare
illustrata
illustrate
illustrated
illustrati
illustrato
illustratore
illustrazione
illustrazioni
illustre
illustri
ils
im
ima
image
images
imagine
imaging
imam
imbarazzo
imbarcati
imbarcato
imbarcazione
imbarcazioni
imbarco
imbatte
imbattuto
imbocco
imboscata
imdb
img
imitare
imitazione
immacolata
immagina
immaginare
immaginari
immaginaria
immaginario
immaginazione
immagine
immagini
immediata
immediatamente
immediate
immediati
immediato
immensa
immenso
immersa
immersione
immerso
immette
immigrati
immigrazione
imminente
immissione
immobile
immobili
immobiliare
immobiliari
immortal
immortale
immortali
immortalita
immune
immunita
immunitario
imola
impact
impadronirsi
impara
imparare
imparato
imparentati
imparentato
imparo
impasto
impatti
impatto
impedendo
impedenza
impedi
impedimento
impedire
impedirono
impedisce
impediscono
impedito
impediva
impegna
impegnarono
impegnarsi
impegnata
impegnate
impegnati
impegnativo
impegnato
impegni
impegno
imperativo
imperatore
imperatori
imperatrice
imperfetto
imperi
imperia
imperial
imperiale
imperiali
imperialismo
imperio
impero
impeto
impianti
impianto
impiccagione
impiccato
impiega
impiegando
impiegare
impiegata
impiegate
impiegati
impiegato
impieghi
impiego
implementare
implementato
implementazione
implica
implicazioni
implicitamente
impollinazione
impone
imponendo
imponendosi
imponente
imponenti
imponeva
impongono
imporre
imporsi
importa
importante
importanti
importanza
importati
importato
importazione
importazioni
importo
impose
imposero
imposizione
impossessarsi
impossibile
impossibili
impossibilita
impossible
imposta
impostare
impostata
impostato
impostazione
impostazioni
imposte
imposti
imposto
impotente
imprecisato
imprenditore
imprenditori
imprenditoriale
impresa
impresario
imprese
impressionante
impressionato
impressione
impressioni
imprigionare
imprigionata
imprigionati
imprigionato
improbabile
impronta
impronte
impropriamente
improvvisa
improvvisamente
improvvisazione
improvviso
impugnatura
impulsi
impulso
imputati
imputato
in
ina
inaspettata
inaspettatamente
inaspettato
inattivita
inattivo
inaugura
inaugurale
inaugurata
inaugurato
inaugurazione
inauguro
inavvertitamente
inazuma
inc
inca
incantata
incantesimi
incantesimo
incanto
incapace
incapaci
incapacita
incarcerato
incarica
incaricata
incaricati
incaricato
incarichi
incarico
incarnazione
incassato
incassi
incasso
incastrato
ince
incendi
incendio
incentivi
incentrata
incentrati
incentrato
incerta
incertezza
incertezze
incerto
inch
inchiesta
inchieste
inchiostro
incide
incidente
incidenti
incidenza
incidere
incinta
incipit
incirca
incisa
incise
incisi
incisione
incisioni
incisivi
inciso
incisore
inclinata
inclinato
inclinazione
incline
include
includendo
includere
includeva
includevano
includiintestazione
includono
inclusa
incluse
inclusi
inclusione
incluso
incognito
incolumita
incomincia
incominciarono
incomincio
incompatibile
incompatibilita
incompiuta
incompiuto
incompleta
incompleto
incomprensioni
inconscio
incontra
incontrando
incontrano
incontrare
incontrarono
incontrarsi
incontrate
incontrati
incontrato
incontrera
incontri
incontro
incoraggia
incoraggiamento
incoraggiare
incoraggiato
incoraggio
incoronata
incoronato
incoronazione
incorpora
incorporata
incorporate
incorporati
incorporato
incorporazione
incredibile
incredibili
incredibilmente
incredible
increment
incrementare
incremento
incroci
incrocia
incrociate
incrociatore
incrociatori
incrocio
incubi
incubo
incursione
incursioni
ind
indaga
indagando
indagano
indagare
indagati
indagato
indagine
indagini
indebolimento
indebolire
indebolito
indennita
independence
independent
independiente
indesiderati
indeterminato
indetto
index
indi
india
indian
indiana
indianapolis
indiane
indiani
indiano
indians
indica
indicando
indicano
indicante
indicare
indicata
indicate
indicati
indicativo
indicato
indicatore
indicatori
indicava
indicavano
indicazione
indicazioni
indice
indici
indico
indie
indietro
indifferente
indifferenza
indigena
indigene
indigeni
indignazione
indipendente
indipendentemente
indipendenti
indipendenza
indiretta
indirettamente
indiretto
indirizzata
indirizzato
indirizzi
indirizzo
indiscusso
indispensabile
indispensabili
individua
individuale
individuali
individualmente
individuano
individuare
individuata
individuate
individuati
individuato
individuazione
individui
individuo
indizi
indizio
indo
indocina
indole
indomani
indonesia
indonesiana
indonesiano
indoor
indossa
indossando
indossano
indossare
indossata
indossato
indossava
indossavano
indosso
indotta
indotto
indu
indubbiamente
induce
induismo
indulgenza
indumenti
indurre
indusse
industria
industrial
industriale
industriali
industrializzazione
industrie
industries
industry
induzione
ine
inedita
inedite
inediti
inedito
inerente
inerenti
inerzia
inesistente
inevitabile
inevitabilmente
infante
infanterie
infantile
infantry
infanzia
infarto
infatti
infelice
inferi
inferiore
inferiori
inferiorita
infermeria
infermi
infermiera
infermiere
infermita
infernale
inferno
infero
infettive
infezione
infezioni
infiammazione
infiltrarsi
infiltrato
infiltrazione
infiltrazioni
infine
infinita
infinite
infiniti
infinito
infinity
infiorescenza
infiorescenze
inflazione
infliggere
inflitta
inflitto
influence
influente
influenti
influenza
influenzano
influenzare
influenzata
influenzate
influenzati
influenzato
influenze
influenzo
influssi
influsso
info
informa
informale
informare
informata
informati
informatica
informatiche
informatici
informatico
information
informativa
informativi
informativo
informato
informatore
informazione
informazioni
informo
infortunati
infortunato
infortuni
infortunio
infortuno
infra
infrarosso
infrastruttura
infrastrutture
infty
infuriato
ing
ingaggia
ingaggiare
ingaggiata
ingaggiato
ingaggio
inganna
ingannare
ingannato
inganni
inganno
ingegner
ingegnere
ingegneri
ingegneria
ingegno
ingente
ingenti
ingenuo
inghilterra
ingiustamente
ingiustizia
inglese
inglesi
inglobata
inglobato
ingram
ingranaggi
ingrandimento
ingrediente
ingredienti
ingressi
ingresso
ingrid
inibitori
inibizione
iniezione
ininterrottamente
inizi
inizia
iniziale
iniziali
inizialmente
iniziando
iniziano
iniziare
iniziarono
iniziata
iniziate
iniziati
iniziativa
iniziative
iniziato
iniziava
iniziazione
iniziera
inizio
inn
innalza
innalzamento
innalzata
innalzato
innamora
innamorarsi
innamorata
innamorati
innamorato
innamoro
innanzi
innanzitutto
inner
innesco
innesto
inni
inning
inno
innocence
innocent
innocente
innocenti
innocenza
innocenzo
innovativa
innovative
innovativi
innovativo
innovazione
innovazioni
innsbruck
innumerevoli
inoltre
inondazione
inondazioni
input
inquadrata
inquadrati
inquadrato
inquadratura
inquietante
inquinamento
inquinanti
inquirenti
inquisitore
inquisizione
ins
insaputa
insediamenti
insediamento
insediarono
insediato
insedio
insee
insegna
insegnamenti
insegnamento
insegnante
insegnanti
insegnare
insegnato
insegnava
insegne
insegno
insegue
inseguimento
inseguire
inseguito
insenatura
inserendo
inseri
inserimento
inserire
inserirsi
inserisce
inseriscono
inserita
inserite
inseriti
inserito
inserti
inserzione
insetti
insetto
inside
insieme
insiemi
insigne
insignita
insigniti
insignito
insiste
insistenza
insistette
insolita
insolitamente
insolito
insomma
insorgenza
insorgere
insorti
instabile
instabilita
instagram
installare
installata
installate
installati
installato
installazione
installazioni
instaura
instaurare
instaurazione
institut
institute
institution
instituto
instrumental
insuccesso
insufficiente
insufficienti
insufficienza
insulare
insulina
insulti
insurrezione
int
intagliato
intanto
intatta
intatto
inte
integra
integrale
integrali
integralmente
integrante
integrare
integrata
integrate
integrati
integrato
integrazione
integrita
integro
intel
intelletto
intellettuale
intellettuali
intelligence
intelligente
intelligenti
intelligenza
intende
intendere
intendeva
intendevano
intendono
intensa
intensamente
intense
intensi
intensita
intensiva
intenso
intent
intenti
intento
intenzionalmente
intenzionata
intenzionato
intenzione
intenzioni
inter
intera
interactive
interagire
interamente
interazione
interazioni
intercessione
intercettare
intercettato
intercettazione
intercetti
intercetto
intercontinental
intercontinentale
interdizione
intere
interessa
interessamento
interessano
interessante
interessanti
interessarono
interessarsi
interessata
interessate
interessati
interessato
interesse
interessi
interesso
interezza
interfacce
interfaccia
interferenza
interferenze
interferire
interi
interim
interior
interiore
interlocutore
intermedi
intermedia
intermediario
intermedie
intermedio
intermezzo
interna
internacional
internamente
internamento
internati
international
internationale
internato
internazionale
internazionali
internazionalmente
interne
internet
interni
interno
intero
interpreta
interpretando
interpretano
interpretare
interpretata
interpretate
interpretati
interpretato
interpretava
interpretazione
interpretazioni
interprete
interpreti
interpreto
interrato
interregionale
interroga
interrogare
interrogato
interrogatori
interrogatorio
interrompe
interrompendo
interrompere
interrotta
interrotte
interrotti
interrotto
interruppe
interruzione
interruzioni
interscambi
interscambio
intersezione
intertoto
intervalli
intervallo
intervengono
intervenire
intervenne
intervennero
interventi
intervento
intervenuto
interviene
interview
intervista
intervistato
interviste
intesa
intese
intesi
inteso
intestazione
intestinale
intestino
intima
intimi
intimita
intimo
intitola
intitolata
intitolate
intitolati
intitolato
intitolazione
into
intonaco
intonazione
intorno
intra
intrappolata
intrappolati
intrappolato
intraprende
intraprendere
intrapresa
intraprese
intrapreso
intrattenere
intrattenimento
intravede
intreccio
intrighi
intrigo
intrinseca
intro
introdotta
introdotte
introdotti
introdotto
introduce
introducendo
introduction
introdurre
introdusse
introdussero
introduttivo
introduzione
introiti
intuire
intuisce
intuito
intuizione
inusuale
inutile
inutili
inutilmente
invadere
invano
invariata
invariato
invasa
invase
invasero
invasion
invasione
invasioni
invaso
invasori
invecchiamento
invece
inventa
inventario
inventata
inventato
invento
inventore
invenzione
invenzioni
invernale
invernali
inverni
inverno
inversa
inversione
inverso
invertebrati
investe
investi
investigare
investigation
investigatore
investigatori
investigazione
investimenti
investimento
investire
investita
investito
investitori
investitura
invia
inviando
inviare
inviarono
inviata
inviate
inviati
inviato
invidia
invincibile
invio
invisibile
invisibili
invisible
invita
invitando
invitare
invitata
invitati
invitato
inviti
invito
involontariamente
involucro
io
ioan
iodio
ion
ione
ioni
ionica
ioniche
ionico
ionio
ios
iowa
ip
ipa
ipad
ipertensione
iphone
ipocoristici
ipogeo
ipotesi
ipotetica
ipotetico
ipotizza
ipotizzare
ipotizzato
ipotizzo
ippodromo
ippolita
ippolito
ir
ira
irachena
iracheni
iracheno
iran
iraniana
iraniani
iraniano
iraq
ire
ireland
irene
iri
iridata
iridate
iridato
iride
irina
iris
irish
irlanda
irlandese
irlandesi
irma
iron
ironia
ironicamente
ironico
irpinia
irpino
irregolare
irregolari
irregolarita
irreversibile
irrigazione
irrimediabilmente
irrisolti
irrompe
irruzione
irvin
irvine
irving
irwin
is
isa
isaac
isabel
isabella
isabelle
isacco
isaia
isbn
ischia
iscrisse
iscritta
iscritte
iscritti
iscritto
iscrive
iscriversi
iscrizione
iscrizioni
ise
iseo
isernia
iside
isidoro
isis
isla
islam
islamic
islamica
islamiche
islamici
islamico
island
islanda
islandese
islands
isle
ismail
iso
isola
isolamento
isolani
isolare
isolata
isolate
isolati
isolato
isole
isolotti
isolotto
isonzo
isotopi
isotta
ispanici
ispano
ispettore
ispezione
ispira
ispirandosi
ispirata
ispirate
ispirati
ispirato
ispirazione
ispiro
israel
israele
israeliana
israeliane
israeliani
israeliano
iss
issn
issue
ist
istanbul
istantanea
istante
istanti
istanza
istanze
istat
istinto
istitui
istituire
istituisce
istituita
istituite
istituiti
istituito
istituti
istituto
istituzionale
istituzionali
istituzione
istituzioni
istmo
istoria
istria
istruito
istruttore
istruzione
istruzioni
istva
it
ita
italia
italian
italiana
italiane
italiani
italiano
italica
italici
italico
italie
italien
italo
italoamericani
italy
item
iter
itf
itinerante
itinerari
itinerario
ito
its
ittita
itunes
itv
iu
iucn
iure
iuris
ius
iv
iva
ivan
ivana
ivano
ivanov
ivanovic
iveco
ivi
ivo
ivory
ivrea
ivy
ix
iz
izzo
j
ja
jaca
jack
jackie
jackson
jacksonville
jacob
jacobs
jacopo
jacqueline
jacques
jade
jae
jag
jagger
jaguar
jaguars
jahre
jaime
jake
jakob
jam
james
jameson
jamie
jan
jana
jane
janeiro
janet
jang
january
japan
japanese
jar
jared
jarod
jaroslav
jarrett
jarvis
jasmine
jason
jasper
java
javier
jay
jazz
je
jean
jeanne
jeans
jedi
jeep
jeff
jefferson
jeffrey
jekyll
jelena
jen
jena
jenkins
jenna
jennifer
jennings
jenny
jens
jensen
jenson
jeremiah
jeremy
jerez
jericho
jerome
jerry
jersey
jerusalem
jerzy
jesi
jesolo
jess
jesse
jessica
jessie
jesu
jesus
jet
jets
jeu
jeune
jewel
jewish
jews
jg
ji
jia
jill
jim
jime
jimi
jimmy
jin
jir
jj
jo
joa
joachim
joan
joanna
joanne
joaqui
job
jobs
jockey
jody
joe
joel
joey
johan
johann
johanna
johannes
johannesburg
johansson
john
johnny
johns
johnson
johnston
joint
jojo
joker
jolly
jon
jonah
jonas
jonathan
jones
jong
jonny
joon
jordan
jordi
jorge
jose
josef
joseph
josephine
josh
joshua
josie
jour
journal
journey
jours
jovanotti
jovi
joy
joyce
jp
jpeg
jpg
jr
js
ju
juan
judas
judd
jude
judge
judith
judo
judy
jugoslava
jugoslavi
jugoslavia
jugoslavo
jules
julia
julian
julie
julien
juliet
juliette
julio
julius
july
jump
jun
junction
june
jung
jungle
junior
juniores
juniors
junkers
juno
jupiter
jurassic
jurij
jury
jus
just
justice
justin
justine
jutland
juve
juventus
k
ka
kabul
kafka
kahn
kai
kaiser
kal
kamen
kami
kamikaze
kan
kane
kang
kanji
kansas
kant
kanye
kaplan
kappa
kara
karabakh
karate
karel
karen
karim
karin
karl
karlsruhe
karma
karol
karoli
kart
kashmir
kassel
kat
kata
kate
katherine
kathleen
kathryn
kathy
katia
katie
kato
katrina
katy
katz
kaufman
kaunas
kawasaki
kay
kayak
kaye
kazakistan
kazan
kb
kc
ke
keaton
keep
kei
keirin
keith
keller
kelley
kelly
kemp
ken
kendall
kendrick
kenji
kennedy
kenneth
kenny
kent
kentucky
kenya
kepler
kerala
kermesse
kern
kernel
kerr
kerry
kesselring
kevin
kew
key
keynes
keys
kg
kgb
kha
khan
khanato
khmer
khz
ki
kick
kid
kidd
kids
kiel
kierkegaard
kiev
kiki
kildare
kill
killed
killer
killers
killing
kim
kimberly
kimi
kin
kind
king
kingdom
kings
kingston
kira
kirby
kirche
kirghizistan
kirk
kirsten
kiss
kit
kita
kitchen
kitty
klaus
klein
kleine
klingon
klub
km
kn
knicks
knight
knights
knock
know
knowledge
knowles
knows
knox
ko
kobayashi
kobe
koch
koda
kofi
kombat
kon
kong
konrad
konstantin
korea
korean
kos
kosovo
kov
kova
kr
kra
kraft
kramer
kreis
kriegsmarine
kris
kristen
kristin
kristina
krzysztof
ks
ku
kuala
kubrick
kun
kung
kunst
kupfer
kurt
kuwait
kv
kw
ky
kyj
kyle
kylie
kyo
kyoto
kyu
l
la
lab
labbra
labbro
label
labirinto
labor
laboratori
laboratorio
laboratory
laburista
lac
lacey
lacrime
lacune
ladder
laddove
laden
ladies
ladino
ladislao
ladra
ladri
ladro
lady
lafayette
laffite
laga
lager
laghetto
laghi
lago
lagos
laguna
lahti
lai
laica
laici
laico
lake
lakers
lam
lama
lamar
lamb
lambda
lambert
lamberto
lamborghini
lambro
lame
lamelle
lamenta
lamento
lamezia
lamiera
lamina
lamine
lamont
lampada
lampade
lampedusa
lampi
lampo
lan
lana
lancashire
lancaster
lance
lanceolata
lanceolate
lanci
lancia
lanciando
lanciano
lanciare
lanciarono
lanciasiluri
lanciata
lanciate
lanciati
lanciato
lanciatore
lanciatori
lancieri
lancio
land
landau
lander
landi
landing
landkreis
lando
landon
lane
lanfranco
lang
lange
langle
language
languages
languedoc
lanka
lanterna
lanterne
lanza
lanzo
lao
laos
lapide
lapidi
lara
larga
largamente
large
larghe
larghezza
larghi
largo
lario
larry
lars
larsen
larson
larsson
larva
larve
las
lascera
lasci
lascia
lasciando
lasciandolo
lasciano
lasciar
lasciare
lasciarla
lasciarlo
lasciarono
lasciarsi
lasciata
lasciate
lasciati
lasciato
lasciava
lascio
lascito
laser
lasky
lasso
last
lastra
lastre
lat
late
later
laterale
laterali
lateralmente
lateranense
laterano
laterizi
laterizio
laterza
lati
latin
latina
latine
latini
latino
latinos
latitante
latitudine
latitudini
lato
latte
lattea
lattuada
lau
lauda
laura
laurea
laureandosi
laurearsi
laureata
laureati
laureato
laureatosi
laurel
lauren
laurence
laurent
laurenti
laureo
laurie
lauro
lava
lavaggio
lavagna
laval
lavinia
lavora
lavorando
lavorano
lavorare
lavorarono
lavorata
lavorativa
lavorative
lavorativo
lavorato
lavoratore
lavoratori
lavorava
lavoravano
lavorazione
lavorazioni
lavori
lavoro
law
lawrence
laws
lawson
lay
layer
layla
layout
laziale
lazio
lazzaretto
lazzaro
lb
lc
lcn
ld
ldots
le
lea
lead
leader
leadership
league
leah
leale
leali
lealta
lean
leander
leandro
lear
learning
leave
leben
lecce
leccese
lecco
lech
lecito
leclerc
led
lee
leeds
lefebvre
left
leg
lega
legacy
legadue
legal
legale
legali
legalita
legalmente
legame
legamento
legami
legano
legare
legata
legate
legati
legato
legava
legend
legenda
legends
legge
leggenda
leggendari
leggendaria
leggendario
leggende
leggendo
leggera
leggere
leggerezza
leggeri
leggermente
leggero
leggi
leggibile
leghe
legio
legion
legionari
legione
legioni
legislativa
legislative
legislativi
legislativo
legislatore
legislatura
legislature
legislazione
legittima
legittimazione
legittimi
legittimita
legittimo
legna
legname
legnano
legni
legno
lego
lei
leibniz
leicester
leida
leiden
leigh
leila
leipzig
leita
lele
lelio
lelouch
lem
lembo
lemma
lemmon
len
lena
lenin
leningrado
lennon
lennox
lenny
lens
lenta
lentamente
lente
lentezza
lenti
lentini
lento
lenzi
leo
leon
leonard
leonardi
leonardo
leone
leonessa
leoni
leonid
leonida
leopardi
leopardo
leopold
leopoldo
leopoli
lepanto
lepre
leq
lerner
leroy
les
lesbian
lesbica
lesbiche
lesene
lesione
lesioni
lesley
leslie
lesnar
less
lesse
lessico
lester
let
letale
letali
letizia
leto
lett
letta
letter
lettera
letterale
letteralmente
letterari
letteraria
letterarie
letterario
letterati
letterato
letteratura
letterature
lettere
letters
letti
letto
lettone
lettonia
lettore
lettori
lettres
lettura
letture
leucemia
lev
leva
levante
leve
level
levi
levin
levine
levinson
levy
lew
lewin
lewis
lex
lexikon
lexington
lez
lezione
lezioni
lf
lg
lgbt
lgs
li
lia
liam
liang
lib
libanese
libano
libbre
libe
liber
libera
liberal
liberale
liberali
liberalismo
liberamente
liberando
liberano
liberare
liberarlo
liberarsi
liberata
liberati
liberato
liberazione
libere
liberi
liberia
libero
liberta
libertadores
libertas
liberty
libia
libica
libico
library
libre
libreria
librerie
libretti
libretto
libri
libro
lica
licata
liceale
licei
licenza
licenze
licenzia
licenziamento
licenziato
liceo
lich
licia
licinio
lidia
lido
lie
liebe
liechtenstein
lieder
liegi
lies
lieto
lieutenant
lieve
lievemente
lievi
lievito
life
lifetime
liga
ligabue
light
lightning
lights
ligi
lignaggio
ligne
lignea
lignee
lignei
ligneo
ligue
liguori
ligure
liguri
liguria
liha
like
lil
lila
lili
liliana
lilith
lilla
lille
lillian
lillo
lilly
lily
lim
lima
limbo
limburgo
limes
limina
limit
limita
limitando
limitandosi
limitano
limitare
limitata
limitatamente
limitate
limitati
limitato
limitava
limitazione
limitazioni
limite
limited
limiti
limito
limitrofe
limitrofi
limits
limoges
limone
limousine
lin
lina
lince
lincei
lincoln
linda
linden
lindl
lindsay
lindsey
line
linea
lineamenti
linear
lineare
lineari
linee
lines
linfa
linfociti
ling
lingua
linguaggi
linguaggio
lingue
linguista
linguistica
linguistiche
linguistici
linguistico
link
linneo
lino
linus
linux
linyphiidae
linz
lio
lion
lione
lionel
lionello
lions
lipari
lipidi
lippi
lipsia
liquida
liquidazione
liquidi
liquido
liquore
lira
lire
liri
lirica
liriche
lirici
lirico
lisa
lisbon
lisbona
lisce
liscia
liscio
list
lista
liste
listen
listino
liszt
lite
literary
literature
litiga
litigano
litigare
litigio
litio
litorale
litri
litro
litta
litte
little
littoriale
littorio
lituana
lituani
lituania
lituano
liturgia
liturgica
liturgiche
liturgici
liturgico
liu
liv
live
livelli
livello
liverpool
lives
livia
living
livingston
livio
livonia
livorno
livre
livrea
lix
liz
liza
lizzani
lizzie
lkenberg
ll
lla
lle
ller
lli
lloyd
lm
ln
lo
lobi
lobo
loc
local
locale
locali
localita
localizzare
localizzata
localizzati
localizzato
localizzazione
localmente
locanda
locarno
locatelli
location
locazione
loch
lock
locke
lockheed
loco
locomotiva
locomotive
locus
locuzione
lodato
lode
lodge
lodi
lodo
lodovico
log
logan
logge
loggia
loggiato
logic
logica
logiche
logico
logistica
logistico
logo
logos
loi
loir
loira
loire
lois
loki
lokomotiv
lola
lolita
lombarda
lombarde
lombardi
lombardia
lombardo
londinese
londinesi
london
londra
lone
lonely
loneos
long
longanesi
longevita
longhi
longitudinale
longitudinali
longitudine
longo
longobarda
longobardi
longobardo
lontana
lontananza
lontane
lontani
lontano
look
looking
looney
loop
loose
lope
lopez
lor
lord
lordo
lords
loredana
loren
lorena
lorenz
lorenzi
lorenzo
loreto
loretta
lori
loris
loro
lorraine
los
losanna
lose
loser
lost
lot
lotario
lothar
loto
lotta
lottando
lottare
lottato
lottatore
lottatori
lotte
lotteria
lotti
lotto
lotus
lou
loud
louie
louis
louisa
louise
louisiana
louisville
lounge
loup
lourdes
louvre
lovanio
love
lovecraft
loved
lovely
lover
lovers
loves
loving
low
lowe
lowell
lower
loy
loyola
lp
ls
lt
ltd
lu
lubecca
lubiana
lubin
lublino
luc
luca
lucania
lucano
lucas
lucca
lucchese
lucchesi
luce
lucera
lucerna
lucertola
lucertole
lucha
luchino
luci
lucia
luciana
luciano
lucida
lucido
lucie
lucien
lucifer
lucifero
lucio
lucius
luck
lucky
lucrezia
lucro
lucullo
lucy
ludovica
ludovico
ludovisi
ludwig
luftwaffe
lugano
luglio
lugo
lui
luigi
luigia
luis
luisa
luiz
luka
lukas
luke
lulu
lume
lumi
lumie
luminosa
luminose
luminosi
luminosita
luminoso
luna
lunare
lunari
lund
lune
lunedi
lunetta
lunette
lunga
lungamente
lunghe
lunghezza
lunghezze
lunghi
lungi
lungo
lungomare
lungometraggi
lungometraggio
luni
lunigiana
luoghi
luogo
luogotenente
lupa
lupi
lupin
lupo
lusignano
lussemburghese
lussemburgo
lusso
lust
lustro
luterana
lutero
luther
luthor
lutto
lutz
lux
luxembourg
luz
lv
lvarez
lvaro
ly
lydia
lyle
lyn
lynch
lyndon
lynn
lynx
lyon
lyons
lyric
m
ma
maastricht
mabel
mac
macao
macario
macarthur
macbeth
maccabi
macchi
macchia
macchie
macchina
macchinari
macchinario
macchine
macdonald
macedone
macedoni
macedonia
macerata
macerie
mach
machado
machiavelli
machine
machines
macintosh
mack
mackenzie
macmillan
macos
macpherson
macro
mad
madagascar
madama
madame
maddalena
madden
maddie
made
madeleine
madeline
mademoiselle
madison
madness
madonna
madre
madrepatria
madri
madrid
madrigali
madrina
mae
maesta
maestoso
maestra
maestranze
maestri
maestro
maffei
mafia
mafiosa
mafiosi
mafioso
mag
maga
magari
magazine
magazzini
magazzino
magda
magdalena
magdeburgo
magellano
magenta
magg
maggi
maggie
maggio
maggior
maggioranza
maggiordomo
maggiore
maggiori
maggioritario
maggiormente
maghi
maghreb
magi
magia
magic
magica
magical
magiche
magici
magico
magie
magister
magistero
magistrale
magistrati
magistrato
magistratura
maglia
maglie
maglietta
magma
magna
magnani
magnate
magnesio
magnetica
magnetici
magnetico
magneto
magni
magnifica
magnifico
magnitudine
magnitudo
magno
magnolia
magnum
magnus
mago
magonza
magra
magro
maguire
mah
maha
mahal
mahler
mahmud
mai
maia
maiale
maiali
maid
maiden
maiella
maigret
mail
main
maine
mainstream
maio
maiolica
maiorca
mais
maison
majano
major
make
maker
making
makoto
mal
mala
malaga
malapena
malaria
malaspina
malata
malatesta
malati
malato
malattia
malattie
malavita
malawi
malaysia
malcolm
malcontento
maldonado
male
maledetta
maledetto
maledizione
malese
malesi
malesia
malfunzionamento
malgrado
mali
malibu
maligno
malik
malinconia
malinconico
mall
mallory
malmo
malo
malone
malore
malta
maltempo
maltese
malvagi
malvagia
malvagio
mama
mambo
mamma
mammals
mammiferi
mammifero
man
mana
management
manager
manca
mancando
mancano
mancante
mancanti
mancanza
mancare
mancarono
mancata
mancato
mancava
mancavano
manche
manchester
mancia
mancini
mancino
manciuria
manco
mancuso
manda
mandamento
mandando
mandante
mandare
mandarino
mandata
mandati
mandato
mandela
mandibola
mando
mandolino
mandorle
mandy
mane
manera
manetti
manfred
manfredi
manfredo
manfredonia
manga
mangia
mangiano
mangiare
mangiato
mango
manhattan
mani
mania
manica
maniche
manico
manicomio
maniera
maniere
maniero
manifattura
manifesta
manifestano
manifestanti
manifestare
manifestarsi
manifestato
manifestazione
manifestazioni
manifesti
manifesto
manila
manipolare
manipolazione
manlio
mann
manna
mannaro
mannelli
mannheim
manni
manning
manny
mano
manodopera
manon
manor
manoscritti
manoscritto
manovra
manovre
mans
mansell
mansfield
mansioni
manson
mantegna
mantello
mantenendo
mantenere
mantenersi
manteneva
mantengono
mantenimento
mantenne
mantennero
mantenuta
mantenute
mantenuti
mantenuto
manterra
mantiene
manto
mantova
mantovani
mantovano
manu
manual
manuale
manuali
manualmente
manuel
manuela
manuele
manufacturing
manufatti
manufatto
manutenzione
many
manzo
manzoni
mao
maometto
map
mappa
mappatura
mappe
maps
mar
mara
maradona
marano
marathon
maratona
marc
marca
marcantonio
marcapiano
marcata
marcatamente
marcato
marcatore
marcatori
marcatura
marcature
marce
marcel
marcella
marcellino
marcello
marcelo
march
marche
marchesa
marchesato
marchese
marchesi
marchetti
marchi
marchigiana
marchigiano
marchio
marcia
marciano
marciapiede
marciapiedi
marciare
marcio
marco
marconi
marcos
marcus
mare
marea
marek
maremma
marengo
maresciallo
margaret
margarita
marge
margherita
marginale
marginali
margine
margini
margot
margravio
marguerite
mari
maria
mariah
marian
mariana
mariani
marianna
marianne
mariano
maribor
marie
marija
marijuana
marilyn
marin
marina
marinai
marinaio
marine
marinelli
marines
marinetti
marini
marino
mario
marion
marionette
marisa
mariti
maritime
marito
marittima
marittime
marittimi
marittimo
marius
marjorie
mark
market
marketing
marko
marks
markus
marlborough
marlene
marley
marlon
marlowe
marmi
marmo
marmorea
marmoree
marmorei
marmoreo
marna
marne
marocchina
marocchino
marocco
marrakech
marriage
married
marrone
marroni
mars
marsala
marseille
marsh
marshal
marshall
marsi
marsica
marsiglia
marsilio
mart
marta
marte
martedi
martelli
martello
martha
marti
martian
martin
martina
martinelli
martinengo
martinez
martini
martino
martins
martire
martiri
martirio
martirologio
marty
maru
marvel
marvin
marx
marxismo
marxista
mary
maryland
marzano
marziale
marziali
marziano
marzio
marzo
mas
mascagni
mascella
maschera
mascherato
maschere
mascherina
maschi
maschile
maschili
maschio
mascotte
maserati
masi
masini
mask
maso
mason
mass
massa
massachusetts
massacre
massacri
massacro
massari
masse
masseria
massi
massicce
massicci
massiccia
massiccio
massima
massime
massimi
massimiano
massimiliano
massimino
massimo
masso
massone
massoneria
massoni
master
mastering
masters
mastino
mastio
mastro
mastrocinque
mastroianni
mat
mata
match
mate
matematica
matematicamente
matematiche
matematici
matematico
mateo
mater
matera
materia
material
materiale
materiali
materialismo
materie
materna
maternita
materno
mathbb
mathbf
mathcal
mathematical
mathias
mathieu
mathrm
matilda
matilde
matita
mato
matrice
matrici
matricola
matrigna
matrimoni
matrimoniale
matrimonio
matrix
matt
matta
mattarella
mattei
matteo
matteotti
matter
matthew
matthews
matthias
matti
mattia
mattina
mattinata
mattino
mattioli
matto
mattoli
mattone
mattoni
matura
maturata
maturato
maturazione
maturi
maturita
maturo
maud
maura
maureen
mauri
maurice
mauritania
mauritius
maurizio
mauro
mausoleo
mauthausen
maverick
mavericks
max
maxi
maxim
maxime
maximilian
maximum
maximus
maxwell
may
maya
mayer
maynard
mayo
mayor
mazara
mazda
mazza
mazzarino
mazzini
mazzo
mazzola
mazzoni
mb
mbox
mc
mccarthy
mccartney
mccoy
mcdonald
mcdonnell
mcenroe
mcgee
mcgrath
mcgraw
mcgregor
mcintyre
mckay
mckenzie
mclaren
mclean
mcleod
mcmahon
mcnamara
mcqueen
md
me
mea
meadows
mean
meat
mecca
meccanica
meccaniche
meccanici
meccanico
meccanismi
meccanismo
meccanizzata
mecenate
meclemburgo
med
medaglia
medaglie
medagliere
medaglione
medaglioni
medal
medea
medelli
medesima
medesime
medesimi
medesimo
medi
media
mediale
mediamente
mediana
mediano
mediante
mediaset
mediatica
mediatico
mediatore
mediazione
medica
medical
medicea
mediche
medici
medicina
medicinali
medicine
medico
medie
medieval
medievale
medievali
medii
medina
medio
mediocre
medioevale
medioevali
medioevo
mediolanum
mediomassimi
meditazione
mediterranea
mediterranean
mediterranee
mediterraneo
medium
medley
medusa
meet
meeting
meets
meg
mega
megan
meglio
mehmed
mehmet
mei
meiji
mein
meine
mel
mela
melanie
melbourne
melchiorre
mele
melfi
melford
meli
melina
melinda
melissa
mello
melo
melodia
melodica
melodico
melodie
melodramma
melody
meloni
melville
melvin
membra
membrana
membrane
membri
membro
memoirs
memorabile
memorabili
memorandum
memoria
memorial
memoriale
memorie
memories
memorizzazione
memory
memphis
men
mena
mendelssohn
mendes
mendoza
mendrisio
meno
mens
mensa
mensile
mensili
mensole
ment
mentale
mentali
mentalita
mentalmente
mente
mentha
menti
mentito
mento
mentore
mentre
menu
menziona
menzionare
menzionata
menzionate
menzionati
menzionato
menzione
menzogna
meo
mer
mera
merano
meraviglia
meraviglie
meravigliosa
meraviglioso
mercante
mercanti
mercantile
mercantili
mercati
mercato
merce
mercedes
mercenari
mercenario
mercer
merci
mercoledi
mercurio
mercury
mercy
meredith
meridiana
meridiano
meridionale
meridionali
meridione
merita
meritano
meriti
merito
merli
merlin
merlino
merlo
mero
merrill
merry
mervyn
mes
mesa
mescola
mese
mesi
mesopotamia
mesoregione
messa
message
messaggero
messaggi
messaggio
messe
messenger
messer
messi
messia
messiah
messicana
messicani
messicano
messico
messina
messinese
messo
mestiere
mestieri
mestre
met
meta
metabolismo
metacritic
metafisica
metafora
metal
metalli
metallica
metalliche
metallici
metallico
metallo
metamorfosi
metano
metastasio
mete
meteo
meteorite
meteorologia
meteorologica
meteorologiche
meteorologico
method
metodi
metodo
metodologia
metodologie
metri
metrica
metrico
metro
metropoli
metropolis
metropolita
metropolitan
metropolitana
metropolitane
metropolitano
mets
mette
mettendo
mettendosi
mettera
mettere
metterlo
mettersi
metteva
mettono
metz
mexico
meyer
meyers
mez
mezz
mezza
mezzaluna
mezzanotte
mezzetti
mezzi
mezzo
mezzogiorno
mf
mg
mgm
mhz
mi
mia
miami
mica
michael
michaela
michaels
michail
michajlovic
michel
michela
michelangelo
michele
micheli
michelin
michelle
michigan
mick
mickey
micro
microfono
microregione
microscopio
microsoft
mid
middle
middleton
midi
midnight
midollo
midway
midwest
mie
miei
miele
mig
mighty
miglia
migliaia
migliaio
miglio
miglior
migliora
miglioramenti
miglioramento
migliorando
migliorare
migliorata
migliorati
migliorato
migliore
migliori
migliorie
miglioro
migranti
migratori
migrazione
migrazioni
miguel
mihai
mika
mikael
mike
mikhail
miki
mil
mila
milan
milanese
milanesi
milani
milano
milazzo
mildred
mile
milena
miles
mileto
miley
miliardario
miliardi
miliardo
miliare
milionario
milione
milioni
milita
militante
militanti
militanza
militare
militari
militarmente
military
militato
militava
milito
militum
milizia
miliziani
milizie
milk
mill
mille
millenni
millennio
millennium
miller
millimetri
million
millionaire
mills
milo
milos
milton
milwaukee
mimesis
mimi
mimmo
min
mina
minacce
minaccia
minacciando
minacciare
minacciata
minacciati
minacciato
minacciava
minaccio
minardi
minas
minato
minatori
mincio
mind
minds
mine
mineiro
minerale
minerali
mineralogia
mineraria
minerarie
minerario
minerva
ming
minh
mini
miniato
miniatura
miniature
miniera
miniere
minima
minimamente
minime
minimi
minimizzare
minimo
miniserie
ministeri
ministeriale
ministero
ministri
ministro
ministry
minneapolis
minnesota
mino
minor
minoranza
minoranze
minore
minorenne
minorenni
minori
minorile
minsk
minute
minutes
minuti
minuto
mio
miocene
mir
mira
mirabile
miracle
miracoli
miracolo
miracolosa
miracolosamente
miracoloso
mirage
miranda
mirandola
mirano
mirava
mircea
mire
miriam
mirino
mirko
miro
mirror
mirza
mis
miscela
miscellanea
mischia
mise
miseria
misericordia
misero
miss
missa
missaggio
missile
missili
missing
mission
missionari
missionaria
missionarie
missionario
missione
missioni
mississippi
missouri
missy
mista
miste
mister
misteri
misteriosa
misteriosamente
misteriose
misteriosi
misterioso
mistero
misti
mistica
mistici
misticismo
mistico
misto
misura
misurano
misurare
misurata
misurato
misurava
misurazione
misurazioni
misure
mit
mitch
mitchell
mite
miti
mitica
mitico
mito
mitologia
mitologiche
mitologici
mitologico
mitra
mitragliatrice
mitragliatrici
mitragliere
mitridate
mitsubishi
mittente
mix
mixaggio
mixed
mixtape
miyazaki
miz
mk
ml
mlb
mls
mm
mma
mme
mn
mo
mob
mobile
mobili
mobilita
mobilitazione
moby
mod
moda
modalita
mode
model
modella
modellato
modellazione
modelle
modelli
modello
models
modena
modenese
moderata
moderatamente
moderati
moderato
modern
moderna
moderne
moderni
modernita
modernizzazione
moderno
modesta
modeste
modesti
modesto
modi
modica
modifica
modificando
modificare
modificata
modificate
modificati
modificato
modificazione
modificazioni
modifiche
modifico
modigliani
modo
modugno
modulare
modulazione
moduli
modulo
moe
mogadiscio
mogli
moglie
mogol
mohamed
mohammad
mohammed
moi
moira
moire
moires
mol
mola
molare
molari
moldavia
molde
mole
molecola
molecolare
molecolari
molecole
molestie
molfetta
molie
molina
molinari
molino
molise
molla
molle
molli
molluschi
molly
molo
molotov
molta
molte
molteplici
molteplicita
molti
moltiplicazione
moltissime
moltissimi
moltissimo
moltitudine
molto
mom
moment
momentaneamente
momentaneo
momenti
momento
mon
mona
monaca
monache
monachi
monaci
monaco
monarca
monarchi
monarchia
monarchici
monarchico
monarchie
monasteri
monastero
monastica
monastico
moncada
mondadori
monday
monde
mondi
mondiale
mondiali
mondo
mondovi
monet
moneta
monetaria
monetario
monetazione
monete
money
monfalcone
monferrato
mongola
mongoli
mongolia
mongolo
monica
monicelli
monique
monitor
monitoraggio
monitorare
monk
monkey
monnier
mono
monofora
monofore
monogatari
monografia
monografie
monogramma
monologo
monomotore
monoplano
monopoli
monopolio
monoposto
monreale
monroe
mons
monsieur
monsignor
monsignore
monster
monsters
mont
monta
montaggio
montagna
montagne
montalbano
montale
montalto
montana
montanari
montane
montanelli
montani
montano
montante
montanti
montare
montata
montate
montati
montato
montatore
montava
monte
montebello
montecarlo
montecassino
montecatini
montecchio
montefeltro
monteleone
montenegro
montepremi
montepulciano
montero
monterrey
montes
montevarchi
monteverdi
montevideo
montfort
montgomery
monthly
monti
monticelli
montichiari
montone
montoya
montpellier
montre
montreal
montreux
montuosa
montuose
montuosi
montuoso
monty
monument
monumenta
monumentale
monumentali
monumenti
monumento
monza
moody
moon
moonlight
moore
mora
morale
morales
morali
moralita
moran
morandi
morandini
moravia
morbida
morbide
morbido
morbo
more
moreau
morelli
morendo
moreno
morente
moretti
moretto
morfologia
morfologiche
morgan
morgana
mori
morira
morire
morirono
moritz
morning
moro
moroni
morosini
morra
morricone
morris
morrison
morrissey
morrow
morse
morso
mort
morta
mortai
mortaio
mortal
mortale
mortali
mortalita
mortalmente
mortara
morte
morti
mortimer
morto
morton
mos
mosa
mosaici
mosaico
mosca
mosche
moschea
moschee
moschettieri
moscow
mose
mosella
moser
moses
moss
mossa
mosse
mossero
mossi
mosso
most
mosto
mostra
mostrando
mostrano
mostrare
mostrarono
mostrata
mostrate
mostrati
mostrato
mostrava
mostravano
mostre
mostri
mostro
mostruoso
motel
mother
moti
motion
motivata
motivato
motivazione
motivazioni
motivi
motivo
moto
motocicletta
motociclette
motociclistica
motociclistico
motogp
motomondiale
motonave
motor
motore
motori
motorizzata
motorizzato
motorizzazione
motorizzazioni
motors
motorsport
motrice
motrici
motta
motto
motu
moulin
mount
mountain
mountains
mouse
mouth
move
movement
movente
movie
movies
movimenti
movimento
moving
moya
mozambico
mozart
mozilla
mozione
mp
mr
mrs
ms
msi
mt
mtv
mu
mucca
mucchio
much
mucosa
mugello
muh
muhammad
mulder
mulini
mulino
muller
mulligan
mulo
multa
multi
multimediale
multimediali
multinazionale
multinazionali
multipla
multiplayer
multiple
multipli
multiplo
multiverso
mumbai
mummia
mun
mundi
mundo
municipal
municipale
municipali
municipalita
municipio
munita
munite
muniti
munito
munizioni
munster
muoiono
muore
muove
muovendo
muovere
muoversi
muovono
muppet
mura
murad
muraglia
murale
murali
muraria
murarie
murario
murat
murata
murate
muratore
muratori
muratura
murcia
murder
murders
murdoch
muri
muro
murphy
murray
mursia
mus
musa
muscle
muscolare
muscolari
muscolatura
muscoli
muscolo
muse
museale
musei
museo
museum
music
musica
musical
musicale
musicali
musicalmente
musicato
musiche
musicista
musicisti
musicologo
musik
musique
muso
mussolini
must
mustafa
mustang
musulmana
musulmane
musulmani
musulmano
muta
mutamenti
mutamento
mutant
mutante
mutanti
mutare
mutato
mutazione
mutazioni
muti
muto
mutua
mutuo
muzio
mv
mvp
mw
mx
my
myanmar
myers
myself
myspace
myste
mysteries
mysterio
mystery
mystic
myth
n
na
nabla
nach
nacht
nacional
nacque
nacquero
nad
nada
nadal
nadia
nadir
nadu
nagano
nagasaki
nagorno
nagoya
nai
naik
nairobi
nakamura
naked
nam
name
names
namibia
namur
nan
nana
nanchino
nancy
nando
nane
nani
nanna
nanni
nannini
nano
nantes
naomi
napoleon
napoleone
napoleonica
napoleoniche
napoleonico
napoletana
napoletane
napoletani
napoletano
napoli
napolitano
nara
narbona
narciso
nardi
nardo
narici
narnia
naro
narra
narrano
narrante
narrata
narrate
narrati
narrativa
narrative
narrativi
narrativo
narrato
narratore
narrazione
naruto
nas
nasa
nasale
nasali
nascar
nasce
nascente
nascere
nasceva
nascita
nascite
nasconde
nascondere
nascondersi
nascondiglio
nascondono
nascono
nascose
nascosta
nascoste
nascosti
nascosto
nash
nashville
nasl
naso
nassau
nastri
nastro
nasty
nat
nata
natal
natale
natali
natalia
natalie
natalizia
natalizie
natalizio
natalya
natasha
nate
nathalie
nathan
nathaniel
nati
natia
nation
national
nationale
nations
nativa
native
nativi
nativita
nativo
nato
natura
natural
naturale
naturali
naturalis
naturalismo
naturalista
naturalistica
naturalistico
naturalizzato
naturalmente
nature
nau
naufraghi
naufragio
naughty
nausea
nautica
nautiche
nautico
nava
naval
navale
navali
navarra
navarro
navata
navate
nave
navetta
navi
navicella
navigabile
navigare
navigatore
navigazione
naviglio
navra
navy
naxos
nazareth
nazi
nazifascisti
nazionale
nazionali
nazionalismo
nazionalista
nazionalisti
nazionalita
nazionalsocialista
nazione
nazioni
nazismo
nazista
naziste
nazisti
nba
nbc
nc
ncaa
nchen
nchez
ncis
nd
nde
ndel
nder
ndez
ndrangheta
ne
neal
neanche
near
neat
nebbia
nebbie
nebraska
nebula
nebulosa
nec
necessari
necessaria
necessariamente
necessarie
necessario
necessita
necessitano
necessitava
necropoli
ned
need
nega
negare
negata
negativa
negativamente
negative
negativi
negativo
negato
negazione
negli
nego
negozi
negoziare
negoziati
negoziato
negoziazione
negozio
negri
negro
nei
neil
neill
nek
nel
nell
nella
nelle
nello
nelly
nelson
nemesi
nemica
nemiche
nemici
nemico
nemmeno
nemo
nen
nenni
neo
neoclassica
neoclassiche
neoclassicismo
neoclassico
neogotico
neolitico
neon
neonata
neonati
neonato
neopromossa
neopromosso
neozelandese
neozelandesi
nepal
neppure
nera
nerastro
nerazzurri
nere
neri
nero
nerone
nervature
nervi
nervo
nervosa
nervose
nervoso
nes
nesso
nessun
nessuna
nessuno
nest
nestor
net
netflix
nets
netta
nettamente
nettare
netto
nettuno
network
networks
neucha
neue
neumann
neuroni
neustadt
neutrale
neutrali
neutralita
neutralizzare
neutro
neutroni
nevada
neve
never
nevers
nevi
nevicate
neville
new
newark
newcastle
newell
newman
newport
news
newton
newyorkese
next
nexus
nez
nf
nfc
nfl
ng
ngc
ngel
nger
nh
nhk
nhl
ni
nia
nic
nica
nicaragua
nicchia
nicchie
niccolo
nice
nicea
niceforo
nichel
nicholas
nichols
nicholson
nicht
nick
nickelodeon
nicki
nicky
nico
nicola
nicolae
nicolai
nicolas
nicole
nicoletta
nicolo
nicosia
nidi
nidificazione
nido
nie
nielsen
nient
niente
nietzsche
nig
nigel
niger
nigeria
night
nightmare
nights
nigsberg
nigssee
nik
nike
niki
nikita
nikki
niko
nikola
nikolaevic
nikolaj
nikolaus
nikov
niles
nilo
nils
nilsson
nin
nina
nine
ninfa
ninfe
nini
ninja
nino
nintendo
nio
nipote
nipoti
nippon
nipponica
nipponico
niro
nirvana
nis
nissan
nitrato
nitro
nixon
niz
nizza
nk
nl
nm
nme
nn
no
noah
nobel
nobildonna
nobile
nobili
nobiliare
nobiliari
nobilta
noble
nobody
nocciolo
noce
nocera
noche
noci
nodi
nodo
noe
noel
noemi
noi
noia
noir
noire
noise
nokia
nola
nolan
noleggio
noli
nom
nomade
nomadi
nome
nomen
nomenclatura
nomenclature
nomi
nomina
nominale
nominando
nominare
nominata
nominati
nomination
nominativo
nominato
nomine
nomino
non
nona
nonche
nondimeno
none
nonna
nonni
nonno
nono
nonostante
nor
nora
norbert
norcia
nord
nordafrica
nordamerica
nordamericana
nordamericano
nordest
nordica
nordico
nordirlandese
nordoccidentale
nordorientale
nordovest
norfolk
norgesmesterskapet
norimberga
norma
normal
normale
normali
normalita
normalmente
norman
normandia
normanna
normanni
normanno
normativa
normative
normativi
normativo
norme
norrena
norreno
norris
norte
north
northern
northumberland
northwest
norton
norvegese
norvegesi
norvegia
norwich
nos
nostalgia
nostra
nostre
nostri
nostro
not
nota
notabili
notaio
notando
notano
notare
notarile
notata
notato
notazione
note
notes
notevole
notevoli
notevolmente
nothing
noti
notice
notifica
notificazione
notitia
notizia
notiziario
notizie
noto
notoc
notorieta
notre
notte
notti
nottingham
notturna
notturne
notturni
notturno
nou
nous
nouveau
nouvelle
nouvelles
nov
nova
novak
novanta
novara
novarese
nove
novecento
novel
novella
novelle
novelli
novello
november
novembre
novgorod
novi
novita
noviziato
novo
now
nowhere
nozione
nozioni
nozze
np
nr
ns
nster
nt
nter
nther
nu
nube
nubi
nuca
nuclear
nucleare
nucleari
nuclei
nucleo
nuda
nude
nudi
nudita
nudo
nueva
nuevo
nugent
nuggets
nuit
null
nulla
nulle
nullita
nullo
num
number
numbers
numerate
numerazione
numeri
numerica
numericamente
numerico
numero
numerosa
numerose
numerosi
numerosissime
numerosissimi
numeroso
numidia
numismatica
nun
nunzio
nuoro
nuotare
nuotatore
nuotatrice
nuoto
nuova
nuovamente
nuove
nuovi
nuovo
nur
nuraghe
nurse
nus
nutre
nutrienti
nutrimento
nutrire
nutrirsi
nutrito
nutriva
nutrizione
nutrono
nuvola
nuvole
nuziale
nwa
nxt
ny
nyi
nyj
nypd
o
oak
oakland
oam
oasi
oasis
oav
ob
obama
obbedienza
obbedire
obbiettivo
obbliga
obbligata
obbligati
obbligato
obbligatoria
obbligatoriamente
obbligatorio
obbligazione
obbligazioni
obblighi
obbligo
obelisco
obi
obici
obiettivi
obiettivo
obiezioni
object
oblast
oblio
oboe
observatory
observer
obsoleti
obsoleto
oc
oca
occasionale
occasionali
occasionalmente
occasione
occasioni
occhi
occhiali
occhio
occidentale
occidentali
occidente
occitania
occitano
occorre
occorrenza
occorso
occulto
occupa
occupando
occupandosi
occupano
occupanti
occupare
occuparono
occuparsi
occupata
occupate
occupati
occupato
occupava
occupavano
occupazione
occupazioni
occupo
ocean
oceani
oceania
oceanica
oceanici
oceano
och
oclc
ocra
oct
october
octopus
oculare
oculari
od
oda
odd
oddone
ode
odeon
oder
odescalchi
odessa
odi
odia
odierna
odierne
odierni
odierno
odino
odio
odissea
odore
odyssey
of
off
offensiva
offensive
offensivo
offerta
offerte
offerti
offerto
offesa
offeso
office
officer
official
officina
officine
offre
offrendo
offri
offrire
offrirono
offriva
offrono
og
oggetti
oggettiva
oggetto
oggi
oggigiorno
oglio
ogni
ognissanti
ognuna
ognuno
ographie
oh
ohio
oi
oil
ois
oise
ok
okinawa
oklahoma
ol
ola
olaf
olanda
olandese
olandesi
olbia
old
oldenburg
ole
oleg
olga
oli
oligocene
olimpia
olimpiade
olimpiadi
olimpica
olimpiche
olimpici
olimpico
olimpo
olio
oliva
olive
oliveira
oliver
olivetti
olivia
olivier
olivieri
oliviero
olivo
ollio
olmi
olmo
olocausto
ologie
olomouc
olona
olotipo
olschki
olsen
oltre
oltreche
oltremare
oltreoceano
oltretutto
olympia
olympiakos
olympic
olympique
om
omaggi
omaggio
omaha
oman
omar
ombra
ombre
ombrello
omega
omero
omettono
omicida
omicidi
omicidio
omnia
omnibus
omnium
omogenea
omogeneo
omologazione
omonima
omonimo
omosessuale
omosessuali
omosessualita
omri
oms
on
ona
once
onda
ondata
ondate
onde
one
onere
oneri
oneroso
ones
onesta
onesti
onesto
ong
online
onlus
only
ono
onofrio
onomastica
onomastico
onorare
onoraria
onorario
onorato
onore
onorevole
onori
onorificenza
onorificenze
onorifico
onorio
ons
ontario
onu
op
ope
opel
open
opening
opera
operai
operaia
operaie
operaio
operando
operano
operante
operanti
operare
operarono
operata
operati
operation
operations
operativa
operative
operativi
operativita
operativo
operato
operatore
operatori
operatorname
operava
operavano
operazione
operazioni
opere
operetta
opero
ophrys
opinione
opinioni
opinionista
oppio
oppone
opponeva
opporre
opporsi
opportunamente
opportune
opportuni
opportunita
opportuno
oppose
opposero
oppositore
oppositori
opposizione
opposizioni
opposta
opposte
opposti
opposto
oppressione
oppure
optional
opto
opus
opuscoli
opuscolo
opzione
opzioni
or
ora
oracle
oracolo
oral
orale
orali
oramai
orange
orari
oraria
orario
oratore
oratori
oratorio
orazio
orazione
orazioni
orbita
orbitale
orbitali
orbite
orbiter
orchestra
orchestrale
orchestrali
orchestre
orchi
orchidee
orco
orda
order
ordigni
ordigno
ordina
ordinamenti
ordinamento
ordinando
ordinanza
ordinanze
ordinare
ordinari
ordinaria
ordinarie
ordinario
ordinata
ordinate
ordinati
ordinato
ordinazione
ordine
ordini
ordino
ordito
ore
orecchie
orecchio
oregon
oreste
orfana
orfani
orfano
orfanotrofio
orfeo
org
organi
organica
organiche
organici
organico
organigramma
organismi
organismo
organista
organization
organizza
organizzando
organizzano
organizzare
organizzarono
organizzata
organizzate
organizzati
organizzativa
organizzative
organizzativo
organizzato
organizzatore
organizzatori
organizzazione
organizzazioni
organizzo
organo
organolettiche
orgoglio
orgoglioso
ori
orient
oriental
orientale
orientali
orientamenti
orientamento
orientata
orientate
orientati
orientation
orientato
oriente
origin
origina
original
originale
originali
originalita
originari
originaria
originariamente
originarie
originario
originato
origine
origini
origins
orion
orione
oristano
orizzontale
orizzontali
orizzontalmente
orizzonte
orizzonti
orlandi
orlando
orle
orleans
orlo
ormai
orme
ormone
ormoni
ornamentale
ornamentali
ornamenti
ornamento
ornata
ornati
ornato
ornella
oro
orologi
orologio
orribile
orrore
orrori
orsa
orsay
orsi
orsini
orso
orsola
orson
orta
ortaggi
ortega
orti
ortiz
orto
ortodossa
ortodosse
ortodossi
ortodossia
ortodosso
ortografia
ortolani
orton
ortona
orvieto
orzo
os
osa
osaka
osborn
osborne
osbourne
oscar
oscilla
oscillazione
oscillazioni
oscura
oscure
oscuri
oscurita
oscuro
osimo
osiride
oskar
oslo
osman
oso
ospedale
ospedali
ospedaliera
ospedaliero
ospita
ospitalita
ospitano
ospitante
ospitare
ospitata
ospitate
ospitati
ospitato
ospitava
ospite
ospiti
ospito
ospizio
ossa
ossea
ossei
osseo
osserva
osservabile
osservando
osservano
osservanza
osservare
osservata
osservate
osservati
osservato
osservatore
osservatori
osservatorio
osservazione
osservazioni
osservo
ossessionato
ossessione
ossia
ossidazione
ossidi
ossido
ossigeno
osso
ossola
ost
ostacolare
ostacolato
ostacoli
ostacolo
ostaggi
ostaggio
oste
osteria
ostia
ostile
ostili
ostilita
ostrava
ostrogoti
osvaldo
oswald
otello
other
otis
otranto
ott
ottagonale
ottanta
ottava
ottavi
ottaviano
ottavio
ottavo
ottawa
ottenendo
ottenere
ottengono
ottenimento
ottenne
ottennero
ottenuta
ottenute
ottenuti
ottenuto
otterra
ottica
ottiche
ottici
ottico
ottiene
ottima
ottimale
ottime
ottimi
ottimismo
ottimizzare
ottimizzazione
ottimo
otto
ottobre
ottocentesca
ottocentesco
ottocento
ottoman
ottomana
ottomane
ottomani
ottomano
ottone
ottoni
otturatore
ou
ouest
our
out
outdoor
outer
output
outside
outstanding
ouverture
ov
ova
ovale
ovali
ovario
ove
over
overdose
overline
ovest
ovidio
oviedo
ovunque
ovvero
ovviamente
ovviare
ovvio
owen
owens
own
oxford
oz
ozzy
p
pa
pablo
pac
pacchetti
pacchetto
pacco
pace
paci
pacific
pacifica
pacificamente
pacificazione
pacifico
pacifista
pacini
pack
package
packers
paco
pad
padana
padiglione
padiglioni
padova
padovani
padovano
padre
padri
padrino
padrona
padronale
padronanza
padrone
padroni
paesaggi
paesaggio
paesaggistico
paese
paesi
paesino
pag
paga
pagamenti
pagamento
pagana
pagando
pagani
paganini
pagano
pagare
pagata
pagate
pagati
pagato
page
pages
pagg
pagina
pagine
paglia
pago
pagoda
pai
paia
paige
pain
painting
paio
pak
pakistan
pal
pala
palace
paladini
paladino
palais
palasport
palatina
palatinato
palatino
palato
palau
palazzetto
palazzi
palazzina
palazzo
palazzolo
palchi
palco
palcoscenico
pale
paleocristiana
paleolitico
paleologo
paleontologia
paleontology
palermitano
palermo
palese
palestina
palestinese
palestinesi
palestra
palestrina
pali
palinsesto
palio
paliotto
palla
pallacanestro
palladio
pallamano
pallanuoto
pallavicini
pallavicino
pallavolista
pallavolo
palle
pallida
pallido
pallone
palloni
pallottola
palm
palma
palmare
palmas
palme
palmeiras
palmer
palmi
palmieri
palmo
palo
palude
paludi
palumbo
paluzzi
paluzzo
pam
pamela
pamphilj
pamplona
pan
panama
panamericana
panamericani
panathinaikos
panca
panchina
panchine
pancia
pancrazio
panda
pandemia
pandolfo
pandora
pane
pani
panic
panico
panini
panna
pannelli
pannello
panni
panno
pannonia
panorama
panoramica
pantaloncini
pantaloni
pantera
pantheon
panther
panthers
panzer
paola
paoli
paolina
paoline
paolini
paolino
paolo
papa
papale
papali
papato
paper
paperino
paperone
papers
papi
papiro
pappagallo
pappo
papua
par
para
parabola
parabrezza
paracadute
paracadutisti
parade
paradigma
paradise
paradiso
paradossalmente
paradosso
paragonabile
paragonabili
paragonata
paragonato
paragone
paragrafi
paragrafo
paraguay
parai
paralimpica
paralimpici
paralisi
parallela
parallelamente
parallele
paralleli
parallelo
paramenti
paramento
parametri
parametro
paramilitari
paramount
parana
parapetto
parassita
parassiti
paraste
parata
parate
paraurti
parc
parcheggio
parchi
parco
pardo
pare
parecchi
parecchie
parecchio
pareggi
pareggiando
pareggiata
pareggiato
pareggio
parente
parentela
parentesi
parenti
parere
pareri
parete
pareti
pareva
pari
paride
parigi
parigina
parigini
parigino
parimenti
paris
parisi
parita
park
parker
parkinson
parks
parla
parlamentare
parlamentari
parlamento
parlando
parlano
parlante
parlanti
parlare
parlata
parlate
parlato
parlava
parlavano
parli
parlo
parma
parmense
parodi
parodia
parodie
parola
parole
paroliere
parra
parrocchia
parrocchiale
parrocchiali
parrocchie
parroco
pars
parsec
parsons
part
parte
partecipa
partecipando
partecipano
partecipante
partecipanti
partecipare
parteciparono
partecipato
partecipava
partecipavano
partecipazione
partecipazioni
partecipera
partecipo
partendo
partenkirchen
partenopea
partente
partenza
partenze
parti
partial
particella
particelle
participio
particolar
particolare
particolari
particolarita
particolarmente
partido
partigiana
partigiane
partigiani
partigiano
partire
partirono
partita
partite
partiti
partito
partitura
partiva
partizan
partizione
partner
partners
partnership
parto
partono
parts
party
parve
parziale
parziali
parzialmente
pas
pascal
pascia
pascoli
pascolo
pasha
paso
pasolini
pasqua
pasquale
pasquali
pass
passa
passage
passaggi
passaggio
passando
passano
passante
passanti
passaporto
passare
passarono
passata
passate
passati
passato
passava
passavano
passeggeri
passeggero
passeggiata
passeggiate
passer
passera
passerella
passi
passion
passione
passioni
passiva
passivo
passo
password
past
pasta
pasti
pasticceria
pasto
pastor
pastorale
pastorali
pastore
pastori
pastorizia
pat
patagonia
patata
patate
patch
patente
patenti
pater
paterna
paternita
paterno
path
pathe
patologia
patologica
patologie
patrese
patria
patriarca
patriarcale
patriarcato
patriarchi
patrice
patricia
patrick
patrigno
patrimoni
patrimoniale
patrimonio
patriota
patrioti
patriots
patriottica
patriottico
patrizi
patrizia
patriziale
patriziato
patrizio
patrocinio
patrol
patron
patrona
patronale
patronato
patroni
patrono
pattern
patterson
patti
pattinaggio
patto
patton
pattuglia
pattugliamento
patty
pau
paul
paula
pauli
pauline
paulista
paulo
paulus
paura
paure
pausa
pausania
pause
pausini
pavarotti
pavel
pavese
pavesi
pavia
pavimentazione
pavimenti
pavimento
pavone
pax
pay
payne
pays
paz
paziente
pazienti
pazienza
pazza
pazzi
pazzia
pazzo
pb
pc
pci
pct
pd
pdf
pdl
pe
peace
peach
peak
peaks
pearce
pearl
pearson
pec
peccati
peccato
pechino
peck
peckham
pecora
pecore
peculiare
peculiari
peculiarita
pedagogia
pedale
pedaliera
pedina
pedonale
pedone
pedoni
pedro
peduncolo
peel
peer
pegaso
pegasus
peggio
peggior
peggioramento
peggiorare
peggiore
peggiori
peggy
pegno
pei
pel
peli
pelle
pellegrinaggi
pellegrinaggio
pellegrini
pellegrino
pelli
pelliccia
pellicola
pellicole
pelo
peloponneso
pen
pena
penale
penali
penalita
penalizzato
penalizzazione
pendente
pendenza
pendici
pendii
pendio
pene
penelope
penetra
penetrare
penetrazione
peng
penguin
penisola
penitenza
penitenziario
penn
penna
pennacchi
penne
pennello
pennsylvania
penny
pensa
pensando
pensano
pensare
pensata
pensato
pensatori
pensava
pensavano
pensi
pensieri
pensiero
pensionamento
pensione
pensioni
penso
pentagono
pentameri
pentathlon
pentecoste
pentimento
pentito
pentium
pentola
penultima
penultimo
people
pepe
peperoncino
peppe
pepper
peppino
per
pera
peraltro
percentuale
percentuali
percepire
percepisce
percepita
percepito
percezione
perche
percio
percorre
percorrendo
percorrenza
percorrere
percorrono
percorsa
percorse
percorsi
percorso
percussione
percussioni
percy
perde
perdendo
perdente
perdenti
perdera
perdere
perdita
perdite
perdona
perdonare
perdono
perduta
perdute
perduti
perduto
pere
pereira
perenne
perennemente
perenni
perez
perfect
perfetta
perfettamente
perfetti
perfetto
perfezionamento
perfezionato
perfezione
perfino
perforazione
performance
performer
performing
pergamena
pergola
peri
pericle
pericoli
pericolo
pericolosa
pericolose
pericolosi
pericolosita
pericoloso
periferia
periferica
periferiche
periferici
periferico
perimetrali
perimetro
period
periodi
periodica
periodicamente
periodiche
periodici
periodico
periodo
perito
perizia
perkins
perla
perle
perlopiu
permanente
permanentemente
permanenti
permanenza
permessi
permesso
permette
permettendo
permettendogli
permettera
permettere
permettergli
permettersi
permetteva
permettevano
permettono
permise
permisero
perno
pero
perpendicolare
perpetua
perpetuo
perplessita
perrin
perrone
perry
pers
persa
perse
persecuzione
persecuzioni
perseguire
perseguitati
perseguitato
perseguito
perseo
persero
persi
persia
persiana
persiane
persiani
persiano
persico
persino
persistente
persistenti
perso
person
persona
personaggi
personaggio
personal
personale
personali
personalita
personalmente
persone
personificazione
persuadere
pertanto
perth
pertinenti
pertinenza
pertini
peru
perugia
perugino
peruviana
peruviano
peruzzi
pervenire
pes
pesa
pesante
pesantemente
pesanti
pesaro
pesava
pesca
pescara
pescatore
pescatori
pesce
peschiera
pesci
pescia
pesi
peso
pessima
pessime
pessimo
peste
pestilenza
pet
petali
pete
peter
peters
petersburg
petersen
peterson
petit
petite
petizione
petr
petra
petrarca
petri
petrie
petrolifera
petrolio
petronio
petrovic
petrucci
petrus
petto
pettorale
pettorali
peugeot
peyton
pez
pezzi
pezzo
pf
pg
ph
phane
phantom
phase
phi
phil
philadelphia
philharmonic
philharmoniker
philip
philipp
philippe
philips
phillip
phillips
philosophie
philosophy
phoebe
phoenix
phone
photo
php
phyllis
physical
physics
pi
pia
piace
piacentini
piacentino
piacenza
piacere
piaceri
piaceva
piacevole
piacimento
piacque
piaggio
pian
piana
pianale
piane
pianeggiante
pianeta
pianeti
piange
piangere
piani
pianificare
pianificata
pianificato
pianificazione
pianista
piano
pianoforte
pianoforti
pianoro
pianta
piantagione
piantagioni
piante
pianto
pianura
pianure
piastra
piastre
piastrelle
piatta
piattaforma
piattaforme
piatti
piatto
piave
piazza
piazzaforte
piazzale
piazzamenti
piazzamento
piazzandosi
piazzata
piazzati
piazzato
piazze
piazzetta
piazzo
pic
picard
picasso
picchi
picchiata
picchiato
picchio
picciolo
piccioni
picco
piccola
piccole
piccoli
piccolo
piccolomini
piceno
pick
pickwick
picnic
pico
picture
pictures
pie
piece
pieces
piede
piedi
piedistallo
piega
pieghe
piemme
piemonte
piemontese
piemontesi
piena
pienamente
piene
pieni
pieno
pier
pierce
piercing
pierino
pierluigi
piero
pierre
pieta
pieter
pietra
pietrangeli
pietrasanta
pietre
pietro
pietroburgo
pieve
pievi
pig
pigmenti
pignatelli
pike
pil
pila
pilar
pilastri
pilastro
pilato
pile
pillole
pilone
piloni
pilot
pilota
pilotaggio
pilotato
piloti
pin
pina
pinacoteca
pine
pinelli
pinerolo
pineta
ping
pinguini
pinguino
pini
pink
pinna
pinne
pino
pinocchio
pinto
pinus
pinyin
pio
piogge
pioggia
piola
piombino
piombo
pioneer
pioniere
pionieri
piove
pipa
pipe
piper
pipino
pipistrelli
pipistrello
pippo
piquet
piramidale
piramide
piramidi
pirandello
pirata
pirate
pirateria
pirates
pirati
pirelli
pirenei
pireo
piroscafi
piroscafo
pirro
pisa
pisana
pisani
pisano
piscina
pista
piste
pistoia
pistoiese
pistola
pistole
pistone
pistoni
pistons
pit
pitagora
pitt
pitti
pittore
pittori
pittorica
pittoriche
pittorici
pittorico
pittrice
pittsburgh
pittura
pitture
piu
piuma
piumaggio
piume
pius
piuttosto
pixel
pizza
pizzi
pizzo
pk
pl
pla
placare
placca
placche
place
places
placid
placido
plagio
plain
plan
plancia
planck
plane
planet
planetario
planimetria
plant
plasma
plastic
plastica
plastiche
plastico
plata
plate
platea
plateau
platform
platino
platinum
platnick
platone
plausibile
play
playboy
player
players
playhouse
playing
playoff
playoffs
plays
playstation
plaza
please
pleasure
plebe
plebiscito
pleistocene
pli
plinio
plotone
plu
plurale
pluralita
plurinominale
plus
plutarco
pluto
plutone
pluviale
plymouth
plzen
pm
pmatrix
pmid
pneumatici
pneumatico
png
pnl
po
pob
poca
poche
pochi
pochissime
pochissimi
pochissimo
pocket
poco
pod
podcast
podere
podesta
podi
podio
poe
poema
poemetto
poemi
poems
poesia
poesie
poeta
poetessa
poeti
poetica
poetiche
poetici
poetico
poetry
poggi
poggia
poggio
poi
poiche
point
points
poirot
poison
poitiers
poitou
poke
poker
pol
pola
polacca
polacche
polacchi
polacco
polare
polari
polarizzazione
pole
polemica
polemiche
polenta
polesine
poli
polibio
police
policroma
policromi
policromo
policy
poligonale
poligono
polimeri
polinomio
polis
polisportiva
politecnico
politica
political
politicamente
politiche
politici
politico
politics
polittico
polivalente
polizia
poliziesco
poliziotti
poliziotto
polk
polka
pollack
pollard
polli
pollice
pollici
polline
pollo
polly
polmonare
polmone
polmoni
polmonite
polo
polonia
polpa
polso
poltrona
polvere
polveri
polydor
polyscope
pomerania
pomeriggio
pomodori
pomodoro
pompa
pompe
pompei
pompeo
pompieri
pon
pone
ponendo
ponendosi
ponente
poneva
pongono
pons
pont
ponte
pontecorvo
pontedera
pontefice
pontefici
ponti
pontificato
pontifici
pontificia
pontificie
pontificio
ponto
pontremoli
pony
ponzio
pooh
pool
poole
poor
pop
pope
popolano
popolare
popolari
popolarita
popolarmente
popolata
popolato
popolazione
popolazioni
popoli
popolo
popolosa
poppa
popular
population
por
porcellana
pordenone
porn
porno
pornografia
pornografico
porpora
porre
porro
porsche
porsi
port
porta
portabandiera
portable
portaerei
portafoglio
portal
portale
portali
portamento
portando
portandola
portandolo
portandosi
portano
portante
portanti
portare
portarla
portarlo
portarono
portarsi
portata
portate
portati
portatile
portatili
portato
portatore
portatori
portava
portavano
portavoce
porte
portellone
porter
portera
porteranno
porti
porticato
portici
portico
portiere
portieri
portland
porto
portogallo
portoghese
portoghesi
portogruaro
portone
portrait
portsmouth
portuale
portuali
portugal
porzione
porzioni
pos
posa
posato
pose
poseidone
posero
position
positiva
positivamente
positive
positivi
positivo
posiziona
posizionamento
posizionare
posizionata
posizionate
posizionati
posizionato
posizione
posizioni
possa
possano
posse
possedere
possedeva
possedevano
possedimenti
possedimento
posseduta
posseduti
posseduto
posseggono
possente
possenti
possesso
possessore
possessori
possiamo
possibile
possibili
possibilita
possibilmente
possible
possiede
possiedono
posso
possono
post
posta
postale
postali
postazione
postazioni
poste
poster
posteriore
posteriori
posteriormente
postfazione
posti
posticipata
posto
postuma
postumi
postumo
postura
pot
potabile
potassio
pote
potendo
potente
potenti
potenza
potenze
potenziale
potenziali
potenzialita
potenzialmente
potenziamento
potenziare
potenziata
potenziato
poter
potere
poteri
poterla
poterlo
poterono
potersi
potesse
potessero
potesta
poteva
potevano
potra
potranno
potrebbe
potrebbero
potsdam
potter
potuto
poule
pound
pour
povera
povere
poveri
povero
poverta
powell
power
powers
pozione
poznan
pozza
pozzi
pozzo
pozzuoli
pp
ppv
pr
pra
practice
prada
pradesh
prado
praga
prairie
pranzo
prassi
prata
prateria
praterie
prati
pratica
praticamente
praticano
praticante
praticanti
praticare
praticata
praticato
pratiche
pratici
pratico
prato
pratt
prayer
pre
prealpi
preavviso
precaria
precarie
precede
precedendo
precedente
precedentemente
precedenti
precedenza
precedette
precedono
preceduta
preceduto
precetti
precettore
precipita
precipitare
precipitato
precipitazioni
precipito
precisa
precisamente
precisare
precisato
precise
precisi
precisione
preciso
precoce
precocemente
precursore
precursori
preda
predator
predatore
predatori
prede
predecessore
predecessori
predella
predetto
predica
predicare
predicato
predicatore
predicatori
predicazione
predilezione
predilige
predisposizione
predisposto
predominante
predominio
preesistente
preesistenti
prefazione
preferendo
preferenza
preferenze
preferi
preferibile
preferibilmente
preferire
preferirono
preferisce
preferiscono
preferita
preferite
preferiti
preferito
preferiva
prefetti
prefetto
prefettura
prefetture
prefisso
prega
pregare
pregevole
pregevoli
preghiera
preghiere
pregiati
pregio
pregiudizi
pregiudizio
prego
preistoria
preistorica
preistorici
preistorico
prelati
prelato
prelevare
prelevati
prelevato
prelievo
preliminare
preliminari
preludio
prem
prematura
prematuramente
premessa
premesse
premi
premiare
premiata
premiati
premiato
premiazione
premie
premier
premiership
premio
premium
prenda
prende
prendendo
prendera
prendere
prendersi
prendeva
prendevano
prendono
prenomi
preoccupa
preoccuparsi
preoccupata
preoccupati
preoccupato
preoccupazione
preoccupazioni
prepara
preparando
preparano
preparare
prepararsi
preparata
preparate
preparati
preparativi
preparato
preparatore
preparatori
preparava
preparazione
preparo
preposto
prequel
prerogativa
prerogative
pres
presa
presbiterale
presbiterio
presbitero
prescelto
prescindere
prescott
prescritto
prescrizione
prescrizioni
prese
present
presenta
presentando
presentandosi
presentano
presentare
presentarono
presentarsi
presentata
presentate
presentati
presentato
presentatore
presentava
presentavano
presentazione
presentazioni
presente
presenti
presento
presents
presenza
presenze
presepe
presero
preservare
presi
preside
president
presidente
presidenti
presidenza
presidenziale
presidenziali
presidi
presidio
presiede
presieduta
presieduto
presley
preso
press
presse
pressi
pressione
pressioni
presso
pressoche
pressure
presta
prestando
prestare
prestato
prestava
prestazione
prestazioni
prestige
prestigio
prestigiosa
prestigiose
prestigiosi
prestigioso
prestiti
prestito
presto
preston
presume
presumibilmente
presunta
presunte
presunti
presunto
presuppone
presupposti
presupposto
prete
pretende
pretendente
pretendenti
pretesa
pretese
pretesto
preti
pretore
pretorio
prettamente
pretty
preuves
prevale
prevalente
prevalentemente
prevalenza
prevalere
prevalse
prevede
prevedendo
prevedere
prevedeva
prevedevano
prevedibile
prevedono
prevenire
preventiva
preventivamente
preventivo
prevenzione
previa
previdenza
previo
previsione
previsioni
prevista
previste
previsti
previsto
prevosto
prey
preziosa
preziose
preziosi
prezioso
prezzi
prezzo
pri
price
pride
priest
prigione
prigioni
prigionia
prigioniera
prigionieri
prigioniero
prima
primari
primaria
primarie
primario
primate
primati
primato
primavera
primaverile
prime
primeira
primera
primi
primis
primissimi
primitiva
primitive
primitivi
primitivo
primo
primogenita
primogenito
primordiale
prince
princeps
princess
princeton
princi
principale
principali
principalmente
principati
principato
principe
principessa
principesse
principi
principio
print
prinz
priorato
priore
priori
priorita
priscilla
prisco
prisma
prison
priva
privacy
privata
privatamente
private
privati
privatizzazione
privato
prive
privi
privilegi
privilegiata
privilegiato
privilegio
privo
prix
prize
pro
probabile
probabili
probabilita
probabilmente
problem
problema
problematica
problematiche
problematico
problemi
proc
procede
procedendo
procedere
procedette
procedeva
procedimenti
procedimento
procedura
procedure
proceedings
process
processato
processi
processione
processioni
processo
processore
processori
processuale
procinto
proclama
proclamata
proclamato
proclamazione
proclamo
proconsole
procopio
procura
procurarsi
procurato
procuratore
procuratori
procuro
prod
prodi
prodigio
prodigo
prodotta
prodotte
prodotti
prodotto
produce
producendo
producer
produceva
producevano
producono
production
productions
produrre
produsse
produssero
produttiva
produttive
produttivi
produttivita
produttivo
produttore
produttori
produttrice
produzione
produzioni
prof
professional
professionale
professionali
professionalita
professione
professioni
professionismo
professionista
professionisti
professionistica
professionistico
professor
professore
professoressa
professori
profeta
profeti
profezia
profezie
profile
profili
profilo
profit
profitti
profitto
profonda
profondamente
profonde
profondi
profondita
profondo
profughi
profumi
profumo
progetta
progettando
progettare
progettata
progettate
progettati
progettato
progettazione
progetti
progettista
progettisti
progetto
progettuale
prognosi
program
programma
programmata
programmato
programmatore
programmatori
programmazione
programmi
progredire
progress
progressi
progressione
progressista
progressisti
progressiva
progressivamente
progressive
progressivo
progresso
proibi
proibita
proibiti
proibito
proiettato
proietti
proiettile
proiettili
proiezione
proiezioni
project
prole
proletaria
proletariato
proliferazione
prolifico
prologo
prolunga
prolungamento
prolungare
prolungata
prolungato
promessa
promesse
promessi
promesso
prometeo
promette
promettendo
promettente
promettenti
prominente
promise
promo
promontorio
promossa
promosse
promossi
promosso
promotore
promotori
promozionale
promozionali
promozione
promozioni
promulgata
promulgazione
promuove
promuovendo
promuovere
pronao
pronipote
pronome
pronomi
pronta
prontamente
pronte
pronti
pronto
pronuncia
pronunciare
pronunciata
pronunciate
pronunciato
pronuncio
proof
propaganda
propagazione
propellente
propensione
propone
proponendo
proponeva
propongono
proporre
proporzionale
proporzione
proporzioni
propose
proposero
propositi
proposito
proposizione
proposizioni
proposta
proposte
proposti
proposto
propri
propria
propriamente
proprie
proprieta
proprietari
proprietaria
proprietario
proprio
propulsione
propulsore
propulsori
prosa
prosciutto
prose
prosecuzione
prosegue
proseguendo
prosegui
proseguimento
proseguire
proseguirono
proseguita
proseguito
proseguiva
proseguono
prosieguo
prosopographie
prosperita
prospero
prospetti
prospettiva
prospettive
prospetto
prospiciente
prossima
prossime
prossimi
prossimita
prossimo
prost
prostituta
prostitute
prostituzione
protagonista
protagoniste
protagonisti
protection
protegge
proteggere
proteggerla
proteggersi
protein
proteina
proteine
protesi
protesta
protestante
protestantesimo
protestanti
protestare
proteste
protetta
protette
protetti
protettiva
protettivo
protetto
protettorato
protettore
protettori
protettrice
protezione
protezioni
proto
protocol
protocolli
protocollo
prototipi
prototipo
protrasse
proust
prova
provando
provano
provare
provata
provato
provava
prove
provence
provengono
proveniente
provenienti
provenienza
provenire
proveniva
provenivano
proventi
provenza
provenzale
proverbi
providence
proviene
province
provincia
provinciale
provinciali
provincie
provini
provino
provo
provoca
provocando
provocano
provocare
provocarono
provocata
provocati
provocato
provoco
provvede
provvedere
provvedimenti
provvedimento
provveditore
provveduto
provvide
provvidenza
provvisoria
provvisoriamente
provvisorio
provvista
provviste
provvisti
provvisto
pru
prua
prudente
prudenza
prussia
prussiana
prussiani
prussiano
prva
ps
psd
psdi
pseudo
pseudonimo
psi
psiche
psichiatra
psichiatria
psichiatrico
psichica
psichici
psicoanalisi
psicologi
psicologia
psicologica
psicologiche
psicologici
psicologico
psicologo
psicoterapia
psv
psycho
psychology
pt
pu
pub
pubblica
pubblicamente
pubblicando
pubblicano
pubblicare
pubblicarono
pubblicata
pubblicate
pubblicati
pubblicato
pubblicazione
pubblicazioni
pubbliche
pubblici
pubblicita
pubblicitari
pubblicitaria
pubblicitarie
pubblicitario
pubblico
pubescente
public
publications
publio
publique
published
publishers
publishing
pucci
puccini
pueblo
puerto
puffi
pugilato
pugile
pugili
puglia
pugliese
pugliesi
pugnale
pugni
pugno
pulcini
pulita
pulito
pulitzer
pulizia
pullman
pulp
pulpito
pulsante
pulsanti
puma
punch
punica
punire
puniti
punito
punizione
punizioni
punjab
punk
punt
punta
puntamento
puntando
puntare
puntata
puntate
punte
punteggi
punteggio
punti
punto
puntualmente
puo
puoi
pupa
pupazzo
pupi
pur
pura
puramente
purcell
purche
pure
purezza
purgatorio
puri
purificazione
puro
purple
purtroppo
pus
push
pussy
pusteria
put
putin
putnam
putti
puy
puzzle
pv
px
python
q
qa
qatar
qi
qin
qing
qquad
qu
qua
quad
quaderni
quaderno
quadrangolare
quadrante
quadrata
quadrate
quadrati
quadrato
quadri
quadriennale
quadro
quae
quai
qual
qualche
qualcosa
qualcun
qualcuno
quale
quali
qualifica
qualificandosi
qualificano
qualificarsi
qualificata
qualificate
qualificati
qualificato
qualificazione
qualificazioni
qualifiche
qualifico
qualita
quality
qualora
qualsiasi
qualunque
quan
quand
quando
quant
quanta
quante
quanti
quantistica
quantita
quantitativi
quantitativo
quanto
quantomeno
quantum
quantunque
quarant
quaranta
quarantena
quarantina
quaresima
quark
quarta
quarterback
quarterly
quartet
quartetti
quartetto
quarti
quartier
quartiere
quartieri
quarto
quarzo
quasi
quatre
quattordicesima
quattordicesimo
quattordici
quattro
quattrocentesca
quattrocentesco
quattrocento
que
quebec
queen
queens
queensland
queer
quegli
quei
quel
quell
quella
quelle
quelli
quello
quentin
querce
quercia
quercus
quesito
quest
questa
queste
questi
question
questione
questioni
questo
questore
questura
qui
quick
quien
quiet
quiete
quincy
quindi
quindicenne
quindicesima
quindicesimo
quindici
quinn
quinquennale
quinquennio
quinta
quintana
quinte
quintetto
quintino
quinto
quipe
quirico
quirinale
quirino
quito
quivi
quiz
quo
quod
quorum
quota
quotata
quote
quotidiana
quotidianamente
quotidiane
quotidiani
quotidiano
quoziente
r
ra
rabat
rabaul
rabbi
rabbia
rabbini
rabbino
rabbit
racchiude
racchiusa
racchiuso
raccoglie
raccogliendo
raccogliere
raccoglieva
raccolgono
raccolse
raccolta
raccolte
raccolti
raccolto
raccomanda
raccomandato
raccomandazione
raccomandazioni
raccomando
racconta
raccontando
raccontano
raccontare
raccontata
raccontato
racconti
racconto
raccordo
race
rachel
rachele
racing
rada
radar
raddoppio
radiale
radiali
radiato
radiatore
radiazione
radiazioni
radical
radicale
radicali
radicalmente
radicata
radice
radici
radio
radioattivo
radiofonica
radiofoniche
radiofonici
radiofonico
rado
radu
radunare
raduno
rae
raf
rafael
raffaele
raffaella
raffaello
raffica
raffigura
raffigurano
raffigurante
raffiguranti
raffigurata
raffigurate
raffigurati
raffigurato
raffigurazione
raffigurazioni
raffinata
raffinati
raffinato
rafforzamento
rafforzare
rafforzata
rafforzato
rafforzo
raffreddamento
raffreddato
ragazza
ragazze
ragazzi
ragazzina
ragazzini
ragazzino
ragazzo
rage
raggi
raggio
raggiunge
raggiungendo
raggiungera
raggiungere
raggiungerlo
raggiungeva
raggiungibile
raggiungimento
raggiungono
raggiunse
raggiunsero
raggiunta
raggiunte
raggiunti
raggiunto
raggruppa
raggruppamenti
raggruppamento
raggruppate
raggruppati
ragion
ragionamento
ragionare
ragione
ragionevole
ragioni
ragni
ragno
ragusa
rai
raid
raider
raiders
rail
railroad
railway
raimi
raimon
raimondi
raimondo
rain
rainbow
rainer
raj
raja
rajon
ral
rale
ralf
rallentamento
rallentare
rally
ralph
ram
rama
rame
rami
ramirez
ramo
ramon
ramos
rampa
rampante
rampe
rams
ramsay
ramses
ramsey
ran
rana
ranch
rancore
rand
randall
randolph
random
randy
rane
range
ranger
rangers
ranghi
rangle
rango
ranieri
ranking
ranunculus
rao
raoul
rap
rapaci
rapallo
raphael
rapid
rapida
rapidamente
rapide
rapidi
rapidita
rapido
rapids
rapimento
rapina
rapine
rapire
rapisce
rapita
rapito
rapper
rapporti
rapporto
rappresaglia
rappresaglie
rappresenta
rappresentando
rappresentano
rappresentante
rappresentanti
rappresentanza
rappresentare
rappresentata
rappresentate
rappresentati
rappresentativa
rappresentative
rappresentativi
rappresentativo
rappresentato
rappresentava
rappresentavano
rappresentazione
rappresentazioni
rappresento
raptors
raquel
rara
raramente
rard
rare
rari
rarita
raro
ras
rasa
rase
raso
rassegna
rassegne
rassegno
rassicura
rastrellamento
rat
rate
ratifica
ratificato
rating
ratio
ration
ratisbona
ratti
ratto
rau
raul
ravel
raven
ravenna
ravennate
ravens
ravvicinata
ravvicinati
ravvicinato
raw
ray
raymond
razionale
razionali
razionalismo
razionalita
razza
razze
razzi
razziale
razziali
razzie
razzismo
razzista
razzo
rb
rbi
rburgring
rc
rca
rchb
rcs
rd
rdoba
re
rea
reach
read
reader
reading
ready
reagan
reagi
reagire
reagisce
real
reale
reali
realismo
realista
realisti
realistica
realistico
reality
realizza
realizzando
realizzano
realizzare
realizzarono
realizzata
realizzate
realizzati
realizzato
realizzatore
realizzazione
realizzazioni
realizzo
really
realmente
realta
reame
reason
reati
reato
reattore
reattori
reazione
reazioni
rebecca
rebel
rebellion
rebiba
reboot
rec
reca
recanati
recano
recante
recanti
recarono
recarsi
recato
recava
recavano
recco
recensione
recensioni
recente
recentemente
recenti
recessione
recettore
recettori
recherche
recinto
recinzione
recipiente
reciproca
reciprocamente
reciproco
recita
recital
recitando
recitare
recitativo
recitato
recitava
recitazione
recito
reclamare
reclamo
reclusione
recluta
reclutamento
reclutare
reclutati
reclutato
reclute
reco
record
recording
recordings
records
recueil
recupera
recuperando
recuperare
recuperata
recuperate
recuperati
recuperato
recuperi
recupero
red
redatta
redatti
redatto
redattore
redazione
redditi
reddito
redemption
redentore
redenzione
redigere
redini
reds
redskins
reduce
reduci
reed
reel
reese
reeves
ref
reference
referendum
referto
refettorio
reg
regal
regala
regalato
regale
regali
regalo
regata
reggae
regge
reggente
reggenti
reggenza
reggere
reggia
reggiana
reggiano
reggie
reggimenti
reggimento
reggina
reggio
reggono
regi
regia
regie
regime
regiment
regimi
regina
reginald
regine
regio
region
regional
regionale
regionali
regionalliga
regione
regioni
regis
regista
register
registi
registra
registrando
registrano
registrare
registrarono
registrata
registrate
registrati
registrato
registratore
registrazione
registrazioni
registri
registro
regnante
regnanti
regnare
regnava
regni
regno
regola
regolamentare
regolamentari
regolamentazione
regolamenti
regolamento
regolano
regolare
regolari
regolarita
regolarmente
regolata
regolato
regolatore
regolazione
regole
regolo
regular
rei
reich
reichstag
reid
reign
reigns
reilly
reims
reina
reincarnazione
reine
reiner
reinhard
reinhardt
reinhold
reintegrato
reinterpretazione
reis
relations
relativa
relativamente
relative
relativi
relativita
relativo
relatore
relazione
relazioni
release
relegato
religion
religione
religioni
religiosa
religiose
religiosi
religiosita
religioso
religious
reliquia
reliquiario
reliquie
relitto
remake
rematch
rembrandt
remember
remi
remix
remixes
remo
remota
remote
remoti
remoto
remy
ren
renaissance
renale
renania
renata
renato
renault
renda
rende
rendendo
rendendola
rendendolo
rendendosi
rendera
rendere
renderla
renderlo
rendersi
rendeva
rendevano
rendimento
rendita
rendite
rendono
rene
reni
rennes
reno
renoir
renzi
renzo
reo
reparti
reparto
reperire
reperti
reperto
repertorio
replay
replica
replicare
replicato
repliche
replico
report
reportage
reporter
repressione
reprimere
reprise
repubblica
repubblicana
repubblicane
repubblicani
repubblicano
repubbliche
republic
reputazione
requiem
requisiti
requisito
rer
rerum
res
resa
rescinde
rescue
rese
research
resero
reserve
resi
resident
residente
residenti
residenza
residenze
residenziale
residenziali
residui
residuo
resina
resistance
resiste
resistente
resistenti
resistenza
resistenze
resistere
resistette
reso
resoconti
resoconto
resort
resources
respinge
respingere
respinse
respinta
respinte
respinti
respinto
respirare
respiratoria
respiratorio
respirazione
respiro
responsabile
responsabili
responsabilita
response
resse
rest
resta
restando
restano
restante
restanti
restare
restarono
restaurare
restaurata
restaurati
restaurato
restaurazione
restauri
restauro
restava
restera
resti
restitui
restituire
restituisce
restituita
restituito
restituzione
resto
restrizione
restrizioni
restyling
results
resurrection
resurrezione
retaggio
rete
reti
reticolo
retina
retorica
retribuzione
retrieved
retro
retrocede
retrocedendo
retrocedere
retrocedono
retrocessa
retrocesse
retrocessi
retrocessione
retrocessioni
retrocesso
retroguardia
retrospettiva
retrostante
retrotreno
retrovie
retta
rettangolare
rettangolari
rettangolo
rette
rettile
rettili
rettilineo
retto
rettore
rettori
return
returns
reunion
reutemann
rev
revenge
reverberi
reverendo
review
reviews
revisione
revisioni
revista
revival
revoca
revocato
revolution
revolver
revue
rex
rey
reyes
reykjavi
reynolds
rez
rf
rfc
rfi
rg
rgb
rgen
rhapsody
rhino
rho
rhode
rhodes
rhys
rhythm
ri
ria
riaa
riabilitazione
rialzata
rialzato
riaperta
riaperto
riapertura
riappare
riaprire
riario
riassume
riassuntiva
riassunto
ribadisce
ribadito
ribalta
ribassato
ribattezzata
ribattezzato
ribellarono
ribellarsi
ribelle
ribelli
ribellione
ribellioni
ribello
ribera
ric
rica
ricade
ricadente
ricadere
ricalca
ricambio
ricardo
ricarica
ricatto
ricava
ricavandone
ricavare
ricavata
ricavate
ricavati
ricavato
ricavi
ricca
riccamente
riccardi
riccardo
ricche
ricchezza
ricchezze
ricchi
ricci
ricciardi
ricciardo
riccio
riccione
ricco
rice
ricerca
ricercare
ricercata
ricercati
ricercato
ricercatore
ricercatori
ricerche
ricetta
ricettacolo
ricette
riceve
ricevendo
ricevera
ricevere
ricevette
ricevettero
riceveva
ricevevano
ricevimento
ricevitore
ricevono
ricevuta
ricevute
ricevuti
ricevuto
ricezione
ricezioni
rich
richard
richards
richardson
richelieu
richiama
richiamano
richiamare
richiamato
richiami
richiamo
richie
richiede
richiedendo
richiedente
richiedere
richiedeva
richiedevano
richiedono
richiese
richiesta
richieste
richiesti
richiesto
richmond
richter
riciclaggio
rick
ricky
rico
ricognizione
ricomincia
ricominciare
ricomincio
ricompare
ricompensa
riconciliazione
riconducibile
riconducibili
ricondurre
riconferma
riconfermato
ricongiungersi
riconobbe
riconobbero
riconosce
riconoscendo
riconoscenza
riconoscere
riconosceva
riconoscibile
riconoscibili
riconoscimenti
riconoscimento
riconosciuta
riconosciute
riconosciuti
riconosciuto
riconoscono
riconquista
riconquistare
riconquisto
ricoperta
ricoperte
ricoperti
ricoperto
ricopre
ricoprendo
ricopri
ricoprire
ricopriva
ricoprono
ricorda
ricordando
ricordano
ricordare
ricordata
ricordate
ricordati
ricordato
ricordava
ricordi
ricordiamo
ricordo
ricorre
ricorrendo
ricorrente
ricorrenti
ricorrenza
ricorrenze
ricorrere
ricorsi
ricorso
ricostituito
ricostituzione
ricostruire
ricostruita
ricostruite
ricostruiti
ricostruito
ricostruzione
ricostruzioni
ricotta
ricoverata
ricoverato
ricovero
ricreare
rida
riddle
ride
rider
ridere
riders
ridge
ridicolo
ridimensionamento
riding
ridley
ridolfi
ridoppiaggio
ridosso
ridotta
ridotte
ridotti
ridotto
riduce
riducendo
riducono
ridurre
ridusse
riduzione
rie
riedificata
riedizione
rielaborazione
rieletto
rielezione
riempie
riempimento
riempire
riempito
rien
rientra
rientrando
rientrano
rientrante
rientrare
rientrato
rientrava
rientro
riepilogo
ries
riesca
riesce
riescono
rieti
rieure
rievocazione
rif
rifa
rifacimenti
rifacimento
rifatta
rifatto
riferendosi
riferi
riferimenti
riferimento
riferire
riferirsi
riferisce
riferiscono
riferita
riferite
riferiti
riferito
riferiva
riff
rifiuta
rifiutando
rifiutano
rifiutare
rifiutarono
rifiutata
rifiutato
rifiutava
rifiuti
rifiuto
riflessa
riflessi
riflessione
riflessioni
riflesso
riflette
riflettere
riflettono
rifondazione
riforma
riformare
riformata
riformati
riformato
riformatore
riformatori
riforme
riformista
rifornimenti
rifornimento
rifornire
rifugi
rifugia
rifugiarono
rifugiarsi
rifugiati
rifugiato
rifugio
rig
riga
rigenerazione
rigetto
righe
right
rightarrow
rights
rigida
rigide
rigidi
rigidita
rigido
rigoletto
rigore
rigori
rigorosa
rigorosamente
rigoroso
riguarda
riguardano
riguardante
riguardanti
riguardato
riguardava
riguardavano
riguardi
riguardo
rihanna
riina
rik
rilanciare
rilancio
rilascia
rilasciare
rilasciata
rilasciate
rilasciati
rilasciato
rilascio
rileva
rilevamenti
rilevamento
rilevando
rilevante
rilevanti
rilevanza
rilevare
rilevata
rilevate
rilevati
rilevato
rilevazione
rilevo
riley
rilievi
rilievo
riluttante
riluttanza
rim
rima
rimanda
rimandare
rimandato
rimane
rimaneggiamenti
rimaneggiata
rimaneggiato
rimanendo
rimanendovi
rimanente
rimanenti
rimanere
rimaneva
rimanevano
rimanga
rimangono
rimarra
rimase
rimasero
rimasta
rimaste
rimasterizzata
rimasti
rimasto
rimbalzi
rimborso
rime
rimedi
rimediare
rimedio
rimessa
rimesso
rimettere
rimini
rimonta
rimorchio
rimorso
rimossa
rimosse
rimossi
rimosso
rimozione
rimpiazzare
rimpiazzata
rimpiazzato
rimpiazzo
rimprovera
rimuovere
rin
rina
rinaldi
rinaldo
rinascimentale
rinascimentali
rinascimento
rinascita
rinchiusa
rinchiusi
rinchiuso
rinforzare
rinforzata
rinforzato
rinforzi
rinforzo
ring
ringo
ringrazia
ringraziamento
rings
rinnova
rinnovabili
rinnovamento
rinnovare
rinnovata
rinnovato
rinnovo
rino
rinoceronte
rinomata
rinomato
rinominata
rinominato
rintraccia
rintracciare
rinuncia
rinunciando
rinunciare
rinunciato
rinuncio
rinvenimento
rinvenuta
rinvenute
rinvenuti
rinvenuto
rinviata
rinviato
rinvio
rio
rione
rioni
riordino
riorganizzare
riorganizzazione
riorganizzo
riot
rip
ripa
riparare
riparato
riparazione
riparazioni
riparo
riparte
riparti
ripartire
ripartiti
ripartito
ripartizione
ripercorre
ripercussioni
ripescaggio
ripescata
ripescato
ripete
ripetere
ripetersi
ripetizione
ripetizioni
ripetuta
ripetutamente
ripetute
ripetuti
ripetuto
ripiegamento
ripiegare
ripieno
ripley
riporta
riportando
riportano
riportare
riportarono
riportata
riportate
riportati
riportato
riportava
riporto
riposa
riposano
riposare
riposo
riprende
riprendendo
riprendere
riprendersi
riprendeva
riprendono
ripresa
riprese
ripresero
ripresi
ripreso
ripristinare
ripristinata
ripristinato
ripristino
riprodotta
riprodotto
riproduce
riproducono
riprodurre
riproduttiva
riproduttivo
riproduzione
riproduzioni
ripropone
riproposta
riproposto
ripubblicato
riquadri
riquadro
riqualificazione
ris
risale
risalendo
risalente
risalenti
risalgono
risalire
risalita
risaliva
risalto
risanamento
risarcimento
risata
riscaldamento
riscattato
riscatto
rischi
rischia
rischiando
rischiare
rischio
riscontra
riscontrabile
riscontrano
riscontrare
riscontrata
riscontrato
riscontri
riscontro
riscoperta
riscossa
riscosse
riscossione
riscosso
riscuote
riscuotendo
riscuotere
rise
risente
risentimento
riserva
riservata
riservate
riservati
riservato
riserve
risi
risiede
risiedere
risiedeva
risiedevano
risiedono
rising
risk
riso
risolse
risolta
risolti
risolto
risoluzione
risoluzioni
risolve
risolvere
risonanza
risorgimento
risorsa
risorse
risorto
risparmi
risparmiare
risparmiato
risparmio
rispecchia
rispetta
rispettando
rispettare
[...]
