!
"
#
##0
##1
##10
##11
##12
##13
##14
##15
##16
##17
##18
##19
##2
##20
##21
##22
##23
##24
##25
##26
##27
##28
##29
##3
##30
##31
##32
##33
##34
##35
##36
##37
##38
##39
##4
##40
##41
##42
##43
##44
##45
##46
##47
##48
##49
##5
##50
##51
##52
##53
##54
##55
##56
##57
##58
##59
##6
##60
##61
##62
##63
##64
##65
##66
##67
##68
##69
##7
##70
##71
##72
##73
##74
##75
##76
##77
##78
##79
##8
##80
##81
##82
##83
##84
##85
##86
##87
##88
##89
##9
##90
##91
##92
##93
##94
##95
##96
##97
##98
##99
$
%
&
'
(
)
*
+
,
-
.
/
0
00
000
001
004
005
006
01
02
020
024
029
03
031
04
040
05
06
07
075
08
09
1
10
100
1000
101
1016
1017
102
103
1038
104
105
106
1066
107
108
1080
1086
109
1093
11
110
111
1111
112
113
114
115
116
117
118
119
12
120
1200
121
122
123
124
125
126
127
128
129
13
130
1300
131
132
133
134
135
1353
136
137
1371
138
139
14
140
1400
141
1417
142
1428
143
1430
1438
144
145
146
147
148
1480
1485
149
1495
15
150
1500
152
1520
153
154
1540
1548
155
1550
156
1560
1566
157
1570
1571
158
1583
159
16
160
1600
161
162
1641
165
167
168
169
1695
17
170
1700
1701
1707
171
1710
1713
172
1720
1723
173
1730
1734
1737
1739
1740
1749
175
1750
1755
1758
176
1760
1766
1767
1768
1769
177
1770
1771
1773
1774
1775
1776
1778
1779
178
1780
1781
1782
179
1790
1791
1799
18
180
1800
1801
1804
1805
1806
181
1810
1812
1813
1815
1816
1817
1818
1819
182
1820
1821
1822
1824
1826
1827
1828
183
1830
1835
1837
1839
184
1840
1842
1843
1846
1847
1848
185
1850
1851
1852
1853
1854
1855
1856
1857
1858
1859
186
1860
1861
1863
1864
1865
1866
1867
1868
1869
187
1870
1871
1872
1873
1875
1876
1877
1878
188
1880
1881
1882
1883
1884
1885
1886
1887
1888
1889
189
1890
1892
1893
1894
1895
1896
1897
1898
1898004820507557
1899
19
190
1900
1901
1902
1903
1904
1905
1906
1907
1908
1908840146090691
1909
191
1910
1911
1912
1913
1914
1915
1916
1917
1918
1919
192
1920
1921
1922
1923
1924
1925
1926
1927
1928
1929
193
1930
1931
1932
1933
1934
1935
1936
1937
1938
1939
194
1940
1941
1942
1943
1944
1945
1946
1947
1948
1949
195
1950
1951
1952
1953
1954
1955
1956
1957
1958
1959
196
1960
1961
1962
1963
1964
1965
1966
1967
1968
1969
197
1970
1971
1972
1973
1974
1975
1976
1977
1978
1979
198
1980
1981
1982
1983
1984
1985
1986
1987
1988
1989
199
1990
1991
1992
1993
1994
1995
1996
1997
1998
1999
2
20
200
2000
2001
2002
2003
2004
2005
2006
2007
2008
2009
201
2010
2011
2012
2013
2014
2015
2016
2017
2018
2019
202
2020
2021
2022
2023
203
204
205
206
207
208
209
21
210
211
212
213
214
215
216
217
218
219
22
220
221
222
223
224
225
226
227
228
23
230
2307
231
2310
232
233
234
235
236
237
238
239
24
240
241
242
2423
243
2430
2436
244
2440
245
2453
2457
246
2463
2464
2467
2468
2469
247
2470
2471
2474
2475
2476
2477
2478
248
2481
2484
2485
2488
249
2491
2492
2495
25
250
2500
2506
251
2510
2512
2514
2515
2516
2518
2519
252
2520
2521
2522
2523
2524
2525
2526
2527
2528
2529
253
2530
2531
2532
2533
2534
2535
2536
2537
2538
2539
254
2540
2541
2542
2543
2544
2545
2546
2547
2548
2549
255
2550
2551
2552
2553
2554
2555
2556
2557
2558
2559
256
2560
2561
2562
2563
2564
257
259
26
260
262
264
265
266
267
268
27
270
272
274
275
279
28
280
285
286
287
29
290
291
297
298
299
3
30
300
3000
301
302
304
305
306
307
308
31
310
312
313
314
315
318
32
320
321
322
323
325
328
33
330
331
333
334
335
336
338
34
340
341
345
347
348
35
350
351
353
354
357
359
36
360
361
363
365
37
370
372
375
376
38
380
385
387
39
390
393
395
4
40
400
4000
401
402
41
410
411
415
419
42
420
421
4217
43
435
438
44
440
442
446
45
450
451
46
465
47
470
471
472
478
48
480
49
5
50
500
5000
501
504
507
51
510
513
514
52
520
521
523
526
53
530
54
540
547
55
550
56
560
567
57
576
58
580
59
6
60
600
61
613
616
618
62
620
624
63
630
631
639
64
648
65
650
66
660
67
670
671
674
679
68
680
684
69
691
7
70
700
71
715
72
720
73
737
74
75
750
7509
758
76
760
77
774
78
79
8
80
800
8000
808
809
81
810
816
8166
82
820
824
83
84
840
848
85
850
856
86
860
87
88
883
89
89148
9
90
900
91
914
92
920
93
930
94
95
96
960
962
964
97
970
971
974
978
98
99
990
995
998
999
:
;
<
=
>
?
@
[
\
]
^
_
a
aa
ab
abboud
abc
abel
ability
about
aboutus
above
absolute
absolutely
abstain
ac
academia
academic
academy
accepted
access
accessdate
accessed
accident
according
account
accounts
accusations
achievement
acid
acoustic
acquired
across
act
action
active
activist
activities
actor
ad
adam
adams
adb
additional
adjacent
administration
administrative
adolf
adriatic
adult
advanced
advent
adventure
ae
aerospace
affairs
affect
affected
afghanistan
africa
african
after
ag
again
against
age
agencies
agency
ages
agi
agricultural
agriculture
aguirre
ah
ai
aid
aidc
aids
air
airbus
aircraft
aires
airlines
airport
airways
ais
aise
aj
ak
akari
al
alan
albania
albert
alberto
album
alexander
alexandra
alfred
algebra
alias
aligned
all
allen
alliance
allow
allowed
almighty
almost
along
alpha
alps
already
also
although
always
am
amazon
ambassador
ame
america
american
americana
americans
amish
among
amsterdam
amy
amz
an
analysis
analytic
anatomia
anatomie
anatomy
ancient
and
andorra
andre
andrea
andrew
android
andy
ang
angela
angeles
angelopedia
anglican
anglicanism
anglo
angola
animal
animation
anime
ann
anna
anne
anniversary
anno
announced
announces
annual
ano
another
anthony
anthropology
anti
any
apache
apiluck
apocalyptic
appear
appearance
apple
application
applications
applied
appointed
approach
apr
april
ar
arab
arbor
arc
archaeology
architect
architectural
architecture
archive
archived
archives
ard
are
area
areas
arena
arg
argentina
argument
aristocrat
arizona
armenia
armor
army
arnold
around
arrested
arsenopyrite
art
arthur
article
articles
artificial
artist
arts
as
asean
asexuality
asi
asia
asian
asie
asked
asp
aspects
aspx
assembly
assessment
associated
association
asteroid
asteroids
astrology
astronomy
at
atheism
athens
athletes
athletic
atlantic
atlas
atoll
atom
atr
attack
attention
au
aug
august
aung
australia
australian
austria
austrian
author
authorities
authority
authors
auto
autonomous
av
available
avatar
aviation
award
awards
away
ax
ay
azov
b
ba
baby
bach
back
background
backs
bad
badge
bahasa
baker
balance
ball
ballantine
ballon
baltic
baltimore
bamboo
ban
banach
band
bang
bangkok
bangladesh
bank
banking
banned
bar
barack
barbara
barcelona
bardot
bare
barker
barrios
barry
barzaar
base
based
basic
bat
bathing
battle
bay
bazaar
bb
bbc
bc
be
beach
beam
bear
bearing
beast
beauties
beautiful
beauty
bec
became
because
beckenbauer
beckham
become
becomes
becoming
bedrock
been
beer
before
began
begin
beginning
begriffskla
behavior
behavioral
behind
beijing
being
beirut
belgium
believe
belize
bell
belleza
below
ben
bensimon
bergeron
berkeley
berlin
bernard
best
bet
beta
better
between
beyond
bi
bibcode
bible
biblical
bibliography
biden
bie
bieber
big
bikini
bikinis
bill
billboard
billion
bin
biochemistry
biography
biological
biology
biometrics
biontech
bird
birth
birthday
bishop
bissell
bit
bitcoin
bitkub
bitsy
black
blackpink
blackwell
blaikie
blair
blanc
blast
ble
blica
block
blog
blogspot
blood
bloomsbury
blue
bmatrix
bn
bo
board
bodies
body
boeing
bois
bold
bolivia
bond
bonds
book
books
boom
bop
bora
border
born
bos
bosnia
boston
bot
both
bottom
bottoms
boulder
bounded
bounsap
box
boy
boys
bra
brahma
branch
branches
brand
brasil
brazil
brazilian
breeds
brian
brick
bridge
brief
briefs
brigitte
bring
britain
britannica
british
bro
broadcasting
brother
brothers
brown
bru
bruce
brunswick
bryant
bsd
bts
bu
bubalus
buddhism
buddhist
buenos
buffalo
buffett
build
building
buildings
built
bulan
bulleted
bulletin
bunnag
bureau
burma
burmese
bus
business
but
butterfly
buy
bx
by
c
ca
cabinet
cafe
california
call
called
calo
cambodia
cambridge
came
camera
cameron
cameroon
camp
campaign
campaigns
campus
can
canada
canadian
canal
canis
cannes
canyon
capacity
cape
capital
car
carbohydrates
card
care
career
carl
carlo
carlos
carol
carolina
carpenter
carry
case
cases
casey
cash
cast
cat
catalan
catalana
catalonia
category
catherine
catholic
cattle
catus
cauchy
cause
causes
caylee
cbs
cc
cctld
cd
cdc
cdma
cdot
cdots
ce
celebration
cell
census
center
central
centre
century
ceo
certain
cesnur
cetacea
cfr
ch
cha
chain
chak
chakri
challenge
challenges
cham
champions
chan
chang
change
changed
changes
changing
channel
chao
chapter
character
characteristics
charity
charles
charlie
charm
charter
charts
che
check
checked
chemical
chemistry
chen
cher
chhe
chi
chiang
chicago
chief
child
children
chile
china
chinai
chinese
ching
cho
choice
cholesterol
chom
chonburi
chosen
chris
christ
christian
christianity
christians
christine
christmas
christopher
chromosome
chronicle
chrysanthemum
chu
chula
church
churches
chæ
ci
cia
cid
cif
cinderella
cindy
cinema
cio
circuit
circumstances
citation
cite
cities
citizen
city
civet
civil
ck
cl
clad
class
classe
classes
classic
classical
classification
claudia
cle
clean
click
climate
clinical
clio
clock
close
closed
clothing
club
clyde
cm
cn
cnn
co
coal
coast
coauthors
code
coffee
cold
cole
colin
collar
collection
collective
college
collins
colombia
color
colorado
columbia
com
combat
come
comedy
coming
commander
commercial
commission
committee
common
commonly
commons
commonwealth
communication
communist
communities
community
compact
companion
company
comparative
comparison
competition
complete
completed
complex
complot
components
computational
computer
computing
comune
concept
concepts
concern
concerning
concerns
concert
concession
concise
concrete
conditionally
conditions
conducting
conference
confirmed
conflict
congress
connected
connelly
conservation
conservative
considered
consolidation
consortium
constant
constitution
constitutional
constructed
construction
consumer
consumption
containing
contemporary
content
contest
contestants
contests
continents
continue
continued
continues
contract
control
convenience
convention
converge
convergence
convergent
converges
convert
cook
cookies
cooking
cooperation
cop
copa
cordon
core
cornell
coronavirus
corporate
corporation
corps
corpus
correspondent
corresponding
corv
cos
cosmos
cost
costa
costume
costumes
cot
could
coulomb
council
countries
country
county
course
court
cov
cover
covid
cow
cr
craig
crash
crazy
create
created
creation
creationism
credit
crew
crime
crimes
criminal
crisis
criteria
critical
criticism
croatia
cross
crown
crowned
cruz
crypto
crystal
crystals
cs
cu
cua
cuisine
cult
cultural
culture
cultures
cung
cup
currency
current
custom
customers
cut
cx
cybernetics
cycle
czech
d
da
dad
dai
daily
dakin
dallas
dam
dame
dams
dan
dana
dance
dangerous
daniel
danish
danmark
danube
dap
darwin
dasa
dat
data
database
date
david
davidson
davies
day
days
dc
dd
de
dead
deadurl
deaf
deal
death
debate
debt
debut
dec
decade
december
declared
decoration
deep
deer
defence
defense
define
defined
definition
dei
deimos
del
delaware
delhi
delivered
della
delta
dem
demand
democracy
democrat
democratic
den
denmark
dennis
density
denver
department
deprecated
depth
der
derived
des
described
description
design
designed
designer
designers
designs
despite
det
detail
details
determine
deuve
develop
developed
development
developmental
di
dia
dialect
dialects
diana
dictator
dictatorship
dictionaries
dictionary
did
didn
die
diego
dier
dies
difference
different
differential
digital
din
dinh
dinosaur
dinosaurs
diode
diplomat
direct
director
directory
dirichlet
dis
disappearance
disc
discover
discovery
discussion
disease
diseases
disney
display
displaystyle
distance
distribution
district
ditions
divergent
diversity
divided
division
dix
diya
dj
dk
dna
do
doctor
doctrine
document
documentation
documents
does
dog
doi
dolly
doma
domac
domain
dome
domestic
domini
don
donald
donbas
doomsday
dopa
dos
double
douglas
down
downstream
dr
dra
draghi
dragon
dream
drilled
drink
driven
druzhby
dry
dst
du
due
duke
dunn
during
dutch
duterte
dx
dynamics
dæ
e
each
eagle
earlier
early
earth
earthquake
earthworks
east
easter
eastern
eat
ebola
ebolavirus
ec
ecological
ecology
economic
economics
economist
economy
ecuador
ed
edenfield
edinburgh
edit
edited
edition
editions
editor
editors
eds
edu
education
educational
edward
effect
effective
effects
eg
egypt
eiffel
either
ek
el
election
electric
electricity
electronic
electronics
element
elementary
elements
elephant
elite
elizabeth
em
embassy
emily
empire
empty
en
encanto
encyclopaedia
encyclopedia
encyclopædia
end
ended
energy
eng
engine
engineer
engineering
engineers
england
english
enough
enterprise
entertainment
entry
environment
environmental
ep
epfl
equal
equality
era
eric
error
es
esa
espan
especially
essays
essential
est
established
estacio
estate
estimates
et
etc
ethics
ethnic
ethnologue
etl
eu
euler
eur
euro
eurocopter
euronews
europa
europe
european
ev
evaluation
evangelical
evans
eve
even
evening
event
events
ever
every
everything
evidence
evil
evolution
evolutionary
ex
example
examples
excavation
exchange
exist
exists
expand
expanded
expands
expansion
expected
experience
experimental
experts
exploration
explorer
explosion
expo
export
express
extended
external
extra
eye
eyes
f
fa
fabric
face
facebook
fact
factbook
factor
factors
facts
fai
failure
fairy
faith
fake
falco
fall
falls
false
family
famous
fan
fang
far
farah
fashion
fast
father
fay
fayard
fb
fc
fda
fe
feat
feature
featured
features
featuring
feb
february
federal
federation
feet
felis
fellowship
female
feminist
fennig
ferna
fernandez
fes
festival
fever
few
ff
fff
fi
field
fifa
fifth
fight
fighter
figure
file
film
films
final
finalists
finance
financial
find
finding
fine
finished
finite
finland
fire
first
fish
fitness
fivb
five
flag
flanker
flankers
flash
fleece
flight
flood
florence
florida
flow
flu
fm
fo
fob
focus
folk
following
food
fool
football
footings
for
forbes
force
forces
forecasts
foreign
forensic
forest
form
formal
format
formation
former
forms
formula
fort
fortran
fortune
forum
fossil
found
foundation
foundations
founded
founder
four
fourier
fourth
fox
fr
frac
framework
franc
france
francis
francisco
franco
frank
franz
fre
free
freedom
french
frequently
fresh
friday
friend
friends
friendship
friuli
from
front
fruit
ft
fu
full
function
functional
functions
fund
funded
funds
further
futbol
future
futures
fɔ
g
ga
gabriel
galaxy
gallery
galveston
game
games
gamma
gandhi
garden
gardens
gary
gas
gate
gates
gaudiya
gave
gavin
gay
gazprom
gb
gdp
ge
gebara
gedney
gems
gen
gender
gene
general
generally
generation
generic
genes
genetics
genome
genus
geographic
geographical
geography
geological
geology
geometric
geometry
georg
george
georgia
georgian
geotechnical
geq
gerhard
german
germany
gerste
get
gezegen
ghz
gi
gia
giant
gibson
gif
gifted
gilbert
gio
gippert
girl
girls
giulia
given
gives
global
globalization
globe
glossary
gmail
gmm
gmt
go
goa
god
goe
goes
going
gold
golden
goldman
gone
gonzalez
good
goods
google
gordon
goswami
gosławski
got
gov
government
governor
governorate
govpubs
grace
graduate
grammar
grammy
grand
grande
grant
gravity
gray
gre
great
greater
greece
greek
green
greenpeace
greenwood
gregory
gross
ground
group
groups
growing
growth
gu
gua
guardian
guatemala
guerre
guide
guides
guine
guinea
guinness
gulf
gunpowder
guo
guru
guy
h
ha
had
hair
hall
hammer
hammers
han
handbook
hans
happy
hard
hare
haringey
harold
harper
harpercollins
harris
harv
harvard
has
hat
have
haven
hawaii
hd
hdi
he
head
health
heart
heavy
hebrew
heels
heim
heinrich
held
helicopter
helicopters
hello
help
henri
henry
her
herald
heraldica
here
heritage
hero
heron
herzegovina
hi
hie
high
higher
hill
himself
hindenburg
hindu
hinduism
hipposideros
his
histoire
historia
historical
history
hitler
hits
ho
hoa
hold
hole
holly
hollywood
holocaust
holy
home
homo
honey
hong
honorary
honour
hoonsmart
hoover
hopkins
horizontal
horseshoe
hospital
host
hot
houghton
house
household
housing
how
howard
however
htm
html
http
https
htv
hu
hua
huawei
hudak
huge
hugh
human
humans
hungry
hunter
hussein
hydraulic
hydroelectric
hygiene
hypotenuse
hystricomorpha
hæ
i
ia
ian
ibm
ic
ice
icon
iconic
id
ide
idea
idealism
identified
identity
ie
ieee
if
ignored
ii
iii
ijm
ik
il
ile
ill
illinois
illustrated
im
imac
image
images
imagination
imf
img
impact
impacts
imperial
important
improve
improved
in
inc
include
includes
including
income
incoterms
increase
increasing
independence
independent
index
india
indian
indigenous
indochine
indonesia
industrial
industry
ine
infectious
infinite
influence
influenced
info
infobox
information
infrastructure
infty
initial
initiative
innovation
input
inside
insider
insignia
instagram
instead
institut
institute
institution
institutions
int
integral
integrated
integration
intelligence
inter
intercontinental
interest
interface
interior
internacional
international
internet
interpretation
interview
into
introduced
introducing
introduction
introvigne
invalid
investigation
investment
io
ions
ipa
iphone
ipod
iprage
ir
iran
iranian
iraq
ireland
irish
iron
irons
is
isabella
isbn
islam
island
islands
iso
israel
israeli
issn
issue
issues
istanbul
it
italia
italian
italic
italy
item
ithaca
its
itsy
iu
iucn
iv
ivan
ix
j
ja
jack
jackie
jackson
jacob
jacques
james
jan
jane
january
japan
japanese
jason
java
je
jean
jeanne
jefferson
jennifer
jenny
jerry
jersey
jerusalem
jesus
jet
jewelry
jewish
ji
jim
jo
job
jobs
joe
john
johns
johnson
join
joint
jonathan
jones
jordan
jose
josep
joseph
jost
journal
joy
jp
jpg
jquery
jr
js
jstor
ju
juan
jul
julia
julian
julio
julius
july
jump
jun
june
jungwad
jupiter
just
justice
justin
k
ka
kaa
kabbalah
kai
kam
kang
kanlagna
karl
kashgar
kay
ke
keep
keith
kelly
kenneth
kenya
kernel
kershaw
kevin
key
keys
kg
kha
khai
kham
khan
khao
khi
khmer
kho
khom
khon
khu
khwa
khwaeng
khz
khæ
ki
kids
killa
killed
killer
killoren
kim
king
kingdom
kings
kip
kiss
kit
kitchen
kito
klao
klaus
km
knight
know
knowledge
known
ko
kon
kong
korea
korean
kot
kra
krav
krishna
ks
ktet
ku
kum
kumara
ky
kyi
kyiv
kyo
l
la
lab
laboratory
lady
lai
lak
lake
lambda
lambert
land
lands
landscape
lane
lang
language
languages
langue
lanka
lao
laos
laotian
large
largest
larry
las
last
lat
late
later
lateral
latest
latin
latina
lattice
lausanne
law
layal
lazarus
lc
le
lead
leader
leaders
leadership
leading
league
learn
learning
least
leather
lebanon
lebkuchen
led
lee
left
leg
legal
legend
legion
legislative
lek
length
leninist
leo
leonard
leone
leopard
leopold
leq
les
less
lessons
leste
let
letter
level
lewis
lexico
lexicon
lgbt
li
liberation
liberty
libraries
library
lie
life
lifestyle
lifteam
liga
light
lightcurve
lightning
like
lim
limit
limited
limits
lin
linda
line
linear
lines
lingerie
lingua
linguistic
linguistics
link
links
linux
lion
lionel
lipstick
lisa
list
lit
literary
literature
little
littlefield
liu
live
lives
living
lizette
lk
ll
lloyd
ln
lo
loads
local
location
locations
log
logic
lom
london
long
longbow
longman
look
looking
lord
los
lost
lot
louis
love
low
lower
lr
ltd
lu
lua
luang
luc
ludwig
luis
lupus
luz
ly
lynn
m
ma
mac
macaron
macarons
machine
macintosh
macmillan
made
madrid
madrigal
maga
magazine
maha
mahathir
mahayana
mahidol
mai
mail
main
maint
major
make
makes
making
mala
malaysia
malaysian
male
mali
mammals
man
management
manager
manchester
mandarin
mang
manhunt
mantra
manual
manuel
many
map
maps
mar
marc
marcasite
march
mari
maria
marie
marina
marine
mario
mark
market
marketing
markets
markup
marriage
mars
marshall
mart
marti
martial
martin
marxist
mary
mas
mask
mass
massachusetts
massimo
master
match
matema
material
materials
mathbb
mathbf
mathematical
mathematics
matrix
matt
matter
matthew
maurice
mauricio
max
may
mcdonald
mcdonnell
mcgraw
mcot
md
mdqt
me
mean
meaning
means
measure
mechanics
medal
media
medical
medicine
medieval
mediterranean
medium
meet
meeting
megan
mekong
melinda
member
members
memory
men
mer
mercury
mercy
merit
merkel
merkur
merriam
mes
messi
meta
metal
meteorite
method
methods
metropolitan
mexico
mhz
mi
mia
mich
michael
michel
michigan
micro
microsoft
mid
middle
mifflin
mig
miguel
mike
milan
milano
mile
military
milk
millennium
million
mills
min
mind
mine
minecraft
mineral
minh
mini
mining
minister
ministry
minnesota
minor
minute
minutes
mirage
mis
miss
missing
mission
missosology
mister
mit
mitchell
mjesec
mk
mm
mmdt
mo
mobile
mode
model
models
modern
modula
module
moi
mojo
molecular
momo
mon
monaco
monarch
monarchy
monetary
money
monitoring
mons
mont
monte
month
montre
montreal
moon
moore
moral
more
morocco
morris
moscow
moskva
most
mother
motion
motor
mount
mountain
mountains
mouse
movement
movements
movie
movies
mp
mr
mrna
mrs
ms
mu
muang
much
multi
multiple
multirole
munich
municipalities
municipality
muntiacus
murder
murray
mus
musa
muse
museum
music
musical
musim
must
mut
mv
mw
my
myanmar
myotis
mythology
myths
mæ
mæt
n
na
nacional
nadine
nak
nakai
naked
nam
name
named
names
nan
nancy
nang
nano
nao
nasa
nasdaq
nassau
natalie
nation
national
nationale
nations
native
natterer
natur
natural
nature
naval
navel
navy
nazi
nd
ndez
ne
near
need
needed
needs
negative
neighborhood
nelson
nen
neo
nepal
neptu
neptun
neptune
net
netflix
netherlands
network
networks
nevada
never
new
news
newspaper
next
ng
nga
nghi
nghie
ngo
ngu
nguye
nguyen
ngœn
nh
nha
nhk
ni
niagara
nica
nice
nick
nickelodeon
nicolson
night
nigra
nikaya
nile
nimbarka
nine
nio
nit
niu
nj
nl
nn
no
noicon
nok
nom
non
nor
nordic
normally
norman
north
northern
norton
norway
nosed
not
note
notes
notion
notre
nouvelle
nov
nova
november
now
nr
ns
nsdap
nster
nt
ntpc
nu
nuclear
number
numbers
numerical
nus
nx
ny
nya
nytimes
nyu
o
obama
object
objective
oblast
observe
obtain
occitan
occupational
occupied
occur
oce
ocean
och
ocht
oclc
oct
october
oda
of
off
office
officer
official
offshore
often
og
ohio
oil
ois
ok
oklahoma
ol
ola
olav
old
oliver
olympic
olympics
om
omicron
on
once
one
oneworld
ong
online
only
ontology
open
openings
operated
operating
operation
operations
operator
opportunities
opportunity
opposite
or
oral
orange
orbital
order
ordered
org
organ
organisation
organization
organizations
oriental
orientation
oriented
origin
original
origins
orthodox
ortiz
os
osprey
ost
other
others
ottoman
ou
our
out
outbreak
outline
outlook
outre
over
overview
own
owned
ownership
oxford
oxidation
p
pa
paa
pacha
pacific
package
padam
padma
page
pageant
pageants
pages
pairs
pakistan
palace
paleontology
palgrave
pali
palm
pan
panda
pang
panthera
panties
panty
pao
paper
paperback
papers
papua
par
para
paradise
paraguay
parameter
paris
park
parkstone
parliament
part
partial
particles
particular
particularly
parts
party
pascal
past
patent
pathology
patricia
patrick
patterns
paul
paula
paulette
pays
pbs
pc
pdf
pdr
pe
peace
pen
penguin
pennsylvania
people
pepper
per
perfect
performance
period
perry
persecution
perseus
person
personal
personnel
perspective
perspectives
peru
pes
peso
peter
petersburg
pfizer
pg
ph
pha
phak
phan
phase
phe
phi
phil
philanthropy
philip
philippe
philippines
philosophical
philosophy
pho
phocoena
phon
phone
phonetic
phonetics
phong
phongpraseuth
phonology
photo
photographs
photos
php
phu
physical
physics
physique
phæ
pi
pianeta
piano
pico
pictures
piece
pieces
pierre
piers
piles
pilot
pin
pitch
pizza
pk
pl
pla
place
plan
plane
planed
planedenn
planeet
planet
planeta
planeten
planets
planneet
planning
plans
plant
plasma
plate
plateau
platform
platinum
play
player
players
please
plot
plus
pluto
pluton
pm
pmatrix
pmc
pmid
png
po
pocket
poe
point
pointwise
pokok
poland
poli
police
policy
political
politics
polymer
poor
pop
popular
population
popyear
port
portal
portrait
portugal
portuguese
position
positions
possible
post
posts
postscript
pour
poverty
power
powers
pp
ppp
pptv
pr
prabang
practice
practices
prayuth
pre
prefijo
prefix
preliminary
premier
premiere
prentice
present
presentation
presented
president
press
pressure
pressures
prevalence
price
prices
prima
primarily
primary
prime
prince
princess
princeton
principle
principles
print
printed
printer
printing
prior
private
prize
pro
problem
problems
proceedings
process
processing
produce
produced
product
production
products
professor
profile
profit
program
programme
programming
programs
progress
project
promo
promotion
pronounced
pronunciation
proof
properties
property
protection
protein
proteins
protestant
proto
provide
provided
provides
province
provinces
provins
psychology
pu
pub
pubic
public
publication
publications
publique
published
publisher
publishers
publishing
pun
punlao
purana
putin
px
pyrite
q
qatar
qua
quad
qualification
quality
quantum
que
quebec
queen
question
questions
quo
quote
quyllur
r
ra
race
radar
radhe
radio
rail
railway
rama
range
rangoon
rank
ranking
rankings
rapid
rare
rat
ratchakitcha
rate
rates
rather
ratio
ration
rational
rattus
ray
raya
raymond
rd
re
read
reader
ready
real
reality
really
reason
receive
recent
recognized
record
records
red
redeemer
reduction
ref
reference
references
reformation
refs
regarded
region
regional
regulation
reich
reikistjarna
reina
reinforced
related
relations
relative
release
released
releases
religion
religions
religious
remember
remove
removed
ren
renaissance
rene
renewable
report
reported
reports
represent
reprint
reprinted
repu
republic
required
requires
res
research
reservoir
resettled
resist
resistance
resource
resources
respect
response
result
results
retail
retaining
retrieved
return
reuters
rev
revealed
revealing
reveals
revenues
review
revised
revolution
rhinoceros
rhinolophus
ri
ria
rica
rice
rich
richard
rico
rie
riemann
right
rightarrow
rights
ring
rio
rise
rising
risk
river
rivers
rk
rn
rna
ro
road
robbins
robert
roberts
robot
robotics
rock
roger
rogers
role
roma
romaji
roman
romance
romania
romanian
rome
ron
ronaldo
room
roots
rosa
rose
rough
round
routledge
row
rowman
rowspan
roy
royal
royaume
rp
rs
rt
ru
rudi
ruiponche
rule
rules
run
rung
runner
rupiah
russell
russia
russian
s
sa
sachs
safety
sage
sagittarius
sai
said
saint
saints
sala
sales
salvador
sam
sama
same
samples
sampradaya
samuel
san
sand
sandoz
sang
sanitation
santa
santos
sao
sap
sarah
sars
sat
satellites
saturn
saudi
savang
save
say
saying
says
scale
scandinavia
scarecrow
scb
scenes
scholar
scholars
school
schoolchild
schools
schuster
schwarzenegger
sci
science
sciences
scientific
scientist
scotland
scott
scottish
scribner
script
scripture
sd
se
sea
search
season
seattle
sec
second
secondary
secret
secretary
section
sections
security
see
sek
selected
self
sell
selling
semi
semifinalists
sen
sense
sensor
sep
september
sequence
sequences
seraphim
serie
series
serious
serve
server
service
services
set
setting
settlement
settlements
seven
several
sex
sexual
sexuality
sexy
shadow
shallow
shan
shanghai
she
shear
sheep
sheet
shi
sho
short
shorts
should
show
si
sia
siam
sica
side
sides
sie
sierra
signed
signs
sikkha
sil
silk
silver
similar
simon
simons
simple
sin
since
sing
singapore
singer
singh
single
sinh
sino
sinopharm
sip
sir
sistema
sit
site
sites
situation
six
sixteenth
sixth
size
skills
skin
skirt
sky
skyteam
slab
slate
slope
slopes
sm
small
smaller
smallest
smalltalk
smart
sme
smile
smith
smithsonian
sn
snow
so
soc
soccer
social
socialism
socialist
society
sociology
soft
software
soil
soils
sol
solar
soldier
sole
solid
som
sombath
some
something
sometimes
somphone
son
song
songs
sonna
sons
sophia
sorceress
sort
sound
source
sources
south
southeast
southern
soviet
sp
space
spaces
spain
span
spanish
special
species
specific
speech
spencer
spending
spirit
spoken
sport
sports
spread
spring
springer
sqrt
square
sr
sri
ssil
st
sta
stability
staff
stage
stand
standard
standards
stanford
stanley
star
starbucks
stars
start
started
stat
state
stated
statement
statements
states
station
statistical
statistics
statnew
stattdd
statue
status
stay
ste
steam
steel
stephanie
stephen
steve
steven
stevens
stewart
stica
still
stimpy
stir
sto
stock
stone
stop
store
stores
stories
storm
story
strange
strategic
strategy
street
strength
stress
strike
string
strip
strong
structural
structure
structures
stuart
student
students
studied
studies
studio
studios
study
studying
style
styles
su
sub
subfamily
subject
subjects
subscription
subset
subsurface
success
successfully
such
sud
sue
sufficiently
sugar
suggested
suicide
suit
suits
sukhoi
sukhothai
sum
summable
summary
summation
summer
summit
sums
sun
sunday
sung
sup
super
superjet
supermodel
supermoon
supply
support
supranational
supreme
sur
sure
surf
surface
surfing
surgery
survey
sus
susan
sustainable
sutton
suu
svg
swadesh
swami
sweden
swedish
sweet
swim
swimming
swimsuit
swimsuits
swimwear
switzerland
sword
sydney
symposium
system
systema
systems
sza
sæ
t
ta
table
tables
tag
tags
tai
taiwan
take
taken
takes
taking
tale
tales
talk
tam
tamil
tan
tang
tank
tankini
tao
tara
tas
tat
tax
taxi
taylor
tb
te
tea
teacher
team
teau
technical
techniques
technologies
technology
teen
teh
tel
telecommunications
telegraph
telephone
television
tell
templates
temple
temps
ten
teng
teo
ter
teresa
term
terms
terra
territory
test
testing
tests
tex
texas
text
textbf
textrm
texts
th
tha
thai
thailand
thairath
tham
than
thanh
thansettakij
thao
that
the
theater
theatre
their
them
theme
then
theology
theorem
theories
theory
therapy
there
these
thesis
theta
theun
they
thi
thick
thie
thin
things
think
thinking
third
this
tho
tholakhong
thomas
thompson
thong
those
though
thought
thousand
threat
three
through
thu
thumb
thumbnail
thus
ti
tia
tica
ticket
tie
tiger
tik
tim
time
timeline
times
timor
tin
tirtha
title
tl
tla
tlalli
to
today
toga
together
toh
toilet
tokyo
told
tom
ton
tone
tones
tong
tony
too
tool
top
topic
topics
topless
topological
topology
tops
toronto
total
touch
tour
tourism
tourist
tournament
tower
town
tr
tra
track
trade
trading
tradition
traditional
traditions
traffic
train
training
tran
trans
transfer
transformation
transistor
transition
translated
translation
translations
transmission
transport
travail
travel
tre
tree
trend
tri
trial
tribune
trie
trigonometric
triumph
tro
tropical
tru
true
trump
truong
trust
truth
try
ttbc
tu
tube
tumtavitikul
tun
turkey
turner
turning
tv
twitter
two
ty
type
types
typically
u
uc
ucb
ucla
uefa
uk
ukraine
ukrainian
un
unconditionally
und
under
understanding
undertake
underwear
unesco
unicef
unicode
uniform
uniformly
uniforms
union
unique
unit
unite
united
units
unity
univ
universal
universe
universite
universities
university
unknown
unrecognized
until
unwin
up
updated
upstat
ura
uranus
urban
url
uruguay
us
usa
use
used
user
uses
using
ussr
usually
utc
utility
ux
uyghur
v
va
vaccine
vaishnava
vaishnavism
valerie
valley
valor
value
values
valve
van
vang
var
variable
variant
variants
variation
variations
variety
various
vat
vatican
ve
vector
vehicle
vehicles
venezia
venezolana
venezuela
venus
veraman
verde
verlag
versailles
version
versions
vertical
very
vi
via
vice
victims
victoria
victorian
video
vie
vienna
vientiane
vietnam
vietnamese
view
vii
viii
viking
villa
village
villagers
villages
ville
vincent
violence
virginia
virtual
virus
vishnu
vision
vista
visual
vladimir
vn
vo
vocabulary
voice
void
vol
volkswagen
volleyball
vols
volume
von
vos
vote
vp
vs
vtv
vu
w
wa
waistband
wake
wales
walk
walker
wall
walls
walsh
walt
walter
wan
war
warner
wars
was
washington
wasi
waste
wat
watch
water
watts
wave
waves
waxing
way
we
wear
wearing
weather
web
webarchive
website
webster
week
weekly
weidenfeld
weight
weishan
welfare
well
welsh
went
were
werner
west
western
wet
what
when
where
which
while
white
who
whose
why
wi
wide
widely
wiki
wikimedia
wikipedia
wikivoyage
wild
wiley
will
william
williams
willis
wilson
win
wind
windows
wine
wing
winner
winners
wins
winter
wire
witcover
with
within
without
wolf
wolfram
woman
women
won
wonders
wood
word
words
wore
work
worker
working
workpoint
works
world
worldwide
worn
worth
would
wright
writer
written
www
wyatt
x
xa
xe
xi
xico
xiii
xiv
xp
xstat
xu
y
ya
yahoo
yale
yang
yangon
ye
year
years
yellow
yet
yg
yi
yo
york
you
young
your
youth
youtube
yu
yugoslavia
yuri
z
za
zagreb
ze
zealand
zef
zen
zero
zeta
zhang
zhao
zhaoyuan
zi
ziraat
zone
zu
{
|
}
~


¡
¢
£
¤
¥
¦
§
¨
©
ª
«
¬
­
®
¯
°
±
²
´
µ
·
¸
¹
º
»
¼
½
¾
¿
×
æ
ð
÷
ø
øe
đa
đe
đi
đie
đo
đu
ı
ŋ
ŋa
œ
ƒ
ɑ
ɒ
ɔ
ɕ
ə
ɛ
ɜ
ɡ
ɪ
ɯ
ɲ
ɹ
ʌ
ʔ
ʰ
ʲ
ʻ
ʼ
ʾ
ʿ
ˀ
ˆ
ˈ
ˌ
ː
˜
˝
˥
˧
˨
˩
̀
́
̂
̃
̄
̆
̇
̈
̉
̊
̋
̌
̍
̓
̔
̚
̛
̞
̟
̠
̣
̤
̥
̧
̨
̩
̪
̯
̰
̲
̸
̺
͂
͘
͡
α
β
γ
δ
δα
δι
ε
η
θ
λ
μ
μα
να
ο
π
πλανη
ρ
ρι
ς
σ
τα
της
υ
φ
ω
ϕ
а
боја
в
для
е
з
и
к
л
м
маи
московскии
н
на
планета
р
с
т
у
университет
х
цвет
цвят
ч
я
і
ҳ
ְ
ִ
ֵ
ַ
ָ
ֹ
ּ
ׁ
בית
ג
ה
ח
י
מ
ן
ס
ף
פ
ר
ש
ת
،
ا
ب
ة
ج
د
ر
س
سیاره
ك
م
ن
ه
و
َ
ُ
ِ
ّ
ْ
ٓ
ٔ
ٕ
ی
ँ
ं
ः
आ
ऋत
क
ख
ग
घ
च
ज
जन
ञ
ट
ड
ढ
ण
त
थ
द
ध
न
प
फ
ब
भ
म
मह
य
र
रह
ल
ळ
व
वर
श
ष
स
ह
़
ा
ि
ी
ु
ू
ृ
े
ै
ॉ
ो
ौ
्
ঁ
ং
ই
ক
খ
গ
চ
ছ
জ
ঞ
ট
ঠ
ড
ণ
ত
থ
দ
ধ
ন
প
ফ
ব
বর
ভ
ম
য
র
রহ
ল
শ
ষ
স
হ
়
া
ি
ী
ু
ূ
ৃ
ে
্
க
கண
கம
கர
ங
ச
ஜ
ட
டம
ண
த
ந
ன
ப
ம
ய
யல
ர
ற
ல
ள
ழ
வ
ா
ி
ீ
ு
ூ
ெ
ே
ை
்
ం
క
గ
ఘ
చ
జ
ట
డ
ణ
త
థ
ద
ధ
న
ప
ఫ
బ
భ
మ
య
ర
రమ
ల
ళ
వ
శ
ష
స
హ
ా
ి
ీ
ు
ూ
ె
ే
ొ
ో
ౌ
్
ౖ
ಂ
ಕ
ಖ
ಗ
ಚ
ಜ
ಞ
ಟ
ಡ
ಣ
ತ
ದ
ಧ
ನ
ಪ
ಫ
ಬ
ಭ
ಮ
ಯ
ರ
ಲ
ಳ
ವ
ಶ
ಷ
ಸ
ಹ
ಾ
ಿ
ು
ೂ
ೆ
ೌ
್
ೕ
ೖ
ം
ക
ഗ
ങ
ച
ജ
ട
ഡ
ണ
ത
ഥ
ദ
ധ
ന
പ
ഫ
ബ
ഭ
മ
യ
ര
രഹ
റ
ല
ള
ഴ
വ
ശ
ഷ
സ
ഹ
ാ
ി
ീ
ു
ൂ
ൃ
െ
േ
ൈ
്
ൗ
ං
ක
ත
ර
ල
ශ
්
ා
ී
ก
กก
กข
กค
กคร
กจ
กช
กซ
กซอย
กฐานการทะเบ
กด
กดนตร
กต
กตร
กถ
กท
กทร
กทะเบ
กธาต
กน
กนายกร
กบ
กบร
กป
กปล
กผ
กพ
กฟ
กม
กย
กยาเธอ
กร
กรกฎาคม
กรพ
กรพงษ
กรพรรด
กรม
กรมการปกครอง
กรมข
กรมทหารราบท
กรมรถไฟหลวง
กรมว
กรมศ
กรมหลวงส
กรร
กรรม
กรรายการ
กรส
กระด
กระท
กระทรวงมหาดไทย
กระทรวงศ
กราช
กฤษณ
กล
กลายเป
กว
กศ
กษ
กษณ
กษณว
กษร
กษา
กษาธ
กษาพระองค
กษาว
กษาไว
กส
กสยาม
กหน
กอ
กองท
กองปกครองและทะเบ
กองพ
กอย
กา
กาญจนา
กาพย
กายน
การ
การก
การค
การจ
การณ
การต
การท
การบ
การบด
การบร
การประกวด
การย
การร
การศ
การส
การสร
การเก
การเปล
กาเปล
กาใต
กำก
กำน
กำพร
กำล
กเกล
กเข
กเธอ
กเป
กเร
กแท
กแสดงร
กโรดม
กไทย
กไม
ข
ขณะท
ขส
ของ
ของม
ขาภ
ค
คคลสำค
คฆ
คซ
คณ
คณะน
คณะร
คน
คนท
คนส
คนใหม
คพอยท
คม
คร
ครบ
ครมเหส
ครอบคร
คล
คลองเตย
คว
ความร
ความส
ความเป
คส
คอนเส
คอร
คอล
คำส
ฆ
ง
งก
งกร
งกฤษ
งกล
งกลายเป
งกว
งกาศ
งข
งขรณ
งค
งคม
งคร
งความส
งคาร
งงานก
งจ
งจากท
งจากน
งช
งชาต
งด
งต
งถ
งท
งธนบ
งน
งบ
งป
งประชาชนร
งประเทศไทย
งผ
งพ
งพญาไท
งพระองค
งฟ
งม
งย
งร
งรางว
งราชสำน
งราชอาณาจ
งล
งว
งวาลย
งศ
งศพ
งศร
งษ
งส
งสมเด
งห
งหน
งหมด
งหมดด
งหว
งหาคม
งอ
งอย
งอร
งออนแอร
งาน
งาม
งเก
งเขตการปกครองออกเป
งเด
งเทพ
งเทพมหานคร
งเทพมหานครและจ
งเทพฯ
งเป
งเพ
งเพลง
งเม
งเร
งเศส
งเส
งเสร
งแต
งแรก
งแรกเม
งแห
งในป
งให
งใหญ
งได
งไม
จ
จการ
จจ
จจาน
จฉ
จฉร
จดหมายเหต
จต
จท
จน
จนกระท
จนถ
จพระจ
จพระจอมเกล
จพระนางเจ
จพระนเรศวรมหาราช
จพระบรมโอรสาธ
จพระปกเกล
จพระปรม
จพระมงก
จพระราชดำเน
จพระรามาธ
จพระศร
จพระเจ
จพระเทพร
จร
จราชการแทนพระองค
จส
จฯ
จะต
จะม
จะร
จะเป
จาก
จากน
จากเว
จาค
จาคของม
จาคพระราชทร
จาคเง
จาต
จารณ
จำก
จำนวน
จำนวนประชากรแยกรายอาย
จำนวนประชากรและบ
จำนวนราษฎรท
จำแนกตามรายแขวงและเขต
จเจ
จแล
ฉ
ฉบ
ช
ชกาลท
ชช
ชน
ชนะการประกวดจะต
ชนะส
ชนะเล
ชม
ชมพ
ชย
ชร
ชสม
ชา
ชาการ
ชาต
ชาย
ชาล
ซ
ญ
ญช
ญชา
ญญ
ญญา
ญญาก
ญญาณ
ญพ
ญพระราชก
ญย
ญร
ญล
ญอ
ญเช
ฎ
ฎราชก
ฎเกล
ฏ
ฐ
ฐท
ฐธรรมน
ฐมนตร
ฐลายประด
ฐส
ฐสภา
ฐอ
ฐอเมร
ฐานบ
ฑ
ฒ
ฒน
ฒนธรรม
ฒนา
ณ
ณฑ
ณย
ณว
ณห
ณอด
ณาธ
ณาน
ณาส
ณาโปรดเกล
ณแม
ด
ดก
ดกร
ดข
ดค
ดจ
ดช
ดซ
ดด
ดดา
ดต
ดตร
ดถ
ดท
ดน
ดนตร
ดบ
ดประจำชาต
ดพ
ดพระธาต
ดพระนคร
ดพระเก
ดม
ดร
ดล
ดว
ดวง
ดวงใจ
ดส
ดห
ดหน
ดอ
ดอกไม
ดอลลาร
ดอาร
ดา
ดาร
ดาว
ดำรงตำแหน
ดำเน
ดเกล
ดเช
ดเถ
ดเท
ดเป
ดเร
ดเล
ดในโลก
ดได
ต
ตก
ตคอยน
ตต
ตถ
ตถเลขา
ตท
ตน
ตนราชส
ตนสรณาร
ตนาภรณ
ตนโกส
ตผ
ตม
ตย
ตยสถาน
ตยสาร
ตร
ตรงก
ตรช
ตรด
ตราด
ตล
ตลหฤท
ตว
ตศาสตร
ตส
ตอน
ตอนท
ตอล
ตะว
ตา
ตามหล
ตำนานสมเด
ตำแหน
ตโชค
ตโนปล
ถ
ถล
ท
ทค
ทคอม
ทธ
ทธบ
ทธศ
ทธาท
ทธเจ
ทม
ทย
ทยา
ทยาล
ทยาศาสตร
ทร
ทรงต
ทรงบร
ทรงม
ทรงเป
ทรปราการ
ทว
ทหาร
ทอง
ทองคำ
ทองคำลงยา
ทาง
ทางช
ทางท
ทางสถาน
ทำให
ธ
ธง
ธนะบ
ธภ
ธยมศ
ธยา
น
นก
นกร
นกล
นกว
นการประกวดความงามชายในประเทศไทย
นข
นค
นคนท
นคร
นจ
นจำนวน
นจำนวนมาก
นช
นชาต
นซ
นด
นดร
นดา
นดาว
นต
นตก
นตต
นตบรมมหาจ
นตราย
นตหรา
นท
นทน
นทบ
นทมห
นทร
นทรมหาประชาธ
นทรมหารามาธ
นทรมหาวช
นทรศ
นทรา
นทราบรมราช
นทาก
นทาง
นทางการ
นทางการเม
นธ
นธร
นน
นบ
นบร
นป
นประด
นผ
นพ
นพระปกเกล
นพระอ
นฟ
นฟล
นภ
นม
นมหาราช
นมา
นย
นยายน
นร
นล
นว
นวาคม
นศ
นส
นสถานท
นสน
นสม
นสมเด
นห
นหน
นหล
นอ
นอกจากน
นองค
นอน
นอย
นออก
นอาท
นา
นาคม
นางสาวถ
นางเธอ
นาถ
นายกร
นายน
นายแพทย
นเก
นเจ
นเซอร
นเด
นเตอร
นเท
นเทอร
นเน
นเป
นเพ
นเม
นเร
นเล
นเวท
นเวลา
นเสาร
นเหต
นแดง
นแดน
นแนล
นแนลไทยแลนด
นแล
นในป
นให
นใหญ
นใหม
นได
นไทยงาม
นไทยแลนด
นไนน
นไป
นไม
นๆ
บ
บก
บการพ
บข
บค
บฉ
บช
บซ
บด
บต
บตำแหน
บท
บทความหล
บน
บนานาชาต
บบ
บบท
บบทเป
บบร
บป
บปร
บประเทศก
บผ
บพ
บพระราชห
บม
บมาเป
บร
บรมนาถ
บรมนาถบพ
บรมราช
บรางว
บล
บว
บศ
บส
บสน
บสภาผ
บห
บหงส
บหน
บหม
บอ
บอด
บอย
บางร
บาท
บาร
บาล
บเช
บเด
บเป
บโดย
บโตข
บโลก
บให
บไซต
ป
ปก
ปกรณ
ปกศ
ปค
ปฏ
ปดาห
ปถ
ปน
ปป
ปร
ปรม
ประกอบด
ประกอบภาพยนตร
ประกอบละคร
ประกาศ
ประกาศกร
ประกาศกระทรวงมหาดไทย
ประกาศของคณะปฏ
ประกาศสำน
ประจำป
ประช
ประชากรและบ
ประด
ประต
ประท
ประมาณ
ประย
ประว
ประส
ประสงค
ประเทศอ
ประเทศไทย
ปราเนช
ปล
ปอ
ปเปอร
ผ
ผล
ฝ
พ
พงศ
พงษ
พจน
พจนาน
พท
พน
พนธ
พนม
พนมยงค
พบกช
พม
พย
พร
พรรณ
พรรษา
พระคร
พระจ
พระตำหน
พระท
พระธาต
พระนคร
พระนางเจ
พระบรมราช
พระบรมราชชนน
พระบรมราชาน
พระบรมราชโองการ
พระบาทสมเด
พระปกเกล
พระพ
พระมหากษ
พระราชกฤษฎ
พระราชดำร
พระราชทานเคร
พระราชธ
พระราชน
พระราชบ
พระราชประว
พระราชพ
พระราชพงศาวดารกร
พระราชล
พระราชว
พระราชห
พระราชาน
พระวรราชเทว
พระวรวงศ
พระส
พระอ
พระองค
พระเจ
พระเมร
พฤศจ
พฤษภาคม
พล
พลอด
พลายน
ฟ
ฟเฟตต
ภ
ภาค
ภาณ
ภาพ
ภาพบ
ภาพยนตร
ภายหล
ภายใต
ภโตส
ม
มก
มกราคม
มข
มค
มงก
มช
มชาต
มณ
มต
มท
มน
มนต
มบ
มป
มผ
มพ
มพร
มพระเก
มพล
มภ
มภาพ
มม
มย
มร
มว
มศ
มห
มหล
มหาว
มอ
มอร
มา
มาก
มากท
มาน
มาร
มาล
มาศ
มาศท
มเข
มเต
มเหศวรมห
มเอ
ย
ยก
ยกข
ยกร
ยกว
ยง
ยงจ
ยงร
ยงแค
ยงใหม
ยช
ยซ
ยญท
ยญน
ยญร
ยญสหร
ยด
ยท
ยธรรมราชา
ยธรรมศาสตร
ยธรรมาธ
ยน
ยนกลาง
ยนช
ยนท
ยนร
ยนราช
ยนราษฎร
ยนว
ยนเทพศ
ยนเป
ยนแปลงพ
ยบ
ยบร
ยบเท
ยประกอบด
ยม
ยย
ยร
ยรต
ยรมาต
ยราชภ
ยว
ยวก
ยวศร
ยศ
ยส
ยะ
ยา
ยาน
ยาภรณ
ยาย
ยเล
ร
รก
รณ
รณะ
รถยนต
รพ
รพา
รมย
รย
รว
รวมถ
รวมท
รศ
รส
รองชนะเล
รองนายกร
รอบ
ระ
ระด
ระบบส
ระล
ระหว
ระเบ
รา
รางว
ราช
ราชก
ราชบ
ราชวโรดม
ราชส
ราย
รายการ
รายงานประจำป
รายช
รายป
ราลงกรณ
ราว
ฤด
ล
ลก
ลกร
ลค
ลจ
ลจอมเกล
ลด
ลท
ลน
ลบ
ลป
ลปว
ลปากร
ลม
ลย
ลยศ
ลยาณ
ลยเดช
ลล
ลว
ลศ
ลส
ละคร
ละครเท
ละครโทรท
ลา
ลาคม
ลาจาร
ลาว
ลเม
ว
วก
วกล
วง
วงท
วงศ
วงษ
วจ
วช
วต
วท
วน
วนต
วนพระองค
วนร
วม
วมก
วมการประกวดม
วมท
วมประกวดม
วมร
วมแสดงก
วมในรายการ
วย
วยก
วยว
วยเหต
วยเหล
วร
วรข
วรยศมโหดมบรมราชสมบ
วรรณ
วราชอาณาจ
วลำภ
วลำโพง
วส
วหน
วอ
วอย
วา
วาห
วเม
วเสด
วเหร
วเอง
วแทนของประเทศเข
วโลก
วใจ
วไป
ศ
ศก
ศจ
ศจรรย
ศตะว
ศน
ศม
ศร
ศล
ศลท
ศว
ศาสตร
ศาสตราจารย
ศเป
ศเหน
ศใต
ษ
ษฎาธ
ษฐ
ษฐาน
ษณ
ษย
ษยา
ษไทยแลนด
ส
สก
สกลไพศาลมหาร
สการพระธาต
สซ
สด
สต
สตาร
สถ
สถาน
สถาบ
สท
สน
สม
สมบ
สมเด
สย
สยา
สยาม
สยามมก
สร
สรณ
สรรพทศท
สรรพเทเวศราน
สล
สว
สวย
สส
สหพ
สหร
สหราชอาณาจ
สอง
สะท
สะใภ
สา
สาธ
สาธารณร
สาน
สาม
สาย
สายประด
สายล
สาล
สาวน
สาวร
สำค
สำน
สำหร
สำเร
สเตอร
สแกรนด
สไทยแลนด
ห
หงส
หญ
หน
หม
หมวดหม
หมายถ
หย
หร
หล
หลวง
หลวงพ
หลาบ
หว
หอจดหมายเหต
หา
หาร
หารการทะเบ
ฬ
ฬา
ฬาลงกรณ
อ
อก
อกต
อกเข
อข
อของการประกวดนางงามในประเทศไทย
อค
อง
องก
องข
องค
องจ
องซ
องต
องถ
องท
องน
องม
องย
องยาเธอ
องร
องราชอ
องล
องว
องศ
องศร
องส
องสนามหลวง
องสม
องอ
องเท
องเป
องเร
องเล
องเว
องแรก
องใหม
องได
อจ
อช
อด
อต
อท
อธ
อน
อนก
อนกรกฎาคม
อนข
อนต
อนท
อนมกราคม
อนร
อนเต
อนเมษายน
อบ
อป
อผ
อพ
อฟ
อภ
อม
อมก
อมด
อมท
อมร
อมราชวงศ
อมา
อมเจ
อย
อร
อล
อว
อส
อสร
อห
อหน
ออ
ออกอากาศ
ออกอากาศทาง
ออกอากาศทางช
ออกอากาศทางสถาน
ออกแบบโดย
ออน
ออนไลน
อาจารย
อาณาจ
อาท
อาย
อาร
อาศ
อเจ
อเธอ
อเป
อเปล
อเพ
อเม
อเร
อเล
อเส
อใช
อให
อได
อไป
อไปน
อไม
ฮ
ฯ
ฯลฯ
ะ
ั
า
าก
าค
าง
างก
างข
างท
างน
างประเทศ
างพ
างย
างร
างรวดเร
างว
างหน
างอ
างเป
างโดย
างๆ
าจ
าจอมมารดาแห
าช
าซ
าด
าต
าตากส
าถ
าท
าน
านซ
านดอลลาร
านต
านท
านน
านนา
านบ
านบาท
านบาทในป
านพ
านรอบค
านล
านว
านหน
านหล
านเม
านเหร
านในกร
าบ
าบร
าบรมวงศ
าประกวด
าประกวดม
าประชาธ
าพ
าพระยา
าพเจ
าฟ
าม
ามหาวช
ามาอย
าย
ายท
ายน
ายหน
ายแบบน
ายใน
าร
าราชบร
ารำไพพรรณ
าล
าว
าวข
าวรวงศ
าวว
าส
าสว
าห
าหญ
าหน
าอ
าอย
าอาน
าฯ
าเจ
าเช
าเป
าเม
าเร
าเสน
าเสาวภาผ
าให
าได
าไม
ำ
ำผ
ำม
ำส
ำโขง
ิ
ี
ึ
ื
ุ
ู
ฺ
เ
เก
เกตส
เกย
เกร
เกล
เข
เขต
เขตท
เขตประเวศ
เขตพญาไท
เค
เคร
เง
เจ
เจร
เฉล
เช
เซ
เด
เดช
เดชน
เดย
เดล
เดอะ
เดอะซ
เดอะม
เดอะสตาร
เต
เตร
เถ
เท
เทนเมนท
เทพบ
เทศ
เธอ
เธอก
เน
เนช
เบ
เบกษา
เป
เปร
เปล
เปอร
เผ
เพ
เพราะว
เพล
เพลง
เพลงท
เพลงประกอบภาพยนตร
เพลงประกอบละคร
เพลงร
เม
เมฆ
เมตตากร
เมตร
เมษายน
เย
เร
เล
เว
เวท
เวลา
เวศน
เวอร
เศรษฐ
เศษ
เษก
เษกสมรสก
เส
เสด
เสน
เสร
เสาร
เห
เหต
เหน
เหม
เหย
เหร
เหล
เอ
เอชด
เอส
เฮ
แก
แกรมม
แขกร
แค
แคปป
แคว
แจ
แชปล
แซ
แด
แดง
แดน
แต
แตก
แท
แทนประเทศไทยเข
แทนราษฎรเม
แน
แบ
แผ
แพ
แฟนพ
แม
แมคอ
แยกเป
แรงบ
แล
แลนด
แลร
และ
และจ
และต
และม
และย
และร
และว
และส
และอ
และเจ
และเป
และเม
และได
แสดงค
แสดงร
แสดงละครเวท
แสดงโดย
แห
แอน
โก
โกลบอล
โกลบอลท
โขท
โขไทยธรรมราชา
โจ
โชต
โชว
โดย
โดยจ
โดยผ
โดยม
โดยอ
โดยเป
โดยได
โดยไม
โต
โทรท
โปรดเกล
โปรดให
โปรโมช
โฟร
โมงค
โมเด
โรงพ
โรงพยาบาลพระปกเกล
โรงเร
โลก
โหน
โอ
โฮลด
ใกล
ใจ
ใช
ใต
ใน
ในช
ในตอนท
ในท
ในป
ในพระบาทสมเด
ในร
ในว
ในส
ในอ
ในเคร
ในเด
ใส
ให
ใหญ
ใหม
ไก
ไขระบบงานซ
ได
ไตรร
ไท
ไทย
ไทยท
ไทยพาณ
ไทยร
ไทยแลนด
ไฟล
ไม
ไร
ไลฟ
ไว
ไหม
ไอ
ๆ
็
่
้
๊
๋
์
ํ
๐
๑
๑๐
๑๑
๑๕
๒
๒๐
๒๔
๒๔๖๘
๒๔๙๒
๒๘
๓
๓๓๕
๔
๔๒
๕
๖
๗
๘
๙
ກ
ກກ
ກກວ
ກກອງທ
ກກອມມ
ກກະ
ກກະຊວງ
ກກະຕ
ກກະຕາ
ກກະທ
ກກະພ
ກກະຣະບ
ກກະລ
ກກະລາດ
ກກະວ
ກກະວານ
ກກະວານວ
ກກະສ
ກກະສາດ
ກກະຫ
ກກະຫວ
ກກະໄພ
ກກາ
ກກາກາງ
ກກາງ
ກກາຊວນ
ກກາດຂາວ
ກກາຕາເວ
ກການ
ກການກ
ກການຈ
ກການທ
ກການສ
ກການເຄ
ກການເດ
ກການເມ
ກກາບາດ
ກກາລະບ
ກກາເໜ
ກກາໃຕ
ກກຳຈ
ກກຳນ
ກກຳປ
ກກຳໜ
ກຂ
ກຂອງ
ກຂອງກ
ກຂອງຂ
ກຂອງຄ
ກຂອງຈ
ກຂອງຊ
ກຂອງຕ
ກຂອງທ
ກຂອງນ
ກຂອງບ
ກຂອງປະເທດ
ກຂອງຜ
ກຂອງພ
ກຂອງລ
ກຂອງວ
ກຂອງສ
ກຂອງອ
ກຂອງຮ
ກຂອງເຂ
ກຂອງເມ
ກຂອງແມ
ກຂະ
ກຂະນ
ກຂະໜານນາມວ
ກຂາ
ກຂາດ
ກຂາບ
ກຂາປະທ
ກຂຽນ
ກຄ
ກຄຣ
ກຄວບຄ
ກຄວາມຊ
ກຄວາມເຊ
ກຄອງ
ກຄອງກ
ກຄອງຂອງບາງກອກ
ກຄອງຂອງອຳເພ
ກຄອງຂອງໄທນ
ກຄອງຍ
ກຄອງດ
ກຄອງຕ
ກຄອງທ
ກຄອງນ
ກຄອງບ
ກຄອງປະເທດ
ກຄອງພ
ກຄອງຢ
ກຄອງລະຫວ
ກຄອງສ
ກຄອງຫ
ກຄອງອອກເປ
ກຄອງເຊ
ກຄອງເປ
ກຄອງເມ
ກຄອງແຂວງ
ກຄອງໃໝ
ກຄອງໄດ
ກຄອມມ
ກຄະຊາຍາ
ກຄະນ
ກຄະລ
ກຄະລະມະເຫສ
ກຄະລາກອນ
ກຄະລາຊະທ
ກຄະໂລ
ກຄຳວ
ກງ
ກງານ
ກງານຂ
ກງານຂອງລ
ກງານຊ
ກງານທ
ກງານນາຍ
ກງານປ
ກງານລ
ກງານສ
ກງານອ
ກງານເຂດ
ກງານເຂດພະຂະໂໜງ
ກງານໃຫຍ
ກງານໃຫຍຕ
ກຈ
ກຈະຖ
ກຈະບ
ກຈະມ
ກຈະເປ
ກຈະເອ
ກຈະໃຊ
ກຈະໄດ
ກຈຳກ
ກຈຳນວນໜ
ກຊ
ກຊະນ
ກຊະນະແລະເນ
ກຊາຍ
ກຊາຍກ
ກຊາຍຄ
ກຊາຍຜ
ກຊາດ
ກຊານເດ
ກຊາວໄທ
ກຊຳບ
ກຊຳບວກ
ກຍ
ກຍອມຮ
ກຍາກ
ກຍາເທ
ກດ
ກດອກ
ກດາວ
ກດາຫານ
ກດຳບ
ກຕ
ກຕຣ
ກຕາ
ກຕາດ
ກຕາດຄອນພະເພ
ກຕາດທ
ກຕາດນ
ກຕາດຟານ
ກຕາດຫ
ກຕາເວ
ກຖ
ກຖານ
ກຖານທ
ກຖານທາງປະຫວ
ກຖານວ
ກຖານະຂ
ກຖານະເປ
ກທ
ກທອງ
ກທາງການຄ
ກທາງດ
ກທາງທ
ກທາດ
ກທາລ
ກທຳລາຍ
ກທຳອ
ກທຽມ
ກນ
ກນະຣ
ກນາຊ
ກນາຍ
ກນຳ
ກນຳໃຊ
ກນຳໄປສ
ກນຳໄຟຟ
ກບ
ກບານ
ກປ
ກປະກອບດ
ກປະການ
ກປະຈ
ກປະຈຳວ
ກປະຊາຊ
ກປະຊາທ
ກປະດ
ກປະຕ
ກປະພ
ກປະມານ
ກປະສ
ກປະຫວ
ກປະເພດ
ກປາກ
ກປາດ
ກຜ
ກຜະລ
ກຝ
ກພ
ກພາກສ
ກພາຍໃຕ
ກພາຕ
ກພາສາສາດ
ກພຽງ
ກຟ
ກມ
ກມອບໃຫ
ກມະນ
ກມາຕ
ກມານ
ກມາໃຫ
ກຢ
ກຣ
ກລ
ກລວມເຂ
ກລອບສ
ກລະດ
ກລະບ
ກລະຫວ
ກລະເບ
ກລາກ
ກລາວ
ກລາວລ
ກລາວໄດ
ກລາສ
ກວ
ກວດ
ກວດກາ
ກວດສອບເມ
ກວນ
ກວມ
ກວມເອ
ກວາງ
ກວາງຄ
ກວາຍ
ກວຽນ
ກສ
ກສວມມ
ກສອງຄ
ກສອນ
ກສອນຈ
ກສອນຕ
ກສອນທ
ກສອນພະມ
ກສອນລາວ
ກສອນລາວບ
ກສອນລາວເດ
ກສອນວ
ກສອນສາດ
ກສອນຫຍ
ກສອນເຫ
ກສອນໂລມ
ກສະ
ກສະກ
ກສະຈ
ກສະຖ
ກສະຖານ
ກສະຖານທ
ກສະນ
ກສະນະ
ກສະນະກ
ກສະນະຂ
ກສະນະຄ
ກສະນະດ
ກສະນະດຽວກ
ກສະນະທ
ກສະນະທາງພ
ກສະນະນ
ກສະນະພ
ກສະນະສ
ກສະນະເດ
ກສະນະເປ
ກສະບ
ກສະພາ
ກສະພາແຫ
ກສະຫ
ກສະຫວ
ກສະເດ
ກສະເຫ
ກສະເໜ
ກສະແດງ
ກສະແດງຊາວອ
ກສະແດງຊາວໄທ
ກສະແດງຍ
ກສະແດງຕະຫ
ກສະແດງທ
ກສະແດງຮ
ກສະແດງໄທ
ກສະໄໝ
ກສະໄໝໃໝ
ກສາ
ກສາກ
ກສາຂ
ກສາຄ
ກສາຄວາມສະຫງ
ກສາຈ
ກສາຊ
ກສາດ
ກສາຕ
ກສາຕອນຕ
ກສາຕອນປາຍ
ກສາທ
ກສານ
ກສາບ
ກສາປ
ກສາປະລ
ກສາຜ
ກສາພ
ກສາພະອ
ກສາພາກບ
ກສາມ
ກສາຢ
ກສາລ
ກສາລະດ
ກສາລາ
ກສາວ
ກສາວຄ
ກສາສ
ກສາສາດ
ກສາຫ
ກສາຫາລ
ກສາອ
ກສາຮ
ກສາຮຽນຮ
ກສາເປ
ກສາເລ
ກສາແຫ
ກສາໃຫ
ກສາໄດ
ກສາໄວ
ກສຳຫ
ກສຽງເໜ
ກສຽງໃຕ
ກຫ
ກຫຍ
ກຫນ
ກຫລ
ກຫລາຍ
ກຫອມ
ກຫອມປ
ກອ
ກອງ
ກອງກຳລ
ກອງທ
ກອງບ
ກອງປະຊ
ກອງພ
ກອດ
ກອນ
ກອນຈະເລ
ກອນທ
ກອນຫ
ກອນຮ
ກອບ
ກອບກ
ກອອກແບບມາເພ
ກອະຍ
ກອະທ
ກອະນ
ກອາຍນ
ກອານານ
ກອາວະກາດ
ກອາໄສ
ກອາໄສຢ
ກຮ
ກຮວມເຂ
ກຮານ
ກຮຽນ
ກຮຽນຄ
ກຮຽນຊ
ກຮຽນທ
ກຮຽນຫ
ກຮຽນເກ
ກະ
ກະກຽມ
ກະຈ
ກະຈາ
ກະຈາຍ
ກະຈາຍສຽງ
ກະຊ
ກະຊວງ
ກະຊວງກະສ
ກະຊວງການຕ
ກະຊວງການເງ
ກະຊວງຊ
ກະຊວງຍ
ກະຊວງຖະແຫ
ກະຊວງປ
ກະຊວງພະລ
ກະຊວງພາຍໃນ
ກະຊວງມະຫາດໄທ
ກະຊວງມະຫາດໄທຈ
ກະຊວງມະຫາດໄທໄດ
ກະຊວງສ
ກະຊວງສາທາລະນະສ
ກະຊວງອ
ກະດ
ກະດາດຊາຍ
ກະດານ
ກະດານຂາວ
ກະດານດຳ
ກະຕ
ກະທ
ກະທຳ
ກະທຳຜ
ກະນ
ກະບ
ກະປ
ກະພ
ກະມ
ກະລ
ກະລະກະດາ
ກະລາມ
ກະວ
ກະສ
ກະສວຍ
ກະຮອກ
ກະຮອກກ
ກະເດ
ກະເທ
ກະເປ
ກະເພາະ
ກະເລ
ກະເລໂອຕ
ກະແລ
ກະແສ
ກະແສກ
ກະແສຕ
ກະແສນ
ກະແສສະຫ
ກະແສໄຟຟ
ກະໂປ
ກະໂຣດ
ກະໄດ
ກາ
ກາກ
ກາກາງ
ກາງ
ກາງຄ
ກາງນ
ກາງປ
ກາງເມ
ກາຊ
ກາຍ
ກາຍຍະສ
ກາຍທ
ກາຍນ
ກາຍມາເປ
ກາຍອ
ກາຍເຖຣະວາດ
ກາຍເຖລະວາດ
ກາຍເປ
ກາຍໂລມ
ກາດ
ກາຕ
ກາທ
ການ
ການກ
ການກະຊວງ
ການກະທຳ
ການກະສ
ການກາຍເປ
ການກຳນ
ການຂ
ການຂອງ
ການຂະຫຍາຍຕ
ການຂະຫຍາຍພ
ການຂາຍ
ການຂາຍຍ
ການຄ
ການຄວບຄ
ການຄາດຫວ
ການງານ
ການຈ
ການຈະເລ
ການຊ
ການຍ
ການຍອມຮ
ການດ
ການດຳລ
ການດຳເນ
ການຕ
ການຕອບໂຕ
ການຕະຫ
ການຖ
ການທ
ການທະຫານ
ການທາງດ
ການທຳບ
ການທຳລາຍປ
ການນ
ການນາມ
ການນຳເຂ
ການນຳໃຊ
ການບ
ການບານ
ການປ
ການປະກ
ການປະກວດຄວາມງາມຊາຍທ
ການປະກວດຄວາມງາມທ
ການປະກວດນາງງາມ
ການປະກວດນາງງາມທ
ການປະກວດມ
ການປະກອບສ
ການປະຊ
ການປະຊາຊ
ການປະດ
ການປະຕ
ການປະທ
ການປະພ
ການປະສ
ການປະເມ
ການຜ
ການຜະຈ
ການຜະລ
ການຝ
ການພ
ການພະຍາກອນອາກາດ
ການພະນ
ການຟ
ການຟອກເງ
ການມ
ການມອບລາງວ
ການຢ
ການຣ
ການລ
ການລະບ
ການລະເບ
ການວ
ການສ
ການສະສ
ການສະເຫ
ການສະເໜ
ການສະແດງ
ການສະແດງທ
ການສະໜ
ການສະໜອງ
ການສຳຫ
ການຫ
ການຫຍ
ການຫລ
ການຫາປາ
ການອ
ການອອກອາກາດ
ການອອກແບບ
ການອະນ
ການຮ
ການຮຽກຮ
ການຮຽນ
ການາ
ການາດາ
ການເກ
ການເຂ
ການເຄ
ການເງ
ການເຊ
ການເດ
ການເຕ
ການເບ
ການເປ
ການເຜ
ການເຝ
ການເພ
ການເພາະປ
ການເມ
ການເລ
ການເວ
ການເສ
ການເສຍຊ
ການເອ
ການເຮ
ການແກ
ການແຂ
ການແຕ
ການແບ
ການແປເປ
ການແຜ
ການແພດ
ການແລກປ
ການແຫ
ການໂຄສະນາ
ການໂຈມຕ
ການໂຕ
ການໂອນເງ
ການໂຮງ
ການໂຮງແຮມ
ການໃຊ
ການໃຫ
ການໃຫຍ
ການໄດ
ການໄຫ
ການໄຫວ
ກາບ
ກາບກອນ
ກາບບ
ກາບຫອຍທະເລ
ກາບເຫ
ກາມ
ກາຣ
ກາຣຫລ
ກາຣແຫ
ກາລ
ກາລະວ
ກາລາເຟ
ກາລາແຕ
ກາວ
ກາວຕ
ກາສ
ກາສະ
ກາເຈ
ກາເຊ
ກາເຟ
ກາເຟສຳເລ
ກາເມ
ກາເລ
ກາເໜ
ກາໂຕລ
ກາໂລດທ
ກາໃຕ
ກາໃນປ
ກາໄດ
ກຳ
ກຳກ
ກຳຈ
ກຳຕ
ກຳທ
ກຳນ
ກຳປ
ກຳມ
ກຳມະ
ກຳມະກອນ
ກຳມະການ
ກຳມະການກ
ກຳມະບານ
ກຳມະສ
ກຳລ
ກຳຫນ
ກຳເນ
ກຳເໜ
ກຳແພງເມ
ກຳໄລ
ກຳໜ
ກຽດ
ກຽດຊ
ກຽດຕ
ກຽມ
ກຽມຕ
ກເກ
ກເກນ
ກເຂ
ກເຄ
ກເຈ
ກເຊ
ກເດ
ກເຕ
ກເຕຣ
ກເຕະ
ກເຕະປະຈ
ກເຖ
ກເທ
ກເນ
ກເບ
ກເປ
ກເຜ
ກເພ
ກເມ
ກເລ
ກເວ
ກເສ
ກເສດຖະສາດ
ກເສບ
ກເຫ
ກເອ
ກເຮ
ກເໜ
ກແກ
ກແຂວງ
ກແຈ
ກແຕ
ກແທ
ກແນ
ກແບ
ກແບບໜ
ກແຜ
ກແພງ
ກແຟນເຜດ
ກແມ
ກແລ
ກແລະທ
ກແລະສ
ກແລະອ
ກແລະເຄ
ກແຫ
ກແອ
ກແຮດ
ກແໜ
ກໂກ
ກໂຈມຕ
ກໂຕ
ກໂຕນ
ກໂຕຣນ
ກໂຕແມ
ກໂທດ
ກໂທນ
ກໂທຣນ
ກໂນໂລຊ
ກໂນໂລຍ
ກໂນໂລຢ
ກໂຣມບ
ກໂລກ
ກໂລກເໜ
ກໃຈ
ກໃຊ
ກໃຕ
ກໃນ
ກໃນຊ
ກໃນທ
ກໃນບ
ກໃນປ
ກໃນພ
ກໃນວ
ກໃນສ
ກໃສ
ກໃຫ
ກໃຫຍ
ກໃໝ
ກໄກ
ກໄດ
ກໄທ
ກໄປ
ກໄພ
ກໄຟຟ
ກໄມ
ກໄລ
ກໄວ
ກໆ
ກໆຄ
ກໆປ
ກໆມ
ກໜ
ກໝ
ກໝາຍເຖ
ຂ
ຂຕ
ຂທ
ຂນ
ຂວ
ຂວາ
ຂວາງ
ຂວານ
ຂອງ
ຂອງກ
ຂອງກອງທ
ຂອງກອງປະຊ
ຂອງກະສ
ຂອງການປະກວດນາງງາມໃນປະເທດໄທຈ
ຂອງການສ
ຂອງຂ
ຂອງຂວ
ຂອງຄ
ຂອງຄອບຄ
ຂອງຈ
ຂອງຈຳນວນບ
ຂອງຊ
ຂອງຊາວບ
ຂອງຍ
ຂອງດ
ຂອງດາວເຄາະນ
ຂອງຕ
ຂອງຕຳບ
ຂອງທ
ຂອງທະວ
ຂອງນ
ຂອງນາງ
ຂອງນາງໄດ
ຂອງບ
ຂອງປ
ຂອງປະຊາຊ
ຂອງປະເທດ
ຂອງປະເທດຈ
ຂອງປະເທດຝະລ
ຂອງປະເທດລາວ
ຂອງປະເທດໄທ
ຂອງປະເທດໄທຈ
ຂອງຜ
ຂອງຝ
ຂອງພ
ຂອງພຣະພ
ຂອງພຣະອ
ຂອງພວກຖ
ຂອງພວກເຂ
ຂອງພະນ
ຂອງພະມ
ຂອງພະອ
ຂອງພະເຈ
ຂອງມ
ຂອງມະນ
ຂອງຣ
ຂອງລ
ຂອງລະບ
ຂອງລາວ
ຂອງລາວໄດ
ຂອງວ
ຂອງສ
ຂອງສະພາແຫ
ຂອງສະຫະລ
ຂອງສະຫະລາຊະອານາຈ
ຂອງສຳນ
ຂອງຫ
ຂອງຫວຽດນາມ
ຂອງອ
ຂອງອານາຈ
ຂອງຮ
ຂອງເຂ
ຂອງເຄ
ຂອງເຈ
ຂອງເດ
ຂອງເນ
ຂອງເຜ
ຂອງເພ
ຂອງເມ
ຂອງເຢຍລະມ
ຂອງເສ
ຂອງເອ
ຂອງເຮ
ຂອງແຂວງ
ຂອງແຕ
ຂອງແຜນການ
ຂອງແມ
ຂອງໂຄງການ
ຂອງໂລກ
ຂອງໄທ
ຂອນແກ
ຂອບ
ຂອບເຂດ
ຂອບໃຈ
ຂອມ
ຂະ
ຂະນ
ຂະນະ
ຂະນະດຽວກ
ຂະນະທ
ຂະນະນ
ຂະບວນການ
ຂະບວນການຕ
ຂະພາບ
ຂະພາບຈ
ຂະພາບດ
ຂະພາບທ
ຂະພາບແຂງແຮງ
ຂະສ
ຂະຫຍາຍ
ຂະຫຍາຍຕ
ຂະຫຍາຍໄປທ
ຂະຫນາດຕ
ຂະຫນາດນ
ຂະອະນາໄມ
ຂະອະນາໄມທ
ຂະເໝນ
ຂະແມ
ຂະແໜງ
ຂະແໜງອ
ຂະແໜງໜ
ຂະໜ
ຂະໜາດ
ຂະໜາດນ
ຂະໜາດໃຫຍ
ຂາ
ຂາງ
ຂາຍ
ຂາຍກ
ຂາຍດ
ຂາຍຕ
ຂາຍທ
ຂາຍມ
ຂາຍສ
ຂາຍຫ
ຂາຍາວ
ຂາຍໄດ
ຂາດ
ຂາດທ
ຂາດບ
ຂານ
ຂາບ
ຂາພ
ຂາວ
ຂາວະດ
ຂາເຂ
ຂຽນ
ຂຽນຂ
ຂຽນດ
ຂຽນບ
ຂຽນລ
ຂຽນວ
ຂຽນເປ
ຂຽນໂດຍ
ຂຽນໄວ
ຂຽວ
ຂເປ
ຄ
ຄຄ
ຄຣ
ຄລ
ຄວ
ຄວນ
ຄວນຈະເປ
ຄວນຕ
ຄວນປະຕ
ຄວນມ
ຄວນສ
ຄວບ
ຄວບຄ
ຄວາຍ
ຄວາມ
ຄວາມກ
ຄວາມກວ
ຄວາມຂ
ຄວາມຄ
ຄວາມງ
ຄວາມຈ
ຄວາມຈະເລ
ຄວາມຈຳເປ
ຄວາມຊ
ຄວາມຊງຈຳ
ຄວາມຍ
ຄວາມຍາວ
ຄວາມຍາວຄ
ຄວາມຍາວທ
ຄວາມຍາວປະມານ
ຄວາມດ
ຄວາມຕ
ຄວາມຕາຍ
ຄວາມຖ
ຄວາມທ
ຄວາມນ
ຄວາມບ
ຄວາມປ
ຄວາມປອດໄພ
ຄວາມຜ
ຄວາມຝ
ຄວາມພ
ຄວາມມ
ຄວາມຢ
ຄວາມລ
ຄວາມວ
ຄວາມສ
ຄວາມສະຫງ
ຄວາມສະເໝ
ຄວາມສາມ
ຄວາມສາມາດ
ຄວາມສຳຄ
ຄວາມສຳນ
ຄວາມສຳພ
ຄວາມສຳເລ
ຄວາມຫ
ຄວາມຫຍ
ຄວາມຫວ
ຄວາມອ
ຄວາມຮ
ຄວາມເຂ
ຄວາມເຄ
ຄວາມເຈ
ຄວາມເຊ
ຄວາມເທ
ຄວາມເປ
ຄວາມເລ
ຄວາມເສ
ຄວາມເຫ
ຄວາມເໝາະສ
ຄວາມແຈ
ຄວາມແຕກຕ
ຄວາມແຫ
ຄວາມແຮງ
ຄວາມໂກດ
ຄວາມໂງ
ຄວາມໂດດເດ
ຄວາມໂສກເສ
ຄວາມໃກ
ຄວາມໄດ
ຄວາມໄວ
ຄວາມໄວສ
ຄວາມໄວສຽງ
ຄວາມໄວແສງ
ຄວາມໜ
ຄວາມໜາແໜ
ຄວາມໝ
ຄວາມໝາຍ
ຄວາມໝາຍຂອງ
ຄວາມໝາຍວ
ຄສ
ຄອກ
ຄອກໝ
ຄອງ
ຄອງຄ
ຄອງນ
ຄອງບ
ຄອງຜະດ
ຄອງວ
ຄອງຫ
ຄອງເຕ
ຄອງແສນແສບ
ຄອຍ
ຄອຍຊ
ຄອນ
ຄອນຕ
ຄອນພະເພ
ຄອນເສ
ຄອບ
ຄອບຄ
ຄອມ
ຄອມພ
ຄອມມ
ຄອມມອນສ
ຄະ
ຄະດ
ຄະຕ
ຄະນ
ຄະນະ
ຄະນະກ
ຄະນະກຳມະການ
ຄະນະຈ
ຄະນະທ
ຄະນະນ
ຄະນະບ
ຄະນະປະຈຳສະພາແຫ
ຄະນະຜ
ຄະນະພ
ຄະນະລ
ຄະນະວ
ຄະນະສ
ຄະນະອ
ຄະລ
ຄະລະທ
ຄະແນນ
ຄາ
ຄາງ
ຄາຍ
ຄາດ
ຄາດຄະເນ
ຄາດວ
ຄານ
ຄາມ
ຄາຣ
ຄາລ
ຄາລາບາວ
ຄາວ
ຄາສ
ຄຳ
ຄຳກ
ຄຳກອນ
ຄຳກຳມະ
ຄຳຂວ
ຄຳຄ
ຄຳຕ
ຄຳຕອບ
ຄຳຖາມ
ຄຳຖາມມ
ຄຳທ
ຄຳນ
ຄຳນວນ
ຄຳນາມ
ຄຳບ
ຄຳປ
ຄຳຜ
ຄຳພ
ຄຳພອນ
ຄຳມ
ຄຳລ
ຄຳວ
ຄຳສ
ຄຳຫຍ
ຄຳອ
ຄຳຮ
ຄຳເຄ
ຄຳເມ
ຄຳເວ
ຄຳເຫ
ຄຳເອ
ຄຳແທນນາມ
ຄຳແປພ
ຄຳແປເປ
ຄຳໄຊ
ຄຳໝ
ຄຽງ
ຄຽງກ
ຄຽງຄ
ຄຽດ
ງ
ງກ
ງກວ
ງກວມເອ
ງກອງ
ງກອງທ
ງກອນ
ງກອນທ
ງກອນບ
ງກອນມ
ງກອນມະຫາວ
ງກອນລ
ງກອນສ
ງກະລ
ງກະລາເທດ
ງກະສ
ງກະເສມ
ງກະເສມເປ
ງກະໂປ
ງກາ
ງກາງ
ງກາງແມ
ງກາຍ
ງກາຍທ
ງກາຍເປ
ງກາດ
ງການ
ງການກ
ງການຂ
ງການຂອງລ
ງການຄ
ງການຈ
ງການຊ
ງການຍ
ງການດ
ງການຕ
ງການທ
ງການທຽບເທ
ງການນ
ງການບ
ງການປ
ງການປະຕ
ງການປະເທດໃຊ
ງການຜະລ
ງການພ
ງການພຣະພ
ງການມ
ງການຢ
ງການລ
ງການສ
ງການສະຫວ
ງການສະຫະປະຊາຊາດ
ງການອ
ງການອະນາໄມໂລກ
ງການອານາໄມໂລກ
ງການຮ
ງການເມ
ງການເລ
ງການເຮ
ງການແຂ
ງການແຮງງານສາກ
ງການໃຊ
ງການໃຫ
ງການໄດ
ງການໄປສະນ
ງການໄອຍາການປະຊາຊ
ງກາຣ
ງກາລ
ງກາວ
ງກາສ
ງກາໂຕລ
ງກຳກ
ງກຳນ
ງກຳປ
ງກຳລ
ງກຳເນ
ງກຳໜ
ງຂ
ງຂວ
ງຂວາ
ງຂອງ
ງຂອງກ
ງຂອງການປະຊ
ງຂອງຈ
ງຂອງຊ
ງຂອງຍ
ງຂອງດ
ງຂອງຕ
ງຂອງທ
ງຂອງນ
ງຂອງບ
ງຂອງປ
ງຂອງປະເທດ
ງຂອງປະເທດລາວ
ງຂອງປະເທດໄທ
ງຂອງຜ
ງຂອງພ
ງຂອງມ
ງຂອງມະຫາວ
ງຂອງລ
ງຂອງລາວ
ງຂອງວ
ງຂອງສ
ງຂອງຫ
ງຂອງອ
ງຂອງອານາຈ
ງຂອງຮ
ງຂອງເຂ
ງຂອງເຈ
ງຂອງເມ
ງຂອງໂລກ
ງຂອນ
ງຂອນວ
ງຂະນະນ
ງຂະໜາດໃຫຍ
ງຂາ
ງຂານ
ງຂານຂ
ງຂານທ
ງຂາຣາ
ງຄ
ງຄວບຄ
ງຄວາມ
ງຄວາມກ
ງຄວາມຄ
ງຄວາມຈ
ງຄວາມຈະເລ
ງຄວາມດ
ງຄວາມຕ
ງຄວາມທ
ງຄວາມບ
ງຄວາມສ
ງຄວາມສຳຄ
ງຄວາມອ
ງຄວາມຮ
ງຄວາມເປ
ງຄວາມເຫ
ງຄອນຕ
ງຄະ
ງຄະທາດ
ງຄະນ
ງຄະມ
ງຄະລ
ງຄະລາດ
ງຄະລາດກ
ງຄະສ
ງຄະແນນສຽງ
ງຄະໂປ
ງຄາ
ງຄານ
ງຄານທ
ງຄາມ
ງຄາມກ
ງຄາມກາງເມ
ງຄາມທ
ງຄາມພ
ງຄາມລະຫວ
ງຄາມຫວຽດນາມ
ງຄາມອ
ງຄາມເກ
ງຄາມເຢ
ງຄາມໂລກ
ງຄາມໂລກຄ
ງຄາເຮ
ງຄຳ
ງຄຳນາມ
ງຄຳວ
ງຄຳແປທ
ງງ
ງງານ
ງງານກ
ງງານຄວາມຮ
ງງານທ
ງງານນ
ງງານລ
ງງານສ
ງງານແບບຍ
ງງານແສງຕາເວ
ງງານໄຟ
ງງານໄຟຟ
ງຈ
ງຈອນ
ງຈອນໄຟຟ
ງຈະ
ງຈະກ
ງຈະຊ
ງຈະຕ
ງຈະຖ
ງຈະບ
ງຈະມ
ງຈະສ
ງຈະເກ
ງຈະເປ
ງຈະເລ
ງຈະເຫ
ງຈະເຮ
ງຈະໃຊ
ງຈະໄດ
ງຈາກ
ງຈາກກ
ງຈາກການເປ
ງຈາກຂ
ງຈາກຄ
ງຈາກຈ
ງຈາກຕ
ງຈາກທ
ງຈາກນ
ງຈາກບ
ງຈາກປ
ງຈາກຜ
ງຈາກພ
ງຈາກມ
ງຈາກຢ
ງຈາກລ
ງຈາກລະດ
ງຈາກສ
ງຈາກເຮ
ງຈາກໄດ
ງຈຳ
ງຈຳນວນ
ງຈຳເປ
ງຊ
ງຊະນ
ງຊະນະເລ
ງຊາຍ
ງຊາດ
ງຊາດຂອງອ
ງຊາດຊ
ງຊາດດ
ງຊາດທ
ງຊາດນ
ງຊາດບ
ງຊາດພ
ງຊາດຟ
ງຊາດມ
ງຊາດລາວ
ງຊາດສ
ງຊາດເປ
ງຊາດໄດ
ງຊາດໄທ
ງຊານ
ງຊາວບ
ງຊາວໄທ
ງຊຽງແກ
ງຍ
ງຍາກ
ງຍາກສ
ງດ
ງດອກ
ງດອງ
ງດານມາກ
ງດາລາ
ງດາວສະເດ
ງດຳລ
ງດຳເນ
ງດຽວ
ງດຽວກ
ງດຽວທ
ງດຽວເທ
ງຕ
ງຕອນນ
ງຕະຫ
ງຕະເວ
ງຕາກຕ
ງຕາມ
ງຕາມທ
ງຕາມສ
ງຕາມຫ
ງຕາເວ
ງຕຳບ
ງຕຳລ
ງຕຳແໜ
ງຖ
ງຖະໜ
ງທ
ງທອງ
ງທອງຫ
ງທະນ
ງທະເລ
ງທາງ
ງທາງການເມ
ງທາງດ
ງທາງທ
ງທາງບ
ງທາງລ
ງທາດ
ງທາດຫ
ງທຳ
ງທຳອ
ງນ
ງນະຄອນຫ
ງນາ
ງນາຍ
ງນຳໄປສ
ງບ
ງບອກ
ງບອກເຖ
ງບອກໃຫ
ງບາງຄ
ງບາງສ
ງບຳເພ
ງປ
ງປວງ
ງປະກ
ງປະກອບ
ງປະກອບດ
ງປະກອບທ
ງປະກອບມ
ງປະກອບສ
ງປະກອບອາວ
ງປະກອບໄປດ
ງປະຈ
ງປະຊາຊ
ງປະດ
ງປະຕ
ງປະຖ
ງປະທ
ງປະທານາທ
ງປະພ
ງປະມ
ງປະມານ
ງປະລ
ງປະສ
ງປະຫວ
ງປະເທດລາວ
ງປະເທດໄທ
ງປາກ
ງຜ
ງຜະລ
ງຝ
ງຝຣ
ງພ
ງພຣະພ
ງພຣະສ
ງພຣະອ
ງພວກເຂ
ງພະກະລ
ງພະຍ
ງພະຍາໄທ
ງພະທາດ
ງພະນ
ງພະນະຄອນ
ງພະບ
ງພະບາດສ
ງພະພ
ງພະມະຫາກະສ
ງພະຣ
ງພະລ
ງພະລາຊະນ
ງພະສ
ງພະອ
ງພະເຈ
ງພາກ
ງພາຍຫ
ງພາຍໃຕ
ງພາຍໃນ
ງພາຍໃນແລະຕ
ງພຽງ
ງພຽງນ
ງພຽງວຽງຈ
ງຟ
ງມ
ງມວນຊ
ງມອບ
ງມອບສ
ງມະຕ
ງມະນ
ງມະຫ
ງມະຫາຊ
ງມະຫາວ
ງມະຫາສະໝ
ງມາ
ງມາກ
ງມາຊ
ງມາຕ
ງມາທາງໃຕ
ງມາຢ
ງມາລ
ງມາເກ
ງມາເຖ
ງມາເປ
ງມາເພ
ງຢ
ງຣ
ງລ
ງລວມ
ງລວມທ
ງລວມມ
ງລວມເຖ
ງລອນດອນ
ງລະຄອນໂທລະທ
ງລະດ
ງລະບ
ງລະຫວ
ງລາຊະວ
ງລາຊະອານາຈ
ງລາວ
ງລາວກ
ງລາວໄດ
ງວ
ງວງ
ງວອນ
ງວານ
ງວຽງ
ງວຽງຈ
ງວຽນ
ງວຽນໃຫຍ
ງສ
ງສວນດ
ງສອງ
ງສອງກ
ງສອງຂ
ງສອງຄ
ງສອງຈ
ງສອງຊ
ງສອງດ
ງສອງທ
ງສອງນ
ງສອງຝ
ງສອງຟາກຝ
ງສອງຢ
ງສອງໄດ
ງສອນ
ງສະກ
ງສະຖ
ງສະຖານ
ງສະຖານທ
ງສະຖາບ
ງສະບ
ງສະມ
ງສະມາຄ
ງສະມາຊ
ງສະລ
ງສະວ
ງສະຫ
ງສະຫວ
ງສະຫະນາດ
ງສະຫະປະຊາຊາດ
ງສະຫະພ
ງສະຫະລ
ງສະຫະລາຊະອານາຈ
ງສະເດ
ງສະເລ
ງສະເໜ
ງສະແດງໃຫ
ງສະໜ
ງສະໝ
ງສາ
ງສາກ
ງສາຕະວ
ງສາທ
ງສາທາລະນະລ
ງສານ
ງສາມ
ງສາມຄ
ງສາມຊ
ງສາມນ
ງສາມາດພ
ງສາມາດສ
ງສາລ
ງສາລະວ
ງສາວ
ງສາວະດ
ງສາວະດານ
ງສາເຊ
ງສາເຫນ
ງສາໃຕ
ງສຳຄ
ງສຳນ
ງສຳລ
ງສຳເລ
ງຫ
ງຫຍ
ງຫນ
ງຫມ
ງຫມາຍຄວາມວ
ງຫມາຍທ
ງຫມາຍເຖ
ງຫລ
ງຫລວງ
ງຫລວງພະບາງ
ງຫລາຍ
ງຫລາຍຈ
ງຫລາຍຖ
ງຫລາຍໃຫ
ງຫວ
ງຫວະ
ງຫາ
ງຫາກ
ງຫານ
ງຫານເມ
ງຫານໝ
ງຫາປ
ງຫາລ
ງອ
ງອອກ
ງອອກສ
ງອອກເປ
ງອອກໄດ
ງອະດ
ງອະທ
ງອະນ
ງອະພ
ງອາກ
ງອາຊ
ງອາຍ
ງອາດກ
ງອາດເປ
ງອາທ
ງອານາຈ
ງອາລ
ງອາວ
ງອາຫານ
ງອາໄສຢ
ງອຳເພ
ງຮ
ງຮອງຊະນະເລ
ງຮອບ
ງຮຽກວ
ງາ
ງານ
ງານທ
ງານບ
ງານປະເພນ
ງານວ
ງານສ
ງານເຮ
ງາມ
ງາມຂອງຊາດ
ງາມທ
ງເກ
ງເກດ
ງເກດວ
ງເກດເຫ
ງເຂ
ງເຂດ
ງເຂດການປ
ງເຂດຊ
ງເຂດຕ
ງເຂດນ
ງເຂດປ
ງເຄ
ງເຄາະ
ງເງ
ງເຈ
ງເຊ
ງເຊໂດນ
ງເຍ
ງເດ
ງເຕ
ງເຖ
ງເທ
ງເທບ
ງເທບທ
ງເທບມະຫານະຄອນ
ງເນ
ງເບ
ງເປ
ງເຜ
ງເພ
ງເພງ
ງເພດ
ງເມ
ງເຣ
ງເລ
ງເວ
ງເວທ
ງເວລາທ
ງເສ
ງເສດ
ງເສດເຫ
ງເສລ
ງເຫ
ງເຫລ
ງເອ
ງເອງ
ງເຮ
ງເໜ
ງເໝ
ງແກ
ງແຂ
ງແຄ
ງແຈ
ງແຊ
ງແຍກດ
ງແຍງ
ງແດ
ງແດງ
ງແຕ
ງແຕກຕ
ງແທ
ງແທນ
ງແບ
ງແປວ
ງແຜ
ງແມ
ງແລ
ງແລະ
ງແລະກ
ງແລະຄ
ງແລະຕ
ງແລະນ
ງແລະຜ
ງແລະມ
ງແລະລ
ງແລະຫ
ງແລະອ
ງແລະຮ
ງແລະເປ
ງແວດລ
ງແສງ
ງແສນ
ງແຫ
ງແອສະປາຍ
ງແຮງ
ງໂກ
ງໂກລ
ງໂກລາ
ງໂຄ
ງໂຄຈອນ
ງໂຄຈອນຂອງດາວພ
ງໂດກ
ງໂດຍ
ງໂດຍທ
ງໂດຍບ
ງໂດຍເລ
ງໂຕ
ງໂຕທອງ
ງໂທດ
ງໂປດເກ
ງໂປດໃຫ
ງໂຣມ
ງໂລກ
ງໂໜ
ງໃຈ
ງໃຈໄວ
ງໃຊ
ງໃດ
ງໃດກ
ງໃດທ
ງໃດສ
ງໃດຫນ
ງໃດໜ
ງໃຕ
ງໃນ
ງໃນກ
ງໃນການສ
ງໃນຂະນະນ
ງໃນຄ
ງໃນຈ
ງໃນຊ
ງໃນຍ
ງໃນດ
ງໃນຕ
ງໃນທ
ງໃນທະວ
ງໃນນ
ງໃນບ
ງໃນປ
ງໃນປະເທດໄທ
ງໃນຜ
ງໃນພ
ງໃນພາກຕາເວ
ງໃນມ
ງໃນລະດ
ງໃນລະຫວ
ງໃນວ
ງໃນສ
ງໃນສະມາຊ
ງໃນຫ
ງໃນອ
ງໃນອະດ
ງໃນຮ
ງໃນເດ
ງໃນເມ
ງໃນແຂວງໜອງບ
ງໃນແຕ
ງໃນໂລກ
ງໃນໜ
ງໃວ
ງໃສ
ງໃຫ
ງໃຫຍ
ງໃຫມ
ງໃໝ
ງໄກ
ງໄຂ
ງໄຄ
ງໄຊ
ງໄດ
ງໄທ
ງໄປ
ງໄປກ
ງໄປຍ
ງໄປທ
ງໄປປະກວດ
ງໄປຢ
ງໄປສ
ງໄປໄດ
ງໄຟ
ງໄຟຟ
ງໄຟລ
ງໄມ
ງໄວ
ງໄວລ
ງໄສ
ງໄຫ
ງໄຫຫ
ງໆ
ງໆທ
ງໜ
ງໝ
ງໝາຍຄວາມວ
ງໝາຍເຖ
ຈ
ຈຈ
ຈທ
ຈສ
ຈອກ
ຈອກແກ
ຈອງ
ຈອດ
ຈອນ
ຈອມ
ຈອມພ
ຈະ
ຈະກ
ຈະກາຍເປ
ຈະຂ
ຈະຄ
ຈະຈ
ຈະຊ
ຈະຍ
ຈະດ
ຈະຕ
ຈະຖ
ຈະນ
ຈະບ
ຈະປ
ຈະປະຕ
ຈະປະສ
ຈະພ
ຈະມ
ຈະຢ
ຈະຣ
ຈະລ
ຈະສ
ຈະສາມາດ
ຈະຫ
ຈະຫລວດ
ຈະອ
ຈະຮ
ຈະເກ
ຈະເຂ
ຈະເຖ
ຈະເທ
ຈະເປ
ຈະເຣ
ຈະເລ
ຈະເວ
ຈະເຫ
ຈະເອ
ຈະເຮ
ຈະແຈ
ຈະແຕກຕ
ຈະແມ
ຈະໃຊ
ຈະໃຫ
ຈະໄດ
ຈະໝາຍເຖ
ຈາ
ຈາກ
ຈາກກ
ຈາກການ
ຈາກການຄ
ຈາກການທ
ຈາກການສ
ຈາກຂ
ຈາກຄ
ຈາກຈ
ຈາກຊ
ຈາກຕ
ຈາກທ
ຈາກນ
ຈາກບ
ຈາກປ
ຈາກຜ
ຈາກພ
ຈາກພາສາຈ
ຈາກພາສາຝະລ
ຈາກມ
ຈາກມະຫາວ
ຈາກລ
ຈາກວ
ຈາກສ
ຈາກຫ
ຈາກອ
ຈາກເດ
ຈາກເມ
ຈາກໄປ
ຈາງ
ຈາຕ
ຈານ
ຈາມ
ຈາຣ
ຈາລ
ຈາລະນາ
ຈາລະນາຄະດ
ຈາລະນາຕ
ຈາລະນາວ
ຈາລະນາຮ
ຈຳ
ຈຳກ
ຈຳຕ
ຈຳນວນ
ຈຳນວນຄ
ຈຳນວນຈ
ຈຳນວນຖ
ຈຳນວນທຳມະຊາດ
ຈຳນວນບ
ຈຳນວນປ
ຈຳນວນປະຊາກອນຫ
ຈຳນວນຜ
ຈຳນວນພ
ຈຳນວນສ
ຈຳນວນຫ
ຈຳນວນອະປ
ຈຳນວນເງ
ຈຳນວນໜ
ຈຳປາ
ຈຳປາສ
ຈຳພ
ຈຳພວກປາໜ
ຈຳພວກມ
ຈຳພວກລ
ຈຳພວກອ
ຈຳພວກໜ
ຈຳລອງ
ຈຳເປ
ຈຳໜ
ຈຽງ
ຊ
ຊຊ
ຊນະນ
ຊມ
ຊຣາດ
ຊວ
ຊວງ
ຊວນຊ
ຊອກ
ຊອກຫາ
ຊອງ
ຊອງປ
ຊອງຫນ
ຊອຍ
ຊອຍປະຊາຊ
ຊອຍພະຫ
ຊອຍສ
ຊອຍເຖ
ຊອດ
ຊອນ
ຊອບ
ຊອຟຕ
ຊະ
ຊະຊະຊ
ຊະຕ
ຊະນ
ຊະນະ
ຊະນະການປະກວດຈະຕ
ຊະນະນ
ຊະນະສ
ຊະນະເລ
ຊະນະແມ
ຊະນະໃນປ
ຊະນະໄດ
ຊາ
ຊາກ
ຊາກຊ
ຊາກດ
ຊາການ
ຊາການຕ
ຊາການທ
ຊາຄ
ຊາງ
ຊາຊ
ຊາຍ
ຊາຍທ
ຊາຍຝ
ຊາຍແດນ
ຊາຍແດນຕ
ຊາຍແດນລາວ
ຊາດ
ຊາດນ
ຊາດພ
ຊາດສ
ຊາຕ
ຊາທ
ຊາທຳມະສາດແລະການເມ
ຊານ
ຊານດຣ
ຊາບ
ຊາພ
ຊາມ
ຊາລ
ຊາວ
ຊາວກະສ
ຊາວຄ
ຊາວຄຣ
ຊາວຈ
ຊາວຊ
ຊາວຕ
ຊາວນາ
ຊາວບ
ຊາວຝຣ
ຊາວພ
ຊາວພະມ
ຊາວມ
ຊາວຢ
ຊາວລາວ
ຊາວອ
ຊາວອາເມລ
ຊາວເມ
ຊາວໄທ
ຊາວໄທລ
ຊາວໜ
ຊາອ
ຊາເປ
ຊາເລ
ຊາແບ
ຊຽງ
ຊຽງຂວາງ
ຊຽງຂອງ
ຊຽງທອງ
ຊຽງຮ
ຊຽງໃໝ
ຊຽນ
ຍ
ຍກ
ຍການ
ຍການໄດ
ຍຂ
ຍຄ
ຍຄຕ
ຍຈ
ຍຊ
ຍຍ
ຍດ
ຍດຳລ
ຍຕ
ຍຖ
ຍທ
ຍນ
ຍນທ
ຍບ
ຍປ
ຍປະມານ
ຍຜ
ຍພ
ຍມ
ຍຢ
ຍຢານ
ຍລ
ຍວ
ຍວນ
ຍສ
ຍຫ
ຍອ
ຍອຍ
ຍອດ
ຍອດນ
ຍອມ
ຍອມຮ
ຍຮ
ຍະ
ຍະກ
ຍະຄ
ຍະຄະຕ
ຍະຍ
ຍະທ
ຍະທຳ
ຍະບ
ຍະພ
ຍະມະຫາສະຫວາມ
ຍະມາດ
ຍະມາວະດ
ຍະວ
ຍະສ
ຍະສະຖານ
ຍະສາດ
ຍາ
ຍາກ
ຍາກອນ
ຍາງ
ຍາຈາມະ
ຍາຍ
ຍາດ
ຍາດຂອງຊອຟຕ
ຍາດພ
ຍາດໃຫ
ຍາຕໃຫ
ຍາທ
ຍານ
ຍານພາຫະນະ
ຍານອາວະກາດ
ຍານແຫ
ຍາພ
ຍາມ
ຍາມທ
ຍາວ
ຍາວທ
ຍາວເຖ
ຍາເຄມ
ຍເກ
ຍເຂ
ຍເຊ
ຍເດ
ຍເຖ
ຍເປ
ຍເລ
ຍເວ
ຍເຫ
ຍເອ
ຍເຮ
ຍແຂງ
ຍແຜ
ຍແພ
ຍແມ
ຍແລ
ຍໃຊ
ຍໃຫ
ຍໄດ
ດ
ດກ
ດກວ
ດກວາງສ
ດກອງທ
ດກອງປະຊ
ດກະຈາຍ
ດກະຕ
ດກະບ
ດກະວ
ດກະສ
ດກະເສມ
ດກະແສໄຟຟ
ດກາງ
ດການ
ດການກ
ດການການເງ
ດການຂ
ດການຄ
ດການຈ
ດການຊ
ດການດ
ດການດຳເນ
ດການຕ
ດການທ
ດການນ
ດການບ
ດການປ
ດການປະກວດ
ດການປະກວດຄ
ດການປະກວດນາງງາມສ
ດການປະກວດມ
ດການປະກວດມາດ
ດການປະກວດຮອບຕ
ດການປະຕ
ດການພ
ດການລ
ດການວ
ດການສ
ດການອ
ດການຮ
ດການເຄ
ດການເງ
ດການເປ
ດການເມ
ດການແຂ
ດການໃຊ
ດກຳເນ
ດຂ
ດຂວາ
ດຂວາງ
ດຂວາງຄວາມກ
ດຂອງ
ດຂອງກ
ດຂອງຄ
ດຂອງຈ
ດຂອງຊ
ດຂອງຕ
ດຂອງທ
ດຂອງນ
ດຂອງບ
ດຂອງປ
ດຂອງປະຊາຊ
ດຂອງປະເທດ
ດຂອງປະເທດລາວ
ດຂອງປະເທດໄທ
ດຂອງຜ
ດຂອງພ
ດຂອງພວກເຂ
ດຂອງພະບາດສ
ດຂອງພະອ
ດຂອງມ
ດຂອງລ
ດຂອງລາວ
ດຂອງວ
ດຂອງສ
ດຂອງສະຫະລ
ດຂອງຫ
ດຂອງອ
ດຂອງຮ
ດຂອງເຂ
ດຂອງເຈ
ດຂອງເພ
ດຂອງເມ
ດຂອງເຢຍລະມ
ດຂອງໂລກ
ດຂອນແກ
ດຂະຫຍາຍຕ
ດຂະໜາດນ
ດຂະໜາດໃຫຍ
ດຂາດ
ດຂຽນ
ດຄ
ດຄວາມ
ດຄວາມກ
ດຄວາມຊ
ດຄວາມດ
ດຄວາມທ
ດຄວາມນ
ດຄວາມບ
ດຄວາມວ
ດຄວາມສ
ດຄວາມຫ
ດຄວາມຫລ
ດຄວາມຮ
ດຄວາມເຂ
ດຄວາມເປ
ດຄວາມໃຄ
ດຄອງ
ດຄອງປະເພນ
ດຄອງອ
ດຄອນຕ
ດຄອບຄ
ດຄຳ
ດຄຳສ
ດງ
ດງານ
ດງານເທດສະການດອກງ
ດງາມ
ດຈ
ດຈອດກ
ດຈອມເຂ
ດຈອມເພ
ດຈະ
ດຈະກ
ດຈະການ
ດຈະການທ
ດຈະການບ
ດຈະການອ
ດຈະກຳ
ດຈະກຳຕ
ດຈະກຳທ
ດຈະນານ
ດຈະບ
ດຈະມ
ດຈະລ
ດຈະເປ
ດຈະເລ
ດຈະເຮ
ດຈາ
ດຈາກ
ດຈາກກ
ດຈາກຂ
ດຈາກທ
ດຈາກນ
ດຈາກບ
ດຈາກຜ
ດຈາກພ
ດຈາກສ
ດຈາກຫ
ດຈານ
ດຈຳກ
ດຈຳນວນ
ດຈຳນວນຫ
ດຈຳໜ
ດຊ
ດຊອບ
ດຊອບກ
ດຊອບດ
ດຊອບຕ
ດຊະການທ
ດຊະຄະນ
ດຊະຍາ
ດຊະດາພ
ດຊະນ
ດຊະບ
ດຊະມ
ດຊະຣ
ດຊະລ
ດຊະລາດ
ດຊະສະໄໝພະບາດສ
ດຊະເນຍຕ
ດຊາ
ດຊາດ
ດຊາດທ
ດຊຽງທອງ
ດຊຽງຣາຍ
ດຊຽງໃໝ
ດຍ
ດຍອດ
ດຍາ
ດຍາວ
ດດ
ດດອກງ
ດດາ
ດດຳລ
ດດຽວ
ດດຽວກ
ດດຽວນ
ດຕ
ດຕະ
ດຕະກ
ດຕະການ
ດຕະກຳ
ດຕະຈ
ດຕະຊ
ດຕະຍ
ດຕະຍະກ
ດຕະຍະກຳ
ດຕະຍະກຳສາດ
ດຕະຍະສານ
ດຕະນະກ
ດຕະນະວ
ດຕະນະສ
ດຕະນະໂກສ
ດຕະນາກ
ດຕະນາຄະນະຫ
ດຕະປ
ດຕະພ
ດຕະພາບ
ດຕະພາບລາວ
ດຕະມ
ດຕະລ
ດຕະວ
ດຕະວາ
ດຕະສ
ດຕະສະຕະວ
ດຕະຫ
ດຕະເວ
ດຕະໂນປະລ
ດຕະໂນມ
ດຕາ
ດຕາການຈະເລ
ດຕາການຕາຍ
ດຕາການເກ
ດຕາຄວາມຊ
ດຕາດ
ດຕາດອກເບ
ດຕາທ
ດຕານ
ດຕາພາສ
ດຕາມ
ດຕາມກ
ດຕາມຂ
ດຕາມຕ
ດຕາມທ
ດຕາມຜ
ດຕາມລະຫ
ດຕາມວ
ດຕາມສ
ດຕາມຫ
ດຕາວ
ດຕາສ
ດຕາເງ
ດຕາເລ
ດຕາເວ
ດຕາແລກປ
ດຕຳບ
ດຕຳແໜ
ດຖ
ດຖະ
ດຖະກ
ດຖະກອນ
ດຖະການ
ດຖະກຳ
ດຖະຍ
ດຖະດຳລ
ດຖະທ
ດຖະທຳ
ດຖະທຳມະນ
ດຖະບ
ດຖະບານ
ດຖະບານກ
ດຖະບານກາງ
ດຖະບານຈ
ດຖະບານຊ
ດຖະບານຍ
ດຖະບານທ
ດຖະບານທະຫານພະມ
ດຖະບານປະສ
ດຖະບານຜະເດ
ດຖະບານພ
ດຖະບານມ
ດຖະບານຢ
ດຖະບານລາວ
ດຖະບານອ
ດຖະບານແຫ
ດຖະບານໄດ
ດຖະບານໄທ
ດຖະປະຫານ
ດຖະມ
ດຖະລ
ດຖະສ
ດຖະສະພາ
ດຖະສາດ
ດຖະໜ
ດຖາຍະ
ດຖາທ
ດຖານ
ດຖານວ
ດທ
ດທະ
ດທະຍ
ດທະຍອດຟ
ດທະຍາ
ດທະຍາຂ
ດທະຍາຄ
ດທະຍາຄານ
ດທະຍານແຫ
ດທະນະ
ດທະນະທ
ດທະນະທຳ
ດທະນະທຳທ
ດທະນະທຳທາງຝ
ດທະນະທຳລາວ
ດທະນະທຳອ
ດທະນະທຳແຫ
ດທະນາ
ດທະນາກ
ດທະນາການ
ດທະນາການທ
ດທະນາການສ
ດທະນາຂ
ດທະນາຊ
ດທະນາຕ
ດທະນາຖາວອນ
ດທະນາທ
ດທະນາທາງດ
ດທະນາທຳ
ດທະນາບ
ດທະນາປະເທດຊາດ
ດທະນາພ
ດທະນາມະນ
ດທະນາຢ
ດທະນາລະບ
ດທະນາວ
ດທະນາສ
ດທະນາອ
ດທະນາອາຊ
ດທະນາເປ
ດທະນາເພ
ດທະນາເມ
ດທະນາເສດຖະກ
ດທະນາແບບຍ
ດທະນາແລ
ດທະນາໂດຍ
ດທະນາໃຫ
ດທະນາໄດ
ດທະບາດ
ດທະພ
ດທະມ
ດທະລ
ດທະວ
ດທະສ
ດທະສະຕະວ
ດທະສາດ
ດທະສາດສະໜາ
ດທະສາດເນ
ດທະສາສນາ
ດທະສາສະນ
ດທະສາສະນາ
ດທະສາສະນາສພ
ດທະສາສະນາສຳພ
ດທະສາສະຫນາ
ດທະສາສະໜາ
ດທະສາສະໜານ
ດທະສາສະໜາສ
ດທະອ
ດທະຮ
ດທະເຈ
ດທະເລ
ດທາ
ດທາງ
ດທາງກ
ດທາງການເມ
ດທາງງ
ດທາງດ
ດທາງທ
ດທາງນ
ດທາງວ
ດທາງສຽງ
ດທາງອາກາດ
ດທາດຫລວງເຫນ
ດທາທ
ດທານ
ດທາວາດ
ດທາສ
ດທຳອ
ດນ
ດນະຄອນນາຍ
ດນະຄອນປະຖ
ດນະຄອນລາຊະສ
ດນະຄອນສະຫວ
ດນາ
ດນາກ
ດນາຍ
ດນາເປ
ດນຳ
ດບ
ດບາງຊະນ
ດບາດ
ດບາດຍ
ດບາດຕ
ດບາດທ
ດບາດບ
ດບາດສ
ດບາດສຳຄ
ດປ
ດປະກ
ດປະກວດ
ດປະກວດແຕ
ດປະກອບດ
ດປະຈ
ດປະຈຳປ
ດປະຈຳວ
ດປະຊາຊ
ດປະຊາທ
ດປະຊານາດ
ດປະດ
ດປະຕ
ດປະທ
ດປະພ
ດປະມານ
ດປະລ
ດປະສ
ດປະເທດ
ດປະເພດອ
ດປາກ
ດປາກວ
ດປາການ
ດປາຈ
ດປາຊ
ດຜ
ດຜະລ
ດຝ
ດຝຣ
ດພ
ດພຣະບ
ດພຣະລາຊາທ
ດພຣະສ
ດພຣະສຣ
ດພຣະອ
ດພຣະເຈ
ດພະຈ
ດພະຈອມເກ
ດພະນ
ດພະນະຄອນ
ດພະນະຄອນຖ
ດພະນະຄອນສ
ດພະນາງເຈ
ດພະນາມ
ດພະບ
ດພະບາດສ
ດພະປ
ດພະພ
ດພະມ
ດພະມະຫ
ດພະລ
ດພະລາຊ
ດພະລາຊະກ
ດພະລາຊະດຳເນ
ດພະລາຊະສ
ດພະລາຊາທ
ດພະສ
ດພະອ
ດພະເຈ
ດພະເຍ
ດພະເທບພະຣ
ດພາຍໃຕ
ດພາດ
ດພາລະກ
ດຟ
ດຟລ
ດມ
ດມະນ
ດມະຫາວ
ດມະຫາສ
ດມະຫາສະໝ
ດມະໂຫດ
ດມາ
ດມາກ
ດມາຈາກ
ດມາຊ
ດມາພ
ດມາເກໂດເນຍ
ດມາເປ
ດມາແຕ
ດມາແມ
ດຢ
ດຢາກ
ດຣ
ດຣຳໄພພ
ດລ
ດລອງ
ດລອຍນ
ດລະ
ດລະດ
ດລະດາ
ດລະບ
ດລະບຽບ
ດລະວ
ດລະຫວ
ດລາຊະກ
ດລາຊະການແທນພະອ
ດລາຊະບ
ດລາຊະພ
ດລາຍການວ
ດລາຍຈ
ດລາຍໄດ
ດລາດສ
ດລາວ
ດລຳດ
ດວ
ດວກ
ດວງ
ດວງຈ
ດວງຕາເວ
ດວງສະຫວ
ດວງໃຈ
ດວງໄຊ
ດວາຕ
ດວາອາຮາມ
ດວຽກ
ດວຽກກ
ດວຽກດ
ດວຽກທ
ດວຽກຢ
ດວຽກຮ
ດວຽກເປ
ດວຽກເພ
ດວຽກໃຫ
ດວຽກໄດ
ດສ
ດສຣ
ດສຣະ
ດສລະຈາກຄວາມເປ
ດສວນ
ດສວນສ
ດສອນ
ດສອນລະດ
ດສອບ
ດສະ
ດສະກ
ດສະກາ
ດສະການ
ດສະຈ
ດສະຍ
ດສະຍະຊ
ດສະດ
ດສະດາທ
ດສະດາພ
ດສະຕ
ດສະຕຣາລ
ດສະຕະຣາລ
ດສະຕະວ
ດສະຕາລ
ດສະຕາອາຊ
ດສະຕຽນ
ດສະຖານ
ດສະຖານຢ
ດສະຖານໄວ
ດສະທ
ດສະນ
ດສະນະຄະຕ
ດສະບ
ດສະບາ
ດສະປຽນ
ດສະພ
ດສະພາ
ດສະພາປ
ດສະມ
ດສະມາຊ
ດສະຣາເອນ
ດສະລ
ດສະລານ
ດສະລາມ
ດສະວ
ດສະວະນະກາໂລ
ດສະຫ
ດສະຫຍາມ
ດສະຫວ
ດສະຫະກຳ
ດສະຫະພາບໂຊວຽດ
ດສະຫະລ
ດສະຮ
ດສະເຊ
ດສະເຕ
ດສະເພາະ
ດສະເລ
ດສະເຫ
ດສະເໜ
ດສະແກ
ດສະໜາ
ດສະໝ
ດສາ
ດສາກ
ດສາຂາທ
ດສາຄອນ
ດສາດ
ດສາດກ
ດສາດທ
ດສາດລາວ
ດສາດສ
ດສາດອ
ດສາດແລະສ
ດສາດໄທ
ດສາທາລະນະລ
ດສານ
ດສາມ
ດສາຫະກ
ດສາຫະກຳ
ດສາຫະກຳແລະການຄ
ດສາໄອຍ
ດສຳຄ
ດສຳນ
ດສຳລ
ດຫ
ດຫຍ
ດຫນ
ດຫມ
ດຫມາຍ
ດຫລ
ດຫວ
ດຫວຽດນາມ
ດອ
ດອກ
ດອກກ
ດອກງ
ດອກຈຳປາ
ດອກຊ
ດອກຕາເວ
ດອກບ
ດອກເບ
ດອກໄມ
ດອງ
ດອຍ
ດອນ
ດອນຄອນ
ດອນຊາວ
ດອນທ
ດອນທານ
ດອອກ
ດອອກເປ
ດອະທ
ດອະພອນໂລ
ດອະມ
ດອະເມຣ
ດອະເມລ
ດອາກຕ
ດອາຊ
ດອາຍ
ດອາຟຣ
ດອາມ
ດອາຣ
ດອາລ
ດອາວ
ດອາເມຣ
ດອາເມລ
ດອຳນາດ
ດອຳນາດການປ
ດອຳເພ
ດອຽກລ
ດຮ
ດຮຽນ
ດະລ
ດາ
ດາກ
ດາຄ
ດາຈ
ດາຊ
ດາຍ
ດາດ
ດານ
ດານມາກ
ດາບ
ດາພອນ
ດາລ
ດາລາ
ດາລາສາດ
ດາລາຮ
ດາວ
ດາວທະເລ
ດາວທຽມ
ດາວບ
ດາວບາດານ
ດາວພ
ດາວພລ
ດາວພະຫ
ດາວຢ
ດາວສ
ດາວສະເດ
ດາວຫາງ
ດາວອ
ດາວເຄາະ
ດາວເຄາະນ
ດາວເຄາະແຄະ
ດາວເນ
ດາວເພ
ດາວເສ
ດາວແຖນ
ດາວໂລກ
ດາວໂຫ
ດາເປ
ດາເຣຍ
ດາໄດ
ດຳ
ດຳຣ
ດຳລ
ດຳເນ
ດຽນ
ດຽນບຽນຟ
ດຽວ
ດຽວກ
ດຽວນ
ດເກ
ດເກາະ
ດເຂ
ດເຄ
ດເຄຣດ
ດເງ
ດເຈ
ດເຈນ
ດເຈນວ
ດເຊ
ດເຊຍ
ດເດ
ດເຕ
ດເຖ
ດເທ
ດເທບ
ດເທບສ
ດເນ
ດເບ
ດເບຍລາວ
ດເບນຈະມະບ
ດເປ
ດເຜ
ດເພ
ດເພງ
ດເມ
ດເຢຍລະມ
ດເລ
ດເວ
ດເວຍ
ດເວລາ
ດເສ
ດເສດຖະກ
ດເສລ
ດເຫ
ດເຫນ
ດເອ
ດເອກະຊ
ດເອງ
ດເອເຊຍທ
ດເຮ
ດເໜ
ດແກ
ດແກະໃຫຍ
ດແຂ
ດແຈ
ດແຊ
ດແຍ
ດແຕ
ດແຖ
ດແທ
ດແທກ
ດແທນ
ດແນນ
ດແນວໃດຈ
ດແນວໃດດ
ດແບ
ດແປງ
ດແຜ
ດແພຣ
ດແມ
ດແລ
ດແລກ
ດແລຈ
ດແລຍ
ດແລຕ
ດແລຖ
ດແລມ
ດແລວ
ດແລສ
ດແລະ
ດແລະກ
ດແລະຈ
ດແລະຍ
ດແລະທ
ດແລະນ
ດແລະບ
ດແລະມ
ດແລະມອບສາຍສະພາຍໂດຍ
ດແລະລ
ດແລະວ
ດແລະສ
ດແລະເປ
ດແລະໄດ
ດແລເປ
ດແລໄດ
ດແສນ
ດແຫ
ດແອສະປາຍ
ດແໜ
ດໂຊມ
ດໂຊມລ
ດໂດຍ
ດໂດຍກ
ດໂດຍຄ
ດໂດຍທ
ດໂດຍບ
ດໂດຍສານ
ດໂດມ
ດໂຕ
ດໂທລະທ
ດໂຣບ
ດໂລກ
ດໂລມ
ດໂວຣ
ດໂອກາດໃຫ
ດໂຮງໝ
ດໃກ
ດໃຈ
ດໃຈການຜະລ
ດໃຈຂອງເຮ
ດໃຈດ
ດໃຈທ
ດໃຈຫ
ດໃຈເຂ
ດໃຈໃຫ
ດໃຊ
ດໃດໜ
ດໃຕ
ດໃນ
ດໃນກ
ດໃນການປະກວດຄວາມງາມລະດ
ດໃນການປະຕ
ດໃນການສ
ດໃນຂ
ດໃນຄອບຄ
ດໃນຈ
ດໃນຊ
ດໃນຍ
ດໃນຕະກ
ດໃນທ
ດໃນນ
ດໃນບ
ດໃນປ
ດໃນປະຫວ
ດໃນປະເທດ
ດໃນປະເທດລາວ
ດໃນປະເທດໄທ
ດໃນພ
ດໃນພະບາດສ
ດໃນພາກກາງຂອງປະເທດໄທຈ
ດໃນພາກຕາເວ
ດໃນພາກໃຕ
ດໃນລ
ດໃນລະດ
ດໃນລາວ
ດໃນວ
ດໃນສ
ດໃນຫ
ດໃນອ
ດໃນອະດ
ດໃນອາຊ
ດໃນເຄ
ດໃນເດ
ດໃນເມ
ດໃນເອ
ດໃນໂລກ
ດໃນໂລກທ
ດໃສ
ດໃຫ
ດໃຫຍ
ດໃຫມ
ດໃໝ
ດໄຂ
ດໄຈ
ດໄຊ
ດໄຊຍະພ
ດໄຊສ
ດໄດ
ດໄຕ
ດໄທ
ດໄປ
ດໄປແລ
ດໄຟ
ດໄຟຄວາມໄວສ
ດໄຟທ
ດໄຟຟ
ດໄຟລາວ
ດໄຟສາຍເໜ
ດໄຟໃຕ
ດໄມ
ດໄລ
ດໄວ
ດໄສ
ດໄຫ
ດໄອຍະການສ
ດໄອແລນ
ດໄຮ
ດໆ
ດໜ
ດໝ
ດໝວດນ
ດໝາຍ
ດໝາຍຂອງລ
ດໝາຍທ
ດໝາຍນ
ດໝາຍບ
ດໝາຍຢ
ດໝາຍວ
ດໝາຍສ
ດໝາຍເຖ
ດໝາຍແພ
ຕ
ຕຍ
ຕຕ
ຕຕະບ
ຕຖ
ຕທ
ຕມ
ຕຣ
ຕລ
ຕວ
ຕວກກ
ຕວກເມນ
ຕອນ
ຕອນຄ
ຕອນຕ
ຕອນທ
ຕອນທຳອ
ຕອນນ
ຕອນເຊ
ຕອນເໜ
ຕອນແລງ
ຕອບ
ຕອບວ
ຕອລ
ຕຮ
ຕະ
ຕະກ
ຕະກຽງ
ຕະຕ
ຕະຖາຄ
ຕະປ
ຕະພ
ຕະພະ
ຕະມະ
ຕະຣະດ
ຕະລ
ຕະລະດ
ຕະລະຫະລ
ຕະລາງກ
ຕະລາທ
ຕະວ
ຕະຫ
ຕະຫລອດຈ
ຕະຫລອດເສ
ຕະຫລາດ
ຕະຫລາດຫລ
ຕະເວ
ຕະເອດດ
ຕາ
ຕາກ
ຕາງ
ຕາງຫນ
ຕາງໜ
ຕາຊ
ຕາຍ
ຕາຍແລ
ຕາຍໄປແລ
ຕາດ
ຕາດນ
ຕາດເຍ
ຕານ
ຕາປ
ຕາມ
ຕາມກ
ຕາມການສ
ຕາມການສະເໜ
ຕາມຂ
ຕາມຄ
ຕາມຄວາມເຊ
ຕາມຈ
ຕາມຊ
ຕາມດ
ຕາມຕ
ຕາມທ
ຕາມນ
ຕາມບ
ຕາມປ
ຕາມປະຕ
ຕາມປະຫວ
ຕາມປະເພນ
ຕາມພ
ຕາມລ
ຕາມລຳດ
ຕາມວ
ຕາມສ
ຕາມຫ
ຕາມອ
ຕາມຮ
ຕາມເປ
ຕາມເວລາທ
ຕາມເສ
ຕາມແຕ
ຕາລ
ຕາລາງກ
ຕາເວ
ຕຳ
ຕຳນານ
ຕຳນານຂ
ຕຳບ
ຕຳລາ
ຕຳລາການຜະລ
ຕຳລາຂ
ຕຳລາຄະນ
ຕຳລາຜ
ຕຳລາສ
ຕຳຫ
ຕຳແໜ
ຕຳໝາກຫ
ຕຽງ
ຕຽນ
ຕຽມພ
ຕເວ
ຕໃຈ
ຖ
ຖທ
ຖນ
ຖບານຝຣ
ຖບານພຣະຣາຊອານາຈ
ຖມ
ຖສ
ຖອຍ
ຖອນ
ຖະ
ຖະບານ
ຖະມ
ຖະຫວ
ຖະແຫ
ຖະໜ
ຖາ
ຖານ
ຖານຂ
ຖານທ
ຖານວ
ຖານະເປ
ຖານະແມ
ຖານໃຕ
ຖາມ
ຖຽງກ
ທ
ທຊລ
ທຍາ
ທທ
ທທະສາສະນາ
ທຣ
ທວດ
ທສາສນາ
ທສາສນານ
ທອ
ທອງ
ທອງຄຳ
ທອງດ
ທອງສ
ທອດ
ທອນ
ທະ
ທະຍ
ທະຍະພະຍ
ທະຍາ
ທະຍາກ
ທະຍາການເມ
ທະຍາຄ
ທະຍາທ
ທະຍາທາງດ
ທະຍານ
ທະຍານແຫ
ທະຍາວ
ທະຍາສ
ທະຍາສາດ
ທະຍາສາດການສ
ທະຍາສາດຄອມພ
ທະຍາສາດທ
ທະຍາສາດທຳມະຊາດ
ທະຍາສາດວ
ທະຍາສາດສ
ທະຍາສາດແລະເຕ
ທະຍາໄລ
ທະຍາໄລກະເສດສາດ
ທະຍາໄລຄ
ທະຍາໄລຈ
ທະຍາໄລຊ
ທະຍາໄລທ
ທະຍາໄລທຳມະສາດ
ທະຍາໄລບ
ທະຍາໄລປ
ທະຍາໄລມະຫ
ທະຍາໄລລ
ທະຍາໄລລາຊະພ
ທະຍາໄລວ
ທະຍາໄລສ
ທະຍາໄລອ
ທະຍາໄລຮ
ທະຍາໄລເດລ
ທະຍາໄລເຕ
ທະຍາໄລເປ
ທະຍາໄລແຫ
ທະນ
ທະນະ
ທະນາຄານ
ທະນາຄານກາງ
ທະນາຄານພ
ທະນາຄານອ
ທະນາຄານແຫ
ທະນາຄານໂລກ
ທະນາບ
ທະພ
ທະມ
ທະວ
ທະສາສນານ
ທະຫານ
ທະເຈ
ທະເລ
ທະເລກ
ທະເລກາຣ
ທະເລຂາວ
ທະເລຈ
ທະເລຈາວາ
ທະເລຊາຍ
ທະເລຊາຍກາລາຮາຣ
ທະເລຊາຍຊ
ທະເລຊາຍຊາຮາຣາ
ທະເລຊາຍອາຣ
ທະເລຊາຍເກຣດວ
ທະເລຊາຍໂກບ
ທະເລຍ
ທະເລດຳ
ທະເລຕ
ທະເລທ
ທະເລນອກແວ
ທະເລບ
ທະເລບານຕ
ທະເລຟ
ທະເລມ
ທະເລສາບ
ທະເລອ
ທະເລອາຣ
ທະເລອາເດຣຍຕ
ທະເລເຊລຕ
ທະເລເມດ
ທະເລເຫ
ທະເລເໜ
ທະເລແດງ
ທະເລໂອໂຄດ
ທາ
ທາງ
ທາງກ
ທາງການ
ທາງການຂອງມ
ທາງການຄ
ທາງການວ
ທາງການເມ
ທາງການແມ
ທາງການໄດ
ທາງຂ
ທາງຄະນ
ທາງຈ
ທາງຊ
ທາງຍ
ທາງດ
ທາງຕ
ທາງຕອນເໜ
ທາງຕອນໃຕ
ທາງຕະເວ
ທາງຕາເວ
ທາງທ
ທາງນ
ທາງບ
ທາງຝ
ທາງພ
ທາງພາກຕາເວ
ທາງພາກເໜ
ທາງພາກໃຕ
ທາງລ
ທາງວ
ທາງສ
ທາງສາຍຫ
ທາງຫ
ທາງອ
ທາງອອກສ
ທາງອາກາດ
ທາງເຂ
ທາງເທ
ທາງເລ
ທາງເສດຖະກ
ທາງເໜ
ທາງໃຕ
ທາງໃຫຍ
ທາງໜ
ທາຈ
ທາດ
ທາດຕ
ທາດທ
ທາດນ
ທາດຫ
ທາດອ
ທາດອາຍ
ທາດເຫ
ທາດແຂງ
ທາດແຫ
ທາຕ
ທານ
ທານທ
ທານພ
ທານເລ
ທານແກ
ທາມ
ທາສ
ທາສາທາສ
ທຳ
ທຳການຕ
ທຳນອງ
ທຳບ
ທຳມ
ທຳມະ
ທຳມະຊາດ
ທຳມະຊາດສ
ທຳມະດາ
ທຳມະບານກ
ທຳມະປ
ທຳມະລາດ
ທຳມະວ
ທຳມາຫາກ
ທຳລ
ທຳອ
ທຳຮ
ທຳໃຫ
ທຽນ
ທຽນເຂ
ທຽບ
ທຽບເທ
ທຽບໃສ
ທຽມ
ທເຈ
ນ
ນກ
ນກວ
ນກວາງຕ
ນກອງ
ນກອງທ
ນກອງປະຊ
ນກະດ
ນກະຕ
ນກະທ
ນກະສ
ນກາງ
ນກາງການຄ
ນກາງການປ
ນກາງທ
ນກາງບ
ນກາງພ
ນກາງຢ
ນກາງສ
ນກາງສະຫະພ
ນກາງອ
ນກາງແນວລາວສ
ນກາງແນວລາວຮ
ນກາຊວນ
ນກາຍເປ
ນກາຕ
ນການ
ນການກ
ນການຂ
ນການຄ
ນການຈ
ນການຊ
ນການດ
ນການດຳເນ
ນການຕ
ນການທ
ນການນ
ນການບ
ນການປ
ນການປະກວດຄວາມງາມຊາຍເວທ
ນການປະກວດຄວາມງາມເວທ
ນການປະກວດຊ
ນການປະກວດນາງງາມ
ນການປະກວດນາງງາມລະດ
ນການປະກວດນາງງາມເວທ
ນການປະກວດມ
ນການປະກວດໃນວ
ນການປະຊ
ນການປະຕ
ນການຜະລ
ນການພ
ນການຢ
ນການລ
ນການວ
ນການສ
ນການຮ
ນການເກ
ນການເຂ
ນການເຄ
ນການເງ
ນການເຊ
ນການເພ
ນການເມ
ນການເລ
ນການເຮ
ນການແຂ
ນການແບ
ນການແຜ
ນການແພ
ນການແລກປ
ນການໃຊ
ນການໃຫ
ນກາບແກ
ນກາຣ
ນກາລ
ນກຳ
ນກຳປ
ນກຳມະການກ
ນກຳມະການສ
ນກຳມະບານລາວ
ນກຳລ
ນກຳເນ
ນກຳເໜ
ນກຳໄລ
ນກຳໜ
ນກຽດເຂ
ນຂ
ນຂວ
ນຂອງ
ນຂອງກ
ນຂອງຂ
ນຂອງຂວ
ນຂອງຄ
ນຂອງຈ
ນຂອງຊ
ນຂອງຕ
ນຂອງທ
ນຂອງນ
ນຂອງບ
ນຂອງປ
ນຂອງປະຊາຊ
ນຂອງປະເທດ
ນຂອງຜ
ນຂອງພ
ນຂອງມ
ນຂອງມະນ
ນຂອງລ
ນຂອງລາວ
ນຂອງວ
ນຂອງສ
ນຂອງຫ
ນຂອງອ
ນຂອງຮ
ນຂອງເຂ
ນຂອງເມ
ນຂອງເຮ
ນຂອງໂລກ
ນຂະຫຍ
ນຂະໜາດໃຫຍ
ນຂະໜານທ
ນຂາວ
ນຄ
ນຄຣ
ນຄວ
ນຄວນ
ນຄວບຄ
ນຄວາມ
ນຄວາມກ
ນຄວາມຄ
ນຄວາມຈ
ນຄວາມຖ
ນຄວາມສ
ນຄວາມສະຫງ
ນຄວາມຮ
ນຄວາມເຊ
ນຄວາມເປ
ນຄອງລາຊະສ
ນຄອງລາດເມ
ນຄອນ
ນຄອບຄ
ນຄະດ
ນຄະນະພ
ນຄາ
ນຄາທ
ນຄຳ
ນຄຳທ
ນຄຳນາມ
ນຄຳພ
ນຄຳວ
ນຄຳສ
ນງ
ນງານ
ນງານຊ
ນງານດ
ນງານທ
ນງານສ
ນງານອ
ນງານເພງ
ນງາມຄວາມດ
ນຈ
ນຈອນ
ນຈະ
ນຈະກ
ນຈະຈ
ນຈະຕ
ນຈະຖ
ນຈະບ
ນຈະພ
ນຈະມ
ນຈະຢ
ນຈະລ
ນຈະສ
ນຈະອອກສຽງ
ນຈະເປ
ນຈະເລ
ນຈະເອ
ນຈະເຮ
ນຈະໄດ
ນຈາກ
ນຈາກກ
ນຈາກການເວ
ນຈາກຈ
ນຈາກດວງຈ
ນຈາກທ
ນຈາກບ
ນຈາກປ
ນຈາກຜ
ນຈາກພ
ນຈາກລ
ນຈາກວ
ນຈາກສ
ນຈາກໜ
ນຈຳກ
ນຈຳນວນ
ນຈຳນວນຫ
ນຈຳເປ
ນຊ
ນຊອບ
ນຊະນ
ນຊະນະ
ນຊະນະເລ
ນຊະລ
ນຊາ
ນຊາການ
ນຊາການທະຫານບ
ນຊາການທະຫານສ
ນຊາຍ
ນຊາດ
ນຊາດຈ
ນຊາດຍານ
ນຊາດທ
ນຊາດພ
ນຊາດລາວ
ນຊາດອ
ນຊາດໄທ
ນຊານຊາລາ
ນຊາວ
ນຊາວກະສ
ນຊາວຈ
ນຊາວບ
ນຊາວພ
ນຊາວເມ
ນຊຳຮາບ
ນຍ
ນຍອດ
ນຍະກ
ນຍະພ
ນຍະພາບ
ນຍະມະນ
ນຍະລ
ນຍະລາຊະກ
ນຍະສ
ນຍະເດດ
ນຍະເດດຊ
ນຍະເດດວ
ນຍາ
ນຍາກ
ນຍາກາດ
ນຍາກາດທ
ນຍາຂອງມະນ
ນຍາງ
ນຍາຈ
ນຍາຊ
ນຍາຍ
ນຍາດ
ນຍາດໂຍມ
ນຍາຕ
ນຍາທ
ນຍານ
ນຍານຈ
ນຍານທ
ນຍານໄຟຟ
ນຍາບ
ນຍາປ
ນຍາປະດ
ນຍາມ
ນຍາມາດຕະຖານ
ນຍາລ
ນຍາວ
ນຍາສ
ນຍາອ
ນຍາຮ
ນຍາເຊ
ນຍາເດ
ນຍາເປ
ນຍາເອກ
ນຍາໂທ
ນດ
ນດຈ
ນດຣ
ນດອກໄມ
ນດອນ
ນດອນກ
ນດອນທ
ນດອນນ
ນດອນແລ
ນດອນໄດ
ນດາ
ນດາກ
ນດາກາລ
ນດາຂ
ນດາຄ
ນດາຊ
ນດາຕ
ນດາທ
ນດານ
ນດາບ
ນດາປະເທດຕ
ນດາປະເທດທ
ນດາຜ
ນດາມ
ນດາລ
ນດາລາຍການເຄ
ນດາລາຮ
ນດາວ
ນດາວສະເດ
ນດາວເຄາະທ
ນດາສ
ນດາອ
ນດາຮ
ນດາເຜ
ນດາເພ
ນດາເມ
ນດາແຂວງພາກເໜ
ນດຳລ
ນດຳເນ
ນດຽວ
ນດຽວກ
ນດຽວທ
ນຕ
ນຕກ
ນຕຣ
ນຕຣາ
ນຕອນ
ນຕອນຕ
ນຕອນທ
ນຕອນວ
ນຕອນໃຕ
ນຕະ
ນຕະກ
ນຕະກອນ
ນຕະກຳ
ນຕະຕ
ນຕະຖາຄ
ນຕະນາການ
ນຕະນາພາບ
ນຕະບ
ນຕະພາບລ
ນຕະລາຍ
ນຕະລາຍຕ
ນຕະລາຍແກ
ນຕະວ
ນຕະສ
ນຕະຫ
ນຕາ
ນຕາກຕ
ນຕາຍ
ນຕາຕ
ນຕາທ
ນຕາມ
ນຕາມພ
ນຕາຢ
ນຕາຮ
ນຕາເວ
ນຕຳບ
ນຕຳລາ
ນຕຳແໜ
ນຖ
ນຖະໜ
ນຖານ
ນຖານດ
ນຖານທ
ນຖານບ
ນຖານຢ
ນຖານສ
ນຖານອ
ນຖານເດ
ນຖານໂຄງລ
ນຖານໜ
ນຖາມ
ນຖາມເຖ
ນທ
ນທນ
ນທຣ
ນທອງ
ນທອນ
ນທອນພ
ນທອນວ
ນທະ
ນທະນ
ນທະນາ
ນທະນາກ
ນທະບ
ນທະປ
ນທະພານ
ນທະມ
ນທະມະຫ
ນທະຣະສ
ນທະຣາດ
ນທະລ
ນທະລະຄະຕ
ນທະວ
ນທະສ
ນທະຫານ
ນທະເລ
ນທະເລຊາຍ
ນທາ
ນທາກ
ນທາງ
ນທາງກ
ນທາງການ
ນທາງການຄ
ນທາງການທ
ນທາງການວ
ນທາງການເມ
ນທາງການໃນວ
ນທາງຄ
ນທາງຍ
ນທາງດ
ນທາງຕ
ນທາງທ
ນທາງນ
ນທາງບ
ນທາງປ
ນທາງປະມານ
ນທາງປະຫວ
ນທາງຜ
ນທາງພ
ນທາງລ
ນທາງວ
ນທາງສ
ນທາງຫ
ນທາງເຂ
ນທາງເຊ
ນທາງເດ
ນທາງເພ
ນທາງເລ
ນທາງເລກ
ນທາງເລກທ
ນທາງເລກສ
ນທາງເສດຖະກ
ນທາງແລ
ນທາງໄດ
ນທາງໄປຍ
ນທາງໄປທ
ນທາງໄປສ
ນທາດ
ນທາທ
ນທານ
ນທານຕ
ນທາບ
ນທາມ
ນທາລາມ
ນທຳ
ນທຳມະຊາດ
ນທຳມະດາ
ນທຳອ
ນທຽນ
ນນ
ນນອກ
ນນະ
ນນະກຳ
ນນະຄ
ນນະຄອນ
ນນະຄອນຫ
ນນະຄະດ
ນນະຍ
ນນະທ
ນນະທຳ
ນນະນ
ນນະບ
ນນະພ
ນນະພາບ
ນນະພາບຊ
ນນະພາບດ
ນນະພາບສ
ນນະຣາດ
ນນະລ
ນນະລາດ
ນນະວ
ນນະສ
ນນະເຂດ
ນນະໂຄມຄຳ
ນນາ
ນນາກ
ນນາຄຳໄຮ
ນນາງແບບ
ນນາຍ
ນນາຍພ
ນນາຍສະອາດ
ນນາຍາວ
ນນາດ
ນນາທ
ນນານ
ນນາມ
ນນາລ
ນນາເຫ
ນນຳ
ນນຳກ
ນບ
ນບອກວ
ນບາງຂ
ນບາງຄ
ນບາງຊ
ນບາງສ
ນບານ
ນບານເຕະ
ນບານເຕະຊ
ນບານເມ
ນບຳລ
ນປ
ນປະ
ນປະກ
ນປະກອບຄວາມເຫ
ນປະກອບດ
ນປະກອບມ
ນປະຈ
ນປະຈຳ
ນປະຈຳທ
ນປະຊາກອນໂລກ
ນປະຊາຊ
ນປະຊາທ
ນປະດ
ນປະຕ
ນປະຖ
ນປະທ
ນປະທານ
ນປະທານປະເທດ
ນປະທານສະພາແຫ
ນປະທານາທ
ນປະມ
ນປະມານ
ນປະລ
ນປະສ
ນປະສາດ
ນປະຫວ
ນປະເທດ
ນປະເທດທ
ນປະເທດນ
ນປະເທດອ
ນປະເທດໃນທະວ
ນປະເທດໜ
ນປະເພດຕ
ນປະເພນ
ນປະເສ
ນປະໂຫຍດ
ນປະໂຫຍດທ
ນປະໂຫຍດສ
ນປະໂຫຍດອ
ນປະໂຫຍດແກ
ນປະໂຫຍດໃນໜ
ນປາ
ນປາກ
ນປານໃດ
ນຜ
ນຜະລ
ນຜາເມ
ນຝ
ນຝຣ
ນຝະລ
ນພ
ນພຣະທ
ນພຣະບ
ນພຣະພ
ນພຣະມະຫາກະສ
ນພຣະສ
ນພຣະອ
ນພຣະອາຈາຣຍ
ນພຣະເຈ
ນພວກເຂ
ນພວກເຮ
ນພອນ
ນພະ
ນພະຊ
ນພະຍ
ນພະຍາດ
ນພະທ
ນພະນ
ນພະນະຄອນ
ນພະບ
ນພະບາດສ
ນພະພ
ນພະມ
ນພະມະຫາກະສ
ນພະລ
ນພະລາຊະກ
ນພະລາຊະວ
ນພະລາຊະໂອລ
ນພະສ
ນພະຫ
ນພະອ
ນພະຮາມທ
ນພະເຈ
ນພະເວດສ
ນພາກພ
ນພາກສ
ນພາງ
ນພາຍຫ
ນພາຍໃຕ
ນພາຍໃນ
ນພາຍໃນບ
ນພາສາ
ນພາສາກ
ນພາສາທ
ນພາສາທາງການ
ນພາສານ
ນພາສາລ
ນພາສາລາວ
ນພາສາອ
ນພາສາແມ
ນພາສາໄຕພາສານ
ນພາສາໄທ
ນພຽງ
ນພຽງຜ
ນພຽງສ
ນພຽງແຕ
ນພຽນ
ນຟ
ນມ
ນມະນ
ນມະພ
ນມະຫ
ນມະຫາຈ
ນມະຫາພ
ນມະຫາລາດ
ນມະຫາວ
ນມະໄຫສະວະຣ
ນມາ
ນມາກ
ນມາຂ
ນມາຄ
ນມາຈ
ນມາຈາກ
ນມາຊ
ນມາຍ
ນມາດ
ນມາຕ
ນມາຕາ
ນມາທ
ນມານ
ນມາພ
ນມາຢ
ນມາວ
ນມາສ
ນມາຫ
ນມາອ
ນມາຮ
ນມາເຖ
ນມາເປ
ນມາເພ
ນມາເຮ
ນມາແຕ
ນມາແລ
ນມາໃໝ
ນມາໄດ
ນຢ
ນຢາ
ນຢາແວຊາຍ
ນຣ
ນລ
ນລວມ
ນລວມທ
ນລວມຢ
ນລະ
ນລະຄ
ນລະຈອມເກ
ນລະຊ
ນລະຍ
ນລະຍາ
ນລະຍາຍ
ນລະຍານ
ນລະດ
ນລະຕ
ນລະບ
ນລະບອບການປ
ນລະບຽບ
ນລະບຽບຮຽບຮ
ນລະປ
ນລະປະ
ນລະປະທານ
ນລະປະວ
ນລະປາກອນ
ນລະພ
ນລະພາກ
ນລະມະນ
ນລະວ
ນລະສ
ນລະສາດ
ນລະຫ
ນລະຫວ
ນລະເບ
ນລະເມ
ນລະເສ
ນລະເຮ
ນລາ
ນລາງວ
ນລາຊ
ນລາຊະດຳເນ
ນລາຊະທານ
ນລາຊະວ
ນລາຊະອານາຈ
ນລາຍລ
ນລາດ
ນລາດພ
ນລາວ
ນລາວກ
ນລາວຈ
ນລາວທ
ນລາວບ
ນລາວມ
ນລາວລ
ນລາວາ
ນລາວເປ
ນລາວເຮ
ນລາວໄດ
ນລຳດ
ນວ
ນວຍ
ນວນ
ນວະຈ
ນວະລ
ນວາ
ນວາຍ
ນວາຍຂອງສ
ນວາປ
ນວຽກຖ
ນວຽງຈ
ນສ
ນສງ
ນສວຍງາມ
ນສວນຫ
ນສອງ
ນສະ
ນສະກ
ນສະດ
ນສະຕ
ນສະຕຣາແກຣມ
ນສະຕະວ
ນສະຖ
ນສະຖານ
ນສະຖານທ
ນສະຖາບ
ນສະຖາປ
ນສະທ
ນສະບ
ນສະມາຊ
ນສະລ
ນສະວ
ນສະຫ
ນສະຫງ
ນສະຫວ
ນສະເດ
ນສະເຕ
ນສະເພາະ
ນສະເລ
ນສະເຫ
ນສະເຫວດຕະຊ
ນສະເໝ
ນສະແດງ
ນສະໂມສອນ
ນສະໄຫມ
ນສະໄໝ
ນສະໜ
ນສະໜາມບ
ນສະໝ
ນສາ
ນສາກ
ນສາຍ
ນສາຍນ
ນສາຍພ
ນສາຍຫ
ນສາທ
ນສາທາລະນະລ
ນສານ
ນສາມ
ນສາມຊ
ນສາມາດສ
ນສາມາດເຮ
ນສາວ
ນສຳຄ
ນສຳນ
ນສຳລ
ນສຳຫ
ນສຳເລ
ນສຽງ
ນສຽງທ
ນຫ
ນຫຍ
ນຫນ
ນຫມ
ນຫມາຍຄວາມວ
ນຫມາຍເຖ
ນຫລ
ນຫລາຍ
ນຫວ
ນຫວຽດນາມ
ນຫອມ
ນຫະພ
ນຫາ
ນຫາກ
ນຫາການເຮ
ນຫາຂ
ນຫາຊ
ນຫາດ
ນຫາຕ
ນຫາທ
ນຫານ
ນຫາຢ
ນຫາສ
ນຫາເລ
ນຫາໃຫຍ
ນຫາໄດ
ນອ
ນອກ
ນອກຈາກ
ນອກຈາກນ
ນອກຈາກເປ
ນອກນ
ນອກເຂດເທດສະບານຕຳບ
ນອກເມ
ນອກເໜ
ນອນ
ນອນບ
ນອນຢ
ນອນວ
ນອອກ
ນອອກກາງ
ນອອກຂອງ
ນອອກຂອງປະເທດໄທ
ນອອກຂອງເມ
ນອອກຂອງແມ
ນອອກຕ
ນອອກທ
ນອອກບ
ນອອກພ
ນອອກສ
ນອອກສຽງເໜ
ນອອກສຽງໃຕ
ນອອກເປ
ນອອກໄກ
ນອອກໄປ
ນອະດ
ນອະທ
ນອະນ
ນອະບາຍຍະມ
ນອະຣ
ນອາ
ນອາກາດ
ນອາຊ
ນອາຍ
ນອາດ
ນອາທ
ນອານ
ນອານາຈ
ນອານານ
ນອາຣ
ນອາລ
ນອາວ
ນອາວະກາດ
ນອາຫານ
ນອາຫານທ
ນອາຫານພ
ນອາເມລ
ນອາໄສຢ
ນອຳເພ
ນຮ
ນຮອງນາຍ
ນຮອງລ
ນຮອງຫ
ນຮອງອ
ນຮອດ
ນຮອດທ
ນຮອດປ
ນຮອດປະຈ
ນຮອດລ
ນຮອນ
ນຮາມຄຳແຫງມະຫາລາດ
ນະ
ນະຄອນ
ນະຄອນນ
ນະຄອນພະນ
ນະຄອນລ
ນະຄອນລາຊະສ
ນະຄອນວຽງຈ
ນະຄອນຫ
ນະຄອນຫລວງ
ນະຄອນຫລວງວຽງຈ
ນະຄອນເງ
ນະຄອນໂຮ
ນະຄະຣ
ນະຄະລ
ນະບ
ນະພ
ນະມ
ນະຣ
ນະລ
ນະວ
ນະສ
ນະໂຍບາຍ
ນະໂຍບາຍການເງ
ນະໂຍບາຍເງ
ນາ
ນາກ
ນາງ
ນາງກ
ນາງງາມຊາວລາວ
ນາງຈ
ນາງຍ
ນາງຜ
ນາງພ
ນາງຟ
ນາງມ
ນາງສ
ນາງສາວລາວ
ນາງເທ
ນາງເປ
ນາງເລ
ນາງແບບ
ນາງແມ
ນາງໄດ
ນາຊ
ນາຍ
ນາຍກ
ນາຍຄ
ນາຍຈ
ນາຍຍ
ນາຍບ
ນາຍພ
ນາຍສ
ນາຍອ
ນາຍໂມ
ນາດ
ນາດເອລ
ນາຕ
ນາທ
ນານ
ນາບ
ນາປ
ນາພອນ
ນາຟາໂຊ
ນາມ
ນາມວ
ນາມສະກ
ນາລ
ນາວ
ນາສ
ນາສາຢະ
ນາອ
ນາເຕ
ນາແຊງ
ນາໂນແມ
ນາໂປດເກ
ນາໆ
ນາໆພ
ນຳ
ນຳກ
ນຳກຳລ
ນຳຊ
ນຳທ
ນຳພ
ນຳພາ
ນຳພາປະຊາຊ
ນຳພາພຣະສ
ນຳລ
ນຳສ
ນຳສະເໜ
ນຳສະແດງໂດຍ
ນຳອ
ນຳຮ
ນຳເຂ
ນຳເມ
ນຳເອ
ນຳໂດຍ
ນຳໃຊ
ນຳໄປສ
ນເກ
ນເກມ
ນເກຣກ
ນເຂ
ນເຂດ
ນເຂດການປ
ນເຂດທ
ນເຂດນ
ນເຂດປ
ນເຂດພ
ນເຂດອະນ
ນເຂດຮ
ນເຂດເສດຖະກ
ນເຂດແລະແຂວງແທນອຳເພ
ນເຄ
ນເງ
ນເຈ
ນເຊ
ນເຊເລຣ
ນເຍ
ນເດ
ນເດຍ
ນເດດ
ນເຕ
ນເຖ
ນເທ
ນເທດ
ນເທບພ
ນເທບພະເຈ
ນເນ
ນເບ
ນເປ
ນເຜ
ນເພ
ນເພງ
ນເພງດ
ນເພງທ
ນເພດຍ
ນເພາະວ
ນເຟ
ນເມ
ນເມຣ
ນເຢ
ນເຢຍລະມ
ນເຣ
ນເລ
ນເລຂາຄະນະພ
ນເລຂາທ
ນເວ
ນເວທ
ນເວລາ
ນເວລາຍາວນານ
ນເວລາດ
ນເວລາຫ
ນເວລາເກ
ນເສ
ນເສຍ
ນເສຍກ
ນເສຍຊ
ນເສຍແຕ
ນເສດຖະກ
ນເສນາ
ນເສນາພ
ນເສລ
ນເຫ
ນເຫງ
ນເຫດ
ນເຫດຜ
ນເຫດແຫ
ນເຫດໃຫ
ນເຫມ
ນເຫລ
ນເອ
ນເອກ
ນເອກປະຍ
ນເອກະພາບ
ນເອກະລ
ນເອກະລາດ
ນເອກະສ
ນເອງ
ນເອງກ
ນເອງຈ
ນເອງດ
ນເອງທ
ນເອງມ
ນເອງຢ
ນເອງວ
ນເອງເປ
ນເອງແດ
ນເອງໃຫ
ນເອງໄດ
ນເຮ
ນເໜ
ນເໝ
ນແກ
ນແຂ
ນແຂວງ
ນແຂວງທ
ນແຂວງຫນ
ນແຂວງໜ
ນແຄ
ນແຄນ
ນແຄນທ
ນແຄວ
ນແຈ
ນແຊ
ນແດ
ນແດງ
ນແດນ
ນແດນຕ
ນແດນທ
ນແດນບ
ນແດນລ
ນແດນລາວ
ນແດນສ
ນແດນອ
ນແດນແຫ
ນແຕ
ນແຕກຕ
ນແທ
ນແທນ
ນແນ
ນແນລ
ນແນລຄ
ນແນລຄວ
ນແນລບ
ນແນລລາວ
ນແນລໄທແລນ
ນແນວ
ນແນວຄ
ນແນວນ
ນແນວໃດ
ນແນວໃດໜ
ນແບ
ນແບບ
ນແບບງ
ນແບບນ
ນແບບຢ
ນແບບເກ
ນແປ
ນແປກ
ນແປງ
ນແປວ
ນແຜ
ນແພ
ນແມ
ນແມປສ
ນແລ
ນແລນ
ນແລະ
ນແລະກ
ນແລະຄ
ນແລະຊ
ນແລະຍ
ນແລະຕ
ນແລະທ
ນແລະນ
ນແລະບ
ນແລະຜ
ນແລະພ
ນແລະມ
ນແລະຢ
ນແລະສ
ນແລະອ
ນແລະຮ
ນແລະເປ
ນແລະໄດ
ນແວງ
ນແຫ
ນແຫລ
ນແຫລະຄ
ນແອ
ນແອອ
ນແຮ
ນແຮງ
ນແຮງຂ
ນແຮງທ
ນແຮມ
ນແໜ
ນໂຄ
ນໂຄງ
ນໂຄງສ
ນໂງ
ນໂຍ
ນໂຍທ
ນໂຍທາ
ນໂດ
ນໂດຈ
ນໂດຍ
ນໂດຍກ
ນໂດຍຊ
ນໂດຍທ
ນໂດຍນ
ນໂດຍບ
ນໂດຍມ
ນໂດຍສ
ນໂດຍອ
ນໂດຍໃຊ
ນໂດດຄ
ນໂດນ
ນໂດເນຊຽນ
ນໂດເນເຊຍ
ນໂດເມນອ
ນໂຕ
ນໂຕນ
ນໂຕລະຄອນ
ນໂຕຫຍ
ນໂຕເຕ
ນໂທ
ນໂນ
ນໂນນທ
ນໂນນເມ
ນໂນເບລສາຂາສ
ນໂພ
ນໂພໄຊ
ນໂຣບ
ນໂລກ
ນໂສໄທ
ນໂອຊາ
ນໂຮງແຮມ
ນໃກ
ນໃຈ
ນໃຈກ
ນໃຈດ
ນໃຈຕ
ນໃຈທ
ນໃຈນ
ນໃຈບ
ນໃຈລ
ນໃຈວ
ນໃຈສ
ນໃຈອ
ນໃຈເຂ
ນໃຊ
ນໃດ
ນໃດກ
ນໃດຄ
ນໃດທ
ນໃດນ
ນໃດມ
ນໃດໜ
ນໃຕ
ນໃນ
ນໃນກ
ນໃນກອງປະຊ
ນໃນການປ
ນໃນການພ
ນໃນການສ
ນໃນຂ
ນໃນຄ
ນໃນຈ
ນໃນຊ
ນໃນຍ
ນໃນດ
ນໃນຕ
ນໃນທ
ນໃນນ
ນໃນນາມ
ນໃນບ
ນໃນປ
ນໃນປະຈ
ນໃນພ
ນໃນພາກນ
ນໃນມ
ນໃນລ
ນໃນລະດ
ນໃນລະຫວ
ນໃນວ
ນໃນສ
ນໃນຫ
ນໃນອ
ນໃນອາຊ
ນໃນອານາຄ
ນໃນຮ
ນໃນເດ
ນໃນເມ
ນໃນເລ
ນໃນແຕ
ນໃນໂລກນ
ນໃສ
ນໃຫ
ນໃຫຍ
ນໃຫມ
ນໃໝ
ນໄກ
ນໄຂ
ນໄຂກະປ
ນໄຊ
ນໄຊກ
ນໄດ
ນໄດຣ
ນໄຕ
ນໄທ
ນໄທແລນ
ນໄທໃຫຍ
ນໄປ
ນໄປກ
ນໄປຈ
ນໄປດ
ນໄປຕ
ນໄປຕາມກ
ນໄປຕາມທ
ນໄປຕາມມາດຕະຖານຂອງວ
ນໄປຕາມແຕ
ນໄປທ
ນໄປບ
ນໄປພ
ນໄປຢ
ນໄປສ
ນໄປອ
ນໄປເຖ
ນໄປເພ
ນໄປແລ
ນໄປໃນທ
ນໄປໃນທາງທ
ນໄປໃຫ
ນໄປໄດ
ນໄພ
ນໄພສານມະຫາຣ
ນໄຟຟ
ນໄມ
ນໄລ
ນໄລຍະທາງ
ນໄວ
ນໄຫ
ນໄຫວ
ນໆ
ນໆກ
ນໆທ
ນໆນ
ນໆວ
ນໆອ
ນໆເຊ
ນໆໄດ
ນໜ
ນໜອງບ
ນໜອງຫວ
ນໜອງໄພສ
ນໜຽວ
ນໝ
ນໝາກງາ
ນໝາກໄມ
ນໝາຍເຖ
ນໝາຍເລກ
ນໝາສ
ບ
ບກ
ບກວນ
ບກອງກຳລ
ບກອງທ
ບກະດ
ບກະສ
ບກາງ
ບການ
ບການກ
ບການຂ
ບການຄ
ບການຈ
ບການຊ
ບການຍ
ບການຍອມຮ
ບການດ
ບການຕ
ບການຖ
ບການທ
ບການນ
ບການບ
ບການປ
ບການປະຕ
ບການຜະລ
ບການຝ
ບການພ
ບການຢ
ບການລ
ບການສ
ບການສະຖາປະນາຂ
ບການສະຖາປະນາເປ
ບການສະນ
ບການສະເໜ
ບການສະໜ
ບການຫາຍຕ
ບການອ
ບການອະນ
ບການຮ
ບການເກ
ບການເຄ
ບການເງ
ບການເຕ
ບການເປ
ບການເມ
ບການເລ
ບການເຮ
ບການແຂ
ບການແຕ
ບການໂຫວດເຂ
ບການໃຊ
ບການໃຫ
ບກຳລ
ບຂ
ບຂອງ
ບຂອງກ
ບຂອງທ
ບຂອງນ
ບຂອງຜ
ບຂອງພະອ
ບຂອງສ
ບຂອງອ
ບຄ
ບຄວາມ
ບຄວາມຄ
ບຄວາມຊ
ບຄວາມຍ
ບຄວາມຕ
ບຄວາມທ
ບຄວາມນ
ບຄວາມຜ
ບຄວາມມ
ບຄວາມລ
ບຄວາມສ
ບຄວາມສຳເລ
ບຄວາມຫຍ
ບຄວາມຮ
ບຄວາມເຄ
ບຄວາມເປ
ບຄອບຄ
ບຄອມພ
ບຄຳ
ບຄຳວ
ບຄຳສ
ບງ
ບງາມ
ບຈ
ບຈາກ
ບຈາກສ
ບຊ
ບຊາດ
ບຊາວອ
ບຊາວແຈ
ບຍ
ບດ
ບດາ
ບຕ
ບຕະຫ
ບຕາ
ບຕາເວ
ບຕຳບ
ບຕຳແໜ
ບຖ
ບຖະໜ
ບທ
ບທອດກ
ບທະນາຄານ
ບທາງດ
ບທາງນ
ບທາງລ
ບທຳອ
ບທຽນ
ບນ
ບນາງ
ບນານາຊາດ
ບບ
ບບາດເຈ
ບປ
ບປວດ
ບປະ
ບປະກ
ບປະຊາຊ
ບປະດາ
ບປະຕ
ບປະຖ
ບປະທານ
ບປະພ
ບປະມານ
ບປະລ
ບປະສ
ບປະເທດ
ບປະເທດຈ
ບປະເທດລາວ
ບປະເທດອ
ບປະເທດເຊ
ບປະເທດໄທ
ບປະໄຕ
ບປານກາງ
ບຜ
ບຜະລ
ບຜາ
ບຝ
ບຝຣ
ບຝະລ
ບພ
ບພວກທ
ບພະຍ
ບພະຍາກອນ
ບພະຍາກອນທ
ບພະຍາກອນທຳມະຊາດ
ບພະຍາກອນມະນ
ບພະທ
ບພະນ
ບພະບ
ບພະພ
ບພະມ
ບພະມະຫາກະລ
ບພະລ
ບພະວ
ບພະສ
ບພະອ
ບພະເຈ
ບພະເທເວດສະຣານ
ບພະເວດສ
ບພາກພ
ບພາຍນອກ
ບພານ
ບພາບ
ບພາສ
ບພາສາລາວ
ບພາສາອ
ບຟ
ບຟະການ
ບມ
ບມະນ
ບມະຫາວ
ບມະຫາສະໝ
ບມາ
ບມາຍ
ບມາຕ
ບມາທ
ບມາພ
ບມາຢ
ບມາສ
ບມາອ
ບມາເປ
ບມາໃຊ
ບຢ
ບຣ
ບຣາຊ
ບລ
ບລະດ
ບລະບ
ບລາງວ
ບລາຊະສ
ບລາຍຈ
ບລາວ
ບລຳ
ບວ
ບວກ
ບວກກ
ບວນ
ບວນການ
ບວຽງຈ
ບສ
ບສນ
ບສອງ
ບສອງຂອງໂລກ
ບສອງປ
ບສອງພ
ບສອງແຈ
ບສະກ
ບສະຕ
ບສະຫ
ບສະຫນ
ບສະຫະລ
ບສະເດ
ບສະເລ
ບສະໜ
ບສາກ
ບສາທາລະນະລ
ບສາມ
ບສາມລ
ບສາມຫ
ບສາມແຈ
ບສຳລ
ບຫ
ບຫນ
ບຫມ
ບຫລ
ບຫວຽດນາມ
ບຫາກ
ບອ
ບອກ
ບອກກ
ບອກວ
ບອກເຖ
ບອກໃຫ
ບອຍ
ບອດ
ບອະນ
ບອະເມລ
ບອາກາດ
ບອາຊ
ບອາຍ
ບອານ
ບອານາຈ
ບອາຟຣ
ບອາຟະລ
ບອາເມລ
ບອຳເພ
ບຮ
ບຮອງ
ບຮອງເອ
ບຮອບ
ບຮາງວ
ບຮຽບຮ
ບະດ
ບະລ
ບາ
ບາກ
ບາງ
ບາງກ
ບາງກອກ
ບາງກອກຈ
ບາງກອກໃຫຍ
ບາງກອກໄດ
ບາງກະປ
ບາງຂ
ບາງຄ
ບາງຊ
ບາງຊະນ
ບາງຕ
ບາງທ
ບາງບ
ບາງປາສ
ບາງພ
ບາງລ
ບາງລະມ
ບາງສ
ບາງອ
ບາງຮ
ບາງເທ
ບາງແຫ
ບາຍ
ບາຍຕ
ບາຍວ
ບາຍເຖ
ບາຍໄວ
ບາດ
ບາດເຈ
ບາຕ
ບານ
ບານບ
ບານປະຕ
ບານສ
ບານເຕະ
ບານເຕະເພ
ບານແລະປະຖ
ບານໃໝ
ບາບ
ບາຣ
ບາລະມ
ບາສ
ບາເກ
ບາເລ
ບຳ
ບຳລ
ບຽນ
ບຽບ
ບເກ
ບເກາະຂອງປະເທດບ
ບເຂ
ບເຂດການປ
ບເຂດດ
ບເຂດຕ
ບເຂດທ
ບເຂດບາງພ
ບເຂດຫ
ບເຄ
ບເງ
ບເຈ
ບເຊ
ບເດ
ບເດດ
ບເຕ
ບເຖ
ບເທ
ບເນ
ບເບ
ບເປ
ບເຜ
ບເພ
ບເຟ
ບເມ
ບເຢຍລະມ
ບເລ
ບເລກຖານສອງ
ບເລກຖານສາມ
ບເລກຖານໜ
ບເລກທ
ບເວ
ບເວລາ
ບເສ
ບເສດຖະກ
ບເຫ
ບເຫລ
ບເອ
ບເອກ
ບເອກະພາບ
ບເອກະລາດ
ບເຮ
ບເໜ
ບແກ
ບແກຣນສະແລ
ບແຂວງ
ບແຈ
ບແຕ
ບແບບ
ບແບບການປ
ບແບບຂອງ
ບແບບຂອງສ
ບແບບດ
ບແບບດຽວກ
ບແບບຕ
ບແບບທ
ບແບບນ
ບແບບສ
ບແບບອ
ບແປດ
ບແປດແຈ
ບແມ
ບແລ
ບແລະສ
ບແລະອ
ບແລະເຮ
ບແສ
ບແຫ
ບແຮງບ
ບໂຄງສ
ບໂດຍ
ບໂດຍກ
ບໂຕ
ບໂຕຂ
ບໂຕທ
ບໂຕຢ
ບໂຣມ
ບໂລກ
ບໂຫ
ບໂຮມ
ບໃຈ
ບໃຊ
ບໃຕ
ບໃນ
ບໃນຊ
ບໃນປ
ບໃນວ
ບໃນສ
ບໃນເດ
ບໃສ
ບໃຫ
ບໃຫຍ
ບໃໝ
ບໄຂ
ບໄຊ
ບໄຊຊະນະ
ບໄຊຕ
ບໄຊທ
ບໄຊຢ
ບໄດ
ບໄທ
ບໄປ
ບໄປຊ
ບໄປຍ
ບໄປຕ
ບໄປຢ
ບໄຟ
ບໄຟຟ
ບໄມ
ບໄລ
ບໄວ
ບໜ
ບໜາ
ບໝ
ປ
ປກສ
ປຕ
ປປ
ປຣ
ປຣາເນຊ
ປວ
ປວດ
ປສ
ປອ
ປອກ
ປອກຕ
ປອດ
ປອດໄພ
ປອນ
ປະ
ປະກ
ປະກອນ
ປະກອນຄອມພ
ປະກອນຕ
ປະກອນທ
ປະກອນເອເລ
ປະກອບ
ປະກອບກ
ປະກອບຂ
ປະກອບຈາກທ
ປະກອບດ
ປະກອບມ
ປະກອບສ
ປະກອບອາຊ
ປະກອບເປ
ປະກອບໄປດ
ປະກາດ
ປະກາດຂ
ປະກາດຄະນະປະຕ
ປະກາດຈ
ປະກາດຍ
ປະກາດຕ
ປະກາດປ
ປະກາດວ
ປະກາດເປ
ປະກາດໃຊ
ປະກາດໃຫ
ປະການ
ປະການຄ
ປະການທ
ປະການນ
ປະການເຫ
ປະການໃດ
ປະຈ
ປະຈຳ
ປະຈຳຈ
ປະຈຳປ
ປະຈຳວ
ປະຈຳສຳນ
ປະຈຳຫ
ປະຈຳແຂວງ
ປະຊ
ປະຊາ
ປະຊາກອນ
ປະຊາກອນຕ
ປະຊາກອນທ
ປະຊາກອນປະມານ
ປະຊາກອນສ
ປະຊາກອນສາດ
ປະຊາກອນຫ
ປະຊາກອນໜາແໜ
ປະຊາຊ
ປະຊາທ
ປະຊາສຳພ
ປະຍ
ປະດ
ປະຕ
ປະຖ
ປະຖຳ
ປະທ
ປະທານ
ປະທານປະເທດ
ປະທານສ
ປະທານອ
ປະທານາທ
ປະທານໂຮ
ປະທານໄກສອນ
ປະນ
ປະປ
ປະພ
ປະມ
ປະມານ
ປະມານປ
ປະມານຮ
ປະມານໜ
ປະຣ
ປະລ
ປະວ
ປະສ
ປະສາດ
ປະຫ
ປະຫວ
ປະເຊ
ປະເດ
ປະເທດ
ປະເທດກ
ປະເທດກຳປ
ປະເທດຄ
ປະເທດຈ
ປະເທດຊ
ປະເທດຊາດ
ປະເທດຍ
ປະເທດຕ
ປະເທດທ
ປະເທດນ
ປະເທດບ
ປະເທດຝຣ
ປະເທດຝະລ
ປະເທດພ
ປະເທດພວມພ
ປະເທດພະມ
ປະເທດຟ
ປະເທດມ
ປະເທດມາເລເຊຍ
ປະເທດມຽນມາ
ປະເທດລ
ປະເທດລາວ
ປະເທດລາວກ
ປະເທດລາວມ
ປະເທດລາວເປ
ປະເທດລາວໄດ
ປະເທດສ
ປະເທດສະມາຊ
ປະເທດສະວ
ປະເທດສະຫຍາມ
ປະເທດສະຫະລ
ປະເທດຫວຽດນາມ
ປະເທດອ
ປະເທດອາກຊ
ປະເທດຮ
ປະເທດເກ
ປະເທດເກຣ
ປະເທດເນເທ
ປະເທດເຢຍລະມ
ປະເທດເອກ
ປະເທດເອຢ
ປະເທດເຮ
ປະເທດແອສະປາຍ
ປະເທດໃດໜ
ປະເທດໄທ
ປະເທດໄທມ
ປະເທດໄທໄດ
ປະເພດ
ປະເພດກ
ປະເພດຫນ
ປະເພດໜ
ປະເພນ
ປະເມ
ປະເສ
ປະໂພກ
ປະໂຫຍກ
ປະໂຫຍກທ
ປະໂຫຍດ
ປະໄຕ
ປະໄຕທ
ປະໄຕປະຊາຊ
ປະໄຕພາຍໃຕ
ປະໄພ
ປາ
ປາກ
ປາກຊ
ປາກນ
ປາກເຊ
ປາງ
ປາຈ
ປາຊ
ປາຊາມອນ
ປາຍ
ປາຍປ
ປາທ
ປານ
ປານາມາ
ປານໃດ
ປາບ
ປາຣ
ປາລ
ປາວ
ປາສ
ປາສະຫ
ປາເດ
ປາແດກ
ປຽກ
ປຽບທຽບຖານ
ປຽບເໝ
ຜ
ຜະ
ຜະຈ
ຜະລ
ຜະສ
ຜະເດ
ຜາ
ຜາປ
ຜາສ
ຜາສາດ
ຜາສາດຫ
ຝ
ຝຣ
ຝລ
ຝະຣ
ຝະລ
ຝາ
ຝາດ
ພ
ພຍາ
ພທ
ພພ
ພພະສ
ພພານ
ພພານສ
ພມ
ພຣ
ພຣະ
ພຣະຍອດແກ
ພຣະຍາອ
ພຣະຍາໄອກ
ພຣະທ
ພຣະທາດຫ
ພຣະນ
ພຣະບ
ພຣະບາດສ
ພຣະຜ
ພຣະພ
ພຣະມະຫາກະສ
ພຣະຣ
ພຣະວ
ພຣະສ
ພຣະອ
ພຣະອາຈານໃຫຍ
ພຣະອາຈາຣຍ
ພຣະເຈ
ພຣະເດດພຣະຄ
ພຣະແກ
ພລ
ພວກ
ພວກຂ
ພວກຄ
ພວກທ
ພວກນ
ພວກມ
ພວກລ
ພວກອ
ພວກເຂ
ພວກເຮ
ພວນ
ພວມ
ພສ
ພອ
ພອນ
ພອນມະນ
ພອນສະຫວ
ພອນແກ
ພະ
ພະຂະໂໜງ
ພະຄ
ພະຄະວະໂຕ
ພະຈ
ພະຈອມເກ
ພະຊ
ພະຍ
ພະຍາ
ພະຍາກະບ
ພະຍາຍາມ
ພະຍາດ
ພະຍາດຕ
ພະຍາດຫ
ພະຍາດໄຂ
ພະຍາບານ
ພະຍາພ
ພະຍາເມ
ພະຍາໄທ
ພະຕຳໜ
ພະທ
ພະທາດ
ພະທາດສ
ພະທາດຫ
ພະທາດອ
ພະນ
ພະນະຄອນສ
ພະນະທ
ພະນາມເດ
ພະບ
ພະບາງ
ພະບາດສ
ພະປ
ພະປະແດງ
ພະຜ
ພະພ
ພະມ
ພະມະຫາກະສ
ພະລ
ພະລາຊະກ
ພະລາຊະດຳລ
ພະລາຊະທ
ພະລາຊະທານຊ
ພະລາຊະນ
ພະລາຊະບ
ພະລາຊະພ
ພະລາຊະວ
ພະລາຊະສ
ພະລາຊະໂອລ
ພະລາດຊະວ
ພະວ
ພະສ
ພະສະໜ
ພະສະໝ
ພະຫ
ພະອ
ພະເຈ
ພະເມຊ
ພະເຢຊ
ພະເວດສ
ພະແນກ
ພະແນກສະຖ
ພະໂຕສ
ພະໂລ
ພາ
ພາກ
ພາກກາງ
ພາກຕາເວ
ພາກທ
ພາກພ
ພາກລ
ພາກວ
ພາກສ
ພາກສາ
ພາກອ
ພາກອາຊ
ພາກເໜ
ພາກໃຕ
ພາຄ
ພາຍ
ພາຍນອກ
ພາຍຫ
ພາຍຫລ
ພາຍໃຕ
ພາຍໃນ
ພາຍໃນຈ
ພາຍໃນຖ
ພາຍໃນບ
ພາຍໃນປະເທດ
ພາຍໃນມ
ພາຍໃນວ
ພາຍໃນເມ
ພາດ
ພາທ
ພານ
ພາບ
ພາບກ
ພາບຂອງສ
ພາບຂຽນສ
ພາບຄ
ພາບຖ
ພາບທ
ພາບສ
ພາບຫ
ພາບອ
ພາພອນ
ພາມຜ
ພາລ
ພາລະກ
ພາລະບ
ພາວ
ພາວະທ
ພາສ
ພາສາ
ພາສາກາຊ
ພາສາກາຕາລ
ພາສາກຳປ
ພາສາຂະເໝນ
ພາສາຄອມພ
ພາສາຈ
ພາສາຊ
ພາສາຍ
ພາສາດານມາກ
ພາສາຕ
ພາສາຕະກ
ພາສາຕາກາລ
ພາສາທ
ພາສາທະມ
ພາສາທາງການ
ພາສານ
ພາສາບ
ພາສາປອກຕ
ພາສາປາກເວ
ພາສາປາລ
ພາສາຝຣ
ພາສາຝະລ
ພາສາພະມ
ພາສາມານຕາ
ພາສາມາເກໂດເນຍ
ພາສາມາເລ
ພາສາລ
ພາສາລາຕ
ພາສາລາວ
ພາສາລາວມ
ພາສາລາວລ
ພາສາລາແຕ
ພາສາສ
ພາສາສະວ
ພາສາສະໂລວ
ພາສາສະໂລເວເນຍ
ພາສາສາດ
ພາສາຫວຽດນາມ
ພາສາອ
ພາສາອາຣ
ພາສາອາເຊໄບຈານ
ພາສາຮ
ພາສາເກ
ພາສາເກຣ
ພາສາເຊ
ພາສາເປ
ພາສາເຢຍລະມ
ພາສາເອ
ພາສາເຮໄບຣ
ພາສາແຟ
ພາສາໂຄຣເອເຊຍ
ພາສາໂປໂລຍ
ພາສາໂຮນລ
ພາສາໄທ
ພາສາໄທລ
ພາສາໄອລ
ພາຫະນະ
ພາຫາຍະ
ພາໃຫ
ພຽງ
ພຽງຄ
ພຽງຕ
ພຽງບ
ພຽງຜ
ພຽງພ
ພຽງສ
ພຽງອ
ພຽງແຕ
ພຽງໃດ
ຟ
ຟການ
ຟຣ
ຟຣາເຕ
ຟລ
ຟອກສ
ຟອງ
ຟອຍກວາດ
ຟອຍແຕ
ຟອດຊ
ຟອນ
ຟະລ
ຟາ
ຟາກ
ຟານ
ຟເວ
ມ
ມກ
ມກອງ
ມກອງທ
ມກະສ
ມກາຕ
ມການ
ມການທ
ມການປ
ມການລ
ມການເມ
ມຂ
ມຂອງ
ມຂອງຄ
ມຂອງຊ
ມຂອງທ
ມຂອງຜ
ມຂອງລ
ມຂອງສ
ມຂອງອ
ມຂອງເມ
ມຂາວ
ມຂຽນ
ມຄ
ມຄວ
ມຄວນ
ມຄວນແກ
ມຄວນແລ
ມຄວາມສ
ມຄອງ
ມຄອງດ
ມຄອງທ
ມຄອງບ
ມຄອງພຣະພ
ມຄອງລ
ມຄອງສ
ມຄຳສ
ມງ
ມງວດ
ມງານ
ມຈ
ມຈາກ
ມຊ
ມຊະນ
ມຊະນະ
ມຊາຍ
ມຊາດພ
ມຊາດອ
ມຊາດໄທ
ມຍ
ມຍາວ
ມດ
ມດຳ
ມດຳເນ
ມຕ
ມຕອນຕ
ມຕອນປາຍ
ມຕາເວ
ມຖ
ມຖະໜ
ມທ
ມທອງ
ມທະວ
ມທະຫານຣາບທ
ມທານ
ມທຳອ
ມທຽບ
ມນ
ມນາດ
ມນາດຊາດອາຊາວະໄສ
ມນຳ
ມບ
ມປ
ມປະຊາຊ
ມປະຊາທ
ມປະຕ
ມປະທາ
ມປະສ
ມປະສານ
ມປະສານກ
ມປະເສ
ມປຽນລ
ມຜ
ມຜະລ
ມຝ
ມພ
ມພອນ
ມພະກຽດ
ມພະຍ
ມພະຍານະລ
ມພະທ
ມພະລາຊະວ
ມພະວ
ມພາ
ມພາປ
ມພາສາລາວ
ມພາສາເຊມ
ມຟ
ມມ
ມມະ
ມມະການ
ມມະຂ
ມມະຈ
ມມະຕ
ມມະຖານ
ມມະທ
ມມະນ
ມມະນາ
ມມະນາຄ
ມມະນາດບ
ມມະບ
ມມະລ
ມມະລາດ
ມມະລຽນ
ມມະວ
ມມະຫ
ມມະຫາຈ
ມມະຫານະຄອນ
ມມະຫາລາຊະວ
ມມະຫາວ
ມມະຮ
ມມະເລ
ມມະໝ
ມມາ
ມມາທ
ມມານ
ມມານນ
ມມາລາຍ
ມມາວາຈາ
ມມາສ
ມຢ
ມຣ
ມລ
ມລະດ
ມລະລາຍ
ມລະຫວ
ມລະເບ
ມລາຊ
ມລາຊະກ
ມລາຊະຊ
ມລາຊະນ
ມລາຊະວ
ມລາຊະສ
ມລາຊະເທວ
ມລາຊະໂອງການໂປດເກ
ມລາຊະໂອງການໃຫ
ມລາຊາທ
ມລາຊານ
ມລາຊາພ
ມລານ
ມລາວ
ມວ
ມວຍ
ມວນຊ
ມວນມະນ
ມວນສານ
ມວຽງຈ
ມສ
ມສະບ
ມສະພາແຫ
ມສະຫ
ມສະຫວ
ມສາກ
ມສາດ
ມສາມ
ມສຳລ
ມຫ
ມຫຍ
ມຫມ
ມຫລ
ມຫລາຍຂ
ມຫວ
ມຫວຽດນາມ
ມອ
ມອນ
ມອນໄຂ
ມອບ
ມອບໃຫ
ມອສ
ມອາກາດ
ມອາຊ
ມອາຍ
ມຮ
ມະ
ມະຂ
ມະຊ
ມະຊາດ
ມະຊາດແລະສ
ມະຍ
ມະດາທ
ມະຕ
ມະນ
ມະບານ
ມະພານ
ມະຣ
ມະລ
ມະສ
ມະຫ
ມະຫາ
ມະຫາງອນ
ມະຫາຊ
ມະຫາຊະໂນດມາງຄະປະນ
ມະຫາດເລ
ມະຫານ
ມະຫາບ
ມະຫາປ
ມະຫາມ
ມະຫາວ
ມະຫາສ
ມະຫາສະມ
ມະຫາສະໝ
ມະຫາໄຊ
ມະເຫສວນມະຫ
ມະໂຫສ
ມະໄລ
ມາ
ມາກ
ມາກາຍເປ
ມາກາຣ
ມາຂ
ມາຂອງຄຳວ
ມາຂອງຊ
ມາຄ
ມາຈ
ມາຈາກ
ມາຈາກຄຳວ
ມາຈາກຫ
ມາຈາກອ
ມາຈາກເມ
ມາຊ
ມາຍ
ມາດ
ມາດຕະຖານ
ມາດຕາ
ມາດຣ
ມາຕ
ມາຕຣ
ມາຕະຫ
ມາຖ
ມາທ
ມານ
ມານທ
ມານນ
ມານສ
ມານສານອາຫານ
ມານເງ
ມາບ
ມາປ
ມາຜ
ມາພ
ມາມ
ມາຢ
ມາຣ
ມາລ
ມາລາວ
ມາວອ
ມາສ
ມາຫ
ມາອ
ມາຮ
ມາຮອດ
ມາຮອດປ
ມາຮອດປະຈ
ມາເກ
ມາເຊ
ມາເຖ
ມາເປ
ມາເມ
ມາເລ
ມາເລເຊຍ
ມາເຮ
ມາແຕ
ມາແມ
ມາແມຣ
ມາແລ
ມາໂຢແນ
ມາໃຊ
ມາໃນ
ມາໃນປ
ມາໃນວ
ມາໃນເດ
ມາໃຫ
ມາໄດ
ມາໄລທ
ມາໄວ
ມຽນມາ
ມເກ
ມເຂ
ມເຂດກ
ມເຂດບາງກອກກາງ
ມເຄ
ມເງ
ມເຈ
ມເຊ
ມເຍ
ມເດ
ມເຕ
ມເຖ
ມເທ
ມເນ
ມເບ
ມເບຍ
ມເປ
ມເຜ
ມເພ
ມເມ
ມເຢ
ມເຢຍລະມ
ມເລ
ມເສ
ມເສດ
ມເສດຖະກ
ມເຫ
ມເຫດສ
ມເອ
ມເອກະສານ
ມເຮ
ມເໝ
ມແກ
ມແຂ
ມແຂງ
ມແຈ
ມແດນຕ
ມແຕ
ມແທ
ມແບ
ມແບບຮຽນ
ມແຜ
ມແພ
ມແພນຊ
ມແມ
ມແລ
ມແລະຈະຣ
ມແລະບ
ມແລະມ
ມແລະສ
ມແລະອ
ມແຫ
ມແອມບາດເດ
ມໂກດ
ມໂປ
ມໂປແກ
ມໂພທ
ມໂມງ
ມໂມງດ
ມໂລກ
ມໂວຣ
ມໂອຣະສາທ
ມໃຈ
ມໃຊ
ມໃດ
ມໃນ
ມໃນຄ
ມໃນຊ
ມໃນປ
ມໃສ
ມໃຫ
ມໃຫຍ
ມໃໝ
ມໄຊ
ມໄດ
ມໄທ
ມໄປ
ມໄປດ
ມໄປສະນ
ມໄມ
ມໄວ
ມໆ
ມໜ
ມໝ
ຢ
ຢາ
ຢາກ
ຢາກມ
ຢາກຮ
ຢາກເຂ
ຢາກເປ
ຢາກເຮ
ຢາກໃຫ
ຢາກໄດ
ຢາງ
ຢາງລ
ຢາຍ
ຢາດໃຫ
ຢາຖ
ຢາພ
ຢາມ
ຢາວ
ຢາສ
ຣ
ຣກ
ຣດ
ຣນ
ຣສ
ຣສລາວ
ຣະ
ຣະກ
ຣະກະດາ
ຣະງະນະນ
ຣະນ
ຣະນະພາບໄປ
ຣະນາຣ
ຣະບ
ຣະພ
ຣະມ
ຣະມາພ
ຣະວ
ຣະສ
ຣະຫ
ຣະເມນມະຫາອານ
ຣະເວດ
ຣາ
ຣາກ
ຣາຄະ
ຣາຊ
ຣາຊອານາຈ
ຣາຊະອານາຈ
ຣາດ
ຣາຕ
ຣານ
ຣາບລ
ຣາຢາແລະມ
ຣາລ
ຣາວ
ຣາສ
ຣາຫ
ຣາເຊ
ຣາເບລ
ຣຽນ
ລ
ລກ
ລຊ
ລຍາ
ລດ
ລຕ
ລທ
ລບ
ລປ
ລລ
ລວ
ລວງ
ລວງຍາວ
ລວງສ
ລວງຮອບ
ລວມ
ລວມກ
ລວມກຳລ
ລວມຍອດຜະລ
ລວມທ
ລວມມ
ລວມອາຍ
ລວມເຖ
ລວມເປ
ລວມເມ
ລວມເອ
ລວມໄປເຖ
ລສ
ລອງ
ລອງຄ
ລອຍ
ລອຍນ
ລອດ
ລອນ
ລອນດອນ
ລະ
ລະກ
ລະຂ
ລະຄ
ລະຄອນ
ລະຈ
ລະຈອນ
ລະຈອມເກ
ລະຊ
ລະຊະນ
ລະຍ
ລະດ
ລະຕ
ລະທ
ລະທຳ
ລະນ
ລະນະ
ລະນະກຳ
ລະນະປະຕ
ລະນະສ
ລະນາຍາສ
ລະບ
ລະບອບ
ລະບອບການປ
ລະບອບຂ
ລະບອບທ
ລະບອບສ
ລະບຽງ
ລະບຽບ
ລະບຽບວ
ລະປ
ລະປະ
ລະປະການສະແດງ
ລະປະທ
ລະປະວ
ລະປະເທດ
ລະພ
ລະພາ
ລະມ
ລະມະຫາວ
ລະລ
ລະລາຊະຊາຍາ
ລະລາຊະຊາຍາເທ
ລະວ
ລະສ
ລະຫ
ລະຫວ
ລະອ
ລະອຽດ
ລະເບ
ລະເຜ
ລະເມ
ລະເວດ
ລະເວນ
ລະໜ
ລາ
ລາກ
ລາການ
ລາກແກ
ລາຄ
ລາຄາ
ລາຄາຖ
ລາຄາລ
ລາຄາສ
ລາຄາເຂ
ລາງ
ລາງວ
ລາຈາຣ
ລາຈາລ
ລາຊ
ລາຊະ
ລາຊະການທ
ລາຊະຄ
ລາຊະມ
ລາຊະວ
ລາຊະສ
ລາຊະສະໄໝພະບາດສ
ລາຊະອານາຈ
ລາຊາ
ລາຊາທ
ລາຍ
ລາຍການ
ລາຍການອ
ລາຍການເຄ
ລາຍງານ
ລາຍງານວ
ລາຍຈ
ລາຍຊ
ລາຍພະນາມພະມະຫາກະສ
ລາຍຮ
ລາຍະການປະກວດຄວາມງາມ
ລາຍໄດ
ລາດ
ລາດຊະວ
ລາດຊະອານາຈ
ລາດບ
ລາດຯ
ລາດາ
ລາຕ
ລາທ
ລານ
ລາບ
ລາບານເຕະ
ລາປ
ລາມ
ລາມະນ
ລາລ
ລາວ
ລາວກ
ລາວຄ
ລາວຈ
ລາວຍ
ລາວຕ
ລາວຖ
ລາວທ
ລາວບ
ລາວມ
ລາວຢ
ລາວລ
ລາວສ
ລາວຫ
ລາວອ
ລາວເດ
ລາວເປ
ລາວເລ
ລາວເຮ
ລາວແມ
ລາວໄດ
ລາສ
ລາຫ
ລາແຕ
ລາແຫ
ລາໂລກມະຫາລາດ
ລາໂອລ
ລຳ
ລຳກ
ລຳດ
ລຳຕ
ລຳນ
ລຳບ
ລຳບາກ
ລຳປາງ
ລຳພ
ລຳມ
ລຳລ
ລຳສ
ລຽດ
ລຽນ
ລຽບ
ລຽມ
ວ
ວກ
ວກະ
ວກະບ
ວກາງ
ວກາຕ
ວການປະກວດທ
ວກາລ
ວຂ
ວຂອງ
ວຂອງຕ
ວຂອງມ
ວຂອງເຂ
ວຂອງເສດຖະກ
ວຂາວ
ວຂຽວ
ວຄ
ວຄາວ
ວຄຳ
ວງ
ວງກ
ວງກາງ
ວງກາເຟ
ວງຂ
ວງຂອງ
ວງຂອງລ
ວງຄ
ວງຊ
ວງຍ
ວງຕ
ວງຖ
ວງທ
ວງທຳອ
ວງນ
ວງບ
ວງບາງກອກ
ວງປ
ວງປະຈ
ວງປາລ
ວງພ
ວງພຣະບາງ
ວງພະບາງ
ວງມ
ວງລ
ວງລະດ
ວງລະເມ
ວງວ
ວງວຽງຈ
ວງສ
ວງຫ
ວງຫນ
ວງອະໄພນ
ວງອາຍ
ວງຮ
ວງເກ
ວງເຊ
ວງເດ
ວງເປ
ວງເມ
ວງເວລາ
ວງເວລາດ
ວງເວລາທ
ວງເວລານ
ວງເຮ
ວງເໜ
ວງແຕ
ວງແຜ
ວງແຫ
ວງໃຕ
ວງໃຫຍ
ວງໃໝ
ວງໄດ
ວງໜ
ວຈ
ວຈະມ
ວຈະເລ
ວຈະໄດ
ວຊ
ວຍ
ວຍກ
ວຍການ
ວຍການຄ
ວຍການຈ
ວຍການຕ
ວຍການປ
ວຍການພ
ວຍການລ
ວຍການສ
ວຍການຮ
ວຍການເອ
ວຍການໃຊ
ວຍການໃຫ
ວຍຂ
ວຍຂວາງ
ວຍຄ
ວຍຄວາມຍາວ
ວຍຄວາມຕ
ວຍຄວາມທ
ວຍຄວາມບ
ວຍຄວາມສ
ວຍຄວາມຫມ
ວຍຄວາມຮ
ວຍງານ
ວຍງານທ
ວຍງານລ
ວຍຈ
ວຍຊ
ວຍຊາຍ
ວຍດ
ວຍຕ
ວຍຖ
ວຍທ
ວຍທອງສຳລ
ວຍນ
ວຍບ
ວຍປ
ວຍປະໂຍຊນ
ວຍຜ
ວຍພ
ວຍພະອ
ວຍຟ
ວຍມ
ວຍລ
ວຍລະບ
ວຍລາງວ
ວຍວ
ວຍສ
ວຍສາອາກອນ
ວຍຫ
ວຍອ
ວຍຮ
ວຍາວ
ວຍເຂ
ວຍເຄ
ວຍເງ
ວຍເຊ
ວຍເຖ
ວຍເທ
ວຍເນ
ວຍເປ
ວຍເພ
ວຍເມ
ວຍເລ
ວຍເສ
ວຍເຫ
ວຍເຫດທ
ວຍເຫດນ
ວຍເຫດຜ
ວຍເຫລ
ວຍເຮ
ວຍແຜ
ວຍແມ
ວຍແຮ
ວຍໃຫ
ວຍໄດ
ວຍໄມ
ວຍໜ
ວດ
ວດທ
ວດພ
ວຕ
ວຕະຫ
ວຕາຍ
ວຖ
ວທ
ວທອງ
ວທອງເໜ
ວທາງດ
ວທາງເສດຖະກ
ວທຽນ
ວນ
ວນກ
ວນຂ
ວນຂອງ
ວນຂອງຕຳບ
ວນຄ
ວນຄຳວ
ວນຈ
ວນຊ
ວນດ
ວນຕ
ວນຕຳບ
ວນທ
ວນທາງທ
ວນນ
ວນບ
ວນປະກອບ
ວນປະກອບທ
ວນປະກອບຫ
ວນປະສ
ວນຜ
ວນຜະສ
ວນພ
ວນພະອ
ວນພາກພ
ວນມ
ວນຢ
ວນລ
ວນວ
ວນສ
ວນສຳຄ
ວນຫ
ວນຫນ
ວນຫລາຍ
ວນອ
ວນຮ
ວນາ
ວນາງ
ວນເຂ
ວນເຄ
ວນເຈ
ວນເທ
ວນເປ
ວນເມ
ວນເລ
ວນແຕ
ວນແບ
ວນແມ
ວນແລ
ວນໃຫ
ວນໃຫຍ
ວນໄດ
ວນໜ
ວບ
ວບາ
ວບານ
ວປ
ວປະທ
ວປະເທດ
ວປະເທດຄ
ວປະເທດເຂ
ວປະເສ
ວຜ
ວພ
ວພວກເຂ
ວພະຮາມ
ວຟ
ວມ
ວມກ
ວມກອງປະຊ
ວມການປະກວດ
ວມການປະກວດມ
ວມການແຂ
ວມຂອງພຣະສ
ວມຄ
ວມດ
ວມທ
ວມທຳບ
ວມບ
ວມປະກວດ
ວມປະກວດມ
ວມປະກາດມ
ວມປະຊ
ວມພ
ວມມ
ວມຢ
ວມລ
ວມວ
ວມສ
ວມຫ
ວມອ
ວມຮ
ວມະຫາວ
ວມເຊ
ວມເປ
ວມເພດ
ວມໃນພ
ວຢ
ວຢອກ
ວຣ
ວລ
ວລະພາ
ວລາ
ວລາລ
ວລາວ
ວລຳພ
ວລຳໂພງ
ວລຽນ
ວວ
ວສ
ວສະກ
ວສະເດ
ວຫ
ວຫຍ
ວຫນ
ວຫລ
ວອ
ວອນ
ວອນສະຖານມ
ວອານ
ວອາມ
ວຮ
ວະ
ວະຈ
ວະຊ
ວະຍ
ວະຕ
ວະຕະ
ວະນະຣ
ວະນາດ
ວະນານາພ
ວະນາໆພ
ວະບ
ວະປະຫວ
ວະພາບ
ວະມ
ວະຣ
ວະລ
ວະວ
ວະສ
ວະສາດ
ວະເຄມ
ວາ
ວາງ
ວາງຂວາງ
ວາງຕ
ວາງອອກ
ວາງແຜງ
ວາງໄວ
ວາຈ
ວາຈາ
ວາຊາບ
ວາດ
ວາດສະໜາ
ວາທ
ວານ
ວານນາຍ
ວາປ
ວາມ
ວາລ
ວາລະ
ວາລະກອນ
ວາລະສານ
ວາວ
ວາເກ
ວຽກ
ວຽກງານ
ວຽກບ
ວຽງ
ວຽງຈ
ວຽດນາມ
ວຽນ
ວເກ
ວເຂ
ວເຄ
ວເຄລຍ
ວເຈ
ວເຊ
ວເດ
ວເຕ
ວເຕມາລາ
ວເຖ
ວເທ
ວເນ
ວເນຍ
ວເປ
ວເພ
ວເມ
ວເມຍ
ວເລ
ວເລກ
ວເລກທ
ວເສ
ວເຫ
ວເອ
ວເອງ
ວເອງວ
ວເອງເປ
ວເອງໃຫ
ວເຮ
ວແຂວງ
ວແດ
ວແດງ
ວແຕ
ວແທນ
ວແທນຂອງປະເທດເຂ
ວແທນຈ
ວແທນປະເທດລາວຄ
ວແທນປະເທດລາວຜ
ວແທນປະເທດໄທໃນການປະກວດຄວາມງາມຊາຍລະດ
ວແທນປະເທດໄທໃນການປະກວດຄວາມງາມລະດ
ວແທນສາວລາວເຂ
ວແທນອາຊຽນໃນການປະກວດມ
ວແມ
ວແລ
ວແຫ
ວໂຄນ
ວໂປ
ວໂປດເກ
ວໂມງ
ວໂມງຕ
ວໂລກ
ວໂລກທ
ວໃຈ
ວໃຈຂອງພຣະພ
ວໃຈພ
ວໃຊ
ວໃນປ
ວໃຫ
ວໃຫຍ
ວໄດ
ວໄທ
ວໄທແລນ
ວໄປ
ວໄປກ
ວໄປຂອງທ
ວໄປຄ
ວໄປທ
ວໄປນ
ວໄປມ
ວໄປຢ
ວໄປວ
ວໄປຮ
ວໄປເປ
ວໄປເອ
ວໄປແມ
ວໄປແລ
ວໄວ
ວໄຫ
ວໆໄປ
ວໜ
ວໝ
ສ
ສກ
ສກາ
ສຄອ
ສຈ
ສຊ
ສຍ
ສດ
ສຕ
ສຕຣາລ
ສຕະຈ
ສຖານ
ສທ
ສທລ
ສນ
ສປ
ສປຈ
ສປປ
ສປປລາວ
ສປາຍ
ສປາໂຍນ
ສພາ
ສມ
ສຢ
ສຣະ
ສລ
ສລາວ
ສລາວຄ
ສວ
ສວຍ
ສວຍງາມ
ສວຍສ
ສວນ
ສວນດ
ສວນປ
ສວນລ
ສວນສ
ສວນສາທາລະນະ
ສວນຫ
ສວນເບນຈະກ
ສວຜ
ສວມໃສ
ສສ
ສສນາກ
ສສສສສສສສສສສສສສສສສສສສສສສສສສ
ສຫວ
ສອ
ສອກ
ສອງ
ສອງຂ
ສອງຄ
ສອງຄອນ
ສອງຕ
ສອງທ
ສອງນ
ສອງຝ
ສອງຢ
ສອງສ
ສອງຫ
ສອງອ
ສອງຮ
ສອງເທ
ສອງແມ
ສອດ
ສອດຄ
ສອນ
ສອນຢ
ສອນສ
ສອນໃຫ
ສອບ
ສອອລເນຊ
ສະ
ສະກ
ສະກາ
ສະງ
ສະດ
ສະດວກ
ສະດານເຕ
ສະຕ
ສະຕຣ
ສະຕະວ
ສະຕາ
ສະຕາບ
ສະຕາຣ
ສະຕາໄທແລນ
ສະຖ
ສະຖານ
ສະຖານທ
ສະຖານນ
ສະຖານສ
ສະຖານະເປ
ສະຖານເອກອ
ສະຖາບ
ສະຖາປ
ສະຖາປະນາ
ສະຖຽນລະພາບ
ສະທ
ສະນ
ສະບ
ສະບາຍ
ສະບາຍດ
ສະປ
ສະປາເກ
ສະພ
ສະພາ
ສະພາຕ
ສະພາບ
ສະພາບທ
ສະພາບພ
ສະພາບເສດຖະກ
ສະພາບແວດລ
ສະພາບໂດຍທ
ສະພາວະທ
ສະພາວະເງ
ສະພາວະໂລກຮ
ສະພາອ
ສະພາແຫ
ສະມ
ສະມາຄ
ສະມາຊ
ສະມາຖ
ສະມາທ
ສະມາທານ
ສະມາທານເອ
ສະຣ
ສະຣະນ
ສະຣະເນນະ
ສະລ
ສະລະ
ສະລະພາບ
ສະລາມ
ສະວ
ສະວະ
ສະວະກ
ສະວະກອນ
ສະວະກຳ
ສະວະກຳສາດ
ສະວະກຳໄຟຟ
ສະວາຊ
ສະສ
ສະຫ
ສະຫງ
ສະຫງວນ
ສະຫງວນໄວ
ສະຫຍາມ
ສະຫຍາມບ
ສະຫຍາມມ
ສະຫນ
ສະຫນາມບ
ສະຫມ
ສະຫລ
ສະຫວ
ສະຫວາດ
ສະຫະ
ສະຫະກອນ
ສະຫະປະຊາຊາດ
ສະຫະພ
ສະຫະພາບມຽນມາ
ສະຫະພາບເອ
ສະຫະພາບໂຊວຽດ
ສະຫະຣ
ສະຫະຣາຊອານາຈ
ສະຫະລ
ສະຫະລາຊະອານາຈ
ສະຫະສະວ
ສະຫາຍ
ສະຫາຍໄດ
ສະອາດ
ສະເກດ
ສະເດ
ສະເຕ
ສະເນຍ
ສະເບ
ສະເປນ
ສະເພາະ
ສະເລ
ສະເຫ
ສະເຫນ
ສະເຫມ
ສະເຫວ
ສະເໜ
ສະເໝ
ສະແດງ
ສະແດງຄວາມຄ
ສະແດງຜ
ສະແດງວ
ສະແດງເຖ
ສະແດງເປ
ສະແດງໂດຍ
ສະແດງໃຫ
ສະແດງໄດ
ສະແຕ
ສະແປນນ
ສະໂມສອນ
ສະໂມສອນບານເຕະ
ສະໂລວາກ
ສະໂລເວນ
ສະໄຫມ
ສະໄໝ
ສະໄໝກ
ສະໄໝທ
ສະໄໝບ
ສະໄໝສ
ສະໜ
ສະໜອງ
ສະໜາມ
ສະໜາມກ
ສະໜາມບ
ສະໜາມໄຊ
ສະໝ
ສະໝອງ
ສະໝຽນ
ສາ
ສາກ
ສາຂະບ
ສາຂາ
ສາຂາທ
ສາຂານ
ສາຂາວ
ສາຂາໜ
ສາຄະເນ
ສາງ
ສາຍ
ສາຍການບ
ສາຍຄ
ສາຍນ
ສາຍບ
ສາຍພ
ສາຍລ
ສາຍສ
ສາຍສະເຫ
ສາຍຮ
ສາຍແຂນ
ສາຍແດນຮ
ສາຍແອວ
ສາດ
ສາດບ
ສາດສະດາຈານ
ສາດສະໜາ
ສາດສະໜາພ
ສາດສະໜາອ
ສາທ
ສາທາລະນະ
ສາທາລະນະລ
ສາທາລະນະສ
ສານ
ສານກ
ສານທ
ສານທະຫານ
ສານປະຊາຊ
ສານມວນຊ
ສານລ
ສານສ
ສານຫ
ສານອ
ສານອາຫານ
ສານເຄມ
ສານເຈ
ສາມ
ສາມກ
ສາມຊ
ສາມສ
ສາມຫ
ສາມະເນນ
ສາມາດ
ສາມາດກ
ສາມາດຂ
ສາມາດຄ
ສາມາດຄວບຄ
ສາມາດຈ
ສາມາດຊ
ສາມາດຍ
ສາມາດດ
ສາມາດຕ
ສາມາດຖ
ສາມາດທ
ສາມາດນ
ສາມາດນຳໃຊ
ສາມາດບ
ສາມາດປ
ສາມາດປະຕ
ສາມາດຜ
ສາມາດຜະລ
ສາມາດພ
ສາມາດມ
ສາມາດຢ
ສາມາດລ
ສາມາດສ
ສາມາດຫ
ສາມາດຮ
ສາມາດເກ
ສາມາດເຂ
ສາມາດເຄ
ສາມາດເຊ
ສາມາດເດ
ສາມາດເບ
ສາມາດເປ
ສາມາດເຫ
ສາມາດເອ
ສາມາດເຮ
ສາມາດແບ
ສາມາດແລ
ສາມາດໃຊ
ສາມາດໄດ
ສາລ
ສາລະ
ສາລະວ
ສາລານ
ສາວ
ສາວນ
ສາວະກະສ
ສາວະຣ
ສາວະລ
ສາສະນ
ສາສະຫນາ
ສາສະໜາ
ສາສະໜາຄ
ສາສະໜາພ
ສາສະໜາອ
ສາຫະກ
ສາຫະກຳ
ສາເຫດທ
ສຳ
ສຳຄ
ສຳນ
ສຳນຽງ
ສຳປະສ
ສຳຜ
ສຳພ
ສຳມະນາ
ສຳລ
ສຳຫ
ສຳຫລ
ສຳເຣ
ສຳເລ
ສຽງ
ສຽງກ
ສຽງຂ
ສຽງຄ
ສຽງດ
ສຽງທ
ສຽງພ
ສຽງວ
ສຽງສ
ສຽງຫ
ສຽງຮ
ສຽງໂດ
ສຽງໂດຍ
ສຽນ
ສເຊ
ສເຕ
ສເອ
ສເອເຊຍປາຊ
ສແກຣນດ
ສແກຣນລາວ
ສແກຣນສ
ສແກຣນສະຕ
ສແກຣນສະໝ
ສແກຣນອ
ສແກຣນໄທແລນ
ສໂກ
ສໂກລໂບ
ສໂຄ
ສໂຕເນຍ
ສໂວຣ
ສໄຊນ
ສໄທແລນ
ຫ
ຫງ
ຫງວນ
ຫງວຽນ
ຫຍ
ຫຍາຍ
ຫນ
ຫນອງ
ຫນາ
ຫນາດ
ຫນາມ
ຫນາວ
ຫມ
ຫມວດ
ຫມວດທ
ຫມອກ
ຫມາ
ຫມາກເຜ
ຫມາຍ
ຫມາຍຄວາມວ
ຫມາຍເຖ
ຫມາຍເຫດ
ຫຣ
ຫລ
ຫລວງ
ຫລວງນ
ຫລວງພະບາງ
ຫລວງຫລາຍ
ຫລວງອາມາດ
ຫລວດ
ຫລອດ
ຫລາ
ຫລາກ
ຫລາກຫລາຍ
ຫລາຍ
ຫລາຍກ
ຫລາຍກວ
ຫລາຍຂ
ຫລາຍຄ
ຫລາຍທ
ຫລາຍໆ
ຫລາດ
ຫວ
ຫວຍ
ຫວາຍ
ຫວານ
ຫວຽດ
ຫວຽດນາມ
ຫອກ
ຫອຍ
ຫອຍນ
ຫອມ
ຫອມສ
ຫະ
ຫາ
ຫາກ
ຫາກຕ
ຫາກທ
ຫາກບ
ຫາກຜ
ຫາກມ
ຫາກວ
ຫາກສ
ຫາກເປ
ຫາກແຕ
ຫາກໄດ
ຫາງ
ຫາຍ
ຫາຍໃຈອອກນ
ຫາຍໃຈເຂ
ຫາດ
ຫາດຊາຍ
ຫານ
ຫານກ
ຫານງານ
ຫານງານສ
ຫານຈ
ຫານຕ
ຫານທ
ຫານນ
ຫານບ
ຫານພ
ຫານລ
ຫານສ
ຫານເຊ
ຫາປ
ຫາມາໄດ
ຫາລ
ຫາລາດ
ຫາສ
ຫາເດ
ອ
ອກ
ອກກ
ອກຄ
ອກຊ
ອກຕ
ອກທ
ອກນ
ອກຜ
ອກພ
ອກມ
ອກວ
ອກສ
ອກອງທ
ອກະສ
ອການປະຕ
ອການພ
ອການສ
ອກເຂ
ອກເປ
ອກເຟ
ອກເອ
ອກແຜ
ອກໂກແລ
ອກໂຄ
ອກໃຊ
ອກໃຫ
ອກໄດ
ອກໜ
ອຂ
ອຂອງ
ອຂອງຄ
ອຂອງທະວ
ອຂອງປະເທດ
ອຂອງປະເທດໄທ
ອຂອງພະມ
ອຂອງລາວ
ອຂອງອ
ອຂອງໄທ
ອຄ
ອຄວບຄ
ອຄວາມເປ
ອຄອງເຕ
ອຄານ
ອຄາຢ
ອງ
ອງກ
ອງກວ
ອງກະລ
ອງການ
ອງການຂອງຜ
ອງການຂອງລ
ອງການຄ
ອງການຈ
ອງການຊ
ອງການຕ
ອງການທ
ອງການບ
ອງການປ
ອງການມ
ອງການຢ
ອງການສ
ອງການຫ
ອງການອ
ອງການຮ
ອງການເມ
ອງການໃຫ
ອງການໄປສະນ
ອງຂ
ອງຂວາ
ອງຂອງ
ອງຂອງຈ
ອງຂອງຕ
ອງຂອງທ
ອງຂອງພ
ອງຂອງເຂ
ອງຂະໜາດໃຫຍ
ອງຄ
ອງຄອບ
ອງຄອມພ
ອງຄຳ
ອງຄຳເກ
ອງງ
ອງງອຍ
ອງງາ
ອງຈ
ອງຈອມເພ
ອງຈາກ
ອງຈາກຕ
ອງຈາກຖ
ອງຈາກບ
ອງຈາກພ
ອງຈາກມ
ອງຈາກວ
ອງຈາກສ
ອງຈາກເປ
ອງຈຳປາສ
ອງຊ
ອງຊະນະສ
ອງຊາຍ
ອງຊາວໄທ
ອງຊຳເໜ
ອງຊຳໃຕ
ອງຊຽງຮ
ອງຊຽງເງ
ອງຊຽງໃໝ
ອງຍ
ອງຍອງ
ອງຍອດອ
ອງຍາເທ
ອງດ
ອງດຽວກ
ອງຕ
ອງຕະຫ
ອງຕາກ
ອງຕາມກ
ອງຖ
ອງທ
ອງທາງໄກ
ອງທຳອ
ອງນ
ອງນອງ
ອງນອນ
ອງນະຄອນສ
ອງນາກາງ
ອງນາຊາຍທອງ
ອງນານ
ອງນາແລ
ອງນຳ
ອງບ
ອງປ
ອງປະດ
ອງປະຕ
ອງປະທ
ອງປະມານ
ອງປະສ
ອງປາກ
ອງປາກງ
ອງປາກຊ
ອງປາກທາ
ອງປາກລາຍ
ອງປາກເຊ
ອງປາກແບ
ອງຜ
ອງຜາອ
ອງຜາໄຊ
ອງຝ
ອງພ
ອງພວນ
ອງພະຍາເລ
ອງພະນ
ອງພະລ
ອງພະເວດສ
ອງພຽງ
ອງຟ
ອງມ
ອງມະນ
ອງມະຫາໄຊ
ອງຢ
ອງລ
ອງລະຫວ
ອງລາຊະອ
ອງລາດອ
ອງລາວ
ອງລາວກ
ອງລາວທ
ອງລາວມ
ອງວ
ອງວາງສະແດງຕ
ອງວາປ
ອງວຽງຄຳ
ອງວຽງຈ
ອງວຽງທອງ
ອງວຽງພ
ອງວຽງໄຊ
ອງສ
ອງສອງຄອນ
ອງສອນ
ອງສະຫວ
ອງສະແດງເຖ
ອງສະໝ
ອງສາມ
ອງສາລະວ
ອງສາວ
ອງສຳຄ
ອງສຳພ
ອງຫ
ອງຫນ
ອງຫນອງບ
ອງຫລ
ອງຫລວງ
ອງຫລວງພະບາງ
ອງຫວ
ອງຫາດຊາຍຟອງ
ອງອ
ອງອາຍ
ອງອາດສະພ
ອງອາດສະພອນ
ອງຮ
ອງຮອຍ
ອງຮອຍທ
ອງຮຽນ
ອງເກ
ອງເຂ
ອງເຄ
ອງເງ
ອງເຈ
ອງເຊ
ອງເຊບ
ອງເຊໂປນ
ອງເດ
ອງເຕ
ອງເຖ
ອງເທ
ອງເທດ
ອງເບ
ອງເປ
ອງເພ
ອງເພງ
ອງເຟ
ອງເມ
ອງເລ
ອງເວ
ອງເສ
ອງເຫ
ອງເຫລ
ອງເອ
ອງເອກ
ອງເຮ
ອງເໜ
ອງແກ
ອງແຄ
ອງແຄບ
ອງແຄບອ
ອງແຕ
ອງແຖນ
ອງແບ
ອງແປກ
ອງແມ
ອງແລ
ອງແລະນ
ອງແສງ
ອງແຫ
ອງໂຂງ
ອງໂດຍກ
ອງໂດດ
ອງໂນນສ
ອງໂພນທອງ
ອງໂພນສະຫວ
ອງໂສ
ອງໃຊ
ອງໃຕ
ອງໃນ
ອງໃນຊ
ອງໃນປ
ອງໃນວ
ອງໃສ
ອງໃຫ
ອງໃຫຍ
ອງໃຫມ
ອງໃໝ
ອງໄກສອນ
ອງໄຊ
ອງໄຊຍະບ
ອງໄຊທານ
ອງໄຊບ
ອງໄຊພ
ອງໄຊເຊດຖາ
ອງໄຊເສດຖາ
ອງໄດ
ອງໄທ
ອງໄທຍພ
ອງໄທສະຫຍາມ
ອງໄປ
ອງໄປຕ
ອງໄວ
ອງໄຫ
ອງໆ
ອງໜ
ອງໜອງຄາຍ
ອງໜອງບ
ອງໝ
ອງໝາຍ
ອງໝາຍການຄ
ອງໝາຍວ
ອຈ
ອຈະມ
ອຈະເອ
ອຈະໄດ
ອຈາກ
ອຈາກນ
ອຊ
ອຊາດ
ອຍ
ອຍກ
ອຍກວ
ອຍການຊ
ອຍຂ
ອຍຂອງພ
ອຍຂຽນການອອກສຽ
ອຍຂຽນການອອກສຽງ
ອຍຂຽນຄວາມໝາຍຄຳສ
ອຍຂຽນຄຳສ
ອຍຂຽນຄຳແປເປ
ອຍຂຽນປະເພ
ອຍຂຽນປະເພດ
ອຍຂຽນປະເພດຄຳສ
ອຍຂຽນເກ
ອຍຂຽນເຄ
ອຍຂຽນໂຕຢ
ອຍຄ
ອຍຈ
ອຍຊ
ອຍຍ
ອຍດ
ອຍຕ
ອຍທ
ອຍນ
ອຍບ
ອຍປ
ອຍຜ
ອຍພ
ອຍມ
ອຍຢ
ອຍລ
ອຍລະ
ອຍວ
ອຍສ
ອຍສະຫ
ອຍຫ
ອຍຫນ
ອຍອ
ອຍອອກເປ
ອຍອາຍ
ອຍອາຍພ
ອຍຮ
ອຍເຂ
ອຍເຊ
ອຍເທ
ອຍເປ
ອຍເພງ
ອຍເລ
ອຍເຫ
ອຍເອ
ອຍເອກ
ອຍເຮ
ອຍແກ
ອຍແຕ
ອຍແລ
ອຍແຫ
ອຍໂທ
ອຍໂທລະຈ
ອຍໃຫ
ອຍໃຫຍ
ອຍໄດ
ອຍໄປ
ອຍໄຟຟ
ອຍໄວ
ອຍໆ
ອຍໆຈ
ອຍໆໄດ
ອຍໜ
ອດ
ອດການ
ອດຂາວ
ອດຈ
ອດຊ
ອດຕ
ອດທ
ອດປ
ອດສ
ອດຫ
ອດອອກ
ອດຮ
ອດາວ
ອດຳນ
ອດຳເນ
ອດເຖ
ອດເນ
ອດເລ
ອດເວລາ
ອດແດງ
ອດໄປ
ອຕ
ອຕອນທ
ອຕອນລ
ອຕອນເທ
ອຖ
ອທ
ອທອງ
ອທຳອ
ອທຽບກ
ອນ
ອນກ
ອນການ
ອນຂ
ອນຂອງ
ອນຄ
ອນຄຣ
ອນຄະລ
ອນຈ
ອນຈອດລ
ອນຈະມ
ອນຈະເປ
ອນຊ
ອນຍ
ອນດ
ອນຕ
ອນຖ
ອນທ
ອນນ
ອນບ
ອນປ
ອນປະທ
ອນປະຫວ
ອນຜ
ອນຝ
ອນພ
ອນພະຈ
ອນມ
ອນມະນ
ອນຢ
ອນລ
ອນລະດ
ອນລຳ
ອນວ
ອນສ
ອນສະຫວ
ອນຫ
ອນຫຍ
ອນຫນ
ອນອ
ອນຮ
ອນເກ
ອນເຂ
ອນເຄ
ອນເຈ
ອນເຊ
ອນເດ
ອນເຖ
ອນເທ
ອນເບ
ອນເປ
ອນເພ
ອນເມ
ອນເມສາ
ອນເມສາປ
ອນເລ
ອນເຫ
ອນເຫດຜ
ອນເອ
ອນເຮ
ອນເໜ
ອນແກ
ອນແຕ
ອນແມ
ອນແລ
ອນແຫ
ອນແອ
ອນແຮມ
ອນໃຈ
ອນໃດ
ອນໃຕ
ອນໃຫ
ອນໄກ
ອນໄຂ
ອນໄຂທ
ອນໄດ
ອນໄຟຟ
ອນໄມ
ອນໄຫວ
ອນໄຫວຂອງ
ອນໄຫວດ
ອນໄຫວຕ
ອນໄຫວທ
ອນໄຫວທາງດ
ອນໄຫວຢ
ອນໄຫວສ
ອນໆ
ອນໜ
ອນໝ
ອບ
ອບທ
ອບບ
ອປ
ອປະຊາທ
ອປະຕ
ອປະມານ
ອປະສ
ອຜ
ອຜະລ
ອຝຣ
ອພ
ອພຣະອ
ອພວກເຂ
ອພສ
ອພະຍາດ
ອພະບາດສ
ອພະເຈ
ອພຽງ
ອຟ
ອຟບ
ອຟເດ
ອມ
ອມກ
ອມຂ
ອມຄ
ອມຈ
ອມດ
ອມຕ
ອມຖ
ອມທ
ອມນ
ອມນະຄອນຫ
ອມບ
ອມປ
ອມປາບສ
ອມຜ
ອມພ
ອມພຽງກ
ອມມ
ອມຢ
ອມລ
ອມລະຫວ
ອມລາຊະວ
ອມວ
ອມສ
ອມຫ
ອມອ
ອມຮ
ອມຮອບ
ອມຮອບດ
ອມາເຖ
ອມເກ
ອມເຂ
ອມເຄ
ອມເຈ
ອມເຊ
ອມເປ
ອມເພ
ອມເມ
ອມແປງ
ອມແມ
ອມແຫ
ອມແອ
ອມໂຍງກ
ອມໃສ
ອມໃຫ
ອມໄດ
ອມໄປດ
ອມໆ
ອມໆກ
ອຢ
ອຣ
ອລ
ອວ
ອສ
ອສະເດ
ອສະເຫ
ອສະແດງເຖ
ອສະໜ
ອສາຍ
ອສາຍກ
ອສາຍຈ
ອສເພ
ອຫ
ອຫຍ
ອຫນ
ອຫລ
ອຫາ
ອຫາກ
ອຫາທ
ອຫຳມ
ອອ
ອອກ
ອອກຈາກ
ອອກຈາກຊອຍເຖ
ອອກຕ
ອອກທ
ອອກພ
ອອກລ
ອອກສ
ອອກສຽງ
ອອກອາກາດຄ
ອອກອາລະບ
ອອກເດ
ອອກເປ
ອອກແບບ
ອອງ
ອອງລ
ອອນ
ອອະທ
ອອາຍ
ອຮ
ອຮອງຮ
ອະ
ອະຍ
ອະດ
ອະທ
ອະນ
ອະນາຄ
ອະພ
ອະມ
ອະຣ
ອະລ
ອະວ
ອະວະກາດ
ອະວະຕາຣ
ອະສ
ອະຫ
ອະເມລ
ອະເລ
ອະໂນປະໄມບ
ອະໄພ
ອະໄພວ
ອະໄວຍະວະເພດ
ອາ
ອາກ
ອາກຊ
ອາກອນ
ອາກາດ
ອາກາດຮ
ອາການ
ອາກເມນ
ອາຄ
ອາຄະເນ
ອາຄານ
ອາຄານສ
ອາງ
ອາງທ
ອາຈ
ອາຈຫມາຍເຖ
ອາຈານ
ອາຈາຣຍ
ອາຊ
ອາຊະຍາກຳ
ອາຊຽນ
ອາຍ
ອາຍນ
ອາຍແກ
ອາດ
ອາດຈະ
ອາດຈະມ
ອາດຈະເປ
ອາດຈະໝາຍເຖ
ອາດຊ
ອາດຕ
ອາດບ
ອາດມ
ອາດຮ
ອາດເປ
ອາດເຮ
ອາຕ
ອາທ
ອານ
ອານນາມ
ອານບານ
ອານາ
ອານາຄ
ອານາຈ
ອານາເຂດກວ
ອານາເຂດຈ
ອານາເຂດຕ
ອານາເຂດທ
ອານາເຂດທາງທ
ອານໄຕ
ອາບ
ອາບນ
ອາພາດເມ
ອາຟຣ
ອາຟະລ
ອາມ
ອາຣ
ອາລ
ອາລະບ
ອາວ
ອາວະກາດ
ອາສາອ
ອາຫານ
ອາຫານຄ
ອາຫານທ
ອາຫານທະເລ
ອາຫານເຊ
ອາອ
ອາເຊ
ອາເມຣ
ອາເມລ
ອາເລ
ອາໂນ
ອາໃສ
ອາໃສຢ
ອາໄສ
ອາໄສຢ
ອາໄສໜາແໜ
ອຳ
ອຳນວຍ
ອຳນວຍການ
ອຳນວຍການສ
ອຳນາດ
ອຳນາດການປ
ອຳນາດຕ
ອຳນາດນ
ອຳນາດບ
ອຳນາດປ
ອຳນາດລ
ອຳນາດສ
ອຳນາດອະທ
ອຳນາດເໜ
ອຳພອນ
ອຳມະລ
ອຳເພ
ອຽກລ
ອຽດ
ອຽວສ
ອເກ
ອເຂ
ອເຄ
ອເຈ
ອເຊ
ອເຍ
ອເດ
ອເຕ
ອເຖ
ອເທ
ອເບ
ອເປ
ອເຜ
ອເພ
ອເມ
ອເລ
ອເວ
ອເສ
ອເຫ
ອເອ
ອເຮ
ອແກ
ອແຕ
ອແປສຳເລ
ອແມ
ອແລ
ອແລະຕາເວ
ອແລະທ
ອແຫ
ອໂຄ
ອໃຊ
ອໃດ
ອໃນ
ອໃນຂອງງານແມ
ອໃນສ
ອໃບ
ອໃຫ
ອໃຫຍ
ອໃໝ
ອໄດ
ອໄທ
ອໄປຍ
ອໄຟ
ອໄວ
ອໄວຣ
ອໜ
ອໝ
ຮ
ຮວມ
ຮວມກ
ຮວມທ
ຮວມພະຊ
ຮວມອາຍ
ຮວມເຖ
ຮວມໄປເຖ
ຮອ
ຮອກໂມນ
ຮອງ
ຮອງຈາກ
ຮອງຊະນະເລ
ຮອງນາຍ
ຮອງປະທານ
ຮອງປະທານປະເທດ
ຮອງລ
ຮອງຫ
ຮອງອ
ຮອງຮ
ຮອງເຈ
ຮອຍ
ຮອຍຕ
ຮອຍພະພ
ຮອຍແຫງ
ຮອດ
ຮອດປ
ຮອນ
ຮອບ
ຮອບດ
ຮອບຕ
ຮອບທ
ຮອບຮອງຊະນະເລ
ຮາ
ຮາກ
ຮາກຂ
ຮາງວ
ຮານ
ຮານກ
ຮານຄະດ
ຮານທ
ຮານວ
ຮານສະຖານ
ຮານອ
ຮານໄດ
ຮາມ
ຮາຣ
ຮາວ
ຮຳ
ຮຳມ
ຮຽກ
ຮຽກຂ
ຮຽກຕ
ຮຽກວ
ຮຽກຮ
ຮຽງຕາມເຂ
ຮຽນ
ຮຽນຈ
ຮຽນຢ
ຮຽນຮ
ຮຽບຮ
ຯ
ຯລຯ
ະ
ະດ
ະທ
ະພາກ
ະພາບ
ະລາຊະສ
ັ
າ
າກ
າກວ
າກວມ
າກຫ
າກະ
າກະຊວງ
າກະຕ
າກະທ
າກະລ
າກາງ
າກາຕ
າການ
າການກ
າການບ
າການປ
າການພ
າການລ
າການສ
າການອຳເພ
າການເພ
າການເຮ
າກຳລ
າຂ
າຂວ
າຂອງ
າຂອງກ
າຂອງຂ
າຂອງຄ
າຂອງຈ
າຂອງຊ
າຂອງດ
າຂອງຕ
າຂອງທ
າຂອງບ
າຂອງຜ
າຂອງພ
າຂອງມ
າຂອງລ
າຂອງວ
າຂອງສ
າຂອງອ
າຂອງຮ
າຂອງເຂ
າຂອງເລ
າຂອງເຮ
າຂະໜາດ
າຂະໜາດນ
າຂະໜາດໃຫຍ
າຂາຍ
າຂາວ
າຄ
າຄວາມຕ
າຄວາມຮ
າຄອງນະຄອນຫ
າຄາ
າຄຳ
າຄຳວ
າຄຳສ
າງ
າງກ
າງກວ
າງກາຍ
າງກາຍທ
າງກາຍສ
າງການກ
າງການສ
າງການເດ
າງການໃຊ
າງກຳລ
າງຂ
າງຂວາງ
າງຂອງ
າງຂອງນ
າງຂອງຫ
າງຄ
າງຄອບຄ
າງງ
າງງານ
າງຈ
າງຈະແຈ
າງຈາກ
າງຈາກດວງຈ
າງຈາກດວງອາທ
າງຈາກຕ
າງຈາກທ
າງຈາກນະຄອນຫ
າງຈາກບ
າງຈາກວ
າງຈາກສ
າງຈາກເທດສະບານເມ
າງຈາກເທດສະບານແຂວງ
າງຈາກເມ
າງຊ
າງຊາດ
າງຊາດທ
າງຊາດເປ
າງຍ
າງດ
າງດຽວ
າງດຽວກ
າງຕ
າງຖ
າງຖະໜ
າງຖາວອນ
າງທ
າງທາງ
າງທາດຫ
າງນ
າງບ
າງບາງກອກກ
າງບາບ
າງປ
າງປະ
າງປະຕ
າງປະມານ
າງປະເທດ
າງປະເທດກ
າງປະເທດທ
າງປະເທດຢ
າງປະເທດອ
າງປະເທດເຂ
າງປະເທດເປ
າງປະເທດເພ
າງປະເທດໃຫ
າງປະເທດໄດ
າງຜ
າງຝ
າງພ
າງພຣະພ
າງພຣະອ
າງພະລ
າງພຽງພ
າງມ
າງມະຫາວ
າງຢ
າງລ
າງລະ
າງລະດ
າງລະບ
າງລະຫວ
າງລາຍຮ
າງວ
າງວຽງຈ
າງສ
າງສະຫງ
າງສາ
າງສາພ
າງສຳເຣ
າງສຳເລ
າງຫ
າງຫນ
າງຫລວງຫລາຍ
າງຫາກ
າງອ
າງຮ
າງາມ
າງເກ
າງເຂ
າງເຄ
າງເງ
າງເຊ
າງເດ
າງເຕ
າງເຖ
າງເທ
າງເນ
າງເປ
າງເຜ
າງເພ
າງເພດ
າງເມ
າງເລ
າງເວ
າງເສ
າງເສດຖະກ
າງເຫ
າງເອ
າງເຮ
າງເໝາະສ
າງແກ
າງແຕ
າງແທ
າງແນ
າງແຜ
າງແພ
າງແມ
າງແລ
າງແຫ
າງໂດຍ
າງໃກ
າງໃດ
າງໃດກ
າງໃນ
າງໃນປ
າງໃຫ
າງໃຫຍ
າງໃໝ
າງໄກ
າງໄກສອກຫ
າງໄດ
າງໄພ
າງໄມ
າງໄວ
າງໄວວາ
າງໆ
າງໆກ
າງໆຂອງ
າງໆຈ
າງໆດ
າງໆທ
າງໆນ
າງໆຢ
າງໆເຊ
າງໆເພ
າງໆແມ
າງໆແລ
າງໆໃຫ
າງໆໄດ
າງໜ
າຈ
າຈອມສ
າຈະ
າຈະຄ
າຈະຊ
າຈະດ
າຈະຕ
າຈະຖ
າຈະບ
າຈະພ
າຈະມ
າຈະຢ
າຈະລ
າຈະສ
າຈະຮ
າຈະເປ
າຈະເລ
າຈະເຫ
າຈະເຮ
າຈະໄດ
າຊ
າຊະນ
າຊະນະ
າຊາຍ
າຊາຍຟ
າຍ
າຍກ
າຍກວ
າຍຂ
າຍຂອງ
າຍຂອງຊ
າຍຂອງລ
າຍຂອງແມ
າຍຄ
າຍຈ
າຍຈອງຜານກ
າຍຈະມ
າຍຈະເປ
າຍຊ
າຍຊະນ
າຍຊາຍຍອດຍ
າຍຍ
າຍດ
າຍດາຍ
າຍດາວທຽມຈາກວ
າຍຕ
າຍຖ
າຍທ
າຍທອດສ
າຍທາງອາກາດຂອງ
າຍທາງອາກາດຈາກເທ
າຍນ
າຍນະຄອນຫ
າຍບ
າຍບອມໝ
າຍປ
າຍປະເທດ
າຍຜ
າຍພ
າຍພາສ
າຍມ
າຍມາຂ
າຍມາຢ
າຍຢ
າຍລ
າຍລະດ
າຍວ
າຍສ
າຍສະຕະວ
າຍສະບ
າຍສາຍ
າຍຫ
າຍອ
າຍອາໄສຢ
າຍຮ
າຍເກ
າຍເຂ
າຍເຄ
າຍເງ
າຍເຊ
າຍເດ
າຍເຕ
າຍເຖ
າຍເທ
າຍເນ
າຍເປ
າຍເຜ
າຍເພ
າຍເມ
າຍເລ
າຍເວ
າຍເຫ
າຍເອ
າຍເຮ
າຍເໜ
າຍແກ
າຍແຕ
າຍແບບ
າຍແພ
າຍແມ
າຍແລ
າຍແຫ
າຍແຮງ
າຍແຮງທ
າຍໃຕ
າຍໃນ
າຍໃນທ
າຍໃນປ
າຍໃນສ
າຍໃຫ
າຍໄດ
າຍໄປ
າຍໄປທ
າຍໄປຢ
າຍໄຟຟ
າຍໆ
າຍໆກ
າຍໆຄ
າຍໆຢ
າຍໆວ
າຍໜ
າຍໝ
າດ
າດການເງ
າດຄອງເຕ
າດທ
າດນ
າດພ
າດວ
າດສ
າດຫ
າດຳລ
າຕ
າຕະຫ
າຕາກສ
າຕາຍ
າຕາທ
າຕານ
າຕາມ
າຕຳແໜ
າຖ
າທ
າທະເລ
າທາ
າທາງ
າທາງດ
າທາງທ
າທາດ
າທາດຫ
າທຳມາທ
າທຽບເຮ
າທຽບໃສ
າທຽມກ
ານ
ານກ
ານກວ
ານກະຕ
ານກະສ
ານກາງ
ານການກ
ານການຂ
ານການຄ
ານການຕ
ານການທ
ານການບ
ານການປ
ານການພ
ານການສ
ານການຮ
ານການເງ
ານການເມ
ານຂ
ານຂອງເມ
ານຂອງເສ
ານຂາຍປ
ານຂາຍເຄ
ານຄ
ານຄອມມ
ານຄຳພ
ານຈ
ານຈອມມະນ
ານຈະຕ
ານຈະມ
ານຈະໄດ
ານຊ
ານຊຽງ
ານຍ
ານຍາວ
ານດ
ານດອນ
ານຕ
ານຕະຫ
ານຕາເວ
ານຖ
ານທ
ານທາດຫ
ານທານ
ານນ
ານນອກ
ານນາ
ານນາຄ
ານນາງ
ານນາຍພ
ານນາທ
ານນາລ
ານນາສ
ານນາສາລາ
ານນາເລ
ານບ
ານບາດ
ານປ
ານປະຕ
ານປະຫວ
ານຜ
ານຜານ
ານພ
ານພຣະອາຈາຣຍ
ານພະລ
ານພາສາ
ານຟ
ານມ
ານມາ
ານມານ
ານມາຢ
ານຢ
ານຣ
ານລ
ານລະ
ານລະບ
ານວ
ານວນ
ານວນຫ
ານວນຫນ
ານວຽງຈະເລ
ານສ
ານສວນ
ານສະພ
ານສາມາດຊ
ານຫ
ານຫນ
ານຫມ
ານຫລ
ານອ
ານອະນ
ານອາຈາຣຍ
ານອາຫານ
ານຮ
ານະຄອນຫ
ານະພາໄລ
ານາ
ານາງບ
ານາງແອ
ານາຍ
ານາດ
ານາດການປ
ານານ
ານາແລ
ານຳ
ານຳກ
ານຳເຂ
ານເກ
ານເຂ
ານເຄ
ານເຈ
ານເຊ
ານເດ
ານເຕ
ານເຖ
ານເທ
ານເປ
ານເຜ
ານເພ
ານເມ
ານເລ
ານເວ
ານເສ
ານເສດຖະກ
ານເຫ
ານເອ
ານເຮ
ານເໜ
ານແກ
ານແຂກເມ
ານແດ
ານແດນ
ານແມ
ານແລ
ານແຫ
ານໂກດເຄ
ານໂດລາ
ານໂດລາສະຫະລ
ານໂນນສ
ານໂນນສະຫວ
ານໂພນຕ
ານໂພນສະຫວ
ານໂພນໄຊ
ານໂພສ
ານໃກ
ານໃຕ
ານໃນ
ານໃນທ
ານໃຫ
ານໃຫຍ
ານໃໝ
ານໄຊສ
ານໄດ
ານໄປ
ານໄຟ
ານໄຟຟ
ານໄຮ
ານໜ
ານໜອງດ
ານໜອງບ
ານໝ
ານໝາກແຂ
າບ
າບວ
າບະເລ
າບະເລໃຫຍ
າບາກ
າບາດານ
າປ
າປອດພາສ
າປະກ
າປະກວດ
າປະກວດທ
າປະກວດມ
າປະຊາຊ
າປະຊາທ
າປະດ
າປະຕ
າປະທ
າປະມານ
າປະລ
າປະສ
າປະເທດທ
າປາ
າປາງທອງ
າປາສ
າຜ
າຜະລ
າຜາ
າຜາກ
າຝ
າພ
າພຣະພ
າພຣະອ
າພວກເຂ
າພວກເຫ
າພອນ
າພະ
າພະກ
າພະຈ
າພະຍາ
າພະຍາຈ
າພະຍາມະຫາກະສ
າພະຍາສ
າພະຍາຫ
າພະຍາເປ
າພະນ
າພະບາດ
າພະລ
າພະສ
າພະອ
າພະເຈ
າພະເຢຊ
າພະເວດສ
າພະແນກ
າພາບ
າພາບຈ
າພາສ
າພາສາ
າພາສານ
າພາສາລາວ
າພາສາອ
າພຽງ
າຟ
າມ
າມກ
າມຂ
າມຄ
າມຈະໃຫ
າມຈະໄດ
າມຊ
າມຊາດ
າມທ
າມນ
າມບ
າມມ
າມລ
າມວ
າມະການກ
າມະຊາດ
າມະດາ
າມະຕ
າມະນ
າມະຫາຊ
າມະຫານະຄອນ
າມະຫາວະຊ
າມະຫາອ
າມາ
າມາກ
າມາຂ
າມາຈ
າມາຊ
າມາຍ
າມາດ
າມາຕ
າມາທ
າມາບ
າມາປ
າມາມ
າມາຢ
າມາລ
າມາສ
າມາອາໄສຢ
າມາຮ
າມາເປ
າມາເຮ
າມາໃຊ
າມເນ
າມແມ
າຢ
າຣ
າຣຳໄພພ
າລ
າລວມ
າລະດ
າລະບ
າລະຫ
າລະຫວ
າລາຊະການ
າລາຍ
າລານທ
າລາວ
າລາວລ
າລາວເປ
າວ
າວກ
າວຂ
າວຄ
າວຈ
າວຊ
າວຍ
າວດ
າວຕ
າວຖ
າວທ
າວນ
າວບ
າວຟ
າວມ
າວມາຂ
າວມານ
າວລ
າວວ
າວວາຈານ
າວສ
າວສານ
າວສານທ
າວສານໄດ
າວຫ
າວຫນ
າວຫາ
າວຫາວ
າວອ
າວອາລ
າວອາເດ
າວຮ
າວະຊ
າວະພາຜ
າວະລາດ
າວຽກຫ
າວເຂ
າວເຊ
າວເຖ
າວເບ
າວເປ
າວເມ
າວເລ
າວເຮ
າວແຕ
າວແຟ
າວແມ
າວແລ
າວໂອມານ
າວໃຫ
າວໄດ
າວໄທ
າວໄປສ
າວໄວ
າວໜ
າສ
າສະ
າສະບ
າສະຫ
າສະຫງວນ
າສະຫງວນແຫ
າສະຫວ
າສະເຫ
າສະເຫນ
າສະເໜ
າສາກ
າສາຍສ
າສາດ
າສານ
າສາມມ
າສາມແສນໄທ
າສຳຄ
າຫ
າຫຍ
າຫນ
າຫມ
າຫມາຍຢ
າຫລ
າຫລວງ
າຫວ
າຫາ
າຫາກ
າຫາກວ
າຫານ
າຫາຮ
າອ
າອອກ
າອະທ
າອະນ
າອາກາດ
າອາຍ
າອາທ
າອານ
າອານາຈ
າອາບນ
າອາລ
າອາໄສຢ
າຮ
າຮອບ
າຮອບສ
າຮຽນ
າຮຽນຊ
າຯ
າເກ
າເຂ
າເຄ
າເງ
າເຈ
າເຊ
າເຊເສ
າເຍ
າເດ
າເຕ
າເຖ
າເທ
າເນ
າເບ
າເບຣ
າເປ
າເຜ
າເຝ
າເພ
າເມ
າເຣ
າເລ
າເວ
າເສ
າເສລ
າເຫ
າເຫລ
າເອ
າເອກະທ
າເອງ
າເຮ
າເໜ
າເໝ
າແກ
າແຂ
າແຂກ
າແຂວງ
າແຄ
າແຈ
າແຊ
າແດ
າແດງ
າແຕ
າແຕງ
າແທ
າແນວໃດ
າແຜ
າແມ
າແມບ
າແລ
າແລະ
າແລະບ
າແລະຜ
າແລະພ
າແລະສ
າແວງ
າແຫ
າແຫນ
າແຮງ
າແຮງງານ
າແໜ
າໂດຍ
າໂຕ
າໂນ
າໂພທ
າໂລກ
າໂອ
າໂຮງຮຽນຂອງພ
າໂຮມ
າໂຮມກ
າໃກ
າໃຈ
າໃຈກ
າໃຈງ
າໃຈຕ
າໃຈຜ
າໃຈວ
າໃຈໃສ
າໃຈໄດ
າໃຊ
າໃດ
າໃດກ
າໃຕ
າໃນ
າໃນການຜະລ
າໃນການສ
າໃນຊ
າໃນຕ
າໃນທ
າໃນປ
າໃນພາຍໜ
າໃນວ
າໃນສ
າໃນສາງ
າໃນອະດ
າໃນຮ
າໃສ
າໃຫ
າໃຫຍ
າໃຫມ
າໃໝ
າໄກ
າໄຄ
າໄຊ
າໄຊຍະເສດຖາ
າໄຊຍະເສດຖາທ
າໄຊເສດຖາທ
າໄດ
າໄຕ
າໄທ
າໄທທ
າໄທລ
າໄປ
າໄປຂ
າໄປຊ
າໄປຍ
າໄປຕ
າໄປທ
າໄປທາງທ
າໄປບ
າໄປຢ
າໄປລ
າໄປສ
າໄປເບ
າໄປເຮ
າໄປໃນ
າໄປໃນຕ
າໄຟ
າໄຟຟ
າໄມ
າໄລ
າໄລຍະປ
າໄວ
າໄສ
າໄຫ
າໄຫມ
າໄຮ
າໄໝ
າໆ
າໜ
າໜຽວ
າໝ
າໝາຍ
າໝາຍທ
າໝາຍສະຫ
ຳ
ຳກ
ຳກວ
ຳກະດ
ຳຂ
ຳຂອງ
ຳຂອງຢ
ຳຂອງເປ
ຳຂອງແຫ
ຳຂະໜາດໃຫຍ
ຳຄ
ຳຄານ
ຳງ
ຳຈ
ຳຊ
ຳຊອງ
ຳຍ
ຳດ
ຳຕ
ຳຕານ
ຳຖ
ຳທ
ຳທະເລ
ຳທາ
ຳນ
ຳນາງແອ
ຳບ
ຳບາກ
ຳບາງປະກ
ຳປ
ຳປະປາ
ຳປາ
ຳຜ
ຳຜາຊ
ຳຝ
ຳພ
ຳພະ
ຳພະຫ
ຳມ
ຳຢ
ຳລ
ຳວ
ຳສ
ຳສານວ
ຳສາລະວ
ຳຫ
ຳອ
ຳອາມ
ຳຮ
ຳເກ
ຳເຄ
ຳເງ
ຳເຈ
ຳເຊ
ຳເຊບ
ຳເດ
ຳເຕ
ຳເທ
ຳເປ
ຳເຜ
ຳເຢນ
ຳເລ
ຳເລນາ
ຳເຫ
ຳເອຢາວະດ
ຳແດງ
ຳແຕ
ຳແມ
ຳແລ
ຳແຫ
ຳໂອບ
ຳໂອເລຍ
ຳໃຈ
ຳໃຫ
ຳໃຫຍ
ຳໄດ
ຳໄຟຟ
ຳໄຫ
ຳໜ
ິ
ີ
ຶ
ື
ຸ
ູ
ົ
ຼ
ຽ
ຽງ
ຽງກ
ຽງຄ
ຽງຊ
ຽງດ
ຽງຕ
ຽງທ
ຽງບ
ຽງມ
ຽງລ
ຽງສ
ຽງຫ
ຽງອ
ຽງເປ
ຽງເພ
ຽງເໜ
ຽງແຖວຕ
ຽງໃຕ
ຽນ
ຽນກ
ຽນຂ
ຽນຄ
ຽນຄຳ
ຽນຊ
ຽນຕ
ຽນຖານະເປ
ຽນທ
ຽນທອງ
ຽນນ
ຽນມາເປ
ຽນລ
ຽນວ
ຽນສ
ຽນອ
ຽນຮ
ຽນເງ
ຽນເປ
ຽນແປງ
ຽນແປງການປ
ຽນແປງດ
ຽນແປງຖານະເປ
ຽນແປງຖານະແມ
ຽນແປງທ
ຽນແປງພ
ຽນແປງລ
ຽນແປງສ
ຽນແປງຫ
ຽນແປງໄດ
ຽນໃຫ
ຽນໄປ
ຽບຍ
ຽມ
ຽມຄຳ
ຽມຊ
ຽມຖະໜ
ຽມມ
ຽມຢາມ
ຽມຢາມໃນວ
ຽມລະຫວ
ຽມສ
ຽວ
ຽວກ
ຽວຂ
ຽວຂວາ
ຽວຄ
ຽວຈ
ຽວຊ
ຽວຊານ
ຽວຊານດ
ຽວຕ
ຽວທ
ຽວທາງວ
ຽວນ
ຽວບ
ຽວພ
ຽວມ
ຽວຢ
ຽວວ
ຽວຫ
ຽວອ
ຽວເຂ
ຽວເຊ
ຽວເປ
ຽວເມ
ຽວແຫ
ຽວໄດ
ເ
ເກ
ເກດ
ເກມ
ເກມນ
ເກຣ
ເກາະ
ເກາະກ
ເກາະທ
ເກາະນ
ເຂ
ເຂດ
ເຂດການຄ
ເຂດການປ
ເຂດຄອງເຕ
ເຂດດ
ເຂດທ
ເຂດນ
ເຂດບ
ເຂດບາງກອກນ
ເຂດບາງກອກໃຫຍ
ເຂດບາງກະປ
ເຂດບາງຂ
ເຂດບາງຊ
ເຂດປ
ເຂດປະທ
ເຂດພ
ເຂດພະຍາໄທ
ເຂດພະນະຄອນ
ເຂດພາສ
ເຂດມ
ເຂດລາຊະເທວ
ເຂດລາດບ
ເຂດວ
ເຂດສ
ເຂດສວນຫ
ເຂດສະພານສ
ເຂດສາທອນ
ເຂດຫ
ເຂດຮ
ເຂດເມ
ເຂດເລ
ເຂດເສດຖະກ
ເຄ
ເຄຊ
ເຄນ
ເຄມ
ເຄຣນ
ເຄວ
ເຄາະ
ເງ
ເຈ
ເຈຍ
ເຈຍໄດ
ເຈຍໝາກໄມ
ເຈດ
ເຈດຈຳນ
ເຈຕະນາເປ
ເຈນ
ເຈນນ
ເຈມ
ເຈມສ
ເຈຣ
ເຊ
ເຊກອງ
ເຊຍ
ເຊດ
ເຊນ
ເຊບ
ເຊລ
ເຊລາມ
ເຊອ
ເຍ
ເດ
ເດກາແມ
ເດຈາວ
ເດຊ
ເດຍ
ເດຍນ
ເດຍໄດ
ເດດ
ເດຕາເບສ
ເດນ
ເດລ
ເດວ
ເດອ
ເຕ
ເຕຊຽດ
ເຕຕ
ເຕຣານຽນ
ເຕະ
ເຕະບານ
ເຖ
ເທ
ເທດ
ເທດສະບານຕຳບ
ເທດສະບານເມ
ເທດສາດ
ເທນເມ
ເທບ
ເທບພະເຈ
ເທບສ
ເທພ
ເທວ
ເທວະກ
ເທວະດາ
ເທວະດາທ
ເນ
ເນຊ
ເນຍ
ເນນ
ເນນທອລຄວ
ເນປານ
ເນເຊຍ
ເນເທ
ເນໂຕ
ເບ
ເບຍ
ເບຍລາວ
ເບດ
ເບຕ
ເບນ
ເບຣ
ເບຣຊ
ເບລ
ເບາະ
ເປ
ເປກຂາຄ
ເປນ
ເປນດາວເຄາະນ
ເປນຕ
ເປນນ
ເປນຜວາການທະນາຄານແຫງ
ເປນມ
ເປນວ
ເປນສະມາຊ
ເປຣ
ເຜ
ເຝ
ເພ
ເພງ
ເພງດ
ເພງທ
ເພງປະກອບລະຄອນ
ເພງປະກອບຮ
ເພງຮ
ເພຈ
ເພດ
ເພດຊາຍ
ເພດຍ
ເພດສ
ເພດສຳພ
ເພດານ
ເພນ
ເພາະ
ເພາະຄ
ເພາະຕ
ເພາະຖ
ເພາະທ
ເພາະບ
ເພາະມ
ເພາະຢ
ເພາະວ
ເພາະສ
ເພາະສະນ
ເພາະຮ
ເພາະເຊ
ເພາະເປ
ເພາະເຮ
ເພເຈ
ເຟ
ເຟດບ
ເຟລ
ເຟສບ
ເມ
ເມກາວ
ເມກາແມ
ເມຊ
ເມຍ
ເມຍລ
ເມດ
ເມດຕາກະຣ
ເມນ
ເມລ
ເມລາເນເຊຍ
ເມສາ
ເຢ
ເຢຍ
ເຢຍລະມ
ເຢຍອ
ເຣ
ເຣຊ
ເຣຍ
ເຣດ
ເຣນ
ເຣນທອນພ
ເລ
ເລກ
ເລກຄ
ເລກຖານຊາວ
ເລກຖານສ
ເລກຖານຫ
ເລກຖານແປດ
ເລກທ
ເລຂາ
ເລຂາຄະນ
ເລຂາທ
ເລຂາພ
ເລຍ
ເລດ
ເລດຕ
ເລດທ
ເລນ
ເລນຽນ
ເລບານອນ
ເລສ
ເວ
ເວຍ
ເວດ
ເວດຊາຊ
ເວດວ
ເວດສ
ເວທ
ເວນ
ເວນກວ
ເວນຈ
ເວນດ
ເວນຕ
ເວນຖ
ເວນທ
ເວນນ
ເວນບ
ເວນພ
ເວນລ
ເວນວ
ເວນສ
ເວນອ
ເວນເມ
ເວນໃກ
ເວບໄຊທ
ເວຣະມະນ
ເວລາ
ເວລາຍ
ເວລາຕ
ເວລາທ
ເວລານ
ເວລາປະມານ
ເວລາຜ
ເວລາພ
ເວລາມາດຕະຖານອ
ເວລາສ
ເວລາຫ
ເວລາເດ
ເວເນຊ
ເສ
ເສກ
ເສກສ
ເສກາພ
ເສຍ
ເສຍກ
ເສຍຄ
ເສຍຊ
ເສຍພາສ
ເສດ
ເສດກ
ເສດຄ
ເສດຄອນພະເພ
ເສດຖ
ເສດຖະກ
ເສດຖະວ
ເສດຖະສາດ
ເສດຖະສາດຈ
ເສດຖະສາດດ
ເສດຖະສາດມະຫາພາກ
ເສດຖະສາດແຮງງານ
ເສດທ
ເສດບ
ເສດມ
ເສດວ
ເສດສ
ເສດສະເຫ
ເສດຫ
ເສດອ
ເສຣ
ເສລ
ເຫ
ເຫງ
ເຫຍ
ເຫດ
ເຫດການ
ເຫດການທ
ເຫດການນ
ເຫດທ
ເຫດນ
ເຫດຜ
ເຫດແລະຜ
ເຫຕ
ເຫນ
ເຫມ
ເຫມາະ
ເຫມາະສ
ເຫລ
ເຫວ
ເອ
ເອກ
ເອກອ
ເອກະ
ເອກະຊ
ເອກະພາບ
ເອກະລ
ເອກະລາດ
ເອກະສານ
ເອງ
ເອຊ
ເອດ
ເອທ
ເອນ
ເອມ
ເອຢ
ເອຣ
ເອລ
ເອລາ
ເອສ
ເອເລ
ເອເວ
ເຮ
ເຮລ
ເເກ
ເເຂ
ເໜ
ເໝ
ເໝາະ
ເໝາະສ
ເໝາະແກ
ແ
ແກ
ແກງ
ແກນ
ແກນດ
ແກນສ
ແກຣນ
ແກຣນສະແລ
ແກຣນອ
ແກະ
ແກະສະຫລ
ແຂ
ແຂກ
ແຂກຄ
ແຂງ
ແຂງແຮງ
ແຂນ
ແຂວງ
ແຂວງຄຳມ
ແຂວງຈ
ແຂວງຈຳປາສ
ແຂວງຊຽງຂວາງ
ແຂວງດ
ແຂວງທ
ແຂວງນ
ແຂວງບ
ແຂວງຜ
ແຂວງວຽງຈ
ແຂວງສະຫວ
ແຂວງສາລະວ
ແຂວງຫ
ແຂວງຫລວງພະບາງ
ແຂວງອ
ແຂວງເຊກອງ
ແຂວງເລ
ແຂວງໄຊຍະບ
ແຂວງໄຊສ
ແຂວງໜອງບ
ແຄ
ແຄນ
ແຄບ
ແຄມ
ແຄມນ
ແຄມຝ
ແຄມແມ
ແຄຣ
ແຄລ
ແຄວ
ແງ
ແຈ
ແຈກ
ແຈກວ
ແຈຂະໜານ
ແຈສາກ
ແຊ
ແຊກ
ແຊງ
ແຊນ
ແຊບ
ແຍ
ແຍກ
ແຍກຕ
ແຍງ
ແດ
ແດງ
ແດດ
ແດນ
ແຕ
ແຕກ
ແຕກກ
ແຕກຕ
ແຕນ
ແຖນ
ແຖນຫ
ແຖບ
ແຖບສ
ແຖມຍ
ແຖວ
ແທ
ແທງ
ແທນ
ແທນດ
ແທນທ
ແທນຝ
ແທນພຣະສ
ແທນອ
ແນ
ແນກ
ແນນ
ແນມ
ແນວ
ແນວກ
ແນວຄ
ແນວຄວາມຄ
ແນວທາງ
ແນວນ
ແນວພ
ແນວລາວສ
ແນວລາວຮ
ແນວໂນ
ແນວໃດ
ແນວໃດກ
ແນະ
ແນະນ
ແນະນຳ
ແນໃສ
ແບ
ແບນຊ
ແບບ
ແບບຄ
ແບບຈຳລອງ
ແບບດ
ແບບທ
ແບບນ
ແບບບ
ແບບຜ
ແບບພ
ແບບສ
ແບບຫ
ແບຣ
ແບລ
ແປ
ແປກ
ແປງ
ແປດ
ແປວ
ແຜ
ແຜນ
ແຜນການ
ແຜນທ
ແຜນພ
ແພ
ແພງ
ແພດສາດ
ແຟ
ແມ
ແມງ
ແມງກະເບ
ແມງງອດ
ແມງຕ
ແມງມ
ແມງວ
ແມງໄມ
ແມຊ
ແມນ
ແມນຮ
ແມນເຊສເຕ
ແມປ
ແມລ
ແມວ
ແມເປຍ
ແລ
ແລກ
ແລກປ
ແລງ
ແລນ
ແລນດ
ແລປ
ແລະ
ແລະກ
ແລະກວ
ແລະການ
ແລະການຄ
ແລະການຕ
ແລະການທ
ແລະການປ
ແລະການພ
ແລະການລະງ
ແລະການສ
ແລະການຮ
ແລະຂ
ແລະຄ
ແລະຄວາມຮ
ແລະຄອບຄ
ແລະຄຳວ
ແລະຈ
ແລະຊ
ແລະຍ
ແລະດ
ແລະຕ
ແລະຕາເວ
ແລະຕຳບ
ແລະຖ
ແລະຖະໜ
ແລະທ
ແລະທາງຕາເວ
ແລະທາງທ
ແລະນ
ແລະນອກຈາກນ
ແລະນາຍ
ແລະບ
ແລະບາງສ
ແລະປ
ແລະປະຊາຊ
ແລະປະຕ
ແລະປະສ
ແລະຜ
ແລະຝ
ແລະພ
ແລະພະນ
ແລະພາຍຫ
ແລະພາບຖ
ແລະຟ
ແລະມ
ແລະມະນ
ແລະມະຫາວ
ແລະຢ
ແລະລ
ແລະລະດ
ແລະວ
ແລະສ
ແລະສະຖານ
ແລະສະມາຊ
ແລະສະຫະລ
ແລະຫ
ແລະຫລ
ແລະອ
ແລະອະນ
ແລະອຳເພ
ແລະອຽກລ
ແລະຮ
ແລະຮອງ
ແລະເກ
ແລະເຂ
ແລະເຄ
ແລະເຈ
ແລະເຊ
ແລະເດ
ແລະເຕ
ແລະເນ
ແລະເປ
ແລະເຜ
ແລະເພ
ແລະເມ
ແລະເລ
ແລະເສ
ແລະເສຍຊ
ແລະເຫ
ແລະເອ
ແລະເຮ
ແລະແຕ
ແລະແບ
ແລະແມ
ແລະແຫ
ແລະໃຊ
ແລະໃນ
ແລະໃນທ
ແລະໃນປ
ແລະໃນວ
ແລະໃຫ
ແລະໄດ
ແລະໜ
ແລະໝ
ແວ
ແວດ
ແວດລ
ແວນ
ແວນກ
ແວນເຊລ
ແວຣ
ແວວ
ແສ
ແສງ
ແສງຈ
ແສງສ
ແສງສະຫວ
ແສນ
ແສນສ
ແຫ
ແຫນ
ແຫລ
ແຫວນ
ແອ
ແອດ
ແອດເທ
ແອນ
ແອນເດ
ແອບແຟນ
ແອຣ
ແອລ
ແອລຈ
ແອວ
ແອສປາໂຍນ
ແອສະປາຍ
ແອສະປາໂຍນ
ແຮ
ແຮງ
ແຮງງານ
ແຮງຈ
ແຮງດ
ແຮງບ
ແຮງຮ
ແຮດ
ແຮມ
ແໜ
ແໜງ
ໂກ
ໂກດ
ໂກນເດ
ໂກມ
ໂກຣ
ໂກຣແມ
ໂກລ
ໂກລດ
ໂກລບອລໄກດ
ໂກລໂບ
ໂກສ
ໂກສະລາເວຍ
ໂກະ
ໂກແມ
ໂຂ
ໂຂງ
ໂຂໄທ
ໂຂໄທທຳມະລາຊາ
ໂຂໄທທຳມາທ
ໂຄ
ໂຄກ
ໂຄງ
ໂຄງການ
ໂຄງການພ
ໂຄງການສ
ໂຄງສ
ໂຄດ
ໂຄດຈ
ໂຄດຕະບອງ
ໂຄຕະບ
ໂຄມໄຟ
ໂຄຣເນເຊຍ
ໂຄຣເອເຊຍ
ໂຄລ
ໂຄສະນາ
ໂຄສະນາຊວນເຊ
ໂງ
ໂຈ
ໂຈມ
ໂຈມຕ
ໂຊ
ໂຊກ
ໂຊກດ
ໂຊນ
ໂຊວ
ໂຍ
ໂຍບາຍ
ໂຍມ
ໂດ
ໂດຍ
ໂດຍກ
ໂດຍການ
ໂດຍການສ
ໂດຍການເພ
ໂດຍກາລອ
ໂດຍຂ
ໂດຍຄ
ໂດຍຄຳວ
ໂດຍຈ
ໂດຍຈະມ
ໂດຍຊ
ໂດຍຍ
ໂດຍດ
ໂດຍຕ
ໂດຍຖ
ໂດຍທ
ໂດຍນ
ໂດຍບ
ໂດຍປ
ໂດຍຜ
ໂດຍພ
ໂດຍມ
ໂດຍຢ
ໂດຍລ
ໂດຍລວມ
ໂດຍວ
ໂດຍສ
ໂດຍສະເພາະ
ໂດຍສະເພາະຢ
ໂດຍສະເພາະແມ
ໂດຍສະເລ
ໂດຍສານ
ໂດຍຫ
ໂດຍອ
ໂດຍຮ
ໂດຍເກ
ໂດຍເຈ
ໂດຍເຊ
ໂດຍເນ
ໂດຍເປ
ໂດຍເພ
ໂດຍເລ
ໂດຍເອ
ໂດຍເຮ
ໂດຍແບ
ໂດຍແມ
ໂດຍໃຊ
ໂດຍໃຫ
ໂດຍໄດ
ໂດດ
ໂດດດ
ໂດດເດ
ໂດນ
ໂດມ
ໂດຣແຊນ
ໂດລາ
ໂດລາສະຫະລ
ໂດລາເອມອນ
ໂດເມນ
ໂຕ
ໂຕກຽວ
ໂຕຊ
ໂຕຕ
ໂຕທ
ໂຕນ
ໂຕປ
ໂຕຜ
ໂຕຢ
ໂຕຣແຊນ
ໂຕລະບ
ໂຕສ
ໂຕອ
ໂຕະ
ໂຕເຄ
ໂຕເປ
ໂຕເລກ
ໂຕໜ
ໂຖດອກໄມ
ໂທ
ໂທດ
ໂທນ
ໂທລຄ
ໂທລະ
ໂທລະຄ
ໂທລະທ
ໂທລະພາບ
ໂທລະພາບສ
ໂທລະພາບແຫ
ໂທລະພາບໄທທ
ໂທລະສ
ໂທລະເລກ
ໂທລະໂຄ
ໂທສະ
ໂນ
ໂນນ
ໂນນພ
ໂນບ
ໂນະ
ໂບ
ໂບດ
ໂບລ
ໂບລາ
ໂບສ
ໂປ
ໂປດ
ໂປດເກ
ໂປດໃຫ
ໂປຕະລ
ໂປຣຕ
ໂປຣແກຣມ
ໂປລ
ໂປສ
ໂປແລນ
ໂປໂລຍ
ໂຜນ
ໂພກ
ໂພທ
ໂພນ
ໂພນທອງ
ໂພນສະຫວ
ໂຟ
ໂຟຕ
ໂມ
ໂມງ
ໂມງອາໂຕມ
ໂມງເຊ
ໂມງແລງ
ໂມຣ
ໂມຫະ
ໂມອານາ
ໂມເດລອ
ໂມເລກ
ໂຢຮ
ໂຣ
ໂຣບ
ໂຣບອດທສ
ໂຣມ
ໂຣໃຫ
ໂລ
ໂລກ
ໂລກຄ
ໂລກທ
ໂລກຣາມ
ໂລກະລາດ
ໂລກະລາມ
ໂລກໄດ
ໂລຈ
ໂລດ
ໂລຕາແມ
ໂລບ
ໂລມ
ໂລວ
ໂລຫະ
ໂລຫະດາວເຄາະ
ໂລຫະປະສ
ໂລະ
ໂລເມ
ໂລແມ
ໂລໂກ
ໂວຣ
ໂສ
ໂສກປ
ໂສພາ
ໂຫ
ໂຫງ
ໂຫດຮ
ໂຫຕ
ໂຫລາສາດ
ໂອ
ໂອກ
ໂອກາດ
ໂອກາດທ
ໂອກາດເຂ
ໂອກາດໄດ
ໂອດ
ໂອຕຣ
ໂອທ
ໂອນ
ໂອບາມາ
ໂອປ
ໂອຣ
ໂອລ
ໂອສ
ໂອະ
ໂອເກມ
ໂອເຊອານ
ໂອເປຣາ
ໂຮ
ໂຮງ
ໂຮງງານ
ໂຮງງານຜະລ
ໂຮງລະຄອນ
ໂຮງຮ
ໂຮງຮຽນ
ໂຮງຮຽນກ
ໂຮງຮຽນຊ
ໂຮງຮຽນນ
ໂຮງຮຽນບ
ໂຮງຮຽນປະຖ
ໂຮງຮຽນພ
ໂຮງຮຽນມ
ໂຮງຮຽນມາແຕຣ
ໂຮງຮຽນລາຊ
ໂຮງຮຽນວ
ໂຮງຮຽນສ
ໂຮງຮຽນອ
ໂຮງຮຽນອະນ
ໂຮງຮຽນເທບສ
ໂຮງຮຽນໄດ
ໂຮງເລ
ໂຮງແຮມ
ໂຮງໝ
ໂຮຈ
ໂຮນລ
ໂຮມ
ໂຮມກ
ໂຮມທ
ໂໜ
ໃ
ໃກ
ໃຈ
ໃຈກ
ໃຈກາງ
ໃຈກາງເມ
ໃຈຂອງຜ
ໃຈຊ
ໃຈດ
ໃຈທ
ໃຈບ
ໃຈຜ
ໃຈວ
ໃຈສ
ໃຈຮ
ໃຈເປ
ໃຈໃຫ
ໃຈໄດ
ໃຊ
ໃດ
ໃດທ
ໃດມ
ໃດຫນ
ໃດໜ
ໃຕ
ໃນ
ໃນກ
ໃນກອງທ
ໃນກອງປະຊ
ໃນການ
ໃນການກ
ໃນການຂ
ໃນການຄ
ໃນການຈ
ໃນການຊ
ໃນການດ
ໃນການຕ
ໃນການທ
ໃນການບ
ໃນການປ
ໃນການປະຊ
ໃນການຜະລ
ໃນການພ
ໃນການລ
ໃນການວ
ໃນການສ
ໃນການຮ
ໃນການເຊ
ໃນການເດ
ໃນການເລ
ໃນການເວ
ໃນການເຮ
ໃນການແຂ
ໃນການແຕ
ໃນການໃຊ
ໃນຂ
ໃນຂະນະດຽວກ
ໃນຂະນະທ
ໃນຂະນະນ
ໃນຄ
ໃນຄວາມຮ
ໃນຄວາມໝາຍ
ໃນຄອບຄ
ໃນງານ
ໃນຈ
ໃນຈຳນວນນ
ໃນຊ
ໃນຍ
ໃນຍາມ
ໃນດ
ໃນຕ
ໃນຕອນທ
ໃນຕອນເຊ
ໃນຕະກ
ໃນຕະຫ
ໃນຕຳແໜ
ໃນຖ
ໃນຖານະທ
ໃນຖານະເປ
ໃນທ
ໃນທະວ
ໃນທາງກ
ໃນທາງທ
ໃນທາງພ
ໃນນ
ໃນນະຄອນຫ
ໃນນາມ
ໃນບ
ໃນບາງກ
ໃນບາງຄ
ໃນປ
ໃນປະຈ
ໃນປະຫວ
ໃນປະເທດ
ໃນປະເທດຈ
ໃນປະເທດທ
ໃນປະເທດລາວ
ໃນປະເທດອ
ໃນປະເທດໄທ
ໃນຜ
ໃນພ
ໃນພຣະພ
ໃນພະບ
ໃນພະບາດສ
ໃນພາກຕາເວ
ໃນພາກພ
ໃນພາສາຍ
ໃນພາສາລາວ
ໃນພາສາອ
ໃນພາສາເຄ
ໃນພາສາເຢຍລະມ
ໃນຟ
ໃນມ
ໃນມະຫາສະໝ
ໃນຣ
ໃນລ
ໃນລະດ
ໃນລະບ
ໃນລະຫວ
ໃນລະເບ
ໃນລາວ
ໃນວ
ໃນສ
ໃນສມ
ໃນສະກ
ໃນສະຕະວ
ໃນສະຖານທ
ໃນສະວ
ໃນສະຫະລ
ໃນສະໄຫມນ
ໃນສະໄໝ
ໃນສະໄໝກ
ໃນສະໄໝທ
ໃນສະໄໝນ
ໃນສະໄໝລ
ໃນສະໄໝສ
ໃນສະໝ
ໃນຫ
ໃນຫນ
ໃນຫລວງພະບາງ
ໃນອ
ໃນອະດ
ໃນອະນາຄ
ໃນອາຊ
ໃນຮ
ໃນຮອບ
ໃນເຂດ
ໃນເຂດທ
ໃນເຂດບ
ໃນເຂດປ
ໃນເຂດອ
ໃນເຂດເມ
ໃນເຄ
ໃນເດ
ໃນເທ
ໃນເນ
ໃນເບ
ໃນເພງ
ໃນເມ
ໃນເລ
ໃນເວ
ໃນເວລາ
ໃນເວລາດຽວກ
ໃນເວລາຕ
ໃນເວລາທ
ໃນເວລານ
ໃນເສ
ໃນເອ
ໃນເຮ
ໃນແຕ
ໃນແຜ
ໃນແມ
ໃນແຫ
ໃນໂລກ
ໃນໂລກນ
ໃນໃຈ
ໃນໄລຍະ
ໃນໄລຍະການສະໜ
ໃນໄລຍະທ
ໃນໄລຍະສ
ໃນໜ
ໃນໝ
ໃບ
ໃບຂ
ໃບພ
ໃບມ
ໃບສ
ໃບອະນ
ໃບໄມ
ໃບໜ
ໃຜ
ໃຜກ
ໃຜສ
ໃຜຮ
ໃສ
ໃຫ
ໃຫຍ
ໃຫມ
ໃໝ
ໄ
ໄກ
ໄກຈາກສຳນ
ໄກພ
ໄກສອນ
ໄຂ
ໄຂຂ
ໄຂບ
ໄຂປ
ໄຂມ
ໄຄ
ໄຄທ
ໄຈ
ໄຊ
ໄຊຊະນະ
ໄຊຍະບ
ໄຊຍະພ
ໄຊຍະວ
ໄຊຍະສ
ໄຊຍະສອນ
ໄຊບ
ໄຊປ
ໄຊປຣ
ໄຊພ
ໄຊສ
ໄຊສະໝ
ໄຊເສດຖາ
ໄຍກາກບອນ
ໄຍແສງ
ໄດ
ໄດໂນເສ
ໄຕ
ໄຕມ
ໄຕລ
ໄຕຮ
ໄຖ
ໄທ
ໄທຍ
ໄທດຳ
ໄທທ
ໄທທານ
ໄທນ
ໄທລ
ໄທວ
ໄທສະຫຍາມ
ໄທອ
ໄທເໜ
ໄທໃຫຍ
ໄນ
ໄນເຕ
ໄບຈານ
ໄບເບ
ໄປ
ໄປກ
ໄປຂ
ໄປງານສ
ໄປຈ
ໄປຊ
ໄປຍ
ໄປດ
ໄປຕ
ໄປທ
ໄປທາງຕາເວ
ໄປທາງທ
ໄປນ
ໄປບ
ໄປພ
ໄປຢ
ໄປວ
ໄປສ
ໄປສະນ
ໄປຫ
ໄປຫາ
ໄປອ
ໄປຮ
ໄປເກ
ໄປເຖ
ໄປເປ
ໄປເມ
ໄປເລ
ໄປເຮ
ໄປແລ
ໄປໃຊ
ໄປໃຫ
ໄປໄດ
ໄຜ
ໄຝ
ໄພ
ໄພນ
ໄພພ
ໄພຣ
ໄພລ
ໄພຫວ
ໄຟ
ໄຟຟ
ໄຟລ
ໄຟສ
ໄມ
ໄມຄ
ໄມຕ
ໄມລ
ໄມເຄ
ໄມໂຄ
ໄມໂຄຣຊອບ
ໄມໂຄຣເວບ
ໄຣ
ໄຣຊ
ໄລ
ໄລຍະ
ໄລຍະທ
ໄລຍະທາງ
ໄລຍະທາງຈາກເມ
ໄລຍະທາງທ
ໄລຍະທາງປະມານ
ໄລຍະສ
ໄລຍະຫ
ໄລຍະເວລາທ
ໄລຍະແຕປ
ໄລລ
ໄລວ
ໄວ
ໄວຂ
ໄວຍະກອນ
ໄວທ
ໄວຣ
ໄວລ
ໄສ
ໄສທ
ໄຫ
ໄຫມ
ໄຫລ
ໄຫລຜ
ໄຫລລ
ໄຫວ
ໄອ
ໄອຊ
ໄອພ
ໄອຢ
ໄອແລນ
ໄຮ
ໄຮລ
ໄໝ
ໆ
ໆກ
ໆລໆ
່
້
໊
໋
໌
ໍ
໐
໐໐໐
໑
໑໐
໑໑
໑໒
໑໓
໑໔
໑໕
໑໖
໑໘
໑໙໗໐
໑໙໗໕
໒
໒໐
໒໐໐໙
໒໐໑໐
໒໐໑໖
໒໑
໒໒
໒໕
໓
໓໐
໔
໕
໖
໗
໘
໙
ໜ
ໜອງ
ໜອງນ
ໜອງບ
ໜາ
ໜາກຖ
ໜາກມ
ໜາດ
ໜາມ
ໜາວ
ໝ
ໝວ
ໝວກ
ໝວກກ
ໝວດ
ໝວດການຊ
ໝວດຊ
ໝວດທ
ໝວດເລ
ໝວດໝ
ໝອກ
ໝອນ
ໝາ
ໝາກ
ໝາກກ
ໝາກກາກ
ໝາກຂ
ໝາກຂາມ
ໝາກຂຽບ
ໝາກຄາຍ
ໝາກງາ
ໝາກຈອງ
ໝາກຕ
ໝາກຖ
ໝາກນ
ໝາກນາວ
ໝາກພ
ໝາກມ
ໝາກລ
ໝາກລະມ
ໝາກລຳໄຍ
ໝາກສ
ໝາກຫ
ໝາກຫວ
ໝາກອ
ໝາກອາມອນ
ໝາກອາໂວກາໂດ
ໝາກເຂ
ໝາກເງາະ
ໝາກເຊ
ໝາກເດ
ໝາກເບ
ໝາກເຜ
ໝາກເລ
ໝາກເຫ
ໝາກແຕງ
ໝາກໂປມ
ໝາກໂມ
ໝາກໂອລ
ໝາກໄມ
ໝາກໝ
ໝາຈອກ
ໝາຍ
ໝາຍຄວາມວ
ໝາຍຄວາມເຖ
ໝາຍເຖ
ໝາຍເລກ
ໝາຍເຫດ
ໝາປ
ໝາໄນ
་
མ
ོ
က
ဂ
င
စ
ဍ
တ
ဓ
န
ပ
ဗ
ဘ
မ
ရ
လ
ဝ
သ
သတ
ဟ
ဠ
ါ
ာ
ိ
ု
ူ
ေ
ဳ
ဴ
ံ
း
္
်
ျ
ြ
ွ
ှ
၄
၊
ၚ
ၟ
ၠ
ၼ
პლანეტა
시간
월
태양
ក
ខ
គ
ង
ច
ឆ
ជ
ឈ
ញ
ដ
ឋ
ឌ
ណ
ត
ថ
ទ
ធ
ន
ប
ផ
ព
ភ
ម
យ
រ
ល
វ
ស
ហ
ឡ
អ
ឥ
ា
ិ
ី
ឹ
ុ
ូ
ួ
ើ
ៀ
េ
ែ
ៃ
ោ
ៅ
ំ
ះ
ៈ
៉
៊
់
៌
័
្
ᨦ
ᨶ
ᨾ
ᨿ
ᩅ
ᩉ
ᩋ
᩠
ᵝ
​
‌
‍
‎
‐
‑
–
—
‖
‘
’
‚
“
”
†
‡
•
…
‬
‰
′
″
›
⁡
ⁿ
€
₭
℔
™
↑
→
↔
↷
⇔
∂
∈
∏
∑
−
∓
∗
∞
∫
≤
≥
⊂
⊃
⋅
⋯
③
④
⑦
█
►
★
☉
♥
⟨
⟩
⟹
⟺
⯓
⺀
⺄
⺆
⺈
⺊
⺌
⺕
⺝
⺸
⺼
⿰
⿱
⿲
⿳
⿴
⿵
⿶
⿷
⿸
⿹
⿺
⿻
、
。
々
「
」
『
』
〜
〢
ぁ
あ
ぃ
い
う
ぇ
え
お
か
き
く
け
こ
さ
し
す
せ
そ
た
ち
っ
つ
て
と
な
に
ぬ
ね
の
は
ひ
ふ
へ
ほ
ま
み
む
め
も
ゃ
や
ゅ
ゆ
ょ
よ
ら
り
る
れ
ろ
わ
を
ん
゙
゚
ァ
ア
ィ
イ
ゥ
ウ
ェ
エ
オ
カ
キ
ク
ケ
コ
サ
シ
ス
セ
ソ
タ
チ
ッ
ツ
テ
ト
ナ
ニ
ヌ
ネ
ノ
ハ
ヒ
フ
ヘ
ホ
マ
ミ
ム
メ
モ
ャ
ヤ
ュ
ユ
ョ
ヨ
ラ
リ
ル
レ
ロ
ワ
ヲ
ン
・
ー
㇁
㇂
㇄
㇇
㇈
㇉
㇓
㐁
㐄
㐅
㐌
㐫
㐬
㐭
㐮
㐱
㑒
㒵
㒸
㒼
㓁
㓞
㔾
㕛
㕣
㖾
㘝
㚅
㚇
㚔
㚘
㝉
㝡
㝴
㝵
㞋
㞢
㞷
㠩
㠭
㠯
㡀
㡭
㡿
㢲
㢴
㣇
㣺
㥯
㪅
㫄
㫐
㫒
㫺
㬅
㬎
㬥
㬰
㲋
㳄
㷠
㸒
㸚
㸦
㼌
㼲
㽞
㿟
䀠
䂞
䍃
䏍
䒑
䖍
䖒
䖝
䖵
䙴
䚻
䜌
䝿
䡛
䧹
䪞
一
丁
丂
七
丄
丅
丆
万
丈
三
上
下
丌
不
与
丏
丐
丑
专
且
丕
世
丘
丙
业
东
丝
丞
両
丢
丣
两
严
並
丨
丩
个
丫
丬
中
丮
丰
丱
串
丵
丶
丷
丸
丹
为
主
丼
丽
丿
乀
乂
乃
久
乆
乇
么
义
之
乌
乍
乎
乏
乐
乑
乔
乖
乗
乘
乙
乚
乛
乜
九
乞
也
习
乡
书
乱
乳
乾
亀
亅
了
亇
予
争
事
二
亍
于
亏
亐
云
互
亓
五
井
亘
亚
些
亜
亞
亟
亠
亡
亢
交
亥
亦
产
亨
亩
享
京
亭
亮
亯
亰
亲
亳
亶
亷
人
亻
亼
亾
仁
仂
仄
仇
今
介
仌
从
仏
仐
仑
仒
仓
仔
仕
他
付
仝
代
令
以
仮
仰
仲
件
任
企
伊
伎
伏
伐
休
会
伝
伯
伸
伺
似
但
位
低
住
佐
体
何
佘
余
作
佥
併
使
來
侈
例
侌
侍
侖
供
価
侮
侯
侵
便
係
促
保
俞
信
修
俺
倅
倉
個
倍
倒
候
借
倠
値
倫
假
偉
健
側
偶
偽
傅
傘
備
傣
債
傷
傾
僅
僉
働
像
僕
億
償
優
儲
儿
兀
允
兂
元
兄
充
兆
兇
先
光
兊
克
兌
免
児
兑
兒
兓
兔
党
兜
兟
入
全
兩
兪
八
公
六
兮
兰
共
关
兴
兵
其
具
典
兹
兼
冀
冂
冃
冄
内
円
冈
冉
冊
冋
册
再
冎
冏
冐
冒
冓
冖
冗
冘
写
军
农
冝
冠
冡
冥
冫
冬
冷
凄
凍
几
凡
凢
凭
凵
凶
凷
凸
凹
出
函
凾
刀
刁
刂
刃
刄
刅
分
切
刈
刊
刍
刑
刕
刖
列
刘
则
初
判
別
利
别
到
制
券
刺
刻
剃
則
削
剌
前
剡
剣
剥
剪
割
創
剽
劇
劉
力
功
加
劣
劦
动
助
努
劫
励
劳
労
劵
効
勃
勇
勉
勒
動
務
勝
勞
勢
勤
勹
勺
勻
勾
勿
匀
匂
包
匆
匈
匊
匋
匍
匕
化
北
匙
匚
匝
匡
匪
匱
匸
匹
区
医
匽
匿
區
十
卂
千
卄
卅
卆
升
午
卉
半
卌
华
卑
卒
卓
協
单
卖
南
単
博
卜
卝
卞
占
卡
卢
卣
卤
卦
卩
卪
卬
卯
印
危
即
却
卵
卷
卸
卻
厂
厃
厄
历
厈
厉
厌
厓
厘
厚
原
厤
厥
厨
厭
厲
厳
厶
厷
厸
去
厼
厽
叀
参
參
叅
又
叉
及
友
双
反
収
叐
发
叒
叔
叕
取
受
叚
叜
叟
口
古
句
另
叩
只
叫
召
可
台
叱
史
右
叵
叶
号
司
叹
吂
各
吅
合
吉
吊
吋
同
名
后
吏
向
吕
君
吝
吞
吠
否
含
启
吳
吴
吸
吹
吾
呂
呆
呈
告
呑
员
呙
周
呪
味
命
咅
和
咎
咠
咢
咨
咸
咼
哀
品
哉
員
哥
哲
唇
唐
唱
唸
唾
商
啇
問
啚
啡
啬
啻
善
喉
喋
喘
喜
喧
喬
單
営
喿
嗅
嗇
嗎
嗽
嘆
嘗
嘘
嘢
嘩
噂
噛
器
噩
噴
嚔
嚴
囁
囊
囗
囘
囙
囚
四
回
囟
因
団
囧
囬
困
囱
囲
図
囷
固
国
图
圂
圅
國
圍
圏
園
圓
圖
團
土
圡
圣
圥
圧
在
圭
地
圶
圼
坂
均
坊
坐
坒
坚
坝
坪
坴
垂
型
垔
垚
垢
埀
埃
埋
城
域
埶
執
基
埼
堀
堂
堅
堆
堇
堪
堯
報
場
塀
塒
塔
塗
塞
塾
境
墓
増
墟
墨
壁
壊
壌
壘
士
壬
壯
声
売
壳
壴
壹
壺
壽
夂
处
夅
夆
备
変
夊
夋
夌
复
夏
夒
夕
外
夗
夘
多
夜
夢
夥
大
夨
天
太
夫
夬
夭
央
失
夲
头
夷
夸
夹
夻
夾
奂
奄
奇
奈
奉
奎
奏
奐
契
奓
奔
奚
奞
奠
奢
奥
奪
奭
女
奴
奶
奻
好
如
妄
妊
妙
妟
妥
妨
妹
妻
妾
姉
始
姑
姓
委
姜
姫
姿
威
娃
娄
娘
娯
婁
婚
婦
婴
婿
媽
嫁
嫌
嬉
嬌
嬰
嬴
子
孑
孔
孕
孖
字
存
孚
孛
孝
孟
季
孤
学
孫
孱
學
宀
宁
宂
它
宅
宇
守
安
宋
完
宏
宓
宗
官
宙
定
宛
宜
宝
实
実
客
宣
室
宮
宰
害
家
容
宾
宿
寂
寄
寅
密
富
寒
寛
寝
察
寡
寧
審
寫
寬
寮
寸
对
寺
寻
寽
対
寿
封
尃
射
将
將
專
尉
尊
尋
尌
對
導
小
少
尒
尓
尔
尖
尗
尚
尞
尢
尣
尤
尧
尨
尭
就
尸
尹
尺
尻
尼
尽
尾
尿
局
居
屈
届
屋
屎
屏
屑
展
屖
屚
属
屠
屡
層
履
屬
屮
屯
屰
山
屵
屾
岁
岂
岐
岑
岡
岩
岬
岳
岸
峠
峯
島
崇
崑
崔
崖
崙
崩
嵐
嵬
嶲
嶼
巂
巛
川
州
巟
巠
巡
巢
巣
巤
工
左
巧
巨
巩
巫
差
己
已
巳
巴
巷
巸
巻
巽
巾
巿
帀
市
布
帆
希
帚
帛
帝
帥
带
師
席
帯
帰
帳
帶
常
帽
幅
幕
幣
干
平
年
幵
并
幷
幸
幹
幺
幻
幼
幽
幾
广
広
庄
庇
床
底
店
庚
府
度
座
庫
庭
庶
康
庸
廃
廉
廌
廛
廣
廩
廴
延
廷
建
廾
廿
开
弁
弃
弄
弇
弋
式
弓
弔
引
弗
弘
弛
弜
弟
弥
弦
弱
張
強
强
弾
彊
彌
彎
彐
彑
当
彔
录
彖
彗
彡
形
彥
彦
彧
彩
彫
彭
影
彳
役
彼
往
径
待
律
後
徒
得
徙
從
御
復
微
徴
徵
心
忄
必
忌
忍
志
忘
忙
忝
忠
忩
快
念
忽
忿
怒
怖
思
怠
急
性
怪
怯
怱
恆
恋
恐
恒
恥
恨
恩
恭
息
恰
悉
悔
悟
患
悤
悩
悪
悲
悶
情
惚
惜
惠
惡
惢
惨
想
愁
愈
意
愚
愛
感
慈
態
慌
慎
慣
慧
慮
慰
憂
憎
憧
憩
憲
憶
憾
應
懐
懲
懸
戀
戈
戉
戊
戋
戌
戍
戎
成
我
戒
戔
或
戚
戠
戢
戦
截
戯
戲
戶
户
戸
戹
戻
戼
戾
房
所
扁
扇
扉
手
扌
才
打
払
托
执
扱
承
技
抑
投
折
抜
抱
押
抽
担
拉
拒
拓
拗
拘
招
拜
拝
拠
拡
括
拳
拶
拼
拿
持
指
挑
挙
挟
挨
挫
振
挺
捉
捏
捕
捗
捜
捧
捨
捲
捻
掃
授
掌
掛
掟
採
探
接
控
推
措
掬
掲
掴
掻
揃
揉
描
提
揚
換
握
揮
援
揺
損
携
搾
摇
摘
摩
撃
撥
撫
撮
操
擦
支
攴
攵
收
攸
改
攻
放
政
敄
故
敏
救
敕
敖
敗
教
敝
敞
敢
散
敦
敫
敬
数
整
敵
敷
數
斂
文
斉
斊
斗
料
斜
斡
斤
斥
斧
斩
斬
断
斯
新
方
於
施
斿
旁
旅
旋
族
旗
无
旡
既
旣
日
旦
旧
旨
早
旬
旱
旲
时
旾
昆
昇
昌
昍
明
昏
易
昔
昗
昜
星
映
春
昧
昨
昬
昭
是
昱
昴
昷
昼
時
晃
晋
晏
晚
晩
普
景
晴
晶
智
暇
暑
暖
暗
暦
暮
暴
暹
曇
曉
曖
曙
曩
曰
曲
曳
更
曷
書
曹
曼
曾
替
最
朁
會
月
有
朋
服
朔
朕
朗
望
朝
期
木
朩
未
末
本
札
朮
术
朱
朵
朶
机
朿
杀
杏
村
杖
杜
束
条
来
杯
東
杲
杳
松
板
析
枕
林
枚
果
枝
枠
枯
枲
架
枼
柄
某
染
柔
查
柬
柰
柱
柴
柵
査
柿
栄
栓
栗
校
株
核
根
格
桀
桁
桃
案
桑
桜
桧
桼
梁
梅
條
梟
梨
梯
棒
棘
棚
棟
棠
棥
森
棺
椅
植
椒
検
椰
楚
業
極
楽
概
榎
榮
榴
構
槍
様
槽
樂
樊
模
権
横
樹
橋
橙
機
檬
檸
檻
欄
欠
次
欣
欧
欮
欲
欶
欺
欽
款
歆
歇
歌
歛
止
正
此
步
武
歨
歩
歪
歮
歯
歰
歲
歳
歴
歷
歸
歹
歺
死
殆
殊
残
殖
殳
殴
段
殷
殸
殹
殺
殻
殿
毋
毌
母
毎
每
毒
比
毕
毚
毛
毳
氏
氐
民
气
気
氣
水
氵
氶
氷
永
氺
氾
汁
求
汉
汗
汚
汝
汞
江
池
決
汽
沃
沓
沖
沙
沝
沢
河
沸
油
治
況
泉
泌
法
泡
波
泣
泥
注
泰
泳
洋
洒
洗
洛
洞
洪
洲
活
派
流
浄
浅
济
浜
浦
浪
浮
浴
海
浸
消
涎
涙
液
涼
淡
淫
淮
深
混
添
清
済
渉
渋
渚
減
渠
渡
温
測
港
游
湖
湯
湾
満
源
準
溜
溝
溢
溶
溺
滅
滑
滚
滝
滞
滿
漂
漏
漑
演
漕
漠
漢
漬
漸
潜
潤
潰
澄
澎
激
濁
濃
濡
濯
瀬
灌
灣
火
灬
灭
灯
灰
灵
灷
災
炅
炊
炎
炏
炒
炗
炙
炭
点
為
烈
烏
烝
焉
無
焦
焱
然
焼
煉
煙
煞
煤
照
煽
熊
熏
熟
熱
燃
燕
營
燮
爆
爛
爪
爫
爭
爯
爰
爱
爲
爵
父
爻
爽
爾
爿
片
牙
牚
牛
牜
牟
牢
牧
物
牪
特
牽
犀
犬
犭
犮
犯
状
狂
狄
狊
狐
狗
狙
狩
独
狭
狸
狺
狼
猋
猒
猪
猫
献
猿
獄
獒
獣
獲
獻
玄
率
玉
王
玟
玨
珍
珎
珠
班
現
球
理
琴
瑕
瑟
瑩
璃
瓜
瓦
瓶
甘
甚
生
産
甥
甦
用
甫
甬
田
由
甲
申
电
甶
男
甸
甹
町
画
甾
畀
界
畏
畐
畑
留
畜
畟
畢
略
畧
畨
番
畫
異
畱
畳
當
畺
畾
疊
疋
疌
疑
疒
疲
疵
疾
病
症
痒
痛
療
癌
癒
癖
癶
癸
癹
発
登
發
白
百
皀
皃
的
皆
皇
皋
皐
皕
皮
皷
皿
盃
盆
盇
盈
益
盍
盎
监
盒
盖
盗
盛
盟
盡
監
盤
盧
目
直
相
盾
省
眇
眉
看
県
眔
眞
真
眠
眩
眷
眺
眼
眾
着
睘
睪
睫
睿
瞏
瞢
瞬
瞳
瞼
瞿
矍
矛
矞
矢
矣
知
矦
短
石
砂
研
砕
砲
破
硬
碎
確
磁
磊
磨
礎
示
礻
礼
社
祈
祉
祖
神
祟
票
祭
禀
禁
禅
福
禸
禹
禺
离
禽
禾
禿
秀
私
秃
秉
秋
科
秒
秘
秝
秦
称
移
稀
程
税
稟
種
稲
稻
稼
稿
穀
穌
積
穏
穫
穴
究
穹
空
穿
突
窄
窒
竈
立
竒
竜
竝
竟
章
童
端
競
竹
竿
笑
笔
笛
笠
符
第
筆
等
筏
筒
答
策
简
箋
箕
算
管
箱
箴
箸
節
築
篤
篭
簡
籍
籠
米
类
粉
粋
粒
粗
粘
粛
粟
粤
粥
粦
粲
精
糊
糖
糞
糠
糸
糹
系
紀
約
紅
紋
納
紐
純
紙
級
紛
素
索
紫
累
細
終
組
絆
経
結
絜
絞
絡
給
絫
統
絲
絵
絶
絹
經
続
綠
維
綱
網
綺
綿
総
緑
緒
線
編
緩
練
縁
縄
縛
縣
縫
縮
績
繇
繋
織
繭
纍
纏
纟
红
组
经
统
绿
缶
网
罒
罔
罕
罗
罙
罠
罡
罢
罪
置
罰
署
罷
羅
羆
羊
羌
羍
美
羔
羕
羗
羞
羡
羣
群
羨
義
羲
羸
羽
翁
翏
習
翕
翟
翠
翼
老
耂
考
者
耆
而
耎
耐
耑
耒
耳
耴
耶
耷
聂
聊
聖
聚
聞
聴
聶
職
聿
肀
肃
肅
肉
肌
肖
肘
肙
肝
肥
肩
肪
肯
育
肴
胃
背
胡
胥
胶
胸
能
脂
脅
脆
脇
脈
脊
脚
脛
脩
脱
脹
腐
腕
腰
腸
腹
腿
膚
膜
膝
膠
膣
膨
臍
臣
臤
臧
自
臬
臭
臯
臱
至
致
臺
臼
臽
臾
臿
舀
舂
舄
舅
與
興
舉
舌
舍
舎
舐
舛
舜
舞
舟
航
般
船
艇
艦
艮
良
色
艸
艹
艾
芋
芒
芔
芝
芬
芮
芯
花
芳
芸
芺
芻
芽
苔
苗
苟
若
苦
英
茂
范
茄
茎
茶
茸
茹
荅
草
荒
荣
荷
荼
莆
莧
莫
莽
菆
菊
菌
菐
菓
菜
華
萬
落
葉
著
葛
董
葱
葵
蒙
蒜
蒦
蒸
蒼
蓄
蓉
蓋
蓬
蓮
蓺
蔑
蔔
蔡
蔵
蕉
蕊
蕭
薄
薛
薦
薬
薯
薰
藁
藍
藏
藤
藥
蘇
蘭
蘿
虍
虎
虐
虒
虔
處
虖
虗
虘
虚
虛
虜
虞
號
虫
虹
虽
蚊
蚤
蚩
蛇
蛋
蛍
蛙
蛤
蜀
蜂
蜜
蝉
蝕
蝗
蝶
蝿
融
螺
蟀
蟋
蟲
蟹
蠍
蠡
血
衆
行
衍
術
衛
衡
衣
衤
表
衮
衰
袁
袋
袖
袞
被
袴
裁
裂
装
裏
補
裸
製
褭
褱
襄
襖
襟
襪
襲
襾
西
覀
要
覃
見
規
覓
視
覚
覧
親
観
覽
见
规
视
角
解
触
言
訁
訇
計
討
記
訛
訪
設
許
訳
診
証
詐
評
詞
試
詩
詫
詰
話
詹
誇
誉
誌
認
誕
誘
語
誠
誤
誩
説
読
誰
課
調
請
論
諦
諸
謎
講
謝
謡
識
警
議
譲
護
讠
记
词
话
语
调
谷
豆
豈
豊
豐
豕
豖
豙
豚
象
豦
豩
豪
豬
豸
豹
貇
貓
貝
貞
貟
負
財
貢
貧
貨
貪
貫
責
貯
貰
貳
貴
貶
買
費
貿
賁
賄
資
賈
賊
賏
賑
賓
賔
賛
賞
賢
賣
質
賭
賴
贊
贝
贡
责
贯
贲
贵
赖
赞
赤
赦
走
赴
赵
起
超
越
足
距
跡
跨
路
跳
踊
踏
踵
蹇
蹴
身
躬
車
軍
軎
軒
軟
転
軸
軽
較
載
輝
輦
輪
輸
车
辛
辜
辞
辟
辥
辰
辱
農
辵
辶
边
辺
込
达
辿
过
迎
运
近
返
远
连
迫
迭
述
迷
追
退
送
逃
逆
透
逐
通
逝
速
造
逢
連
逮
週
進
遀
遂
遅
遇
遊
運
過
道
達
違
遠
遡
遣
遥
適
遮
遷
選
遺
避
還
邊
邏
邑
邓
邕
那
邦
邪
郎
部
郭
郵
都
鄉
鄧
鄭
酉
酋
配
酒
酓
酔
酷
酸
醒
醜
醫
釆
采
釈
里
重
野
量
金
釒
釘
釜
針
釣
鈍
鈴
鉛
鉢
銀
銃
銭
鋏
鋭
鋸
鋼
錆
錘
錠
錢
録
鍋
鍛
鍵
鎖
鎧
鏡
鐘
鐵
鑑
钅
镜
長
镸
长
門
閃
閉
開
閏
閑
閒
間
閔
関
閵
閻
闇
闌
闘
门
闪
间
闷
阑
阜
阝
阪
防
阳
阻
阿
陈
降
限
院
陣
除
陥
陰
陳
陸
険
陽
隆
隊
隋
階
隔
隙
際
隠
隡
隣
隨
隱
隶
隹
隺
隻
隼
隽
难
雀
雁
雄
集
雇
雈
雋
雌
雍
雐
雑
雔
雙
雚
雛
雜
雝
離
難
雨
雩
雪
雲
零
雷
雹
電
需
震
霊
霍
霜
霝
霞
霧
露
霸
靈
靑
青
静
非
靡
面
靣
革
靴
鞄
鞘
韋
韓
韦
韭
韯
韱
音
響
頁
頂
頃
項
順
須
預
頑
頗
領
頡
頬
頭
頷
頸
頻
頼
題
額
顎
顔
顕
願
顛
類
顧
页
领
風
风
飛
飞
食
飠
飢
飯
飲
飴
飼
飽
飾
餃
餅
養
餌
餐
館
饣
馆
首
香
馬
馮
駄
駅
駆
駐
駒
駝
駦
騒
験
騙
驚
马
驼
骨
體
高
髟
髪
髭
髷
鬘
鬥
鬯
鬲
鬼
魂
魅
魔
魚
魯
鮫
鮭
鮮
鰯
鱗
鱷
鱼
鲁
鳥
鳩
鳳
鳴
鳶
鴎
鴨
鶴
鷲
鷹
鸟
鹵
鹸
鹿
麃
麓
麗
麥
麦
麺
麻
黃
黄
黍
黎
黑
黒
黙
黨
黹
黽
黾
鼎
鼓
鼠
鼻
齊
齋
齐
齒
齿
龍
龙
龜
龟
龠
龰
龱
龴
龵
龶
龷
龸
龹
ꜜ








者
艹
ﻟ
ﻴ
﻿
！
（
）
，
：
；
？
｜
～
�
𝐛
𝐢
𝐧
𝐨
𝐱
🜨
𠀁
𠀃
𠀆
𠀉
𠀎
𠀐
𠁁
𠁣
𠂆
𠂇
𠂈
𠂉
𠂊
𠂋
𠂎
𠂒
𠂔
𠂛
𠂡
𠂢
𠂤
𠂬
𠂭
𠂹
𠃊
𠃋
𠃌
𠃍
𠃎
𠃑
𠃓
𠃔
𠃜
𠄌
𠄎
𠄠
𠄢
𠆢
𠆥
𠇍
𠈌
𠌵
𠓜
𠔉
𠔥
𠔼
𠔽
𠔿
𠕀
𠕁
𠕋
𠘧
𠘨
𠙻
𠙼
𠚏
𠚒
𠚤
𠚪
𠣏
𠤎
𠤕
𠥓
𠦄
𠦑
𠦝
𠧒
𠧗
𠧪
𠩺
𠪚
𠫓
𠫔
𠫤
𠬛
𠬝
𠬞
𠬢
𠬤
𠬶
𠮛
𠮦
𠮷
𠯑
𠱠
𠳮
𠷎
𡈼
𡉀
𡉵
𡌥
𡍮
𡏳
𡕒
𡕩
𡕰
𡖅
𡗗
𡗜
𡘆
𡘤
𡧱
𡨄
𡩧
𡬠
𡭽
𡰣
𡰥
𡰪
𡰯
𡰱
𡷈
𡸁
𡿨
𡿩
𡿪
𡿺
𢀖
𢀛
𢀩
𢁙
𢆉
𢆰
𢆶
𢇁
𢇇
𢉖
𢌬
𢌿
𢏚
𢑑
𢑚
𢖻
𢙣
𢛳
𢦏
𢦒
𢧵
𢼄
𢾕
𣁋
𣄼
𣅀
𣅽
𣍘
𣎳
𣎵
𣏋
𣏼
𣗥
𣥂
𣥖
𣦵
𣦼
𣧄
𣪊
𣪠
𣬉
𣳾
𣶒
𤇾
𤊽
𤐫
𤓰
𤔔
𤕨
𤣩
𤰇
𤰔
𤰞
𤴓
𤴔
𤽄
𥁑
𥁕
𥃦
𥃩
𥃭
𥇡
𥑟
𥘅
𥘈
𥝢
𥫗
𥱡
𦈢
𦉪
𦉬
𦉼
𦍌
𦍒
𦎧
𦐇
𦓔
𦔮
𦘒
𦙃
𦚏
𦣝
𦣞
𦣻
𦥑
𦥔
𦥯
𦨉
𦭝
𦰩
𧆞
𧈧
𧘇
𧰨
𧴪
𧴮
𧵩
𧾷
𨸏
𨾴
𩙿
𩠐
𩫏
𩵋
𪉷
𪜀
𪟽
𪠲
𪩲
𫇦
𫔭
𫜸
𫝀
𫠣
𫠩
𫢉
𫥞
𫩏
𫩠
𫪡
𫲽
𫶧
𬀷
𬐘
𬗌
𬙙
𬛸
𬜯
𬟩
𬯁
𬴘
𬺻
𬼉
𬼖
𭀰
𭁈
𭁨
𭅰
𭑈
𭕄
𭗼
𭤨
𭥫
𭻾
𮅕
𮊿
𮍌
𮍏
𮓗
𮥼
𮧮
廾
𰀁
𰀄
𰀈
𰀉
𰀕
𰀠
𰀡
𰀢
𰀪
𰁜
𰃮
𰆊
𰆘
𰋙
𰕎
𰢴
𰧭
𰯲
00--
01--
15--
16--
17--
41--
48--
55--
59--
70--
71--
72--
74--
77--
78--
79--
80--
81--
84--
85--
86--
87--
89--
90--
94--
95--
a--
aa--
ab--
abdu--
ac--
act--
ad--
advan--
adve--
ae--
ag--
agre--
ai--
air--
aj--
ak--
al--
algo--
all--
alter--
alu--
am--
amat--
an--
ang--
ans--
apo--
app--
appe--
approxi--
ar--
arc--
argen--
as--
ash--
assi--
astro--
at--
attri--
au--
aus--
auto--
av--
avo--
b--
ba--
bac--
bag--
bah--
bak--
bal--
ban--
bar--
bat--
be--
bel--
ben--
benja--
bern--
bhu--
bi--
biblio--
bin--
bio--
bo--
body--
bom--
bor--
br--
bre--
bri--
broad--
bu--
bulga--
bur--
but--
c--
ca--
cada--
can--
cap--
car--
cas--
cat--
cauc--
ce--
cele--
cent--
cer--
ch--
chu--
ci--
cir--
cl--
clo--
co--
coeff--
com--
compo--
con--
cond--
cons--
conside--
consul--
cont--
contri--
cor--
cos--
cosmo--
coun--
cr--
cre--
cu--
cur--
cy--
d--
da--
dam--
de--
dec--
defi--
del--
depen--
des--
desam--
deter--
deuts--
deutsch--
dha--
di--
dia--
dis--
do--
dou--
dr--
du--
dy--
e--
ear--
ec--
econ--
ed--
eff--
eg--
eigh--
el--
em--
emer--
en--
end--
ener--
eng--
entre--
equ--
es--
et--
eu--
ex--
f--
fa--
fami--
fan--
far--
fe--
fer--
fi--
fis--
fit--
fla--
flo--
fo--
fol--
foo--
for--
fr--
fre--
fu--
g--
ga--
gar--
ge--
gene--
geo--
geog--
geol--
gi--
gla--
go--
god--
gor--
gra--
gri--
gro--
gu--
h--
ha--
han--
har--
hay--
he--
hel--
her--
hi--
histo--
ho--
hol--
holl--
home--
homo--
hou--
hu--
hy--
hyb--
hydr--
hylo--
i--
ib--
ibe--
ic--
ice--
id--
im--
in--
inc--
indi--
indo--
indust--
insp--
int--
inter--
inva--
inve--
io--
ir--
is--
iso--
it--
j--
ja--
je--
jes--
ji--
jo--
ju--
jud--
k--
ka--
ke--
ki--
ko--
ku--
l--
la--
lao--
lap--
lau--
laun--
le--
li--
lib--
libe--
lit--
ll--
lo--
lu--
ly--
m--
ma--
mac--
macro--
mag--
main--
mal--
man--
manu--
map--
mary--
mau--
mcc--
me--
memo--
mer--
mes--
meteoro--
mi--
micro--
mis--
mo--
mon--
monu--
mor--
mou--
mu--
mus--
my--
n--
na--
ne--
neg--
neuro--
new--
news--
ng--
ni--
nige--
no--
not--
nu--
ny--
o--
obser--
ok--
ol--
om--
on--
op--
ophthalmo--
opti--
or--
os--
ot--
ou--
out--
p--
pa--
pan--
pas--
pay--
pe--
pen--
penet--
per--
ph--
phe--
phy--
physi--
pi--
pin--
pl--
po--
poly--
pr--
pre--
princ--
pro--
pu--
py--
q--
qu--
r--
ra--
rat--
re--
ref--
regi--
ren--
res--
resta--
resto--
rhe--
ri--
ro--
rou--
ru--
run--
s--
sa--
sal--
san--
sau--
savi--
sch--
scu--
se--
sec--
seg--
sen--
ser--
sha--
si--
sig--
signifi--
ska--
sket--
sky--
sla--
sli--
slo--
sn--
so--
socio--
sp--
spe--
spec--
spo--
st--
sta--
ster--
stra--
sty--
su--
sub--
sul--
super--
sus--
sve--
sy--
symp--
synt--
t--
ta--
tardig--
te--
tea--
temp--
territo--
tes--
th--
the--
ti--
to--
trans--
tri--
tu--
tur--
ty--
u--
ul--
un--
under--
unve--
up--
ur--
urba--
us--
v--
va--
valgo--
ve--
velo--
ver--
vi--
vic--
visit--
vo--
w--
wa--
war--
we--
wea--
west--
whe--
wi--
wil--
wo--
won--
wor--
wri--
x--
xa--
xe--
y--
ya--
ye--
yi--
yo--
yu--
z--
za--
ze--
zi--
zo--
zu--
ı--
ɪ--
α--
γ--
κ--
λ--
π--
σ--
φ--
ве--
год--
з--
к--
ка--
л--
м--
ма--
рос--
с--
ско--
т--
ч--
я--
ال--
ب--
زم--
س--
م--
ن--
अ--
क--
ग--
त--
प--
ब--
म--
य--
र--
व--
श--
আ--
ই--
ম--
র--
அ--
க--
த--
ப--
ம--
ய--
ர--
ல--
త--
ర--
వ--
ക--
ത--
പ--
മ--
ര--
വ--
ก--
กข--
กงาน--
กท--
กพระ--
กม--
กมล--
กร--
กรม--
กฤ--
กษา--
กหล--
กอ--
กา--
การ--
กแสด--
ข--
ของ--
ค--
คน--
คร--
คล--
คว--
คำ--
ง--
งค--
งจ--
งน--
งบ--
งป--
งพ--
งพระ--
งม--
งล--
งส--
งอ--
งเขต--
จ--
จน--
จพระปรเม--
จส--
จะ--
จาก--
จำ--
ช--
ชา--
ซ--
ซอย--
ญ--
ญพ--
ฎ--
ฏ--
ฐ--
ฐอ--
ณ--
ด--
ดก--
ดการ--
ดช--
ดนคร--
ดประ--
ดม--
ดอ--
ดา--
ต--
ตก--
ตน--
ตบอ--
ตร--
ตล--
ตว--
ตส--
ตำ--
ถ--
ท--
ทธ--
ทร--
ทฯ--
ทาง--
ทำ--
ธ--
ธนาคาร--
ธรร--
น--
นก--
นการ--
นข--
นคร--
นจ--
นช--
นต--
นท--
นน--
นป--
นประ--
นพ--
นย--
นราย--
นฤ--
นส--
นห--
นา--
นโ--
นใน--
นไ--
บ--
บก--
บการ--
บท--
บน--
บพระ--
บม--
บร--
บราช--
บส--
บาง--
บไ--
ป--
ปก--
ปท--
ปร--
ประ--
ผ--
ผล--
พ--
พร--
พระ--
พระวรราช--
พล--
ฟ--
ภ--
ภา--
ภาษ--
ภาษา--
ม--
มงค--
มพ--
มม--
มห--
มอ--
มะ--
มา--
มาร--
ย--
ยง--
ยญ--
ยน--
ยนแปลง--
ยบ--
ยม--
ยมหา--
ยร--
ยว--
ยส--
ยา--
ยใน--
ร--
ระ--
รา--
ราช--
ล--
ลย--
ลส--
ลา--
ว--
วง--
วน--
วม--
วย--
วร--
วา--
วแท--
ศ--
ศร--
ศว--
ษ--
ส--
สก--
สถาปน--
สน--
สม--
สร--
สว--
สา--
สารส--
ห--
หม--
หล--
หาร--
อ--
อก--
อข--
อค--
อง--
อน--
อป--
อพ--
อพระ--
อม--
อย--
อส--
ออ--
อำ--
ะ--
า--
าก--
าง--
างพระ--
าด--
าท--
าน--
านข--
าพ--
าม--
าย--
ายของ--
าร--
าราช--
าว--
าห--
ำ--
เ--
เข--
เขต--
เค--
เซ--
เท--
เน--
เบ--
เพ--
เม--
เร--
เส--
เอ--
แ--
แถล--
แบ--
แผ--
แฟ--
และ--
แส--
โ--
โก--
โค--
โดย--
โท--
โพ--
โร--
โส--
โอ--
ใ--
ใจ--
ใน--
ในประ--
ไ--
ไข--
ไธ--
ไป--
ไฟ--
๑--
๒--
๒๕--
๓--
๔--
๕--
ກ--
ກກ--
ກກະ--
ກກາ--
ກຂ--
ກຂອງ--
ກຂະ--
ກຄ--
ກຄອງ--
ກຄອງແບບ--
ກຄະ--
ກງານ--
ກຈ--
ກຈະ--
ກຊ--
ກຊນະ--
ກຊາຍ--
ກຍ--
ກດ--
ກຕ--
ກຖ--
ກທ--
ກທຳມະ--
ກນຳ--
ກບ--
ກບານເຕະ--
ກປ--
ກປະ--
ກພ--
ກພະ--
ກມ--
ກຢ--
ກຣ--
ກລ--
ກລາຍ--
ກວ--
ກສ--
ກສະ--
ກສະນະ--
ກສະແດງ--
ກສາ--
ກສາຄວາມ--
ກສາວ--
ກອ--
ກອງ--
ກອນ--
ກະ--
ກະຊວງ--
ກະມະ--
ກະສວຍ--
ກາ--
ກາງ--
ການ--
ການຂະ--
ການວ--
ການເຈ--
ການແປ--
ກາຣ--
ກຳ--
ກຳແພງ--
ກເຊ--
ກເຕ--
ກໂລກ--
ກໃນ--
ກໆ--
ກໜ--
ຂ--
ຂອງ--
ຂອງກ--
ຂະ--
ຂະໜ--
ຂາ--
ຂາຍ--
ຂາດ--
ຂຽນ--
ຄ--
ຄຣ--
ຄລ--
ຄວ--
ຄວນ--
ຄອງ--
ຄອມ--
ຄະ--
ຄະນະ--
ຄາ--
ຄາດ--
ຄຳ--
ຄຳສ--
ງ--
ງກ--
ງກະ--
ງກາງ--
ງການ--
ງຂ--
ງຂອງ--
ງຂະ--
ງຂາ--
ງຄ--
ງຄະ--
ງຄາ--
ງຄຳ--
ງຈ--
ງຈາກ--
ງຊ--
ງຊາຍ--
ງຊາດ--
ງຍ--
ງດ--
ງຕ--
ງຕາມ--
ງຖ--
ງທະ--
ງທາງ--
ງນ--
ງນະ--
ງນາ--
ງບ--
ງປ--
ງປະ--
ງປະເທດ--
ງພ--
ງພະ--
ງມາ--
ງຢ--
ງຣ--
ງລ--
ງລະ--
ງວ--
ງສ--
ງສອງ--
ງສອນ--
ງສະ--
ງສາ--
ງຫ--
ງຫມ--
ງຫະ--
ງອ--
ງອາດ--
ງຮ--
ງານ--
ງາມ--
ງເຂດ--
ງເລ--
ງແຂ--
ງແລະຄວາມ--
ງໂດຍ--
ງໃຈ--
ງໃນ--
ງໄປ--
ງໄຟ--
ງໆ--
ງໝ--
ຈ--
ຈອນ--
ຈະ--
ຈະປະ--
ຈະມ--
ຈະອ--
ຈາ--
ຈາກ--
ຈາກກະຊວງ--
ຈຳ--
ຊ--
ຊອຍ--
ຊະ--
ຊະນະ--
ຊາ--
ຊາກ--
ຊາຄ--
ຊາດ--
ຊານ--
ຊາພະ--
ຊາວ--
ຊຳ--
ຊຽງ--
ຍ--
ຍປ--
ຍພ--
ຍລ--
ຍສະ--
ຍຫ--
ຍອດ--
ຍະ--
ຍາ--
ຍາກ--
ຍາດ--
ຍາພ--
ຍາມ--
ຍາວ--
ຍເສ--
ດ--
ດກ--
ດການ--
ດກຳ--
ດຂອງ--
ດຂະ--
ດຄ--
ດຈ--
ດຈະກຳ--
ດຈາກ--
ດຊ--
ດຊອບ--
ດຊະ--
ດຊະສະໄໝ--
ດຊາ--
ດຊາດ--
ດດ--
ດຕະ--
ດຕາ--
ດຕາມ--
ດຖ--
ດຖະບານ--
ດທ--
ດທະ--
ດທະນາ--
ດທາ--
ດທຳມະ--
ດນະ--
ດນາ--
ດບ--
ດບາດ--
ດປະ--
ດພ--
ດພຣະ--
ດພະ--
ດມະ--
ດລ--
ດລອງ--
ດລະ--
ດລາຍ--
ດວ--
ດວງ--
ດວຽກ--
ດສ--
ດສລະຈາກ--
ດສະ--
ດສະລ--
ດສາ--
ດສາດ--
ດຫ--
ດຫລ--
ດອ--
ດອກ--
ດອນ--
ດອອກ--
ດຮ--
ດາ--
ດາວ--
ດເທ--
ດເຫ--
ດເອ--
ດແຍກອອກ--
ດແບ--
ດແລະ--
ດໂດຍ--
ດໂທ--
ດໃຈ--
ດໃນ--
ດໃນກ--
ດໄຊ--
ດໄປ--
ດໄຟ--
ດໜ--
ດໝ--
ດໝາຍ--
ຕ--
ຕຕ--
ຕຕະ--
ຕອບ--
ຕະ--
ຕະຫ--
ຕາ--
ຕາດ--
ຕາມ--
ຕຳ--
ຕຳລາ--
ຖ--
ຖບານ--
ຖາ--
ທ--
ທທ--
ທອ--
ທອງ--
ທະ--
ທະຍາ--
ທະນ--
ທະຫານ--
ທາ--
ທາງ--
ທາງລາຊະ--
ທາດ--
ທານ--
ທຳ--
ທຳລ--
ນ--
ນກ--
ນກະ--
ນກາງ--
ນກຳ--
ນກຳມະ--
ນກຽ--
ນຂ--
ນຂອງ--
ນຂະ--
ນຄ--
ນຄວາມ--
ນຄະ--
ນຄຳ--
ນງ--
ນງານ--
ນຈ--
ນຈະ--
ນຈາກ--
ນຊ--
ນຊາ--
ນຊາດ--
ນຍ--
ນຍາ--
ນຍານ--
ນດ--
ນດາ--
ນດາກະແສ--
ນດານ--
ນຕ--
ນຕະ--
ນຕາ--
ນຕາມ--
ນຖານ--
ນທະ--
ນທາ--
ນທາງ--
ນທາດ--
ນນ--
ນນະ--
ນບ--
ນປ--
ນປະ--
ນປະທານ--
ນປະເທດ--
ນປະໂຍ--
ນປາ--
ນພ--
ນພຣະ--
ນພະ--
ນຟ--
ນມ--
ນມະ--
ນມາ--
ນຣ--
ນລ--
ນລະ--
ນລາ--
ນລາວ--
ນວ--
ນວນ--
ນວາ--
ນວຽ--
ນສ--
ນສະ--
ນສາ--
ນສາຍ--
ນຫາ--
ນອ--
ນອກ--
ນອອກ--
ນອະ--
ນອາ--
ນຮ--
ນະ--
ນະຄອນ--
ນາ--
ນາກ--
ນາງ--
ນາຍ--
ນາດ--
ນາມ--
ນາໂລມ--
ນຳ--
ນເຂດ--
ນເຄ--
ນເຕະ--
ນເລ--
ນເຫດ--
ນເອງ--
ນແດນ--
ນແນລ--
ນແລະ--
ນໂຄງ--
ນໂດຍ--
ນໂຕ--
ນໃຈ--
ນໃນ--
ນໃນກ--
ນໄກ--
ນໄດ--
ນໄປ--
ນໄລຍະ--
ນໆ--
ນໜ--
ນໝ--
ບ--
ບກ--
ບຂ--
ບຂອງ--
ບຂະ--
ບຄ--
ບງ--
ບຈາກ--
ບຊ--
ບຍ--
ບດ--
ບດາ--
ບຖ--
ບທ--
ບທະ--
ບທະເລ--
ບນ--
ບນະ--
ບບ--
ບປ--
ບປະ--
ບປະເທດ--
ບພ--
ບພຣະ--
ບພະ--
ບມ--
ບມາ--
ບລ--
ບລະ--
ບລາຊະ--
ບສ--
ບສະ--
ບຫ--
ບຫລ--
ບອ--
ບອກ--
ບຮ--
ບະ--
ບາ--
ບາງ--
ບານ--
ບຽດບ--
ບເກາະ--
ບເຂ--
ບເຂດບ--
ບແຂວງ--
ບແບບ--
ບໃນ--
ບໄປ--
ປ--
ປຣ--
ປອ--
ປະ--
ປະກາດ--
ປະຈຳ--
ປະຖຳ--
ປະທານ--
ປະທານກຳມະການ--
ປະມ--
ປະສ--
ປະເທດ--
ປະໄຕ--
ປາ--
ປາກ--
ປານ--
ປາຣ--
ປຽ--
ຜ--
ຜະ--
ຜາ--
ຝ--
ພ--
ພພະ--
ພຣະ--
ພະ--
ພະຍາ--
ພະນ--
ພະມະຫາທຳມະ--
ພະລາຊະ--
ພາ--
ພາກ--
ພາບ--
ພາສາ--
ພຽງ--
ຟ--
ຟອສ--
ຟາ--
ມ--
ມກ--
ມຂອງ--
ມຂະ--
ມຄ--
ມຄວ--
ມຄອງ--
ມງ--
ມຈ--
ມຈາກ--
ມຊ--
ມດ--
ມຕ--
ມທ--
ມທາງກ--
ມນ--
ມບ--
ມປ--
ມປະ--
ມຜະ--
ມພ--
ມພະ--
ມພາ--
ມມ--
ມມະ--
ມມາ--
ມລ--
ມລາຊະໂອ--
ມວ--
ມສ--
ມສະ--
ມສາດ--
ມຫ--
ມອ--
ມອອກ--
ມະ--
ມາ--
ມາກ--
ມາຂ--
ມາຈາກ--
ມານ--
ມເຂດບ--
ມແດນ--
ມແລະ--
ມໃນ--
ມໄຕໂລກະ--
ຢ--
ຢາ--
ຣ--
ຣະ--
ຣາ--
ລ--
ລວບລ--
ລວມ--
ລະ--
ລະນະ--
ລະບອບ--
ລະມ--
ລະອ--
ລາ--
ລາຍ--
ລາດ--
ລາວ--
ລຳ--
ລຽບ--
ວ--
ວກ--
ວຂອງ--
ວຄ--
ວງ--
ວງຂອງ--
ວຈ--
ວຈະ--
ວຊ--
ວຍ--
ວຍຂ--
ວຍຂະ--
ວຍຄ--
ວຍຄວາມ--
ວຍສ--
ວຍສະ--
ວດ--
ວຕ--
ວທ--
ວນ--
ວນກ--
ວນຂອງ--
ວນທ--
ວປ--
ວປະ--
ວພ--
ວພະ--
ວມ--
ວມກ--
ວລ--
ວລະ--
ວສ--
ວສະ--
ວຫ--
ວອ--
ວອນ--
ວະ--
ວາ--
ວາງ--
ວາດ--
ວານ--
ວຽງ--
ວແທນ--
ວໃຈ--
ວໄປ--
ວໝ--
ສ--
ສຕ--
ສມ--
ສລ--
ສວ--
ສສ--
ສອ--
ສອງ--
ສອນ--
ສະ--
ສະພາ--
ສະລ--
ສະແຫ--
ສະໄໝ--
ສາ--
ສາຂາ--
ສາງ--
ສາຍ--
ສາດ--
ສານ--
ສາມ--
ສາລ--
ສາວ--
ສຳ--
ສຽງ--
ຫຍ--
ຫວ--
ຫະ--
ຫາ--
ຫາກ--
ຫາຍ--
ຫານ--
ອ--
ອກ--
ອຂອງ--
ອຄ--
ອຄວາມ--
ອງ--
ອງກ--
ອງການ--
ອງຂອງ--
ອງຂະ--
ອງຄ--
ອງຊ--
ອງຊຽງ--
ອງດ--
ອງຕ--
ອງທ--
ອງນະ--
ອງນະຄອນ--
ອງບ--
ອງປະ--
ອງພ--
ອງພະ--
ອງມ--
ອງລະ--
ອງວ--
ອງສ--
ອງສະ--
ອງອ--
ອງເອກ--
ອງໃນ--
ອງໜ--
ອຍ--
ອຍຂ--
ອຍປະ--
ອຍວ--
ອຍຫ--
ອຍອ--
ອດ--
ອຕ--
ອຕອບ--
ອຖ--
ອທ--
ອນ--
ອນຄ--
ອນຄວາມ--
ອນຕ--
ອນມ--
ອນສ--
ອນຳ--
ອນໄຫວ--
ອບ--
ອບຽດບ--
ອປ--
ອປະ--
ອປະເທດ--
ອພ--
ອພຣະ--
ອພະ--
ອມ--
ອມທ--
ອມໂຍ--
ອລ--
ອວ--
ອສ--
ອສະ--
ອສາຍ--
ອອ--
ອອກ--
ອອກສ--
ອອງ--
ອອນ--
ອຮ--
ອະ--
ອະມ--
ອາ--
ອາດ--
ອາລະ--
ອາຫານ--
ອາໄສ--
ອຳ--
ອຳນາດ--
ອໃນ--
ອໄຟ--
ອໝ--
ຮ--
ຮອງ--
ຮະ--
ຮາ--
ຮາກ--
ຮານ--
ຮານນະ--
ະ--
າ--
າກ--
າການ--
າກຳ--
າຂ--
າຂອງ--
າຄ--
າຄວາມ--
າຄະ--
າງ--
າງກ--
າງຄ--
າງຄວາມ--
າງຈາກ--
າງຕ--
າງພຣະ--
າງຣອບ--
າງສ--
າງສະ--
າງອ--
າງໃນ--
າງໆ--
າຈ--
າຈະ--
າຊ--
າຍ--
າຍກ--
າຍຂອງ--
າຍຄ--
າຍຕ--
າຍທ--
າຍທະ--
າຍປະ--
າຍລ--
າຍອ--
າຍໃນ--
າຍໆ--
າດ--
າຕ--
າຕະ--
າຖ--
າທ--
າທາງ--
າທຳມະ--
ານ--
ານກ--
ານຂ--
ານຄ--
ານຄວາມ--
ານຈ--
ານຊ--
ານຊາຍ--
ານຍ--
ານດ--
ານຕ--
ານທ--
ານປະ--
ານປາກ--
ານພະ--
ານວ--
ານສ--
ານສະ--
ານສາລ--
ານຫ--
ານຫາດ--
ານອ--
ານະ--
ານາ--
ານໂຄກ--
ານໂນນ--
ານໂພ--
ານໂພນ--
ານໜ--
ານໝາກ--
າບ--
າປະ--
າປະເທດ--
າປາ--
າພ--
າພະ--
າມ--
າມກ--
າມະ--
າມາ--
າຢ--
າລ--
າລະ--
າລາດຊະ--
າວ--
າວຂ--
າວຄ--
າວມະຫາ--
າວະ--
າສ--
າສະ--
າຫມ--
າອ--
າອາວ--
າເ--
າເສ--
າເອ--
າແລະ--
າໂລ--
າໃຈ--
າໃນ--
າໄຊ--
າໄປ--
າໜ--
າໝ--
າໝາຍ--
ຳ--
ຳກ--
ຳຊ--
ຳຕານ--
ຳຜ--
ຳພ--
ຳລ--
ຳສ--
ຳສະ--
ຳຫ--
ຳເຊ--
ຽ--
ຽງ--
ຽນ--
ຽມ--
ຽວ--
ຽວຂ--
ເ--
ເກ--
ເກດ--
ເກາະ--
ເຂດ--
ເຄ--
ເຈ--
ເຈຍ--
ເຊ--
ເຍ--
ເຕ--
ເຖ--
ເທ--
ເທດ--
ເນ--
ເບ--
ເປ--
ເຜ--
ເພ--
ເພງ--
ເພາະ--
ເມ--
ເຢ--
ເຣ--
ເລ--
ເລດ--
ເວ--
ເວດ--
ເວນ--
ເສ--
ເສຍ--
ເສດ--
ເຫດ--
ເອ--
ເອແດ--
ເຮ--
ແ--
ແຂວງ--
ແຄນ--
ແຄມ--
ແຈກ--
ແຊ--
ແຍກ--
ແດງ--
ແຕກ--
ແທນ--
ແບ--
ແບບ--
ແປ--
ແຜນ--
ແພ--
ແຟ--
ແມ--
ແລ--
ແລະ--
ແລະສ--
ແສງ--
ແຫ--
ແອ--
ແອດ--
ແຮ--
ໂ--
ໂກ--
ໂກຣ--
ໂຄ--
ໂຄງ--
ໂຈ--
ໂຊ--
ໂຍ--
ໂດຍ--
ໂດຍສ--
ໂຕ--
ໂຕປະ--
ໂທ--
ໂທລະພາບ--
ໂນ--
ໂບ--
ໂປຣ--
ໂພ--
ໂມ--
ໂຢ--
ໂຣ--
ໂລ--
ໂລກ--
ໂລກະ--
ໂສ--
ໂຫ--
ໂອ--
ໂຮ--
ໂຮງ--
ໃ--
ໃຈ--
ໃດ--
ໃນ--
ໃນກ--
ໃນຂອບ--
ໃນຄ--
ໃນຈຳນ--
ໃນຕ--
ໃນທ--
ໃນບ--
ໃນພ--
ໃນພາສ--
ໃນລ--
ໃນລາຊະ--
ໃນລາຊະສະໄໝ--
ໃນສ--
ໃນສະ--
ໃນອ--
ໃນເສ--
ໃບ--
ໃຜ--
ໄ--
ໄກ--
ໄຂ--
ໄຈ--
ໄຊ--
ໄດ--
ໄຕ--
ໄທ--
ໄນ--
ໄປ--
ໄປຮ--
ໄພ--
ໄຟ--
ໄລ--
ໄລຍະ--
ໄວ--
ໄສ--
ໄອ--
ໄຮ--
ໆ--
໐--
໑--
໑໙--
໒--
໒໐--
໓--
໔--
໕--
໖--
໗--
ໜ--
ໜອງ--
ໜາ--
ໝາ--
မ--
ក--
រ--
ស--
អ--
--0
--1
--2
--3
--4
--5
--6
--61
--7
--78
--8
--9
--a
--able
--aca
--acio
--acy
--ad
--ado
--ae
--age
--ah
--ai
--ain
--ak
--al
--ala
--ale
--am
--an
--ana
--ance
--ania
--ant
--ants
--ap
--ar
--aries
--ary
--as
--at
--ata
--ate
--ated
--ation
--aw
--ay
--b
--be
--ber
--berg
--blika
--bo
--c
--ca
--cal
--can
--ce
--ces
--ch
--cies
--cing
--ck
--cs
--ct
--cted
--ction
--cus
--cy
--d
--da
--dae
--de
--ded
--der
--do
--ds
--dy
--e
--ed
--eira
--ek
--el
--ela
--ell
--ello
--ement
--en
--ence
--ency
--ent
--ents
--eous
--er
--ern
--ers
--erson
--ert
--es
--ese
--ess
--est
--et
--eth
--ex
--ey
--ez
--f
--ffe
--fi
--fs
--ful
--g
--ge
--ged
--ger
--ges
--gg
--ght
--gic
--gn
--go
--graphy
--gs
--gu
--h
--ha
--he
--him
--hip
--ht
--i
--ia
--ial
--ian
--ic
--ica
--ical
--ick
--id
--idae
--ids
--ie
--ied
--ient
--ier
--ies
--ight
--ign
--ik
--il
--iles
--im
--in
--ina
--inal
--ine
--ing
--ings
--ini
--io
--ion
--ional
--is
--ish
--ising
--ision
--ism
--isms
--ist
--ists
--it
--ita
--itarian
--ite
--ities
--ity
--ium
--ius
--ive
--ivity
--iz
--ization
--ized
--j
--je
--ji
--k
--ka
--ke
--ki
--kin
--kini
--kinis
--ky
--l
--la
--lag
--lar
--ld
--le
--ler
--ley
--lf
--li
--lia
--lihood
--ll
--lla
--lli
--lm
--lo
--ls
--lt
--ltz
--lus
--ly
--m
--ma
--mal
--mb
--me
--med
--ment
--mi
--mn
--mo
--ms
--my
--n
--na
--nal
--nce
--ncy
--nd
--nda
--ne
--ned
--ner
--ners
--nes
--ng
--nh
--ni
--nia
--nics
--ning
--nk
--nne
--no
--ns
--nt
--ntities
--nto
--nts
--ny
--o
--oc
--od
--ogy
--ological
--ology
--om
--ome
--on
--one
--op
--or
--ore
--ors
--ort
--ory
--os
--ose
--ot
--ous
--out
--ow
--ows
--p
--pa
--pe
--posed
--prise
--ps
--pt
--pus
--q
--r
--ra
--rage
--ral
--rd
--rds
--re
--rey
--rg
--ri
--ric
--rites
--rk
--rm
--rma
--rmatics
--rn
--ro
--rry
--rs
--rse
--rt
--rta
--rus
--ry
--s
--sa
--se
--sed
--ser
--ses
--sh
--ship
--sion
--sional
--sions
--sive
--slav
--sm
--so
--son
--ss
--st
--ste
--stein
--stic
--sts
--sty
--t
--ta
--tal
--tary
--te
--ted
--tes
--th
--ti
--tic
--tics
--tion
--tions
--tique
--to
--tock
--ton
--tor
--ts
--tte
--ty
--tz
--u
--ua
--ual
--ud
--ue
--ug
--ught
--ul
--ult
--ulus
--um
--un
--ung
--ur
--ura
--ure
--us
--ute
--uted
--ution
--v
--va
--val
--ve
--ved
--ves
--ving
--vo
--w
--way
--wear
--wn
--x
--y
--ya
--yan
--ye
--ys
--z
--za
--æ
--ɛ
--ɪ
--ʊ
--ι
--ος
--ς
--а
--е
--и
--ии
--к
--ка
--ло
--о
--он
--р
--я
--د
--ر
--ل
--م
--ن
--ه
--ي
--ی
--ம
--ก
--กร
--การ
--ข
--ค
--คร
--ง
--งค
--จ
--ฉ
--ช
--ซ
--ญ
--ฏ
--ณ
--ด
--ต
--ตร
--ถ
--ท
--ธ
--ธรรม
--น
--นาม
--นเอง
--บ
--บร
--ป
--ปฏ
--ปร
--ผ
--ฝ
--ฝร
--พ
--พร
--พระโขนง
--พศ
--ฟ
--ภ
--ม
--มบ
--มราชาภ
--มส
--มอ
--มเด
--ย
--ยาบาลจ
--ร
--รจ
--รณ
--รณาธ
--รม
--รรค
--ล
--ลงท
--ลาดพร
--ว
--วง
--ศ
--ศร
--ษ
--ส
--ห
--หน
--หม
--หล
--อ
--อดร
--อน
--อบร
--อย
--อร
--ฯ
--ะ
--ะจ
--ะน
--ะป
--ะร
--ะว
--ะเป
--ะโขนง
--า
--าก
--าช
--าชาธ
--าด
--าธ
--าน
--านาถ
--าภ
--าม
--าย
--าร
--ารแผ
--าว
--าศ
--าสนา
--าะ
--ำ
--ำแหน
--เก
--เข
--เจ
--เด
--เทว
--เป
--เพ
--เม
--เร
--เล
--เวท
--เส
--แก
--แข
--แผ
--แม
--แห
--โทรท
--ใช
--ให
--ได
--ไทย
--ไฟ
--ไม
--ไหม
--๐
--๑
--๒
--๔
--๖
--๗
--๘
--๙
--ກ
--ກກ
--ກຕ
--ກຖ
--ກທ
--ກປ
--ກພ
--ກລ
--ກວ
--ກສ
--ກອ
--ກອກ
--ກອງທ
--ກະສ
--ກາ
--ກາງ
--ກາຍ
--ການ
--ການກ
--ການຄ
--ການຊ
--ການຕ
--ການທ
--ການບ
--ການປ
--ການສ
--ກຳ
--ກຳປ
--ກຳລ
--ຂ
--ຂວ
--ຂອງ
--ຂອງຈ
--ຂອງຕ
--ຂອງພ
--ຂອງລ
--ຂອງວ
--ຂອງສ
--ຂອງອ
--ຂາວ
--ຄ
--ຄຣ
--ຄວນປ
--ຄອງໂກ
--ຄອບຄ
--ຄານ
--ຄຳ
--ຄຳຕ
--ຄຳມ
--ຄຳວ
--ຄຳສ
--ງ
--ງກ
--ງຄ
--ງຜ
--ງມ
--ງລ
--ງສ
--ງານ
--ຈ
--ຈະມ
--ຈາກ
--ຊ
--ຊະນ
--ຊາ
--ຊາດ
--ຍ
--ຍກ
--ຍຄ
--ຍຊ
--ຍທ
--ຍນ
--ຍຜ
--ຍພ
--ຍຫ
--ຍຫາຍ
--ຍະ
--ຍານ
--ຍາມ
--ຍາວ
--ດ
--ດຊ
--ດຖ
--ດທ
--ດປ
--ດຜ
--ດພ
--ດວ
--ດສ
--ດຫ
--ດອ
--ດອນ
--ດາ
--ດຳ
--ດຳລ
--ດຽວ
--ຕ
--ຕະຫ
--ຕາ
--ຕານ
--ຕາເວ
--ຕຳບ
--ຖ
--ຖະກ
--ຖະໜ
--ຖາທ
--ທ
--ທອງ
--ທະວ
--ທາງ
--ທາງດ
--ທານ
--ທຳ
--ນ
--ນກ
--ນຊ
--ນດ
--ນດອກງ
--ນຕ
--ນທ
--ນພ
--ນສ
--ນະ
--ນາ
--ນາງ
--ນາຍ
--ນານ
--ນຳ
--ນເມ
--ບ
--ບຄ
--ບດ
--ບຕ
--ບທ
--ບບ
--ບສ
--ບານ
--ປ
--ປອງຮ
--ປະ
--ປະຊ
--ປະຍ
--ປະດ
--ປະຕ
--ປະທ
--ປະມານ
--ປະສ
--ປະຫວ
--ປາຍທາງ
--ຜ
--ຜະລ
--ຝ
--ຝຣ
--ຝະລ
--ພ
--ພຣະພ
--ພຣະອ
--ພວນ
--ພະຍ
--ພະນ
--ພະພ
--ພະມ
--ພະລ
--ພະອ
--ພະໄທ
--ຟ
--ມ
--ມກ
--ມປ
--ມມ
--ມວ
--ມອນ
--ມຮ
--ມະນ
--ມາ
--ມາຍ
--ມາຍທ
--ມາສ
--ຢ
--ຢາກ
--ຢາກນ
--ຣ
--ຣະ
--ຣະທ
--ຣະພ
--ຣະສ
--ຣະອ
--ຣະເຈ
--ຣາມ
--ຣາວ
--ລ
--ລວງ
--ລວງຫລາຍ
--ລະ
--ລະດ
--ລະບ
--ລະຫວ
--ລາ
--ລາຊ
--ລາຍ
--ລາດ
--ລາວ
--ລາວທ
--ລາວສຕາຣ
--ລຳດ
--ວ
--ວກ
--ວກນ
--ວກເຂ
--ວກເຮ
--ວງ
--ວງຈ
--ວຍ
--ວດ
--ວດຈ
--ວນ
--ວບຄ
--ວມ
--ວມເອ
--ວະ
--ວະດ
--ວາ
--ວາມ
--ວາມຄ
--ວາມຕ
--ວາມທ
--ວາມບ
--ວາມມ
--ວາມສ
--ວາມຮ
--ວາມເປ
--ວຽງຈ
--ສ
--ສນາ
--ສອງ
--ສະ
--ສະກ
--ສະວ
--ສະຫວ
--ສະຫະລ
--ສາ
--ສາກ
--ສາພ
--ສຳ
--ສຳຄ
--ສຳລ
--ຫ
--ຫຍ
--ຫນ
--ຫມ
--ຫລ
--ຫວ
--ຫາວ
--ອ
--ອກ
--ອກຕ
--ອກໄປ
--ອງ
--ອງຂ
--ອງຄ
--ອງຕ
--ອງທ
--ອງບ
--ອງຜ
--ອງຫ
--ອຍ
--ອຍເຖ
--ອດ
--ອດຄ
--ອນ
--ອນທ
--ອນວ
--ອບ
--ອບຄ
--ອບດ
--ອບທ
--ອບສ
--ອບຮ
--ອຟຕ
--ອມ
--ອອກ
--ອະທ
--ອະນ
--ອາຊ
--ອາຍ
--ອາວ
--ຮ
--ຯ
--ະ
--ະກ
--ະກວດ
--ະຂ
--ະຄ
--ະຄອນຫ
--ະງ
--ະຈ
--ະຊ
--ະຊວງ
--ະຊວງສ
--ະຊາກອນ
--ະຊາຊ
--ະຍ
--ະດ
--ະຕ
--ະຕະວ
--ະຕາບ
--ະຕຳໜ
--ະຖ
--ະຖານ
--ະຖາບ
--ະຖາປ
--ະທ
--ະທາງລ
--ະນ
--ະນະ
--ະນະທ
--ະນະນ
--ະນະບ
--ະນາ
--ະນາຄ
--ະນາຄານ
--ະບ
--ະບາດສ
--ະປ
--ະຜ
--ະພ
--ະພາແຫ
--ະມ
--ະມະນາຄ
--ະມາຄ
--ະມາຊ
--ະມານ
--ະຢ
--ະຣ
--ະລ
--ະວ
--ະວາຍ
--ະສ
--ະຫ
--ະຫງ
--ະຫຍາຍຕ
--ະຫຍາມ
--ະຫນ
--ະຫມ
--ະຫວ
--ະຫະພ
--ະຫະພາບເອ
--ະຫະລ
--ະຫານ
--ະຫາວ
--ະອ
--ະອາດ
--ະຮ
--ະເຂ
--ະເຈ
--ະເຊ
--ະເດ
--ະເຕ
--ະເທດ
--ະເທດຈ
--ະເທດຊາດ
--ະເທດທ
--ະເທດລາວ
--ະເທດອ
--ະເທດໄທ
--ະເບ
--ະເປ
--ະເມ
--ະເລ
--ະເວ
--ະເສ
--ະເສດ
--ະເຫ
--ະເຫສ
--ະເໜ
--ະແກ
--ະແດງ
--ະແດງທ
--ະແມ
--ະແລ
--ະແສ
--ະແຫ
--ະໃຫ
--ະໄດ
--ະໄໝກ
--ະໄໝນ
--ະໜ
--ະໝ
--າ
--າກ
--າກຈ
--າກທ
--າກຝ
--າກພ
--າກລ
--າກສ
--າກາດ
--າກເໜ
--າກໃຕ
--າຄ
--າງ
--າງກອກ
--າງການເມ
--າງຂ
--າງຄ
--າງຈ
--າງຊ
--າງດ
--າງທ
--າງນາ
--າງບ
--າງມ
--າງລ
--າງວ
--າງສ
--າງຫ
--າງອ
--າງໃຕ
--າຈ
--າຊ
--າຊະຊ
--າຊະດຳຣ
--າຊະບ
--າຊະພ
--າຊະວ
--າຊະສ
--າຊາ
--າຊາທ
--າຍ
--າຍດ
--າຍນ
--າຍພ
--າຍຮ
--າດ
--າດກ
--າດຂ
--າດຊ
--າດດ
--າດຕ
--າດຕະກ
--າດຖ
--າດທ
--າດນ
--າດບ
--າດປ
--າດມ
--າດວ
--າດສ
--າດເຈ
--າດເປ
--າດເຫ
--າດເອ
--າດເຮ
--າດແບ
--າດແຫ
--າຕ
--າທ
--າທສ
--າທາລະນະລ
--ານ
--ານກ
--ານຂ
--ານຄ
--ານຈ
--ານຍ
--ານດຳເນ
--ານຕ
--ານທ
--ານບ
--ານປ
--ານປະເທດ
--ານຜະລ
--ານພ
--ານລ
--ານວ
--ານສ
--ານອ
--ານຮ
--ານາ
--ານາຈ
--ານາທ
--ານເງ
--ານແຂ
--ານແພດ
--ານແລ
--ານໃຊ
--ານໄຊ
--າບ
--າບກ
--າບສ
--າປ
--າພ
--າຟຣ
--າມ
--າມດ
--າມທ
--າມວ
--າມສ
--າມຫ
--າຣ
--າລ
--າລະນະ
--າລາ
--າລາຮ
--າວ
--າວຈ
--າວບ
--າວພ
--າວລາວ
--າວອ
--າສ
--າສນາອ
--າສະໜາ
--າສາ
--າສາປາລ
--າສາຝະລ
--າສາອ
--າຫ
--າອ
--າຮ
--າະ
--າະທ
--າະນ
--າະມ
--າະວ
--າະສ
--າະແກ
--າເທດ
--າເມຣ
--າເມລ
--າເວ
--າໄທ
--າໄສຢ
--າໆ
--າໜ
--ຳ
--ຳກ
--ຳຄ
--ຳຈ
--ຳຕ
--ຳທ
--ຳນ
--ຳນວນ
--ຳນານ
--ຳບ
--ຳປ
--ຳຜ
--ຳພ
--ຳມະຊາດ
--ຳມາສຳພ
--ຳຣ
--ຳຣະຈ
--ຳລ
--ຳວ
--ຳສ
--ຳຫ
--ຳອ
--ຳຮ
--ຳເນ
--ຳເປ
--ຳເພ
--ຳເລ
--ຳເອ
--ຳແໜ
--ຳໃຊ
--ຳໜ
--ຽ
--ຽກ
--ຽກລ
--ຽກຮ
--ຽງ
--ຽງຈ
--ຽງວ
--ຽດ
--ຽດຕ
--ຽນ
--ຽບ
--ຽມ
--ຽວ
--ຽວກ
--ເກ
--ເຂ
--ເຂດ
--ເຂດອ
--ເຄ
--ເງ
--ເຈ
--ເຊ
--ເຍ
--ເດ
--ເຕ
--ເຖ
--ເທ
--ເນ
--ເບ
--ເປ
--ເຜ
--ເຝ
--ເພ
--ເພດ
--ເມ
--ເຢ
--ເຢຍລະມ
--ເຣ
--ເລ
--ເວ
--ເວທ
--ເສ
--ເສດຖະກ
--ເສນ
--ເຫ
--ເອ
--ເອເລ
--ເຮ
--ເໜ
--ເໝ
--ແກ
--ແຂ
--ແຂວງ
--ແຄ
--ແຈ
--ແຊ
--ແດ
--ແດນ
--ແຕ
--ແທ
--ແບ
--ແບບ
--ແບບລ
--ແປ
--ແຜ
--ແພ
--ແພດ
--ແມ
--ແລ
--ແລະ
--ແລະພ
--ແລະສ
--ແວ
--ແສ
--ແຫ
--ແອສະປາຍ
--ແຮ
--ໂກ
--ໂຍນ
--ໂດ
--ໂດຍ
--ໂຕ
--ໂທ
--ໂນເສ
--ໂປ
--ໂພ
--ໂລ
--ໂລກ
--ໂຫວດ
--ໂອ
--ໂຮ
--ໂໜ
--ໃກ
--ໃຈ
--ໃຊ
--ໃດ
--ໃດໜ
--ໃຕ
--ໃນ
--ໃນກ
--ໃນຊ
--ໃນທ
--ໃນປ
--ໃນສະໄໝນ
--ໃນອ
--ໃວ
--ໃສ
--ໃຫ
--ໃຫຍ
--ໃໝ
--ໄກ
--ໄຂ
--ໄຂມ
--ໄຊ
--ໄດ
--ໄຕ
--ໄທ
--ໄທມ
--ໄບຊານ
--ໄປ
--ໄປຕ
--ໄຟ
--ໄມ
--ໄລ
--ໄວ
--ໄວຣ
--ໄສ
--ໄຫ
--ໄຫວ
--ໄຮ
--ໄໝ
--ໆ
--ໆກ
--໐
--໒
--໔
--໕
--໖
--໗
--໘
--໙
--ໜ
--ໜາ
--ໝ
