!
"
#
##0
##1
##10
##11
##12
##13
##14
##15
##16
##17
##18
##19
##2
##20
##21
##22
##23
##24
##25
##26
##27
##28
##29
##3
##30
##31
##32
##33
##34
##35
##36
##37
##38
##39
##4
##40
##41
##42
##43
##44
##45
##46
##47
##48
##49
##5
##50
##51
##52
##53
##54
##55
##56
##57
##58
##59
##6
##60
##61
##62
##63
##64
##65
##66
##67
##68
##69
##7
##70
##71
##72
##73
##74
##75
##76
##77
##78
##79
##8
##80
##81
##82
##83
##84
##85
##86
##87
##88
##89
##9
##90
##91
##92
##93
##94
##95
##96
##97
##98
##99
$
%
&
'
(
)
*
+
,
-
.
/
0
00
000
0000
001
003
004
005
007
008
01
012
016
018
02
020
021
024
025
029
03
030
031
032
034
037
04
040
041
044
045
05
06
060
067
07
075
08
080
083
085
09
090
1
10
100
1000
101
102
103
104
105
1059219
106
1066
107
108
1080
109
11
110
111
112
113
114
115
116
117
118
119
12
120
1200
121
122
123
124
125
126
127
128
129
13
130
1300
131
132
133
134
135
1353
136
137
1371
138
139
14
140
1400
141
1417
142
1428
143
1438
144
145
146
147
148
1480
1485
149
1495
15
150
1500
152
1520
153
154
1540
1548
155
1550
156
1560
1566
157
1570
1571
158
1583
159
16
160
1600
161
162
163
1631
1641
1642
1647
165
166
1666
1668
167
1672
168
169
1695
1698
17
170
1700
1707
171
1713
172
173
1734
1737
174
175
1750
176
1760
1766
1767
1768
1769
177
1770
1771
1773
1774
1776
1779
178
1781
1782
179
1791
18
180
1800
1801
1803
1804
1806
181
1815
1817
182
1821
1822
1826
1827
1828
183
1830
1839
184
1840
1842
1843
1847
1848
1849
185
1850
1851
1852
1853
1856
186
1860
1861
1863
1864
1865
1866
1867
1868
1869
187
1871
1873
1875
1876
1877
1878
188
1880
1885
1887
1888
1889
189
1890
1892
1893
1894
1895
1896
1897
1898
1899
19
190
1900
1901
1902
1903
1904
1905
1906
1907
1908
1909
191
1910
1911
1912
1913
1914
1915
1916
1917
1918
1919
192
1920
1921
1922
1923
1924
1925
1926
1927
1928
1929
193
1930
1931
1932
1933
1934
1935
1936
1937
1938
1939
194
1940
1941
1942
1943
1944
1945
1946
1947
1948
1949
195
1950
1951
1952
1953
1954
1955
1956
1957
1958
1959
196
1960
1961
1962
1963
1964
1965
1966
1967
1968
1969
197
1970
1971
1972
1973
1974
1975
1976
1977
1978
1979
198
1980
1981
1982
1983
1984
1985
1986
1987
1988
1989
199
1990
1991
1992
1993
1994
1995
1996
1997
1998
1999
2
20
200
2000
2001
2002
2003
2004
2005
2006
2007
2008
2009
201
2010
2011
2012
2013
2014
2015
2016
2017
2018
2019
202
2020
2021
2022
2023
203
2030
204
205
206
207
208
209
21
210
2100
2101
211
212
2127
213
214
215
216
217
218
219
22
220
221
222
223
224
225
226
227
228
229
23
230
231
2310
232
2325
233
234
235
236
237
238
239
2395
24
240
2411
242
2421
2422
2423
2428
243
2430
2435
2436
244
2440
2445
2447
2448
245
2450
2453
2456
2457
246
2460
2462
2463
2464
2467
2468
2469
2470
2471
2472
2473
2474
2475
2476
2477
2478
248
2481
2483
2484
2485
2486
2488
249
2491
2492
2495
25
250
2500
2501
2502
2504
2506
2507
2508
251
2510
2512
2513
2516
2517
2518
2519
252
2520
2521
2522
2523
2524
2525
2526
2527
2528
2529
253
2530
2531
2532
2533
2534
2535
2536
2537
2538
2539
254
2540
2541
2542
2543
2544
2545
2546
2547
2548
2549
255
2550
2551
2552
2553
2554
2555
2556
2557
2558
2559
256
2560
2561
2562
2563
2564
257
258
259
26
260
261
262
264
265
266
267
268
269
27
270
271
272
273
274
275
279
28
280
285
286
287
29
290
291
292
296
298
299
3
30
300
3000
301
302
305
307
3075
308
31
310
312
313
314
315
316
3166
318
32
320
321
322
323
324
325
326
327
328
329
33
330
331
333
338
339
34
340
341
342
345
347
349
35
350
351
352
353
354
358
359
36
360
363
365
366
37
370
3701
371
372
373
374
375
376
377
38
380
385
386
387
389
39
390
395
4
40
400
4000
401
402
41
410
412
415
417
418
419
42
420
421
4217
425
427
43
435
438
439
44
440
446
45
450
451
453
456
46
460
461
47
470
471
472
48
480
486
49
499
5
50
500
5000
501
504
507
51
510
513
514
52
520
521
523
524
526
53
530
54
541
544
547
55
550
554
56
560
567
57
576
578
58
580
585
59
596
6
60
600
601
604
61
613
615
616
618
62
622
624
63
639
64
640
641
648
65
650
658
66
660
663
67
670
671
674
675
68
680
684
685
69
691
7
70
700
71
715
72
720
727
73
737
74
75
750
76
760
77
774
78
79
795
8
80
800
8000
808
81
811
82
827
83
84
840
848
85
850
856
86
860
87
88
883
89
89148
9
90
900
91
910
914
92
920
93
94
95
96
962
964
969
97
970
974
978
98
99
990
993
995
998
999
:
;
<
=
>
?
@
\
^
_
`
a
aa
ab
abboud
abbreviated
abbreviation
abbreviations
abc
abel
abelian
ability
able
ablon
abolished
about
aboutus
above
abovestyle
abroad
absence
absolute
absolutely
abstain
abstract
ac
academia
academic
academy
accept
acceptable
accepted
accepts
access
accessdate
accessed
accessible
accesskey
accident
accordance
according
accordingly
account
accounting
accounts
accusations
accused
acer
achievement
acid
acknowledgements
acoustic
acre
across
act
acting
action
actions
activate
active
activist
activities
activity
actor
actress
acts
actual
actually
ad
adam
adams
adb
add
adda
added
adding
addition
additional
address
addresses
adds
adige
adjacent
admin
administration
administrative
administrators
admins
adriatic
adult
advance
advanced
advantage
advantages
advent
advertising
aerospace
af
affairs
affect
affected
affiliate
affiliates
afghanistan
aforementioned
africa
african
aft
after
ag
again
against
age
agencies
agency
agenda
ages
aggregate
agi
ago
agreement
agricultural
agriculture
agroecology
aguirre
ah
ahead
ai
aid
aids
ailurus
aim
air
airbus
aircraft
airlines
airport
airways
ais
aj
ak
al
alan
albanian
albert
alberto
album
alexander
alexandra
alfred
algebra
algebraic
algol
algorithm
algorithms
aliases
align
alignment
alive
all
allen
alliance
allow
allowed
allowing
allows
almanac
almighty
almost
along
alongside
alpha
alpine
alps
already
also
alt
alternate
alternating
alternative
alternatively
although
altitude
always
am
amateur
amazon
ambassador
ambassadors
ame
america
american
americana
amish
among
amount
amsterdam
amy
amz
an
analysis
analytic
analytical
analyzed
anatomy
ancient
and
anderson
andre
andrea
andress
andrew
android
ang
angel
angela
angeles
angkor
angle
angles
anglican
anglo
animal
animanga
animation
anime
ann
anna
anne
annette
anniversary
anno
annotations
announce
announced
announcement
announcing
annual
annually
anonymous
another
answer
answers
anthem
anthony
anthropology
anti
antonio
any
anymore
anyone
anything
aoa
aonyx
aou
apache
apalachicola
apart
apiluck
apocalypse
apollo
apologies
apologize
apparent
appeal
appealing
appear
appearance
appearing
appears
append
apple
applicable
application
applications
applied
applies
apply
appointed
appreciate
appreciated
approach
appropriate
approval
approved
approximation
approximations
apps
apr
april
ar
arab
arabic
aramaic
arbitrary
arbor
arc
arcanello
arch
archaeology
archimedes
architect
architectural
architecture
archive
archived
archivedate
archives
archiveurl
arctic
arctictis
arctogalidia
arctonyx
ard
are
area
areas
aren
argentina
args
argsk
argued
argument
arguments
arielulus
arithmetic
arizona
armenia
arms
armstrong
army
arnee
around
array
arrested
arrival
ars
arsenopyrite
art
arthur
article
articles
artificial
artist
artists
arts
as
asean
aselliscus
ashley
asi
asia
asian
asie
asintld
ask
asked
aspects
assembly
assert
assessment
assistance
associated
association
assumed
assuming
ast
asteroid
asteroids
astrazeneca
astronomy
astrophysics
asylum
asymptotic
at
atari
atheism
athletes
athletic
athletics
atlantic
atlas
atoll
atom
atome
atomic
atr
attack
attacked
attempt
attempted
attend
attention
attitudes
attract
attributed
au
audience
audio
auger
august
auguste
aung
australia
australian
austria
austrian
author
authorities
authority
authors
auto
autocollapse
automated
automatic
automatically
available
aviation
avoid
avoided
aw
award
awards
aware
away
ax
azoma
azov
b
ba
baby
bach
back
background
backs
bad
badger
badoux
bahasa
baht
baker
balance
bali
ball
ballon
baltic
baltimore
ban
banach
band
bandeaukini
bands
bang
bangkok
bangladesh
bank
bankk
banks
banned
banner
bans
bao
baptism
bar
barbier
barcelona
bardot
bare
baring
barnes
barrios
bars
barzaar
base
based
baseline
basements
basic
basin
bat
bathing
batirama
batteries
battery
battle
bauzeitung
bay
bayern
bazaar
bazbaz
bb
bbc
bbibp
bc
be
beach
beachwear
beam
bear
bearing
beast
beauties
beautiful
beauty
bec
became
because
beckenbauer
become
becomes
becoming
bedrock
been
beer
bef
before
began
begin
beginners
beginning
begins
begun
behalf
behaves
behavior
behavioral
behind
beijing
being
beings
belarus
belgium
beliefs
believe
believed
believes
belize
bell
bellied
belong
belonged
belongs
below
belowstyle
ben
beneath
benefit
bengalensis
benjamin
bensimon
bent
berdmorei
bergeron
berkeley
berlin
bernard
bernardini
bernoulli
berylmys
bessel
best
beta
better
between
beyond
bg
bgn
bi
bia
bible
biblical
bibliography
biden
bie
bieber
big
bigl
bigr
bikini
bikinis
bill
billboard
billion
billy
bin
binding
binturong
biochemical
biochemistry
biodiversity
biography
biological
biology
biometric
biometrics
biontech
bird
birth
birthday
bishop
bishops
bissell
bit
bitcoin
bj
black
blackwell
blaikie
blanc
blank
blatter
block
blocked
blocks
blog
blogger
blogs
blogspot
bloomsbury
blue
blues
bmatrix
bn
bo
board
bodies
body
bodybuilders
bodybuilding
bodystyle
boeing
bogdan
bois
bold
bolikhamxay
bolivia
bolivian
bond
bonds
book
books
boom
bootsfahrt
boracay
border
bormida
born
bos
bosnia
boston
bot
both
bots
bottom
bottoms
boulder
boundary
bounded
box
boxes
boy
boyd
boyda
boydd
boys
boyy
boyz
bp
bra
brackets
brahma
branch
branches
brand
brands
bras
brazil
brazilian
break
breaking
breaks
breeds
brian
brick
bridge
bridgewater
brief
briefs
brighter
brigitte
bring
bringing
brings
britain
britannica
british
brl
broadcast
broadcasting
broken
bromley
brother
brothers
brought
brown
browser
browsers
bruce
brunswick
bryant
bsd
bst
bts
bu
bubalus
bucharest
buddha
buddhism
buddhist
buffalo
bug
build
building
buildings
built
bulgaria
bulgarian
bulleted
bulletin
bureau
bureaucrat
burger
burial
burma
burmese
bush
business
but
butterfly
buttocks
button
buttons
bw
bx
by
c
ca
cabinet
cable
cache
cadastre
cafe
calculated
calculus
calendar
california
call
called
calling
callosciurus
calls
calo
calq
cambodia
cambridge
came
camera
cameroon
camp
campaign
campaigns
campus
can
canada
canadian
candidate
candidates
canis
cannes
cannot
canon
canterbury
cantilever
cantilevered
canyon
cap
capacity
cape
capita
capital
caption
carbohydrates
card
cards
care
career
caribbean
carl
carlo
carlos
carmine
carol
carpenter
carried
carry
cartography
case
cases
casey
cash
casimiro
cast
cat
catalan
catalana
catalog
catalonia
catalunya
catan
categories
categorization
category
cathcart
cathedral
catherine
cathode
catholic
catmore
catopuma
cats
cattle
catwalk
caucasian
cauchy
caught
cause
caused
causes
causing
caylee
cbs
cbt
cc
ccccff
cctld
cd
cdf
cdma
cdot
cdots
ce
celebrated
celebration
cell
cells
census
center
centered
centering
centers
central
centre
centuries
century
ceo
certain
certainly
cervus
ces
cesa
cetacea
ceylon
cf
cfg
cfr
ch
cha
chaerephon
chain
chains
chairman
challenge
challenges
chamber
champa
champions
championship
chan
chance
chang
change
changed
changes
changing
channel
channels
chao
chaos
chaplin
chapter
chapterlink
chapterurl
char
character
characters
charge
charity
charles
charlie
charter
che
chec
check
checker
checks
chelsea
chemical
chemistry
cher
chevron
chi
chiang
chicago
chief
child
childhood
children
childrens
chile
chilean
chimarrogale
china
chinese
cho
choice
cholesterol
choose
chos
chosen
chris
christ
christian
christianity
christians
christine
christmas
christopher
chromosome
chromosomes
chronicle
chrotogale
chu
church
churches
churchill
cia
cif
cinderella
cindy
cinema
circuit
circumstances
citation
citationclass
citations
cited
citing
citoid
city
civet
civil
ck
clad
claim
claimed
claims
clara
class
classes
classic
classical
classification
claude
claudia
clean
clear
clearly
click
clicking
climate
clinical
clinton
clio
clock
close
closed
closing
clothes
clothing
cloud
clt
club
clyde
cm
cnn
co
coal
coast
coastal
coat
coauthors
cochineal
code
codes
coding
coefficients
coelops
coffee
cognitive
cohen
coins
coise
col
cole
colin
collaboration
collaborative
collapse
collapsed
collect
collected
collection
collections
college
colombia
color
colorado
colors
colour
columbia
column
columns
com
combinatorics
combine
combined
come
comedy
comes
comfort
comfortable
coming
command
commas
comment
commentator
comments
commercial
commission
commitment
committee
commodification
common
commonly
commons
commonwealth
communicate
communication
communications
communist
communities
community
comp
compact
compaction
companion
company
comparative
compare
compared
comparison
compass
compatibility
competition
compiled
complementary
complete
completed
completely
complex
complexity
components
composed
composite
composition
comprehensive
compression
compton
computation
computational
computer
computing
comune
concat
concept
concepts
conceptual
concern
concerned
concerning
concerns
concert
concession
concise
concluded
conclusion
conclusions
concrete
condita
condition
conditionally
conditions
conduct
conducted
conducting
conference
conferenceurl
config
configuration
confirm
confirmed
conflict
conflicts
confused
confusion
congo
congress
connect
connected
connelly
consequences
conservation
conservative
consider
considerable
considerations
considered
considering
consist
consistency
consistent
consisting
consists
consolidation
consonants
consort
consortium
constant
constitution
constitutional
constructed
construction
consultation
consultations
consumer
consumption
contact
contain
containing
contains
contemporary
content
contents
contest
contestants
contests
context
continental
continents
continue
continued
continues
continuity
contract
contribute
contributing
contribution
contributions
contributors
control
convenience
convention
converge
convergence
convergent
converges
conversation
conversations
converse
conversion
cook
cookie
cookies
cool
cooper
cooperation
coordinates
coordination
cop
copa
copied
copies
copy
copying
copyright
core
cornell
coronavirus
corporate
corporation
corps
corpus
correct
correctly
correspondence
correspondent
corresponding
corresponds
corridor
corv
cos
cosine
cosines
cosmetics
cosmopolitan
cost
costs
costume
costumes
cot
cotton
could
coulomb
council
count
countable
counting
countries
country
county
course
court
cov
cover
coverage
covered
covering
covers
covid
cox
cr
craig
crash
crazy
cre
create
created
creates
creating
creation
creative
creator
credit
creek
crime
crimea
crimes
criminal
crisis
criteria
critical
criticism
croatia
crocidura
cropped
cross
crossing
crotch
crown
crt
crush
cruz
cryptography
crystal
cs
csd
css
cth
ctrl
cu
cuisine
cult
cultural
culture
cultures
cung
cuon
cup
cur
curly
currency
current
currently
custom
customers
customs
cut
cute
cutting
cx
cybernetics
cycle
cynopterus
cyprus
cyril
czech
d
da
dacnomys
dad
dai
daily
dakin
dalbergia
dallas
dam
dame
dams
dan
dana
dance
dancers
dances
dancing
dangerous
daniel
danube
dap
dasa
data
database
databases
date
dated
dates
daughter
david
davidson
davies
davison
daw
day
days
db
dc
dd
dddddd
ddddff
de
dead
deadline
deadurl
deaf
deal
dear
death
debate
debt
debug
debut
dec
decade
december
decency
decided
decimal
decision
decisions
declaration
declared
decorative
dedicated
dedications
deep
deer
default
defaults
defense
define
defined
definition
definitions
degree
degrees
dei
deimos
del
delaware
delay
delete
deleted
deletion
delhi
delivered
delivery
dell
della
delta
dem
demand
demo
democracy
democratic
demonstrated
demonte
den
denise
denmark
denny
denoted
density
denver
department
depending
depends
depicted
deployed
deployment
deployments
deprecated
depression
depth
deputy
der
derived
des
desc
describe
described
describing
description
descriptions
descriptive
design
designate
designated
designed
designers
designing
designs
desirable
desired
desktop
despite
det
detail
detailed
details
detector
determine
determined
deutsche
deutsches
deutschland
develop
developed
developer
developers
developing
development
developmental
device
devices
devil
df
dfg
dhamma
di
dia
dialect
dialects
dialog
diameter
diana
dicerorhinus
dictator
dictionary
did
didn
die
died
dies
diesel
diff
differ
difference
differences
different
differential
difficult
diffs
digital
dimensional
dinar
dinh
dini
dinosaur
dinosaurs
diode
dirac
direct
directed
direction
directions
directly
director
directory
dirichlet
disable
disabled
disambiguation
disappearance
disaster
disc
discipline
disclaimers
discouraged
discovered
discovery
discuss
discussed
discussion
discussions
disease
disk
disney
display
displayed
displaying
displays
dispute
disputed
disruption
distance
distinct
distribute
distributed
distribution
district
districts
ditions
div
divergent
diverges
diverse
diversity
divided
division
diya
dj
dk
dlya
dna
do
doc
document
documentation
documented
documents
does
doesn
doha
doi
doibroken
doing
dollar
domain
dome
domestic
domini
don
donald
donbas
done
donetsk
dong
doomsday
dopa
dora
dos
dot
double
douglas
dove
down
downstream
dr
draft
drafting
drafts
draghi
dragon
drainage
drama
drawing
draws
dream
dress
drew
drilled
drink
drive
driven
drop
druzhba
druzhby
dry
dst
du
dubois
due
duke
dunn
duplicate
dupont
during
dust
dutch
dwarf
dx
dynamic
dynamics
dynasty
e
each
eagle
eared
earl
earlier
early
earth
earthquake
earthworks
easier
easily
east
easter
eastern
easting
easy
eat
eba
ebolavirus
echolink
ecological
ecology
econometrics
economic
economics
economist
economy
ecotim
ecuador
ed
edenfield
edgar
edge
edinburgh
edit
edited
editing
edition
editions
editor
editors
edits
eds
edu
education
educational
edward
ee
effect
effective
effects
efficient
effort
eg
egat
egerton
egypt
eiffel
eight
either
ekminarin
el
elect
election
elections
electoral
electric
electricity
electronic
electronics
element
elementary
elements
elevation
eleventh
eligibility
eligible
eliminated
elite
elitre
elizabeth
else
elseif
em
email
emancipation
embassy
embed
embedded
embedding
emergency
emily
emirates
emperor
empire
empreinte
empty
en
enable
enabled
enabling
enclose
enclosed
encode
encourage
encouraged
encyclopaedia
encyclopedia
encyclopædia
end
endangered
ended
ending
endogenous
endorphine
endorsements
ends
energy
enforce
enforced
enforcement
eng
engage
engagement
engine
engineer
engineering
engineers
england
english
enough
enstib
ensure
enter
entered
entering
enterprise
entertain
entertainment
entire
entities
entitled
entity
entomology
entrepreneurs
entries
entry
environment
environmental
environments
eo
ep
epfl
ephemeral
equal
equality
equilibrium
equity
equivalent
er
era
eric
erika
erinaceidae
error
errors
es
escobar
eseap
espan
especially
espn
essay
essays
essence
essential
est
establish
established
establishment
estate
esther
estimate
estimated
estimation
et
etal
etc
ethics
ethnic
ethnography
ethnologue
etl
eu
eudiscopus
euler
eur
eurasian
euro
eurocopter
euronews
europa
europe
european
euroscaptor
ev
eva
evaluate
evaluation
even
evening
evenstyle
event
events
eventually
ever
every
everyone
everything
everywhere
evidence
evil
evolution
evolutionary
evolved
ex
exact
exactly
example
examples
excavation
except
exception
excerpt
exchange
excited
exclusively
executive
exercise
exhaustive
exhibition
exile
exist
existing
exists
expand
expanded
expanding
expansion
expansions
expect
expected
experience
experienced
experiences
experimental
expert
expertise
experts
expiry
explanation
explicitly
exploration
explore
explorer
expo
export
exposed
exposure
express
expressed
expression
extend
extended
extends
extension
extensive
extent
external
externallink
externallinkid
extinct
extra
eye
eyes
f
fa
fabric
fabrics
face
facebook
faced
faces
facilitation
facilitators
facilities
fact
factbook
factor
factors
facts
fai
fail
failure
fair
fairy
faith
fake
fall
falls
false
families
family
famous
fan
fang
fantasy
faq
far
farah
faris
farm
fashion
fashions
fast
father
fauci
favor
favorite
fc
fd
fda
fe
feat
feature
featured
features
featuring
feb
february
fed
federal
federation
feed
feedback
feel
feeling
feet
felidae
felipe
felis
fellow
fellowship
felt
female
feminine
feminism
feminist
fennig
ferna
fernandez
fernando
ferret
fes
festival
festivals
few
fewer
fi
fiction
field
fields
fifa
fifth
figaro
fight
fighter
figure
figures
file
fileexporter
filename
filepath
files
fill
filled
filling
film
films
filter
final
finally
finance
financial
financing
find
fine
finish
finished
finite
finland
finnish
fire
firefox
first
firstchild
fish
fishing
fit
fitness
fitting
fivb
five
fix
fixed
flag
flanker
flankers
flash
flesh
flex
flickr
flight
float
floating
flood
flooded
florence
florida
flow
flowers
flows
fluid
flv
flying
fm
fmt
fob
focus
focused
folder
folk
folklore
follow
followed
followers
following
follows
font
fonts
food
foods
fool
foot
football
footballforfriendship
footed
footings
footnote
footnotes
for
force
forces
fordaq
forecasts
foreign
forensic
forest
forever
forget
form
formal
formally
format
formation
formats
formatted
formatting
formed
former
forming
forms
formula
fort
fortran
forum
forward
fossil
found
foundation
foundations
founded
founder
four
fourier
fourth
fox
fr
frac
frame
frameless
framework
franc
france
francis
francisco
francois
frank
frankfurt
franklin
franz
free
freedom
freely
freestyle
french
frequently
fresh
friction
friday
friend
friendly
friends
friendship
frigidolfo
friuli
from
front
frost
fruit
ft
fu
fulcrum
full
fully
fulvus
function
functional
functionality
functions
fund
fundamental
funded
funding
funds
fune
further
furthermore
futbol
futbola
future
futures
fuzzy
g
ga
gabriel
gabrielle
gadgets
galaxy
gallery
galveston
game
games
gamma
gandhi
gang
gap
garden
gardens
garments
gary
gate
gateway
gathering
gaudiya
gauss
gave
gay
gazprom
gazproms
gb
gdp
ge
gebara
gedney
gen
gender
gene
general
generally
generate
generated
generates
generating
generation
generic
genes
genetic
genetics
genome
genre
genres
genus
geo
geocaching
geograph
geographic
geographical
geography
geohash
geological
geologist
geology
geometric
geometry
georg
george
georgia
georgian
geotechnical
gerhard
german
germany
get
getelementbyid
gets
getting
gfdl
ghz
gia
giant
gif
gifted
gilbert
gini
gippert
girl
girls
giulia
give
given
gives
giving
gje
gl
global
globalsecurity
globe
glossary
gmail
gmm
gmt
gnu
go
goal
goals
goats
god
goes
going
goju
gold
golden
goldman
gone
gonzalez
good
goods
google
gordon
gospel
goswami
got
gov
governance
government
governmental
govpubs
gown
gp
gpl
grace
grade
gradually
graduate
grammar
grammy
grand
grande
grant
granted
granting
grants
graph
graphic
gravity
gray
great
greater
greatest
greece
greek
green
greenland
greenpeace
greetings
gregory
grid
gross
grosse
ground
group
groupn
groups
groupstyle
grow
growing
grown
growth
grp
gsub
gth
gu
guarantee
guardian
guest
guiana
guidance
guide
guidelines
guinea
guinness
guitar
gulf
gunn
guo
gurg
guru
gutenberg
guy
gym
gymnase
h
ha
had
hague
hair
hairy
half
hall
hammer
hammers
hand
handbook
handle
handler
handling
hanoi
hapalomys
happen
happens
happy
harassment
hard
hardware
hare
haringey
harlequin
harmonic
harold
harper
harpercollins
harpiocephalus
harris
harry
harvard
has
hasclass
hausdorff
have
haven
having
hawaii
hcards
hd
hdi
he
head
header
headers
heading
headline
health
hear
heard
hearing
heart
heat
heath
heavy
hebrew
hecht
heels
height
heim
heinrich
heir
helarctos
held
helen
helicopter
helicopters
hell
hello
help
helped
helpful
helping
helps
henan
hence
henri
henry
her
herb
herbert
here
heritage
hero
heron
herpestes
herzegovina
hes
hesperoptenus
hey
hi
hidden
hide
high
higher
highlight
highlighted
highlighting
highly
hill
him
himself
hin
hinayana
hindu
hinduism
hip
hipkini
hipposideros
hips
his
histoire
histology
historia
historic
historical
historically
histories
history
hit
ho
hoa
hog
hold
holder
holders
holds
hole
holland
holly
hollywood
holy
home
honduras
honey
hong
honorific
hoover
hop
hope
hopes
hopkins
horizontal
hors
horseshoe
hoshino
host
hosted
hosting
hot
hou
houghton
hour
hours
house
household
houses
how
howard
however
hp
hr
htm
html
http
https
htv
hu
hub
hubs
hudak
huffman
hughes
human
humanistic
humanities
humans
hungry
hunter
hunting
hybrid
hydraulic
hydro
hydroelectric
hyelaphus
hygiene
hylobates
hylomys
hylopetes
hype
hypergeometric
hypotenuse
hypothetical
hypsugo
hz
i
ia
ian
iberia
ibm
icade
iceland
icon
iconic
icons
ictc
id
idea
idealism
ideas
identical
identified
identify
identity
idiap
ids
ie
ieee
if
iff
ign
ignored
ignoreisbn
ii
iii
ijm
il
ill
illustrated
ils
im
imac
image
imageleft
images
imagination
imagine
imf
immediately
immunology
impact
impacts
imperial
implementation
implemented
implies
import
importance
important
imported
impossible
improve
improved
improvement
improvements
improving
in
inactive
inappropriate
inarray
inc
incarnate
include
included
includes
including
inclusion
inclusive
income
incomplete
inconsistencies
incorporate
incorporates
incoterms
increase
increased
increases
increasing
increasingly
incumbent
indeed
indent
independence
independent
index
indexed
indexnavigationbar
india
indian
indica
indicate
indices
indicus
individual
individuals
indochine
indonesia
indonesian
industrial
industries
industry
infectious
infinite
influence
influenced
info
infoboks
infobox
infoboxes
inform
informatics
information
informed
infrared
infrastructure
infty
inherit
inherited
initial
initially
initiative
inline
innovation
input
insert
inserted
inset
inside
inspired
instagram
installation
installed
instance
instead
institut
institute
institution
institutions
instructional
instructions
instrument
int
intcontentid
integral
integrated
integration
intel
intelligence
intend
intended
inter
interact
interaction
interactions
interactive
intercontinental
interest
interested
interface
interior
intermediate
internal
international
internet
interpretation
interview
interviews
interwiki
interwikitmp
into
introduced
introduction
introvigne
invalid
invariant
inverse
inverted
investigated
investigation
investment
invisible
invitation
invite
invited
involved
involving
io
ionian
ions
ip
ipa
ipad
ipairs
ipcc
iphone
ipo
ipod
iprage
iran
iranian
iraq
ire
ireland
irish
iron
irons
is
isbn
isis
islamic
island
islands
isle
iso
israel
israeli
issn
issue
issued
issues
ist
istanbul
it
italian
italic
italics
italy
item
items
iteration
its
itself
itu
itunes
iucn
iv
ivan
ive
ix
j
ja
jack
jackie
jacob
jacques
james
jamie
jan
jane
january
japan
japanese
java
javanicus
javascript
jazz
jean
jeanne
jeans
jefferson
jennifer
jersey
jerusalem
jesus
jet
jewelry
jewish
jg
jim
jimmy
jin
jo
joaqui
job
jobs
joe
johann
johanna
john
johns
johnson
join
joined
joining
joint
jointly
joker
jonas
jonathan
jones
jose
josep
joseph
jost
journal
journals
joy
jpeg
jpg
jquery
jr
js
jst
jstor
juan
julia
julian
julius
july
jump
june
junior
just
justice
justin
k
ka
kaa
kabbalah
kang
kanlagna
karl
kashgar
kategori
kazakhstan
kb
ke
keep
keeping
keith
kelly
kennedy
kenneth
kenya
kenyon
kept
kerala
kerivoula
kernel
kerry
kevin
key
keyboard
keys
kg
kham
khamhoung
khan
khmer
kho
khotan
khwaeng
khz
ki
kid
kidnapping
kids
kiitdoo
killed
killer
killoren
kilometers
kim
kimberly
kimura
kind
king
kingdom
kingdoms
kiss
kitchen
klaus
klein
km
know
knowledge
known
ko
kong
kootenay
korea
korean
koruna
kou
kourou
krav
krepkaja
krishna
kuei
kumara
kummer
kuro
ky
kyi
kyiv
l
la
lab
label
labeled
labels
labor
laboratory
lack
ladies
lady
lak
lake
lambda
lambert
lan
land
landscape
landscapes
lang
language
languages
lanka
lanna
lao
laos
laotian
large
larger
largest
larry
las
last
lastauthoramp
late
later
lateral
latest
latex
latin
latitude
latns
latter
lattice
launch
launched
laurent
lausanne
law
laws
lay
layal
laydate
layer
layers
layout
laysource
layurl
lb
lc
le
lead
leader
leaders
leadership
leading
leaf
league
leap
learn
learned
learning
least
leather
leave
lebkuchen
leboisinternational
lecture
led
lee
left
leg
legacy
legal
legend
legendre
legislature
legitimate
lemoniteur
len
length
lengths
lenin
leo
leonard
leone
leonhard
leopard
leopoldamys
les
lesechos
less
lesser
lessons
leste
let
letter
letters
lev
level
levels
lewis
lexicon
lgbt
li
liaison
liberation
liberty
libraries
library
license
liddell
lie
liechtenstein
life
lifestyle
lifteam
liga
light
lightcurve
lighting
lightning
lights
lignomad
like
likely
lil
lim
limit
limitations
limited
limits
lin
linda
line
linear
lines
lingerie
linguistic
linguistics
link
linked
linking
links
linux
lionel
lipstick
lisa
lisp
list
listed
listing
listn
lists
liststyle
literary
literature
little
littlefield
live
livelihood
lives
living
lizette
ll
lloyd
lm
ln
lo
loa
load
loaded
loading
loads
local
locally
locate
located
location
locations
lock
lodge
log
logged
logging
logic
login
logo
logos
logout
london
long
longbow
longer
longitude
look
looking
lookruk
looks
loose
lord
lords
lorraine
los
lose
lost
lot
louis
louise
love
loves
low
lowe
lower
lowercase
lowered
lr
lsb
ltd
lts
lu
lua
luang
luc
lucky
ludwig
luhansk
luis
lupus
lutra
lutrogale
luxembourg
luxemburgerli
lyce
lycra
lynn
lyon
m
ma
mac
macaca
macaron
macarons
macedonia
machine
macintosh
maclaurin
macmillan
macroglossus
madame
made
madhava
madhva
madrid
madrigal
maga
magazine
magazines
magic
magnitude
maha
mahayana
mai
mail
mailing
main
mainland
mainly
mainstream
maintain
maintenance
maison
majesty
major
make
makes
making
mal
malayan
malayanus
malaysia
malaysian
male
mali
malpuech
mammals
man
management
manager
managing
manchester
mandarin
mandating
mandatory
mang
manhunt
mania
manina
manis
mankind
manner
mantra
manual
manuel
manufacturers
many
map
maplandia
mapping
maps
mar
marc
marcasite
march
marche
marcus
margin
mari
maria
marie
marina
marine
mario
maritime
mariupol
mark
marked
market
marketing
markets
marking
marks
markup
marlborough
marriage
mars
marshall
mart
martes
martha
martial
martin
marxist
mary
maryland
mask
mason
mass
massachusetts
massimo
master
mastercopy
match
matching
material
materials
mathbb
mathbf
mathematical
mathematics
matrix
matt
matter
matters
matthew
mauer
maurice
mauricio
mavka
max
maximum
maxomys
may
maya
mayan
maybe
mayen
mbox
mc
mcdc
mcdonald
mcdonnell
mcfarland
mcgraw
mcot
me
mean
meaning
means
meant
measure
measures
mechanical
mechanics
medal
media
mediawiki
medical
medicine
medieval
mediterranean
medium
meet
meeting
meetings
meets
megaderma
mekong
melody
melogale
member
members
membership
memoir
memory
men
mention
mentioned
menu
mer
mercury
merge
merged
merkel
mermaid
merriam
message
messages
messi
meta
meteorite
meters
method
methods
metres
metric
metropole
metropolitan
mexico
mhz
mi
mich
michael
michigan
micro
microfinance
microsoft
microwave
mid
middle
midriff
mig
miga
might
mike
milan
mile
miles
military
millennial
millennium
million
mills
min
minarin
mincio
mind
mine
minecraft
mineral
minerva
mines
minh
mini
minimize
minimum
mining
miniopterus
minister
ministry
minnesota
minor
minute
minutes
mirage
mirror
miscellaneous
miss
missing
mission
missionaries
mistake
mister
mit
mitchell
mitigation
mixed
mk
ml
mm
mo
mobile
mode
model
models
modern
modes
modifications
modified
modify
modifying
modula
module
moi
molecular
moment
momo
mon
monaco
monarch
monarchs
monarchy
monday
monetary
money
monferrato
mongolia
moniteur
monitor
monitoring
monkey
monobook
monokini
monsieur
mont
month
monthly
months
montre
moon
moore
moos
moral
more
morley
morocco
morris
morrow
mosaic
moschus
moscow
most
mostly
mother
motion
motor
motto
mount
mountain
mountains
mountbatten
mouse
move
moved
movement
movements
movie
movies
moving
mozilla
mp
mpointmart
mr
mrna
mrs
ms
msg
mu
muang
much
multi
multilingual
multiple
multirole
munich
muntiacus
muntjac
murder
murina
mus
musa
muscles
muse
museum
music
musical
musician
musicians
musicology
muslim
must
mustela
mv
mw
my
mya
myanmar
mylanguage
myotis
mysql
mythology
n
na
nadine
nakai
naked
nam
name
named
namely
names
namespace
namespaces
naming
nancy
nao
napole
napoleon
narcanello
nasa
natalie
nathan
nation
national
nationales
nations
native
natterer
natural
naturally
nature
nav
naval
navarre
navbar
navbox
navchild
navel
navframe
navigate
navigation
navigational
navtoggle
navy
nazi
nd
ndez
ndia
ndp
ne
near
nearest
nearly
nebraska
necessarily
necessary
necessitated
need
needed
needs
negative
nei
neighborhood
neil
neither
nelson
nemorhaedus
neo
neofelis
nepal
neptune
net
netherlands
network
networks
neucha
neuroscience
neutral
nevada
never
new
newcomers
newell
newer
news
newsletter
next
nfrance
ng
nga
ngo
nguye
nguyen
nh
nha
ni
niaid
nice
nicholas
nickelodeon
nicole
night
nih
nikaya
nil
nimbarka
nine
nineteenth
niviventer
nl
nn
nnnnnn
no
noeditsection
noi
nologo
nomascus
nomenclature
nominal
non
none
nor
nordic
normal
normally
norman
north
northeast
northern
northing
northumberland
norway
nosed
not
notable
notation
note
noted
notes
nothing
notice
noticed
notices
notification
notify
notion
notoc
notre
nou
nov
nova
novel
november
now
np
nr
ns
nsdap
nstab
nt
ntpc
nuclear
null
number
numbered
numbering
numbers
numeric
numerical
numerous
nutrition
nx
nycticebus
nylon
nymph
nytimes
nyu
o
oa
obe
object
objective
oblast
obligatory
observatory
observe
observes
obtain
obtained
occasions
occitan
occupation
occupational
occupations
occupied
occur
occurred
ocean
ocinsoutput
oclc
oct
october
odd
oddstyle
odontoceti
oecd
of
off
offer
offered
offering
office
officer
offices
official
officially
officials
offset
offshore
often
ogg
oglio
ohio
oil
ok
okw
ol
old
older
oldest
oliver
olympia
olympic
olympics
om
omega
omicron
omit
omitted
omni
on
once
one
ones
oneworld
online
only
ont
ontario
onto
ontology
opaque
open
opened
opening
openings
openlibrary
opens
opera
operate
operated
operating
operation
operations
operator
ophthalmology
opinions
opportunities
opportunity
oppose
opposed
opposite
optical
option
optional
options
or
oral
orange
orbital
orcaella
orchestra
order
ordered
ordinal
ordinary
org
organic
organisation
organization
organizational
organizations
organize
organized
organizers
organizing
oriental
oriented
origin
original
origink
origins
origyear
orphan
orthodox
os
osgb
oslo
osprey
ost
otase
other
others
otherwise
otter
ottoman
ou
ought
our
out
outline
output
outre
outside
over
overall
override
overruled
overview
owl
own
owned
owner
oxford
oxidation
p
pa
paa
pacific
package
packaged
padam
padding
padetc
padua
page
pageant
pageants
pages
pageviews
paguma
paintings
pair
pairs
pakistan
palace
palaces
palais
paleontology
palestine
palgrave
pali
palimpsest
palm
panda
pang
pangolin
panteo
panthera
panties
pants
panty
paper
papers
papua
par
parade
paradise
paradoxurus
parallel
parameter
parameters
params
pardofelis
paris
park
parker
parkstone
parliament
parliamentary
part
partial
partially
participants
participate
participated
participating
participation
participatory
particles
particular
particularly
parties
partner
partners
parts
party
pascal
pascha
pass
passage
passive
password
past
paste
patent
path
pathology
pathways
patrick
pattern
patterns
paul
paulette
paulson
pavie
pbs
pc
pdf
pdr
pe
peace
pearl
pearson
peck
pedology
pedro
peerage
peerages
peers
peet
peluso
pen
pencil
penetration
penguin
penh
pennsylvania
people
per
percent
perfect
performance
performed
performer
performing
performs
perhaps
period
periodical
periods
perl
permanent
permanently
permeability
permission
permutation
perry
perseus
person
personal
personality
personnel
persons
perspective
perspectives
peru
peseta
peso
peter
petersburg
petit
petroleum
pfizer
ph
pha
phabricator
phase
philip
philippe
philippines
philosophical
philosophy
phnom
phocoena
phone
phonetic
phonetics
phong
phongpraseuth
phoniscus
phonology
photo
photographs
photography
photonics
photos
photosynthesis
photovoltaic
phou
php
phra
phu
phyla
physical
physics
physiology
physique
pi
piano
pick
pictorial
picture
pictures
piece
pieces
pierre
piers
pike
pile
piles
pilot
pipe
pipistrelle
pipistrellus
piscolithax
pistoles
pitch
pixels
pizza
pl
place
placed
placement
places
plain
plan
plane
planet
planets
planned
planning
plans
plant
plasma
plastic
plateau
platform
platforms
play
playboy
played
player
players
playing
plays
please
pleased
plot
plus
pluto
pm
pmatrix
pmid
png
po
pocket
poia
point
points
pointwise
pol
poland
police
policies
policy
polish
political
politics
polymer
polynomials
polytechnique
poolside
poor
pop
pope
popular
population
porosity
port
portal
portrait
portugal
portuguese
posed
posing
position
positions
positive
possible
possibly
post
posted
poster
posts
postscript
pot
potential
pour
poverty
power
powers
pp
ppelberg
ppm
ppp
pprefix
pptv
pr
prabang
practical
practice
practices
prag
pre
preamble
precast
predecessor
predefinic
predloga
prefer
preferable
preferably
preferences
preferred
prefix
preliminary
preload
premier
prentice
prepare
presence
present
presentation
presented
preserve
preserved
president
press
pressure
pressures
presumptive
pretender
pretenders
pretty
prevent
preview
previous
previously
price
primarily
primary
prime
prince
princess
princeton
principal
principle
principles
print
printed
printer
printing
prionailurus
prionodon
prior
priorities
privacy
private
prize
prizes
prnewswire
pro
probably
problem
problems
proceedings
process
processes
processing
processor
produce
produced
producer
produces
producing
product
production
products
professionals
professions
professor
profile
profit
profits
program
programme
programming
programs
progress
prohibited
project
projects
proleptic
prominent
pronounced
pronunciation
proof
propaganda
proper
properly
properties
property
prophecies
proposal
proposals
propose
proposed
prosperity
protect
protected
protection
protein
proteins
protestant
proto
prototype
prove
proved
provide
provided
provides
providing
province
provinces
provins
ps
pseudoryx
psychology
pt
ptt
pub
pubic
public
publication
publicationdate
publicationplace
publications
publish
published
publisher
publishername
publishers
publishing
punlao
purana
pure
purpose
purposes
push
pusillus
put
putin
puzzle
px
pxpx
pygathrix
pyrite
pythagorean
q
qatar
qd
quad
quality
quantitative
quantum
quarter
quarterly
que
quebec
queen
queens
queer
query
question
questions
quick
quickly
quiddity
quint
quirin
quo
quote
quoted
r
ra
race
radar
radhe
radio
radius
rail
railles
railway
raire
raised
rale
rally
ramos
ramzym
ran
range
rangoon
rank
ranking
rankings
rap
rapid
rare
rat
ratchakitcha
rate
rates
rather
ratification
ratio
rational
rattus
ravan
ray
raymond
rd
rdf
re
reach
reached
reaching
reaction
read
readability
reader
readers
reading
readings
ready
real
reality
really
rear
reason
reasoning
reasons
receive
received
recent
recentchanges
recently
recognised
recognize
recognized
recommend
recommended
record
recorded
recording
records
rect
rector
recursion
red
redirect
redirects
reduce
reduced
reduces
reduction
redundant
ref
refer
reference
references
referendum
referred
refers
reform
reformation
refused
regard
regarded
regarding
regardless
regards
regent
regents
region
regional
regions
registered
regnal
regular
regulation
reich
reign
reinforced
reinforcement
reinvent
related
relations
relationship
relationships
relative
relatively
relatives
release
released
releases
relevant
reliable
religion
religions
religious
rely
remain
remainder
remaining
remains
remember
reminder
removal
remove
removed
removing
ren
renewable
reno
rental
replace
replaced
replacement
replacing
reply
report
reported
reports
represent
representation
representative
representatives
represented
represents
repression
reprint
reprinted
reproduced
republic
request
requested
requests
require
required
requirement
requirements
requires
requiring
research
reservoir
resettled
resettlement
resist
resistance
resistor
resolution
resource
resources
respect
respectively
responsibilities
responsibility
rest
restoration
result
resulting
results
retail
retailer
retailing
retained
retaining
retrieved
return
returned
returns
rev
revealed
revealing
reveals
revenue
revenues
revert
review
reviewing
reviews
revised
revision
revisions
revival
revolution
revue
rey
reymond
rft
rhine
rhinoceros
rhinolophus
rhizomys
ri
ria
ribosome
rica
rice
richard
riemann
rieure
right
rightarrow
rights
ring
rino
rio
rise
rising
risk
risks
river
rivers
rna
ro
road
robbins
robert
roberto
robinson
robot
robotics
rock
rocks
roger
rogers
role
roles
rolled
rolling
rom
roma
romaji
roman
romance
romania
romanian
rome
ron
room
rose
rossii
round
roundleaf
roundtable
rousettus
routledge
row
rowman
rows
roy
royal
ru
rub
ruble
ruiponche
rule
rulers
rules
ruling
run
runner
running
runs
runway
rupiah
russell
russia
russian
rutland
s
sa
sacraments
sacred
safe
safejoin
safety
sage
sagittarius
sahara
said
saint
saints
sales
salvador
sam
sama
same
samoa
sample
samples
sampradaya
san
sanctuary
sand
sandbox
sandoz
sang
sanitation
sanook
santa
sao
sar
sarah
sarca
sars
satellite
satellites
satisfies
saturday
saudi
savang
savannakhet
save
saving
say
saying
says
sbs
sc
scale
scales
scaloni
scandinavia
scandinavian
scanner
scarecrow
scc
scene
scenes
schedule
scheduled
scheme
schemes
schiermeier
schmid
schmidt
scholar
scholarly
scholars
scholarship
school
schools
schro
schuster
science
sciences
scientific
scientist
scotland
scotomanes
scott
scottish
screen
screenshot
scribner
script
scripts
scripture
scriptures
sculley
sculpture
sd
se
sea
seal
search
season
seat
seats
sec
second
secondary
seconds
secret
section
sections
securepoll
security
sedimentation
see
seeing
seeking
seen
segmental
select
selected
selection
selectone
self
selling
semantics
semi
sen
send
senior
sense
sensor
sent
sentence
sep
separate
separated
separator
sepc
september
sequence
sequences
serge
serie
series
serious
serve
served
server
service
services
session
sessions
set
seterror
sets
setting
settings
settlement
settlements
seven
seventeenth
several
sex
sexual
sexualization
sexy
sgrabarczuk
sh
sha
shaftesbury
shallow
shan
shanghai
shape
share
shared
sharing
shark
sharmila
she
shear
sheep
sheet
shell
shield
shift
shikarnyj
shiva
shock
shoot
shop
shops
shoring
short
shortcut
shorter
shorts
should
shouters
show
showed
showing
shown
shows
si
siam
siberian
sicily
side
sides
sierra
sigma
sign
signal
signature
signed
significant
significantly
signify
signing
signs
sikkha
sil
silk
silly
similar
similarly
simon
simons
simple
simpler
simplified
simplify
simply
sin
since
sine
sinful
sing
singapore
singer
singers
singh
singing
single
sino
sinopharm
sir
sister
site
sites
situation
six
sixteenth
sixth
size
sized
sizes
skill
skills
skin
skins
skirt
skirtini
sky
skyteam
skyway
sl
slab
slam
slavic
sleeves
slfp
slides
slightly
slip
slope
slopes
slovakia
slovenia
sm
small
smaller
smallest
smallroom
smalltalk
smart
smartphone
sme
smith
smithsonian
smooth
sms
sn
snow
so
soc
soccer
social
socialism
socialist
society
sociology
soft
software
soil
soils
solar
sold
sole
solely
solid
solo
solution
sombath
some
someone
something
sometimes
somewhat
somphone
son
song
songs
sonna
sons
sony
soon
sophia
sorceress
sorry
sort
soul
sound
source
sourced
sources
south
southeast
southern
southwestern
sovereignty
soviet
sovsport
sp
space
spaces
spain
span
spandex
spanish
sparingly
speakers
speaking
speaks
special
specialty
species
specific
specifically
specified
specifies
specify
spectators
speech
spell
spelling
spencer
spending
spent
spider
spin
spirit
spoken
sport
sports
sportswear
spotted
spouse
spread
spring
springer
sputniknews
sq
sqrt
square
sr
sri
st
sta
stability
stable
stacked
stadium
staff
stage
stand
standalone
standard
standardized
standards
standing
stands
stanford
stanley
star
starbucks
stars
start
started
starting
starts
stat
state
stated
statement
statements
states
station
statistic
statistical
statistics
statue
status
stay
steam
steel
stellar
stem
step
stephen
steps
steve
steven
stewart
stiffness
still
stimpy
stock
stockholm
stokes
stone
stones
stop
stopped
storage
store
stores
stories
story
str
strange
stranger
strategy
street
strength
strepsirrhini
stress
stresses
stretch
stretches
strike
string
strings
strip
striped
strodt
strona
strong
strorgid
strsection
structural
structure
structures
struggle
stuart
stub
stubs
student
students
studied
studies
studio
studios
study
studying
stuff
stupa
stura
style
styles
styling
su
sub
subdivisions
subfamily
subject
subjects
submission
submissions
submit
subpage
subscribe
subscription
subscriptionrequired
subset
subsets
subsite
substitute
substitution
subsurface
succeeded
success
successful
successfully
succession
successions
successive
successor
succinctly
such
sud
suez
suffered
sufficient
sufficiently
suffix
sugar
suggest
suggested
suggestions
suicide
suit
suitable
suite
suits
sukhoi
sukhothai
sulfur
sum
sumatrensis
summability
summable
summaries
summary
summation
summer
summing
summit
sums
sun
sunday
sung
sunrise
sunset
sup
super
superjet
supplied
supply
support
supported
supporting
supports
supranational
supset
sur
sure
surf
surface
surfing
surgery
suriname
surrounding
survey
surveys
survive
sus
susan
suspended
suspender
sustainability
sustainable
sutton
suu
sv
svalbard
svg
swadesh
sweden
swedish
swimming
swimsuit
swimsuits
swimwear
swiss
switch
switcher
switching
switzerland
sydney
symbol
symbolic
symmetry
symphony
symposium
syntax
synthetic
sysop
system
systems
t
ta
tab
table
tables
tag
tags
tai
tail
tailed
taiwan
take
taken
takes
taking
tale
tales
talk
talking
taller
tamil
tamiops
tan
tanezumi
tank
tankini
tankinis
tanning
tanya
taphozous
tapir
tapirus
target
task
tax
taxonomy
taylor
tbilisi
tbl
te
teaches
teaching
team
teams
teardrops
tech
technical
technically
techniques
technological
technologies
technology
teen
teh
tel
telecommunications
telegram
telegraph
telephone
television
tell
teller
temp
template
templatedata
templates
temple
temples
temporarily
temporary
temps
ten
tend
tends
term
terminal
terms
territories
territory
terzaghi
tessa
test
testament
testcases
tested
testing
tests
tetrahedron
tex
texas
text
textbf
textrm
texts
tfrac
th
tha
thabok
thai
thailand
thairath
thaitanium
than
thanh
thank
thanks
that
the
theatre
theguardian
their
them
thematic
theme
themes
themselves
then
theology
theorem
theoretical
theories
theory
therapy
theravada
there
therefore
thermodynamics
these
theta
theun
they
thick
thin
thing
things
think
thinking
third
this
tho
tholakhong
thomas
thompson
thong
thongkham
thongs
those
though
thoughts
thousand
thousands
three
throne
through
throughout
thu
thumb
thumbnail
thuo
thus
ti
tiber
ticino
ticket
tie
tif
tiger
tight
tights
tigris
tim
timber
time
timecaption
timeline
times
timor
tina
tip
tirtha
titan
title
titlebar
titlelink
titlenote
titles
titlestyle
titletype
titular
tl
tlx
to
today
toed
toga
together
toggle
toh
toilet
tokyo
told
tolerate
tom
tone
tonumber
too
took
tool
toolbar
tools
top
tophoven
topic
topics
topless
topological
topology
tops
toronto
total
touch
tour
tourism
tourist
tournament
towards
tower
town
tr
trachypithecus
track
tracking
trade
trading
tradition
traditional
traditions
traffic
tragulus
training
tramp
tran
trang
trans
transchapter
transcluded
transcluding
transcript
transcription
transcripturl
transerror
transfer
transformation
transistor
transition
translate
translated
translatewiki
translating
translation
translations
translators
transparent
transport
transtitle
travail
travel
treated
treatment
tree
treeshrew
trek
trend
trevor
trial
triangle
tribune
tribute
trick
trie
tried
trieste
trigonometric
trip
tro
trois
trophies
trouble
tru
true
trump
trunks
truong
trust
trustees
truth
try
trying
tsar
ttl
tu
tube
tuesday
tuinui
tul
tumtavitikul
tupaia
turbines
turing
turkish
turn
turned
turner
turns
tuttle
tv
twenty
twitter
twl
two
tylonycteris
type
types
typical
typically
typing
u
ua
uc
ucb
ucoc
uefa
uhf
uk
ukraine
ukrainian
ul
ultimate
uma
umts
un
unconditional
unconditionally
uncountable
und
under
undergarments
undergo
underground
underlying
understand
understanding
undertake
underwear
unesco
unexpected
ungulates
unicode
uniform
uniformly
uniforms
union
unique
unit
unite
united
unitel
units
unity
univ
universal
universe
universities
university
unknlast
unknown
unless
unlike
unnecessary
unofficially
unp
unstable
until
unwieldy
unwin
up
upcoming
update
updated
updates
upload
uploaded
upon
upper
upright
ups
urban
urbe
urgenda
url
ursus
uruguay
us
usa
usability
usage
usd
use
used
useful
user
username
users
uses
using
ussr
ust
usual
usually
utah
utc
utility
utr
ux
uyghur
v
va
vac
vacancies
vacancy
vacant
vaishnava
vaishnavism
valenciana
valerie
valid
valley
value
valued
values
valve
van
vandalism
vang
var
variable
variant
variants
variation
variations
variety
various
vatican
vaudenay
vchang
ve
vector
vectors
vedic
vehicle
vehicles
veineuse
venezia
venoscanner
venous
venus
ver
veraman
verbatim
verde
verdoux
verlag
versa
version
versions
vertical
very
vi
via
vice
victim
victims
vidal
video
videos
vie
vienna
vientiane
vietnam
vietnamese
view
viewed
viewing
viewpoint
views
vii
viii
villa
village
villagers
villages
ville
vincent
violence
violin
virgin
virtual
virtually
virus
viscount
vishnu
visible
vision
visit
vista
visual
visualeditor
vital
viverra
viverricula
vladimir
vn
vo
vocabulary
voice
void
voids
voip
vol
volkswagen
volleyball
vols
volume
volunteer
volunteers
von
voravong
vortex
vos
vote
voted
voter
voters
votes
voting
vp
vs
vtv
vu
w
waerth
waist
waistband
wait
wake
wales
walk
walker
wall
walls
walsh
walt
walter
want
wanted
wants
wappen
war
ware
warner
warning
warranty
wars
was
washington
waste
wat
watch
watchlist
water
watershed
watson
watts
wave
waves
waxing
way
ways
we
wealth
wear
wearing
weasel
weather
web
weber
website
webster
wedding
wednesday
week
weekley
weekly
weeks
weierstrass
weight
weishan
welch
welcome
welcoming
welfare
well
welsh
went
were
werkgang
west
western
wet
what
whatamidoing
whatever
when
whenever
where
whereas
wherever
whether
which
while
whiskered
white
whitelist
who
whole
wholesale
whom
whose
why
wide
widely
width
wife
wifi
wiki
wikicode
wikidata
wikilink
wikilinked
wikimania
wikimedia
wikimedians
wikipedia
wikipedians
wikipedias
wikiproject
wikis
wikisource
wikitext
wikiversity
wikivoyage
wiktionary
wild
wiley
will
william
williams
willing
willis
wilmington
wilson
win
wind
window
windows
wine
wing
winged
winner
winners
winter
wire
wish
wishes
wishlist
wit
witcover
with
within
without
wmde
wmf
wo
wolf
wolfram
woman
women
won
wonders
wood
wool
woolly
word
words
wore
work
worked
workflow
working
workpoint
works
world
worldwide
worn
worship
worth
would
wp
wrap
wrapped
wrapper
wren
write
writer
writers
writing
written
wrong
wrote
wto
ww
www
wyatt
x
xa
xbf
xe
xeno
xi
xiaobin
xiii
xinjiang
xix
xml
xn
xof
xp
xvii
xviii
xxx
xyz
y
ya
yale
yang
yangon
ye
year
yearbox
years
yellow
yes
yet
yg
yi
yo
york
you
young
youniverse
your
yours
yourself
youth
youtube
yu
yuri
yyyy
z
za
zanny
zealand
zebra
zebras
zen
zero
zeta
zh
zhang
zhao
zhaoyuan
zhu
zimbabwe
ziraat
zoccatelli
zone
zones
zoom
{
|
}
~


¡
¢
£
¤
¥
¦
§
¨
©
ª
«
¬
­
®
¯
°
±
²
³
´
µ
·
¸
¹
º
»
¼
½
¾
¿
×
æ
ð
÷
ø
øe
đa
đi
đo
đu
ħ
œ
ƒ
ȸ
ȹ
ɑ
ɒ
ɔ
ɕ
ə
ɛ
ɡ
ɤ
ɪ
ɴ
ɹ
ʂ
ʃ
ʌ
ʐ
ʒ
ʔ
ʨ
ʰ
ʲ
ʻ
ʼ
ʾ
ʿ
ˆ
ˈ
ˌ
ː
˜
˝
ˤ
˥
˧
˨
˩
̀
́
̂
̃
̄
̆
̇
̈
̉
̊
̌
̏
̓
̔
̛
̜
̣
̦
̧
̨
̩
̪
̯
̰
̱
̸
̺
͂
͡
α
β
γ
δ
ε
ζ
η
θ
ι
κ
λ
μ
ν
ξ
ο
π
ρ
ς
σ
τ
υ
φ
χ
ψ
ω
а
в
г
для
з
и
или
к
м
мавка
московскии
н
на
о
п
с
симфонія
та
украі
университет
ч
шаблон
я
є
і
ְ
ִ
ֵ
ֶ
ַ
ָ
ֹ
ּ
ׁ
א
ב
ג
ה
ו
ח
י
ל
מ
ן
נ
ס
ע
ף
פ
ר
ש
ת
؀
ا
الله
د
س
ن
ه
و
َ
ُ
ٓ
ٔ
ٕ
ँ
क
ग
ण
त
द
ध
न
प
ब
म
य
र
व
श
ष
ह
ा
ि
ी
ु
े
ै
ो
्
ঁ
ক
চ
জ
ট
ঢ
ণ
ব
ভ
য
র
ল
শ
ষ
স
়
া
ি
ী
ু
ে
্
ਅ
ਕ
ਖ
ਦ
ਨ
ਯ
ਸ
਼
ਾ
ਿ
ੀ
ੂ
ੇ
ੰ
ੱ
ப
ு
்
మ
స
ూ
ಂ
ಟ
ಪ
ಲ
ು
ೆ
್
ೕ
ം
ക
ഗ
ങ
ഡ
ണ
ഫലക
യ
റ
ി
ു
ൈ
്
ක
ත
න
ය
ර
ල
ස
්
ා
ැ
ි
ෙ
ก
กก
กข
กของแก
กค
กคน
กคร
กคอมพ
กจ
กจะบ
กฉ
กช
กซ
กซอย
กด
กดนตร
กต
กตร
กตอ
กถ
กท
กทร
กธาต
กน
กนายกร
กบ
กป
กผ
กฝ
กพ
กพระราชพ
กพระองค
กพล
กฟ
กม
กมล
กมลชนก
กมหาราชาธ
กย
กยาเธอ
กร
กรก
กรกฎาคม
กรกฤษณ
กรณ
กรท
กรพ
กรพงษ
กรพรรด
กรภ
กรมข
กรมทหารป
กรมทหารม
กรมทหารราบท
กรมพระยานร
กรมรถไฟหลวง
กรมว
กรมศ
กรมหม
กรมหลวงนราธ
กรมหลวงพ
กรมหลวงส
กรร
กรรม
กรรมการ
กรรมการรายการ
กรรายการ
กรวรรด
กรวาลเธอ
กรส
กรสยาม
กรอ
กระด
กระท
กระทรวงว
กระทรวงศ
กระส
กราช
กฤษฎ
กฤษฎน
กฤษฐศ
กฤษณ
กล
กลมแบน
กลาง
กลางเหร
กลายเป
กว
กศ
กษ
กษณ
กษณมหาบรมราชาภ
กษณว
กษณะ
กษณะเป
กษรก
กษรพระนามาภ
กษรย
กษรศาสตร
กษา
กษาความสงบแห
กษาตอนต
กษาท
กษาธ
กษาพระองค
กษาระด
กษาว
กษาอย
กษาเสาวภา
กษาไว
กส
กสยาม
กสร
กห
กหญ
กหน
กอ
กองท
กองพ
กองยอดร
กองเจ
กอย
กอล
กา
กาญจนา
กาท
กานต
กาม
กายน
การ
การก
การค
การจ
การณ
การด
การต
การท
การทางการเง
การนายกร
การบร
การประกวด
การประกวดนางงามระด
การประกวดรอบต
การพ
การพยาบาลไทย
การย
การร
การลงท
การศ
การส
การสร
การอ
การเก
การเด
การเปล
การเม
การใช
การให
กาลท
กาเจ
กาเหว
กาใต
กำก
กำน
กำพร
กำล
กำหนดการ
กำเน
กเก
กเกล
กเข
กเฉล
กเต
กเธอ
กเน
กเบ
กเป
กเร
กเล
กเลขาธ
กเลง
กเหล
กแท
กแล
กแสดง
กแสดงนำ
กแสดงร
กโรดม
กใช
กใส
กไทย
กไม
ข
ขณะท
ขณะน
ขม
ขวบ
ขส
ของ
ของต
ของบ
ของบร
ของประเทศไทย
ของพระบาทสมเด
ของพระองค
ของม
ของส
ของสมเด
ขอบค
ขอบเบ
ขอบเร
ขาภ
ขายของชำ
ขาว
ค
คคล
คคลท
คคลสำค
คฆ
คงย
คซ
คณ
คณะกรรมการ
คณะน
คณะผ
คณะร
คด
คน
คนกล
คนท
คนส
คนอ
คนอวดผ
คนเด
คนใหม
คบก
คพอยท
คม
คร
ครบ
ครมเหส
ครราชเทว
ครอบคร
คล
คลองเตย
คว
ควบค
ความฝ
ความม
ความร
ความว
ความส
ความเป
คส
คอนเส
คอล
คาราบาว
คำปร
คำว
คำส
คำอธ
คำเหลา
ฆ
ง
งก
งกร
งกฤษ
งกล
งกลายเป
งกว
งกาศ
งข
งขม
งขรณ
งของ
งค
งคม
งคร
งครรภ
งคล
งคลาภ
งความส
งความสนใจไปท
งคาร
งคโปร
งงาน
งงานก
งจ
งจะได
งจากท
งจากน
งช
งชนะเล
งชาต
งซ
งด
งดำเน
งต
งถ
งถว
งท
งทรงพระกร
งทอง
งทำให
งธนบ
งน
งนายกร
งบ
งบร
งบางปะอ
งป
งปฏ
งประเทศไทย
งปวง
งปาร
งผ
งฝ
งพ
งพญาไท
งพระ
งพระบาทสมเด
งพระมหากร
งพระศพสมเด
งพระองค
งพอส
งพาน
งฟ
งม
งมงก
งมหาจ
งมหาสวาม
งมาช
งย
งร
งรางว
งราชวงศ
งราชสำน
งราชอาณาจ
งล
งว
งวน
งวาลย
งศ
งศพ
งศร
งษ
งส
งสมเด
งสยาม
งห
งหน
งหมด
งหมดด
งหว
งหาคม
งอ
งองค
งอย
งอร
งออกเป
งออนแอร
งาน
งานนม
งานประจำป
งานพระบรมศพทรงพระกร
งานเข
งานเพลง
งานแปล
งาม
งเก
งเกล
งเขตการปกครองออกเป
งเขป
งเคร
งเง
งเจ
งเด
งเต
งเทพ
งเทพมหานคร
งเทพฯ
งเน
งเป
งเพ
งเพลง
งเม
งเร
งเศส
งเส
งเสด
งเสร
งแต
งแพทย
งแม
งแรกเม
งแล
งแห
งแอนด
งโจ
งโรงเร
งใช
งในป
งในห
งให
งใหญ
งได
งไปแล
งไม
งไว
งๆ
จ
จกล
จข
จจ
จจาน
จจาระ
จฉ
จฉร
จด
จดหมายเหต
จต
จท
จน
จนกระท
จนถ
จบ
จประท
จประพาสย
จพระจ
จพระจอมเกล
จพระนางเจ
จพระนเรศวรมหาราช
จพระบรมราช
จพระบรมราชชนน
จพระบรมราชป
จพระบรมโอรสาธ
จพระปกเกล
จพระปรม
จพระปรเมนทรมหาอาน
จพระภรรยาเจ
จพระมงก
จพระราชดำเน
จพระรามาธ
จพระศร
จพระอ
จพระเจ
จพระเทพร
จพระเอกาทศรถ
จร
จราชการแทนพระองค
จราชการแผ
จส
จสวรรคต
จอมพล
จะก
จะจ
จะต
จะทำให
จะพ
จะม
จะร
จะเป
จะเร
จะให
จะได
จะไม
จาก
จากต
จากท
จากน
จากเว
จาค
จาคของม
จาคพระราชทร
จาคเง
จาต
จาร
จารณ
จำก
จำนวน
จำเน
จำเป
จเจ
จเถล
จแล
ฉ
ฉบ
ฉาก
ช
ชกาลท
ชจร
ชช
ชน
ชนะ
ชนะการประกวดจะต
ชนะการประกวดในคร
ชนะส
ชนะเล
ชม
ชมพ
ชย
ชร
ชระ
ชล
ชวนช
ชสม
ชอบด
ชะชะช
ชา
ชาการ
ชาต
ชาย
ชาร
ชาล
ซ
ซอยเถ
ฌ
ญ
ญก
ญการ
ญจกรประจำพระองค
ญจะ
ญฉบ
ญช
ญชล
ญชา
ญญ
ญญา
ญญาก
ญญาณ
ญญาอ
ญญาแค
ญด
ญท
ญบาน
ญพ
ญพระบรมอ
ญพระราชก
ญพระอ
ญย
ญร
ญล
ญอ
ญาต
ญาตให
ญเช
ญแห
ญในตอน
ญให
ฎ
ฎก
ฎกฉบ
ฎฐ
ฎราชก
ฎเกล
ฎไทย
ฏ
ฏเกล
ฐ
ฐซ
ฐต
ฐท
ฐธรรมน
ฐบาล
ฐบาลได
ฐประชาชนจ
ฐประชาธ
ฐมนตร
ฐลายประด
ฐส
ฐสภา
ฐอ
ฐอาหร
ฐอเมร
ฐานบ
ฑ
ฒ
ฒน
ฒนธรรม
ฒนา
ฒนาส
ฒนาเป
ณ
ณคร
ณชาย
ณฑ
ณณวด
ณต
ณย
ณร
ณห
ณหญ
ณอด
ณา
ณาธ
ณาน
ณาส
ณาโปรดเกล
ณแม
ด
ดก
ดการประกวด
ดการแข
ดข
ดของผ
ดค
ดจ
ดช
ดชอบต
ดซ
ดด
ดดา
ดต
ดตร
ดถ
ดท
ดน
ดนตร
ดบ
ดบวรน
ดป
ดประจำชาต
ดประสงค
ดผ
ดพ
ดพระธาต
ดพระเก
ดม
ดร
ดรธาน
ดระเบ
ดรายการอย
ดล
ดว
ดวง
ดวงตา
ดวงใจ
ดส
ดสร
ดสำหร
ดห
ดหน
ดอ
ดอกไม
ดอย
ดอลลาร
ดอาร
ดา
ดาร
ดารา
ดาว
ดาวประจ
ดาฯ
ดำ
ดำด
ดำรงตำแหน
ดำเน
ดเกล
ดเจน
ดเช
ดเถ
ดเท
ดเทอมใหญ
ดเบญจมบพ
ดเป
ดเพ
ดเม
ดเร
ดเล
ดโรงเร
ดใจ
ดใช
ดในโลก
ดให
ดได
ดไม
ต
ตก
ตกรรมส
ตกส
ตกเส
ตข
ตคอม
ตคอยน
ตช
ตต
ตตมะก
ตถ
ตถเลขา
ตท
ตน
ตนราชวราภรณ
ตนราชส
ตนสรณาร
ตนาภรณ
ตนโกส
ตบอลท
ตผ
ตภ
ตม
ตย
ตยสถาน
ตยสาร
ตยสารสารคด
ตร
ตรก
ตรงก
ตรช
ตรด
ตรา
ตราด
ตราพระราชบ
ตรเจร
ตรโสภาคยสรรพางค
ตล
ตลก
ตลหฤท
ตว
ตศาสตร
ตส
ตหล
ตอน
ตอนท
ตอนน
ตอนร
ตอนเด
ตอย
ตอล
ตะล
ตะว
ตา
ตาม
ตาย
ตาล
ตำนานสมเด
ตำรวจ
ตำแหน
ตเลอร
ตโชค
ตโนปล
ตได
ถ
ถล
ถวาย
ถวายพระเพล
ท
ทค
ทคอม
ทจ
ทท
ททบ
ทธ
ทธบ
ทธร
ทธศ
ทธศาสนา
ทธองค
ทธา
ทธาท
ทธาไทย
ทธเจ
ทนา
ทบ
ทม
ทมวรรณ
ทย
ทยา
ทยาล
ทยาศาสตร
ทร
ทรงดำรงตำแหน
ทรงต
ทรงบร
ทรงปฏ
ทรงพระกร
ทรงม
ทรงร
ทรงลงพระปรมาภ
ทรงส
ทรงสนพระท
ทรงสร
ทรงอ
ทรงเข
ทรงเป
ทรงได
ทรงไม
ทว
ทศวรรษ
ทหารเร
ทอง
ทองคำ
ทองคำลงยา
ทฮาไม
ทาง
ทางช
ทางท
ทางสถาน
ทางโมเด
ทำด
ทำร
ทำหน
ทำเพลงประกอบภาพยนตร
ทำให
ทำไม
ทำไมต
ทเต
ทได
ธ
ธงช
ธงไชย
ธนะบ
ธภ
ธยมศ
ธยา
น
นก
นกร
นกล
นกว
นการประกวดความงามชายในประเทศไทย
นข
นของ
นของคนเด
นของเรา
นค
นคนท
นคร
นครปกครองตนเอง
นครราชส
นครองราชสมบ
นคล
นจ
นจากม
นจำนวน
นจำนวนมาก
นฉบ
นช
นชอบเธอ
นชาต
นซ
นด
นดร
นดา
นดารา
นดาว
นดาเกตส
นต
นตก
นตต
นตบรมมหาจ
นตราย
นตวรฤทธ
นตหรา
นตาย
นตำรวจท
นถ
นท
นทช
นทน
นทบ
นทมห
นทร
นทรธรรม
นทรภ
นทรมหาจ
นทรมหาประชาธ
นทรมหาภ
นทรมหามงก
นทรมหารามาธ
นทรมหาวช
นทรว
นทรศ
นทรา
นทราท
นทราธ
นทราบรมราช
นทราย
นทว
นทหารม
นทาก
นทาง
นทางการ
นทางการเม
นทางการใช
นธ
นธร
นน
นบ
นบร
นบางตอนเท
นป
นปกครองตนเอง
นประกอบด
นประด
นประเทศท
นผ
นฝ
นพ
นพร
นพระชนม
นพระปกเกล
นพระพ
นพระภรรยาเจ
นพระมหากษ
นพระอ
นพระองค
นพระเจ
นพฤห
นฟ
นภ
นม
นมหาราช
นมหาวช
นมา
นมาก
นย
นยาน
นยายน
นร
นรายการ
นฤมล
นล
นว
นวาคม
นวางจำหน
นศ
นส
นสถานท
นสน
นสม
นสมเด
นสำค
นสำหร
นห
นหญ
นหน
นหร
นหล
นหอย
นอ
นอกจากน
นองค
นอน
นอย
นออก
นอาท
นา
นาค
นาคพระโขนง
นาคม
นางฟ
นางส
นางสาวถ
นางเธอ
นาถ
นาท
นายกร
นายน
นายรอบร
นายแพทย
นาร
นเก
นเข
นเคย
นเคร
นเง
นเจ
นเซ
นเซอร
นเด
นเตอร
นเท
นเทอร
นเน
นเป
นเพ
นเพลงจากอ
นเม
นเร
นเล
นเวท
นเวลา
นเสาร
นเหต
นเหร
นเอง
นแก
นแชนเนล
นแดน
นแดนท
นแนล
นแนลไทยแลนด
นแบ
นแรงเหล
นแล
นแห
นแหล
นโดน
นโบราณมงคลนพร
นโรงเร
นใช
นใต
นใน
นในช
นในบร
นในป
นในร
นให
นใหญ
นใหม
นได
นไตย
นไทยงาม
นไทยแลนด
นไนน
นไป
นไปอย
นไพร
นไม
นไหม
นๆ
บ
บก
บกร
บกล
บการบร
บการพ
บการยอมร
บการศ
บการแสดงโดย
บข
บค
บคน
บจ
บฉ
บช
บซ
บด
บต
บตำแหน
บถ
บท
บทร
บน
บนานาชาต
บนเว
บบ
บบท
บบทเป
บบร
บป
บปร
บประเทศก
บประเทศไทย
บผ
บพ
บพระพ
บพระราชห
บภาพยนตร
บม
บมา
บมาอ
บมาเป
บย
บร
บรมข
บรมนาถ
บรมนาถชาต
บรมนาถบพ
บรมราช
บรมราชวงศ
บรมราชาภ
บรมว
บรรจ
บรรท
บราชการเป
บราชสมบ
บล
บว
บวกก
บศ
บส
บสน
บสม
บสมเด
บสอง
บสาม
บห
บหงส
บหน
บหม
บอ
บอก
บอด
บอย
บางตอน
บางร
บางระจ
บางโปรเจ
บาท
บาป
บาร
บาล
บาลท
บำร
บำเพ
บเขาก
บเคร
บเง
บเช
บเด
บเต
บเท
บเป
บเล
บเอม
บเฮ
บแก
บแจ
บแต
บแบงก
บแล
บโดย
บโตข
บให
บไซต
บได
บไปค
ป
ปก
ปกรณ
ปกลม
ปกศ
ปค
ปฏ
ปดาห
ปต
ปตาร
ปถ
ปท
ปทาน
ปทานอ
ปน
ปป
ปร
ปรม
ประกอบด
ประกอบภาพยนตร
ประกอบละคร
ประกอบละครเร
ประกอบละครโทรท
ประกอบสารคด
ประกาศ
ประกาศสำน
ประกาศเฉล
ประจำป
ประช
ประชาธ
ประด
ประต
ประท
ประมาณ
ประย
ประว
ประส
ประสงค
ประเทศ
ประเทศอ
ประเทศไทย
ประเพณ
ประเภทห
ปรากฏต
ปล
ปลอดภ
ปว
ปส
ปสมเด
ปหม
ปอ
ปากกาทอง
ปาฏ
ปเปอร
ปโภค
ปไตย
ผ
ผด
ผล
ผลงาน
ผลงานการแสดง
ผลงานพ
ผลงานภาพยนตร
ผลงานละคร
ผลงานละครช
ผลงานละครโทรท
ผลงานอ
ผลงานเพลง
ฝ
พ
พงศ
พงษ
พจน
พท
พน
พนธ
พนม
พนมยงค
พบก
พบกช
พม
พย
พร
พรรณ
พรรณบ
พรรษา
พระคร
พระจ
พระจอมเกล
พระตำหน
พระท
พระธาต
พระน
พระนคร
พระนางเจ
พระบรมราช
พระบรมราชชนน
พระบรมราชาน
พระบรมราชเทว
พระบรมราชโองการ
พระบรมศพสมเด
พระบาทสมเด
พระปกเกล
พระพ
พระภรรยาเจ
พระมงก
พระมหากษ
พระยาประกาศอ
พระร
พระราชก
พระราชกรณ
พระราชกฤษฎ
พระราชดำร
พระราชทานประชาชนในงานพระบรมศพสมเด
พระราชทานพระบรมราชาน
พระราชทานเคร
พระราชทานเพล
พระราชทานเหร
พระราชธ
พระราชน
พระราชบ
พระราชประว
พระราชพ
พระราชพงศวดารฉบ
พระราชพงศาวดารกร
พระราชล
พระราชว
พระราชห
พระราชาน
พระราชเทว
พระว
พระวรราชชายา
พระวรราชเทว
พระวรวงศ
พระส
พระสนมเอกในร
พระอ
พระองค
พระอภ
พระเก
พระเจ
พระเมร
พระไตรป
พฤศจ
พฤษภาคม
พล
พลตร
พลอด
พลายน
พลเอก
พศ
พากย
พเพส
ฟ
ฟเฟตต
ภ
ภผลอ
ภพ
ภาค
ภาณ
ภาพ
ภาพบ
ภาพยนตร
ภาพล
ภายหล
ภายใต
ภาร
ภาษาต
ภาษาอ
ภโตส
ม
มก
มกจ
มกราคม
มกล
มการผล
มข
มขอบม
มค
มคอตเอชด
มงก
มจ
มช
มชาต
มณ
มด
มต
มถ
มท
มทอง
มน
มนต
มบ
มป
มผ
มฝ
มพ
มพร
มพระชนมพรรษา
มพระชนมพรรษาสมเด
มพระนามาภ
มพระเก
มพล
มฟ
มภ
มภาพ
มม
มมา
มย
มยำลำซ
มร
มรวมศ
มว
มศ
มห
มหงวน
มหล
มหาปร
มหามก
มหามงก
มหาว
มอ
มอบหมายให
มอร
มะหมา
มา
มาก
มากกว
มากท
มาท
มาน
มานพ
มานเม
มานไพชยนต
มาย
มาร
มาล
มาศ
มาศท
มาอย
มาเป
มาเลเซ
มเข
มเด
มเต
มเป
มเพลง
มเหศวรมห
มเอ
มและเต
มให
มได
มไปด
ย
ยก
ยกก
ยกข
ยกร
ยกว
ยการศ
ยข
ยง
ยงจ
ยงซ
ยงด
ยงต
ยงท
ยงร
ยงลำด
ยงอย
ยงเธอ
ยงแค
ยงให
ยงใหม
ยงไกร
ยงไม
ยจ
ยช
ยซ
ยญกษาปณ
ยญด
ยญท
ยญน
ยญม
ยญร
ยญราช
ยญสหร
ยด
ยท
ยธรรมราชา
ยธรรมศาสตร
ยธรรมาธ
ยน
ยนก
ยนช
ยนต
ยนท
ยนนายร
ยนพ
ยนมหาดเล
ยนร
ยนระด
ยนราช
ยนว
ยนศ
ยนสตร
ยนสำหร
ยนเทพศ
ยนเป
ยนแปลงการปกครอง
ยนได
ยบ
ยบบร
ยบร
ยบเท
ยป
ยประกอบด
ยพ
ยพยาบาลพระปกเกล
ยม
ยมจ
ยมน
ยมหาสวาม
ยมโจร
ยย
ยยศ
ยร
ยรต
ยรมาต
ยราชก
ยราชน
ยราชภ
ยราชอ
ยว
ยวก
ยวข
ยวท
ยวศร
ยวหวาน
ยศ
ยศย
ยส
ยห
ยอด
ยอย
ยอาช
ยะ
ยา
ยากจน
ยากร
ยาน
ยาภรณ
ยาม
ยาย
ยาส
ยเก
ยเป
ยเพ
ยเม
ยเล
ร
รก
รงค
รช
รญาต
รณ
รณะ
รถยนต
รบ
รพ
รพา
รพาธ
รมงก
รมย
รย
รว
รวมถ
รวมท
รศ
รส
รองชนะเล
รองนายกร
รอบ
ระ
ระด
ระบบส
ระพ
ระล
ระศ
ระหว
ระเบ
ระไวทยะ
รา
รางค
รางว
ราช
ราชก
ราชบ
ราชวโรดม
ราชส
ราชอาณาจ
ราชฯ
ราบรมราชเทว
ราม
รามน
ราย
รายการ
รายการโทรท
รายงานประจำป
รายช
รายนามผ
รายป
ราลงกรณ
ราว
ราเค
ฤด
ล
ลก
ลค
ลคด
ลงว
ลจ
ลจอมเกล
ลด
ลท
ลธ
ลน
ลบ
ลป
ลปว
ลปากร
ลม
ลย
ลยกฤษฎาภ
ลยพ
ลยราชสมบ
ลยศ
ลยาณ
ลยเดช
ลยเดชทรงพระกร
ลล
ลว
ลศ
ลส
ลสตร
ลอ
ละคร
ละครจ
ละครช
ละครซ
ละครพ
ละครส
ละครเท
ละครเพลง
ละครเร
ละครเวท
ละครโทรท
ละป
ละอองดาว
ลา
ลาคม
ลาจาร
ลายช
ลาล
ลาว
ลาออกจากล
ลำด
ลเม
ว
วก
วกล
วกลางดง
วข
วขาด
วค
วง
วงก
วงต
วงท
วงป
วงร
วงล
วงศ
วงษ
วจ
วช
วต
วถ
วท
วทรงพระกร
วน
วนต
วนท
วนพระองค
วนร
วนหน
วนาถ
วนใหญ
วบ
วป
วประเทศ
วภ
วม
วมก
วมการประกวดม
วมช
วมท
วมประกวดม
วมม
วมร
วมแสดงนำ
วมในรายการ
วมใหม
วย
วยก
วยความร
วยช
วยต
วยน
วยพระองค
วยว
วยหน
วยเหต
วยเหล
วร
วรข
วรยศมโหดมบรมราชสมบ
วรรณ
วล
วลำภ
วลำโพง
วศ
วส
วห
วหน
วอ
วอย
วอร
วอาน
วา
วางขายในป
วางต
วาท
วานาว
วารนายกอน
วาส
วาสราชนคร
วาห
วเป
วเม
วเร
วเสด
วเหร
วเอง
วแทนของประเทศเข
วแทนประเทศไทยเข
วแทนเข
วและสมเด
วโลก
วใจ
วใจต
วใจว
วไป
วไร
วไรอย
วไว
ศ
ศก
ศจ
ศจรรย
ศตะว
ศน
ศนา
ศพ
ศม
ศร
ศรราม
ศราน
ศล
ศลท
ศว
ศวง
ศอก
ศาล
ศาสตร
ศาสตราจารย
ศาสนา
ศเป
ศเหน
ศใต
ษ
ษฎาธ
ษฐ
ษฐาน
ษฐานว
ษณ
ษย
ษยา
ษร
ษส
ษไทยแลนด
ส
สก
สกร
สกลมไหศวร
สกลไพศาลมหาร
สการพระธาต
สคว
สซ
สด
สต
สตร
สตาร
สถ
สถาน
สถาบ
สน
สนามข
สบ
สป
สปอร
สพ
สภา
สม
สมชาย
สมบ
สมหว
สมาช
สมเด
สย
สยา
สยาม
สยามบรมราชก
สยามมก
สร
สรณ
สรรพทศท
สรรพเทเวศราน
สระ
สล
สว
สวย
สวร
สวรรค
สวรรคต
สวาท
สส
สสปะ
สสาอ
สหพ
สหร
สหราชอาณาจ
สอ
สอง
สะด
สะท
สะบ
สะใภ
สา
สาค
สาธ
สาธารณร
สาน
สาม
สามราช
สามสน
สามารถเข
สามารถใช
สาย
สายประด
สายล
สารว
สารวาจา
สาระแน
สาล
สาวน
สาวร
สำค
สำน
สำหร
สำเร
สเซ
สเตอร
สแกรนด
สแลม
สแอนด
สไทยแลนด
ห
หงส
หญ
หน
หบด
หม
หมวดหม
หมอผ
หมายถ
หมายเลข
หมายเหต
หย
หร
หล
หลงร
หลงเส
หลวง
หลวงพ
หลาบ
หว
หอจดหมายเหต
หา
หาร
หารราชการแผ
หาส
ฬ
ฬา
ฬาล
ฬาลงกรณ
ฬาลงกรณราชวรางก
อ
อก
อกก
อกต
อกเข
อข
อของการประกวดนางงามในประเทศไทย
อขององค
อของแม
อค
อคร
อความ
อความท
อความว
อคำส
อง
องก
องการ
องข
องค
องคมนตร
องจ
องช
องซ
องด
องต
องถ
องท
องน
องนางเธอ
องบนเป
องผ
องม
องย
องยอม
องยาเธอ
องร
องราชอ
องล
องว
องศ
องศร
องส
องสนามหลวง
องสม
องห
องหล
องหลวง
องหาน
องอ
องอารมย
องเก
องเช
องเท
องเป
องเพ
องเพลง
องเร
องเล
องเว
องเส
องเสด
องแม
องแรก
องใช
องในโอกาสครบ
องให
องใหม
องได
องไทยร
อจ
อจะได
อช
อด
อดอกไม
อต
อถ
อท
อธ
อน
อนก
อนกรกฎาคม
อนกล
อนข
อนคร
อนต
อนท
อนพฤศจ
อนม
อนมกราคม
อนร
อนหน
อนเด
อนเต
อนเมษายน
อนเร
อนเส
อนแอบ
อบ
อบท
อบร
อป
อผ
อฝ
อพ
อพระท
อพระบาทสมเด
อพระองค
อฟ
อภ
อม
อมก
อมด
อมท
อมร
อมราชวงศ
อมา
อมาก
อมาได
อมเจ
อย
อยกว
อยคว
อยคาเฟ
อยพระจ
อยม
อยรสบทละคร
อยล
อยอ
อร
อรองห
อล
อว
อส
อสมเด
อสร
อห
อหน
อหว
ออ
ออกจากซอยเถ
ออกฉายว
ออกอ
ออกอากาศ
ออกอากาศท
ออกอากาศทาง
ออกอากาศทางช
ออกอากาศทางสถาน
ออกอากาศทางไทยท
ออกอากาศสดทางช
ออกแบบโดย
ออน
ออนไลน
อาจปฏ
อาจารย
อาชาวศร
อาณาจ
อาท
อานนท
อาม
อาย
อายนบ
อาร
อาศ
อำเภอเม
อเก
อเจ
อเด
อเทคโนโลย
อเธอ
อเป
อเปล
อเพ
อเพลง
อเม
อเร
อเล
อเส
อเสด
อแก
อโนปม
อโนปไมยบ
อโรงเร
อใช
อให
อได
อไป
อไปน
อไม
ฮ
ฮาจะเกร
ฯ
ฯลฯ
ะ
ะจ
ะต
ั
า
าก
ากร
ากากจ
ากากน
าการ
าข
าของร
าค
าคณะร
าคว
าง
างก
างข
างค
างซ
างด
างต
างท
างน
างบ
างปฐมบรมราชาน
างประเทศ
างพ
างพระองค
างม
างมาก
างย
างร
างรวดเร
างว
างวงศ
างส
างสรรค
างสาวท
างหน
างหล
างอ
างเช
างเด
างเป
างเผ
างเสร
างโรงเร
างไม
างๆ
าจ
าจอมมารดาแห
าจะม
าจะร
าฉ
าช
าซ
าซาลอน
าด
าดาว
าต
าตากส
าถ
าท
าทายให
าน
านก
านขวา
านขวาม
านช
านซ
านดอลลาร
านต
านตล
านท
านน
านนา
านบ
านบาท
านบาทในป
านพ
านฟ
านร
านรอบค
านล
านละ
านว
านศ
านหน
านหล
านอ
านเต
านเม
านเรา
านเหร
านให
าบ
าบร
าบรมวงศ
าบอกว
าป
าประกวด
าประกวดม
าประชาธ
าประมาณ
าผ
าฝ
าพ
าพระยา
าพระองค
าพาราม
าพเจ
าฟ
าภค
าภาณ
าม
ามหาวช
ามาอย
ามเวลาหาร
าย
ายของการประกวดม
ายของการประกวดส
ายท
ายทำ
ายน
ายนรส
ายบร
ายประจำการท
ายพม
ายม
ายร
ายว
ายส
ายหน
ายเง
ายเป
ายแดง
ายแบบน
ายใน
าร
าราชบร
ารำไพพรรณ
าล
าว
าวก
าวข
าวน
าวบ
าวรวงศ
าวว
าวสวรรคต
าวเป
าศ
าส
าสยาม
าสว
าห
าหญ
าหน
าอ
าอย
าอาน
าฯ
าะ
าเจ
าเช
าเป
าเพชรร
าเม
าเมก
าเร
าเล
าเสน
าเสาวภาผ
าแก
าแข
าแตก
าแผ
าแล
าและสมเด
าใจ
าใช
าในช
าในร
าให
าใหม
าได
าไฟ
าไม
าไหร
ำ
ำชา
ำท
ำผ
ำม
ำร
ำส
ำหน
ำโขง
ิ
ี
ึ
ื
ุ
ู
ฺ
เ
เก
เกตส
เกม
เกมจารชน
เกย
เกร
เกล
เข
เขต
เขตท
เขตปกครองตนเอง
เขตผ
เขตพระนคร
เขตสหพ
เค
เคน
เคยเป
เคร
เคราะห
เง
เจ
เจนต
เจมส
เจร
เจส
เฉ
เฉล
เช
เซ
เซนต
เด
เดช
เดชน
เดอะ
เดอะซ
เดอะม
เดอะสตาร
เต
เตร
เตอร
เถ
เท
เทนเมนท
เทป
เทพ
เทพธ
เทพบ
เทพพ
เทวดา
เทศ
เทศบาลนคร
เธอ
เธอก
เธอค
เธอม
เน
เนช
เนาว
เบ
เบกษา
เบศร
เป
เปร
เปล
เปอร
เผ
เผยแพร
เพ
เพชร
เพราะว
เพราะเคยม
เพล
เพลง
เพลงท
เพลงประกอบภาพยนตร
เพลงประกอบละคร
เพลงประกอบละครร
เพลงประกอบละครเวท
เพลงประกอบละครเสน
เพลงประกอบละครโทรท
เพลงประกอบโฆษณา
เพลงร
เฟ
เฟลเลอร
เม
เมฆ
เมช
เมตตากร
เมตร
เมตรเหร
เมท
เมนเทอร
เมษายน
เย
เร
เรตส
เรน
เล
เว
เวท
เวย
เวลา
เวลาในขวดแก
เวศน
เวอร
เศรษฐ
เศวตศ
เศษ
เศษก
เศษฉลองล
เษก
เษกสมรสก
เษกาภ
เส
เสง
เสด
เสน
เสปอร
เสมอ
เสร
เสาร
เห
เหต
เหน
เหม
เหย
เหร
เหล
เอ
เอก
เอชด
เอม
เอส
เอเช
เฮ
เฮง
แก
แกรมม
แข
แขกร
แค
แคปป
แคว
แจ
แชปล
แซ
แด
แดง
แดน
แต
แตก
แตกต
แท
แทน
แทนประเทศไทยเข
แน
แบ
แบงค
แบบ
แบบน
แป
แปลว
แผ
แผนร
แพ
แพร
แฟน
แฟนฉ
แฟนพ
แฟม
แม
แมคอ
แมนออฟเดอะเย
แรก
แรกท
แรงบ
แรม
แล
แลนด
แลร
แลระบบอ
และ
และก
และการท
และข
และจ
และซ
และต
และท
และบร
และพ
และพระยาศร
และม
และย
และร
และว
และศ
และส
และสมเด
และสร
และอ
และอนาม
และออกจากซอยเถ
และเจ
และเป
และเพ
และเม
และเมล
และในป
และให
และได
และไม
แว
แววมย
แสงเท
แสดงค
แสดงร
แสดงละครเวท
แสดงโดย
แห
แหล
แอน
แอนด
โก
โกลด
โกลบอล
โกลบอลท
โขท
โขไทยธรรมราชา
โคตบ
โครงสร
โคอ
โคไทยแลนด
โฆษณา
โจ
โชต
โชว
โด
โดม
โดย
โดยจ
โดยท
โดยผ
โดยพ
โดยพระองค
โดยม
โดยสำน
โดยอ
โดยเด
โดยเป
โดยใช
โดยให
โดยได
โดยไม
โต
โทรท
โทรศ
โน
โป
โปรด
โปรดเกล
โปรดให
โปรเจ
โปรโมช
โพธ
โฟร
โมงค
โมเด
โย
โรงพ
โรงพยาบาลพระปกเกล
โรงเร
โรงแรมผ
โรป
โลก
โลกประชานาถ
โลเมตร
โส
โสด
โสภา
โสภาพ
โห
โหน
โอ
โอชา
โอเด
โอเป
โอเพลง
โฮลด
ใกล
ใจ
ใจส
ใช
ใต
ใน
ในกล
ในการน
ในช
ในด
ในต
ในตอนท
ในตอนน
ในท
ในนามศ
ในป
ในประเทศกำล
ในพระบาทสมเด
ในพระราชพ
ในย
ในร
ในระหว
ในว
ในส
ในสม
ในสมเด
ในหน
ในอ
ในเคร
ในเด
ใส
ให
ใหญ
ใหม
ไก
ไข
ไขเพ
ไซต
ได
ไตรร
ไท
ไทย
ไทยท
ไทยพ
ไทยพาณ
ไทยร
ไทยเทเน
ไทยแลนด
ไธย
ไธยย
ไนเต
ไป
ไปบ
ไปรษณ
ไพศาลเก
ไพโรจน
ไฟฟ
ไฟล
ไฟว
ไม
ไร
ไลน
ไลฟ
ไว
ไหน
ไหม
ไอ
ไอท
ๅ
ๆ
็
่
้
๊
๋
์
ํ
๐
๑
๑๐
๑๑
๑๒
๑๓๐
๑๔
๑๕
๑๘
๒
๒๐
๒๑
๒๒
๒๔
๒๔๕๔
๒๔๖๘
๒๔๗๐
๒๔๙๒
๒๕
๒๕๓๙
๒๘
๒๙
๓
๓๐
๓๒
๓๒๔
๔
๔๒
๔๔
๔๖
๕
๕๐
๖
๖๖
๗
๘
๙
ກ
ກກ
ກກຣ
ກກລ
ກກວ
ກກອງທ
ກກອງເສ
ກກອມມ
ກກະ
ກກະຊ
ກກະຊວງ
ກກະຕ
ກກະທ
ກກະພ
ກກະພາບ
ກກະພາບດ
ກກະຣະບ
ກກະລ
ກກະລາ
ກກະລາດ
ກກະວ
ກກະວານ
ກກະວານວ
ກກະສ
ກກະສາດ
ກກະຫ
ກກະຫວ
ກກະໄພ
ກກາ
ກກາງ
ກການ
ກການກ
ກການຄ
ກການຈ
ກການທ
ກການບ
ກການປະຊ
ກການຜະຈ
ກການພ
ກການສ
ກການອ
ກການເຄ
ກການເດ
ກການເປ
ກການເມ
ກກາລະບ
ກກຳຈ
ກກຳນ
ກກຳປ
ກກຳພ
ກກຳໜ
ກຂ
ກຂອງ
ກຂອງກ
ກຂອງການປະຊ
ກຂອງຂ
ກຂອງຄ
ກຂອງຄອບຄ
ກຂອງຈ
ກຂອງຊ
ກຂອງຕ
ກຂອງທ
ກຂອງນ
ກຂອງບ
ກຂອງປະເທດ
ກຂອງປະເທດລາວ
ກຂອງຜ
ກຂອງຝ
ກຂອງພ
ກຂອງພະອ
ກຂອງມ
ກຂອງລ
ກຂອງລາວ
ກຂອງວ
ກຂອງສ
ກຂອງສະຖານ
ກຂອງສະຫະພາບເອ
ກຂອງອ
ກຂອງອະດ
ກຂອງຮ
ກຂອງເຂ
ກຂອງເມ
ກຂອງເຢຍລະມ
ກຂອງແມ
ກຂະ
ກຂະນ
ກຂະບວນການເສລ
ກຂະຣະວ
ກຂະສ
ກຂະເໝນບ
ກຂະໜານນາມວ
ກຂາ
ກຂາຂອງຝຣ
ກຂາຍ
ກຂາຍໃນທ
ກຂາດ
ກຂາບ
ກຂາປະທ
ກຂຽນ
ກຂຽນຊາວໄທ
ກຄ
ກຄຣ
ກຄວ
ກຄວບຄ
ກຄວາມຈ
ກຄວາມຕ
ກຄວາມເຊ
ກຄວາມເປ
ກຄອງ
ກຄອງກ
ກຄອງຂອງກະສ
ກຄອງຂອງບາງກອກ
ກຄອງຂອງປະເທດໄທ
ກຄອງຂອງອຳເພ
ກຄອງຂອງແຂວງ
ກຄອງຄ
ກຄອງຍ
ກຄອງດ
ກຄອງຕ
ກຄອງທ
ກຄອງນ
ກຄອງບ
ກຄອງບາງສ
ກຄອງປະເທດ
ກຄອງຝຣ
ກຄອງພ
ກຄອງພາກເໜ
ກຄອງຢ
ກຄອງລ
ກຄອງລະຫວ
ກຄອງລາຊະອານາຈ
ກຄອງລາວ
ກຄອງສ
ກຄອງຫ
ກຄອງອອກເປ
ກຄອງເຊ
ກຄອງເປ
ກຄອງເມ
ກຄອງແຂວງ
ກຄອງແບບປະຊາທ
ກຄອງແຜ
ກຄອງແມ
ກຄອງໂດຍກ
ກຄອງໂປແລນ
ກຄອງໃໝ
ກຄອງໄດ
ກຄອມມ
ກຄະຊາຍາ
ກຄະຊາຍາເທ
ກຄະດ
ກຄະທາຍວ
ກຄະນ
ກຄະນະເຣດສະຣາທ
ກຄະນາງ
ກຄະລ
ກຄະລະມະເຫສ
ກຄະລາກອນ
ກຄະລາຊະທ
ກຄະລາຊະເທວ
ກຄະໂລ
ກຄຳວ
ກຄຳສອນໃນທາງພຣະພ
ກງ
ກງານ
ກງານກ
ກງານຂ
ກງານຂອງລ
ກງານຄ
ກງານຄະນະກຳມະການການສ
ກງານຄະນະກຳມະການການອ
ກງານຄະນະກຳມະການສ
ກງານຊ
ກງານທ
ກງານນາຍ
ກງານບ
ກງານປ
ກງານຝ
ກງານຢ
ກງານລ
ກງານວ
ກງານສ
ກງານອ
ກງານເຂດ
ກງານເຂດບາງຂ
ກງານເຂດພ
ກງານເຂດພະຂະໂໜງ
ກງານເລຂາທ
ກງານໃຫຍ
ກງານໃຫຍຕ
ກຈ
ກຈະ
ກຈະກ
ກຈະຄ
ກຈະຕ
ກຈະຖ
ກຈະບ
ກຈະມ
ກຈະເປ
ກຈະເອ
ກຈະເຮ
ກຈະໃຊ
ກຈະໄດ
ກຈຳກ
ກຈຳຄ
ກຈຳນວນຫ
ກຈຳນວນໜ
ກຊ
ກຊະນ
ກຊະນະແລະເນ
ກຊາຍ
ກຊາຍກ
ກຊາຍຄ
ກຊາຍຜ
ກຊາຍຫ
ກຊາດ
ກຊາດພ
ກຊາດໄດ
ກຊານເດ
ກຊາຣ
ກຊາວໄທ
ກຊຳບວກ
ກຍ
ກຍອມຮ
ກຍາກ
ກຍາມທ
ກຍາເທ
ກດ
ກດອກ
ກດາ
ກດາວ
ກດາຫານ
ກດຳບ
ກດຽວກ
ກຕ
ກຕຣ
ກຕະກ
ກຕະຫ
ກຕະອ
ກຕາ
ກຕາດ
ກຕາດຄອນພະເພ
ກຕາດທ
ກຕາດນ
ກຕາດຟານ
ກຕາດຫ
ກຕາເວ
ກຖ
ກຖານ
ກຖານກ
ກຖານຊ
ກຖານທ
ກຖານທາງປະຫວ
ກຖານຢ
ກຖານວ
ກຖານອ
ກຖານະຂ
ກຖານະເປ
ກຖານໜ
ກຖຽງກ
ກທ
ກທາງ
ກທາງການຄ
ກທາງດ
ກທາງທ
ກທາງວ
ກທາງໜ
ກທາດ
ກທາຕ
ກທາລ
ກທຳນອງນ
ກທຳລາຍ
ກທຳອ
ກທຽມ
ກນ
ກນະ
ກນະຣ
ກນາຊ
ກນາຍ
ກນຳ
ກນຳກ
ກນຳໃຊ
ກນຳໄປສ
ກບ
ກບລ
ກບວດ
ກບາງຄ
ກບານ
ກບານສ
ກບານເຕະ
ກບານເຕະຊາວອ
ກບານເຕະທ
ກປ
ກປະກອບດ
ກປະການ
ກປະຈ
ກປະຊາຊ
ກປະຊາທ
ກປະດ
ກປະຕ
ກປະພ
ກປະມານ
ກປະສ
ກປະຫວ
ກປະເພດ
ກປະເພນ
ກປາກ
ກປາຍເນ
ກປາດ
ກປາວ
ກຜ
ກຜະລ
ກຝ
ກພ
ກພຣະທ
ກພຣະພ
ກພວກ
ກພວກກ
ກພະມ
ກພະລ
ກພະອ
ກພະໂລຫ
ກພາ
ກພາກ
ກພາກກາຕ
ກພາກສ
ກພາຍໃຕ
ກພາຕ
ກພາສາສາດ
ກພາສາໜ
ກພຽງ
ກຟ
ກມ
ກມວຍຊາວໄທ
ກມວຍສາກ
ກມອບໃຫ
ກມະນ
ກມາຕ
ກມານ
ກມາໃຫ
ກຢ
ກຣ
ກຣາ
ກລ
ກລມ
ກລວມເຂ
ກລອບສ
ກລະດ
ກລະບ
ກລະຫວ
ກລະເບ
ກລາກ
ກລາຊະວ
ກລາຍງານວ
ກລາຍຊ
ກລາວ
ກລາວຊ
ກລາວນ
ກລາວລ
ກລາວໄດ
ກລາສ
ກວ
ກວງບ
ກວດ
ກວດກາ
ກວດສອບເມ
ກວນ
ກວນຢ
ກວມ
ກວມອ
ກວມເອ
ກວາງ
ກວາງຊາຍ
ກວາງຕ
ກວາຍ
ກວາດ
ກວາດຕ
ກວຽນ
ກສ
ກສວມມ
ກສອງຄ
ກສອງທ
ກສອນ
ກສອນຈ
ກສອນຕ
ກສອນທ
ກສອນພະຍ
ກສອນພະມ
ກສອນລາວ
ກສອນລາວບ
ກສອນລາວມ
ກສອນລາວເດ
ກສອນວ
ກສອນສາກ
ກສອນສາດ
ກສອນຫຍ
ກສອນເຫ
ກສອນໂລມ
ກສອນໃຫ
ກສະ
ກສະກ
ກສະຈ
ກສະຖ
ກສະຖານ
ກສະຖານທ
ກສະນ
ກສະນະ
ກສະນະກ
ກສະນະຂ
ກສະນະຂອງວ
ກສະນະຄ
ກສະນະດ
ກສະນະດຽວກ
ກສະນະຕ
ກສະນະທ
ກສະນະທາງພ
ກສະນະນ
ກສະນະພ
ກສະນະມະຫາບ
ກສະນະສ
ກສະນະເຄ
ກສະນະເຊ
ກສະນະເດ
ກສະນະເປ
ກສະນາວ
ກສະບ
ກສະພາ
ກສະພານ
ກສະພາຜ
ກສະພາສ
ກສະພາແຫ
ກສະມະຍາພ
ກສະຫ
ກສະຫຍາມ
ກສະຫວ
ກສະເດ
ກສະເຫ
ກສະເໜ
ກສະແດງ
ກສະແດງຊາຍຊາວໄທ
ກສະແດງຊາວອ
ກສະແດງຊາວອາເມລ
ກສະແດງຊາວໄທ
ກສະແດງຍ
ກສະແດງຕະຫ
ກສະແດງທ
ກສະແດງລາວ
ກສະແດງສ
ກສະແດງຫ
ກສະແດງອ
ກສະແດງອາເມລ
ກສະແດງຮ
ກສະແດງເດ
ກສະແດງແລະນ
ກສະແດງໄທ
ກສະໄໝ
ກສະໄໝທ
ກສະໄໝໃໝ
ກສະໜ
ກສະໜານ
ກສະໝ
ກສາ
ກສາກ
ກສາການພ
ກສາຂ
ກສາຂອງ
ກສາຂອງທ
ກສາຂອງມະຫາວ
ກສາຄ
ກສາຄວາມບ
ກສາຄວາມສະຫງ
ກສາຄວາມເປ
ກສາຈ
ກສາຈາກຄ
ກສາຊ
ກສາຍ
ກສາດ
ກສາຕ
ກສາຕອນຕ
ກສາຕອນປາຍ
ກສາທ
ກສານ
ກສາບ
ກສາບາງກອກ
ກສາປ
ກສາປະລ
ກສາຜ
ກສາຝຣ
ກສາພ
ກສາພະອ
ກສາມ
ກສາຢ
ກສາລ
ກສາລະດ
ກສາລາ
ກສາລາວ
ກສາວ
ກສາວຄ
ກສາວຜ
ກສາສ
ກສາສາດ
ກສາຫ
ກສາຫນ
ກສາຫາລ
ກສາອ
ກສາຮ
ກສາຮຽນຮ
ກສາເຊ
ກສາເບ
ກສາເປ
ກສາເພ
ກສາເມ
ກສາເລ
ກສາເອກະຊ
ກສາແກ
ກສາແຜ
ກສາແຫ
ກສາໃນບາງກອກ
ກສາໃຫ
ກສາໄດ
ກສາໄວ
ກສຳລ
ກສຳຫ
ກສຽງ
ກສຽງເໜ
ກສຽງໃຕ
ກສໂປເນ
ກຫ
ກຫຍ
ກຫນ
ກຫລ
ກຫລາຍ
ກຫລາຍໆ
ກຫລາຍໆແຂວງທາງພາກເຫນ
ກຫະລ
ກອ
ກອງ
ກອງກຳລ
ກອງທ
ກອງບ
ກອງປະຊ
ກອງປະໃຫຍ
ກອງພ
ກອນ
ກອນຄ
ກອນຈະສະເຫລ
ກອນຈະເຊ
ກອນຈະເລ
ກອນຊາວໄທ
ກອນຍ
ກອນທ
ກອນນ
ກອນປ
ກອນປະຈຳຊ
ກອນມ
ກອນລາຍການໂທລະທ
ກອນລາວ
ກອນສະໂມສອນສ
ກອນຫ
ກອນຮ
ກອນແລະດາລາຮ
ກອນໄທ
ກອບ
ກອບກ
ກອບດ
ກອບໂຊກ
ກອມມ
ກອອກແບບມາເພ
ກອະຍ
ກອະທ
ກອະນ
ກອານານ
ກອາວະກາດ
ກອາໄສ
ກອາໄສຢ
ກຮ
ກຮວມເຂ
ກຮານ
ກຮານກ
ກຮານດ
ກຮານຢ
ກຮຽນ
ກຮຽນຄ
ກຮຽນຈ
ກຮຽນຊ
ກຮຽນຍ
ກຮຽນທ
ກຮຽນນ
ກຮຽນລາຊ
ກຮຽນຫ
ກຮຽນຮ
ກຮຽນເກ
ກະ
ກະກຽມ
ກະຈ
ກະຈາ
ກະຈາຍ
ກະຈາຍຂອງເຊ
ກະຈາຍສຽງ
ກະຈາຍສຽງແຫ
ກະຊ
ກະຊວງ
ກະຊວງກະສ
ກະຊວງການຕ
ກະຊວງການເງ
ກະຊວງຄ
ກະຊວງຊ
ກະຊວງຍ
ກະຊວງຖະແຫ
ກະຊວງປ
ກະຊວງພະລ
ກະຊວງພາຍໃນ
ກະຊວງມະຫາດໄທ
ກະຊວງມະຫາດໄທຈ
ກະຊວງມະຫາດໄທໄດ
ກະຊວງວ
ກະຊວງສ
ກະຊວງສາທາລະນະສ
ກະຊວງອ
ກະຊວງເສດຖະກ
ກະຊວງແຮງງານ
ກະຊວງໂຍທາທ
ກະຍ
ກະດ
ກະຕ
ກະທ
ກະທະຊະ
ກະທຳ
ກະທຳຜ
ກະນ
ກະບ
ກະປ
ກະພ
ກະມ
ກະມະລາດ
ກະຣ
ກະລ
ກະລະກະດາ
ກະລານລ
ກະວ
ກະສ
ກະສວຍອາວະກາດ
ກະຮອກ
ກະຮອກດ
ກະຮອກແກ
ກະເດ
ກະເທ
ກະເປ
ກະເລ
ກະເລໂອຕ
ກະເສ
ກະເສດ
ກະແຕ
ກະແລ
ກະແສ
ກະແສຕ
ກະແສນ
ກະແສໄຟຟ
ກະໂດດ
ກະໂຣດ
ກະໄດ
ກາ
ກາກ
ກາກາງ
ກາຂ
ກາງ
ກາງຄ
ກາງນ
ກາງປ
ກາງຫາວ
ກາງເມ
ກາຊ
ກາຍ
ກາຍຍ
ກາຍທ
ກາຍນ
ກາຍມາເປ
ກາຍວ
ກາຍອ
ກາຍອານາ
ກາຍເຖຣະວາດ
ກາຍເຖລະວາດ
ກາຍເປ
ກາຍໂລມ
ກາຍໃນສາສະໜາຄ
ກາດ
ກາດໜ
ກາຕ
ກາຖ
ກາທ
ການ
ການກ
ການກະຊວງ
ການກະທຳທ
ການກຳນ
ການຂ
ການຂອງ
ການຂະຫຍາຍຕ
ການຂາຍ
ການຄ
ການຄວບຄ
ການຄາດຕະກ
ການຄາດທະກ
ການຄາດຫວ
ການງານ
ການຈ
ການຈະນາ
ການຈະນາພ
ການຈະເລ
ການຈຳກ
ການຈຳໜ
ການຊ
ການຊອກຫາ
ການຍ
ການຍອມຮ
ການດ
ການດຳລ
ການດຳເນ
ການຕ
ການຕະຫ
ການຕະຫລາດ
ການຖ
ການທ
ການທະຫານ
ການທະຫານບ
ການທາງດ
ການທາສ
ການທຳ
ການທຳບ
ການທຳຮ
ການທຽບເທ
ການນ
ການນາມ
ການນຳພາ
ການນຳພາຂອງພ
ການນຳເຂ
ການນຳໃຊ
ການບ
ການບະດ
ການບານ
ການປ
ການປະກ
ການປະກວດ
ການປະກວດຂວ
ການປະກວດຄວາມງາມຊາຍ
ການປະກວດຄວາມງາມຊາຍທ
ການປະກວດຄວາມງາມທ
ການປະກວດຊ
ການປະກວດຊາຍງາມ
ການປະກວດຊາຍງາມໃນປະເທດໄທ
ການປະກວດນາງງາມ
ການປະກວດນາງງາມທ
ການປະກວດນາງງາມໃນປະເທດໄທ
ການປະກວດນາງແບບ
ການປະກວດນາງແບບໃນປະເທດໄທ
ການປະກວດນາຍແບບ
ການປະກວດນາຍແບບໃນປະເທດໄທ
ການປະກວດຜ
ການປະກວດມ
ການປະກວດລະດ
ການປະກວດແບ
ການປະກວດແອນຈ
ການປະກອບ
ການປະກອບສ
ການປະຊ
ການປະຊາຊ
ການປະດ
ການປະຕ
ການປະທ
ການປະພ
ການປະສ
ການປະເມ
ການຜ
ການຜະຈ
ການຜະລ
ການຜະສ
ການຜະເຊ
ການຝ
ການຝາກໂທດ
ການພ
ການພານ
ການຟ
ການມ
ການມອບລາງວ
ການຢ
ການຣ
ການລ
ການລະດ
ການລະບ
ການລະເມ
ການວ
ການສ
ການສອນ
ການສະ
ການສະກ
ການສະສ
ການສະຫ
ການສະເຫ
ການສະເຫລ
ການສະເໜ
ການສະແດງ
ການສະແດງຄວາຄ
ການສະແດງຄວາມເຄ
ການສະແດງທ
ການສະແດງສ
ການສະໜ
ການສະໜອງ
ການສາທາລະນ
ການສາທາລະນະສ
ການສຳຜ
ການສຳພ
ການສຳຫ
ການຫ
ການຫລ
ການຫາຍຕ
ການອ
ການອອກແບບ
ການອະນ
ການຮ
ການຮຽກຮ
ການາ
ການາດາ
ການເກ
ການເຂ
ການເຄ
ການເງ
ການເຈຣະຈາກ
ການເຊ
ການເດ
ການເຕ
ການເບ
ການເປ
ການເຜ
ການເຝ
ການເພ
ການເພາະປ
ການເມ
ການເລ
ການເວ
ການເວລາ
ການເສ
ການເສຍຊ
ການເອ
ການເຮ
ການເໜ
ການແກ
ການແຂ
ການແຈກຢາຍ
ການແຕ
ການແບ
ການແຜ
ການແພ
ການແພດ
ການແລກປ
ການແຫ
ການໂຈມຕ
ການໂຕ
ການໂທລະສ
ການໂອ
ການໂອນເງ
ການໂຮງ
ການໂຮງແຮມ
ການໃຊ
ການໃດໜ
ການໃນປ
ການໃສ
ການໃຫ
ການໃຫຍ
ການໄດ
ການໄຟຟ
ການໄຫ
ການໄຫວ
ການໜ
ກາບ
ກາບກອນ
ກາບບ
ກາບເຫ
ກາປ
ກາພ
ກາມ
ກາມາໂດະ
ກາຣ
ກາຣຫລ
ກາຣແຫ
ກາລ
ກາລາຕ
ກາວ
ກາສ
ກາສະ
ກາຫ
ກາອ
ກາເຂ
ກາເຈ
ກາເຊ
ກາເປ
ກາເພ
ກາເຟ
ກາເມ
ກາເໜ
ກາໂຕລ
ກາໃຕ
ກາໃນປ
ກາໃຫ
ກາໄດ
ກຳ
ກຳກ
ກຳຂອງສ
ກຳຈ
ກຳຕ
ກຳທ
ກຳນ
ກຳບ
ກຳປ
ກຳມະ
ກຳມະກອນ
ກຳມະການ
ກຳມະການກ
ກຳມະການສ
ກຳມະວາຈ
ກຳລ
ກຳລະກ
ກຳສ
ກຳເນ
ກຳເໜ
ກຳແພງເມ
ກຳໄລ
ກຳໜ
ກຽກກ
ກຽດ
ກຽດຊ
ກຽດຕ
ກຽດນ
ກຽດແກ
ກຽມ
ກຽມຕ
ກຽມເຂ
ກຽວກ
ກເກ
ກເກຍ
ກເກນ
ກເຂ
ກເຄ
ກເຄາະຮ
ກເງ
ກເຈ
ກເຊ
ກເດ
ກເຕ
ກເຕະ
ກເຕະທ
ກເຕະບານ
ກເຕະບານຫນ
ກເຕະປະຈ
ກເຖ
ກເທ
ກເທດສະນາທ
ກເນ
ກເບ
ກເປ
ກເຜ
ກເພ
ກເມ
ກເຣ
ກເລ
ກເລງຄ
ກເວ
ກເສ
ກເສດຖະສາດ
ກເສບ
ກເສລ
ກເຫ
ກເອ
ກເຮ
ກເໜ
ກເໝ
ກແກ
ກແຂນ
ກແຂວງ
ກແຈ
ກແຊ
ກແຕ
ກແທ
ກແນ
ກແບ
ກແບບໜ
ກແຜ
ກແພງ
ກແຟນເຜດ
ກແມ
ກແລ
ກແລະ
ກແລະຈ
ກແລະທ
ກແລະນ
ກແລະບ
ກແລະຜ
ກແລະພ
ກແລະສ
ກແລະຫ
ກແລະອ
ກແລະເຂ
ກແລະເຄ
ກແລະເປ
ກແລະໄດ
ກແຫ
ກແຫນ
ກແອ
ກແຮດ
ກແໜ
ກໂກ
ກໂຈມຕ
ກໂຍນ
ກໂຕ
ກໂຕນ
ກໂຕຣນ
ກໂທດ
ກໂທນ
ກໂທຣນ
ກໂນໂລຊ
ກໂນໂລຍ
ກໂນໂລຢ
ກໂຣມ
ກໂລກ
ກໂລກເໜ
ກໂລມ
ກໃຄ
ກໃຈ
ກໃຊ
ກໃຕ
ກໃນ
ກໃນການ
ກໃນການສ
ກໃນຊ
ກໃນທ
ກໃນບ
ກໃນປ
ກໃນພ
ກໃນພະສ
ກໃນວ
ກໃນສ
ກໃນເດ
ກໃນເລ
ກໃຝ
ກໃສ
ກໃຫ
ກໃຫຍ
ກໃໝ
ກໄກ
ກໄດ
ກໄທ
ກໄປ
ກໄປກ
ກໄປທ
ກໄພ
ກໄຟຟ
ກໄມ
ກໄລ
ກໄວ
ກໄໝ
ກໆ
ກໆຂ
ກໆຄ
ກໆປ
ກໆມ
ກໜ
ກໜອງບ
ກໝ
ຂ
ຂຕ
ຂທ
ຂນ
ຂວ
ຂວາ
ຂວາງ
ຂອງ
ຂອງກ
ຂອງກອງທ
ຂອງກອງປະຊ
ຂອງກະສ
ຂອງກາ
ຂອງການ
ຂອງການບ
ຂອງການປ
ຂອງການປະກວດນາງງາມໃນປະເທດໄທຈ
ຂອງການສ
ຂອງຂ
ຂອງຂວ
ຂອງຄ
ຂອງຄອບຄ
ຂອງງານ
ຂອງຈ
ຂອງຈຳນວນບ
ຂອງຊ
ຂອງຊາດ
ຂອງຊານດຣ
ຂອງຊາວບ
ຂອງຍ
ຂອງດ
ຂອງດາວເຄາະນ
ຂອງຕ
ຂອງຕະຫ
ຂອງຕຳບ
ຂອງທ
ຂອງທະວ
ຂອງນ
ຂອງນາງ
ຂອງນາງໄດ
ຂອງນາຍ
ຂອງບ
ຂອງປ
ຂອງປະ
ຂອງປະຊາກອນທ
ຂອງປະຊາກອນປະເທດ
ຂອງປະຊາຊ
ຂອງປະເທດ
ຂອງປະເທດຈ
ຂອງປະເທດຍ
ຂອງປະເທດຝະລ
ຂອງປະເທດລາວ
ຂອງປະເທດອ
ຂອງປະເທດໄທ
ຂອງປະເທດໄທຈ
ຂອງຜ
ຂອງຝ
ຂອງຝຣ
ຂອງພ
ຂອງພຣະພ
ຂອງພຣະອ
ຂອງພຣະເຈ
ຂອງພວກຖ
ຂອງພວກເຂ
ຂອງພະນ
ຂອງພະມ
ຂອງພະອ
ຂອງພະເຈ
ຂອງພາສາ
ຂອງມ
ຂອງມະນ
ຂອງຣ
ຂອງລ
ຂອງລະບ
ຂອງລາວ
ຂອງລາວໄດ
ຂອງວ
ຂອງສ
ຂອງສະກ
ຂອງສະພາແຫ
ຂອງສະມາຄ
ຂອງສະມາຊ
ຂອງສະຫວ
ຂອງສະຫະພ
ຂອງສະຫະພາບເອ
ຂອງສະຫະລ
ຂອງສະຫະລາຊະອານາຈ
ຂອງສຳນ
ຂອງຫ
ຂອງຫນ
ຂອງຫວຽດນາມ
ຂອງອ
ຂອງອານາຈ
ຂອງຮ
ຂອງຮອບນ
ຂອງເກ
ຂອງເຂ
ຂອງເຂດ
ຂອງເຄ
ຂອງເຈ
ຂອງເຊ
ຂອງເດ
ຂອງເທ
ຂອງເນ
ຂອງເປ
ຂອງເຜ
ຂອງເພ
ຂອງເມ
ຂອງເຢຍລະມ
ຂອງເວ
ຂອງເສ
ຂອງເອ
ຂອງເຮ
ຂອງແກ
ຂອງແຂວງ
ຂອງແຂວງຫ
ຂອງແຊ
ຂອງແຕ
ຂອງແຜນການ
ຂອງແມ
ຂອງໂຄງການ
ຂອງໂລກ
ຂອງໄທ
ຂອງໜ
ຂອງໝ
ຂອນແກ
ຂອບ
ຂອບເຂດ
ຂອບໃຈ
ຂອມ
ຂະ
ຂະຈອນ
ຂະນ
ຂະນະ
ຂະນະຊ
ຂະນະດຽວກ
ຂະນະທ
ຂະນະນ
ຂະບວນການ
ຂະບວນການຕ
ຂະບວນລ
ຂະບວນແຫ
ຂະພາບ
ຂະພາບຈ
ຂະພາບດ
ຂະພາບທ
ຂະພາບແຂງແຮງ
ຂະມ
ຂະສ
ຂະຫຍາຍ
ຂະຫຍາຍຕ
ຂະຫຍາຍວ
ຂະຫຍາຍໄປທ
ຂະຫນາດຕ
ຂະຫນາດນ
ຂະຫນາດໃຫຍ
ຂະອະນາໄມ
ຂະອະນາໄມທ
ຂະອະນາໄມແມ
ຂະເໝນ
ຂະແມ
ຂະແໜງ
ຂະແໜງວ
ຂະແໜງອ
ຂະແໜງໜ
ຂະໜ
ຂະໜາດ
ຂະໜາດທ
ຂະໜາດນ
ຂະໜາດໃຫຍ
ຂະໜານການຈະນາພ
ຂະໜານມ
ຂາ
ຂາຍ
ຂາຍກ
ຂາຍດ
ຂາຍຕ
ຂາຍທ
ຂາຍມ
ຂາຍສ
ຂາຍຫ
ຂາຍາວ
ຂາຍເປ
ຂາຍໄດ
ຂາດ
ຂາດທ
ຂາດບ
ຂານ
ຂາບ
ຂາພ
ຂາມ
ຂາວ
ຂາວທ
ຂາວຢ
ຂາວະດ
ຂາວແມ
ຂາອອກ
ຂາເຂ
ຂຽນ
ຂຽນຂ
ຂຽນຈ
ຂຽນດ
ຂຽນບ
ຂຽນປ
ຂຽນຢ
ຂຽນລ
ຂຽນວ
ຂຽນສ
ຂຽນຮ
ຂຽນເປ
ຂຽນເມ
ຂຽນເລ
ຂຽນໂດຍ
ຂຽນໄວ
ຂຽວ
ຂຽວເຂ
ຂເປ
ຂເມນ
ຄ
ຄຄ
ຄຄະມະຫາສ
ຄນະຮ
ຄຣ
ຄລ
ຄລາສສ
ຄວ
ຄວນ
ຄວນຈະເປ
ຄວນຕ
ຄວນປະຕ
ຄວນມ
ຄວນລ
ຄວນສ
ຄວນແກ
ຄວນໃຊ
ຄວນໃຫ
ຄວບ
ຄວບຄ
ຄວາຍ
ຄວາມ
ຄວາມກ
ຄວາມກວ
ຄວາມກະຕ
ຄວາມກຳກວມ
ຄວາມຂ
ຄວາມຄ
ຄວາມງ
ຄວາມຈ
ຄວາມຈະເລ
ຄວາມຈຳກ
ຄວາມຈຳເປ
ຄວາມຊ
ຄວາມຊອບ
ຄວາມຊຳນ
ຄວາມຍ
ຄວາມຍາວ
ຄວາມຍາວທ
ຄວາມຍາວປະມານ
ຄວາມຍາວຫ
ຄວາມຍາວເຖ
ຄວາມດ
ຄວາມຕ
ຄວາມຕາຍ
ຄວາມຖ
ຄວາມທ
ຄວາມນ
ຄວາມບ
ຄວາມປ
ຄວາມຜ
ຄວາມຝ
ຄວາມພ
ຄວາມຟ
ຄວາມມ
ຄວາມຢ
ຄວາມລ
ຄວາມວ
ຄວາມສ
ຄວາມສອດຄ
ຄວາມສະຫງ
ຄວາມສະຫວ
ຄວາມສະເໝ
ຄວາມສາມ
ຄວາມສາມາດ
ຄວາມສາມາດດ
ຄວາມສາມາດຕ
ຄວາມສາມາດພ
ຄວາມສຳຄ
ຄວາມສຳນ
ຄວາມສຳພ
ຄວາມສຳເລ
ຄວາມຫ
ຄວາມຫຍ
ຄວາມຫມາຍ
ຄວາມຫມາຍທ
ຄວາມອ
ຄວາມອາດສາມາດ
ຄວາມອາດສາມາດຜະລ
ຄວາມຮ
ຄວາມເກງ
ຄວາມເຂ
ຄວາມເຄ
ຄວາມເຈ
ຄວາມເຊ
ຄວາມເທ
ຄວາມເປ
ຄວາມເພ
ຄວາມເລ
ຄວາມເສ
ຄວາມເຫ
ຄວາມເອ
ຄວາມເໝາະສ
ຄວາມແຕກຕ
ຄວາມໂກດ
ຄວາມໂງ
ຄວາມໂດດເດ
ຄວາມໃກ
ຄວາມໄດ
ຄວາມໄວ
ຄວາມໄວສ
ຄວາມໜ
ຄວາມໜາແໜ
ຄວາມໝ
ຄວາມໝາຍ
ຄວາມໝາຍຂອງຄຳວ
ຄວາມໝາຍທ
ຄວາມໝາຍວ
ຄວາມໝາຍເຖ
ຄສ
ຄສຊ
ຄອ
ຄອກ
ຄອງ
ຄອງຂ
ຄອງຄ
ຄອງຈ
ຄອງຊ
ຄອງຕ
ຄອງທ
ຄອງນ
ຄອງບ
ຄອງບາງກອກໃຫຍ
ຄອງບາງຊ
ຄອງປະເວດບ
ຄອງຜະດ
ຄອງວ
ຄອງສ
ຄອງຫ
ຄອງອ
ຄອງເຕ
ຄອງແສນແສບ
ຄອຍ
ຄອຍຊ
ຄອນ
ຄອນຕ
ຄອນພະເພ
ຄອນເທສ
ຄອນເສ
ຄອບ
ຄອບຄ
ຄອມ
ຄອມພ
ຄອມມ
ຄອມເມດ
ຄະ
ຄະຍ
ຄະຍາ
ຄະດ
ຄະຕ
ຄະນ
ຄະນະ
ຄະນະກ
ຄະນະກຳມະການປ
ຄະນະຈ
ຄະນະຊາວໜ
ຄະນະທ
ຄະນະນ
ຄະນະບ
ຄະນະປະຈຳ
ຄະນະປະຈຳສະພາແຫ
ຄະນະຜ
ຄະນະພ
ຄະນະມ
ຄະນະລ
ຄະນະວ
ຄະນະສ
ຄະນະອ
ຄະນະຮ
ຄະມະນາຄ
ຄະລ
ຄະລະທ
ຄະແນນ
ຄະແນນໄປ
ຄະແນນໄປໃນຮອບນ
ຄາ
ຄາຍ
ຄາດ
ຄາດຄະເນ
ຄາດຕະກ
ຄາດວ
ຄາດຫວ
ຄາທ
ຄານ
ຄານທ
ຄາປ
ຄາມ
ຄາຣ
ຄາຣດຽນ
ຄາລ
ຄາລາບາວ
ຄາວ
ຄາສ
ຄາເຟ
ຄຳ
ຄຳກ
ຄຳກອນ
ຄຳກຳມະ
ຄຳຂວ
ຄຳຄ
ຄຳຍ
ຄຳຕ
ຄຳຕອບ
ຄຳຖາມມ
ຄຳທ
ຄຳນ
ຄຳນວນ
ຄຳນາມ
ຄຳບ
ຄຳປ
ຄຳຜ
ຄຳພ
ຄຳພອນ
ຄຳມ
ຄຳຢ
ຄຳລ
ຄຳວ
ຄຳສ
ຄຳສອນ
ຄຳອ
ຄຳອະທ
ຄຳຮ
ຄຳເຄ
ຄຳເຕ
ຄຳເມ
ຄຳເວ
ຄຳເຫ
ຄຳເອ
ຄຳໄຊ
ຄຳໄຕ
ຄຳໝ
ຄຽງ
ຄຽງກ
ຄຽງຂ
ຄຽງຄ
ຄຽງບ
ຄຽດ
ງ
ງກ
ງກວ
ງກວມເອ
ງກອງ
ງກອງທ
ງກອງປະຊ
ງກອງໜ
ງກອນ
ງກອນທ
ງກອນນ
ງກອນນຳພາ
ງກອນບ
ງກອນມ
ງກອນມະຫາວ
ງກອນຣາຊະວ
ງກອນລ
ງກອນວ
ງກະຕ
ງກະລ
ງກະລາເທດ
ງກະສ
ງກະເບ
ງກະເສມ
ງກະເສມເປ
ງກະໂປ
ງກາ
ງກາງ
ງກາງແມ
ງກາຊ
ງກາຍ
ງກາຍທ
ງກາຍມາເປ
ງກາຍເປ
ງກາດ
ງການ
ງການກ
ງການການຄ
ງການຂ
ງການຂອງລ
ງການຂະຫຍາຍຕ
ງການຄ
ງການຈ
ງການຊ
ງການຍ
ງການດ
ງການດຽວທ
ງການຕ
ງການຕະຫ
ງການທ
ງການທຽບເທ
ງການນ
ງການນາຊາ
ງການບ
ງການປ
ງການປະຕ
ງການຜະລ
ງການພ
ງການພຣະພ
ງການພຣະພດທະສາສະໜາສຳພ
ງການມ
ງການຢ
ງການລ
ງການລະຫວ
ງການວ
ງການສ
ງການສະຫວ
ງການສະຫະປະຊາຊາດ
ງການສະຫະປະຊາຊາດໄດ
ງການສະເດ
ງການຫ
ງການອ
ງການອະນາໄມໂລກ
ງການຮ
ງການເຄ
ງການເດ
ງການເມ
ງການເລ
ງການເຮ
ງການແຂ
ງການໃຊ
ງການໃຫ
ງການໄດ
ງການໄປສະນ
ງການໄອຍາການປະຊາຊ
ງກາຣ
ງກາລ
ງກາວ
ງກາສ
ງກາເປ
ງກາໂຕລ
ງກຳກ
ງກຳນ
ງກຳປ
ງກຳລ
ງກຳເນ
ງກຳໜ
ງຂ
ງຂວ
ງຂວາ
ງຂວາຂອງແມ
ງຂອງ
ງຂອງກ
ງຂອງການປະຊ
ງຂອງການສ
ງຂອງຂ
ງຂອງຄ
ງຂອງຈ
ງຂອງຊ
ງຂອງຍ
ງຂອງດ
ງຂອງຕ
ງຂອງຖ
ງຂອງທ
ງຂອງນ
ງຂອງນາຍ
ງຂອງບ
ງຂອງປ
ງຂອງປະເທດ
ງຂອງປະເທດລາວ
ງຂອງປະເທດໄທ
ງຂອງຜ
ງຂອງພ
ງຂອງພວກເຂ
ງຂອງພະອ
ງຂອງມ
ງຂອງມະຫາວ
ງຂອງລ
ງຂອງລາວ
ງຂອງວ
ງຂອງສ
ງຂອງສຳນ
ງຂອງຫ
ງຂອງອ
ງຂອງອານາຈ
ງຂອງອຳເພ
ງຂອງຮ
ງຂອງເຂ
ງຂອງເຈ
ງຂອງເມ
ງຂອງເສ
ງຂອງໂລກ
ງຂອງໜ
ງຂອນ
ງຂອນວ
ງຂະນະນ
ງຂະຫຍາຍຕ
ງຂະໜາດໃຫຍ
ງຂາ
ງຂາຍໃຫ
ງຂາດ
ງຂານ
ງຂານຂ
ງຂານທ
ງຂາຣາ
ງຂາວ
ງຄ
ງຄວບຄ
ງຄວາມ
ງຄວາມກ
ງຄວາມຂ
ງຄວາມຄ
ງຄວາມງ
ງຄວາມຈ
ງຄວາມຈະເລ
ງຄວາມດ
ງຄວາມຕ
ງຄວາມທ
ງຄວາມບ
ງຄວາມສ
ງຄວາມສຳຄ
ງຄວາມຫວ
ງຄວາມອ
ງຄວາມຮ
ງຄວາມເຈ
ງຄວາມເຊ
ງຄວາມເປ
ງຄວາມເຫ
ງຄອບຄ
ງຄອມມ
ງຄະ
ງຄະດ
ງຄະທາດ
ງຄະທານ
ງຄະນ
ງຄະນະສ
ງຄະພ
ງຄະມ
ງຄະລ
ງຄະລາດ
ງຄະລາດກ
ງຄະສ
ງຄະໂປ
ງຄາ
ງຄາຕ
ງຄາທ
ງຄານ
ງຄານທ
ງຄາມ
ງຄາມກ
ງຄາມກາງເມ
ງຄາມຈ
ງຄາມຕ
ງຄາມທ
ງຄາມນ
ງຄາມປ
ງຄາມພ
ງຄາມຢ
ງຄາມລະຫວ
ງຄາມສ
ງຄາມຫ
ງຄາມຫວຽດນາມ
ງຄາມອ
ງຄາມເກ
ງຄາມເປ
ງຄາມເຢ
ງຄາມໂລກ
ງຄາມໂລກຄ
ງຄາມໃນອ
ງຄາມໄດ
ງຄາເຮ
ງຄຳ
ງຄຳຖາມ
ງຄຳຖາມກ
ງຄຳຖາມວ
ງຄຳວ
ງຄຳຮ
ງງ
ງງາ
ງງານ
ງງານກ
ງງານຂ
ງງານຄ
ງງານຄວາມຮ
ງງານທ
ງງານນ
ງງານນຳ
ງງານລ
ງງານສ
ງງານຫ
ງງານແບບຍ
ງງານແສງຕາເວ
ງງານແຫ
ງງານໃໝ
ງງານໄຟ
ງງານໄຟຟ
ງຈ
ງຈອນ
ງຈະ
ງຈະກ
ງຈະຈ
ງຈະຊ
ງຈະຕ
ງຈະຖ
ງຈະນ
ງຈະບ
ງຈະມ
ງຈະຢ
ງຈະສ
ງຈະຮ
ງຈະເກ
ງຈະເຂ
ງຈະເຖ
ງຈະເປ
ງຈະເລ
ງຈະເຫ
ງຈະເຮ
ງຈະໃຊ
ງຈະໄດ
ງຈາກ
ງຈາກກ
ງຈາກການຕ
ງຈາກການລ
ງຈາກການເຊ
ງຈາກການເປ
ງຈາກຂ
ງຈາກຄ
ງຈາກຈ
ງຈາກຊ
ງຈາກຕ
ງຈາກຖ
ງຈາກທ
ງຈາກນ
ງຈາກບ
ງຈາກປ
ງຈາກຜ
ງຈາກພ
ງຈາກມ
ງຈາກລ
ງຈາກລະດ
ງຈາກສ
ງຈາກຫ
ງຈາກອ
ງຈາກຮ
ງຈາກເປ
ງຈາກເມ
ງຈາກເຮ
ງຈາກໄດ
ງຈຳກ
ງຈຳນວນ
ງຈຳນວນຫ
ງຈຳເປ
ງຈຳໄດ
ງຊ
ງຊະນ
ງຊະນະເລ
ງຊາຍ
ງຊາຍຝ
ງຊາດ
ງຊາດຂອງອ
ງຊາດຊ
ງຊາດດ
ງຊາດທ
ງຊາດນ
ງຊາດບ
ງຊາດພ
ງຊາດຟ
ງຊາດມ
ງຊາດຢ
ງຊາດລາວ
ງຊາດສ
ງຊາດອ
ງຊາດອາຟຣ
ງຊາດເປ
ງຊາດເພ
ງຊາດເຢຍລະມ
ງຊາດແມ
ງຊາດໄດ
ງຊາດໄທ
ງຊານ
ງຊາບວ
ງຊາວຍ
ງຊາວຕ
ງຊາວບ
ງຊາວອ
ງຊາວອາເມລ
ງຊາວໄທ
ງຊຽງແກ
ງຍ
ງຍາກ
ງຍາກສ
ງຍາພ
ງຍາວ
ງດ
ງດອກ
ງດອກກ
ງດອງ
ງດອງກ
ງດານມາກ
ງດາລາ
ງດາວສະເດ
ງດຳລ
ງດຳເນ
ງດຽວ
ງດຽວກ
ງດຽວທ
ງດຽວເທ
ງຕ
ງຕຣ
ງຕອນນ
ງຕະກ
ງຕະຫ
ງຕະເວ
ງຕາກຕ
ງຕາມ
ງຕາມຂ
ງຕາມຈ
ງຕາມຕຳແໜ
ງຕາມທ
ງຕາມບ
ງຕາມປ
ງຕາມປະເທດ
ງຕາມລຳດ
ງຕາມວ
ງຕາມສ
ງຕາມຫ
ງຕາມອາຊ
ງຕາເວ
ງຕຳບ
ງຕຳລ
ງຕຳແໜ
ງຖ
ງຖະໜ
ງຖາວອນ
ງທ
ງທຣ
ງທອງ
ງທອງຫ
ງທະນ
ງທະລາຍລ
ງທະວ
ງທະຫານຝ
ງທະເລ
ງທະເລອ
ງທາງ
ງທາງການເມ
ງທາງດ
ງທາງທ
ງທາງທະເລ
ງທາງບ
ງທາງລ
ງທາງອາກາດ
ງທາງໂລກແລະທາງທ
ງທາດ
ງທາດຫ
ງທຳ
ງທຳນ
ງທຳນອງ
ງທຳອ
ງນ
ງນອກ
ງນະຄອນຫ
ງນາ
ງນາຍ
ງນາທ
ງນາມ
ງນາມໃນ
ງນາວ
ງນຳ
ງນຳກ
ງນຳທ
ງນຳໂດຍເຈ
ງນຳໄປສ
ງບ
ງບອກ
ງບອກວ
ງບອກເຖ
ງບອກໃຫ
ງບາງຄ
ງບາງສ
ງບຳເພ
ງປ
ງປວງ
ງປະ
ງປະກ
ງປະກອບ
ງປະກອບຂອງສ
ງປະກອບດ
ງປະກອບທ
ງປະກອບມ
ງປະກອບສ
ງປະກອບອາວ
ງປະກອບໄປດ
ງປະກາຍ
ງປະຈ
ງປະຊາຊ
ງປະດ
ງປະຕ
ງປະຖ
ງປະທ
ງປະທານຄະນະສ
ງປະທານາທ
ງປະພ
ງປະມ
ງປະມານ
ງປະລ
ງປະສ
ງປະຫວ
ງປະເທດລາວ
ງປະເທດອ
ງປະເທດໄທ
ງປາກ
ງປາກນ
ງປາປ
ງປາຣ
ງປາລ
ງປາວ
ງປາໄສ
ງຜ
ງຜະລ
ງຜາ
ງຝ
ງຝຣ
ງຝະລ
ງພ
ງພຣະທ
ງພຣະພ
ງພຣະສ
ງພຣະອ
ງພວກເຂ
ງພອສ
ງພະກະລ
ງພະຄ
ງພະຊ
ງພະຍ
ງພະຍາໄທ
ງພະທາດ
ງພະນ
ງພະນະຄອນ
ງພະບ
ງພະບາດສ
ງພະປ
ງພະພ
ງພະມ
ງພະມະຫາກະສ
ງພະຣ
ງພະລ
ງພະລາຊະດຳລ
ງພະລາຊະນ
ງພະສ
ງພະອ
ງພະເຈ
ງພະເຍ
ງພາກ
ງພາກອ
ງພາຍນອກ
ງພາຍຫ
ງພາຍໃຕ
ງພາຍໃນ
ງພາຍໃນແລະຕ
ງພານ
ງພາບຖ
ງພຽງ
ງພຽງນ
ງພຽງວຽງຈ
ງພຽງແຕ
ງຟ
ງມ
ງມວນຊ
ງມອບ
ງມອບສ
ງມອບໃຫ
ງມະ
ງມະຕ
ງມະນ
ງມະຫ
ງມະຫາຊ
ງມະຫາວ
ງມະຫາສະໝ
ງມາ
ງມາກ
ງມາຈ
ງມາຈາກ
ງມາຈາກໂດມແກ
ງມາຊ
ງມາຍ
ງມາດ
ງມາຕ
ງມາທ
ງມາທາງໃຕ
ງມາຢ
ງມາລ
ງມາສ
ງມາເກ
ງມາເຖ
ງມາເປ
ງມາເພ
ງມໃຫ
ງຢ
ງຢາຍຢ
ງຣ
ງຣາຍ
ງລ
ງລວມ
ງລວມທ
ງລວມມ
ງລວມເຖ
ງລອນດອນ
ງລະ
ງລະຄອນໂທລະທ
ງລະດ
ງລະບ
ງລະບອບໃຫມ
ງລະຫວ
ງລາງວ
ງລາຊະວ
ງລາຊະສ
ງລາຊະອານາຈ
ງລາຊານ
ງລາຍເຊ
ງລາວ
ງລາວກ
ງລາວບ
ງລາວເປ
ງລາວໄດ
ງວ
ງວງ
ງວອນ
ງວານ
ງວຽງ
ງວຽງຈ
ງວຽນ
ງວຽນໃຫຍ
ງສ
ງສນ
ງສວນດ
ງສວນສ
ງສອງ
ງສອງກ
ງສອງຂ
ງສອງຄ
ງສອງຈ
ງສອງຊ
ງສອງດ
ງສອງທ
ງສອງນ
ງສອງປະເທດ
ງສອງຜ
ງສອງຝ
ງສອງຝາກຝ
ງສອງພ
ງສອງຟາກຝ
ງສອງຢ
ງສອງຫ
ງສອງຮ
ງສອງຮອບ
ງສອງເມ
ງສອງໄດ
ງສອນ
ງສອນບ
ງສະ
ງສະກ
ງສະຕາ
ງສະຖ
ງສະຖານ
ງສະຖານທ
ງສະຖາບ
ງສະຖາປ
ງສະທ
ງສະທອນ
ງສະບ
ງສະມ
ງສະມາຄ
ງສະມາຊ
ງສະລ
ງສະວ
ງສະຫ
ງສະຫວ
ງສະຫວາດ
ງສະຫະນາດ
ງສະຫະປະຊາຊາດ
ງສະຫະພ
ງສະຫະລ
ງສະຫະລາຊະອານາຈ
ງສະເດ
ງສະເລ
ງສະເໜ
ງສະແດງທ
ງສະແດງເຖ
ງສະແດງໃຫ
ງສະໜ
ງສະໝ
ງສາ
ງສາກ
ງສາງ
ງສາຕະວ
ງສາທ
ງສາທາລະນະ
ງສາທາລະນະລ
ງສານ
ງສາມ
ງສາມຄ
ງສາມຊ
ງສາມນ
ງສາມາດຍ
ງສາມາດຕ
ງສາມາດນຳເອ
ງສາມາດພ
ງສາມາດສ
ງສາມາດເປ
ງສາມາດເພ
ງສາມາດເອ
ງສາມາດໃຊ
ງສາລ
ງສາລະວ
ງສາວ
ງສາວະດ
ງສາວະດານ
ງສາວະດານວ
ງສາຮາມ
ງສາເຊ
ງສາເຊວຊຽດ
ງສາເຫນ
ງສາເໜ
ງສາໃຕ
ງສຳຄ
ງສຳນ
ງສຳລ
ງສຳຫລ
ງສຳຮອງ
ງສຳເຣ
ງສຳເລ
ງຫ
ງຫຍ
ງຫນ
ງຫມ
ງຫມາຍຄວາມວ
ງຫມາຍທ
ງຫມາຍເຖ
ງຫລ
ງຫລວງ
ງຫລວງພະບາງ
ງຫລາຍ
ງຫລາຍຈ
ງຫລາຍຖ
ງຫລາຍໃຫ
ງຫວ
ງຫວະ
ງຫະເສນ
ງຫາ
ງຫາກ
ງຫານ
ງຫານທ
ງຫານຫ
ງຫານເມ
ງຫານໝ
ງຫາປ
ງຫາຣາຊ
ງຫາລ
ງຫາເປ
ງອ
ງອອ
ງອອກ
ງອອກກ
ງອອກຕ
ງອອກບ
ງອອກມ
ງອອກສ
ງອອກຫ
ງອອກເປ
ງອອກໄດ
ງອະດ
ງອະທ
ງອະນ
ງອະພ
ງອາຊ
ງອາຍ
ງອາດກ
ງອາດຈະເປ
ງອາດມ
ງອາດສ
ງອາດເປ
ງອາທ
ງອານາຈ
ງອາລ
ງອາວ
ງອາຫານ
ງອາຫານອ
ງອາອາວ
ງອາເມລ
ງອາໄສຢ
ງອຳນວຍຄວາມສະດວກ
ງອຳພອນສະຖານ
ງອຳເພ
ງຮ
ງຮອງຈາກເວທ
ງຮອງຊະນະເລ
ງຮອງຜ
ງຮອຍກ
ງຮອດ
ງຮອບ
ງຮຽກວ
ງຮຽກຮ
ງຮຽນຢ
ງາ
ງານ
ງານກ
ງານຄ
ງານຕ
ງານທ
ງານບ
ງານບອຕ
ງານບານ
ງານປະກວດນາງສາວດອກງ
ງານປະເພນ
ງານວ
ງານສ
ງານອະດ
ງານເທດສະການດອກງ
ງານເຮ
ງານໄດ
ງາມ
ງາມຂອງຊາດ
ງາມທ
ງເກ
ງເກດ
ງເກດການ
ງເກດວ
ງເກດເຫ
ງເກມນ
ງເຂ
ງເຂດ
ງເຂດການປ
ງເຂດຈ
ງເຂດຊ
ງເຂດດ
ງເຂດຕ
ງເຂດທ
ງເຂດນ
ງເຂດບ
ງເຂດປ
ງເຂດອ
ງເຂດອານາຈ
ງເຂບ
ງເຄ
ງເຄາະ
ງເງ
ງເຈ
ງເຊ
ງເຊໂດນ
ງເຍ
ງເດ
ງເຕ
ງເຖ
ງເທ
ງເທບ
ງເທບກ
ງເທບຄຣ
ງເທບທ
ງເທບມະຫານະຄອນ
ງເທຟ
ງເນ
ງເນເທ
ງເບ
ງເປ
ງເຜ
ງເພ
ງເພງ
ງເພງຊາວໄທ
ງເພດ
ງເມ
ງເຣ
ງເລ
ງເລຂາທ
ງເວ
ງເວທ
ງເວລາທ
ງເວວ
ງເສ
ງເສດ
ງເສດຖະກ
ງເສດເຫ
ງເສດໄດ
ງເສລ
ງເຫ
ງເຫດຜ
ງເຫລ
ງເອ
ງເອງ
ງເຮ
ງເໜ
ງເໝ
ງແກ
ງແກງ
ງແຂ
ງແຂວງອ
ງແຄ
ງແຈ
ງແຊ
ງແຊມປ
ງແຍກດ
ງແຍກຕ
ງແຍງ
ງແດ
ງແດງ
ງແດນເຊ
ງແຕ
ງແຕກຕ
ງແທ
ງແທນ
ງແນດ
ງແນວຄ
ງແນວໃດ
ງແບ
ງແບບດ
ງແບບທ
ງແປວ
ງແຜ
ງແຜງ
ງແມ
ງແລ
ງແລະ
ງແລະກ
ງແລະການບ
ງແລະຂ
ງແລະຄ
ງແລະຈ
ງແລະຊ
ງແລະຕ
ງແລະຖ
ງແລະທ
ງແລະນ
ງແລະບ
ງແລະຜ
ງແລະພ
ງແລະມ
ງແລະລ
ງແລະວ
ງແລະວຽດມ
ງແລະຫ
ງແລະອ
ງແລະອອກຕ
ງແລະອານາເຂດ
ງແລະຮ
ງແລະເປ
ງແລະເສ
ງແລະແມ
ງແວດລ
ງແວມະລ
ງແສງ
ງແສນ
ງແຫ
ງແຫລ
ງແຫວນ
ງແອສະປາຍ
ງແຮງ
ງແຮງງານ
ງແຮມ
ງໂກ
ງໂກນ
ງໂກລ
ງໂກລາ
ງໂຂງ
ງໂຄ
ງໂຄງສ
ງໂຄຈອນ
ງໂຄຈອນຂອງດາວພ
ງໂດກ
ງໂດຍ
ງໂດຍກ
ງໂດຍທ
ງໂດຍບ
ງໂດຍສະເລ
ງໂດຍເລ
ງໂຕ
ງໂຕທອງ
ງໂທດ
ງໂນນພ
ງໂປ
ງໂປດເກ
ງໂປດໃຫ
ງໂຜດເກ
ງໂຣມ
ງໂລກ
ງໂຮງຮຽນຫ
ງໂຮງໝ
ງໂໜ
ງໃກ
ງໃຈ
ງໃຈທ
ງໃຈບ
ງໃຈຫມ
ງໃຈເຮ
ງໃຈໃຫ
ງໃຈໄວ
ງໃຊ
ງໃດ
ງໃດກ
ງໃດທ
ງໃດສ
ງໃດໜ
ງໃຕ
ງໃນ
ງໃນກ
ງໃນກະດານຄຳຕອບວ
ງໃນການສ
ງໃນການແຂ
ງໃນຂ
ງໃນຂະນະນ
ງໃນຄ
ງໃນຈ
ງໃນຊ
ງໃນຍ
ງໃນດ
ງໃນຕ
ງໃນທ
ງໃນທະວ
ງໃນນ
ງໃນບ
ງໃນປ
ງໃນປະຈ
ງໃນປະເທດລາວ
ງໃນປະເທດໄທ
ງໃນຜ
ງໃນພ
ງໃນພາກຕາເວ
ງໃນພາກເໜ
ງໃນມ
ງໃນລ
ງໃນລະດ
ງໃນລະບ
ງໃນລະບອບເກ
ງໃນລະຫວ
ງໃນລາຍການ
ງໃນວ
ງໃນສ
ງໃນສະມາຊ
ງໃນສະໝອງ
ງໃນຫ
ງໃນອ
ງໃນອະດ
ງໃນຮ
ງໃນເກມນ
ງໃນເດ
ງໃນເບ
ງໃນເມ
ງໃນເລ
ງໃນແຂວງໜອງບ
ງໃນແງ
ງໃນແຕ
ງໃນໂລກ
ງໃນໜ
ງໃວ
ງໃສ
ງໃຫ
ງໃຫຍ
ງໃຫມ
ງໃໝ
ງໄກ
ງໄຂ
ງໄຊ
ງໄດ
ງໄທ
ງໄທຍ
ງໄປ
ງໄປກ
ງໄປຍ
ງໄປດ
ງໄປທ
ງໄປປະກວດ
ງໄປພ
ງໄປຢ
ງໄປສ
ງໄປເປ
ງໄປໃຫ
ງໄປໄດ
ງໄຟ
ງໄຟກ
ງໄຟຟ
ງໄຟລ
ງໄມ
ງໄວ
ງໄວລ
ງໄສ
ງໄສວ
ງໄຫ
ງໄຫລເຂ
ງໄຫຫ
ງໄໝ
ງໆ
ງໆທ
ງໜ
ງໜາວ
ງໝ
ງໝາຍຄວາມວ
ງໝາຍເຖ
ຈ
ຈຈ
ຈທ
ຈສ
ຈສາ
ຈອກ
ຈອງ
ຈອດ
ຈອນ
ຈອນນ
ຈອນຟອນ
ຈອນຟອນນ
ຈອນສ
ຈອມ
ຈອມພ
ຈະ
ຈະກ
ຈະກາຍເປ
ຈະຂ
ຈະຄ
ຈະຄວບຄ
ຈະຈ
ຈະຊ
ຈະຍ
ຈະດ
ຈະຕ
ຈະຖ
ຈະທ
ຈະນ
ຈະບ
ຈະປ
ຈະປະກອບດ
ຈະປະຕ
ຈະປະສ
ຈະຜ
ຈະພ
ຈະພາກ
ຈະມ
ຈະມາເຖ
ຈະມາເປ
ຈະຢ
ຈະຣ
ຈະລ
ຈະລະເບ
ຈະສ
ຈະສາມາດ
ຈະຫ
ຈະອ
ຈະຮ
ຈະເກ
ຈະເຂ
ຈະເຊ
ຈະເດ
ຈະເຕ
ຈະເຖ
ຈະເທ
ຈະເນ
ຈະເບ
ຈະເປ
ຈະເຣ
ຈະເລ
ຈະເວ
ຈະເຫ
ຈະເອ
ຈະເຮ
ຈະແກ
ຈະແຈ
ຈະແຕ
ຈະແຕກຕ
ຈະແບ
ຈະແມ
ຈະໃຊ
ຈະໃສ
ຈະໃຫ
ຈະໄດ
ຈະໝ
ຈະໝາຍຄວາມວ
ຈະໝາຍເຖ
ຈາ
ຈາກ
ຈາກກ
ຈາກກະຊວງຖະແຫລງຂ
ຈາກກະຊວງພາຍໃນ
ຈາກການ
ຈາກການຂ
ຈາກການຄ
ຈາກການທ
ຈາກການສ
ຈາກຂ
ຈາກຄ
ຈາກຈ
ຈາກຊ
ຈາກຍ
ຈາກຕ
ຈາກທ
ຈາກນ
ຈາກນະຄອນຫ
ຈາກບ
ຈາກປ
ຈາກປະເທດໄທ
ຈາກຜ
ຈາກພ
ຈາກພາສາຈ
ຈາກມະຫາວ
ຈາກລ
ຈາກວ
ຈາກສ
ຈາກສະຖາບ
ຈາກຫ
ຈາກອ
ຈາກຮ
ຈາກເຄ
ຈາກເດ
ຈາກເມ
ຈາກເວ
ຈາກໄປ
ຈາກໜ
ຈາງ
ຈາຕ
ຈານ
ຈານພະອ
ຈານຢ
ຈາບຽວ
ຈາມ
ຈາຣ
ຈາຣຍ
ຈາລ
ຈາລະນາ
ຈາລະນາຄະດ
ຈາລະນາຕ
ຈາລະນາວ
ຈາລະນາຮ
ຈຳ
ຈຳກ
ຈຳຕ
ຈຳນ
ຈຳນວນ
ຈຳນວນຄ
ຈຳນວນຈ
ຈຳນວນຊ
ຈຳນວນຖ
ຈຳນວນທ
ຈຳນວນທຳມະຊາດ
ຈຳນວນນ
ຈຳນວນບ
ຈຳນວນປ
ຈຳນວນປະຊາກອນຫ
ຈຳນວນປະເທດທ
ຈຳນວນຜ
ຈຳນວນພ
ຈຳນວນລ
ຈຳນວນສ
ຈຳນວນຫ
ຈຳນວນເງ
ຈຳນວນໜ
ຈຳປາ
ຈຳປາສ
ຈຳພ
ຈຳພວກ
ຈຳລອງ
ຈຳເປ
ຈຳໜ
ຈຽງ
ຊ
ຊກາລທ
ຊຊ
ຊນລະພ
ຊນະນ
ຊມ
ຊຣາຊ
ຊຣາດ
ຊຣາດກ
ຊວ
ຊວງ
ຊວນຊ
ຊອກ
ຊອກດານ
ຊອກຫາ
ຊອງ
ຊອງຕ
ຊອງປ
ຊອຍ
ຊອຍກ
ຊອຍຈ
ຊອຍຈະເລ
ຊອຍນະວະມ
ຊອຍປະຊາຊ
ຊອຍພ
ຊອຍພະຫ
ຊອຍພະຮາມ
ຊອຍພະຮາມທ
ຊອຍວະຊ
ຊອຍສ
ຊອຍອ
ຊອຍຮາມອ
ຊອຍເຖ
ຊອດ
ຊອນ
ຊອບ
ຊອບດ
ຊອຟຕ
ຊອຟແວ
ຊະ
ຊະຊະຊ
ຊະຕ
ຊະນ
ຊະນະ
ຊະນະການປະກວດ
ຊະນະການປະກວດຈະຕ
ຊະນະການປະກວດນາງງາມ
ຊະນະການປະກວດນາງງາມລະດ
ຊະນະການປະກວດແຕ
ຊະນະການແຂ
ຊະນະນ
ຊະນະສ
ຊະນະເລ
ຊະນະແມ
ຊະນະໃນປ
ຊະນະໄດ
ຊະບ
ຊະເວດາກອງ
ຊາ
ຊາກ
ຊາກດ
ຊາກອນ
ຊາການ
ຊາການຕ
ຊາການທ
ຊາການສ
ຊາການເພ
ຊາຄ
ຊາຄວາມຮ
ຊາງ
ຊາຊ
ຊາຍ
ຊາຍງາມ
ຊາຍງາມໃນປະເທດລາວ
ຊາຍທ
ຊາຍຝ
ຊາຍແດນ
ຊາຍແດນຈ
ຊາຍແດນຕ
ຊາຍແດນທ
ຊາຍແດນລະຫວ
ຊາຍແດນລາວ
ຊາດ
ຊາດກ
ຊາດທ
ຊາດນ
ຊາດພ
ຊາດລາວຕ
ຊາດສ
ຊາດແລະສາສະນາ
ຊາດໃນໂອລ
ຊາດໄດ
ຊາຕ
ຊາທ
ຊາທຳມະສາດແລະການເມ
ຊານ
ຊານດຣ
ຊານສະມາບ
ຊາບ
ຊາບກ
ຊາບວ
ຊາພ
ຊາມ
ຊາລ
ຊາລາແມນເດ
ຊາວ
ຊາວກ
ຊາວກະສ
ຊາວຄ
ຊາວຄຣ
ຊາວຈ
ຊາວຊ
ຊາວຕ
ຊາວນະຄອນຫ
ຊາວນະລາ
ຊາວນາ
ຊາວບ
ຊາວປ
ຊາວປອກຕ
ຊາວປະຍ
ຊາວຜ
ຊາວຝຣ
ຊາວພ
ຊາວພະມ
ຊາວມ
ຊາວມອນໄດ
ຊາວຢ
ຊາວລາວ
ຊາວວ
ຊາວສ
ຊາວຫ
ຊາວອ
ຊາວອາເມລ
ຊາວເດ
ຊາວເມ
ຊາວເຢຍລະມ
ຊາວໂທ
ຊາວໄທ
ຊາວໄທຂາວ
ຊາວໄທຄຳຕ
ຊາວໄທຊອງ
ຊາວໄທຍ
ຊາວໄທດຳ
ຊາວໄທທ
ຊາວໄທນ
ຊາວໄທພ
ຊາວໄທລ
ຊາວໄທລາຍ
ຊາວໄທຫຍ
ຊາວໄທເຂ
ຊາວໄທເຊ
ຊາວໄທເໜ
ຊາວໄທແດງ
ຊາວໄທແບ
ຊາວໄທໃຫຍ
ຊາວໜ
ຊາອ
ຊາຮາ
ຊາເບດ
ຊາເບລາ
ຊາເປ
ຊາເລ
ຊາແບ
ຊາໂພໂລ
ຊຳ
ຊຳບ
ຊຳລະ
ຊຳເໜ
ຊຽງ
ຊຽງຂວາງ
ຊຽງຂອງ
ຊຽງຕ
ຊຽງທອງ
ຊຽງຣາຍ
ຊຽງຮ
ຊຽງຮາຍ
ຊຽງໃໝ
ຊຽງໄຮ
ຊຽນ
ຍ
ຍກ
ຍການ
ຍການໄດ
ຍຂ
ຍຄ
ຍຄຕ
ຍຄຳຕອບ
ຍຄຳຕອບແລ
ຍຈ
ຍຊ
ຍຍ
ຍດ
ຍດຳລ
ຍຕ
ຍຖ
ຍທ
ຍນ
ຍນທ
ຍບ
ຍປ
ຍປະຈຳປ
ຍປະມານ
ຍປະສ
ຍປາກຂ
ຍຜ
ຍພ
ຍມ
ຍຢ
ຍຢານ
ຍຣ
ຍລ
ຍລາຍຮ
ຍວ
ຍວນ
ຍສ
ຍຫ
ຍອ
ຍອຍ
ຍອດ
ຍອດຍ
ຍອດນ
ຍອດຢ
ຍອມ
ຍອມຈ
ຍອມຈຳນ
ຍອມສ
ຍອມຮ
ຍອມໃຫ
ຍຮ
ຍະ
ຍະກ
ຍະຄ
ຍະຄະຕ
ຍະຈ
ຍະຍ
ຍະທ
ຍະທຳ
ຍະນ
ຍະບ
ຍະພ
ຍະມ
ຍະມະຫາລາດ
ຍະມະຫາສະຫວາມ
ຍະມາດ
ຍະມາວະດ
ຍະລາຊະກ
ຍະລາຊະນ
ຍະລາຊະປະຍ
ຍະວ
ຍະສ
ຍະສະຖານ
ຍະສະຖານແຫ
ຍະສາດ
ຍາ
ຍາກ
ຍາກອນ
ຍາງ
ຍາຈາມະ
ຍາຍ
ຍາຍທ
ຍາຍວ
ຍາດ
ຍາດຂອງຊອຟຕ
ຍາດພ
ຍາດອ
ຍາດາ
ຍາດແບບ
ຍາດໃຊ
ຍາດໃຫ
ຍາຕໃຫ
ຍາທ
ຍານ
ຍານຕ
ຍານພາຫະນະ
ຍານອາວະກາດ
ຍານແຫ
ຍາບ
ຍາພ
ຍາພອນ
ຍາພອນຈ
ຍາພອນອ
ຍາມ
ຍາມທ
ຍາມາຣະຍາດ
ຍາວ
ຍາວກວ
ຍາວທ
ຍາວປະມານ
ຍາວເຖ
ຍເກ
ຍເຂ
ຍເຈ
ຍເຊ
ຍເດ
ຍເຖ
ຍເປ
ຍເພ
ຍເລ
ຍເວ
ຍເສ
ຍເສຖາ
ຍເສຖາທ
ຍເຫ
ຍເອ
ຍເຮ
ຍແຂງ
ຍແຂງທ
ຍແຂງຟ
ຍແຜ
ຍແພ
ຍແມ
ຍແລ
ຍແລະແຈກຈ
ຍໃຊ
ຍໃສ
ຍໃຫ
ຍໄດ
ຍໆ
ດ
ດກ
ດກວ
ດກວາງສ
ດກອງທ
ດກອງປະຊ
ດກະຕ
ດກະບ
ດກະວ
ດກະສ
ດກະເສມ
ດກະແສໄຟຟ
ດກາກບອນທ
ດກາງ
ດກາຕ
ດການ
ດການກ
ດການຂ
ດການຄ
ດການຈ
ດການຊ
ດການດ
ດການດຳເນ
ດການຕ
ດການທ
ດການນ
ດການບ
ດການປ
ດການປະກວດ
ດການປະກວດຄ
ດການປະກວດນາງງາມສ
ດການປະກວດມ
ດການປະກວດມາດ
ດການປະກວດຮອບຕ
ດການປະຊ
ດການປະຕ
ດການຜະລ
ດການຝ
ດການພ
ດການຢ
ດການລ
ດການວ
ດການສ
ດການສອນ
ດການສະເໜ
ດການອ
ດການຮ
ດການເຂ
ດການເຄ
ດການເງ
ດການເປ
ດການເມ
ດການເຮ
ດການແຂ
ດການໂຈມຕ
ດການໃຊ
ດກາລ
ດກຳປ
ດກຳລ
ດກຳເນ
ດກຳແພງ
ດກຳໜ
ດຂ
ດຂວາ
ດຂວາງ
ດຂວາງຄວາມກ
ດຂອງ
ດຂອງກ
ດຂອງການສ
ດຂອງຄ
ດຂອງຈ
ດຂອງຊ
ດຂອງຊອຟຕ
ດຂອງຍ
ດຂອງດ
ດຂອງຕ
ດຂອງທ
ດຂອງນ
ດຂອງນາງ
ດຂອງບ
ດຂອງປ
ດຂອງປະຊາຊ
ດຂອງປະເທດ
ດຂອງປະເທດລາວ
ດຂອງປະເທດໄທ
ດຂອງຜ
ດຂອງພ
ດຂອງພຣະອ
ດຂອງພວກເຂ
ດຂອງພະບາດສ
ດຂອງພະມ
ດຂອງພະອ
ດຂອງພະເຈ
ດຂອງມ
ດຂອງມະນ
ດຂອງລ
ດຂອງລາວ
ດຂອງວ
ດຂອງສ
ດຂອງສະຖານ
ດຂອງສະຫະພ
ດຂອງສະຫະລ
ດຂອງສາທາລະນະລ
ດຂອງຫ
ດຂອງອ
ດຂອງອາກາດ
ດຂອງອານາຈ
ດຂອງຮ
ດຂອງເຂ
ດຂອງເຈ
ດຂອງເດ
ດຂອງເພ
ດຂອງເມ
ດຂອງເຢຍລະມ
ດຂອງເຮ
ດຂອງແຂວງ
ດຂອງແຊ
ດຂອງແມ
ດຂອງໂຕເອງ
ດຂອງໂລກ
ດຂອງໄທ
ດຂອນແກ
ດຂະຫຍາຍຕ
ດຂະໜາດກາງແລະຂະໜາດຍ
ດຂະໜາດນ
ດຂະໜາດໃຫຍ
ດຂາດ
ດຂຽນ
ດຄ
ດຄວບຄ
ດຄວາມ
ດຄວາມກ
ດຄວາມຄ
ດຄວາມຊ
ດຄວາມດ
ດຄວາມຕ
ດຄວາມທ
ດຄວາມນ
ດຄວາມບ
ດຄວາມຜ
ດຄວາມພ
ດຄວາມວ
ດຄວາມສ
ດຄວາມສຳຄ
ດຄວາມຫ
ດຄວາມຫລ
ດຄວາມອ
ດຄວາມຮ
ດຄວາມເຂ
ດຄວາມເດ
ດຄວາມເປ
ດຄວາມເສ
ດຄວາມໃຄ
ດຄວາມໃດໜ
ດຄວາມໃໝ
ດຄອງ
ດຄອງປະເພນ
ດຄອງອ
ດຄອນຕ
ດຄອບຄ
ດຄອມ
ດຄະດ
ດຄາລ
ດຄຳ
ດຄຳສ
ດງ
ດງານ
ດງານກ
ດງານບ
ດງານປະຕ
ດງານເທດສະການດອກງ
ດງານເພ
ດງາມ
ດຈ
ດຈອດກ
ດຈອມເຂ
ດຈອມເພ
ດຈະ
ດຈະກ
ດຈະການ
ດຈະການກ
ດຈະການຕ
ດຈະການທ
ດຈະການບ
ດຈະການຫ
ດຈະການອ
ດຈະການຮ
ດຈະກຳ
ດຈະກຳຕ
ດຈະກຳທ
ດຈະກຳທາງການເມ
ດຈະຕ
ດຈະຖ
ດຈະນານ
ດຈະບ
ດຈະມ
ດຈະລ
ດຈະເປ
ດຈະເລ
ດຈະເຮ
ດຈະໄດ
ດຈາ
ດຈາກ
ດຈາກກ
ດຈາກການຂ
ດຈາກການປ
ດຈາກການຮວມກ
ດຈາກຂ
ດຈາກຄວາມພະຍາຍາມສ
ດຈາກຕ
ດຈາກທ
ດຈາກນ
ດຈາກບ
ດຈາກຜ
ດຈາກພ
ດຈາກພາວະຫ
ດຈາກມ
ດຈາກລ
ດຈາກສ
ດຈາກສາຍພ
ດຈາກຫ
ດຈາກອ
ດຈາກໄມ
ດຈາກໄວຣ
ດຈານ
ດຈຳກ
ດຈຳນວນ
ດຈຳນວນຫ
ດຈຳໜ
ດຊ
ດຊອບ
ດຊອບກ
ດຊອບຂອງກ
ດຊອບຈ
ດຊອບດ
ດຊອບຕ
ດຊອບສ
ດຊອລທ
ດຊະການ
ດຊະການທ
ດຊະການສ
ດຊະຄະນ
ດຊະຍະຊ
ດຊະຍະບ
ດຊະຍາ
ດຊະດາພ
ດຊະນ
ດຊະນະສ
ດຊະນາໄລ
ດຊະບ
ດຊະມ
ດຊະຣ
ດຊະຣາດ
ດຊະລ
ດຊະລາດ
ດຊະສະໄໝ
ດຊະສະໄໝຂອງພະເຈ
ດຊະສະໄໝພະບາດສ
ດຊາ
ດຊາຍຄ
ດຊາຍແດນພາກໃຕ
ດຊາດ
ດຊາດທ
ດຊາດໃຫ
ດຊາວ
ດຊາວລາວ
ດຊາວອາເມລ
ດຊາໄລ
ດຊຽງທອງ
ດຊຽງຣາຍ
ດຊຽງຮາຍ
ດຊຽງໃໝ
ດຍ
ດຍອດ
ດຍະໂສທອນ
ດຍາ
ດຍາວ
ດດ
ດດອກງ
ດດອກໄມ
ດດາ
ດດາວ
ດດຳລ
ດດຳເນ
ດດຽວ
ດດຽວກ
ດດຽວນ
ດຕ
ດຕະ
ດຕະກ
ດຕະການ
ດຕະການເສດຖະກ
ດຕະກຳ
ດຕະກຳສ
ດຕະຈ
ດຕະຊ
ດຕະຍ
ດຕະຍະກ
ດຕະຍະກຳ
ດຕະຍະກຳຂ
ດຕະຍະກຳສາດ
ດຕະຍະສານ
ດຕະນະກ
ດຕະນະວ
ດຕະນະສ
ດຕະນະສາດສະດາລາມ
ດຕະນະໂກສ
ດຕະນາກ
ດຕະນາຄະນະຫ
ດຕະນາພອນ
ດຕະນາຣາມ
ດຕະປ
ດຕະພ
ດຕະພາບ
ດຕະພາບລາວ
ດຕະມ
ດຕະລ
ດຕະວ
ດຕະວາ
ດຕະສ
ດຕະສະຕະວ
ດຕະສາດ
ດຕະສາສະໜາ
ດຕະຫ
ດຕະເວ
ດຕະໂນປະລ
ດຕະໂນມ
ດຕາ
ດຕາກ
ດຕາການຈະເລ
ດຕາການເກ
ດຕາຄວາມໜາແໜ
ດຕາຍ
ດຕາດ
ດຕາດອກເບ
ດຕາທ
ດຕານ
ດຕາພາສ
ດຕາມ
ດຕາມກ
ດຕາມກວດກາການເຄ
ດຕາມຂ
ດຕາມຂອງ
ດຕາມຄວາມເຫ
ດຕາມຄຳສ
ດຕາມຕ
ດຕາມທ
ດຕາມນ
ດຕາມຜ
ດຕາມລະຫ
ດຕາມວ
ດຕາມສ
ດຕາມຫ
ດຕາວ
ດຕາສ
ດຕາເງ
ດຕາເວ
ດຕາແລກປ
ດຕຳບ
ດຕຳແໜ
ດຖ
ດຖບານ
ດຖະ
ດຖະກ
ດຖະກອນ
ດຖະກາ
ດຖະການ
ດຖະກຳ
ດຖະຍ
ດຖະດຳລ
ດຖະທ
ດຖະທຳ
ດຖະທຳມະນ
ດຖະນະທຳ
ດຖະບ
ດຖະບານ
ດຖະບານກ
ດຖະບານກາງ
ດຖະບານຂອງ
ດຖະບານຈ
ດຖະບານຊ
ດຖະບານຍ
ດຖະບານຕ
ດຖະບານທ
ດຖະບານທະຫານພະມ
ດຖະບານບ
ດຖະບານປະສ
ດຖະບານຜະສ
ດຖະບານຜະເດ
ດຖະບານພ
ດຖະບານມ
ດຖະບານຢ
ດຖະບານລາວ
ດຖະບານລາວໄດ
ດຖະບານສະຫະລ
ດຖະບານອ
ດຖະບານອາເມລ
ດຖະບານຮ
ດຖະບານເນເທ
ດຖະບານແມ
ດຖະບານແຫ
ດຖະບານໂຮນລ
ດຖະບານໃຫ
ດຖະບານໄດ
ດຖະບານໄທ
ດຖະປະຫານ
ດຖະປະຫານໃນປະເທດໄທ
ດຖະມ
ດຖະລ
ດຖະວ
ດຖະສ
ດຖະສະພາ
ດຖະສະພາໄທ
ດຖະສາດ
ດຖະແຫ
ດຖະໜ
ດຖາ
ດຖາຍະ
ດຖາທ
ດຖານ
ດຖານວ
ດຖາຮາມ
ດທ
ດທະ
ດທະການ
ດທະການແມ
ດທະຍ
ດທະຍອດຟ
ດທະຍາ
ດທະຍາຂ
ດທະຍາຄ
ດທະຍາຄານ
ດທະຍານ
ດທະຍານແຫ
ດທະຍາສ
ດທະຍາໄດ
ດທະຍາໄລອອກຊຟອດ
ດທະນະ
ດທະນະທ
ດທະນະທຳ
ດທະນະທຳທ
ດທະນະທຳທາງຝ
ດທະນະທຳບ
ດທະນະທຳລາວ
ດທະນະທຳສ
ດທະນະທຳອ
ດທະນະທຳແຫ
ດທະນາ
ດທະນາກ
ດທະນາກະສ
ດທະນາການ
ດທະນາການທ
ດທະນາການສ
ດທະນາຂ
ດທະນາຂອງອະສ
ດທະນາຈ
ດທະນາຊ
ດທະນາຍ
ດທະນາຕ
ດທະນາຖາວອນ
ດທະນາທ
ດທະນາທາງດ
ດທະນາທຳ
ດທະນາທຳທ
ດທະນານ
ດທະນາບ
ດທະນາປະເທດຊາດ
ດທະນາຜະລ
ດທະນາພ
ດທະນາມ
ດທະນາມະນ
ດທະນາມາຈາກອ
ດທະນາຢ
ດທະນາລະບ
ດທະນາວ
ດທະນາສ
ດທະນາຫ
ດທະນາອ
ດທະນາອາຊ
ດທະນາເຂດ
ດທະນາເປ
ດທະນາເພ
ດທະນາເມ
ດທະນາເສດຖະກ
ດທະນາແບບຍ
ດທະນາແລ
ດທະນາໂດຍ
ດທະນາໂດຍບ
ດທະນາໃຫ
ດທະນາໄດ
ດທະບາດ
ດທະບຽນ
ດທະປະຫວ
ດທະພ
ດທະມ
ດທະລ
ດທະວ
ດທະສ
ດທະສະຕະວ
ດທະສາດ
ດທະສາດດ
ດທະສາດທ
ດທະສາດສະໜາ
ດທະສາດສຳຄ
ດທະສາດເນ
ດທະສາສນາ
ດທະສາສະນ
ດທະສາສະນາ
ດທະສາສະນາທ
ດທະສາສະນາສພ
ດທະສາສະນາສຳພ
ດທະສາສະນາແບບທ
ດທະສາສະນາແບບມະຫານ
ດທະສາສະນາໃນທ
ດທະສາສະຫນາ
ດທະສາສະໜາ
ດທະສາສະໜານ
ດທະສາສະໜາບ
ດທະສາສະໜາສ
ດທະສາສະໜາຫລາຍຂ
ດທະອ
ດທະຮ
ດທະເຄາະຫະນ
ດທະເຈ
ດທະເລ
ດທາ
ດທາງ
ດທາງກ
ດທາງການຄ
ດທາງການເມ
ດທາງງ
ດທາງດ
ດທາງທ
ດທາງທະຫານ
ດທາງວ
ດທາດ
ດທາດຫ
ດທາດຫລວງເຫນ
ດທາທ
ດທານ
ດທາວາດ
ດທາວາສ
ດທາສ
ດທຳອ
ດທຽນເຍ
ດນ
ດນະຄອນນາຍ
ດນະຄອນປະຖ
ດນະຄອນລາຊະສ
ດນະຄອນສະຫວ
ດນາ
ດນາກ
ດນາຍ
ດນາເປ
ດນຳ
ດບ
ດບອນ
ດບາງກະດ
ດບາງຊະນ
ດບາງຍ
ດບາດ
ດບາດຂອງພຣະສ
ດບາດຂອງພະມະຫາກະສ
ດບາດຂອງອາເມຣ
ດບາດຂອງແມ
ດບາດຍ
ດບາດຕ
ດບາດທ
ດບາດທາງການເມ
ດບາດບ
ດບາດສ
ດບາດສຳຄ
ດບາດຫ
ດບາດເປ
ດບາດໃນນະໂຍບາຍຂອງພ
ດປ
ດປະ
ດປະກ
ດປະກວດ
ດປະກວດຄ
ດປະກວດແຍກໃນປ
ດປະກວດແຕ
ດປະກວດໃນນາມສະຖານ
ດປະກອບດ
ດປະຈ
ດປະຈວບຄ
ດປະຈຳຊາດ
ດປະຈຳຊາດດ
ດປະຈຳປ
ດປະຈຳວ
ດປະຊາຊ
ດປະຊາທ
ດປະຊານາດ
ດປະຊາບຳລ
ດປະດ
ດປະຕ
ດປະທ
ດປະທານ
ດປະພ
ດປະມ
ດປະມານ
ດປະລ
ດປະສ
ດປະຫ
ດປະເທດ
ດປະເພດອ
ດປະເພນ
ດປາກ
ດປາກວ
ດປາການ
ດປາຈ
ດປາຊ
ດຜ
ດຜະລ
ດຝ
ດຝຣ
ດຝະລ
ດພ
ດພຣະຈອມເກ
ດພຣະບ
ດພຣະພ
ດພຣະລາຊາທ
ດພຣະສ
ດພຣະສຣ
ດພຣະສຳມາສຳພ
ດພຣະອ
ດພຣະເຈ
ດພຣະແກ
ດພວກເຂ
ດພະກ
ດພະຈ
ດພະຈອມເກ
ດພະນ
ດພະນະຄອນ
ດພະນະຄອນຖ
ດພະນະຄອນສ
ດພະນະຄອນແລະຈ
ດພະນະເຣສວນໄດ
ດພະນາງເຈ
ດພະນາມ
ດພະບ
ດພະບາດສ
ດພະປ
ດພະປະແດງ
ດພະພ
ດພະມ
ດພະມະຫ
ດພະຣາມາທ
ດພະລ
ດພະລາຊ
ດພະລາຊະກ
ດພະລາຊະດຳເນ
ດພະລາຊະປ
ດພະລາຊະສ
ດພະລາຊາທ
ດພະສ
ດພະອ
ດພະອະນ
ດພະເຈ
ດພະເຊດຕ
ດພະເຍ
ດພະເທບພະຣ
ດພະເທບສ
ດພະເຢຊ
ດພະແກ
ດພາຍ
ດພາຍໃຕ
ດພາຍໃນ
ດພາຍໃນປະເທດ
ດພາດ
ດພາດທ
ດພາບ
ດພາລະກ
ດພາສ
ດຟ
ດຟລ
ດມ
ດມອບອຳນາດ
ດມະນ
ດມະຣາມາທ
ດມະລາຍ
ດມະຫາຊ
ດມະຫາພ
ດມະຫາພາກ
ດມະຫາວ
ດມະຫາສ
ດມະຫາສະໝ
ດມະຫາສາລະຄາມ
ດມະໂຫດ
ດມາ
ດມາກ
ດມາຈາກ
ດມາຊ
ດມາດ
ດມາຕ
ດມາທ
ດມາພ
ດມາເປ
ດມາເພ
ດມາແຕ
ດມາແມ
ດຢ
ດຢາກ
ດຣ
ດຣະຄ
ດຣຳໄພພ
ດລ
ດລອງ
ດລອງໃຊ
ດລອຍນ
ດລະ
ດລະຄອນເລ
ດລະຍອງ
ດລະດ
ດລະດາ
ດລະດາລະໂຫຖານ
ດລະບ
ດລະບຽບ
ດລະບຽບຂອງສານປະຊາທ
ດລະບຽບທ
ດລະບຽບໂຄງສ
ດລະວ
ດລະຫວ
ດລາຄາ
ດລາຊະກ
ດລາຊະການແທນພະອ
ດລາຊະບ
ດລາຊະພ
ດລາຊະວ
ດລາຊະສ
ດລາຊາທ
ດລາຍການວ
ດລາຍຈ
ດລາຍໄດ
ດລາດສ
ດລາຕ
ດລາວ
ດລຳດ
ດລຳປາງ
ດລຳພ
ດວ
ດວກ
ດວງ
ດວງຈ
ດວງຕາເວ
ດວງສະຫວ
ດວງອາທ
ດວງເດ
ດວງໃຈ
ດວງໄຊ
ດວະນາລາມລາຊະວ
ດວາຕ
ດວາອາ
ດວາອາຣາມ
ດວາອາຮາມ
ດວຽກ
ດວຽກກ
ດວຽກຂອງ
ດວຽກງານ
ດວຽກຊ
ດວຽກດ
ດວຽກທ
ດວຽກມ
ດວຽກຢ
ດວຽກຮ
ດວຽກເປ
ດວຽກເພ
ດວຽກໃຫ
ດວຽກໄດ
ດສ
ດສນ
ດສຣ
ດສຣະ
ດສລະຈາກຄວາມເປ
ດສວນ
ດສວນດ
ດສວນສ
ດສອງແຖວ
ດສອນ
ດສອນລະດ
ດສອນໃນລະດ
ດສອນໄດ
ດສອບ
ດສະ
ດສະກ
ດສະກາ
ດສະການ
ດສະຈ
ດສະຍ
ດສະຍະຊ
ດສະຍະຊນ
ດສະຍາ
ດສະຍາວ
ດສະດ
ດສະດາທ
ດສະດາພ
ດສະຕ
ດສະຕຣາລ
ດສະຕະຣາລ
ດສະຕະວ
ດສະຕາບ
ດສະຕາລ
ດສະຕຽນ
ດສະຖ
ດສະຖານ
ດສະຖານທ
ດສະຖານຢ
ດສະຖານໄວ
ດສະທ
ດສະນ
ດສະນະຄະຕ
ດສະນະທ
ດສະນາກ
ດສະບ
ດສະບາ
ດສະພ
ດສະພາ
ດສະພາປ
ດສະພາຫ
ດສະມາຊ
ດສະຣາເອນ
ດສະລ
ດສະລະ
ດສະລະພາບຢ
ດສະລາ
ດສະລານ
ດສະລາມ
ດສະວ
ດສະວະ
ດສະວະນະກາໂລ
ດສະສ
ດສະຫ
ດສະຫຍາມ
ດສະຫລະ
ດສະຫວ
ດສະຫະກຳ
ດສະຫະພາບໂຊວຽດ
ດສະຫະລ
ດສະຮ
ດສະເຊ
ດສະເດ
ດສະເຕ
ດສະເບກ
ດສະເພາະ
ດສະເລ
ດສະເຫ
ດສະເໜ
ດສະເໝ
ດສະແກ
ດສະແກງາມ
ດສະແໝດຳ
ດສະໄໝພະບາດສ
ດສະໜາ
ດສະໝ
ດສາ
ດສາກ
ດສາຂາທ
ດສາຄອນ
ດສາດ
ດສາດກ
ດສາດຂອງວ
ດສາດຄ
ດສາດຈ
ດສາດທ
ດສາດນ
ດສາດບ
ດສາດພ
ດສາດມ
ດສາດລາວ
ດສາດວ
ດສາດສ
ດສາດສະໄໝໃໝ
ດສາດອ
ດສາດເມ
ດສາດເສດຖະກ
ດສາດແລະບ
ດສາດແລະວ
ດສາດແລະສ
ດສາດໂລກ
ດສາດໄດ
ດສາດໄທ
ດສາທາລະນະ
ດສາທາລະນະລ
ດສານ
ດສາມ
ດສາມລ
ດສາຫະ
ດສາຫະກ
ດສາຫະກຳ
ດສາຫະກຳແລະການຄ
ດສາຫະກຳແຫ
ດສາເຈ
ດສາໄອຍ
ດສຳຄ
ດສຳນ
ດສຳລ
ດສຳຫ
ດຫ
ດຫຍ
ດຫນ
ດຫມ
ດຫມາຍ
ດຫມາຍທ
ດຫມາຍວ
ດຫມາຍອາກາດທ
ດຫລ
ດຫວ
ດຫວຽດນາມ
ດອ
ດອກ
ດອກກະໂດນ
ດອກງ
ດອກຈຳປາ
ດອກຊ
ດອກບ
ດອກມ
ດອກສ
ດອກສະເດ
ດອກເບ
ດອກໄມ
ດອງ
ດອຍ
ດອຍທ
ດອຍຜ
ດອຍສ
ດອຍຫ
ດອຍອ
ດອຍແມ
ດອນ
ດອນຄອນ
ດອນຊາວ
ດອນທ
ດອນທານ
ດອນສ
ດອນໄດ
ດອອກ
ດອອກມາ
ດອອກມາເປ
ດອອກເປ
ດອອກໄປ
ດອະທ
ດອະນ
ດອະພອນໂລ
ດອະມ
ດອະເມຣ
ດອະເມລ
ດອາກຕ
ດອາກາດ
ດອາຊ
ດອາຍ
ດອານານ
ດອາຟຣ
ດອາມ
ດອາຣ
ດອາລ
ດອາວ
ດອາເມຣ
ດອາເມລ
ດອຳນາດ
ດອຳນາດການປ
ດອຳນາດສ
ດອຳເພ
ດອຽກລ
ດຮ
ດຮອດບ
ດຮາວາຍ
ດຮຽງລ
ດຮຽນ
ດຮຽນທ
ດະ
ດະລ
ດາ
ດາກ
ດາຂອງພະອ
ດາຂອງສ
ດາຄ
ດາຈ
ດາຊ
ດາຍ
ດາດ
ດາທ
ດານ
ດານມາກ
ດາບ
ດາພ
ດາພອນ
ດາພະອ
ດາຣາ
ດາຣາສາດ
ດາລ
ດາລາ
ດາລາສາດ
ດາລາຮ
ດາວ
ດາວບ
ດາວພ
ດາວຢ
ດາວສ
ດາວສະເດ
ດາວອ
ດາວະດ
ດາວເຄາະ
ດາວເຄາະຊ
ດາວເຄາະນ
ດາວເຄາະແຄະ
ດາວເຄາະໃນລະບ
ດາວເພ
ດາວເສ
ດາວເຮ
ດາວໂຫ
ດາສ
ດາສະຫວ
ດາເປ
ດາແຫ
ດາໄດ
ດຳ
ດຳນ
ດຳຣ
ດຳລ
ດຳເນ
ດຽນ
ດຽນບຽນຟ
ດຽວ
ດຽວກ
ດຽວທ
ດຽວນ
ດເກ
ດເກາະ
ດເກາະກ
ດເກາະສອງ
ດເຂ
ດເຂດບາງກອກ
ດເຄ
ດເງ
ດເຈ
ດເຈດ
ດເຈນ
ດເຈນວ
ດເຈນຫ
ດເຊ
ດເຊຍ
ດເຊຍທ
ດເດ
ດເຕ
ດເຖ
ດເທ
ດເທດສະບານເມ
ດເທບ
ດເທບສ
ດເນ
ດເບ
ດເບຍລາວ
ດເບນຈະມະບ
ດເບເກ
ດເປ
ດເຜ
ດເພ
ດເພງ
ດເພດດຽວກ
ດເມ
ດເຢຍລະມ
ດເລ
ດເລກໝາຍອາເມຣ
ດເວ
ດເວລາ
ດເສ
ດເສດຖະກ
ດເສລ
ດເຫ
ດເຫດລະເບ
ດເຫນ
ດເອ
ດເອກະຊ
ດເອກະລາດ
ດເອງ
ດເອເຊຍ
ດເອເຊຍທ
ດເຮ
ດເຮຍເລ
ດເໜ
ດເໝ
ດແກ
ດແກມມ
ດແກະມ
ດແກະໃຫຍ
ດແຂ
ດແຄລ
ດແຈ
ດແຊ
ດແຍ
ດແຍກອອກຈາກ
ດແຍກອອກຈາກການເມ
ດແຍກອອກຈາກຊາດ
ດແດງ
ດແຕ
ດແຕກຕ
ດແທ
ດແທກ
ດແທນ
ດແທນໄດ
ດແນ
ດແນນ
ດແນວໃດ
ດແນວໃດຈ
ດແນວໃດດ
ດແນວໃດໃຫ
ດແບ
ດແບບບ
ດແປ
ດແປງ
ດແປງເປ
ດແປງໜ
ດແປຊ
ດແຜ
ດແຜນພ
ດແພຣ
ດແມ
ດແລ
ດແລກ
ດແລກຳລ
ດແລຂ
ດແລຈ
ດແລຍ
ດແລຕ
ດແລຖ
ດແລທ
ດແລບ
ດແລມ
ດແລຢ
ດແລວ
ດແລສ
ດແລອ
ດແລະ
ດແລະກ
ດແລະຈ
ດແລະຊ
ດແລະຍ
ດແລະຕ
ດແລະທ
ດແລະນ
ດແລະບ
ດແລະປ
ດແລະຝະລ
ດແລະພ
ດແລະມ
ດແລະມອບສາຍສະພາຍໂດຍ
ດແລະລ
ດແລະວ
ດແລະສ
ດແລະສານເຈ
ດແລະອ
ດແລະອຳເພ
ດແລະເປ
ດແລະເມ
ດແລະເອກະຊ
ດແລະເຮ
ດແລະໄດ
ດແລເຂ
ດແລເປ
ດແລເລ
ດແລໃຊ
ດແລໄດ
ດແສນ
ດແຫ
ດແອສະປາຍ
ດແໜ
ດໂຄ
ດໂຄລ
ດໂຊກ
ດໂຊມ
ດໂຊມລ
ດໂດ
ດໂດຍ
ດໂດຍກ
ດໂດຍຄ
ດໂດຍທ
ດໂດຍບ
ດໂດຍພ
ດໂດຍມ
ດໂດຍລ
ດໂດຍສານ
ດໂດມ
ດໂຕ
ດໂທ
ດໂທດດ
ດໂທປະກອນ
ດໂທລະທ
ດໂທລະສ
ດໂພນສະຫວ
ດໂຣບ
ດໂລກ
ດໂລມ
ດໂວຣ
ດໂສພາກສ
ດໂສມມະນ
ດໂສລ
ດໂອກາດໃຫ
ດໂອຕະລ
ດໂຮງເບຍ
ດໂຮງໝ
ດໃ
ດໃກ
ດໃຈ
ດໃຈການຜະລ
ດໃຈຂອງ
ດໃຈຂອງເຮ
ດໃຈດ
ດໃຈທ
ດໃຈຫ
ດໃຈອ
ດໃຈເຂ
ດໃຈໃຫ
ດໃຊ
ດໃດໜ
ດໃຕ
ດໃນ
ດໃນກ
ດໃນການປ
ດໃນການປະກວດຄວາມງາມລະດ
ດໃນການປະຕ
ດໃນການສ
ດໃນຂ
ດໃນຄ
ດໃນຄອບຄ
ດໃນຈ
ດໃນຊ
ດໃນຍ
ດໃນຕ
ດໃນຕະກ
ດໃນທ
ດໃນທະວ
ດໃນນ
ດໃນບ
ດໃນບາງກອກ
ດໃນປ
ດໃນປະຈ
ດໃນປະຫວ
ດໃນປະເທດ
ດໃນປະເທດລາວ
ດໃນປະເທດໄທ
ດໃນພ
ດໃນພະບາດສ
ດໃນພາກກາງຂອງປະເທດໄທຈ
ດໃນພາກຕາເວ
ດໃນພາກພ
ດໃນພາກໃຕ
ດໃນມ
ດໃນລ
ດໃນລະດ
ດໃນລະບ
ດໃນລາວ
ດໃນວ
ດໃນສ
ດໃນສະຫະລ
ດໃນຫ
ດໃນອ
ດໃນອະດ
ດໃນອາຊ
ດໃນອາເມລ
ດໃນຮ
ດໃນເຄ
ດໃນເດ
ດໃນເມ
ດໃນເອ
ດໃນແງ
ດໃນແຕ
ດໃນແຜ
ດໃນໂລກ
ດໃນໂລກທ
ດໃນໂລກໄດ
ດໃນໜ
ດໃສ
ດໃຫ
ດໃຫຍ
ດໃຫມ
ດໃໝ
ດໄກ
ດໄຂ
ດໄຈ
ດໄຊ
ດໄຊຍະພ
ດໄຊນາດ
ດໄຊສ
ດໄດ
ດໄຕ
ດໄຕລ
ດໄທ
ດໄທພະອ
ດໄທໃນລາຊະວ
ດໄປ
ດໄປຍ
ດໄປທ
ດໄປສ
ດໄປເຖ
ດໄປແລ
ດໄຟ
ດໄຟຂ
ດໄຟຄວາມໄວສ
ດໄຟຕ
ດໄຟທ
ດໄຟຟ
ດໄຟລາວ
ດໄຟສາຍຕາເວ
ດໄຟສາຍນ
ດໄຟສາຍວ
ດໄຟສາຍເໜ
ດໄຟສາຍແມ
ດໄຟຫ
ດໄຟຮ
ດໄຟເຊ
ດໄຟເຜ
ດໄຟແຫ
ດໄຟໃຕ
ດໄຟໄໝ
ດໄມ
ດໄມຕ
ດໄຣຊ
ດໄລ
ດໄວ
ດໄວຣ
ດໄວເດ
ດໄສ
ດໄຫ
ດໄອຊ
ດໄອຍະການສ
ດໄຮ
ດໆ
ດໜ
ດໜອງຄາຍ
ດໜາທ
ດໝ
ດໝວດນ
ດໝວດໝ
ດໝາກພ
ດໝາຍ
ດໝາຍກ
ດໝາຍຂອງລ
ດໝາຍຊ
ດໝາຍຕ
ດໝາຍທ
ດໝາຍນ
ດໝາຍບ
ດໝາຍປ
ດໝາຍພ
ດໝາຍຢ
ດໝາຍລ
ດໝາຍວ
ດໝາຍສ
ດໝາຍຫ
ດໝາຍອ
ດໝາຍອາຍາ
ດໝາຍເຖ
ດໝາຍເພ
ດໝາຍເຫ
ດໝາຍແພ
ດໝາຍໃຫ
ຕ
ຕຍ
ຕຕ
ຕຕະນະວ
ຕຕະບ
ຕຖ
ຕທ
ຕນປຕ
ຕນສາສດາຣາມ
ຕນໂກສ
ຕປ
ຕມ
ຕຢ
ຕຣ
ຕລ
ຕວ
ຕວກກ
ຕສ
ຕອນ
ຕອນຕ
ຕອນທ
ຕອນທຳອ
ຕອນນ
ຕອນເທ
ຕອນເປ
ຕອນເໜ
ຕອນໃຕ
ຕອບ
ຕອບຖ
ຕອບຜ
ຕອບວ
ຕອມ
ຕອລ
ຕຮ
ຕະ
ຕະກ
ຕະດາບ
ຕະຕ
ຕະຖາຄ
ຕະປ
ຕະພ
ຕະພະ
ຕະມ
ຕະມະ
ຕະຣະດ
ຕະລ
ຕະລະດ
ຕະລະພ
ຕະລະຫະລ
ຕະລາງກ
ຕະລາທ
ຕະວ
ຕະຫ
ຕະຫລອດຈ
ຕະຫລອດເສ
ຕະຫລາດ
ຕະຫລາດຫລ
ຕະເພ
ຕະເວ
ຕະເອດດ
ຕະໂອ
ຕາ
ຕາກ
ຕາຂ
ຕາງ
ຕາງຫນ
ຕາງໜ
ຕາຍ
ຕາຍແລ
ຕາຍໄປແລ
ຕາດ
ຕາດນ
ຕາດເຍ
ຕານ
ຕາປ
ຕາມ
ຕາມກ
ຕາມການບອກເລ
ຕາມການສ
ຕາມການສະເໜ
ຕາມກຳລ
ຕາມຂ
ຕາມຄ
ຕາມຄວາມຕ
ຕາມຄວາມມ
ຕາມຄວາມເຊ
ຕາມຄະຕ
ຕາມຈ
ຕາມຊ
ຕາມຊາຍແດນ
ຕາມຊາຍແດນລາວ
ຕາມດ
ຕາມຕ
ຕາມທ
ຕາມນ
ຕາມບ
ຕາມປ
ຕາມປະຕ
ຕາມປະຫວ
ຕາມປະເພນ
ຕາມພ
ຕາມມາດ
ຕາມລ
ຕາມລຳດ
ຕາມວ
ຕາມສ
ຕາມສະຖາບ
ຕາມຫ
ຕາມຫລ
ຕາມອ
ຕາມຮ
ຕາມເດ
ຕາມເປ
ຕາມເລ
ຕາມເວລາທ
ຕາມເສ
ຕາມແຕ
ຕາຣ
ຕາລ
ຕາລາງກ
ຕາເວ
ຕຳ
ຕຳນານ
ຕຳນານຂ
ຕຳບ
ຕຳລວດ
ຕຳລາ
ຕຳລາການຜະລ
ຕຳລາຂ
ຕຳລາຄ
ຕຳລາຄວາມຕ
ຕຳລາຄະນ
ຕຳລາດ
ຕຳລາທ
ຕຳລາປ
ຕຳລາຜ
ຕຳລາພ
ຕຳລາສ
ຕຳລາເສ
ຕຳຫ
ຕຳແໜ
ຕຳໜ
ຕຳໝາກຫ
ຕຽງ
ຕຽນ
ຕຽມພ
ຕເວ
ຕໃຈ
ຕໃຈໃຫ
ຖ
ຖທ
ຖນ
ຖບານ
ຖບານຊ
ຖບານທ
ຖບານຝຣ
ຖບານພຣະຣາຊອານາຈ
ຖບານຣາຊອານາຈ
ຖບານລາວອ
ຖບານວ
ຖບານໄທຍ
ຖມ
ຖວາຍ
ຖສ
ຖອກທ
ຖອຍ
ຖອນ
ຖອນຕ
ຖະ
ຖະບານ
ຖະມ
ຖະຫ
ຖະຫນ
ຖະຫວ
ຖະແຫ
ຖະໜ
ຖະໜອມ
ຖາ
ຖານ
ຖານຂ
ຖານຕ
ຖານທ
ຖານວ
ຖານະ
ຖານະເປ
ຖານະແມ
ຖານໃຕ
ຖາມ
ຖຽງ
ຖຽງກ
ຖຽງວ
ທ
ທຊລ
ທຍ
ທຍາ
ທຍາສ
ທທ
ທທມຫາມນ
ທທຮ
ທທະສາສະນາ
ທນ
ທນະທ
ທນາ
ທນາໃນອາຊ
ທບ
ທຣ
ທວ
ທວງ
ທວດ
ທສາສນາ
ທສາສນານ
ທອງ
ທອງຄ
ທອງຄຳ
ທອງດ
ທອງລ
ທອງວ
ທອງສ
ທອງເປລວ
ທອດ
ທອນ
ທອມມ
ທອມແອນເຈ
ທະ
ທະຍ
ທະຍະພະຍ
ທະຍາ
ທະຍາກ
ທະຍາການພ
ທະຍາການສ
ທະຍາການເມ
ທະຍາຄ
ທະຍາຄຳນວນ
ທະຍາຈ
ທະຍາຊ
ທະຍາທ
ທະຍາທາງດ
ທະຍານ
ທະຍານຕາດເຖ
ທະຍານປະຫວ
ທະຍານແຫ
ທະຍາບ
ທະຍາລ
ທະຍາວ
ທະຍາສ
ທະຍາສາດ
ທະຍາສາດການສ
ທະຍາສາດຄອມພ
ທະຍາສາດດ
ທະຍາສາດທ
ທະຍາສາດທຳມະຊາດ
ທະຍາສາດວ
ທະຍາສາດສ
ທະຍາສາດແລະເຕ
ທະຍາສາດໄດ
ທະຍາຫ
ທະຍາອ
ທະຍາເຂດອ
ທະຍາເຊ
ທະຍາເປ
ທະຍາເສດຖະກ
ທະຍາໄລ
ທະຍາໄລກ
ທະຍາໄລກະເສດສາດ
ທະຍາໄລການສາທາລະນະສ
ທະຍາໄລຄ
ທະຍາໄລຈ
ທະຍາໄລຊ
ທະຍາໄລທ
ທະຍາໄລທຳມະສາດ
ທະຍາໄລບ
ທະຍາໄລປ
ທະຍາໄລມະຫ
ທະຍາໄລມະຫາຈ
ທະຍາໄລມະຫາມະກ
ທະຍາໄລລ
ທະຍາໄລລາຊະພ
ທະຍາໄລລາດຊະພ
ທະຍາໄລວ
ທະຍາໄລສ
ທະຍາໄລຫ
ທະຍາໄລອ
ທະຍາໄລອາຊ
ທະຍາໄລຮ
ທະຍາໄລເກ
ທະຍາໄລເດລ
ທະຍາໄລເຕ
ທະຍາໄລເທ
ທະຍາໄລເປ
ທະຍາໄລເອແດມບວກ
ທະຍາໄລແຫ
ທະຍາໄລໃນປະເທດໄທ
ທະຍາໄລໄດ
ທະນ
ທະນະ
ທະນະບ
ທະນາຄານ
ທະນາຄານກາງ
ທະນາຄານພ
ທະນາຄານອ
ທະນາຄານແຫ
ທະນາຄານໂລກ
ທະພ
ທະຢາ
ທະຢາສາດ
ທະລວງໄສ
ທະວ
ທະສາສນາ
ທະສາສນານ
ທະຫາ
ທະຫານ
ທະຫານທ
ທະຫານບ
ທະຫານຝຣ
ທະຫານອາເມລ
ທະເຈ
ທະເລ
ທະເລຈ
ທະເລດຳ
ທະເລສາບ
ທະເລເມດ
ທະເລເໜ
ທະເວວ
ທາ
ທາງ
ທາງກ
ທາງການ
ທາງການຂອງມ
ທາງການຄ
ທາງການວ
ທາງການເມ
ທາງການແມ
ທາງການໄດ
ທາງຂ
ທາງຈ
ທາງຊ
ທາງຍ
ທາງດ
ທາງຕ
ທາງຕອນເໜ
ທາງຕອນໃຕ
ທາງຕະເວ
ທາງຕາເວ
ທາງທ
ທາງທະເລ
ທາງນ
ທາງບ
ທາງປ
ທາງຝ
ທາງພ
ທາງພາກຕາເວ
ທາງພາກເໜ
ທາງພາກໃຕ
ທາງມ
ທາງລ
ທາງລາຊະການໄດ
ທາງວ
ທາງສ
ທາງສາຍຫ
ທາງຫ
ທາງອ
ທາງອອກສ
ທາງອາກາດ
ທາງຮ
ທາງເຂ
ທາງເດ
ທາງເທ
ທາງເບ
ທາງເລ
ທາງເວ
ທາງເສດຖະກ
ທາງເໜ
ທາງໃຕ
ທາງໃຫຍ
ທາງໜ
ທາຍ
ທາຍາດ
ທາດ
ທາດຕ
ທາດທ
ທາດນ
ທາດວ
ທາດຫ
ທາດອ
ທາດເຫ
ທາດແຫ
ທາຕ
ທາຕພ
ທານ
ທານທ
ທານປະຊາທ
ທານພ
ທານຢ
ທານອ
ທານເລ
ທານແກ
ທາພ
ທາມ
ທາວເວ
ທາສ
ທາສາທາສ
ທຳ
ທຳກ
ທຳການ
ທຳການດ
ທຳການຕ
ທຳການປ
ທຳດ
ທຳນອງ
ທຳບ
ທຳມ
ທຳມະ
ທຳມະຊາດ
ທຳມະຊາດສ
ທຳມະດາ
ທຳມະບານກ
ທຳມະປ
ທຳມະລາດ
ທຳມະວ
ທຳມາຫາກ
ທຳລ
ທຳລາຍ
ທຳສ
ທຳຫນ
ທຳອ
ທຳຮ
ທຳໃຫ
ທຽນ
ທຽນເຂ
ທຽບ
ທຽບກ
ທຽບເທ
ທຽບໃສ
ທຽມ
ທເຈ
ທເວາທ
ນ
ນກ
ນກວ
ນກວມເອ
ນກວາງຕ
ນກອງ
ນກອງກຳລ
ນກອງທ
ນກອງປະຊ
ນກອມມ
ນກະ
ນກະຈ
ນກະດ
ນກະຕ
ນກະທ
ນກະບ
ນກະລ
ນກະສ
ນກາງ
ນກາງການຄ
ນກາງການຄະມະນາຄ
ນກາງການປ
ນກາງຊາວຫນ
ນກາງທ
ນກາງບ
ນກາງພ
ນກາງມ
ນກາງຢ
ນກາງສ
ນກາງສະຫະພ
ນກາງອ
ນກາງແນວລາວສ
ນກາງແນວລາວຮ
ນກາຍເປ
ນກາຕ
ນການ
ນການກ
ນການຂ
ນການຄ
ນການຄາດຕະກ
ນການຈ
ນການຈະນາພ
ນການຊ
ນການຍ
ນການຍາກທ
ນການດ
ນການດຳເນ
ນການຕ
ນການທ
ນການທາຍດາລາຮ
ນການທາຍສຽງແລະເງ
ນການທາຍເລ
ນການນ
ນການບ
ນການປ
ນການປະກວດ
ນການປະກວດຄວາມງາມຊາຍເວທ
ນການປະກວດຄວາມງາມເວທ
ນການປະກວດຊ
ນການປະກວດນາງງາມ
ນການປະກວດນາງງາມທ
ນການປະກວດນາງງາມລະດ
ນການປະກວດນາງງາມເວທ
ນການປະກວດມ
ນການປະກວດລະດ
ນການປະກວດໃນວ
ນການປະຊ
ນການປະຕ
ນການປະສ
ນການຜ
ນການຜະລ
ນການພ
ນການຟ
ນການຢ
ນການລ
ນການລະເມ
ນການວ
ນການສ
ນການຫ
ນການຮ
ນການເກ
ນການເຂ
ນການເຄ
ນການເງ
ນການເຊ
ນການເຕ
ນການເປ
ນການເພ
ນການເມ
ນການເລ
ນການເຮ
ນການແກ
ນການແຂ
ນການແບ
ນການແຜ
ນການແລກປ
ນການໃຊ
ນການໃຫ
ນການໄດ
ນກາບແກ
ນກາຣ
ນກາລ
ນກຳ
ນກຳນ
ນກຳປ
ນກຳມະການກ
ນກຳມະການບ
ນກຳມະການສ
ນກຳມະບານລາວ
ນກຳລ
ນກຳເນ
ນກຳເໜ
ນກຳໄລ
ນກຳໜ
ນກຽດເຂ
ນຂ
ນຂວ
ນຂອງ
ນຂອງກ
ນຂອງການທ
ນຂອງການສ
ນຂອງຂ
ນຂອງຂວ
ນຂອງຄ
ນຂອງຈ
ນຂອງຊ
ນຂອງຕ
ນຂອງທ
ນຂອງທະວ
ນຂອງນ
ນຂອງນາງ
ນຂອງບ
ນຂອງປ
ນຂອງປະຊາຊ
ນຂອງປະເທດ
ນຂອງປະເທດຕາເວ
ນຂອງຜ
ນຂອງຝຣ
ນຂອງພ
ນຂອງມ
ນຂອງມະນ
ນຂອງລ
ນຂອງລະບ
ນຂອງລະເບ
ນຂອງລາຍໄດ
ນຂອງລາວ
ນຂອງວ
ນຂອງສ
ນຂອງສະຫະລ
ນຂອງຫ
ນຂອງອ
ນຂອງອານາຈ
ນຂອງຮ
ນຂອງເກ
ນຂອງເຂ
ນຂອງເຈ
ນຂອງເມ
ນຂອງເຢຍລະມ
ນຂອງເຮ
ນຂອງໂລກ
ນຂອງໄມ
ນຂະຫຍ
ນຂະຫນາດໃຫຍ
ນຂະແໜງບ
ນຂະໜາດໃຫຍ
ນຂະໜານ
ນຂະໜານທ
ນຂາດ
ນຂາວ
ນຂຽນ
ນຂຽນຄຳຕອບລ
ນຄ
ນຄຣ
ນຄວ
ນຄວນ
ນຄວາມ
ນຄວາມກ
ນຄວາມຄ
ນຄວາມຈ
ນຄວາມຈຳກ
ນຄວາມດ
ນຄວາມຕ
ນຄວາມຜ
ນຄວາມພ
ນຄວາມສ
ນຄວາມສະຫງ
ນຄວາມຫວ
ນຄວາມອ
ນຄວາມຮ
ນຄວາມເຂ
ນຄວາມເຊ
ນຄວາມເປ
ນຄອງ
ນຄອງກ
ນຄອງຕຳຫ
ນຄອງລາຊະສ
ນຄອງລາດ
ນຄອງລາດເມ
ນຄອນ
ນຄອບຄ
ນຄອມພ
ນຄະດ
ນຄະນະກ
ນຄະນະບ
ນຄະນະພ
ນຄະໂລກ
ນຄາ
ນຄາຖາ
ນຄາທ
ນຄຳ
ນຄຳກຳມະ
ນຄຳຕອບທ
ນຄຳຖານໃນຮອບນ
ນຄຳທ
ນຄຳນາມ
ນຄຳພ
ນຄຳວ
ນຄຳສ
ນຄຳເວ
ນຄຳເອ
ນງ
ນງອກຫ
ນງານ
ນງານກ
ນງານຊ
ນງານດ
ນງານທ
ນງານທາງດ
ນງານຢ
ນງານສ
ນງານອ
ນງານອາລະບ
ນງານຮ
ນງານເດ
ນງານເພງ
ນງານເພງດ
ນງານເພງອາລະບ
ນງານໂດດເດ
ນງານໃນຖານະນ
ນງານໄດ
ນງານໄປໃນລະຍະຫນ
ນງາມ
ນງາມຄວາມດ
ນຈ
ນຈອນ
ນຈອນຈ
ນຈະ
ນຈະກ
ນຈະຄ
ນຈະຈ
ນຈະຍ
ນຈະຕ
ນຈະຖ
ນຈະນະພ
ນຈະບ
ນຈະພ
ນຈະມ
ນຈະຢ
ນຈະລ
ນຈະສ
ນຈະອອກສຽງ
ນຈະເປ
ນຈະເລ
ນຈະເຫ
ນຈະເອ
ນຈະເຮ
ນຈະແຕກຕ
ນຈະໄດ
ນຈາກ
ນຈາກກ
ນຈາກການທ
ນຈາກການປ
ນຈາກການພ
ນຈາກການເປ
ນຈາກການເວ
ນຈາກຄະນະນ
ນຈາກຄະນະສ
ນຈາກຈ
ນຈາກຊ
ນຈາກດວງຈ
ນຈາກຕ
ນຈາກທ
ນຈາກນ
ນຈາກບ
ນຈາກບາງກອກ
ນຈາກປ
ນຈາກຜ
ນຈາກພ
ນຈາກພະບາດສ
ນຈາກມ
ນຈາກມະຫາວ
ນຈາກລ
ນຈາກວ
ນຈາກສ
ນຈາກສະຖານສ
ນຈາກຫ
ນຈາກເຈ
ນຈາກໂຮງຮຽນກ
ນຈາກໂຮງຮຽນລາຊ
ນຈາກໂຮງຮຽນເຊ
ນຈາກໂຮງຮຽນເທບສ
ນຈາກໜ
ນຈາຕ
ນຈາບ
ນຈຳກ
ນຈຳນວນ
ນຈຳນວນຫ
ນຈຳນວນໜ
ນຈຳເປ
ນຊ
ນຊອນ
ນຊອບ
ນຊະນ
ນຊະນະ
ນຊະນະສະກ
ນຊະນະເລ
ນຊະລ
ນຊາ
ນຊາກສ
ນຊາການ
ນຊາການກອງທ
ນຊາການທະຫານບ
ນຊາການທະຫານສ
ນຊາການສ
ນຊາຂອງ
ນຊາຍ
ນຊາຍຫາດທ
ນຊາຍແດນ
ນຊາດ
ນຊາດຂອງຜ
ນຊາດຈ
ນຊາດທ
ນຊາດພ
ນຊາດມຽນມາ
ນຊາດລາວ
ນຊາດລາວທ
ນຊາດສ
ນຊາດອ
ນຊາດອາເມລ
ນຊາດແບ
ນຊາດໄທ
ນຊານຊາລາ
ນຊາຢ
ນຊາວ
ນຊາວກະສ
ນຊາວຄ
ນຊາວຈ
ນຊາວບ
ນຊາວພ
ນຊາວຢ
ນຊາວລາວໃນທ
ນຊາວອ
ນຊາວເມ
ນຊາວໄທ
ນຊາວໄທສະຫຍາມ
ນຊາໂດຍນາຍພ
ນຊຳຮາບ
ນຊຽງຂວາງ
ນຊຽລ
ນຍ
ນຍອດ
ນຍະ
ນຍະກ
ນຍະການ
ນຍະກຳ
ນຍະບ
ນຍະພ
ນຍະພາບ
ນຍະມະນ
ນຍະລ
ນຍະລາຊະກ
ນຍະສ
ນຍະເດດ
ນຍະເດດຊ
ນຍະເດດວ
ນຍະເດດໄດ
ນຍາ
ນຍາກ
ນຍາກາດ
ນຍາກາດທ
ນຍາການຄ
ນຍາຂອງມະນ
ນຍາງ
ນຍາງຫ
ນຍາຈ
ນຍາຊ
ນຍາຍ
ນຍາຍວ
ນຍາດ
ນຍາດໂຍມ
ນຍາດໂຍມຮ
ນຍາດໂຍມໄດ
ນຍາຕ
ນຍາຕຣ
ນຍາທ
ນຍານ
ນຍານທ
ນຍານໄຟຟ
ນຍາບ
ນຍາປ
ນຍາປະດ
ນຍາພ
ນຍາມ
ນຍາມທ
ນຍາມາດຕະຖານ
ນຍາລ
ນຍາວ
ນຍາສ
ນຍາອ
ນຍາຮ
ນຍາເຊ
ນຍາເດ
ນຍາເປ
ນຍາເອກ
ນຍາໂທ
ນດ
ນດຈ
ນດຣ
ນດອກ
ນດອກຈຳປາ
ນດອກໄມ
ນດອນ
ນດອນກ
ນດອນທ
ນດອນນ
ນດອນມ
ນດອນສ
ນດອນເປ
ນດອນແລ
ນດອນໄດ
ນດາ
ນດາກ
ນດາການເຄ
ນດາກາລ
ນດາຂ
ນດາຄ
ນດາຊ
ນດາຕ
ນດາຕຳບ
ນດາທ
ນດາທະຫານທ
ນດານ
ນດານໃຈໃຫ
ນດານໃຫ
ນດາບ
ນດາປະເທດ
ນດາປະເທດຕ
ນດາປະເທດທ
ນດາປະເທດອ
ນດາປະເທດເພ
ນດາຜ
ນດາຜະລ
ນດາພ
ນດາມ
ນດາລ
ນດາລາຍການເຄ
ນດາລາຮ
ນດາວ
ນດາວສະເດ
ນດາວເຄາະທ
ນດາສ
ນດາອ
ນດາຮ
ນດາເຜ
ນດາເພ
ນດາເມ
ນດາແຂວງທ
ນດາແຂວງພາກເໜ
ນດຳລ
ນດຳເນ
ນດຽນໂອຊຽນເທ
ນດຽວ
ນດຽວກ
ນດຽວທ
ນຕ
ນຕກ
ນຕຣ
ນຕຣາ
ນຕອນ
ນຕອນຕ
ນຕອນທ
ນຕອນໃຕ
ນຕອບຖ
ນຕອບຜ
ນຕອບໄປ
ນຕະ
ນຕະກ
ນຕະກອນ
ນຕະຕ
ນຕະຖາຄ
ນຕະນ
ນຕະນາການ
ນຕະບ
ນຕະລ
ນຕະລາຍ
ນຕະລາຍຕ
ນຕະລາຍອ
ນຕະລາຍແກ
ນຕະວ
ນຕະສ
ນຕະຫ
ນຕາ
ນຕາຂອງສາມະເນນພ
ນຕາຍ
ນຕາຕ
ນຕາທ
ນຕານ
ນຕາມ
ນຕາມກ
ນຕາມບ
ນຕາມພ
ນຕາຢ
ນຕາເວ
ນຕາໜ
ນຕຳບ
ນຕຳລ
ນຕຳລາ
ນຕຳລາການຜະລ
ນຕຳແໜ
ນຖ
ນຖະໜ
ນຖານ
ນຖານການຜະລ
ນຖານຂອງພ
ນຖານຂອງສ
ນຖານດ
ນຖານທ
ນຖານທາງດ
ນຖານນ
ນຖານບ
ນຖານຢ
ນຖານລ
ນຖານລະບຽບກ
ນຖານສ
ນຖານອ
ນຖານເດ
ນຖານເສດຖະກ
ນຖານໂຄງລ
ນຖານໃຫ
ນຖາມ
ນຖາມວ
ນຖາມເຖ
ນທ
ນທນ
ນທຣ
ນທຣຄຕ
ນທອງ
ນທອນ
ນທອນພ
ນທອນວ
ນທອນສ
ນທອນໂວຫານ
ນທະ
ນທະກ
ນທະນ
ນທະນາ
ນທະນາກ
ນທະນາທ
ນທະນາປະເທດຊາດຄຽວຄ
ນທະບ
ນທະບາດ
ນທະປ
ນທະພ
ນທະພານ
ນທະມ
ນທະມະຫ
ນທະຣະມະຫາຣາມາທ
ນທະຣະສ
ນທະຣາດ
ນທະລ
ນທະລະຄະຕ
ນທະລະວ
ນທະລະສ
ນທະວ
ນທະສ
ນທະສະຖຽນ
ນທະຫານ
ນທະຫານຣາບທ
ນທະເລ
ນທາ
ນທາກ
ນທາງ
ນທາງກ
ນທາງການ
ນທາງການກ
ນທາງການຂອງຈ
ນທາງການຄ
ນທາງການຕ
ນທາງການທ
ນທາງການນ
ນທາງການຢ
ນທາງການວ
ນທາງການອ
ນທາງການເປ
ນທາງການເມ
ນທາງການແມ
ນທາງການໃນວ
ນທາງຂ
ນທາງຄ
ນທາງຄະມະນາຄ
ນທາງຍ
ນທາງດ
ນທາງຕ
ນທາງຕາເວ
ນທາງທ
ນທາງນ
ນທາງບ
ນທາງປ
ນທາງປະມານ
ນທາງປະຫວ
ນທາງຜ
ນທາງພ
ນທາງລ
ນທາງວ
ນທາງສ
ນທາງຫ
ນທາງອ
ນທາງເຂ
ນທາງເຊ
ນທາງເດ
ນທາງເພ
ນທາງເພດ
ນທາງເລ
ນທາງເລກ
ນທາງເລກທ
ນທາງເລກສ
ນທາງເສດຖະກ
ນທາງແລ
ນທາງແຫ
ນທາງໄດ
ນທາງໄປຍ
ນທາງໄປທ
ນທາງໄປຢ
ນທາງໄປສ
ນທາດ
ນທາດນ
ນທາດຫ
ນທາຕ
ນທາທ
ນທານ
ນທານຕ
ນທາບ
ນທາມ
ນທາລາມ
ນທາລາມວ
ນທາວາດ
ນທາສ
ນທາເທວ
ນທຳ
ນທຳມະດາ
ນທຳອ
ນທຽນ
ນທຽນຂອງ
ນນ
ນນອກ
ນນະ
ນນະກ
ນນະກຳ
ນນະຄ
ນນະຄອນ
ນນະຄອນທ
ນນະຄອນສ
ນນະຄອນຫ
ນນະຄະດ
ນນະຍ
ນນະທ
ນນະທຳ
ນນະນ
ນນະບ
ນນະພ
ນນະພາບ
ນນະພາບຊ
ນນະພາບດ
ນນະພາບສ
ນນະມ
ນນະຣ
ນນະຣາດ
ນນະລ
ນນະລາດ
ນນະວ
ນນະສ
ນນະເຂດ
ນນະເມທ
ນນະໂຄມຄຳ
ນນະໂລກ
ນນາ
ນນາກ
ນນາກາງ
ນນາຄຳໄຮ
ນນາງກ
ນນາງມ
ນນາງແບບ
ນນາຊ
ນນາຍ
ນນາຍກ
ນນາຍພ
ນນາຍສະອາດ
ນນາຍສະອາດໄດ
ນນາຍຮ
ນນາຍາວ
ນນາຍໜ
ນນາດ
ນນາທ
ນນານ
ນນານເຖ
ນນານແລ
ນນາມ
ນນາມະເຟ
ນນາລ
ນນາສ
ນນາເຫ
ນນຳ
ນນຳກ
ນນຳພາ
ນນຳໃຊ
ນບ
ນບອກວ
ນບອມໝ
ນບາງກາງຫາວ
ນບາງຂ
ນບາງຄ
ນບາງຊ
ນບາງສ
ນບາດກ
ນບານ
ນບານເຕະ
ນບານເຕະຊ
ນບານເມ
ນບຳລ
ນປ
ນປະ
ນປະກ
ນປະກອບ
ນປະກອບຄວາມເຫ
ນປະກອບດ
ນປະກອບມ
ນປະຈ
ນປະຈຳ
ນປະຈຳທ
ນປະຈຳປ
ນປະຊາກອນກ
ນປະຊາຊ
ນປະຊາທ
ນປະຊາສ
ນປະດ
ນປະຕ
ນປະຖ
ນປະທ
ນປະທານ
ນປະທານກ
ນປະທານຂອງ
ນປະທານປະເທດ
ນປະທານປະເທດເປ
ນປະທານຝ
ນປະທານສະພາແຫ
ນປະທານອ
ນປະທານາທ
ນປະມ
ນປະມານ
ນປະລ
ນປະສ
ນປະຫວ
ນປະຫານຊ
ນປະເທດ
ນປະເທດຂອງເຂດການປ
ນປະເທດທ
ນປະເທດນ
ນປະເທດອ
ນປະເທດໃນທະວ
ນປະເທດໃນພ
ນປະເທດໜ
ນປະເພດຕ
ນປະເພນ
ນປະເສ
ນປະໂຍດແກ
ນປະໂຫຍດ
ນປະໂຫຍດຂອງຊາດ
ນປະໂຫຍດຕ
ນປະໂຫຍດທ
ນປະໂຫຍດສ
ນປະໂຫຍດຫ
ນປະໂຫຍດອ
ນປະໂຫຍດແກ
ນປະໝາດ
ນປາ
ນປາກ
ນປາກຖ
ນປາກເຊ
ນປາຈ
ນປາຍຫ
ນປານໃດ
ນຜ
ນຜະລ
ນຜາເມ
ນຝ
ນຝຣ
ນຝະລ
ນພ
ນພຣະ
ນພຣະທ
ນພຣະບ
ນພຣະພ
ນພຣະມະຫາກະສ
ນພຣະສ
ນພຣະອ
ນພຣະອາຈາຣຍ
ນພຣະເຈ
ນພວກທ
ນພວກເຂ
ນພວກເຮ
ນພອນ
ນພອນເກ
ນພະ
ນພະກ
ນພະຊ
ນພະຍ
ນພະຍາດ
ນພະຍາພ
ນພະທ
ນພະນ
ນພະນະຄອນ
ນພະບ
ນພະບາດສ
ນພະພ
ນພະມ
ນພະມະຫາກະສ
ນພະລ
ນພະລາຊະກ
ນພະລາຊະທ
ນພະລາຊະພ
ນພະລາຊະວ
ນພະລາຊະສ
ນພະລາຊະໂອລ
ນພະວ
ນພະສ
ນພະຫ
ນພະອ
ນພະອາທ
ນພະຮາມ
ນພະຮາມທ
ນພະເຈ
ນພະເວດສ
ນພະແກ
ນພະໂພທ
ນພະໂອລ
ນພາກ
ນພາກພ
ນພາກສ
ນພາງ
ນພາຍ
ນພາຍຫ
ນພາຍໃຕ
ນພາຍໃນ
ນພາຍໃນບ
ນພາຍໃນປະເທດ
ນພາຍໃນວ
ນພາຍໃນແຂວງສະຫວ
ນພາສ
ນພາສາ
ນພາສາກ
ນພາສາຈ
ນພາສາທ
ນພາສາທາງການ
ນພາສານ
ນພາສາລ
ນພາສາລາວ
ນພາສາອ
ນພາສາເຢຍລະມ
ນພາສາແມ
ນພາສາໄຕພາສານ
ນພາສາໄທ
ນພາສາໜ
ນພຽງ
ນພຽງຊ
ນພຽງບ
ນພຽງຜ
ນພຽງສ
ນພຽງແຕ
ນພຽນ
ນຟ
ນຟຣ
ນມ
ນມະນ
ນມະພ
ນມະຫ
ນມະຫາຈ
ນມະຫາພ
ນມະຫາມ
ນມະຫາລາດ
ນມະຫາລາດຊ
ນມະຫາວ
ນມະຫາອ
ນມະຫາເສດຖ
ນມະເລ
ນມະໄຫສະວະຣ
ນມາ
ນມາກ
ນມາຂ
ນມາຂອງ
ນມາຄ
ນມາຄະບ
ນມາຈ
ນມາຈາກ
ນມາຈາກເມ
ນມາຊ
ນມາຍ
ນມາດ
ນມາຕ
ນມາຕາ
ນມາທ
ນມານ
ນມາປ
ນມາພ
ນມາມ
ນມາຢ
ນມາລ
ນມາລາ
ນມາວ
ນມາສ
ນມາຫ
ນມາຫາເຮຍ
ນມາອ
ນມາຮ
ນມາຮອດປ
ນມາເຖ
ນມາເປ
ນມາເພ
ນມາເອງ
ນມາເຮ
ນມາແຕ
ນມາແລ
ນມາໃຊ
ນມາໃໝ
ນມາໄດ
ນຢ
ນຢາ
ນຢາຕ
ນຢາສ
ນຢາແວຊາຍ
ນຣ
ນຣາຊທານ
ນລ
ນລວມ
ນລວມທ
ນລວມມ
ນລວມຢ
ນລວມເຖ
ນລະ
ນລະຄ
ນລະຄອນຊ
ນລະຈອມເກ
ນລະຍ
ນລະຍາ
ນລະຍາທ
ນລະຍານ
ນລະດ
ນລະຕ
ນລະນາເຖ
ນລະບ
ນລະບອບການປ
ນລະບຽບຮຽບຮ
ນລະປ
ນລະປະ
ນລະປະທານ
ນລະປະວ
ນລະປາກອນ
ນລະພ
ນລະພາກ
ນລະມະນ
ນລະວ
ນລະສ
ນລະສະຕ
ນລະຫ
ນລະຫວ
ນລະເບ
ນລະເມ
ນລະເສ
ນລະເຮ
ນລາ
ນລາງວ
ນລາຊ
ນລາຊະດຳເນ
ນລາຊະທານ
ນລາຊະພ
ນລາຊະວ
ນລາຊະວະລາລາມ
ນລາຊະສະກ
ນລາຊະອານາຈ
ນລາຍການ
ນລາຍພາດກອນ
ນລາຍລ
ນລາຍຮ
ນລາຍໄດ
ນລາດ
ນລາດພ
ນລາບ
ນລາວ
ນລາວກ
ນລາວຈ
ນລາວຍ
ນລາວຖ
ນລາວທ
ນລາວບ
ນລາວມ
ນລາວລ
ນລາວສ
ນລາວຮ
ນລາວເຄ
ນລາວເປ
ນລາວເຮ
ນລາວແຂວງສະຫວ
ນລາວແຂວງອ
ນລາວແມ
ນລາວໄດ
ນລຳດ
ນລຳພ
ນລຽມ
ນວ
ນວຍ
ນວນ
ນວະຈ
ນວະລ
ນວາ
ນວາຍ
ນວາຍຂອງສ
ນວາປ
ນວຽກຖ
ນວຽງຈ
ນວຽນ
ນສ
ນສງ
ນສວຍງາມ
ນສວຍສ
ນສວນຫ
ນສອງ
ນສະ
ນສະກ
ນສະດ
ນສະຕ
ນສະຕະວ
ນສະຕາບ
ນສະຖ
ນສະຖາ
ນສະຖານ
ນສະຖານທ
ນສະຖານແຫ
ນສະຖາບ
ນສະຖາປ
ນສະຖາປະນ
ນສະທ
ນສະນ
ນສະບ
ນສະບາຍ
ນສະພາບການເຮ
ນສະມ
ນສະມາຄ
ນສະມາຊ
ນສະຣ
ນສະລ
ນສະວ
ນສະສ
ນສະຫ
ນສະຫງ
ນສະຫວ
ນສະເດ
ນສະເຕ
ນສະເທ
ນສະເພາະ
ນສະເພາະລະດ
ນສະເລ
ນສະເຫ
ນສະເຫວ
ນສະເຫວດຕະຊ
ນສະເໜ
ນສະເໝ
ນສະແດງ
ນສະແດງໃຫ
ນສະໂມສອນ
ນສະໄຫມ
ນສະໄໝ
ນສະໄໝກ
ນສະໄໝທ
ນສະໜ
ນສະໜາມບ
ນສະໝ
ນສະໝອນ
ນສາ
ນສາກ
ນສາຄ
ນສາຍ
ນສາຍການບ
ນສາຍນ
ນສາຍພ
ນສາຍຫ
ນສາດ
ນສາທ
ນສາທອນໃຕ
ນສາທາລະນະລ
ນສານ
ນສານຕ
ນສາພ
ນສາມ
ນສາມຊ
ນສາມຫ
ນສາມະເນນ
ນສາມາດ
ນສາມາດຂ
ນສາມາດຊ
ນສາມາດສ
ນສາມາດເຂ
ນສາມາດເຮ
ນສາມເສນ
ນສາລານ
ນສາວ
ນສາຫລາຍກວ
ນສາເຫດໃຫ
ນສາໃຫ
ນສຳ
ນສຳຄ
ນສຳນ
ນສຳລ
ນສຳຫ
ນສຳຮອງ
ນສຳເລ
ນສຽງ
ນສຽງທ
ນສຽງຫ
ນຫ
ນຫຍ
ນຫນ
ນຫມ
ນຫມາຍຄວາມວ
ນຫມາຍເຖ
ນຫລ
ນຫລາຍ
ນຫລາຍກວ
ນຫວ
ນຫວຽດນາມ
ນຫອມ
ນຫະພ
ນຫາ
ນຫາກ
ນຫາການເຮ
ນຫາຂ
ນຫາງກ
ນຫາງຂ
ນຫາງປ
ນຫາງພວງ
ນຫາຊ
ນຫາດ
ນຫາຕ
ນຫາທ
ນຫາທາງດ
ນຫາທາງເສດຖະກ
ນຫານ
ນຫາຢ
ນຫາວ
ນຫາສ
ນຫາເກ
ນຫາເລ
ນຫາເຫລ
ນຫາໃຫຍ
ນຫາໄດ
ນອ
ນອກ
ນອກຈາກ
ນອກຈາກຈະປະຕ
ນອກຈາກທ
ນອກຈາກນ
ນອກຈາກບ
ນອກຈາກວ
ນອກຈາກເປ
ນອກນ
ນອກເຂດເທດສະບານຕຳບ
ນອກເມ
ນອກເໜ
ນອຍ
ນອນ
ນອນບ
ນອນຢ
ນອນວ
ນອບນ
ນອອກ
ນອອກກາງ
ນອອກຂອງ
ນອອກຂອງຈ
ນອອກຂອງປະເທດໄທ
ນອອກຂອງພ
ນອອກຂອງອ
ນອອກຂອງເມ
ນອອກຂອງເຢຍລະມ
ນອອກຂອງແມ
ນອອກຈ
ນອອກຕ
ນອອກທ
ນອອກບ
ນອອກປະມານ
ນອອກພ
ນອອກມາ
ນອອກມາຍ
ນອອກສ
ນອອກສຽງເໜ
ນອອກສຽງໃຕ
ນອອກເປ
ນອອກແລ
ນອອກແລະຕາເວ
ນອອກໄປ
ນອອງຊານ
ນອະກ
ນອະຍ
ນອະດ
ນອະທ
ນອະນ
ນອະບາຍຍະມ
ນອະມະລ
ນອະຣ
ນອະລ
ນອາ
ນອາກາດ
ນອາຊ
ນອາຍ
ນອາດ
ນອາດມ
ນອາດເປ
ນອາທ
ນອານ
ນອານາຈ
ນອານານ
ນອານາເຂດ
ນອາຣ
ນອາລ
ນອາລະບ
ນອາວ
ນອາວະກາດ
ນອາຫານ
ນອາຫານທ
ນອາຫານພ
ນອາເມລ
ນອາໄສຢ
ນອຳເພ
ນຮ
ນຮອງກ
ນຮອງນາຍ
ນຮອງປະທານາທ
ນຮອງຜ
ນຮອງລ
ນຮອງຫ
ນຮອງອ
ນຮອງເຈ
ນຮອດ
ນຮອດຄ
ນຮອດທ
ນຮອດບ
ນຮອດປ
ນຮອດປະຈ
ນຮອດປະມານປ
ນຮອດລ
ນຮອດລະດ
ນຮອດລະເບ
ນຮອດວ
ນຮອດຫ
ນຮອດເດ
ນຮອນ
ນຮາງວ
ນຮາມຄຳແຫງມະຫາລາດ
ນຮຽກວ
ນະ
ນະຄອນ
ນະຄອນຊຽງໃໝ
ນະຄອນນ
ນະຄອນພະນ
ນະຄອນລ
ນະຄອນລາຊະສ
ນະຄອນວຽງ
ນະຄອນວຽງຈ
ນະຄອນສ
ນະຄອນຫ
ນະຄອນຫລວງ
ນະຄອນຫລວງວຽງຈ
ນະຄອນຫຫ
ນະຄອນເຂ
ນະຄອນເງ
ນະຄອນໂຮ
ນະຄະຣ
ນະຄະລ
ນະຍານ
ນະທ
ນະບ
ນະພ
ນະມ
ນະຣ
ນະລ
ນະວ
ນະສ
ນະຮ
ນະໂຍບາຍ
ນະໂຍບາຍການເງ
ນະໂຍບາຍດ
ນະໂຍບາຍທ
ນະໂຍບາຍສ
ນະໂຍບາຍເງ
ນະໂຍບາຍເສດຖະກ
ນາ
ນາກ
ນາກນ
ນາກໃຫຍ
ນາຄ
ນາງ
ນາງກ
ນາງງາມ
ນາງງາມຊາວລາວ
ນາງງາມມ
ນາງງາມໃນປະເທດລາວ
ນາງງາມໃນປະເທດໄທ
ນາງຈ
ນາງຍ
ນາງຕ
ນາງຖ
ນາງນ
ນາງຜ
ນາງພ
ນາງຟ
ນາງມ
ນາງສ
ນາງສາວລາວ
ນາງອ
ນາງຮ
ນາງເທ
ນາງເປ
ນາງເລ
ນາງເວ
ນາງເອກ
ນາງແບບ
ນາງແບບໄທ
ນາງແມ
ນາງໄດ
ນາຈ
ນາຈອມທຽນ
ນາຊ
ນາຍ
ນາຍກ
ນາຍຄ
ນາຍຊ
ນາຍຍ
ນາຍຖ
ນາຍທ
ນາຍທະຫານຝຣ
ນາຍບ
ນາຍພ
ນາຍສ
ນາຍອ
ນາຍອຳເພ
ນາຍຮ
ນາຍແບບ
ນາຍແບບໄທ
ນາຍໂມ
ນາດ
ນາດເອລ
ນາຕ
ນາທ
ນານ
ນາບ
ນາປ
ນາພ
ນາພອນ
ນາຟາໂຊ
ນາມ
ນາມວ
ນາມສະກ
ນາມເດ
ນາຢ
ນາລ
ນາວ
ນາວນຳຖ
ນາສ
ນາສະຫຍາມ
ນາສາຢະ
ນາສຳເລ
ນາອ
ນາເຕ
ນາເໜ
ນາແຊງ
ນາໂນເຕ
ນາໂນແມ
ນາໂປດເກ
ນາໂລມແດງ
ນາໆ
ນາໆພ
ນຳ
ນຳກ
ນຳກຳລ
ນຳຄ
ນຳຊ
ນຳຕ
ນຳທ
ນຳນ
ນຳບ
ນຳປະເທດ
ນຳພ
ນຳພາ
ນຳພາຄອບຄ
ນຳພາປະຊາຊ
ນຳພາພຣະສ
ນຳມາໃຊ
ນຳລ
ນຳສ
ນຳສະເໜ
ນຳສະແດງໂດຍ
ນຳອ
ນຳຮ
ນຳເຂ
ນຳເງ
ນຳເຈ
ນຳເມ
ນຳເອ
ນຳໂດຍ
ນຳໃຊ
ນຳໄປສ
ນຳໄປໃຊ
ນຳໜ
ນເກ
ນເກມ
ນເກມຄ
ນເກມຈ
ນເກມຈະເຫ
ນເກມດ
ນເກມທ
ນເກມບ
ນເກຣກ
ນເຂ
ນເຂດ
ນເຂດການປ
ນເຂດທ
ນເຂດນ
ນເຂດບ
ນເຂດປ
ນເຂດພ
ນເຂດສ
ນເຂດອະນ
ນເຂດຮ
ນເຂດເສດຖະກ
ນເຂດແລະແຂວງແທນອຳເພ
ນເຄ
ນເຄໂຟຕ
ນເງ
ນເຈ
ນເຊ
ນເຍ
ນເດ
ນເດຊາ
ນເດຍ
ນເດຍກ
ນເດຍທ
ນເດຍໃນປ
ນເດດ
ນເຕ
ນເຕະບານ
ນເຕະບານຊ
ນເຕະບານໂລກ
ນເຖ
ນເທ
ນເທຍລະບານວ
ນເທດ
ນເທບຄ
ນເທບພ
ນເທບພະເຈ
ນເນ
ນເນວ
ນເບ
ນເບຍລາວ
ນເປ
ນເຜ
ນເພ
ນເພງ
ນເພງດ
ນເພງທ
ນເພດຍ
ນເພາະວ
ນເຟ
ນເມ
ນເມຣ
ນເຢ
ນເຢຍລະມ
ນເຣ
ນເລ
ນເລຂາຄະນະພ
ນເລຂາທ
ນເລມຮ
ນເລາະ
ນເວ
ນເວຍ
ນເວທ
ນເວລາ
ນເວລາຍາວນານ
ນເວລາດ
ນເວລາຕ
ນເວລານານເຖ
ນເວລາສ
ນເວລາຫ
ນເວລາຫລາຍປ
ນເວລາເກ
ນເສ
ນເສຍ
ນເສຍກ
ນເສຍຊ
ນເສຍສ
ນເສຍຫາຍ
ນເສຍແຕ
ນເສດຖ
ນເສດຖະກ
ນເສນາ
ນເສນາພ
ນເສລ
ນເຫ
ນເຫງ
ນເຫດ
ນເຫດການທ
ນເຫດທ
ນເຫດຜ
ນເຫດແຫ
ນເຫດໃຫ
ນເຫມ
ນເຫລ
ນເອ
ນເອກ
ນເອກຊ
ນເອກປະຍ
ນເອກສ
ນເອກອ
ນເອກະພາບ
ນເອກະລ
ນເອກະລາດ
ນເອກະສ
ນເອກເດ
ນເອງ
ນເອງກ
ນເອງຂ
ນເອງຄ
ນເອງຈ
ນເອງດ
ນເອງທ
ນເອງບ
ນເອງມ
ນເອງຢ
ນເອງວ
ນເອງຫ
ນເອງເປ
ນເອງແດ
ນເອງແລະຜ
ນເອງໃຫ
ນເອງໄດ
ນເອເລ
ນເຮ
ນເຮມ
ນເໜ
ນເໝ
ນແກ
ນແກເລຍ
ນແຂ
ນແຂກຮ
ນແຂວງ
ນແຂວງທ
ນແຂວງຫນ
ນແຂວງໜ
ນແຄ
ນແຄນ
ນແຄນທ
ນແຄນສຳ
ນແຄວ
ນແຈ
ນແຊ
ນແດ
ນແດງ
ນແດນ
ນແດນຈ
ນແດນຕ
ນແດນທ
ນແດນບ
ນແດນລ
ນແດນລາວ
ນແດນສ
ນແດນອ
ນແດນແຫ
ນແຕ
ນແຕກ
ນແຕກຕ
ນແຕກພ
ນແທ
ນແທນ
ນແນ
ນແນລ
ນແນລຄ
ນແນລຄວ
ນແນລບ
ນແນລຢ
ນແນລລາວ
ນແນລເພເຈ
ນແນລເລ
ນແນລແບ
ນແນລໄທແລນ
ນແນວຄ
ນແນວຄວາມຄ
ນແນວນ
ນແນວໃດ
ນແນວໃດບ
ນແນວໃດໜ
ນແບ
ນແບບ
ນແບບງ
ນແບບດ
ນແບບທ
ນແບບນ
ນແບບຢ
ນແບບສ
ນແບບອ
ນແບບເກ
ນແບບເປ
ນແປ
ນແປງ
ນແປວ
ນແຜ
ນແພ
ນແມ
ນແລ
ນແລນ
ນແລະ
ນແລະກ
ນແລະການຝ
ນແລະຂ
ນແລະຄ
ນແລະຈ
ນແລະຊ
ນແລະຍ
ນແລະດ
ນແລະຕ
ນແລະຕຳບ
ນແລະທ
ນແລະນ
ນແລະບ
ນແລະປ
ນແລະຜ
ນແລະພ
ນແລະມ
ນແລະຢ
ນແລະລ
ນແລະວ
ນແລະວຽດນາມ
ນແລະສ
ນແລະອ
ນແລະຮ
ນແລະເຂ
ນແລະເຈ
ນແລະເປ
ນແລະເພ
ນແລະເອ
ນແລະແຫ
ນແລະໃຫ
ນແລະໄຂມ
ນແລະໄດ
ນແລະໜ
ນແວງ
ນແວງທ
ນແຫ
ນແຫລ
ນແຫລະ
ນແຫລະຄ
ນແອ
ນແອອ
ນແຮ
ນແຮກ
ນແຮງ
ນແຮງກ
ນແຮງຂ
ນແຮງດ
ນແຮງທ
ນແຮງບ
ນແຮງຫ
ນແຮມ
ນແໜ
ນໂຄ
ນໂຄກມ
ນໂຄງການ
ນໂຄງການຍ
ນໂຄງສ
ນໂຄວ
ນໂງ
ນໂຈມຕ
ນໂຊ
ນໂຊຊ
ນໂຍ
ນໂຍທ
ນໂຍທາ
ນໂດ
ນໂດຈ
ນໂດຍ
ນໂດຍກ
ນໂດຍການຮ
ນໂດຍຊ
ນໂດຍທ
ນໂດຍນ
ນໂດຍບ
ນໂດຍມ
ນໂດຍສ
ນໂດຍອ
ນໂດຍໃຊ
ນໂດດຄ
ນໂດນ
ນໂດລາເອມອນ
ນໂດເນເຊຍ
ນໂດເມນອ
ນໂຕ
ນໂຕຄ
ນໂຕນ
ນໂຕລະຄອນ
ນໂທ
ນໂນ
ນໂນນຂະມ
ນໂນນທ
ນໂນນມ
ນໂນນສ
ນໂນນເມ
ນໂນເບລສາຂາສ
ນໂພ
ນໂພໄຊ
ນໂມເລກ
ນໂຣບ
ນໂລກ
ນໂລກເກ
ນໂລດ
ນໂລໂກ
ນໂສໄທ
ນໂອກາດ
ນໂອຊາ
ນໂອລ
ນໂຮງຮຽນ
ນໂຮງຮຽນມ
ນໂຮງແຮມ
ນໂໜ
ນໃກ
ນໃຈ
ນໃຈກ
ນໃຈຊ
ນໃຈດ
ນໃຈຕ
ນໃຈທ
ນໃຈນ
ນໃຈບ
ນໃຈລ
ນໃຈວ
ນໃຈສ
ນໃຈຫ
ນໃຈອ
ນໃຈຮ
ນໃຈເຂ
ນໃຈເລ
ນໃຈເອ
ນໃຈໃນວ
ນໃຈໃຫ
ນໃຊ
ນໃດ
ນໃດກ
ນໃດຄ
ນໃດທ
ນໃດນ
ນໃດມ
ນໃດເປ
ນໃດໜ
ນໃຕ
ນໃນ
ນໃນກ
ນໃນກອງທ
ນໃນກອງປະຊ
ນໃນການຕ
ນໃນການປ
ນໃນການຜະລ
ນໃນການພ
ນໃນການສ
ນໃນການຮ
ນໃນຂ
ນໃນຂະນະນ
ນໃນຄ
ນໃນຈ
ນໃນຊ
ນໃນຊອຍເຖ
ນໃນຍ
ນໃນດ
ນໃນຕ
ນໃນຕະກ
ນໃນຕຳແໜ
ນໃນທ
ນໃນທະວ
ນໃນນ
ນໃນນາມ
ນໃນບ
ນໃນປ
ນໃນປະຈ
ນໃນປະມານ
ນໃນປະຫວ
ນໃນປະເທດໄທ
ນໃນພ
ນໃນພາກຕາເວ
ນໃນມ
ນໃນລ
ນໃນລະດ
ນໃນລະຫວ
ນໃນລາວ
ນໃນວ
ນໃນສ
ນໃນສະຕະວ
ນໃນຫ
ນໃນຫມ
ນໃນຫວຽດນາມ
ນໃນອ
ນໃນອາຊ
ນໃນອານາຄ
ນໃນຮ
ນໃນຮອບນ
ນໃນເຂດການປ
ນໃນເດ
ນໃນເບ
ນໃນເມ
ນໃນເລ
ນໃນເວລາທ
ນໃນເວລານ
ນໃນເອ
ນໃນແຕ
ນໃນໂລກນ
ນໃນໝ
ນໃບອະນ
ນໃຜ
ນໃສ
ນໃຫ
ນໃຫຍ
ນໃຫມ
ນໃໝ
ນໄກ
ນໄຂ
ນໄຂມ
ນໄຊ
ນໄຊກ
ນໄຊຍະພ
ນໄຊສ
ນໄດ
ນໄດຣ
ນໄຕ
ນໄທ
ນໄທທ
ນໄທບ
ນໄທມ
ນໄທວ
ນໄທເຊ
ນໄທແລນ
ນໄທໃຫຍ
ນໄທໜ
ນໄນນ
ນໄປ
ນໄປກ
ນໄປຂ
ນໄປຈ
ນໄປຍ
ນໄປດ
ນໄປຕ
ນໄປຕາມ
ນໄປຕາມກ
ນໄປຕາມທ
ນໄປຕາມແຕ
ນໄປທ
ນໄປບ
ນໄປພ
ນໄປຢ
ນໄປສ
ນໄປຫ
ນໄປອ
ນໄປຮ
ນໄປເຖ
ນໄປເພ
ນໄປແລ
ນໄປໃຊ
ນໄປໃນທ
ນໄປໃນທາງທ
ນໄປໃນແຕ
ນໄປໃຫ
ນໄປໄດ
ນໄພ
ນໄພສ
ນໄພສານມະຫາຣ
ນໄຟຟ
ນໄຟລ
ນໄມ
ນໄມຕ
ນໄຣຊ
ນໄລ
ນໄລຍະ
ນໄລຍະຕ
ນໄລຍະທ
ນໄລຍະທາງ
ນໄວ
ນໄຫ
ນໄຫວ
ນໄຫວຂະໜາດ
ນໄຫວຄ
ນໆ
ນໆກ
ນໆທ
ນໆນ
ນໆຢ
ນໆວ
ນໆອ
ນໆເຊ
ນໆໄດ
ນໆໄປ
ນໜ
ນໜອງບ
ນໜອງສະຫວ
ນໜອງຫວ
ນໜອງເຮ
ນໜອງແກ
ນໜອງໄພສ
ນໜອງໄມ
ນໜາ
ນໝ
ນໝາກກ
ນໝາກພ
ນໝາກໄມ
ນໝາຍ
ນໝາຍເຖ
ນໝາຍເລກ
ນໝາສ
ບ
ບກ
ບກວ
ບກວນ
ບກອງກຳລ
ບກອງທ
ບກະດ
ບກະສ
ບກະເທ
ບກາງ
ບກາຍ
ບການ
ບການກ
ບການຂ
ບການຂະຫຍາຍຕ
ບການຂຽນ
ບການຄ
ບການຄວບຄ
ບການຄະມະນາຄ
ບການຄາດຕະກ
ບການຈ
ບການຊ
ບການຍ
ບການຍອມຮ
ບການດ
ບການຕ
ບການຕອບຮ
ບການຖ
ບການທ
ບການນ
ບການນຳໃຊ
ບການບ
ບການປ
ບການປະຊ
ບການປະດ
ບການປະຕ
ບການຜະລ
ບການຝ
ບການພ
ບການຟ
ບການມ
ບການຢ
ບການລ
ບການວ
ບການສ
ບການສນ
ບການສະຖາປະນາຂ
ບການສະຖາປະນາເປ
ບການສະນ
ບການສະຫນ
ບການສະເຫ
ບການສະເໜ
ບການສະໜ
ບການຫລາຍຢ
ບການຫາຍຕ
ບການອ
ບການອະນ
ບການຮ
ບການເກ
ບການເຂ
ບການເຄ
ບການເງ
ບການເຕ
ບການເປ
ບການເມ
ບການເລ
ບການເຮ
ບການແກ
ບການແຂ
ບການແຕ
ບການແບ
ບການໂຫວດ
ບການໂຫວດເຂ
ບການໂຫວດໃຫ
ບການໃຊ
ບການໃຫ
ບກຳລ
ບຂ
ບຂອງ
ບຂອງກ
ບຂອງການປ
ບຂອງຄ
ບຂອງຊ
ບຂອງທ
ບຂອງນ
ບຂອງນາງ
ບຂອງຜ
ບຂອງພຣະເຈ
ບຂອງພວກເຂ
ບຂອງພະບາດສ
ບຂອງພະອ
ບຂອງລ
ບຂອງລາວ
ບຂອງວ
ບຂອງສ
ບຂອງອ
ບຂອງເຂ
ບຄ
ບຄວບຄ
ບຄວາມ
ບຄວາມກ
ບຄວາມຄ
ບຄວາມຊ
ບຄວາມຍ
ບຄວາມຕ
ບຄວາມທ
ບຄວາມນ
ບຄວາມຜ
ບຄວາມພ
ບຄວາມມ
ບຄວາມລ
ບຄວາມສ
ບຄວາມສຳພ
ບຄວາມສຳເລ
ບຄວາມຫຍ
ບຄວາມອ
ບຄວາມຮ
ບຄວາມເຂ
ບຄວາມເຄ
ບຄວາມເປ
ບຄວາມເລ
ບຄອບຄ
ບຄອມພ
ບຄະດ
ບຄະແນນສຽງ
ບຄຳ
ບຄຳຕອບ
ບຄຳວ
ບຄຳສ
ບງ
ບງາມ
ບຈ
ບຈະຫ
ບຈາກ
ບຈາກການຄ
ບຈາກນ
ບຈາກວ
ບຈາກສ
ບຈຳນວນ
ບຊ
ບຊະນ
ບຊາກດ
ບຊາກສ
ບຊາດ
ບຊາດທ
ບຊານຊາລາຢ
ບຊາວຕ
ບຊາວອ
ບຊາວເຢຍລະມ
ບຍ
ບຍວນ
ບດ
ບດອກ
ບດອກບ
ບດາ
ບດາຕາເວ
ບດານ
ບດາລາຮ
ບດາເໜ
ບຕ
ບຕະຫ
ບຕາ
ບຕາຂ
ບຕາມຈ
ບຕາມຈຳນວນ
ບຕາເວ
ບຕຳບ
ບຕຳແໜ
ບຖ
ບຖະໜ
ບຖານ
ບທ
ບທອງຄຳ
ບທອດກ
ບທະນາຄານ
ບທະວ
ບທາງດ
ບທາງນ
ບທາງລ
ບທາງສ
ບທຳອ
ບທຽນ
ບນ
ບນະຄອນຫ
ບນະວ
ບນະໂຍບາຍຂອງແນວລາວຮ
ບນາງ
ບນາງເງ
ບນາຍ
ບນານາຊາດ
ບນານາຊາດໃນອະດ
ບນຳ
ບບ
ບບາດເຈ
ບປ
ບປະ
ບປະກ
ບປະກອນເຂ
ບປະກາສນ
ບປະຊາຊ
ບປະຊາທ
ບປະດ
ບປະດາ
ບປະຕ
ບປະຖ
ບປະທານ
ບປະທານໄດ
ບປະພ
ບປະມານ
ບປະມານປ
ບປະລ
ບປະສ
ບປະເທດ
ບປະເທດຂອງຮອງຊະນະເລ
ບປະເທດຄ
ບປະເທດຈ
ບປະເທດຝຣ
ບປະເທດລາວ
ບປະເທດຫວຽດນາມ
ບປະເທດອ
ບປະເທດເຊ
ບປະເທດໃນອາຊຽນ
ບປະເທດໄທ
ບປະໄຕ
ບປາ
ບປານກາງ
ບຜ
ບຜະລ
ບຜາ
ບຜາວ
ບຝ
ບຝຣ
ບຝະລ
ບພ
ບພລ
ບພວກທ
ບພະ
ບພະຄ
ບພະຍ
ບພະຍາກອນ
ບພະຍາກອນທ
ບພະຍາກອນທຳມະຊາດ
ບພະຍາກອນນ
ບພະຍາກອນມະນ
ບພະທ
ບພະນ
ບພະບ
ບພະປະດ
ບພະພ
ບພະມ
ບພະມະຫາກະລ
ບພະລ
ບພະວ
ບພະສ
ບພະອ
ບພະເຈ
ບພະເທເວດສະຣານ
ບພະເວດສ
ບພາກທ
ບພາກພ
ບພາຍນອກ
ບພາຍໃນ
ບພານ
ບພານໄດ
ບພາບ
ບພາບກ
ບພາບທ
ບພາສ
ບພາສາ
ບພາສາອ
ບຟ
ບມ
ບມອບສ
ບມະນ
ບມະຫາວ
ບມະຫາສະໝ
ບມາ
ບມາກ
ບມາຈາກເມ
ບມາຍ
ບມາຕ
ບມາທ
ບມາພ
ບມາມ
ບມາຢ
ບມາສ
ບມາອ
ບມາຮ
ບມາເປ
ບມາເມ
ບມາແຕ
ບມາແລ
ບມາໃຊ
ບຢ
ບຣ
ບຣາຊ
ບຣາຊການເປ
ບຣາຮາມ
ບລ
ບລວບລວມຂ
ບລວມ
ບລະດ
ບລະບ
ບລະບຽບ
ບລະຫວ
ບລະເບ
ບລາຄາ
ບລາງວ
ບລາຊະສ
ບລາຍຈ
ບລາວ
ບລຳ
ບລຳພ
ບວ
ບວກ
ບວກກ
ບວດ
ບວດເມ
ບວດໃຫ
ບວນ
ບວນການ
ບວນການຕ
ບວຽງຈ
ບສ
ບສນ
ບສວນ
ບສວນຄະດ
ບສວນປ
ບສອງ
ບສອງຂອງໂລກ
ບສອງຄອງສ
ບສອງຈ
ບສອງປ
ບສອງພ
ບສະກ
ບສະຕ
ບສະຕາບ
ບສະຖ
ບສະຖານ
ບສະມາຊ
ບສະລ
ບສະຫ
ບສະຫຍາມໄດ
ບສະຫນ
ບສະຫະພ
ບສະຫະລ
ບສະເດ
ບສະເລ
ບສະໂມສອນ
ບສະໜ
ບສາກ
ບສາຍການບ
ບສາຍສ
ບສາຍາວ
ບສາທາລະນະລ
ບສາມ
ບສາມຫ
ບສາມແຈ
ບສາມແຈທ
ບສຳລ
ບສຽງ
ບສຽງຕ
ບຫ
ບຫຍ
ບຫນ
ບຫມ
ບຫລ
ບຫລວງຫລາຍ
ບຫວຽດນາມ
ບຫວຽດນາມເໜ
ບຫາກ
ບອ
ບອກ
ບອກກ
ບອກລ
ບອກວ
ບອກເຂ
ບອກເຖ
ບອກເລ
ບອກໃຫ
ບອຍ
ບອຍແບນໄທ
ບອດ
ບອຕ
ບອນ
ບອມໝ
ບອະນ
ບອະເມລ
ບອາກາດ
ບອາຈານ
ບອາຊ
ບອາຍ
ບອານ
ບອານາຈ
ບອາຟຣ
ບອາຟະລ
ບອາວ
ບອາເມຣ
ບອາເມລ
ບອຳເພ
ບຮ
ບຮວມກ
ບຮອງ
ບຮອງເອ
ບຮອບ
ບຮາງວ
ບຮຽບຮ
ບະ
ບະດ
ບະລ
ບາ
ບາກ
ບາງ
ບາງກ
ບາງກອກ
ບາງກອກຈ
ບາງກອກມ
ບາງກອກແອຣ
ບາງກອກໃຫຍ
ບາງກອກໄດ
ບາງກະປ
ບາງຂ
ບາງຄ
ບາງຊ
ບາງຊະນ
ບາງຍ
ບາງຕ
ບາງທ
ບາງນ
ບາງບ
ບາງປາສ
ບາງພ
ບາງຢ
ບາງລ
ບາງລະມ
ບາງສ
ບາງຫວ
ບາງອ
ບາງຮ
ບາງເທ
ບາງແຫ
ບາຍ
ບາຍຕ
ບາຍທ
ບາຍວ
ບາຍເຖ
ບາຍເພ
ບາຍໃຫ
ບາຍໄດ
ບາຍໄວ
ບາດ
ບາດຫ
ບາດເຈ
ບາດແຫ
ບາຕ
ບາທ
ບານ
ບານຊ
ບານບ
ບານປະຕ
ບານສ
ບານເຕະ
ບານເຕະເພ
ບານເຢ
ບານແລະປະຖ
ບານໃໝ
ບາບ
ບາຣ
ບາລະມ
ບາສ
ບາອາຈານໃນຫລາຍໆເລ
ບາເກ
ບຳ
ບຳລ
ບຽນ
ບຽບ
ບເກ
ບເກມນ
ບເກາະຂອງປະເທດບ
ບເຂ
ບເຂດດ
ບເຂດຕ
ບເຂດທ
ບເຂດບາງກອກນ
ບເຂດບາງຄ
ບເຂດບາງພ
ບເຂດພ
ບເຂດພະນະຄອນ
ບເຂດຫ
ບເຂດອ
ບເຄ
ບເງ
ບເຈ
ບເຈດ
ບເຊ
ບເດ
ບເດດ
ບເຕ
ບເຖ
ບເທ
ບເນ
ບເບ
ບເບຣ
ບເປ
ບເຜ
ບເພ
ບເຟ
ບເມ
ບເຢ
ບເຢຍລະມ
ບເຣ
ບເລ
ບເລກ
ບເລກທ
ບເວ
ບເວລາ
ບເສ
ບເສດຖະກ
ບເຫ
ບເຫດຜ
ບເຫລ
ບເອ
ບເອກ
ບເອກະພາບ
ບເອກະລາດ
ບເອງ
ບເອດ
ບເອມ
ບເຮ
ບເຮຍເລ
ບເໜ
ບເໝ
ບແກ
ບແກຣນສະແລ
ບແຂກ
ບແຂວງ
ບແຂວງຄຳມ
ບແຂວງບ
ບແຂວງຫ
ບແຂວງອ
ບແຄບ
ບແຈ
ບແຕ
ບແທ
ບແນວລາວຮ
ບແບນທຣອພ
ບແບນທອບ
ບແບບ
ບແບບກ
ບແບບການປ
ບແບບຂອງ
ບແບບຂອງສ
ບແບບຂອງສະຖານ
ບແບບຄ
ບແບບດ
ບແບບດຽວກ
ບແບບຕ
ບແບບທ
ບແບບນ
ບແບບປ
ບແບບສ
ບແບບອ
ບແບບເດ
ບແບບໃໝ
ບແປດ
ບແຜ
ບແມ
ບແລ
ບແລະຕ
ບແລະຜ
ບແລະສ
ບແລະອ
ບແລະເຮ
ບແວກ
ບແຫ
ບແຮງບ
ບໂຄງສ
ບໂດຍ
ບໂດຍກ
ບໂຕ
ບໂຕຂ
ບໂຕທ
ບໂຕທາງເສດຖະກ
ບໂຕຢ
ບໂລກ
ບໂລໂກ
ບໂຫ
ບໂອກາດເຮ
ບໂຮມ
ບໂໜ
ບໃຈ
ບໃຊ
ບໃດໜ
ບໃນ
ບໃນການຕ
ບໃນຄ
ບໃນຊ
ບໃນດ
ບໃນບ
ບໃນປ
ບໃນວ
ບໃນສ
ບໃນສະຫະລ
ບໃນສາງ
ບໃນເດ
ບໃນເຢຍລະມ
ບໃບໜ
ບໃສ
ບໃຫ
ບໃຫຍ
ບໃໝ
ບໄຂ
ບໄຊ
ບໄຊຊະນະ
ບໄຊຕ
ບໄຊທ
ບໄຊຢ
ບໄຊອ
ບໄດ
ບໄທ
ບໄທຍ
ບໄປ
ບໄປຊ
ບໄປຍ
ບໄປຕ
ບໄປທ
ບໄປຢ
ບໄປລ
ບໄປແລ
ບໄຟຟ
ບໄມ
ບໄລ
ບໄວ
ບໄວຣ
ບໄຫວ
ບໜ
ບໜາ
ບໝ
ປ
ປກສ
ປຈ
ປດ
ປຕ
ປປ
ປພຣະສ
ປຣ
ປຣາເນຊ
ປວ
ປວງຊ
ປວດ
ປສ
ປອ
ປອກ
ປອກຕ
ປອງດອງກ
ປອດ
ປອດໄພ
ປອນ
ປະ
ປະກ
ປະກວດຄວາມງາມໃນປະເທດລາວ
ປະກວດລະດ
ປະກອນ
ປະກອນຄອມພ
ປະກອນດ
ປະກອນຕ
ປະກອນທ
ປະກອນສ
ປະກອນເອເລ
ປະກອບ
ປະກອບກ
ປະກອບການ
ປະກອບຂ
ປະກອບຈາກທ
ປະກອບດ
ປະກອບມ
ປະກອບສ
ປະກອບອາຊ
ປະກອບເປ
ປະກອບໄປດ
ປະກາດ
ປະກາດຂ
ປະກາດຄະນະປະຕ
ປະກາດຈ
ປະກາດຍ
ປະກາດຕ
ປະກາດປ
ປະກາດວ
ປະກາດເປ
ປະກາດເອກະລາດ
ປະກາດໃຊ
ປະກາດໃຫ
ປະການ
ປະການຄ
ປະການທ
ປະການນ
ປະການເປ
ປະການເຫ
ປະການໃດ
ປະຈ
ປະຈຳ
ປະຈຳຈ
ປະຈຳຊາດ
ປະຈຳປ
ປະຈຳມະຫາວ
ປະຈຳວ
ປະຈຳສຳນ
ປະຈຳຫ
ປະຈຳແຂວງ
ປະຈຳໂຮງຮຽນ
ປະຊ
ປະຊາ
ປະຊາກອນ
ປະຊາກອນຍ
ປະຊາກອນຕ
ປະຊາກອນທ
ປະຊາກອນປະມານ
ປະຊາກອນສ
ປະຊາກອນສາດ
ປະຊາກອນຫ
ປະຊາກອນໜ
ປະຊາກອນໜາແໜ
ປະຊາຄ
ປະຊາຊ
ປະຊາທ
ປະຊາສຳພ
ປະຍ
ປະດ
ປະຕ
ປະຖ
ປະຖຳ
ປະຖຳພຣະພ
ປະທ
ປະທານ
ປະທານຄະນະກຳມະການທ
ປະທານຄະນະກຳມະການສ
ປະທານປະເທດ
ປະທານປະເທດສາທາລະນະລ
ປະທານປະເທດໃນສະໄໝນ
ປະທານສ
ປະທານອ
ປະທານາທ
ປະທານໂຮ
ປະທານໄກສອນ
ປະນ
ປະປ
ປະພ
ປະມ
ປະມານ
ປະມານປ
ປະມານສະຕະວ
ປະມານຮ
ປະມານໜ
ປະຣ
ປະຣະມ
ປະລ
ປະວ
ປະສ
ປະສາດ
ປະສາດການແລະອະທ
ປະຫ
ປະຫຍ
ປະຫວ
ປະຫານ
ປະຫານຊ
ປະເຊ
ປະເດ
ປະເທດ
ປະເທດກ
ປະເທດການາດາ
ປະເທດກຳປ
ປະເທດກຽກກ
ປະເທດຄ
ປະເທດຈ
ປະເທດຊ
ປະເທດຊາດ
ປະເທດຍ
ປະເທດດ
ປະເທດຕ
ປະເທດທ
ປະເທດນ
ປະເທດບ
ປະເທດປອກຕ
ປະເທດຝຣ
ປະເທດຝະລ
ປະເທດພະມ
ປະເທດຟ
ປະເທດມ
ປະເທດມາເລເຊຍ
ປະເທດມຽນມາ
ປະເທດຣ
ປະເທດລ
ປະເທດລາວ
ປະເທດລາວກ
ປະເທດລາວກຳລ
ປະເທດລາວມ
ປະເທດລາວເປ
ປະເທດລາວໄດ
ປະເທດສ
ປະເທດສະມາຊ
ປະເທດສະວ
ປະເທດສະຫຍາມ
ປະເທດສະຫະລ
ປະເທດຫ
ປະເທດຫວຽດນາມ
ປະເທດອ
ປະເທດອາກຊ
ປະເທດຮ
ປະເທດເກ
ປະເທດເກຣ
ປະເທດເຈ
ປະເທດເນເທ
ປະເທດເພ
ປະເທດເມ
ປະເທດເຢຍລະມ
ປະເທດເອກ
ປະເທດເອຢ
ປະເທດເຮ
ປະເທດໂປໂລຍ
ປະເທດໂຮນລ
ປະເທດໃດໜ
ປະເທດໃນທະວ
ປະເທດໄທ
ປະເທດໄທຍ
ປະເທດໄທມ
ປະເທດໄທໄດ
ປະເພດ
ປະເພດກ
ປະເພດດ
ປະເພດນ
ປະເພດບ
ປະເພດປ
ປະເພນ
ປະເມ
ປະເສ
ປະໂກະ
ປະໂພກ
ປະໂຫຍກ
ປະໂຫຍກທ
ປະໂຫຍດ
ປະໂຫຍດຂອງວ
ປະໂຫຍດຫ
ປະໂຫຍດຫຍ
ປະໄຕ
ປະໄຕກ
ປະໄຕຄອງໂກ
ປະໄຕທ
ປະໄຕປະກາດໃຫ
ປະໄຕປະຊາຊ
ປະໄຕພາຍໃຕ
ປະໄຕຫ
ປະໄຕເນປານ
ປະໄພ
ປາ
ປາກ
ປາກຊ
ປາກຖ
ປາກນ
ປາກເຊ
ປາກເປ
ປາກແບ
ປາຂ
ປາງ
ປາຈ
ປາຊ
ປາຍ
ປາຍທາງ
ປາຍປ
ປາຍເດ
ປາຖນາ
ປາທ
ປານ
ປານາມາ
ປານໃດ
ປາບ
ປາຣ
ປາຣມ
ປາຣາກວາຍ
ປາລ
ປາວ
ປາສ
ປາສະຈາກ
ປາແດກ
ປຽບ
ປຽບທຽບກ
ປຽບທຽບຖານ
ປຽບເໝ
ປເພ
ຜ
ຜະ
ຜະຈ
ຜະລ
ຜະສ
ຜະເຊ
ຜະເດ
ຜະໜ
ຜາ
ຜາຕ
ຜາປ
ຜາສ
ຜາສາດ
ຜາສາດຫ
ຝ
ຝຣ
ຝລ
ຝະຣ
ຝະລ
ຝາ
ຝາງ
ຝາດ
ຝາວ
ພ
ພຍາ
ພຍາປ
ພທ
ພນ
ພພ
ພພະສ
ພພານ
ພພານສ
ພມ
ພຣ
ພຣະ
ພຣະຄ
ພຣະຍອດແກ
ພຣະຍາອ
ພຣະຍາໄອກ
ພຣະທ
ພຣະທາດຫ
ພຣະນ
ພຣະບ
ພຣະບາດສ
ພຣະບາທສ
ພຣະຜ
ພຣະພ
ພຣະມະຫາ
ພຣະມະຫາກະສ
ພຣະຣ
ພຣະຣາຊອານາຈ
ພຣະຣາຊະບ
ພຣະຣາຊະພ
ພຣະວ
ພຣະສ
ພຣະອ
ພຣະອະຣ
ພຣະອາຈານມະຫາຄຳຕ
ພຣະອາຈານສ
ພຣະອາຈານໃຫຍ
ພຣະອາຈາຣຍ
ພຣະເຈ
ພຣະເດດພຣະຄ
ພຣະແກ
ພຣະໂພທ
ພລ
ພວກ
ພວກກ
ພວກຂ
ພວກຄ
ພວກທ
ພວກນ
ພວກພ
ພວກມ
ພວກລ
ພວກຫ
ພວກອ
ພວກເຂ
ພວກເຈ
ພວກເພ
ພວກເຮ
ພວກໜ
ພວນ
ພວມ
ພສ
ພອ
ພອນ
ພອນກ
ພອນມະນ
ພອນສະຫວ
ພອນແກ
ພະ
ພະກ
ພະຂະນ
ພະຂະໂໜງ
ພະຄ
ພະຄະວະໂຕ
ພະຈ
ພະຈອມເກ
ພະຊ
ພະຍ
ພະຍາ
ພະຍາກະບ
ພະຍາກະຮອກ
ພະຍາຍ
ພະຍາຍາມ
ພະຍາຍາມເຮ
ພະຍາດ
ພະຍາດຕ
ພະຍາດໄວຣ
ພະຍາບ
ພະຍາພ
ພະຍາຟ
ພະຍາລາຊະພ
ພະຍາສ
ພະຍາເມ
ພະຍາໄທ
ພະຕາ
ພະຕຳໜ
ພະທ
ພະທາດ
ພະທາດສ
ພະທາດຫ
ພະທາດອ
ພະນ
ພະນະຄອນ
ພະນະຄອນສ
ພະນະທ
ພະນາງເຈ
ພະນາມ
ພະນາມຂ
ພະນາມຕາມຈາຣ
ພະນາມເດ
ພະບ
ພະບາງ
ພະບາດ
ພະບາດສ
ພະປ
ພະປະຫວ
ພະປະແດງ
ພະຜ
ພະພ
ພະມ
ພະມະຫາກະສ
ພະມະຫາທຳມະລາຊາ
ພະມະຫາທຳມະລາຊາທ
ພະມະເຫສ
ພະລ
ພະລາຊະກ
ພະລາຊະດຳຣ
ພະລາຊະດຳລ
ພະລາຊະທ
ພະລາຊະທານກຳເໜ
ພະລາຊະທານຊ
ພະລາຊະທານທ
ພະລາຊະທານໃຫ
ພະລາຊະນ
ພະລາຊະບ
ພະລາຊະປະສ
ພະລາຊະປະຫວ
ພະລາຊະພ
ພະລາຊະວ
ພະລາຊະສ
ພະລາຊະຫ
ພະລາຊະອານາຈ
ພະລາຊະເທວ
ພະລາຊະໂອລ
ພະລາດຊະວ
ພະວ
ພະວະຊ
ພະສ
ພະສະໜ
ພະສະໝ
ພະຫ
ພະອ
ພະອະນ
ພະອາຈານໃຫຍ
ພະຮາມທ
ພະເຈ
ພະເຊດຖະພະຄ
ພະເຍ
ພະເມຊ
ພະເຢຊ
ພະເວດສ
ພະແກ
ພະແທ
ພະແນກ
ພະແນກສະຖ
ພະໂຕສ
ພະໂພທ
ພະໂລ
ພະໂອລ
ພະໃສ
ພະໄທ
ພາ
ພາກ
ພາກກາງ
ພາກຄ
ພາກຕາເວ
ພາກທ
ພາກປ
ພາກພ
ພາກຣ
ພາກລ
ພາກວ
ພາກສ
ພາກສາ
ພາກສາໄດ
ພາກອ
ພາກອາຊ
ພາກອາຊຽນ
ພາກເປ
ພາກເໜ
ພາກໃຕ
ພາຂວ
ພາຄ
ພາຊະນະດ
ພາຍ
ພາຍນອກ
ພາຍຫ
ພາຍຫລ
ພາຍໃຕ
ພາຍໃນ
ພາຍໃນຈ
ພາຍໃນຊາດສາສະໜາ
ພາຍໃນຖ
ພາຍໃນບ
ພາຍໃນປ
ພາຍໃນປະເທດ
ພາຍໃນປະເທດໃນສະໄໝນ
ພາຍໃນພຣະອ
ພາຍໃນມ
ພາຍໃນວ
ພາຍໃນເປ
ພາຍໃນເມ
ພາດ
ພາດໄປໃນ
ພາທ
ພານ
ພານຄຳ
ພານທອງ
ພາບ
ພາບກ
ພາບຂອງ
ພາບຂອງສ
ພາບຂຽນສ
ພາບຄ
ພາບຕ
ພາບຖ
ພາບທ
ພາບທາງເສດຖະກ
ພາບສ
ພາບສະຕ
ພາບຫ
ພາບອ
ພາບເຊ
ພາບໃນສະໄໝຂອງເຮ
ພາພອນ
ພາມ
ພາມຊ
ພາມຜ
ພາມເຖ
ພາລ
ພາລະ
ພາລະກ
ພາລະບ
ພາວ
ພາວະດ
ພາວະທ
ພາສ
ພາສາ
ພາສາກ
ພາສາກາຕາລ
ພາສາຂະເໝນ
ພາສາຄອມພ
ພາສາຈ
ພາສາຊ
ພາສາຍ
ພາສາຕ
ພາສາຕະກ
ພາສາທ
ພາສາທະມ
ພາສາທະຫານ
ພາສາທາງການ
ພາສານ
ພາສາບ
ພາສາບາລ
ພາສາປອກຕ
ພາສາປາກເວ
ພາສາປາລ
ພາສາຝຣ
ພາສາຝະລ
ພາສາພະມ
ພາສາຟ
ພາສາລ
ພາສາລາຕ
ພາສາລາວ
ພາສາລາວມ
ພາສາລາວລ
ພາສາລາວສ
ພາສາລາວແມ
ພາສາລາແຕ
ພາສາສ
ພາສາສາດ
ພາສາຫວຽດນາມ
ພາສາອ
ພາສາອາຫ
ພາສາອຽກລ
ພາສາເກ
ພາສາເກຣ
ພາສາເຢຍລະມ
ພາສາແອສະປາໂຍນ
ພາສາໃນກ
ພາສາໄຕ
ພາສາໄທ
ພາສາໄທມ
ພາສາໄທລ
ພາສາໄທເໜ
ພາຫ
ພາຫະນະ
ພາຫາຍະ
ພາໃຫ
ພຳນ
ພຽງ
ພຽງຄ
ພຽງຕ
ພຽງທ
ພຽງບ
ພຽງຜ
ພຽງພ
ພຽງສ
ພຽງອ
ພຽງຮ
ພຽງເລ
ພຽງແຕ
ພຽງໃດ
ພຽບພ
ພໂຊະນາການ
ຟ
ຟການ
ຟຟ
ຟຣ
ຟລ
ຟອກນ
ຟອກສ
ຟອງ
ຟອດຊ
ຟອນ
ຟະລ
ຟາ
ຟາກ
ຟານ
ຟາມຮ
ຟາມເອ
ຟເວ
ມ
ມກ
ມກອງ
ມກອງທ
ມກະຈາຍຢ
ມກະສ
ມກາຕ
ມການ
ມການກ
ມການຈ
ມການຊ
ມການດ
ມການຕ
ມການທ
ມການທາງການເມ
ມການປ
ມການຜະລ
ມການພ
ມການລ
ມການສ
ມການອ
ມການເມ
ມກຳລ
ມຂ
ມຂອງ
ມຂອງຄ
ມຂອງຊ
ມຂອງຕ
ມຂອງທ
ມຂອງບ
ມຂອງຜ
ມຂອງພ
ມຂອງພຣະຣາຊອານາຈ
ມຂອງລ
ມຂອງສ
ມຂອງຫ
ມຂອງອ
ມຂອງເຂ
ມຂອງເມ
ມຂອງໂໜ
ມຂະຫຍາຍບ
ມຂະໜາດນ
ມຂະໜາດໃຫຍ
ມຂາວ
ມຄ
ມຄວ
ມຄວນ
ມຄວນແກ
ມຄວນແລ
ມຄວາມ
ມຄວາມມ
ມຄວາມສ
ມຄວາມຮ
ມຄອງ
ມຄອງຊ
ມຄອງດ
ມຄອງທ
ມຄອງບ
ມຄອງພຣະພ
ມຄອງຢ
ມຄອງລ
ມຄອງສ
ມຄອງຫ
ມຄອງເຈ
ມຄອງເສດຖະກ
ມຄອງໂດຍກ
ມຄອງໃຫ
ມຄອມມ
ມຄະຕ
ມຄຳ
ມຄຳສ
ມງ
ມງວດ
ມງານ
ມງານຕ
ມຈ
ມຈະມ
ມຈາກ
ມຈາກນ
ມຈາກສະຫ
ມຈາໜາຍເງ
ມຈຳພວກນ
ມຈຳໜ
ມຊ
ມຊອຍເຖ
ມຊະນ
ມຊະນະ
ມຊາຍ
ມຊາດ
ມຊາດພ
ມຊາດອ
ມຊາດຮ
ມຊາດໄທ
ມຊາວຫນ
ມຊາວໄທ
ມຍ
ມຍານາມວ
ມດ
ມດວງ
ມດາວ
ມດຳເນ
ມຕ
ມຕອນຕ
ມຕອນປາຍ
ມຕະຫ
ມຕາເວ
ມຕຳຫ
ມຖ
ມຖະໜ
ມທ
ມທອງ
ມທະວ
ມທະຫານມະຫາດເລ
ມທະຫານຣາບທ
ມທາງການເມ
ມທາງດ
ມທາງນ
ມທາງບ
ມທາງພຣະພ
ມທາງເພດ
ມທານ
ມທຳອ
ມນ
ມນາຄ
ມນາດ
ມນາດຊາດອາຊາວະໄສ
ມນາດບ
ມນຳ
ມບ
ມບານເຕະທ
ມບາເບ
ມບາເວ
ມປ
ມປະກອບດ
ມປະຈ
ມປະຈຳແຂວງສະຫວ
ມປະຊາຊ
ມປະຊາຊາດແຫ
ມປະຊາທ
ມປະຕ
ມປະທາ
ມປະມານ
ມປະສ
ມປະສານ
ມປະສານກ
ມປະຫວ
ມປະເທດ
ມປະເທດເປ
ມປະເສ
ມປານ
ມປາວ
ມປຽນລ
ມຜ
ມຜະລ
ມຜະສານກ
ມຝ
ມຝຣ
ມຝະລ
ມພ
ມພຣະອ
ມພວງ
ມພອນ
ມພອນເຂດອ
ມພະກຽດ
ມພະກຽດພະບາດສ
ມພະກຽດສ
ມພະຍາດຳລ
ມພະຍານະລ
ມພະທ
ມພະບ
ມພະລາຊະວ
ມພະວ
ມພະວາປ
ມພະສ
ມພະເທພາມາດ
ມພາ
ມພາກ
ມພາປ
ມພາສາທ
ມພາສາລາວ
ມພາສາອ
ມພາສາໄທ
ມພາສາໄຫ
ມຟ
ມມ
ມມອງຂອງຮ
ມມະ
ມມະການ
ມມະຂ
ມມະຈ
ມມະຊາດ
ມມະຕ
ມມະຖານ
ມມະທ
ມມະນ
ມມະນາ
ມມະນາຄ
ມມະນາດຖະບ
ມມະນາດບ
ມມະບ
ມມະພ
ມມະລ
ມມະລາຊາທ
ມມະລາຍ
ມມະລາດ
ມມະລາດມະຫາໄຊ
ມມະລຽນ
ມມະວ
ມມະສ
ມມະສະພາ
ມມະຫ
ມມະຫາຈ
ມມະຫານະຄອນ
ມມະຫາລາຊະວ
ມມະຫາວ
ມມະຮ
ມມະເລ
ມມະໂຊຕ
ມມະໂລກ
ມມະໂລກາຈາຣຍ
ມມະໝ
ມມາ
ມມາກ
ມມາທ
ມມານ
ມມານນ
ມມາຢ
ມມາລາຍ
ມມາວາຈາ
ມມາສ
ມຢ
ມຣ
ມລ
ມລະດ
ມລະລາຍ
ມລະຫວ
ມລະເບ
ມລາຊ
ມລາຊະກ
ມລາຊະຊ
ມລາຊະນ
ມລາຊະວ
ມລາຊະສ
ມລາຊະເທວ
ມລາຊະໂອງການໂປດເກ
ມລາຊະໂອງການໃຫ
ມລາຊາທ
ມລາຊານ
ມລາຊາພ
ມລາຍການຂ
ມລານ
ມລາວ
ມລາວໃຫ
ມລຳເນ
ມວ
ມວຍ
ມວນຊ
ມວນມະນ
ມວະນາລາມ
ມວຽງຈ
ມສ
ມສວຍ
ມສະກ
ມສະບ
ມສະພາແຫ
ມສະສ
ມສະຫ
ມສະຫລອງ
ມສະຫວ
ມສະຫວາດ
ມສະເລ
ມສະໄໝສາມ
ມສະໜ
ມສາກ
ມສາດ
ມສາດທ
ມສາດພ
ມສາດສ
ມສາດເສດຖະກ
ມສາທ
ມສາມ
ມສຳລ
ມຫ
ມຫຍ
ມຫມ
ມຫລ
ມຫລາຍ
ມຫລາຍຂ
ມຫວ
ມຫວານທ
ມຫວຽດນາມ
ມຫາຍໃຈ
ມອ
ມອນ
ມອບ
ມອບໃຫ
ມອສ
ມອອກອາກາດເປ
ມອອກອາກາດໃນປ
ມອອກເດ
ມອາກາດ
ມອາກາດຂອງເຂດຮ
ມອາຍ
ມອາວ
ມອາເມລ
ມຮ
ມະ
ມະກອງ
ມະຂ
ມະຊ
ມະຊາດ
ມະຊາດແລະສ
ມະຍ
ມະດາທ
ມະຕ
ມະນ
ມະບານ
ມະຣ
ມະສ
ມະຫ
ມະຫາ
ມະຫາກ
ມະຫາຄຳຕ
ມະຫາງອນ
ມະຫາຈ
ມະຫາຊ
ມະຫາຊະໂນດມາງຄະປະນ
ມະຫາຍານ
ມະຫາດເລ
ມະຫານ
ມະຫາບ
ມະຫາປ
ມະຫາປະຣ
ມະຫາຜ
ມະຫາພ
ມະຫາມ
ມະຫາລ
ມະຫາລາດ
ມະຫາວ
ມະຫາວະຊ
ມະຫາສ
ມະຫາສະໝ
ມະຫາໄຊ
ມະຫາໄດ
ມະເຫສວນມະຫ
ມະໂນລາ
ມະໂຫສ
ມະໄລ
ມາ
ມາກ
ມາກຣ
ມາກາຍເປ
ມາກາຣ
ມາຂ
ມາຂອງຄຳວ
ມາຂອງຊ
ມາຄ
ມາຄອງໄດ
ມາຈ
ມາຈາກ
ມາຈາກການທ
ມາຈາກການເລ
ມາຈາກຄ
ມາຈາກຄຳວ
ມາຈາກຊ
ມາຈາກທ
ມາຈາກນ
ມາຈາກມ
ມາຈາກວຽງຈ
ມາຈາກຫ
ມາຈາກອ
ມາຈາກເມ
ມາຊ
ມາຍ
ມາດ
ມາດຕະການເພ
ມາດຕະຖານ
ມາດຕາ
ມາດຣ
ມາດາກາສະກາ
ມາດາມມານເປ
ມາດາເທ
ມາຕ
ມາຕຣ
ມາຕະຫ
ມາຖ
ມາທ
ມານ
ມານດາຊ
ມານທ
ມານນ
ມານບ
ມານຝ
ມານມາລະສ
ມານສ
ມານສານອາຫານ
ມານຫ
ມານເງ
ມາບ
ມາປ
ມາຜ
ມາພ
ມາມ
ມາຢ
ມາຣ
ມາລ
ມາລາກ
ມາລາມ
ມາລາວ
ມາວ
ມາວອ
ມາສ
ມາຫ
ມາອ
ມາອາໄສຢ
ມາຮ
ມາຮອດ
ມາຮອດປ
ມາຮອດປະຈ
ມາເກ
ມາເຂ
ມາເຊ
ມາເຖ
ມາເປ
ມາເມ
ມາເຣຍ
ມາເລ
ມາເລເຊຍ
ມາເອ
ມາເຮ
ມາແກ
ມາແຕ
ມາແທນ
ມາແມ
ມາແມຣ
ມາແລ
ມາໂດຍຕະຫ
ມາໂໜ
ມາໃຊ
ມາໃນ
ມາໃນຊ
ມາໃນປ
ມາໃນວ
ມາໃນເດ
ມາໃຫ
ມາໄດ
ມາໄລ
ມາໄລທ
ມາໄວ
ມຽນ
ມຽນມາ
ມເກ
ມເຂ
ມເຂດກ
ມເຂດບາງກອກກາງ
ມເຂດບາງກອກເໜ
ມເຂດບາງກອກໃຕ
ມເຄ
ມເງ
ມເຈ
ມເຊ
ມເຊດຖາທ
ມເຍ
ມເດ
ມເຕ
ມເຖ
ມເທ
ມເນ
ມເບ
ມເບຍ
ມເປ
ມເຜ
ມເພ
ມເມ
ມເມໂທໂພລ
ມເຢ
ມເຢຍລະມ
ມເລ
ມເວ
ມເສ
ມເສດ
ມເສດຖະກ
ມເຫ
ມເຫດສ
ມເອ
ມເອກ
ມເຮ
ມເໜ
ມເໝ
ມແກ
ມແຂ
ມແຂງ
ມແຈ
ມແດງ
ມແດນກ
ມແດນຕ
ມແດນລະຫວ
ມແຕ
ມແທ
ມແບ
ມແປນຊ
ມແຜ
ມແພ
ມແມ
ມແລ
ມແລະ
ມແລະກ
ມແລະຂ
ມແລະຄ
ມແລະຈະຣ
ມແລະທ
ມແລະບ
ມແລະພະເຈ
ມແລະມ
ມແລະສ
ມແລະອ
ມແລະຮ
ມແລະເຕ
ມແວ
ມແຫ
ມແອມບາດເດ
ມໂກດ
ມໂກສ
ມໂປ
ມໂປແກ
ມໂພດ
ມໂພທ
ມໂມງ
ມໂມງດ
ມໂລກ
ມໂວຣ
ມໂອຣະສາທ
ມໃຈ
ມໃຊ
ມໃດ
ມໃນ
ມໃນຄ
ມໃນຊ
ມໃນປ
ມໃນວ
ມໃນສ
ມໃນຮ
ມໃສ
ມໃຫ
ມໃຫຍ
ມໃໝ
ມໄຊ
ມໄດ
ມໄຕໂລກະນາດ
ມໄທ
ມໄທແລນ
ມໄປ
ມໄປດ
ມໄປສະນ
ມໄມ
ມໄລ
ມໄວ
ມໆ
ມໜ
ມໝ
ຢ
ຢາ
ຢາກ
ຢາກກ
ຢາກຊ
ຢາກມ
ຢາກຮ
ຢາກເຂ
ຢາກເປ
ຢາກເຮ
ຢາກໃຫ
ຢາກໄດ
ຢາງ
ຢາງພາລາ
ຢາງລ
ຢາຍ
ຢາດ
ຢາດໃຫ
ຢາທ
ຢາມ
ຢາວ
ຢາສ
ຣ
ຣກ
ຣຍ
ຣດ
ຣນ
ຣສ
ຣສລາວ
ຣະ
ຣະກ
ຣະກະດາ
ຣະກະສ
ຣະຄ
ຣະຕ
ຣະນ
ຣະນະກ
ຣະນະພາບໄປ
ຣະນາຣ
ຣະບ
ຣະປ
ຣະພ
ຣະມ
ຣະມາພ
ຣະວ
ຣະວະດ
ຣະສ
ຣະຫ
ຣະຫວ
ຣະອ
ຣະເກ
ຣະເພ
ຣະເມນທະຣະມະຫາອານ
ຣະເມນມະຫາອານ
ຣາ
ຣາກ
ຣາຄະ
ຣາຊ
ຣາຊກຣມານ
ຣາຊອານາຈ
ຣາຊະ
ຣາຊະທານ
ຣາຊະອານາຈ
ຣາດ
ຣາຕ
ຣານ
ຣາບ
ຣາບລ
ຣາມ
ຣາລ
ຣາວ
ຣາສ
ຣາຫ
ຣາເບລ
ຣຽນ
ລ
ລກ
ລກມ
ລຈ
ລຊ
ລຍ
ລຍາ
ລຍາຂອງທ
ລດ
ລຕ
ລທ
ລນຳ
ລບ
ລປ
ລມ
ລລ
ລວ
ລວງ
ລວງກວ
ລວງຍາວ
ລວງຍາວທ
ລວງສ
ລວມ
ລວມກ
ລວມກຳລ
ລວມຍອດຜະລ
ລວມຕ
ລວມທ
ລວມມ
ລວມສ
ລວມອາຍ
ລວມເຂ
ລວມເຖ
ລວມເປ
ລວມເມ
ລວມເອ
ລວມໄປເຖ
ລວມໝ
ລສ
ລອ
ລອງ
ລອງຄ
ລອງຈ
ລອງຕ
ລອງບ
ລອຍ
ລອຍຕ
ລອດ
ລອດແອນເຈລ
ລອນ
ລອນດອນ
ລະ
ລະກ
ລະກາກອນ
ລະຂ
ລະຄ
ລະຄອນ
ລະຄອນຊ
ລະຄອນໂທລະທ
ລະຈ
ລະຈອມເກ
ລະຊ
ລະຊະນ
ລະຊາຍາ
ລະຍ
ລະຍອງ
ລະດ
ລະຕ
ລະຕອນຈະມ
ລະທ
ລະທຳ
ລະທຳສາທ
ລະນ
ລະນະ
ລະນະກຳ
ລະນະຂ
ລະນະປະຕ
ລະນະສ
ລະນາຍາສ
ລະນາດ
ລະນາລ
ລະບ
ລະບອບ
ລະບອບການປ
ລະບອບຜະເດ
ລະບອບສ
ລະບອບເສດຖະກ
ລະບາດ
ລະບຽບ
ລະບຽບກ
ລະບຽບວ
ລະປ
ລະປະ
ລະປະການສະແດງ
ລະປະກຳ
ລະປະກຳສາດ
ລະປະຊ
ລະປະດ
ລະປະທ
ລະປະວ
ລະປະເທດ
ລະປາຄ
ລະຝ
ລະພ
ລະພາ
ລະພາກສ
ລະມ
ລະມະນ
ລະມະຫາວ
ລະມານ
ລະມານຮ
ລະລ
ລະລາຊະກ
ລະລາຊະຊາຍາ
ລະລາຊະຊາຍາເທ
ລະລາຊະເທວ
ລະວ
ລະວະຣ
ລະສ
ລະຫ
ລະຫວ
ລະອ
ລະເຂດ
ລະເບ
ລະເຜ
ລະເພ
ລະເມ
ລະເລ
ລະເວ
ລະເວດ
ລະເວນ
ລະແຜ
ລະໄຊ
ລະໄລຍະ
ລະໜ
ລາ
ລາກ
ລາການ
ລາກແກ
ລາຄ
ລາຄາ
ລາຄາຖ
ລາຄາທ
ລາຄາລ
ລາຄາສ
ລາຄາເຂ
ລາຄາແພງ
ລາງ
ລາງລ
ລາງວ
ລາຈາຣ
ລາຈາລ
ລາຊ
ລາຊະ
ລາຊະການ
ລາຊະການທ
ລາຊະຄ
ລາຊະທານ
ລາຊະບ
ລາຊະມ
ລາຊະວ
ລາຊະສ
ລາຊະສະກ
ລາຊະສະໄໝພະບາດສ
ລາຊະອານາຈ
ລາຊາ
ລາຊາທ
ລາຊາພ
ລາຍ
ລາຍການ
ລາຍການຂ
ລາຍການຕ
ລາຍການທ
ລາຍການພ
ລາຍການອ
ລາຍການເຄ
ລາຍການເພງລາວສະໄໝ
ລາຍການໂທລະທ
ລາຍງານ
ລາຍງານວ
ລາຍຈ
ລາຍຊ
ລາຍພະນາມພະມະຫາກະສ
ລາຍລະອຽດ
ລາຍລະອຽດດ
ລາຍລະອຽດຕ
ລາຍຮ
ລາຍະການປະກວດຄວາມງາມ
ລາຍໄດ
ລາດ
ລາດຈ
ລາດຊະມ
ລາດຊະວ
ລາດຊະອານາຈ
ລາດຍາງ
ລາດບ
ລາດວະໂຣດ
ລາດຯ
ລາດເມ
ລາຕ
ລາທ
ລານ
ລາບ
ລາບສ
ລາບານເຕະ
ລາປ
ລາພ
ລາມ
ລາມະນ
ລາລ
ລາວ
ລາວກ
ລາວຄ
ລາວຈ
ລາວຍ
ລາວຍວນ
ລາວຕ
ລາວຖ
ລາວທ
ລາວນ
ລາວບ
ລາວພ
ລາວພວນ
ລາວມ
ລາວຢ
ລາວລ
ລາວວຽງ
ລາວສ
ລາວສຕາຣ
ລາວຫ
ລາວອ
ລາວຮ
ລາວເຂ
ລາວເດ
ລາວເປ
ລາວເລ
ລາວເຮ
ລາວແມ
ລາວໂຊ
ລາວໃຊ
ລາວໄດ
ລາສ
ລາຫ
ລາອອກ
ລາຮາ
ລາແລະທ
ລາແຫ
ລາໂລກມະຫາລາດ
ລາໂອລ
ລາໜ
ລຳ
ລຳກ
ລຳດ
ລຳຕ
ລຳທ
ລຳນ
ລຳບ
ລຳບາກ
ລຳປາງ
ລຳພ
ລຳມ
ລຳລ
ລຳວ
ລຳສ
ລຽງນ
ລຽດ
ລຽນ
ລຽບ
ລຽບງ
ລຽບຕາມແຄມແມ
ລຽມ
ລເຊ
ລເບ
ລໄດ
ວ
ວກ
ວກວ
ວກະ
ວກະບ
ວກາຕ
ວການປະກວດທ
ວກຳລ
ວຂ
ວຂອງ
ວຂອງຕ
ວຂອງຕະຫ
ວຂອງທ
ວຂອງບ
ວຂອງມ
ວຂອງລາວ
ວຂອງເຂ
ວຂອງເລ
ວຂອງເສດຖະກ
ວຂາວ
ວຄ
ວຄວາຍ
ວຄາວ
ວຄາວຂອງຈ
ວຄາວແຫ
ວຄຳ
ວງ
ວງກ
ວງກາງ
ວງຂ
ວງຂອງ
ວງຂອງລ
ວງຄ
ວງຊ
ວງຍ
ວງດ
ວງຕ
ວງຖ
ວງຖອດສະລ
ວງທ
ວງທຳອ
ວງນ
ວງນຳ
ວງບ
ວງບາງກອກ
ວງປ
ວງປະຈ
ວງປະທ
ວງປາຍປ
ວງປາລ
ວງຜ
ວງພ
ວງພຣະບາງ
ວງພະບາງ
ວງມ
ວງມາດຣ
ວງຢ
ວງລ
ວງລະດ
ວງລະເມ
ວງວ
ວງວຽງຈ
ວງສ
ວງຫ
ວງອ
ວງອະໄພນ
ວງອາຍ
ວງຮ
ວງເກ
ວງເກມຖອດສະລ
ວງເຂດຄອງເຕ
ວງເຊ
ວງເດ
ວງເປ
ວງເພ
ວງເມ
ວງເລ
ວງເວລາ
ວງເວລາດ
ວງເວລາທ
ວງເວລານ
ວງເຮ
ວງເໜ
ວງແຕ
ວງແຜ
ວງແມ
ວງແລ
ວງແລະເມ
ວງແຫ
ວງໃຕ
ວງໃຫຍ
ວງໃໝ
ວງໄດ
ວງໜ
ວຈ
ວຈະຕ
ວຈະມ
ວຈະເລ
ວຈະເຮ
ວຈະໄດ
ວຈາກຮ
ວຊ
ວຊນະນ
ວຊາວນາ
ວຊຽງ
ວຍ
ວຍກ
ວຍກະເບ
ວຍການ
ວຍການກ
ວຍການຄ
ວຍການຈ
ວຍການຊ
ວຍການຍ
ວຍການຕ
ວຍການຖ
ວຍການບ
ວຍການປ
ວຍການພ
ວຍການລ
ວຍການສ
ວຍການຮ
ວຍການເດ
ວຍການເປ
ວຍການເພ
ວຍການເລ
ວຍການເອ
ວຍການໃຊ
ວຍການໃຫ
ວຍຂ
ວຍຂວາງ
ວຍຂອງເຂ
ວຍຄ
ວຍຄວາມຍ
ວຍຄວາມຍາວ
ວຍຄວາມຕ
ວຍຄວາມທ
ວຍຄວາມບ
ວຍຄວາມລ
ວຍຄວາມສ
ວຍຄວາມຫມ
ວຍຄວາມຮ
ວຍຄວາມເປ
ວຍຄຳວ
ວຍງານ
ວຍງານທ
ວຍງານພຣະສາສະນາໄດ
ວຍງານລ
ວຍຈ
ວຍຊ
ວຍຊາຍ
ວຍຍ
ວຍດ
ວຍດາລາສາດ
ວຍຕ
ວຍຖ
ວຍທ
ວຍທອງສຳລ
ວຍນ
ວຍບ
ວຍປ
ວຍປະມວນຜ
ວຍປະໂຍຊນ
ວຍຜ
ວຍພ
ວຍພະອ
ວຍຟ
ວຍມ
ວຍຢ
ວຍຣ
ວຍລ
ວຍລະບ
ວຍລາງວ
ວຍວ
ວຍສ
ວຍສາອາກອນ
ວຍຫ
ວຍຫຍ
ວຍອ
ວຍອາຍ
ວຍຮ
ວຍາວ
ວຍເຂ
ວຍເຄ
ວຍເງ
ວຍເຊ
ວຍເດ
ວຍເຕ
ວຍເຖ
ວຍເທ
ວຍເນ
ວຍເປ
ວຍເຜ
ວຍເພ
ວຍເມ
ວຍເລ
ວຍເສ
ວຍເຫ
ວຍເຫດທ
ວຍເຫດນ
ວຍເຫດຜ
ວຍເຫລ
ວຍເອ
ວຍເຮ
ວຍແຕ
ວຍແຜ
ວຍແມ
ວຍແລ
ວຍແຮ
ວຍໂຕເອງ
ວຍໃນການຍ
ວຍໃຫ
ວຍໄດ
ວຍໄມ
ວຍໜ
ວດ
ວດກ
ວດທ
ວດພ
ວດາ
ວດເປ
ວດເມ
ວດໄດ
ວດໄທຍ
ວຕ
ວຕຣ
ວຕະຫ
ວຕາຍ
ວຖ
ວທ
ວທອງ
ວທອງເໜ
ວທາງດ
ວທາງເສດຖະກ
ວທຳອ
ວນ
ວນກ
ວນກາງ
ວນກຳລ
ວນຂ
ວນຂອງ
ວນຂອງຕຳບ
ວນຂອງລ
ວນຄ
ວນຄຳວ
ວນຈ
ວນຊ
ວນຍ
ວນດ
ວນຕ
ວນຕຳບ
ວນຖ
ວນທ
ວນທາງທ
ວນທາງຝ
ວນທາງສາຍຮອງແລະທາງລ
ວນນ
ວນບ
ວນປະກອບ
ວນປະກອບທ
ວນປະກອບຫ
ວນປະກອບເອເລ
ວນປະສ
ວນຜ
ວນຜະສ
ວນພ
ວນພະມະຫາກະສ
ວນພະອ
ວນພາກພ
ວນມ
ວນຢ
ວນລ
ວນວ
ວນສ
ວນສຳຄ
ວນຫ
ວນຫນ
ວນຫລາຍ
ວນຫລາຍນ
ວນຫລາຍແມ
ວນອ
ວນຮ
ວນາ
ວນເຂ
ວນເຄ
ວນເຈ
ວນເທ
ວນເນ
ວນເປ
ວນເມ
ວນເລ
ວນເສດຖະກ
ວນເໜ
ວນແຕ
ວນແບ
ວນແມ
ວນແລ
ວນໂຕ
ວນໃຕ
ວນໃນຊ
ວນໃນລະດ
ວນໃຫ
ວນໃຫຍ
ວນໄດ
ວນໆ
ວນໜ
ວນໝ
ວບ
ວບາ
ວບານ
ວປ
ວປວງຊ
ວປະກ
ວປະຊາຊ
ວປະທ
ວປະເທດ
ວປະເທດຂ
ວປະເທດຄ
ວປະເທດລາວ
ວປະເທດຫມ
ວປະເທດເຂ
ວປະເທດໄດ
ວປະເສ
ວຜ
ວພ
ວພຣະພ
ວພວກເຂ
ວພະລາຊະວ
ວພະຮາມ
ວຟ
ວມ
ວມກ
ວມກອງທ
ວມກອງປະຊ
ວມການປະກວດ
ວມການປະກວດມ
ວມການປະຊ
ວມການປະຕ
ວມການແຂ
ວມຂອງພຣະສ
ວມຄ
ວມຈ
ວມຍ
ວມດ
ວມຕ
ວມທ
ວມທຳບ
ວມນ
ວມບ
ວມປະກວດ
ວມປະກວດມ
ວມປະກາດມ
ວມປະຊ
ວມປະຕ
ວມພ
ວມມ
ວມຢ
ວມລ
ວມລາຍການ
ວມວ
ວມສ
ວມຫ
ວມອ
ວມຮ
ວມະຫາວ
ວມະຫາວະຊ
ວມາກ
ວມເປ
ວມເພດ
ວມເຮ
ວມໂຄງການ
ວມໃຈ
ວມໃນກອງປະຊ
ວມໃນພ
ວຢ
ວຢອກ
ວຣ
ວລ
ວລອຍໄທ
ວລະຄອນ
ວລະຄອນທ
ວລະຄອນຫ
ວລະພາ
ວລະຫວ
ວລາ
ວລາລ
ວລາວ
ວລຳພ
ວລຳໂພງ
ວວ
ວສ
ວສອນ
ວສະກ
ວສະຖານ
ວສະສ
ວສະເດ
ວສະເລ
ວສາຍ
ວສຳລ
ວຫ
ວຫຍ
ວຫນ
ວຫລ
ວຫລວງ
ວອ
ວອນ
ວອນນ
ວອນບ
ວອນລາດເຈ
ວອນສະຖານມ
ວອອກມາຮ
ວອານ
ວອາມ
ວຮ
ວະ
ວະກາຊາດ
ວະຈ
ວະຊ
ວະຍ
ວະຕ
ວະຕະ
ວະນ
ວະນະຣ
ວະນາດ
ວະນາໆພ
ວະປະຫວ
ວະພາບ
ວະມ
ວະມວນ
ວະຣ
ວະລ
ວະລາດ
ວະລາລາມ
ວະວ
ວະສ
ວະສາດ
ວະເຄມ
ວາ
ວາງ
ວາງຂວາງ
ວາງຕ
ວາງອອກ
ວາງອອກນ
ວາງເປ
ວາງແຜງ
ວາງໄວ
ວາຈ
ວາຈາ
ວາຈາໃດ
ວາດ
ວາດກ
ວາດລະຫວ
ວາດສະໜາ
ວາຕ
ວາທ
ວານ
ວານນາຍ
ວາປ
ວາມ
ວາລ
ວາລະ
ວາລະກອນ
ວາລະສານ
ວາວ
ວາເກ
ວາເຂ
ວາເຮ
ວຽກ
ວຽກງານ
ວຽກງານທ
ວຽກງານສາທາລະນ
ວຽກງານສາສະນາໃນ
ວຽກເຮ
ວຽງ
ວຽງຈ
ວຽດນາມ
ວຽດມ
ວຽນ
ວຽມ
ວເກ
ວເຂ
ວເຄ
ວເຄລຍ
ວເງ
ວເຈ
ວເຊ
ວເດ
ວເຕ
ວເຕມາລາ
ວເຖ
ວເທ
ວເນ
ວເບ
ວເປ
ວເພ
ວເມ
ວເມຍ
ວເຣາະໃຫ
ວເລ
ວເລກ
ວເລກທ
ວເສ
ວເຫ
ວເອ
ວເອກກະທ
ວເອງ
ວເອງກ
ວເອງວ
ວເອງເປ
ວເອງໃຫ
ວເຮ
ວແຂ
ວແຂວງ
ວແຄລ
ວແດ
ວແດງ
ວແຕ
ວແທນ
ວແທນຂອງ
ວແທນຂອງປະເທດເຂ
ວແທນຂອງປະເທດໄທໃນການປະກວດມ
ວແທນຈ
ວແທນປະເທດລາວ
ວແທນປະເທດລາວຄ
ວແທນປະເທດລາວທ
ວແທນປະເທດລາວຜ
ວແທນປະເທດໄທໃນການປະກວດຄວາມງາມຊາຍລະດ
ວແທນປະເທດໄທໃນການປະກວດຄວາມງາມລະດ
ວແທນຜ
ວແທນພຣະສ
ວແທນລະດ
ວແທນສາວລາວເຂ
ວແທນອາຊຽນໃນການປະກວດ
ວແທນອາຊຽນໃນການປະກວດມ
ວແທນເຂ
ວແທນແຫ
ວແທນໃຫ
ວແຜ
ວແມ
ວແລ
ວແລະຊ
ວແລະສ
ວແຫ
ວໂຄນ
ວໂປ
ວໂປດເກ
ວໂມງ
ວໂມງຕ
ວໂມງທ
ວໂລກ
ວໂລກທ
ວໃຈ
ວໃຈຂອງພຣະພ
ວໃຈພ
ວໃຈລ
ວໃຈສ
ວໃຊ
ວໃຕ
ວໃນປ
ວໃນວ
ວໃນເບ
ວໃສ
ວໃຫ
ວໃຫຍ
ວໃໝ
ວໄດ
ວໄທ
ວໄທແລນ
ວໄປ
ວໄປກ
ວໄປຂ
ວໄປຂອງ
ວໄປຂອງທ
ວໄປຄ
ວໄປຕ
ວໄປທ
ວໄປນ
ວໄປຜ
ວໄປມ
ວໄປຢ
ວໄປວ
ວໄປສ
ວໄປສຳລ
ວໄປອ
ວໄປຮ
ວໄປເຊ
ວໄປເປ
ວໄປເອ
ວໄປແມ
ວໄປແລ
ວໄມ
ວໄວ
ວໄຫ
ວໆໄປ
ວໜ
ວໝ
ສ
ສກ
ສກາ
ສຄອ
ສຈ
ສຊ
ສຍ
ສຍາມ
ສດ
ສຕ
ສຕຣ
ສຕະຈ
ສຕຽນ
ສຕຽນວ
ສຖານ
ສຖານພຣະພ
ສຖານພຣະແກ
ສທ
ສທຣ
ສທລ
ສນ
ສບ
ສປ
ສປຈ
ສປປ
ສປປລາວ
ສພາ
ສມ
ສຢ
ສຣນ
ສຣະ
ສລ
ສລາວ
ສລາວຄ
ສວ
ສວຍ
ສວຍງາມ
ສວຍງາມທ
ສວຍສ
ສວຍໂອກາດຍ
ສວນ
ສວນກະສ
ສວນດ
ສວນນ
ສວນປ
ສວນລ
ສວນວ
ສວນສ
ສວນສາທາລະນະ
ສວນຫ
ສວນເບນຈະກ
ສວຜ
ສວມໃສ
ສສ
ສສນາກ
ສສສສສສສສສສສສສສສສສສສສສສສສສສ
ສສະນາກ
ສຫວ
ສອ
ສອກ
ສອກຄ
ສອງ
ສອງກ
ສອງຂ
ສອງຄ
ສອງຄອນ
ສອງຊ
ສອງຕ
ສອງທ
ສອງນ
ສອງປ
ສອງປະມານ
ສອງຝ
ສອງຢ
ສອງວ
ສອງສ
ສອງຫ
ສອງອ
ສອງຮ
ສອງເດ
ສອງເມ
ສອງເຮ
ສອງແມ
ສອຍ
ສອດ
ສອດຄ
ສອດໄສ
ສອນ
ສອນຢ
ສອນວ
ສອນສ
ສອນໃຫ
ສອນໄຊ
ສອນໜ
ສອບ
ສອອລເນຊ
ສອະເມລ
ສອາຊຽນ
ສະ
ສະກ
ສະຄ
ສະງ
ສະດ
ສະດວກ
ສະດານເຕ
ສະຕ
ສະຕຣ
ສະຕະວ
ສະຕາ
ສະຕາບ
ສະຕາຣ
ສະຕາລ
ສະຕາໄທແລນ
ສະຖ
ສະຖານ
ສະຖານທ
ສະຖານນ
ສະຖານສ
ສະຖານະເປ
ສະຖານເອກອ
ສະຖາບ
ສະຖາປ
ສະຖາປະນ
ສະຖາປະນາ
ສະຖາວ
ສະຖຽນລະພາບ
ສະທ
ສະນ
ສະບ
ສະບາຍ
ສະບາຍດ
ສະປ
ສະພ
ສະພາ
ສະພາກາຊາດໄທ
ສະພາຊ
ສະພາຕ
ສະພາບ
ສະພາບດ
ສະພາບທ
ສະພາບປ
ສະພາບພ
ສະພາບເປ
ສະພາບເສດຖະກ
ສະພາບແວດລ
ສະພາບໂດຍທ
ສະພາປະຊາຊ
ສະພາວະທ
ສະພາວະເງ
ສະພາອ
ສະພາແຫ
ສະມ
ສະມາຄ
ສະມາຊ
ສະມາດໂຟນ
ສະມາຖ
ສະມາທ
ສະມາທານ
ສະມາທານເອ
ສະມາເລ
ສະຣ
ສະຣະນ
ສະຣະເນນະ
ສະລ
ສະລະ
ສະລະພາບ
ສະລາດ
ສະລາມ
ສະລາວ
ສະລາເອນ
ສະວ
ສະວະ
ສະວະກ
ສະວະກອນ
ສະວະກຳ
ສະວະກຳກ
ສະວະກຳສ
ສະວະກຳສາດ
ສະວະກຳເຕ
ສະວະກຳໂຍທາ
ສະວະຣ
ສະວະລ
ສະວາຊ
ສະສ
ສະຫ
ສະຫງ
ສະຫງວນ
ສະຫງວນໄວ
ສະຫຍາມ
ສະຫຍາມຕ
ສະຫຍາມບ
ສະຫຍາມມ
ສະຫຍາມໄດ
ສະຫນ
ສະຫນອງໃຫ
ສະຫນາມບ
ສະຫມ
ສະຫລ
ສະຫວ
ສະຫວາດ
ສະຫວາມ
ສະຫະ
ສະຫະປະຊາຊາດ
ສະຫະພ
ສະຫະພາບ
ສະຫະພາບມຽນມາ
ສະຫະພາບເອ
ສະຫະພາບໂຊວຽດ
ສະຫະຣ
ສະຫະຣາຊອານາຈ
ສະຫະຣາຊະອານາຈ
ສະຫະລ
ສະຫະລາຊະອານາຈ
ສະຫະລາດຊະອານາຈ
ສະຫາຍ
ສະຫາຍໄດ
ສະອ
ສະອາດ
ສະເກດ
ສະເຊ
ສະເດ
ສະເຕ
ສະເປຊ
ສະເປນ
ສະເພາະ
ສະເພາະກ
ສະເພາະລ
ສະເລ
ສະເຫ
ສະເຫນ
ສະເຫມ
ສະເຫລ
ສະເຫວ
ສະເຫວດສ
ສະເໜ
ສະເໝ
ສະແດງ
ສະແດງຄ
ສະແດງຄວາມຄ
ສະແດງທ
ສະແດງຜ
ສະແດງວ
ສະແດງເຖ
ສະແດງເປ
ສະແດງໂດຍ
ສະແດງໃຫ
ສະແປນເຊ
ສະແຫວງສ
ສະໂຕຣ
ສະໂມສອນ
ສະໂມສອນບານເຕະ
ສະໂມສອນຟ
ສະໂມສອນໄດ
ສະໂລເວນ
ສະໄຫມ
ສະໄໝ
ສະໄໝກ
ສະໄໝກາງ
ສະໄໝທ
ສະໄໝບ
ສະໄໝພະບາດສ
ສະໄໝພະເຈ
ສະໄໝລ
ສະໄໝສ
ສະໜ
ສະໜອງ
ສະໜາມ
ສະໜາມກ
ສະໜາມບ
ສະໜາມໄຊ
ສະໝ
ສາ
ສາກ
ສາກບ
ສາຂະ
ສາຂະບ
ສາຂາ
ສາຂາຂອງເຈ
ສາຂາທ
ສາຂາທຳອ
ສາຂານ
ສາຂາຢ
ສາຂາວ
ສາຂາສ
ສາຂາອ
ສາຂາເສດຖະສາດ
ສາຂາໜ
ສາຄະເນ
ສາງ
ສາຍ
ສາຍການບ
ສາຍດ
ສາຍຕາຍາວ
ສາຍທ
ສາຍນ
ສາຍພ
ສາຍລ
ສາຍສ
ສາຍສະເຫ
ສາຍແດນຮ
ສາດ
ສາດທ
ສາດບ
ສາດປະເທດໄທ
ສາດສະດາຈານ
ສາດສະຫນາອ
ສາດສະໜາ
ສາດສະໜາພ
ສາດສະໜາຢ
ສາດສະໜາອ
ສາທ
ສາທອນ
ສາທາລະນະ
ສາທາລະນະລ
ສາທາລະນະສ
ສານ
ສານກ
ສານຂ
ສານຕ
ສານທ
ສານທະຫານ
ສານປະຊາຊ
ສານພ
ສານພະວ
ສານມວນຊ
ສານລ
ສານລະຫວ
ສານສ
ສານຫ
ສານອ
ສານອາຫານ
ສານເຄມ
ສານເຈ
ສານໃຕ
ສາບ
ສາບານຕ
ສາມ
ສາມກ
ສາມຄ
ສາມຊ
ສາມຊະນ
ສາມຍ
ສາມທ
ສາມປ
ສາມສ
ສາມຫ
ສາມະເນນ
ສາມະເນນພ
ສາມະເນນໃນທ
ສາມະເນນໄດ
ສາມາດ
ສາມາດກ
ສາມາດຂ
ສາມາດຄ
ສາມາດຄວ
ສາມາດຄວບຄ
ສາມາດຈ
ສາມາດຊ
ສາມາດຍ
ສາມາດດ
ສາມາດຕ
ສາມາດຖ
ສາມາດທ
ສາມາດນ
ສາມາດນຳໃຊ
ສາມາດບ
ສາມາດປ
ສາມາດປະຕ
ສາມາດຜ
ສາມາດຜະລ
ສາມາດພ
ສາມາດມ
ສາມາດຢ
ສາມາດລ
ສາມາດລະບ
ສາມາດສ
ສາມາດສະແດງໄດ
ສາມາດຫ
ສາມາດອ
ສາມາດຮ
ສາມາດເກ
ສາມາດເຂ
ສາມາດເຄ
ສາມາດເຊ
ສາມາດເດ
ສາມາດເບ
ສາມາດເປ
ສາມາດເລ
ສາມາດເຫ
ສາມາດເອ
ສາມາດເຮ
ສາມາດແກ
ສາມາດແບ
ສາມາດແລ
ສາມາດໃຊ
ສາມາດໃຫ
ສາມາດໄດ
ສາມແຍກ
ສາລ
ສາລະ
ສາລະວ
ສາລາ
ສາລານ
ສາລາວ
ສາລາແດງ
ສາລາໂຮງທ
ສາວ
ສາວນ
ສາວສະຫວ
ສາວະກະສ
ສາວະຣ
ສາວະລ
ສາສະນ
ສາສະໜາ
ສາສະໜາຄ
ສາສະໜາທ
ສາສະໜາພ
ສາສະໜາອ
ສາສະໜາຮ
ສາຫະກ
ສາຫະກຳ
ສາເຫດທ
ສຳ
ສຳຄ
ສຳນ
ສຳນຽງ
ສຳປະສ
ສຳຜ
ສຳພ
ສຳຣ
ສຳລ
ສຳຫ
ສຳຫລ
ສຳເຣ
ສຳເລ
ສຽງ
ສຽງກ
ສຽງຂ
ສຽງຄ
ສຽງຈ
ສຽງຈາກການພາກກາຕ
ສຽງດ
ສຽງຕ
ສຽງທ
ສຽງນຳກ
ສຽງພ
ສຽງວ
ສຽງສ
ສຽງຫ
ສຽງອ
ສຽງຮ
ສຽງເອກ
ສຽງໂດ
ສຽງໂດຍ
ສຽງໂທ
ສຽງໃນດ
ສຽງໃຫ
ສຽນ
ສເ
ສເຊ
ສເຊຍ
ສເຕ
ສເອ
ສເອເຊຍປາຊ
ສແກຣນດ
ສແກຣນລາວ
ສແກຣນສ
ສແກຣນສະແລ
ສແກຣນອ
ສແກຣນໄທແລນ
ສແກຣນໄຮຊ
ສແອນມ
ສໂກ
ສໂກລບ
ສໂກລໂບ
ສໂຄ
ສໂມເດວອ
ສໂວຣ
ສໄຊນ
ສໄທແລນ
ສໄທແລນໂວຣ
ຫ
ຫງ
ຫງວນ
ຫງວຽນ
ຫຍ
ຫຍາຍ
ຫນ
ຫນອງ
ຫນອງຄາຍ
ຫນາ
ຫນາດ
ຫນາມ
ຫນາວ
ຫມ
ຫມວດ
ຫມວດທ
ຫມວດຫມ
ຫມອກ
ຫມາກຮ
ຫມາຍ
ຫມາຍຄວາມວ
ຫມາຍເຖ
ຫມາຍເລກໄອພ
ຫມາຍເຫດ
ຫຣ
ຫລ
ຫລວງ
ຫລວງນ
ຫລວງພະບາງ
ຫລວງຫລາຍ
ຫລວງອາມາດ
ຫລວດ
ຫລອດ
ຫລາ
ຫລາກ
ຫລາກຫລາຍ
ຫລາຍ
ຫລາຍກ
ຫລາຍກວ
ຫລາຍຂ
ຫລາຍຄ
ຫລາຍທ
ຫລາຍສ
ຫລາຍຮ
ຫລາຍແຫ
ຫລາຍໆ
ຫລາດ
ຫວ
ຫວາຍ
ຫວານ
ຫວຽດ
ຫວຽດນາມ
ຫວຽດນາມໃນປ
ຫອກ
ຫອຍ
ຫອມ
ຫອມສ
ຫະ
ຫະເທສາພ
ຫາ
ຫາກ
ຫາກດາລາຮ
ຫາກຕ
ຫາກທ
ຫາກບ
ຫາກຜ
ຫາກມ
ຫາກວ
ຫາກສ
ຫາກສາມຊ
ຫາກເປ
ຫາກແກ
ຫາກແຕ
ຫາກໄດ
ຫາງ
ຫາຍ
ຫາຍຕ
ຫາຍສາບສ
ຫາຍາກ
ຫາຍໃຈອອກນ
ຫາຍໃຈເຂ
ຫາຍໄປ
ຫາດ
ຫານ
ຫານກ
ຫານຂ
ຫານຂອງ
ຫານຄ
ຫານງານ
ຫານງານຂອງອ
ຫານງານຄວນປ
ຫານງານສ
ຫານຈ
ຫານຕ
ຫານທ
ຫານນ
ຫານບ
ຫານພ
ຫານລ
ຫານລາຊະການ
ຫານວ
ຫານສ
ຫານຫ
ຫານຮ
ຫານເຂດ
ຫານເຊ
ຫານໃຫ
ຫາປ
ຫາພ
ຫາມາໄດ
ຫາລ
ຫາລະເມ
ຫາລາດ
ຫາວ
ຫາສ
ຫາເງ
ຫາເດ
ຫາໄດ
ອ
ອກ
ອກກ
ອກຂ
ອກຄ
ອກຄະນະປະທານກ
ອກຈາກໂຫວດ
ອກຊ
ອກຕ
ອກທ
ອກນ
ອກນຳ
ອກບ
ອກປ
ອກຜ
ອກພ
ອກມ
ອກມາ
ອກວ
ອກສ
ອກຫ
ອກອງທ
ອກອງປະຊ
ອກະສ
ອກະແສແຫ
ອການປະຕ
ອການຜະລ
ອການພ
ອການສ
ອກຳຈ
ອກເຂ
ອກເປ
ອກເຟ
ອກເຢ
ອກເອ
ອກແຜ
ອກໂກແລ
ອກໂຄ
ອກໃຊ
ອກໃຫ
ອກໄດ
ອກໜ
ອຂ
ອຂອງ
ອຂອງຄ
ອຂອງຕະຫ
ອຂອງທະວ
ອຂອງນ
ອຂອງປະເທດ
ອຂອງປະເທດລາວແລະເຂດອ
ອຂອງປະເທດໄທ
ອຂອງພ
ອຂອງພະມ
ອຂອງລ
ອຂອງລາວ
ອຂອງສ
ອຂອງອ
ອຂອງເມ
ອຂອງໄທ
ອຄ
ອຄວບຄ
ອຄວາມມ
ອຄວາມເປ
ອຄອງເຕ
ອຄານ
ອງ
ອງກ
ອງກວ
ອງກະມ
ອງກະລ
ອງກາຕ
ອງການ
ອງການຂອງປະຊາຊ
ອງການຂອງຜ
ອງການຂອງມະນ
ອງການຂອງລ
ອງການຄ
ອງການຈ
ອງການຊ
ອງການຕ
ອງການທ
ອງການບ
ອງການປ
ອງການພ
ອງການມ
ອງການຢ
ອງການສ
ອງການຫ
ອງການຫຍ
ອງການອ
ອງການຮ
ອງການເກ
ອງການເງ
ອງການເມ
ອງການເຮ
ອງການໃຊ
ອງການໃຫ
ອງກາສ
ອງກຳນ
ອງຂ
ອງຂວາ
ອງຂອງ
ອງຂອງຈ
ອງຂອງຕ
ອງຂອງທ
ອງຂອງຝະລ
ອງຂອງພ
ອງຂອງມ
ອງຂອງລາວ
ອງຂອງຮ
ອງຂອງເຂ
ອງຂະໜາດໃຫຍ
ອງຂຽນ
ອງຄ
ອງຄວາມຮ
ອງຄອບ
ອງຄອມພ
ອງຄຳ
ອງຄຳເກ
ອງງ
ອງງອຍ
ອງງາ
ອງຈ
ອງຈອມເພ
ອງຈະຕ
ອງຈະໄດ
ອງຈາກ
ອງຈາກກ
ອງຈາກການປ
ອງຈາກຈ
ອງຈາກຊ
ອງຈາກຕ
ອງຈາກຖ
ອງຈາກທ
ອງຈາກບ
ອງຈາກພ
ອງຈາກມ
ອງຈາກລ
ອງຈາກວ
ອງຈາກສ
ອງຈາກເຈ
ອງຈາກເປ
ອງຈຳປາສ
ອງຈຳພອນ
ອງຊ
ອງຊະນະສ
ອງຊາຍ
ອງຊາຍຊາວໄທ
ອງຊາຍທ
ອງຊາວຍ
ອງຊາວຝະລ
ອງຊາວອາເມລ
ອງຊາວເກ
ອງຊາວໄທ
ອງຊຳເໜ
ອງຊຳໃຕ
ອງຊຽງຂວາງ
ອງຊຽງຕ
ອງຊຽງທອງ
ອງຊຽງຮ
ອງຊຽງເງ
ອງຊຽງໃໝ
ອງຍ
ອງຍອງ
ອງຍອດອ
ອງຍະລ
ອງຍາເທ
ອງດ
ອງດຽວກ
ອງດຽວທ
ອງຕ
ອງຕະຫ
ອງຕາກ
ອງຕາຍ
ອງຕານ
ອງຕາມກ
ອງຕາມນະໂຍບາຍຂອງ
ອງຖ
ອງທ
ອງທາງທ
ອງທາຍວ
ອງທຳອ
ອງນ
ອງນອງ
ອງນອນ
ອງນະຄອນຈຳປາສ
ອງນະຄອນນາຍ
ອງນະຄອນລາຊະສ
ອງນະຄອນສ
ອງນະຄອນເຂ
ອງນາກາງ
ອງນາຊາຍທອງ
ອງນາດ
ອງນານ
ອງນາວ
ອງນາແລ
ອງນຳ
ອງນຳກ
ອງບ
ອງປ
ອງປະກອບດ
ອງປະກອບມ
ອງປະຊ
ອງປະຊາທ
ອງປະດ
ອງປະຕ
ອງປະທ
ອງປະມານ
ອງປະສ
ອງປາກ
ອງປາກງ
ອງປາກຊ
ອງປາກທາ
ອງປາກລາຍ
ອງປາກອ
ອງປາກເຊ
ອງປາກແບ
ອງປາຈ
ອງຜ
ອງຜະລ
ອງຜະເຊ
ອງຜາອ
ອງຜາໄຊ
ອງຝ
ອງພ
ອງພວນ
ອງພະຊ
ອງພະຍາເລ
ອງພະນ
ອງພະລ
ອງພະອ
ອງພະເວດສ
ອງພຽງ
ອງຟ
ອງມ
ອງມະນ
ອງມະຫາໄຊ
ອງມາເປ
ອງຢ
ອງລ
ອງລະຫວ
ອງລາຊະອ
ອງລາດອ
ອງລາວ
ອງລາວກ
ອງລາວຕ
ອງລາວທ
ອງລາວບ
ອງລາວປະສ
ອງລາວມ
ອງວ
ອງວາງສະແດງຕ
ອງວາປ
ອງວາຮ
ອງວຽງຄຳ
ອງວຽງຈ
ອງວຽງທອງ
ອງວຽງພ
ອງວຽງໄຊ
ອງສ
ອງສວ
ອງສອງຄອນ
ອງສອງແຄວ
ອງສອນ
ອງສະຫມ
ອງສະຫວ
ອງສະເຊ
ອງສະໝ
ອງສາກ
ອງສາງ
ອງສາມ
ອງສາລະວ
ອງສາວ
ອງສາວຄ
ອງສຳຄ
ອງສຳພ
ອງສຳລ
ອງຫ
ອງຫຍ
ອງຫນ
ອງຫນອງບ
ອງຫນອງແຮດ
ອງຫມາຍ
ອງຫລ
ອງຫລວງ
ອງຫລວງພະບາງ
ອງຫວ
ອງຫາດຊາຍຟອງ
ອງອ
ອງອາຍ
ອງອາດສະພ
ອງອາດສະພອນ
ອງອາເມລ
ອງອຳນາດ
ອງຮ
ອງຮອຍ
ອງຮອຍທ
ອງຮຽນ
ອງເກ
ອງເຂ
ອງເຄ
ອງເງ
ອງເຈ
ອງເຊ
ອງເຊບ
ອງເຊໂປນ
ອງເດ
ອງເຕ
ອງເຖ
ອງເທ
ອງເທດ
ອງເບ
ອງເປ
ອງເພ
ອງເພງ
ອງເພງລ
ອງເຟ
ອງເມ
ອງເຢຍລະມ
ອງເລ
ອງເວ
ອງເສ
ອງເຫ
ອງເຫລ
ອງເອ
ອງເອກ
ອງເອກແມ
ອງເຮ
ອງເໜ
ອງແກ
ອງແຄ
ອງແຄບ
ອງແຄບອ
ອງແຕ
ອງແຖນ
ອງແບ
ອງແບງ
ອງແປກ
ອງແມ
ອງແລ
ອງແລະ
ອງແລະຄ
ອງແລະນ
ອງແລະສ
ອງແສງ
ອງແຫ
ອງໂຂງ
ອງໂດຍ
ອງໂດຍກ
ອງໂນນສ
ອງໂພນທອງ
ອງໂພນສະຫວ
ອງໂສ
ອງໂຮ
ອງໃຊ
ອງໃດ
ອງໃດໜ
ອງໃຕ
ອງໃນ
ອງໃນກ
ອງໃນຊ
ອງໃນທ
ອງໃນປ
ອງໃນປະເທດລາວ
ອງໃນລາວ
ອງໃນວ
ອງໃນແຂວງຄຳມ
ອງໃນແຂວງຫ
ອງໃສ
ອງໃຫ
ອງໃຫຍ
ອງໃຫມ
ອງໃໝ
ອງໄກສອນ
ອງໄກສອນພ
ອງໄຊ
ອງໄຊຍະບ
ອງໄຊທານ
ອງໄຊບ
ອງໄຊພ
ອງໄຊເຊດຖາ
ອງໄຊເສດຖາ
ອງໄດ
ອງໄທ
ອງໄທຍພ
ອງໄທສະຫຍາມ
ອງໄປ
ອງໄປຕ
ອງໄມ
ອງໄວ
ອງໄຫ
ອງໆ
ອງໜ
ອງໜອງຄາຍ
ອງໜອງບ
ອງໝ
ອງໝາຍ
ອງໝາຍການຄ
ອງໝາຍຂອງຈ
ອງໝາຍບວກ
ອງໝາຍບວກສ
ອງໝາຍວ
ອຈ
ອຈະມ
ອຈະເອ
ອຈະໄດ
ອຈາກ
ອຈາກນ
ອຈາກຜ
ອຊ
ອຊາດ
ອຊາດເຢຍລະມ
ອຍ
ອຍກ
ອຍກວ
ອຍການຊ
ອຍຂ
ອຍຂອງປະຊາກອນທ
ອຍຂອງພ
ອຍຂອງມ
ອຍຂອງສ
ອຍຄ
ອຍຈ
ອຍຊ
ອຍຍ
ອຍດ
ອຍດຽວ
ອຍຕ
ອຍຖ
ອຍທ
ອຍນ
ອຍນາໆ
ອຍບ
ອຍປ
ອຍປະຊາຊ
ອຍປະມານ
ອຍປະລະເລ
ອຍຜ
ອຍພ
ອຍມ
ອຍມາ
ອຍຢ
ອຍລ
ອຍລະ
ອຍວ
ອຍສ
ອຍສະຫ
ອຍສຳລ
ອຍຫ
ອຍຫນ
ອຍຫລ
ອຍອ
ອຍອອກມາ
ອຍອອກເປ
ອຍອາຍ
ອຍອາຍພ
ອຍອາຫານ
ອຍຮ
ອຍເຂ
ອຍເງ
ອຍເຊ
ອຍເຖ
ອຍເທ
ອຍເປ
ອຍເພ
ອຍເພງ
ອຍເມ
ອຍເລ
ອຍເຫ
ອຍເຫລ
ອຍເອ
ອຍເຮ
ອຍແກ
ອຍແຕ
ອຍແມ
ອຍແລ
ອຍແລະບ
ອຍແຫ
ອຍໂທລະຈ
ອຍໃນ
ອຍໃຫ
ອຍໃຫຍ
ອຍໄດ
ອຍໄປ
ອຍໄວ
ອຍໆ
ອຍໆກ
ອຍໆຈ
ອຍໆຢ
ອຍໆວ
ອຍໆໄດ
ອຍໜ
ອດ
ອດການ
ອດຈ
ອດຊ
ອດຕ
ອດທ
ອດນ
ອດປ
ອດຜະສ
ອດລ
ອດສ
ອດຫ
ອດອອກ
ອດຮ
ອດາວ
ອດຳນ
ອດຳເນ
ອດເກ
ອດເຖ
ອດເນ
ອດເປ
ອດເລ
ອດເວລາ
ອດແດງ
ອດແລນ
ອດແຫ
ອດໄປ
ອຕ
ອຕອນທ
ອຕອນລ
ອຕອນເທ
ອຕາຍແລ
ອຕາມທຳມະຊາດ
ອຖ
ອທ
ອທອງ
ອທາງ
ອທຳອ
ອທຽບກ
ອນ
ອນກ
ອນກວ
ອນການ
ອນການປ
ອນການພ
ອນການສ
ອນການແຂ
ອນການແຜ
ອນຂ
ອນຂອງ
ອນຂອງທ
ອນຂອງມ
ອນຂອງເຂ
ອນຂອງໂລກ
ອນຄ
ອນຄຣ
ອນຄວາມສ
ອນຄອບຄ
ອນຄະລ
ອນຈ
ອນຈອດລ
ອນຈະຕ
ອນຈະມ
ອນຈະເປ
ອນຈະໄດ
ອນຊ
ອນຊອຍ
ອນຍ
ອນດ
ອນຕ
ອນຕຳແໜ
ອນຖ
ອນທ
ອນທາງດ
ອນນ
ອນບ
ອນປ
ອນປະທ
ອນປະຫວ
ອນຜ
ອນຝ
ອນພ
ອນພະຈ
ອນພະລ
ອນພາມ
ອນຟ
ອນມ
ອນມະນ
ອນຢ
ອນລ
ອນລະດ
ອນລຳ
ອນວ
ອນສ
ອນສະຫວ
ອນສາມ
ອນຫ
ອນຫຍ
ອນຫນ
ອນຫວານກ
ອນອ
ອນຮ
ອນເກ
ອນເຂ
ອນເຄ
ອນເຈ
ອນເຊ
ອນເດ
ອນເຕ
ອນເຖ
ອນເທ
ອນເບ
ອນເປ
ອນເພ
ອນເມ
ອນເມສາ
ອນເມສາປ
ອນເລ
ອນເຫ
ອນເຫດຜ
ອນເອ
ອນເຮ
ອນເໜ
ອນແກ
ອນແຕ
ອນແມ
ອນແລ
ອນແອລ
ອນແຮມ
ອນໂຍນ
ອນໃຈ
ອນໃດ
ອນໃຕ
ອນໃນ
ອນໃຫ
ອນໃຫຍ
ອນໄກ
ອນໄຂ
ອນໄຂທ
ອນໄຂໃຫ
ອນໄດ
ອນໄທ
ອນໄຟຟ
ອນໄຟໄໝ
ອນໄມ
ອນໄຫວ
ອນໄຫວກ
ອນໄຫວຂອງ
ອນໄຫວດ
ອນໄຫວຕ
ອນໄຫວທ
ອນໄຫວທາງດ
ອນໄຫວທາງເສດຖະກ
ອນໄຫວປ
ອນໄຫວຢ
ອນໄຫວວຽກງານເຜຍແພ
ອນໄຫວສ
ອນໆ
ອນໜ
ອນໜາມ
ອນໝ
ອບ
ອບຕະຫ
ອບທ
ອບບ
ອບປ
ອບວດແລ
ອບາງກອກ
ອບຽດບຽນຕ
ອບເທ
ອບໂມເດວ
ອປ
ອປະຊ
ອປະຊາທ
ອປະດ
ອປະຕ
ອປະທ
ອປະມານ
ອປາຍທາງ
ອຜ
ອຜະລ
ອຝ
ອຝຣ
ອພ
ອພຣະອ
ອພຣະເຈ
ອພວກເຂ
ອພສ
ອພະຊ
ອພະຍາດ
ອພະທ
ອພະບາດສ
ອພະລາຊະບ
ອພະວ
ອພະອ
ອພະເຈ
ອພຽງ
ອພຽງແຄ
ອຟ
ອຟບ
ອຟພ
ອຟເດ
ອມ
ອມກ
ອມຂ
ອມຄ
ອມຈ
ອມດ
ອມດຽວກ
ອມຕ
ອມຖ
ອມທ
ອມນ
ອມນະຄອນຫ
ອມບ
ອມປ
ອມປາບສ
ອມຜ
ອມພ
ອມພະສ
ອມພຽງກ
ອມມ
ອມມະຫາການ
ອມຢ
ອມລ
ອມລະຫວ
ອມລາຊະວ
ອມວ
ອມສ
ອມສະຫ
ອມຫ
ອມອ
ອມອບໃຫ
ອມຮ
ອມຮອບ
ອມຮອບດ
ອມາສ
ອມາເກ
ອມາເຖ
ອມເກ
ອມເຂ
ອມເຄ
ອມເຈ
ອມເຊ
ອມເຍ
ອມເປ
ອມເພ
ອມເມ
ອມເຮ
ອມແປງ
ອມແມ
ອມແຫ
ອມແອ
ອມໂຍງກ
ອມໂຍງເຂ
ອມໃນທ
ອມໃສ
ອມໃຫ
ອມໄດ
ອມໄປດ
ອມໄວ
ອມໆ
ອມໆກ
ອມໜ
ອຢ
ອຣ
ອລ
ອລະກ
ອລະດ
ອລະຫວ
ອລາຍເມກ
ອວ
ອສ
ອສມທ
ອສະກ
ອສະຫນ
ອສະເດ
ອສະເຫ
ອສະແດງວ
ອສະແດງເຖ
ອສະໜ
ອສາຍ
ອສາຍຈ
ອສາຍມອນ
ອສາຍລາວ
ອສາຍລາວທ
ອສາຍອ
ອສາຍເຢຍລະມ
ອສາມະເນນພ
ອສຳເພ
ອສຳເລ
ອສເພ
ອຫ
ອຫຍ
ອຫນ
ອຫລ
ອຫາ
ອຫາກ
ອຫາທ
ອຫາສ
ອຫາໃຕ
ອອ
ອອກ
ອອກຂ
ອອກຄວາມຄ
ອອກຈາກ
ອອກຈາກກ
ອອກຈາກຊອຍເຖ
ອອກຈາກເມ
ອອກດຳລ
ອອກຕ
ອອກຖະແຫ
ອອກທ
ອອກຜ
ອອກພ
ອອກມາ
ອອກມາກ
ອອກມາເປ
ອອກລ
ອອກສ
ອອກສະຖານ
ອອກສຽງ
ອອກສຽງຕ
ອອກອາກາດຄ
ອອກອາກາດຕ
ອອກອາກາດທາງ
ອອກອາກາດທາງຊ
ອອກອາກາດທາງສະຖານ
ອອກອາກາດເມ
ອອກອາກາດໃນຊ
ອອກອາລະບ
ອອກເດ
ອອກເປ
ອອກເຜ
ອອກແບບ
ອອກແບບໂດຍ
ອອກໄປ
ອອງ
ອອງຊານ
ອອງຊານຊ
ອອງລ
ອອນ
ອອະທ
ອອາຍ
ອຮ
ອຮອງຮ
ອຮາວ
ອຮຽກຮ
ອະ
ອະຊ
ອະຍ
ອະດ
ອະທ
ອະນ
ອະນາຄ
ອະບ
ອະພ
ອະມ
ອະມະລ
ອະຣ
ອະລ
ອະລະບ
ອະວ
ອະວະຕາຣ
ອະສ
ອະຫ
ອະເມລ
ອະເລ
ອະໂນປະໄມບ
ອະໄພ
ອະໄພວ
ອາ
ອາກ
ອາກຊ
ອາກອນ
ອາກາດ
ອາກາດຮ
ອາການ
ອາກເມນ
ອາຂ
ອາຄ
ອາຄະເນ
ອາຄານ
ອາຄານຊ
ອາຄານທ
ອາຄານມ
ອາຄານລ
ອາຄານສ
ອາຄານອ
ອາງ
ອາງທ
ອາຈ
ອາຈຫມາຍເຖ
ອາຈານ
ອາຈານທ
ອາຈານອາໂອຍາມ
ອາຈາຣຍ
ອາຊ
ອາຊະຍາກຳ
ອາຊຽນ
ອາຍ
ອາຍເກ
ອາຍແກ
ອາດ
ອາດກ
ອາດຈະ
ອາດຈະຖ
ອາດຈະບ
ອາດຈະມ
ອາດຈະເປ
ອາດຈະແມ
ອາດຊ
ອາດຕ
ອາດຖ
ອາດບ
ອາດພ
ອາດມ
ອາດສະພອນ
ອາດຮ
ອາດເປ
ອາດເຮ
ອາດແມ
ອາດໃຊ
ອາດໃຫ
ອາດໄດ
ອາດໝາຍເຖ
ອາຕ
ອາທ
ອານ
ອານບານ
ອານບາເຣນ
ອານາ
ອານາຈ
ອານານ
ອານາເຂດ
ອານາເຂດກວ
ອານາເຂດຈ
ອານາເຂດຕ
ອານາເຂດທ
ອານາເຂດທາງທ
ອານາເຂດທາງທະເລຕ
ອາບ
ອາບນ
ອາພາດເມ
ອາຟຣ
ອາຟະລ
ອາມ
ອາມາຊ
ອາຣ
ອາຣະບ
ອາລ
ອາລະຍະທຳ
ອາລະບ
ອາວ
ອາວະກາດ
ອາສ
ອາຫ
ອາຫານ
ອາຫານການກ
ອາຫານຄ
ອາຫານທ
ອາຫານລາວ
ອາຫານລາວທ
ອາຫານສ
ອາຫານໄວ
ອາອ
ອາຮ
ອາເຈນຕ
ອາເຊ
ອາເບນ
ອາເມຣ
ອາເມລ
ອາເລ
ອາແຊກໄບຊານ
ອາໂກ
ອາໂດນ
ອາໂນ
ອາໃສ
ອາໃສຢ
ອາໄສ
ອາໄສຢ
ອາໄສໜາແໜ
ອຳ
ອຳນວຍ
ອຳນວຍການ
ອຳນວຍການສ
ອຳນວຍການໃຫຍ
ອຳນວຍໃຫ
ອຳນາດ
ອຳນາດການປ
ອຳນາດດ
ອຳນາດຕ
ອຳນາດທ
ອຳນາດນ
ອຳນາດບ
ອຳນາດປ
ອຳນາດລ
ອຳນາດສ
ອຳນາດຫ
ອຳນາດອະທ
ອຳນາດເໜ
ອຳນາດໃນການປ
ອຳພອນ
ອຳມະລ
ອຳເຄນ
ອຳເພ
ອຳໄພພ
ອຽກ
ອຽກລ
ອຽດ
ອຽວສ
ອເກ
ອເຂ
ອເຄ
ອເຈ
ອເຊ
ອເຍ
ອເດ
ອເຕ
ອເຖ
ອເທ
ອເບ
ອເປ
ອເຜ
ອເພ
ອເພງ
ອເມ
ອເຢຍລະມ
ອເລ
ອເວ
ອເວລາ
ອເສ
ອເສດຖະກ
ອເຫ
ອເອ
ອເຮ
ອແກ
ອແຈ
ອແດມບວກ
ອແຕ
ອແຜ
ອແມ
ອແມວລາຍຫ
ອແລ
ອແລກກ
ອແລະຕາເວ
ອແລະທ
ອແລະແຂວງຜ
ອແຫ
ອໂຄ
ອໃກ
ອໃຊ
ອໃດ
ອໃຕ
ອໃນ
ອໃນກ
ອໃນຂ
ອໃນຂອງງານແມ
ອໃນທ
ອໃນສ
ອໃຫ
ອໃຫຍ
ອໃໝ
ອໄຂ
ອໄດ
ອໄທ
ອໄປຍ
ອໄຟ
ອໄຟຊ
ອໄຟນ
ອໄຟຟອດຊ
ອໄມ
ອໄວ
ອໄວຣ
ອໜ
ອໝ
ອໝາກແຂ
ຮ
ຮວ
ຮວມ
ຮວມກ
ຮວມທ
ຮວມພະຊ
ຮວມອາຍ
ຮວມເຖ
ຮວມໄປເຖ
ຮອ
ຮອງ
ຮອງຈາກ
ຮອງຊະນະເລ
ຮອງນາຍ
ຮອງປະທານ
ຮອງປະທານປະເທດ
ຮອງລ
ຮອງຫ
ຮອງອ
ຮອງຮ
ຮອງເຈ
ຮອຍ
ຮອຍຍ
ຮອຍຕ
ຮອຍພະພ
ຮອດ
ຮອດທ
ຮອດປ
ຮອດວ
ຮອນ
ຮອບ
ຮອບຊ
ຮອບດ
ຮອບຕ
ຮອບທ
ຮອບບ
ຮອບພະຊ
ຮອບສ
ຮອບຮ
ຮອບຮອງຊະນະເລ
ຮະຍ
ຮະພາທ
ຮາ
ຮາກ
ຮາກເຫງ
ຮາງວ
ຮາຍ
ຮາດ
ຮາດແວ
ຮານ
ຮານກ
ຮານຄະດ
ຮານທ
ຮານນະການຈ
ຮານມ
ຮານວ
ຮານສະຖານ
ຮານອ
ຮານເຊ
ຮານໃຊ
ຮານໃນທາງພຣະພ
ຮານໄດ
ຮາບ
ຮາມ
ຮາຣ
ຮາລາດະ
ຮາວ
ຮາວາຍ
ຮຳ
ຮຳມ
ຮຽກ
ຮຽກຕ
ຮຽກວ
ຮຽກອ
ຮຽກຮ
ຮຽງຕາມເຂ
ຮຽນ
ຮຽນຈ
ຮຽນທ
ຮຽນຢ
ຮຽນວ
ຮຽນຮ
ຮຽບ
ຮຽບຮ
ຯ
ຯລຯ
ະ
ະກ
ະຈ
ະຊ
ະດ
ະທ
ະປະສ
ະຜະສ
ະພ
ະພາກ
ະພາບ
ະລາຊະສ
ະສ
ະສຽງສ
ະເປ
ັ
າ
າກ
າກວ
າກວມ
າກຫ
າກອງທ
າກະ
າກະຊວງ
າກະຕ
າກະລ
າກາກ
າກາຕ
າການ
າການກ
າການຕ
າການບ
າການປ
າການປະຕ
າການຜະລ
າການພ
າການມ
າການລ
າການສ
າການອຳເພ
າການເຮ
າການໃຊ
າກຳລ
າຂ
າຂວ
າຂອງ
າຂອງກ
າຂອງຄ
າຂອງຈ
າຂອງຊ
າຂອງດ
າຂອງດາລາຮ
າຂອງຕ
າຂອງທ
າຂອງນ
າຂອງບ
າຂອງປະຊາຊ
າຂອງຜ
າຂອງພ
າຂອງພວກເຂ
າຂອງມ
າຂອງລ
າຂອງລາວ
າຂອງວ
າຂອງສ
າຂອງສະກ
າຂອງສະຫະລ
າຂອງອ
າຂອງຮ
າຂອງເຂ
າຂອງເລ
າຂອງເຮ
າຂອງແຕ
າຂອງໄດ
າຂະມ
າຂະໜາດ
າຂະໜາດນ
າຂະໜາດໃຫຍ
າຂາຍ
າຂາດ
າຂານກ
າຂາວ
າຄ
າຄນະ
າຄວບຄ
າຄວາມດ
າຄວາມຕ
າຄວາມຮ
າຄອງນະຄອນຫ
າຄອບຄ
າຄອມພ
າຄະນະ
າຄະນະຈ
າຄາ
າຄຳ
າຄຳວ
າຄຳສ
າງ
າງກ
າງກວ
າງກອງທ
າງກອງປະຊ
າງກະທ
າງກາງເວ
າງກາຍ
າງກາຍທ
າງກາຍສ
າງກາຍໄດ
າງການກ
າງການຄ
າງການປ
າງການພ
າງການສ
າງການເດ
າງການແຂ
າງກຳລ
າງຂ
າງຂວາງ
າງຂວາງທ
າງຂອງ
າງຂອງທ
າງຂອງນ
າງຂອງຫ
າງຄ
າງຄວາມປະທ
າງຄວາມສາມ
າງຄວາມສຳເລ
າງຄວາມເປ
າງຄວາມໝ
າງຄອບຄ
າງຄາ
າງງ
າງງານ
າງຈ
າງຈະແຈ
າງຈາກ
າງຈາກດວງຈ
າງຈາກດວງອາທ
າງຈາກຕ
າງຈາກທ
າງຈາກນະຄອນຫ
າງຈາກບ
າງຈາກວ
າງຈາກສ
າງຈາກເທດສະບານເມ
າງຈາກເທດສະບານແຂວງ
າງຈາກເມ
າງຈຳປາສ
າງຊ
າງຊາດ
າງຊາດທ
າງຊາດເປ
າງຍ
າງດ
າງດຳນເນ
າງດຽວ
າງດຽວກ
າງຕ
າງຖ
າງຖະໜ
າງຖາວອນ
າງທ
າງທອງ
າງທະເລມ
າງທາງ
າງທາງລ
າງທາດຫ
າງນ
າງບ
າງບາງກອກກ
າງບາບ
າງປ
າງປະ
າງປະຕ
າງປະມານ
າງປະເທດ
າງປະເທດກ
າງປະເທດຂອງລ
າງປະເທດທ
າງປະເທດຢ
າງປະເທດວ
າງປະເທດອ
າງປະເທດເຂ
າງປະເທດເຊ
າງປະເທດເປ
າງປະເທດເພ
າງປະເທດເຢຍລະມ
າງປະເທດໃຫ
າງປະເທດໄດ
າງຜ
າງຜະລ
າງຝ
າງຝຣ
າງພ
າງພຣະພ
າງພຣະອ
າງພະລ
າງພະເຈ
າງພາບ
າງພຽງພ
າງຟ
າງມ
າງມະຫາວ
າງຢ
າງຣ
າງຣວດເຣ
າງລ
າງລະ
າງລະດ
າງລະບ
າງລະຫວ
າງລະອຽດ
າງລາຍຮ
າງລາວ
າງວ
າງວຽງຈ
າງສ
າງສວຍງາມ
າງສອງຝ
າງສະຖານ
າງສະຫງ
າງສາ
າງສາປະເທດຊາດ
າງສາພ
າງສຳລ
າງສຳເຣ
າງສຳເລ
າງຫ
າງຫຍ
າງຫນ
າງຫລ
າງຫລວງ
າງຫລວງຫລາຍ
າງຫາກ
າງອ
າງຮ
າງຮວດເຮ
າງາມ
າງເກ
າງເຂ
າງເຂດທ
າງເຂດພະນະຄອນກ
າງເຄ
າງເງ
າງເຈ
າງເຊ
າງເດ
າງເຕ
າງເຖ
າງເທ
າງເນ
າງເປ
າງເຜ
າງເພ
າງເພດ
າງເມ
າງເລ
າງເວ
າງເສ
າງເສດຖະກ
າງເຫ
າງເອ
າງເຮ
າງເໝາະສ
າງແກ
າງແຂ
າງແຂງແຮງ
າງແຈ
າງແຕ
າງແທ
າງແນ
າງແຜ
າງແພ
າງແມ
າງແລ
າງແຫ
າງແຮງບ
າງໂດຍ
າງໂດຍບ
າງໂຕຢ
າງໂຫດຮ
າງໂຮງໝ
າງໃກ
າງໃດ
າງໃດກ
າງໃດຢ
າງໃນ
າງໃນປ
າງໃນວ
າງໃບອະນ
າງໃຫ
າງໃຫຍ
າງໃໝ
າງໄກ
າງໄກສອກຫ
າງໄດ
າງໄພ
າງໄມ
າງໄວ
າງໄວວາ
າງໆ
າງໆກ
າງໆຂອງ
າງໆຂອງຕ
າງໆຄ
າງໆຈ
າງໆດ
າງໆທ
າງໆນ
າງໆນາໆ
າງໆມ
າງໆຢ
າງໆເຊ
າງໆເພ
າງໆເຫ
າງໆແມ
າງໆແລ
າງໆໃຫ
າງໆໄດ
າງໜ
າງໜາແໜ
າຈ
າຈອມສ
າຈະ
າຈະຄ
າຈະຊ
າຈະຍ
າຈະດ
າຈະຕ
າຈະຖ
າຈະນ
າຈະບ
າຈະພ
າຈະຟ
າຈະມ
າຈະຢ
າຈະລ
າຈະສ
າຈະຮ
າຈະເກ
າຈະເປ
າຈະເລ
າຈະເຫ
າຈະເຮ
າຈະໄດ
າຈະໝາຍເຖ
າຈາກ
າຈາກຕ
າຈາກທ
າຈາອ
າຈຳກ
າຈຳເປ
າຊ
າຊະນ
າຊະນະ
າຊາກສ
າຊາຍ
າຊາຍນ
າຊາຍຟ
າຊາຍແຫ
າຊາດດ
າຊາວໄທ
າຍ
າຍກ
າຍກວ
າຍການຊ
າຍຂ
າຍຂອງ
າຍຂອງກອງປະຊ
າຍຂອງຈ
າຍຂອງຊ
າຍຂອງບ
າຍຂອງລ
າຍຂອງວ
າຍຂອງສ
າຍຂອງແມ
າຍຄ
າຍຄອມພ
າຍຄອມມ
າຍຄະລ
າຍຄາຍຄຽດ
າຍຈ
າຍຈອງຜານກ
າຍຈະບ
າຍຈະມ
າຍຈະເປ
າຍຊ
າຍຊອຟຕ
າຍຊອຣ
າຍຊະນ
າຍຊາຍຍອດຍ
າຍຍ
າຍຍອມຮ
າຍດ
າຍດາຍ
າຍດຽວກ
າຍຕ
າຍຕາຍເກ
າຍຖ
າຍທ
າຍທອດຄວາມຮ
າຍທອດລ
າຍທອດສ
າຍທະຫານຈ
າຍທະຫານຝຣ
າຍທາງເພດ
າຍທຳ
າຍນ
າຍນະຄອນຫ
າຍບ
າຍບວກ
າຍບອມໝ
າຍປ
າຍປະການ
າຍປະເທດ
າຍປະເທດທ
າຍປະເທດລາວ
າຍປະເພດ
າຍປານໃດ
າຍຜ
າຍຜະລ
າຍພ
າຍພຣະສ
າຍພະອ
າຍພາສ
າຍມ
າຍມາຂ
າຍມາຢ
າຍຢ
າຍລ
າຍລະດ
າຍລະຫວ
າຍລາຍເສ
າຍລາວ
າຍລາວກ
າຍວ
າຍວນ
າຍວຽງຈ
າຍສ
າຍສະຕະວ
າຍສະບ
າຍສາຍ
າຍສຳລ
າຍຫ
າຍອ
າຍອດ
າຍອມຮ
າຍອາທ
າຍອາເລ
າຍອາໄສຢ
າຍຮ
າຍາກໝາກແພງ
າຍເກ
າຍເຂ
າຍເຄ
າຍເງ
າຍເຈ
າຍເຊ
າຍເດ
າຍເຕ
າຍເຖ
າຍເຖຣະວາດ
າຍເທ
າຍເນ
າຍເປ
າຍເຜ
າຍເພ
າຍເພງ
າຍເມ
າຍເລ
າຍເວ
າຍເຫ
າຍເອ
າຍເຮ
າຍເໜ
າຍແກ
າຍແຈ
າຍແດ
າຍແຕ
າຍແນວ
າຍແນວລາວຮ
າຍແບບ
າຍແພ
າຍແມ
າຍແລ
າຍແລະບ
າຍແລະມ
າຍແຫ
າຍແຮງ
າຍແຮງກວ
າຍແຮງທ
າຍໂຄສະນາ
າຍໂພດ
າຍໃຕ
າຍໃນ
າຍໃນຊ
າຍໃນທ
າຍໃນປ
າຍໃນສ
າຍໃນແຕ
າຍໃຫ
າຍໄດ
າຍໄປ
າຍໄປກ
າຍໄປຍ
າຍໄປທ
າຍໄປຢ
າຍໄຟຟ
າຍໆ
າຍໆຄ
າຍໆບ
າຍໆຢ
າຍໆວ
າຍໆສ
າຍໆແຫ
າຍໜ
າຍໝ
າດ
າດການເງ
າດຄອງເຕ
າດທ
າດນ
າດບ
າດພ
າດວ
າດສ
າດຫ
າດອກເບ
າດາລາຮ
າດຳລ
າດຽວກ
າດເຊ
າດເປ
າດແມ
າດໃໝ
າດໄດ
າຕ
າຕອບຜ
າຕະຫ
າຕາກຊ
າຕາກສ
າຕາຄ
າຕາທ
າຕານ
າຕາມ
າຕຳແໜ
າຖ
າຖະແຫ
າທ
າທອງ
າທະເລ
າທາ
າທາງ
າທາງດ
າທາງທ
າທາດ
າທາດທ
າທາດຫ
າທຳມາທ
າທຽບເຮ
າທຽບໃສ
າທຽມກ
ານ
ານກ
ານກວ
ານກະຕ
ານກະສ
ານກາງ
ານການ
ານການກ
ານການຂ
ານການຄ
ານການຕ
ານການທ
ານການທະຫານ
ານການບ
ານການປ
ານການຜະລ
ານການພ
ານການລ
ານການສ
ານການສະແດງ
ານການຮ
ານການເງ
ານການເມ
ານການເລ
ານການແຊກຊ
ານການແພດ
ານກາເຟ
ານຂ
ານຂວາ
ານຂວາມ
ານຂອງຕ
ານຂອງທ
ານຂອງຫ
ານຂອງເຈ
ານຂອງເມ
ານຂອງເສ
ານຂາຍຂອງຊຳ
ານຂາຍຂອງຊຳຄວບຄ
ານຂາຍປ
ານຂາຍເຄ
ານຄ
ານຄຣ
ານຄລ
ານຄວາມຮ
ານຄອງດ
ານຄອມພ
ານຄອມມ
ານຄຳພ
ານງ
ານຈ
ານຈອມມະນ
ານຈອມເພ
ານຈະຕ
ານຈະມ
ານຈະໄດ
ານຈາກຫ
ານຊ
ານຊຽງ
ານຊຽງດາ
ານຍ
ານຍາງຄຳ
ານຍາວ
ານດ
ານດຣ
ານດອນ
ານຕ
ານຕະຫ
ານຕະເວ
ານຕາລາງກ
ານຕາເວ
ານຖ
ານຖະໜ
ານທ
ານທອງລ
ານທາງອ
ານທາດຫ
ານທຳອ
ານນ
ານນອກ
ານນາ
ານນາຄ
ານນາງ
ານນາຊອນ
ານນາຍພ
ານນາຍາງ
ານນາຕານ
ານນາທ
ານນານ
ານນາລ
ານນາສ
ານນາສາລາ
ານນາເກ
ານນາເລ
ານບ
ານບາດ
ານປ
ານປະຕ
ານປະຫວ
ານຜ
ານຜານ
ານຝ
ານຝຣ
ານພ
ານພຣະອາຈາຣຍ
ານພະຍາພ
ານພະລ
ານພາສ
ານພາສາ
ານຟ
ານມ
ານມຫມ
ານມະນ
ານມະຫາສ
ານມາ
ານມາຈະໄມ
ານມານ
ານມາຢ
ານຢ
ານຢວນ
ານຣ
ານລ
ານລະ
ານລະບ
ານວ
ານວຍການຈ
ານວນ
ານວນຄ
ານວນບ
ານວນຫ
ານວນຫນ
ານວນໜ
ານວຽງຈະເລ
ານສ
ານສວນ
ານສະຕາບ
ານສະພ
ານສະພາ
ານສະຫວ
ານຫ
ານຫນ
ານຫມ
ານຫລ
ານຫາດຊຽງດ
ານອ
ານອະນ
ານອະສ
ານອາຈາຣຍ
ານອາຊ
ານອາຫານ
ານຮ
ານະຄອນສ
ານະຄອນຫ
ານະພາໄລ
ານາ
ານາງບ
ານາງມ
ານາງແອ
ານາງໄດ
ານາຍ
ານາຍຊ
ານາຍວ
ານາຍອ
ານາດ
ານາດການປ
ານານ
ານາແລ
ານຳ
ານຳກ
ານຳເຂ
ານເກ
ານເຂ
ານເຄ
ານເຈ
ານເຊ
ານເດ
ານເຕ
ານເຖ
ານເທ
ານເນ
ານເປ
ານເຜ
ານເພ
ານເມ
ານເຣຊ
ານເລ
ານເວ
ານເສ
ານເສດຖະກ
ານເຫ
ານເອ
ານເອງ
ານເຮ
ານເໜ
ານແກ
ານແຂກເມ
ານແດ
ານແປງເມ
ານແມ
ານແລ
ານແຫ
ານໂກດເຄ
ານໂຄກ
ານໂຄງສ
ານໂດລາ
ານໂດລາຕ
ານໂດລາສະຫະລ
ານໂນນຄ
ານໂນນປ
ານໂນນສ
ານໂນນສະຫວ
ານໂພນຕ
ານໂພນສະຫວ
ານໂພນສະອາດ
ານໂພນໄຊ
ານໂພສ
ານໃກ
ານໃຊ
ານໃດ
ານໃຕ
ານໃນ
ານໃນທ
ານໃນປ
ານໃຫ
ານໃຫຍ
ານໃໝ
ານໄຊສ
ານໄດ
ານໄປ
ານໄຟຟ
ານໄມ
ານໄຮ
ານໜ
ານໜອງດ
ານໜອງບ
ານໜອງໜ
ານໝ
ານໝາກແຂ
າບ
າບຊ
າບຣ
າບວ
າບອກ
າບອກວ
າບາກ
າບາງ
າປ
າປອດພາສ
າປະກ
າປະກວດ
າປະກວດທ
າປະກວດມ
າປະກວດເວທ
າປະຊ
າປະຊາຊ
າປະຊາທ
າປະດ
າປະຕ
າປະທ
າປະມານ
າປະລ
າປະສ
າປະເທດທ
າປະເທດລາວມ
າປະເວນ
າປາ
າປາກ
າປາງທອງ
າປາສ
າຜ
າຜະລ
າຜາ
າຜາກ
າຝ
າພ
າພຣະພ
າພຣະອ
າພວກນ
າພວກມ
າພວກເຂ
າພວກເຫ
າພອນ
າພະ
າພະກ
າພະຈ
າພະຍາ
າພະຍາຈ
າພະຍາພ
າພະຍາມະຫາກະສ
າພະຍາສ
າພະຍາຫ
າພະຍາເປ
າພະທາດ
າພະນ
າພະນະຄອນເໜ
າພະບ
າພະບາດ
າພະລ
າພະສ
າພະອ
າພະເຈ
າພະເຢຊ
າພະເວດສ
າພະແນກ
າພາກສ
າພານ
າພາບ
າພາບຈ
າພາສ
າພາສາ
າພາສານ
າພາສາລາວ
າພາສາອ
າພຽງ
າຟ
າມ
າມກ
າມກາງ
າມຂ
າມຄ
າມຄອງ
າມຈະໃຫ
າມຈະໄດ
າມຊ
າມຊາດ
າມດ
າມດາວພ
າມຕ
າມທ
າມນ
າມບ
າມຜ
າມຝ
າມຢ
າມລ
າມວ
າມສ
າມອ
າມຮ
າມະການກ
າມະຂວ
າມະຊາດ
າມະດາ
າມະຕ
າມະນ
າມະຫ
າມະຫາຊ
າມະຫານະຄອນ
າມະຫາວະຊ
າມະຫາສ
າມະຫາອ
າມາ
າມາກ
າມາຂ
າມາຈ
າມາຈາກ
າມາຊ
າມາຍ
າມາດ
າມາຕ
າມາທ
າມານ
າມາບ
າມາບວດໃນພຣະພ
າມາປ
າມາມ
າມາຢ
າມາລ
າມາສ
າມາອາໄສຢ
າມາຮ
າມາເກ
າມາເປ
າມາເຮ
າມາແລ
າມາໃຊ
າມາໃນຊອຍເຖ
າມເນ
າມເລ
າມແມ
າຢ
າຣ
າຣາຊການທ
າຣຳໄພພ
າລ
າລວມ
າລວມແລ
າລອງ
າລະດ
າລະບ
າລະວ
າລະຫ
າລະຫວ
າລະອອງທ
າລະແວ
າລາຊະການ
າລາຊະບ
າລາຊະວ
າລາຍ
າລາດຊະການພ
າລານທ
າລາມ
າລາວ
າລາວບ
າລາວລ
າລາວເປ
າລາວໄດ
າວ
າວກ
າວກະໂດດ
າວຂ
າວຂອງ
າວຄ
າວຄາວ
າວຈ
າວຈະຕ
າວຊ
າວຊາວໄທ
າວຍ
າວດ
າວຕ
າວຖ
າວທ
າວນ
າວບ
າວປ
າວພ
າວຟ
າວມ
າວມາຂ
າວມານ
າວຢ
າວລ
າວວ
າວວາຈານ
າວວຽງຈ
າວສ
າວສານ
າວສານທ
າວສານໄດ
າວຫ
າວຫນ
າວຫາ
າວຫາທ
າວຫາວ
າວອ
າວອະນ
າວຮ
າວະຊ
າວະພາ
າວະພາຜ
າວະລາດ
າວະລາດໃຫຍ
າວະໄລອະລ
າວາສ
າວຽກຫ
າວເຂ
າວເຊ
າວເຕ
າວເຖ
າວເປ
າວເມ
າວເລ
າວເຮ
າວແກ
າວແຕ
າວແມ
າວແລ
າວໂທດວ
າວໃຫ
າວໄກ
າວໄດ
າວໄທ
າວໄປສ
າວໄວ
າວໜ
າສ
າສວນລ
າສອງຄ
າສອນ
າສະ
າສະຖານ
າສະບ
າສະມາຊ
າສະຫ
າສະຫງວນ
າສະຫງວນແຫ
າສະຫວ
າສະເພາະ
າສະເຫ
າສະເຫນ
າສະເໜ
າສະເໝ
າສະແດງໃຫ
າສາ
າສາກ
າສາຍສ
າສາຍສະວະລ
າສາດ
າສາທາລະນະຊ
າສານ
າສາມມ
າສາມແສນໄທ
າສຳຄ
າສຳນ
າຫ
າຫຍ
າຫນ
າຫມ
າຫມາຍຂອງພ
າຫມາຍຢ
າຫລ
າຫລວງ
າຫວ
າຫາ
າຫາກ
າຫາກບ
າຫາກມ
າຫາກວ
າຫາກເຮ
າຫານ
າຫາສ
າຫາຮ
າອ
າອອກ
າອອກມາສ
າອະທ
າອະນ
າອາ
າອາກາດ
າອາກາດແມ
າອາກາດໃນ
າອາຄາ
າອາຍ
າອາດເປ
າອາທ
າອານ
າອານາຈ
າອາບນ
າອາພາພ
າອາລ
າອາເມລ
າອາໄສຢ
າຮ
າຮອບ
າຮອບສ
າຮາງວ
າຮຽນ
າຮຽນຊ
າຯ
າຯໃຫ
າເກ
າເຂ
າເຄ
າເງ
າເຈ
າເຊ
າເຊເສ
າເຍ
າເດ
າເຕ
າເຖ
າເທ
າເນ
າເບ
າເບຍ
າເບຣ
າເປ
າເຜ
າເຝ
າເພ
າເມ
າເຢ
າເຣ
າເລ
າເວ
າເວວ
າເສ
າເສຍຊ
າເສນາທ
າເສລ
າເຫ
າເຫລ
າເອ
າເອກະທ
າເອງ
າເຮ
າເໜ
າເໝ
າແກ
າແຂ
າແຂກ
າແຂວງ
າແຂວງຊຽງຂວາງແລະແຂວງຫ
າແຂວງວຽງຈ
າແຄ
າແຄນ
າແຊ
າແດ
າແດງ
າແດນດ
າແຕ
າແຕກຕ
າແຕກພ
າແຕງ
າແທ
າແນວຄ
າແນວລາວຮ
າແນວໃດ
າແນະນ
າແບ
າແຜ
າແພ
າແມ
າແລ
າແລະ
າແລະຄ
າແລະທ
າແລະບ
າແລະຜ
າແລະພ
າແລະວ
າແລະສ
າແລະອ
າແລະໃໝ
າແວງ
າແຫ
າແຫນ
າແອນ
າແຮ
າແຮງ
າແຮງງານ
າແໜ
າໂຄກ
າໂຄສະນາ
າໂຈມຕ
າໂດຍ
າໂຕ
າໂນ
າໂພດຽມ
າໂພທ
າໂລ
າໂລກ
າໂຫວດ
າໂອ
າໂອນ
າໂຮງຮຽນຂອງພ
າໂຮງຮຽນມ
າໂຮງໝ
າໂຮມ
າໂຮມກ
າໂຮມຄວາມສາມ
າໃກ
າໃຈ
າໃຈກ
າໃຈງ
າໃຈຕ
າໃຈຖ
າໃຈທ
າໃຈຜ
າໃຈວ
າໃຈເຖ
າໃຈໃນຫລ
າໃຈໃສ
າໃຈໃຫ
າໃຈໄດ
າໃຊ
າໃດ
າໃດກ
າໃດເດ
າໃດໜ
າໃຕ
າໃນ
າໃນການກ
າໃນການຜະລ
າໃນການພ
າໃນການສ
າໃນຂ
າໃນຊ
າໃນຕ
າໃນທ
າໃນບ
າໃນປ
າໃນພາຍໜ
າໃນລະດ
າໃນວ
າໃນສ
າໃນສາງ
າໃນອ
າໃນອະດ
າໃນອະນາຄ
າໃນຮ
າໃນເຄ
າໃນເມ
າໃສ
າໃຫ
າໃຫຍ
າໃຫມ
າໃໝ
າໄກ
າໄຂ
າໄຄ
າໄຊ
າໄຊຍະເສດຖາ
າໄຊຍະເສດຖາທ
າໄຊເສດຖາທ
າໄດ
າໄຕ
າໄຖ
າໄທ
າໄທທ
າໄທລ
າໄທໃຫຍ
າໄປ
າໄປກ
າໄປຂ
າໄປຄ
າໄປຊ
າໄປຍ
າໄປດ
າໄປຕ
າໄປທ
າໄປທາງທ
າໄປບ
າໄປພ
າໄປມ
າໄປຢ
າໄປລ
າໄປສ
າໄປອ
າໄປເຖ
າໄປເບ
າໄປເຮ
າໄປແລ
າໄປໃນ
າໄປໃນຕ
າໄປໃນປ
າໄປໃນສ
າໄປໃນຫ
າໄປໄດ
າໄປໄວ
າໄຟ
າໄຟຟ
າໄມ
າໄລ
າໄລຍະປ
າໄວ
າໄສ
າໄຫ
າໄຫມ
າໄຮ
າໄໝມ
າໆ
າໜ
າໜານ
າໜາແໜ
າໜຽວ
າໝ
າໝອງ
າໝາກຫ
າໝາຍ
າໝາຍທ
າໝາຍນ
າໝາຍສ
າໝາຍສະຫ
ຳ
ຳກ
ຳກວ
ຳກອງເພນ
ຳກະດ
ຳຂ
ຳຂອງ
ຳຂອງທ
ຳຂອງຢ
ຳຂອງເປ
ຳຂອງແຫ
ຳຂະໜາດໃຫຍ
ຳຄ
ຳຄານ
ຳງ
ຳຈ
ຳຊ
ຳຊອງ
ຳຊອມ
ຳຊອສ
ຳຍ
ຳດ
ຳດຳ
ຳຕ
ຳຕາຄ
ຳຕານ
ຳຕານໄອຊ
ຳຕານໝາກໄມ
ຳຖ
ຳທ
ຳທະເລ
ຳທາ
ຳນ
ຳນາງແອ
ຳບ
ຳບາກ
ຳບາງປະກ
ຳປ
ຳປະປາ
ຳປາ
ຳຜ
ຳຜາຊ
ຳຝ
ຳພ
ຳພະ
ຳພານທອງ
ຳພາສ
ຳມ
ຳຢ
ຳລ
ຳລຳທານ
ຳສ
ຳສາຍສຳຄ
ຳສາລະວ
ຳຫ
ຳຫວານ
ຳອ
ຳອາຊ
ຳອາມາຊ
ຳຮ
ຳຮຽນ
ຳເກ
ຳເຂ
ຳເງ
ຳເຈ
ຳເຊ
ຳເຊບ
ຳເຊໂດນ
ຳເດ
ຳເຕ
ຳເທ
ຳເປ
ຳເຜ
ຳເພ
ຳເພງໃນຖານະນ
ຳເມ
ຳເລ
ຳເຫ
ຳເອຣາວ
ຳແຊວມອນ
ຳແຕ
ຳແຜ
ຳແມ
ຳແລ
ຳແລະເທ
ຳແຫ
ຳໂພ
ຳໃຈ
ຳໃນ
ຳໃຫ
ຳໃຫຍ
ຳໄດ
ຳໄຫ
ຳໜ
ິ
ີ
ຶ
ື
ຸ
ູ
ົ
ຼ
ຽ
ຽຄຳສ
ຽງ
ຽງກ
ຽງຂອງ
ຽງຄ
ຽງງ
ຽງຊ
ຽງດ
ຽງຕ
ຽງທ
ຽງບ
ຽງມ
ຽງຢ
ຽງລ
ຽງສ
ຽງຫ
ຽງອ
ຽງເດ
ຽງເປ
ຽງເພ
ຽງເໜ
ຽງແກະ
ຽງແຖວຕ
ຽງໃຕ
ຽນ
ຽນກ
ຽນຂ
ຽນຄ
ຽນຄວາມຄ
ຽນຈາກ
ຽນຊ
ຽນຕ
ຽນຖານະເປ
ຽນຖານະແມ
ຽນທ
ຽນນ
ຽນບ
ຽນຜ
ຽນມ
ຽນມາເປ
ຽນລ
ຽນລະຫ
ຽນລະຫວ
ຽນວ
ຽນສ
ຽນອ
ຽນຮ
ຽນເງ
ຽນເນ
ຽນເປ
ຽນເສ
ຽນແປງ
ຽນແປງການປ
ຽນແປງຂອງດ
ຽນແປງຂອງສະພາບອາກາດ
ຽນແປງຊອຣ
ຽນແປງດ
ຽນແປງຖານະເປ
ຽນແປງຖານະແມ
ຽນແປງທ
ຽນແປງພ
ຽນແປງຢ
ຽນແປງລ
ຽນແປງສ
ຽນແປງສະພາບອາກາດ
ຽນແປງຫ
ຽນແປງໃໝ
ຽນແປງໄດ
ຽນໃຫ
ຽນໄດ
ຽນໄປ
ຽບ
ຽບຍ
ຽມ
ຽມຂ
ຽມຄ
ຽມຄຳ
ຽມຊ
ຽມຕ
ຽມຖະໜ
ຽມປາກແມ
ຽມພ
ຽມພະຈ
ຽມມ
ຽມຢາມ
ຽມຢາມໃນວ
ຽມລະຫວ
ຽມສ
ຽມຫ
ຽມເປ
ຽວ
ຽວກ
ຽວຂ
ຽວຂວາ
ຽວຂອງຕ
ຽວຄ
ຽວຈ
ຽວຊ
ຽວຊານ
ຽວຊານດ
ຽວດ
ຽວຕ
ຽວທ
ຽວທາງທຳມະຊາດ
ຽວທາງວ
ຽວນ
ຽວບ
ຽວພ
ຽວມ
ຽວຢ
ຽວລາວ
ຽວວ
ຽວສ
ຽວຫ
ຽວອ
ຽວຮອບໂລກ
ຽວເຂ
ຽວເຊ
ຽວເບ
ຽວເປ
ຽວເມ
ຽວແຫ
ຽວໃຫ
ຽວໄດ
ເ
ເກ
ເກຍ
ເກດ
ເກດສະໜາ
ເກນ
ເກມ
ເກມກ
ເກມຄອມພ
ເກມທຳໄດ
ເກມນ
ເກມມ
ເກມສ
ເກມເອເລ
ເກຣ
ເກຣາ
ເກລາວ
ເກາຫ
ເກາະ
ເກາະກ
ເກາະຄ
ເກາະຊ
ເກາະດອນຊາວ
ເກາະຕ
ເກາະທ
ເກາະທະເລໃຕ
ເກາະນ
ເກາະບ
ເກາະບຣ
ເກາະມ
ເກາະສະໝ
ເກາະອ
ເກາະເຕ
ເກາະເວ
ເຂ
ເຂດ
ເຂດກາຊາ
ເຂດການຄ
ເຂດການປ
ເຂດຄອງເຕ
ເຂດດ
ເຂດທ
ເຂດນ
ເຂດບ
ເຂດບາງກອກນ
ເຂດບາງກອກໃຫຍ
ເຂດບາງກະປ
ເຂດບາງຂ
ເຂດບາງຊ
ເຂດບາງນາ
ເຂດບາງເຂນ
ເຂດບາງແຄ
ເຂດປ
ເຂດປະທ
ເຂດພ
ເຂດພະຍາໄທ
ເຂດພະນະຄອນ
ເຂດພາສ
ເຂດມ
ເຂດລາຊະເທວ
ເຂດລາດບ
ເຂດວ
ເຂດສ
ເຂດສວນຫ
ເຂດສະພານສ
ເຂດສາຍພ
ເຂດສາຍໄໝ
ເຂດສາທອນ
ເຂດຫ
ເຂດອ
ເຂດຮ
ເຂດເມ
ເຂດເລ
ເຂດເວລາ
ເຂດເສດຖະກ
ເຂດແດນຕ
ເຂດໃນບາງກອກ
ເຄ
ເຄຊ
ເຄທ
ເຄນ
ເຄມ
ເຄຣ
ເຄຣນ
ເຄວ
ເຄາະ
ເຄາະຮ
ເງ
ເຈ
ເຈຍ
ເຈຍຈ
ເຈຍຖ
ເຈຍທ
ເຈຍບ
ເຈຍມາວ
ເຈຍເປ
ເຈຍໄດ
ເຈຍໝາກໄມ
ເຈດ
ເຈດຈຳນ
ເຈຕະນາ
ເຈຕະນາເປ
ເຈນ
ເຈນນ
ເຈມ
ເຈມສ
ເຈຣ
ເຈເນລ
ເຊ
ເຊກອງ
ເຊຍ
ເຊດ
ເຊນ
ເຊນທ
ເຊບ
ເຊລ
ເຊອ
ເຊໂກສະໂລວາເກຍ
ເຊໂປນ
ເຍ
ເຍຍລະມ
ເດ
ເດຈາວ
ເດຊວ
ເດຍ
ເດຍທ
ເດຍນ
ເດຍບ
ເດຍພາສາລາວ
ເດຍມ
ເດຍວ
ເດຍເປ
ເດຍແມ
ເດຍໄດ
ເດດ
ເດນ
ເດລ
ເດວ
ເດອ
ເຕ
ເຕຊຽດ
ເຕຕ
ເຕສ
ເຕະ
ເຕະບານ
ເຖ
ເຖລະວາດ
ເທ
ເທດ
ເທດສະການ
ເທດສະການດອກງ
ເທດສະບານຕຳບ
ເທດສະບານເມ
ເທດສາດ
ເທນເມ
ເທນແນດຊ
ເທບ
ເທບນ
ເທບບ
ເທບພະເຈ
ເທບສ
ເທພ
ເທພບ
ເທຣ
ເທວ
ເທວະກ
ເທວະດາ
ເທວະດາທ
ເທວະວ
ເນ
ເນຊ
ເນຍ
ເນນ
ເນນທອລ
ເນນທອລຄວ
ເນນທອລຊ
ເນນໂຕ
ເນບ
ເນປານ
ເນລ
ເນວ
ເນວາດາ
ເນສໂກ
ເນະ
ເນເທ
ເນໂຕ
ເບ
ເບກສາ
ເບຍ
ເບຍລາວ
ເບດ
ເບຕ
ເບນ
ເບບ
ເບຣ
ເບຣຊ
ເບລ
ເບລາຣ
ເບສດ
ເບສໂມເດລອ
ເບເກ
ເບເຣຍ
ເປ
ເປກຂາຄ
ເປນ
ເປນດາວເຄາະນ
ເປນຕ
ເປນນ
ເປນນາຍ
ເປນຜວາການທະນາຄານແຫງ
ເປນມ
ເປນວ
ເປນສະມາຊ
ເປບຊ
ເປມກະມ
ເປຣ
ເຜ
ເຜຍແພ
ເຝ
ເພ
ເພງ
ເພງຄ
ເພງຊາດ
ເພງຊາດລາວ
ເພງດ
ເພງທ
ເພງປະກອບລະຄອນ
ເພງປະກອບລະຄອນແລະຮ
ເພງປະກອບຮ
ເພງພ
ເພງລ
ເພງອ
ເພງຮ
ເພຈ
ເພຍຕ
ເພດ
ເພດຊາຍ
ເພດຍ
ເພດທ
ເພດສ
ເພດສຳພ
ເພນ
ເພນຊ
ເພພ
ເພຢ
ເພລ
ເພາະ
ເພາະກ
ເພາະຄ
ເພາະຈ
ເພາະຊ
ເພາະຕ
ເພາະຖ
ເພາະທ
ເພາະນ
ເພາະບ
ເພາະຜ
ເພາະພ
ເພາະພະອ
ເພາະມ
ເພາະຢ
ເພາະວ
ເພາະສ
ເພາະສະນ
ເພາະຮ
ເພາະເຂ
ເພາະເຊ
ເພາະເປ
ເພາະເຮ
ເພາະແມ
ເພາະໂໜ
ເພາະໃນສະໄໝກ
ເພເຈ
ເຟ
ເຟຊອ
ເຟດບ
ເຟລ
ເຟສ
ເຟສບ
ເມ
ເມກສ
ເມກາວ
ເມຊ
ເມຍ
ເມຍລ
ເມຍຫ
ເມດ
ເມດຕາ
ເມດຕາກະຣ
ເມຖ
ເມນ
ເມນເຟຣມ
ເມລ
ເມສາ
ເມະ
ເຢ
ເຢຍ
ເຢຍລະມ
ເຢຍອ
ເຣ
ເຣກ
ເຣຊ
ເຣຍ
ເຣດ
ເຣນ
ເຣນທອນພ
ເຣອ
ເລ
ເລກ
ເລກຄ
ເລກທ
ເລຂາຄະນ
ເລຂາທ
ເລຂາພ
ເລຍ
ເລດ
ເລດຕ
ເລດທ
ເລນ
ເລນພ
ເລນຽນ
ເລນຽມ
ເລບຄ
ເລບານອນ
ເລສ
ເລສຕ
ເລາະ
ເລເຊ
ເລໂຊໂຕ
ເວ
ເວກ
ເວຍ
ເວດ
ເວດຊາຊ
ເວດຕະວ
ເວດທ
ເວດມະລ
ເວດວ
ເວດສ
ເວດສາດ
ເວທ
ເວນ
ເວນກວ
ເວນກາງເມ
ເວນຂ
ເວນຈ
ເວນຊາຍຝ
ເວນຍ
ເວນດ
ເວນຕ
ເວນຕະຫ
ເວນຖ
ເວນຖະໜ
ເວນທ
ເວນນ
ເວນບ
ເວນຝ
ເວນພ
ເວນພາກເໜ
ເວນຢ
ເວນລ
ເວນວ
ເວນສ
ເວນຫ
ເວນອ
ເວນຮ
ເວນເທ
ເວນເທດສະບານຕຳບ
ເວນເມ
ເວນແຂວງໜອງບ
ເວນໃກ
ເວນໄກ
ເວບໄຊທ
ເວຣະມະນ
ເວລາ
ເວລາຊ
ເວລາຕ
ເວລາທ
ເວລານ
ເວລາປະມານ
ເວລາຜ
ເວລາພ
ເວລາມ
ເວລາມາດຕະຖານອ
ເວລາສ
ເວລາສະເລ
ເວລາຫ
ເວລາເກ
ເວລາເດ
ເວລາເປ
ເວເນຊ
ເສ
ເສກ
ເສກຄ
ເສກດ
ເສກສ
ເສກາພ
ເສກເປ
ເສຍ
ເສຍກ
ເສຍຄ
ເສຍຊ
ເສຍພາສ
ເສດ
ເສດກ
ເສດຄ
ເສດຄອນພະເພ
ເສດຕ
ເສດຖ
ເສດຖະກ
ເສດຖະຄະນ
ເສດຖະວ
ເສດຖະສາດ
ເສດຖະສາດຈ
ເສດຖະສາດມະຫາພາກ
ເສດຖະສາດສ
ເສດຖະສາດສະຫວ
ເສດຖະສາດສາກ
ເສດທ
ເສດນ
ເສດບ
ເສດມ
ເສດວ
ເສດສ
ເສດສະຫ
ເສດສະເຫ
ເສດຫ
ເສດອ
ເສດເຂ
ເສດໃຫ
ເສດໄຊສ
ເສຖະກ
ເສນາທ
ເສນາບ
ເສນາອາມາດ
ເສຣ
ເສລ
ເສສ
ເຫ
ເຫງ
ເຫຍ
ເຫດ
ເຫດການ
ເຫດການດ
ເຫດການທ
ເຫດການນ
ເຫດການສຳຄ
ເຫດທ
ເຫດນ
ເຫດຜ
ເຫດລະເບ
ເຫດເກ
ເຫຕ
ເຫນ
ເຫມ
ເຫມາະ
ເຫມາະສ
ເຫລ
ເຫວ
ເອ
ເອກ
ເອກວາດ
ເອກອ
ເອກະ
ເອກະຊ
ເອກະພ
ເອກະພາບ
ເອກະລ
ເອກະລາດ
ເອກະສານອ
ເອງ
ເອງທ
ເອຊ
ເອດ
ເອທ
ເອນ
ເອນເຄໂຟຕ
ເອມ
ເອຢ
ເອຣ
ເອລ
ເອລາ
ເອສ
ເອເລ
ເອເວ
ເອເອ
ເຮ
ເຮງ
ເຮຍຊ
ເຮລ
ເເດ
ເໜ
ເໝ
ເໝາະ
ເໝາະສ
ເໝາະສຳລ
ເໝາະແກ
ແ
ແກ
ແກງ
ແກນ
ແກນດ
ແກນສ
ແກນແບກ
ແກມມ
ແກຣນ
ແກຣນສະແລ
ແກຣນອ
ແກະ
ແກະສະຫລ
ແຂ
ແຂກ
ແຂກຄ
ແຂກຮ
ແຂງ
ແຂງແຮງ
ແຂນ
ແຂວງ
ແຂວງກວາງບ
ແຂວງຂອງຜ
ແຂວງຂອນແກ
ແຂວງຄ
ແຂວງຄຳມ
ແຂວງຈ
ແຂວງຈຳປາສ
ແຂວງຊຳເໜ
ແຂວງຊຽງຂວາງ
ແຂວງດ
ແຂວງທ
ແຂວງນ
ແຂວງບ
ແຂວງຜ
ແຂວງມ
ແຂວງວຽງຈ
ແຂວງສ
ແຂວງສະຫວ
ແຂວງສາລະວ
ແຂວງຫ
ແຂວງຫລວງພຣະບາງ
ແຂວງຫລວງພະບາງ
ແຂວງອ
ແຂວງເຊກອງ
ແຂວງເມ
ແຂວງເລ
ແຂວງໃນລາວ
ແຂວງໄຊຍະບ
ແຂວງໄຊສ
ແຂວງໜອງຄາຍ
ແຂວງໜອງບ
ແຄ
ແຄທຣ
ແຄນ
ແຄມ
ແຄມນ
ແຄມຝ
ແຄມແມ
ແຄຣ
ແຄລ
ແຄວ
ແງ
ແຈ
ແຈກ
ແຈກຈ
ແຈກຢາຍ
ແຈກວ
ແຊ
ແຊກ
ແຊງ
ແຊນ
ແຊມ
ແຊມປ
ແຊລແອມບາດຊາເດ
ແຍ
ແຍກ
ແຍກກ
ແຍກຕ
ແຍກບ
ແຍກພະຮາມທ
ແຍງ
ແດ
ແດງ
ແດງດາ
ແດງຢ
ແດງສ
ແດດ
ແດນ
ແດນດ
ແດນນ
ແດນເຊ
ແດນແກວ
ແດແຕນ
ແຕ
ແຕກ
ແຕກກ
ແຕກຕ
ແຕກລາເນ
ແຕນ
ແຖນ
ແຖນລ
ແຖນຫ
ແຖບ
ແຖບທ
ແຖບສ
ແຖມຍ
ແຖວ
ແທ
ແທດເໝາະກ
ແທນ
ແທນດ
ແທນທ
ແທນປະທານອ
ແທນຝ
ແທນພຣະສ
ແທນພຣະອາຈາຣຍ
ແທນລາຊະດອນ
ແທນລາສດອນ
ແທນອ
ແທນໃນທ
ແນ
ແນກ
ແນນ
ແນມ
ແນມເຫ
ແນວ
ແນວກ
ແນວຄ
ແນວຄວາມຄ
ແນວຕ
ແນວທາງ
ແນວນ
ແນວພ
ແນວລາວສ
ແນວລາວຮ
ແນວວ
ແນວຮ
ແນວໂນ
ແນວໃດ
ແນວໃດກ
ແນະ
ແນະນ
ແນະນຳ
ແນະນຳໃຫ
ແນໃສ
ແບ
ແບນຊ
ແບບ
ແບບການປະກວດຄວາມງາມຊາຍ
ແບບການປະກວດຊາຍງາມ
ແບບການປະກວດນາງງາມ
ແບບການປະກວດນາງແບບ
ແບບການປະກວດນາຍແບບ
ແບບການປະກວດແອນຈ
ແບບຂ
ແບບຄ
ແບບງ
ແບບຈຳລອງ
ແບບດ
ແບບທ
ແບບທຳອ
ແບບນ
ແບບບ
ແບບຜ
ແບບພ
ແບບພາສາ
ແບບລ
ແບບວ
ແບບສ
ແບບສານໂຄງ
ແບບຫ
ແບບອ
ແບຣ
ແບຣນ
ແບລ
ແປ
ແປກ
ແປງ
ແປດ
ແປວ
ແປຮ
ແປເປ
ແຜ
ແຜນ
ແຜນການ
ແຜນການທ
ແຜນທ
ແຜນຜ
ແຜນພ
ແພ
ແພງ
ແພດ
ແພນ
ແພນດ
ແພຣ
ແຟ
ແຟຊ
ແຟຣ
ແມ
ແມງ
ແມງໄມ
ແມຊ
ແມນ
ແມນມ
ແມນອ
ແມນຮ
ແມນເຊສເຕ
ແມລ
ແມວ
ແມວດາວ
ແລ
ແລກ
ແລກປ
ແລງ
ແລທ
ແລນ
ແລນກ
ແລນດ
ແລນສ
ແລປ
ແລມເບ
ແລລ
ແລລະບ
ແລຮ
ແລະ
ແລະກ
ແລະກວ
ແລະກອງທ
ແລະກາຍເປ
ແລະການ
ແລະການກ
ແລະການຂ
ແລະການຄ
ແລະການຕ
ແລະການທ
ແລະການບ
ແລະການປ
ແລະການປະຕ
ແລະການພ
ແລະການລະງ
ແລະການສ
ແລະການຮ
ແລະການເຜຍແຜ
ແລະຂ
ແລະຂະຫນາດ
ແລະຄ
ແລະຄວ
ແລະຄວາມຕ
ແລະຄວາມຮ
ແລະຄອງບ
ແລະຄອບຄ
ແລະຄະນະປະຈຳ
ແລະຄະນະຜ
ແລະຄຳວ
ແລະຈ
ແລະຈະຕ
ແລະຈະມ
ແລະຈະໄດ
ແລະຈາກຜ
ແລະຊ
ແລະຊອຍອ
ແລະຍ
ແລະດ
ແລະດຳເນ
ແລະຕ
ແລະຕາເວ
ແລະຕຳບ
ແລະຖ
ແລະຖະໜ
ແລະທ
ແລະທະວ
ແລະທາງຕາເວ
ແລະທາງທ
ແລະທາງລ
ແລະທາງໃຕ
ແລະນ
ແລະນອກຈາກນ
ແລະນາຍ
ແລະບ
ແລະບາງສ
ແລະປ
ແລະປະຊາຊ
ແລະປະຕ
ແລະປະທານຝ
ແລະປະມານ
ແລະປະສ
ແລະປະເທດອ
ແລະຜ
ແລະຝ
ແລະຝະລ
ແລະພ
ແລະພຣະພ
ແລະພຣະອາຈານໃຫຍ
ແລະພະນ
ແລະພະອ
ແລະພາກຕາເວ
ແລະພາຍຫ
ແລະຟ
ແລະມ
ແລະມະນ
ແລະມະຫາວ
ແລະຢ
ແລະຣ
ແລະລ
ແລະລະດ
ແລະລາວໄດ
ແລະວ
ແລະວຽດນາມ
ແລະວຽດມ
ແລະສ
ແລະສະຖານ
ແລະສະມາຊ
ແລະສະຫ
ແລະສະຫະລ
ແລະຫ
ແລະຫລ
ແລະຫວຽດນາມ
ແລະອ
ແລະອອກຕ
ແລະອະດ
ແລະອະນ
ແລະອາຊ
ແລະອາດຖ
ແລະອານາຈ
ແລະອຳເພ
ແລະອຽກລ
ແລະຮ
ແລະຮອງ
ແລະຮຽກຮ
ແລະເກ
ແລະເຂ
ແລະເຂດອ
ແລະເຄ
ແລະເງ
ແລະເຈ
ແລະເຊ
ແລະເດ
ແລະເຕ
ແລະເນ
ແລະເບ
ແລະເປ
ແລະເຜ
ແລະເຜຍແພ
ແລະເພ
ແລະເມ
ແລະເລ
ແລະເວ
ແລະເສ
ແລະເສຍຊ
ແລະເຫ
ແລະເອ
ແລະເຮ
ແລະແຕ
ແລະແບ
ແລະແຜ
ແລະແມ
ແລະແຫ
ແລະໂປດໃຫ
ແລະໃຊ
ແລະໃນ
ແລະໃນຊ
ແລະໃນຕອນ
ແລະໃນທ
ແລະໃນປ
ແລະໃນວ
ແລະໃນຮອບນ
ແລະໃຫ
ແລະໄດ
ແລະໄປສ
ແລະໜ
ແລະໝ
ແລເດ
ແວ
ແວງ
ແວດ
ແວດລ
ແວນ
ແວນກ
ແວນເຊລ
ແວຣ
ແວວ
ແສ
ແສກ
ແສງ
ແສງຈ
ແສງສ
ແສງສະຫວ
ແສງແດດຕ
ແສນ
ແສນຄ
ແສນສ
ແສບຄ
ແຫ
ແຫນ
ແຫລ
ແອ
ແອກ
ແອດ
ແອດສະປາຍ
ແອດເທ
ແອນ
ແອນຕ
ແອນມ
ແອນາ
ແອນເດ
ແອບແຟນ
ແອຟ
ແອຣ
ແອລ
ແອລຈ
ແອລປ
ແອລາຍ
ແອວ
ແອສະປາຍ
ແຮ
ແຮກເຊໂກວ
ແຮງ
ແຮງງານ
ແຮງຈ
ແຮງດ
ແຮງບ
ແຮດ
ແຮບປ
ແຮມ
ແຮຣ
ແໜ
ແໜງ
ແໝ
ໂກ
ໂກຊ
ໂກດ
ໂກນເດ
ໂກມ
ໂກຣ
ໂກຣແອນລ
ໂກລ
ໂກລດ
ໂກລໂບ
ໂກລໄດ
ໂກສ
ໂກສະຕາຣ
ໂກສະລາເວຍ
ໂກະ
ໂຂ
ໂຂງ
ໂຂໄທ
ໂຂໄທທຳມະລາຊາ
ໂຂໄທທຳມາທ
ໂຂໄທມ
ໂຂໄທຫ
ໂຄ
ໂຄກ
ໂຄກຄ
ໂຄງ
ໂຄງການ
ໂຄງການກ
ໂຄງການດ
ໂຄງການຕ
ໂຄງການນ
ໂຄງການພ
ໂຄງການວ
ໂຄງການສ
ໂຄງຂ
ໂຄງປະກອບເສດຖະກ
ໂຄງລ
ໂຄງສ
ໂຄດ
ໂຄດຈ
ໂຄດຕະບ
ໂຄດຕະບອງ
ໂຄຕະບ
ໂຄນ
ໂຄມໄຟ
ໂຄລ
ໂຄລຽນແອຣ
ໂຄສະນາ
ໂຄອ
ໂຄໂລຣາໂດ
ໂງ
ໂຈ
ໂຈນຫ
ໂຈມ
ໂຈມຕ
ໂຈອາຄ
ໂຊ
ໂຊກ
ໂຊກດ
ໂຊກາດ
ໂຊຊ
ໂຊດ
ໂຊນ
ໂຊວ
ໂຊວຽດ
ໂຊເລ
ໂຊໂຊອ
ໂຍ
ໂຍນ
ໂຍບາຍ
ໂຍມ
ໂດ
ໂດຍ
ໂດຍກ
ໂດຍການ
ໂດຍການຊ
ໂດຍການຕາງຫນ
ໂດຍການລ
ໂດຍການສ
ໂດຍການສະແດງໂຊຕະຫ
ໂດຍການເຂ
ໂດຍການໃຫ
ໂດຍກາລອ
ໂດຍຂ
ໂດຍຄ
ໂດຍຄອບຄ
ໂດຍຄຳວ
ໂດຍຈ
ໂດຍຈະມ
ໂດຍຊ
ໂດຍຍ
ໂດຍດ
ໂດຍຕ
ໂດຍຖ
ໂດຍທ
ໂດຍທຳມະຊາດ
ໂດຍນ
ໂດຍນຳຫລ
ໂດຍນຳໃຊ
ໂດຍບ
ໂດຍປ
ໂດຍປະຕ
ໂດຍປາສາມາດເຂ
ໂດຍຜ
ໂດຍຝ
ໂດຍພ
ໂດຍມ
ໂດຍຢ
ໂດຍລ
ໂດຍລວມ
ໂດຍລວມແລ
ໂດຍວ
ໂດຍສ
ໂດຍສະ
ໂດຍສະເດ
ໂດຍສະເພາະ
ໂດຍສະເພາະດ
ໂດຍສະເພາະບ
ໂດຍສະເພາະຢ
ໂດຍສະເພາະແມ
ໂດຍສະເພາະໃນຊ
ໂດຍສະເລ
ໂດຍສານ
ໂດຍສານໄດ
ໂດຍຫ
ໂດຍອ
ໂດຍຮ
ໂດຍເກ
ໂດຍເຂ
ໂດຍເຈ
ໂດຍເຊ
ໂດຍເດ
ໂດຍເທ
ໂດຍເນ
ໂດຍເປ
ໂດຍເມ
ໂດຍເລ
ໂດຍເອ
ໂດຍເຮ
ໂດຍແບ
ໂດຍແຜ
ໂດຍແມ
ໂດຍໃຊ
ໂດຍໃນຍ
ໂດຍໃນແຕ
ໂດຍໃສ
ໂດຍໃຫ
ໂດຍໄດ
ໂດດ
ໂດດດ
ໂດດເດ
ໂດນ
ໂດນຍາພ
ໂດນຕ
ໂດນລະເບ
ໂດນສະໂສຣ
ໂດມ
ໂດລາ
ໂດລາສະຫະລ
ໂດລາເອມອນ
ໂດເນຍ
ໂດເມນ
ໂຕ
ໂຕກຽວ
ໂຕຕ
ໂຕທ
ໂຕນ
ໂຕປ
ໂຕປະສານ
ໂຕຜ
ໂຕມ
ໂຕຢ
ໂຕລະຄອນ
ໂຕລະຄອນໃນລະເບ
ໂຕສ
ໂຕສະກ
ໂຕອ
ໂຕຮ
ໂຕະ
ໂຕເມ
ໂຕເລກ
ໂຕໂກ
ໂຕໜ
ໂທ
ໂທດ
ໂທດທ
ໂທນ
ໂທມ
ໂທລຄ
ໂທລະ
ໂທລະຄ
ໂທລະຄະມະນາຄ
ໂທລະທ
ໂທລະພາບ
ໂທລະພາບລາວສຕາຣ
ໂທລະພາບສ
ໂທລະພາບແຫ
ໂທລະພາບໃນປະເທດໄທ
ໂທລະພາບໄທທ
ໂທລະສ
ໂທລະໂຄ
ໂທສະ
ໂທຫາ
ໂນ
ໂນນ
ໂນນພ
ໂນນສ
ໂນບ
ໂນມ
ໂນະ
ໂບ
ໂບດ
ໂບລ
ໂບລາ
ໂບລາມ
ໂບວເກ
ໂບສ
ໂບສຖ
ໂປ
ໂປດ
ໂປດຯ
ໂປດເກ
ໂປດໃຫ
ໂປຕ
ໂປຕະລ
ໂປຣແກຣມ
ໂປຣແກຣມທ
ໂປຣໂຕໂຄລ
ໂປລ
ໂປສ
ໂປແລນ
ໂປໂລຍ
ໂຜນ
ໂພກ
ໂພກສ
ໂພກເຂ
ໂພທ
ໂພນ
ໂພນທອງ
ໂພນສ
ໂພນສະຫວ
ໂພສ
ໂພສຕ
ໂຟ
ໂມ
ໂມງ
ໂມງເຊ
ໂມງແລງ
ໂມຣ
ໂມຫະ
ໂມອານາ
ໂມເດລ
ໂມເດລຄວາມດ
ໂມເດລອ
ໂມເດວ
ໂມເດວອ
ໂມເລກ
ໂຢຮ
ໂຣ
ໂຣຊ
ໂຣດ
ໂຣບ
ໂຣມ
ໂຣໃຫ
ໂລ
ໂລກ
ໂລກກ
ໂລກຄ
ໂລກຕ
ໂລກທ
ໂລກນ
ໂລກປະຊານາດ
ໂລກຣາມ
ໂລກສ
ໂລກະຈ
ໂລກະບານທ
ໂລກະລາດ
ໂລກໄດ
ໂລງສ
ໂລຈ
ໂລດ
ໂລຕາແມ
ໂລບ
ໂລພະ
ໂລມ
ໂລມາ
ໂລວ
ໂລະ
ໂລເມ
ໂລແມ
ໂລໂກ
ໂລໂລ
ໂວຣ
ໂວຫານ
ໂສ
ໂສກ
ໂສກປ
ໂສພ
ໂສພາ
ໂສມ
ໂຫ
ໂຫງ
ໂຫຍ
ໂຫດຮ
ໂຫຕ
ໂຫລາສາດ
ໂອ
ໂອກ
ໂອກາດ
ໂອກາດທ
ໂອກາດສ
ໂອກາດເຂ
ໂອກາດເດ
ໂອກາດໄດ
ໂອຈ
ໂອຍ
ໂອດ
ໂອຕຣ
ໂອຕະລ
ໂອຕາສ
ໂອທ
ໂອນ
ໂອບ
ໂອບາມາ
ໂອປ
ໂອພ
ໂອຣ
ໂອລ
ໂອສ
ໂອະ
ໂອເກມ
ໂອເຊອານ
ໂອເບຍ
ໂອໄດ
ໂຮ
ໂຮງ
ໂຮງງານ
ໂຮງງານປ
ໂຮງງານຜະລ
ໂຮງພະຍາບານເມ
ໂຮງພະລ
ໂຮງລະຄອນແຫ
ໂຮງສ
ໂຮງຮຽນ
ໂຮງຮຽນກ
ໂຮງຮຽນຄ
ໂຮງຮຽນຈ
ໂຮງຮຽນຊ
ໂຮງຮຽນຍາງຫ
ໂຮງຮຽນທ
ໂຮງຮຽນນ
ໂຮງຮຽນບ
ໂຮງຮຽນປ
ໂຮງຮຽນປະຖ
ໂຮງຮຽນພ
ໂຮງຮຽນມ
ໂຮງຮຽນມາແຕຣ
ໂຮງຮຽນລ
ໂຮງຮຽນລາຊ
ໂຮງຮຽນວ
ໂຮງຮຽນວາຮ
ໂຮງຮຽນສ
ໂຮງຮຽນສວນກ
ໂຮງຮຽນສະຕ
ໂຮງຮຽນສາທ
ໂຮງຮຽນອ
ໂຮງຮຽນອະນ
ໂຮງຮຽນອາຊ
ໂຮງຮຽນເຊ
ໂຮງຮຽນເຕ
ໂຮງຮຽນເທບສ
ໂຮງຮຽນໃນຈ
ໂຮງຮຽນໃນບ
ໂຮງຮຽນໃນບາງກອກ
ໂຮງຮຽນໄດ
ໂຮງຮຽນໜອງບ
ໂຮງແຮມ
ໂຮງໝ
ໂຮຈ
ໂຮນລ
ໂຮມ
ໂຮມກ
ໂຮມຊ
ໂຮມທ
ໂຮເຊ
ໂໜ
ໃ
ໃກ
ໃຄກ
ໃຄຈ
ໃຄເປ
ໃຈ
ໃຈກ
ໃຈກາງ
ໃຈກາງເມ
ໃຈຂອງຜ
ໃຈຊ
ໃຈດ
ໃຈທ
ໃຈບ
ໃຈຜ
ໃຈຢ
ໃຈວ
ໃຈສ
ໃຈອ
ໃຈຮ
ໃຈເກ
ໃຈເປ
ໃຈໃຫ
ໃຈໄດ
ໃຊ
ໃດ
ໃດທ
ໃດຜ
ໃດມ
ໃດໆ
ໃດໜ
ໃຕ
ໃນ
ໃນກ
ໃນກອງທ
ໃນກອງປະຊ
ໃນກາງປ
ໃນການ
ໃນການກ
ໃນການຂ
ໃນການຄ
ໃນການຈ
ໃນການຊ
ໃນການດ
ໃນການຕ
ໃນການທ
ໃນການນ
ໃນການນຳເອ
ໃນການບ
ໃນການປ
ໃນການປະຊ
ໃນການປະຕ
ໃນການຜະລ
ໃນການພ
ໃນການລ
ໃນການວ
ໃນການສ
ໃນການຫ
ໃນການຮ
ໃນການເກ
ໃນການເຄ
ໃນການເຊ
ໃນການເດ
ໃນການເປ
ໃນການເລ
ໃນການເວ
ໃນການເຮ
ໃນການແຂ
ໃນການແຕ
ໃນການໃຊ
ໃນກຳມ
ໃນຂ
ໃນຂນະທ
ໃນຂະນະດຽວກ
ໃນຂະນະທ
ໃນຂະນະນ
ໃນຄ
ໃນຄວາມຊ
ໃນຄວາມຮ
ໃນຄວາມເປ
ໃນຄວາມໝາຍ
ໃນຄອບຄ
ໃນຄອມພ
ໃນຄະດ
ໃນຄຳທ
ໃນຄຳພ
ໃນງານ
ໃນຈ
ໃນຈຳນວນນ
ໃນຊ
ໃນຊອຍເຖ
ໃນຍ
ໃນຍາມ
ໃນດ
ໃນຕ
ໃນຕອນ
ໃນຕອນຕ
ໃນຕອນທ
ໃນຕອນນ
ໃນຕອນເຊ
ໃນຕອນເລ
ໃນຕະກ
ໃນຕະຫ
ໃນຕຳແໜ
ໃນຖ
ໃນຖານະທ
ໃນຖານະນ
ໃນຖານະເປ
ໃນທ
ໃນທະວ
ໃນທາງກ
ໃນທາງທ
ໃນທາງປະຕ
ໃນທາງພ
ໃນທາງພຣະພ
ໃນທາດນ
ໃນນ
ໃນນະຄອນຫ
ໃນນາມ
ໃນບ
ໃນບາງກ
ໃນບາງຄ
ໃນບາງພ
ໃນປ
ໃນປະຈ
ໃນປະຫວ
ໃນປະເທດ
ໃນປະເທດຈ
ໃນປະເທດທ
ໃນປະເທດລາວ
ໃນປະເທດສະຫະລ
ໃນປະເທດອ
ໃນປະເທດໄທ
ໃນປາຍປ
ໃນຜ
ໃນພ
ໃນພຣະພ
ໃນພະບ
ໃນພະບາດສ
ໃນພະລາຊະພ
ໃນພະອ
ໃນພາກຕາເວ
ໃນພາກພ
ໃນພາກເໜ
ໃນພາກໃຕ
ໃນພາຍຫ
ໃນພາສາ
ໃນພາສາພະມ
ໃນພາສາລາວ
ໃນພາສາລາແຕ
ໃນພາສາອ
ໃນພາສາເຢຍລະມ
ໃນຟ
ໃນມ
ໃນມະຕ
ໃນມະຫາວ
ໃນມະຫາສະໝ
ໃນຢ
ໃນຣ
ໃນຣະດ
ໃນລ
ໃນລະຍະນ
ໃນລະດ
ໃນລະບ
ໃນລະຫວ
ໃນລະເບ
ໃນລາຊະການທ
ໃນລາຊະວ
ໃນລາຊະສະໄໝພະບາດສ
ໃນລາຍການ
ໃນລາວ
ໃນວ
ໃນສ
ໃນສມ
ໃນສະ
ໃນສະກ
ໃນສະຕະວ
ໃນສະຖານທ
ໃນສະຖານະພາບທ
ໃນສະຖາປ
ໃນສະພາບທ
ໃນສະວ
ໃນສະຫະລ
ໃນສະໄຫມນ
ໃນສະໄໝ
ໃນສະໄໝກ
ໃນສະໄໝທ
ໃນສະໄໝນ
ໃນສະໄໝລ
ໃນສະໄໝສ
ໃນສະໝ
ໃນສາມຊ
ໃນສາມມ
ໃນຫ
ໃນຫນ
ໃນຫລວງພະບາງ
ໃນອ
ໃນອະດ
ໃນອະນາຄ
ໃນອາຊ
ໃນຮ
ໃນຮອບ
ໃນຮອບນ
ໃນເກ
ໃນເກມນ
ໃນເຂດ
ໃນເຂດທ
ໃນເຂດນ
ໃນເຂດບ
ໃນເຂດປ
ໃນເຂດອ
ໃນເຂດເມ
ໃນເຄ
ໃນເຈ
ໃນເດ
ໃນເທ
ໃນເນ
ໃນເບ
ໃນເພງ
ໃນເມ
ໃນເຢຍລະມ
ໃນເລ
ໃນເວ
ໃນເວທ
ໃນເວລາ
ໃນເວລາດຽວກ
ໃນເວລາຕ
ໃນເວລາທ
ໃນເວລານ
ໃນເວລາປ
ໃນເສ
ໃນເອ
ໃນເຮ
ໃນແຂວງ
ໃນແຂວງບ
ໃນແຂວງໜອງບ
ໃນແຄ
ໃນແຄວ
ໃນແງ
ໃນແຕ
ໃນແຜ
ໃນແຜນພ
ໃນແມ
ໃນແຫ
ໃນໂລກ
ໃນໂລກນ
ໃນໂອກາດນ
ໃນໂຮງຮຽນ
ໃນໃຈ
ໃນໃນຕ
ໃນໄທ
ໃນໄລຍະ
ໃນໄລຍະການສະໜ
ໃນໄລຍະຕ
ໃນໄລຍະທ
ໃນໄລຍະປ
ໃນໄລຍະຜ
ໃນໄລຍະສ
ໃນໄລຍະຫ
ໃນໜ
ໃນໝ
ໃນໝວດນ
ໃບ
ໃບສ
ໃບອະນ
ໃບເຂ
ໃບເງ
ໃບໄມ
ໃບໜ
ໃຜ
ໃຜກ
ໃຜມາທຳລາຍໄດ
ໃຜສ
ໃຜຮ
ໃຝ
ໃສ
ໃສທ
ໃຫ
ໃຫຍ
ໃຫມ
ໃໝ
ໄ
ໄກ
ໄກຈາກສຳນ
ໄກພ
ໄກສອນ
ໄຂ
ໄຂກ
ໄຂຂ
ໄຂຄຳພ
ໄຂບ
ໄຂປ
ໄຂມ
ໄຂເພ
ໄຄ
ໄຄທ
ໄຈ
ໄຊ
ໄຊຊະນະ
ໄຊຊະນະຢ
ໄຊຊະນະວ
ໄຊຍະບ
ໄຊຍະພ
ໄຊຍະວ
ໄຊຍະສ
ໄຊຍະສອນ
ໄຊບ
ໄຊບະດ
ໄຊປ
ໄຊພ
ໄຊສ
ໄຊສະໝ
ໄຊອ
ໄຊເນ
ໄຊເສດຖາ
ໄດ
ໄດມ
ໄດມອນ
ໄດເກ
ໄດໂນເສ
ໄດໂອດ
ໄຕ
ໄຕມ
ໄຕລ
ໄຕຮ
ໄຕແຫ
ໄຖ
ໄທ
ໄທຂ
ໄທຂາວ
ໄທຊ
ໄທຍ
ໄທຍວນ
ໄທຍອງ
ໄທດຳ
ໄທທ
ໄທທານ
ໄທນ
ໄທພວນ
ໄທລ
ໄທລາວ
ໄທວ
ໄທສະຫຍາມ
ໄທຫຍ
ໄທອ
ໄທຮ
ໄທເປ
ໄທເໜ
ໄທແດງ
ໄທແສກ
ໄທໃຫຍ
ໄທໜ
ໄນ
ໄນກຳ
ໄນເຕ
ໄບ
ໄບຈານ
ໄບເບ
ໄປ
ໄປກ
ໄປຂ
ໄປງານສ
ໄປຈ
ໄປຊ
ໄປຍ
ໄປດ
ໄປຕ
ໄປຕາມເສ
ໄປທ
ໄປທາງຕາເວ
ໄປທາງທ
ໄປນ
ໄປບ
ໄປປະຈຳຢ
ໄປປະມານ
ໄປພ
ໄປມາຫາສ
ໄປຢ
ໄປລະພ
ໄປວ
ໄປສ
ໄປສະນ
ໄປຫ
ໄປຫາ
ໄປອ
ໄປຮ
ໄປຮຽນຕ
ໄປເກ
ໄປເຊ
ໄປເຖ
ໄປເປ
ໄປເມ
ໄປເລ
ໄປເຮ
ໄປແລ
ໄປໃຊ
ໄປໃຫ
ໄປໄດ
ໄປໜ
ໄຜ
ໄຝ
ໄພ
ໄພການເມ
ໄພພ
ໄພຣ
ໄພລ
ໄພວ
ໄຟ
ໄຟບ
ໄຟຟ
ໄຟລ
ໄຟສ
ໄມ
ໄມຄ
ໄມຕ
ໄມຕຣ
ໄມລ
ໄມເຄ
ໄມໂຄ
ໄມໂຄຣຊອບ
ໄຣ
ໄຣຊ
ໄລ
ໄລຍະ
ໄລຍະກ
ໄລຍະດ
ໄລຍະທ
ໄລຍະທາງ
ໄລຍະທາງຈາກເມ
ໄລຍະທາງທ
ໄລຍະທາງປະມານ
ໄລຍະທາງແຕ
ໄລຍະທາງໄປເຖ
ໄລຍະສ
ໄລຍະສຳປະທານ
ໄລຍະຫ
ໄລຍະເວລາຕ
ໄລຍະເວລາທ
ໄລຍະແຕປ
ໄລພອນ
ໄລລ
ໄລວ
ໄວ
ໄວຂ
ໄວຍາກອນ
ໄວທ
ໄວພ
ໄວຣ
ໄວລ
ໄສ
ໄສຄ
ໄສທ
ໄຫ
ໄຫມ
ໄຫລ
ໄຫລຜ
ໄຫລລ
ໄຫວ
ໄອ
ໄອຊ
ໄອພ
ໄອຢ
ໄອແລນ
ໄອໂຟນ
ໄຮ
ໄຮຕ
ໄຮລ
ໄໝ
ໆ
ໆກ
ໆນ
ໆມາ
ໆລໆ
ໆໄດ
່
້
໊
໋
໌
ໍ
໐
໐໐
໐໐໐
໐໑
໐໒
໐໓
໐໔
໐໕
໐໖
໐໗
໐໘
໐໙
໑
໑໐
໑໐໐
໑໑
໑໒
໑໓
໑໔
໑໕
໑໖
໑໗
໑໘
໑໙
໑໙໒໕
໑໙໓໒
໑໙໕໔
໑໙໕໕
໑໙໗໐
໑໙໗໕
໒
໒໐
໒໐໐໗
໒໐໐໘
໒໐໐໙
໒໐໑໕
໒໐໑໖
໒໐໑໗
໒໐໑໘
໒໐໑໙
໒໐໒໐
໒໐໒໑
໒໐໒໒
໒໑
໒໒
໒໓
໒໔
໒໕
໒໖
໒໗
໒໘
໒໙
໓
໓໐
໓໑
໓໒
໓໓
໓໕
໓໗
໓໙
໔
໔໐
໔໐໐
໔໒
໔໗
໔໘
໔໙໗
໕
໕໐
໕໔
໕໕
໕໖
໕໗
໖
໖໐໐
໗
໗໔໕
໘
໙
ໜ
ໜອງ
ໜອງຄາຍ
ໜອງນ
ໜອງບ
ໜອງມ
ໜາ
ໜາດ
ໜາມ
ໜາວ
ໝ
ໝວດ
ໝວດການຊ
ໝວດຊ
ໝວດທ
ໝວດນ
ໝວດໝ
ໝາ
ໝາກ
ໝາກກ
ໝາກຂ
ໝາກຖ
ໝາກນ
ໝາກນາວ
ໝາກປ
ໝາກຜ
ໝາກພ
ໝາກມ
ໝາກຫ
ໝາກອ
ໝາກເບ
ໝາກເຜ
ໝາກເລ
ໝາກໂປມ
ໝາກໄມ
ໝາຍ
ໝາຍຄວາມວ
ໝາຍຄວາມເຖ
ໝາຍວ
ໝາຍເຖ
ໝາຍເລກ
ໝາຍເຫດ
ໝາປ
ໝາລ
ໝາໄນ
ໝາໄມ
ད
ར
ུ
ོ
က
ဂ
တ
န
ဘ
မ
ရ
ဝ
သ
ဟ
ါ
ာ
ိ
ီ
ု
ေ
ံ
း
္
်
ြ
ွ
ှ
ი
태양
ក
ខ
ង
ច
ជ
ញ
ដ
ត
ទ
ន
ប
ផ
ព
ភ
ម
យ
រ
ស
ហ
ឥ
ឱ
ា
ិ
ឺ
ុ
ូ
ួ
េ
ែ
ៃ
ោ
ៅ
ំ
ះ
ៈ
៉
់
៌
័
្
ᨠ
ᨡ
ᨢ
ᨣ
ᨤ
ᨦ
ᨧ
ᨨ
ᨩ
ᨪ
ᨫ
ᨬ
ᨭ
ᨮ
ᨯ
ᨰ
ᨱ
ᨲ
ᨳ
ᨴ
ᨵ
ᨶ
ᨷ
ᨸ
ᨹ
ᨺ
ᨻ
ᨼ
ᨽ
ᨾ
ᨿ
ᩀ
ᩁ
ᩂ
ᩃ
ᩄ
ᩅ
ᩆ
ᩇ
ᩈ
ᩉ
ᩊ
ᩋ
ᩌ
ᩓ
ᩔ
ᩖ
᩠
​
‌
‍
‎
‏
‐
‑
–
—
‘
’
‚
“
”
„
†
‡
•
…
‪
‬
‰
′
″
‹
›
※
⁄
€
₭
₺
℔
№
™
←
↑
→
↓
↔
↵
↷
⇐
⇑
⇒
⇓
⇔
∀
∂
∃
∇
∈
∏
∑
−
√
∝
∞
∧
∨
∩
∪
∫
≡
≤
≥
⊂
⊃
⊆
⊇
⋯
③
④
⑦
△
►
●
★
☾
☿
♀
♂
♃
♄
♅
♆
♡
⛢
✍
⟨
⟩
⺀
⺄
⺆
⺈
⺊
⺌
⺕
⺝
⺸
⺼
⿰
⿱
⿲
⿳
⿴
⿵
⿶
⿷
⿸
⿹
⿺
⿻
、
。
「
」
『
』
〔
〕
〜
〢
あ
い
う
え
か
き
く
け
し
す
せ
た
っ
つ
て
と
な
に
ね
の
ひ
ふ
ほ
み
も
よ
ら
り
る
ろ
わ
ん
゙
゚
ア
イ
オ
カ
キ
ク
コ
サ
シ
ス
タ
チ
ッ
テ
ト
ナ
ニ
ネ
ヒ
フ
ヘ
ホ
ミ
ム
メ
ャ
ュ
ユ
ラ
リ
ル
ロ
ワ
ヲ
ン
・
ー
㇁
㇂
㇄
㇇
㇈
㇉
㇓
㐁
㐄
㐅
㐌
㐫
㐬
㐭
㐮
㐱
㑒
㒵
㒸
㒼
㓁
㓞
㔾
㕛
㕣
㖾
㘝
㚅
㚇
㚔
㚘
㝉
㝡
㝴
㝵
㞋
㞢
㞷
㠩
㠭
㠯
㡀
㡭
㡿
㢲
㢴
㣇
㣺
㥯
㪅
㫄
㫐
㫒
㫺
㬅
㬎
㬥
㬰
㲋
㳄
㷠
㸒
㸚
㸦
㼌
㼲
㽞
㿟
䀠
䂞
䍃
䏍
䒑
䖍
䖒
䖝
䖵
䙴
䚻
䜌
䝿
䡛
䧹
䪞
一
丁
丂
七
丄
丅
丆
万
丈
三
上
下
丌
不
与
丏
丐
丑
专
且
丕
世
丘
丙
业
东
丞
丢
丣
两
严
並
丨
丩
个
丫
丬
中
丮
丰
丱
串
丵
丶
丷
丸
丹
为
主
丽
丿
乀
乂
乃
久
乆
乇
么
义
之
乌
乍
乎
乏
乐
乑
乔
乖
乗
乘
乙
乚
乛
乜
九
乞
也
习
乡
乳
乾
亀
亅
了
亇
予
争
事
二
亍
于
亏
亐
云
互
亓
五
井
亘
亚
亜
亞
亟
亠
亡
亢
交
亥
亦
产
亨
亩
享
京
亭
亮
亯
亰
亲
亳
亶
亷
人
亻
亼
亾
仁
仂
今
介
仌
从
仐
仑
仒
仓
仕
他
付
仙
仝
代
令
以
任
企
伊
伏
伐
休
会
传
伯
但
位
低
住
何
佘
余
作
你
佥
使
來
侈
侌
侖
侯
侵
便
保
俞
信
修
倉
倍
候
倠
偵
傅
備
傣
傳
僉
僕
儿
兀
允
兂
元
兄
充
兆
兇
先
光
兊
克
兌
免
兎
兑
兒
兓
兔
党
兜
兟
入
全
兩
兪
八
公
六
兮
兰
共
关
兵
其
具
典
兹
兼
冀
冂
冃
冄
内
円
冈
冉
冊
冋
册
再
冎
冏
冐
冒
冓
冖
冗
冘
军
农
冝
冡
冥
冨
冫
冬
冷
凈
几
凡
凢
凵
凶
凷
凸
凹
出
函
凾
刀
刁
刂
刃
刄
刅
分
切
刍
刑
刕
刖
列
刘
则
初
別
利
别
到
制
刺
則
削
剌
前
剡
剽
劉
力
功
加
务
劦
动
助
劫
劳
劵
勃
勇
勉
勒
動
務
勞
勤
勹
勺
勻
勾
勿
匀
匂
包
匆
匈
匊
匋
匍
匕
化
北
匚
匝
匡
匪
匱
匸
匹
区
医
匽
匿
區
十
卂
千
卄
卅
卆
升
午
卉
半
卌
华
卑
卒
卓
協
单
卖
南
卜
卝
卞
占
卡
卢
卣
卤
卦
卩
卪
卬
卯
印
危
即
却
卵
卷
卸
卻
厂
厃
厄
历
厈
厉
厌
厓
厘
厚
原
厤
厥
厨
厭
厲
厶
厷
厸
去
厼
厽
叀
参
參
叅
又
叉
及
友
双
反
叐
发
叒
叔
叕
取
受
变
叚
叜
叟
口
古
句
另
叩
只
召
可
台
叱
史
右
叵
号
司
叹
吂
各
吅
合
吉
吊
吋
同
名
后
吏
向
吕
吗
君
吝
吞
否
含
启
吳
吴
吹
吾
呂
呆
呈
告
员
呙
周
命
咅
和
咎
咠
咢
咨
咸
咼
哀
品
哉
員
哥
哲
唐
商
啇
問
啚
啬
啻
喃
善
喜
喬
單
営
喿
嗇
嗎
嘉
嘴
噂
噩
嚴
囊
囗
囘
囙
囚
四
回
囟
因
囧
囬
困
囱
囷
固
国
圂
圅
圈
國
圍
園
圓
土
圡
圣
圥
在
圭
地
圶
圼
坂
坐
坒
坚
坝
坴
坵
垂
垔
垚
埀
埋
城
埶
執
基
堂
堅
堆
堇
堯
報
塚
塞
墨
壘
壢
壩
士
壬
壮
壯
声
壳
壴
壹
壺
壽
夂
处
夅
夆
备
夊
夋
夌
复
夏
夒
夕
外
夗
夘
多
夜
夢
大
夨
天
太
夫
夬
夭
央
失
夲
头
夷
夸
夹
夻
夾
奂
奄
奇
奈
奉
奎
奏
奐
契
奓
奔
奚
奞
奠
奢
奥
奭
女
奴
奻
好
如
妄
妈
妙
妟
妥
妻
妾
始
姑
委
姜
威
娄
婁
婴
媽
嬰
嬴
子
孑
孔
孕
孖
字
存
孚
孛
孝
孟
季
孤
学
孫
孱
學
宀
宁
宂
它
宅
宇
守
安
宋
完
宏
宓
宗
官
定
宛
宜
宝
実
客
宣
室
宮
宰
害
家
容
宾
宿
寄
寅
密
富
寒
察
寧
審
寫
寬
寮
寸
对
寺
寻
寽
対
寿
封
尃
射
将
將
專
尉
尊
尋
尌
對
小
少
尒
尓
尔
尖
尗
尚
尞
尢
尣
尤
尧
尨
尭
就
尸
尹
尺
尻
尼
尽
尾
尿
局
居
屈
屋
屎
屏
屑
展
屖
屚
属
屠
屡
屬
屮
屯
屰
山
屵
屾
岁
岂
岑
岡
岩
岳
岸
峡
峯
島
峽
崇
崎
崑
崔
崖
崙
崩
嵬
嶲
嶼
巂
巛
川
州
巟
巠
巢
巤
工
左
巧
巨
巩
巫
差
己
已
巳
巴
巷
巸
巽
巾
巿
帀
市
布
希
帚
帛
帝
带
師
席
帶
常
干
平
年
幵
并
幷
幸
幺
幻
幼
幽
幾
广
広
庄
床
底
店
庚
府
度
庫
庭
庶
康
庸
廉
廌
廛
廣
廩
廴
延
廷
建
廾
廿
开
弁
弃
弄
弇
弋
式
弓
弔
引
弗
弘
弜
弟
弥
弦
弱
張
強
强
彊
彌
彎
彐
彑
归
当
彔
录
彖
彗
彡
形
彥
彦
彧
彭
彰
彳
役
彼
往
待
律
後
徒
得
徙
從
復
微
徳
徵
心
忄
必
忌
忍
志
忝
忠
忩
快
念
忽
忿
思
怠
急
性
怱
总
恆
恒
恩
恭
息
悉
悟
患
悤
悲
悶
情
惠
惡
惢
惨
愁
愈
意
愛
感
慈
慧
慮
憂
憲
應
戀
戈
戉
戊
戋
戌
戍
戎
成
我
戒
戔
或
戚
戠
戢
截
戰
戲
戶
户
戹
戼
戾
房
所
扁
扇
手
扌
才
打
托
执
承
投
折
报
拉
拜
拼
拿
掌
探
推
提
摩
撒
支
攴
攵
收
攸
改
放
政
敄
故
敏
敕
敖
敗
教
敝
敞
敢
散
敦
敫
敬
数
敷
數
斂
文
斉
斊
斗
斤
斥
斩
斬
斯
新
方
於
施
斿
旁
旋
族
旗
无
旡
既
旣
日
旦
旧
旨
早
旬
旱
旲
时
旾
昆
昇
昌
昍
明
昏
易
昔
昗
昜
星
春
昬
昭
是
昱
昴
昷
時
晃
晋
晏
普
景
晶
智
暑
暴
暹
曇
曩
曰
曲
曳
更
曷
書
曹
曼
曾
替
最
朁
會
月
有
朋
服
朔
朕
朗
望
朝
木
朩
未
末
本
札
朮
术
朱
朵
朶
朿
杀
杏
杜
束
条
来
東
杲
杳
松
板
析
林
枚
果
枝
枲
枼
某
柔
查
柬
柰
柴
査
栄
标
栗
校
株
根
桀
桃
案
桑
桼
梁
條
梟
梨
棘
棠
棥
森
楚
業
楽
榮
樂
樊
樓
模
橋
機
欠
次
欣
欮
欲
欶
欽
款
歆
歇
歌
歛
止
正
此
步
武
歨
歪
歮
歯
歰
歲
歴
歷
歸
歹
歺
死
殳
段
殷
殸
殹
殺
殻
殿
毋
毌
母
每
毒
比
毕
毚
毛
毳
氏
氐
民
气
氣
水
氵
氶
氷
永
氺
氾
求
汉
汝
汞
江
沃
沈
沒
沓
沙
沝
治
泉
法
波
泣
泥
注
泰
洛
洪
洲
活
派
流
济
浦
浪
浮
海
淡
淮
清
渚
渠
渦
温
港
湖
湯
源
滝
滸
滿
演
漢
漸
潮
澎
灣
火
灬
灭
灰
灵
灷
炅
炎
炏
炒
炗
炙
炭
為
烈
烏
烝
焉
無
焦
焱
然
煉
煞
熊
熏
燕
營
燮
爪
爫
爭
爯
爰
爱
爲
爵
父
爹
爻
爽
爾
爿
片
牙
牚
牛
牜
牟
牢
牧
牪
特
牽
犀
犬
犭
犮
狂
狄
狊
狗
独
狺
猋
猒
猪
献
獄
獻
玄
率
玉
王
玟
玨
珎
珠
班
理
琴
瑟
瑩
璃
瓜
瓦
甘
甚
甜
生
産
用
甫
甬
田
由
甲
申
电
甶
男
甸
甹
画
甾
畀
界
畏
畐
留
畜
畟
畢
畧
畨
番
畫
異
畱
當
畺
畾
疊
疋
疌
疑
疒
疾
癶
癸
癹
登
發
白
百
皀
皃
的
皆
皇
皋
皐
皕
皮
皷
皿
盃
盆
盇
盈
益
盍
盎
监
盒
盖
盛
盡
監
盤
盧
目
直
相
盾
省
眇
眉
看
県
眔
眞
真
眷
眼
眾
着
睘
睪
睿
瞏
瞢
瞿
矍
矛
矞
矢
矣
知
矦
短
石
破
碎
磊
磨
礎
示
礻
礼
社
祖
神
祟
票
祭
禀
禁
禅
禰
禸
禹
禺
离
禽
禾
禿
秀
秃
秉
秋
科
秝
秦
移
稟
穀
穌
穴
究
穹
空
穿
突
窄
窒
竈
立
竒
竜
竝
竟
章
童
竹
笑
笔
笠
符
第
筆
等
答
简
箕
算
管
箴
節
篤
篭
米
粉
粛
粟
粤
粦
粲
糞
糸
糹
系
約
紅
納
素
索
紫
累
細
組
絜
絫
絲
經
続
綠
維
綿
縣
繁
繇
纍
纟
经
统
缶
网
罒
罔
罕
罗
罙
罠
罡
罢
罪
署
罵
罷
羅
羊
羌
羍
美
羔
羕
羗
羞
羡
羣
群
義
羲
羸
羽
翁
翏
習
翕
翟
翠
翻
翼
老
耂
考
者
耆
而
耎
耑
耒
耳
耴
耶
耷
聂
聊
聖
聚
聶
聿
肀
肃
肅
肉
肖
肙
肥
肩
肯
育
肴
胃
背
胡
胥
能
脊
脩
膚
臣
臤
臧
自
臬
臭
臯
臱
至
致
臺
臼
臽
臾
臿
舀
舂
舄
與
興
舉
舌
舍
舛
舜
舞
舟
般
船
艮
良
色
艸
艹
艾
芒
芔
芬
芭
芮
花
芳
芺
芻
苔
苗
苟
若
苦
英
范
茶
茸
荅
草
荒
荣
荼
莆
莊
莧
莫
莽
菆
菊
菐
菩
華
菰
萬
落
葉
著
葛
董
葵
蒙
蒦
蒼
蓉
蓋
蓬
蓮
蓺
蔑
蔡
蔵
蕉
蕭
薄
薛
薦
薰
藍
藏
藤
藥
蘭
虍
虎
虐
虒
虔
處
虖
虗
虘
虚
虛
虜
虞
號
虫
虽
蚤
蚩
蛋
蛍
蜀
蜜
蝟
蝶
蟲
蠡
血
行
衍
衛
衣
衤
表
衮
衰
袁
袋
袞
褭
褱
襄
襾
西
覀
要
覃
見
規
覓
覧
親
覽
见
规
角
解
言
訁
訇
計
記
設
訳
話
詹
語
誩
諸
譯
讠
计
词
语
调
谷
豆
豈
豊
豐
豕
豖
豙
豚
象
豦
豩
豪
豬
豸
豹
貇
貝
貞
貟
負
貢
貧
貪
貫
責
貳
貴
買
費
賁
資
賈
賏
賓
賔
賛
賞
賢
賣
質
賴
贊
贝
贡
财
责
贯
贲
贵
赖
赞
赤
赦
走
超
越
足
路
蹇
身
躬
車
軍
軎
軒
軟
輦
车
辛
辜
辟
辥
辰
辱
農
辵
辶
边
辻
达
过
运
近
连
迷
追
退
送
逆
透
逐
通
速
造
逢
連
逮
進
逸
遀
遂
過
道
達
遣
適
遷
遺
邊
邑
邕
那
邦
邪
郎
部
郭
都
鄉
鄭
酉
酋
配
酓
釆
采
里
重
野
量
金
釒
鉄
銀
鋼
錆
錢
鎹
鏞
鐵
钅
锦
長
镸
长
門
閃
閉
開
閏
閑
閒
間
閔
閵
閻
闌
门
问
间
闷
阑
阜
阝
阮
阿
陈
降
院
陳
隆
隊
隋
際
隡
隨
隱
隶
隹
隺
隻
隼
隽
难
雀
雁
雄
集
雈
雋
雍
雐
雔
雙
雚
雜
雝
離
難
雨
雩
雪
雲
零
雷
需
霍
霜
霝
霞
露
霸
靈
靑
青
静
非
靡
面
靣
革
韋
韓
韦
韭
韯
韱
音
頁
頃
項
須
頗
頡
頻
題
顛
页
顺
题
風
风
飛
飞
食
飠
養
館
饣
首
香
馬
馮
駝
駦
马
驼
骂
骨
髄
高
髟
鬣
鬥
鬯
鬲
鬼
魚
魯
鮮
鱗
鱼
鲁
鳥
鳳
鳴
鴉
鸟
鹵
鹿
麃
麗
麥
麦
麻
黃
黄
黍
黎
黑
黒
黨
黹
黽
黾
鼎
鼓
鼠
鼬
鼻
齊
齋
齐
齒
齿
龍
龙
龜
龟
龠
龰
龱
龴
龵
龶
龷
龸
龹
ꭹ
ꮃ
ꮳ










者
艹
️
﻿
（
）
，
７
：
；
？
￼
�
𖬒
𖬪
𖬵
𝐛
𝐢
𝐧
𝐨
𝐱
𞄒
𞄚
𞄤
𞄨
𞄲
𞄳
👩
💬
📲
🚀
🜨
𠀁
𠀃
𠀆
𠀉
𠀎
𠀐
𠁁
𠁣
𠂆
𠂇
𠂈
𠂉
𠂊
𠂋
𠂎
𠂒
𠂔
𠂛
𠂡
𠂢
𠂤
𠂬
𠂭
𠂹
𠃊
𠃋
𠃌
𠃍
𠃎
𠃑
𠃓
𠃔
𠃜
𠄌
𠄎
𠄠
𠄢
𠆢
𠆥
𠇍
𠈌
𠌵
𠓜
𠔉
𠔥
𠔼
𠔽
𠔿
𠕀
𠕁
𠕋
𠘧
𠘨
𠙻
𠙼
𠚏
𠚒
𠚤
𠚪
𠣏
𠤎
𠤕
𠥓
𠦄
𠦑
𠦝
𠧒
𠧗
𠧪
𠩺
𠪚
𠫓
𠫔
𠫤
𠬛
𠬝
𠬞
𠬢
𠬤
𠬶
𠮛
𠮦
𠮷
𠯑
𠱠
𠳮
𠷎
𡈼
𡉀
𡉵
𡌥
𡍮
𡏳
𡕒
𡕩
𡕰
𡖅
𡗗
𡗜
𡘆
𡘤
𡧱
𡨄
𡩧
𡬠
𡭽
𡰣
𡰥
𡰪
𡰯
𡰱
𡷈
𡸁
𡿨
𡿩
𡿪
𡿺
𢀖
𢀛
𢀩
𢁙
𢆉
𢆰
𢆶
𢇁
𢇇
𢉖
𢌬
𢌿
𢏚
𢑑
𢑚
𢖻
𢙣
𢛳
𢦏
𢦒
𢧵
𢼄
𢾕
𣁋
𣄼
𣅀
𣅽
𣍘
𣎳
𣎵
𣏋
𣏼
𣗥
𣥂
𣥖
𣦵
𣦼
𣧄
𣪊
𣪠
𣬉
𣳾
𣶒
𤇾
𤊽
𤐫
𤓰
𤔔
𤕨
𤣩
𤰇
𤰔
𤰞
𤴓
𤴔
𤽄
𥁑
𥁕
𥃦
𥃩
𥃭
𥇡
𥑟
𥘅
𥘈
𥝢
𥫗
𥱡
𦈢
𦉪
𦉬
𦉼
𦍌
𦍒
𦎧
𦐇
𦓔
𦔮
𦘒
𦙃
𦚏
𦣝
𦣞
𦣻
𦥑
𦥔
𦥯
𦨉
𦭝
𦰩
𧆞
𧈧
𧘇
𧰨
𧴪
𧴮
𧵩
𧾷
𨸏
𨾴
𩙿
𩠐
𩫏
𩵋
𪉷
𪜀
𪟽
𪠲
𪩲
𫇦
𫔭
𫜸
𫝀
𫠣
𫠩
𫢉
𫥞
𫩏
𫩠
𫪡
𫲽
𫶧
𬀷
𬐘
𬗌
𬙙
𬛸
𬜯
𬟩
𬯁
𬴘
𬺻
𬼉
𬼖
𭀰
𭁈
𭁨
𭅰
𭑈
𭕄
𭗼
𭤨
𭥫
𭻾
𮅕
𮊿
𮍌
𮍏
𮓗
𮥼
𮧮
廾
𰀁
𰀄
𰀈
𰀉
𰀕
𰀠
𰀡
𰀢
𰀪
𰁜
𰃮
𰆊
𰆘
𰋙
𰕎
𰢴
𰧭
𰯲
000--
01--
02--
03--
05--
06--
07--
08--
09--
15--
16--
24--
29--
36--
39--
40--
42--
43--
51--
56--
57--
58--
59--
64--
67--
70--
71--
72--
73--
74--
76--
77--
78--
80--
81--
82--
83--
84--
85--
86--
87--
88--
89--
90--
91--
92--
93--
94--
95--
98--
a--
aa--
ab--
ac--
accele--
acu--
ad--
ada--
adapt--
ado--
aero--
af--
affir--
ag--
agri--
ai--
air--
ak--
al--
ali--
all--
am--
an--
ana--
any--
api--
app--
appli--
ar--
arc--
arch--
art--
as--
ash--
ast--
astro--
at--
au--
audi--
aus--
auto--
ave--
avi--
aw--
ax--
b--
ba--
back--
bad--
bag--
bal--
bam--
ban--
bapt--
bar--
bas--
be--
beat--
beau--
behavi--
bel--
ber--
bhak--
bi--
biblio--
bio--
biom--
blan--
bo--
bom--
bon--
boo--
book--
bor--
boun--
bour--
bow--
boy--
br--
bra--
bre--
bri--
bro--
bu--
bur--
burg--
buzz--
by--
c--
ca--
cada--
cado--
caf--
cal--
calc--
cami--
can--
cap--
car--
carni--
cas--
cat--
cau--
cauc--
cay--
cc--
ce--
cel--
cent--
cer--
cere--
ch--
chi--
cho--
cin--
cit--
cla--
clio--
co--
code--
col--
com--
comp--
con--
conce--
cond--
confi--
cons--
consc--
consti--
cont--
contro--
coor--
cor--
cosmo--
cou--
cr--
cre--
create--
cro--
crypto--
cu--
cur--
cy--
cyc--
cyto--
d--
da--
dam--
dan--
dar--
de--
dec--
decre--
defe--
defi--
degra--
del--
delac--
demo--
den--
depen--
des--
desc--
deter--
di--
dia--
dipl--
dis--
disc--
dist--
distinguis--
do--
dog--
dou--
down--
dr--
dro--
du--
dur--
e--
ear--
earth--
eco--
econo--
ed--
edit--
edu--
eg--
el--
elep--
em--
emer--
en--
ep--
equa--
equip--
er--
es--
et--
ethno--
etymo--
eu--
euc--
euro--
ex--
exam--
exc--
exclu--
explos--
f--
fa--
fac--
facil--
fami--
fan--
far--
fc--
fe--
fer--
fi--
figu--
file--
fla--
flavi--
flo--
flu--
fo--
folk--
for--
fr--
frat--
fre--
fu--
ful--
g--
ga--
gall--
gar--
gat--
gau--
ge--
geo--
ger--
get--
gi--
gio--
gird--
gl--
glor--
go--
god--
gor--
gra--
gre--
gri--
grif--
gro--
gru--
gu--
gy--
h--
ha--
hac--
ham--
haplo--
har--
hat--
haw--
hay--
he--
hea--
hel--
her--
hexa--
hi--
hick--
ho--
home--
homo--
hor--
hosp--
hot--
html--
hu--
hug--
hunga--
hur--
hus--
hut--
hy--
hydro--
i--
ia--
ib--
id--
il--
illust--
im--
image--
img--
in--
inc--
indo--
influ--
inno--
inor--
inspi--
inter--
intra--
inva--
inve--
invi--
ip--
ir--
is--
iso--
it--
j--
ja--
jan--
je--
jen--
jo--
ju--
jud--
jul--
k--
ka--
kar--
kath--
ke--
ker--
ki--
kni--
ko--
kon--
kou--
kra--
ku--
ky--
l--
la--
lag--
land--
lao--
lar--
las--
lat--
latdeg--
lau--
le--
len--
lexi--
li--
libe--
life--
ligu--
lin--
list--
lo--
lockdb--
login--
lond--
londeg--
lu--
ly--
m--
ma--
mac--
macro--
mada--
mag--
main--
mal--
man--
manu--
marmo--
mass--
mauri--
max--
mc--
mcg--
me--
mega--
memo--
men--
mer--
meso--
meta--
mexi--
mi--
micro--
mid--
mil--
mill--
mini--
miss--
mit--
mo--
mol--
mono--
mor--
mos--
mosc--
mosk--
mou--
mu--
multi--
munic--
muri--
my--
n--
na--
nano--
nar--
nav--
nc--
ne--
net--
neu--
neuro--
new--
news--
ng--
ni--
nick--
nige--
no--
non--
nor--
note--
now--
nu--
nuc--
nur--
o--
observa--
off--
oh--
ok--
ol--
om--
on--
oo--
opp--
opt--
or--
os--
ot--
ou--
out--
over--
owst--
oxi--
p--
pa--
pad--
page--
pak--
paleo--
pall--
par--
paren--
pat--
pay--
pe--
pen--
penet--
per--
ph--
phar--
phen--
phil--
pho--
phoco--
phon--
photo--
physi--
pi--
pin--
pit--
pl--
ple--
plu--
po--
poly--
por--
port--
pos--
pr--
pra--
pre--
preva--
pri--
prim--
pro--
prohi--
psy--
psychi--
psycho--
ptero--
pu--
pul--
pump--
pun--
pur--
puri--
py--
q--
qing--
qu--
qua--
quar--
r--
ra--
rad--
radio--
raj--
ran--
rap--
rb--
re--
read--
rear--
rec--
rece--
recog--
red--
reg--
rela--
reli--
ren--
repe--
resp--
resur--
rhe--
ri--
rig--
ro--
roll--
rota--
rou--
ru--
rw--
s--
sa--
sacr--
sal--
sam--
sar--
savi--
sc--
sch--
scho--
se--
sea--
sec--
sedi--
seg--
semi--
ser--
ses--
set--
sh--
sha--
ship--
show--
shu--
si--
sibi--
sid--
sik--
sil--
simu--
sit--
siz--
ska--
sket--
sky--
sl--
slo--
sm--
sn--
so--
socio--
sp--
spe--
spec--
spokes--
spon--
sq--
squa--
st--
ste--
stereo--
sti--
sto--
str--
su--
sub--
sul--
sum--
sun--
sup--
super--
sur--
sus--
sv--
sw--
swe--
sy--
t--
ta--
tal--
talk--
tan--
tardi--
te--
tec--
tele--
ter--
terro--
text--
th--
tha--
thai--
that--
the--
thermo--
thir--
ti--
time--
to--
ton--
tor--
tr--
trans--
tre--
tri--
trin--
tro--
tu--
tur--
tw--
twe--
ty--
u--
uc--
uga--
uk--
ul--
un--
under--
uni--
univer--
ur--
urba--
us--
v--
va--
val--
van--
ve--
veget--
ver--
verte--
vesper--
vi--
victo--
vir--
visit--
vita--
vo--
vol--
w--
wah--
wal--
war--
we--
wea--
web--
wie--
wiki--
wil--
win--
wit--
wo--
won--
wood--
wor--
work--
wp--
wpmassdelete--
x--
xe--
xi--
y--
ya--
yar--
ye--
yi--
ying--
yo--
yu--
z--
za--
zam--
ze--
zh--
ð--
ə--
ɪ--
π--
б--
в--
г--
к--
м--
н--
рос--
с--
ск--
скри--
ال--
ก--
กก--
กกะ--
กการ--
กการะ--
กข--
กของ--
กงาน--
กจ--
กจะ--
กช--
กชาย--
กฐ--
กด--
กต--
กท--
กน--
กป--
กประ--
กม--
กร--
กรม--
กรมพระ--
กระ--
กระจ--
กฤ--
กล--
กษ--
กษร--
กษา--
กษาใน--
กส--
กห--
กอ--
กา--
กาม--
การ--
กาล--
กาละ--
กำ--
กใน--
ข--
ขของ--
ขณะ--
ขนา--
ขภาพ--
ขอ--
ของ--
ขาด--
ค--
คน--
คร--
คล--
คว--
ความ--
คำ--
คำถ--
ง--
งก--
งกร--
งการ--
งข--
งของ--
งค--
งคณะ--
งคม--
งควา--
งความ--
งจ--
งจาก--
งด--
งต--
งท--
งทร--
งทำ--
งน--
งบ--
งป--
งประ--
งผ--
งพ--
งพระ--
งม--
งย--
งร--
งระ--
งล--
งว--
งส--
งสถ--
งสภ--
งสาม--
งห--
งอ--
งาน--
งเขต--
งแรก--
งแรกใน--
งและ--
งโ--
งใจ--
งใน--
งไ--
งไป--
จ--
จด--
จน--
จประพ--
จร--
จราช--
จส--
จอม--
จะ--
จาก--
จาค--
ฉ--
ฉลอ--
ช--
ชญ--
ชอบ--
ชา--
ชาย--
ชาว--
ซ--
ญ--
ญของ--
ญจ--
ญชา--
ญญา--
ญธรรมข--
ญพ--
ญพระ--
ญย--
ญหา--
ฎ--
ฏ--
ฏฐ--
ฐ--
ฐบาล--
ฐานะ--
ฑ--
ฒนา--
ณ--
ณย--
ณา--
ด--
ดก--
ดการ--
ดข--
ดของ--
ดค--
ดจาก--
ดช--
ดดา--
ดท--
ดทำ--
ดธ--
ดนคร--
ดบ--
ดป--
ดพ--
ดพระ--
ดม--
ดยอด--
ดร--
ดล--
ดละ--
ดวง--
ดส--
ดสถ--
ดห--
ดอ--
ดา--
ดโอ--
ต--
ตก--
ตต--
ตถ--
ตถเลขา--
ตน--
ตบอล--
ตประธ--
ตม--
ตย--
ตร--
ตรา--
ตล--
ตว--
ตส--
ตอน--
ตา--
ตาม--
ตำ--
ตำนา--
ตเม--
ถ--
ถนน--
ถวาย--
ถาม--
ท--
ทธ--
ทร--
ทรง--
ทรงถวาย--
ทรงพ--
ทรงพระ--
ทรงสละ--
ทอง--
ทฯ--
ทะ--
ทาง--
ทำ--
ธ--
ธนาคาร--
ธรร--
น--
นก--
นการ--
นของ--
นค--
นคง--
นคน--
นคร--
นงาน--
นจ--
นจะ--
นจาก--
นช--
นฐ--
นฐาน--
นด--
นต--
นตาม--
นถ--
นท--
นทร--
นธ--
นน--
นบ--
นป--
นประ--
นประธ--
นผ--
นพ--
นพระ--
นภ--
นม--
นมา--
นย--
นร--
นฤ--
นล--
นว--
นส--
นสถ--
นห--
นอ--
นา--
นาถ--
นามป--
นาย--
นำ--
นเต--
นแบ--
นและ--
นโยบ--
นใ--
นใจ--
นใน--
บ--
บก--
บการ--
บการสถ--
บข--
บค--
บควา--
บจ--
บจาก--
บจำ--
บซ--
บด--
บท--
บธ--
บน--
บบ--
บประ--
บพ--
บพระ--
บม--
บมา--
บย--
บร--
บระ--
บราช--
บล--
บส--
บอ--
บอก--
บาง--
บาย--
บาล--
บเอก--
บโร--
บไป--
ป--
ปก--
ปฐ--
ปร--
ประ--
ประธ--
ปรากฏ--
ปล--
ปส--
ปอ--
ปแบบ--
ผ--
ผล--
ผลงาน--
ฝ--
พ--
พญ--
พนม--
พย--
พร--
พรม--
พระ--
พระมห--
พระอ--
พระแส--
พฤ--
พล--
ฟ--
ภ--
ภา--
ภายใน--
ภาษ--
ม--
มก--
มข--
มค--
มคร--
มด--
มต--
มน--
มบ--
มพ--
มพระ--
มม--
มรวม--
มล--
มว--
มห--
มอ--
มะ--
มา--
มาร--
มเพลง--
ย--
ยก--
ยข--
ยของ--
ยง--
ยจ--
ยช--
ยญ--
ยด--
ยน--
ยบ--
ยม--
ยร--
ยว--
ยศ--
ยส--
ยห--
ยอด--
ยะ--
ยา--
ยาม--
ยใน--
ร--
รถ--
รว--
รวม--
รวมก--
ระ--
รา--
ราช--
ราย--
ล--
ลก--
ลป--
ลย--
ลล--
ลส--
ลอ--
ละ--
ลา--
ว--
วข--
วค--
วง--
วจะ--
วทร--
วน--
วม--
วย--
วร--
วรรณ--
วส--
วห--
วา--
วาง--
วาส--
วโม--
ศ--
ศร--
ศล--
ศว--
ษ--
ษฎ--
ษบ--
ส--
สก--
สงคราม--
สถ--
สถาปนา--
สทร--
สบ--
สม--
สร--
สล--
สว--
สห--
สอ--
สะพาน--
สา--
สาบ--
สาว--
สโม--
ห--
หน--
หม--
หมว--
หย--
หล--
หลวง--
หลาน--
หว--
หา--
หาย--
หาร--
ฬา--
อ--
อก--
อข--
อค--
อง--
องจาก--
องเพลง--
องใน--
อจ--
อจะ--
อช--
อด--
อต--
อถ--
อทร--
อน--
อบ--
อป--
อประ--
อพ--
อพระ--
อม--
อมหา--
อมา--
อย--
อยาก--
อร--
อล--
อว--
อส--
อห--
ออ--
ออก--
ออกจ--
ออกจากซอย--
ออส--
อะ--
อา--
อาก--
อาค--
อาคาร--
อาจ--
อำ--
อใน--
อไ--
ฮ--
ะ--
า--
าก--
ากร--
ากาก--
าการ--
าข--
าง--
างข--
างพระ--
างๆ--
าจ--
าจอม--
าจะ--
าฉ--
าช--
าด--
าต--
าท--
าทำ--
าน--
าบ--
าป--
าพ--
าม--
ามาประจำการ--
าย--
ายของ--
าร--
าราช--
าว--
าส--
าห--
าอ--
าฯ--
าและ--
าใ--
าใน--
าไป--
ำ--
ำสะอ--
เ--
เก--
เกม--
เข--
เค--
เคย--
เง--
เจ--
เช--
เซ--
เด--
เท--
เทศ--
เน--
เบ--
เบญจ--
เพ--
เพราะ--
เฟ--
เฟร--
เย--
เร--
เว--
เวณ--
เศษ--
เษก--
เส--
เอ--
เอก--
เฮ--
แ--
แข--
แค--
แจ--
แถ--
แทน--
แน--
แบบ--
แป--
แผ--
แพ--
แม--
แร--
แล--
และ--
แว--
แส--
แสด--
แห--
แอบ--
โ--
โก--
โค--
โคตร--
โครงก--
โซ--
โดย--
โดยทรง--
โต--
โท--
โทษ--
โบล--
โปร--
โปรโ--
โภค--
โร--
โล--
โลก--
โอ--
ใ--
ใจ--
ใน--
ในงาน--
ในฐ--
ในประ--
ในใจ--
ไ--
ไข--
ไขระบบ--
ไชย--
ไทย--
ไธย--
ไป--
ไฟ--
ไอ--
๑--
๒--
๒๕--
๓--
๔--
๕--
๘--
๙--
ກ--
ກກ--
ກກະ--
ກກາ--
ກການ--
ກກຳມະກອນ--
ກຂ--
ກຂອງ--
ກຂະ--
ກຂາ--
ກຂຽນ--
ກຄ--
ກຄວ--
ກຄວາມ--
ກຄອງ--
ກຄະ--
ກງ--
ກງານ--
ກງານຄະນະ--
ກຈ--
ກຈະ--
ກຈາກ--
ກຊ--
ກຊນະ--
ກຊາຍ--
ກຊາດ--
ກຊຽງ--
ກຍ--
ກຍາກ--
ກດ--
ກຕ--
ກຕາ--
ກຕາດ--
ກຖ--
ກຖະ--
ກຖານ--
ກທ--
ກທະ--
ກທາງ--
ກທາດ--
ກທຳມ--
ກທຳມະຊ--
ກທຳລາຍ--
ກນ--
ກນະ--
ກນາໆ--
ກນຳ--
ກບ--
ກປ--
ກປະ--
ກປະຈຳ--
ກປາບປາ--
ກຜ--
ກຝ--
ກພ--
ກພວກ--
ກພະ--
ກພາ--
ກພາກ--
ກຟ--
ກມ--
ກມະ--
ກມາຮ--
ກຢ--
ກຣ--
ກຣາ--
ກລ--
ກລາຊະ--
ກລາວ--
ກວ--
ກວດ--
ກວດກາ--
ກວດສອບ--
ກວມ--
ກວາງ--
ກສ--
ກສອນ--
ກສະ--
ກສະນະ--
ກສະຫ--
ກສະແດງ--
ກສະໄໝ--
ກສາ--
ກສາຂອງ--
ກສາຄວາມ--
ກສາຈາກ--
ກສາທ--
ກສາມ--
ກສາວ--
ກສາສ--
ກສາອ--
ກຫ--
ກຫລ--
ກອ--
ກອງ--
ກອນ--
ກອບ--
ກອອກ--
ກອອກແບບ--
ກອະ--
ກຮ--
ກຮານ--
ກຮຽ--
ກຮຽນ--
ກະ--
ກະຊວງ--
ກະດ--
ກະຕະ--
ກະທຳ--
ກະບ--
ກະສ--
ກະແສ--
ກະໂລ--
ກະໄດ--
ກາ--
ກາກ--
ກາຂ--
ກາງ--
ກາຍ--
ກາຕ--
ການ--
ການກ--
ການກະທ--
ການຂະ--
ການຂະຫຍາຍ--
ການຕ--
ການຕອບ--
ການທ--
ການນ--
ການປາບປາ--
ການລ--
ການວ--
ການອອກ--
ການເຈ--
ການແປ--
ກາບ--
ກາມ--
ກາຣ--
ກາລ--
ກຳ--
ກຳແພງ--
ກຽດ--
ກຽມ--
ກເກນ--
ກເຊ--
ກເຕ--
ກເທ--
ກເນລະ--
ກເລ--
ກເອ--
ກແຍກ--
ກແທ--
ກແບ--
ກແພງ--
ກແລະ--
ກໂທດ--
ກໂລກ--
ກໂອນ--
ກໃຈ--
ກໃນ--
ກໄຊ--
ກໄປ--
ກໆ--
ກໆປະ--
ກໜ--
ກໝ--
ຂ--
ຂອງ--
ຂອງການ--
ຂອງດ--
ຂອງປະ--
ຂອງພະ--
ຂອງລ--
ຂອງລາວ--
ຂອງສ--
ຂອບເຂດ--
ຂະ--
ຂະນ--
ຂະບວນການ--
ຂະພາບ--
ຂະຫຍາຍ--
ຂະໜ--
ຂະໜາດ--
ຂາ--
ຂາຍ--
ຂາດ--
ຂາວ--
ຂຽນ--
ຂຽວ--
ຄ--
ຄນະ--
ຄຣ--
ຄວ--
ຄວນ--
ຄວາມ--
ຄວາມປອດໄພ--
ຄວາມສະດວກ--
ຄວາມໝາຍ--
ຄອ--
ຄອງ--
ຄອງບ--
ຄອນ--
ຄອບຄ--
ຄະ--
ຄະນະ--
ຄາ--
ຄາດ--
ຄາລ--
ຄຳ--
ຄຳຖາມ--
ຄຳອາຣ--
ຄຽງ--
ງ--
ງກ--
ງກອນ--
ງກະ--
ງກາ--
ງກາງ--
ງກາຍ--
ງການ--
ງກຳ--
ງຂ--
ງຂອງ--
ງຂອງພະ--
ງຂອນ--
ງຂອບເຂດ--
ງຂະ--
ງຂະຫຍາຍ--
ງຂາ--
ງຄ--
ງຄວາມ--
ງຄະ--
ງຄາ--
ງຄາມ--
ງຄຳ--
ງຄຽ--
ງງານ--
ງຈ--
ງຈອນ--
ງຈະ--
ງຈະສ--
ງຈາກ--
ງຈາກກ--
ງຊ--
ງຊາຍ--
ງຊາດ--
ງຊາວໄທ--
ງຍ--
ງຍາກ--
ງຍາວ--
ງດ--
ງດຽວ--
ງຕ--
ງຕອນປ--
ງຕາມ--
ງຖ--
ງຖະ--
ງທ--
ງທະ--
ງທະນາຄາ--
ງທະຫານ--
ງທາງ--
ງທຳ--
ງນ--
ງນອກ--
ງນະ--
ງນະຄອນ--
ງນາ--
ງນຳ--
ງບ--
ງບອກ--
ງປ--
ງປະ--
ງປະກອບ--
ງປະທ--
ງປະເທດ--
ງປາບ--
ງຜະ--
ງຜະໜ--
ງຝ--
ງພ--
ງພຣະຍາ--
ງພະ--
ງພະລາຊະທ--
ງພາສາ--
ງພຽງ--
ງຟ--
ງມ--
ງມອບ--
ງມາ--
ງຢ--
ງຣ--
ງລ--
ງລວມ--
ງລາຊ--
ງລາວ--
ງວ--
ງວະ--
ງວຽ--
ງສ--
ງສວຍ--
ງສອງ--
ງສອນ--
ງສະ--
ງສະແດງ--
ງສະໄໝ--
ງສາ--
ງສານ--
ງສາມ--
ງຫ--
ງຫມ--
ງຫວະ--
ງຫວຽ--
ງຫະ--
ງຫາ--
ງອ--
ງອອກ--
ງອະ--
ງອາດ--
ງອຳນ--
ງອຳນາດ--
ງຮ--
ງາ--
ງານ--
ງາມ--
ງຽບ--
ງເກ--
ງເກດ--
ງເຂດ--
ງເທ--
ງເທບ--
ງເປ--
ງເພງ--
ງເລ--
ງເວ--
ງເຫ--
ງເອ--
ງແຂ--
ງແຄ--
ງແຍກ--
ງແຍງ--
ງແຕ--
ງແບ--
ງແປ--
ງແມ--
ງແລະ--
ງແລະຄວາມ--
ງແສງ--
ງແຮ--
ງໂຄ--
ງໂດຍ--
ງໂຕ--
ງໂທດ--
ງໂລກ--
ງໂອ--
ງໂຮງ--
ງໃຈ--
ງໃນ--
ງໃນກ--
ງໃນພະ--
ງໃນພາສາ--
ງໃສ--
ງໄຊ--
ງໄທ--
ງໄປ--
ງໄຟ--
ງໄສ--
ງໆ--
ງໝ--
ຈ--
ຈອກ--
ຈອມ--
ຈະ--
ຈະກ--
ຈະຂ--
ຈະຂະ--
ຈະຂະຫຍາຍ--
ຈະຕາມ--
ຈະຖ--
ຈະທຳກ--
ຈະນຳ--
ຈະບ--
ຈະພະ--
ຈະມ--
ຈະສະ--
ຈະຫ--
ຈະອ--
ຈະຮ--
ຈາ--
ຈາກ--
ຈາກປະເທດ--
ຈານ--
ຈາຣະ--
ຈຳ--
ຊ--
ຊຣາດ--
ຊວ--
ຊອຍ--
ຊອບ--
ຊະ--
ຊະນະ--
ຊາ--
ຊາກ--
ຊາການ--
ຊາຄ--
ຊາຍ--
ຊາດ--
ຊາຕ--
ຊາທະ--
ຊານ--
ຊາພ--
ຊາພະ--
ຊາວ--
ຊາວຫ--
ຊຳ--
ຊຳນານ--
ຊຳລະ--
ຊຽງ--
ຍ--
ຍກ--
ຍການ--
ຍຂ--
ຍຄ--
ຍຈະ--
ຍຊ--
ຍຍ--
ຍຕ--
ຍທ--
ຍນ--
ຍບ--
ຍປ--
ຍພ--
ຍພະ--
ຍມ--
ຍລ--
ຍສ--
ຍສະ--
ຍຫ--
ຍອ--
ຍອດ--
ຍອມ--
ຍອອກ--
ຍຮ--
ຍະ--
ຍະມະ--
ຍາ--
ຍາກ--
ຍາງ--
ຍາຍ--
ຍາດ--
ຍາທ--
ຍານ--
ຍາມ--
ຍາມາລະ--
ຍາວ--
ດ--
ດກ--
ດກອບ--
ດກະ--
ດກະຈ--
ດກາ--
ດການ--
ດກາເຟ--
ດກຳ--
ດຂ--
ດຂວາງ--
ດຂອງ--
ດຂອງຫ--
ດຂະ--
ດຂະໜາດ--
ດຂາດ--
ດຄ--
ດຄອງ--
ດຄອມ--
ດຄະ--
ດຄຳ--
ດງານ--
ດງາມ--
ດຈ--
ດຈະ--
ດຈະການ--
ດຈະກຳ--
ດຈາ--
ດຈາກ--
ດຊ--
ດຊອບ--
ດຊະ--
ດຊະການ--
ດຊະຍະກ--
ດຊະຍາ--
ດຊະທາຍາດ--
ດຊາ--
ດຊາຍ--
ດຊາດ--
ດຍ--
ດຍອດ--
ດຍະ--
ດຍາ--
ດດ--
ດດອກ--
ດດາ--
ດຕ--
ດຕະ--
ດຕະກຳ--
ດຕະນະ--
ດຕາ--
ດຕາກ--
ດຕາການຂະ--
ດຕາມ--
ດຖ--
ດຖະ--
ດຖະບານ--
ດຖາ--
ດຖານ--
ດທ--
ດທະ--
ດທະຍະ--
ດທະນະທຳ--
ດທະນາ--
ດທະນາມາຈາກ--
ດທະບານ--
ດທະສາດ--
ດທາ--
ດທາງ--
ດທຳມ--
ດທຳມະຊ--
ດນ--
ດນະ--
ດນະຄອນ--
ດນາ--
ດນຳ--
ດບ--
ດບາງນ--
ດບາດ--
ດປ--
ດປະ--
ດປະເພດ--
ດພ--
ດພຣະ--
ດພຣະທາດ--
ດພະ--
ດພະທ--
ດພະທາດ--
ດພະນ--
ດພະນະເຣສວນ--
ດພະນະເລສວນມະ--
ດພາກ--
ດພຽງ--
ດຟ--
ດມ--
ດມະ--
ດມະຫາ--
ດມາ--
ດມາຈາກ--
ດຢ--
ດຣ--
ດລ--
ດລອກ--
ດລອງ--
ດລະ--
ດລະຄອນ--
ດລາຊະ--
ດລາຍ--
ດລາຍກ--
ດລາດຊະ--
ດລາວ--
ດວ--
ດວງ--
ດວຽກ--
ດສ--
ດສລະຈາກ--
ດສວຍ--
ດສອນ--
ດສອບ--
ດສະ--
ດສະຍາ--
ດສະດ--
ດສະນະ--
ດສະແດງ--
ດສະໜາ--
ດສາ--
ດສາດ--
ດສານ--
ດຫ--
ດຫມາຍ--
ດຫລ--
ດອ--
ດອກ--
ດອຍ--
ດອນ--
ດອອກ--
ດອາດ--
ດຮ--
ດາ--
ດາວ--
ດຳ--
ດຽວ--
ດເກ--
ດເຂ--
ດເຈນ--
ດເຊ--
ດເຊຍ--
ດເຊໂກສະ--
ດເທ--
ດເທບ--
ດເພງ--
ດເມ--
ດເວ--
ດເວລາ--
ດເສ--
ດເຫ--
ດເອ--
ດແຂ--
ດແທກ--
ດແທນ--
ດແບ--
ດແປງ--
ດແຜ--
ດແລ--
ດແລສະແດງ--
ດແລະ--
ດໂຄ--
ດໂດຍ--
ດໂຕ--
ດໂທ--
ດໂນ--
ດໃ--
ດໃຈ--
ດໃນ--
ດໃນກ--
ດໃນພະ--
ດໃນລາຍກ--
ດໄຈ--
ດໄຊ--
ດໄທ--
ດໄປ--
ດໄຟ--
ດໄອ--
ດໆ--
ດໜ--
ດໝ--
ດໝາຍ--
ຕ--
ຕຕ--
ຕຕະ--
ຕຣ--
ຕລ--
ຕວ--
ຕສ--
ຕອນ--
ຕອບ--
ຕອບຄຳ--
ຕະ--
ຕະລ--
ຕະຫ--
ຕາ--
ຕາຍ--
ຕາດ--
ຕາຕະລ--
ຕາມ--
ຕາມກ--
ຕາມພະ--
ຕາລ--
ຕາຮາ--
ຕາແສງ--
ຕຳ--
ຕຳລາ--
ຕຽນ--
ຖ--
ຖນ--
ຖບານ--
ຖອດ--
ຖອນ--
ຖາ--
ຖານ--
ຖານະ--
ຖາມ--
ຖຽງ--
ທ--
ທທ--
ທທະ--
ທຣ--
ທອງ--
ທອດ--
ທະ--
ທະຍາ--
ທະຍາສາດ--
ທະຍາໄລ--
ທະນ--
ທະຢາ--
ທະຫານ--
ທະເລ--
ທາ--
ທາງ--
ທາຍ--
ທາດ--
ທານ--
ທຳ--
ທຳການ--
ທຳນ--
ທຳມ--
ທຳລາຍ--
ນ--
ນກ--
ນກະ--
ນກະຊວງ--
ນກາ--
ນກາງ--
ນການ--
ນການສະແດງ--
ນກຳ--
ນກຳມະ--
ນກຽ--
ນຂ--
ນຂວ--
ນຂອງ--
ນຂອງກ--
ນຂະ--
ນຂະແໜງ--
ນຂາດ--
ນຄ--
ນຄວນ--
ນຄວາມ--
ນຄອງ--
ນຄະ--
ນຄາ--
ນຄຳ--
ນງ--
ນງານ--
ນຈ--
ນຈອນ--
ນຈະ--
ນຈະກ--
ນຈະສ--
ນຈາກ--
ນຊ--
ນຊອບ--
ນຊະ--
ນຊະນະ--
ນຊາ--
ນຊາຍ--
ນຊາດ--
ນຊາວ--
ນຍ--
ນຍະ--
ນຍາ--
ນຍາຍ--
ນຍານ--
ນດ--
ນດອນ--
ນດາ--
ນດາກະແສ--
ນດານ--
ນດານໃຈ--
ນດາວ--
ນດາວເຄາະ--
ນດຽວ--
ນຕ--
ນຕອນ--
ນຕອບ--
ນຕະ--
ນຕະລາຍ--
ນຕາ--
ນຕາຍ--
ນຕາມ--
ນຖ--
ນຖະ--
ນຖານ--
ນທ--
ນທະ--
ນທະນາ--
ນທະລະ--
ນທະຫານ--
ນທາ--
ນທາງ--
ນທາງການ--
ນທາງໄປ--
ນທາດ--
ນທຳ--
ນນ--
ນນອກ--
ນນະ--
ນນະໂຍບາຍ--
ນນາ--
ນນາກ--
ນນາຍ--
ນນານ--
ນນຳ--
ນບ--
ນປ--
ນປະ--
ນປະທານ--
ນປະເທດ--
ນປະເພດ--
ນປະໂຍ--
ນປະໂຫຍດ--
ນປາ--
ນຜ--
ນຝ--
ນພ--
ນພວກ--
ນພະ--
ນພະຍ--
ນພາບ--
ນພາວະ--
ນພາສາ--
ນພຽງ--
ນຟ--
ນມ--
ນມະ--
ນມະຫ--
ນມາ--
ນມາຂອງ--
ນມາຈາກ--
ນຢ--
ນຢາ--
ນຣ--
ນຣະຍະ--
ນຣາມຄ--
ນລ--
ນລະ--
ນລະຍາ--
ນລະບອບ--
ນລາ--
ນລາຍ--
ນລາວ--
ນວ--
ນວຍ--
ນວນ--
ນວາ--
ນວຽ--
ນສ--
ນສວນສາທາ--
ນສອງ--
ນສະ--
ນສະດວກ--
ນສະໄໝ--
ນສາ--
ນສາຂາ--
ນສາຍ--
ນສານ--
ນສາມ--
ນສຽງ--
ນຫ--
ນຫມ--
ນຫລ--
ນຫາ--
ນຫາກ--
ນຫາຍ--
ນອ--
ນອກ--
ນອກຈາກ--
ນອກເຂດ--
ນອນ--
ນອອກ--
ນອອກຈາກ--
ນອະ--
ນອະວະ--
ນອະວະກາດ--
ນອະໄວຍະວະ--
ນອາ--
ນອາຈານສອນ--
ນອາສາ--
ນອຳນ--
ນອຳນາດ--
ນຮ--
ນຮອດ--
ນຮອບ--
ນຮາມຄ--
ນຮຽ--
ນະ--
ນະຄອນ--
ນະພາບ--
ນາ--
ນາກ--
ນາຄ--
ນາງ--
ນາງສ--
ນາຍ--
ນາດ--
ນານ--
ນາມ--
ນຳ--
ນຳກ--
ນຳຄ--
ນຳທ--
ນຳທະ--
ນຳພາ--
ນຳລ--
ນຳອ--
ນເກມ--
ນເຂດ--
ນເຂດແດນ--
ນເຄ--
ນເຊ--
ນເດ--
ນເດຍ--
ນເທ--
ນເທວະ--
ນເພ--
ນເພງ--
ນເພງຊາດ--
ນເພາະ--
ນເມ--
ນເມຍຂ--
ນເລ--
ນເວ--
ນເສຍ--
ນເຫດ--
ນເອ--
ນເອກ--
ນເອກຣາດ--
ນເອງ--
ນເຮ--
ນແກ--
ນແຂ--
ນແຂວງ--
ນແດງ--
ນແດນ--
ນແຖວ--
ນແນ--
ນແນລ--
ນແບ--
ນແບບ--
ນແປ--
ນແຜ--
ນແພ--
ນແຟ--
ນແມ--
ນແລະ--
ນແອ--
ນແຮງ--
ນໂຄ--
ນໂຄຈອນ--
ນໂດ--
ນໂດຍ--
ນໂຕ--
ນໂທ--
ນໂນ--
ນໂບ--
ນໂລ--
ນໂລກ--
ນໂຮ--
ນໃ--
ນໃຈ--
ນໃຈກ--
ນໃດ--
ນໃນ--
ນໃນກ--
ນໃນຕ--
ນໃນປະເທດ--
ນໃນລາຊະສະໄໝ--
ນໃນສະໄໝ--
ນໃນໄລຍະ--
ນໃບ--
ນໄກ--
ນໄຊ--
ນໄດ--
ນໄທ--
ນໄນ--
ນໄປ--
ນໄພ--
ນໄຟ--
ນໄລຍະ--
ນໄວ--
ນໄອ--
ນໆ--
ນໜ--
ນໝ--
ນໝາກ--
ບ--
ບກ--
ບກະ--
ບການ--
ບການອອກ--
ບການອອກອາກາດ--
ບຂ--
ບຂອງ--
ບຂະ--
ບຄ--
ບຄວາມ--
ບຄະ--
ບຄຳ--
ບງ--
ບຈ--
ບຈະ--
ບຈາກ--
ບຊ--
ບຊາຍແດ--
ບຊາດ--
ບຊຳນ--
ບຍ--
ບດ--
ບດາ--
ບຕ--
ບຕາ--
ບຕຳນ--
ບຖ--
ບທ--
ບທອດ--
ບທະ--
ບທະຫານ--
ບທະເລ--
ບທາງກ--
ບນ--
ບນະ--
ບນາງ--
ບນາຍ--
ບນຳ--
ບບ--
ບປ--
ບປດປ--
ບປະ--
ບປະຈຳ--
ບປະທານ--
ບປະມານ--
ບປະເທດ--
ບປາ--
ບຜາ--
ບພ--
ບພຣະ--
ບພວກ--
ບພະ--
ບພະລາຊະທ--
ບພາກ--
ບພາບ--
ບພາລະ--
ບພາສາ--
ບຟ--
ບມ--
ບມະ--
ບມາ--
ບຢ--
ບຣ--
ບລ--
ບລະ--
ບລາຊ--
ບລາຊະກ--
ບລາຊະການທະ--
ບລາຍ--
ບວ--
ບວຽ--
ບສ--
ບສວນ--
ບສອງ--
ບສະ--
ບສະພາບ--
ບສະໄໝ--
ບສາມ--
ບຫ--
ບຫລ--
ບອ--
ບອກ--
ບອດ--
ບອຕ--
ບອອກ--
ບອາຫານ--
ບອຳນ--
ບອຳນາດ--
ບຮ--
ບຮອງ--
ບະ--
ບາ--
ບາງ--
ບາຍ--
ບາດ--
ບານ--
ບາເຊ--
ບຽດບ--
ບເກາະ--
ບເຂ--
ບເຂດບ--
ບເທ--
ບເຫ--
ບແຂວງ--
ບແບບ--
ບແຟ--
ບແລະ--
ບໂຕ--
ບໂຕຂ--
ບໃຈ--
ບໃຊ--
ບໃນ--
ບໄຊ--
ບໄປ--
ບໄພ--
ບໝ--
ປ--
ປປ--
ປຣ--
ປຣະທ--
ປອ--
ປະ--
ປະກ--
ປະກວດ--
ປະກອນ--
ປະກອບ--
ປະກາດ--
ປະຈຳ--
ປະຖຳ--
ປະທານ--
ປະນ--
ປະມ--
ປະຣ--
ປະລ--
ປະສ--
ປະເທດ--
ປະເພດ--
ປະໄຕ--
ປາ--
ປາກ--
ປາຍ--
ປານ--
ປາບ--
ປາສ--
ປາໄສ--
ປຽບ--
ຜ--
ຜະ--
ຜາ--
ຝ--
ຝາ--
ພ--
ພຍາ--
ພພ--
ພພະ--
ພຣ--
ພຣະ--
ພວກ--
ພວມ--
ພອ--
ພະ--
ພະຍາ--
ພະນ--
ພະມ--
ພະມະ--
ພະມານດ--
ພະລ--
ພະລາຊະ--
ພະອ--
ພະແນກ--
ພະແສງ--
ພາ--
ພາກ--
ພາກກາງ--
ພາຍໃນ--
ພາດ--
ພານ--
ພາບ--
ພາມ--
ພາວະ--
ພາສາ--
ພຽງ--
ຟ--
ຟຣ--
ຟອສ--
ຟາ--
ມ--
ມກ--
ມການ--
ມຂ--
ມຂອງ--
ມຂະ--
ມຄ--
ມຄວາມ--
ມຄອງ--
ມຄະ--
ມຄຳສ--
ມງ--
ມງານ--
ມຈ--
ມຈະ--
ມຈາກ--
ມຊ--
ມຊາດ--
ມຍ--
ມດ--
ມຕ--
ມຕາມ--
ມຖ--
ມທ--
ມທະ--
ມທຳມ--
ມນ--
ມນະ--
ມບ--
ມປ--
ມປະ--
ມຜ--
ມຜະສ--
ມພ--
ມພຣະ--
ມພະ--
ມພາ--
ມພາຍ--
ມພາສາ--
ມມ--
ມມະ--
ມມາ--
ມຣ--
ມລ--
ມລາຊະໂອ--
ມວ--
ມວຍ--
ມສ--
ມສະ--
ມສາດ--
ມຫ--
ມອ--
ມອນເຕເນ--
ມອບ--
ມອອກ--
ມອອນລ--
ມຮ--
ມຮຽ--
ມະ--
ມະຊາດ--
ມະຫາ--
ມາ--
ມາກ--
ມາຂ--
ມາຈາກ--
ມາຊ--
ມາດ--
ມາຕ--
ມາທ--
ມານ--
ມານດາ--
ມາພະ--
ມາລ--
ມາລະຍາດ--
ມາສະ--
ມາຫ--
ມາອ--
ມາຮອດ--
ມາໃນ--
ມເຂ--
ມເດ--
ມເທ--
ມແຂງ--
ມແດນ--
ມແບ--
ມແລະ--
ມແຮ--
ມໂຕ--
ມໃຈ--
ມໃນ--
ມໄຊ--
ມໄທ--
ມໄປ--
ມໝ--
ຢ--
ຢາ--
ຢາກ--
ຢາງ--
ຣ--
ຣນ--
ຣອດ--
ຣະ--
ຣະຍານ--
ຣະເມນທະຣະ--
ຣາ--
ຣາຊ--
ຣາດ--
ລ--
ລປ--
ລວ--
ລວດລ--
ລວມ--
ລວມຍອດ--
ລອງ--
ລອດ--
ລະ--
ລະກ--
ລະຄອນ--
ລະຈ--
ລະຍ--
ລະຍະທ--
ລະຕ--
ລະນະ--
ລະບ--
ລະບອບ--
ລະປະ--
ລະລ--
ລະສ--
ລະອ--
ລະອຽ--
ລາ--
ລາກ--
ລາຄາ--
ລາຊະ--
ລາຍ--
ລາຍການ--
ລາດ--
ລານ--
ລາມ--
ລາວ--
ລາວສ--
ລາສະດ--
ລຳ--
ລຳຮາ--
ລຽນ--
ລຽບ--
ລຽມ--
ລໂບ--
ວ--
ວກ--
ວຂ--
ວຂອງ--
ວຂະ--
ວຄ--
ວຄາວ--
ວງ--
ວງກ--
ວງຂອງ--
ວງຊ--
ວງຕ--
ວງສ--
ວງຫ--
ວງໄລຍະ--
ວຈ--
ວຈະ--
ວຈາກ--
ວຊ--
ວຍ--
ວຍການ--
ວຍຂ--
ວຍຂະ--
ວຍຄ--
ວຍຄວາມ--
ວຍງານ--
ວຍຊ--
ວຍດ--
ວຍບ--
ວຍປະ--
ວຍພ--
ວຍພະ--
ວຍລ--
ວຍລວດ--
ວຍສ--
ວຍສະ--
ວຍສຽງ--
ວຍອ--
ວດ--
ວຕ--
ວຖ--
ວທ--
ວນ--
ວນກ--
ວນຂອງ--
ວນຊ--
ວນຍອດ--
ວນທ--
ວນບ--
ວນພ--
ວນພະ--
ວນມ--
ວນລ--
ວນສ--
ວນອ--
ວນະ--
ວນຳ--
ວນເພດ--
ວບ--
ວປ--
ວພ--
ວພະ--
ວມ--
ວມກ--
ວມງານ--
ວມພະ--
ວມສ--
ວມສະ--
ວມສະແດງ--
ວມະ--
ວມໃນ--
ວຢ--
ວລ--
ວວ--
ວສ--
ວສະ--
ວຫ--
ວອ--
ວອນ--
ວອອກ--
ວະ--
ວາ--
ວາງ--
ວາດ--
ວານ--
ວານຕາມທຳມະຊາດ--
ວຽກ--
ວຽງ--
ວເລກ--
ວເອງ--
ວແທນ--
ວແທນຈາກ--
ວແປ--
ວແລະ--
ວໂລກ--
ວໃຈ--
ວໄປ--
ວໜ--
ວໝ--
ສ--
ສຊ--
ສຕ--
ສຕຽນ--
ສທ--
ສນ--
ສມ--
ສລ--
ສວ--
ສວນ--
ສສ--
ສສະ--
ສອ--
ສອງ--
ສອງຂ--
ສອນ--
ສອບ--
ສະ--
ສະກ--
ສະດວກ--
ສະພາ--
ສະພາບ--
ສະພາວະ--
ສະລ--
ສະລະ--
ສະສ--
ສະເພາະ--
ສະແດງ--
ສະແຫ--
ສະໄໝ--
ສະໝ--
ສາ--
ສາຂາ--
ສາງ--
ສາຍ--
ສາຍທ--
ສາດ--
ສານ--
ສານຕ--
ສາບ--
ສາມ--
ສາມາດ--
ສາມາດແຍກ--
ສາວ--
ສາຫະກຳ--
ສາເຫດ--
ສຳ--
ສຳນຽງ--
ສຽງ--
ສຽງຂ--
ສຽງຈາກ--
ສເ--
ສເອ--
ສເອເຊຍ--
ຫ--
ຫຍ--
ຫມ--
ຫລ--
ຫລວງ--
ຫລາຍ--
ຫລາຍໆ--
ຫວ--
ຫອຍ--
ຫອມ--
ຫະ--
ຫາ--
ຫາກ--
ຫາຍ--
ຫາດ--
ຫານ--
ອ--
ອກ--
ອກຂ--
ອຂ--
ອຂອງ--
ອຂະ--
ອຄ--
ອຄວາມ--
ອຄວາມສະດວກ--
ອງ--
ອງກ--
ອງການ--
ອງຂອງ--
ອງຂະ--
ອງຄ--
ອງຈ--
ອງຈາກ--
ອງຊ--
ອງຊາຍ--
ອງຊຽງ--
ອງຍ--
ອງດ--
ອງຕ--
ອງຕອບຄຳຖາມ--
ອງຖ--
ອງທ--
ອງທະ--
ອງທາງໃນ--
ອງນ--
ອງນະ--
ອງນຳ--
ອງບ--
ອງປ--
ອງປະ--
ອງພ--
ອງພະ--
ອງມ--
ອງມາຈາກ--
ອງລ--
ອງລະ--
ອງລາວ--
ອງວ--
ອງສ--
ອງສະ--
ອງສະໄໝ--
ອງສາວ--
ອງຫ--
ອງອ--
ອງອອກ--
ອງຮອຍ--
ອງເຈ--
ອງເພງ--
ອງເອກ--
ອງແລະ--
ອງໂພນ--
ອງໃນ--
ອງໃນໂອກາດ--
ອງໄທ--
ອງໄປ--
ອງໜ--
ອງໝາຍ--
ອຈ--
ອຈະ--
ອຈາກ--
ອຊ--
ອຊອກຫ--
ອຊາດ--
ອຍ--
ອຍກ--
ອຍຂ--
ອຍຂະ--
ອຍຄ--
ອຍຈະ--
ອຍຈາກ--
ອຍຊ--
ອຍຕ--
ອຍຖ--
ອຍທະ--
ອຍປ--
ອຍລ--
ອຍວ--
ອຍສ--
ອຍາຕ--
ອຍແລະ--
ອຍໃນ--
ອຍໆ--
ອດ--
ອຕ--
ອຕອບ--
ອຖ--
ອທ--
ອທາງ--
ອທຳກ--
ອທຳມ--
ອນ--
ອນການ--
ອນຂ--
ອນຂອງ--
ອນຄ--
ອນຄວາມ--
ອນຈ--
ອນຈະ--
ອນຈາກ--
ອນຊ--
ອນຍ--
ອນດ--
ອນຕ--
ອນທຳກ--
ອນນ--
ອນປະ--
ອນປະເທດ--
ອນພ--
ອນມ--
ອນລ--
ອນວ--
ອນສ--
ອນສະ--
ອນຫ--
ອນອ--
ອນຳ--
ອນໃຈ--
ອນໃນ--
ອນໄຂ--
ອນໄຫວ--
ອບ--
ອບຽດບ--
ອປ--
ອປະ--
ອປະກ--
ອປະກອບ--
ອປະເທດ--
ອປະໂຍ--
ອປະໂຫຍ--
ອພ--
ອພຣະ--
ອພະ--
ອຟ--
ອມ--
ອມກ--
ອມຂ--
ອມຄ--
ອມທ--
ອມພ--
ອມຮອບ--
ອມໂຍ--
ອມໃສ--
ອຢ--
ອລ--
ອລວບ--
ອວ--
ອສ--
ອສະ--
ອສະດວກ--
ອສະແດງ--
ອສາຍ--
ອຫລ--
ອຫາ--
ອອ--
ອອກ--
ອອກຈາກ--
ອອກສ--
ອອກອາກາດ--
ອອນ--
ອອຳນ--
ອຮ--
ອຮຽ--
ອະ--
ອະນ--
ອະມ--
ອະໄວ--
ອະໄວຍະວະ--
ອາ--
ອາກ--
ອາການ--
ອາດ--
ອາດຈະ--
ອາຕ--
ອາມ--
ອາລ--
ອາລະ--
ອາສ--
ອາຫານ--
ອາໃສ--
ອາໄສ--
ອຳ--
ອຳນວຍ--
ອຳນາດ--
ອແລະ--
ອແຮ--
ອໃນ--
ອໄປ--
ອໄຟ--
ຮ--
ຮວ--
ຮວບຮ--
ຮວບຮວມ--
ຮວມ--
ຮອງ--
ຮອຍ--
ຮອດ--
ຮອບ--
ຮະ--
ຮາ--
ຮາກ--
ຮານ--
ຮານນະ--
ຮາບ--
ຮຽກ--
ຮຽນ--
ະ--
ະກ--
ະພາບ--
າ--
າກ--
າກະ--
າການ--
າກຳ--
າຂ--
າຂອງ--
າຂະ--
າຂາຍ--
າຄ--
າຄນະ--
າຄວາມ--
າຄຳ--
າງ--
າງກ--
າງກາຍ--
າງຂ--
າງຂອງ--
າງຂະ--
າງຄ--
າງຄວາມ--
າງຈາກ--
າງຈຳນ--
າງຊ--
າງດ--
າງຕ--
າງທະເລ--
າງນ--
າງນະ--
າງປ--
າງປະ--
າງປະເທດ--
າງພ--
າງພຣະ--
າງພະ--
າງມ--
າງຣອບ--
າງລ--
າງວຽ--
າງສ--
າງສະ--
າງສາ--
າງສາທາ--
າງອ--
າງຮ--
າງາມ--
າງແລະ--
າງໂດຍ--
າງໂຕ--
າງໂລກ--
າງໃນ--
າງໄກ--
າງໄປ--
າງໆ--
າງໆຂອງ--
າຈ--
າຈອມມ--
າຈະ--
າຈະສ--
າຈາກ--
າຈຳນ--
າຊ--
າຊາຍ--
າຍ--
າຍກ--
າຍຂ--
າຍຂອງ--
າຍຂະ--
າຍຄ--
າຍຈ--
າຍຈະ--
າຍຈາກ--
າຍຊ--
າຍຕ--
າຍທ--
າຍທອດ--
າຍທະ--
າຍທຳ--
າຍນ--
າຍບ--
າຍປ--
າຍພະ--
າຍມ--
າຍມະ--
າຍມາຈາກ--
າຍລ--
າຍສ--
າຍສະ--
າຍຫ--
າຍອ--
າຍອອກ--
າຍແລະ--
າຍໂອນ--
າຍໃນ--
າຍໄປ--
າຍໆ--
າດ--
າດນ--
າຕ--
າຕຣ--
າຕອບ--
າຕະ--
າຕາມ--
າຖ--
າທ--
າທະ--
າທາ--
າທາງ--
າທຳມ--
ານ--
ານກ--
ານກອງໂຈ--
ານຂ--
ານຂະ--
ານຄ--
ານຄວາມ--
ານຈ--
ານຈະ--
ານຊ--
ານຊາຍ--
ານຍ--
ານດ--
ານຕ--
ານທ--
ານນາ--
ານບ--
ານປະ--
ານປະເທດ--
ານປາກ--
ານປາກທວ--
ານຜ--
ານພ--
ານພະ--
ານມາ--
ານລ--
ານວ--
ານວຍຄວາມ--
ານວນ--
ານສ--
ານສະ--
ານສາມາດ--
ານສາລ--
ານຫ--
ານຫນ--
ານຫາດ--
ານອ--
ານຮ--
ານະ--
ານະຄອນ--
ານະເຣນ--
ານາ--
ານາຍ--
ານາດ--
ານານ--
ານແລະ--
ານໂນນ--
ານໂພ--
ານໂພນ--
ານໃນ--
ານໄປ--
ານໜ--
ານໝາກ--
າບ--
າປ--
າປະ--
າປະເທດ--
າປະໂຫຍ--
າປາ--
າຝ--
າພ--
າພະ--
າພະຍາ--
າພາດ--
າພາບ--
າພາສາ--
າຟ--
າມ--
າມກ--
າມກາງ--
າມດ--
າມະກ--
າມາ--
າມາຈາກ--
າຢ--
າຢາກ--
າຣ--
າຣາຊ--
າລ--
າລະ--
າລາຍ--
າລາດຊະ--
າລາວ--
າວ--
າວກ--
າວຄ--
າວຕ--
າວທ--
າວນ--
າວພ--
າວພະ--
າວມ--
າວມະຫາ--
າວສ--
າວສານ--
າວຫາ--
າວອ--
າວອອກ--
າວອາດ--
າວະ--
າສ--
າສະ--
າສະໄໝ--
າສາ--
າສານ--
າສາມາດ--
າຫມ--
າຫລ--
າຫວຽ--
າຫາ--
າຫາກ--
າອ--
າອອກ--
າອະ--
າອາ--
າອາກາດ--
າຮ--
າຮຽ--
າຮຽນ--
າເຂ--
າເຊ--
າເທ--
າເວ--
າເສ--
າເສຍດ--
າເຫ--
າເອ--
າເອງ--
າແກ--
າແຂກ--
າແຂວງ--
າແບ--
າແພ--
າແລ--
າແລະ--
າແຮງ--
າໂດຍ--
າໂຕ--
າໂພ--
າໃຈ--
າໃດ--
າໃນ--
າໃນວຽ--
າໃຜ--
າໄຊ--
າໄທ--
າໄປ--
າໄປທ--
າໄປພ--
າໄປໃນ--
າໄຜ--
າໄພ--
າໄໝ--
າໆ--
າໜ--
າໝ--
າໝາຍ--
ຳ--
ຳກ--
ຳຂອງ--
ຳຂະ--
ຳງ--
ຳຈ--
ຳຈະ--
ຳຈາກ--
ຳຊ--
ຳຍ--
ຳຕ--
ຳຕານ--
ຳທ--
ຳທະເລ--
ຳທາ--
ຳປ--
ຳຜ--
ຳພ--
ຳມ--
ຳຢ--
ຳລ--
ຳສ--
ຳສະ--
ຳສາຂ--
ຳຫ--
ຳອ--
ຳເຊ--
ຳແລະ--
ຳໃຈ--
ຳໃນ--
ຽ--
ຽງ--
ຽງກ--
ຽງອ--
ຽນ--
ຽນກ--
ຽນທ--
ຽນມ--
ຽນແທນ--
ຽນແປງ--
ຽມ--
ຽມຂ--
ຽມຢາມ--
ຽວ--
ຽວຂ--
ຽວຂອງ--
ຽວຈາກ--
ຽວຊ--
ຽວຊານ--
ຽວທ--
ຽວພ--
ຽວສ--
ຽວຫ--
ເ--
ເກ--
ເກມ--
ເກາະ--
ເຂ--
ເຂດ--
ເຂດແດນ--
ເຄ--
ເຄາະ--
ເຈ--
ເຈຍ--
ເຈດຕະ--
ເຊ--
ເຊຍ--
ເຍ--
ເດ--
ເດຍ--
ເດນ--
ເດອະ--
ເຕ--
ເທ--
ເທດ--
ເທບ--
ເທວະ--
ເນ--
ເບ--
ເບດ--
ເບນ--
ເປ--
ເປນ--
ເພ--
ເພງ--
ເພງຊາດ--
ເພດ--
ເພາະ--
ເຟ--
ເມ--
ເມຍ--
ເຢ--
ເຣ--
ເລ--
ເລກ--
ເລຍ--
ເລດ--
ເວ--
ເວດ--
ເວນ--
ເວນຕ--
ເວລາ--
ເສ--
ເສກ--
ເສຍ--
ເສດ--
ເສດກ--
ເສສ--
ເຫດ--
ເອ--
ເອກ--
ເອກະ--
ເອສ--
ເອເຊຍ--
ເອໂຄ--
ເຮ--
ແ--
ແກ--
ແກນ--
ແກະ--
ແຂ--
ແຂວງ--
ແຄ--
ແຄນ--
ແຄມ--
ແງ--
ແຈ--
ແຊ--
ແຍກ--
ແດງ--
ແດນ--
ແຕ--
ແຕກ--
ແຖບ--
ແທ--
ແທນ--
ແນ--
ແນວ--
ແບ--
ແບບ--
ແບບຫລວງ--
ແປ--
ແປກ--
ແປດ--
ແຜ--
ແຜນ--
ແຜນການ--
ແພ--
ແພງ--
ແພດ--
ແຟ--
ແມ--
ແມນ--
ແລ--
ແລກ--
ແລງ--
ແລນ--
ແລະ--
ແລະຂ--
ແລະຄ--
ແລະຈາກ--
ແລະຊ--
ແລະທ--
ແລະທະນາຄ--
ແລະພ--
ແລະພະ--
ແລະລ--
ແລະສ--
ແລະອ--
ແລະອອກ--
ແລະເຂ--
ແລະໃນ--
ແວ--
ແສງ--
ແສນ--
ແຫ--
ແອ--
ແອນ--
ແຮ--
ແຮງ--
ແໜງ--
ໂ--
ໂກ--
ໂກຣ--
ໂກລ--
ໂຂໄທ--
ໂຄ--
ໂຄງ--
ໂຄງການ--
ໂຄຣເອ--
ໂຈ--
ໂຊ--
ໂຍ--
ໂຍນ--
ໂດ--
ໂດຍ--
ໂດຍຈະ--
ໂດຍພ--
ໂດຍພະ--
ໂດຍສ--
ໂດຍສານ--
ໂດມ--
ໂຕ--
ໂທ--
ໂທດ--
ໂທລະພາບ--
ໂນ--
ໂນມ--
ໂບ--
ໂບດ--
ໂປ--
ໂປຣ--
ໂຜ--
ໂພ--
ໂພກ--
ໂພນ--
ໂຟ--
ໂມ--
ໂມງ--
ໂຢ--
ໂຣ--
ໂລ--
ໂລກ--
ໂລດ--
ໂລຫະ--
ໂສ--
ໂຫ--
ໂອ--
ໂອກ--
ໂອນ--
ໂຮ--
ໂຮງ--
ໂຮງຮຽນ--
ໃ--
ໃຈ--
ໃຈກ--
ໃຈກາງ--
ໃດ--
ໃນ--
ໃນກ--
ໃນກະ--
ໃນການ--
ໃນຂອບ--
ໃນຂະ--
ໃນຄ--
ໃນຄວາມ--
ໃນງານ--
ໃນຈຳນ--
ໃນຕຳນ--
ໃນຖານະ--
ໃນທ--
ໃນທະ--
ໃນບ--
ໃນປະ--
ໃນພ--
ໃນພະ--
ໃນພາກ--
ໃນລ--
ໃນລອນດ--
ໃນລະ--
ໃນລະຍະ--
ໃນວຽ--
ໃນສ--
ໃນສະ--
ໃນສະໄໝ--
ໃນຫ--
ໃນອ--
ໃນຮ--
ໃນເຂດ--
ໃນເທ--
ໃນເສ--
ໃນແຜ--
ໃບ--
ໃຜ--
ໃສ--
ໄກ--
ໄຂ--
ໄຄ--
ໄຈ--
ໄຊ--
ໄຊຍະ--
ໄຊປ--
ໄດ--
ໄຕ--
ໄທ--
ໄນ--
ໄບ--
ໄປ--
ໄປຂ--
ໄປຕ--
ໄປທ--
ໄປພ--
ໄປສ--
ໄປຫາ--
ໄປອ--
ໄປຮ--
ໄປຮອດ--
ໄຜ--
ໄພ--
ໄຟ--
ໄມ--
ໄຣ--
ໄລ--
ໄລຍະ--
ໄລຍະເວລາ--
ໄວ--
ໄສ--
ໄຫລ--
ໄອ--
ໄອຍະກ--
ໄຮ--
ໄໝ--
ໆ--
໑໐--
໑໘--
໑໙--
໒໐--
໓--
໔--
໕--
໖--
໗--
໘--
໙--
ໜ--
ໜວດ--
ໜອງ--
ໜາ--
ໜາວ--
ໝ--
ໝວດ--
ໝາ--
ໝາກ--
ໝາຍ--
យ--
--0
--00
--1
--18
--2
--20
--23
--3
--4
--42
--48
--5
--6
--7
--8
--9
--90
--a
--able
--ably
--abs
--ac
--acy
--ad
--ade
--ado
--ae
--age
--ah
--ai
--ain
--ak
--aka
--al
--ala
--ald
--ale
--alk
--ally
--alogy
--als
--am
--an
--ana
--ance
--ang
--ani
--ania
--ano
--ans
--ant
--ants
--apura
--ar
--aries
--aris
--arithm
--arm
--aro
--ary
--as
--at
--ata
--ate
--ated
--ates
--atha
--ati
--atic
--ating
--ation
--ations
--ator
--atus
--au
--aw
--ax
--ay
--b
--ba
--bar
--be
--bed
--berg
--bes
--bility
--ble
--bo
--box
--bs
--bsd
--burn
--by
--c
--ca
--cal
--carya
--cat
--ce
--ced
--cel
--cent
--cer
--ch
--cht
--ci
--cies
--cinae
--cious
--ck
--cle
--co
--com
--cs
--ct
--cts
--cular
--cus
--cy
--d
--da
--dae
--day
--de
--ded
--di
--diction
--ding
--do
--dom
--ds
--dus
--dy
--e
--ea
--ean
--eau
--ec
--ection
--ed
--ee
--een
--ef
--egal
--ei
--eich
--ein
--ek
--el
--ell
--elle
--ello
--els
--en
--ence
--ened
--ening
--ens
--ensis
--ensive
--ent
--eparator
--er
--ered
--ern
--error
--ers
--ert
--ery
--es
--ese
--est
--et
--ete
--eth
--eting
--eus
--ew
--ews
--ey
--ez
--f
--fa
--feld
--ff
--ft
--ful
--g
--ga
--gas
--ge
--ged
--ger
--gh
--gi
--ging
--gna
--go
--gracht
--gram
--gs
--gton
--gua
--h
--ha
--ham
--han
--hat
--he
--hen
--hi
--hip
--hl
--hof
--hood
--how
--hs
--hu
--i
--ia
--ial
--ian
--ians
--ible
--ibly
--ic
--ica
--ical
--ice
--icle
--ico
--ics
--ict
--id
--idae
--ides
--ie
--ied
--ien
--ier
--ies
--ification
--ified
--ig
--ight
--ii
--ik
--il
--ila
--ile
--ily
--im
--ima
--iment
--in
--ina
--ine
--ing
--ings
--ini
--ino
--io
--ion
--ions
--ious
--ip
--ique
--ir
--is
--isation
--isbn
--ise
--ised
--ish
--ism
--ist
--ists
--it
--itarian
--ite
--ites
--ities
--ition
--ity
--ium
--ius
--ive
--ivity
--ix
--iya
--ization
--ize
--ized
--izing
--j
--ja
--ji
--k
--ka
--kan
--ke
--ker
--key
--ki
--kii
--kini
--kinis
--ko
--korn
--ks
--ku
--l
--la
--laos
--lar
--laris
--lat
--lay
--ld
--le
--led
--ler
--less
--ley
--li
--lia
--line
--lis
--list
--lity
--lk
--ll
--lla
--lle
--lles
--lli
--llo
--lo
--logy
--lon
--ls
--lt
--lu
--ly
--lz
--m
--ma
--man
--mas
--mb
--mble
--me
--med
--mel
--ment
--ments
--mes
--mi
--mic
--mis
--moon
--ms
--mutative
--n
--na
--nae
--nal
--name
--nary
--nberg
--nce
--ncy
--nd
--nda
--ne
--ned
--ner
--nes
--ness
--news
--ney
--ng
--ngs
--ni
--nia
--nic
--nics
--nie
--ning
--nis
--nk
--nne
--no
--ns
--nsis
--nt
--nto
--nts
--nus
--ny
--nza
--o
--oa
--od
--ogical
--ogy
--oid
--oix
--ol
--ola
--ological
--ology
--om
--on
--onal
--one
--ong
--onia
--ons
--op
--or
--ora
--ord
--ore
--origin
--ors
--os
--ot
--ots
--ott
--ous
--ov
--ow
--ows
--oy
--p
--pa
--page
--pe
--ped
--phi
--ping
--py
--q
--r
--ra
--rah
--ral
--rch
--rd
--re
--ree
--res
--rg
--ri
--ric
--ridae
--ries
--rin
--rinae
--rine
--ris
--rites
--rk
--rly
--rm
--rma
--rn
--ro
--ror
--rp
--rry
--rs
--rt
--rto
--ry
--s
--sa
--sat
--sbury
--se
--sed
--ser
--ses
--sh
--shi
--ship
--si
--sion
--sions
--sis
--sitive
--sity
--sk
--ski
--slav
--sm
--so
--son
--sors
--spect
--ss
--ssa
--st
--stein
--ster
--ston
--sts
--sub
--sy
--t
--ta
--tal
--tar
--tary
--tation
--te
--ted
--ter
--tes
--text
--th
--ti
--tic
--tics
--tide
--ties
--time
--tin
--tine
--ting
--tion
--tions
--title
--tive
--tle
--tmp
--to
--tock
--ton
--tor
--tory
--tric
--ts
--tta
--tte
--tts
--tty
--tus
--ty
--tya
--tyle
--tz
--u
--ua
--ub
--ud
--ue
--uel
--ues
--ugh
--ular
--um
--un
--ung
--up
--ur
--ura
--ure
--url
--uro
--us
--ut
--uth
--uum
--ux
--v
--va
--val
--ve
--ved
--vel
--vin
--vo
--w
--wa
--wan
--ward
--way
--west
--wire
--wn
--wood
--ws
--x
--xay
--xism
--y
--ya
--yan
--ying
--yllus
--yms
--ys
--z
--za
--ze
--zer
--zes
--zia
--zing
--zo
--zza
--zzo
--ɐ
--ʊ
--η
--ο
--ς
--а
--го
--ду
--е
--и
--ии
--к
--ки
--кии
--о
--х
--ы
--я
--і
--ก
--กต
--กบ
--กร
--กล
--กว
--กวด
--การ
--กาล
--ข
--ค
--คร
--คล
--ฆ
--ง
--งก
--งค
--งท
--งศ
--งศาน
--งส
--จ
--จน
--จร
--ฉ
--ช
--ชน
--ชนน
--ชร
--ซ
--ญ
--ฏ
--ณ
--ณส
--ด
--ดส
--ต
--ตร
--ตรง
--ตลอด
--ตว
--ถ
--ถไฟ
--ท
--ทย
--ทร
--ธ
--ธง
--ธรรม
--ธาต
--น
--นก
--นต
--นท
--นน
--นนท
--นส
--นอ
--นา
--นางสาวถ
--นาม
--นาว
--บ
--บงกชย
--บด
--บพ
--บภ
--บร
--บำบ
--บไปด
--ป
--ปฏ
--ปท
--ปน
--ปร
--ประก
--ประปา
--ประพ
--ปล
--ปลาย
--ผ
--ผม
--ผล
--ฝ
--ฝร
--พ
--พม
--พร
--พล
--ฟ
--ภ
--ภรณ
--ภา
--ภาผ
--ม
--มข
--มณ
--มต
--มน
--มบ
--มศพ
--มส
--มอ
--มา
--มาก
--มาณ
--ย
--ยต
--ยท
--ยอ
--ยา
--ยาบาล
--ยาบาลจ
--ร
--รค
--รง
--รงส
--รจ
--รณ
--รณาธ
--รต
--รม
--รรค
--รรณคด
--รรม
--รรษท
--รว
--รวง
--รส
--รอบ
--ระด
--ระท
--ระธาต
--ระราชพ
--ระว
--ระองค
--ระเจ
--ราษฎร
--ฤต
--ฤท
--ล
--ลก
--ลง
--ลงท
--ลซ
--ลล
--ลวง
--ลอด
--ละเอ
--ลาด
--ลาว
--ว
--วง
--วด
--วบค
--วม
--วร
--วรว
--วาม
--ศ
--ศร
--ษ
--ษา
--ส
--สท
--สน
--สม
--สมบ
--สมภพ
--สร
--สล
--สหพ
--ห
--หญ
--หน
--หม
--หร
--หล
--หว
--หาร
--หาว
--อ
--อก
--อง
--องบ
--องพ
--อน
--อภ
--อย
--อร
--อล
--ฮา
--ฯ
--ะ
--ะก
--ะกวดม
--ะจ
--ะด
--ะถ
--ะท
--ะน
--ะบ
--ะบบ
--ะป
--ะพ
--ะภ
--ะม
--ะย
--ะยาดำรงราชาน
--ะร
--ะล
--ะว
--ะส
--ะอ
--ะเด
--ะเบ
--ะเป
--ะเศ
--ะแม
--ะได
--ะไพ
--ะไม
--า
--าก
--ากท
--ากย
--ากให
--าค
--างธรณ
--าจ
--าช
--าชก
--าชชนน
--าชทาน
--าชน
--าชนท
--าชว
--าชอ
--าชาต
--าณ
--าณาจ
--าด
--าต
--าท
--าธ
--าน
--าบ
--าบด
--าพ
--าภ
--าม
--ามด
--ามท
--ามบ
--ามร
--ามอ
--าย
--ายจ
--าร
--ารก
--ารต
--ารถ
--ารท
--ารพ
--ารย
--ารส
--ารสน
--ารเง
--ารเล
--ารแผ
--ารได
--าล
--าว
--าวด
--าศ
--าษฎร
--าส
--าอ
--าะ
--ำ
--ำค
--ำจ
--ำท
--ำน
--ำบ
--ำร
--ำล
--ำว
--ำเน
--ำเป
--ำเร
--ำแหน
--เก
--เข
--เง
--เจ
--เฉ
--เช
--เซ
--เด
--เต
--เถ
--เท
--เทคโนโลย
--เทว
--เน
--เบ
--เป
--เฝ
--เพ
--เม
--เย
--เร
--เล
--เว
--เส
--เห
--เหน
--เอง
--เฮ
--แก
--แข
--แต
--แบ
--แบนด
--แผ
--แม
--แร
--แล
--แสง
--แสดง
--แห
--แอฟร
--โต
--โลก
--โลย
--ใคร
--ใจ
--ใช
--ใด
--ใต
--ใน
--ในป
--ในพ
--ในร
--ใย
--ใส
--ให
--ไข
--ได
--ไทย
--ไปหร
--ไฟ
--ไม
--ไว
--ไห
--ๆ
--๐
--๑
--๒
--๓
--๓๖
--๔
--๔๑
--๕
--๕๘
--๖
--๖๒
--๖๙
--๗
--๘
--๙
--ກ
--ກກ
--ກຂ
--ກຄ
--ກຈ
--ກຊ
--ກຍ
--ກດ
--ກຕ
--ກຖ
--ກທ
--ກນ
--ກບ
--ກປ
--ກມ
--ກຣ
--ກລ
--ກວ
--ກວມ
--ກສ
--ກຫ
--ກອ
--ກອກ
--ກອງທ
--ກອຍ
--ກອນ
--ກອບກ
--ກຮ
--ກະຊ
--ກະດ
--ກະຕ
--ກະບ
--ກະລ
--ກະລາໂຫມ
--ກະສ
--ກະເລ
--ກາ
--ກາງ
--ກາງຄ
--ກາງທ
--ກາງເວ
--ກາຍ
--ກາດ
--ກາຕ
--ການ
--ການກ
--ການຂ
--ການຄ
--ການຈ
--ການຊ
--ການດ
--ການຕ
--ການຖ
--ການທ
--ການນ
--ການບ
--ການປ
--ການພ
--ການລ
--ການວ
--ການສ
--ການຫ
--ການາດາ
--ການເຄ
--ການເມ
--ກາລ
--ກຳ
--ກຳປ
--ກຳມ
--ກຳລ
--ກຳແພງເພ
--ກຳໜ
--ກຽນຢາງ
--ຂ
--ຂວ
--ຂວາ
--ຂອງ
--ຂອງກ
--ຂອງຂ
--ຂອງຄ
--ຂອງຈ
--ຂອງຊ
--ຂອງຍ
--ຂອງຕ
--ຂອງຖ
--ຂອງທ
--ຂອງນ
--ຂອງບ
--ຂອງປ
--ຂອງຜ
--ຂອງພ
--ຂອງພະພ
--ຂອງພາກພ
--ຂອງມ
--ຂອງຣ
--ຂອງລ
--ຂອງວ
--ຂອງສ
--ຂອງຫ
--ຂອງອ
--ຂອງຮ
--ຂອງເຂ
--ຂອງເງ
--ຂອງເຕ
--ຂອງເມ
--ຂອງເລ
--ຂອງແຕ
--ຂອງໂຮຈ
--ຂອງໄທ
--ຂະຈ
--ຂະແມ
--ຂາ
--ຂາຍ
--ຂາດທ
--ຂາວ
--ຂາໜ
--ຂຽນ
--ຄ
--ຄຣ
--ຄລ
--ຄວ
--ຄວບຄ
--ຄວາມຄ
--ຄວາມງາມ
--ຄວາມຮ
--ຄອບຄ
--ຄອມພ
--ຄອມມ
--ຄະດ
--ຄະນ
--ຄາ
--ຄາດທະກ
--ຄານ
--ຄາຣ
--ຄຳ
--ຄຳມ
--ຄຳວ
--ຄຳສ
--ຄຳເວ
--ຄຳແຫງ
--ງ
--ງກ
--ງຂ
--ງຄ
--ງຈ
--ງຊ
--ງດ
--ງຕ
--ງທ
--ງນ
--ງບ
--ງຜ
--ງພ
--ງຟ
--ງມ
--ງຢ
--ງລ
--ງວ
--ງສ
--ງຫ
--ງອ
--ງຮ
--ງານ
--ງາມສ
--ງຳ
--ງແລ
--ງໄມ
--ຈ
--ຈະ
--ຈະດຳເນ
--ຈະຕ
--ຈະຖ
--ຈະບ
--ຈະປ
--ຈະຜ
--ຈະພ
--ຈະມ
--ຈະລ
--ຈະສ
--ຈະຫ
--ຈະເປ
--ຈະເຢ
--ຈະເລ
--ຈະໃຊ
--ຈາກ
--ຈາກຄ
--ຈາກຈ
--ຈາກຕ
--ຈາກຕຳແໜ
--ຈາກທ
--ຈາກຣ
--ຈາກລ
--ຈາກສ
--ຈາກອ
--ຈາທ
--ຈຳ
--ຈຳກ
--ຈຳນວນ
--ຈຳປາສ
--ຈຳພ
--ຈຳໜ
--ຊ
--ຊທ
--ຊະຊ
--ຊະນ
--ຊະວ
--ຊະສ
--ຊາ
--ຊາຍ
--ຊາດ
--ຊາດນ
--ຊາວຈ
--ຊາວຍ
--ຊາວໄທ
--ຊາເດ
--ຍ
--ຍກ
--ຍຄ
--ຍຈ
--ຍຊ
--ຍຕ
--ຍທ
--ຍນ
--ຍບ
--ຍຜ
--ຍພ
--ຍມ
--ຍລະມ
--ຍວ
--ຍຫ
--ຍຫາຍ
--ຍອ
--ຍອງ
--ຍອມຮ
--ຍະ
--ຍາ
--ຍາງ
--ຍາຈ
--ຍາດແຍ
--ຍາປ
--ຍາມ
--ຍາມຊ
--ຍາມຕ
--ຍາວ
--ຍາສ
--ຍເຂ
--ຍໃຈ
--ດ
--ດກ
--ດຄ
--ດຈ
--ດຈຳນ
--ດຊ
--ດດ
--ດຕ
--ດຕະບ
--ດຖ
--ດຖະກ
--ດທ
--ດນ
--ດບ
--ດປ
--ດຜ
--ດພ
--ດມ
--ດຢ
--ດຣ
--ດລ
--ດວ
--ດສ
--ດຫ
--ດອ
--ດອກຈ
--ດອນ
--ດອນນ
--ດຮ
--ດາ
--ດາມ
--ດາວ
--ດຳ
--ດຳລ
--ດຳເນ
--ດຽວ
--ດຽວກ
--ດແຫ
--ດໄທ
--ດໜ
--ຕ
--ຕຣ
--ຕອນ
--ຕອນກາງ
--ຕອນປາຍ
--ຕະກ
--ຕະຖານ
--ຕະນາວສ
--ຕະຫ
--ຕາ
--ຕາມທ
--ຕາເວ
--ຕຳບ
--ຖ
--ຖກ
--ຖນ
--ຖະແຫ
--ຖະໜ
--ຖາ
--ຖາທ
--ຖາບ
--ທ
--ທລະກ
--ທອງ
--ທະມ
--ທະວ
--ທາ
--ທາງ
--ທາງຊ
--ທາງດ
--ທາງທ
--ທາງວ
--ທາງອ
--ທາງໜ
--ທາດ
--ທຳ
--ທຳອ
--ນ
--ນກ
--ນຂ
--ນຄ
--ນຈ
--ນຊ
--ນຍ
--ນດ
--ນຕ
--ນທ
--ນນ
--ນບ
--ນຜ
--ນພ
--ນຢ
--ນລ
--ນວ
--ນສ
--ນຫ
--ນອ
--ນອກ
--ນອງ
--ນະ
--ນາ
--ນາງ
--ນາຊ
--ນາຍ
--ນານ
--ນານາຊາດ
--ນາມ
--ນຳ
--ນຳລ
--ນຳອ
--ນຳເຂ
--ນຳໃຊ
--ນເມ
--ນໄວ
--ບ
--ບກ
--ບຄ
--ບຈ
--ບຍ
--ບດ
--ບຕ
--ບທ
--ບນ
--ບບ
--ບປ
--ບພ
--ບມ
--ບຢ
--ບລ
--ບວ
--ບສ
--ບອ
--ບຮ
--ບາງກອກ
--ບາງຢ
--ບາງສ
--ບາງເຂນ
--ບານ
--ບາລ
--ບແບ
--ບໆ
--ປ
--ປປ
--ປອກຕ
--ປະ
--ປະກ
--ປະກວດຄ
--ປະກອບດ
--ປະຄ
--ປະຈ
--ປະຊ
--ປະຊາຊ
--ປະຊາທ
--ປະຍ
--ປະດ
--ປະຕ
--ປະຖ
--ປະທ
--ປະພ
--ປະມານ
--ປະລ
--ປະສ
--ປະຫວ
--ປະເທດ
--ປະເວດ
--ປາ
--ປາກ
--ປາຍ
--ປານກາງປະມານ
--ປາປ
--ປາມ
--ປາລ
--ຜ
--ຜະລ
--ຜະສ
--ຜາສ
--ຝ
--ຝຣ
--ຝະຣ
--ຝະລ
--ຝາດ
--ຝາຜະໜ
--ພ
--ພຣ
--ພຣະປຣາງຄ
--ພຣະພ
--ພຣະອ
--ພຣະເຈ
--ພວກເຂ
--ພວນ
--ພະຍ
--ພະນ
--ພະບ
--ພະບາງ
--ພະພ
--ພະມ
--ພະລ
--ພະວ
--ພະສ
--ພະອ
--ພະເຈ
--ພະເພ
--ພາ
--ພາກສ
--ພາຍ
--ພາຍໃຕ
--ພານ
--ພາບ
--ພາບພ
--ພາລ
--ພາວະສ
--ພາສ
--ພາສາອ
--ພຽງ
--ຟ
--ຟຣ
--ຟອດ
--ຟອສຊ
--ມ
--ມກ
--ມຈ
--ມຊ
--ມຕ
--ມທ
--ມນ
--ມປ
--ມຝ
--ມມ
--ມລ
--ມວ
--ມສ
--ມຫ
--ມອ
--ມອນ
--ມຮ
--ມະນ
--ມະຫາວ
--ມະເຫສ
--ມາ
--ມາກ
--ມາຈ
--ມາຍ
--ມາດ
--ມາຕ
--ມາທ
--ມານ
--ມາຢ
--ມາລ
--ມາສ
--ມາຫ
--ມາຮ
--ມາເປ
--ມາໃຫ
--ມຽນມາ
--ມເຊ
--ມເດ
--ມໜ
--ຢ
--ຢາ
--ຢາກ
--ຢາກນ
--ຣ
--ຣຊ
--ຣຍ
--ຣຕ
--ຣນ
--ຣມ
--ຣອນ
--ຣະ
--ຣະດ
--ຣະທ
--ຣະພ
--ຣະວ
--ຣະສ
--ຣະອ
--ຣະເຈ
--ຣະເຢຊ
--ຣາ
--ຣາຊ
--ຣາດ
--ຣາວ
--ລ
--ລດ
--ລທ
--ລນ
--ລລ
--ລວງ
--ລວງນ
--ລວງພະບາງ
--ລວງວຽງຈ
--ລວງຫລາຍ
--ລວດ
--ລວມ
--ລອດ
--ລະ
--ລະດ
--ລະບ
--ລະຫວ
--ລາ
--ລາກ
--ລາຊ
--ລາຍ
--ລາຍລ
--ລາຍຮ
--ລາດ
--ລາຕ
--ລາທ
--ລານ
--ລາມ
--ລາຣ
--ລາວ
--ລາວທ
--ລາວອ
--ລາອ
--ລາຮ
--ລາແຕ
--ລຳ
--ລຳດ
--ລຳນ
--ລຳພ
--ວ
--ວກ
--ວກກ
--ວກຕ
--ວກທ
--ວກນ
--ວກປ
--ວກມ
--ວກລ
--ວກເຂ
--ວກເຮ
--ວຄ
--ວງ
--ວງຈ
--ວງອາທ
--ວງໜ
--ວຍ
--ວຍງາມ
--ວດ
--ວດກາ
--ວດຄ
--ວດດ
--ວດຮ
--ວທ
--ວນ
--ວນຊ
--ວນລ
--ວນສ
--ວນຫ
--ວບຄ
--ວມ
--ວມກ
--ວມຊ
--ວມຕ
--ວມພ
--ວມມ
--ວມເຂ
--ວມເຖ
--ວມເອ
--ວສ
--ວະ
--ວະດ
--ວະດາ
--ວະພ
--ວາ
--ວາຍ
--ວານ
--ວາມ
--ວາມຄ
--ວາມຊ
--ວາມດ
--ວາມຕ
--ວາມທ
--ວາມນ
--ວາມບ
--ວາມຜ
--ວາມພ
--ວາມມ
--ວາມລ
--ວາມວ
--ວາມສ
--ວາມສຳພ
--ວາມຮ
--ວາມເຂ
--ວາມເຊ
--ວາມເປ
--ວາມເຫ
--ວຽງຈ
--ສ
--ສງ
--ສນ
--ສມ
--ສວ
--ສອງ
--ສອງຝ
--ສະ
--ສະກ
--ສະຕ
--ສະນ
--ສະບ
--ສະບານ
--ສະມ
--ສະມາຄ
--ສະມາຊ
--ສະວ
--ສະສ
--ສະຫ
--ສະຫຍາມ
--ສະຫວ
--ສະຫະລ
--ສະເໝ
--ສະໄໝໃໝ
--ສະໜ
--ສະໜາ
--ສາ
--ສາກ
--ສາງ
--ສາດ
--ສານ
--ສານບ
--ສາພ
--ສາມ
--ສາມຊ
--ສາມຫ
--ສຳ
--ສຳຄ
--ສຳນ
--ສຳລ
--ສຳຫ
--ສຳເລ
--ສຽງ
--ຫ
--ຫຍ
--ຫນ
--ຫມ
--ຫລ
--ຫລາຍ
--ຫລາຍຂ
--ຫວ
--ຫວຽດນາມ
--ຫອຍ
--ຫະລ
--ຫາ
--ຫາກ
--ຫາທ
--ຫານ
--ຫາວ
--ອ
--ອກ
--ອກກ
--ອກຈ
--ອກດ
--ອກທ
--ອກບ
--ອກພ
--ອກວ
--ອກຫາ
--ອກຮ
--ອກເດ
--ອກເມ
--ອກເລ
--ອກແກ
--ອກໂຕດ
--ອກໄປ
--ອກໄມ
--ອງ
--ອງກ
--ອງກຳລ
--ອງຂ
--ອງຄ
--ອງຄວາມຕ
--ອງຈ
--ອງຊ
--ອງຊາດ
--ອງຍ
--ອງດ
--ອງຕ
--ອງທ
--ອງນ
--ອງບ
--ອງປ
--ອງປະເທດ
--ອງປະເທດໄທ
--ອງຜ
--ອງຝ
--ອງພ
--ອງຟາກຝ
--ອງມ
--ອງລ
--ອງວ
--ອງສ
--ອງຫ
--ອງອ
--ອງຮ
--ອງເຕ
--ອງເສ
--ອງເຮ
--ອງແຜ
--ອງໄຮ
--ອຍ
--ອຍຕ
--ອຍນ
--ອຍເຖ
--ອດ
--ອດກ
--ອດຂ
--ອດຍ
--ອດນ
--ອດພ
--ອດລ
--ອດລະຫ
--ອດວ
--ອດເມ
--ອດໄພ
--ອນ
--ອນຈ
--ອນດອນ
--ອນຕ
--ອນທ
--ອນນ
--ອນບ
--ອນຢ
--ອນວ
--ອນສ
--ອນເສ
--ອນໜ
--ອບ
--ອບກ
--ອບຄ
--ອບດ
--ອບຖ
--ອບທ
--ອບນ
--ອບປະຊາທ
--ອບຟ
--ອບມ
--ອບວ
--ອບສ
--ອບຮ
--ອບເວ
--ອບເສ
--ອບໂຕ
--ອບໃຫ
--ອຟ
--ອຟຕ
--ອມ
--ອມພ
--ອມມ
--ອມຮ
--ອຣ
--ອລລ
--ອອກ
--ອອກຢ
--ອອນລາຍ
--ອະຍ
--ອະດ
--ອະທ
--ອະນ
--ອະປ
--ອະພ
--ອະເມລ
--ອາ
--ອາຊ
--ອາຍ
--ອາທ
--ອານ
--ອານາຈ
--ອາຣ
--ອາລ
--ອາວ
--ອາຫ
--ອາຫານ
--ອາເມລ
--ອາໄສຢ
--ອຳນວຍຄວາມສະດວກແກ
--ອຳເພ
--ຮ
--ຮອດຈ
--ຮອນດ
--ຮອບດ
--ຮຳ
--ຮຽນ
--ຮຽບຮ
--ຯ
--ະ
--ະກ
--ະກວດ
--ະກວດມ
--ະກອນ
--ະກອບ
--ະກອບກ
--ະກອບດ
--ະກອບມ
--ະກອບສ
--ະກອບອາຊ
--ະກອບຮ
--ະກະສ
--ະກາດ
--ະກາດຍ
--ະກາດສ
--ະກາດໃຫ
--ະການ
--ະການທ
--ະການປ
--ະການສ
--ະກຳ
--ະກຳກ
--ະກຽມ
--ະຂ
--ະຄ
--ະຄອນ
--ະຄອນນ
--ະຄອນສ
--ະຄອນຫ
--ະງ
--ະຈ
--ະຊ
--ະຊວງ
--ະຊວງປ
--ະຊວງສ
--ະຊາກອນ
--ະຊາຊ
--ະຊາຍ
--ະຊາດ
--ະຊາທ
--ະຍ
--ະຍະຫ
--ະຍາ
--ະຍາຍາມເຮ
--ະຍາດ
--ະຍາໄທ
--ະດ
--ະດວກ
--ະດວກດ
--ະດາ
--ະຕ
--ະຕະບອງ
--ະຕະວ
--ະຕາບ
--ະຕຳໜ
--ະຖ
--ະຖະ
--ະຖານ
--ະຖານທ
--ະຖາບ
--ະຖາປ
--ະທ
--ະທານ
--ະທານປະເທດ
--ະທານາທ
--ະທຳ
--ະທຳທ
--ະທຳຜ
--ະນ
--ະນະ
--ະນະຕ
--ະນະທ
--ະນະນ
--ະນະບ
--ະນະຜ
--ະນະສ
--ະນະເລ
--ະນາ
--ະນາຂ
--ະນາຄ
--ະນາຄານ
--ະນາສ
--ະບ
--ະບອຕ
--ະບາ
--ະບາດສ
--ະບຽບກ
--ະປ
--ະປະຕ
--ະຜ
--ະພ
--ະພານ
--ະພານສ
--ະພາບແວດລ
--ະພາສ
--ະພາແຫ
--ະຟ
--ະມ
--ະມວນຜ
--ະມະລ
--ະມາຄ
--ະມາຊ
--ະມານ
--ະຢ
--ະຣ
--ະຣາງກ
--ະລ
--ະລະບ
--ະລະສ
--ະລາຈ
--ະລາຊະຊ
--ະລາຍ
--ະລາດ
--ະວ
--ະວະ
--ະວະກາດແຫ
--ະວາ
--ະວາຍ
--ະວາລະວະດ
--ະສ
--ະສະຫລ
--ະສາດ
--ະສານ
--ະຫ
--ະຫງ
--ະຫຍ
--ະຫຍາຍຕ
--ະຫຍາມ
--ະຫນ
--ະຫມ
--ະຫລ
--ະຫລາດ
--ະຫວ
--ະຫວາມ
--ະຫະພ
--ະຫະຣ
--ະຫະລ
--ະຫາກະສ
--ະຫາຊ
--ະຫາຍ
--ະຫາດເລ
--ະຫານ
--ະຫານຊ
--ະຫານຝຣ
--ະຫານຢ
--ະຫາວ
--ະຫາສ
--ະຫາສະໝ
--ະຫາອ
--ະອ
--ະອາດ
--ະຮ
--ະເກ
--ະເຂ
--ະເຄ
--ະເຈ
--ະເຊ
--ະເຍ
--ະເດ
--ະເຕ
--ະເທ
--ະເທດ
--ະເທດກ
--ະເທດຈ
--ະເທດຊາດ
--ະເທດຕ
--ະເທດທ
--ະເທດຝຣ
--ະເທດລາວ
--ະເທດອ
--ະເທດໄດ
--ະເທດໄທ
--ະເນ
--ະເນຣ
--ະເບ
--ະເປ
--ະເປນ
--ະເພ
--ະເພດ
--ະເພນ
--ະເພາະ
--ະເມ
--ະເມຣ
--ະເມລ
--ະເຢຊ
--ະເຣ
--ະເລ
--ະເລຈ
--ະເລຊ
--ະເລເໜ
--ະເວ
--ະເວດ
--ະເວດສ
--ະເສ
--ະເສດ
--ະເຫ
--ະເຫລ
--ະເຫສ
--ະເອ
--ະເຮ
--ະເໜ
--ະເໝ
--ະແກ
--ະແດງ
--ະແດງດ
--ະແດງທ
--ະແດງປະຕ
--ະແດງຜ
--ະແດງຫ
--ະແດງອ
--ະແດງຮ
--ະແຕ
--ະແມ
--ະແລ
--ະແສ
--ະແຫ
--ະແໜງການ
--ະໂມ
--ະໂມສອນ
--ະໂວ
--ະໂຫ
--ະໃຊ
--ະໃຫ
--ະໄດ
--ະໄຕປ
--ະໄໝ
--ະໄໝກ
--ະໄໝຕ
--ະໄໝທ
--ະໄໝນ
--ະໄໝພ
--ະໄໝລ
--ະໄໝສ
--ະໄໝໃໝ
--ະໜ
--ະໜອງ
--ະໜາ
--ະໝ
--າ
--າກ
--າກກ
--າກຂ
--າກຄ
--າກຈ
--າກຊ
--າກດ
--າກຕ
--າກຕາເວ
--າກຖ
--າກທ
--າກນ
--າກບ
--າກຜ
--າກຝ
--າກພ
--າກຢ
--າກລ
--າກວ
--າກສ
--າກອ
--າກອນ
--າກຮ
--າກາດ
--າກເຊ
--າກເດ
--າກເປ
--າກເລ
--າກເຫນ
--າກເໜ
--າກແມ
--າກແຫ
--າກໃຕ
--າຂ
--າຂາ
--າຄ
--າຄຣ
--າຄາ
--າຄານ
--າຄານທ
--າງ
--າງກ
--າງກອກ
--າງກະປ
--າງການເງ
--າງການເມ
--າງຂ
--າງຄ
--າງຄະວ
--າງຈ
--າງຊ
--າງຍ
--າງດ
--າງຕ
--າງຕອນເໜ
--າງຕາເວ
--າງທ
--າງທະເລ
--າງນ
--າງນາ
--າງບ
--າງບອນ
--າງປະຫວ
--າງຜ
--າງຝ
--າງພ
--າງພາກຕາເວ
--າງພາກເໜ
--າງພາກໃຕ
--າງມ
--າງລ
--າງວ
--າງສ
--າງຫ
--າງອ
--າງອາກາດ
--າງຮ
--າງເໜ
--າງແຄ
--າງໃຕ
--າຈ
--າຈານ
--າຊ
--າຊະກ
--າຊະການ
--າຊະການທ
--າຊະຊ
--າຊະດຳເນ
--າຊະທານ
--າຊະບ
--າຊະພ
--າຊະຣະວ
--າຊະລ
--າຊະວ
--າຊະສ
--າຊະສຳນ
--າຊະຫະລ
--າຊະອ
--າຊະອາຍາຄ
--າຊະອານາຈ
--າຊາ
--າຊາດ
--າຊາທ
--າຊາພ
--າຊຽນ
--າຍ
--າຍກ
--າຍການ
--າຍການທ
--າຍການບ
--າຍຄ
--າຍງານ
--າຍດ
--າຍຕ
--າຍຖ
--າຍທ
--າຍນ
--າຍນອກ
--າຍບ
--າຍປ
--າຍຝ
--າຍພ
--າຍຢ
--າຍລ
--າຍວ
--າຍສ
--າຍສຳຄ
--າຍຫ
--າຍຮ
--າຍາ
--າຍເປ
--າຍເລ
--າຍໃຕ
--າຍໄດ
--າດ
--າດກ
--າດຂ
--າດຄ
--າດຊ
--າດຍ
--າດດ
--າດຕ
--າດຕະກ
--າດຖ
--າດທ
--າດທະກ
--າດນ
--າດນຳໃຊ
--າດບ
--າດປ
--າດຜ
--າດພ
--າດພະນ
--າດມ
--າດຢ
--າດລ
--າດລະວ
--າດລາວ
--າດວ
--າດສ
--າດສະໜາພ
--າດຫ
--າດຫວ
--າດອ
--າດຮ
--າດາ
--າດເກ
--າດເຈ
--າດເດ
--າດເບ
--າດເມ
--າດເລ
--າດເຫ
--າດເຮ
--າດແບ
--າດແຫ
--າດໃຊ
--າດໃຫ
--າດໜ
--າຕ
--າຕາ
--າທ
--າທສ
--າທອນ
--າທາລະນະ
--າທາລະນະລ
--ານ
--ານກ
--ານຂ
--ານຂະຫຍາຍຕ
--ານຄ
--ານຄວບຄ
--ານຄາດທະກ
--ານຈ
--ານຈຳກ
--ານຊ
--ານຍ
--ານດ
--ານດາ
--ານດຳເນ
--ານຕ
--ານຖ
--ານທ
[...]
