!
"
#
##0
##1
##10
##11
##12
##13
##14
##15
##16
##17
##18
##19
##2
##20
##21
##22
##23
##24
##25
##26
##27
##28
##29
##3
##30
##31
##32
##33
##34
##35
##36
##37
##38
##39
##4
##40
##41
##42
##43
##44
##45
##46
##47
##48
##49
##5
##50
##51
##52
##53
##54
##55
##56
##57
##58
##59
##6
##60
##61
##62
##63
##64
##65
##66
##67
##68
##69
##7
##70
##71
##72
##73
##74
##75
##76
##77
##78
##79
##8
##80
##81
##82
##83
##84
##85
##86
##87
##88
##89
##9
##90
##91
##92
##93
##94
##95
##96
##97
##98
##99
$
%
&
'
(
)
*
+
,
-
.
/
0
00
000
0000
0001
0003
001
002
002553
003
004
005
006
007
008
009
01
010
011
014
015
02
02281
03
033
0362
04
05
056
06
060
07
070
0783
08
080
09
1
10
100
1000
1001
1002
1003
10050
1007
1008
101
1012
1013
1016
1017
102
103
1038
104
105
1058
106
1062
107
108
1080
1083
10862
1089
109
1093
1099
11
110
1100
111
1111
112
1125
1126
113
1136
114
1146
115
116
117
1177
1179
118
119
1199
12
120
1200
121
1211
1215
122
1220
1224
1225
123
1231
1233
124
125
126
127
128
1280
129
1299
13
130
1300
1305
131
132
133
1336
134
135
1351
136
1365
137
1371
138
139
1399
14
140
1400
1405
141
1413
142
143
144
1440
1442
1444
1447
145
146
1460
1463
1466
1467
147
1475
148
1480
1482
1485
1489
149
1490
1491
1492
1493
1494
1499
15
150
1500
1502
1503
1504
1508
1509
151
1510
1512
1515
1516
1517
1519
152
1520
1521
1522
1523
1525
1526
153
1530
1531
1532
1533
1534
1535
1536
1537
154
1540
1542
1543
1544
1545
1546
1547
1549
155
1550
1551
1552
1553
1554
1555
1556
1557
1558
1559
156
1560
1561
156224
1563
1564
1565
1567
1569
157
1570
1571
1572
1573
1574
1575
1576
1577
1578
1579
158
1580
1581
1582
1583
1584
1585
1586
1587
1589
159
1590
1591
1592
1593
1594
1595
1596
1597
1598
1599
16
160
1600
1601
1602
1603
1604
1605
1606
1607
1608
1609
161
1610
1611
1612
1613
1614
1615
1616
1617
1618
1619
162
1620
1621
1622
1623
1624
1625
1626
1627
1628
1629
163
1630
1631
1632
1633
1634
1635
1636
1637
1638
1639
164
1640
1642
1643
1644
1645
1646
1647
1648
1649
165
1650
1651
1652
1654
1655
1656
1658
1659
166
1660
1661
1662
1663
1664
1665
1666
1667
1668
1669
167
1670
1671
1672
1673
1674
1675
1676
1677
1678
1679
168
1680
1681
1682
1683
1684
1685
1686
1687
1688
1689
169
1690
1691
1692
1693
1694
1695
1696
1697
1698
1699
17
170
1700
1701
1702
1703
1704
1705
1706
1707
1708
1709
171
1710
1711
1712
1713
1714
1715
1716
1717
1718
1719
172
1720
1721
1722
1723
1724
1725
1726
1727
1728
1729
173
1730
1731
1732
1733
1734
1735
1736
1737
1738
1739
174
1740
1741
1742
1743
1744
1745
1746
1747
1748
1749
175
1750
1751
1752
1753
1754
1755
1756
1757
1758
1759
176
1760
1761
1762
1763
1764
1765
1766
1767
1768
1769
177
1770
1771
1772
1773
1774
1775
1776
1777
1778
1779
178
1780
1781
1782
1783
1784
1785
1786
1787
1788
1789
179
1790
1791
1792
1793
1794
1795
1796
1797
1798
1799
18
180
1800
1801
1802
1803
1804
1805
1806
1807
1808
1809
181
1810
1811
1812
1813
1814
1815
1816
1817
1818
1819
182
1820
1821
1822
1823
1824
1825
1826
1827
1828
1829
183
1830
1831
1832
1833
1834
1835
1836
1837
1838
1839
184
1840
1841
1842
1843
1844
1845
1846
1847
1848
1849
185
1850
1851
1852
1853
1854
1855
1856
1857
1858
1859
186
1860
1861
1862
1863
1864
1865
1866
1867
1868
1869
187
1870
1871
1872
1873
1874
1875
1876
1877
1878
1879
188
1880
1881
1882
1883
1884
1885
1886
1887
1888
1889
189
1890
1891
1892
1893
1894
1895
1896
1897
1898
1899
19
190
1900
1901
1902
1903
1904
1905
1906
1907
1908
1909
191
1910
1911
1912
1913
1914
1915
1916
1917
1918
1919
192
1920
1921
1922
1923
1924
1925
1926
1927
1928
1929
193
1930
1931
1932
1933
1934
1935
1936
1937
1938
1939
194
1940
1941
1942
1943
1944
1945
1946
1947
1948
1949
195
1950
1951
1952
1953
1954
1955
1956
1957
1958
1959
196
1960
1961
1962
1963
1964
1965
1966
1967
1968
1969
197
1970
1971
1972
1973
1974
1975
1976
1977
1978
1979
198
1980
1981
1982
1983
1984
1985
1986
1987
1988
1989
199
1990
1991
1992
1993
1994
1995
1996
1997
1998
1999
2
20
200
2000
2001
2002
2003
2004
2005
2006
2007
2008
2009
201
2010
2011
2012
2013
2014
2015
2016
2017
2018
2019
202
2020
2021
2022
2025
203
2030
204
205
206
207
208
209
2099
21
210
2100
211
212
213
214
215
216
217
218
219
22
220
2200
221
222
223
224
225
226
227
228
229
23
230
231
232
233
234
235
236
237
238
239
24
240
2400
241
242
243
244
245
246
247
248
249
25
250
2500
251
252
25231543
253
254
255
256
257
258
259
2599
26
260
2600
261
262
263
264
265
266
267
268
269
27
270
271
272
273
274
275
276
277
278
279
28
280
2800
281
282
283
284
285
286
287
288
289
29
290
291
292
293
294
295
296
297
298
299
2999
3
30
300
3000
301
302
303
304
305
306
307
308
309
31
310
3100
311
312
313
314
315
316
317
318
319
3199
32
320
3200
321
322
323
32371574
324
325
326
327
328
329
33
330
3300
331
332
333
334
335
336
337
338
339
3399
34
340
3400
341
342
343
344
345
346
347
348
349
34962
35
350
3500
35062
351
352
353
354
355
356
357
358
359
36
360
3600
361
362
363
364
365
366
367
368
369
37
370
371
372
374
375
376
377
379
3799
38
380
3800
381
384
385
388
389
39
390
3900
392
393
394
395
396
399
4
40
400
4000
401
403
404
405
406
407
41
410
412
413
414
415
416
417
418
419
42
420
421
423
425
426
427
429
43
430
4300
431
4331
434
435
436
438
4399
44
440
4400
444
445
446
45
450
4500
451
454
455
456
459
46
460
4600
462
464
465
468
469
47
470
471
473
475
479
48
480
481
486
49
490
4900
491
492
493
495
498
5
50
500
5000
501
503
504
507
51
510
5100
511
512
517
52
520
5200
523
525
527
53
530
531
532
537
538
54
540
544
545
547
549
55
550
552
555
56
561
563
564
566
567
568
57
570
57075
571
58
581
586
59
590
592
594
595
6
60
600
6000
603
61
610
62
620
621
625
627
63
630
632
639
64
640
65
650
652
66
660
662
664
665
666
667
669
67
670
674
675
68
680
683
684
685
688
69
691
695
697
7
70
700
7000
701
702
704
705
71
710
711
7148
718
72
7228486
7229
725
726
729
73
730
733
734
737
74
743
744
745
74972
75
750
757
76
765
77
776
777
78
780
79
8
80
800
801
802
808
81
810
814
815
817
82
828
83
84
843
85
850
86
869
87
876
879
88
887
89
891
9
90
900
900624
905
907
91
915132
92
925
926952
9279
93
94
940
943910
95
950
95468
9580383
96
960
968
97
970
971
9775954
978
9780307474575
98
980
981
989409187
99
999
:
;
<
=
>
?
@
\
^
_
`
a
aa
aabang
aabante
aabot
aaboton
aabuso
aacta
aadal
aadalan
aadbokasiya
aagi
aagihan
aagom
aain
aaklas
aako
aakto
aalap
aalok
aalsa
aalto
aambag
aamund
aan
aandam
aandorog
aani
aapi
aaplikar
aapod
aapon
aapud
aapudon
aaram
aarhus
aarne
aaron
aaronikong
aarte
aarts
aasa
aasahang
aasikaso
aasin
aatake
aataman
aatender
aatendir
aatubang
aawit
aayog
aayos
ab
aba
abaa
abaca
abacus
abad
abadi
abaga
abai
abaka
abakada
abakadang
abakanowicz
abakelia
abakus
abala
aban
abandona
abandoned
abang
abangan
abaniko
abante
abatan
abaw
abay
abaya
abayari
abbas
abbe
abbey
abbot
abbott
abbottabad
abby
abc
abcnews
abd
abdel
abdeslam
abdon
abdul
abdullah
abe
abel
abell
abella
abellana
abellen
abenida
aber
aberdeen
abidjan
abigail
abilidad
abiso
abkat
abkhazia
ablated
ablation
able
abner
abo
aboard
abogada
abogado
abogadong
abogasiya
abogasya
abohon
abolition
aboloyan
abong
aboriginal
aborigines
aborihinal
aborlan
aborsyon
abortion
abortions
abot
aboton
about
above
aboyabos
abra
abraham
abramovitz
abrams
abrantes
abrasion
abril
abroad
abruzzo
abs
absolute
absoluto
absolutong
abstract
abstraksyon
abstraktong
abu
abucay
abueva
abugida
abukado
abukadong
abukay
abuloy
abunda
abundance
abundang
abundante
abundanteng
abuse
abuso
abusong
abut
abuyog
abv
abyador
ac
acade
academia
academic
academy
acaya
accademia
accent
accepted
access
accessed
accessories
accident
accommodation
accomplishments
according
account
accountancy
accountant
accounting
accounts
accra
accreditation
ace
aceh
acehnese
acerca
aces
acetate
acetic
acetylene
acevedo
achieve
achievement
achievements
achkar
acholi
aci
acid
acids
acker
acm
acme
acosta
acoustic
acre
acres
across
act
acta
acting
action
activa
active
activism
activist
activists
activities
activity
acton
actor
actors
actress
actresses
acts
acute
acutis
ad
ada
adal
adalan
adam
adams
adamson
adan
adaptar
adaptasyon
adaptation
adapted
adarna
adbentura
adbertismo
adbokasiya
addams
added
additional
address
ade
adela
adelaar
adelaida
adelaide
adelborg
adelphi
adem
adenium
adeva
adha
adi
ading
adios
adjective
adjunct
adlaw
adler
admin
administrador
administrar
administrasyon
administratibo
administratibong
administration
administrative
administrator
admiral
admired
adnu
adobo
adobong
adolescent
adolf
adolfo
adolphe
adoptar
adopted
adorada
adore
adorna
adorno
adrados
adres
adrian
adriana
adriano
adrienne
ads
adto
adult
adulto
adultong
adults
advaita
advanced
advancement
adventist
adventure
adventures
advertisement
advertising
advice
adviser
advisor
advisory
advocacy
advocate
advocates
adyong
ae
aegean
aeolian
aere
aerial
aeronautical
aeronautics
aeropuerto
aeropwerto
aerosol
aesthetic
aesthetics
aeta
af
afar
affair
affairs
affandi
afghan
afghanistan
afonso
afp
afrancia
africa
african
afro
afrojack
after
aftermath
afternoon
ag
aga
agad
again
against
agan
agang
agapito
agar
agata
agatha
agaton
agave
agaw
agawon
agbayani
agda
agdangan
age
agencies
agency
agenda
agent
agents
ages
agglutinative
agham
agi
agid
agihan
agihang
agil
agila
agimadmad
agimat
aging
agit
agitan
aglipay
aglipayano
agnes
agni
agno
agnus
ago
agom
agoman
agomon
agon
agoncillo
agoo
agos
agosto
agrangay
agrarian
agraryo
agreement
agresibo
agri
agricultural
agriculture
agrikultura
agrikultural
agroforestry
agta
agu
agua
aguada
aguak
aguay
aguila
aguilar
aguilera
aguinaldo
aguirre
agulhas
agung
agus
agusan
agusti
agustin
agustino
agustinong
agutaya
agutaynen
agyat
ah
ahan
ahaus
ahe
ahedres
ahensia
ahensya
ahensyang
ahente
ahkam
ahmad
ahmadinejad
ahmed
ahmedabad
ahu
ahura
ai
aiba
aicelle
aid
aida
aide
aids
aiko
aim
aims
ain
ainu
air
aircraft
aire
aires
airlines
airplay
airport
airports
ais
aise
aishwarya
aiza
aizu
aizuchi
aj
ajay
ajuy
ak
aka
akademie
akademiko
akademikong
akademiya
akademya
akala
akan
akashic
akb
akbar
akbayan
ake
akean
akeng
akhmatova
aki
akin
aking
akit
akita
aklan
aklanon
aklas
aklat
ako
akong
akoon
akreditasyon
akriliko
aksaray
akselerasyon
akseptado
akses
aksesorya
aksidente
aksidenteng
aksion
aksyon
akta
aktibidad
aktibidades
aktibismo
aktibista
aktibistang
aktibo
aktibong
akting
akto
aktong
aktor
aktres
aktress
aktuwal
aktwal
aku
akusado
akusahan
akusasyon
al
ala
alaala
alab
alabama
alabang
alabat
alabel
alabes
aladdin
alag
alaga
alagad
alahas
alain
alajar
alajos
alam
alamada
alaman
alamat
alambre
alambreng
alaminos
alan
alang
alangalang
alangan
alano
alap
alarcon
alarm
alas
alaska
alata
alava
alay
alba
albania
albano
albanya
albao
albay
albayano
albert
alberta
alberto
albino
albor
albrecht
album
albums
albuquerque
alburquerque
alca
alcala
alcantara
alcaraz
alcatraz
alcedo
alcohol
alcott
aldaw
aldawan
alden
aldrich
alec
alegasyon
alegorikal
alegre
alegria
alejandra
alejandria
alejandro
alejandrong
alejo
aleksandra
alema
aleman
alemania
alemanya
aleosan
aleppo
alerhino
alerhiya
alert
alerto
alessandra
alessandro
alex
alexa
alexander
alexandra
alexandre
alexandria
alexis
alfabeto
alfaro
alfelor
alfon
alfonso
alfred
alfredo
algae
algebra
algeria
algerian
algerya
algiers
algorithm
algoritmo
alhebra
ali
alias
alibaba
alibangbang
alicante
alice
alicia
alien
aliens
alif
alighieri
align
alignbars
alimbubuyog
alimodian
alindog
aling
alingan
alintoto
alipatikong
alisngaw
alison
alisto
alistong
alitoktok
alive
aliw
aliwalas
alix
aljazeera
alkade
alkalde
alkano
alkeno
alkimiya
alkino
alkohol
alkoholiko
alkoholikong
alkyl
all
alla
allah
allan
allegations
allegiance
allegra
allen
allergy
alley
alliance
allied
allison
allium
allmusic
alloy
allure
alma
almagro
almanac
almanaque
almario
almeda
almirante
almost
alms
alo
alois
aloisio
alok
alolonti
alon
alona
alone
along
alonso
alonzo
alopoop
alor
alosa
aloy
aloyooy
alpa
alpabeto
alpabetong
alpha
alphabet
alpine
alpog
alps
als
alsa
alsang
also
alsom
alt
alta
altamirano
altar
altavas
alternatibo
alternatibong
alternative
although
altitud
alto
alu
alumaad
alumahad
aluminium
alumino
aluminum
alumna
alumni
alumnus
alunan
alunsina
alvar
alvarado
alvarez
alvin
always
alya
alyado
alyansa
alyansang
alyas
alzheimer
alzona
am
ama
amaan
amadeo
amadeus
amado
amalia
amamatak
amanda
amando
amang
amantine
amaon
amar
amarante
amateur
amay
amaya
amayon
amazing
amazon
ambag
ambaguio
ambala
ambassador
ambassadors
amber
ambeth
ambisyon
ambisyoso
ambisyosong
ambo
ambon
ambos
ambrosio
ambuklao
ame
amelia
amen
amendment
america
american
americana
americans
americas
amerika
amerikana
amerikanang
amerikang
amerikano
amerikanong
ami
amid
amienda
amiga
amigo
amigong
amigos
amihan
amihanan
amihanang
amilbangsa
amin
amina
aming
amino
amir
amis
ammad
amman
ammonia
amnayan
amnesia
amnestiya
amnesty
amo
amoc
among
amonya
amor
amore
amores
amorsolo
amos
amot
amparo
ampas
ampatuan
ampiteatro
ampon
ampoyon
amrita
ams
amsterdam
amung
amusement
amy
amyo
an
ana
anacardiaceae
anaconda
anahaw
anahawan
anak
anal
analisa
analisar
analisis
analitikal
analog
analysis
analyst
analyte
analytical
anamaot
anan
anao
anarchist
anas
anastasia
anatomikal
anatomiya
anatomy
anaya
ancestral
ancestry
ancheta
anchor
anciano
ancient
and
anda
andalusia
andam
andaman
andaya
anders
andersen
anderson
andes
andhra
andi
ando
andong
andorog
andorra
andrada
andrade
andre
andrea
andreas
andres
andrew
andrews
andrey
anduyog
andy
anew
ang
angadanan
angan
angara
angat
angaur
angay
ange
angel
angela
angeles
angelica
angelicum
angelina
angeline
angelita
angelito
angelo
angelova
angels
anger
angers
anggot
anggoy
anggulo
anghel
angiosperm
angiosperms
angkan
angkla
angkor
angle
anglia
anglican
anglikano
anglo
angog
angola
angono
angry
angui
angulo
angustia
anhui
ani
anibersaryo
anibersaryong
anibongan
aniit
anilao
animador
animal
animals
animar
animasola
animasyon
animated
animation
animator
anime
animed
animismo
aninipot
anino
aninong
anira
anit
anita
anjanette
ankara
ankh
ann
anna
annals
annan
anne
annette
annex
annie
anning
anniversary
anno
annona
annonaceae
annotated
announced
announces
annual
annually
annurev
ano
anom
anoman
anon
anonang
anonas
anong
anonimong
anonymous
anopaman
another
anoy
ans
anson
answer
answers
ant
antabay
antarctic
antarctica
antartik
antartika
antas
ante
antena
antenna
antequera
anterior
antes
anthem
anthologized
anthology
anthony
anthosia
anthropological
anthropologist
anthropology
anti
antibodies
antigo
antigong
antigua
antiguos
antilles
anting
antioxidant
antipas
antipolo
antique
antiquity
antiseptiko
antisipasyon
anto
antoine
antoinette
antolohiya
antolohiyang
anton
antonette
antoni
antonia
antonino
antonio
antony
antropologo
antropolohiya
antunes
antwerp
anu
anum
anuman
anumang
anunsiar
anunsio
anunsyar
anunsyo
anupaman
anus
anvil
anwar
any
anyan
anyo
anyono
anyos
ao
aoba
aomori
aoqun
ap
apa
apache
apacible
apalit
aparato
aparatong
aparri
apartheid
apartment
apat
apayao
ape
apec
apek
apektado
apektadong
apela
apelar
apelasyon
apelyido
apelyidong
apesar
apg
apgan
apganistan
aphra
api
apil
apis
apisar
apisyon
apl
aplaya
aplikado
aplikante
aplikar
aplikasyon
apo
apod
apodon
apog
apolinar
apolinario
apollo
apolo
apolonio
apon
apoon
aporon
apostasya
apostle
apostles
aposto
apostol
apostoles
apostolic
apostoliko
apostolikong
apothem
apoy
app
appeal
appeals
appear
appearance
appearances
appeared
appears
appendix
apple
apples
applet
applicants
application
applications
applied
appointed
appointment
appointments
appraisal
apprentice
approach
approaches
appropriations
approximately
apr
aprika
aprikang
aprikano
aprikanong
april
apro
aprobado
aprobar
apt
apud
apudan
apudon
apuera
apwera
apyan
aq
aqa
aquacult
aquaculture
aquarium
aquatic
aque
aquila
aquilino
aquinas
aquino
ar
ara
arab
arabe
arabia
arabian
arabic
arabiko
arable
arabo
arabong
arabot
arabya
araceli
arado
arafat
aragats
aragoman
aragon
arahit
arak
arakan
araki
arakian
aram
araman
aramigo
aramon
aran
arana
aranas
aranda
araneta
arang
aranghita
arapodan
araram
ararat
aratilis
araullo
araw
arawan
arayat
arblay
arbor
arc
arcangel
arce
arch
archaeological
archaeology
archaic
archangel
archdiocese
archer
archimedes
archipelago
architect
architects
architectura
architectural
architecture
archival
archive
archived
archives
archiviniana
archivio
archivo
arcilla
arctic
ardalan
ardalani
ardea
are
area
areas
areca
areglado
areglo
arejola
arellano
arena
arestar
arestaron
aresto
arevalo
arezzo
argao
argentina
argentine
argon
arguelles
arguilla
argument
argumento
arhentina
ari
aria
ariana
arias
ariel
arin
arina
aringay
arinman
aripompon
arista
aristocrat
aristokrasiya
aristokrata
ariston
aristotle
arit
aritao
arithmetic
aritmetika
ariwaga
arizona
arjuna
ark
arkanghel
arkansas
arkeologo
arkeolohikal
arkeolohiko
arkeolohikong
arkeolohiya
arkibo
arkidiosesis
arkila
arkipelago
arkipelagong
arkitekto
arkitektong
arkitektura
arkitektural
arkitekturang
arkiyolohiya
arko
arkong
arktiko
arlene
arlequin
arlington
arm
armada
armadas
armado
armadong
armando
armani
armas
armed
armenia
armenian
armenta
armenya
armi
armida
arms
armstrong
army
arn
arnaldo
arndt
arnis
arnold
arnulfo
aro
aroaldaw
aroalsang
arog
arogan
arogon
arok
aromatic
aromatikong
arong
aroroy
around
arquette
arquitectura
arranged
arrest
arrested
arrival
arrow
arroyo
arroz
ars
arsenal
arseniko
arsenio
arsobispado
arsobispo
art
arta
arte
arteche
artemio
artemisia
arteng
artes
artha
arthritis
arthropod
arthur
artiaga
article
articleid
articles
artifacts
artifak
artifaks
artificial
artigas
artikulo
artikulong
artipisyal
artis
artiscorpus
artist
artista
artistang
artistic
artistiko
artistikong
artists
artnet
artocarpus
arts
artsakh
arturo
aru
arug
arugon
aryan
aryanismo
aryl
as
asa
asahi
asak
asal
asamblea
asambliya
asan
asap
asasinar
asasinasyon
asawa
asay
asayti
asba
asbp
ascap
asean
asembliya
asensadong
asenso
aserbayhan
aserbayhani
asero
aseron
aserong
asetiko
ash
asher
ashgabat
ashley
ashram
asi
asia
asian
asiatic
asiaweek
asiawise
asidikong
asido
asidong
asignatura
asikaso
asimov
asin
asinan
asingan
asinta
asiong
asis
asista
asistensya
ask
askad
asked
askenasi
asli
aslian
asliyano
asmat
asn
asno
aso
asociacion
asog
asoge
asosasyon
asosyado
asosyar
asp
aspect
aspects
aspekto
aspergillus
aspeto
aspirin
aspx
ass
assad
assam
assange
assassin
assassination
assault
assembly
assemblyman
assessment
asset
assets
assis
assise
assisi
assistance
assistant
associate
associated
associates
association
associations
assumption
assurance
asta
astatino
aster
asteraceae
asterids
asteroid
asteroyd
asthma
astig
astra
astrazeneca
astrid
astrologo
astrolohiya
astrolohiyang
astronaut
astronauta
astronomers
astronomical
astronomikal
astronomiko
astronomikong
astronomiya
astronomo
astronomong
astronomy
asturias
asukar
asul
asuncion
asupre
asura
asusangan
aswang
asya
asyang
asyano
asyanong
asylum
asymmetric
asymmetrical
at
ata
atabay
atake
atakeng
ataman
atamanan
atamanon
atanas
atang
atas
atay
atayal
atayaliko
atayan
atbp
ate
ateismo
atelier
atenas
atender
atendir
atendiran
ateneo
atension
atensyon
ateo
atharvaveda
athena
athens
athlete
athletes
athletic
athletics
ati
atid
atienza
atihan
atimonan
ating
atis
atitud
atkins
atkinson
atlanta
atlantic
atlantiko
atlantis
atlas
atleta
atletang
atm
atman
atmospera
atmosperang
atmosperiko
atmosperikong
atmospheric
atms
atok
atol
atoll
atom
atomic
atomiko
atomikong
atomo
atong
atop
atot
atraksyon
atras
atsara
atta
attack
attend
attendant
attorney
attributed
atty
atubang
atubangan
atubangon
atulayan
au
auckland
auction
audience
audio
audiovisual
audition
auditor
auditorium
audre
audrey
auer
auf
aug
augsburg
august
augusta
auguste
augustine
augustinian
augustinians
augusto
augustus
aung
aunor
aunt
aur
aura
aurelio
aureus
auring
aurora
aurore
aus
austen
austin
australasia
australia
australian
australya
australyano
australyanong
austria
austrian
austriano
austriya
austriyanong
austro
austroasiatic
austroasyatiko
austronesian
austronesyano
austronesyo
austronesyong
author
authored
authorities
authority
authors
auto
autobiographer
autobiographical
autobiography
autobiograpiya
autobot
autobots
automated
automatikong
automotive
autonomiya
autonomo
autonomong
autonomous
autonomy
autoportrait
autor
autoridad
autumn
aux
auxiliary
av
avaaz
available
avant
avatar
ave
avec
avel
aveling
avelino
avellana
avenida
avenue
average
averrhoa
avery
avesta
avi
aviation
aviator
avid
avila
avinyo
aviv
avon
avonlea
avril
aw
awa
awad
awan
awang
award
awarded
awardee
awardees
awards
awareness
awat
away
awit
awlo
awto
awtonomong
awtor
awtoridad
awtorisadong
axis
axon
axons
ay
aya
ayala
ayam
ayan
ayaw
ayen
aymara
ayodhya
ayog
ayon
ayos
ayre
ayta
aytem
ayuda
ayuno
ayurveda
ayutthaya
az
azerbaijan
azerbaijani
azeri
aziz
aznar
aztec
azucena
azul
b
ba
baad
baak
baao
baay
baba
babae
babaeng
babag
babai
babaing
babangon
babar
babasahon
babayaan
babaye
babayeng
babayi
babaying
babaylan
babe
babilonya
baboy
babu
babuyan
babuza
baby
babylon
bac
bacacay
bacall
bacarra
bacayawan
bach
bachelor
bachiller
back
backed
background
backs
baclagon
baclayon
bacnotan
bacolod
bacolor
bacon
bacong
bacoor
bacteria
bacudio
bacungan
bad
bada
badan
badas
baden
badi
badian
badiang
badiangan
badil
badiola
badminton
bado
badoc
badong
badoon
bados
baduya
badyet
bae
baek
baeta
bafta
bag
baga
bagac
bagacay
bagalamukhi
bagaman
bagamanoc
bagang
baganga
baganuur
bagas
bagay
bagbag
baggao
baghdad
baghdadi
bago
bagoaingud
bagobo
bagohon
bagol
bagong
bagoong
bags
bagsak
bagsik
bagua
baguhan
baguhon
baguio
bagumbayan
bagus
bagyo
bagyong
baha
bahag
bahaghari
bahala
bahamas
bahasa
bahay
bahia
bahrain
bahura
bai
bailey
baill
bain
bais
baja
bajac
bajau
bajaw
bajo
baka
bakahan
bakal
bakalan
bakalon
bakante
bakanteng
bakasyon
bakawan
baker
bakilid
baking
bakit
bakla
bako
bakong
baktas
bakterya
baku
bakun
bakuna
bakwit
bakya
bal
bala
balabac
balabag
baladhay
balagbag
balagon
balagtas
balakid
balalong
balamban
balance
balang
balanga
balangao
balangaw
balanghayan
balangiga
balangkas
balanse
balaoan
balaog
balares
balas
balasan
balatan
balatas
balatong
balaw
balay
balayan
balbalan
balce
balde
baldwin
bale
balenciaga
balensiyang
baler
balete
bali
balian
balibago
balido
balidong
baligang
balik
baliktad
baliktadon
balili
balimbing
balindong
balines
balinese
balingasag
balinghoy
balinsasayao
balintawak
balintong
balisong
balita
balite
baliuag
baliw
balkan
balkans
balkh
ball
ballad
ballade
ballerina
ballesteros
ballet
balmain
balo
balodbod
balogo
balon
balong
balos
baltazar
baltic
baltikong
baltimore
baltog
balud
balugo
balukag
balungao
balut
balyena
balyo
balyong
bam
bama
bamban
bambang
bambi
bambino
bamboo
bampira
ban
bana
banaag
banaba
banal
banana
bananafish
banarsidass
banate
banaue
banawe
banban
bancal
banco
band
banda
bandai
bandala
bandalang
bandang
bandar
bandaranaike
bandera
banderang
bandido
bandung
bandwidth
bang
banga
bangalore
bangaon
bangbang
banggai
banggi
bangging
bangin
bangka
bangkal
bangkay
bangkete
bangko
bangkok
bangkong
banglades
bangladesh
bangladeshi
bangladesi
bangon
bangot
bangraw
bangs
bangsamoro
bangued
bangui
banguingui
bangus
banhi
bani
banig
banilad
banisilan
banjar
banjares
bank
banker
banking
banko
banks
banner
banos
bansa
bansag
bansalan
banta
bantam
bantamweight
bantay
bantayan
bantayog
banten
bantik
banto
bantog
bantogan
banton
bantu
bantug
bantugan
banwa
banwaan
banwang
banwaon
banyagang
banyumasan
bao
baog
bap
bapor
baptism
baptist
baquiran
bar
bara
barabas
barack
barahibo
barakalan
baram
barang
barangay
barangays
baranggay
barangka
baranovsky
baras
barasoain
barat
barato
baratong
barayan
baraylehan
barayti
barba
barbacena
barbados
barbara
barbarella
barbaro
barbaza
barbell
barbian
barbier
barbo
barbuda
barcelona
barcelonita
bare
bareta
baretang
bargain
barias
baril
barili
barita
barito
barium
barkada
barker
barko
barkong
barlig
barlin
barmm
barnard
barnes
barnhart
baro
barobata
barobo
baroko
barokong
baron
baroness
barong
barongbarong
barongis
baroque
barotac
baroto
barotong
baroy
barra
barrack
barrameda
barre
barrel
barrera
barrett
barretto
barrio
barrios
barros
barry
bars
barsa
barset
bartolome
bartolomeo
barton
bartossik
baru
barugo
baruto
barya
baryant
baryante
baryasyon
baryente
baryenteng
baryo
barzani
bas
basa
basado
basag
basaha
basahan
basahon
basak
basal
basang
basap
basay
basbas
basco
base
baseball
based
basehan
basehang
basel
bases
basey
bashar
bashir
basic
basics
basil
basilan
basilica
basilika
basilio
basin
basis
basista
basket
basketball
basketbol
basko
basmayor
baso
basong
basque
bass
bassano
bassi
basta
bastanteng
bastian
bastida
basud
basura
basurahan
basurang
basyang
bat
bata
bataan
batac
batad
batag
batak
batalan
batalay
batalya
batalyon
batan
batanes
batang
batangan
batangas
bataniko
bataraza
batas
batasan
batasang
batavia
batay
batayan
batbat
batch
batchelor
batchoy
bateau
baterya
bates
bath
bathala
baths
batik
batikano
batikanong
batis
batman
bato
batong
batsiler
batsilyer
battalion
battambang
battery
batthya
battista
battle
batu
batuan
batuta
bau
bauan
baudouin
bauer
bauhaus
bauko
baumanis
bautista
bavaria
bawa
bawah
bawal
bawang
bawat
baxandall
baxter
bay
baya
bayaan
bayabao
bayabas
bayad
bayadan
bayag
bayambang
bayan
bayanan
bayang
bayani
bayanihan
bayaw
bayawan
bayawas
baybay
baybayin
baybayon
baybayong
bayle
bayleng
bayli
baylon
bayog
bayoko
bayombong
bayong
bayugan
bazaar
bazar
bazille
bb
bbc
bboom
bc
bce
bcl
bd
bdo
be
bea
beach
beacon
beam
bean
beans
bear
beard
beast
beat
beata
beatles
beaton
beatrice
beatriz
beats
beau
beautiful
beauty
beauvoir
beaux
bebe
bec
became
because
beck
becker
becky
become
becomes
becoming
bed
beda
bedford
bedrock
bee
beecher
beef
been
beene
beer
beers
bees
beeson
beethoven
beetle
beeton
beetons
before
beg
began
begawan
begin
beginning
beginnings
begins
begum
begun
behalf
behavior
behikulo
behikulong
behind
behn
bei
beige
beijing
being
beinte
beirut
bekati
beki
bektor
bel
bela
belardo
belarus
belen
belfry
belgian
belgium
belgrade
belhika
belief
beliefs
believe
believers
belinda
belize
belkovski
bell
bella
bellas
belle
belleza
bello
bellow
bells
belmonte
belo
belong
belosidad
beloved
below
belsky
belt
beltran
belva
ben
benazir
bench
bender
bending
bendisyon
bene
benedict
benedicta
benedictine
benedicto
benefit
benefits
benepisyo
benesuela
bengal
bengali
benghazi
bengkulu
benguet
benham
benigno
benilde
benin
benitez
benito
benjamin
benjie
bennett
benny
benois
benson
benta
bentahan
bentahe
bente
bentel
benth
bentley
bento
benz
benzene
ber
beran
berau
berba
berbal
berber
berbo
berde
berdeng
berdura
berg
berger
bergreen
beri
berkeley
berlin
berlusconi
berman
bermuda
bern
bernabe
bernadette
bernakular
bernal
bernard
bernardazzi
bernardino
bernardo
bernhard
bernie
bernstein
berruguete
berry
bersabe
bersikulo
bersion
bersiyon
bersiyong
berso
bersong
bersyon
bert
bertebrado
bertha
bertrand
berzelius
bes
besao
beses
beside
bessie
best
bestseller
bet
beta
betel
beterano
beteranong
beth
bethel
bethlehem
betlehem
betrothal
betsey
betsy
better
bettina
betty
between
beverage
beveridge
beverly
beyer
beyonce
beyond
bezos
bf
bgy
bha
bhagavad
bhagavata
bhai
bhairavi
bhakti
bhana
bharat
bhubaneswar
bhutan
bhutto
bi
bia
biag
biahe
biak
bialng
bian
bianca
bianchi
bias
biasong
bibcode
bibi
bibiano
bibingka
bible
biblia
biblical
biblikal
biblikong
bibliofilo
bibliography
bibliograpiya
biblioteca
bibliotheca
bibliya
bibliyograpiya
bibrasyon
bichara
bichiya
bickertonita
bicol
bicolana
bicolandia
bicolano
bicolanos
bicolmail
bicolnon
bicolstandard
bicutan
bicycle
bid
bida
bidang
bidayuh
biden
bidyo
bidyograpiya
bidyong
bieber
bien
biennale
biennial
bienvenido
biernes
bietnam
bietnames
bietnamita
big
biga
biggest
bigkas
bigkay
bigla
biglaan
biglaang
biglang
bignay
bigote
bihag
bihar
bihari
bihasa
bihira
bihirang
bij
bike
bikes
bikini
biklad
bikol
bikolana
bikolanang
bikolandia
bikolano
bikolanong
bikoliana
bikolista
bikolnon
bikols
biktima
bila
bilan
bilang
bilanggoan
bilangon
bilar
bilateral
bilbao
bile
bilibid
bilingual
biliran
biliranisland
bill
billboard
billiard
billie
billion
billon
billy
bilog
bilogon
bilong
bilyon
bilyonaryo
bilyonaryong
bilyones
bilyong
bima
bin
bina
binaak
binaba
binabag
binabago
binabalad
binabalehan
binabanga
binabansagan
binabantayan
binabanwa
binabasa
binabayadan
binabaybay
binadi
binadil
binading
binago
binagong
binaha
binakal
binalbagan
binali
binalihan
binalonan
binanga
binangonan
binangotan
binansagan
binantog
binary
binas
binasa
binase
binasol
binating
binawian
binay
binayaan
binayadan
bindoy
bing
bingawan
bingen
bingka
bingkay
binh
binibilang
binibilog
binibing
binibining
binibisto
binibistong
binikol
binilog
binirayan
binisaya
binisita
binisto
binistong
binmaley
bino
binomba
binomio
binomyal
binondo
bint
bintana
bintanang
bintig
bintulu
binuangan
binubo
binubuo
binuhay
binuksan
binunyagan
binutasan
binutsan
bio
biochemistry
biodibersidad
biodiversity
biografi
biografiskt
biographer
biographical
biographie
biographies
biography
biograpikal
biograpiya
biograpo
bioko
biol
biological
biology
biolohikal
biolohikong
biolohiya
biomass
bios
biosci
bioscience
biosphere
biotech
biotechnology
bird
birds
birhen
biri
birman
birmingham
biro
birol
birsa
birth
birthday
birthright
births
birtud
birus
bis
bisa
bisakol
bisau
bisaya
bisayang
bise
bisekswal
bisekswalidad
bishop
bishopric
bishops
bisikleta
bisikletang
bisinidad
bisita
bisitahon
bisitang
bislig
bison
bisperas
bissau
bista
bistado
bistadong
bisto
bistong
bistuhan
bisun
biswal
bisyo
bisyon
bit
bita
bitamina
bitbit
bitch
bitis
bitiw
bitoon
bitter
bituin
bituing
bituka
bituon
biyahe
biyaheng
biyan
biyernes
biyetnam
biyo
biyodibersidad
biyograpiya
biyokimika
biyolensya
biyolohikal
biyolohiya
biyolohiyang
biyong
biz
bj
bjo
bk
bl
bla
blaan
black
blackpink
blackwell
blade
blah
blair
blaise
blake
blanca
blanchard
blanche
blanco
blancoi
blas
blazing
bldg
blench
blend
blessed
blessing
bleu
blg
blica
blick
blights
blind
bliss
block
blockbuster
blocks
blog
blogger
blogging
blogosphere
blogs
blogspot
bloke
blonde
blood
bloody
bloom
bloomberg
bloomfield
bloomington
bloomsbury
blossoms
blow
bltx
blu
blue
blues
bluetoth
blume
blumentritt
blusa
blust
blvd
bly
bm
bmg
bmi
bmj
bmjgh
bn
bnf
bo
boa
boac
board
boarding
boat
boayes
bob
bobby
bobis
bobon
boca
bocaue
bocelli
bodega
bodek
bodies
bodra
body
bodyguard
boeing
boeken
boer
bofill
bog
boga
bogaletch
bogdanov
bogkos
bogo
bogota
bogtong
bohe
bohol
boholano
bohr
boiled
bois
boiss
bok
bokabularyo
bokal
bokalista
bokassa
bokasyonal
boklit
boklod
bokod
boksing
boksingero
boksyador
bol
bola
bolaang
bolang
bolango
bolaven
bold
boli
bolibya
bolinao
boliney
bolivar
bolivia
bollettino
bollingen
bollywood
bolo
bolod
bologna
bolong
bolos
bolsonaro
bolt
bolton
boluntad
boluntaryo
boluntaryong
bolyum
bom
bomb
bomba
bombang
bombay
bomberai
bombing
bombo
bombon
bombs
bon
bonan
bonaparte
bonbon
boncodin
bond
bondarenko
bondoc
bondurant
bone
bones
bonet
bong
bonga
bongabon
bongabong
bongao
bongat
bongbong
bongkokan
bonheur
bonifacio
bonn
bonnet
bonnevie
bonnie
bonoan
bontoc
bontok
bonus
booc
boogie
book
booker
books
bookshop
bookstore
bool
boom
boost
boot
booth
boots
bopha
boque
boracay
borbon
bord
bordado
bordeaux
border
borders
boris
borja
borlagdan
borlongan
born
bornean
borneano
borneo
boro
borol
boron
borongan
borotohan
borromeo
bosco
bose
boses
bosnia
bosnya
boss
bossa
boston
bot
bota
botanic
botanical
botanika
botanikal
botaniko
botanist
botanista
botante
botany
bote
boteng
both
boti
botika
boto
botohan
botolan
botong
botswana
bottle
bottom
bouayach
bougainvillea
boulder
boulevard
bound
boundary
bourke
boutique
bowen
bowl
bowling
box
boxer
boxes
boxing
boxrec
boy
boyd
boyfriend
boyle
boyod
boys
boyz
bp
bpi
bps
br
bra
brackishwater
brad
bradley
braga
bragais
brahma
brahman
brahmi
brahmin
brahms
braille
brain
brainstem
branch
branches
brand
brandeis
brando
brandon
brands
bras
brasil
brasilenyong
brasilia
brasilianong
braso
bratislava
braun
braunschweig
brave
bravo
braz
brazil
brazilian
bread
break
breaker
breakfast
breaking
breakthrough
breathe
bree
breech
breed
breeding
breeze
breis
bremer
brenda
brendan
breslau
breuning
breva
breve
brewer
brewery
brewing
brewster
brgy
bri
brian
bridal
bride
bridge
bridges
bridget
brief
briefs
brien
brigada
brigadier
brigham
bright
brigitte
brill
brilliant
brine
bring
briones
brisbane
bristol
brit
britain
britania
britaniko
britannica
britano
britanya
british
britney
briton
brittany
bro
broad
broadcast
broadcaster
broadcasting
broadway
brochure
brocka
brodie
brodkast
brodkaster
broken
brokenshire
bromina
bronse
bronseng
bronson
bronte
bronx
bronze
broodstock
brook
brooke
brooklyn
brooks
bros
brother
brotherhood
brothers
brown
browne
bru
bruce
brullov
brundtland
brunei
bruno
brunswick
brush
brussels
brutal
brutsa
bryan
bryant
bryophylum
bs
bsa
bsc
bsp
bts
bu
bua
buadi
bual
bualan
buan
buaya
buayan
bubi
bubong
buboy
bucal
bucana
bucay
bucharest
bud
buda
budapest
buddha
buddhism
buddhist
budding
buddy
budget
budha
budhismo
budhista
budismo
budista
buen
buena
buenasuerte
buenaventura
buenavista
buencamino
buendia
buenos
bufete
buffalo
buga
bugallon
bugasong
bughaw
bugho
bugis
bugkon
bugkos
bugnay
bugo
bugoy
bugs
bugtak
bugtong
buguias
buhangin
buhawi
buhay
buhayon
buhi
buhid
buhinon
buhis
buhok
build
builder
builders
building
buildings
builds
built
buk
buka
bukal
bukaneg
bukang
bukas
bukasan
bukid
bukidnon
bukidon
bukit
buklod
buko
bukod
bukol
buksan
bul
bula
bulacan
bulaga
bulahan
bulak
bulaklak
bulala
bulalacao
bulalakaw
bulalo
bulan
bulanan
bulang
bulanos
bulatlat
bulaw
bulawan
bulawang
bulbol
bulbul
bulgaria
bulgarian
bulgariya
bulgaro
bulgarong
bulgarya
bulger
buli
bulig
bulkan
bulkang
bulkaniko
bulkanikong
bulkanolohiya
bull
bullet
bulletin
bullock
bullones
bullring
bulnerabilidad
bulnerable
bulo
bulod
bulong
bulos
bulsa
bulto
buluan
bulul
bulusan
bum
bumagsak
bumalik
bumalyo
bumblebee
buminaba
buminagsak
buminalik
buminalyo
bumper
bun
bunawan
bunay
bunch
bundok
bunescu
bung
bunga
bungag
bungahan
bungalow
bungang
bunganga
bungku
bungo
bungog
bunny
bunot
buntolan
bunun
bunyagan
buod
buong
buot
bura
burabod
buradol
burak
burat
burauen
burberry
burda
burdeos
burdett
bureau
burenhult
burgas
burger
burgos
burgundy
buri
burial
burias
buried
buring
burj
burke
burkina
burma
burmese
burnett
burney
burnham
burning
burns
buro
burol
burr
burton
buru
buruanga
burundi
burunyog
bus
busal
busan
busay
busby
buscalan
buscayno
bush
business
businessmirror
buskay
busquets
bustamante
buste
busto
bustos
busuanga
but
buta
butan
butanding
butbut
butig
butler
buto
buton
butones
butong
butte
butter
butterfly
button
butuan
butuanon
buug
buwan
buwawi
buwaya
buwis
buy
buyo
buyod
buzz
bwakaw
bwelo
bworldonline
by
byahe
byaheng
bye
byernes
byetnam
byng
byodibersidad
byolin
byrne
byron
byzantine
bɑ
c
ca
caaguihan
caba
cabadbaran
cabadiangan
cabagan
caballero
caballo
cabalquinto
cabanatuan
cabanbanan
cabangahan
cabangan
cabangcalan
cabangon
cabaroan
cabarroguis
cabaruan
cabasaran
cabatuan
cabbage
cabeza
cabiao
cabiles
cabinet
cable
cabo
caboloan
cabral
cabrera
cabugao
cabulihan
cabunga
cabusao
cabuyao
cacao
caceres
cadayonan
caddy
cadiz
cadmium
cadran
cady
caesar
cafe
cagayan
cagayancillo
cagdianao
cage
cagsawa
cai
caibiran
caihou
cain
cainito
cainta
cairo
cajidiocan
cake
cal
calabanga
calabarzon
calabria
calaca
calalily
calamba
calanasan
calaocan
calapan
calape
calatagan
calatrava
calauag
calauan
calayan
calbayog
calbiga
calcium
calculation
calculator
calculus
calcutta
caldera
caldero
cale
caledonia
calendar
calendariong
cali
calida
calif
california
caligula
calin
calinan
calinog
calintaan
caliphate
call
callao
calle
called
calleja
calling
calls
caloco
caloocan
caloy
caltex
calubian
calumpang
calumpit
calungsod
caluya
calvario
calvin
calycanthaceae
cam
camacho
camagay
camalig
camaligan
camambugan
camanga
camansi
camara
camarines
camarinezoom
cambodia
cambodian
cambridge
came
camelot
cameo
camera
cameron
cameroon
camfed
camiguin
camila
camiling
camilla
camille
camilo
camino
cammeraygal
camotes
camp
campaign
campain
campana
campbell
campesina
campo
campos
camps
campus
camsur
camus
can
canaan
canaanitas
canada
canadian
canal
canaman
canaway
canberra
cancer
candaba
candelaria
candidate
candidates
candijay
candon
candy
cane
cang
caniogan
canlaon
canlubang
cannes
cannon
cano
canon
cantabria
cantada
canteen
canterbury
cantilan
canto
canton
cantonese
cantor
canuto
canvas
canyon
canzone
cao
caoayan
cap
capacity
capalonga
capas
cape
capellan
capita
capital
capitalism
capitalist
capitan
capitol
capiz
capiznon
capote
cappella
capri
capt
captain
capture
capul
car
cara
carabao
caracas
caraga
carambola
caramoan
caramoran
cararayan
carat
carbohydrate
carbohydrates
carbon
carbonate
carbonell
carcar
card
cardiac
cardinal
cardiovascular
cardona
care
career
carey
cargo
caribbean
caridad
carigara
carin
caring
carl
carla
carles
carlin
carlo
carlos
carlota
carlton
carmel
carmela
carmelite
carmelo
carmen
carmina
carmona
carnaval
carnegie
carnival
caro
carol
carolina
caroline
carolyn
carpenter
carpenters
carpet
carpio
carr
carranglan
carrara
carrie
carrier
carrington
carrion
carroll
carry
carson
cart
carta
cartagena
carter
cartesian
cartoon
cartoonist
cartoons
caruso
carver
cary
casa
casagemas
casas
casay
case
cases
casey
cash
casiguran
casilagan
casillan
casimiro
casino
casita
casper
cassandra
cassava
cast
castan
caste
castellana
castellano
castello
castiglione
castile
castilla
castillejos
castillo
casting
castle
castro
casuarina
casureco
cat
cata
cataingan
catala
catalan
catalina
catalog
catalogo
catalogue
catalonia
catanauan
catanduanes
catanzaro
catarman
catbalogan
catch
catcher
catechu
catedral
cateel
categories
category
caterina
catharina
catharine
cathedral
catherine
catholic
cathy
caticlan
catigbian
catlin
catmon
cato
catriona
catt
cattle
catubig
cauayan
caucasus
caulfield
causa
cause
caused
cavalry
cave
cavendish
caves
cavite
cavity
cawayan
cawit
cayabyab
cayce
cayetano
cayman
cazenave
cb
cba
cbc
cbcp
cbd
cbn
cbnnews
cbr
cbs
cbsnews
cbsua
cbsuaww
cbx
cc
ccp
ccr
ccs
ccsaa
cctld
cd
cdc
ce
cea
cebu
cebuano
cecil
cecile
cecilia
cecilio
cedar
cefet
ceiba
celebes
celebic
celebrado
celebrate
celebrated
celebrates
celebrating
celebration
celebrities
celebrity
celedonio
celerio
celery
celeste
celestial
celestine
celia
celine
cell
cello
cells
cellular
cellulose
celsio
celso
celtic
cementerio
cemetery
censorship
census
centenary
centenera
centennial
center
centered
centers
central
centre
centro
centrum
centuries
century
ceo
cepa
ceq
cereal
cerebral
ceremonial
ceremony
ceres
cerruti
certain
certificate
certified
cervantes
cervical
cervix
cesar
cesareo
cesario
cetera
cf
cfda
cfm
cgi
ch
cha
chabudai
chad
chadha
chador
chadwick
chahin
chai
chaibasa
chain
chains
chair
chairman
chairperson
chairwoman
chakka
chakra
chalk
challenge
challenges
chamber
chambers
chambre
chamorro
champ
champagne
champaign
champion
champions
championship
championships
champs
chan
chance
chancellor
chancoco
chand
chanda
chandigarh
chandler
chandra
chanel
chang
change
changed
changer
changes
changi
changing
channel
chanos
chanthu
chanyeol
chaos
chap
chapel
chaplain
chapman
chapter
chapters
char
character
characteristics
characters
charcoal
charge
charges
charice
charitable
charities
charito
charity
charlemagne
charles
charleston
charlie
charlotte
charlottenburg
charm
charo
chart
charted
charter
chartered
charts
chase
chat
chatham
chatterton
chau
chavacano
chavez
chayote
che
cheap
chebi
checklist
cheer
cheese
chef
chek
chekhov
chelsea
chem
chemical
chemistry
chen
cheney
cheng
chennai
cheongsam
cher
cherie
chernobyl
chernus
cherokee
cherry
cheshire
chesler
chess
chest
chester
chestnut
chevalier
chewing
chhattisgarh
chhinnamasta
chi
chiang
chiara
chiba
chica
chicago
chicana
chick
chicken
chico
chief
chiefs
chiesa
chieti
chika
child
childhood
children
childres
childress
chile
chilean
chili
chin
china
chinatown
chinensis
chinese
ching
chino
chip
chipmunks
chipre
chips
chiranjivi
chiri
chis
chito
chiu
chiz
chloe
chloride
chlorine
cho
choco
chocolate
choi
choice
choir
choli
chong
choo
chop
chopin
chopra
choral
choreographer
chorus
chosen
chow
choy
chr
chris
christ
christenh
christi
christian
christiane
christianity
christians
christie
christina
christine
christmas
christoph
christophe
christopher
christos
christusrex
chromium
chromosome
chronicle
chronicles
chronology
chrysanthemum
chrysophyllum
chu
chua
chubanshe
chuck
chun
chung
church
churches
churchill
chuuk
ci
cia
cid
cie
cielo
cimaron
cincinnati
cinco
cinderella
cindy
cine
cinema
cineuphoria
cinnamon
cinq
cio
cipinang
cipriano
cips
circa
circle
circuit
circulation
circumnavigation
circumskripsiyon
circus
cirebon
cirujales
cit
citation
citations
cite
cited
cites
citi
cities
citizen
citizens
citizenship
citron
citrus
citta
city
cityhood
ciudad
civic
civil
civilization
cj
ck
cl
clade
clades
claim
claimed
claims
clair
claire
clam
clan
clara
clare
clarin
clarissa
clark
clarke
clarkson
claro
class
classes
classic
classical
classics
classification
claude
claudia
claudine
claudio
claus
claußen
claver
claveria
clay
cle
clean
cleaning
clear
cleartubig
clement
clemente
cleopatra
clergy
clerk
clero
cleveland
click
cliff
clifford
clige
clima
climaco
climate
climates
climax
climb
clinic
clinica
clinical
clinton
clio
clip
clitoria
clock
cloister
close
closed
closely
closer
closing
closure
cloth
clothing
cloud
clouds
club
cluj
cluster
clyde
cm
cn
cnbc
cnhs
cnn
cns
co
coach
coal
coalition
coast
coastal
coat
cobar
cobb
cobbe
cobo
cobonpue
cobra
cobras
coburg
coca
cocaine
coccinea
coching
cocktail
coco
cocoa
coconut
cocos
cod
code
codes
codex
codong
coffee
cogn
cognate
cognitive
cogon
cohen
cojuangco
coke
col
cola
cold
coldplay
cole
colegio
coleman
colette
colgante
colin
coliseum
collaboration
collaborative
collantes
collar
colle
collected
collectie
collection
collections
collective
collector
college
colleges
collegian
collegiate
collier
collins
colmenares
cologne
colombia
colombian
colombo
colon
colonel
colonia
colonial
colony
color
colorado
colored
colores
colors
colosseum
colour
columbia
columbian
columbio
columbus
column
columnist
columns
com
coma
combat
combined
combo
come
comeback
comedia
comedian
comedy
comelec
comes
comet
comfort
comic
comics
coming
command
commander
commemorative
commencement
commentaries
commentary
comments
commerce
commercial
commercially
commission
commissioner
committee
committees
common
commons
commonwealth
commune
communication
communications
communicators
communism
communist
communities
community
commuter
como
compact
compan
companies
companion
company
comparative
comparison
compendium
compete
competition
competitive
compilation
compilations
compiled
comple
complete
complex
component
components
composed
composer
composers
composition
compostela
compotier
compound
compounds
comprehensive
computational
computer
computers
computing
con
conan
concentration
concepcio
concepcion
concept
conception
concepts
concern
concerned
concerning
concerns
concert
concerto
concha
conchita
conciliar
concio
concise
concord
concordia
concrete
conde
condensation
condensed
condition
conditions
condo
conduct
conducted
cone
coney
confederado
confederation
conference
confers
confession
confidence
conflict
confucianismo
confucius
congo
congregacion
congress
congressional
congressman
conley
connecticut
connection
conner
connery
connie
connor
conquest
conrad
conscience
consciousness
consejal
conservation
conservative
conservatory
considered
consolacion
conson
consort
consortium
conspiracy
constabulary
constance
constancia
constant
constantin
constantino
constantinople
constitution
constitutional
construction
consuelo
consultant
consultation
consumer
consumption
consunji
contact
contacts
containing
contains
contemplacion
contemporary
content
contest
context
continental
continued
continuing
continuum
contra
contract
contrary
contreras
contribution
contributions
control
controversial
controversy
convection
convent
convention
convento
convergence
conversation
conversion
convex
convoy
coo
cook
cookbook
cooke
cookery
cooking
cool
cooling
coop
cooper
cooperation
cooperative
coordinating
coordination
coordinator
cop
copenhagen
copernicus
copies
copper
copy
copyright
cor
coral
corazo
corazon
corbusier
corchorus
corcuera
cordero
cordillera
cordoba
cordon
cordova
core
corella
corinto
cork
corn
cornejo
cornelia
cornelio
cornell
corner
corolla
coron
corona
coronation
coronavirus
corp
corporal
corporate
corporation
corps
corpus
corpuz
corrales
correa
corrected
corregidor
correspondence
correspondent
corridor
corruption
corte
cortes
cortez
cortot
cory
cosenza
cosmetic
cosmetics
cosmic
cosmo
cosmology
cosmopolitan
cosmos
cost
costa
costume
costumes
cotabato
cote
cotillard
cotto
cotton
coubertin
could
council
councilor
counsel
counseling
counselor
count
countdown
counted
counter
countess
counting
countries
country
countryside
county
coup
couple
courage
course
courses
court
courtesan
courtney
courts
courtyard
coutts
couture
cov
covarrubias
cove
covenant
cover
coverage
covered
covering
covers
covid
cow
cowboy
cowdery
cox
cpa
cpo
cpp
cr
crab
crabs
cradle
craft
crafts
craig
crame
cramer
crane
cranial
crash
crater
crawford
crazy
crc
cream
create
created
creating
creation
creative
creativity
credit
credited
creed
creedence
creek
creencias
creole
crescent
crest
cretaceous
crete
crew
cri
cricket
crime
crimea
crimean
crimes
criminal
cris
crisis
crisostomo
crispulo
cristiana
cristianas
cristina
cristine
cristino
cristo
cristobal
criteria
critic
critical
criticism
critics
critique
criza
croatia
croatian
crocodile
croft
cronk
cronquist
crop
cropped
crops
crosby
cross
crossing
crossover
crossroads
crotone
crow
crowd
crown
crowned
crucible
crucis
cruise
crusade
crusaders
crush
cruz
cry
crystal
cs
csc
cshsb
csiro
cstl
csur
ct
ctor
ctr
cu
cua
cuando
cuartel
cuartero
cuatrona
cuba
cuban
cubao
cubay
cube
cubism
cucumber
cucumis
cucurbitaceae
cuenca
cuenco
cuesta
cuevas
cuidad
cuisine
culasi
culinary
culion
cullen
culo
cult
cultivar
cultivars
cultura
cultural
culture
cultured
cultures
cum
cumini
cuneta
cunningham
cup
cupang
curator
cure
curie
curitiba
current
currently
curriculum
curry
curse
curtain
curtis
curtius
curva
custard
customs
cut
cuyo
cuyonon
cwlu
cyber
cybertron
cycle
cyclone
cylindrical
cynthia
cyprus
cyril
cyrillic
cyrus
cz
czech
czechoslovakia
d
da
daa
daan
daang
dabaw
dabawenyo
dacu
dad
dada
dadarahon
daddy
dadiangas
dae
daeng
daerah
daesang
daet
dag
daga
dagami
dagang
dagat
dagdag
dagdagan
dagestan
daghan
dagmang
dagohoy
dagom
dagos
dagoy
dagupan
dagya
dah
dahdouh
dahel
dahelan
dahil
dahilan
dahlia
dahon
dahong
dai
daigdig
daily
dainang
daing
daisy
dakila
dakilang
dakit
dakitaramon
dako
dakol
dakola
dakolang
dakop
dakota
daku
dakul
dakula
dakulang
dakulaon
dakulon
dakulong
dal
dalaga
dalagan
dalagang
dalaguete
dalai
dalama
dalan
dalang
dalanon
dalawa
dalawang
dalaydayan
dale
dali
dalig
dalipay
dalisay
dalit
dallas
dallwitz
daly
dam
dama
damage
damar
damas
damascus
damaso
damay
dambana
dame
dames
damian
damon
damot
damrey
damulag
damyanov
dan
dana
danao
danaw
danay
dance
dancel
dancer
dancers
dances
danchov
dancing
danes
dang
danga
dangal
dangan
danger
dangerous
dangog
danguilan
dani
daniel
daniels
danilo
danish
danlugan
dann
danny
dans
dante
dantes
danube
danyos
dao
daog
daogon
dapa
dapat
dapdap
daphne
dapit
dapitan
dar
dara
daraba
daraga
daragang
daragita
darahon
darakula
darakulan
darakulang
darakulaon
daram
daramlagon
darang
daratangan
dare
dargwa
dari
daria
dario
darjeeling
dark
darkness
darling
darlington
darna
daro
darrel
darrell
darussalam
darwin
das
dasmarin
dasol
data
databank
database
datag
date
dated
dateformat
dates
dati
datihan
dating
dato
datos
datu
dau
daughter
daughters
dauin
dauis
daum
daungan
davao
dave
davenport
david
davidson
davies
davila
davis
davy
daw
dawa
dawani
dawit
dawn
day
daya
dayaday
dayak
dayalekto
dayana
dayangdang
daydream
dayi
dayo
dayong
days
daytime
dayuhan
dayuhang
dayupot
daza
db
dc
dd
de
dea
deacon
dead
deadline
deadly
deal
dean
dear
death
deathrow
deaths
debate
debbie
debit
deborah
debosyon
deboto
debotong
debout
debrecen
debris
debut
debyu
dec
decade
decades
decapticon
december
decepticon
decision
decisions
deck
declaration
decline
deco
decorative
decree
decs
dedicated
dedikado
dedikasyon
dee
deep
deer
def
default
defeat
defeated
defence
defender
defenders
defense
defensor
deficit
define
defined
definition
definitions
degeneres
degeneriaceae
degli
degree
degrees
degri
dei
deirdre
deity
deja
dekada
dekadang
dekano
deklarasyon
dekorasyon
dekoratibong
dekreto
del
dela
delas
delavin
delaware
delegado
delegasyon
delegates
delegation
delfin
delfina
delgado
delhi
delia
delikado
delikadong
delivery
dell
della
delle
delmotte
delos
delta
dely
dem
demand
demanda
demands
demetrio
demise
demo
democracia
democracy
democratic
democrats
demograpiko
demograpiya
demoiselles
demokrasya
demokrasyang
demokrata
demokratiko
demokratikong
demolisyon
demonstrasyon
demonstration
demonyo
demonyong
dempwolff
den
dencio
deng
denge
denis
denise
denmark
dennis
denominasyon
denpasar
denr
densidad
density
dental
dentista
denver
deoxyribonucleic
departamento
department
departmento
departments
deped
depekto
depende
dependency
depensa
depinisyon
depisil
deposisyon
deposito
depot
deprecated
depression
depresyon
dept
deputadong
deputy
der
derby
derecho
derek
deretso
deretsong
deretsos
dery
des
descartes
descent
described
description
descriptions
desde
desensyo
desenyo
desenyong
deseret
desert
desierto
design
designado
designadong
designasyon
designed
designer
designers
designs
desimal
desinyo
desipulos
desire
desisyon
desk
deskripsiyon
deskripsyon
desmond
despite
despues
dessert
destierro
destinasyon
destination
destined
destino
destiny
destroyed
destruction
desyembre
desyerto
det
detachment
detail
detailed
details
detalyado
detalyadong
detalye
detective
determinado
determinasyon
determination
determined
detroit
deus
deutsch
deutsche
deux
dev
deva
developed
developer
developing
development
developmental
devi
device
devil
devils
devon
devotion
dew
dewa
dewey
dexter
dezvoltarea
dhabi
dhaka
dhana
dhanmondi
dharma
dhumavati
di
dia
diabetes
diacono
diad
diagnostic
diagram
diakono
dial
dialect
dialectology
dialects
dialekto
dialogo
dialogue
diamante
diametro
diamond
dian
diana
diane
dianne
diaries
diario
diarist
diarrhea
diary
diaryo
dias
diaspora
diaz
dibdib
dibersidad
dibersong
dibisyon
dibisyong
diborsyo
dicamay
diccionario
dick
dickinson
dickson
dicotyledons
dictator
dictionaries
dictionary
dictionnaire
did
dida
didikit
didto
die
died
diedad
diego
dientzenhofer
dies
diesel
diet
dietrich
dietz
diezmo
difference
differences
different
difficult
diffloth
diffun
diffusion
digdi
digest
digit
digital
digitized
digitus
dignidad
dignitaryo
digos
digrapo
digri
digta
diit
dikit
diklom
diksyonaryo
diksyunaryo
diksyunaryong
dikta
diktador
diktadura
diktadurya
dila
dilang
dilasag
dilausan
dilaw
dilay
dilg
dili
dilim
diliman
dilis
dill
dilma
dimaporo
dimarumba
dimasalang
dimensyon
dimensyonal
dimiao
din
dina
dinadakop
dinadara
dinadarang
dinadayo
dinaga
dinagat
dinagyang
dinailan
dinakop
dinalan
dinalupihan
dinamika
dinamiko
dinamikong
dinamita
dinamot
dinaog
dinapigue
dinara
dinastiya
dinastiyang
dineklara
diner
ding
dingalan
dingdong
dingel
dingkilan
dingle
dingras
dini
dining
dinisenyo
dinner
dinosaur
dinugangan
dinukot
dinulok
dio
diocesan
diocese
dioceses
diocesis
diogenes
diokno
dioksido
dion
dionisio
dior
dios
diosa
diosang
diosdado
diosesis
diosnon
diospyros
diot
dioxide
dipaculao
diperensia
dipisil
diploma
diplomata
diplomatiko
diplomatikong
dipolog
diputado
dir
direct
directed
direction
director
directorate
directors
directory
direksion
direksiyon
direksyon
direkta
direktang
direktiba
direktor
diretso
diretsong
diri
diringkilan
dirty
dis
disabilities
disability
disabled
disappearance
disaster
disc
discharge
disclosure
disco
discographies
discography
discograpiya
discouraged
discourse
discourses
discover
discovered
discoveries
discovery
discrimination
discusses
discussion
dise
disease
diseases
disenyo
disenyong
disertasyon
disgrasya
disguise
dish
dishes
disiplina
disiplinang
disipulo
disk
diskarte
disko
diskograpiya
diskriminasyon
diskurso
diskusyon
disney
disneyland
disorder
disorders
dispatch
dispatches
dispensasyon
dispersal
display
dispute
dissertation
dist
distal
distance
distansia
distansya
distansyang
distilasyon
distinct
distinction
distinguished
distinksyon
distinktibong
distinkto
distinktong
distribusyon
distribution
district
districts
distrito
distritong
distroso
disturbance
disyembre
disyerto
dit
dita
ditions
dito
ditsaan
ditse
diva
divergent
diverse
diversion
diversity
divine
diviner
diving
divino
division
divisions
divisoria
divorce
diwa
diwata
dixon
dixson
diyablo
diyakektong
diyakritiko
diyalekto
diyalektong
diyalektos
diyalogo
diyametro
diyan
diyaryo
diyes
diyos
diyosa
diyosan
diyosang
diyosesis
dizon
dj
djibouti
dk
dl
dla
dlsu
dm
dna
do
doble
dobleng
doc
docs
doctor
doctoral
doctorate
doctors
doctrina
doctrine
document
documentary
documentation
documents
dodekagono
doeng
does
doesn
dog
doha
doherty
doi
doid
doing
doj
doksuri
doktor
doktorado
doktoral
doktrina
doktrinang
dokumentado
dokumentadong
dokumentaryo
dokumentaryong
dokumentasyon
dokumento
dokumentong
dol
dolce
doldol
dole
doll
dollar
dollars
dolly
dolnop
dolor
dolores
dolorosa
dolot
dolphin
dolphy
dolyar
dom
domain
dome
domenico
domestic
domestiko
domestikong
dominado
dominante
dominanteng
domingo
dominic
dominica
dominican
dominikano
dominikanong
dominion
dominique
domitien
don
dona
donaire
donald
donar
donasyon
donatella
done
dong
donggon
dongo
dongon
doniger
donna
donnell
donohue
donostia
donsol
donya
doo
doodle
doon
doongan
door
doot
dope
dora
dorado
doreen
dorian
doris
dorling
dormant
dormitoryo
doro
doros
doroteo
dorothea
dorothy
dorset
dos
dose
dosenang
doseng
dosha
dospevski
dost
dot
dottie
double
doubleday
doug
douglas
dove
dover
down
download
downloads
downtown
doyle
dozois
dp
dq
dr
drabidyano
dracaena
draft
drag
dragon
dragons
drake
drama
dramachine
dramang
dramatic
dramatikong
dramatist
dramatista
drawing
drawings
drawn
drayber
dream
dreaming
dreams
dreamwave
dreamworks
dresden
dress
dressed
drew
dried
dries
drilon
drink
drinking
drive
driver
droga
drogang
drone
drop
drought
drove
drowing
drug
druga
drugs
drum
drummer
drums
druze
dry
ds
dsc
dswd
du
dua
dual
dualidad
duat
dub
dubai
dublin
dubos
duchess
duchy
duck
duda
dudurugin
due
duel
duelo
duen
duero
duet
duets
dugang
dugangan
dugo
dugoan
dugong
duhat
duihi
duke
dukha
dukhang
dukot
dula
dulag
dulaimi
dulang
dulangan
dulay
dulce
dulo
dulong
dulot
dulse
dulseng
duluhan
duma
dumagat
dumaget
dumaguete
dumalag
dumalapdap
dumalneg
duman
dumanan
dumangas
dumaran
dumarao
dumb
duminakula
duminalagan
duminulag
dumitru
dumont
dumpas
dunbar
duncan
dungan
dungo
dunong
duo
duon
duongan
duos
duot
dupaningan
dupax
dupin
duque
durabila
duran
duranta
durante
durasyon
durban
durga
durian
during
duros
durukot
durungan
dusay
dushanbe
dusk
dusok
dust
dusun
dusuniko
duta
dutch
duterte
dutta
duty
duwa
duwampulo
duwampulong
duwang
duyan
dv
dvaita
dvd
dvds
dwbs
dweck
dwight
dworkin
dwrl
dwyer
dx
dy
dyaket
dyakov
dyan
dyaryo
dyesebel
dying
dyip
dyipni
dylan
dynamic
dynamics
dynamite
dynasty
dyolin
dyos
dyurnal
dzbb
dzge
də
e
ea
each
eagle
eagles
ear
earhart
earl
earlier
early
earth
earthly
earthquake
east
easter
eastern
eastman
eastwood
easwaran
easy
eat
eating
eaton
eau
eba
ebakwar
ebakwit
ebanghelista
ebanghelyo
ebaporasyon
ebe
ebidensia
ebidensiya
ebidensiyang
ebidensya
ebolusyon
ebolusyonaryong
ebook
ebreo
ebsco
ec
echague
echo
echols
ecija
ecleo
eclipse
eclipses
eco
ecofeminism
ecol
ecole
ecological
ecology
economic
economica
economics
economist
economy
ecosystem
ecosystems
ecotone
ecuador
ecuadorian
ed
eda
edad
edades
edc
eddie
ede
eden
ederle
edgar
edgardo
edge
ediciones
edificio
edilberto
edinburgh
edipisyo
edipisyong
edison
edisyon
edit
edited
edith
editing
edition
editions
editor
editora
editorial
editors
editoryal
edmonton
edmund
edmundo
edna
edo
edp
edrad
eds
edsa
edu
eduard
eduardo
eduarte
educac
educated
education
educational
educator
edukado
edukadong
edukador
edukar
edukasyon
edukasyonal
edukasyong
edward
edwards
edwin
edyer
eedad
eeksister
eel
een
eent
eere
eerok
eerokan
eestar
eestima
effect
effective
effects
efficiency
efforts
efren
eg
egan
egg
eggs
egipto
ego
egret
egretta
egypt
egyptian
eh
ehe
ehekutibo
ehekutibong
ehemplo
ehersisyo
ehersisyong
ehipsyo
ehipto
ehiptong
ehrenreich
ei
eid
eiffel
eight
eighty
eileen
eilyn
einaudi
einer
einstein
einsteinyo
eisenhower
ej
ejecutivo
ejercito
ek
eken
eklektiko
eklesiyastikal
eknath
eko
ekolohikal
ekolohiya
ekonomika
ekonomikal
ekonomiko
ekonomikong
ekonomiks
ekonomista
ekonomiya
ekonomiyang
ekosistema
ekosistemang
ekoturismo
eksakto
eksaktong
eksamen
eksamin
eksaminar
eksaminasyon
eksegesis
eksena
eksepsyon
eksibisyon
eksibit
eksistensya
eksister
eksistido
eksistidong
eksito
eksklusibo
eksklusibong
ekskomunikado
ekspedisyon
eksperensya
eksperimental
eksperimento
eksperimentong
eksperiyensiya
eksperiyensya
eksperto
ekspertong
eksperyensia
eksperyensya
ekspidisyon
ekspiremento
eksplorador
eksplorasyon
eksponentasyon
eksport
eksportar
eksposisyon
ekspres
ekspresyon
ekstensibong
ekstensyon
ekstra
ekstraksyon
eksultasyon
ektarya
ektaryang
ekumenikal
ekwador
ekwasyon
ekwatoryal
el
elaine
elbasan
elbert
elcano
elder
elders
eleanor
elebasyon
elected
election
elections
elective
electoral
electors
electric
electrical
electricity
electrikong
electron
electronic
electronics
elehido
elehidong
eleksyon
elektorado
elektoral
elektrikal
elektriko
elektrikong
elektrisidad
elektromagnetikong
elektron
elektronika
elektroniko
elektronikong
elem
element
elemental
elementary
elementarya
elementaryang
elemento
elementong
elements
elena
elepante
elephant
elephants
elevator
eleven
eli
elia
elias
elihir
elijah
elimination
elinor
eliot
elisa
elisabeth
elise
eliseo
elisseeff
elita
elite
eliza
elizabeth
elizalde
elizan
ella
elle
ellen
elliott
ellis
ellison
elmer
elmo
elorde
elpidio
els
elsa
elsaeed
else
elsevier
elvia
elvira
elvis
ely
elyo
em
email
emancipation
embahada
embahador
embahadora
embalsamar
embassy
embera
emblem
embrace
embryo
emcee
emerald
emergence
emergency
emerging
emerhensia
emerhensiang
emerhensya
emeritus
emerson
emeterio
emi
emigrante
emigranteng
emil
emilia
emilie
emilio
emily
eminenteng
emir
emirates
emirato
emiratong
emissions
emisyon
emma
emmanuel
emmeline
emmy
emory
emosyon
emosyonal
emotions
empasis
emperador
emperor
emperyo
emperyong
emphasis
empire
empires
empleado
empleo
empleyado
empleyo
employment
emporis
emporium
empowerment
empress
emu
emv
en
encanto
encargado
encarnacion
encarta
enchantment
enchong
enck
encounter
encounters
encyclopaedia
encyclopedia
encyclopædia
end
endangered
ende
endemic
endemiko
ending
endl
endless
endorser
endorso
endowment
ends
enemigo
enemy
energy
enerhiya
enerhiyang
enero
enfant
enfranchisement
eng
engagement
enganyar
engel
engels
enggano
engine
engineer
engineering
engineers
engkwentro
engl
england
english
englishwoman
enhancement
enkwentro
enlightenment
enoch
enot
enotan
enotang
enote
enoteng
enough
enriching
enrico
enrile
enrique
enriquez
enrol
ensalada
ensayo
ensemble
ensiklopedya
ensima
entablado
enteng
enter
entero
enterong
enterprise
enterprises
entertainer
entertainment
entidad
entirong
entitled
entity
entomology
entomolohiya
entra
entrada
entrance
entre
entrega
entrepreneur
entrepreneurs
entrepreneurship
entrevista
entri
entries
entropiya
entropy
entry
environment
environmental
environmentalist
environmentalista
enzyme
ep
epektibo
epektibong
epekto
epektong
ephraim
epic
epidemic
epidemiology
epidemya
epifanio
epiko
epikong
epilogo
episcia
episcopal
episentro
episiente
episkopal
episode
episodes
episodo
episodyo
epithet
eps
equable
equador
equal
equality
equation
equator
equatorial
equilibrium
equinox
equipment
equisetifolia
equitable
equity
er
era
eran
eraserheads
erasheads
ere
erecta
eric
erica
erido
erie
erik
erika
eritrea
eritreya
erlinda
ermita
ernest
ernesto
ernie
ernst
ero
erogen
erok
erokan
eroplano
eroplanong
erotic
erotika
erotikang
error
eruption
erwin
erya
erzse
es
esa
esc
escalante
escandor
escape
escazu
escobido
escoda
escolar
escoto
escriva
escudero
escudo
escuela
esculenta
esensyal
eskalon
eskandalo
eskandyo
eskil
eskinita
eskoses
eskosya
eskritura
eskriturang
eskudo
eskuela
eskuelahan
eskultor
eskultura
eskuwelahan
eskuwelehan
eskwela
eskwelahan
eskwelahang
eskwelang
esoteric
esoterikong
esp
espada
espan
espana
espanol
espanya
espanyol
espasyo
espasyong
especially
esperanto
esperanza
espesipiko
espesipikong
espesya
espesyal
espesyalidad
espesyalisadong
espesyalisar
espesyalista
espesyalmente
espesyalmenteng
espesye
espina
espinas
espinosa
espirito
espiritu
espiritual
espirituwal
espiritwal
espisipikong
espiya
espn
esposo
esprit
espwerso
esquire
essay
essayist
essays
essence
essential
est
esta
establisa
establisar
establish
established
establishimento
establishimiento
establishment
establishments
establisyemento
estadista
estadistika
estadistikong
estado
estadong
estados
estancia
estandarte
estandarteng
estar
estaran
estasyon
estasyong
estate
estatuwa
estatwa
este
esteban
estela
estelito
esteng
ester
esther
estilo
estilong
estima
estimadong
estimasyon
estimated
estonia
estonian
estonya
estorya
estrada
estranghero
estratehikong
estratehiya
estratehiyang
estratihiya
estratobulkan
estrella
estrikto
estriktong
estrogen
estruktura
estrukturang
estudiantina
estudio
estudyante
estudyanteng
estudyo
eswatini
et
etanol
etat
etc
eter
eternal
ethanol
ethel
ether
ethernet
ethical
ethics
ethiopia
ethnic
ethnography
ethnologue
ethyl
ethylene
etika
etikal
etimolohiya
etiopia
etiquette
etniko
etnikong
etnisidad
etno
etnolingwistikong
etnologo
etsu
etsuko
etymology
etymolohiya
eu
eucalyptus
eucharistic
euclid
euclideyanong
eudicots
eufracio
euge
eugene
eugenia
eugenio
eukaristiya
eukaryotikong
euler
eulogio
eun
eunice
eunji
eunuch
euphorbiaceae
eupomatiaceae
euractiv
eurasia
eurasian
eurasya
euro
europa
europe
europea
european
europeano
europeanong
europeo
europeong
eurosids
eurotel
eusebio
euthanasia
ev
eva
evaluation
evan
evangelical
evangelista
evans
eve
evelyn
even
evening
event
events
ever
everest
everglow
everipedia
every
everybody
everyday
everyone
everything
evidence
evil
evolution
evolutionary
ex
exaltation
exam
examination
example
examples
excellence
excerpt
exchange
exclusive
executive
exercise
exhibit
exhibition
exhibitions
exhumed
exile
existence
exit
exo
exodus
exoplanet
exotic
expanded
expansion
expatriates
expedition
expendables
experience
experiment
experimental
expert
exploration
explore
explorer
explosive
explosives
expo
exposed
exposicion
exposition
express
expression
expressway
expuestas
ext
extant
extended
extending
extension
extensive
external
extinct
extinction
extra
extract
extraordinary
extreme
exupe
ey
eye
eyed
eyes
ez
ezekiel
ezine
ezra
f
fa
fabaceae
faber
fabian
fabiana
fabio
fabre
fabric
fabrica
fabricante
fabricius
fabulous
fac
facade
face
facebook
faces
facial
facilities
facility
facing
fact
factbook
factcheck
facto
factor
factors
factory
facts
factsheet
faculty
fagerty
fahmy
failed
failure
fair
fairfax
fairy
faith
faiza
fajardo
falco
falcon
falkland
fall
fallen
falling
fallon
falls
false
falsong
falun
famas
fame
familia
familiar
families
famille
family
famous
famy
fan
fancy
fandemonium
fandom
fang
fanny
fans
fantail
fantasia
fantassy
fantastic
fantasy
fao
fap
far
farewell
farm
farmer
farmers
farming
farms
farrell
fashion
fashioned
faso
fasori
fast
fat
fatah
fatal
fate
fateh
father
fathers
fatima
fatou
fatty
fauna
faustino
favis
favor
favorite
favorlang
fay
faye
fayette
fbi
fcc
fdp
fe
fear
fears
feast
feat
featherweight
feature
featured
features
featuring
feb
febrero
february
fech
federal
federasyon
federation
federico
fedner
fee
feed
feeding
feel
feeling
feet
feingold
feldman
feliciano
felipe
felisa
felix
fell
fellow
fellows
fellowship
feltrinelli
female
females
feminine
feminism
feminismo
feminist
feminista
feministang
feminists
feminization
femme
femmes
femur
fendi
fene
feng
fengguan
ferdinand
ferdinando
ferenc
fermat
fermi
fermin
fern
ferna
fernande
fernandez
fernando
ferragamo
ferre
ferrer
ferrol
ferry
fest
festival
festivals
festschrift
fetus
feu
feud
feuillet
few
ff
fff
ffp
fhm
fi
fiano
fiba
fiber
fibonacci
ficheto
fico
fiction
fictional
ficus
fidel
fidelity
field
fields
fiesta
fifa
fifi
fifteen
fifth
fifty
fight
fighter
fighters
fighting
fights
figueroa
figura
figure
figures
fiji
fijian
fil
file
filepath
files
filibusterismo
filipe
filipina
filipinang
filipinas
filipinayzd
filipiniana
filipino
filipinong
filipinos
filippo
fill
fille
filled
film
filmfare
filmmaker
filmographies
filmography
filmograpiya
films
filomena
filter
fin
final
finale
finalist
finalista
finalists
finally
finals
finance
financial
finch
find
finding
finds
fine
fingerprint
finished
finland
finlandya
finnish
finny
fiona
fiorello
fiqh
fire
firecracker
fireflies
firestone
firing
firm
first
fiscal
fischer
fish
fishbase
fisher
fisheries
fisherman
fishing
fishponds
fission
fit
fitness
fitr
five
fl
flag
flame
flamingo
flash
flat
flauta
flavor
fleming
fletcher
fleurs
flickr
flight
flint
flo
float
floating
flood
floor
flor
flora
floral
florence
florencia
florencio
florentino
flores
florida
floridablanca
flow
flower
flowering
flowers
floyd
flu
fluid
fluido
flute
fluvial
fly
flying
flyweight
fm
fo
foam
focus
fog
fogerty
fold
folio
folk
folke
folklore
folklorist
follicle
follow
following
fonda
fonseca
font
fontana
fontsize
food
foodpanda
foods
fool
fools
foot
football
footnotes
foottown
for
forbes
forbidden
force
forces
ford
forecast
foreign
foreman
forensic
forest
forestry
forests
forever
foreword
forget
forgive
forgotten
form
forma
formal
format
formation
formed
former
formerly
formosan
forms
formula
fornier
forster
fort
fortich
fortress
fortuna
fortunate
fortunato
fortune
fortuno
forty
forum
forums
forward
fossil
foster
foto
found
foundation
foundations
founded
founder
founders
founding
fountain
four
fourier
fourteen
fourth
fowler
fox
fpj
fr
fra
frac
fracture
fragaria
fragata
fragile
fragment
fragments
fragrance
frame
frames
framework
franc
franca
france
frances
francesca
francesco
franchise
francia
francis
francisca
franciscan
franciscano
franciscanong
francisco
franciszek
franco
francois
frank
frankfurt
franklin
franks
franny
frans
franz
fraser
fraternidad
fraternity
frau
fraud
frauenkirche
fray
fre
fred
freda
freddie
frederic
frederick
fredrika
free
freedom
freeman
freeport
freestyle
freire
freitas
french
frequency
frequently
fresh
freshwater
freud
fri
frida
friday
fridays
fried
friedan
friederike
friedman
friedrich
friend
friendly
friends
friendship
fries
frigyes
fritz
frog
from
front
frontera
frontline
frosinone
frost
froy
frozen
frs
fru
fruit
fruits
fry
fsc
fsh
ft
fu
fuego
fuel
fuels
fuente
fuentebella
fuentes
fuji
fujian
fujiwara
fukada
fukuoka
fukushima
fulbright
fulgencio
full
fuller
fulltext
fully
fun
function
functional
functions
fund
fundamental
fundamentalism
fundamentals
fundasyon
funeral
fung
fungal
fungi
fungus
funny
fur
furies
furigana
furniture
further
furu
fusiform
futbol
future
futuro
fuzhou
fyodor
g
ga
gaano
gab
gaba
gabaldon
gabat
gabbana
gabbard
gabby
gabi
gabinete
gabinite
gables
gabon
gabos
gabriel
gabriela
gabrielle
gad
gadan
gadanon
gaddafi
gaddang
gadia
gading
gadongan
gafah
gaffa
gag
gaga
gagamit
gagamiton
gagarin
gage
gaha
gahang
gahi
gail
gainza
gait
gal
gala
galaksiya
galang
galaxy
gale
galeri
galeria
galerie
galeriya
galerya
galicia
galician
galileo
galing
gallagher
gallego
galleon
galleria
gallery
gallman
gallo
gallup
galo
galore
galva
galvatron
galvez
galyo
galyon
gama
gamay
gambia
gamboa
game
games
gamgam
gamit
gamiton
gamma
gamot
gampanon
gampi
gamping
gamu
gan
gana
ganador
ganahon
ganan
ganansya
ganap
ganar
gancio
ganda
gandara
gandhi
gandhian
ganesha
gang
ganga
ganges
ganito
ganot
ganso
gantad
gao
gaon
gap
gapan
gapas
gapo
gapong
garadanan
garamiton
garapon
garc
garchitorena
garci
garcia
garcinia
garde
garden
gardener
gardens
gardie
gardner
garfield
gari
garland
garlic
garments
garner
garo
garod
garong
garry
garu
gary
garzanti
gas
gasang
gases
gasiprot
gasolina
gasolinahan
gaspara
gasto
gaston
gastos
gastrointestinal
gastronomiya
gata
gatas
gate
gates
gateway
gatherer
gathering
gati
gatok
gatol
gatos
gaudencio
gaudi
gauge
gauss
gautama
gave
gavin
gawa
gawad
gawadan
gawe
gaweng
gawgaw
gawi
gay
gaya
gayad
gayatri
gaylor
gayo
gayod
gayon
gayong
gayung
gayunpaman
gaza
gazette
gazetteer
gbagbo
gc
gcash
gdan
gde
gdp
ge
gearhart
gebre
gee
gehrmann
geisel
geisha
gel
gemini
gemino
gemma
gems
gen
genbaku
gender
gene
genealogy
genera
general
generali
generation
generations
generic
generoso
genes
genesis
genetic
genetics
geneva
genghis
geni
genital
genius
genoa
genocide
genre
gensan
gente
gentileschi
gentle
gentlemen
genuine
genus
geo
geoffrey
geographic
geographical
geography
geograpikong
geograpiya
geological
geology
geometric
geometry
geophysical
georg
george
georges
georgescu
georgia
georgian
georgiev
georgina
georgya
geothermal
ger
gera
gerais
gerald
geraldine
gerang
gerard
gerardo
gerd
gerhard
gerilya
gerilyang
germ
germain
germaine
german
germany
gerona
geronimo
gerry
gertrud
gertrude
geschichte
gesellschaft
gesture
get
gets
getting
ghafouri
ghana
ghanaian
ghent
ghesquie
ghg
ghirlandaio
ghost
ghosts
ghusl
ghz
gi
gia
giacomo
gian
gianni
giant
gibbs
gibo
gibohan
gibohon
gibong
gibraltar
gibran
gibson
gibuhang
gibuhon
gibuhong
gif
gift
gifts
gig
gigaquit
gigi
gigibohon
gigibuhon
gigmoto
gihoy
gikan
gikanan
gil
gilbert
gilberto
gilda
gilded
gilid
gilingan
gill
gillard
gillian
gilman
gime
gimel
gimenez
gin
gina
ginaba
ginadan
ginaga
ginagadan
ginagamit
ginagampanan
ginaganar
ginagaom
ginamit
ginampanan
ginana
ginanahan
ginanapan
ginang
ginaradan
ginataang
ginatilan
ginatos
ginawa
ginawad
ginawadan
ginebra
gines
ginger
gingoog
gingrich
ginhawa
gini
ginibo
ginibohan
ginibong
ginigibo
ginigibong
ginigikanan
ginigiling
ginigiribo
ginigirumdom
ginigiyahan
ginikanan
ginikanang
giniling
gining
giniribo
giniris
ginisang
giniyahan
ginonoan
ginoo
ginseng
ginto
gintong
ginuguhit
ginugulay
ginugusto
ginuhit
ginuno
ginunoan
ginunuan
ginustong
ginutaan
gion
giorgio
giovanni
gira
giram
giraray
giri
giris
girl
girlfriend
girls
girok
giromdom
girona
girong
girumdoman
giso
gisong
gita
gitara
gitarista
giulia
giulio
giuseppe
give
given
givenchy
gives
giving
giya
giyahan
giyang
giyaw
giyera
giyerang
giz
giza
gje
glaad
glad
gladys
glaiza
glamour
glan
gland
glands
glandula
glans
glass
glenn
gli
glimpse
gliricidia
global
globalization
globe
globes
globo
globong
gloc
gloria
glorious
glory
glossary
glossy
glottal
glottolog
glove
glover
gloves
glucose
glukosa
glycogen
gma
gmanetwork
gmanews
gmmsf
gn
go
goa
goal
goals
gob
gobbi
gobernador
gobernadorcillo
gobierno
gobyerno
gobyernong
god
goddess
goddesses
godehardo
godfather
godinez
godofredo
godoy
gods
godse
goes
gogh
gogon
goh
goia
going
goku
golb
gold
goldberg
goldbook
golden
goldman
goldprint
goldstein
golf
golliwog
golpo
goma
gomburza
gomes
gomez
gomihan
gon
gona
gonan
gondola
gone
gong
gonza
gonzaga
gonzales
gonzalez
gonzalo
good
goodbye
goodman
goodreads
goods
goodwill
google
goolam
goose
gooseberry
goquingco
gora
gorbachev
gordon
gore
goreng
gorge
gorontalo
gos
gosh
gospel
gossip
gossypium
got
gotha
gotham
gothic
gotiko
goto
gottfried
gould
gourd
gov
governance
government
governmental
governor
governorate
governors
govierno
govt
gown
goya
goyena
gq
gr
gra
grabe
grabeng
grabi
grabidad
grabitasyonal
grace
gracia
graciano
grade
grades
grado
gradong
graduate
graduates
graduation
gradwado
gradwar
grady
graft
graham
grain
grajo
gramatika
gramatikal
grammar
grammy
gramo
gramos
gran
granada
granary
grand
grande
grandfather
granite
granny
grant
granted
grants
granyula
grapes
graphic
graphics
grapiko
grapikong
grapo
gras
grass
grasya
grau
grave
graves
gravity
gray
great
greater
greatest
grecia
greco
greece
greek
green
greenberg
greene
greenhills
greenhouse
greenland
greenpeace
greenwood
greer
greg
gregg
grego
gregoria
gregorio
gregory
gregoryanong
grenada
gresham
gresya
greta
gretchen
grey
gridcolor
griego
griegong
griff
griffin
griffith
grigory
grimes
grimmie
gripo
gris
griyego
griyegong
gro
grocery
gropius
gross
grosseto
grossing
grosvalds
grotto
ground
grounds
group
groups
grove
grow
growing
growth
gru
grupo
grupong
gruyter
gs
gsc
gsis
gu
gua
guadalajara
guadalupe
guagua
gualberto
gualinga
guam
guan
guang
guangdong
guangxi
guangzhou
guarani
guard
guardia
guardian
guardians
guatemala
gubat
gubing
gubyerno
gucci
gudol
gue
guebas
guedes
guerilla
guerillas
guerra
guerrang
guerrero
guerrillas
guest
guetta
guevara
guevarra
guez
guggenheim
gugma
gugurang
guhit
gui
guia
guidance
guide
guidelines
guido
guiguinto
guihulngan
guild
guillermo
guilt
guilty
guimaras
guimba
guimbal
guimet
guin
guinayangan
guindapunan
guindulman
guinea
guineya
guineyang
guinhawa
guinness
guinobatan
guislain
guitar
guiting
guiuan
guizhou
gujarat
gujarati
gujral
gulang
gulay
gulaygulay
gulayon
gulf
guling
gulod
gulpi
gulpo
gum
gumaca
gumamela
gumamit
gumapang
gumibo
guminadan
guminana
guminantad
guminibo
guminikan
gun
gunma
gunn
guno
guns
gunting
gunuan
guo
gupta
guramoy
gurang
gurangan
gurano
gurgaon
gurit
gurot
guru
gurung
gusi
gusok
gustaf
gustav
gustave
gustavo
gusti
gustilo
gusto
gustong
guta
gutenberg
guterres
guthrie
gutierrez
gutom
guy
guyabano
guyana
guys
guzman
gwapo
gwardya
gwen
gwendolyn
gyera
gyerang
gym
gymnasium
gymnast
gymnastics
gymnocalycium
gyo
gyula
h
ha
haba
hababa
hababang
hababaon
hababaw
habagat
habagatan
habagatang
habambuhay
habana
habanes
habang
habayan
habitante
habitantes
habitat
habitats
hablondawani
habo
habong
habsburg
hachijo
hachiman
hacienda
hacker
hacking
had
haddon
hade
haden
hadeng
hadi
hading
hadith
hadja
hadji
hadok
hadoyan
hae
haen
hafnium
hagadon
hagahag
hagar
hagbayon
hagdanan
hagedorn
hagibis
hagkos
hagkus
hagong
hagonoy
hague
haguro
hagyan
hagyanan
hahn
hai
haifa
hail
hain
hainan
hainismo
haiphong
hair
haiskul
haiti
haitian
haiyan
haji
hajj
hakka
hal
hala
halaba
halabang
halabaon
halaga
halagang
halakbang
halang
halangkaw
halangkawon
halanohan
halanuhan
halas
halat
halaton
halawig
halawigan
halawigon
hale
haleng
haleon
half
hali
halik
halili
halim
halimbawa
halimbawang
halina
haling
halion
halipot
hall
halla
hallasan
halloween
halloweentown
hallowell
hallows
halmahera
halo
haloheno
halonan
halong
halos
haloy
haloyon
ham
hamak
haman
hamanon
hambourg
hamburg
hamburger
hamid
hamiguitan
hamilton
hamis
hamlet
hammer
hammersmith
hamo
hamon
hamot
hampang
hampaslupa
hampshire
hamzah
han
hana
hanak
hanamaki
hanap
hanapbuhay
hanapon
hanay
hanbok
hancock
hand
handa
handbag
handbook
handel
handheld
handikraft
handiong
handle
handog
hands
handyong
hanfu
hang
hangan
hangga
hanggan
hangganan
hanggang
hangin
hanging
hanguan
hangul
hangzhou
hanja
hanna
hannah
hanoi
hanot
hanover
hans
hansen
hanuman
hanuno
hanzi
hapa
hapi
hapilon
hapin
hapo
hapon
hapones
haponesa
haponesang
haponiko
hapot
happen
happened
happiness
happy
haq
hara
harababang
haralaba
haralabang
haralakbang
haralangkaw
harald
harale
harali
haralipot
haram
harampangan
harang
harani
haranihan
haranihon
haraning
hararani
hararaning
hararayong
hararom
harasahas
haraya
harayo
harayong
harbor
harbour
harcourt
hard
hardcover
harder
hardin
harding
hardware
hardy
hare
haredi
hari
harigi
hariging
harina
harinang
haring
harlem
harley
harm
harmattan
haro
harold
harong
haros
harper
harpercollins
harrier
harriet
harrington
harris
harrison
harrow
harry
hart
hartmann
haruki
harus
harvard
harvest
harvey
has
hasan
hasang
hassan
hasta
hasty
hasyo
hat
hatchery
hatching
hate
hatta
hatton
haunted
haus
hauszmann
haute
havana
have
haven
having
havoc
haw
hawai
hawaii
hawaiian
hawak
hawayano
hawk
hawke
hawking
hawkins
hawthorne
hay
hayag
hayagan
hayakpit
hayapit
haydee
hayek
hayes
haynes
hayokong
hayop
hays
hayskul
hayun
hayworth
hazardous
hazards
hazel
hbo
hcards
hdl
he
head
headlines
headquarters
heads
healing
health
healthcare
healthy
hear
heard
hearing
heart
hearts
heat
heath
heather
heaven
heavens
heavy
heavyweight
hebreo
hebreong
hebrew
hecht
hectares
hedda
hedvig
hedwig
hee
heian
heidelberg
heidi
height
heights
heikkinen
heinrich
heiress
heirloom
hektarya
helang
held
helen
helena
helene
helenistiko
helenistikong
helga
helianthus
helicopter
helikopter
heliocalus
helium
hell
hellenistic
heller
hello
helm
helmet
helot
help
helped
helsinki
helyo
hemings
hemingway
hemispero
hemisperyo
hen
henares
henderson
hendrik
heneral
heneralmente
henerasyon
henerikong
henetiko
henetikong
henley
henri
henrietta
henriette
henrik
henry
henson
hentaigana
hentil
heo
heograpikal
heograpikong
heograpiya
heolohiya
heometriya
heometriyang
heotermal
hepburn
hepe
hepeng
her
herak
herald
herb
herbaceous
herbal
herbert
herbs
hercules
here
heritage
herland
herman
hermann
herme
hermes
hermine
hermione
hermosa
herna
hernandez
hernando
hero
herodotus
heroe
heroeng
heroes
heroine
heron
herrera
hers
hersegobina
herself
herusalem
herzegovina
herzliya
hesse
hester
hesukristo
hesus
heswita
heswitang
het
hetauda
heterosekswal
hetty
heussaff
hewitt
hey
hi
hibiscus
hibla
hibog
hibok
hidalgo
hidden
hide
hidilyn
hidroheno
hidrohenong
hidrokarburo
hierarchy
higante
higanteng
higaonon
higdaan
higgins
higginson
high
highbeam
higher
highest
highlands
highlights
highly
highschool
highway
higit
higos
higot
higueras
hihilngan
hijab
hijos
hikaru
hiking
hikot
hilagang
hilang
hilao
hilario
hilary
hilaw
hild
hilda
hilera
hilfiger
hilig
hiligaynon
hiling
hilinga
hilingon
hill
hillary
hillevi
hills
hilnga
hilngon
hilo
hilom
hilongos
hilono
hilotin
hilton
him
himala
himalaya
himalayan
himalayas
himantandraceae
himati
himes
himig
himlayang
himline
himmelmann
himnasta
himno
himpapawid
himself
hin
hina
hinabangan
hinaboan
hinabol
hinabon
hinagad
hinahagad
hinahale
hinahalean
hinahaman
hinahanap
hinahangaan
hinaharap
hinale
hinalean
hinali
hinaman
hinanap
hinango
hinangos
hinapot
hinatuan
hinayokong
hindang
hindi
hindu
hinduism
hinduismo
hindung
hindus
hinihiling
hinihimo
hinilawod
hiniling
hinimo
hinintay
hinira
hinirahay
hinirang
hinog
hinogkot
hinohonang
hinugot
hinuhuna
hinuhurot
hinukay
hinulid
hinunangan
hip
hipnosis
hipolito
hipotesis
hira
hiragana
hiram
hirarkiya
hiras
hiri
hiro
hiroan
hirog
hiron
hirong
hiroon
hiroshi
hiroshima
hirsi
his
hispanic
hispaniko
hispanikong
histo
histoire
historia
historiador
historian
historians
historic
historica
historical
histories
historikal
historiko
historikong
historiya
history
historya
historyador
historyang
hit
hita
hitchcock
hitler
hitman
hito
hits
hitsura
hitsurang
hiv
hive
hiwas
hiyangta
hiyas
hj
hk
hl
hler
hm
hmi
ho
hoa
hoagland
hoanya
hoben
hobenes
hobhouse
hoboken
hoc
hockey
hodder
hodgson
hoffman
hoffmann
hofilen
hogan
hogwarts
hohoff
hoi
hokbo
hokbong
hokkaido
hokkien
hokom
hoku
holandes
hold
holden
holders
holding
holdings
holds
hole
holiday
holland
holly
hollywood
holmes
holocaust
holokausto
holstein
holt
holy
homa
homage
hombre
home
homecoming
homegrown
homeland
homepage
homer
homes
homicide
homme
homo
homosekswal
homosekswalidad
hon
honasan
honda
honduras
honesto
honey
hong
hongkong
hongzhi
honolulu
honor
honorable
honorableng
honorary
honoraryong
honorato
honored
honorees
honores
honoripiko
honoris
honors
honour
honours
honra
honshu
hontiveros
hood
hook
hooks
hoover
hop
hope
hopes
hopia
hopkins
hopper
hops
hora
horizon
horizons
horizontal
horizonte
hormona
hormonal
hormone
hormones
horn
hornada
hornet
horno
horop
horror
horse
horses
hort
horta
hortica
hosni
hospital
hospitals
host
hostage
hosted
hostel
hosting
hostya
hot
hotel
hotels
hotok
hotspots
hottest
houghton
hound
hour
hours
house
household
houses
housewife
housework
housing
houston
how
howard
howe
howell
however
howitt
howland
howstuffworks
hoy
hoya
hoyop
hp
hpa
hr
hranov
hrd
hrds
hs
ht
htm
html
htmlhttp
htmlhttps
http
https
hu
hua
huang
hub
huba
hubaan
hubal
hubei
huben
hubert
hubin
hubinon
hudaismo
hudaismong
hudas
hudikatura
hudisyal
hudiyo
hudiyong
hudson
hudyo
hudyong
hue
huerta
huffington
hugasan
huge
hugh
hughes
hugis
hugo
hui
huk
hukbalahap
hukbo
hukbong
hukom
hula
hulapi
huli
huling
hull
hulma
hulo
hulontalo
hulu
hulyo
hum
huma
humabon
humadapnon
humale
human
humanidad
humanidades
humanitarian
humanitaryo
humanities
humanity
humano
humans
humid
huminale
humiro
humorist
humphrey
hun
huna
hunan
hunat
hundred
hung
hungaria
hungarian
hungary
hungarya
hungduan
hunger
hunggariya
hunggaro
hunggarong
hunggarya
hunglonan
hungriya
hungry
huni
hunt
hunta
hunter
hunting
huntington
hunyo
hupiter
hurado
huri
hurihan
huring
huringhuding
hurisdiksion
hurisdiksyon
hurista
hurley
hurnada
huron
hurop
hurricane
hurston
hurup
husay
husband
hussein
hustisya
hustisyang
husto
hustong
hut
hutchinson
hutok
huwad
huwag
huwebes
huwes
huyo
huyom
hwang
hyatt
hybrid
hyde
hyderabad
hydraulic
hydroelectric
hydrogen
hydroxyl
hye
hyeran
hymn
hynek
hyo
hypatia
hypothesis
hyrum
hyto
hyun
i
ia
ian
iaplikar
ias
iast
iata
iau
iba
ibaan
ibaba
ibabaing
ibabang
ibabao
ibabaw
ibahan
ibajay
ibal
ibali
ibalik
ibaloi
ibalon
ibalong
iban
ibanag
ibanan
ibang
ibaniko
ibaraki
ibarra
ibatan
ibaybay
ibayo
ibc
ibf
ibid
ibig
ibilang
ibinaba
ibinabareta
ibinagay
ibinali
ibinalik
ibinalyo
ibinareta
ibinaretang
ibinase
ibinatay
ibinibilang
ibiniklad
ibinilang
ibinubugtak
ibinugtak
ibinunga
ibinungang
ibinungsod
ibinuyagyag
ibm
ibn
ibo
ibon
ibong
ibos
ibrahim
ibtracs
ibubugtak
ibugtak
ibulong
ic
icao
ice
iceland
icelandic
icon
icons
icu
id
ida
idaho
ide
idea
ideal
ideas
identidad
identification
identified
identipikasyon
identity
ideolohiya
ideya
ideyang
idi
idinagdag
idineklara
idineklarar
idinepensa
idinirehir
idinodoon
idinoon
idinugang
idinulot
idinusay
idiomang
idjang
ido
idol
idolo
idols
idris
idrohino
idto
idtong
idugang
ie
iea
ieee
ieeee
iela
if
ifpi
ifugao
iga
igalang
igang
igbaras
igbo
igdi
igding
iginagalang
iginagawad
iginawad
iginuhit
iglesia
ign
igna
ignacia
ignacio
ignatius
ignisyon
igo
igong
igorot
igot
igreja
igualdad
iguana
igwa
igwang
iheartradio
ihi
ihinayag
ihinula
ihiras
iho
ii
iiba
iibigin
iii
iikot
iilustrar
iimplementar
iimprenta
iinaaplikar
iinaasosyar
iinaatribwir
iinanunsiar
iinareglo
iinasignar
iingat
iiniba
iinintrodusir
iinom
iinsulto
iinterpretar
iintrodusir
iipit
iiral
iiriwal
iirok
iisa
iisip
iisipon
iiskusar
iistar
iistaran
iistorya
iitok
iiwalan
ika
ikaag
ikaanom
ikaapat
ikaduwa
ikaduwang
ikakaag
ikalima
ikalimang
ikan
ikapito
ikapitong
ikapu
ikararahay
ikaribong
ikasampulong
ikasiyam
ikatlong
ikatolo
ikatolong
ikatulo
ikatulong
ikaw
ikawalo
ikawalong
ike
ikinaag
ikinabuhay
ikinagadan
ikinakaag
ikinaoolakit
ikinasal
ikinokomparar
ikinokonektar
ikinulong
ikog
ikokomparar
ikonektar
ikonograpiya
ikonsiderar
ikos
ikot
il
ilaag
iladawan
ilagan
ilalim
ilang
ilaog
ilarde
ilaw
ilawan
ilawod
ilaya
ilayang
ildefonso
ile
ilegal
ili
ilian
iligan
iligtas
ilihan
ilinadawan
ilinakip
ilinaladawan
ilinalaog
ilinansar
ilinaog
ilinigtas
ilinista
ilinito
ilinubong
ilinuwas
ilipat
ill
illegal
illinois
illustrated
illustration
illustrations
illustrator
ilo
ilocano
ilocos
ilog
iloilo
ilokano
ilokanong
iloko
ilokos
ilonggo
iluluwas
ilustrado
ilustrador
ilustrar
ilustrasyon
ilustre
ilusyon
ilusyonan
iluwas
ilyich
im
ima
imaculada
image
images
imagesize
imagined
imahe
imahen
imaheng
imahinasyon
imam
imani
imbak
imbensyon
imbento
imbentor
imbes
imbestigador
imbestigar
imbestigasyon
imbis
imbitar
imbitasyon
imbong
imbuwelto
imbwelto
imbweltong
imbyerno
imdb
imee
imekanu
imelda
img
imigrante
imigranteng
imigrar
imigrasyon
iminukna
iminundag
immaculate
immanuel
immediate
immigration
immune
immuno
imo
imortal
imp
impact
impacts
impak
impakta
imparcial
impeachment
impeksion
impeksyon
imperfect
imperial
imperyal
imperyalismo
imperyo
imperyong
implementar
implementasyon
implementation
implications
impluensya
impluensyang
impluwensia
impluwensiya
impluwensya
impluwensyado
impluwensyang
impormal
impormasyon
impormasyong
import
importance
importansya
important
importante
importanteng
imposible
imposibleng
impossible
impr
imprastraktura
imprenta
imprentahan
impresyon
imprinta
improvement
impulse
imre
imus
in
ina
inaabot
inaadalan
inaagi
inaagihan
inaako
inaakong
inaalok
inaan
inaandam
inaapo
inaapod
inaapud
inaarog
inaatake
inaataman
inaatubang
inabanga
inabot
inabotan
inadalan
inadaptar
inadmitir
inadoptar
inagaw
inagda
inagihan
inagom
inagoman
inagta
inaguraran
inagurasyon
inaki
inako
inalang
inalok
inampon
inandam
inang
inanunsyar
inanunsyo
inaon
inapo
inapod
inaprobaran
inarestar
inaresto
inari
inarog
inasal
inasinan
inatake
inataman
inatubang
inaugural
inauguration
inay
inc
inch
incheon
incident
include
included
includes
including
inclusive
income
incorporated
increment
inda
indan
indang
inday
independence
independensia
independensya
independent
independente
independenteng
independiente
independienteng
independiyenteng
independyente
independyenteng
index
indi
india
indian
indiana
indianapolis
indiano
indians
indibiduwal
indibidwal
indica
indicator
indicus
indie
indies
indiewire
indigenous
indikar
indikasyon
indio
indios
indira
indische
individual
individuals
indiya
indiyan
indiyano
indo
indochina
indones
indonesia
indonesian
indonesya
indonesyanong
indotsina
indra
indulto
indus
industrial
industries
industriya
industriyal
industriyang
industry
industryal
indya
indyan
indyano
indyanong
indyo
ine
ineenkaminar
ineerokan
ines
inestablisar
inez
infant
infanta
infantes
infantry
infectious
inferior
infinitum
infirmary
influence
influential
influenza
info
infobox
informatics
information
infraestruktura
infrared
infrastructure
ing
inga
ingat
inge
ingeborg
inggles
inginaran
inglatera
inglaterra
inglatierra
ingles
ingleside
ingrediente
ingreso
ingrid
ingud
inhenyeriya
inhenyeriyang
inhenyero
inhenyerong
inherit
inheritance
inhinyeriya
inhinyeriyang
inhinyero
inhinyerong
inhustisya
ini
inibahan
inibanan
inihaw
iniiba
iniibig
iniimbitaran
iniinaan
iniinom
iniisip
iniistaran
inilaag
iniladawan
inilipat
inilubong
inilunsad
iniluwas
inimbento
inimbitaran
inimplementar
inimprenta
inin
ininaan
ining
inirepresentar
inisip
inistorya
inisyal
inisyatiba
inisyatibo
init
initan
initao
initial
initially
initiative
initiatives
injury
ink
inkarnasyon
inkorporado
inland
inmaculada
inn
innana
inner
innocence
innocents
innovation
ino
inobasyon
inocencio
inom
inoman
inomon
inomong
inon
inonra
inoomaw
inorganic
inorganiko
inorganikong
inorganisa
inorganisar
inosente
inot
inoting
inoue
inpormal
input
inquirer
inquiry
inscription
insect
insekto
insektong
insenso
inside
insidente
insidenteng
insights
insigna
insik
inskripsiyon
inskripsiyong
inskripsyon
inspector
inspirado
inspiradong
inspirasyon
inspiration
inspirational
inspire
inspired
inspiring
instagram
instalar
install
installation
instead
institusyon
institut
institute
institutes
institution
institutional
institutions
instituto
instruction
instructor
instruksyon
instruktor
instrumental
instrumento
instrumentong
insular
insurance
int
intangible
integer
integral
integrasyon
integrated
integridad
integrity
intelektuwal
intelektwal
intellectual
intelligence
intelligibility
intelligible
intensidad
intension
intensive
intensiyonadong
intensyon
inter
interaction
interactive
interactivity
interaksion
interaksyon
interbenir
interbensyon
interbio
interbyu
intercontinental
interdisciplinary
interes
interesado
interesadong
interesanteng
intereses
interest
intergenerational
intergovernmental
interim
interior
intermediate
internacional
internal
internasyonal
internasyunal
international
internationale
internet
interong
interpretar
interpretaron
interpretasyon
interpreter
intersections
intervention
interview
interviewed
interviews
interviu
interyor
intindi
intirong
into
intonasyon
intramuros
intrebista
intro
introduced
introduction
introduksyon
introdusir
intsik
inudaran
inukit
inulnan
inuman
inumaw
inumon
inumong
inutan
inutang
inuusar
invaders
invasive
invention
inventions
inventor
investigation
investigative
investment
investments
investor
invisible
invitation
invitational
invited
involved
ioc
ion
ional
iowa
ipa
ipabakal
ipadagos
ipadara
ipag
ipagbawal
ipahayag
ipaheling
ipahiling
ipalakop
ipaliwanag
ipaluwas
ipcc
ipid
ipig
ipigbareta
ipigbulos
ipigbungsod
ipigdagdag
ipighayag
ipigheras
ipigladawan
ipigluwas
ipigmukna
ipigngaran
ipigpalis
ipigpangaran
ipigpublikar
ipigreport
ipigseselebrar
ipigsurat
ipigtao
ipigtataram
ipigtindog
ipigtolod
ipigtugdas
ipigtutulod
ipil
ipinabakal
ipinabisto
ipinadagos
ipinadalan
ipinadara
ipinag
ipinagbabawal
ipinagbawal
ipinagboot
ipinagkatiwala
ipinagngaran
ipinagpadagos
ipinagpahiling
ipinagpublikar
ipinagtao
ipinagtataram
ipinahayag
ipinaheheling
ipinaheling
ipinahiling
ipinairahay
ipinaisi
ipinako
ipinalagda
ipinaliliwanag
ipinalis
ipinaliwanag
ipinaluwas
ipinamamahagi
ipinamidbid
ipinanga
ipinangaki
ipinanganak
ipinangaran
ipinapaabot
ipinapabakal
ipinapaheling
ipinapahiling
ipinapamugtak
ipinapangalad
ipinarisa
ipinasa
ipinasabong
ipinatindog
ipinepresentar
ipininta
ipinublikar
ipit
ipon
iprinesentar
iprinodusir
ipublikar
iq
iqt
ir
ira
iraidan
irak
iraki
iraking
iran
irani
iranian
iranong
iranun
iraq
iraqi
iraraom
irarom
iraya
irayo
ire
iregular
ireland
irena
irene
ireneo
irepresentar
irian
iriba
iribahan
iribanan
iribang
iridyo
iriga
irigasyon
irina
irinekord
irineport
irinerekomendar
irinerepresentar
iris
irish
iriwal
irlanda
irlandes
irlandia
irlandya
irma
irmina
iron
irosin
irukan
irvin
irvine
irwin
is
isa
isaac
isabel
isabela
isabella
isabelle
isabelo
isagani
isakay
isalak
isan
isang
isara
isarog
isay
isayman
isbn
isbukun
isda
ise
iselebrar
ishiguro
ishmael
ishvara
isi
isidro
isil
isina
isinagibo
isinangat
isinaro
isinasaalang
isinasagibo
isinaysay
isinikwal
isinubol
isinugo
isinumite
isinurat
isinusuherir
isinusulot
isinusurat
isinuway
isip
isipan
isipon
isis
iskalon
iskandalo
iskedyul
isko
iskolar
iskolarship
iskor
iskriptong
iskritura
iskriturang
iskultor
iskultura
iskulturang
iskwelahan
isla
islam
islamabad
islamic
islamiko
islamikong
island
islands
islandya
islang
islas
islington
ismael
isnag
iso
isog
ison
isopreno
isotopo
ispasyo
ispeling
ispesipikasyon
ispesipiko
ispesipikong
ispesye
ispiker
ispiritwal
isport
isports
isputnik
israel
israeli
israelita
issg
issn
issoufou
issue
issued
issues
ist
istado
istadong
istaka
istanbul
istandardong
istar
istaran
istasyon
istat
istatwa
istelar
istilo
istilong
istimulasyon
istoriya
istorya
istoryang
istraktura
istraktural
istrakturang
istrikto
istriktong
istruktura
istudyo
istva
isulan
isulot
isurat
isuway
isyu
isyung
it
ita
itaas
itaasi
itago
italia
italian
italiana
italiano
italics
italy
italya
italyano
italyanong
itanom
itanong
itao
itapok
itatao
itawis
itbayat
item
itemid
items
iti
itik
itil
itim
itinaas
itinagama
itinago
itinakod
itinalaan
itinalaga
itinampok
itinangro
itinao
itinaong
itinapok
itinatakod
itinatampok
itinatao
itinindog
itinogdas
itinogdok
itinotogot
itinotokdo
itinugdas
itinugdok
itinugot
itinukdo
itinulod
itinutukdo
itinuturing
itiot
itneg
ito
itogdok
itogon
itok
itom
itong
itriyo
its
itself
itsura
itulod
itunes
itv
iu
iucn
iucnredlist
iupac
iv
ivan
ivana
ivatan
ivisan
ivoire
ivor
ivory
ivy
iwaki
iwal
iwate
iwinalat
iwinawaras
ix
ixora
iya
iyan
iyang
iyo
iyodo
iyon
iyong
iyonisasyon
iyono
iyonong
iz
j
ja
jabonga
jacinto
jack
jacket
jackfruit
jackie
jackson
jacob
jacobs
jacqueline
jacques
jade
jae
jaena
jaff
jafff
jag
jagannath
jaggery
jagna
jagor
jaguar
jahai
jai
jail
jaime
jain
jainismo
jains
jakarta
jake
jakob
jalandoni
jalil
jalisco
jallow
jam
jama
jamaica
jamaican
jambi
jamboree
james
jamie
jamieson
jamindan
jammeh
jammu
jan
jane
janeiro
janella
janelle
janet
jang
janice
janine
janiuay
janssen
january
japan
japanese
jar
jardim
jardin
jared
jarnail
jaro
jars
jasaan
jasmin
jasmine
jasminum
jason
jathedaar
jati
jaume
java
javanes
javanese
javier
jawi
jaworski
jay
jaya
jaycees
jayne
jazmin
jazz
jc
jci
jd
je
jean
jeanette
jeanne
jeans
jeep
jeepney
jefe
jeff
jefferson
jeffrey
jehovah
jejomar
jeju
jellesma
jelly
jen
jenkins
jenner
jennie
jennifer
jennings
jenny
jensen
jeong
jeongyeon
jeremiah
jeremy
jericho
jerome
jerry
jersey
jerusalem
jes
jess
jesse
jessica
jessie
jesu
jesucristo
jesuit
jesukristo
jesus
jesusa
jet
jett
jeune
jew
jewel
jewish
jews
jh
jharkhand
ji
jia
jiang
jiangsu
jiangxi
jibaro
jie
jihad
jihyo
jil
jill
jillian
jim
jime
jimenez
jimmy
jimny
jimple
jin
jinja
jinling
jinnah
jinous
jinping
jintao
jm
jma
jmc
jnr
jo
joa
joachim
joan
joanna
joanne
joaqui
joaquim
joaquin
job
jobs
jocano
jocelyn
jockey
jodi
joe
joel
joesoef
joey
johan
johann
johanna
johannes
johansson
john
johnny
johns
johnson
johnston
johor
join
joint
jojo
joko
jolie
jolina
jolkesky
jollibee
jolo
jon
jonas
jonathan
jones
jong
jonher
joo
jordan
jordi
joreen
jorge
jose
josef
josefa
josefina
josemari
josemariasison
joseon
josep
joseph
josephine
josephus
josh
joshua
josiah
joslyn
jour
journal
journalism
journalist
journalists
journals
journey
journeys
jovanovic
jovellar
joven
jovenes
jovita
joy
joya
joyce
jp
jpeg
jpg
jpn
jr
jsp
jstor
jtwc
ju
juan
juana
juanico
juanita
juba
juban
jubilee
judah
judaism
judaismo
judas
jude
judge
judgment
judiciary
judio
judith
judo
judy
juez
juice
jukebox
jul
jules
julia
julian
juliana
julie
juliet
julieta
juliette
julio
julita
julius
juliusz
julugan
july
jumbo
jump
jun
june
jung
jungle
junior
junko
juno
junta
jupiter
jurado
jurassic
jure
jurgenne
juris
jurisprudence
jury
jusan
just
justice
justicia
justify
justin
justiniano
justo
jute
juvenile
juveniles
juventud
jv
jyp
k
ka
kaaba
kaabay
kaagahon
kaagan
kaagid
kaakian
kaakoan
kaaldawan
kaalingan
kaalyado
kaalyadong
kaamayan
kaamayi
kaamaying
kaambagan
kaamigo
kaamihanan
kaamulan
kaanggotan
kaano
kaantabay
kaapatan
kaapi
kaapil
kaapudan
kaarakian
kaaraman
kaarog
kaayon
kaayonan
kaba
kababaehan
kababaihan
kababan
kababayihan
kabacan
kabagay
kabakas
kabalang
kabale
kabali
kabaligtadan
kabaligtaran
kabaliktadan
kabaliktaran
kabaling
kaban
kabanalan
kabanalbanalang
kabanata
kabanga
kabangaan
kabangang
kabankalan
kabantogan
kabaong
kabarali
kabasalan
kabataan
kabataang
kabatang
kabatiran
kabayan
kabayo
kabesera
kabeserang
kabikolan
kabilang
kabilangan
kabilogan
kabilugan
kabilugang
kabin
kabisayaan
kabisera
kabiserang
kabit
kabite
kabiyoan
kable
kabo
kabootan
kabotan
kabtang
kabubuldan
kabugao
kabuhayan
kabuki
kabukidan
kabukiran
kabul
kabulig
kabundukan
kabuntalan
kaburakan
kaburonyogan
kaburunyogan
kabute
kabuuan
kabuuang
kabuuhan
kad
kada
kadaga
kadagaan
kadagaang
kadagatan
kadagatang
kadagdagan
kadagdagang
kadahasan
kadahilanan
kadaihan
kadaklan
kadakli
kadakol
kadakolan
kadakolon
kadakul
kadakula
kadakulaan
kadakulan
kadakulang
kadakulon
kadalisayan
kadamay
kadamotan
kadaogan
kadatuan
kadazan
kadena
kadenang
kadete
kadi
kadiit
kadikit
kadikiton
kadikloman
kadikluman
kadipisilan
kadlagan
kadlaganon
kadmyo
kadolon
kadonongan
kadri
kadto
kadtong
kadugangan
kadugo
kadukhaan
kadulon
kadungan
kadunongan
kadunungan
kadurungan
kaedad
kael
kaenot
kaenterohan
kaeser
kag
kaga
kagabatan
kagabsan
kagadanan
kagagapoan
kagalang
kagalanggalang
kagami
kagamitan
kagamitang
kagan
kaganan
kaganapan
kagapoan
kagat
kagawad
kagayonan
kagayunan
kagboot
kagdisenyo
kagduwa
kagduwang
kaggibo
kaggibohan
kaggurang
kagharong
kagharungan
kagianan
kagibohan
kagibuhan
kaginhawahan
kagitingan
kaglalang
kaglima
kaglimang
kagmokna
kagmukna
kagmuknang
kagoshima
kagpoon
kagpublikar
kagpundar
kagresibe
kagresibi
kagrogaring
kagrugaring
kagsadiri
kagsakop
kagsaro
kagsarong
kagsiyam
kagsurat
kagtaraid
kagtogdas
kagtolod
kagtugdas
kagtulong
kagubatan
kagubay
kagurangan
kagurangnan
kagurangnang
kagurubay
kagustohan
kagustuhan
kagutoman
kagwalong
kaha
kahabagatan
kahadean
kahadian
kahaditan
kahagadan
kahagaran
kahalagahan
kahaloyan
kahaluyan
kahaluyi
kahamanan
kahambogan
kahampang
kahandalan
kahapon
kahapotan
kahaputan
kaharanihan
kaharaning
kaharongan
kaharungan
kahawakan
kahel
kahelangan
kaheras
kahilom
kahimanwa
kahimyang
kahiprayan
kahiras
kahirasan
kahiroan
kahiroang
kahit
kahiwas
kahiwasan
kahlil
kahn
kahobenan
kahon
kahoy
kahubenan
kahulogan
kahulugan
kahurihan
kahurihurihi
kahusayan
kai
kaiba
kaibabawan
kaibahan
kaibanan
kaibang
kaibhan
kaibigan
kaida
kaidto
kaidtong
kaif
kaiislahan
kaiislahang
kailan
kailangan
kailanman
kaili
kailusyon
kaimbodan
kaini
kainin
kaining
kainot
kaipohan
kaipong
kaipuhan
kaipuhanan
kaipuhang
kaipuleohone
kairaroman
kairiba
kairibang
kaiser
kaisipan
kaislahan
kaisogan
kaito
kaitong
kaiwal
kaiyan
kajang
kajovenan
kaka
kakadikit
kakadlaganan
kakahoyan
kakahuyan
kakaiba
kakaibang
kakambal
kakampi
kakamping
kakanan
kakanon
kakaptan
kakaw
kakawat
kakayahan
kakayahang
kaklase
kakomplot
kaku
kakulangan
kakundian
kakusogan
kala
kalabaan
kalabakan
kalaban
kalabasa
kalabayan
kalabot
kalaenan
kalag
kalagan
kalakal
kalakalan
kalakawan
kalakbangan
kalakip
kalalakehan
kalalakihan
kalamansi
kalamay
kalamian
kalamias
kalamidad
kalamnan
kalan
kalanchoe
kalangitan
kalangkaw
kalangkawan
kalanguya
kalasag
kalatas
kalaunan
kalaw
kalawag
kalawakan
kalay
kalayaan
kalayo
kaldero
kale
kalendariong
kalendaryo
kalendaryong
kalentura
kalesa
kali
kalibapi
kalibo
kalibotan
kalibre
kalidad
kaligrapiya
kaligrapo
kaligtasan
kalikasan
kalilangan
kalilayan
kalimantan
kalinawan
kalinga
kalingking
kalinigan
kalipato
kaliwanagan
kalki
kalkulasyon
kalkulus
kalo
kalot
kalunggay
kalusugan
kaluyahan
kalye
kalyeng
kam
kama
kamag
kamagong
kamagurangan
kamahalan
kamaishi
kamal
kamala
kamalayan
kamalig
kamandag
kamang
kamanungdanan
kamao
kamaoo
kamara
kamarang
kamatean
kamatis
kamawotan
kamawutan
kamay
kamayo
kambal
kambodya
kambugu
kamelyo
kamen
kamera
kameron
kami
kamidbid
kamikaze
kamikazee
kamin
kaming
kamiseta
kamiyembrohan
kamo
kamogtakan
kamoro
kamot
kamote
kamoteng
kamoy
kampana
kampanaryo
kampanilya
kampanya
kampanyang
kampeon
kampeonato
kampeonatong
kampf
kampi
kampo
kamposanto
kampung
kampus
kampyon
kamugtakan
kamundagan
kamunduan
kamurawayan
kamuyahan
kan
kana
kanada
kanadyanong
kanakanabu
kanal
kananga
kanbas
kanda
kandidata
kandidato
kandidatong
kandidatura
kandila
kanding
kandingga
kane
kang
kangaranan
kangkong
kangkung
kangujam
kani
kanigoan
kaning
kanji
kankanaey
kanlaon
kanluran
kannada
kano
kanon
kanonikal
kanoodan
kanoos
kanowit
kansai
kansas
kanser
kansilay
kant
kanta
kantahon
kantang
kantaon
kantero
kantidad
kanto
kantones
kanumoy
kanva
kanya
kanyang
kanyon
kao
kaogma
kaogmahan
kaomahan
kaomawan
kaoripnan
kaoyon
kap
kapa
kapabayaan
kapadian
kapadis
kapag
kapagalan
kapahamakan
kapahapahamak
kapahayagan
kapakinabangan
kapakipakinabang
kapaladan
kapalaran
kapalibotan
kapalibutan
kapalong
kapamayuhan
kapamayuhang
kapamilya
kapampangan
kapanahonan
kapanahunan
kapangakian
kapangan
kapangapudan
kapangaranan
kapangganahan
kapangyarian
kapangyarihan
kapantay
kapanugaan
kapareha
kaparehas
kapareho
kaparehong
kaparte
kapasidad
kapatagan
kapatawadan
kapatid
kapawotan
kape
kapierdihan
kapiestahan
kapiling
kapilya
kapinonan
kapinunan
kapistahan
kapit
kapital
kapitalismo
kapitan
kapitolyo
kapitolyong
kapitoyo
kapitulo
kapiyestahan
kaplan
kaplanodohan
kapo
kapobrehan
kapok
kapoor
kapot
kapotan
kapp
kappa
kapu
kapulisan
kapuluang
kapungawan
kapurisawan
kapuroan
kapurohan
kapuso
kapusogan
kapusugan
kaputian
kaputikan
kaputol
kapwa
kara
karaba
karabakh
karagatan
karahasan
karahay
karahayan
karaipohan
karake
karakter
karakteristiko
karakteristikong
karakul
karamas
karan
karanasan
karangahan
karangalan
karaniwan
karaniwang
karantahan
karao
karaoke
karaotan
karapatan
karapatang
karara
kararaw
karasalan
karatan
karate
karatula
karautan
karawat
karay
karbohidrato
karboksiliko
karbon
kard
kardashian
kardinal
kare
karel
karelasyon
karen
karera
karerang
karga
kargadong
kargamento
kargo
kargong
kari
karibal
karibarawan
karibay
karibayan
karibongan
karigonan
karikaturista
karim
karimov
karin
karina
karingisan
kariribokan
karismatikong
kariton
karl
karla
karlo
karlsruhe
karma
karnal
karnataka
karne
karneng
karnero
karo
karol
karolina
karsel
karton
kartonista
karugtong
karwahe
karylle
karzai
kas
kasa
kasabay
kasabihan
kasadit
kasag
kasagkoran
kasagkorang
kasagkudan
kasagsagan
kasagsagi
kasahistan
kasakitan
kasal
kasalak
kasalan
kasalanan
kasali
kasalida
kasalihid
kasama
kasanayan
kasangkapan
kasangkot
kasangle
kasanglian
kasarabay
kasararoan
kasarian
kasarigan
kasaro
kasaroan
kasasarong
kasaysayan
kasegurohan
kashmir
kashmiri
kasi
kasibotan
kasibotang
kasibu
kasikatan
kasilag
kasilyasan
kasimbagan
kasing
kasiribotan
kasit
kasitas
kaskas
kaso
kasolo
kasong
kasosyo
kasta
kastigo
kastila
kastilang
kastilyo
kasu
kasuarin
kasugoan
kasugpon
kasuguan
kasulnopan
kasulo
kasulotan
kasulutan
kasundoan
kasunduan
kasunod
kasuran
kasuratan
kasurog
kasusuklaman
kaswal
kasyahan
kataas
katabang
kataed
kataga
katagang
katagasan
katahawan
katahawang
katahawi
kataid
katakana
katakin
katako
katakod
katakotan
katalan
katalingkasan
katalogo
katalunya
katambal
katampad
katamtaman
katangaan
katangian
katangyanan
kataning
katanog
katanosan
katao
katapat
katapatan
katapos
kataposan
katapostaposi
katapusan
katapusang
katapustapusi
kataraed
kataraid
katarina
katarungan
katas
katatag
katauhan
katawo
katawohan
katawong
katawuhan
kataytayan
kate
katedral
kategoriya
kategoriyang
kategorya
kategoryang
katemporanyo
katemporanyong
katha
kathang
katharine
katherine
kathleen
kathmandu
kathryn
kathy
katibayan
katie
katimbang
katinig
katiosan
katiponan
katipunan
katipunero
katiripona
katiriponan
katiripunan
katiwala
katiwasayan
katnga
kato
katokdoan
katol
katolika
katoliko
katolikong
katolisismo
katolohan
katongdan
katoninongan
katood
katorse
katorseng
katotohanan
katotoohan
katoy
katrabaho
katrina
katu
katubigan
katugangan
katugmaran
katuic
katuiko
katukdoan
katukduan
katumbas
katunayan
katungdan
katungkulan
katuninongan
katuod
katutubo
katutubong
katuwang
katuyohan
katuyuhan
katy
katya
katyono
kaufman
kaugalean
kaugalian
kaugaliang
kaugmahan
kaugnayan
kaugos
kaulangan
kaulayon
kaur
kauswagan
kautsky
kautuban
kavalan
kaw
kawa
kawad
kawali
kawani
kawaran
kawasa
kawat
kawatan
kawayan
kawi
kawili
kawit
kawkasalanan
kawsa
kay
kaya
kayab
kayamanan
kayan
kayang
kayapa
kaye
kayi
kayin
kaymito
kayo
kaysa
kayumanggi
kayumanggihon
kayumangging
kazakhstan
kazan
kazimierz
kazuko
kazuo
kb
kbs
kc
ke
kean
keaton
keats
kecamatan
kedah
keene
keep
keeping
kegan
kei
keiko
keith
kelabit
keller
kellerman
kellermann
kelly
kemikal
kemiko
kemp
ken
kendall
kenkoy
kennedy
kenneth
kenny
kent
kentaro
kentucky
kenya
kenyah
kenyan
kerala
keratin
kerepesi
kerinci
kern
kerr
kerry
kesa
kesennuma
keso
ketagalan
ketchum
ketchup
ketu
kevin
kevorkian
kew
key
keyboard
keyk
keynote
keys
kfc
kg
kha
khalifa
khalil
khan
khao
khartoum
khmer
kho
khoa
khodorkovsky
khrushchev
khuzai
khwa
khwarizmi
khz
ki
kiamba
kiangan
kianni
kibaki
kibawe
kiblawan
kid
kidapawan
kidlat
kidman
kidnapped
kidney
kids
kiel
kiev
kiisay
kikilat
kiko
kilabot
kilates
kill
killed
killer
killi
killing
killings
kilo
kilogramo
kilometres
kilometro
kilometrong
kilometros
kilong
kilos
kilt
kilusan
kilusang
kilyab
kim
kimball
kimberly
kimchi
kimika
kimikal
kimikang
kimiko
kimikong
kimono
kin
kina
kinaabtan
kinaag
kinaagan
kinaamayi
kinaaraman
kinababalihan
kinaban
kinabibilangan
kinaipuhan
kinakaag
kinakaagan
kinakaipo
kinakaipohan
kinakaipong
kinakaipuhan
kinakaipuhanan
kinakakan
kinakalkulo
kinakan
kinakanta
kinakapotan
kinakarkulo
kinakarkulong
kinakawat
kinalas
kinamomogtakan
kinamumugtakan
kinamundagan
kinanselar
kinanta
kinapotan
kinaptan
kinaputan
kinaray
kinarkulo
kinasal
kinasuhan
kinatawhan
kinaugalean
kinaugalian
kinawat
kind
kinda
kindaichi
kindergarten
kindle
king
kingdom
kingfisher
kings
kingsley
kino
kinodkod
kinokonsiderar
kinompirmar
kinompos
kinonsiderar
kinontra
kinoronahan
kinse
kinseng
kinshasa
kintab
kintanar
kinua
kinudot
kinukua
kinukultibar
kinumpirma
kinunot
kinurit
kiosk
kipot
kirat
kiray
kirche
kirgistan
kiri
kiribati
kirk
kirov
kirsten
kirtland
kisa
kisame
kisar
kishwar
kiskis
kislap
kiss
kisses
kissling
kisuerra
kit
kita
kitakata
kitang
kitanglad
kitcharao
kitchen
kite
kitlv
kitty
kiukok
kl
klab
klarado
klaripikasyon
klase
klaseng
klasikal
klasiko
klasikong
klasipikado
klasipikadong
klasipikasyon
klcc
klein
klerigo
kleriko
klima
klimang
klinika
klinikal
kliyente
klorina
klute
klutse
km
knew
knight
knights
knock
knockout
knot
know
knowledge
knowles
known
knox
ko
koalisyon
koba
kobayashi
kobbe
kobe
kobra
koch
kochi
koda
kodagu
kodansha
kodava
kodigo
kodigong
koedam
koedt
kofi
koila
kok
koko
kol
kola
kolaborasyon
kolambugan
koldewey
kolehio
kolehiyo
kolehiyong
koleksion
koleksiyon
koleksyon
kolektibong
kolektor
kolesterol
kolisyon
kolkata
kollontai
kolog
kolokyal
kolombya
kolonel
kolonisasyon
kolonya
kolonyal
kolonyalismo
kolonyalistang
kolonyang
kolor
kolozsva
kolum
kolumna
kolumnista
kom
komandante
komander
kombension
kombensyon
kombento
kombertido
kombinasyon
komedya
komedyang
komedyante
komedyanteng
komemorasyon
komentarista
komentaryo
komento
komersial
komersio
komersiyal
komersyal
komersyalisasyon
komersyante
komersyo
kometa
komi
komikero
komiks
komisyon
komisyonado
komisyoner
komite
komiteng
komitiba
komo
komon
komonen
komonwelt
kompaniya
kompaniyang
kompanya
kompanyang
komparasyon
komparatibong
kompas
kompederasyon
kompensasyon
komperensia
komperensiya
komperensya
kompetisyon
kompiansa
kompleanyo
kompleksong
kompleto
kompletong
komplikado
komplikadong
komplikasyon
komplikto
komponido
komportable
komposisyon
kompositor
komprehensibong
kompuesto
komputasyon
komputer
kompuwesto
kompuwestong
kompwesto
kompyuter
komun
komunidad
komunikasyon
komunismo
komunista
komunistang
komunwelt
komunyon
komyun
kon
konde
kondensadang
kondensasyon
kondimento
kondisyon
konduktor
konecky
koneksion
koneksiyon
koneksyon
konektado
konektadong
kong
konggreso
kongo
kongregasyon
kongresista
kongresman
kongreso
konkistador
konklusyon
konkreto
konkretong
konlan
kono
konotasyon
konrad
konsehal
konseho
konsekwensya
konsentrado
konsentradong
konsentrasyon
konsentrasyong
konsepsyon
konsepto
konseptong
konserbasyon
konserbatibo
konserbatibong
konsiderado
konsideradong
konsiderasyon
konsilyo
konsistido
konsiyerto
konsonante
konsorte
konstantin
konstelasyon
konstitusyon
konstitusyonal
konstruksyon
konsultant
konsultasyon
konsumidor
konsumo
konsyerto
konsyertong
kontak
kontaminasyon
konteksto
kontekstong
kontemporanyong
kontemporaryo
kontemporaryong
kontento
kontes
kontestant
kontinental
kontinente
kontinenteng
kontra
kontrabida
kontrabidang
kontrahon
kontraksyon
kontraryo
kontrata
kontratang
kontribusyon
kontributor
kontrobersiya
kontrobersiyal
kontrobersya
kontrobersyal
kontrol
kontrolado
kontrolon
kony
kooperasyon
kooperatiba
koordinasyon
kop
kopa
koponan
kopp
kopya
kopyang
koral
korales
koran
kordilyera
korea
korean
koreano
koreanong
korelasyon
koreo
koreograpo
korina
koro
koron
korona
koronadal
koronang
koronasyon
koronel
koror
korosyon
korporasyon
kors
korte
korteng
kortes
kortesiyang
korum
korupsyon
koryente
koryenteng
kos
kosa
kosang
kosmetikong
kosmikong
kosmolohiya
kosmolohiyang
kosmonaut
kosog
kosovo
kossuth
kosta
kostal
kosterm
kostumbre
kota
koteka
kotse
kotte
kova
kovick
kowloon
koyanagi
kr
kra
krako
kredibilidad
kredito
kredo
kremlin
kreole
krimen
kriminal
kris
krishna
krisis
krista
kristal
kristalikong
kristian
kristianismo
kristiano
kristianong
kristin
kristina
kristine
kristiyanidad
kristiyanismo
kristiyano
kristiyanong
kristo
kristyanismo
kristyano
kristyanong
kritika
kritikal
kritiko
kritikong
kritisismo
kro
kroasya
kroc
kromyo
krudo
krung
krus
kruspe
krymsky
krzysztof
krøyer
ks
ksentini
kshatriya
ku
kua
kuala
kualidad
kuan
kuanan
kuanon
kuarta
kuarto
kuay
kuba
kuban
kubiko
kubikong
kubismo
kublit
kubo
kubong
kudal
kudarat
kudeta
kudot
kudotan
kudyapi
kue
kuei
kugita
kugon
kugos
kuhl
kuhn
kui
kuiper
kujau
kuko
kulagbaw
kulang
kulay
kuleksyon
kulintang
kulitan
kulla
kulminasyon
kulo
kulog
kulongan
kultibasyon
kulto
kultura
kultural
kulturang
kulungan
kumander
kumar
kumbaga
kumbaya
kumbensiyon
kumbensyon
kumbento
kumbinasyon
kumboot
kumon
kumonwelt
kumpanya
kumpara
kumparasyon
kumpederasyon
kumperensiya
kumperensya
kumpetisyon
kumpigurasyon
kumpirmasyon
kumpleanyo
kumpleto
kumpletong
kumpol
kumua
kumulang
kumusta
kun
kuna
kunab
kundi
kundiman
kundisyon
kuneksyon
kung
kuno
kunokuno
kunsaen
kunsoarin
kunsoaring
kunst
kunstkring
kunti
kuopio
kupya
kur
kura
kurbada
kurdis
kurdish
kurdista
kurdistan
kurdo
kurikulum
kuril
kurit
kurleto
kuro
kurso
kursong
kurt
kurtina
kurting
kurtland
kuru
kurusong
kuryente
kuryenteng
kusa
kushmanda
kusina
kusog
kusogboot
kuta
kutana
kutang
kutsara
kutsilyo
kuusela
kuwadrado
kuwait
kuwarta
kuwarto
kuwaw
kuweba
kuwento
kuwesto
kuy
kuya
kuyugon
kvinnobiografiskt
kw
kwadrado
kwadradong
kwadrilatero
kwadro
kwalipikasyon
kwantitatibong
kwantum
kwarta
kwartang
kwartel
kwarterya
kwarto
kwartong
kweba
kwelyo
kwenta
kwento
kwf
ky
kyi
kyiv
kylie
kyline
kyo
kyoto
kyrgyzstan
kyu
kyung
kyushu
kz
køge
l
la
laad
laak
laan
lab
laba
labahan
laban
labanan
labang
labangan
labas
labason
labaw
labay
label
labi
labilabi
labilabing
labin
labing
labis
labo
labor
laboratory
laboratoryo
laboratoryong
labot
labour
laboy
labrador
labs
labu
labuan
labuyo
lacaba
lace
lachi
lacson
lada
ladauan
ladawan
laden
ladies
lado
ladong
ladrilyo
lady
lae
laen
lafayette
lag
lagalag
laganan
lagao
lagarde
lagawe
lagaylay
lagdoan
lagduan
lagerfeld
lagerlo
lagi
laging
laglagon
lago
lagonoy
lagoon
lagpas
lagting
laguna
lagundi
lahar
lahat
lahi
lahing
lai
laid
laika
laila
lain
lajos
lajta
lak
lakad
lakandula
lakas
lakaw
lakbang
lakdang
lake
lakers
lakes
lakewood
lako
lakop
lakopan
lakshmana
lakshmi
lal
lala
lalagan
lalake
lalakeng
lalaki
lalaking
lalang
lalauogon
lalawgon
lalo
lalong
lam
lama
laman
lamang
lamangan
lamanita
lamao
lamb
lambak
lambang
lambayong
lambert
lamberto
lambo
lambunao
lamesa
lamesang
lamiaceae
lamiales
lamiids
lamina
laminang
lamitan
lamp
lampara
lampas
lampung
lamut
lan
lana
lanang
lanao
lancashire
lance
lancet
land
landa
landas
lander
landing
landingan
landmark
landmarks
lands
landscape
landscapes
lane
lang
langa
langaw
langbard
lange
langgad
langis
langit
langitnon
langka
langkang
langkaw
langkawas
langkoy
langtad
language
languages
langue
languyan
lani
lanka
lankan
lanob
lanot
lanoue
lansang
lansangan
lansones
lantad
lantana
lantanido
lantano
lantau
lantawan
lantern
lantop
lanuza
lanvin
lanza
lanzones
lao
laoac
laoag
laoang
laog
laogan
laos
laot
laozi
lap
lapanak
lapay
lapaz
lapid
lapida
lapinig
lapis
lapnad
lapu
lapulapu
lapuz
lara
larangan
larantuka
larawan
laredo
larena
large
largest
largo
larry
lars
larvae
las
lasa
lasagna
lasagne
laser
lason
last
lat
lata
latang
lataw
latay
latbya
late
later
lateral
latest
latham
lati
latik
latimes
latin
latina
latino
latinong
latitud
latium
latter
latumbo
latvia
latvian
lau
lauber
laud
laude
lauder
laugan
laughter
launch
launched
launches
launching
laura
lauraceae
laureana
laureate
laureates
laurel
lauren
laurence
laurent
laurie
lauro
lausanne
laut
lava
lavender
lavinia
lavoisier
law
lawa
lawaan
lawak
lawang
lawas
laway
lawi
lawig
lawin
lawod
lawog
lawphil
lawrence
laws
lawsuit
lawyer
lawyers
lay
laya
layag
layagan
layas
layaw
layer
layi
layne
layog
layout
layug
lazaro
lazarte
lazi
lazio
lb
lbs
lc
lcc
ldez
lds
le
lea
lead
leader
leaders
leadership
leading
leads
leaf
league
leah
leal
lealtad
leandro
learn
learned
learning
least
leather
leave
leaves
leaving
lebak
lebanese
lebanon
lebata
lebel
lebran
lech
lecho
lechon
lecture
lecturer
lectures
led
ledesma
lee
leeds
lefebvre
left
leg
legacy
legal
legarda
legasiya
legaspi
legazpi
legazpiphotowalk
legend
legendary
legends
legion
legislative
legislature
lehenga
lehislador
lehislasyon
lehislatibo
lehislatibong
lehislatura
lehitimo
lehitimong
lehman
leibniz
leiden
leigh
leila
leipzig
leisure
leitmeritz
leiviska
leksikal
leksiko
leksikon
leksion
leksyon
lektura
lemery
lemon
lemonade
lemonsito
lemos
lena
lengguwahe
lengguwaheng
lenggwahe
lenggwaheng
length
lengua
lenguahe
lenguaheng
lengwahe
lengwaheng
leni
lenin
leningrad
lennon
lennox
lente
lenten
leny
leo
leon
leona
leonard
leonardo
leoncio
leone
leones
leonhard
leonor
leonora
leopard
leopold
leopoldo
lepanto
lepo
leptospirosis
ler
lerma
lerner
leroy
les
lesbian
lesbians
lesley
leslie
lesotho
lesoto
less
lesser
lesson
lessons
leste
lester
let
leton
letra
letran
letrang
letras
letter
letters
lettres
lettuce
leukemia
lev
levant
levay
level
levels
levi
levin
levine
leviste
levy
lew
lewis
lexical
lexicon
lexikon
ley
leyen
leyenda
leyes
leyte
lez
lg
lgbt
lgbtq
lgu
lh
lhuillier
li
lia
liabe
liacco
lian
liang
lianga
liao
lib
libacao
liban
libangan
libas
libel
liber
liberal
liberals
liberation
liberato
liberia
libertad
liberty
liberya
libingan
libis
libjo
libmanan
libo
libon
libong
libot
liboton
libra
librarian
libraries
library
libraryo
libre
libreng
libreria
libreriya
libro
librong
libtong
libungan
libya
libyano
libyanong
lica
licad
liceo
licorice
licuan
licypriya
liddell
lider
liderato
lideres
lidership
lidia
lie
liebfrauenkirche
liechtenstein
lies
lieutenant
life
lifestyle
lifetime
lift
liga
ligal
ligao
ligaw
ligaya
ligbos
light
lighthouse
lightning
lights
lightweight
ligid
lign
ligtas
liguria
lihim
lihis
likas
likayan
like
likhaan
likido
likidong
likod
likor
liktao
likud
lil
lila
lilang
lili
lilia
lilian
liliana
liliosa
liliw
lillian
lillie
lilly
liloan
lilod
liloy
lily
lim
lima
limang
limay
lime
limestone
limitado
limitadong
limitaran
limitasyon
limited
limits
limoges
limosa
limpoy
lin
lina
linaglag
linala
linaladawan
linalaman
linalang
linalaoman
linamon
linao
linaog
linapacan
linaw
lincoln
lincom
linda
lindbergh
linderos
lindong
line
linear
linegrey
linen
lines
ling
linga
lingaan
lingam
lingaw
lingayen
lingguwista
lingguwistiko
linggwista
linggwistika
lingig
lingkod
lingua
linguist
linguistic
linguistics
linguwista
linguwistiko
lingwista
lingwistika
linigan
liniwat
link
links
linn
linnaeus
lino
linobloban
linobngan
linog
linsa
linta
linuk
linuluto
linusob
linuto
linya
linyada
linyang
linyar
liog
lion
liong
lions
lipa
lipad
lipat
lipata
lipay
lipid
lipids
lipot
lipotok
lippincott
lips
lipunan
liquid
lira
liriko
lis
lisa
lisboa
lisbon
lisensya
lisensyadong
lissabon
list
lista
listahan
listang
listed
listen
listening
liston
lists
liszt
lit
lita
literacy
literal
literally
literalmente
literary
literaryo
literaryong
literatura
literaturang
literature
lithium
lithuania
lithuanian
litigasyon
litigation
litik
lito
litrato
litro
litrong
litsiyas
litsugas
little
littlefield
lituania
lituano
liturhikal
lityo
liu
liv
live
lived
livelihood
liverpool
lives
livestock
living
livingston
livingstone
livorno
liwan
liwanag
liwat
liwaton
liwayway
lix
liyabe
liz
liza
lizabeth
lizard
ljubljana
ll
lladoc
llama
llana
llanera
llanes
llc
ller
llorente
lloyd
llui
lma
ln
lo
loa
loay
lobby
lobe
lobel
lobo
loboc
lobong
loc
local
located
location
locations
locator
lock
lockdown
lockwood
locomotion
locomotive
locsin
lodge
log
logan
logaritmo
logic
logo
logod
logro
lohan
lohar
lohika
lohiya
loida
lois
lokal
lokalidad
lokasyon
lokdo
lokomotibong
lokton
lola
lolo
lolobngan
lolohon
loma
lombardo
lombardy
lombod
lombok
lomboy
london
londres
lone
lonely
long
longest
longinus
longman
longos
longyi
lonoy
loob
looc
look
looking
looks
loon
lope
lopes
lopez
lora
lord
lorde
lords
loren
lorena
lorenlegarda
lorenzo
loreto
lori
loriculus
loring
lorna
lorraine
los
loss
lost
lot
lota
lote
loteng
lotis
lotte
lotud
lotus
lou
loud
louie
louis
louisa
louise
louisiana
lounge
lour
lourdes
louvre
love
loved
lovely
lover
lovers
loves
lovi
loving
lovingly
low
lower
loyola
loyzaga
lozada
lozano
lpg
lr
lsjbot
lt
ltd
ltul
lu
luanda
luang
luba
lubang
lubao
lubid
lublin
lubo
lubong
lubongan
lubos
lubot
lubuagan
lubungan
luc
lucas
lucban
lucca
luce
lucena
lucero
lucha
lucia
luciano
lucie
lucien
lucile
lucille
lucio
luck
lucky
lucrecia
lucy
ludog
ludovico
ludwig
luffa
lugad
lugadan
lugar
lugaw
lugo
lugod
luha
luhay
lui
luigi
luis
luisa
luisiana
luk
luka
lukadon
lukas
lukban
luke
lukisan
lukot
lukso
lulubngan
lulutoon
luma
lumaban
lumabi
lumad
lumang
lumaog
lumaon
lumataw
lumba
lumbac
lumbaca
lumban
lumbang
lumbatan
lumbera
lumbia
luminakop
luminangkaw
luminaog
luminataw
lumingon
luminuwas
luminuya
lumod
lumot
lumpur
lumuwas
lun
luna
lunad
lunadan
lunar
lunas
lunch
luncheon
lund
lundayeh
lunes
luneta
lung
lungib
lungsod
lunyang
lupa
lupang
lupi
lupon
lusak
lustro
lutab
lutayan
lute
luteranong
luteum
lutgarda
luther
lutheran
luto
lutong
lutoon
lutuon
luuk
luukkonen
luv
luwas
luwasan
luway
luwayluway
lux
luxembourg
luxury
luy
luya
luz
luzon
luzonensis
luzviminda
lv
lvarez
lvaro
lviv
lvmh
lvn
ly
lyabe
lyce
lyceum
lychee
lydia
lying
lyman
lynch
lyndon
lynn
lynne
lyon
lyric
lyricist
lyrics
lə
m
ma
maaabot
maaagom
maaapektaran
maaaraman
maabot
maagi
maagom
maako
maalaala
maalamat
maalang
maaliwalas
maalsom
maantos
maapod
maarabot
maaraman
maaresto
maarteng
maasgad
maasim
maasin
maati
maating
mababa
mababanga
mababasa
mababawi
mabago
mabagsik
mabakal
mabalacat
mabali
mabalik
mabalos
mabanga
mabantig
mabari
mabasa
mabaskog
mabatobato
mabawasan
mabawi
mabaybay
mabel
mabey
mabibisto
mabiktima
mabilang
mabilog
mabinay
mabini
mabisto
mabitac
mabolo
maboot
mabubuhay
mabuhay
mabukas
mabukid
mabulo
mabunga
mabungang
mabuo
mabuot
mac
maca
macabebe
macapagal
macario
macarthur
macau
macauiuiling
macbeth
macdonald
macedon
macedonia
macedonian
macgyver
machine
machines
machu
mack
mackinnon
mackintosh
macleod
macmillan
maco
macroasia
mactan
macuja
macy
mad
mada
madadangog
madagascar
madagaskar
madahas
madakop
madalag
madalagan
madalan
madalas
madali
madalian
madaling
madalion
madam
madamba
madame
madangog
madaog
madara
madarang
madaya
maddela
maddie
made
madeleine
madeline
mademoiselle
madeterminaran
madhu
madhya
madia
madiklom
madiskobre
madiskubre
madison
madness
madonna
madonong
madras
madrasta
madrazo
madre
madrid
madridejos
madrigal
madrilejos
madudugangan
madugang
madugangan
madugong
madunong
madya
madyaas
mae
maedad
maelihir
maestablisar
maestra
maestro
maestrong
mafia
mag
maga
magabat
magabaton
magadan
magagabat
magagadan
magagamit
magagayon
magahum
magalang
magallanes
magalona
magamit
magandang
magapo
magarao
magarbong
magasin
magaspang
magassouba
magat
magatol
magayon
magayonon
magazine
magbaba
magbago
magbakal
magbali
magbalik
magbalyo
magbanua
magbasa
magbayad
magbilog
magbisita
magboot
magboto
magbugtak
magbukas
magbunga
magbungkaras
magbutas
magbutwa
magbyahe
magdadanay
magdakula
magdalagan
magdalan
magdalena
magdalene
magdamlag
magdanay
magdangal
magdara
magdarapo
magdemitir
magdesisyon
magdisenyo
magdiwang
magdugang
magdukot
magdulag
magduman
magellan
maggamit
magganap
maggibo
maggie
maghagad
maghale
maghali
maghaloy
maghaman
maghanap
maghapon
maghapot
magharale
maghiling
maghimo
maghira
maghiras
maghiro
maghubo
maghugot
maghugpa
maghuros
magi
magian
magibo
magic
magical
magidovitch
magigi
magigibo
magigin
magiging
magin
magindara
maging
maginibo
maginoo
magiya
magka
magkaag
magkaagid
magkaano
magkaaragidan
magkaarano
magkabaliktad
magkabaliktadan
magkaduwang
magkahiras
magkaiba
magkaibahan
magkaibang
magkaibong
magkaigwa
magkaigwang
magkakaiba
magkakaibang
magkakaigwa
magkakakonektar
magkakakontemporanyong
magkakalaen
magkakalain
magkakamping
magkakan
magkakapirang
magkalaban
magkalaen
magkampanya
magkandidato
magkanta
magkaparehas
magkapareho
magkaparehong
magkapira
magkapirang
magkapot
magkasararo
magkasi
magkasuway
magkataraid
magkatood
magkawat
magkawsa
magklase
magkonsentrar
magkontrol
magkua
maglaban
maglakaw
maglakop
maglaog
maglataw
maglayog
maglibot
maglinao
maglipat
maglomoy
maglukso
maglumoy
magluwas
magma
magmata
magmukna
magna
magnamit
magnesium
magnesyo
magnet
magnetikong
magnetismo
magnifico
magnitud
magnitude
magnitudo
magno
magnoliaceae
magnoliales
magnum
magnus
magpa
magpadagos
magpadalagan
magpadara
magpahayag
magpaheling
magpakasal
magpalakop
magpaluwas
magpamayo
magpangadye
magpapadagos
magpapaheling
magpartisipar
magpasiring
magpatindog
magpili
magpinta
magpirma
magpondo
magpoon
magporma
magprodusir
magpublikar
magpundo
magpuon
magputok
magrebelde
magrekord
magrepresentar
magresulta
magretiro
magsadiri
magsakay
magsakyada
magsalang
magsangat
magsangli
magsara
magsaysay
magserbe
magserbing
magsingal
magsirbe
magsisirbe
magsuko
magsulot
magsunod
magsurat
magsuway
magtaas
magtabang
magtago
magtalubo
magtanggol
magtanom
magtao
magtaong
magtapos
magtaram
magtataong
magtindog
magtipon
magtiripon
magtokda
magtokdo
magtongtong
magtrabaho
magtubo
magtuga
magtugang
magtugdok
magtukaw
magtukdo
magtukoy
magtulod
magturugang
magtutok
magu
maguguno
maguindanao
maguing
maguire
magunaw
maguno
magurang
magutom
magyar
mah
maha
mahaba
mahabang
mahabharata
mahadevi
mahahanap
mahakam
mahal
mahalaga
mahalagang
mahale
mahali
mahalin
mahalnas
mahaloy
mahaman
mahamis
mahamot
mahaplag
maharaja
maharang
maharashtra
maharlika
maharlikang
mahatma
mahavidya
mahawi
mahayag
mahayahay
maheheling
maheling
maher
mahi
mahibo
mahibog
mahibogon
mahigos
mahihiling
mahika
mahikang
mahilig
mahiling
mahimo
mahimpis
mahimpison
mahinog
mahiro
mahistrado
mahiwagang
mahiwas
mahiwasan
mahiwason
mahjong
mahmoud
mahmoudi
maholog
mahulog
mahusay
mai
maibabalik
maid
maiden
maigo
maigot
maiinit
maiisog
maikling
mail
mailuwas
maimbod
maimbong
maimbung
maimpluensya
maimpluensyang
maimpluwensyang
main
mainaan
maine
maingat
mainit
mainiton
mainland
mainstream
maint
maintindihan
maipadara
maipahiling
maipaliwanag
maipo
mairom
mais
maisihan
maisog
maison
maisons
maisurat
maitom
maitugdas
maitum
maj
maja
majapahit
majayjay
maji
majika
major
majority
mak
maka
makaabot
makaag
makaapektar
makaba
makabagong
makabali
makabalik
makabayan
makabilog
makaboto
makadulag
makaeksperyensia
makagibo
makagiram
makagradwar
makaguno
makahaman
makahanap
makahimo
makahiro
makahulogan
makaiba
makaka
makakakan
makakakua
makakan
makakasunod
makakatabang
makakua
makalaog
makaligtas
makalihis
makalikay
makaluwas
makamati
makamit
makamokna
makamtan
makamukna
makanagbo
makangalas
makangangalas
makangirhat
makangirit
makanood
makanos
makanuod
makaolang
makapag
makapagtao
makapangyarihan
makapangyarihang
makapasar
makaporma
makapot
makaraot
makarawat
makaresibe
makaresibi
makasabay
makasali
makasaysayan
makasaysayang
makassar
makasurat
makata
makatabang
makatakot
makatanosan
makatanusan
makatao
makataong
makatapos
makatatabang
makatatakot
makati
makatipon
makato
makatubod
makatukaw
makatungtong
makawala
make
maker
makers
makes
makeup
maki
makiayon
makibagay
makibaka
makikatood
makikita
makikomunikar
makilala
makiling
makilyab
makina
makinabang
makinang
makinarya
makinaryang
making
makintab
makipag
makita
maklasipikar
makoapo
makolor
makompleto
makontrol
makosog
makosogon
makrong
makua
makuang
makuapo
makukua
makukuang
makukusog
makulang
makulay
makulog
makumpleto
makunot
makuri
makuring
makusog
makusogon
mala
malaad
malabago
malaban
malabanan
malabang
malabar
malabo
malabon
malabsay
malacan
malacca
malacensis
malaen
malaga
malagasy
malagong
malain
malainlain
malaka
malakanyang
malake
malaking
malala
malalag
malalang
malaman
malamig
malang
malangas
malangkaw
malanit
malanyaon
malaog
malapa
malapatan
malapok
malapot
malaria
malasin
malasiqui
malasya
malate
malawak
malaweg
malawi
malawig
malay
malaya
malayalam
malayan
malayang
malayano
malaybalay
malayic
malayiko
malayo
malaysia
malaysian
malaysiano
malayu
malbog
malcolm
maldives
male
malgatse
mali
malibago
maliban
malibog
maligaya
maligtas
malik
malikayan
malikhaing
maliki
malilikayan
malilingawan
malilipot
maliliwat
malimono
malinalang
malinao
malinaw
maling
malinig
malipot
malipoton
malita
malitbog
maliwanag
maliwat
mall
mallig
mallow
malls
malnutrisyon
malo
malobago
malodok
malogyat
malolos
malomhok
malomoy
malone
malong
malou
malta
maluku
malumhok
malumoy
malunggay
malungkas
malungon
malungsi
maluso
maluto
malutong
maluwag
maluwas
maluway
maluya
maluyang
malvaceae
malvales
malvar
mama
mamahalon
mamalya
mamamahayag
mamantinir
mamanwa
mamasa
mamasapano
mamatay
mamatean
mamayo
mambajao
mambog
mamburao
mambusao
mamidbid
mamidbiran
mammal
mamo
mamokna
mamomoton
mamon
mamuhay
mamuju
mamukna
mamundag
mamundo
man
mana
manabo
manado
management
manager
managing
manalang
manalo
manamit
mananagboan
mananakop
manang
mananggad
manansala
manaoag
manaog
manay
manchester
mandailing
mandalagan
mandalay
mandaluyong
mandamiento
mandaon
mandar
mandarin
mandate
mandato
mandatory
mandaue
mandaya
mande
mandela
mandiberg
mandible
mandurriao
manedyer
manera
mang
manga
mangaipo
mangaldan
mangalore
mangan
manganese
mangangalakal
mangatarem
mangayawan
mangga
manggahan
manggana
manggang
manggas
manggosten
mangiba
mangifera
mangirhat
mangiriba
mangko
mangno
mango
mangosteen
mangrove
mangroves
mangyan
mangyari
mangyayari
manhattan
mani
manide
manifesto
manigong
manihot
maniki
manila
manilatimes
manilyn
maningning
maninigo
maninigong
manipestasyon
manipesto
manipis
maniq
manito
maniwang
mankayan
mankind
manlaen
manlaenlaen
manlaenlaenaen
manlagnit
manlain
manlainlain
manlangit
manley
manly
mann
manner
manners
mannheim
manning
manny
mano
manoa
manobo
manohar
manok
manolo
manombrahan
manongod
manonompongan
manonongod
manor
manrique
mansaka
mansakan
mansalay
mansana
mansanang
mansanas
mansfield
mansi
mansion
manso
manson
mansyon
manta
mantang
mantauran
manticao
mantikilya
mantinea
mantinido
mantle
mantodea
mantra
mantras
manual
manudan
manuel
manufacturing
manukan
manunggul
manungod
manunulat
manunumpungan
manunungod
manunuparan
manuscript
manuscripts
manuskrito
manuskritong
manwal
many
manzano
mao
maogma
maogmang
maoi
maomayan
maonabihan
maoonabihan
maori
map
mapa
mapadagos
mapadapit
mapag
mapagantad
mapagayon
mapagdanay
mapagkukuanan
mapagsuportar
mapait
mapakaray
mapakarhay
mapakusog
mapalabot
mapalad
mapalakop
mapaluwas
mapan
mapanas
mapandan
mapang
mapanggana
mapangganang
mapano
mapantao
mapanungod
mapanunungod
mapapanas
mapara
mapatalsik
mapaurog
mapili
mapondo
mapoon
maporma
mapping
mapreserbar
maprotehiran
maps
mapu
mapua
mapublikar
mapuersang
mapugol
mapuho
mapula
mapulang
mapulot
mapupuwedeng
mapupwede
mapupwedeng
maputi
maputing
maputo
mapuwede
mapuwedeng
maqueda
mar
mara
maraborab
marabut
maragondon
maragtas
maragusan
marahay
marahayon
maramag
marambong
maraming
maranan
maranao
maranaw
maranding
marang
marangal
maranta
marantao
maraot
marara
mararang
mararaot
marasa
marasigan
marathi
marathon
maravilla
marawi
maray
marayrahay
marbel
marble
marc
marcel
marcela
marcelino
marcelle
marcello
marcelo
march
marcha
marching
marcial
marciano
marco
marcoleta
marcos
marcus
mardi
mare
mareco
maresibe
maresibi
maresulta
marfil
margaret
margareta
margaretha
margarita
margarito
marge
margery
margin
margolin
margosatubig
margot
marguerite
marha
marhay
marhen
marhinal
mari
maria
mariae
mariah
marian
mariana
marianas
marianne
mariano
maribojoc
maribok
maribong
maricel
maricris
marie
mariel
marietta
marigon
marigoso
marihatag
marika
marikas
marikason
marikina
marikit
marilao
marillac
marilou
marilyn
marimar
marin
marina
marinduque
marine
marinel
mariner
marinero
maringis
marino
marinong
mario
marion
maripipi
mariposa
maririsa
marisa
marissa
marita
marital
marites
maritime
maritimo
maritimong
mariveles
marjorie
mark
marka
markadong
markandeya
markang
marker
markers
market
marketing
markets
marks
marlene
marlton
marmol
marne
maro
marogong
marpolbul
marques
marquez
marquis
marriage
married
marry
mars
marseille
marsh
marsha
marshal
marshall
marso
mart
marta
marte
martel
martes
martha
marti
martial
martilyo
martilyong
martin
martina
martinez
martino
martins
martinus
martir
martires
martirez
martsa
marty
martyr
martyrs
marvel
marvin
marx
marxism
mary
maryland
maryo
mas
masa
masabi
masabing
masabotan
masagana
masaheng
masaker
masakit
masakiton
masakop
masala
masambit
masamwang
masang
masangli
masaraga
masaray
masarig
masasabi
masasabing
masasakop
masasarigan
masbate
masbaten
masbatenyo
masbatenyong
masedonya
maseguro
masel
masela
masetas
masibot
masiguro
masimbagan
masinloc
masiram
masirang
masirbe
masisiram
masjid
mask
maskara
maskarang
maski
masks
maslog
mason
masoneriya
masorti
masoud
mass
massa
massachusetts
massacre
massive
masson
massoud
master
masterado
masteral
masterpiece
masters
mastura
masturbasyon
masulo
masunod
masurunod
masusog
masusupgon
masususog
masuway
masyado
masyadong
mat
mata
mataas
mataba
matabang
matabangan
matabilog
matabungkay
matag
matagal
matagas
matagok
matagom
matagumpay
matakot
matalam
matalasay
matalino
matalom
matampay
matanao
matanda
matang
matanga
matangi
matanog
matanos
matao
mataong
matapat
matapos
matarik
matarom
matatagas
matatapos
matatawan
matawan
matawo
matawong
match
mate
matematika
matematikang
matematiko
matematikong
matematiks
mateo
mater
material
materials
maternal
maternity
materya
materyal
materyales
math
mathematical
mathematician
mathematics
mathew
mati
matias
matibay
matibayon
matigsalug
matilaba
matilabang
matilda
matilde
matimbang
matin
matindog
matingog
matipanas
matipon
matira
matitibay
matnog
matogdas
matoninong
matrayumpo
matrayumpong
matris
matriumpong
matrix
matriyumpo
matriyumpong
matsu
matsuda
matsudaira
matsushima
matsya
matt
matter
matters
matthew
matthews
matthias
matu
matua
matuang
matubang
matubig
matuguinao
matukaw
matunaw
matungao
matuninong
maturation
mature
matute
matutina
mauban
maubos
maud
maugma
maugmang
maui
mauna
maunabihan
maurag
maureen
maurice
mauricio
mauritania
mauritanya
mauritius
maurya
mauseleum
mausoleo
mausoleum
mauswag
mauswagon
maute
mautner
mauunabihan
maverick
mawab
mawara
mawawara
mawot
max
maxi
maxilla
maxim
maxima
maximo
maximum
maxine
maxwell
may
maya
mayaman
mayamanon
mayayaman
maybe
maybunga
mayer
mayflower
maygurang
mayi
maykapot
maynila
mayo
mayon
mayong
mayor
mayoral
mayorga
mayoria
mayoridad
mayoriya
mayoriyang
mayormente
mayorya
mayoryang
mayotte
mayoyao
mayrina
mayroon
maysala
mayson
mayurbhanj
mayweather
maza
mazda
mb
mba
mbc
mbm
mc
mcarthur
mcbride
mccain
mccardell
mccarthy
mccartney
mcdonald
mcfarland
mcgarry
mcgill
mcginley
mcgraw
mcgregor
mckenna
mckinley
mcm
mcqueen
md
me
mead
meadows
meal
mean
meaning
means
measure
measurement
measures
meat
mecca
mechanical
mechanics
mechanism
mechanismo
mechanisms
med
meda
medal
medalist
medalistang
medallion
medalya
medalyang
medellin
medgoen
medgyaszay
media
median
medical
medicare
medici
medicinal
medicine
medicines
medieval
medikal
mediko
medimmune
medina
medio
medisina
medisinal
medisinang
meditasyon
mediteraneo
mediterranean
mediterraneo
medium
medley
medusa
medved
medvedev
medya
medyas
medyo
medyum
meek
meet
meeting
meetings
meets
meetup
meg
mega
megamall
megan
megatron
mehikano
mehikanong
mehiko
mei
meier
meiji
mein
meir
mejico
mejor
mekanika
mekanikal
mekanikang
mekaniko
mekanismo
mekhela
mel
melampodium
melanau
melania
melanie
melati
melayu
melbourne
melchizedek
melchor
melchora
melendreras
melilla
melinda
melissa
meliton
mella
mellon
melo
melodrama
melody
melokoton
melon
melsbach
melville
melvin
member
members
membership
membrane
memo
memoir
memoirist
memoirs
memorabilia
memorable
memorandum
memoria
memorial
memories
memory
memorya
memphis
men
mena
mendelssohn
mendes
mendez
mendiola
mendoza
menor
menos
mensahe
mensaheng
menstrual
menswear
mental
mentawai
mention
mentor
menu
menudo
mer
meralco
merap
mercado
mercedes
merchant
mercury
mercy
mere
meredith
merger
meri
meriam
meridian
merienda
merit
merito
merkado
merkel
merkuryo
merlinda
mermaid
merriam
merrill
merritt
merry
merz
mes
mesa
mesiyanikong
mesiyas
mesoamerika
mesopotamia
mesopotamya
message
messenger
messenia
mestisang
mestisong
mestiza
met
meta
metabolic
metabolismo
metal
metaliko
metalikong
metalloid
metals
metamorphosis
metano
metaphysics
meteor
meteorological
meteorology
meteorolohiya
meter
methamphetamine
methane
method
methodius
methods
meto
metodo
metodong
metres
metriko
metrikong
metro
metrong
metropolis
metropolitan
metropolitana
metropolitanong
metros
metz
mexican
mexico
meycauayan
meyer
mez
mezzo
mfa
mg
mga
mgas
mgm
mgs
mhnt
mhz
mi
mia
miagao
miami
mic
micelle
michael
michel
michelangelo
michele
michelin
michelle
michigan
michiko
mick
mickey
miclat
micro
microbiology
microformats
micronesia
microsoft
microwave
mid
midbid
midbidan
middle
middleton
middleweight
midi
midnight
midsayap
midwest
midya
mie
miembro
miembrong
miembros
mientras
might
migrant
migrante
migranteng
migrasyon
migration
miguel
miguelito
migz
miha
mijares
mika
mike
mikee
mikhail
mikro
mikrobiyolohiya
mikrobyo
mikroorganismo
mikropono
mikroskopikong
mil
mila
milagro
milagros
milagrosa
milagrosong
milan
milano
milaor
milbern
milby
mildred
mile
milenyalismo
milenyo
miles
miley
milf
milimetro
militant
militante
militanteng
militar
military
milk
milkfish
milky
mill
millan
millennial
millennium
miller
millett
millicent
million
millionaire
mills
milo
milton
milwaukee
milya
milyang
milyaph
milyon
milyones
milyong
mimaropa
mimi
min
mina
minaabot
minaadal
minaagi
minaako
minaakto
minababa
minabago
minabagtas
minabale
minabali
minabalik
minabalyo
minabilog
minabisto
minabulos
minadalagan
minadepende
minagamit
minagana
minaganang
minagibo
minagikan
minagiya
minahal
minahan
minahasa
minahasan
minahimo
minahiro
minaikot
minaj
minakahulugan
minakapot
minakawsa
minakompuesto
minakonsidera
minalabac
minalakop
minalampas
minalaog
minalataw
minaluwas
minamahal
minamansay
minamate
minamawot
minami
minana
minanga
minangkabau
minapalaen
minapanungod
minapoon
minaporma
minapuon
minarango
minarepresenta
minarepresentar
minaresulta
minas
minasagkod
minasaklaw
minasakop
minasalming
minasimbolo
minasunod
minasuporta
minasurunod
minatakod
minatao
minataong
minatindog
minatogot
minatubod
minatugot
minatukdo
minatukoy
minatumoy
minauyon
mind
mindanao
mindanews
mindorensis
mindoro
minds
mindset
mine
mineral
minerva
mines
ming
minglanilla
minh
mini
minidbid
minilyon
minimidbid
minimirar
minimum
mining
miniseries
minister
ministers
ministeryo
ministries
ministro
ministrong
ministry
minneapolis
minnesota
minnie
mino
minor
minore
minoridad
minority
minoriya
minoriyang
minorya
minoryang
minsan
minsk
mint
mintz
minuesa
minukna
minundag
minus
minute
minutes
minuto
minutong
minutos
minuyan
minyoung
mir
mira
mirabel
miracle
miracles
miranda
mirasol
miraya
miriam
mirror
mirrors
mis
misa
misalucha
misamis
miscellaneous
mise
mision
misionero
misionerong
misis
miski
miskolc
mismo
mismong
misolas
mison
misrata
miss
missile
missing
mission
missionaries
missionary
missions
mississippi
missouri
missy
mistake
mister
misteryo
misteryosong
mistichthys
mistiko
mistral
mistress
mistri
mistrual
misuari
misyon
misyonaryo
misyonaryong
misyonero
misyonerong
mit
mitch
mitchell
mitigasyon
mitigation
mitikal
miting
mitingan
mito
mitolohikal
mitolohiya
mitolohiyang
mitra
mitsu
mitsubishi
mitzi
miuccia
mix
mixed
mixture
miyagi
miyake
miyako
miyembro
miyembrong
mk
ml
mlb
mlle
mm
mmff
mn
mnet
mnhs
mo
moa
mob
mobile
mobimiento
mobimientong
mobimyento
mobimyentong
mobo
mock
mockingbird
mod
moda
modang
mode
model
modeling
modelo
modelong
models
moderatong
moderator
modern
modernisme
modernismo
modernistang
modernity
moderno
modernong
modesto
modi
modified
modista
modo
modular
module
modules
mogadishu
mogta
mohamed
mohammad
mohammed
moi
moira
moises
moist
mojon
moken
moklen
moksha
mol
molar
molave
moldenke
moldova
mole
molecular
molecule
molecules
molekula
molekulang
molekular
molibdeno
molina
molino
molise
moll
mollusk
molly
molo
mom
moma
moment
momento
momentong
moments
momentum
mommy
momoland
momordica
mon
mona
monaco
monako
monarka
monarkiya
monastery
monasteryo
monasteryong
mondadori
monde
mondo
moneda
monetary
money
mong
mongella
monggo
monghe
mongol
mongolia
mongolian
mongolya
mongondow
monica
monico
monier
monika
monique
monitor
monitoring
monk
monkayo
monkey
mono
monodon
monograph
monomero
monomerong
monophyletic
monosaccharide
monoteistiko
monoteistikong
monoxide
monreal
monroe
monsieur
monson
monsoon
monster
montalban
montan
montana
montano
monte
monteclaro
montefiore
montenegro
montes
montessori
montevideo
montevista
montgomery
month
monthly
months
montilijao
montpellier
montreal
montserrat
montt
monument
monumental
monumento
monumentong
monuments
moods
moody
moog
moojen
moon
mooney
moonlight
moonstruck
moore
mor
mora
moraceae
moral
morales
moralidad
morality
moran
morata
morato
more
moreno
morga
morgan
mori
moringa
morioka
moriones
morley
mormon
mormonismo
mormons
morning
mornings
moro
moroccan
morocco
moroko
morong
moros
morotai
morphology
morphosyntax
morpolohiya
morris
morrison
morrow
mort
mortal
morte
morton
morus
mos
mosaic
moscato
moscow
moses
moske
moskowitz
mosku
moslem
mosley
mosque
mosquito
moss
most
mostly
mosyon
mother
motherhood
mothers
motibasyon
motibo
motif
motilal
motion
motivation
moto
motor
motors
motorsiklo
motorsport
motu
moulin
mount
mountain
mountaineer
mountains
mouse
mouth
mouton
move
moved
movement
movements
movie
movies
movimiento
moving
mozambique
mozart
mp
mph
mpla
mpo
mr
mrs
mrt
ms
msgr
msn
mt
mtc
mtrcb
mtv
mu
muammar
mubarak
much
mucosa
mucus
mud
muebles
muerte
mug
mugabe
mughal
mugiya
mugs
muh
muhammad
muhlach
muir
mujica
muka
mukha
mukhang
mukna
muknang
muknaon
mula
mulan
mulawin
mulberry
muli
muling
multi
multilateral
multilingual
multimedia
multinasyonal
multiplayer
multiple
multiplikasyon
multiselular
multo
mumbai
mummy
mun
muna
munai
munda
mundi
mundial
mundo
munich
municipal
municipalities
municipality
munisipal
munisipalidad
munisipyo
munisipyong
munji
munro
munti
munting
muntinlupa
murakami
mural
murcia
murder
murdered
murdoch
muriel
murik
murimirwa
muro
murong
murphy
murray
murugan
murut
murutiko
musa
muscat
muscle
muse
museo
museoa
museong
museu
museum
museums
musharraf
mushroom
musi
music
musical
musicale
musician
musicians
musika
musikal
musikang
musikero
musikerong
musiko
musikong
musk
muskular
muslim
mussolini
must
mustafa
mustahabb
mustapha
mutilation
muting
mutual
mutually
mutya
muwebles
muya
muyang
muzon
mv
mvp
mw
mwai
mwebles
mx
my
myanmar
myembro
myembrong
myembros
myerkoles
myers
myristicaceae
myrna
myrtaceae
myrtales
myrtle
myself
mysore
mysteries
mysterious
mystery
mystic
mystique
myth
mythology
myths
myx
mə
n
na
naaabot
naaapektaran
naaaraman
naabala
naabot
naacp
naadalan
naagaw
naagi
naagihan
naagom
naako
naalok
naamigo
naapektaran
naapektuhan
naapod
naaprobaran
naaraman
naaresto
naawan
naba
nababa
nababago
nababakal
nababanaag
nababanga
nababantog
nabadil
nabagat
nabago
nabakal
nabaktas
nabalik
nabalo
nabanga
nabanggit
nabansagan
nabantog
nabareta
nabasa
nabawasan
nabawe
nabawi
nabayaan
nabebenta
nabenta
nabi
nabibilang
nabibilog
nabibisto
nabibistong
nabigasyon
nabigla
nabilanggo
nabilog
nabisto
nabistong
nabotohan
nabua
nabubuhay
nabugtak
nabuhay
nabulos
nabunga
nabungaw
nabunturan
nabunyagan
nabuo
nabutwa
nabuyagyag
nach
nacion
nacional
nacionalista
naciones
nada
nadadagdagan
nadadakop
nadadangog
nadadaog
nadadara
nadagdagan
nadagos
nadakop
nadakula
nadal
nadalihig
nadamay
nadangog
nadanyaran
nadaog
nadara
nadestino
nadeterminaran
nadia
nadine
nadiskobre
nadiskobreng
nadiskubre
nadistroso
nadu
nadugang
nadugangan
nadukayan
naedad
naeeksperyensiahan
naeksperyensiahan
naelehir
naelihir
naempleo
naenot
naerido
naestablisar
nag
naga
nagaabot
nagaatubang
nagaba
nagabot
nagadal
nagadan
nagagadan
nagagamit
nagaganap
nagamit
naganyat
nagasaki
nagawadan
nagawaran
nagbaba
nagbabagang
nagbabago
nagbabagong
nagbabaklay
nagbabalagon
nagbabalik
nagbabantay
nagbabanwa
nagbabareta
nagbabasa
nagbabawal
nagbabayle
nagbago
nagbagsak
nagbakal
nagbaklay
nagbaktas
nagbalangibog
nagbale
nagbali
nagbalik
nagbalyo
nagbanwa
nagbaralik
nagbareta
nagbayad
nagbayle
nagbebenta
nagbenta
nagbentang
nagbibilang
nagbibilog
nagbibisita
nagbida
nagbilog
nagbisita
nagbiyahe
nagbobolos
nagboboot
nagboot
nagboses
nagboto
nagbu
nagbubugtak
nagbubuhay
nagbubulos
nagbubunga
nagbubuo
nagbuburak
nagbubutwa
nagbubuyagyag
nagbugtak
nagbuhay
nagbukas
nagbukel
nagbunga
nagbungkaras
nagbungsod
nagbunsod
nagbuo
nagburutwa
nagbutas
nagbutwa
nagbuyagyag
nagbwelta
nagbyahe
nagcarlan
nagcausa
nagdadagdag
nagdadakol
nagdadakul
nagdadakula
nagdadakulang
nagdadalagan
nagdadalan
nagdadanay
nagdadangadang
nagdadangog
nagdadara
nagdagdag
nagdakit
nagdakol
nagdakul
nagdakula
nagdalagan
nagdanay
nagdangtol
nagdara
nagdaralan
nagdarang
nagdatong
nagdebut
nagdebyu
nagdedepende
nagdedeterminar
nagdeklara
nagdemitir
nagdesenyo
nagdesidir
nagdesinyo
nagdesisyon
nagdisenyo
nagdodoon
nagdonar
nagdudugang
nagduduman
nagdugang
nagdulag
nagdulot
nagduman
nagdurulag
nageerok
nageestar
nagerok
nagestar
naggadan
naggagamit
naggaganap
naggagarantiya
naggagrabeng
naggamit
naggana
nagganap
nagganar
naggawad
naggibo
naggigibo
naggigikan
naggikan
naggiya
naggraduar
naggraduwar
naggradwar
naggugurang
nagguno
naggusi
naghagad
naghahagad
naghahalat
naghahale
naghahali
naghahaloy
naghahaman
naghahanap
naghahanggilid
naghaharong
naghahatod
naghakot
naghale
naghali
naghalo
naghaloy
naghaman
naghanap
naghanda
naghapot
naghayag
nagheheling
nagheheras
nagheras
naghihiling
naghihimo
naghihinako
naghihinapos
naghihingagdan
naghihingako
naghihiras
naghihiro
naghihirong
naghimo
naghingoa
naghingoang
naghira
naghiras
naghiro
naghiwas
naghubo
naghugot
naghugpa
naghuhuna
naghuhurot
naghula
naghuna
naghuros
nagi
nagibo
nagibong
nagigibo
nagigibong
nagigin
nagiging
nagikan
nagin
naging
naginibo
naginibohan
naginibuhan
nagka
nagkaag
nagkaaki
nagkagaradan
nagkahelang
nagkaigwa
nagkaigwang
nagkainteres
nagkakahalagang
nagkakahoy
nagkakaiba
nagkakaigwa
nagkakaipo
nagkakakan
nagkakalaen
nagkakalaenlaen
nagkakamang
nagkakan
nagkakanta
nagkakapirang
nagkakapot
nagkakasararo
nagkakasararong
nagkakawat
nagkakawsa
nagkaklase
nagkamit
nagkampanya
nagkampeon
nagkampi
nagkamurundag
nagkandidato
nagkanta
nagkapira
nagkapirang
nagkapot
nagkapwersa
nagkarulugadan
nagkasala
nagkasuwayan
nagkawarara
nagkawat
nagkawsa
nagkikilyab
nagklase
nagkokolor
nagkokondukta
nagkokonsumo
nagkokontra
nagkokontribwir
nagkokontrol
nagkomento
nagkondukta
nagkondusir
nagkonklusyon
nagkontra
nagkontribwir
nagkua
nagkuang
nagkukua
nagkukulang
nagkukusog
nagkurit
nagkusog
naglaag
naglaban
naglakaw
naglakop
naglalaad
naglalaban
naglaladawan
naglalakaw
naglalakop
naglalaman
naglalangkaw
naglalangoy
naglalaog
naglalaom
naglalataw
naglalayaw
naglalayog
naglangkaw
naglangoy
naglansar
naglaog
naglapigot
naglataw
naglawig
naglayag
naglayog
naglibot
nagligad
naglihis
naglilibot
naglilikay
naglilingkod
nagliliwat
naglingkod
naglipas
naglipat
naglitik
naglubog
nagluluwas
nagluluya
nagluluyang
naglusob
nagluwa
nagluwas
nagluya
nagmamaigot
nagmamaneho
nagmamantinir
nagmamasid
nagmamato
nagmamawot
nagmana
nagmarka
nagmawot
nagmokna
nagmomokna
nagmomostra
nagmukna
nagmumukna
nagngangaran
nagngangarang
nagngata
nagooperar
nagoya
nagpa
nagpaamerika
nagpabantog
nagpabisto
nagpadagos
nagpadakula
nagpadalagan
nagpadara
nagpaduman
nagpaeksibit
nagpagana
nagpagibo
nagpahayag
nagpaheling
nagpahiling
nagpahingalo
nagpahiro
nagpahunod
nagpaili
nagpakasal
nagpakosog
nagpakusog
nagpalagda
nagpalis
nagpaliwanag
nagpaluwas
nagpamidbid
nagpangenot
nagpangyari
nagpapa
nagpapaabot
nagpapabakal
nagpapabanaag
nagpapabisto
nagpapadagos
nagpapadakula
nagpapadalagan
nagpapadara
nagpapadikit
nagpapagirumdom
nagpapahayag
nagpapaheling
nagpapahiling
nagpapahingalo
nagpapalakop
nagpapaliwanag
nagpapaluwas
nagpapamidbid
nagpapangyari
nagpapangyaring
nagpaparalangkaw
nagpaparisa
nagpapartisipar
nagpapasakop
nagpapasiring
nagpapatanid
nagpapatos
nagpapatotoo
nagpapel
nagpaplano
nagpapraktis
nagpapusog
nagpaputok
nagparabyahe
nagpartisipar
nagpasa
nagpasabong
nagpasar
nagpasige
nagpasiring
nagpatalubo
nagpatanid
nagpatindog
nagpatogdok
nagpatotoo
nagpatugdok
nagpeperform
nagperform
nagperporm
nagpili
nagpinta
nagpipinta
nagpirirma
nagpirit
nagpirma
nagpirmi
nagplano
nagpondo
nagpoon
nagpopoon
nagpoporma
nagpoprodusir
nagpoprodyusir
nagpoprogreso
nagpoprotehir
nagporma
nagpraktis
nagprobar
nagprodusir
nagprodyusir
nagprogreso
nagproponer
nagproprodusir
nagprotesta
nagpublikar
nagpukaw
nagpuli
nagpundar
nagpundo
nagpuon
nagpupublikar
nagpupugol
nagpupunsionar
nagpupuon
nagputok
nagrahay
nagrampaog
nagraralaban
nagrayo
nagrebelde
nagrekord
nagreport
nagrepresentar
nagrereklamo
nagrerekomendar
nagrerepresenta
nagrerepresentar
nagreresibe
nagreresibi
nagreresulta
nagresibe
nagresibi
nagresulta
nagretiro
nagribay
nagriribay
nagruluwas
nagsa
nagsabi
nagsabing
nagsabrit
nagsadiri
nagsadiring
nagsagibo
nagsakat
nagsakay
nagsakit
nagsakop
nagsakyada
nagsali
nagsalida
nagsalin
nagsambit
nagsanga
nagsangat
nagsangle
nagsangli
nagsapo
nagsara
nagsaro
nagsasabi
nagsasabing
nagsasadiring
nagsasagibo
nagsasakit
nagsasakop
nagsasamba
nagsasambit
nagsasangli
nagsasapeligro
nagsasapo
nagsasapot
nagsasarabi
nagsasaray
nagsasarig
nagsayuma
nagsayumang
nagserbe
nagserbeng
nagserbi
nagserbing
nagseselebrar
nagseserbe
nagseserbi
nagseserbing
nagsibot
nagsikat
nagsimbag
nagsirbe
nagsirbeng
nagsirbi
nagsirbing
nagsisibot
nagsisikwal
nagsisimbolo
nagsisirbe
nagsisirbeng
nagsisirbi
nagsisirbing
nagsosolo
nagsosolong
nagsuherir
nagsuko
nagsulot
nagsumpa
nagsunod
nagsuporta
nagsurat
nagsurunod
nagsusubang
nagsusugpon
nagsusuherir
nagsusukol
nagsusulot
nagsusunod
nagsusuplay
nagsusuporta
nagsusuportar
nagsusurat
nagsusuway
nagsuway
nagsuwayan
nagswestyon
nagtaas
nagtabang
nagtabo
nagtago
nagtagumpay
nagtala
nagtalikod
nagtalo
nagtalubo
nagtama
nagtampok
nagtanda
nagtangro
nagtanom
nagtao
nagtaong
nagtapos
nagtapsok
nagtaram
nagtata
nagtatabang
nagtatago
nagtatakod
nagtatalubo
nagtatalubong
nagtatampok
nagtatangro
nagtatanom
nagtatao
nagtataong
nagtatapos
nagtataram
nagtatata
nagtatau
nagtatrabaho
nagtatrabahong
nagtau
nagtener
nagtindog
nagtios
nagtipon
nagtipunan
nagtiripon
nagtitimbang
nagtitinda
nagtitindog
nagtitios
nagtitipon
nagtitiripon
nagtogdas
nagtogdok
nagtogot
nagtokda
nagtokdo
nagtolod
nagtoon
nagtotogot
nagtotokdo
nagtotolod
nagtotomoy
nagtrabaho
nagtratrabaho
nagtu
nagtubod
nagtuga
nagtugdas
nagtugdok
nagtugot
nagtuhaw
nagtukaw
nagtukdo
nagtulod
nagtumang
nagtunga
nagtutok
nagtutubo
nagtutubod
nagtutugma
nagtutugot
nagtutukaw
nagtutukdo
nagtutukoy
nagtutulod
nagtuturo
nagtuturog
nagtuyaw
naguen
naguguno
naguilian
naguno
nagwalat
nagwarak
nagyeyelong
nah
nahagop
nahahaloy
nahahaman
nahahanap
nahahangganan
nahale
nahali
nahaloy
nahaman
nahanap
naheheling
naheling
nahihiling
nahihimo
nahiling
nahimo
nahimong
nahimsa
nahira
nahoholog
nahuatl
nahuhulog
nahulaan
nahulog
nahuring
nai
naibalyo
naic
naiheras
naiiba
naiibang
naiimpluwensyahan
naiinot
naiintindihan
naikaag
naikurit
nailaladawan
nailigtas
nailista
nailuwas
naimbento
naimbitaran
naimbuelto
naimbwelto
naimpluwensiahan
naimpluwensiyahan
naimpluwensya
naimpluwensyahan
naimpluwensyang
naimprenta
naimukna
nainaan
nainot
nainspirar
naintindihan
naipabakal
naipahiling
naipalagda
naipalis
naipaluwas
naipasa
naipit
naipon
naipublikar
nairehistro
nairekord
nairobi
naisapublikar
naisip
naisipan
naisurat
naisuway
naitala
naitampok
naitatakod
naitindog
naito
naitogdas
naitok
naitugdas
naitugdok
naka
nakaaakit
nakaaapektar
nakaabot
nakaag
nakaagi
nakaagid
nakaaging
nakaagom
nakaantos
nakaapektar
nakaapekto
nakaatubang
nakaayon
nakabakal
nakabali
nakabalik
nakabandera
nakabase
nakabatay
nakabenta
nakabilog
nakabugkos
nakabugtak
nakabuhi
nakacholi
nakadadanyar
nakadamay
nakadangog
nakadepende
nakadiskobre
nakadukay
nakadukot
nakadulag
nakaeeksperyensia
nakaeksibit
nakaeksperyensia
nakaestar
nakagadan
nakagagadan
nakagamot
nakagibo
nakaguhit
nakaguno
nakahaman
nakahampang
nakaheling
nakahiling
nakahimo
nakaiba
nakaimbento
nakaimpluwensia
nakaimpluwensya
nakaisip
nakaiskedyul
nakaistar
nakaka
nakakaabot
nakakaag
nakakaagi
nakakaagid
nakakaapektar
nakakaapekto
nakakaaram
nakakabagat
nakakabihag
nakakabit
nakakabulong
nakakaburat
nakakaeksperyensia
nakakagadan
nakakaganyat
nakakagibo
nakakaguno
nakakagurang
nakakaiba
nakakaintindi
nakakakan
nakakakua
nakakalason
nakakalihis
nakakamokna
nakakan
nakakanood
nakakaraot
nakakasabot
nakakatabang
nakakataram
nakakaulakit
nakakokontribuwir
nakakokontribwir
nakakontribuwir
nakakontribwir
nakakua
nakakuang
nakakulong
nakalaag
nakalaban
nakalakip
nakalakop
nakalantad
nakalaog
nakalatag
nakaligtas
nakalihis
nakalista
nakalubog
nakalubong
nakalugar
nakalunad
nakalusot
nakaluwas
nakamidbid
nakamit
nakamogtak
nakamtan
nakamugtak
nakamukna
nakanompong
nakanood
nakaolang
nakaoolang
nakapabakal
nakapag
nakapagresibe
nakapagtao
nakapalaog
nakapalibot
nakapaluwas
nakapamugtak
nakapangagom
nakapasar
nakapatong
nakapatos
nakapokus
nakaptan
nakapublisa
nakapukaw
nakapuwesto
nakar
nakaraot
nakararaot
nakarehistro
nakarekord
nakaresibe
nakaresibi
nakasaad
nakasakay
nakasal
nakasali
nakasaray
nakasentro
nakasikwit
nakasugpon
nakasulot
nakasurat
nakasuway
nakatabang
nakatago
nakatakod
nakatala
nakatalaan
nakatalang
nakatanom
nakatao
nakatapos
nakatatabang
nakatatahob
nakate
nakatiklop
nakatindog
nakatipon
nakatongtong
nakatrabaho
nakatugdok
nakatukaw
nakatutok
nakauldot
nakawarak
nakawsa
naked
nakhon
naki
nakibakas
nakikabtang
nakiki
nakikikabtang
nakikilaban
nakikipag
nakikipaglaban
nakikipagtabangan
nakikiramas
nakikisumaro
nakipag
nakipaglaban
nakipagtabangan
nakisaro
nakisumaro
nakita
nakolekta
nakolor
nakombertir
nakompleto
nakontrata
nakontrol
nakoronahan
nakotkot
nakpil
nakua
nakuang
nakukua
nakukuan
nakukuang
nakukulong
nakulong
nakulugan
nakumpleto
nalaba
nalagda
nalakaw
nalaklak
nalakop
nalaladawan
nalalaen
nalalagda
nalalain
nalalapa
nalamos
nalampasan
nalangkaw
nalaog
nalibot
nalilikosan
nalilingawan
naliliwat
nalingawan
nalista
naliwat
nalu
nalubog
nalubong
nalugadan
naluklok
nalulugar
nalulugaran
nalunod
naluwas
nam
nama
namahala
namamahala
namamahalang
namamantinir
namamanwa
namamanwaan
namamate
namamatean
namamati
namamayo
namamayong
naman
namantinir
namasdan
namate
namayo
name
named
namemeligro
namemeligrong
names
nami
namibia
namibya
namidbid
namidbidan
namimidbid
namimidbidan
namimiligro
namimiligrong
naming
namit
namo
namogtak
namok
namokna
namomo
namomogta
namomogtak
namomogtakan
namomokna
namomoon
namomoot
namomotan
namondag
namoon
namoot
namugtak
namukna
namumugtak
namumugtakan
namumuhay
namumuno
namumurak
namunda
namundag
namundagan
namuno
nan
nana
nanagboan
nanahon
nanak
nanaog
nanay
nancy
nanette
nanfadima
nang
nangagin
nangahulogan
nangaki
nangako
nangangabayo
nangangahulogan
nangangahulugan
nangangahulugang
nangangaipo
nangangaipuhan
nanganganib
nangangapudan
nangangaputan
nangangataman
nangaranan
nangawat
nangengenot
nangenot
nangga
nanggad
nanggana
nangganang
nanggarana
nangingibabaw
nangingimbabaw
nanginginot
nanginot
nangka
nangorog
nangorogna
nangorognang
nangungurog
nangurog
nangyari
nangyaring
nangyayari
nani
naniniwala
nanjing
nanking
nano
nanodan
nanombrahan
nanominar
nanompongan
nanonongod
nanu
nanudan
nanumpa
nanumpongan
nanumpungan
nanutaran
nanyue
naobserbahan
naobserbaran
naomaw
naomi
naoonabihan
naordenan
naorganisar
naotob
naotro
napa
napaatubang
napabakal
napabali
napaduman
napag
napagdesisyunan
napahaman
napairarom
napaka
napakarhay
napakasakit
napakusog
napalabot
napalagda
napalakma
napalakop
napalaman
napalis
napaluwas
napangagom
napangganahan
napangyari
napano
napapaatubang
napapagdolonan
napapalaen
napapalain
napapalaman
napapalibotan
napapalibutan
napapaluwas
napapasa
napapatos
napara
napasa
napasairarom
napatalsik
napatindog
napatos
napatotoohan
napatunayan
napetsahan
napili
napiling
napipiritan
napipisan
napirit
napiritan
napirmahan
naples
napo
napoca
napoleon
napoles
napoli
napondo
napoon
napoporma
naporma
napreserbar
napreso
naprodusir
napu
napublikar
napuho
napukaw
napukawan
napundar
naputol
naputongan
nara
naradas
naragba
narangha
naraot
nararaot
narasimha
naratibo
naratibong
narayana
narcisa
narciso
narda
narealisar
narehistro
narekord
nareparo
nares
naresibe
naresibi
naresolberan
naresulta
naribayan
nariribong
naririsa
narisa
narito
narogba
naroromdoman
narra
narrative
narratives
narrator
nars
narugba
narumpag
narvacan
nas
nasa
nasaan
nasabi
nasabing
nasakop
nasaksihan
nasal
nasala
nasalidahan
nasambit
nasambitan
nasanga
nasanglean
nasaray
nasasabi
nasasabo
nasasabotan
nasasabutan
nasasakitan
nasasakop
nasasakopan
nasasakupan
nasasambit
nasasambitan
nasasaray
nasentensyahan
naserbing
nasesentro
nashville
nasi
nasikop
nasikwit
nasipit
nasirbe
nasirbeng
nasirbing
nassar
nasser
nast
nasu
nasugbu
nasukol
nasulo
nasumpongan
nasundan
nasupil
nasurat
nasusog
nasusukol
nasusulo
nasusurat
nasususog
nasusuway
nasyon
nasyonal
nasyonalidad
nasyonalismo
nasyonalista
nasyun
nasyunal
nasyunalidad
nasyunalista
nasyung
nat
nata
nataas
natabang
natad
natada
natadang
natakod
natala
natalia
natalie
natalubo
natamaan
natampok
natanom
natao
nataon
nataong
natapos
natasha
natata
natatada
natatadang
natatago
natatahoban
natatahuban
natataidan
natatakod
natatakot
natatakupan
natatala
natatandaan
natatanga
natatanging
natatanom
natatapos
natatawan
natataya
natawan
nathalie
nathan
nathaniel
nati
natibo
natibong
natigbak
natigpo
natin
natindog
nation
national
nationale
nationalgeographic
nationalism
nationalist
nations
natipon
natitipon
native
natividad
nativity
nato
natogdas
natogdok
natoka
natokahan
natomtom
natong
natongod
natonin
natood
natori
natty
natubang
natubo
natugdas
natugdok
natuhaw
natunaw
natura
natural
naturales
naturalesa
naturalist
naturalista
naturalistang
naturang
nature
natutunaw
natutuyawan
naubos
naudin
naujan
naulakitan
naumaw
naunambitan
nauru
nauso
nautasan
nautical
nautilus
nauugnay
nauunabihan
nauvoo
nava
navadurga
navagraha
navajivan
naval
navaratri
navarre
navarrete
navarro
naver
navidad
navigation
navotas
navy
naw
nawa
nawalat
nawara
nawaran
nawawalat
nawawara
nawawaran
nawawarang
nawen
nawon
nay
nayeon
naylor
nayon
nazarene
nazareno
nazareth
nazi
naziha
nb
nba
nbc
nbi
nc
ncaa
ncbi
ncca
nchen
nchez
ncla
ncr
nct
nd
ndez
ndor
ndrmc
ndrrmc
ne
neal
neapolitan
near
nearly
nebraska
nebula
necessarily
nech
neci
neck
ned
nederlands
nee
need
needed
needs
negatibo
negatibong
negeri
negosasyon
negosyante
negosyanteng
negosyo
negosyong
negra
negrense
negrito
negritos
negro
negros
nehru
nei
neighborhood
neil
neill
neither
nektar
nel
nelle
nellie
nelly
nelson
nemesio
nemo
nemtsov
nen
nena
neneng
neo
neoklasikal
neoklasikong
neolitiko
neon
nepal
nepali
nephi
nephita
nepomuceno
neptune
neptuno
nerbios
nerbyos
nere
neri
nero
nerve
nerves
nervous
nes
nest
nestle
nestor
net
netanyahu
netflix
netherlands
network
networking
networks
neu
neubauer
neue
neural
neuron
neurons
neuros
neuroscience
neutral
neutron
nevada
never
nevsky
new
newcomer
newcrop
newest
newfoundland
newman
news
newsbreak
newscast
newsinfo
newsletter
newsmagazine
newspaper
newspapers
newsweek
newt
newton
next
nez
ng
nga
ngabil
ngaju
ngala
ngalan
ngan
ngane
nganeng
ngangalasan
ngani
nganing
ngantig
ngapit
ngaragngag
ngaran
ngaranan
ngarang
ngarig
ngaros
ngat
ngata
ngaw
ngawngaw
ngaya
ngayon
ngel
ngeles
nghe
ngimot
nginaranan
ngipon
ngirit
ngo
ngohod
ngona
ngong
ngonian
ngonya
ngonyan
ngoso
ngu
nguhod
nguna
ngunit
ngunyan
ngunyang
ngurah
nguso
nguyan
nguye
nh
nha
nhcp
nhi
nhk
nhs
ni
nia
niagara
niamo
niang
nias
niato
nica
nicaea
nicanor
nicaragua
nicaraguan
niccolo
nice
nicene
nicholas
nichols
nick
nickel
nickelodeon
nicki
niclas
nicobar
nicola
nicolas
nicole
nicoli
nicomedes
nicotiana
nida
nidal
nidea
nido
nie
niei
niels
nielsen
nierva
nieto
nieva
nieves
niger
nigeria
nigerian
nigerya
night
nightingale
nights
nigo
nigsberg
nih
nihon
niigata
nijhoff
nike
niki
nikki
nikko
nikola
nikolai
nikolaus
nikolay
nila
nilagan
nilalang
nilalaog
nilang
nile
niles
nilo
niluwas
nimo
nin
nina
ninang
ninda
nindang
nindo
nine
nineteenth
ning
ningning
nini
ninja
nino
ninombrahan
ninong
ninoy
ninsi
nintendo
ninth
ninuno
nio
niobyo
niog
niosh
nipa
nippon
niribayan
nis
nishioka
nito
nitrate
nitrogen
nitroglycerin
nitroheno
nitrous
nitso
nivkh
nixon
niya
niyang
niyo
niyog
nj
nl
nlm
nm
nmdg
nme
nmndg
nndb
no
noa
noaa
noah
noarin
nob
nobatong
nobel
nobela
nobelang
nobelista
nobelistang
nobenaryo
noble
nobleng
nobya
nobyang
nobyember
nobyembre
nobyo
noc
noche
nocturnal
node
nodes
noe
noel
noemi
nogueira
noi
noir
noise
noisy
nok
noli
nom
nomadikong
nombrado
nombramiento
nombre
nomenclature
nomenklatura
nomenklaturang
nominado
nominal
nominasyon
nominasyons
nominated
nominates
nomination
nominations
nominee
nominees
non
none
nonfiction
nong
nonong
nonoy
nonviolence
noodles
noon
noong
nooyi
nor
nora
norala
norberto
norfolk
norma
normal
norman
normandy
norse
norte
norteng
north
northcem
northeast
northeastern
northern
northwest
northwestern
norton
norway
norwega
norwegian
norwego
norzagaray
nos
nosaka
nostradamus
nosyon
not
nota
notable
notableng
notado
notasyon
note
notebook
noten
notes
nothing
noticia
noticias
notitle
notorious
notre
nottingham
nouveau
nouvel
nov
nova
novak
novaliches
novel
novela
noveleta
novelist
novella
novels
novelty
november
novena
novicio
novo
now
npa
npc
npr
nr
nrj
ns
nsa
nscb
nsdotter
nso
nste
nster
nsw
ntara
ntf
ntgen
nu
nua
nuanoy
nuarin
nucifera
nuclear
nucleic
nucleotide
nucleotides
nue
nueba
nuestra
nuestro
nueva
nuevo
nui
nuklear
nukleyar
nukleyi
nukleyikong
nukleyus
num
numancia
number
numbers
numerado
numeral
numerikal
numero
numerong
numerous
nun
nungka
nungkang
nunungan
nupedia
nur
nuremberg
nurse
nursery
nurses
nursing
nus
nusa
nusantara
nussbaum
nut
nutrient
nutrisyon
nutrition
nuts
nuweba
nweba
ny
nya
nyang
nyaon
nyc
nyebe
nyi
nylon
nytimes
nyu
nz
o
oak
oakland
oas
oasis
oaxaca
ob
obama
obando
obaryo
obe
obesum
obhetibo
obheto
obhetong
obias
obispo
obispong
obituary
object
oblast
oblation
obligado
obligadong
obligasyon
obligatoryo
oblong
oblongifolium
oboe
obr
obra
obrang
obras
obrero
obrerong
obserba
obserbar
obserbasyon
obserbatoryo
observatorio
observatory
observer
obsession
oc
oca
ocampo
occidental
occitan
occupation
occupational
ocean
oceania
oceanic
oceans
oceanya
och
ocho
ochoa
oclc
oct
octagonal
octoarts
october
octobre
octopus
od
oda
odd
odessa
odia
odin
odiong
odiongan
odisha
odlot
odorata
odron
odto
odyssey
oecd
oeste
oeuvres
of
ofelia
off
offer
offering
office
officer
officers
official
officially
officials
oficial
oficialmente
ofisyal
ofrasio
often
og
ogama
ogaring
ogbon
ogbos
ogdong
ogg
ogid
ogma
ogob
oh
ohchr
ohio
oi
oil
oineza
ois
oise
ojeda
ok
okas
okasyon
okasyonal
okay
oke
okinawa
oklahoma
okra
oksidasyon
oksido
oksihena
oksiheno
oksihenong
okt
oktobre
oktubre
okupado
okupar
okupasyon
ol
ola
olan
olandes
olang
olango
olangon
olano
olanto
olay
olayan
old
older
oldest
oldfield
oldot
olga
oli
oligarkiya
olimpiko
olimpikong
olimpyada
olitorius
oliva
olivarez
olive
oliveira
oliver
olivera
oliveros
olivia
olivier
olo
olod
olof
olog
olongapo
olor
olsen
oltan
oltanan
olutanga
olvidado
olympia
olympic
olympics
om
oma
omahan
omais
oman
omar
omaw
omboy
ombudsman
omega
omnibus
omniglot
on
once
ondoy
one
onepage
ones
ong
onhan
onion
online
only
ono
onoda
onra
onrahan
onrang
ons
onse
onseng
ontario
ontok
onu
onwards
oogid
ookupar
oolay
oolayan
ooma
oomaw
oonra
ooperar
oorganisa
oorganisar
oorog
oosipon
ooswag
ooyon
op
opac
open
opened
opening
openleaks
openlibrary
opera
operador
operar
operasyon
operasyong
operation
operational
operations
operator
operetta
opiana
opinion
opinyon
opisina
opisinang
opisyal
opisyales
opisyalmente
opisyalmenteng
opisyo
opm
opon
oporto
oportunidad
oposa
oposisyon
opportunity
opposition
oppressed
oppression
oprah
opresyon
optics
optika
optikal
optimus
option
opus
or
ora
orador
oragon
oral
oran
orang
orange
orani
oras
orasa
orasan
oratorio
orawang
orbit
orbita
orbital
orchard
orchart
orchestra
orchid
orden
order
orders
ordina
ordinahan
ordinal
ordinance
ordinances
ordinansa
ordinansang
ordinary
ordinaryo
ordinaryong
ordinasyon
ordre
ore
oregano
oregon
orehinal
oreta
org
organ
organic
organicfacts
organiko
organikong
organisa
organisado
organisadong
organisador
organisar
organisaron
organisasyon
organisasyonal
organisasyong
organisation
organismo
organismong
organista
organization
organizations
organizer
organizing
organo
organong
orgasmo
orgulyo
ori
oricon
orient
oriental
orientasyon
orientation
oriente
oriented
orig
origanum
origen
origin
original
originally
origins
orihinal
orihinalmente
orihinalmenteng
oring
orion
oripon
orkestra
orkids
orlando
orleans
ormoc
ornamental
oro
orog
orok
orolay
oroquieta
orosa
orosipon
oroyon
orsay
orson
ortako
ortega
ortelius
orthodox
orthography
orthopedic
ortigas
ortiz
ortodoks
ortodoksiya
ortodokso
ortograpiya
ortograpiyang
oryentasyon
os
osa
osaka
osama
oscar
osetya
osias
osip
osipon
oskar
oslo
oslob
osma
osmen
osmena
osmyo
oso
osol
osorio
ospital
ossetia
ossie
ostrich
oswag
oswald
osyaniko
osyanya
ot
otel
othello
other
others
otley
otob
oton
otoridad
otro
otros
otso
ottawa
ottesen
otto
ottoman
ou
ouattara
oup
our
ourselves
out
outbreak
outer
output
outreach
outs
outside
outskirts
outstanding
ov
oval
ovarian
ovary
ovaryo
oven
over
overall
overfishing
overlooking
overseas
oversight
overview
ovulation
owen
owens
owl
own
owned
owner
ownership
oxalidaceae
oxalidales
oxford
oxide
oxides
oxygen
oy
oya
oyon
oyonan
oz
ozaki
ozamiz
ozawa
ozone
p
pa
paa
paabante
paabot
paaboton
paabuton
paadalan
paadalang
paagi
paaging
paalam
paamihanan
paano
paaram
paascu
pababa
pabalagbag
pabalik
pabalikbalik
pabaliktad
pabalyo
pabasa
pabayaan
pabilog
pabilyon
pabisto
pablo
pabor
paborableng
paborito
paboritong
pabrika
pace
pacheco
paciano
pacific
pacifico
pacis
pacita
pack
paco
pacoh
pacquaio
pacquiao
pacuan
pada
padada
padagos
padalagan
padalaganan
padalan
padang
padangat
padding
paddlers
pade
pader
pades
padi
padian
padiit
padilla
pading
padis
padma
padoe
padre
padron
padua
padudumanan
padukone
padukot
paduman
padurunongan
padurunungan
paeksibit
paella
paete
pag
pagabot
pagadian
pagal
pagalongan
pagalungan
pagan
paganong
pagarayonan
pagasa
pagatpat
pagayawan
pagbaba
pagbabados
pagbabago
pagbabagong
pagbabalangibog
pagbabalik
pagbabanal
pagbabangko
pagbabareta
pagbabasa
pagbabawal
pagbabayad
pagbado
pagbados
pagbago
pagbagsak
pagbaha
pagbakal
pagbaklay
pagbakuna
pagbalad
pagbalangibog
pagbalga
pagbali
pagbalik
pagbalo
pagbalos
pagbalyo
pagbanga
pagbanggit
pagbantay
pagbanwa
pagbariwas
pagbasa
pagbati
pagbawal
pagbawas
pagbawi
pagbayad
pagbaybay
pagbayle
pagbayli
pagbebendisyon
pagbebenta
pagbenta
pagbiahe
pagbida
pagbiklad
pagbilang
pagbilao
pagbilog
pagbisita
pagbista
pagbisto
pagbiyahe
pagbobomba
pagboboses
pagboksing
pagbolong
pagbolos
pagbomba
pagboot
pagboses
pagbote
pagboto
pagbubukas
pagbubulawan
pagbubunyag
pagbuburda
pagbugtak
pagbuhat
pagbuhay
pagbukas
pagbulong
pagbulos
pagbungkal
pagbungkaras
pagbungsod
pagbuntog
pagbunyag
pagbuo
pagburak
pagbusol
pagbutong
pagbutwa
pagbuyagyag
pagbwelta
pagbyahe
pagdadagdag
pagdagdag
pagdakit
pagdakol
pagdakop
pagdakula
pagdalagan
pagdalan
pagdalihig
pagdalisay
pagdamot
pagdangog
pagdara
pagdating
pagdatong
pagdayo
pagdebosyon
pagdedebosyon
pagdedesisyon
pagdeklara
pagdekorasyon
pagdepensa
pagdesenyo
pagdesinyo
pagdesisyon
pagdeterminar
pagdikit
pagdisenyo
pagdiskubre
pagdistribwir
pagdodorog
pagdolonan
pagdominar
pagdrowing
pagduda
pagdudugo
pagdudurog
pagdugang
pagdugo
pagdukot
pagdulag
pagduman
pagdurog
page
pageant
pages
paggadan
paggagamit
paggalang
paggamit
paggana
pagganap
paggasto
paggatok
paggawad
paggawe
paggibo
paggibong
paggigibo
paggigibong
paggirumdom
paggiya
paggogobyerno
paggugrupo
pagguhit
pagguno
paggurang
paghabo
paghabol
paghabon
paghagad
paghahabol
paghahanap
paghaharong
paghahatod
paghalat
paghale
paghali
paghaloy
paghaloyhaloy
paghaman
paghanap
paghanapbuhay
paghanga
paghangos
paghapot
pagharong
pagharongon
paghatod
paghatsing
paghayag
pagheheras
paghelang
pagheling
pagheras
paghihimoon
paghihingako
paghihingoa
paghihingoang
paghihira
paghiling
paghimo
paghimoyaot
paghimukat
paghinanapos
paghinapos
paghingoa
paghingowa
paghira
paghirahay
paghiras
paghiro
paghirong
paghiwas
paghona
paghorophorop
paghubo
paghugas
paghugot
paghugpa
paghuhugas
paghuhukom
paghuhulit
paghukom
paghula
paghuna
paghuros
pagi
pagigin
pagiging
pagimplementar
pagirumdom
pagitan
pagka
pagkaadulto
pagkaag
pagkaaga
pagkaagi
pagkaaki
pagkaalkalde
pagkaaram
pagkabalad
pagkabanggi
pagkabaranga
pagkabigla
pagkabilog
pagkabirhen
pagkabisto
pagkabuhay
pagkaburat
pagkaburunyog
pagkadagka
pagkadakop
pagkadakul
pagkadakula
pagkadaog
pagkadiskobre
pagkadiskubre
pagkadukay
pagkaeksakto
pagkagaba
pagkagadan
pagkagamiaw
pagkagana
pagkagibo
pagkagimata
pagkagurang
pagkahaman
pagkahapon
pagkaherak
pagkahoben
pagkahulog
pagkaigwa
pagkaindiperente
pagkaka
pagkakaagid
pagkakaarog
pagkakabanga
pagkakabaranga
pagkakahaman
pagkakaiba
pagkakaigwa
pagkakaigwang
pagkakaintindi
pagkakaisa
pagkakakilanlan
pagkakalaen
pagkakalain
pagkakalinyada
pagkakamukna
pagkakan
pagkakang
pagkakaoyon
pagkakapantay
pagkakaparehas
pagkakapareho
pagkakasabot
pagkakasala
pagkakasararo
pagkakasinabutan
pagkakasunod
pagkakasunud
pagkakataon
pagkakatood
pagkakatugdas
pagkakombertir
pagkakomplikado
pagkakua
pagkakulong
pagkalaenlaen
pagkalain
pagkalakaga
pagkalalaki
pagkalamos
pagkalangkag
pagkalantad
pagkalapa
pagkalihis
pagkaliwat
pagkalkula
pagkalot
pagkalugad
pagkalugi
pagkamainaki
pagkamidbid
pagkamit
pagkamokna
pagkamondag
pagkamoot
pagkampanya
pagkamukna
pagkamundag
pagkamuot
pagkandidato
pagkani
pagkaniaki
pagkanood
pagkanta
pagkaoroyon
pagkapadi
pagkapantay
pagkapantaypantay
pagkapara
pagkaparantay
pagkaporma
pagkapot
pagkapresidente
pagkapreso
pagkaprominente
pagkarahay
pagkaraot
pagkaribong
pagkarigos
pagkarkulo
pagkasabot
pagkasal
pagkasambit
pagkasangkap
pagkasararo
pagkasaserdote
pagkasaserdoteng
pagkasenador
pagkasinabotan
pagkasulo
pagkasunod
pagkasunodsunod
pagkasurunod
pagkasyudad
pagkatao
pagkatapos
pagkatawo
pagkatimbang
pagkatotoo
pagkatratong
pagkatugdas
pagkatunaw
pagkawara
pagkawarang
pagkawat
pagkidnap
pagkikitoan
pagklase
pagkokompara
pagkokomparar
pagkolekta
pagkolonya
pagkomunikar
pagkondukta
pagkonsumo
pagkontra
pagkontrol
pagkoordinar
pagkorona
pagkritika
pagkua
pagkuang
pagkukulang
pagkukumparar
pagkultibar
pagkumpara
pagkumpleto
pagkurahaw
pagkurit
pagkusog
pagkuyog
pagla
paglaag
paglaba
paglaban
pagladawan
paglaglag
paglagpak
paglahid
paglakaw
paglakawlakaw
paglakop
paglaladawan
paglalahid
paglalakbay
paglalang
paglalayag
paglangkaw
paglangoy
paglaog
paglaom
paglapas
paglapigot
paglas
paglataw
paglayag
paglayog
paglibot
pagligtas
paglihis
paglikay
paglilibot
pagliligtas
paglilingkod
pagliliwat
paglingkod
paglinig
paglipas
paglipat
paglipot
paglitik
pagliwat
paglobong
paglubog
paglubong
pagluluto
paglungkas
paglusob
pagluto
pagluwas
pagluya
pagmaan
pagmakolog
pagmakulog
pagmaltrato
pagmama
pagmamato
pagmanehar
pagmaneho
pagmangno
pagmanihar
pagmansay
pagmantener
pagmantinir
pagmartsa
pagmasid
pagmate
pagmati
pagmato
pagmawot
pagmidbid
pagmimina
pagmina
pagmisa
pagmokna
pagmomodelo
pagmukna
pagmundo
pagnamit
pagnegosyo
pagnenegosyo
pagngaran
pagngata
pagnombra
pagoda
pagpa
pagpabakal
pagpabanaag
pagpabantog
pagpabaya
pagpabisto
pagpadagos
pagpadakul
pagpadakula
pagpadalagan
pagpadanay
pagpadangat
pagpadara
pagpadi
pagpagantad
pagpagayon
pagpahayag
pagpaheling
pagpahiling
pagpahiwas
pagpaisi
pagpakakan
pagpakaray
pagpakarhay
pagpako
pagpakupos
pagpakusog
pagpalagda
pagpalakop
pagpalawig
pagpalayog
pagpalis
pagpaliwanag
pagpalod
pagpaluwas
pagpamarhay
pagpamibi
pagpamidbid
pagpanday
pagpangadye
pagpangataman
pagpaorog
pagpaotob
pagpapadagos
pagpapadalagan
pagpapadanay
pagpapadara
pagpapahalaga
pagpapahayag
pagpapahiling
pagpapakarhay
pagpapakusog
pagpapalakaw
pagpapalawig
pagpapalipot
pagpapalis
pagpapaliwanag
pagpapaluwas
pagpapamahala
pagpapaputok
pagpapasakit
pagpapatindog
pagpapatong
pagpapel
pagpaplano
pagpaputok
pagpartisipar
pagpasa
pagpasakit
pagpasale
pagpasar
pagpasiring
pagpasuso
pagpasyar
pagpatalsik
pagpatalubo
pagpatindog
pagpatogdok
pagpatubo
pagpauswag
pagpenetrasyon
pagpili
pagpinta
pagpintura
pagpipilang
pagpipilian
pagpipinta
pagpipintura
pagpirit
pagpirma
pagplano
pagpoon
pagpopoon
pagporma
pagpraktis
pagpreparar
pagpreserbar
pagprobar
pagprodusir
pagprodyusir
pagprohibir
pagpromotar
pagproseso
pagprotehir
pagprotektar
pagprotesta
pagpublikar
pagpuga
pagpugol
pagpuho
pagpundo
pagpunsionar
pagpuon
pagputok
pagputol
pagrahay
pagrambong
pagraot
pagrasay
pagregla
pagrekord
pagreparo
pagrepaso
pagreprodusir
pagrereparo
pagresolber
pagrespeto
pagretiro
pagretrato
pagreynar
pagribay
pagrinibayan
pagriribay
pagrokyaw
pagromdo
pagromdom
pagrorogaring
pagrumdom
pagrurugaring
pagsabat
pagsabog
pagsabot
pagsadiri
pagsadol
pagsakat
pagsakay
pagsakit
pagsakop
pagsakripisyo
pagsakyada
pagsalak
pagsalakay
pagsalbar
pagsali
pagsaligsig
pagsalin
pagsaliot
pagsamba
pagsambit
pagsangat
pagsangaw
pagsanghan
pagsangle
pagsangli
pagsanjan
pagsara
pagsarado
pagsaralak
pagsararo
pagsaray
pagsaro
pagsaroon
pagsasaalang
pagsasadiri
pagsasahimpapawid
pagsasakop
pagsasamba
pagsasanay
pagsasaro
pagsasayod
pagsayod
pagsayuma
pagselebrar
pagserbisyo
pagseselyo
pagsibot
pagsigarilyo
pagsikwal
pagsimbag
pagsira
pagsirang
pagsirbe
pagsisira
pagsiyasat
pagsokmolan
pagsolnop
pagsolo
pagsongko
pagsosolsol
pagsu
pagsubasta
pagsugo
pagsukit
pagsuko
pagsukol
pagsulat
pagsulit
pagsulo
pagsulot
pagsunod
pagsuporta
pagsuportar
pagsura
pagsurat
pagsurog
pagsuruwayan
pagsusog
pagsusurat
pagsusuri
pagsusuway
pagsuway
pagsuwayan
pagta
pagtaas
pagtabang
pagtago
pagtahi
pagtahob
pagtakod
pagtalubo
pagtanaw
pagtanda
pagtangaan
pagtangro
pagtanom
pagtao
pagtaong
pagtapos
pagtapsok
pagtarabangan
pagtaraid
pagtaram
pagtataas
pagtatahi
pagtatanom
pagtatao
pagtatapos
pagtataram
pagtatrabaho
pagtau
pagtinda
pagtindog
pagtios
pagtipon
pagtiripon
pagtitipo
pagtitipon
pagtitiripon
pagtitiwala
pagtogdas
pagtogdok
pagtogot
pagtogtog
pagtokdo
pagtolod
pagtongtong
pagtorog
pagtotokdo
pagtrabaho
pagtrato
pagtroso
pagtubo
pagtubod
pagtuga
pagtugdas
pagtugdok
pagtugot
pagtukad
pagtukaw
pagtukdo
pagtukoy
pagtulod
pagtumang
pagtunaw
pagtupas
pagturi
pagturog
pagtutukdo
pagtuturo
pagtuyaw
pagudpud
paguia
pagwarak
pagwaras
pagyelo
paha
pahamot
pahanan
pahang
paharayo
paharong
pahayag
pahayagan
pahigda
pahina
pahinang
pahinapos
pahingalo
pahingaloan
pahinog
pahiwason
pai
paibaba
paibong
paid
paige
paikot
pailihan
paimprentahan
pain
painted
painter
painters
painting
paintings
pair
pais
paisi
pait
paitaas
paitan
paitaniko
paitok
paiwan
pajo
pak
paka
pakaadal
pakaagi
pakaaram
pakadakula
pakadangog
pakagadan
pakagera
pakagibo
pakagiboha
pakagraduar
pakagradwar
pakahan
pakahiling
pakahulogan
pakahulugan
pakakua
pakalihis
pakaluto
pakaluwas
pakamate
pakana
pakanood
pakapangyari
pakapoon
pakarhayon
pakarongas
pakasabot
pakasal
pakasayod
pakasurat
pakatapos
pakawat
pakete
paki
pakiki
pakikiaram
pakikiasosyar
pakikibagay
pakikibaka
pakikigera
pakikikabtang
pakikikatood
pakikilaban
pakikipag
pakikipaglaban
pakikipagrelasyon
pakikipagtabangan
pakikipagtusay
pakikisumaro
pakikitusay
pakikiulay
pakil
pakinabang
pakipag
pakistan
pakistani
pakisumaro
pakitrato
pakiulay
paklang
pako
pakontes
pakpak
paksyon
pakto
paku
pakundangan
pakurusogan
pakusugon
pakwan
pal
pala
palaba
palabang
palabas
palabra
palace
palacio
palacios
palad
palaen
palaia
palais
palakaw
palakaya
palakopon
palaman
palan
palanan
palanas
palanca
palang
palanggad
palao
palaog
palapag
palarong
palasyo
palasyong
palatandaan
palatanugan
palau
palawan
palay
palayan
palayog
palayogan
palayugan
palazzo
palba
palda
paldang
pale
palembang
palengke
paleolitiko
palermo
palestina
palestine
palestinian
palestino
pali
palibhasa
palibot
palihang
palimbang
palin
palina
palis
palisiya
paliwanag
pallas
palm
palma
palmer
palna
palnit
palo
paloma
palompon
palongpong
paluan
palumpong
paluwas
paluwason
pam
pamagat
pamahalaan
pamahaw
pamahawan
pamamaagi
pamamaaging
pamamahala
pamamahayag
pamamakal
pamamayo
paman
pamana
pamanang
pamanggi
pamanggihan
pamangkin
pamantasan
pamantayan
pamarong
pamaskong
pamatos
pamayo
pamayohan
pamayong
pamaypay
pamayuhan
pamayuhanan
pamayuhang
pambabae
pambabaeng
pambabayi
pambabaying
pambahog
pambangging
pambansa
pambansang
pambanwang
pambatas
pambayad
pambihira
pambihirang
pambilog
pambitis
pambobomba
pambukas
pambulong
pambungad
pamela
pamibi
pamidbid
pamienta
pamilya
pamilyang
pamilyar
paminsan
paminta
pamintuan
pamitisan
pamomoon
pamona
pamosong
pampagayon
pampahamis
pampakusog
pampam
pampamilyang
pampang
pampanga
pampango
pampasaherong
pampataba
pampelikula
pamplona
pampolitika
pampolitikang
pampubliko
pampublikong
pampulitika
pamumuhay
pamumurak
pan
pana
panaad
panabo
panacan
panadero
panagbenga
panaho
panahon
panahong
panalmingan
panalo
panama
panamit
pananakop
pananaw
pananda
panangli
pananom
panaon
panapanahon
panaram
panas
panasa
panata
panatiko
panaw
panay
panayana
panayanhon
panayotti
panchito
pancho
panda
pandacan
pandadaya
pandagat
pandakop
pandan
pandangog
pandarayuhan
pandava
panday
pandayan
pandekorasyon
pandemic
pandemics
pandemiko
pandemya
pandemyang
pandey
pandi
pandit
pandog
pandok
pandong
pandugang
panduwa
panduwang
panel
panelista
paner
panfilo
pang
panga
pangadan
pangaduwang
pangadyeon
pangadyi
pangako
pangalan
pangalay
pangan
pangana
pangangabayo
pangangaipo
pangangaipong
pangangaki
pangangalakal
pangangapital
pangangataman
pangangatanosan
panganib
panganiban
panganoron
panganuron
pangapodan
pangapudan
pangaran
pangarang
pangarap
pangaroaldaw
pangasi
pangasinan
pangasinense
pangataman
pangatnig
pangatorogan
pangaturugan
pangdagat
pangengenot
pangenot
panggadan
panggagadan
panggana
panggastos
panggatong
panggera
panggigipit
panggogobyerno
panghakot
panghimagas
pangi
pangigipit
pangil
pangilinan
pangingidam
panginginot
panginot
pangisi
pangiturog
pangiturogan
pangkagabsan
pangkalawakan
pangkapalibotan
pangkaraniwan
pangkasal
pangkasaysayan
pangkimika
pangkinaban
pangkomersyal
pangkomersyo
pangkompyuter
pangkultura
pangkulturang
panglao
panglima
panglobong
pangmilitar
pangnamit
pangnasyon
pangnegosyo
pangngaran
pangodtohan
pangpang
pangsalud
pangsosyedad
pangtawo
pangulo
pangultimong
panguluhan
pangunahing
pangungulay
pangutaran
pangyari
pangyaring
pangyayari
pangyayaring
panhiling
panhiro
panibagong
panicuason
paniki
paninda
panindog
panindogan
paninimbagan
paninindogan
paninira
paniniwala
paniqui
panira
panitik
panitikan
panitikang
pankadagatan
pankagabsan
pankagabsang
pankapalibutan
pankhurst
pankina
pankinaban
pankinabang
panklima
pankolehiyo
pankomunidad
pankultura
panlaban
panlahid
panlalaki
panlalaking
panlaog
panlipunan
panliteraryong
panliteratura
panliteraturang
panlubot
panlulugos
panlulupig
panluwas
pano
panong
panorama
panoramio
panrawitdawit
panrehiyon
panrelihiyosong
panribay
pansadireng
pansadiring
pansalak
pansimbahan
pansimbahang
pansin
pansinyal
pansirangang
pansit
pansosyal
pansosyedad
pantabang
pantahi
pantahob
pantalan
pantalon
pantao
pantaon
pantapos
pantar
pantasya
pantawo
pantawong
pantay
pantelebisyon
pantheon
pantig
pantolong
pantomina
pantry
pants
pantubig
pantugma
pantukan
pantulong
panturista
panturistang
pantyon
pantyong
panuga
panukala
panulok
panunaw
panundon
panunulo
panura
panurat
panyayari
panyo
panyong
pao
paoay
paolo
paombong
paon
paorog
paorogon
paorootrong
papa
papagdanayon
papal
papanay
papangyarihon
papano
papar
papawara
papaya
papel
papeles
paper
paperback
papers
papin
papondohon
papora
papremyo
papremyong
papua
papuano
paputok
par
para
paraadal
paraambag
paraarte
paraataman
parabakal
parabareta
parabasa
parabayle
paraboksing
parabolikong
parabulong
paracale
paracelis
parada
paradahan
paradalagan
paradalan
paradangog
paradara
parade
paradepensa
paradesenyo
paradise
paradisec
paradisenyo
paradula
paragadan
paragamit
paragibo
paragibong
paraguay
paraha
parahabon
parahula
parahulit
parainom
paraiso
paraisong
parakakan
parakanta
parakantang
parakawat
parakotkot
parakurit
paralangoy
paralayag
paralelong
paralibot
paraligtas
paraliwat
parallel
parallelogram
paraluto
paralympic
paramasid
parameter
parametro
paramore
paramount
paran
paranan
paranas
parang
parangal
paraoma
paraomang
paraon
parapagulong
parapahayag
parapakilaban
parapinta
parapo
pararatak
pararawit
pararawitdawit
pararehas
parareho
paras
parasakop
parasaligsig
parasaliksik
parasaysay
parashakti
parasingil
parasira
parasirang
parasitas
parasiyasat
parasubasta
parasunod
parasuportar
parasura
parasurat
parasurog
paratabang
paratahi
paratang
paratanom
parataram
parate
parateng
parati
paratinda
paratindang
parating
paratogtog
paratokdo
paratong
paratradusir
paratubod
paratukad
paratukdo
paratukdong
paratula
paratulod
paraukit
parauma
paraw
parayo
pardo
pare
paredes
parehas
pareho
parehong
paren
pareno
parent
parenthood
parents
pares
parfum
pari
parian
parigosan
parikpik
paril
parirala
paris
parish
park
parke
parkeng
parker
parkinson
parkour
parks
parlamento
parlamentong
parliament
paro
parochial
paroko
parokya
parokyano
parol
parola
parong
paros
paroy
paroyan
parr
parrot
parser
parsial
parsley
parsons
parsyal
part
parte
parteng
parti
partial
participation
particle
particles
particularly
partida
partidang
partido
partidong
parties
partikula
partikular
partikularmente
partikularmenteng
partikulo
partikulong
parting
partisipante
partisipantes
partisipar
partisipasyon
partner
partners
partnership
parton
parts
party
partylist
parvati
paryente
paryentes
pas
pasa
pasabong
pasabot
pasacao
pasado
pasagi
pasahero
pasakit
pasale
pasaleng
pasali
pasaling
pasan
pasaporte
pasas
pasasalamat
pasay
pasayan
pascal
pascual
paseo
pasha
pashto
pasib
pasig
pasige
pasil
pasilidad
pasion
pasipiko
pasipikong
pasirangan
pasiring
pasiringon
pasko
paso
pasohan
pasolnopan
pasong
pass
passage
passes
passi
passing
passion
passionate
passione
passport
past
pasta
pasteur
pastor
pastoral
pastrana
pastries
pastry
pasubali
pasunod
pasuruan
pasurunod
pasyalan
pasyalang
pasyente
pasyenteng
pasyon
pat
pata
pataas
pataba
patadyong
patag
patago
patagong
patak
patakaran
patalastas
patamboon
patanaw
patanid
patanog
patanoman
patapos
pataram
pataratara
patas
patatas
patawaron
patel
patent
patente
pater
paternal
paterno
pateros
paterson
path
pathogen
pathology
pati
patient
patients
patilaba
patin
patindog
pating
patinig
patio
patiribaya
patiribayan
patis
patnanungan
patnubay
patnugot
pato
patod
patok
patola
patolohiya
patong
patoo
patos
patotoo
patrabaho
patria
patriarchy
patriarka
patriarkal
patricia
patricio
patrick
patrimonio
patriot
patriotikong
patriotismo
patrocinio
patrol
patron
patrona
pattern
patterns
patterson
patton
patty
patubig
patuboon
patunayan
patungkol
patyo
pau
paul
paula
paule
pauli
paulina
pauline
paulino
paulit
paulo
pauro
pauru
paurumbasan
pavel
pavia
pavilion
pawa
pawara
pawikan
pay
payag
payao
payap
payaso
paymaya
payne
payo
payong
pays
paysage
payunir
paz
pazeh
pb
pba
pbb
pbk
pbma
pbn
pbs
pbt
pc
pci
pd
pdf
pdp
pe
pea
peabody
peace
peach
peacock
peak
peaked
peanut
pearl
pearls
pearson
peasant
peasants
peb
pebrero
peci
pedagogical
pedal
pedelec
pedelecs
peder
pederal
pederasyon
pedestal
pedestrian
pediatric
pedro
peer
peggy
pei
peke
pekeng
pekin
pekinensis
peking
pelaez
pelayo
peleliu
peligro
peligrong
peligroso
peligrosong
pelikula
pelikulang
pelikulohiya
peloponnesiano
peltier
pelvic
pempengco
pen
pena
penaeid
penaeus
penafrancia
penal
penalidad
penan
penang
pencho
pendatun
penduduk
penelope
penetrasyon
penguin
penh
penikula
penile
peninsula
peninsular
penis
penn
pennsylvania
penny
penomena
penomenang
penones
pensamiento
pension
pentagon
pentagono
pentandra
pentas
pentru
people
peoples
pep
pepa
pepe
pepin
pepino
pepito
pepper
peppers
pepsi
pequen
per
peralejo
peralta
percent
perception
percival
percussion
percy
peregrino
pereira
perennial
perez
perfect
perfectly
perfecto
perform
performance
performances
performed
performer
performing
performs
perfume
perfumes
pergamon
perhaps
pericles
perictione
perimetro
perin
period
periodic
periodical
periodo
periodong
perkins
perkoles
perla
perlas
permanent
permanente
permanenteng
permentasyon
permentasyong
permesta
perming
permiso
pero
perokaril
perpektong
perpetua
perpetual
perpormans
perpormer
perry
persa
persekusyon
persepsyon
perseus
persia
persian
persiano
persiko
person
persona
personahe
personal
personalidad
personalities
personality
personalmente
personang
personipikasyon
personnel
persons
perspective
perspectives
perspektibong
perspex
persya
persyano
perth
perti
pertilisasyon
peru
perwisyo
peryodiko
peryodikong
peryodista
peryodistang
peryodo
peryodong
pesante
pescara
pesimo
peso
pesos
pest
peste
pet
petal
pete
petecio
peter
peters
petersburg
peterson
petisyon
petra
petro
petroleo
petroleum
petrolyo
petronas
petronio
petsa
petsado
petsang
petsay
pew
pez
pg
ph
pha
phaidon
phantom
pharaoh
pharaohs
pharmaceutical
pharmaceuticals
pharmacology
pharmacy
phase
phaseolus
phat
phd
phe
pheasant
phelan
phelps
phenomena
phi
phil
philadelphia
philamer
philanthropy
philatlas
philharmonic
philip
philipp
philippa
philippe
philippensis
philippine
philippinen
philippinensis
philippines
phillip
phillips
philnews
philosopher
philosophers
philosophical
philosophy
philstar
philtranco
phineas
phivolcs
phl
phnom
pho
phoebe
phoenix
phone
phonetics
phong
phonology
phosphate
phosphorus
photo
photograph
photographer
photographic
photographs
photography
photos
photosynthesis
photowalk
php
phra
phrase
phu
phyllis
phylogenetic
phylogeny
phylogenyo
physical
physician
physics
physiology
pi
pia
piad
piagapo
piang
pianista
piano
pias
piat
piazza
pic
picache
picador
picasso
pick
pickup
pico
pictorial
picture
pictures
pidal
pidaso
pidasong
piday
piddig
pidgin
pidigan
pido
pidyin
pidyiyano
pie
piece
pieces
pied
piedra
pier
pierce
pierre
pierrot
pieta
pietila
pietro
pig
pigaapod
pigaapud
pigafetta
pigagamit
pigbabasa
pigbabaybay
pigbago
pigbalik
pigbalyo
pigbanga
pigbanggit
pigbansagan
pigbareta
pigbarita
pigbase
pigbebenta
pigbibilang
pigbibilog
pigbibisto
pigbibistong
pigbilog
pigbisita
pigbista
pigbisto
pigbubuo
pigbukas
pigbukasan
pigbungsod
pigbuo
pigbuyagyag
pigdadara
pigdagdag
pigdagdagan
pigdakop
pigdara
pigdeklara
pigdeklarang
pigdekorasyunan
pigdesenyo
pigdesigna
pigdesignar
pigdirihe
pigdisenyo
pigdugang
pigeon
piggadan
piggagamit
piggamit
pigganap
pigganapan
piggawadan
piggibo
piggibong
piggigibo
pighahali
pighahanap
pighali
pighaman
pighayag
pigheras
pighihiling
pighimo
pighingoa
pighira
pighirahay
pighohona
pighu
pighugot
pighuhuna
pighuhunang
pighuna
pigkaag
pigkakaag
pigkakakan
pigkakawsa
pigkaklasipika
pigkansela
pigkanta
pigkasibotan
pigklasipikar
pigkokonsidera
pigkokonsiderar
pigkokonsumo
pigkondenar
pigkonsidera
pigkonsiderar
pigkoronahan
pigkua
pigkukua
pigkukuan
pigkukultibar
piglaag
pigladawan
piglalaag
piglaladawan
piglalang
piglalaoman
piglansar
pigliliwat
piglipat
piglista
pigliwat
pigluluto
piglunsar
piglupigan
pigluwas
pigmamantener
pigmamantinir
pigmantinir
pigmarkahan
pigmento
pigmidbid
pigmimidbid
pigmokna
pigmukna
pigngaran
pigngaranan
pignombrahan
pigpabisto
pigpadagos
pigpakarhay
pigpalawig
pigpalis
pigpaluwas
pigpangaran
pigpangaranan
pigpanukala
pigpanukalang
pigpapadalagan
pigpapahiling
pigpapakarhay
pigpapalipot
pigpapaliwanag
pigpapatubo
pigpetsahan
pigpili
pigpiling
pigpirmahan
pigplano
pigpresentar
pigprodyuser
pigprodyusir
pigproklama
pigpublikar
pigpunan
pigpundar
pigpurbaran
pigrekord
pigrepresentar
pigrerepresenta
pigrerepresentar
pigribayan
pigriribayan
pigrunot
pigs
pigsa
pigsabi
pigsagibo
pigsahotan
pigsakop
pigsaladawan
pigsalak
pigsalin
pigsambit
pigsangat
pigsaro
pigsasabi
pigsasabing
pigsasagibo
pigsasaladawan
pigsasalak
pigsasamba
pigsasambit
pigsasayod
pigselebrar
pigsentensyahan
pigseselebrar
pigsisirbe
pigsugo
pigsulot
pigsundan
pigsurat
pigsusugpon
pigsusukol
pigsusulot
pigsusundan
pigsusunod
pigsusuportahan
pigsusurat
pigsusuway
pigsuway
pigta
pigtala
pigtampok
pigtanggap
pigtao
pigtapos
pigtatakod
pigtatampok
pigtatantya
pigtatantyang
pigtatao
pigtataram
pigtatawan
pigtawan
pigtindog
pigtitinda
pigtituluhan
pigtituluhang
pigtogdas
pigtotolod
pigtrabaho
pigtugdas
pigtugdok
pigtutubod
pigtutubodan
pigtutubudan
pigtutubudang
pigtutugutan
pigtutukdo
pigtutukoy
pigtutulod
pigtuturing
pigtuyaw
pigura
pigurang
pigurin
pik
pikit
piksyon
pil
pila
pilak
pilantropiya
pilantropo
pilantropong
pilapil
pilar
pile
pilgrim
pilgrimage
pilgrimahe
pilgrims
pili
pililla
piling
pilion
pilipina
pilipinang
pilipinas
pilipino
pilipinong
pilita
pillar
pillars
pills
pilmograpiya
pilo
pilosopikal
pilosopiko
pilosopiya
pilosopiyang
pilosopo
pilosopong
pilot
piloto
pilotong
piltik
pimentel
pin
pina
pinaadal
pinaalang
pinabacdao
pinabakal
pinabalik
pinabisto
pinadagos
pinadakula
pinadakulang
pinadalagan
pinadara
pinadrinohan
pinag
pinagayon
pinagbago
pinagbalangibog
pinagbareta
pinagbibidahan
pinagbidahan
pinagbilog
pinagbisto
pinagboot
pinagbotan
pinagbuklod
pinagbunyagan
pinageerokan
pinaggagamit
pinaggamit
pinaggibo
pinaggigibo
pinaggigikanan
pinaggikanan
pinaghahalean
pinaghale
pinaghalean
pinaghalian
pinaghalong
pinaghihiling
pinaghihimo
pinaghimo
pinaghuna
pinaghunang
pinagibo
pinagkakainteresan
pinagkokonsiderang
pinagkokonsiderar
pinagkonsidera
pinagkonsiderang
pinagkuanan
pinagkukuanan
pinaglabanan
pinagladawan
pinaglahidan
pinagmarhay
pinagmidbid
pinagmukna
pinagmuntar
pinagngaranan
pinagpangapudan
pinagpapraktis
pinagpisan
pinagporma
pinagpublikar
pinagpublisa
pinagpundar
pinagrekord
pinagrok
pinagsalak
pinagsalin
pinagsaralak
pinagsararo
pinagsararong
pinagsaro
pinagsarong
pinagsasabi
pinagsasabing
pinagsasaro
pinagsertipikaran
pinagsikwal
pinagsugo
pinagsurat
pinagsustine
pinagsuway
pinagtalikudan
pinagtandaan
pinagtao
pinagtatabangan
pinagtataram
pinagtugutan
pinagtukdo
pinagtutubudan
pinagtutubudang
pinagtutukdo
pinahalipot
pinahaman
pinahiling
pinahiwas
pinaka
pinakaabundanteng
pinakaamay
pinakabagong
pinakabantog
pinakabantogan
pinakabistado
pinakabistadong
pinakabisto
pinakabistong
pinakadaan
pinakadakol
pinakadakolang
pinakadakul
pinakadakula
pinakadakulang
pinakadikit
pinakadusok
pinakaenot
pinakagrabeng
pinakagurang
pinakagurangan
pinakahababa
pinakahababang
pinakahalaba
pinakahalabang
pinakahalangkaw
pinakahalawig
pinakahalipot
pinakahaloy
pinakaharani
pinakaharaning
pinakahuben
pinakahubin
pinakahuri
pinakahuring
pinakaimportante
pinakaimportanteng
pinakainot
pinakajoven
pinakakomun
pinakalakop
pinakalataw
pinakalumang
pinakamaating
pinakamabentang
pinakamadaling
pinakamagabat
pinakamagayon
pinakamahalaga
pinakamahalagang
pinakamahiwas
pinakamahusay
pinakamaimpluensyang
pinakamaimpluwensiyang
pinakamaimpluwensyang
pinakamainit
pinakamakapangyarihan
pinakamakosog
pinakamakusog
pinakamarahay
pinakamarha
pinakamarhay
pinakamarikas
pinakamasulong
pinakamatawo
pinakamatawong
pinakamatibay
pinakamatriyumpong
pinakamatua
pinakamatuang
pinakamayaman
pinakamodernong
pinakan
pinakanagagamit
pinakang
pinakangohod
pinakanguhod
pinakapopular
pinakaprominenteng
pinakapusog
pinakarhay
pinakarisang
pinakasadit
pinakasalan
pinakasentro
pinakasibot
pinakasikat
pinakasimpleng
pinakasuanoy
pinakataas
pinakatama
pinakatradisyunal
pinakaugat
pinakdakulang
pinakupos
pinal
pinalagda
pinalakbang
pinalakop
pinalalagda
pinalaog
pinalawig
pinalayas
pinali
pinalibre
pinalipot
pinalis
pinalista
pinalmente
pinaluwas
pinamalayan
pinamamahalaan
pinamamayohan
pinamayohan
pinamayuhan
pinamunuan
pinangaki
pinangaran
pinangaranan
pinangaranang
pinangat
pinangengenotan
pinangenotan
pinanginotan
pinanginutan
pinaniniwalaan
pinano
pinansial
pinansiyal
pinansya
pinansyal
pinapa
pinapaandar
pinapabakal
pinapaboran
pinapadakul
pinapadalagan
pinapadara
pinapadrinohan
pinapagdadanay
pinapagdanay
pinapahalagahan
pinapaheling
pinapahiling
pinapakarhay
pinapakinabangan
pinapalagda
pinapalakop
pinapalbag
pinapalipot
pinapaluwas
pinapamayohan
pinapamayuhan
pinapangenotan
pinapanungdan
pinapaorog
pinapasale
pinapasunod
pinapatalubo
pinapatambo
pinapatos
pinapatubo
pinapelan
pinapusog
pinartisiparan
pinas
pinasabngan
pinasadit
pinasar
pinasimpleng
pinasumpa
pinasunod
pinatalsik
pinatanidan
pinatindog
pinatogdok
pinatos
pinatotoohan
pinatubo
pinatukaw
pinatutunayan
pinawa
pinay
pinball
pindolonan
pine
pineapple
pineda
pines
ping
pinggan
pinili
piniling
pininta
pinintura
pinipili
pinipirit
pinipritos
pinirilian
pinirit
pinirmahan
pinitik
pink
pinkprint
pinky
pinlandes
pinnata
pino
pinocchio
pinonan
pinondo
pinong
pinoponan
pinopoonan
pinoprodusir
pinoprotehiran
pinorma
pinoy
pinsala
pinsan
pinta
pintado
pintados
pintakasi
pintang
pinto
pintoan
pintor
pintura
pinturang
pintuyan
pinu
pinublikar
pinuga
pinugot
pinugotan
pinukpuk
pinulot
pinunan
pinundar
pinundo
pinuno
pinupublikar
pinutol
pinya
pinyang
pinyin
pio
piolo
pioneer
pioneering
pioneers
piot
piotr
pipa
pipe
piper
pipilion
pipino
pipira
pipirang
pira
pirak
pirang
piranha
pirata
pirilian
pirinong
pirit
piriton
pirma
pirmado
pirmahan
pirme
pirmeng
pirmi
pirming
pisa
pisan
pisang
pisi
pisika
pisikal
pisikang
pisiko
pisikong
pisin
pisiyolohiya
piskal
pisngi
piso
pisog
pista
pistoia
pistorius
pisyolohikong
pit
pita
pitahaya
pitak
pitaka
pitas
pitaya
pitch
pitik
pito
pitogo
piton
pitong
pitoy
pitt
pittsburgh
pituitary
pius
pixar
piyanista
piyano
piye
piyesa
piyesta
piyestang
pizza
pj
pl
pla
place
placer
places
plain
plains
plaka
plake
plan
planas
planck
plane
planet
planeta
planetang
planetary
planetaryong
planetman
planggana
planinc
planned
planner
planning
plano
planong
plans
plant
planta
plantain
plantang
plantation
planting
plants
plaque
plaridel
plasa
plasencia
plaskow
plasma
plastic
plastik
plata
plataporma
plate
plateau
plates
platform
platino
platinum
plato
platon
platong
platt
play
playbill
playboy
played
player
players
playing
playlist
plays
playstation
playwright
plaza
plazo
pldt
ple
please
pleasure
plebesito
plebisito
pledge
plos
plot
plota
plotarea
plotdata
plovdiv
plum
plume
plunder
plural
plurina
plus
pluto
pluwido
plymouth
pm
pma
pmc
pmid
pmp
pmpc
pneumonia
png
pnoc
pnp
pnr
po
pob
poblacion
poblasyon
pobre
pobreng
pocket
poco
podcast
poder
poderes
poderosong
poe
poem
poems
poesia
poet
poeta
poetang
poetic
poetry
poetryfoundation
poets
pogi
pohnpei
point
points
poirot
poison
pokus
pol
pola
polako
polakong
polanco
poland
polangui
polar
polayagan
pole
polge
poli
police
policies
policy
poligamiya
poligono
polillo
polimerisasyon
polimero
polinesyo
polish
polisiya
polisya
politeknikong
politic
politica
political
politician
politico
politics
politidad
politika
politikal
politikang
politiko
politikong
poll
pollack
pollaiolo
pollen
polls
pollution
polly
polo
polomolok
polong
polonya
polusyon
polyclinic
polyeast
polyester
polyeto
polygamy
polymedic
polymer
polynesia
polynesian
polynesiano
polyplectron
polypropylene
polystyrene
polytechnic
polytechnical
pompeii
ponan
ponce
pond
pondo
pondong
ponds
pone
ponema
ponetiko
ponine
ponolohiya
ponong
pons
ponsonby
pont
ponte
pontevedra
pontifical
poo
pook
pool
poon
poona
poor
pop
popa
popcorn
pope
popes
popolo
poppy
pops
populacho
popular
popularidad
populasyon
population
populations
por
porac
porcelain
pork
porma
pormado
pormadong
pormahon
pormal
pormalmente
pormang
pormasyon
pormosano
pormula
pormulang
pormulasyon
pornography
pornograpikong
pornograpiya
poro
porong
poroshenko
porres
porsiento
porsiyento
porsyento
porsyon
port
porta
portable
portal
porte
porter
portfolio
portland
portman
porto
portrait
portraits
portrayed
portugal
portuge
portuges
portugues
portuguese
pos
posadas
posas
posibilidad
posible
posibleng
posikit
posisyon
positibo
positibong
position
positions
positive
poso
posporo
possible
post
postal
postcolonial
poste
poster
posthumous
posts
postuma
pot
potahe
potassium
potato
potatoes
potenciano
potensial
potensyal
potential
potions
potograpiya
potograpo
potosintesis
pototan
potsdam
potter
poultry
pound
pour
poverty
powder
powell
power
powerful
powers
pozorrubio
pp
ppe
ppelmann
pr
pra
prachya
practical
practice
practices
prada
pradesh
prado
prague
prairie
praise
prakash
praksyon
praktika
praktikal
praktis
prangkisa
pranses
pransia
pransiskano
pransya
pratibha
prato
pratt
prawn
prawns
prayer
prayers
praying
prayle
prayleng
prayoridad
prc
pre
precious
prediksion
prediksyon
predominante
predominanteng
preface
prefecto
prefectural
prefecture
prefer
prefix
prehistoric
prehistorikong
prehistory
prehistorya
prejudice
prekursor
prelatura
preliminary
premier
premiere
premio
premios
premna
premyado
premyadong
premyo
premyong
prensa
prentera
prentice
prenza
prep
preparasyon
preparatory
prepektura
prepekturang
pres
preschool
prescott
presence
presensia
presensiya
presensya
present
presentacion
presentasyon
presentation
presente
presented
presenteng
presenter
presenting
presents
preserbadong
preserbasyon
preservation
presidency
presidensyal
president
presidente
presidenteng
presidential
presidents
presiding
presipitasyon
presko
preskong
presley
preso
presong
press
pressure
prestado
prestigious
prestihiyosong
presyo
presyon
presyong
pretenders
pretty
prevention
preview
pribado
pribadong
pribilihiyo
price
prices
pride
priest
priesthood
priests
prieto
prigen
prilles
prim
prima
primary
primarya
primaryang
primate
primates
primavera
prime
primer
primera
primeramente
primerang
primero
primerong
primetime
primitibong
primo
primordyal
primus
prince
princesa
princess
princeton
principal
principe
principle
principles
prinipritos
prinitos
prinobaran
prinsesa
prinsipal
prinsipalidad
prinsipe
prinsipeng
prinsipyo
prinsipyong
print
printed
printing
prior
prioridad
prism
prison
prisoner
prisons
pritoson
pritzker
private
prix
prize
prizes
pro
probabilidad
probably
probaran
probe
probinsia
probinsiya
probinsya
probinsyal
probinsyang
probinsyano
probisyon
probisyonal
problem
problema
problemang
problems
proc
proceedings
process
processing
procession
proclamation
prodigy
produce
produced
producer
producers
producing
product
production
productions
products
produksion
produksiyon
produksyon
produkto
produktong
produser
produsir
produsyer
prodyuser
prof
profesionis
profesor
professional
professionals
professor
professorial
profil
profile
profiles
profit
progesterone
program
programa
programang
programme
programming
programs
progresibo
progresibong
progresista
progreso
progress
progressive
project
projects
projekt
proklamasyon
prolipikong
prom
promedyo
promedyong
promilla
prominent
prominente
prominenteng
promisa
promise
promised
promising
promosyon
promosyonal
promote
promoting
promotion
promotional
promotions
pronoun
pronounced
pronouns
pronunciation
proof
propaganda
propagandist
propagandista
propagandistang
proper
properties
property
propesiya
propesor
propesyon
propesyonal
propesyunal
propeta
propetang
prophet
propiedad
propiong
proponidong
proporsyon
proposal
proposed
proposisyon
props
propyedad
prosa
prose
prosedimiento
proseso
prosesong
prosesyon
prospect
prospects
prosperidad
prosperity
prostitusyon
prostitute
prostitution
protagonist
protagonista
protect
protected
protecting
protection
protective
protehidong
protehiran
protein
proteins
proteksion
proteksiyon
proteksyon
protektado
protektadong
protektahan
protektaran
protest
protesta
protestante
protestanteng
protina
protinang
proto
protocol
proton
prototype
proud
provence
proverb
proverbs
provide
provided
providence
provides
province
provinces
provincia
provincial
provinciang
provinsya
proyekto
proyektong
prri
prs
prunskiene
prusisyon
prussia
prussian
prutas
ps
psu
pswsab
psyche
psychic
psychological
psychologist
psychology
pt
pta
ptak
ptalb
pterocarpus
ptolemaic
ptolemy
pts
pu
pualas
pub
publ
public
publica
publication
publications
publika
publikado
publikar
publikas
publikasyon
publiko
publikong
published
publisher
publishers
publishing
publisidad
pudadera
pudding
pudtol
pueblo
puede
puedeng
puente
puericulture
puersa
puerta
puerto
puertollano
pugad
pugo
pugol
pugon
pugot
pugsley
puho
puja
pul
pula
pulag
pulahanes
pulang
pulau
pulawy
pulbos
pulbura
pulgada
pulilan
pulis
pulisiya
pulisya
pulitika
pulitikal
pulitikang
pulitiko
pulitikong
pulitzer
pulmon
pulo
pulong
pulot
pulotan
pumili
puminutok
pumondo
pumutok
punan
punay
pundador
pundamental
pundamentalismong
pundamentalistang
pundasyon
pundo
punduhon
punggod
pungo
punjab
punjabi
punk
puno
punong
punta
punto
puntod
puntong
puntos
puon
pup
pupil
pupils
puppet
pupuwede
pupuwedeng
pupwedeng
pura
purana
puranas
purbaran
purchase
purdue
pure
pureboys
puri
purificacion
purisima
purity
puro
purohit
purok
purong
purple
purpose
pursuit
puruntong
purus
pusat
push
pushyamitra
pusit
puso
pusod
pusog
pusong
put
putahe
putaheng
putat
putay
puti
putik
putin
puting
putnam
puto
putok
putol
putoy
puturo
puwede
puwedeng
puwera
puwersa
puwersang
puwesto
puyat
puyo
puyuma
puzzle
puławy
pvc
pwede
pwedeng
pwera
pwersa
pwersahan
pwersang
pwersas
pwerto
pwesto
pwestong
pwu
px
pxan
pyanista
pyano
pyare
pye
pyesa
pylon
pyongyang
pyramid
pythagoras
q
qa
qaeda
qatar
qc
qi
qian
qigong
qin
qing
qu
qua
quaker
quality
quang
quantum
quarter
quarterly
quartet
quasi
que
quebec
quechua
queen
queens
queensland
queer
quentin
queso
quest
question
questions
quezon
qui
quiambao
quiapo
quick
quigaman
quijano
quijote
quill
quilo
quilted
quin
quinapondan
quince
quindoza
quinitio
quintana
quintet
quintin
quinto
quintos
quipayo
quirino
quiroz
quisumbing
quixote
quiz
quizon
qun
qungua
quo
quod
quorum
quote
quoted
quotes
qur
quran
quy
r
ra
rabies
rabindranath
rabino
rabiya
rables
race
rachel
rachelle
racing
racism
rad
radar
radcliffe
radford
radha
radial
radiasyon
radiation
radical
radikal
radio
radium
radius
radon
radyo
radyoaktibo
radyoaktibong
radyum
rae
raf
rafael
raffles
raffy
raga
ragat
ragay
rage
rahay
rahman
rahu
rai
raid
rail
railroad
railway
railways
rain
rainbow
rainer
rainforest
raining
rainy
raise
raising
raisins
raj
raja
rajah
rajasthan
rajkumar
rajmohan
rajpurkar
rak
rakursi
rakyat
ralaban
rally
ralph
ram
rama
ramadan
ramain
ramas
ramayana
rambutan
rami
ramil
ramirez
ramiro
ramo
ramog
ramon
ramos
ramsay
ran
rana
ranchi
rancho
rand
random
randy
rang
ranga
range
rangers
ranggo
ranggong
rango
rank
ranked
rantso
rao
raot
raoton
rap
rapa
rape
raped
raphael
rapid
rapids
rapongan
rapot
rapper
rappler
rapporteur
rapsak
rapture
rapu
raquel
rard
rare
rarom
rasa
rasang
rashed
rashid
rasisalai
rasismo
rason
rasonableng
rasong
raspberry
rasul
rasyal
rasyo
rat
rata
ratak
rate
rated
rates
rathbone
rather
rating
ratio
ration
ratipikasyon
rattle
ratu
ratzinger
rau
raul
ravana
ravelo
raven
ravi
raw
rawis
rawit
rawitda
rawitdawit
rawitdawmanlainlain
ray
raya
raymond
raymund
raymundo
rayo
rayong
rays
raza
rb
rc
rca
rd
rdoba
re
rea
reached
reaction
reactor
read
reader
readers
reading
readings
ready
reagan
reaksion
reaksyon
reaksyong
reaktibo
reaktor
real
realidad
realismo
reality
really
realubit
reaps
rear
rearing
reason
reasons
reba
rebecca
rebel
rebelde
rebeldeng
rebellion
rebelyon
reberendo
rebirth
rebisyon
rebolusyon
rebolusyonaryo
rebolusyonaryong
rebolusyong
rebolusyunaryo
rebolusyunaryong
rebuilding
rebulto
rebultong
rebultos
reburied
rebyu
recamata
receive
received
receives
recent
reception
rechter
recipe
recipient
reciprocity
recital
recli
recognition
recognize
recognized
recoletos
recollections
reconciliation
reconstruction
record
recorded
recording
recordings
records
recovery
recreation
rect
recto
rector
recuerdo
recuerdos
red
redburn
reddit
redford
redir
redstockings
redstone
reduction
redwood
reed
reef
reel
reese
ref
refer
reference
references
referensiya
refining
reflections
reform
reformed
reformer
reforms
refrigeration
refugee
refugees
reg
regal
regalo
regarding
regatta
regency
regent
reggae
reggio
regime
regiment
regina
regine
region
regional
regions
regis
register
registration
registry
regla
reglamento
regular
regulasyon
regulation
regyha
rehabilitasyon
rehabilitation
rehensiya
rehensiyang
rehimen
rehimeng
rehion
rehistradong
rehistro
rehiyon
rehiyonal
rehiyong
rehiyunal
reich
reid
reign
reilly
reima
reimpreso
reina
reinkarnasyon
reino
reis
reissued
rejang
rekado
rekadong
rekisitos
reklamo
rekomendado
rekomendasyon
rekonstruksyon
rekord
rekording
rektanggulo
rektor
rekurso
rekursos
relacion
relasyon
related
relatibo
relatibong
relating
relation
relations
relationship
relationships
relative
relay
release
released
releases
relief
religion
religions
religious
relihion
relihiosong
relihiyon
relihiyong
relihiyoso
relihiyosong
relikya
relo
rem
remain
remains
remake
remaking
remalaso
remarks
rembrandt
remedios
remedyo
remember
remembered
remembering
remembrance
remigio
reming
remix
remodo
remontado
remote
remoto
remun
ren
renaissance
renasimyento
renasimyentong
renato
renda
rendaku
rendang
rendlesham
rene
renewable
renewal
renner
reno
renowned
rent
renyo
reo
reorganisadong
reorizo
rep
reparo
repaso
repasohon
repeat
reperendum
reperensia
reperensiya
reperensya
repertoire
replacement
replica
replika
reply
repolyo
reporma
repormadong
repormang
repormista
report
reported
reporter
reports
repository
represent
representado
representante
representantes
representasyon
representation
representative
representatives
represented
representing
reprint
reprinted
reproduction
reproductive
reproduksyon
reproduktibong
reprofesionalizarea
reptil
reptile
reptilya
repu
republic
republican
republika
republikang
republikano
republikanong
republished
reputasyon
requejo
requiem
required
requires
res
rescue
research
researcher
resepsyon
reserba
reserbang
reserve
reservoir
reshaping
residence
residency
residensya
residensyal
resident
residente
residenteng
residential
resigns
resilience
resin
resipe
resipiyente
resipyente
resistance
resistensya
resolusyon
resolution
resolutions
resonance
resort
resorts
resource
resources
respect
respetadong
respeto
respirator
respiratory
respiratoryo
responsabilidad
responsable
responsableng
response
responsibilidad
responsibility
responsible
rest
restaurant
restawran
restawrant
resto
restoran
restorasyon
restorasyonismo
restoration
restoryanismo
restos
restriksion
resuene
result
resulta
resultang
results
resurreccio
resurrection
retablo
retail
retana
rethinking
retirado
retiradong
retired
retratista
retrato
retratong
retrieval
retrieved
retro
retrospective
return
returned
returns
reunion
reuters
rev
revealed
reveals
revelation
revenge
revenue
reverendo
reverse
reversion
review
reviews
revilla
revimited
revised
revision
revisited
revista
revisyon
revival
revolt
revolucio
revolution
revolutionaries
revolutionary
revolvy
revue
reward
rex
rexha
rey
reyes
reyna
reynaldo
reynes
reyno
reynolds
rez
rgb
rgen
rgn
rh
rhapsody
rhian
rhizome
rhizophora
[...]
