!
"
#
##0
##1
##10
##11
##12
##13
##14
##15
##16
##17
##18
##19
##2
##20
##21
##22
##23
##24
##25
##26
##27
##28
##29
##3
##30
##31
##32
##33
##34
##35
##36
##37
##38
##39
##4
##40
##41
##42
##43
##44
##45
##46
##47
##48
##49
##5
##50
##51
##52
##53
##54
##55
##56
##57
##58
##59
##6
##60
##61
##62
##63
##64
##65
##66
##67
##68
##69
##7
##70
##71
##72
##73
##74
##75
##76
##77
##78
##79
##8
##80
##81
##82
##83
##84
##85
##86
##87
##88
##89
##9
##90
##91
##92
##93
##94
##95
##96
##97
##98
##99
$
%
&
'
(
)
*
+
,
-
.
/
0
00
000
0000
0001
0002
0003
0006
001
0013
002
0021
003
004
005
006
007
008
008388
009
00996
01
010
011
012
013
014
0140
015
016
017
018
019
02
020
021
022
023
0261
028020
029
03
030
031400000
0315
033
0362
039
04
041
044
045
0458
047
048
049
05
050
051
052
055
056
06
060
062
064
066
068
07
070
072
074
0783
08
080
082
083
09
094
096
1
10
100
1000
1002
1003
10050
1006
1007
101
1012
1013
101300000
1016
1017
102
1021
1023
1024
1029
103
1038
104
1046
105
106
107
1073
1079
108
1080
1086
109
1093
1095
1098
11
110
1100
1101
1103
1104
1105
1109
111
1110
1111
1112
1113
1114
112
1126
113
1130
1136
114
1146
115
116
1163
117
1177
1179
118
1186
119
12
120
1200
121
122
122630309
123
124
125
126
126442
127
128
129
13
130
1300
131
132
133
134
135
1350
1351
1353
136
1365
137
1371
138
139
14
140
1400
140100000
1405
141
141100000
1413
142
143
144
1440
145
146
1460
1467
1469
147
1475
148
1480
1485
1489
149
1490
1491
1492
1493
1499
15
150
1500
151
1512
1515
1516
1517
152
1520
1521
1522
1525
153
1530
1537
154
1540
1542
1543
1546
1547
155
1550
1551
1552
1554
1556
1559
156
1560
156224
1564
1565
1566
1567
1569
157
1570
1571
1572
1573
1574
1575
1577
1578
1579
158
1580
1581
1582
1583
1585
1586
1587
1589
159
1590
1591
1592
1593
1594
1595
1596
1597
1598
1599
16
160
1600
1601
1602
160200000
1603
160300000
1604
1605
1606
1607
1608
1609
161
1610
1611
1612
1613
1614
1616
1618
1619
162
1620
1621
1622
1625
1626
1627
1628
1629
163
1630
1631
1632
1634
1636
1637
1638
1639
164
1640
1642
1644
1645
1647
1648
1649
165
1650
1651
1652
1656
1658
1659
166
1660
1661
1662
1665
1666
167
1670
1673
1676
1677
1678
1679
168
1680
1682
1683
1685
1686
1687
1689
169
1690
1693
1694
1697
1699
17
170
1700
1701
1702
1703
1704
1705
1706
1707
1708
1709
171
1710
1711
1713
1714
1716
1717
1718
1719
172
1720
1721
1723
1724
1726
1727
1728
1729
173
1730
1731
1732
1733
1734
1735
1736
1737
1738
1739
174
1740
1741
1742
1743
1744
1745
1746
1747
1748
1749
175
1750
1751
1752
1753
1754
1755
1756
1757
1758
1759
176
1760
1761
1762
1763
1764
1765
1766
1767
1768
1769
177
1770
1771
1772
1773
1774
1775
1776
1777
1778
1779
178
1780
1781
1782
1783
1784
1785
1786
1787
1788
1789
179
1790
1791
1792
1793
1794
1795
1796
1797
1798
1799
18
180
1800
1801
1802
1803
1804
1805
1806
1807
1808
1809
181
1810
1811
1812
1813
1814
1815
1816
1817
1818
1819
182
1820
1821
1822
1823
1824
1825
1826
1827
1828
1829
183
1830
1831
1832
1833
1834
1835
1836
1837
1838
1839
184
1840
1841
1842
1843
1844
1845
1846
1847
1848
1849
185
1850
1851
1852
1853
1854
1855
1856
1857
1858
1859
186
1860
1861
1862
1863
1864
1865
1866
1867
1868
1869
187
1870
1871
1872
1873
1874
1875
1876
1877
1878
1879
188
1880
1881
1882
1883
1884
1885
1886
1887
1888
1889
189
1890
1891
1892
1893
1894
1895
1896
1897
1898
1899
19
190
1900
1901
1902
1903
1904
1905
1906
1907
1908
1909
191
1910
1911
1912
1913
1914
1915
1916
1917
1918
1919
192
1920
1921
1922
1923
1924
1925
1926
1927
1928
1929
193
1930
1931
1932
1933
1934
1935
1936
1937
1938
1939
194
1940
1941
1942
1943
1944
1945
1946
1947
1948
1949
195
1950
1951
1952
1953
1954
1955
1956
1957
1958
1959
196
1960
1961
1962
1963
1964
1965
1966
1967
1968
1969
197
1970
1971
1972
1973
1974
1975
1976
1977
1978
1979
198
1980
1981
1982
1983
1984
1985
1986
1987
1988
1989
199
1990
1991
1992
1993
1994
1995
1996
1997
1998
1999
2
20
200
2000
2001
2002
2003
2004
2005
2006
2007
2008
2009
201
2010
2011
2012
2013
2014
2015
2016
2017
2018
2019
202
2020
2021
2022
2025
203
2030
204
205
206
207
208
209
21
210
2100
211
212
213
214
215
216
217
218
219
22
220
221
222
223
224
225
226
227
228
229
23
230
2305
2307
231
232
233
234
235
236
237
238
239
24
240
241
242
243
244
245
246
247
2479
248
249
25
250
2500
251
2510
252
25231543
253
254
255
256
257
258
259
26
260
2600
261
262
263
264
265
266
267
268
269
27
270
271
272
273
274
275
276
277
278
279
28
280
281
282
283
284
285
286
287
288
289
29
290
291
292
293
294
295
296
297
298
299
3
30
300
3000
301
302
303
304
305
306
307
3077
308
309
31
310
311
312
313
314
315
316
317
318
319
32
320
321
322
323
324
325
326
327
328
329
33
330
331
332
333
334
335
336
337
338
3389
339
34
340
341
341421
342
343
344
345
346
347
348
349
35
350
351
352
353
354
355
356
357
358
359
36
360
361
362
363
364
365
366
367
368
369
37
370
371
372
373
3732
374
375
376
377
378
379
38
380
381
382
383
384
385
386
387
388
389
39
390
391
392
393
394
395
396
397
398
399
4
40
400
4000
401
402
4020
403
404
405
4051
4058
406
407
408
409
41
410
411
412
413
414
415
416
417
418
419
42
420
421
4214
422
423
424
425
426
427
429
43
430
431
432
433
4331
434
435
436
437
438
439
44
440
441
443
444
445
446
447
448
449
45
450
451
452
453
454
455
456
457
458
459
46
460
461
462
463
464
465
466
467
468
469
47
470
471
472
473
474
475
476
477
478
479
48
480
481
482
484
485
486
488
489
49
490
491
492
493
494
495
496
497
498
499
5
50
500
5000
501
502
503
504
505
506
507
509
51
510
511
512
513
514
515
517
518
519
52
520
521
522
523
524
525
526
527
529
53
530
531
532
533
534
535
536
537
538
539
54
540
541
542
543
544
545
546
547
548
549
55
550
551
552
553
554
555
556
557
558
559
56
560
561
563
564
565
566
567
568
569
57
570
571
572
573
574
575
576
577
578
579
58
580
581
582
583
584
585
586
587
588
589
59
590
591
592
593
594
595
596
59884
599
5994
6
60
600
6000
601
602
603
604
605
606
607
608
609
61
610
611
612
613
615
616
617
618
62
620
621
622
623
624
625
626
627
628
629
63
630
631
632
633
634
637
638
639
64
640
641
642
644
645
646
647
649
65
650
651
652
653
654
655
656
657
658
659
66
660
661
662
663
664
665
666
667
668
669
67
670
671
672
674
675
676
678
679
68
680
681
682
683
684
685
686
688
69
690
691
692
693
694
695
696
697
699
7
70
700
7000
7007
701
702
704
705
706
707
708
709
71
710
711
712
713
714
7148
715
717
718
72
720
722
723
725
726
728
729
73
730
733
734
735
736
737
739
74
740
741
742
743
744
746
747
75
750
751
752
753
756
757
758
759
76
764
765
767
768
769
77
771
775
776
777
779
78
780
781
784
785
786
7864
787
788
789
79
790
791
7914
792
793
794
795
796
798
799
8
80
800
801
8014
8018
802
803
804
805
806
807
808
8080
809
81
810
8108
8109
811
8118
812
813
814
815
816
817
819
82
820
821
822
823
8239
824
8248
825
826
827
828
83
831
832
8339
834
836
839
84
840
841
842
843
844
846
848
849
8493
85
850
851
853
855
858
85883
86
861
862
863
866
867
868
869
87
871
872
873
874
875
876
878
879
88
880
881
883
88385
884
886
887
89
890
891
892
893
895
896
897
898
899
9
90
900
901
905
907
908
909
91
910
911
912
915
916
917
918
919
92
920
922
923
924
925
927
928
93
930
931
932
933
935
936
937
938
939
94
940
941
942
943
944
946
948
949
95
950
952
953
954
95468
956
9580383
96
960
962
963
965
967
968
969
97
970
971
972
973
974
976
977
978
979
98
980
981
983
984
985
988
989
989409187
99
990
992
994
995
999
:
;
<
=
>
?
@
[
\
]
^
_
`
a
aa
aaa
aaaaibaj
aabang
aabante
aabot
aaboton
aabuso
aacta
aadal
aadalan
aadbokasiya
aagi
aagihan
aagom
aahit
aako
aakoon
aakto
aalap
aalok
aalsa
aambag
aamir
aamund
aandam
aandorog
aapi
aaplikar
aapod
aapud
aaram
aarhus
aarne
aaron
aarp
aasa
aasikaso
aataman
aatendir
aatubang
aawit
aayog
aayos
ab
aba
abaa
abaca
abacus
abad
abadi
abaga
abai
abaka
abakadang
abakanowicz
abakelia
abakus
abala
aban
abandon
abandoned
abang
abaniko
abante
abatan
abaw
abay
abaya
abbas
abbe
abbey
abbott
abbottabad
abby
abc
abcnews
abd
abdel
abdon
abdul
abdullah
abe
abel
abell
abella
abellana
abenida
aber
aberdeen
abidjan
abigail
abilidad
ability
abingdon
abiso
abkat
abkhazia
able
abloh
abo
aboard
abogada
abogado
abogadong
abogasiya
abogasya
abohon
abolition
abono
aboriginal
aborihinal
aborlan
aborsion
aborsyon
abortion
abot
aboton
about
above
aboyabos
abra
abraham
abramovitz
abrams
abri
abril
abroad
abrupt
abruzzo
abs
absoluto
absolutong
abstract
abstraktong
abu
abucay
abugida
abukado
abuloy
abunda
abundance
abundang
abuse
abuso
abusong
abv
ac
acade
academia
academic
academy
accademia
accent
accepted
accepts
access
accessdate
accessed
accessories
accident
accommodation
accomplishments
according
account
accountancy
accountant
accounting
accounts
accra
accreditation
accreditations
accurate
accused
ace
aceh
acerca
aces
acevedo
achievement
achievements
achkar
acholi
acid
acids
acker
acm
acoustic
acp
acquired
acquires
acre
acres
across
acs
act
acta
acting
action
actions
active
activestats
activism
activist
activists
activities
activity
acton
actor
actors
actress
actresses
acts
actually
acute
acutis
ad
ada
adal
adalan
adam
adams
adamson
adan
adaptar
adaptasyon
adaptation
adapted
adarna
adbentura
adbokasiya
add
addams
added
addison
addition
additional
address
adds
ade
adela
adelaar
adelaide
adelborg
adele
adi
adios
adjunct
adjusted
adjustment
adlaw
adler
admin
administrador
administrar
administrasyon
administratibo
administratibong
administration
administrative
administrator
admiral
admits
adnu
adobo
adolf
adolfo
adrados
adres
adrian
adriana
adrienne
ads
adult
adulto
adultong
adults
advaita
advance
advanced
advancement
advances
adventist
adventure
adventures
advertising
advice
adviser
advisor
advisory
advocacy
advocate
advocates
adyong
ae
aeg
aegean
aere
aerial
aeronautical
aeronautics
aeropuerto
aeropwerto
aerosol
aesthetic
aesthetics
aeta
af
affair
affairs
affandi
affected
affinity
afghan
afghanistan
afi
afp
afraid
afrancia
africa
african
afrika
afro
after
aftermath
afternoon
aftonbladet
aftra
ag
aga
agad
again
against
agang
agapito
agatha
agaton
agatsuma
agaw
agawon
agda
agdangan
age
aged
agencies
agency
agenda
agent
agents
ages
aggarwal
aggregated
agham
aghapour
agi
agid
agihan
agihang
agil
agila
agimadmad
agimat
aging
agit
agitan
aglipay
agnes
agni
agno
ago
agom
agoman
agon
agoncillo
agoo
agos
agosto
agrangay
agreement
agresibo
agresibong
agri
agricultural
agriculture
agrikultura
agrikultural
agro
agroforestry
agta
agu
agua
aguak
aguay
aguila
aguilar
aguilera
aguinaldo
aguirre
agung
agusan
agusti
agustin
agustino
agutaynen
agyat
ah
ahead
ahedres
ahensia
ahensya
ahente
ahlschlager
ahmad
ahmed
ahmedabad
ahn
ai
aiai
aiba
aicelle
aid
aida
aide
aids
aiko
aim
aims
ain
ainu
air
aircraft
aire
aires
airlines
airplay
airport
airs
ais
aise
aishwarya
aiza
aizu
aizuchi
aj
ajay
ajb
ak
aka
akademie
akademiko
akademikong
akademiya
akademya
akala
akb
akbar
akbayan
ake
akean
akeng
akhmatova
aki
akin
aking
akit
akita
akkineni
aklan
aklanon
aklat
ako
akong
akoon
aksaray
akselerasyon
akses
aksesorya
akshay
aksidente
aksidenteng
aksion
aksyon
akta
aktibidad
aktibidades
aktibismo
aktibista
aktibistang
aktibo
aktibong
akting
aktitud
akto
aktong
aktor
aktres
aktress
aktuwal
aktwal
aku
akuon
akusado
akusasyon
akutagawa
al
ala
alaala
alabama
alabang
alabat
alabes
aladdin
alag
alagad
alahas
alain
alajos
alam
alamada
alaman
alamat
alambre
alaminos
alan
alang
alangan
alanis
alano
alap
alarcon
alarm
alas
alaska
alata
alay
alba
albanese
albania
albanian
albano
albany
albanya
albay
albayano
albert
alberta
alberto
albinismo
albino
album
albums
albuquerque
alca
alcala
alcantara
alcasid
alcohol
alcott
aldaw
aldawan
alden
aldrich
alegasyon
alegre
alegria
alejandra
alejandria
alejandro
alejo
alema
aleman
alemania
alemanya
aleppo
alerhiya
alert
alerto
alessandra
alessandro
alex
alexa
alexander
alexandra
alexandre
alexandria
alexei
alexis
alfelor
alfon
alfonso
alfred
alfredo
algae
algebra
algeria
algerian
algorithm
algoritmo
alhebra
ali
alias
alibaba
alibangbang
alice
alicia
alien
aligned
alimbubuyog
aling
alingan
alipatikong
alisngaw
alison
alisto
alistong
alitoktok
alive
aliw
aliwalas
aljazeera
alkade
alkalde
alkano
alkim
alkimiya
alkohol
alkoholiko
all
alla
allah
allan
allegiance
allegra
allen
allergy
alley
alliance
allied
allies
allison
allium
allkpop
allmovie
allmusic
alloy
allure
alma
almanac
almanaque
almeda
almirante
almost
alo
alok
alolonti
alon
alone
along
alonso
alonzo
alopoop
aloy
alpa
alpabeto
alpabetong
alpha
alphabet
alphabetical
alpine
alpog
alps
already
als
alsa
alsang
also
alsom
alt
alta
altamirano
altar
altavas
alter
alternate
alternatibo
alternatibong
alternative
although
altitud
alto
alumaad
alumahad
aluminum
alumna
alumni
alumnus
alvarez
alvin
always
alyado
alyansa
alyansang
alyas
alyssa
alzheimer
alzona
am
ama
amaan
amadeo
amadeus
amado
amalia
amamatak
amanda
amang
amaon
amas
amateur
amay
amayon
amazing
amazon
ambag
ambassador
ambassadors
amber
ambeth
ambisyon
ambisyosong
ambition
ambon
ambos
ambrosio
ambrosius
ame
amelia
amen
amendment
america
american
americana
americanradiohistory
americans
americas
amerika
amerikana
amerikanang
amerikang
amerikano
amerikanong
ames
amfar
ami
amiannoying
amid
amienda
amiga
amigo
amigong
amihan
amihanan
amihanang
amilbangsa
amin
amina
amino
amir
amis
amitabh
amjbot
ammad
amman
ammonia
amnayan
amnestiya
amnesty
amo
among
amonya
amor
amore
amores
amorsolo
amos
amour
amp
amparo
ampas
ampat
ampatuan
ampon
ampoyon
amprofon
amrita
ams
amsterdam
amy
an
ana
anabu
anacardiaceae
anahaw
anak
anal
analisar
analisis
analitikal
analog
analysis
analytical
anan
anand
anarkista
anas
anatomikal
anatomiya
anatomy
anaya
ancestral
ancestry
ancheta
anchor
ancient
ancx
and
anda
andam
andaman
andamon
andaya
anders
andersen
anderson
andes
andhra
andi
andong
andorog
andorra
andrade
andre
andrea
andreas
andreeva
andres
andrew
andrews
andrey
anduyog
andy
anew
ang
angadanan
angat
angaton
angaur
angay
ange
angel
angela
angeles
angelica
angelina
angeline
angelita
angelo
angelova
angels
anger
anggot
anggulo
anghel
angiosperm
angiosperms
angkan
angkla
angkor
angle
anglia
anglican
anglo
angog
angola
angono
angry
angst
angulo
angustia
ani
anibersaryo
aniftos
aniit
anilao
animador
animal
animals
animar
animasola
animasyon
animated
animation
animator
anime
animed
animenewsnetwork
animerica
aninipot
anino
anira
aniston
anit
anita
anitta
ankara
ann
anna
annals
annan
anne
annette
annex
annie
anning
anniversary
anno
annona
annotated
announce
announced
announcement
announcer
announces
annual
annually
annurev
ano
anom
anoman
anonang
anong
anonymous
anopaman
another
anoy
ans
anson
answer
answers
ant
antabay
antarctic
antarctica
antartika
antas
ante
antena
antenna
antequera
antes
anthem
anthologized
anthology
anthony
anthropocene
anthropological
anthropologist
anthropology
anti
antigo
antigong
antigua
antiguos
antilles
anting
antioxidant
antipolo
antique
antiquity
anto
antoine
antoinette
antolohiya
antolohiyang
anton
antoni
antonia
antonio
antony
antoon
antopol
antropologo
antropolohiya
antunes
antwerp
anu
anum
anuman
anumang
anuna
anunsyar
anunsyo
anupaman
anus
anushka
anvil
anwar
anxiety
any
anyan
anymore
anyo
anyone
anyono
anyos
anything
anywhere
ao
aoba
aol
aomori
ap
apa
apalit
aparato
aparatong
aparri
apart
apartment
apat
apayao
apec
apektado
apektadong
apelyido
apelyidong
apesar
apg
apganistan
aphra
api
apil
apisyon
aplay
aplaya
aplikado
aplikar
aplikasyon
apo
apocalypse
apod
apodon
apog
apolinar
apolinario
apollo
apolo
apolonio
apon
apoon
aporon
apostle
apostol
apostoles
apostolic
apostoliko
apostolikong
apoy
app
appan
appeal
appeals
appear
appearance
appearances
appeared
appears
appendix
applause
apple
appleton
application
applications
applied
appointed
appointment
appointments
appoints
appraisal
appreciation
apprentice
approach
approaches
approves
approximately
apps
apr
apresyar
aprika
aprikang
aprikano
aprikanong
april
aprobado
aprobar
aprobetsar
aprobetsaran
apud
apudon
apuera
apwera
apyan
aqa
aqua
aquaculture
aquarium
aquatic
aque
aquila
aquinas
aquino
ar
ara
arab
arabe
arabia
arabian
arabic
arabiko
arabikong
arabo
arabong
arabot
arabya
araceli
arafat
aragats
aragirang
aragon
arak
araki
arakian
aral
aram
araman
aramigo
aramon
arana
aranda
araneta
arang
aranghita
arapodan
ararat
araullo
araw
arawan
arbor
arc
arcangel
arce
arch
archaeological
archaeology
archaic
archana
archdaily
archdiocese
archer
archimedes
archipelago
architect
architects
architectural
architecture
archiv
archival
archive
archived
archives
archivio
archivo
ardalan
ardalani
are
area
areas
areca
areglado
aregladong
areglo
arejola
arellano
arena
arestar
aresto
aretha
arevalo
arezzo
arg
argentina
argentine
argon
arguelles
argument
argumento
ari
aria
ariana
arias
ariel
arin
arina
arinman
aripompon
arista
aristokrata
aristotle
arit
aritao
arithmetic
arithmeticae
aritmetika
ariwaga
arizona
arjuna
ark
arkanghel
arkansas
arkeologo
arkeolohikal
arkeolohiko
arkeolohikong
arkeolohiya
arkham
arkibo
arkidiosesis
arkila
arkipelago
arkipelagong
arkitekto
arkitektong
arkitektura
arkitektural
arkitekturang
arkiyolohiya
arko
arkong
arktiko
arlene
arlequin
arlington
arm
armada
armadas
armado
armadong
armand
armando
armani
armas
armed
armenia
armenian
armenta
armenya
armi
armm
arms
armstrong
army
arn
arnold
arnulfo
aro
aroaldaw
arog
arogan
arogon
arok
aromatikong
arong
aroroy
around
arquette
arquitecto
arquitectura
arranged
arrest
arrested
arrival
arrow
arroyo
arroz
ars
arseniko
arsenio
arsobispado
arsobispo
arson
arsonist
art
arta
artandhistory
arte
artemio
artemisia
arteng
artes
artha
arthritis
arthur
arti
article
articleid
articles
articleshow
articleview
artie
artifak
artifaks
artificial
artigas
artikulo
artikulong
artipisyal
artis
artist
artista
artistang
artistes
artistic
artistiko
artistikong
artists
artnews
artocarpus
arts
artsakh
arturo
aru
arug
arugon
arya
aryan
as
asa
asahi
asal
asamblea
asambliya
asap
asasinar
asasinasyon
asawa
asayti
asba
asbp
ascap
asean
asensadong
asenso
aserbayhan
aserbayhani
asero
aserong
asetiko
ash
ashgabat
ashgate
ashley
asi
asia
asiae
asian
asiatic
asiaweek
asiawise
asido
asidong
asignatura
asikaso
asikasohon
asimov
asin
asinan
asis
asista
asistensya
ask
askad
asked
asli
aslian
asliyano
asmat
asno
aso
asog
asoge
asosasyon
asosyado
asosyar
asp
aspect
aspects
aspekto
aspeto
aspirin
aspx
assad
assam
assange
assassin
assassination
assault
assembly
assemblyman
assessment
asset
assets
assis
assise
assisi
assistance
assistant
associate
associated
associates
association
assumption
asta
asteraceae
asterids
asteroid
asteroids
asteroyd
asthma
astor
astra
astrazeneca
astrid
astrol
astrologo
astrology
astrolohiya
astrolohiyang
astron
astronaut
astronauta
astronomers
astronomical
astronomikal
astronomiko
astronomikong
astronomiya
astronomo
astronomy
astrophysics
asturias
asukar
asul
asuncion
asupre
aswang
asya
asyano
asyanong
asylum
at
ata
atake
atakeng
ataman
atamanan
atamanon
atanas
atang
atas
atatu
atay
atayal
atayaliko
atbp
ate
ateismo
atelier
atenas
atender
atendir
ateneo
atension
atensyon
atharvaveda
athena
athens
athlete
athletes
athletic
athletics
ati
atid
atienza
atihan
atimonan
ating
atis
atkinson
atlanta
atlantic
atlantiko
atlantis
atlas
atleta
atletang
atman
atmospera
atmosperikong
atmosphere
atmospheres
atmospheric
atms
atok
atol
atoll
atom
atomic
atomiko
atomikong
atomo
atop
atraksyon
atras
atsara
atta
attack
attacks
attempt
attend
attention
attorney
attraction
attributed
atty
atubang
atubangan
atubangon
au
auckland
auction
audience
audio
audiobooks
audiovisual
audit
audition
auditor
auditorio
auditorium
audrey
auer
auf
aug
augsburg
august
augusta
auguste
augustine
augustinian
augusto
augustus
aunor
aunt
aur
aura
aureus
auring
aurora
aus
auspop
austen
austin
australasia
australia
australian
australianong
australya
australyano
australyanong
austria
austrian
austriya
austro
austroasiatic
austroasyatiko
austronesian
austronesians
austronesyo
austronesyong
author
authored
authorities
authority
authors
autism
auto
autobiographer
autobiography
autobiograpiya
autobot
autobots
automated
autonomiya
autonomo
autonomong
autonomous
autonomy
autor
autoridad
autumn
aux
av
ava
avaaz
available
avant
avatar
ave
avec
avel
avelino
avellana
avengers
avenida
avenue
average
averrhoa
avery
aviation
aviator
avid
avila
aviv
avoid
avon
avril
aw
awa
awad
awakening
award
awarded
awardee
awardees
awards
awareness
awat
away
awd
awesome
awfj
awit
awto
awtonomong
awtor
awtoridad
axelsson
axis
axon
axs
ay
aya
ayala
ayam
ayan
ayaw
ayodhya
ayog
ayon
ayos
ayre
ayta
ayuda
ayuno
ayurveda
ayutthaya
az
azalea
azam
azerbaijan
azerbaijani
azeri
aziz
azucena
azul
b
ba
baad
baak
baao
baba
babae
babaeng
babai
babaing
babangon
babar
babasahon
babayaan
babaye
babayeng
babayi
babaying
babaylan
babe
babies
baboy
babu
babuyan
babuza
baby
bacacay
bacall
bach
bachchan
bachelet
bachelor
bachiller
back
backed
background
backs
backstage
backstreet
baclayon
bacolod
bacolor
bacon
bacong
bacoor
bacteria
bacudio
bad
bada
badan
baden
badi
badil
badilon
bado
badong
bados
baduy
badyet
bae
baek
baeksang
baeta
bafta
bag
baga
bagac
bagacay
bagaman
bagamanoc
bagang
bagas
bagat
bagay
bagbag
baghdad
bagi
bago
bagobo
bagohan
bagohon
bagol
bagong
bagoong
bags
bagsik
bagting
baguhan
baguhon
baguio
bagumbayan
bagus
bagyo
bagyong
baha
bahag
bahala
bahamas
bahasa
bahay
bahia
bahog
bahrain
bahura
bai
bailey
baill
bain
bais
bajau
bajaw
bak
baka
bakal
bakalan
bakalon
bakante
bakanteng
bakasyon
bakawan
baker
bakilid
bakit
bakker
bakla
bako
bakong
bakterya
baku
bakun
bakuna
bakya
bal
bala
balad
balagbag
balagon
balagtas
balalong
balamban
balan
balance
balanga
balanghayan
balangiga
balanse
balaog
balares
balat
balatan
balatas
balatong
balaw
balay
balayan
balce
balde
bale
balenciaga
baler
balete
bali
balibago
balido
balidong
balik
baliktad
balimbing
balines
balinese
balingasag
balinghoy
balintawak
balintong
balita
balitang
baliuag
balkan
balkans
balkh
ball
ballad
ballantine
ballerina
ballerini
ballesteros
ballet
ballot
balmain
balo
balogo
balon
balong
balos
baltazar
baltic
baltimore
baltog
balud
balukag
balut
baluyut
balyo
balyong
bamban
bambang
bambi
bamboo
bampira
ban
bana
banaba
banal
banana
bananafish
banarsidass
banaue
banco
band
banda
bandala
bandalang
bandang
bandar
bandera
banderang
bandit
bands
bandung
banerjee
bang
banga
bangalore
bangaon
banggai
banggi
bangging
bangin
bangka
bangkag
bangkay
bangkete
bangko
bangkok
banglades
bangladesh
bangladeshi
bangladesi
bangon
bangot
bangraw
bangsamoro
bangued
banguingui
bangus
banhi
bani
banig
banjar
bank
banker
banking
banko
banks
banned
banner
bansa
bansag
bansalan
bansay
banta
bantam
bantamweight
bantay
bantayan
bantayog
banto
bantog
bantogan
banton
bantu
banwa
banwaan
banwang
banyumasan
bao
bap
bapor
baptism
baptist
baquiran
bar
bara
barabas
barack
barahibo
barakalan
baram
barang
barangay
baranggay
baranovsky
baras
barat
barato
baratong
barayti
barba
barbacena
barbados
barbara
barbell
barbian
barbie
barbra
barbuda
barcelona
barcelonita
bare
barely
bares
bareta
baretang
barili
barita
barito
barkada
barker
barko
barkong
barlin
barmm
barnard
barnes
barnhart
baro
barobata
barobo
baroko
baron
baroness
barong
barongbarong
baroque
barotac
baroto
barotong
baroy
barr
barra
barrameda
barrett
barretto
barrier
barrio
barrios
barros
barry
bars
bartlett
bartolome
bartolomeo
barton
bartossik
baruto
barya
baryant
baryante
baryasyon
baryente
baryenteng
baryo
barzani
bas
basa
basado
basahan
basahon
basak
basal
basang
basay
basbas
basco
base
baseball
based
basehan
basehang
basel
basenotes
bases
bashar
bashir
basic
basics
basil
basilan
basilica
basilika
basin
basinger
basis
basket
basketball
basketbol
baso
basong
basque
bass
bassano
basse
bassi
basta
bastanteng
bastian
bastida
basu
basud
basura
basurahan
basurang
bat
bata
bataan
batac
batad
batag
batak
batalay
batalya
batan
batanes
batang
batangan
batangas
batas
batasan
batasang
batavia
batay
batayan
batbat
batch
batchelor
baterya
bates
bath
bathala
batik
batikano
batikanong
batman
bato
batong
batsilyer
battalion
battambang
battery
battista
battle
battles
batu
batuan
batuta
bau
bauan
bauer
bauhaus
bautista
bavaria
baw
bawah
bawal
bawang
bawat
bawi
baxandall
baxter
bay
baya
bayaan
bayabas
bayad
bayadan
bayag
bayambang
bayan
bayang
bayani
bayanihan
bayawan
bayawas
baybay
baybayin
baybayon
baybayong
baylan
bayle
bayleng
bayli
baylon
bayog
bayombong
bayong
bayt
bayugan
bazaar
bazille
bb
bbc
bc
bce
bcl
bd
bda
be
bea
beach
beacon
bean
beans
bear
beard
beast
beat
beatles
beatrice
beatriz
beats
beau
beautiful
beauty
beauvoir
beaux
bebe
became
because
beck
becker
becky
become
becomes
becoming
bed
beda
bedford
bee
beef
been
beene
beer
bees
beetham
beethoven
beeton
beetons
before
beg
began
begin
beginning
beginnings
begins
begum
begun
behalf
behavior
behaviour
behikulo
behind
behn
bei
beijing
being
beinte
beirut
bekati
bektor
bel
bela
belardo
belarus
belen
belfry
belgian
belgium
belgrade
belhika
belief
beliefs
believe
belinda
belize
belkovski
bell
bella
bellas
belle
bello
bells
bellwood
belmonte
belo
belong
belongs
belosidad
beloved
below
belt
belva
ben
benazir
bench
bender
bendisyon
bene
benedict
benedictine
benedicto
benefit
benefits
benepisyo
benesuela
bengal
bengali
bengkulu
bengu
benguet
benigno
benin
benitez
benito
benjamin
bennett
benny
benois
benson
benta
bentaha
bentahan
bentahe
bente
benth
bentley
benton
benz
benzene
ber
beran
berba
berbal
berber
berbo
berde
berdeng
berdura
berg
berger
bergman
bergreen
berkeley
berlin
berlusconi
berman
bermuda
bern
bernabe
bernadette
bernal
bernard
bernardazzi
bernardino
bernardo
bernas
bernhard
bernice
bernie
bernstein
berruguete
berry
bersikulo
bersion
bersiyon
berso
bersong
bersyon
bert
bertha
bertrand
berzelius
bes
besao
beses
bessie
best
bestseller
bet
beta
betel
beterano
beteranong
beth
bethlehem
betsey
betsy
better
bettina
betty
between
beverage
beveridge
beverly
beware
beyer
beyonce
beyond
bezos
bf
bg
bgy
bh
bha
bhagavad
bhagavata
bhai
bhakti
bharat
bhopal
bhubaneswar
bhutan
bhutto
bi
biag
biak
bian
bianca
bianchi
bias
bibcode
bibi
bibiano
bibingka
bible
biblia
biblical
biblikal
bibliofilo
bibliography
bibliograpiya
biblioteca
bibliotheca
bibliya
bichara
bicol
bicolana
bicolandia
bicolano
bicolanos
bicolmail
bicolnon
bicolstandard
bicutan
bicycle
bid
bida
bidang
bidayuh
biden
bidyo
bieber
bien
biennale
biennial
bienvenido
bietnam
bietnames
biff
big
bigger
biggest
bigkas
bigkay
bigla
biglaan
biglaang
biglang
bigote
bihag
bihar
bihira
bihirang
bike
bikes
biklad
bikol
bikolana
bikolanang
bikolano
bikolanong
bikoliana
bikolista
bikolnon
bikols
biktima
bila
bilan
bilang
bilanggoan
bilar
bilateral
bilbao
bile
bilingual
biliran
biliranisland
bill
billboard
billboardurlbyname
billie
billion
billionaire
billionaires
billy
bilog
bilogon
bilyon
bilyonaryo
bilyones
bilyong
bima
bin
binaak
binabago
binabalad
binabalehan
binabanga
binabansagan
binabantayan
binabanwa
binabasa
binabayadan
binabaybay
binadi
binadil
binading
binago
binakal
binalbagan
binalihan
binalonan
binanga
binangonan
binansagan
binary
binas
binasa
binase
binawian
binay
binayaan
binayadan
binendisyonan
bing
bingen
bingkay
binh
binibilang
binibilog
binibining
binibisto
binibistong
binikol
binilog
binisaya
binisita
binisto
binomba
binomyal
binondo
bint
bintana
bintulu
binubuo
binubutong
binugbog
binuhay
binuksan
binunyagan
binutasan
binutsan
bio
biochemistry
biodibersidad
biodiversity
biogeography
biografi
biografiskt
biographer
biographical
biographie
biographies
biography
biograpikal
biograpiya
biograpo
bioko
biol
biological
biologo
biology
biolohikal
biolohikong
biolohiya
biomass
biopic
bios
biosphere
biotechnology
bipasha
bipin
bird
birdlife
birdman
birds
birhen
biri
birik
birmingham
biro
birol
birth
birthday
birtud
birus
bis
bisa
bisakol
bisaya
bisayang
bise
bisekswalidad
bisexual
bishop
bishops
bisikleta
bisikletang
bisita
bisitang
bislig
bison
bisperas
bissau
bista
bistado
bistadong
bisto
bistong
biswal
bisyo
bisyon
bit
bitamina
bitbit
bitch
bite
biti
bitis
bitoon
bits
bitstream
bitter
bituin
bituing
bituka
bituon
biyahe
biyaya
biyernes
biyetnam
biyo
biyograpiya
biyokimika
biyolensya
biyolohikal
biyolohiya
biyong
biz
bj
bjo
bjork
bjorke
bk
bl
bla
blaan
black
blackburn
blackpink
blackwell
blade
blah
blair
blaise
blake
blame
blanca
blanchard
blanche
blanchett
blanco
blank
blas
blast
bldg
blench
blend
blessed
bleu
blg
blica
blige
blind
bliss
blistein
block
blockbuster
blocks
blog
blogger
blogosphere
blogs
blogspot
bloke
blonde
blood
bloody
bloom
bloomberg
bloomington
bloomsbury
blow
blowing
blown
bltx
blu
blue
blues
bluetoth
blume
blumea
blumenbach
blumentritt
blunt
blusa
blust
blvd
bly
bmg
bmi
bmj
bn
bnf
bnt
bntnews
bo
boa
board
boarding
boards
boat
bob
bobby
bobis
bobon
boca
bocaue
bocelli
bod
bodega
bodek
bodies
bodra
body
bodyguard
boeing
boeken
boer
bofill
bog
boga
bogaletch
bogdanov
bogkos
bogo
bogota
bohol
boholano
bohr
boiled
bok
bokabularyo
bokal
bokalista
bokasyonal
boklit
boklod
bokod
boksing
boksingero
boksyador
bol
bola
bolang
bolaven
bold
boli
bolibya
bolinao
boliney
bolivia
bollingen
bollywood
bollywoodhungama
bolo
bologna
bolong
bolt
bolton
boluntad
boluntaryo
boluntaryong
bolyum
bom
bomb
bomba
bombang
bombay
bombing
bombo
bombon
bon
bonan
bonaparte
bonbon
bond
bondarenko
bonds
bone
bones
bong
bonga
bongabong
bongao
bongat
bongbong
bonifacio
bonn
bonnet
bonnie
bonoan
bontoc
bontok
bonus
bony
boo
booc
boogie
book
booker
booklet
books
bookstore
bool
boom
boost
boot
booth
boots
bopha
boracay
borbon
bord
bordado
border
borders
boris
borja
borlagdan
born
bornean
borneano
borneo
boro
boron
borongan
borotohan
borromeo
borys
bos
bosco
bose
boses
bosley
bosnia
bosnian
boss
boston
bot
botanic
botanical
botanika
botaniko
botanist
botante
botany
bote
both
boti
boto
botohan
botolan
botong
botswana
bottle
bottom
bouayach
bougainvillea
boulder
boulevard
bound
boundary
bourdain
boutique
bow
bowie
bowl
bowling
box
boxer
boxers
boxing
boxrec
boy
boyd
boyer
boyfriend
boyle
boys
boyz
bp
bpi
br
bra
brace
bracelet
brad
bradley
bradshaw
brady
braga
bragais
brahma
brahman
brahmi
brahmin
brahms
braille
brain
branch
branches
brand
brandeis
brandon
brands
bras
brasil
brasilianong
braso
brass
bratislava
braun
braunschweig
brave
bravo
brazal
brazil
brazilian
bre
bread
break
breaker
breakfast
breaking
breaks
breakthrough
breaktudo
breakup
breastfeeding
breath
breathe
breeding
breeze
breis
bremer
brenda
brendan
brennan
brenner
brent
breuning
breva
breve
brewer
brewery
brewing
brewster
brgy
brian
brick
bride
bridge
bridges
bridget
brie
brief
briefing
briefs
brien
brigham
bright
brigitte
brill
brilliant
brinda
bring
bringing
brings
brisbane
bristol
brit
britain
britania
britaniko
britannia
britannica
britano
britanya
british
britney
briton
brits
britt
brittany
broad
broadcast
broadcaster
broadcasting
broadway
broadwayworld
brocka
brodkast
brodkaster
brody
broke
broken
bromina
bronse
bronseng
bronson
bronte
bronx
bronze
broodstock
brook
brooke
brooklyn
brooks
bros
brother
brothers
brought
brown
browne
browse
bru
bruce
brunei
bruno
brunswick
brush
brussels
brutsa
brws
bryan
bryant
bs
bt
bts
btva
bu
buan
buaya
buayan
bubble
bubbling
bubon
bubong
buboy
bucal
bucay
buchanan
bucharest
buck
bud
buda
budapest
buddha
buddhism
buddhist
buddy
budget
budha
budhismo
budhista
budismo
buen
buenaventura
buenavista
buencamino
buendia
bueno
buenos
bufete
buffalo
bug
buga
bughaw
bugis
bugkon
bugkos
bugnay
bugoy
bugtak
bugtong
buhat
buhawi
buhay
buhayon
buhi
buhid
buhinon
buhis
buhok
build
builder
builders
building
buildings
built
buk
buka
bukal
bukaneg
bukas
bukid
bukidnon
bukidon
buklod
buko
bukod
bukol
buksan
bul
bula
bulacan
bulaga
bulahan
bulaklak
bulalacao
bulalakaw
bulalo
bulan
bulanan
bulang
bulatlat
bulaw
bulawan
bulawang
bulbol
bulgaria
bulgarian
bulgaro
bulgarong
bulgarya
bulger
bulkan
bulkang
bulkanolohiya
bull
bullet
bulletin
bullock
bullying
bulnerabilidad
bulnerable
bulod
bulog
bulong
bulos
bulsa
bulto
buluan
bulul
bulusan
bumagsak
bumalik
bumalyo
buminaba
buminagsak
buminalik
buminalyo
bun
bunawan
bunch
bundok
bunescu
bunga
bungag
bungang
bunganga
bungkaras
bungku
bungo
bungog
bunny
bunot
buntol
bunun
buol
buong
buot
bura
burabod
buradol
burak
burat
burauen
burberry
burch
burda
burden
bureau
burenhult
burgas
burger
burgos
buri
burial
burias
buried
buring
burj
burke
burkina
burma
burmese
burn
burnett
burney
burning
burns
burnt
buro
burol
burr
burton
buru
burundi
bus
busal
busan
busay
busby
buscayno
bush
business
businessinsider
businessmirror
businessworld
buskay
busol
busquets
busta
bustamante
buste
busy
but
buta
butan
butanding
butasan
butch
butig
butler
buto
buton
butones
butong
butte
butter
butterfly
button
butuan
butuanon
buwan
buwawi
buy
buyo
buyod
buys
buzz
buzzfeed
bw
bwakaw
bwelo
bworldonline
by
byahe
byaheng
bye
byernes
byetnam
byng
byodibersidad
byolin
byron
byu
byzantine
bɑ
bə
c
ca
cabadbaran
cabagan
caballero
caballo
cabalquinto
cabanatuan
cabangon
cabaret
cabatuan
cabbage
cabecera
cabeza
cabiao
cabinet
cable
cabrera
cabugao
cabusao
cabuyao
caceres
cadiz
cadmium
cady
caesar
cafe
cagayan
cage
cagsawa
cai
cain
cainta
cairo
caitlin
cake
cal
calabanga
calabarzon
calabria
calabro
calamba
calapan
calape
calatagan
calatrava
calauag
calbayog
calcium
calculation
calculator
calculus
calcutta
caldera
caldero
calderon
calendar
calendariong
calida
calif
california
caligula
calinog
caliphate
call
calle
called
calleja
calling
calls
calm
calma
caloocan
caloy
calumpang
calumpit
calungsod
calvin
cam
camalig
camaligan
camara
camarines
cambio
cambodia
cambodian
cambridge
came
cameo
cameos
camera
cameron
cameroon
camfed
camiguin
camila
camiling
camilla
camille
camilo
camino
camotes
camp
campaign
campana
campbell
campesina
campo
campos
campus
camsur
camus
can
canaan
canada
canadian
canal
canaman
canberra
canby
cancer
candelaria
candidacy
candidate
candidates
candijay
candon
candy
cannes
cannon
cannot
cano
canon
canterbury
cantilan
canto
canton
cantonese
cantor
canvas
canyon
cao
cap
capacity
capalonga
capas
cape
capellan
capita
capital
capitalism
capitalist
capitals
capitan
capitol
capiz
capo
cappella
capri
captain
caption
capture
capul
car
cara
carabao
caracas
caraga
caramoan
caramoran
cararayan
carbohydrate
carbohydrates
carbon
carbonell
carcar
card
cardi
cardiac
cardinal
cardiovascular
care
career
careers
carey
cargo
caribbean
caridad
carin
carl
carla
carles
carlin
carlo
carlos
carmel
carmela
carmelo
carmen
carmona
carnaval
carnegie
carnival
caro
carol
carole
carolina
caroline
carolyn
carpe
carpenter
carpet
carpio
carr
carrara
carrie
carried
carrier
carrington
carroll
carry
cars
carson
cart
carta
cartagena
carter
cartesian
cartoon
cartoonist
cartoons
cary
casa
casanova
casas
case
cases
casey
cash
cashbox
cashew
casiguran
casimiro
casino
casita
cassandra
cassava
cast
castan
caste
castel
castellana
castellano
castiglione
castilla
castillejos
castillo
casting
castle
castro
casts
casualties
cat
cataingan
catalan
catalina
catalog
catalogue
catalonia
catanauan
catanduanes
catanzaro
catarman
catbalogan
catch
catcher
cate
catedral
categories
category
caterina
catharina
catharine
cathedral
catherine
cathie
catholic
cathy
caticlan
catmon
cato
catriona
cattle
cauayan
caucasus
caucus
caught
caulfield
causa
cause
caused
causes
cave
cavendish
caves
cavite
cawayan
cayce
cayetano
cazenave
cb
cba
cbc
cbcp
cbd
cbn
cbnnews
cbs
cbsnews
cbsua
cbx
cc
ccp
ccr
cctld
cd
cdc
cds
ce
cea
cebu
cebuano
cecil
cecile
cecilia
cecilio
celeb
celebes
celebic
celebrate
celebrated
celebrates
celebrating
celebration
celebrities
celebrity
celebs
celedonio
celerio
celeste
celestial
celia
celine
cell
cello
cells
cellular
celso
celtic
cemeteries
cemetery
cengage
census
censuses
cent
centenary
centenera
centennial
center
centered
centers
central
centre
centro
centuries
century
ceo
cepa
cereal
cerebral
ceremonies
ceremony
ceres
cerruti
certain
certificate
certification
certifications
certified
cervantes
cervical
cesar
cesareo
cesario
cf
cfda
cfm
cgi
ch
cha
chabudai
chad
chadha
chador
chadwick
chai
chain
chainsmokers
chair
chairman
chairperson
chakra
chalk
challenge
challenges
cham
chamber
chambers
chameli
chamorro
champ
champaign
champion
champions
championship
championships
chan
chance
chancellor
chances
chancoco
chandigarh
chandler
chandra
chanel
chang
change
changed
changes
changi
changing
channel
channels
chaos
chapel
chapin
chapman
chapter
chapters
character
characteristics
characters
charcoal
charge
charges
charice
charities
charity
charlene
charles
charleston
charlie
charlier
charlize
charlotte
charlottenburg
charm
charo
chart
charted
charter
chartered
charts
chase
chasing
chat
chatterjee
chau
chavez
chawla
che
cheap
chebi
check
checklist
chee
cheek
cheer
cheese
chef
chekhov
chelsea
chem
chemical
chemistry
chen
cheney
cheng
chennai
cher
cherie
cherokee
cherry
chess
chester
chestnut
cheung
chevalier
chewing
chi
chiaki
chiang
chiara
chiba
chic
chicago
chicagotribune
chicken
chico
chief
chieti
chika
child
childhood
children
childres
childress
chile
chilean
chili
chimie
chin
china
chinatown
chinese
ching
chino
chip
chips
chiri
chis
chisholm
chito
chiu
chiz
chloe
chloride
chlorine
cho
chocolate
choi
choice
choir
choli
chong
choo
choose
chop
chopin
chopra
choral
choreographer
choreography
chorus
chose
chosen
chosun
chow
chris
christ
christenh
christi
christian
christiana
christiane
christianity
christians
christie
christina
christine
christmas
christoph
christophe
christopher
chromosome
chronicle
chronicles
chronology
chu
chua
chuck
chun
chung
church
churches
churchill
ci
cia
cid
cie
cielo
cincinnati
cinco
cinderella
cindy
cine
cinema
cinemalaya
cinematheque
cinnamon
cio
cipriano
circa
circle
circuit
circulation
circumcision
circumnavigation
circus
cirujales
cisneros
cit
citation
cite
cited
cites
citi
cities
citigroup
citizen
citizens
citizenship
citrus
city
cityhood
citypopulation
ciudad
civic
civil
civilisation
civilization
civitella
cj
ck
cl
clade
claim
claimed
claims
clair
claire
clan
clara
clare
clarendon
clari
clarin
clarissa
clark
clarke
clarkson
claro
clash
class
classes
classic
classical
classics
classification
classroom
claude
claudia
claudine
claudio
claudius
claus
claver
claveria
clay
clayton
cle
clean
clear
clement
clemente
cleopatra
clerk
clero
cleveland
click
clifford
clima
climaco
climat
climate
climates
climax
clinic
clinica
clinical
clint
clinton
clio
clip
clive
clock
close
closed
closer
closet
closing
closure
cloth
clothes
clothing
cloud
clouds
club
cluj
cluster
clyde
cm
cms
cmt
cn
cnbc
cnn
cnnphilippines
cnrs
co
coach
coal
coalition
coast
coastal
coat
cobb
coca
cocaine
coccinea
coching
cocktail
coco
cocoa
coconut
cocos
cod
code
codes
codex
codong
cody
coefficient
coffee
cogn
cognitive
cogon
cohen
coins
cojuangco
coke
col
cola
cold
coldplay
cole
colegio
coleman
colette
colgante
colin
coliseum
collaboration
collaborative
collantes
collapse
collar
colle
collected
collection
collections
collectionscanada
collective
collector
college
colleges
collegian
collegiate
collider
collier
collins
colmenares
cologne
colombia
colombian
colombo
colon
colonel
colonial
colony
color
colorado
colored
colors
colour
columbia
columbian
columbio
columbus
column
columnist
columns
com
coma
combat
combined
come
comeback
comedia
comedian
comedy
comelec
comes
comet
comets
comfort
comic
comics
coming
comingsoon
command
commander
commandments
commemoration
commemorative
commencement
commencing
commentary
comments
commerce
commercial
commercially
commission
commissioner
commitment
committee
committees
commodity
common
commons
commonwealth
commune
communication
communications
communicators
communism
communist
communities
community
como
compact
compan
companies
companion
company
comparative
comparison
compendium
compete
competition
competitive
compilation
compiled
complaint
completa
complete
completed
complex
component
components
composed
composer
composers
composition
compostela
compotier
compound
compounds
comprehensive
computer
computing
comuni
con
conan
concentration
concepcio
concepcion
concept
conception
concepts
conceptual
concern
concerned
concerning
concerns
concert
concerto
conciliar
concio
concise
concord
concrete
conde
condensation
condition
conditions
conduct
conducted
cone
confederado
confederation
conference
confers
confession
confessions
confidential
confirmed
confirms
conflict
confucianismo
confucius
congo
congregacion
congress
congressional
congressman
conley
conn
connecticut
connection
conner
connery
connie
connor
conoce
conquest
conrad
consciousness
consejal
consensus
consequences
conservation
conservative
conservatory
considered
consolacion
consonant
consort
consortium
conspiracy
constabulary
constance
constant
constantino
constitution
constitutional
construction
consuelo
consultant
consumer
consumption
contact
containing
contains
contemplacion
contemporary
content
contention
contest
context
continental
continue
continued
continues
continuing
continuum
contra
contract
contreras
contribution
contributions
contributors
control
controversial
controversy
convent
convention
convento
convergence
conversation
conversations
conversion
conviction
coo
cook
cookbook
cookery
cooking
cool
coolidge
cooling
coop
cooper
cooperation
cooperative
coordinating
coordination
coordinator
cop
copenhagen
copies
copper
copy
copyright
cor
coral
corazon
corbett
corchorus
cord
corden
cordero
cordillera
core
corella
corey
corinto
cork
corn
cornelia
cornelio
cornell
corner
coron
corona
coronation
coronavirus
coronaviruses
corp
corporal
corporate
corporation
corps
corpus
corpuz
corrales
correa
correct
corrected
corregidor
correspondence
correspondent
corruption
corte
cortes
cortez
cory
cosenza
cosmetic
cosmetics
cosmic
cosmo
cosmology
cosmopolitan
cosmos
cost
costa
costs
costume
costumes
cotabato
cote
cotillard
cotton
couch
could
council
councilor
counsel
count
countdown
counter
countess
counting
countries
country
counts
county
coup
couple
couples
courage
courant
courier
course
courses
court
courtney
courts
couture
cov
covarrubias
cove
covenant
cover
coverage
covered
covers
covid
cow
cowboy
cowdery
cox
cp
cph
cpo
cpp
cpu
cr
crab
cradle
craft
craig
craik
crane
crash
crater
crawford
crazy
crc
cream
create
created
creates
creating
creation
creative
creativity
creator
creature
credit
credited
credits
creed
creedence
creek
crescent
cretaceous
crew
cri
cricket
crime
crimea
crimean
crimes
criminal
cris
crisis
cristiana
cristiano
cristina
cristine
cristo
cristobal
critic
critical
criticism
critics
critique
crix
croatia
croatian
crocodile
croft
cronquist
crop
crops
crosby
cross
crossing
crossroads
crotone
crow
crowd
crown
crowned
crowther
crucible
crucis
cruise
crush
cruz
cry
crystal
cs
csc
cse
csiro
csur
ct
ctitle
ctor
ctx
cu
cua
cuando
cuartel
cuartero
cuatrona
cuba
cuban
cubao
cube
cubism
cucumber
cucumis
cucurbitaceae
cuenca
cuesta
cuisine
cula
culasi
culinary
culion
cullen
cult
cultivar
cultivars
cultura
cultural
culture
cultures
cum
cumulative
cuneta
cunningham
cup
curator
cure
curie
curlie
current
currently
curriculum
curry
curse
curtain
curtis
curtius
custard
custom
customs
cut
cuts
cuyo
cuyonon
cv
cw
cx
cyber
cybertron
cycle
cyclone
cyclones
cynthia
cyprus
cyril
cyrillic
cyrus
cz
czech
czechoslovakia
d
da
daa
daan
daang
dabaw
dabawenyo
dad
dadarahon
daddy
dadiangas
dae
daeng
daerah
daesang
daet
dag
daga
dagami
dagang
dagat
dagdag
dagdagan
dagestan
daghan
dagkahon
dagohoy
dagom
dagos
dagupan
dagya
dahel
dahelan
dahil
dahilan
dahon
dahong
dai
daigdig
daily
dainang
daing
daisy
dakilang
dakit
dakitaramon
dako
dakol
dakola
dakolang
dakop
dakota
daku
dakul
dakula
dakulang
dakulaon
dakulon
dakulong
dal
dalaga
dalagan
dalagang
dalai
dalal
dalan
dalang
dalanon
dalawa
dalawang
dale
dali
dalig
dalipay
dalisay
dalit
dalla
dallas
dallwitz
daly
dam
dama
damage
damar
damas
damascus
damat
damay
dambana
dame
damian
damo
damon
damot
damrey
damulag
dan
dana
danao
danaw
danay
dance
dancel
dancer
dancers
dances
dancing
danes
dang
dangal
dangan
danger
dangerous
dangog
dangogon
dangugon
danguilan
daniel
danielle
daniels
danilo
danish
danny
dans
dante
dantes
danube
danyos
dao
daog
daogon
dap
dapa
dapat
daphne
dapit
dapitan
dar
dara
daraba
daraga
daragang
daragita
darahon
darakula
darakulan
darakulang
darakulaon
daramlagon
darang
daratangan
dare
dargis
dargwa
dari
daria
daring
darjeeling
dark
darkness
darling
darlington
darna
daro
darrell
darussalam
darwin
das
dasmarin
dat
data
database
date
dated
datenbank
dates
dati
dating
dato
datos
datu
datus
daughter
daughters
daum
daungan
davao
dave
davenport
david
davidson
davies
davila
davis
davos
daw
dawa
dawani
dawit
dawn
dawson
day
daya
dayaday
dayak
dayalekto
dayangdang
dayo
dayong
days
daytime
dayuhan
dayuhang
dayupot
daza
db
dbe
dc
dd
de
deacon
dead
deadline
deadly
deal
dealer
deals
dean
dear
death
deaths
debate
debates
debbie
deborah
debosyon
deboto
debotong
debout
debra
debrecen
debruge
debut
debuts
debyu
dec
decade
decades
decay
deccan
deccanchronicle
december
decision
deck
declaration
declared
declares
deco
decorative
decree
decs
dedicated
dedikado
dedikasyon
dee
deep
deepika
deer
deewana
def
default
defeated
defence
defender
defenders
defense
defensor
define
defined
defining
definition
definitions
defying
degeneres
degli
degree
degrees
degri
dehradun
dei
deities
deity
deja
dekada
dekadang
dekano
deklarasyon
dekorasyon
dekreto
del
dela
delas
delavin
delaware
delegado
delegasyon
delegates
delegation
delfin
delgado
delhi
delia
delikado
delikadong
deliver
delivered
delivers
delivery
dell
della
delle
delmotte
delos
delta
deluxe
dem
demand
demanda
demands
demetrio
demi
deming
demo
democracia
democracy
democratic
democrats
demographic
demographics
demoiselles
demokrasya
demokrata
demokratiko
demokratikong
demolition
demon
demonstrasyon
demonyo
demonyong
dempwolff
den
dengue
denies
denis
denise
denmark
dennis
denominasyon
denr
densidad
density
dental
denver
departamento
departed
department
departmento
departments
deped
depekto
depende
depensa
depinisyon
depisil
deposisyon
deposito
depot
depp
depression
depresyon
dept
depth
deputadong
deputy
der
derby
derecho
derechos
derek
deretso
deretsong
deretsos
derived
dery
des
descartes
descendants
descent
deschanel
described
describing
description
descriptions
desde
desensyo
desenyo
desenyong
deseret
desert
desierto
design
designado
designadong
designasyon
designed
designer
designers
designs
desimal
desinyo
desire
desisyon
desk
deskripsyon
desmond
desperado
despite
dessert
destinasyon
destination
destinations
destined
destiny
destroyed
destruction
desyembre
desyerto
det
detail
detailed
details
detalyado
detalyadong
detalye
detection
detective
determinado
determinadong
determinasyon
determination
determined
detroit
deus
deutsch
deutsche
deutsches
deux
dev
deva
develop
developed
developer
developing
development
developmental
devi
device
devil
devin
devine
devotion
dew
dewa
dewan
dewey
dexter
df
dfb
dfw
dhabi
dhaka
dhana
dhanvantari
dharma
di
dia
diabetes
diablo
diagnostic
diakono
dialect
dialectology
dialects
dialekto
dialogo
dialogue
diamante
diametro
diamond
dian
diana
diane
dianne
diaries
diario
diarist
diary
diaryo
dias
diaspora
diaz
dibersidad
dibersong
dibisyon
diborsyo
dicamay
diccionario
dick
dickinson
dickson
dictator
dictionaries
dictionary
dictionnaire
did
didn
die
died
diedad
diego
dientzenhofer
dies
diesel
diet
dietary
dietrich
difference
differences
different
difficult
diffusion
dig
digdi
digest
digit
digital
digitalspy
digitized
dignidad
digos
digrapo
digri
digta
diit
dikit
diklom
diksionariong
diksiyonaryo
diksyunaryo
diksyunaryong
dikta
diktador
diktadura
dil
dila
dilang
dilaw
dilay
dilg
dili
diliman
dilis
dill
dillen
dillon
dimaculangan
dimaporo
dimarumba
dimasalang
dimension
dimensions
dimensyon
dimensyonal
din
dina
dinadara
dinadarang
dinaga
dinagat
dinagyang
dinah
dinakop
dinalupihan
dinamika
dinamiko
dinaog
dinara
dinastiya
dinastiyang
dinedeharan
dineklara
diner
ding
dingdong
dingel
dingkilan
dingle
dingras
dining
dinisenyo
dinner
dinosaur
dinosaurs
dinukot
dinulok
dio
diocese
dioceses
diocesis
diokno
dioksido
dion
dionisio
dionne
dior
dios
diosa
diosang
diosdado
diosesis
diosnon
dioxide
diperensia
dipisil
diploma
diplomacy
diplomasya
diplomat
diplomatiko
diplomatikong
dipolog
diputado
dir
direct
directed
direction
directions
director
directorate
directors
directory
direksion
direksiyon
direksyon
direkta
direktang
direktiba
direktor
diretso
diretsong
diringkilan
dirt
dirty
dis
disabilities
disability
disabled
disappearance
disaster
disc
discipline
disco
discografie
discographie
discography
discogs
discourse
discover
discovered
discoveries
discovering
discovery
discrimination
discusses
discussion
disease
diseases
disenyo
disenyong
disertasyon
disgrasya
dish
dishes
disiplina
disiplinang
disipulo
disk
diskarte
diskograpiya
diskriminasyon
diskurso
diskusyon
disney
disneyland
disorder
disorders
dispatch
dispatches
dispensa
dispensasyon
dispersal
display
displaystyle
disquisitiones
dissertation
distance
distansia
distansya
distansyang
distilasyon
distinct
distinction
distinguished
distinksyon
distinktibong
distribusyon
distributed
distribution
district
districts
distrito
distritong
distroso
disturbance
disyembre
disyerto
dit
dita
dition
ditions
dito
ditse
diva
divas
dive
divergent
diverse
diversification
diversity
divided
divine
diviner
diving
divino
division
divisions
divorce
diwa
diwata
dixon
dixson
diyakektong
diyakritiko
diyalekto
diyalektong
diyalektos
diyalogo
diyametro
diyan
diyaryo
diyos
diyosa
diyosan
diyosang
diyosesis
dizon
dj
djibouti
dk
dl
dla
dlsu
dm
dna
dnaindia
do
doble
dobleng
doc
docs
doctor
doctoral
doctorate
doctors
doctrina
doctrine
document
documentary
documentation
documents
does
doesn
dog
doha
doherty
doi
doing
doj
dokolo
doksuri
doktor
doktorado
doktoral
doktrina
doktrinang
dokumentadong
dokumentaryo
dokumentaryong
dokumentasyon
dokumento
dokumentong
dolce
doldol
dole
doll
dollar
dollars
dolls
dolly
dolnop
dolores
dolot
dolphin
dolphy
dolyar
dom
domain
dome
domenico
domestic
domestiko
domestikong
dominado
dominante
dominanteng
dominate
dominates
domingo
dominic
dominican
dominikano
dominikanong
dominique
domitien
don
dona
donaire
donald
donasyon
donatella
donates
done
dong
donga
donggon
doniger
donna
donnell
donner
donoghue
donovan
donsol
dont
doo
doodle
doon
doongan
door
doot
dope
dor
dora
dordrecht
doreen
dorian
doris
dorling
doro
doros
dorothea
dorothy
dos
dose
dosena
dosenang
doseng
dospevski
dost
dot
double
doubleday
doug
douglas
dove
dover
dow
down
download
downloaded
downloads
downtown
doyle
dq
dr
dracaena
draft
drag
dragon
dragons
drake
drama
dramachine
dramang
dramas
dramatic
dramatikong
dramatist
dramatista
draw
drawing
drawings
drawn
draws
drayber
dre
dream
dreaming
dreams
dreamworks
dresden
dress
dressed
dresses
drew
drift
drink
drinking
drive
driver
driving
droga
drogang
drone
drop
drops
drought
drowing
drozdik
drug
druga
drugs
drum
drummer
drums
druze
dry
ds
dswd
du
dua
dual
dub
dubai
dublin
dubos
duck
duda
due
duel
duelo
duet
duets
duffy
dugang
dugangan
dugo
dugong
duka
dukay
duke
dukha
dukhang
dukot
dula
dulag
dulaimi
dulang
dulay
dulce
dull
dulo
dulong
dulot
dulse
duluhan
duma
dumagat
dumaget
dumaguete
duman
dumanan
dumb
dumbo
duminakula
duminalagan
duminulag
dumpas
dunaway
duncan
dundoo
dungan
dungo
dunn
dunong
dunst
duo
duon
duongan
duot
dupax
duque
duran
durante
durban
durga
durham
durian
during
duros
durungan
dusay
dushanbe
dusok
dust
dusun
dusuniko
dutch
dutchcharts
duterte
dutta
dutton
duty
duwa
duwampulo
duwampulong
duwang
duyan
dvd
dvds
dw
dwarf
dwarfs
dweck
dwight
dworkin
dwyer
dx
dy
dyaket
dyan
dyaryo
dyesebel
dying
dyip
dyipni
dyk
dylan
dyn
dynamic
dynamics
dynamite
dynasty
dyolin
dyos
dzongkha
də
e
ea
eaaaambaj
each
eagle
ear
earhart
earl
earlier
earliest
early
earn
earned
earns
earth
earthjustice
earthly
earthquake
east
easter
eastern
eastman
eastwood
easwaran
easy
eat
eating
eau
eb
eba
ebakwar
ebakwit
ebanghelista
ebanghelyo
ebaporasyon
ebe
ebert
ebidensia
ebidensiya
ebidensiyang
ebidensya
ebolusyon
ebolusyonaryong
ebony
ebook
ebreo
ec
ecco
ece
echo
echols
ecija
ecleo
eclipse
eco
ecole
ecological
ecology
economic
economics
economictimes
economies
economist
economy
ecosystem
ecosystems
ecuador
ecuadorian
ed
eda
edad
eddie
ede
edelstein
eden
eder
ederle
edgar
edgardo
edge
ediciones
edificio
edinburgh
edipisyo
edipisyong
edison
edisyon
edit
edited
edith
editing
edition
editions
editor
editorial
editors
editoryal
edmonton
edmund
edmundo
edna
edo
edrad
eds
edsa
edu
eduard
eduardo
education
educational
educator
edukado
edukadong
edukador
edukar
edukasyon
edukasyonal
edward
edwards
edwin
edyer
ee
eedad
eeksister
een
eerok
eerokan
eestar
ef
effect
effective
effects
efficiency
efforts
egan
egg
eggs
egipto
ego
egret
egypt
egyptian
eh
ehe
ehekutibo
ehekutibong
ehemplo
ehersisyo
ehipto
ehiptong
ehrlich
ei
eid
eiffel
eight
eighteenth
eighth
eighty
eileen
eilyn
ein
einer
einstein
eisenhower
eisner
ejecutivo
ejercito
ek
eken
eko
ekolohikal
ekolohiya
ekonomika
ekonomikal
ekonomiko
ekonomikong
ekonomiks
ekonomista
ekonomiya
ekonomiyang
ekosistema
ekosistemang
ekram
eksakto
eksaktong
eksamen
eksamin
eksaminasyon
ekselente
eksena
eksibisyon
eksibit
eksister
eksistido
eksistidong
eksito
eksklusibo
eksklusibong
ekskomunikado
ekspedisyon
eksperensya
eksperimental
eksperimento
eksperiyensiya
eksperto
ekspertong
eksperyensia
eksperyensiang
eksperyensya
ekspidisyon
eksplorador
eksplorasyon
eksponentasyon
eksport
eksportar
ekspresyon
ekstensyon
ekstra
ekstraksyon
ekstraordinaryong
eksultasyon
ektarya
ektaryang
ekwador
ekwasyon
el
elaine
elbert
elbow
elder
elders
eldridge
eleanor
elebasyon
elect
elected
election
elections
electoral
electric
electrical
electricity
electron
electronic
electronics
eleganteng
elehido
elehidong
eleksion
eleksyon
elektoral
elektrikal
elektriko
elektrikong
elektrisidad
elektromagnetikong
elektron
elektroniko
elektronikong
elem
element
elemental
elementary
elementarya
elementaryang
elemento
elementong
elements
elena
elepante
elephant
elephants
elevation
eleven
eli
elias
elihir
elimination
elinor
eliot
elisa
elisabeth
elise
elisseeff
elite
eliza
elizabeth
elizalde
ella
elle
ellen
elley
ellie
elliott
ellis
ellison
elmer
elmo
elora
elorde
elpais
elpidio
els
elsa
elsaesser
else
elsevier
elton
elvia
elvira
elvis
ely
elyo
em
ema
email
emancipation
emas
embahada
embahador
embassy
embera
embracing
embryo
emerald
emergence
emergency
emerging
emerhensia
emeritus
emerson
emi
emil
emilia
emilie
emilio
emily
eminem
eminent
eminenteng
emirates
emirato
emissions
emisyon
emma
emmanuel
emmanuelle
emmy
emmys
emory
emosyon
emosyonal
emotion
emotional
emotions
emperador
emperor
emperyo
emperyong
emphasis
empire
empireonline
empires
empleado
empleo
empleyado
empleyo
employment
emporis
empowerment
empress
empty
ems
en
encanto
encargado
encarnacion
encarta
enchanted
encounter
encyclopaedia
encyclopedia
encyclopedic
encyclopædia
end
endangered
ende
endemic
endgame
ending
endless
endorso
endowment
ends
enduring
enemy
energy
enerhiya
enerhiyang
enero
enewsworld
enfant
eng
engaged
engagement
engel
engels
engine
engineer
engineering
engineers
england
english
englishwoman
engravers
enjoy
enkaminar
enkwentro
enlightened
enlightenment
enot
enotan
enotang
enote
enoteng
enough
enriching
enrico
enrile
enrique
enriquez
enrol
ensalada
ensayo
ensemble
ensiklopedya
ensima
ent
entablado
enteng
enter
entered
entero
enterong
enterprise
enterprises
enters
entertain
entertainer
entertainers
entertainment
entidad
entire
entirong
entitled
entomology
entra
entrada
entrance
entre
entrega
entrepreneur
entrepreneurs
entrepreneurship
entreprenyur
entrevista
entri
entries
entropiya
entropy
entry
enumerated
environment
environmental
environmentalist
environmentalista
enzyme
eonline
eos
ep
epektibo
epektibong
epekto
epektong
epic
epidemic
epidemya
epidemyang
epifanio
epiko
epikong
episcia
episcopal
episentro
episode
episodes
episodo
episodyo
epstein
equal
equality
equally
equatorial
equinox
equipment
equity
er
era
eran
eraserheads
ere
erece
eric
erica
erickson
erik
erika
erin
eritrea
erlewine
erlinda
ermita
ernest
ernesto
ernst
ero
eroe
eroestorya
erok
erokan
eroplano
eroplanong
erotic
erotika
error
errors
eruption
erwin
erya
es
esa
esc
escalante
escandor
escape
escazu
escoda
escolar
escoto
escriva
escudero
escuela
esensyal
eskalon
eskil
eskosya
eskritura
eskuela
eskuelahan
eskultor
eskultura
eskuwelahan
eskwela
eskwelahan
eskwelahang
eso
esoteric
esoterikong
esp
espada
espan
espanol
espanya
espanyol
espasyo
espasyong
especially
esperanto
esperanza
espesipiko
espesipikong
espesyal
espesyalisadong
espesyalisar
espesyalista
espesyalmente
espesyalmenteng
espesye
espina
espinas
espinosa
espiritu
espiritual
espirituwal
espiritwal
espisipikong
espiya
espn
espo
esposito
espwerso
esquire
esquiremag
essay
essayist
essays
essence
essential
est
esta
establisa
establisadong
establisar
establish
established
establishimento
establishment
establishments
estadista
estadistika
estadistiko
estadistikong
estado
estadong
estados
estancia
estandarte
estandarteng
estar
estaran
estasyon
estasyong
estate
estatuwa
estatwa
este
esteban
estee
estela
estelito
ester
esther
estilo
estilong
estima
estimadong
estimasyon
estimate
estimated
estimates
estonia
estonian
estorya
estoryang
estos
estrada
estranghero
estratehiya
estratihiya
estratobulkan
estrella
estrikto
estriktong
estrogen
estrogens
estruktura
estrukturang
estudiantina
estudyante
estudyanteng
estudyo
eswatini
et
etan
etanol
etat
etc
eter
eternal
ethanol
ethel
ether
ethics
ethiopia
ethnic
ethnicity
ethnography
ethnologue
ethyl
ethylene
etika
etiopia
etniko
etnikong
etnisidad
etnologo
etonline
etsuko
etymology
eu
eucalyptus
euclid
euclideyanong
eudicots
euge
eugene
eugenia
eugenio
eukaristiya
euler
eun
eunice
euphorbiaceae
eurasia
eurasian
eurasya
europa
europe
europea
european
europeano
europeanong
europeo
europeong
eurostat
eusebio
eux
ev
eva
evaluation
evan
evangelical
evangelista
evans
eve
evelyn
even
evening
event
events
ever
everest
everett
everglow
evergreen
everipedia
every
everybody
everyday
everyone
everything
everywhere
evidence
evil
evolution
evolutionary
ew
ex
exact
exam
examination
examiner
example
examples
excellence
excellent
except
excerpt
exchange
excited
exclusion
exclusive
exclusively
exec
executive
exercise
exhibit
exhibition
exhibitions
exile
exist
existence
existing
exit
exitos
exo
expanded
expansion
expect
expedition
experience
experiences
experiment
experimental
expert
experts
explained
explains
explanation
exploitation
exploration
explore
explorer
exploring
explosion
explosive
expo
exposed
exposition
exposure
express
expression
expressions
ext
extant
extended
extending
extension
extensive
external
extinct
extinction
extra
extraordinary
extreme
exupe
ey
eye
eyed
eyes
ez
ezekiel
ezra
f
fa
faber
fabian
fabiana
fabre
fabric
fabricius
fabulous
fac
face
facebook
faces
facial
facility
facing
facsimile
fact
factbook
factcheck
factfinder
facto
factor
factors
factory
facts
factsheet
faculty
fader
fahmy
fail
failed
fails
failure
fair
faire
fairfax
fairy
faith
faiza
fajardo
fake
falcon
falkland
fall
falling
fallon
falls
false
falsong
falun
famas
fame
familia
familiar
families
family
familysearch
famous
fan
fancy
fang
fanny
fans
fantail
fantasia
fantastic
fantasy
fao
far
farah
fare
farewell
farm
farmer
farmers
farmiga
farming
farms
farshid
fashion
faso
fast
fastest
fat
fatah
fatal
fate
father
fathers
fatima
fatou
fatty
fauna
faustino
favorite
favorites
favorlang
favourite
fay
faye
fayette
fb
fbi
fc
fe
fear
fears
feast
feat
feather
featherweight
feature
featured
features
featuring
feb
febrero
february
fech
federal
federasyon
federation
federico
fedner
feed
feeding
feel
feeling
feels
feeney
feet
feldman
feliciano
felipe
felix
fell
fellow
fellows
fellowship
felt
female
females
feminine
feminism
feminismo
feminist
feminista
feministang
feminists
femme
femmes
fendi
feng
fer
ferdinand
ferdinando
ferenc
fergie
ferguson
fermat
fermented
fermi
fern
ferna
fernande
fernandez
fernando
ferrante
ferrari
ferrer
ferry
fertility
fest
festival
festivals
festschrift
fetus
feu
fever
few
fey
ff
fff
fhm
fi
fiano
fiba
fiber
fibonacci
ficha
ficheto
fico
fiction
fictional
ficus
fidel
fidelity
field
fields
fierce
fiesta
fifa
fifi
fifteen
fifth
fifty
fig
fight
fighter
fighters
fighting
fights
figueroa
figure
figures
fiji
fijian
fil
file
files
filibusterismo
filipe
filipina
filipinang
filipinas
filipiniana
filipino
filipinong
filipinos
fille
filled
film
filmfare
filming
filmmaker
filmmakers
filmography
films
filomena
filter
fin
final
finale
finalist
finalista
finalists
finally
finals
finance
financial
finch
find
finding
finds
fine
finger
finished
finland
finlandya
finn
finnish
finny
fiona
fiqh
fire
fireflies
firefly
firm
first
firstpost
fiscal
fischer
fish
fishbase
fishburne
fisher
fisheries
fishing
fit
fitness
fitzgerald
five
fix
fl
flag
flags
flame
flamingo
flash
flashback
flat
flauta
flavor
fleet
fleming
flemish
flesh
fletcher
fleurs
flick
flickr
flies
flight
flint
flixster
float
floating
flood
floor
floors
flor
flora
floral
florence
florencia
florencio
florentino
flores
floria
florida
floridablanca
flow
flower
flowering
flowers
floyd
flu
fluid
fluido
flute
fly
flying
flynn
flyweight
fm
fmt
fn
fo
foam
focus
foe
fog
fogerty
fold
foley
folio
folk
folklore
follow
followed
following
fonda
fonogram
fons
fonseca
font
fontana
fonteyn
food
foodpanda
foods
fool
fools
foot
footage
football
for
forbes
forbidden
force
forced
forces
ford
fordham
forecast
foreign
foreman
forensic
forest
forestry
forests
forever
foreword
forget
forgotten
forkel
form
formal
format
formation
formed
former
formerly
formosan
forms
formula
forster
fort
forte
forth
fortich
fortress
fortunato
fortune
fortuno
forty
forum
forums
forward
fossil
foster
found
foundation
foundations
founded
founder
founders
founding
fountain
fountainhead
four
fourier
fourth
fowler
fox
foxnews
fpj
fr
fra
frac
fraction
fragata
fragile
fragments
fragrance
frame
framework
franc
franca
france
frances
francesca
francesco
franchise
francia
francine
francis
francisca
franciscan
franciscano
franciscanong
francisco
francism
franco
frank
frankfurt
franklin
franks
frans
franz
fraser
fraternidad
fraternity
frau
fraud
frauenkirche
fray
fre
fred
freda
freddie
frederic
frederick
fredrika
free
freedom
freeman
freeport
freestyle
freire
frellesvig
french
fresh
freshwater
fresno
freud
frida
friday
fridays
fried
friederike
friedman
friedrich
friend
friendly
friends
friendship
fries
frigyes
fritz
frog
from
fromis
front
frontier
frontiers
frontline
frontpage
frosinone
frost
froy
frozen
frs
fruit
fruits
fry
fsh
ft
fu
fue
fuego
fuel
fuels
fuente
fuentebella
fuentes
fuji
fujian
fujiwara
fukada
fukushima
fulbright
fulgencio
full
fuller
fullpage
fulltext
fully
fun
function
functional
functions
fund
fundamental
fundamentals
funeral
fung
fungal
fungi
fungus
funny
fur
furigana
furious
furniture
furstenberg
further
fury
fuse
fusion
futbol
futon
futuna
future
futuro
g
ga
gab
gabaldon
gabat
gabbana
gabby
gabbydictionary
gabi
gabinete
gabon
gaborone
gabos
gaboy
gabriel
gabriela
gabriele
gabrielle
gad
gadan
gadanon
gaddafi
gaddang
gading
gaffa
gaga
gagamiton
gagarin
gage
gaha
gahang
gahi
gail
gainza
gait
gakod
gal
gala
galaksiya
galal
galang
galaxy
gale
galeca
galerie
galeriya
galerya
galicia
galician
galileo
galing
gallagher
gallego
galleon
galleria
gallery
gallman
gallup
galo
galpin
galva
galvez
galyon
gama
gamay
gambia
gamble
gamboa
game
games
gamgam
gaming
gamit
gamiton
gamma
gamot
gampi
gamping
gan
gana
ganador
ganadores
ganan
ganansia
ganap
ganar
ganda
gandhi
gandhian
ganesha
gang
ganga
ganges
gangster
ganot
gantad
gao
gaon
gap
gapan
gapas
gapo
gapong
garadanan
garantiya
garapon
garc
garchitorena
garci
garcia
garcinia
garde
garden
gardener
gardens
gardner
gareth
garfield
gari
garland
garlic
garner
garo
garong
garrett
garry
garu
gary
gas
gasang
gases
gasolina
gasolinahan
gasoline
gaspara
gasto
gaston
gastos
gastrointestinal
gastronomiya
gastronomy
gat
gata
gatak
gatas
gate
gates
gateway
gather
gathering
gati
gatok
gatol
gatos
gaudencio
gaudi
gauss
gautama
gave
gavin
gaw
gawad
gawe
gaweng
gawi
gay
gaya
gayad
gaye
gayo
gayod
gayon
gayong
gayunpaman
gaza
gazette
gazetteer
gb
gbs
gc
gcash
gdp
ge
gear
gebre
geek
geisha
gemma
gen
genbaku
gender
gene
genealogy
genera
general
generation
generations
generic
genes
genesis
genetic
genetics
geneva
genghis
geni
genital
genius
gennaio
genoa
genocide
genome
genre
gentileschi
gentle
gentlemen
genuine
genus
geo
geoff
geoffrey
geographic
geographical
geography
geograpiya
geological
geology
geometric
geometry
geophysical
georg
george
georges
georgescu
georgetown
georgia
georgian
georgina
geothermal
ger
gera
gerais
gerald
geraldine
gerang
gerard
gerardo
gerc
gerhard
gerilya
gerilyang
germain
germaine
german
germany
germplasm
gerona
geronimo
gerry
gertrud
gertrude
geschichte
get
gets
getting
getty
geun
gfk
gg
ghafouri
ghana
ghanaian
ghent
ghetto
ghosh
ghost
ghosts
ghusl
ghz
gi
gia
giacomo
gianni
giant
gibbs
gibo
gibohan
gibohon
gibong
gibraltar
gibran
gibson
gibuhon
gibuhong
gideon
gif
gift
gig
gigi
gigibohon
gigibuhon
gigmoto
gihoy
gikan
gikanan
gil
gilbert
giles
gilid
gill
gillard
gillian
gilman
gime
gimeno
gin
gina
ginaba
ginadan
ginaga
ginagadan
ginagamit
ginagamitan
ginagampanan
ginaganar
ginagaom
ginamit
ginampanan
ginana
ginanahan
ginanapan
ginaradan
ginataang
ginatos
ginawa
ginawad
ginawadan
ginger
gingoog
ginhawa
gini
ginibo
ginibong
ginigibo
ginigibong
ginigikanan
ginigiling
ginigiribo
ginigirumdom
ginigiyahan
ginikanan
ginikanang
giniling
giniris
ginisang
ginsburg
ginseng
ginto
gintong
ginugulay
ginugusto
ginuhit
ginuno
ginutaan
gion
giorgio
giovanni
gira
giram
giraray
giris
girl
girlfriend
girls
girok
giromdom
girona
girong
girumdomon
gis
gisele
giso
gisong
gita
gitara
gitarista
giulia
giuseppe
give
given
givenchy
gives
giving
giya
giyahan
giyaw
giyera
giyerang
gl
glaad
gladys
glaiza
glamour
gland
glands
glandula
glans
glas
glasgow
glass
glee
gleiberman
glen
glenn
glimpse
gliricidia
global
globaldatalab
globalization
globalnation
globe
globes
globo
globong
gloc
gloria
glory
glossary
glossy
glotologo
glottolog
glucose
glukosa
glynne
gm
gma
gmanetwork
gmanews
gmbh
gn
go
goa
goal
goals
goat
gob
gobbi
gobernador
gobernadorcillo
gobierno
goble
gobyerno
gobyernong
god
goddard
goddess
goddesses
godofredo
gods
godse
godwin
goes
gogh
gogon
goia
going
gold
golda
goldberg
goldbook
golden
goldenglobes
goldman
goldprint
goldstein
golf
golpo
gom
goma
gomburza
gomez
gon
gonan
gone
gong
gonza
gonzaga
gonzales
gonzalez
gonzalo
good
goodbye
goode
goodman
goodreads
goods
goodwill
google
gopal
goquingco
gorbachev
gordon
gore
gorontalo
gos
gospel
gossip
got
gotham
gothic
goto
gottfried
gottlieb
gould
gourd
gov
governance
government
governmental
governor
governorate
governors
govierno
govt
gown
goya
goyena
gq
gr
gra
grab
grabe
grabeng
grabidad
grabitasyonal
grace
grade
grado
gradong
graduate
graduates
graduation
gradwado
gradwar
grady
graham
grain
gramar
gramatika
gramatikal
grammar
grammy
grammys
gramo
gramos
gran
granada
grand
grande
granite
granny
grant
granth
grants
granyula
grapes
graphic
graphics
gras
grass
grasya
grave
graves
graveyard
gravity
gray
grazia
gre
grealis
great
greater
greatest
grecia
greco
greece
greek
green
greenberg
greene
greenfield
greenhills
greenhouse
greenland
greenpeace
greenwood
greer
greg
gregg
grego
gregoria
gregorio
gregory
gregoryan
gregoryanong
gresya
greta
gretchen
grey
grief
griego
griegong
griffin
griffith
grimes
grimmie
grin
gripo
griyego
griyegong
grolier
gropius
gross
grossers
grosseto
grossing
grosso
ground
grounds
group
groups
grove
grover
groves
grow
growing
grownups
grows
growth
gru
grupo
grupong
gruyter
gs
gsis
gst
gu
gua
guadalajara
guadalupe
guagua
gualberto
gualinga
guam
guangdong
guangxi
guangzhou
guarani
guard
guardia
guardian
guardians
guatemala
gubat
gubing
gucci
gudol
gue
guedes
guerilla
guerillas
guerra
guerrang
guerrero
guerrillas
guess
guest
guests
guetta
guevara
guevarra
guez
guggenheim
gugurang
guhit
gui
guia
guidance
guide
guidelines
guides
guiguinto
guihulngan
guild
guillermo
guilty
guimaras
guin
guinea
guineya
guinness
guinnessworldrecords
guinobatan
guislain
guitar
guiting
guiuan
guizhou
gujarat
gujarati
gujral
gulang
gulay
gulayon
gulf
gulfnews
gulod
gulpi
gulping
gulpo
gum
gumaca
gumamela
gumamit
gumibo
guminadan
guminana
guminantad
guminibo
guminikan
gun
gundul
gunn
guno
guns
gunting
gunuan
guo
gupta
gurang
gurangan
gurano
gurit
gurot
guru
gurung
gus
gusi
gusok
gustav
gusto
gustong
gut
guta
gutenberg
guterres
guthrie
gutierrez
gutom
guy
guyabano
guyana
guys
guzman
gwapo
gwardya
gwen
gyera
gymnasium
gymnast
gymnastics
gyo
gypsy
gyu
h
ha
haaretz
haba
hababa
hababang
hababaon
hababaw
habagat
habagatan
habagatang
habanes
habang
habayan
habitante
habitat
habits
hablo
hablondawani
habo
habol
habong
habsburg
hachijo
hacienda
hacker
had
hade
hadeng
hadi
hadid
hading
hadith
hadja
hadji
hadok
hadoyan
hae
haen
hagad
hagadon
hagbayon
hagkos
hagkus
hagong
hagonoy
hague
hagyan
hagyanan
hahn
hai
haider
haifa
hail
hain
hainan
haiphong
hair
haiskul
haiti
haitian
haiyan
haji
hajj
haka
hakka
hal
hala
halaba
halabang
halabaon
halaga
halagang
halakbang
halang
halangkaw
halangkawon
halanohan
halas
halat
halaton
halawig
halawigon
hale
halean
haleng
haleon
half
hali
halik
halili
halimbawa
haling
halion
halipot
hall
halloween
hallowell
hallows
halmahera
halo
haloheno
halonan
halong
halos
haloy
haloyon
halsey
ham
hamak
haman
hamanon
hamburg
hamburger
hamid
hamiguitan
hamilton
hamis
hamlet
hammarstro
hammer
hammond
hamo
hamot
hampang
hampshire
han
hana
hanak
hanap
hanapbuhay
hanapon
hanay
hanbok
hancinema
hancock
hand
handa
handbag
handbook
handel
handikraft
handiong
handle
handog
hands
handyong
hanfu
hang
hangan
hanggan
hangganan
hanggang
hanging
hangul
hangzhou
hanja
hankook
hanks
hankyung
hanna
hannah
hannibal
hanoi
hanover
hans
hansen
hanson
hanuman
hanuno
hapilon
hapin
hapo
hapon
hapones
haponiko
hapot
hapoton
happen
happened
happens
happiness
happy
haq
har
hara
haralaba
haralabang
haralakbang
haralangkaw
harald
harale
harali
haralipot
haram
haran
harang
harani
haranihon
haraning
hararaning
hararayong
hararom
haraya
harayo
harayong
harayoon
harbor
harbour
harcourt
hard
hardcover
hardin
harding
hardware
hardy
hare
hari
harigi
harina
harinang
haring
harlem
harley
harmattan
harmony
harold
harong
haros
harper
harpercollins
harpersbazaar
harrier
harriet
harris
harrison
harry
hart
hartford
hartmann
haruhi
haruki
harus
harv
harvard
harvest
harvey
has
hasan
hasang
hasconnectingterm
haskell
haspelmath
hassan
hasta
hastings
hat
hate
hatol
hatta
hatton
hau
haunted
haus
hauszmann
haute
have
haven
having
havoc
haw
hawai
hawaii
hawaiian
hawak
hawayano
hawke
hawking
hay
hayag
hayakpit
hayapit
hayek
hayes
hayley
haynes
hayokong
hayop
hays
hayskul
hazardous
hazards
hazel
hbo
hd
hdi
hdl
he
head
headgear
heading
headline
headlines
headquarters
heads
healing
health
healthcare
healthy
hear
heard
hearing
hearst
heart
heartbreak
hearts
heat
heath
heather
heatseeker
heaven
heavens
heavy
heavyweight
hebreo
hebreong
hebrew
hectares
hedda
hee
heidelberg
heidi
height
heights
heijnsbroek
heimerl
heinemann
heinrich
hektarya
helang
held
helen
helena
helene
helenistiko
helenistikong
helga
helianthus
helicopter
helikopter
heling
helinga
helingon
helium
hell
heller
hello
helm
helmet
help
helped
helsinki
helyo
hemings
hemingway
hemisperyo
hen
henares
henderson
hendricks
hendrik
heneral
heneralmente
henerasyon
henerikong
henetiko
henetikong
henley
henri
henrietta
henriette
henrik
henry
henson
hentaigana
henyo
heograpikal
heograpikong
heograpiya
heolohiya
heometriya
heometriyang
heotermal
hepburn
hepe
hepeng
her
herak
herald
herb
herbal
herbert
herbs
hercules
here
heritage
herman
hermann
herme
hermes
hermosa
herna
hernandez
hero
herodotus
heroe
heroeng
heroes
heroine
heroines
heron
herrera
herself
herusalem
herzegovina
hess
hesse
hesukristo
hesus
heswita
heswitang
het
hetauda
heterophyllus
heterosekswal
hetty
hewitt
hey
hfpa
hi
hibi
hibiscus
hibla
hibog
hidalgo
hidden
hide
hidilyn
hidroheno
hidrohenong
hidrokarburo
hierarchy
higante
higanteng
higaonon
higdaan
higgins
high
highbeam
higher
highest
highland
highlands
highlight
highlights
highly
highschool
highway
higit
higos
higot
higueras
hijab
hijos
hika
hikaw
hiking
hikot
hilang
hilao
hilario
hilary
hilaw
hild
hilda
hilig
hiligaynon
hiling
hilinga
hilingon
hill
hillary
hillevi
hills
hilnga
hilngon
hilo
hilom
hilongos
hilton
him
himalaya
himalayan
himalayas
himati
himes
himig
himmelmann
himno
himself
hin
hina
hinabol
hinabon
hinagad
hinahagad
hinahalat
hinahale
hinahalean
hinahanap
hinahangaan
hinahapot
hinale
hinalean
hinali
hinaman
hinanap
hinangaan
hinango
hinangos
hinapot
hinatuan
hinaw
hinayokong
hindi
hindu
hinduism
hinduismo
hindung
hindus
hindustan
hindustantimes
hineheling
hinihiling
hinihimo
hinihingoa
hinilawod
hiniling
hinimo
hiningoa
hinira
hinirahay
hinirang
hinog
hinogkot
hinohona
hinugot
hinuhuna
hinuhurot
hinulid
hip
hiphopdx
hipnosis
hipolito
hipotesis
hiragana
hirahayon
hiram
hirarkiya
hiras
hiri
hiro
hiron
hirong
hiroon
hiroshi
hiroshima
hirsi
his
hispanic
hispanikong
histo
histoire
historia
historian
historians
historic
historical
histories
historikal
historiko
historikong
historiya
history
historya
historyador
historyang
hit
hita
hitchcock
hitfix
hitler
hito
hitparade
hits
hitsura
hitsurahon
hitsurang
hiv
hiwas
hiyangta
hk
hl
hm
ho
hoa
hobbit
hoben
hobenes
hobhouse
hoboken
hoc
hockey
hod
hodgson
hoffman
hoffmann
hogan
hoi
hokbo
hokbong
hokkaido
hokkien
hokom
hoku
hola
holandes
holcim
hold
holden
holding
holdings
holds
hole
holes
holiday
holidays
holland
holly
hollywood
hollywoodreporter
holmes
holocaust
holstein
holt
holy
homage
hombre
home
homecoming
homeland
homepage
homer
homes
hometown
homme
homo
homoseksuwal
homosekswal
homosekswalidad
homosexuality
hon
honasan
honda
honduras
honesto
honey
hong
hongkong
honolulu
honor
honorable
honorary
honoraryong
honored
honorees
honores
honoris
honors
honour
honoured
honours
honra
honshu
hontiveros
hood
hook
hooks
hoon
hoover
hop
hope
hopes
hopi
hopkins
hopper
hora
horizon
horizons
hormona
hormone
hormones
horn
hornada
horot
horror
horse
hort
horta
hospital
hospitals
host
hosted
hosting
hosts
hostya
hot
hotel
hotels
hotok
hottest
houghton
hour
hours
house
household
households
houses
housing
houston
how
howard
howe
howell
however
howitt
howland
hoy
hoya
hoyop
hp
hr
hranov
hrd
hrds
hs
hsu
ht
htm
html
http
https
hu
hua
huang
huateng
hub
huba
hubal
hubei
huben
hubert
hubin
hudaismo
hudaismong
hudikatura
hudisyal
hudiyo
hudson
hudyo
hudyong
hue
huerta
huffington
huffingtonpost
huffpost
hugak
hugakon
hugasan
hugay
huge
hugh
hughes
hugis
hugo
hui
huk
hukbalahap
hukbo
hukbong
hukol
hukom
hula
huli
huling
hull
hulog
hulu
hulyo
hum
huma
humabon
humadapnon
humale
human
humanap
humanidad
humanidades
humanitarian
humanitaryo
humanities
humanity
humano
humans
humble
humid
huminale
humiro
humor
humphrey
hun
huna
hunaon
hundred
hung
hungama
hungaria
hungarian
hungary
hungduan
hunger
hunggariya
hunggaro
hunggarong
hunglonan
hungry
huni
hunt
hunta
hunter
hunting
hunyo
hupiter
huppert
hurado
huri
hurihan
huring
huringhuding
hurisdiksyon
hurnada
huron
hurop
hurricane
hurst
hurston
hurt
husay
husband
husgado
hussein
hustisya
hustisyang
hustle
husto
huston
hustong
hut
hutchinson
hutok
huwag
huwebes
huwes
huyo
huyom
huyop
hwa
hwan
hwang
hyatt
hybrid
hyde
hyderabad
hydraulic
hydrogen
hydroxyl
hye
hygiene
hymn
hynek
hyo
hypatia
hypothesis
hyrum
hyto
hyuk
hyun
hyung
i
ia
ian
iaplikar
iapon
iast
iata
iau
iba
ibaan
ibaba
ibabaing
ibabang
ibabaw
ibahan
ibajay
ibali
ibalik
ibaloi
ibalon
ibalong
ibalyo
iban
ibanag
ibanan
ibang
ibaniko
ibaraki
ibatan
ibayo
ibc
ibf
ibid
ibig
ibilang
ibinaba
ibinagay
ibinali
ibinalik
ibinalyo
ibinareta
ibinibilang
ibinilang
ibinubugtak
ibinugtak
ibinunga
ibinungsod
ibinuyagyag
ibm
ibn
ibo
ibon
ibong
ibrahim
ibtimes
ibtracs
ibubugtak
ibugtak
ic
icao
ice
iceland
icelandic
ich
icon
iconic
iconography
icons
ict
icy
id
ida
idaho
ide
idea
ideal
ideas
idel
identidad
identification
identified
identities
identity
ideology
ideolohiya
idepensa
ideya
ideyang
idi
idinagdag
idineklara
idineklarar
idinodoon
idinoon
idinugang
idinulot
idinusay
idiomang
ido
idol
idolator
idolo
idols
idoon
idos
idrohino
idto
idtong
idugang
idx
idxno
ie
iea
ieee
if
ifnotempty
ifpi
ifugao
ig
igalang
igdi
igding
iggy
iginagalang
iginagawad
iginawad
iginuhit
iglesia
iglesias
iglesya
ign
ignacia
ignacio
ignatius
ignored
igo
igong
igorot
igot
igualdad
iguana
igwa
igwang
ihapot
iheart
iheartmedia
iheartradio
ihi
ihinahayag
ihinayag
ihiras
iho
ii
iiba
iibigin
iii
iikot
iimplementar
iimpluwensia
iinaaplikar
iinaasosyar
iinapon
iinasignar
iingat
iiniba
iinintrodusir
iinom
iintrodusir
iipit
iirok
iisa
iisip
iisipon
iistar
iistorya
iitaas
iitok
ik
ika
ikaag
ikaanom
ikaapat
ikaduwa
ikaduwang
ikakaag
ikalima
ikalimang
ikapaliwanag
ikapito
ikapitong
ikapu
ikararahay
ikaribong
ikasampulong
ikasiyam
ikatolo
ikatolong
ikatulo
ikatulong
ikaw
ikawalo
ikawalong
ike
ikinaag
ikinabuhay
ikinagadan
ikinakaag
ikinaoolakit
ikinaoongis
ikinasal
ikinokonektar
ikit
ikog
ikokomparar
ikonektar
ikonograpiya
ikos
ikot
il
ilaag
iladawan
ilagan
ilang
ilaog
ilarde
ilaw
ilawan
ilawod
ilaya
ilbo
ildefonso
ilegal
ili
iligan
iligtas
ilinadawan
ilinaladawan
ilinalaog
ilinaog
ilinubong
ilinuwas
ill
illegal
illinois
illness
illustrated
illustration
illustrations
illustrator
ilo
ilocano
ilocos
ilog
iloilo
ilokano
ilokanong
iloko
ilonggo
ilustrado
ilustrador
ilustrar
ilustrasyon
ilusyon
ilusyonan
iluwas
ilyich
im
ima
imaculada
image
images
imagination
imagine
imaging
imahe
imahen
imaheng
imahinaron
imahinasyon
imam
imbalido
imbalidong
imbc
imbensyon
imbento
imbentong
imbentor
imbes
imbestigador
imbestigasyon
imbis
imbitar
imbitasyon
imbong
imbuwelto
imbwelto
imbyerno
imdb
imee
imekanu
imelda
imf
img
imgur
imigrante
imigranteng
imigrar
imigrasyon
iminukna
iminundag
immaculate
immanuel
immediate
immigration
immortal
immune
immunity
immuno
imo
imon
imortal
imp
impact
impacts
impak
impeachment
impeksion
impeksyon
imperial
imperialism
imperyal
imperyo
imperyong
impit
implementar
implementasyon
implementation
implications
implikasyon
impluensya
impluensyang
impluwensia
impluwensiya
impluwensya
impluwensyado
impluwensyang
impormal
impormasyon
impormasyong
import
importance
importansya
important
importante
importanteng
imposible
imposibleng
impossible
impr
imprastraktura
imprenta
imprentahan
impresyon
imprinta
improvement
impyerno
imus
in
ina
inaabot
inaadalan
inaagi
inaagihan
inaako
inaakong
inaan
inaandam
inaapod
inaapresyar
inaaprobetsaran
inaasahan
inaatake
inaataman
inaatubang
inabanga
inabot
inadalan
inadaptar
inagda
inagihan
inagom
inagta
inaguraran
inagurasyon
inaki
inako
inalang
inalok
inamori
inampon
inandam
inang
inanunsyar
inanunsyo
inaon
inapo
inapod
inaprobaran
inaresto
inarog
inasal
inatake
inataman
inatubang
inaugural
inay
inc
inch
inches
incinerator
include
included
includes
including
income
incorporated
incorporates
increase
incredible
inda
indang
inday
independence
independensia
independensya
independent
independenteng
independiente
independienteng
independiyenteng
independyente
independyenteng
index
indi
india
indian
indiana
indianapolis
indianexpress
indians
indiatimes
indiatoday
indibiduwal
indibidwal
indica
indicados
indicates
indicator
indicators
indie
indies
indiewire
indigenous
indigo
indikasyon
indio
indios
indiperente
indira
indische
individual
individuals
indiyan
indiyano
indo
indochina
indones
indonesia
indonesian
indonesya
indra
inducted
indus
industria
industrial
industries
industriya
industriyal
industriyang
industry
indya
indyan
indyano
indyanong
indyo
ine
ineenkaminar
ineerokan
inenkaminar
inequality
ines
inestablisar
inez
infant
infanta
infantry
infection
infectious
infinite
infinity
influence
influenced
influences
influential
influenza
info
infobae
infobase
infobox
infodisc
informal
informatics
information
infoweb
infraestruktura
infrastructure
ing
ingat
ingeborg
inginaran
inglatera
inglaterra
inglatierra
ingles
ingrediente
ingredients
ingreso
ingrid
inhabitants
inhenyeriya
inhenyeriyang
inhenyero
inhenyerong
inherit
inheritance
inhinyeriya
inhinyeriyang
inhinyero
inhinyerong
inhustisya
ini
inihaw
iniiba
iniinaan
iniinom
iniisip
iniistaran
inilaag
iniladawan
inilipat
iniluwas
inimbento
inimbitaran
inin
ining
inirepresentar
inisip
inisyal
inisyatiba
inisyatibo
init
initial
initiative
initiatives
iniyo
injury
ink
inkarnasyon
inkorporado
inland
inlay
inn
inner
innocence
innocent
innovation
innovative
ino
inobasyon
inocencio
inom
inoman
inomon
inomong
inoomaw
inooyonan
inorganic
inorganiko
inorganikong
inorganisar
inosenteng
inot
inoue
input
inquirer
inquiry
inscription
insect
insekto
insektong
inside
insidente
insider
insight
insights
insik
insistir
inskripsiyon
inskripsyon
inspector
inspirado
inspirasyon
inspiration
inspire
inspired
inspires
inspiring
instagram
instalar
installation
instead
institusyon
institut
institute
institutes
institution
institutional
institutions
instituto
instruction
instructor
instruksyon
instruktor
instrumental
instrumento
instrumentong
instruments
insular
insulto
insurance
int
intangible
integer
integral
integrated
integration
integridad
integrity
intel
intelektuwal
intelektwal
intelihensia
intellectual
intelligence
intelligible
intension
intensive
intensyon
inter
interaction
interactive
interaksion
interaksyon
interbenir
interbensyon
interbio
interbyu
intercontinental
intercourse
interdisciplinary
interes
interesado
interesadong
interesante
interesanteng
intereses
interest
interesting
interests
interfax
intergenerational
intergovernmental
interim
interior
intermediate
internacional
internal
internasyonal
internasyunal
international
internationale
internet
interong
interpretar
interpretaron
interpretasyon
interpretation
interpreter
interrupted
interscience
interscope
interstellar
interval
intervention
interview
interviewed
interviews
interyor
intimate
intindi
intindihon
intirong
into
intoday
intramuros
intrebista
intro
introduced
introducing
introduction
introduksyon
introdusir
intsik
inukit
inulnan
inuman
inumaw
inumon
inutan
inuusar
invalid
invasion
invasive
invention
inventor
inventory
investigation
investigative
investment
investments
investor
invisible
invitation
involved
io
ioc
ion
iowa
ipa
ipaaram
ipabakal
ipadagos
ipadara
ipag
ipagbawal
ipahayag
ipaheling
ipahiling
ipaisi
ipakipag
ipalakop
ipaliwanag
ipaotob
ipcc
ipig
ipigbungsod
ipigheras
ipigladawan
ipigluwas
ipigngaran
ipigpalis
ipigpublikar
ipigseselebrar
ipigsurat
ipigtao
ipigtataram
ipigtolod
ipigtutulod
ipil
ipinabakal
ipinabisto
ipinadagos
ipinadalan
ipinadara
ipinag
ipinagbawal
ipinagboot
ipinagkatiwala
ipinagpublikar
ipinagtao
ipinagtataram
ipinahayag
ipinaheheling
ipinaheling
ipinahiling
ipinaisi
ipinako
ipinalagda
ipinaliliwanag
ipinalis
ipinaliwanag
ipinaluwas
ipinamidbid
ipinanga
ipinangaki
ipinanganak
ipinangaran
ipinapabakal
ipinapaheling
ipinapahiling
ipinapamugtak
ipinapangalad
ipinasa
ipinasabong
ipinatindog
ipininta
ipinublikar
ipit
ipublikar
iq
ir
ira
iraidan
irak
iraki
iran
iranian
iranun
iraq
iraqi
irarom
iraya
irayo
ire
ireland
irena
irene
ireneo
irepresentar
iriba
iribahan
iribang
iriga
irigasyon
irina
irinerekomendar
irinerepresentar
iris
irish
irishman
irishtimes
iriwal
irlanda
irlandia
irlandya
irma
irmina
irok
iron
irosin
irvin
irvine
irwin
is
isa
isaac
isabel
isabela
isabella
isabelle
isabelo
isadora
isalak
isan
isang
isarog
isay
isaysay
isbn
isda
ise
ishango
ishiguro
isi
isidro
isina
isinagibo
isinangat
isinaro
isinasagibo
isinasapeligro
isinaysay
isinikwal
isinugo
isinurat
isinusuherir
isinusulot
isinusurat
isinuway
isip
isipa
isipan
isipon
isis
iskandalo
iskedyul
isko
iskolar
iskor
iskritura
iskriturang
iskultor
iskultura
isla
islam
islamabad
islamic
islamiko
islamikong
island
islander
islands
islang
islas
ismael
isn
iso
isog
isotopo
ispasyo
ispeling
ispesipikasyon
ispesipiko
ispesipikong
ispesye
ispiker
ispiritwal
isport
isports
isra
israel
israeli
israelita
issey
issn
issue
issued
issues
ist
istado
istadong
istaka
istanbul
istandardong
istar
istaran
istasyon
istat
istatwa
istelar
istilo
istilong
istimulasyon
istoriya
istorya
istoryang
istraktura
istraktural
istruktura
istudyo
istva
isulan
isulot
isurat
isuway
isyu
isyung
it
ita
itaas
itago
italia
italian
italiana
italiancharts
italiane
italiano
italy
italya
italyano
italyanong
itampok
itanom
itao
itatao
itbayat
item
itemid
items
ithaca
itik
itil
itim
itinaas
itinago
itinalaan
itinalaga
itinampok
itinao
itinaong
itinapok
itinatampok
itinatao
itinindog
itinogdas
itinogdok
itinotogot
itinotokdo
itinugdas
itinugdok
itinugot
itinukdo
itinuturing
itiot
itneg
ito
itogdok
itogon
itok
itom
itong
its
itself
itsura
itulod
itunes
itv
itzy
iu
iucn
iucnredlist
iupac
iv
ivan
ivana
ivatan
ives
ivoire
ivor
ivory
ivy
iw
iwaki
iwal
iwate
iwinalat
iwinawaras
ix
ixora
iya
iyan
iyang
iyo
iyon
iyong
iyono
iyonong
iz
izu
izumi
j
ja
jacinto
jack
jacket
jackfruit
jackie
jackson
jacob
jacoba
jacobs
jacqueline
jacques
jade
jae
jaena
jagannath
jagernauth
jagor
jaguar
jahai
jai
jail
jaime
jain
jainismo
jakarta
jake
jalandoni
jalil
jalisco
jallow
jam
jama
jamaica
jamaican
jambi
james
jameson
jamie
jamieson
jammeh
jan
jana
jane
janeiro
janella
janet
janetjackson
jang
janice
janine
janiuay
january
japan
japanese
japantimes
jar
jardin
jared
jarnail
jaro
jasaan
jasmin
jasmine
jasminum
jason
jasper
jaume
java
javanese
javier
jawa
jawahar
jawi
jawlensky
jay
jaya
jaycees
jayne
jazeera
jazmin
jazz
jc
jd
je
jean
jeanette
jeanne
jeannette
jeans
jeb
jeep
jeepney
jefe
jeff
jefferson
jeffrey
jeffries
jejomar
jeju
jelly
jen
jena
jenkins
jenna
jenner
jennie
jennifer
jennings
jenny
jensen
jeon
jeong
jeremy
jericho
jeroen
jerome
jerry
jersey
jerusalem
jes
jess
jesse
jessica
jessie
jesu
jesucristo
jesukristo
jesus
jet
jeune
jew
jewel
jewish
jews
jgr
jh
jharkhand
jhene
jhtml
jhu
ji
jia
jiang
jibaro
jie
jihad
jil
jill
jillian
jim
jime
jimenez
jimmy
jimple
jin
jinnah
jinping
jk
jm
jma
jnr
jo
joa
joachim
joan
joanna
joanne
joaqui
joaquin
job
jobs
jocano
jocelyn
jockey
jodi
joe
joel
joesoef
joey
johan
johann
johanna
johannes
johansson
john
johnny
johns
johnson
johnston
join
joining
joins
joint
jojo
jokduri
joke
joko
jolie
jolina
jollibee
jolo
jon
jonah
jonas
jonathan
jonelle
jones
jong
joo
joon
joongang
jordan
jordi
joreen
jorge
jose
josef
josefa
josefina
josemari
joseon
josep
joseph
josephine
josh
joshi
joshua
josiah
josie
journal
journalism
journalist
journalists
journals
journey
journeys
jovanovic
jovellar
joven
jovenes
jovita
joy
joya
joyce
jp
jpg
jr
jsp
jstor
jtbc
jtwc
ju
juan
juana
juanico
juban
jubilee
judah
judaism
judaismo
judas
juday
judd
jude
judge
judges
judgment
judi
judiciary
judio
judiong
judith
judy
juez
juha
juhi
juice
jul
jules
julia
julian
juliana
julianne
julie
julien
juliet
julieta
juliette
julio
julius
july
jumbo
jump
jun
june
jung
jungle
junior
junko
juno
junta
jupiter
jurassic
juris
jurisprudence
jury
jusan
just
justice
justin
justine
justo
jute
juventud
jv
jyp
k
ka
kaaabtan
kaaba
kaagahon
kaagan
kaagid
kaakian
kaakoan
kaalaman
kaaldawan
kaalingan
kaalyado
kaamayan
kaamayi
kaamihanan
kaamulan
kaanggotan
kaano
kaantabay
kaapil
kaapudan
kaarakian
kaaraman
kaarog
kaayon
kaayonan
kab
kaba
kababaehan
kababaihan
kababan
kababayihan
kabacan
kabaing
kabakas
kabalang
kabale
kabali
kabaliktadan
kabaliktaran
kaban
kabanalan
kabanga
kabangaan
kabangang
kabankalan
kabantogan
kabarali
kabataan
kabataang
kabatiran
kabayan
kabayo
kabesera
kabeserang
kabikolan
kabila
kabilang
kabilangan
kabilogan
kabilugan
kabilugang
kabisayaan
kabisera
kabiserang
kabit
kabiyoan
kable
kabo
kabootan
kabotan
kabtang
kabubuldan
kabuhayan
kabukidan
kabukiran
kabul
kabulig
kabundukan
kaburonyogan
kaburunyogan
kabuuan
kabuuang
kabuuhan
kabuuhang
kad
kada
kadaga
kadagaan
kadagatan
kadagatang
kadagdagan
kadagdagang
kadahasan
kadaihan
kadaklan
kadakli
kadakol
kadakolan
kadakolon
kadakul
kadakula
kadakulaan
kadakulan
kadakulang
kadakulon
kadalisayan
kadamay
kadamotan
kadaogan
kadazan
kadena
kadenang
kadepisilan
kadete
kadi
kadiit
kadikit
kadikiton
kadikloman
kadipisilan
kadlagan
kadmyo
kadolon
kadonongan
kadri
kadto
kadtong
kadugangan
kadugo
kadukhaan
kadungan
kadunongan
kadunungan
kaedad
kaenot
kag
kaga
kagabatan
kagabsan
kagadanan
kagagapoan
kagalanggalang
kagame
kagamitan
kagamitang
kagan
kaganan
kaganapan
kagat
kagawad
kagayagayahan
kagayonan
kagayunan
kagboot
kagdisenyo
kagduwang
kaggibo
kagharong
kagibohan
kagibuhan
kaginhawahan
kagitingan
kaglalang
kaglimang
kagmokna
kagmukna
kagmuknang
kagoshima
kagpoon
kagpundar
kagresibi
kagrogaring
kagrugaring
kagsadiri
kagsakop
kagsaro
kagsarong
kagsurat
kagtaraid
kagtogdas
kagtolod
kagtugdas
kagubatan
kagubay
kagurangan
kagurangnan
kagurubay
kagustohan
kagustuhan
kaha
kahaani
kahabagatan
kahadean
kahadian
kahaditan
kahagadan
kahalagahan
kahaloyan
kahaluyan
kahamanan
kahampang
kahangahangang
kahapon
kahapotan
kahaputan
kaharaning
kaharongan
kaharungan
kahawakan
kahel
kahelangan
kahigosan
kahilom
kahimanwa
kahimyang
kahiprayan
kahiroan
kahiroang
kahit
kahiwas
kahiwasan
kahlil
kahn
kaho
kahobenan
kahon
kahoy
kahulogan
kahulugan
kahurihan
kahurihurihi
kahusayan
kai
kaiba
kaibahan
kaibanan
kaibang
kaida
kaidto
kaidtong
kaif
kaigotan
kaiislahan
kaiislahang
kailan
kailangan
kailanman
kaili
kailusyon
kaimbodan
kaini
kaining
kainot
kaipohan
kaipong
kaipuhan
kaipuhanan
kaipuleohone
kairiba
kairibang
kaisipan
kaislahan
kaito
kaitong
kaiwal
kaiyan
kajal
kajang
kajol
kaka
kakadikit
kakadlaganan
kakahuyan
kakaiba
kakaibang
kakambal
kakampi
kakamping
kakan
kakanan
kakanon
kakaptan
kakaw
kakawat
kakayahan
kakayahang
kaklase
kakologan
kakomplot
kaku
kakulangan
kakundian
kal
kala
kalabaan
kalaban
kalabasa
kalabot
kalaenan
kalag
kalagan
kalakal
kalakalan
kalakawan
kalakip
kalalakehan
kalalakihan
kalamansi
kalamay
kalamias
kalamidad
kalamnan
kalan
kalangitan
kalangkaw
kalangkawan
kalanguya
kalasag
kalatas
kalaunan
kalaw
kalawag
kalawakan
kalay
kalayaan
kalayo
kaldero
kaldit
kalendariong
kalendaryo
kalendaryong
kalentura
kalesa
kali
kalibapi
kalibo
kalibotan
kalidad
kaligtasan
kalikasan
kalilangan
kalimantan
kalinga
kalingking
kalinigan
kalipato
kaliwanagan
kalki
kalkulasyon
kalkulus
kalmado
kalokohan
kalot
kalunggay
kalusugan
kaluyahan
kalye
kalyeng
kam
kama
kamagong
kamagurangan
kamahalan
kamaishi
kamal
kamala
kamandag
kamang
kamangmangan
kamanungdanan
kamaoo
kamara
kamas
kamatean
kamatis
kamawotan
kamay
kamayo
kambal
kambodya
kamelyo
kamen
kamera
kameron
kami
kamidbid
kamikazee
kaming
kamiseta
kamiyembrohan
kamo
kamogtakan
kamondoan
kamong
kamot
kamotan
kamote
kamoteng
kampana
kampanaryo
kampanya
kampanyang
kampeon
kampeonato
kampeonatong
kampi
kampo
kamposanto
kampung
kampus
kampyon
kamtan
kamugtakan
kamundagan
kamunduan
kamurawayan
kamuyahan
kan
kana
kanada
kanakanabu
kanal
kanap
kanbas
kanda
kandidato
kandidatong
kandidatura
kandila
kanding
kandinsky
kane
kang
kangaranan
kangkong
kangujam
kani
kanigoan
kaning
kanji
kankanaey
kanlaon
kanluran
kannada
kano
kanon
kansai
kansas
kanser
kant
kanta
kantang
kantidad
kanto
kantones
kanva
kanya
kanyang
kanye
kanyon
kaogma
kaogmahan
kaolangan
kaomahan
kaomawan
kaoripnan
kaoyon
kap
kapa
kapabayaan
kapadangatan
kapadian
kapadis
kapag
kapagalan
kapahamakan
kapahapahamak
kapahayagan
kapakanan
kapakinabangan
kapakipakinabang
kapakumbabaan
kapaladan
kapalangkawan
kapalibotan
kapalibutan
kapalong
kapamayuhan
kapamilya
kapampangan
kapanahonan
kapanahunan
kapangganahan
kapangyarihan
kapantay
kapanugaan
kapareha
kaparehas
kapareho
kaparehong
kaparte
kapasidad
kapasloan
kapatagan
kapatawadan
kapatid
kape
kapierdihan
kapiestahan
kapiling
kapilya
kapinonan
kapinunan
kapistahan
kapit
kapital
kapitalismo
kapitalista
kapitan
kapitolyo
kapitolyong
kapitoyo
kapitulo
kapiyestahan
kaplan
kaplanodohan
kapo
kapobrehan
kapoor
kapot
kapotan
kapp
kappa
kapu
kapulisan
kapungawan
kapurisawan
kapuso
kapusugan
kaputan
kaputian
kaputikan
kaputol
kapwa
kar
kara
karaba
karabakh
karagatan
karahay
karahayan
karakter
karakteristiko
karakteristikong
karakul
karan
karanasan
karangahan
karangalan
karaniwan
karaniwang
karantahan
karao
karaoke
karaot
karapatan
karapatang
karara
karatan
karate
karatula
karaw
karawat
karay
karbohidrato
karbon
kard
kardashian
kardinal
kare
kareena
karel
karelasyon
karen
karera
karerang
karga
kargadong
kargamento
kargo
kargong
kari
karibal
karibarawan
karibay
karibongan
karigonan
karikaturista
karim
karimov
karin
karina
karingisan
kariribokan
karisma
kariwahlgren
karl
karla
karlsruhe
karma
karnataka
karne
karneng
karnero
karo
karol
karsel
karton
karwahe
karylle
karzai
kas
kasa
kasabay
kasabihan
kasag
kasagkoran
kasagkorang
kasagkudan
kasagsagan
kasagsagi
kasakitan
kasal
kasalaan
kasalak
kasalan
kasalanan
kasali
kasalida
kasalihid
kasama
kasangkapan
kasangle
kasanglian
kasarabay
kasararoan
kasarian
kasaro
kasasarong
kasaysayan
kasegurohan
kashmir
kashmiri
kasibotan
kasikatan
kasilag
kasilyasan
kasimbagan
kasingawan
kasit
kasitas
kaskas
kaso
kasong
kasosyo
kasta
kastigo
kastila
kastilang
kastilyo
kasu
kasuarin
kasugoan
kasugpon
kasuguan
kasulnopan
kasulo
kasulotan
kasulutan
kasundoan
kasunduan
kasunod
kasuodma
kasuran
kasuratan
kasurog
kasusupgan
kaswal
kasyahan
kat
kataas
katabang
kataed
kataga
katagang
katagasan
katahawan
katahawang
katahawi
kataid
katakana
katakin
katakod
katakotan
katalagahan
katalan
katalingkasan
katalista
katalogo
katalunya
katambal
katampad
katamtaman
katangaan
katangian
katangyanan
kataning
katanog
katanosan
katao
katapos
kataposan
katapostaposi
katapusan
katapustapusi
kataraed
kataraid
katarina
katawo
katawohan
katawong
kate
katedral
kategoriya
kategorya
kategoryang
katharine
katherine
kathleen
kathmandu
kathryn
kathy
katibayan
katie
katimbang
katinig
katiponan
katipunan
katipunero
katiripona
katiriponan
katiripunan
katiwala
katiwasayan
kato
katokdoan
katol
katolika
katoliko
katolikong
katolisismo
katolohan
katongdan
katoninongan
katood
katorse
katorseng
katotohanan
katotoohan
katoy
katrabaho
katre
katrina
katubigan
katugangan
katugmaran
katuic
katuiko
katukdoan
katukduan
katumbas
katunayan
katungdan
katuninongan
katuod
katutubo
katutubong
katuwang
katuyohan
katuyuhan
katy
katyono
katz
kaufman
kaugalean
kaugalian
kaugmahan
kaugnayan
kaulangan
kaulay
kaulayon
kaur
kauswagan
kavalan
kaw
kawa
kawad
kawali
kawaran
kawasa
kawat
kawatan
kawayan
kawi
kawiliwili
kawit
kawsa
kay
kaya
kayamanan
kayan
kayang
kayapa
kaye
kaymito
kayo
kaysa
kayumanggi
kayumanggihon
kayumangging
kazakhstan
kazan
kazuo
kaʔ
kbs
kc
kca
ke
kean
keaton
kecamatan
kedah
keep
keeping
keeps
kegan
kei
keiko
keio
keith
kelabit
keller
kellermann
kelley
kellman
kelly
kelsea
kelsey
kemikal
kemiko
kemp
ken
kendall
kendrick
kendriya
kenji
kenkoy
kennedy
kenneth
kenny
kent
kentaro
kentucky
kenya
kenyah
kenyan
kenyano
kenyanong
kepler
kerala
keratin
kerinci
kern
kerr
kerry
kesa
kesennuma
keso
ketu
kev
kevin
kevorkian
kew
key
keyboard
keys
kfc
kg
kha
khaled
khalid
khalifa
khalil
khan
khartoum
khmer
kho
khoa
khrushchev
khwa
khwarizmi
khz
ki
kiamba
kiangan
kianni
kibaki
kick
kicks
kid
kidapawan
kidder
kidlat
kidman
kidnapped
kidney
kids
kiev
kiisay
kikilat
kiko
kil
kilates
kilday
kili
kill
killed
killer
killi
killing
killings
kills
kilo
kilogramo
kilometers
kilometres
kilometro
kilometrong
kilometros
kilong
kilos
kilyab
kim
kimball
kimberly
kimi
kimig
kimika
kimikal
kimikang
kimiko
kimikong
kimono
kin
kina
kinaabtan
kinaag
kinaagan
kinaaraman
kinababalihan
kinaban
kinabanon
kinabibilangan
kinaipuhan
kinakaag
kinakaagan
kinakaipo
kinakaipohan
kinakaipuhan
kinakaipuhanan
kinakakan
kinakampihan
kinakan
kinakanta
kinakapotan
kinakarkulo
kinakarkulong
kinakawat
kinamomogtakan
kinamumugtakan
kinamundagan
kinanselar
kinanta
kinapotan
kinaptan
kinaputan
kinaray
kinasal
kinasungkoan
kinatawhan
kinaugalean
kinaugalian
kinawat
kind
kindaichi
kindergarten
kindersley
kindle
king
kingdom
kings
kinkasan
kino
kinokonsiderar
kinompirmar
kinompos
kinonsiderar
kinoronahan
kinotar
kinse
kinseng
kinshasa
kinsley
kintab
kintanar
kinua
kinudot
kinugos
kinukua
kinukultibar
kinunot
kipot
kiput
kiray
kirby
kirche
kirgistan
kiri
kiribati
kirk
kirsten
kirtland
kisa
kisame
kiskis
kiss
kisses
kissling
kisuerra
kit
kita
kitakata
kitang
kitanglad
kitchen
kite
kitty
kj
kl
klab
klarado
klaripikasyon
klase
klaseng
klasikal
klasiko
klasikong
klasipikado
klasipikadong
klasipikasyon
klaus
klein
klerigo
klima
klimang
klinika
klinikal
klip
kliyente
klobuchar
klorina
klutse
kluwer
km
kmt
knesset
knew
knife
knight
knights
knock
knockout
knopf
knot
know
knowledge
knowles
known
knows
knox
ko
koalisyon
kobayashi
kobe
kobre
koch
kochi
koda
kodagu
kodansha
kodava
kodigo
kodigong
kofi
kok
koko
kol
kola
kolaborasyon
kolambugan
kolehio
kolehiyo
kolehiyong
koleksion
koleksiyon
koleksyon
kolektibong
kolektor
kolesterol
kolkata
kollontai
kolog
kolokyal
kolonisasyon
kolonya
kolonyal
kolonyalismo
kolonyang
kolor
kolum
kolumna
kolumnista
kom
komandante
kombensido
kombension
kombensyon
kombento
kombiksion
kombinasyon
komedya
komedyang
komedyante
komedyanteng
komentarista
komentaryo
komento
komersial
komersyal
komersyante
komersyo
kometa
komikero
komiks
komisyon
komisyonado
komisyoner
komite
komiteng
komitiba
komo
komon
komonwelt
kompaniya
kompanya
kompanyang
komparatibong
kompas
komperensia
komperensya
kompetisyon
kompiansa
kompleanyo
kompleksong
kompleto
kompletong
komplikado
komplikadong
komplikasyon
komplikto
komponido
komportable
komportableng
komposisyon
kompositor
komprehensibong
kompuesto
komputer
kompuwesto
kompuwestong
kompwesto
kompyuter
komun
komunidad
komunikasyon
komunismo
komunista
komunistang
komunwelt
komunyon
komyun
kon
kondensasyon
kondisyon
konduktor
konecky
koneksion
koneksyon
konektado
konektadong
kong
kongo
kongregasyon
kongresista
kongresman
kongreso
kongresyonal
konklusyon
konkreto
konkretong
konotasyon
konsehal
konseho
konsekwensya
konsensia
konsentrasyon
konsentrasyong
konsepto
konseptong
konserbasyon
konserbatibo
konserbatibong
konsiderado
konsideradong
konsideraron
konsiderasyon
konsilyo
konsistido
konsonante
konsorte
konstelasyon
konstitusyon
konstitusyonal
konstruksyon
konsultant
konsultasyon
konsumidor
konsumo
konsyerto
konsyertong
kontak
kontaminasyon
konteksto
kontekstong
kontemporanyong
kontemporaryong
kontento
kontes
kontinental
kontinente
kontinenteng
kontra
kontrabida
kontrahon
kontraksyon
kontraryo
kontrata
kontribusyon
kontrobersiya
kontrobersiyal
kontrobersya
kontrobersyal
kontrol
kontrolado
kontrolon
kony
kooperasyon
kooperatiba
koordinasyon
kop
kopa
koponan
kopp
kopya
kopyang
kor
korales
koran
kordilyera
korea
koreaherald
koreajoongangdaily
korean
koreano
koreanong
koreatimes
koreo
koro
koron
korona
koronadal
koronang
koronasyon
koronel
korosyon
korporasyon
kors
korte
korteng
kortesiyang
korum
korupsyon
koryente
koryenteng
kos
kosa
kosang
kosmikong
kosmolohiya
kosog
kosovo
kosterm
kostumbre
kot
kota
koteka
kotse
kotte
kova
kovick
kowloon
koyanagi
kpop
kpopherald
kqed
kr
kra
krako
krayterya
kre
kredito
kredo
kremlin
kreole
kri
krimen
kriminal
kris
krishna
krishnan
krisis
kristal
kristen
kristian
kristianismo
kristiano
kristianong
kristin
kristina
kristine
kristiyanidad
kristiyanismo
kristiyano
kristiyanong
kristo
kristyano
kristyanong
kritika
kritikal
kritiko
kritikong
kritisismo
kroc
kroll
krudo
krus
kruspe
krymsky
krzysztof
ks
kshatriya
ku
kua
kuala
kualidad
kuan
kuanan
kuanon
kuarta
kuarto
kuba
kuban
kubiko
kubikong
kubismo
kubitzki
kublit
kubo
kubong
kudal
kudarat
kudeta
kudot
kudotan
kue
kuei
kugita
kugos
kuhl
kuhn
kui
kuko
kul
kulagbaw
kulang
kulay
kuleksyon
kulitan
kulog
kulongan
kulor
kulto
kultura
kultural
kulturang
kulungan
kum
kumakan
kumander
kumar
kumbaga
kumbensyon
kumbento
kumbinasyon
kumboot
kumon
kumonwelt
kumpanya
kumpara
kumpederasyon
kumperensiya
kumperensya
kumpleanyo
kumpleto
kumpletong
kumpol
kumua
kumulang
kumusta
kun
kunab
kunap
kundi
kundiman
kundisyon
kuneksyon
kung
kuno
kunokuno
kunrei
kunsoarin
kunst
kunth
kunti
kuomintang
kupya
kur
kura
kurahaw
kurbada
kurdis
kurdish
kurdistan
kurdo
kurikulum
kurit
kurleto
kuro
kurso
kursong
kurt
kurtina
kuryente
kusa
kusina
kusog
kuta
kutana
kutanang
kutang
kuto
kutsara
kutsilyo
kuwadrado
kuwait
kuwarta
kuwarto
kuweba
kuwento
kuy
kuya
kuyom
kvinnobiografiskt
kw
kwadrado
kwadradong
kwadrilatero
kwantum
kwarta
kwartang
kwartel
kwarto
kweba
kwenta
kwf
kwon
ky
kya
kyi
kyiv
kyle
kylie
kyline
kyo
kyodo
kyoto
kyrgyz
kyrgyzstan
kyu
kyung
køge
kɑ
l
la
laad
laan
lab
laba
labahan
laban
labanan
labang
labas
labaw
label
labeouf
labi
labilabi
labilabing
labin
labing
labis
labo
labor
laboratory
laboratoryo
laboratoryong
labot
labour
laboy
labrador
labuyo
lacaba
lace
lachi
lack
lacks
lacson
lad
lada
ladawan
laden
ladies
lado
ladong
ladrilyo
lady
laen
lafayette
lafca
lag
laga
lagabong
laganan
lagarde
lagawe
lagaylay
lagdoan
lagduan
lagerfeld
lagerlo
lagi
laglagon
lago
lagonoy
lagoon
lagos
lagpas
laguna
lahat
lahi
lahing
lai
laid
laika
lain
lak
lakad
lakandula
lakas
lakaw
lakbang
lakdang
lake
lakes
lakewood
lako
lakop
lakopan
lakota
lakshmana
lakshmi
lal
lala
lalagan
lalake
lalakeng
lalaki
lalaking
lalang
lalangon
lalauogon
lalawgon
lali
lalo
lalong
lam
lama
laman
lamang
lamanita
lamar
lamaw
lamb
lambak
lambang
lambayong
lambert
lambunao
lamesa
lamesang
lamiaceae
lamina
lamitan
lampara
lampas
lampung
lamut
lan
lana
lanang
lanao
lancashire
lance
lancet
land
landa
landas
landing
landmark
lands
landscape
landscapes
lane
lang
langauge
langaw
lange
langgad
langis
langit
langitnon
langka
langkang
langkaw
langkawas
langkoy
langtad
language
languages
lanham
lanka
lanob
lanoue
lansang
lansangan
lantad
lantana
lantano
lantau
lantawan
lantern
lanuza
lanvin
lanza
lao
laoag
laog
laogan
laoman
laos
lap
lapag
lapay
lapida
lapis
lapnad
lapu
lapulapu
lapuz
lara
larangan
larantuka
larena
large
largest
larry
lars
larson
las
lasa
lasagna
lasagne
laser
last
lat
lata
latang
lataw
late
later
latest
latik
latimes
latimesblogs
latin
latina
latino
latitud
latter
latumbo
latvia
latvian
lauber
laude
lauder
laughter
launch
launched
launches
laura
laureate
laurel
lauren
laurence
laurent
laurie
lausanne
laut
lava
laverne
lavoisier
law
lawa
lawas
laway
lawig
lawod
lawog
lawphil
lawrence
laws
lawsuit
lawyer
lawyers
lay
laya
layag
layagan
layas
layer
layne
layog
layout
lazerine
lazi
lazio
laʔ
lb
lbs
lc
lccn
ldez
lds
le
lea
lead
leader
leaders
leadership
leading
leads
leaf
league
leah
leaked
leandro
learn
learned
learning
least
leather
leave
leaves
leaving
lebak
lebanese
lebanon
lebata
lebel
lebron
lech
lecho
lechon
lecture
lecturer
lectures
led
ledesma
lee
leeds
left
leg
legacy
legal
legarda
legaspi
legazpi
legend
legendary
legends
legion
legislative
legislature
lego
lehislador
lehislasyon
lehislatibo
lehislatibong
lehislatura
lehitimo
lehitimong
leibniz
leiden
leigh
leila
leipzig
leisure
leitmeritz
leiviska
leksikal
leksikon
leksion
leksyon
lektura
lemery
lemon
lemonade
lemonsito
len
lena
leng
lengguwahe
lengguwaheng
lenggwahe
lenggwaheng
length
lengua
lenguahe
lenguaheng
lenguas
lengwahe
leni
lenin
leningrad
lennon
lennox
lens
lente
leo
leon
leona
leonard
leonardo
leoncio
leones
leonhard
leonor
leonora
leopold
leopoldo
lepo
leptospirosis
lerma
lerner
leroy
les
lesbian
lesbians
lescharts
lesley
leslie
less
lesser
lesson
lessons
leste
lester
let
leton
letra
letran
letrang
letras
letter
letters
lettres
lev
levant
levay
level
levels
levi
levine
levy
lewis
lexical
lexico
lexicon
lexikon
lexington
ley
leyen
leyenda
leyes
leyte
lez
lg
lgbt
lgbtq
lgu
lh
li
lia
liabe
liacco
liaison
lian
liang
lianga
liao
liar
lib
libacao
libang
libangan
libel
liberal
liberalism
liberation
liberland
libertad
liberty
libingan
libis
libjo
libmanan
libon
libot
liboton
libra
librarian
libraries
library
libraryo
libre
libreng
libreria
libreriya
librivox
libro
librong
libtong
libungan
libya
libyanong
lica
licad
liceo
licorice
licypriya
lida
liddell
lider
liderato
lideres
lie
liechtenstein
lies
lieutenant
life
lifestyle
lifetime
lift
liga
ligal
ligao
ligaw
ligaya
light
lighthouse
lightning
lights
lightweight
lign
ligtas
lihim
lihis
likas
likay
likayan
like
likhaan
likido
likidong
likod
likor
lil
lila
lilang
lilia
lilian
liliana
liliosa
liliw
lillian
lilly
liloan
lily
lim
lima
limang
lime
limestone
limit
limitado
limitadong
limitaran
limitasyon
limite
limited
limits
limoges
limpoy
lin
lina
linaglag
linala
linalabanan
linaladawan
linalaman
linalang
linalaoman
linao
linaw
lincoln
lincom
linda
lindbergh
linderos
lindong
lindsay
lindsey
line
linen
liner
lines
ling
linga
lingaan
lingam
lingaw
lingawan
lingayen
lingguwista
lingguwistika
linggwista
linggwistika
lingig
lingkod
lingua
linguist
linguistic
linguistics
lingwistika
linings
liniwat
link
linked
links
linn
linnaeus
linnean
lino
linog
linsa
linta
linuluto
linusob
linuto
linya
linyada
linyang
liog
lion
lionel
lions
lionsgate
lip
lipa
lipad
lipat
lipid
lipot
lipotok
lippincott
lips
lipshutz
lipunan
liquid
liquor
liriko
lis
lisa
lisboa
lisbon
lisensya
lisensyadong
list
lista
listahan
listang
listed
listen
listening
listing
liston
lists
lit
literacy
literal
literally
literalmente
literary
literaryo
literaryong
literatura
literaturang
literature
lithium
lithuania
lithuanian
litigasyon
litigation
litik
lito
litong
litrato
litro
litsiyas
litsugas
little
littlefield
lituania
liturhikal
liu
liv
live
lived
livelihood
livemint
liver
liverpool
lives
living
livingston
livingstone
livorno
liwanag
liwat
liwaton
liwayway
liwoy
lix
liyabe
liz
liza
lizabeth
lizard
ljubljana
lk
ll
llana
llanera
llanes
llc
ller
lloyd
llui
ln
lo
loa
loan
loanwords
lobel
lobo
loboc
lobong
loc
local
located
location
locations
lochtefeld
lock
lockdown
locke
locker
lockwood
locomotion
locomotive
locsin
lodge
log
logan
logaritmo
logic
logo
logod
logro
lohan
lohar
lohika
loida
lois
lok
lokal
lokalidad
lokasyon
lokdo
lokton
lola
lolo
lolobngan
lolohon
loma
lombardo
lombardy
lombod
lombok
lon
london
londres
lone
lonely
long
longer
longest
longinus
longman
longos
longyi
loob
looc
look
looked
looking
looks
loon
loose
lope
lopes
lopez
lora
lord
lords
loren
lorena
lorenlegarda
lorenzo
loreto
lori
loriculus
lorna
lorraine
los
lose
loser
loses
losing
loss
lost
lot
lotay
lote
loteng
lotte
lotud
lotus
lou
loud
louie
louis
louisa
louise
louisiana
lounge
lourdes
louvre
love
loved
lovelace
lovely
lover
lovers
loves
lovi
loving
low
lowe
lowell
lower
lowry
loy
loyola
loyzaga
lozada
lozano
lp
lpg
lr
lt
ltd
ltul
lu
lua
luanda
luang
luba
lubang
lubao
lubid
lubog
lubong
lubongan
lubos
lubot
lubungan
luc
lucas
lucban
lucca
luce
lucena
lucero
lucia
luciano
lucie
lucien
lucille
lucio
luck
lucky
lucrecia
lucy
ludacris
ludog
ludovico
ludvig
ludwig
lugad
lugadan
lugar
lugaw
lugo
lugod
luha
luhay
luho
lui
luigi
luis
luisa
luisiana
luk
lukadon
lukas
lukban
luke
lukisan
lukot
lukso
lulubngan
luma
lumaban
lumabi
lumad
lumang
lumaog
lumataw
lumban
lumbera
luminakop
luminangkaw
luminaog
luminuwas
luminuya
lumot
lumpur
lumuwas
lun
luna
lunad
lunadan
lunar
lunas
lunch
lund
lunes
luneta
lung
lungib
lungsod
lunyang
lupa
lupad
lupang
lupi
lupon
lutab
luther
lutheran
luto
lutong
lutoon
lutuan
lutuon
luuk
luukkonen
luv
luwa
luwas
luway
luwayluway
lux
luxembourg
luxury
luy
luya
luz
luzon
luzonensis
luzviminda
lv
lvarez
lviv
lvmh
lvn
lwua
ly
lyce
lyceum
lydia
lying
lyman
lyn
lynch
lyndon
lynn
lynne
lyon
lyric
lyrics
lɑ
lə
m
ma
maa
maaaraman
maabot
maagi
maako
maalaala
maaliwalas
maalsom
maanggot
maapod
maaraman
maarte
maarteng
maasgad
maasim
maasin
maati
maating
maatubang
mababa
mababago
mababasa
mabago
mabagsik
mabakal
mabalacat
mabali
mabalik
mabalos
mabalyo
mabanga
mabari
mabasa
mabaskog
mabawasan
mabawi
mabel
mabey
mabiktima
mabilang
mabilis
mabilog
mabinay
mabini
mabisto
mabolo
maboot
mabubuhay
mabuhay
mabukid
mabulo
mabunga
mabuo
mac
macabebe
macapagal
macario
macarthur
macau
macdonald
macedon
macedonia
macedonian
machine
machines
mack
mackenzie
mackinnon
macleod
macmillan
mactan
mactutor
macuja
macy
mad
madadangog
madagascar
madagaskar
madahas
madakop
madalag
madalagan
madalan
madalas
madali
madalian
madaling
madalion
madam
madame
madangog
madaog
madara
madarang
maddela
maddie
made
madeleine
madeline
mademoiselle
madeterminaran
madhya
madia
madiklom
madiskobre
madiskubre
madison
madness
madonna
madonong
madras
madrasta
madre
madrid
madrigal
madrilejos
madsen
madudugangan
madugangan
madugong
maduman
madunong
madya
madyaas
mae
maeksperyensiahan
maelihir
maestablisar
maestra
maestro
mag
maga
magabat
magabaton
magadan
magagabat
magagadan
magagamit
magagayon
magahum
magalang
magallanes
magalona
magamit
magandang
magarao
magarbong
magasin
magaspang
magassouba
magatol
magayon
magayonon
magayunon
magazine
magazines
magbaba
magbago
magbakal
magbali
magbalik
magbalyo
magbanua
magbasa
magbayad
magbiahe
magbilog
magbisita
magboot
magboto
magbubunga
magbugtak
magbukas
magbunga
magbungkaras
magbutas
magbutwa
magdadanay
magdakula
magdalagan
magdalan
magdalena
magdalo
magdamlag
magdanay
magdangal
magdangog
magdara
magdemitir
magdesisyon
magdisenyo
magdugang
magdukot
magdulag
magduman
magellan
magenta
maggamit
maggibo
maggie
maghagad
maghalat
maghale
maghali
maghaman
maghanap
maghapot
magheling
maghiling
maghinanyog
maghira
maghiro
maghubo
magi
magian
magibo
magic
magical
magigi
magigibo
magigin
magiging
magin
magindara
maging
maginibo
magiya
magka
magkaag
magkaagid
magkaano
magkaaragidan
magkaarano
magkabaliktad
magkabaliktadan
magkaduwang
magkaiba
magkaibahan
magkaibanan
magkaibang
magkaibong
magkaigwa
magkaigwang
magkakaigwa
magkakan
magkakapirang
magkalaban
magkalaen
magkamit
magkandidato
magkanta
magkaparehas
magkapareho
magkapira
magkapirang
magkapot
magkasararo
magkasi
magkasuway
magkawat
magkawsa
magklase
magkonsentrar
magkua
maglaban
maglakaw
maglakop
maglaog
maglataw
maglayog
maglingkod
maglipat
maglumoy
magluwas
magmaigot
magmaneho
magmata
magmukna
magna
magnamit
magnesium
magnesyo
magnet
magnetic
magnetikong
magnetismo
magnificent
magnifico
magnitude
magnitudo
magno
magnolia
magpa
magpadagos
magpadara
magpahayag
magpaheling
magpahiling
magpakasal
magpalakop
magpaluwas
magpapadagos
magpapaheling
magpartisipar
magpasiring
magpatindog
magpili
magpinta
magpirma
magpondo
magpoon
magporma
magprodusir
magpundo
magpunsionar
magpuon
magputok
magrebelde
magrepresentar
magresulta
magretiro
magsabi
magsadiri
magsakyada
magsalang
magsaysay
magserbe
magserbing
magsirbe
magsiyasat
magsolo
magsuko
magsulot
magsunod
magsurat
magtabang
magtago
magtalubo
magtanom
magtanong
magtao
magtaong
magtapos
magtaram
magtindog
magtipon
magtiripon
magtogdok
magtokdo
magtrabaho
magtubo
magtubod
magtugang
magtukaw
magtukdo
magtulod
magturog
magturugang
magu
maguindanao
maguire
maguno
magurang
magyar
mah
maha
mahabharata
mahadevi
mahahanap
mahakam
mahal
mahalaga
mahalagang
mahale
mahali
mahalin
mahalnas
mahaman
mahamis
mahamot
mahanap
maharaja
maharang
maharashtra
maharlika
maharlikang
mahatma
mahavidya
mahawi
mahayag
mahayahay
maheheling
maheling
maher
mahesh
mahi
mahibog
mahibogon
mahigos
mahihiling
mahika
mahikang
mahilig
mahiling
mahimo
mahimpis
mahimpison
mahiro
mahistrado
mahiwas
mahiwason
mahmoud
maholog
mahulog
mahusay
mai
maiba
maibabalik
maid
maiden
maids
maigot
maiimahinar
mail
maimbod
maimbong
maimpluensya
maimpluensyang
maimpluwensiahan
maimpluwensyang
main
mainaan
maine
maingat
mainichi
mainit
mainiton
mainland
mainstream
maint
maintindihan
maipahiling
maipo
mairom
mais
maisihan
maisog
maisurat
maitom
maitugdas
maitum
majapahit
maji
major
majority
mak
maka
makaabot
makaag
makaapektar
makaba
makabagong
makabali
makabalik
makabayan
makabilog
makaboto
makadangog
makadulag
makagibo
makagiram
makagradwar
makahaman
makahanap
makaheling
makahiling
makahimo
makahiro
makahulogan
makaiba
makaka
makakaabot
makakakan
makakakua
makakan
makakanood
makakatabang
makakaya
makakua
makalaog
makaligtas
makalihis
makaluwas
makamate
makamati
makamit
makamokna
makamomondo
makamomondong
makamtan
makamukna
makangalas
makangangalas
makangirhat
makangirit
makanompong
makanood
makanos
makanuod
makaolakit
makaolang
makapag
makapagtao
makapangyarihan
makapaniwala
makaporma
makapot
makaraot
makarawat
makaresibe
makasaysayan
makasosopog
makassar
makasurat
makata
makatabang
makatakot
makatanosan
makatanusan
makatao
makataong
makatapos
makatatabang
makatatakot
makati
makatipon
makatubod
makatukaw
makawala
make
maker
makers
makes
maki
makibagay
makibaka
makikabtang
makikatood
makikomunikar
makilyab
makina
makinang
makinarya
makinaryang
making
makintab
makipag
makipaglaban
makoapo
makolog
makologon
makolor
makontrol
makosog
makosogon
makromolekula
makua
makuang
makuapo
makukua
makukuang
makukusog
makulang
makulog
makunot
makuri
makuring
makusog
makusogon
mal
mala
malaad
malaban
malabanan
malabon
malacan
malacca
malaen
malagasang
malagasy
malagong
malain
malaki
malala
malaman
malampasan
malang
malanit
malanyaon
malaog
malapa
malaria
malasin
malaswang
malasya
malate
malawak
malaweg
malawi
malawig
malay
malaya
malayalam
malayan
malayano
malaybalay
malayic
malayiko
malayo
malaysia
malaysian
malaysiano
malayu
malcolm
malcom
maldive
maldives
male
malgatse
mali
maliban
malibog
maligaya
maligtas
malik
malikayan
malikhaing
maliki
maliksi
malilikayan
malilingawan
malilipot
maliliwat
malinao
malinaw
malingawan
malinig
malipot
malipoton
malita
malitbog
maliwanag
maliwat
mall
mallig
mallon
mallow
malls
malnutrisyon
malogyat
malolos
malomhok
malomoy
malone
malong
malta
maltese
maluku
malumhok
malumoy
malungkas
malungon
malungsi
maluto
maluwag
maluwas
maluway
maluya
maluyang
malvaceae
malvales
malvar
mama
mamahalon
mamalya
mamantinir
mamanwa
mamasa
mamasapano
mamatean
mamayo
mambog
mambusao
mamibi
mamidbid
mammal
mammals
mamokna
mamomoton
mamon
mamondo
mamondong
mamoot
mamotan
mamuhay
mamuju
mamukna
mamundag
mamundo
mamuraway
man
mana
manado
management
manager
managing
manalang
manalo
manamit
mananagboan
mananakop
manang
mananggad
manaoag
manaog
manay
manchester
mandalay
mandaluyong
mandarin
mandate
mandato
mandaue
mandaya
mandela
mandiberg
mandir
mandurriao
mandy
mane
manedyer
manera
mang
manga
mangahulogan
manganese
mangangaipo
mangatarem
mangayawan
mangga
manggahan
manggana
manggas
mangiba
mangifera
mangirhat
mangiriba
mangko
mangmang
mango
mangosteen
mangrove
mangroves
mangyan
mangyari
mangyayari
manhattan
mani
mania
manide
manifesto
manihot
manila
manilatimes
manindogan
maningning
maninigo
maninigong
manipestasyon
manipis
maniwala
maniwang
mankayan
mankind
manlaen
manlaenlaen
manlaenlaenaen
manlagnit
manlain
manlainlain
manly
mann
manner
manners
mannheim
manning
manny
mano
manoa
manobo
manodan
manohar
manohla
manok
manolo
manompongan
manongod
manonodan
manonompongan
manonongod
manor
manrique
mansaka
mansakan
mansalay
mansana
mansanang
mansanas
mansfield
mansi
mansion
manson
mansyon
manta
mantang
mantikilya
mantinido
mantis
mantra
manual
manudan
manuel
manufacturing
manugang
manungod
manunulat
manunumpungan
manunungod
manunuparan
manuscript
manuscripts
manuskrito
manuskritong
manwal
many
manzano
mao
maogma
maogmahon
maogmang
maonabihan
maoonabihan
maori
maotob
map
mapa
mapadagos
mapadapit
mapag
mapagal
mapagantad
mapagdanay
mapagkukuanan
mapagrisa
mapagsuportar
mapait
mapakaray
mapakarhay
mapakusog
mapalangkaw
mapaluwas
mapan
mapanas
mapang
mapanggana
mapangganang
mapangyari
mapanlaglag
mapanungod
mapapanas
mapara
mapatalsik
mapatalubo
mapili
mapogolan
mapondo
mapoon
maporma
mapping
mapreserbar
maprotehiran
maps
mapu
mapuersa
mapuersang
mapugol
mapuho
mapula
mapulang
mapulot
mapupuede
mapupwede
mapupwedeng
mapusong
maputi
maputing
mapuwedeng
mapwersang
maqueda
mar
mara
maraborab
maragtas
maragusan
marahay
marahayon
maramag
marambong
maranao
marang
marant
maraot
marara
mararang
mararaot
marasigan
marathi
marathon
marawi
maray
marayrahay
marbel
marble
marc
marcel
marcela
marcelino
marcelle
marcelo
march
marcha
marching
marcial
marco
marcos
marcus
mare
marea
marealisar
mareco
maresulta
margaret
margareta
margarita
margarito
margin
margo
margolin
margot
marguerite
marha
marhay
mari
maria
mariah
mariahcarey
marian
mariana
marianne
mariano
maribok
maricel
maricris
marie
mariel
marietta
marigon
marigsok
marihatag
marika
marikas
marikason
marikina
marilao
marilyn
marimar
marin
marina
marinduque
marine
marinel
mariner
marinero
maringis
marino
marinong
mario
marion
mariposa
maririsa
marisa
marissa
marita
maritime
maritimong
mariveles
marjorie
mark
marka
markandeya
markang
marker
markers
market
marketing
markets
marks
marlene
marlon
marmol
marne
maro
maroon
marquez
marquis
marriage
married
marries
marry
mars
marsh
marsha
marshal
marshall
marso
mart
marta
marte
martel
martes
martha
marti
martial
martin
martina
martine
martinez
martini
martino
martins
martir
martires
martsa
marty
martyr
martyrs
marvel
marvin
marx
marxism
mary
maryland
mas
masa
masabi
masabing
masabotan
masabutan
masaheng
masaker
masakit
masakiton
masakop
masala
masambit
masang
masaray
masarig
masasabi
masasabing
masasabotan
masasarigan
masbate
masbatenyo
maseguro
masel
masiguro
masiram
masiri
mask
maskara
maskarang
maski
masks
maslin
mason
masoneriya
mass
massa
massachusetts
massacre
massive
masson
massoud
master
masteral
masterpiece
masters
mastura
masturbasyon
masturbation
masulo
masunod
masurunod
masususog
masyadong
mat
mata
mataas
mataba
matabang
matabangan
matabilog
matagal
matagas
matagok
matagom
matagumpay
matakot
matalasay
matanda
matang
matanga
matangang
matanos
matao
mataong
matapos
matarom
matatagas
matatapos
matatawan
matawan
matawo
matawong
match
mate
matematika
matematikang
matematiko
matematikong
mateo
mater
material
materials
maternal
maternity
materya
materyal
materyales
math
mathematical
mathematician
mathematicians
mathematics
mathworld
mati
matias
matibay
matibayon
matigsalug
matilaba
matilda
matilde
matimbang
matindog
matisse
matitibay
matnog
mato
matogdas
matogot
matoninong
matrayumpo
matrayumpong
matris
matriumpong
matrix
matriyumpo
matriyumpong
matsudaira
matt
matter
matters
matthew
matthews
matthias
matua
matuang
matubig
matukaw
matunaw
matuninong
maturation
mature
matute
mau
maubos
maud
maugma
maui
mauna
maunabihan
maurag
maureen
maurice
maurya
mausoleo
mausoleum
mauswag
maute
mauunabihan
maverick
mawara
mawaran
mawawara
mawot
mawoton
max
maxi
maximo
maximum
maxine
maxwell
may
maya
mayaman
mayamanon
mayayaman
maybe
mayer
mayflower
maygurang
maykapot
maynila
mayo
mayon
mayong
mayor
mayoral
mayoria
mayoridad
mayoriya
mayoriyang
mayormente
mayors
mayorya
mayoyao
mayurbhanj
mayweather
maza
mazas
mazda
mb
mba
mbc
mbn
mc
mca
mcarthur
mccain
mccardell
mccarthy
mccartney
mcculloch
mcdonald
mcentire
mcfarland
mcgarry
mcgill
mcgraw
mcgregor
mckenna
mckinley
mclean
mcnary
mcqueen
md
mdl
me
mead
meal
mean
meaning
meanings
means
measure
measurement
measures
meat
mecca
mechanical
mechanics
mechanism
mechanisms
med
medal
medalist
medallion
medalya
medalyang
medgoen
media
medical
medicare
medici
medicinal
medicine
medicines
medicion
medien
medieval
medikal
mediko
medimmune
medina
medio
medisina
medisinang
meditasyon
mediterranean
mediterraneo
medium
medvedev
medya
medyas
medyo
medyum
meek
meet
meeting
meetings
meets
meg
mega
megamall
megan
megatron
mehikano
mehikanong
mehiko
mei
meiji
meilleures
mein
meir
mejico
mejor
mekanika
mekanikal
mekanikang
mekaniko
mekanismo
mekhela
mel
melampodium
melanau
melancholy
melania
melanie
melati
melayu
melbourne
melchor
melendreras
melilla
melinda
melissa
meliton
mellon
melo
melodiya
melodrama
melody
melokoton
melon
melton
melville
member
members
membership
membrane
memo
memoir
memoirist
memoirs
memorabilia
memorable
memoria
memorial
memories
memory
memorya
memphis
men
mendes
mendez
mendiola
mendoza
menon
menor
menos
mensahe
mensaheng
menstrual
menswear
mental
mentawai
mention
mentioned
mentions
mentor
menu
mer
mercado
mercedes
merchant
merchants
mercury
mercy
mere
meredith
merging
meri
merienda
merit
merito
merkado
merkel
merkuryo
merlinda
mermaid
merr
merriam
merrill
merritt
merry
meryl
mesa
mesiyas
mesoamerika
mesopotamia
mesopotamya
message
messenger
messi
mestisong
mestiza
met
meta
metabolic
metabolism
metabolismo
metacritic
metal
metaliko
metalikong
metamorphosis
metano
metaphysics
metapora
meteor
meteorological
meteorology
meteorolohiya
meter
meters
methamphetamine
methane
method
methods
meto
metodo
metodong
metres
metro
metrong
metropolis
metropolitan
metropolitana
metropolitanong
metros
meus
mexican
mexico
meycauayan
meyer
mez
mg
mga
mgm
mh
mhz
mi
mia
miagao
miami
miaw
mich
michael
michel
michelangelo
michele
michelle
michigan
michiko
michio
michoaca
mick
mickey
miclat
micro
microbiology
micronesia
microsoft
microwave
mid
midbid
midbidan
midbidon
middle
middleton
midnight
midsayap
midya
mie
miembro
miembros
mientras
mifflin
might
mighty
migrant
migrante
migranteng
migrasyon
migration
migrations
miguel
migz
miha
mika
mike
mikee
mikhail
mikro
mikrobiyolohiya
mikrobyo
mikroorganismo
mil
mila
milagro
milagros
milagrosa
milagrosong
milan
milano
milaor
milbern
mildred
mile
milenyo
miles
miley
milf
milimetro
militant
militante
militanteng
militar
military
milk
milky
mill
millan
millard
millennial
millennium
miller
million
millionaire
millions
mills
milo
milton
milwaukee
milya
milyang
milyon
milyones
milyong
mimaropa
mimi
min
mina
minaabot
minaadal
minaagi
minaako
minaakto
minaaplikar
minababa
minabagsak
minabagtas
minabale
minabali
minabalik
minabalyo
minabilog
minabulos
minadalagan
minadolok
minaduman
minagamit
minaganang
minagibo
minagikan
minahan
minahasa
minahasan
minahimo
minahiro
minaikot
minaj
minakapot
minakawsa
minalabac
minalampas
minalaog
minalataw
minaluwas
minamahal
minamansay
minamawot
minami
minana
minanang
minangkabau
minaoyon
minapalaen
minapanungod
minapondo
minapoon
minaporma
minapuon
minarango
minarepresentar
minaresulta
minas
minasagkod
minasaklaw
minasakop
minasalming
minasimbag
minasimbolo
minasunod
minasurunod
minatao
minatindog
minatogot
minatubod
minatugot
minatukdo
minatukoy
minauyon
mind
mindanao
mindanews
mindoro
minds
mindset
mine
mineral
minerva
mines
ming
minh
mini
minidbid
minilyon
minimidbid
minimirar
minimum
mining
miniseries
minister
ministers
ministeryo
ministro
ministrong
ministry
minneapolis
minnesota
minnie
minogue
minor
minore
minoridad
minorities
minority
minoriya
minoriyang
minorya
mins
minsan
minsk
mint
mintz
minuesa
minukna
minundag
minus
minute
minutes
minuto
minutong
minutos
mios
mir
mira
mirabel
miracle
miranda
mirasol
miraya
miri
miriam
mirror
mirrors
mis
misa
misamis
misch
mise
mision
misionero
misis
miski
mismo
mismong
misolas
miss
missile
missing
mission
missionaries
missionary
missions
mississippi
missouri
missy
mistake
mister
misteryo
misteryosong
mistiko
mistikong
mistral
mistress
mistri
mistrual
misuari
misyon
misyonaryo
misyonaryong
misyonero
mit
mitch
mitchell
mitigasyon
miting
mito
mitolohikal
mitolohiya
mitolohiyang
mitra
mitzi
miuccia
mix
mixed
mixture
miyagi
miyake
miyako
miyembro
miyembrong
miz
mk
ml
mla
mlle
mm
mmff
mmva
mn
mnet
mo
moa
mobile
mobimiento
mobimientong
mobimyento
mobo
mock
mockingbird
mod
moda
modang
mode
model
modeling
modelo
modelong
models
modern
modernismo
modernity
moderno
modernong
modi
modified
modo
module
mogadishu
mogta
mogul
mohamed
mohammad
mohammed
moira
moises
mojo
mok
moken
moklen
moksha
mol
molar
molave
moldenke
moldova
mole
molecular
molecule
molekula
molekulang
molekular
molina
molino
moll
molly
molo
mom
moma
moment
momento
momentong
moments
momentum
mommy
momoland
mon
mona
monaco
monahan
monako
monarkiya
monastery
monasteryo
monasteryong
monday
monde
mondo
moneda
monetary
money
mong
mongella
monghe
mongol
mongolia
mongolian
mongondow
monica
monico
monier
monique
monitor
monitoring
monk
monkayo
monkey
mono
monodon
monograph
monomero
monophyletic
monreal
monroe
monson
monsoon
monster
monsters
montan
montana
monte
monteclaro
montefiore
montenegro
montes
montessori
montevideo
montgomery
month
monthly
months
montpellier
montreal
monument
monumental
monumento
monumentong
monuments
moon
mooney
moonlight
moore
mop
mor
mora
moraceae
moral
morales
moralidad
morality
moran
more
moreau
morelos
moreno
morgan
mori
moriones
morissette
morley
mormon
mormonismo
mormons
morning
moro
moroccan
morocco
morong
morotai
morphological
morphology
morphosyntax
morpolohiya
morris
morrison
morrow
mortal
morte
morton
morus
mos
mosaic
moscow
moseley
moses
moske
mosku
moslem
mosley
mosque
mosquito
moss
most
mostly
mosyon
mot
mother
motherhood
mothers
motibasyon
motibo
motif
motilal
motion
motivation
moto
motor
motors
motorsiklo
motswana
motu
moulin
mount
mountain
mountaineer
mountains
mouse
moussavi
mouth
mouton
move
moved
movement
movements
moves
movie
moviemicro
movies
movimiento
moving
mozambique
mozart
mp
mph
mpo
mps
mr
mrs
ms
msgr
msn
msnbc
mt
mtv
mtvjapan
mtx
mu
muammar
mubarak
much
muchmusic
mucosa
mud
muebles
muerte
mug
mugabe
mughal
muh
muhammad
muhlach
muir
mujeres
mukha
mukna
muknang
mula
mulan
mulawin
mulberry
muli
muling
muller
multi
multilingual
multimedia
multiple
multiplikasyon
multiselular
multo
mumbai
mummies
mummy
mun
muna
munda
mundial
mundo
mungaw
munich
municipal
municipalities
municipality
munisipal
munisipalidad
munisipyo
munisipyong
munro
munti
munting
muntinlupa
murakami
mural
murcia
murder
murdered
murdoch
muriel
murik
muro
murphy
murray
murut
murutiko
musa
muscat
muscle
muse
museo
museong
museu
museum
museums
musharraf
mushroom
music
musica
musical
musicale
musician
musicians
musicline
musik
musika
musikal
musikang
musikero
musikerong
musikindustrie
musiko
musk
muslim
muslims
mussolini
must
mustafa
mutilation
muto
mutual
mutya
muya
muyang
mv
mvp
mw
mwave
mwebles
mx
my
myanmar
myembro
myembrong
myerkoles
myers
myrna
myrtaceae
myrtle
myself
myspace
mysteries
mysterious
mystery
mystic
myth
mythology
myths
myung
myx
mɑ
mə
n
na
naaabot
naaaraman
naabot
naacp
naagaw
naagi
naagihan
naagom
naako
naapektaran
naapektuhan
naapod
naaprobaran
naaraman
naaresto
naba
nababa
nababago
nababakal
nababanaag
nababanga
nababantog
nabadil
nabago
nabakal
nabaktas
nabalik
nabalo
nabanga
nabanggit
nabansagan
nabantog
nabareta
nabari
nabasa
nabawi
nabibilang
nabibilog
nabibisto
nabibistong
nabigla
nabilanggo
nabilog
nabisto
nabistong
nabotohan
nabua
nabubuhay
nabugtak
nabuhay
nabulivou
nabulos
nabunga
nabunturan
nabuo
nabutwa
nach
nacio
nacion
nacional
nacionalista
naciones
nada
nadadagdagan
nadadakop
nadadangog
nadadaog
nadadara
nadagdagan
nadagos
nadakop
nadakula
nadal
nadalihig
nadamay
nadangog
nadaog
nadara
nadestino
nadia
nadine
nadiskobre
nadiskubre
nadistroso
nadu
nadugangan
nadukayan
naeeksperyensiahan
naeksperyensiahan
naelehir
naelihir
naenot
naerido
naestablisar
nag
naga
nagaabot
nagaatubang
nagaba
nagadal
nagadan
nagadanan
nagagadan
nagagamit
nagagapos
nagamit
nagarjuna
nagasaki
nagawadan
nagawaran
nagba
nagbaba
nagbabago
nagbabagong
nagbabakal
nagbabaklay
nagbabalagon
nagbabalik
nagbabantay
nagbabanwa
nagbabasa
nagbabawal
nagbabayad
nagbabayle
nagbago
nagbagsak
nagbakal
nagbaklay
nagbalangibog
nagbali
nagbalik
nagbalyo
nagbanwa
nagbareta
nagbaya
nagbayad
nagbayle
nagbebenta
nagbenta
nagbentang
nagbiahe
nagbibilang
nagbibilog
nagbibisita
nagbida
nagbilog
nagbisita
nagbiyahe
nagbobolos
nagboboot
nagboses
nagboto
nagbu
nagbubugtak
nagbubuhay
nagbubukas
nagbubulos
nagbubunga
nagbuburak
nagbugtak
nagbuhay
nagbukas
nagbunga
nagbungkaras
nagbungsod
nagburutwa
nagbutas
nagbutwa
nagbuyagyag
nagbwelta
nagbyahe
nagcarlan
nagdadagdag
nagdadakol
nagdadakula
nagdadakulang
nagdadalagan
nagdadalan
nagdadanay
nagdadangadang
nagdadangog
nagdadara
nagdagdag
nagdakit
nagdakol
nagdakul
nagdakula
nagdalagan
nagdanay
nagdangtol
nagdara
nagdatong
nagdebut
nagdebyu
nagdedepende
nagdedesisyon
nagdeklara
nagdemitir
nagdesenyo
nagdesidir
nagdesisyon
nagdisenyo
nagdonar
nagdudulag
nagduduman
nagdugang
nagdulag
nagdulok
nagdulot
nagduman
nagdurulag
nageerok
nageestar
naggadan
naggagamit
naggagarantiya
naggamit
naggana
nagganap
nagganar
naggawad
naggibo
naggigibo
naggigikan
naggikan
naggiya
naggraduar
naggraduwar
naggradwar
naggugurang
nagguno
naghagad
naghahagad
naghahalat
naghahale
naghahali
naghahaloy
naghahaman
naghahanap
naghahanggilid
naghahapot
naghahatod
naghahayag
naghakot
naghale
naghali
naghaloy
naghaman
naghanap
naghapot
naghayag
naghehelang
nagheheling
nagheheras
nagheras
naghihibi
naghihiling
naghihimo
naghihinanyog
naghihingagdan
naghihingako
naghihingoa
naghihingoang
naghihiras
naghihiro
naghihirong
naghimo
naghingoa
naghingoang
naghira
naghiro
naghohona
naghubo
naghugot
naghugpa
naghuhulit
naghuhuna
naghuhurot
naghuros
nagi
nagibo
nagibong
nagigibo
nagigibong
nagigin
nagiging
nagigirumdoman
nagin
naging
naginibo
naginibohan
nagka
nagkaag
nagkaaki
nagkagaradan
nagkahelang
nagkaigwa
nagkaigwang
nagkainteres
nagkakabaranga
nagkakahalagang
nagkakahoy
nagkakaiba
nagkakaigwa
nagkakaipo
nagkakakan
nagkakalaenlaen
nagkakamang
nagkakan
nagkakanta
nagkakapirang
nagkakapot
nagkakarawat
nagkakasararo
nagkakasararong
nagkakawat
nagkakawsa
nagkaklase
nagkamit
nagkampanya
nagkampi
nagkandidato
nagkanta
nagkapira
nagkapirang
nagkapot
nagkasala
nagkawat
nagkawsa
nagkikilyab
nagklase
nagkokolor
nagkokonsentrar
nagkokonsumo
nagkokontra
nagkokontribwir
nagkokontrol
nagkomento
nagkondukta
nagkondusir
nagkonklusyon
nagkontra
nagkontribwir
nagku
nagkua
nagkuang
nagkukua
nagkukulang
nagkukurahaw
nagkurit
nagkusog
nagla
naglaag
naglaban
naglakaw
naglakop
naglalaad
naglalaba
naglalaban
naglaladawan
naglalakaw
naglalakop
naglalaman
naglalangkaw
naglalangoy
naglalaog
naglalaom
naglalataw
naglalayog
naglangkaw
naglansar
naglaog
naglaom
naglapigot
naglataw
naglawig
naglayag
nagle
naglibot
nagligad
nagligtas
naglilibot
naglilikay
naglilingkod
nagliliwanag
nagliliwat
naglingkod
naglipat
naglitik
nagluluto
nagluluwas
nagluluya
naglusob
nagluwas
nagluya
nagmamaigot
nagmamakolog
nagmamasid
nagmamato
nagmamawot
nagmana
nagmarka
nagmawot
nagmomokna
nagmukna
nagngangaran
nagngata
nagngisi
nagooperar
nagoya
nagpa
nagpabantog
nagpabisto
nagpadagos
nagpadakula
nagpadalagan
nagpadara
nagpagibo
nagpahayag
nagpaheling
nagpahiling
nagpahiro
nagpahunod
nagpakasal
nagpakosog
nagpakusog
nagpalagda
nagpalis
nagpaluwas
nagpamidbid
nagpangyari
nagpapa
nagpapaabot
nagpapabakal
nagpapabanaag
nagpapadagos
nagpapadakula
nagpapadalagan
nagpapadanay
nagpapadara
nagpapagirumdom
nagpapahayag
nagpapaheling
nagpapahiling
nagpapahingalo
nagpapalakop
nagpapaliwanag
nagpapaluwas
nagpapamidbid
nagpapangyari
nagpapangyaring
nagpaparisa
nagpapartisipar
nagpapasalamat
nagpapatalubo
nagpapatos
nagpapatotoo
nagpapel
nagpaplano
nagpapraktis
nagpartisipar
nagpasa
nagpasabong
nagpasar
nagpasiring
nagpatindog
nagpatogdok
nagpatotoo
nagperporm
nagpili
nagpinta
nagpipinta
nagpirirma
nagpirit
nagpirma
nagpirmi
nagplano
nagpondo
nagpoon
nagpopoon
nagpoporma
nagpoprobar
nagpoprodusir
nagpoprogreso
nagpoprotehir
nagporma
nagpraktis
nagprobar
nagprodusir
nagprodyusir
nagproponer
nagproprodusir
nagprotesta
nagpublikar
nagpukaw
nagpuli
nagpundar
nagpundo
nagpuon
nagpupublikar
nagpupunsionar
nagpupuon
nagpuputik
nagputok
nagrayo
nagrebelde
nagrekord
nagreport
nagrepresentar
nagrereklamo
nagrerepresenta
nagrerepresentar
nagreresibi
nagreresulta
nagresibe
nagresibi
nagresulta
nagretiro
nagribay
nagriribay
nagruluwas
nagsa
nagsabi
nagsabing
nagsabrit
nagsagibo
nagsakat
nagsakay
nagsakop
nagsakyada
nagsali
nagsalida
nagsambit
nagsanga
nagsangat
nagsangle
nagsapo
nagsara
nagsaro
nagsasabi
nagsasabing
nagsasadiring
nagsasagibo
nagsasakit
nagsasamba
nagsasapo
nagsasaray
nagsasarig
nagsasayuma
nagsayuma
nagsayumang
nagserbe
nagserbeng
nagserbi
nagserbing
nagserbisyo
nagseselebrar
nagseserbe
nagseserbeng
nagseserbi
nagseserbing
nagsibot
nagsikat
nagsimbag
nagsirbe
nagsirbeng
nagsirbi
nagsirbing
nagsisimbag
nagsisimbolo
nagsisirbe
nagsisirbeng
nagsisirbi
nagsisirbing
nagsosolo
nagsosolong
nagsuko
nagsulot
nagsumpa
nagsunod
nagsuporta
nagsurat
nagsurunod
nagsusugpon
nagsusuherir
nagsusukol
nagsusulot
nagsusunod
nagsusuplay
nagsusuporta
nagsusuportar
nagsusurat
nagsusuway
nagsuway
nagsuwayan
nagswestyon
nagta
nagtaas
nagtabang
nagtabo
nagtago
nagtala
nagtalikod
nagtalubo
nagtama
nagtampok
nagtanda
nagtangro
nagtao
nagtaong
nagtapos
nagtapsok
nagtaram
nagtatabang
nagtatago
nagtatakod
nagtatalubo
nagtatalubong
nagtatampok
nagtatangro
nagtatao
nagtataong
nagtatapos
nagtataram
nagtatata
nagtatau
nagtatrabaho
nagtatrabahong
nagtau
nagtener
nagtindog
nagtipon
nagtipunan
nagtiripon
nagtitimbang
nagtitinda
nagtitindog
nagtitios
nagtitipon
nagtitiripon
nagtogdas
nagtogdok
nagtogot
nagtokda
nagtokdo
nagtolod
nagtotogot
nagtotokdo
nagtrabaho
nagtratrabaho
nagtu
nagtubod
nagtuga
nagtugdas
nagtugdok
nagtugot
nagtugpa
nagtukaw
nagtukdo
nagtulod
nagtumang
nagtutok
nagtutubo
nagtutubod
nagtutugma
nagtutugot
nagtutukaw
nagtutukdo
nagtutukoy
nagtutulod
nagtuturog
naguen
naguguno
nagugutom
naguilian
naguno
nagustohan
nagwalat
nagyeyelong
nah
nahahadit
nahahaloy
nahahaman
nahahanap
nahahangganan
nahale
nahaloy
nahaman
nahanap
naheheling
naheling
nahihiling
nahihimo
nahiling
nahimo
nahimong
nahira
nahoholog
nahuatl
nahuhulog
nahulaan
nahulog
nahuring
nai
naic
naidugang
naiiba
naiibang
naiintindihan
naiisip
naikaag
naikurit
naimbento
naimbitaran
naimbwelto
naimpluwensiahan
naimpluwensiyahan
naimpluwensya
naimpluwensyahan
naimprenta
nainaan
nainot
nainspirar
naipahiling
naipasa
naipublikar
nairekord
nairobi
naisapublikar
naisip
naisipan
naisurat
naisuway
naitala
naitampok
naitatakod
naitindog
naito
naitogdas
naitugdas
naitugdok
naive
naka
nakaaapektar
nakaabot
nakaag
nakaagi
nakaagid
nakaaging
nakaantos
nakaapektar
nakaapekto
nakaatubang
nakaayon
nakabali
nakabalik
nakabase
nakabatay
nakabenta
nakabugkos
nakabugtak
nakadadanyar
nakadamay
nakadangog
nakadepende
nakadirekta
nakadiskobre
nakadukay
nakadukot
nakadulag
nakaeeksperyensia
nakaeksperyensia
nakaestar
nakagagadan
nakagamot
nakagibo
nakaguhit
nakaguno
nakahaman
nakahampang
nakaheling
nakahigda
nakahiling
nakahimo
nakaiba
nakaimpluwensia
nakaisip
nakaistar
nakaka
nakakaabot
nakakaag
nakakaagid
nakakaapektar
nakakaapekto
nakakaaram
nakakabit
nakakaeksperyensia
nakakagadan
nakakagibo
nakakaguno
nakakaheling
nakakakan
nakakakua
nakakalason
nakakalihis
nakakamate
nakakamtan
nakakan
nakakanompong
nakakanood
nakakapukaw
nakakaraot
nakakasabot
nakakatabang
nakakataram
nakakaulakit
nakakokontribwir
nakakontribuwir
nakakontribwir
nakakua
nakakuang
nakalaag
nakalakip
nakalakop
nakalalabi
nakalaog
nakalatag
nakaligtas
nakalihis
nakalista
nakalubong
nakalugar
nakalusot
nakaluwas
nakamamate
nakamate
nakamidbid
nakamit
nakamogtak
nakamtan
nakamugtak
nakamukna
nakanompong
nakanood
nakaolang
nakaoogmang
nakaoolang
nakapabakal
nakapag
nakapalibot
nakapaluwas
nakapamugtak
nakapangagom
nakapasar
nakapokus
nakapukaw
nakar
nakaraot
nakararaot
nakarehistro
nakarekord
nakaresibe
nakaresibi
nakasabot
nakasakay
nakasal
nakasali
nakasentro
nakasikwit
nakasugpon
nakasulot
nakasurat
nakasuway
nakatabang
nakatago
nakatahob
nakatakod
nakatala
nakatanom
nakatao
nakatapos
nakatatabang
nakatatahob
nakate
nakatindog
nakatipon
nakatukaw
nakatutok
nakawarak
nakawsa
naked
naki
nakikabtang
nakiki
nakikikabtang
nakikilaban
nakikimaherak
nakikipag
nakikipaglaban
nakikipagtabangan
nakikisumaro
nakipag
nakipaglaban
nakipagtabangan
nakita
nakokolgan
nakolekta
nakolor
nakomiter
nakompleto
nakoronahan
nakotkot
nakpil
nakua
nakuang
nakukua
nakukuan
nakukuang
nakukulong
nakukumpara
nakulong
nakumpleto
nal
nalaba
nalagda
nalakop
nalalaen
nalalain
nalalamos
nalalapa
nalamos
nalampasan
nalangkaw
nalaog
nalibot
nalilikosan
nalilingawan
naliliwat
nalingawan
nalista
naliwat
nalubog
nalubong
nalugadan
nalulugar
nalunod
naluwas
nam
namahala
namamahala
namamahalang
namamantinir
namamanwaan
namamate
namamatean
namamati
namamayo
namamayong
naman
namantinir
namasdan
namate
namatean
namayo
name
named
namemeligro
namemeligrong
names
namibia
namidbid
namimidbid
namimiligro
namimiligrong
naming
namit
namo
namogtak
namok
namokna
namomo
namomogta
namomogtak
namomogtakan
namomokna
namomoon
namomoot
namomootan
namomotan
namondag
namoon
namoot
namotan
namugtak
namukna
namumugtak
namumugtakan
namumuhay
namumurak
namunda
namundag
namundagan
namuno
nan
nana
nanagboan
nanahon
nanaog
nanay
nancy
nanfadima
nang
nangagin
nangahulogan
nangangahulogan
nangangahulugan
nangangahulugang
nangangaipo
nangangaipuhan
nangangaputan
nangaranan
nangawat
nangengenot
nangenot
nangga
nanggad
nanggagana
nanggana
nangganang
nanggarana
nangingibabaw
nanginginot
nanginot
nangka
nangorogna
nangorognang
nangungurog
nangurog
nangyari
nangyaring
nangyayari
nangyayaring
nani
naninindogan
naniniwala
nanjing
nano
nanodan
nanombrahan
nanominar
nanompongan
nanonodan
nanonompongan
nanonongod
nanudan
nanuga
nanumpa
nanumpongan
naobserbahan
naoki
naomaw
naomi
naoogma
naoonabihan
naordenan
nap
napa
napag
napairarom
napakarhay
napalagda
napalakop
napalaman
napalilibotan
napalis
napaluwas
napangagom
napangyari
napano
napapaatubang
napapagdolonan
napapalaen
napapalain
napapalaman
napapalibotan
napapalibutan
napapaluwas
napapatos
napara
napasa
napasairarom
napatalsik
napatindog
napatunayan
napetsahan
napili
napiling
napipiritan
napipisan
napiritan
napirmahan
naples
napo
napoca
napoleon
napoles
napoli
napondo
napoon
napoporma
naporma
napreso
naprodusir
napu
napublikar
napuho
naputol
nar
nara
naragba
narangha
naraot
nararaot
narasimha
naratibo
narayana
narciso
narda
narealisar
narekord
naresibe
naresibi
naresolberan
naresulta
naribayan
nariribok
naririsa
narisa
narita
narogba
naroromdoman
narra
narrative
narratives
narrator
nars
narugba
narumpag
narvacan
nas
nasa
nasaan
nasabi
nasabing
nasabotan
nasakop
nasal
nasala
nasambit
nasambitan
nasanglean
nasaray
nasasabi
nasasabotan
nasasabutan
nasasakitan
nasasakop
nasasakupan
nasasala
nasasambit
nasasambitan
nasasaray
nasentensyahan
nasesentro
nash
nashville
nasi
nasikop
nasikwit
nasional
nasipit
nasirbe
nasirbeng
nasirbing
nassar
nasser
nast
nasugbu
nasulo
nasumpongan
nasundan
nasupil
nasurat
nasusukol
nasusurat
nasususog
nasusuway
nasyon
nasyonal
nasyonalidad
nasyonalismo
nasyonalista
nasyun
nasyunal
nat
nata
nataas
natabang
natad
natada
natadang
natakot
natala
natalia
natalie
natalubo
natamaan
natampok
natanom
natao
nataon
nataong
natapos
natasha
natatada
natatadang
natatagong
natatahoban
natatahuban
natatakod
natatakot
natatakupan
natatala
natatandaan
natatanga
natatanging
natatapos
natatawan
natataya
natawan
nate
nathalie
nathan
nathaniel
natibo
natibong
natigpo
natin
natindog
nation
national
nationale
nationalgeographic
nationalism
nationalist
nationality
nations
nationwide
natipon
natitipon
native
natividad
nativity
nato
natogdas
natogdok
natoka
natokahan
natomtom
natong
natongod
natori
natubo
natugdas
natugdok
natunaw
natur
natura
natural
naturales
naturalesa
naturalist
naturalista
naturang
nature
natutunaw
naubos
naujan
naunambitan
nauso
nautsan
nauungis
nauvoo
nava
navadurga
navagraha
navajo
naval
navalny
navaratri
navarre
navarrete
navarro
naver
navidad
navodaya
navotas
navy
naw
nawa
nawalat
nawara
nawaran
nawawalat
nawawara
nawawaran
nawawarang
nawen
nawon
nay
nayon
nazarene
nazareno
nazareth
nazi
naziha
nb
nba
nbc
nbi
nc
ncbi
ncca
nchez
ncr
nct
nd
ndchen
ndez
ndfp
ndor
ndrrmc
ndtv
ne
neal
neale
neapolitan
near
nearly
nebraska
nebula
neci
neck
ned
nederlands
nee
need
needed
needs
negatibo
negatibong
negeri
negosasyon
negosyante
negosyanteng
negosyo
negosyong
negotiations
negra
negrense
negrito
negritos
negro
negros
nehru
nei
neil
neill
neither
nel
nellie
nelly
nelson
nemtsov
nen
nena
nene
neneng
neo
neoklasikal
neolitiko
neon
nepal
nepali
nephi
nephita
nepomuceno
neptune
neptuno
nerbios
nerbyos
nere
neri
nero
nerve
nerves
nervous
nes
nest
nesthy
nestle
nestor
net
netanyahu
netflix
netherlands
netizens
network
networking
networks
neubauer
neue
neural
neuron
neurons
neuroscience
neutral
neutron
nevada
never
new
newcomer
newcott
newcrop
newest
newfoundland
newly
newman
newnownext
news
newsbank
newsbreak
newscast
newsday
newsen
newsflash
newsinfo
newsis
newsletter
newspaper
newspapers
newsroom
newsview
newsweek
newswire
newton
newyorker
next
nez
nfl
ng
nga
ngabil
ngaju
ngala
ngalan
ngalas
ngan
ngana
ngane
nganeng
ngangalasan
ngani
nganing
ngapit
ngaragngag
ngaran
ngaranan
ngarang
ngarig
ngaros
ngat
ngata
ngaw
ngawngaw
ngaya
ngayon
ngel
ngeles
ngimot
nginaranan
ngipon
ngirit
ngo
ngog
ngohod
ngona
ngong
ngonian
ngonyan
ngos
ngoso
ngu
nguhod
nguna
ngunit
ngunyan
ngunyang
ngurah
nguso
nguyan
nguye
nh
nha
nhcp
nhi
nhk
nhs
ni
nia
niagara
niamo
niang
nias
niato
niatong
nica
nicanor
nicaragua
nice
nicholas
nichols
nick
nickel
nickelodeon
nicki
nickname
nicky
niclas
nico
nicola
nicolas
nicole
nicolson
nicomedes
nid
nida
nidal
nidea
nido
nie
niei
niels
nielsen
nierva
nieto
nieves
nig
nigel
niger
nigeria
nigerian
nigerianong
nigerya
night
nightingale
nightmare
nights
nigsberg
nih
nihon
nijhoff
nike
niki
nikki
nikko
nikolai
nikolaus
nil
nila
nilalang
nilalaog
nile
niles
nilo
niluwas
nimo
nin
nina
ninda
nindang
nindo
nindong
nine
nineteenth
ning
ningning
nini
ninja
nino
ninombrahan
ninong
ninoy
ninsi
nintendo
ninth
ninuno
nio
niosh
nipa
nippon
nirerepresentar
niribayan
nis
nishioka
nit
nito
nitrogen
nitroheno
niwang
nixon
niya
niyang
niyato
niyo
niyog
niziu
nj
nl
nla
nlc
nlm
nm
nmawd
nmdg
nme
nmhli
nndb
no
noa
noaa
noah
noam
noarin
nob
nobel
nobela
nobelang
nobelista
nobelistang
nobelprize
nobenaryo
nobili
noble
nobleng
nobody
nobya
nobyembre
nobyo
noc
noche
nocturnal
nod
node
nods
noe
noel
noemi
nog
nogueira
noi
noir
noise
nok
nolan
nolfi
noli
nom
nombrado
nombramiento
nombre
nomenclature
nomenklaturang
nominado
nominados
nominal
nominasyon
nominasyons
nominated
nomination
nominations
nominee
nominees
noms
non
none
nonfiction
nong
nonoy
noon
noong
nor
nora
norala
norberto
nordic
nordyke
norma
normal
norman
normandy
norse
norte
norteng
north
northeast
northeastern
northern
northwest
northwestern
norton
norway
norwegian
norzagaray
nos
nosaka
nose
nostradamus
nosyon
not
nota
notable
notableng
notas
notasyon
note
notebook
noted
notelist
noten
notes
nothing
notice
noticia
noticias
notorious
notre
nottingham
nouveau
nov
nova
novak
novaliches
novel
novela
novelist
novelists
novella
novels
november
novo
now
nowhere
nown
noy
npa
npr
nr
nrj
ns
nsa
nscb
nso
nsw
ntara
ntgen
ntr
nu
nuanoy
nuarin
nuclear
nucleic
nue
nueba
nuestra
nuestro
nueva
nuevo
nui
nuklear
nukleyar
nukleyi
nukleyikong
nukleyus
num
number
numbers
numerado
numeral
numerikal
numero
numerong
numerous
nun
nungka
nungkang
nupedia
nur
nuremberg
nurse
nursery
nurses
nursing
nus
nusa
nusantara
nut
nutrient
nutrisyon
nutrition
nutritional
nuts
nuweba
nv
nweba
ny
nya
nyang
nyaon
nyato
nyatong
nyc
nydailynews
nye
nyebe
nyi
nylon
nymag
nyog
nypb
nyregion
nytimes
nyu
nz
o
oak
oakland
oas
oasis
oath
oaxaca
ob
obama
obando
obaryo
obe
obhetibo
obheto
obhetong
obias
obispo
obispong
obituaries
obituary
object
objects
oblast
obligado
obligasyon
obligatoryo
obra
obrang
obras
obrero
obserbar
obserbasyon
obserbatoryo
observations
observatorio
observatory
observer
obsessed
obsession
oc
oca
ocampo
occidental
occupation
occupational
occurs
ocean
oceania
oceanic
oceans
oceanya
och
ochs
oclc
ocr
oct
octoarts
october
octobre
od
oda
odd
ode
odessa
odia
odin
odiongan
odisha
odnb
odok
odorata
odto
odyssey
oe
oecd
oed
of
off
offer
offering
offers
office
officer
officers
official
officially
officials
offshore
offspring
ofi
oficial
ofisyal
often
og
ogama
ogbon
ogbos
ogdong
ogid
ogie
ogma
ogmahon
ogob
oh
ohchr
ohio
oi
oid
oil
ois
oise
ojeda
ok
okasyon
okay
okey
okinawa
oklahoma
okra
oksidasyon
oksiheno
oksihenong
okt
oktobre
oktubre
okupado
okupar
okupasyon
okurigana
ol
ola
olan
olandes
olang
olangon
olay
olayan
old
older
oldest
oldfield
olga
oli
olimpiko
olimpikong
olimpyada
olitorius
oliva
olive
oliveira
olivelle
oliver
oliveros
olivia
olivier
olivierawards
olod
olof
olog
olongapo
olor
olsen
olson
oltan
oltanan
olvidado
olympia
olympic
olympics
om
oma
omahan
oman
omar
omaw
omboy
ombudsman
omg
omnibus
omniglot
on
once
ondoy
one
onepage
ones
onesto
ong
onhan
onion
online
only
ono
onra
onrahan
onrang
ons
onse
onseng
ontario
ontok
onu
onwards
onyok
oogid
ookupar
oolay
oolayan
ooma
ooperar
oorganisa
oorganisar
oorgolyo
oorog
ooswag
ooyon
op
open
opening
openleaks
openlibrary
opens
openstreetmap
openurl
opera
operador
operar
operasyon
operation
operational
operations
operator
opinion
opinyon
opisina
opisyal
opisyales
opisyalmente
opisyalmenteng
opisyo
opium
opm
opon
oportunidad
oposisyon
opportunity
opposition
oprah
opsion
optics
optika
optikal
optimus
option
opus
or
ora
orador
oragon
oral
oran
orang
orange
orani
oras
orasa
orawang
orbit
orbita
orbital
orchestra
orchid
orden
order
orders
ordinahan
ordinance
ordinansa
ordinansang
ordinary
ordinaryo
ordinaryong
ordinasyon
ordre
ore
oregano
oregon
oreta
org
organ
organic
organicfacts
organiko
organikong
organisa
organisado
organisadong
organisador
organisar
organisaron
organisasyon
organisasyonal
organisation
organismo
organismong
organization
organizations
organizer
organizing
organo
organong
orgasm
orgasmo
orgulyo
ori
oricon
orient
oriental
orientasyon
orientation
oriente
oriented
orig
origanum
origen
origin
original
originally
originals
origins
orihinal
orihinalmente
oring
orion
oripon
orkestra
orkids
orlando
orleans
ormoc
ornamental
oro
orog
orolay
oroquieta
orosa
oroyon
orsay
orson
ortako
ortega
orthodox
orthography
ortigas
ortiz
ortodoks
ortodokso
ortograpiya
ortograpiyang
os
osa
osaka
osama
osborne
oscar
oscars
osen
osetya
osip
osipon
oskar
oslo
osmen
osmena
oso
osol
ospital
ossetia
ost
ostrich
oswag
oswald
osyanya
ot
otel
other
others
otley
otob
oton
otoridad
otro
otros
ots
otso
ottawa
ottesen
otto
ottobre
ottoman
ou
ouattara
oup
our
ours
ourselves
out
outbreak
outer
outline
outlook
output
outreach
outside
outstanding
ov
ovarian
oven
over
overall
overfishing
overseas
overview
ovulation
owen
owens
owl
own
owned
owners
ownership
oxalidales
oxford
oxide
oxygen
oy
oya
oye
oyon
oyonan
oyster
oz
ozaki
ozamiz
ozawa
ozone
p
pa
paa
paabante
paabot
paabuton
paadalan
paadalang
paagi
paaging
paalam
paamihanan
paano
paanong
paaram
pababa
pabalagbag
pabalik
pabalikbalik
pabaya
pabayaan
pabilog
pabisto
pablo
pabor
paborableng
paborito
paboritong
pabrika
pac
pace
paciano
pacific
pacifico
pacita
pack
package
packages
packaging
paco
pacquiao
pad
pada
padaba
padagos
padakol
padakulaon
padalagan
padalan
padang
padangat
padding
pader
pades
padi
padian
padilla
pading
padis
padma
padoe
padre
padua
padudumanan
padukone
padukot
paduman
padurunongan
padusa
paeksibit
paella
paete
pag
pagabat
pagadian
pagal
pagan
paganong
pagarayonan
pagasa
pagbaba
pagbabados
pagbabago
pagbabagong
pagbabalik
pagbabareta
pagbabawal
pagbabayad
pagbado
pagbados
pagbago
pagbagsak
pagbaha
pagbakal
pagbaklay
pagbalad
pagbalangibog
pagbalga
pagbali
pagbalik
pagbalo
pagbalos
pagbalyo
pagbanga
pagbantay
pagbanwa
pagbasa
pagbasol
pagbawal
pagbawas
pagbawi
pagbayad
pagbaybay
pagbayle
pagbayli
pagbebendisyon
pagbenta
pagbiahe
pagbiklad
pagbilang
pagbilao
pagbilog
pagbisita
pagbista
pagbisto
pagbiyahe
pagboboksing
pagbobomba
pagboksing
pagbolong
pagbolos
pagbomba
pagboot
pagboses
pagboto
pagbubukas
pagbubunyag
pagbugtak
pagbuhay
pagbukas
pagbulong
pagbulos
pagbungkaras
pagbungsod
pagbuntog
pagbunyag
pagbuo
pagbusol
pagbutong
pagbutwa
pagbuyagyag
pagbyahe
pagdagdag
pagdakitaramon
pagdakol
pagdakop
pagdakula
pagdalagan
pagdalan
pagdalisay
pagdamot
pagdangog
pagdara
pagdating
pagdatong
pagdayo
pagdebosyon
pagdedebosyon
pagdedesisyon
pagdeklara
pagdepensa
pagdesenyo
pagdesinyo
pagdesisyon
pagdeterminar
pagdikit
pagdisenyo
pagdiskubre
pagdistribwir
pagdodoon
pagdodorog
pagdolonan
pagdrowing
pagduda
pagdudurog
pagdugang
pagdugo
pagdukot
pagdulag
pagduman
pagdurog
pagdusa
page
pageant
pages
pagewanted
paggadan
paggagamit
paggalang
paggamit
paggana
pagganap
paggasto
paggatok
paggawad
paggawe
paggibo
paggibong
paggigibo
paggirumdom
paggiya
paggogobyerno
paggugrupo
pagguhit
pagguno
paggurang
paghabo
paghabol
paghabon
paghadok
paghagad
paghahanap
paghaharong
paghalat
paghale
paghali
paghaloy
paghaman
paghanap
paghanapbuhay
paghanga
paghangos
paghapot
pagharongon
paghatod
paghayag
pagheling
pagheras
paghihingako
paghihingoa
paghihingoang
paghihira
paghiling
paghimo
paghinanapos
paghinanyog
paghinapos
paghingoa
paghingoang
paghingowa
paghira
paghirahay
paghiras
paghiro
paghirong
paghokom
paghona
paghorophorop
paghugas
paghugot
paghugpa
paghuhugas
paghuhukom
paghuhulit
paghulog
paghuna
paghuros
paghusgar
pagi
pagigin
pagiging
pagitan
pagka
pagkaag
pagkaaga
pagkaaki
pagkaaram
pagkabanggi
pagkabaranga
pagkabigla
pagkabilog
pagkabuhay
pagkadagka
pagkadaing
pagkadakul
pagkadakula
pagkadaog
pagkadiskobre
pagkaeksakto
pagkagaba
pagkagadan
pagkagamiaw
pagkagana
pagkagibo
pagkagurang
pagkagutom
pagkahaman
pagkaherak
pagkahoben
pagkahulog
pagkaigwa
pagkaka
pagkakaagid
pagkakabanga
pagkakaiba
pagkakaigwa
pagkakaintindi
pagkakakilanlan
pagkakalaen
pagkakalain
pagkakalinyada
pagkakamukna
pagkakan
pagkakang
pagkakaoyon
pagkakapantay
pagkakaparehas
pagkakapareho
pagkakasala
pagkakasararo
pagkakasunod
pagkakataon
pagkakatood
pagkakombertir
pagkakontento
pagkakua
pagkakulong
pagkalaenlaen
pagkalaglag
pagkalain
pagkalakaga
pagkalalaki
pagkalantad
pagkalapa
pagkalihis
pagkaliwat
pagkalkula
pagkalugi
pagkamapag
pagkamit
pagkamoot
pagkamukna
pagkamundag
pagkamuot
pagkani
pagkaniaki
pagkanood
pagkanta
pagkaongis
pagkaoroyon
pagkapadi
pagkapantay
pagkapantaypantay
pagkapara
pagkaporma
pagkapot
pagkapresidente
pagkapreso
pagkaprominente
pagkarahay
pagkaraot
pagkaribong
pagkarigos
pagkarkulo
pagkasabot
pagkasangkap
pagkasararo
pagkasaserdote
pagkasaserdoteng
pagkasenador
pagkasinabotan
pagkasudya
pagkasulo
pagkasunod
pagkasunodsunod
pagkasyudad
pagkatakot
pagkatapos
pagkatawo
pagkatimbang
pagkatratong
pagkatugdas
pagkatunaw
pagkawara
pagkawat
pagkidnap
pagkikitoan
pagklase
pagkolekta
pagkolonya
pagkondukta
pagkonektar
pagkonsumo
pagkontra
pagkontrol
pagkoordinar
pagkritika
pagkua
pagkukulang
pagkukumparar
pagkultibar
pagkurahaw
pagkusog
pagkuyog
pagla
paglaag
paglaba
paglaban
pagladawan
paglaglag
paglakaw
paglakop
paglaladawan
paglalakbay
paglalang
paglangkaw
paglangoy
paglaog
paglaom
paglapas
paglapigot
paglas
paglataw
paglayag
paglayog
paglibot
pagligtas
paglihis
paglikay
paglilingkod
pagliliwat
paglingawan
paglinig
paglipas
paglipat
paglitik
pagliwat
paglubog
paglubong
paglukso
pagluluto
paglusob
pagluto
pagluwas
pagluya
pagmaan
pagmaigotan
pagmakolog
pagmakulog
pagmaltrato
pagmamaigot
pagmamato
pagmanehar
pagmaneho
pagmansay
pagmantener
pagmantinir
pagmasid
pagmata
pagmate
pagmateng
pagmati
pagmato
pagmawot
pagmidbid
pagmimina
pagmina
pagmisa
pagmokna
pagmomodelo
pagmukna
pagmundo
pagnamit
pagnegosyo
pagnenegosyo
pagngalas
pagngaran
pagngata
pagngisi
pagnombra
pagoda
pagpa
pagpaabot
pagpabakal
pagpabantog
pagpabaya
pagpadagos
pagpadakul
pagpadakula
pagpadalagan
pagpadanay
pagpadangat
pagpadara
pagpagantad
pagpagayon
pagpahayag
pagpaheling
pagpahiling
pagpahiwas
pagpakakan
pagpakaray
pagpakarhay
pagpakusog
pagpalagda
pagpalakop
pagpalayog
pagpalis
pagpaliwanag
pagpalod
pagpaluwas
pagpamidbid
pagpanday
pagpangadye
pagpangataman
pagpaorog
pagpaotob
pagpapadagos
pagpapadalagan
pagpapadanay
pagpapahalaga
pagpapahayag
pagpapahiling
pagpapakarhay
pagpapakusog
pagpapalis
pagpapaliwanag
pagpapaluwas
pagpapasabot
pagpapel
pagpaputok
pagpara
pagparambong
pagparaon
pagpasa
pagpasakit
pagpasalamat
pagpasale
pagpasiring
pagpasuso
pagpasyar
pagpatalsik
pagpatalubo
pagpatindog
pagpauswag
pagpenetrasyon
pagpili
pagpinta
pagpintura
pagpipilang
pagpipilian
pagpipinta
pagpipintura
pagpirit
pagpirma
pagplano
pagpondo
pagpoon
pagpopoon
pagporma
pagpraktis
pagpreserbar
pagprobar
pagprodusir
pagprodyusir
pagproseso
pagprotehir
pagprotesta
pagpublikar
pagpugol
pagpuho
pagpukaw
pagpuli
pagpundo
pagpunsionar
pagpuon
pagputok
pagputol
pagrahay
pagranga
pagraot
pagrasay
pagrekord
pagreparo
pagrepaso
pagreprodusir
pagresolber
pagrespeto
pagretiro
pagretrato
pagreynar
pagribay
pagrokyaw
pagromdo
pagromdom
pagrorogaring
pagrumdom
pagrurugaring
pagsabat
pagsabi
pagsabog
pagsabot
pagsadiri
pagsaginsagin
pagsakat
pagsakay
pagsakit
pagsakop
pagsakyada
pagsalak
pagsalakay
pagsali
pagsalida
pagsaligsig
pagsalin
pagsamba
pagsambit
pagsangat
pagsangaw
pagsangle
pagsangli
pagsanjan
pagsara
pagsaralak
pagsararo
pagsaray
pagsaro
pagsaroon
pagsasadiri
pagsasahimpapawid
pagsasamba
pagsasanay
pagsasaro
pagsayod
pagselebrar
pagsibot
pagsigarilyo
pagsikwal
pagsilensio
pagsimbag
pagsira
pagsirang
pagsirbe
pagsisira
pagsiyasat
pagsokmolan
pagsolnop
pagsolo
pagsongko
pagsu
pagsugo
pagsuko
pagsukol
pagsulat
pagsulit
pagsulo
pagsulot
pagsunod
pagsuporta
pagsuportar
pagsurat
pagsurog
pagsusog
pagsusurat
pagsusuri
pagsusuway
pagsuway
pagtaas
pagtabang
pagtago
pagtahi
pagtahob
pagtalubo
pagtanaw
pagtanda
pagtangaan
pagtanggal
pagtangkas
pagtanom
pagtao
pagtaong
pagtapos
pagtapsok
pagtaraid
pagtaram
pagtatanom
pagtatao
pagtatapos
pagtataram
pagtau
pagtinda
pagtindog
pagtios
pagtipon
pagtiripon
pagtitipon
pagtitiripon
pagtitiwala
pagtogdas
pagtogdok
pagtogot
pagtogtog
pagtokdo
pagtolod
pagtongtong
pagtorog
pagtotokdo
pagtrabaho
pagtradusir
pagtratar
pagtrato
pagtraydor
pagtroso
pagtubo
pagtubod
pagtuga
pagtugdas
pagtugdok
pagtugot
pagtukad
pagtukaw
pagtukdo
pagtukoy
pagtulod
pagtumang
pagtunaw
pagtupas
pagturi
pagturog
pagtutukdo
pagtuyaw
pagudpud
pagwarak
pagwaras
pagyelo
paha
pahalagahan
pahamot
pahang
paharong
pahayag
pahayagan
pahigda
pahina
pahinang
pahingalo
pahingaloan
pahiwason
pai
paibaba
paid
pailihan
paimprentahan
pain
painful
painted
painter
painters
painting
paintings
pair
pais
paisi
pait
paitaas
paitaniko
paitok
paiwan
pak
paka
pakaagi
pakaaram
pakadakula
pakadangog
pakagadan
pakagera
pakagibo
pakagraduar
pakagradwar
pakaheling
pakahulogan
pakahulugan
pakakua
pakalihis
pakaluto
pakamansay
pakamate
pakana
pakanood
pakapangyari
pakapoon
pakarhayon
pakarongas
pakasabot
pakasal
pakasayod
pakasurat
pakatapos
pakawat
pakete
paki
pakiaram
pakikibaka
pakikidamay
pakikigera
pakikiiba
pakikikabtang
pakikikatood
pakikilaban
pakikipag
pakikipaglaban
pakikipagtabangan
pakikipagtusay
pakikitusay
pakikiulay
pakinabang
pakipag
pakistan
pakistani
pakisumaro
pakitrato
paklang
pako
pakontes
pakosogon
pakpak
paksyon
pakto
paku
pakundangan
pakurusogan
pal
pala
palabang
palabas
palabi
palabra
palace
palacio
palacios
palad
palaen
palaia
palais
palakaw
palakaya
palakopon
palaman
palan
palanan
palanas
palanca
palang
palaog
palapag
palarong
palasyo
palau
palauano
palawan
palawano
palayan
palayog
palayogan
palayugan
palazzo
palba
palda
pale
palembang
paleolitiko
palestina
palestine
palestinian
palestino
palgrave
pali
palibhasa
palibot
palin
palis
palisiya
paliwanag
palm
palma
palmer
palnit
palo
paloma
palta
paluan
palumpong
paluwas
paluwason
pam
pamahalaan
pamahaw
pamahawan
pamamaagi
pamamahala
pamamahayag
pamamakal
pamamayo
paman
pamana
pamanang
pamanggi
pamanggihan
pamangkin
pamantasan
pamantayan
pamarong
pamatos
pamayo
pamayohan
pamayong
pamaypay
pamayuhan
pambabae
pambabaeng
pambabayi
pambabaying
pambahog
pambangging
pambansa
pambansang
pambanwang
pambayad
pambihira
pambihirang
pambilog
pambobomba
pambukas
pambulong
pamela
pamibi
pamilya
pamilyang
pamilyar
paminsan
paminta
pamitisan
pamomoon
pamona
pampagayon
pampam
pampang
pampanga
pampango
pampasaherong
pampelikula
pamplona
pampolitika
pampubliko
pampublikong
pampulitika
pamumuhay
pan
pana
panaad
panabo
panagbenga
panaho
panahon
panahong
panalmingan
panalo
panama
panamit
pananakop
pananaram
pananaw
panangli
pananom
panapanahon
panarado
panaram
panas
panasonic
panaw
panay
panayana
panayanhon
panbalangkay
pancho
panda
pandadaya
pandagat
pandakop
pandan
pandangog
panday
pandemic
pandemiko
pandemya
pandemyang
pandey
pandit
pandog
pandok
pandora
panduwa
panduwang
panel
panelista
pang
panga
pangaduwang
pangadyeon
pangadyi
pangako
pangalan
pangalay
pangana
pangangaipo
pangangaipong
pangangaki
pangangapital
pangangataman
pangangatanosan
panganib
panganiban
panganoron
panganuron
pangapodan
pangaran
pangarang
pangarap
pangaroaldaw
pangasinan
pangasinense
pangataman
pangatorogan
pangaturugan
pangdagat
pangengenot
pangenot
panggadan
panggagadan
panggana
panggatong
panggera
panghimagas
pangigipit
pangil
pangilinan
pangingidam
panginginot
panginot
pangisi
pangiturog
pangiturogan
pangkagabsan
pangkapalibotan
pangkasal
pangkimika
pangkinaban
pangkomersyal
pangkomersyo
pangkompyuter
pangkultura
panglao
panglima
panglobong
pangnamit
pangnasyon
pangngaran
pangpang
pangrupong
pangtawo
pangulo
pangultimong
panguluhan
pangunahing
pangutaran
pangyari
pangyaring
pangyayari
pangyayaring
panhiro
panhistoriya
panibagong
panicuason
paniki
paninda
panindog
paninimbagan
paninindogan
paninira
paniniwala
panira
panitik
panitikan
panitikang
paniwalaan
pankagabsan
pankagabsang
pankapalibutan
pankhurst
pankina
pankinaban
pankinabang
panlaban
panladawan
panlahid
panlalaki
panlalaking
panlaog
panliteratura
panlubot
panlulugos
panluwas
panmidbid
pano
panong
panorama
panos
panrehiyon
panriribok
pansadiring
pansalak
pansimbahang
pansin
pansinyal
pansit
pantabang
pantahob
pantakop
pantalan
pantalon
pantao
pantapos
pantasya
pantawo
pantawong
pantay
pantelebisyon
pantheon
panther
pantig
pantolong
pantomina
pantry
pants
pantubig
panturista
panturistang
pantyon
panuga
panunaw
panundon
panura
panurat
panyo
pao
paoay
paolo
paombong
paon
paorog
paorootro
paorootrong
paorumbasan
paoswagon
papa
papagdanayon
papal
papangyarihon
papano
papar
papaya
papel
papeles
paper
paperback
papers
papondohon
papora
papremyo
papremyong
papua
papuan
papuano
paputok
par
para
paraadal
paraambag
paraarte
paraataman
parabakal
parabantay
parabareta
parabasa
parabayle
paraboksing
parabulong
paracale
parada
paradalagan
paradalan
paradangog
parade
paradepensa
paradesenyo
paradise
paradisec
paradisenyo
paradox
paragadan
paragamit
paragibo
paragibong
paraguay
parahabon
parahula
parainom
paraiso
parakakan
parakanta
parakantang
parakawat
parakurit
paralangoy
paralibot
paraligtas
paraliwat
parallel
parallelogram
paraluto
paramasid
parameter
paramore
paramount
paran
paranan
parang
parangal
paraoma
paraomang
paraon
parapahayag
parapakilaban
parapalis
parapinta
pararatak
pararawit
pararawitdawit
pararehas
parareho
parasaligsig
parasaysay
parasira
parasite
parasiyasat
parasubasta
parasunod
parasuportar
parasura
parasurat
parasurog
paratahi
paratanom
parataram
parate
parateng
parati
paratinda
parating
paratogtog
paratokdo
paratubod
paratukad
paratukdo
paratula
paratulod
paraukit
parauma
paraw
parayo
pardo
pare
paredes
parehas
pareho
parehong
parent
parenthood
parents
pares
pari
parian
parikpik
paris
parish
park
parke
parkeng
parker
parkinson
parks
parlamento
parlamentong
parliament
parliamentary
paro
parochial
parody
paroko
parokya
parokyano
parol
parola
parong
paros
paroy
paroyan
parrot
parser
parsley
parsons
parsyal
part
parte
parteng
parti
partial
participating
participation
particle
particularly
partidang
partido
partidong
parties
partikula
partikular
partikularmente
partikularmenteng
partikulo
partikulong
parting
partisipante
partisipasyon
partner
partners
partnership
parton
parts
party
parvati
paryente
paryentes
pas
pasa
pasabong
pasacao
pasado
pasagi
pasahero
pasakit
pasalamatan
pasale
pasaleng
pasali
pasaling
pasas
pasasalamat
pasay
pasayan
pascal
pascual
pasensia
pasha
pashto
pasib
pasig
pasige
pasil
pasilidad
pasion
pasipara
pasipiko
pasiring
pasiringon
pasko
paso
pasohan
pasolnopan
pasong
pass
passage
passenger
passes
passing
passion
passport
past
pasta
paste
pasteur
pastor
pastoral
pastrana
pasunod
pasuruan
pasurunod
pasyalan
pasyalang
pasyente
pasyenteng
pasyon
pat
pata
pataas
pataba
patag
patago
patak
patalastas
pataluboon
patamboon
patanid
patanog
patanoman
patapos
pataram
pataratara
patas
patatas
pataw
patch
patel
patent
patente
paternal
paterno
pateros
paterson
path
pati
patient
patients
patin
patindog
pating
patinig
patio
patiribaya
patiribayan
patis
patnubay
pato
patod
patok
patola
patong
patoo
patos
patotoo
patrabaho
patria
patriarka
patriarkal
patricia
patricio
patrick
patriot
patriotikong
patrocinio
patrol
patron
patrona
pattern
patterns
patterson
patty
patubig
patuboon
patunayan
patungkol
patyo
pau
paul
paula
paule
pauli
paulina
pauline
paulino
paulit
paulo
paulson
pauro
pavilion
paw
pawa
pawara
pax
pay
payag
payap
payaso
payne
payo
payong
pays
paysage
payunir
paz
pazeh
pb
pbb
pbk
pbma
pbs
pc
pd
pdf
pdp
pe
pea
peabody
peace
peach
peacock
peak
peaked
peaks
peanut
pearl
pearson
peas
peasants
peb
pebrero
peci
peck
pedagogical
pedal
pedelec
pedelecs
pederal
pederasyon
pedestal
pediatric
pediatrics
pedro
peek
peel
peer
peggy
pei
peke
pekeng
peleliu
peli
peligro
peligrong
peligroso
peligrosong
pelikula
pelikulang
pelosi
peltier
pempengco
pen
pena
penaeus
penafrancia
penal
penalidad
penan
penang
pendatun
penduduk
penelope
penetrasyon
penguin
penile
peninsula
peninsular
penis
penn
pennsylvania
penny
penomena
pensamiento
pension
penske
pentagon
pentagono
pentru
people
peoples
peopleschoice
pep
pepe
pepin
pepino
pepito
pepper
pepsi
pequen
per
peralejo
peralta
percent
perception
percussion
percy
peregrino
pereira
perennial
perez
perfect
perfectly
perfecto
perform
performance
performances
performed
performer
performers
performing
performs
perfume
perhaps
perin
period
periodic
periodo
periodong
perkins
perkoles
perla
perlas
permanent
permanente
permanenteng
permentasyon
permi
perming
permiso
pero
perokaril
perpage
perpektong
perpetua
perpetual
perry
persa
persekusyon
persepsyon
perseus
persia
persian
persiano
persiko
person
persona
personahe
personal
personalidad
personalities
personality
personang
personipikasyon
personnel
persons
perspective
perspectives
persya
persyano
perth
perti
pertilisasyon
peru
peryodiko
peryodikong
peryodista
peryodistang
peryodo
peryodong
pescara
pesimo
peso
pesos
pest
peste
pet
peta
petal
pete
petecio
peter
peters
petersburg
peterson
petisyon
petition
petra
petroleo
petroleum
petrolyo
petronas
petsa
petsado
petsang
petsay
pew
pez
pf
pg
ph
pha
phaidon
phantom
pharmaceutical
pharmacology
pharmacy
pharrell
phase
phaseolus
phd
phelan
phelps
phenomenon
phi
phil
philadelphia
philamer
philanthropy
philatlas
philharmonic
philip
philipp
philippe
philippensis
philippine
philippines
phillip
phillips
philly
philnews
philosopher
philosophical
philosophy
philstar
philtranco
phivolcs
phl
pho
phoebe
phoenix
phone
phonographic
phonographique
phonology
phosphate
phosphorus
photo
photograph
photographer
photographic
photographs
photography
photos
photosynthesis
php
phpsessid
phr
phrase
phu
phyllis
phylogenetic
phylogenetics
phylogeny
phys
physical
physician
physicians
physics
physiology
physique
phytotaxa
pi
pia
piad
piagapo
piang
pianista
piano
pic
picador
picasso
pick
picked
picks
pickup
pics
picture
pictures
pid
pidaso
pidasong
piddig
pidgin
pidyin
pidyiyano
pie
piece
pieces
pied
pier
pierce
pierre
pieta
pieter
pietila
pietro
pig
piga
pigaapod
pigaapud
pigafetta
pigagamit
pigba
pigbabasa
pigbabaybay
pigbago
pigbalyo
pigbanga
pigbansagan
pigbareta
pigbase
pigbibilog
pigbibisto
pigbibistong
pigbilog
pigbisita
pigbisto
pigbubuo
pigbukasan
pigbungsod
pigdagdag
pigdagdagan
pigdara
pigdeklara
pigdeklarang
pigdesenyo
pigdesignar
pigdisenyo
piggagamit
piggamit
pigganap
pigganapan
piggawadan
piggibo
piggigibo
pighahanap
pighali
pighaman
pigheras
pighihiling
pighimo
pighingoa
pighira
pighu
pighugot
pighuhuna
pighuna
pigkaag
pigkakaag
pigkakakan
pigkaklasipika
pigklasipikar
pigkokonsidera
pigkokonsiderar
pigkonsiderar
pigkoronahan
pigkua
pigkukuan
pigkukultibar
pigladawan
piglaladawan
piglalaoman
piglansar
pigliliwat
piglista
pigliwat
piglubong
pigluluto
pigluwas
pigmantinir
pigmento
pigmidbid
pigmimidbid
pigmokna
pigmukna
pigngaranan
pignombrahan
pigpabisto
pigpadagos
pigpakarhay
pigpalis
pigpaluwas
pigpangaran
pigpangaranan
pigpanukala
pigpapadalagan
pigpapahiling
pigpapaliwanag
pigpapatubo
pigpetsahan
pigpili
pigplano
pigprodyuser
pigproklama
pigpublikar
pigpunan
pigpundar
pigrepresentar
pigrerepresenta
pigrerepresentar
pigribayan
pigrunot
pigs
pigsa
pigsabi
pigsagibo
pigsahotan
pigsakop
pigsalak
pigsalin
pigsambit
pigsasabi
pigsasabing
pigsasalak
pigsasamba
pigsasayod
pigselebrar
pigsentensyahan
pigseselebrar
pigsubli
pigsundan
pigsurat
pigsusukol
pigsusulot
pigsusundan
pigsusunod
pigsusurat
pigsusuway
pigsuway
pigta
pigtala
pigtampok
pigtanggap
pigtao
pigtapos
pigtatampok
pigtatantya
pigtatantyang
pigtatao
pigtataram
pigtatawan
pigtawan
pigtindog
pigtituluhan
pigtogdas
pigtotolod
pigtugdas
pigtugdok
pigtutubod
pigtutubodan
pigtutubudan
pigtutukdo
pigtutukoy
pigtutulod
pigtuturing
pigura
pigurang
pigurin
pikit
piksyon
pil
pila
pilak
pilantropo
pilar
pilay
pile
pilgrim
pilgrimage
pilgrims
pili
piling
pilion
pilipina
pilipinang
pilipinas
pilipino
pilipinong
pilita
pill
pillar
pillars
pilmograpiya
pilo
pilosopikal
pilosopikong
pilosopiya
pilosopiyang
pilosopo
pilosopong
pilot
piloto
pilotong
pimentel
pin
pina
pinaalang
pinabayaan
pinabisto
pinadagos
pinadakula
pinadakulang
pinadalagan
pinadara
pinadrinohan
pinag
pinagbidahan
pinagbisto
pinagboot
pinagbotan
pinagdebatehan
pinageerokan
pinaggagamit
pinaggibo
pinaggigibo
pinaggikanan
pinaghahalean
pinaghalean
pinaghalian
pinaghalong
pinaghihiling
pinaghihimo
pinaghimo
pinagibo
pinagkahulugan
pinagkokonsiderang
pinagkokonsiderar
pinagkukuanan
pinaglabanan
pinagladawan
pinagmamaigotan
pinagmamasdan
pinagmarhay
pinagmidbid
pinagmukna
pinagngaranan
pinagpisan
pinagpublikar
pinagpublisa
pinagsalak
pinagsalin
pinagsaralak
pinagsararo
pinagsaro
pinagsarong
pinagsasabi
pinagsasaro
pinagsurat
pinagtao
pinagtataram
pinagtatrabawohan
pinagtutubudan
pinagtutubudang
pinahahalagahan
pinahalipot
pinahiling
pinahiwas
pinaka
pinakaamay
pinakabagong
pinakabantog
pinakabistado
pinakabisto
pinakabistong
pinakadaan
pinakadakol
pinakadakul
pinakadakula
pinakadakulang
pinakadayupot
pinakadikit
pinakaenot
pinakagrabeng
pinakagurang
pinakahababang
pinakahalaba
pinakahalabang
pinakahalangkaw
pinakahalawig
pinakahalipot
pinakahaloy
pinakaharani
pinakaharaning
pinakahubin
pinakahuri
pinakahuring
pinakaimportante
pinakaimportanteng
pinakainot
pinakakomun
pinakalakop
pinakalataw
pinakalumang
pinakamabentang
pinakamadaling
pinakamagabat
pinakamagayon
pinakamahalaga
pinakamahalagang
pinakamahiwas
pinakamahusay
pinakamaimpluwensyang
pinakamainit
pinakamakakaya
pinakamakapangyarihan
pinakamakosog
pinakamakusog
pinakamarahay
pinakamaraot
pinakamarha
pinakamarhay
pinakamarikas
pinakamasakit
pinakamasulong
pinakamatawo
pinakamatawong
pinakamatibay
pinakamatriyumpong
pinakamatua
pinakamatuang
pinakamayaman
pinakan
pinakang
pinakangohod
pinakanguhod
pinakapopular
pinakaprominenteng
pinakarhay
pinakasadit
pinakasalan
pinakasentro
pinakasibot
pinakasikat
pinakasimpleng
pinakasuanoy
pinakataas
pinakaugat
pinakokosog
pinakosog
pinakupos
pinal
pinalagda
pinalakbang
pinalakop
pinalaog
pinalawig
pinali
pinalipot
pinalis
pinalista
pinalmente
pinaluwas
pinamalayan
pinamamahalaan
pinamamayohan
pinamayohan
pinamayuhan
pinangaki
pinangaran
pinangaranan
pinangat
pinangengenotan
pinangenotan
pinanginotan
pinanginutan
pinaniniwalaan
pinansial
pinansiyal
pinansya
pinansyal
pinapa
pinapaandar
pinapabakal
pinapadalagan
pinapadrinohan
pinapagdadanay
pinapagdanay
pinapahalagahan
pinapahiling
pinapalagda
pinapalakop
pinapalipot
pinapaluwas
pinapangenotan
pinapanungdanan
pinapaorog
pinapasunod
pinapatambo
pinapatos
pinapelan
pinapusog
pinas
pinasabngan
pinasar
pinasaya
pinatalsik
pinatindog
pinatos
pinatotoohan
pinatubo
pinatukaw
pinatutunayan
pinay
pine
pineda
ping
pinggan
pinili
piniling
pininta
pinintura
pinipili
pinipirit
pinipritos
pinirilian
pinirit
pinirmahan
pink
pinky
pinnata
pino
pinonan
pinondo
pinong
pinoponan
pinopoonan
pinoprodusir
pinoprotehiran
pinoy
pinoystop
pinsala
pinsan
pinta
pintados
pintakasi
pintang
pinto
pintoan
pintor
pintura
pinturang
pinu
pinublikar
pinuga
pinunan
pinundar
pinuno
pinupublikar
pinutol
pinya
pinyin
pio
piolo
pioneer
pioneers
piot
piper
pipilion
pipira
pipirang
pira
pirak
pirang
piranha
pirata
pirilian
pirinong
pirit
piriton
pirma
pirmado
pirmahan
pirme
pirmeng
pirmi
pirming
pis
pisa
pisan
pisang
pisi
pisika
pisikal
pisikang
pisiko
pisikong
pisin
pisiyolohiya
piskal
pisngi
piso
pisog
pistoia
pistorius
pit
pitak
pitaka
pitbull
pitcairn
pitch
pitchfork
pito
pitogo
pitong
pitoy
pitt
pittsburgh
pius
pixar
piyanista
piyano
piye
piyesa
piyesta
pizza
pk
pl
pla
place
placed
placer
places
plain
plains
plaka
plake
plan
planck
plane
planet
planeta
planetang
planetary
planetaryong
planets
planggana
planned
planner
planning
plano
planong
plans
plant
planta
plantang
plantarum
plantilya
plantilyang
planting
plants
plaque
plaridel
plasa
plasencia
plasma
plastic
plastik
plata
plataporma
plate
plateau
plates
platform
platin
platino
platinum
plato
platon
platong
platt
play
playbill
playboy
played
player
players
playhouse
playing
playlist
plays
playstation
playwright
plaza
plazo
plc
ple
please
pleasure
plebesito
plebisito
pledge
plo
ploning
plos
plot
plota
plovdiv
plum
plume
plural
plus
pluto
pluwido
plymouth
pm
pma
pmc
pmid
pmp
pmpc
pnas
pneumonia
png
pnoy
pnp
pnr
po
pob
poblacion
poblasyon
pobre
pobreng
pocket
poco
podcast
poder
poderes
poderosong
poe
poehler
poem
poems
poesia
poet
poeta
poetang
poetic
poetry
poets
pohl
point
points
poirot
poison
pokus
pol
pola
polako
poland
polangui
polar
pole
poli
police
policies
policy
poligamiya
poligono
polimerisasyon
polimero
polinesyo
polish
polisiya
polisya
politeknikong
political
politician
politico
politics
politika
politikal
politikang
politiko
politikong
poll
pollack
pollen
polls
pollstar
pollution
polo
polomolok
polong
polonya
polusyon
polyeast
polygamy
polygon
polymedic
polymer
polynesia
polynesian
polytechnic
polytechnical
pon
ponan
ponce
pond
pondo
pondong
pone
ponetiko
ponolohiya
pons
ponte
pontevedra
pony
poo
pook
pool
poon
poona
poor
pop
popa
pope
popes
popolazione
poppy
pops
popstar
popsugar
popular
popularidad
populasyon
population
populations
por
porat
pork
porma
pormal
pormang
pormasyon
pormosano
pormula
pormulang
porn
pornography
pornograpikong
pornograpiya
poro
porong
poroshenko
porsiento
porsiyento
porsyento
porsyon
port
porta
portable
portal
porter
portfolio
portion
portland
portman
porto
portrait
portraits
portugal
portuge
portuges
portuguese
pos
posas
posibilidad
posible
posibleng
posikit
posisyon
positibo
positibong
position
positions
positive
posporo
possible
post
postal
postcolonial
poste
posted
poster
posthumous
postma
posts
postuma
pot
potassium
potato
potenciano
potensial
potensyal
potential
potograpiya
potograpo
potosintesis
pototan
potsdam
potter
pound
pour
poverty
povincia
powder
powell
power
powerful
powerpuff
powers
pp
ppe
pr
pra
practical
practice
practices
prada
pradesh
prado
prague
prairie
praise
prakash
praksyon
praktika
praktikal
praktis
prangka
prangkang
prangkisa
pranses
pransia
pransya
pratibha
prato
pratt
prawn
pray
prayer
praying
prayle
prayleng
prayoridad
prc
pre
preacher
precious
precipitation
prediksion
prediksyon
predominante
predominanteng
preface
prefectural
prefecture
prefer
prefix
pregnant
prehistoric
prehistorikong
prehistory
prehistorya
prehuwisyo
preity
prejudice
prelatura
preliminary
prem
premier
premiere
premieres
premio
premios
premium
premna
premyado
premyadong
premyo
premyong
prensa
prentice
preparasyon
preparatory
prepares
prepektura
prepekturang
pres
preschool
prescott
presence
presensia
presensiya
presensya
present
presentacion
presentasyon
presentation
presente
presented
presenteng
presenter
presenting
presents
preserbadong
preservation
presidency
presidensyal
president
presidente
presidenteng
presidential
presidents
presipitasyon
presko
preskong
preso
press
pressreader
pressure
prestigious
prestihiyosong
presyo
presyon
presyong
pretty
preventing
prevention
preview
previous
previously
prey
pribado
pribadong
pribilehio
pribilihiyo
price
prices
pride
priest
priesthood
priests
prieto
prilles
prima
primarily
primary
primarya
primaryang
primate
primavera
prime
primer
primera
primeramente
primerang
primero
primerong
primetime
primitibong
primo
prince
princesa
princess
princeton
principal
principales
principe
principle
principles
prinipritos
prinitos
prinobaran
prinsesa
prinsipal
prinsipe
prinsipyo
prinsipyong
print
printed
printing
prints
printsec
prior
prioridad
priscilla
prisen
prison
prisoner
pritoson
pritzker
private
prix
priya
priyanka
prize
prizes
prnewswire
pro
probably
probaran
probe
probinsia
probinsiya
probinsya
probinsyal
probinsyang
probisyon
probisyonal
problem
problema
problemang
problems
proceedings
process
processes
processing
proclamation
prodigy
produce
produced
producer
producers
product
production
productions
productores
products
produksion
produksyon
produkto
produktong
produser
produsyer
prodyuser
prof
profesor
profession
professional
professionals
professor
profil
profile
profiles
profit
progesterone
program
programa
programang
programme
programming
programs
progresibo
progresibong
progreso
progress
progressive
project
projections
projects
projekt
proklamasyon
prolipikong
prom
promedyo
promedyong
prometheus
prominence
prominent
prominente
prominenteng
promise
promised
promises
promising
promo
promosyon
promote
promotion
promotional
promotions
pronoun
pronounced
pronouns
pronunciation
proof
propaganda
propagandista
proper
properties
property
propesiya
propesor
propesyon
propesyonal
propesyunal
propeta
propetang
prophet
propiedad
propiong
proporsyon
proposal
proposed
proposisyon
propyedad
proquest
prosa
prose
prosecutor
prosedimiento
prosekusyon
proseso
prosesong
prosesyon
prospect
prospects
prosperidad
prosperity
prostitusyon
prostitute
prostitution
protagonista
protect
protected
protecting
protection
protective
protehiran
protein
proteksion
proteksiyon
proteksyon
protektado
protektadong
protektaran
protest
protesta
protestante
protestanteng
protesters
protests
protina
protinang
proto
protocol
proton
prototype
proud
provcode
prove
proverbs
proves
provide
provided
providence
provides
province
provinces
provincia
provincial
provinciang
provinsya
proyekto
proyektong
prunskiene
prusisyon
prussia
prussian
prutas
pryor
ps
psa
pse
pseudonym
psgc
pst
psu
pswsab
psychiatric
psychic
psychological
psychologist
psychology
pt
ptak
ptalb
pterocarpus
ptolemaic
ptolemy
pts
pu
pub
publ
public
publication
publications
publicationsubcategoryid
publika
publikar
publikasyon
publiko
publikong
publish
published
publisher
publishers
publishing
pubs
pudtol
pueblo
puede
puedeng
puente
puersa
puerto
puga
pugad
pugo
pugol
pugot
puho
puja
pukan
pukawon
pul
pula
pulag
pulang
pulau
pulawy
pulbos
pulbura
pulgada
pulis
pulisiya
pulisya
pulitika
pulitikal
pulitiko
pulitikong
pulitzer
pull
pulmon
pulo
pulong
pulot
pulotan
pulse
pumili
puminutok
pumondo
pumoon
pumutok
pun
punan
punay
punch
punching
pundador
pundamental
pundamentalistang
pundasyon
pundo
puneeth
punggod
pungo
punishment
punjab
punjabi
punk
punlad
puno
punong
punta
punto
puntong
puntos
puon
pup
pupil
pupils
puppet
pupuwede
pupuwedeng
pura
purana
puranas
purchase
purdue
pure
puri
purisima
puro
purok
purong
purple
purpose
pursuit
purus
pusat
push
pushed
pushing
pushyamitra
pusit
puso
pusoan
pusod
pusog
pusong
put
putahe
putat
putay
puti
putik
putin
puting
putnam
puto
putok
putol
putoy
puts
putting
puturo
puwede
puwedeng
puwera
puwersa
puwersang
puwesto
puyat
puyuma
puzzle
pwede
pwedeng
pwera
pwerle
pwersa
pwersahan
pwersang
pwersas
pwerto
pwesto
pwestong
pwu
px
pyaar
pyanista
pyano
pye
pyesa
pylon
pyo
pyongyang
pyramid
pythagoras
pythagorean
q
qa
qaeda
qassem
qatar
qazan
qc
qi
qian
qigong
qin
qing
qu
qua
quake
quaker
quality
quang
quantum
quarantine
quarter
quarterly
quartet
quartz
que
quebec
quechua
queen
queens
queensland
queer
quentin
query
quest
question
questions
quezon
qui
quiambao
quiapo
quick
quiet
quigaman
quin
quince
quinn
quintin
quinto
quintos
quipayo
quirino
quisumbing
quite
quixote
quiz
quizon
qun
qungua
quo
quod
quorum
quot
quotation
quotations
quote
quoted
quotes
qur
quran
r
ra
rabbit
rabies
rabindranath
rables
race
rachel
rachelle
racing
racism
rad
radar
radcliffe
radha
radhika
radiasyon
radiation
radical
radikal
radio
radiotimes
radon
radyo
radyoaktibo
radyoaktibong
rae
raf
rafael
raffles
raffy
raga
ragay
rage
rahay
rahman
rahu
rai
raid
raider
rail
railroad
railway
railways
rain
rainbow
rainer
rainforest
rainy
raise
raised
raising
raj
raja
rajah
rajasthan
rajkumar
rajpurkar
raju
rak
rakursi
ralaban
rally
ralph
ram
rama
ramadan
ramayana
rambong
rambutan
rami
ramil
ramin
ramirez
ramiro
ramo
ramog
ramon
ramos
ramsay
ramya
ran
rana
ranbir
rancho
rand
randall
random
randy
rang
ranga
range
rangers
ranggo
ranggong
rango
rani
rania
rank
ranked
ranking
rankings
rant
rantso
rao
raot
raoton
rap
rapa
rape
raphael
rapid
rapids
rapongan
rapot
rapper
rappler
rapporteur
rapsak
rapture
rapu
rare
rarom
ras
rasa
rasang
rashed
rashid
rasismo
rason
rasonableng
raspberry
rasul
rasyal
rasyo
rat
rata
ratak
rate
rated
rates
rathbone
rather
rating
ratings
ratio
raton
rattan
rattle
ratu
ratzinger
rau
raul
ravana
raven
ravi
raw
rawat
rawis
rawit
rawitda
rawitdawit
rawitdawmanlainlain
ray
raya
raymond
raymundo
rayo
razzie
razzies
rb
rca
rd
re
rea
reach
reached
reaches
reaction
reactions
read
reader
readers
reading
readings
reads
ready
reagan
reaksion
reaksyon
reaksyong
reaktibo
reaktor
real
realidad
realismo
reality
really
realubit
rear
reason
reasons
reba
rebecca
rebel
rebelde
rebeldeng
rebellion
rebels
rebelyon
reberendo
rebirth
rebisyon
rebolusyon
rebolusyonaryo
rebolusyonaryong
rebolusyong
rebolusyunaryo
rebolusyunaryong
reboot
rebuilding
rebulto
rebultong
rebyu
recap
recca
receive
received
receives
recent
reception
rechter
recipe
recipes
recipient
recipients
recli
recognition
recognize
recognized
recognizes
recoletos
recommendations
reconstruction
record
recorded
recording
recordings
records
recovery
recreation
recto
red
redburn
reddit
redford
rediff
redir
redirect
redstone
reduction
reed
reef
reel
reese
ref
reference
references
referring
refers
refinery
reflections
reform
reformed
reformer
reforms
refugee
refugees
reg
regal
regalo
regarding
regatta
regency
regent
reggio
regime
regiment
regina
regine
region
regional
regioni
regions
regis
register
registration
registry
reglamento
regular
regulasyon
regulation
rehabilitasyon
rehabilitation
rehensiya
rehensiyang
rehimen
rehimeng
rehion
rehistradong
rehistro
rehiyon
rehiyonal
rehiyong
rehiyunal
reich
reid
reign
reilly
reima
reina
reinkarnasyon
reino
rejang
rekado
reklamo
rekomendado
rekomendasyon
rekonosidong
rekonstruksyon
rekord
rekording
rektanggulo
rektor
rekurso
rekursos
relasyon
related
relatibo
relatibong
relating
relation
relations
relationship
relationships
relative
relay
release
released
releases
relief
religion
religions
religious
relihion
relihioso
relihiosong
relihiyon
relihiyong
relihiyoso
relihiyosong
relikya
relo
rem
remain
remains
remake
remaking
remalaso
remarkable
remarks
rembrandt
remedios
remedyo
remember
remembered
remembering
remembers
remembrance
remigio
remix
remontado
remote
remun
ren
renaissance
renasimyento
renasimyentong
renato
rendaku
rendang
rene
renee
renewable
renewed
renner
rent
renyo
reorganisadong
reorizo
rep
reparo
repaso
repeat
reperendum
reperensia
reperensiya
reperensya
repertoire
replace
replica
replika
reporma
repormang
repormista
report
reported
reporter
reports
repository
represent
representado
representante
representantes
representasyon
representation
representative
representatives
represented
reprint
reprinted
reproduction
reproductive
reproduksyon
reproduktibong
reprofesionalizarea
reptilya
repu
repubblica
republic
republican
republika
republikang
republikano
republikanong
republished
reputasyon
req
requejo
request
required
res
rescue
research
researcher
researchgate
reserba
reserbang
reserve
reservoir
reshaping
residence
residency
residensya
residensyal
resident
residente
residenteng
residential
residents
resignation
resigns
resilience
resin
resipe
resipyente
resistance
resistensya
resmi
resolberan
resolusyon
resolution
resonance
resort
resorts
resource
resources
respect
respectively
respetadong
respeto
respirator
respiratory
respiratoryo
responsable
responsableng
response
responses
responsibilidad
responsibility
responsible
ressa
rest
restaurant
restaurants
restawran
resto
restoran
restorasyon
restoration
restos
restriksion
resuene
result
resulta
resultang
results
resume
resurrection
retablo
retail
retana
rethinking
retirado
retiradong
retired
retirement
retratista
retrato
retratong
retrieved
retro
retrospective
return
returned
returning
returns
reunion
reunite
reunites
reuters
rev
reveal
revealed
reveals
revenge
revenue
reverendo
reverse
review
reviews
revilla
revised
revision
revisited
revista
revival
revolt
revolution
revolutionaries
revolutionary
revolvy
revue
rex
rey
reyes
reyna
reynaldo
reyno
reynolds
rez
rft
rgen
rgn
rhian
rho
rhodes
rhyme
rhymes
rhys
rhythm
ri
ria
riaa
riaj
riba
ribay
ribayan
ribbon
ribera
ribo
ribok
ribong
ribu
ric
rica
rican
ricardo
ricarte
rice
rich
richard
richards
richardson
richest
richmond
richter
rick
ricky
rico
ride
rider
rides
ridge
riding
ridley
rie
rieti
rig
riga
rigak
rigdon
right
rights
rigveda
rihanna
rika
rikas
riles
riley
rim
rima
rimas
rimoranon
rimpos
rin
rina
rinadas
rinaot
rinaranggo
rinaraot
rinconada
rinehart
rinerekonoser
ring
rings
rinibayan
rinibo
rinibong
rinorokyaw
rinunot
rinurunot
rio
rios
riot
rip
riple
ripley
ripondipon
ris
risa
risang
rise
rises
rishi
risik
rising
risk
risto
rit
rita
rite
rites
ritmo
rito
ritual
rituals
ritwal
riva
river
rivera
rivermaya
rivers
riyadh
rizal
rizaldy
rizmi
rj
rk
rms
rn
rna
ro
roa
road
roads
rob
robbery
robbie
robert
roberta
roberto
roberts
robertson
robin
robinson
robles
robot
robredo
robson
roc
rocca
roces
rocha
rochester
rock
rockefeller
rocket
rockonthenet
rocks
rocksteddy
rocky
roco
rod
rodel
rodham
rodolfo
rodri
rodrigo
rodriguez
roe
roel
rog
rogaring
rogelio
roger
rogerebert
rogers
rogue
rohingya
rojas
rok
roland
rolando
role
roles
rolex
roll
rollin
rolling
rollingstone
rom
roma
romaji
roman
romana
romance
romances
romania
romanian
romanisado
romano
romanong
romansa
romansang
romantic
romantiko
romantikong
rombin
romblon
rome
romeo
romero
rommel
romney
romua
romualdez
romulo
ron
rona
ronald
ronaldo
ronan
ronang
ronda
rong
ronnie
roof
rookie
room
rooms
rooney
roosevelt
root
roots
rope
roque
ros
rosa
rosal
rosales
rosalind
rosalio
rosalyn
rosario
rosary
rosas
rose
rosemary
rosen
rosenberg
rosenthal
rosenzweig
roses
roshen
rosids
ross
rossi
rostro
rot
rotary
roth
rothman
rotten
rotterdam
rouge
rough
roughstock
round
roundup
rousseau
route
routledge
rover
rovers
rovi
row
rowena
rowland
rowling
rowman
roxanne
roxas
roxb
roxy
roy
royal
royale
royalty
rp
rpm
rpn
rpt
rquez
rr
rs
rsmc
rt
rte
rtha
rthk
ru
rubber
ruben
rubi
rubin
rubino
rubio
rubo
ruby
rudolf
rudolph
rudy
rue
rueda
ruero
rufino
rufo
ruins
ruiz
rukai
rukh
rukmi
rukrok
rule
ruler
rules
ruling
rum
run
runaway
runner
runners
running
runot
runway
rupert
rupp
rural
rurok
rush
rushdie
ruso
rusong
russel
russell
russia
russian
russo
rusya
ruta
rutang
rutenyo
rutgers
ruth
rutherford
ruweda
rv
rvq
rw
rwaai
rwanda
rwandanong
ry
ryan
rye
ryo
ryu
ryukyu
ryukyuan
ryukyuano
s
sa
saa
saaga
saan
saaroa
saavedra
saba
sabado
sabah
sabahano
sabang
sabas
sabaw
sabay
sabi
sabihan
sabihon
sabina
sabino
sablan
sablayan
sabon
saboot
sabot
sabotage
saboton
sabrina
sabsaban
sabtang
sacchi
sacramento
sacred
sacrifice
sad
sadan
sadanobu
saday
saddam
saddle
sadi
sadie
sadiosan
sadire
sadireng
sadiri
sadiring
sadit
saditon
sadol
sadr
sadya
sadyang
sae
saen
saf
safe
safety
sag
saga
sagada
sagart
sagawards
sagay
sagbayan
sagcod
sage
sagin
sagko
sagkod
sagkud
sagn
sago
sagop
sagrada
sagrado
sagradong
sagupaan
sagurong
saha
sahara
sahib
sahog
sahot
sahrawi
sai
said
saidang
saif
saigon
sail
sailing
saimo
saimong
sain
sainda
saindang
saindo
saindong
sainik
saint
saints
sairisay
sais
saisiyat
saiya
saiyan
saiyang
sajau
sak
saka
sakay
sakayan
sakayang
sake
sakit
sakizaya
sako
sakong
sakop
sakramento
sakripisyo
saksi
sakto
sakuya
sakuyang
sakyada
sal
sala
salaam
salad
salag
salah
salak
salamanca
salamat
salampati
salang
salas
salay
salaysay
salazar
salceda
salcedo
saldang
sale
saleh
salem
sales
sali
salidahan
saligsig
salimbagat
salin
saling
salinger
salingoy
saliva
salivary
salle
sally
salma
salman
salming
salmon
salo
salog
salome
salomon
salon
salong
salonga
salt
saluano
salud
salug
salugsog
salute
saluyot
salvacion
salvador
salvation
salvatore
salvosa
sam
sama
samahan
samahang
samal
samantala
samantalang
samantha
samar
samba
sambal
sambaliko
sambit
same
samgyeopsal
samhita
samno
samo
samoa
samong
samonte
samothrace
sampaguita
sampaling
sampaloc
sampan
sample
sampolo
sampolong
sampulo
sampulong
samson
samsung
samuel
samurai
samuya
samuyang
san
sana
sanang
sanatorium
sanaysay
sanchez
sanctuary
sand
sandali
sandberg
sander
sanders
sandiganbayan
sandoricum
sandra
sands
sandugo
sandwich
sandy
sang
sanga
sangang
sangat
sangaw
sangay
sangeetha
sanger
sanggatos
sangguniang
sanghiran
sangiriko
sangkaka
sangkap
sangkayaw
sangki
sangley
sangre
sangribong
sanitarium
sanitasyon
sanribong
sanriku
sans
sansevieria
sanskrit
sanskrito
sant
santa
santan
santander
santi
santiago
santigwar
santo
santol
santolan
santong
santos
santuario
sanz
sanzan
saod
saodan
saoi
saoirse
sap
sapa
sapad
sapang
sapat
sapatos
sapian
sapiens
sapir
sapna
sapphire
sar
sara
sarabay
sarabi
sarabihon
saradit
saraditon
sarado
saradong
sarah
sarahotan
sarajevo
saralak
saran
sarangani
sararadit
sararo
sararong
saraswati
sarawak
saray
sarayaku
sarayan
sardar
sardinia
sargent
sarhento
sari
sariaya
sarig
sarika
saring
saringsing
saris
sarmiento
saro
saron
sarong
sars
sarsa
sartre
saru
sarung
sarungat
sas
sasabihon
sasak
sasakyan
sasarong
sasha
sassa
sastrowardoyo
satan
satay
satelayt
satellite
sati
satinash
satire
satish
satispaksion
sato
satong
satsuma
saturday
saturn
saturno
satuya
satuyang
sauce
saud
saudan
saudi
saudita
saul
saunders
savage
save
saved
saving
savings
saw
sawa
sawang
sawyer
saxe
saxifragales
saxon
saxony
say
saya
sayaff
sayang
sayantipiko
sayaw
sayod
sayon
sayote
says
saysay
sayt
sayyaf
sb
sbs
sc
scale
scales
scam
scandal
scarecrow
scarlet
scarlett
scene
scenes
scent
schauer
schedule
schiff
schindler
schine
schinkel
schloss
schmidt
schneider
scho
scholar
scholarly
scholars
scholarship
scholastica
school
schools
schulek
schumacher
schumann
schuster
schwartz
schwarzenegger
sci
science
sciencedirect
sciences
scientiarum
scientific
scientist
scientists
scmp
scoop
scope
scoping
score
scores
scorpion
scot
scotia
scotland
scots
scott
scottish
scout
scouts
scrabble
scratch
scream
screen
screening
screenplay
screenwriter
scribd
scribner
script
scripts
scroll
scrolls
sculptor
sculpture
sculptures
sd
se
sea
seafdec
seafood
seal
seals
seaman
sean
search
searchable
seas
season
seasonal
seasons
seat
seattle
sebastia
sebastian
sebop
sebu
sebwano
sec
second
secondary
seconds
secret
secretariat
secretary
secrets
section
sections
sector
secular
securities
security
seda
sedaily
sedang
sede
see
seed
seediq
seeing
seek
seeking
seeks
seen
sees
segment
segovia
segregasyon
seguerra
segun
segunda
segundarya
segundo
segurado
seguradohon
seguradong
seguridad
seguro
segye
sei
seikaly
sein
seismology
seita
sekondarya
sekondaryong
sekretarya
sekretaryo
sekreto
sekretong
seks
sekso
seksuwal
seksuwalidad
sekswal
sekswalidad
seksyon
sekta
sektang
sektor
sekular
sekundarya
sekundaryang
selebes
selebiko
selebrasyon
select
selected
selection
selections
seleksyon
selena
selenyo
selestyal
seleucid
self
sell
seller
sellers
selling
selma
selula
selulang
selyo
semai
semaine
semana
semanal
semanang
semantiko
sementeryo
sementeryong
semento
semi
semilya
seminar
seminario
seminarista
seminary
seminaryo
sen
senado
senador
senaryo
senate
senator
senatorial
senators
send
sendai
sendler
sendon
sendong
seneca
senegal
senegalese
senior
senor
senora
sensation
sense
sensibility
sensitibo
sensitibong
senso
sensor
sensory
sensus
sent
sentenaryo
sentence
sentensya
sentensyang
sentido
sentidong
sentimetro
sentimo
sentinel
sentral
sentro
sentrong
senyal
senyor
seo
seok
seon
seong
seoul
sep
separadong
separate
separation
separatismong
sept
september
septembre
septyembre
sequel
sequence
sequences
ser
sera
serantes
serbesa
serbi
serbia
serbian
serbidor
serbisyo
serbisyong
serbya
seremonya
seremonyal
seremonyang
serena
sergeant
sergei
sergio
seri
serial
serie
series
serious
sermon
sero
serpent
serrano
sertipikasyon
sertipiko
servant
serve
served
service
services
serving
seryal
serye
seryeng
seryo
seryoso
seryosong
ses
sesame
session
sessions
sesyo
sesyon
set
seth
sets
setsuko
setting
settlement
settlements
setyembre
seung
seven
seventeenth
seventh
seventy
several
severe
severino
severo
sevigny
sevilla
seville
seward
sex
sexes
sexiest
sexism
sexist
sexual
sexuality
sexy
seymour
sf
sfgate
sg
sgt
sh
sha
shabu
shadow
shadows
shaffer
shah
shaheem
shahira
shahla
shaiva
shaivismo
shake
shakespeare
shakira
shakti
shaktismo
shall
shame
shan
shane
shang
shanghai
shannon
shanti
shape
shaped
shapiro
share
shared
shares
shari
sharia
sharif
shariff
sharing
shark
sharkey
sharma
sharon
sharp
sharpe
shaw
shawn
she
sheep
sheeran
sheet
sheffield
shehbaz
sheikh
sheila
shek
shelf
shell
shelley
shelter
shepard
shepherd
sher
sherff
sheridan
sheriff
sherlock
sherman
sherpa
sherwood
sheryl
shetty
shi
shia
shields
shift
shifts
shiki
shikoku
shimbun
shimla
shin
shine
shines
shining
shinkansen
shinto
ship
shipping
ships
shirley
shirt
shitamachi
shiva
sho
shock
shoe
shoes
shogakukan
shogun
shoot
shooting
shoots
shop
shopping
shore
short
shorter
shortlist
shorts
shorty
shortyawards
shortys
shot
shots
should
shoulder
show
showbiz
showbizandstyle
showcase
shower
showing
shown
shows
showtime
showtimes
shrimp
shrine
shroud
shtml
shu
shuckburgh
shui
shunga
shut
shuttle
shy
si
sia
siam
sian
siang
sibagat
sibalom
siberia
sibiko
sibikong
sibil
sibilisasyon
sibilyan
siblag
sibot
sibugay
sibulo
sibulyas
sic
sica
sichuan
sicily
sico
sid
side
sides
sidney
sidwell
sie
siege
siegel
sieger
siempre
siena
sienna
siensia
sientipikong
sientista
sierra
siertong
siete
sify
sig
sigarilyo
sigaw
sige
sigeng
sight
sights
sigismondi
sigismund
siglo
siglong
sigma
sign
signal
signature
significance
significant
signipikanteng
signipikong
signs
sigrid
sigun
sigurado
siguradong
siguro
siisay
siisayman
sik
sikat
sikatuna
sikh
sikhismo
sikhs
siklo
siko
sikologo
sikolohikal
sikolohiya
sikolohiyang
sikyera
sil
sila
silaba
silabikong
silag
silang
silangan
silay
silayan
silence
silensio
silensyo
silent
silesia
sili
silicon
silikon
siling
silk
silliman
silo
silot
silva
silver
silverman
silvia
silyab
sim
sima
simbag
simbagon
simbahan
simbahang
simbolikong
simbolismo
simbolo
simbolong
simeon
simeulue
similar
simmons
simo
simon
simone
simong
simons
simpatiya
simple
simpleng
simplified
simply
simpson
simpsons
sims
simulation
sin
sina
sinabat
sinabawan
sinabi
sinabihan
sinabing
sinadya
sinaenot
sinag
sinagoga
sinahotan
sinai
sinakop
sinakyada
sinalakan
sinalidahan
sinambit
sinanay
sinanglean
sinanglian
sinanlag
sinapi
sinapo
sinarapan
sinaraysay
sinasabi
sinasabihan
sinasabing
sinasadol
sinasakop
sinasalak
sinasalakan
sinasamba
sinasambit
sinasaray
sinasayod
sinatra
sinawsawan
sinayumahan
since
sinclair
sinda
sindang
sindici
sine
sinehan
sineselebrar
sing
singapore
singapur
singapura
singer
singers
singh
singing
singkamas
singko
single
singles
sings
singsing
singson
singular
sinh
sinhala
sinica
sinigang
sining
sinisierto
sinisiyasat
sinitar
siniyasat
sino
sinonimo
sinsuat
sintas
sintesis
sintetikong
sintomas
sinu
sinubli
sinublian
sinugbuanon
sinugo
sinulog
sinundan
sinuportahan
sinuportaran
sinurat
sinusulot
sinusundan
sinusunod
sinusuportaran
sinusurat
sinususog
sinyal
siod
sion
sioux
sipi
sipocot
sipon
siquijor
sir
sira
siraan
siram
sirang
sirangan
sirangang
siraya
sire
siren
siria
siring
siriplingan
sirkito
sirkulasyon
sirkulo
sirong
siruhano
siruma
sirya
sis
sisaket
sisig
sismolohiya
sison
sistema
sistemang
sistematikong
sister
sisterhood
sisters
sit
sita
sitcom
site
sites
sitio
sito
sitrus
situ
situation
situwasyon
sitwasyon
sityo
siudad
siudadano
siwang
six
sixteen
sixteenth
sixth
sixty
siya
siyam
siyang
siyasaton
siyensiya
siyensya
siyensyang
siyentipiko
siyentipikong
siyentista
siyo
siyudad
size
sj
sjid
sk
ska
skeptic
sketch
sketches
ski
skies
skills
skin
skirt
skopje
skull
sky
skylanders
skyline
sl
sla
slack
slain
slam
slang
slant
slate
slave
slavery
slaves
sleep
sleeping
slice
slide
slideshow
slip
sloan
slovak
slovakia
slovenia
slow
slowly
sm
sma
small
smart
smarta
smash
smc
sme
smell
smh
smile
smiles
smith
smithsonian
smnjn
smoke
smokey
smyth
sn
snail
snake
snap
sneak
sneddon
snep
snierson
snl
snoop
snopes
snow
so
soanoy
soap
soar
soberaniya
soberano
soberanong
soberanya
soboot
sobra
sobrang
sobrat
sobre
sobrina
sobrino
sobyet
soc
soccer
soccsksargen
social
socialism
socialist
socialists
socialite
socialization
sociedad
societies
society
socio
sociologist
sociology
socorro
socrates
soda
sodium
sodyo
sofi
sofia
soft
software
sog
sogod
sogok
soho
soil
sojourner
soju
sokmolan
sokol
sol
sola
solamente
solamenteng
solano
solar
sold
soldados
soldier
soldiers
sole
soledad
soleimani
solemneng
soler
soli
solid
solidaridad
solidarity
solido
solidong
soliman
solis
soliven
solnopan
solnopang
solo
solomon
solong
soltero
soltis
solusyon
solution
solutions
solvent
solway
solzhenitsyn
som
somali
somalia
somalya
somaya
some
somebody
someone
somerset
somerville
something
sometimes
somewhere
somos
sompeng
son
sona
sonang
sonata
song
songbird
songkok
songs
songwriter
songwriters
sonia
sonja
sonny
sono
sonora
sons
sont
sony
sonymusic
soo
soompi
soon
sopa
sopas
sophia
sophie
soprano
sor
sora
sorbetes
soreng
soriano
soro
soros
sorpresa
sorry
sorsoganon
sorsogon
sort
sos
sosog
soson
sosyal
sosyalismo
sosyalista
sosyalistang
sosyedad
sosyo
sosyodad
sosyolohiya
sosyudad
soto
sotomayor
sotto
soul
souls
sound
sounds
soundscan
soundtrack
soundtracks
soup
source
sourcebook
sources
south
southampton
southeast
southeastern
southern
southwest
southwestern
souvenir
soviet
sow
soy
sp
spa
space
spacecraft
spade
spaghetti
spain
span
spanish
spark
sparks
sparta
spartan
spatial
speak
speaker
speakers
speaking
speaks
spears
special
specialist
specials
specialty
specie
species
specific
specified
specimen
spectacle
spectrum
speculative
speech
speeches
speed
spell
spelling
spencer
spender
spent
sphere
spherical
spice
spider
spiegel
spielberg
spies
spike
spill
spin
spinal
spiral
spirit
spirits
spiritual
spirituality
spitz
split
spoken
spokesperson
sponge
sponsor
sponsored
spores
sport
sports
spot
spotify
spotlight
spoto
spotted
spp
spra
sprachen
spratly
spread
spring
springer
springfield
springs
spy
sq
sqrt
squad
squamosa
square
squid
squirrel
sr
sri
srinagar
ss
ssp
ssr
st
sta
stable
stacey
stacy
stadium
staff
stage
stages
stalin
stallone
stamford
stampa
stand
standard
standards
standing
stands
stanford
stanisław
stanley
stanton
star
starbucks
starch
stardom
starling
starr
starred
starrer
starring
stars
start
started
starting
starts
stat
state
statement
staten
states
statesman
static
station
stations
statistical
statistics
statistik
stats
statue
status
stay
ste
steal
steam
steamy
steel
steele
stefan
stefania
stefano
stein
steindl
steinem
steiner
stella
stellar
stem
step
stephanie
stephen
steps
stereogum
sterling
stern
steroid
steve
steven
stevens
stevenson
stevie
stewart
sti
stica
stick
stico
stigma
still
stingless
stinkers
stm
sto
stock
stockholm
stokes
stolen
stone
stonehenge
stones
stop
stops
storage
store
stores
stories
storm
story
storyteller
str
stra
straight
strait
straits
strang
strange
stranger
strangers
strategic
strategies
strategist
strategy
strauss
straw
strawberry
stray
stream
streamed
streaming
streams
strecker
streep
street
streets
streisand
strength
stress
strictly
strike
strikes
string
strip
stroke
strong
stronger
structural
structure
structures
struggle
struggles
sts
stu
stuart
stuartxchange
stub
studded
student
students
studies
studio
studios
study
stuff
stunning
stupid
stuttgart
stutz
style
styles
su
sua
suanoy
suarez
suarin
sub
suba
subago
subanen
subangan
subangang
subanon
subasta
subcontinent
subdibisyon
subdivision
subgroup
subgrouping
subgrupo
subgrupong
subheto
subic
subihan
subject
subjects
subkontinente
subkontinenteng
subli
sublimasyon
subol
suboot
subpamilya
subscription
subsequently
subsp
subspecies
substance
substances
substansya
subtraction
subtropikal
subway
sucat
succeed
success
successful
succession
such
sucrose
sud
sudan
sudden
suddenly
sue
sueco
suecong
sueldo
suerte
suey
suez
suffering
suffix
suffrage
suffragist
suga
sugal
sugar
sugarfree
sugbo
sugbuanon
suggested
sugitan
sugo
sugod
sugok
sugot
sugpon
sugpong
suharto
suhay
suhestyon
sui
suicide
suisa
suit
suite
suits
suk
suka
sukarno
sukat
sukol
sul
sula
sulat
sulawesi
suldados
sulfur
sullivan
sulnopan
sulnupan
sulnupang
sulo
sulog
sulong
sulot
sultan
sultanate
sultanato
sulu
sulzberger
sum
suman
sumaro
sumaryo
sumatra
sumbawa
suminakat
suminikat
suminuko
suminunod
sumita
summa
summary
summer
summit
sumner
sumpa
sumpay
sumuko
sumulong
sumunod
sumurat
sun
sunbird
sunda
sundance
sundanes
sundanese
sundang
sundari
sunday
sundo
sunflower
sung
sungai
sungay
sungdo
sunmi
sunnah
sunni
sunny
suno
sunod
sunodsunod
sunrise
sunset
sunshine
sunstar
suntok
sunwoo
suny
suo
suon
sup
supat
super
superbisor
superbisyon
superficie
supergroup
superhero
superheroes
superintendente
superior
supermalls
superman
supermarket
supermodel
supernatural
superstar
supisyenteng
suplay
suplemento
suporta
suportado
suportador
suportahan
suportaran
supplement
supply
support
supported
supporting
supposed
suprema
supreme
supremo
supremong
supsup
sur
surabaya
surallah
surat
suraton
surbey
sure
surface
surge
surgeon
surgery
surgical
suria
surigao
surigaonon
suriname
suro
surprise
surprises
surrender
surte
suru
surugoon
surungan
surunod
survey
survival
survive
surviving
survivor
survivors
surya
sus
susan
susana
susanna
sushi
susi
susie
suso
susog
suspect
suspected
suspense
sussex
sustainability
sustainable
sustansia
sustansya
sustenableng
susteniran
susu
susugan
susundon
sutherland
sutton
suwawa
suway
suwestyon
suyo
suzanne
suzuki
suzumiya
suzy
svc
svenska
svenskt
sveriges
sverigetopplistan
svetlana
svg
sw
swahili
swamp
swan
swarovski
swaziland
sweat
sweden
swedish
swedishcharts
sweeps
sweet
sweetheart
sweldo
swept
swerte
swift
swim
swimmer
swimming
swing
swiss
switch
switzerland
sword
sy
sya
syaman
syang
sydney
syempre
syensia
syensya
syentista
sylvester
sylvia
symbol
symbols
symmetry
symphony
symposium
syn
synagogue
syndicat
syndrome
synergic
synopsis
syntax
synthesis
synthetic
syo
syon
syracuse
syria
syrian
system
systematic
systematics
systems
syudad
syudadano
syzygium
sze
szeged
szet
szlo
t
ta
taal
taano
taas
tab
taba
tabaco
tabak
tabako
tabang
tabangan
tabay
tabei
tabi
tabili
tabing
tabla
tablang
tablas
table
tables
tableta
taboan
tabon
taboo
tabora
tabu
tabuco
tabuk
tabyos
tackle
tacloban
tacurong
tada
tadang
tadaw
tae
taft
tag
taga
tagaambag
tagababa
tagadesinyo
tagadisenyo
tagaduman
tagagibo
tagahanga
tagal
tagalog
tagamana
tagamato
tagamukna
tagapadalagan
tagapag
tagapagkampanya
tagapaglagda
tagapagligtas
tagapagmana
tagapagpamahalang
tagapagpamidbid
tagapagpayo
tagapagsangli
tagapagtaram
tagapahayag
tagapakaray
tagapakarhay
tagapalis
tagapamahala
tagapamahalang
tagapamayo
tagas
tagasunod
tagasurat
tagasurog
tagataas
tagataram
tagatolod
tagatukdo
tagatulod
tagay
tagaytay
tagbanwa
tagbilaran
tagbo
tagboan
tagkawayan
tagle
taglish
tago
tagoan
tagob
tagok
tagoloan
tagong
tagore
tagpuan
taguig
taguiwalo
tagum
tagumpay
tahaw
tahi
tahob
tai
taikon
tail
tailandya
tailed
taipei
taiping
taiwan
taiwanes
taiwanese
taj
tajik
tajikistan
tak
taka
takahashi
takahata
takal
takasaki
take
taken
takes
taki
takilya
taking
takla
taklob
takma
takod
takogong
takop
takot
taksonomiya
taktika
takyag
tal
tala
talaan
talaandig
talaang
talaba
talaga
talagang
talahuluganang
talahulugang
talambuhay
talampas
talapang
talavera
tale
talent
talentadong
talented
talento
talents
tales
tali
taliban
talibon
talinga
talingkas
talisay
talk
talkies
talking
talks
tall
tallest
tallinn
tally
talmud
talodtod
talon
talong
talyer
tam
tama
tamaan
tamad
taman
tamang
tamanyo
tamar
tamaraw
tamaulipas
tambak
tambal
tambalan
tambay
tambo
tamboan
tambobong
tambon
tamil
tammy
tamong
tampa
tampok
tan
tana
tanaka
tanauan
tanaw
tanawon
tanay
tanda
tandaan
tandag
tandaganon
tandang
tang
tanga
tangang
tangani
tanganing
tangarig
tangcong
tangdan
tangere
tangga
tanggang
tanggomo
tangguli
tangid
tanging
tangkaan
tangkay
tangke
tangkong
tanglad
tanglaw
tango
tangro
tanhaga
tanjak
tank
tanner
tano
tanog
tanom
tanoman
tanos
tanso
tansong
tanto
tantra
tantric
tantriko
tantrikong
tanuman
tanza
tanzania
tao
taoismo
taoista
taon
taonan
taong
taontaon
taormina
tap
tapa
tapang
tapayan
tapayas
tapaz
tape
tapes
tapia
tapos
taposi
taposon
tapped
taps
tapsilog
tapuson
tar
tara
taraborrelli
taram
taramon
taramong
taranta
tarastrong
tardigrada
target
tarlac
tarnovo
taro
tarom
tarong
taruc
tas
tasa
tasaday
tasang
tashkent
task
taste
tat
tata
tataghan
tatahon
tatak
tatao
tataong
tatar
tatara
tataramo
tataramon
tataramong
tatarstan
tatawan
tatay
tate
tatiana
tatlong
tattoo
tau
tauhan
taunan
taunang
tauris
tausug
tavera
taw
tawan
tawbuid
tawi
tawo
tawohan
tawong
tawuha
tawuhan
tawyo
tax
taxi
taxobox
taxon
taxonomic
taxonomy
tay
taya
tayabas
taylor
tayo
taysan
taytay
taywan
tb
tbilisi
tc
tca
tcm
td
tdfo
te
tea
teach
teacher
teachers
teaching
team
teams
tear
tears
teaser
teatro
teatrong
teau
tech
technical
techniques
technological
technologies
technology
tecla
tecson
ted
teddy
tee
teen
teenage
teenager
teens
teenvogue
teeth
tehran
teknik
teknika
teknikal
teknolohiya
teknolohiyang
teksto
tekstong
tel
tela
telang
tele
telebisyon
telecom
telegraph
telegraphindia
telehit
telekomunikasyon
telephone
telepono
teleserye
teleskopyo
teletubbies
television
tell
tells
telugu
tema
temang
temiar
temperadong
temperatura
temperaturang
temperature
template
templates
temple
temples
templo
templong
tempo
temporal
temporaryo
temporaryong
tempore
temps
ten
tenasia
tencent
tendensia
tendensiang
teng
tenggara
tenggeres
[...]
