!
"
#
##0
##1
##10
##11
##12
##13
##14
##15
##16
##17
##18
##19
##2
##20
##21
##22
##23
##24
##25
##26
##27
##28
##29
##3
##30
##31
##32
##33
##34
##35
##36
##37
##38
##39
##4
##40
##41
##42
##43
##44
##45
##46
##47
##48
##49
##5
##50
##51
##52
##53
##54
##55
##56
##57
##58
##59
##6
##60
##61
##62
##63
##64
##65
##66
##67
##68
##69
##7
##70
##71
##72
##73
##74
##75
##76
##77
##78
##79
##8
##80
##81
##82
##83
##84
##85
##86
##87
##88
##89
##9
##90
##91
##92
##93
##94
##95
##96
##97
##98
##99
$
%
&
'
(
)
*
+
,
-
.
/
0
00
000
001
002
003
01
010
013
015
0167
017
018
02
022
026
03
04
048
05
0546
06
07
070
072
08
09
090
1
10
100
1000
1007
101
1012
1016
102
1020
103
1037
1038
104
10407
105
106
1066
107
108
109
1093
11
110
1100
1101
111
1111
112
1126
113
114
115
116
1160
117
1175
118
11840
119
12
120
1200
121
122
1227
123
124
125
1250
126
127
128
129
13
130
1300
131
132
133
134
1348
135
1353
1356
136
1365
137
1375
138
1380
1389
139
1396
1397
14
140
1400
141
1412
1413
142
1422
1425
143
1430
144
1440
1448
1449
145
1453
1455
146
1460
1461
1466
1469
147
1470
1471
148
1482
1483
1485
149
1492
1497
1499
15
150
1500
1501
1502
1503
1504
1509
151
1511
1512
1513
1514
1516
1517
1519
152
1520
1521
1523
1524
1527
1529
153
1530
1532
1533
1536
1539
154
1540
1541
1542
1546
1547
155
1550
1552
1553
1554
1555
1557
1558
1559
156
1560
1563
1564
1567
157
1572
1578
158
1580
1581
1582
1584
1585
1587
1588
1589
159
1592
1593
1596
1598
1599
16
160
1600
1601
1603
1605
1609
161
1610
1611
1613
1615
1616
1617
1618
162
1620
1622
1623
1626
1628
1629
163
1630
1632
1636
1638
164
1640
1641
1642
1643
1644
1645
1646
1648
1649
165
1650
1651
1654
1656
1658
1659
166
1660
1661
1665
1668
167
1672
1674
1676
168
1680
1685
1686
1688
1689
169
1694
1695
17
170
1700
1701
1703
1704
1707
171
1714
1718
172
1724
1727
173
1730
1736
1739
174
1741
1742
1746
1748
1749
175
1750
1752
1754
1755
1756
1757
1758
1759
176
1760
1762
1763
1764
1766
1768
1769
177
1770
1771
1772
1773
1774
1775
1776
1777
1778
1779
178
1780
1781
1782
1783
1784
1785
1786
1787
1788
1789
179
1790
1791
1792
1793
1794
1795
1796
1797
1798
1799
18
180
1800
1801
1802
1803
1804
1805
1806
1807
1808
1809
180957851
181
1810
1811
1812
1813
1814
1815
1816
1817
1818
1819
182
1820
1821
1822
1823
1824
1825
1826
1827
1828
1829
183
1830
1831
1832
1833
1834
1835
1836
1837
1838
1839
184
1840
1841
1842
1843
1844
1845
1846
1847
1848
1849
185
1850
1851
1852
1853
1854
1855
1856
1857
1858
1859
186
1860
1861
1862
1863
1864
1865
1866
1867
1868
1869
187
1870
1871
1872
1873
1874
1875
1876
1877
1878
1879
188
1880
1881
1882
1883
1884
1885
1886
1887
1888
1889
189
1890
1891
1892
1893
1894
1895
1896
1897
1898
1899
19
190
1900
1901
1902
1903
1904
1905
1906
1907
1908
1909
191
1910
1911
1912
1913
1914
1915
1916
1917
1918
1919
192
1920
1921
1922
1923
1924
1925
1926
1927
1928
1929
193
1930
1931
1932
1933
1934
1935
1936
1937
1938
1939
194
1940
1941
1942
1943
1944
1945
1946
1947
1948
1949
195
1950
1951
1952
1953
1954
1955
1956
1957
1958
1959
196
1960
1961
1962
1963
1964
1965
1966
1967
1968
1969
197
1970
1971
1972
1973
1974
1975
1976
1977
1978
1979
198
1980
1981
1982
1983
1984
1985
1986
1987
1988
1989
199
1990
1991
1992
1993
1994
1995
1996
1997
1998
1999
2
20
200
2000
20000
2001
2002
2003
2004
2005
2006
2007
2008
2009
201
2010
2011
2012
2013
2014
2015
2016
2017
2018
2019
202
2020
2021
2022
203
204
205
206
207
208
209
21
210
211
21105602
212
213
214
215
216
217
218
219
22
220
221
222
223
224
225
226
227
228
229
23
230
231
232
233
234
235
236
237
238
239
24
240
241
242
243
244
245
246
247
248
249
25
250
251
252
253
254
255
256
257
258
259
26
260
261
262
263
264
265
266
267
268
269
27
270
271
272
273
274
275
276
277
278
279
28
280
281
282
283
284
285
286
287
289
29
290
291
292
293
294
295
296
297
298
299
3
30
300
3000
301
302
303
304
305
306
307
308
309
31
310
311
312
313
314
315
316
317
318
319
32
320
321
322
323
324
325
326
327
328
329
33
330
331
332
333
334
335
336
337
338
339
34
340
341
342
343
344
345
346
347
348
349
35
350
351
352
353
354
355
356
357
358
359
36
360
361
362
363
364
365
366
36607
367
368
37
370
371
372
373
374
375
377
378
38
380
381
382
383
384
385
386
387
388
389
39
390
391
392
393
394
395
397
399
4
40
400
4000
401
402
403
404
405
406
407
408
409
41
410
411
413
415
416
417
418
419
42
420
421
423
424
425
427
43
430
431
434
435
437
439
44
440
441
442
443
444
445
446
447
448
449
45
450
451
452
453
455
456
457
458
46
460
461
465
466
467
47
470
471
474
475
476
48
480
481
482
484
485
486
487
488
489
49
490
491
492
493
494
496
499
5
50
500
5000
501
507
508
509
51
510
512
517
52
520
521
525
526
527
529
53
530
531
532
534
535
536
537
538
539
54
540
544
547
55
550
551
553
556
557
558
56
560
563
564
565
567
568
57
570
575
576
579
58
580
581
583
586
588
589
59
590
5907
591
592
593
596
6
60
600
6000
601
602
603
604
606
607
609
61
610
613
62
620
623
624
626
627
629
63
631
632
633
636
637
639
64
641
643
645
646
647
65
650
653
66
661
664
667
67
670
675
68
680
683
686
688
69
690
696
699
7
70
700
701
7073
709
71
710
7103
711
71196
715
716
718
72
720
7206
722
724
726
729
73
730
737
74
742
744
745
747
749
75
750
753
756
757
758
76
763
765
766
767
77
770
772
773
774
775
776
778
78
780
781
782
785
79
791
792
798
8
80
800
804
805
806
8080
8091
81
810
811
814
817
818
82
824
827
83
834
84
842
848
85
850
854
857
859
86
8601
87
874
877
88
880
885
8859
89
895
898
899
9
90
900
901
904
906
907
91
92
93
930
931
937
938
94
946
947
95
950
95882
959
96
960
961
967
968
97
970
971940
973
978
98
980
981
983
987
988
99
990
999
:
;
<
=
>
?
@
[
\
]
^
_
`
a
aa
aachen
aalborg
aarhus
aaron
ab
aba
abaca
abaco
abacterial
abajo
abandon
abandona
abandonamento
abandonar
abandonate
abandonava
abandoned
abandono
abassa
abassamento
abassar
abate
abatter
abattite
abattitor
abattitorio
abba
abbate
abbatessa
abbatia
abbatial
abbey
abbordage
abbordar
abbordate
abbrev
abbreviamento
abbreviar
abbreviate
abbreviation
abbreviationes
abbreviations
abbreviative
abbreviator
abbreviatura
abc
abcdefghijlmnopqrst
abdicar
abdication
abdicava
abdominal
abdomine
abdu
abducer
abduct
abduction
abductor
abe
abeba
abece
abel
abelardo
abelian
aberrante
aberration
abhorrer
abiberatorio
abiete
abilitate
ability
abiogenese
abiogenesis
abiogenetic
abiotic
abjecte
abjection
abjurar
abjuration
ablandar
ablation
ablative
ablativo
able
ablution
abnegar
abnegation
abnormal
abode
abolir
abolite
abolition
abolitionista
aboliva
abomaso
abominabile
abominar
abomination
abonamento
abonar
abonatos
abordar
aboriginal
aborigine
aborigines
abortamento
abortar
abortive
aborto
abound
abounding
about
above
abrade
abraham
abrahamic
abrasion
abrasive
abre
abreviar
abril
abrogar
abrogation
abrogative
abrupte
abruzzi
abruzzo
abscess
abscesso
abscinder
abscissa
absence
absent
absentar
absente
absentia
absentias
absolute
absolutemente
absolution
absolutismo
absoluto
absolutori
absolver
absolvite
absorb
absorbe
absorbed
absorbente
absorber
absorbite
absorption
abstention
abstentiones
abstinentia
abstiner
abstract
abstracte
abstraction
abstraher
abstruse
absurd
absurde
absurditate
absurdo
abu
abuccamento
abuccar
abuela
abuelo
abunda
abundance
abundante
abundantemente
abundantia
abundar
abusar
abuse
abusive
abuso
abusos
abysmal
abysmo
abyssal
ac
acaba
acaban
acacia
acade
academia
academias
academic
academico
academicos
academy
acaju
acantho
acca
accede
acceder
accedite
accelerar
accelerate
acceleration
accelerator
accender
accendimento
accenditor
accent
accento
accentos
accentua
accentuar
accentuate
accentuation
accepta
acceptabile
acceptar
acceptate
acceptation
acceptava
acception
access
accessed
accessibile
accessibilitate
accessible
accession
accesso
accessori
accessorios
accessory
accident
accidental
accidentate
accidente
accidentes
accio
acclamate
acclamation
acclimatabile
acclimatate
accollada
accommodamento
accommodar
accommodate
accommodation
accompania
accompaniamento
accompaniar
accompaniate
accompaniator
accompaniava
accompanied
accomplimento
accomplir
accopulamento
accopular
accopulate
accord
accorda
accordante
accordar
accordate
accordator
accordatura
accordava
according
accordingly
accordion
accordo
accordos
accostamento
accostumar
accostumate
account
accreditate
accrescer
accresceva
accrescimento
accular
accumsan
accumula
accumulamento
accumular
accumulate
accumulation
accumulator
accurate
accuratessa
accurrer
accurtar
accusa
accusar
accusate
accusation
accusationes
accusative
accusativo
accusato
accusator
accusatori
accusatos
accusava
accustomed
ace
acento
acephale
acerbe
acerbitate
acere
acetato
acetic
aceto
acetose
acetylen
achaea
ache
acheos
achievement
achille
achillea
achilles
achromatic
acicular
acid
acide
acidification
aciditate
acido
acidos
acidule
acierage
acierar
acieria
aciero
acinonyx
acknowledge
acne
aco
acompan
acquainted
acquiesite
acquire
acquirer
acquireva
acquirite
acquisition
acquisitive
acre
acres
acrobatia
acrobatic
acronymo
acropole
across
acrylic
act
acta
acte
actes
acting
actinic
actinidos
actinium
action
actionar
actionari
actionero
actiones
actionista
actionistas
actium
activa
activar
activate
activation
active
activemente
activex
activismo
activist
activista
activistas
activitate
activitates
activities
activity
activo
acto
actor
actores
actos
actress
actrice
actrices
acts
actua
actual
actualisar
actualisate
actualisation
actualitate
actualitates
actually
actualmente
actuar
actuarial
actuation
acuerdo
acuitate
aculeate
aculeo
acuminar
acuminate
acupunctura
acupuncture
acusativo
acustic
acustica
acute
acutessa
acutiar
acyclic
ad
ada
adab
adagio
adam
adamic
adams
adan
adansonia
adapt
adapta
adaptar
adaptate
adaptation
adaptationes
adaptava
adaptive
adar
adc
add
adda
addams
adde
added
addenda
addendum
addente
adder
addeva
adding
addis
addite
addition
additiona
additional
additionalmente
additionar
additiones
additive
additivo
addormir
addormite
address
addressing
adducer
adduction
adductor
ade
adelante
adema
aden
adenoide
adenoides
adenoma
adenose
adeo
adepto
adequate
adesso
adhere
adherence
adherent
adherente
adherentes
adherentia
adherents
adherer
adhereva
adherite
adhesion
adhesive
adhuc
adi
adiabatic
adieu
adige
adipose
adir
adito
adj
adjace
adjacente
adjectival
adjective
adjectives
adjectivo
adjectivos
adjetivo
adjetivos
adjoining
adjudicar
adjudicate
adjudication
adjuncte
adjunction
adjuncto
adjunge
adjunger
adjungeva
adjungite
adjuration
adjustabile
adjustable
adjustage
adjustamento
adjustar
adjuta
adjutante
adjutar
adjutas
adjutate
adjutava
adjuvar
adler
admin
adminime
administer
administrar
administrate
administration
administrative
administrativemente
administrator
administratores
admirabile
admiral
admiralitate
admiralty
admirar
admirate
admiration
admirative
admirator
admiratores
admirava
admiscer
admissibile
admission
admit
admitte
admitter
admitteva
admittite
admixtion
admonition
adn
ado
adolescente
adolescentes
adolescentia
adolescential
adolf
adolfo
adonic
adonis
adopta
adoptar
adoptate
adoptava
adopted
adoption
adoptive
ador
adora
adorabile
adorar
adorate
adoration
adorator
adorava
adorn
adornamento
adornar
adrenal
adressar
adressate
adressava
adresse
adresses
adria
adrian
adriano
adriatic
adriatico
adsorption
adsur
adube
adulation
adulator
adulcia
adulciamento
adulciar
adult
adulte
adulterar
adulterate
adulteration
adulterator
adulterin
adulterio
adultero
adulterose
adultery
adulto
adultos
adumbration
adurer
aduste
adv
advance
advanced
advantage
advenimento
advenir
advent
advento
adventure
adventures
adverb
adverbial
adverbio
adverbios
adversario
adversarios
adversative
adverse
adversitate
adverter
advertimento
advertir
advice
advise
advisory
advoca
advocate
advocato
advocatos
advocava
adyname
adynamia
adynamic
ae
aec
aedes
aegagrus
aegis
aenean
aer
aerage
aerar
aerate
aeration
aere
aeree
aeres
aerial
aerifere
aeriforme
aero
aerobic
aerobie
aerodromo
aerodynamic
aerodynamica
aerologic
aeronaut
aeronautic
aeronautica
aeronautics
aeronaval
aeronave
aeronaves
aeroplano
aeroplanos
aeroportate
aeroporto
aeroportos
aerosol
aerospatial
aerostatic
aerostato
aerotransportate
aerporto
af
affabile
affair
affaire
affaires
affairs
affamar
affamate
affect
affecta
affectar
affectate
affectation
affectava
affected
affection
affectionar
affectionate
affectiones
affective
affecto
affectuose
afferente
affice
afficer
affiche
affiches
afficite
affidavit
affiger
affilar
affilate
affilator
affiliar
affiliate
affiliation
affiliava
affin
affinamento
affinar
affinitate
affinitates
affinity
affirm
affirma
affirmante
affirmar
affirmate
affirmation
affirmationes
affirmative
affirmava
affix
affixar
affixes
affixo
affixos
afflict
affliction
afflictive
affliger
affligite
affloramento
affluente
affluentes
affluentia
affluer
affluxo
affollar
affretamento
affretate
affricate
affronta
affrontamento
affrontar
affronto
affundar
affuste
afghanistan
afijos
afonso
afraid
africa
african
africana
africano
africanos
africanus
afrikaans
afro
afroamerican
after
afternoon
afterwards
ag
again
against
agamemnon
agar
agaric
agarico
agata
agate
age
agency
agenda
agent
agente
agentes
agentia
agentias
ager
agera
ages
ageva
agglomerar
agglomerate
agglomeration
agglutinante
agglutinar
agglutination
agglutinative
aggrandimento
aggrandir
aggrandite
aggrava
aggravamento
aggravar
aggravate
aggravation
aggreder
aggregar
aggregate
aggregation
aggregative
aggregato
aggression
aggressive
aggressor
aggruppar
aggruppate
agibile
agile
agilitate
agility
agio
agiotage
agiotar
agitar
agitate
agitation
agitator
agite
agnesi
agnetto
agno
agnos
agnosia
agnostic
agnosticismo
agnostico
ago
agonia
agonic
agonisante
agonisar
agony
agora
agoraphobe
agoraphobia
agosto
agradabile
agradabilemente
agradamento
agradar
agrari
agree
agreement
agreste
agri
agricola
agricole
agricultor
agricultores
agricultura
agricultural
agrigento
agrimensor
agrimensura
agrippa
agrippina
agro
agrola
agrono
agronomia
agronomic
agronomo
agropyro
aground
agua
aguascalientes
aguilar
aguinaldo
agulia
agulias
aguti
ah
ahead
ahora
ai
aid
aids
aikido
ail
ailen
ailuropoda
aim
aime
ain
ainsi
air
aircraft
aire
aires
airing
airplane
ais
aise
aix
aj
ajax
aje
ajo
ajornamento
ajornar
aka
akbar
akkadian
al
ala
alabama
alabaster
alabastro
alacre
alacritate
aladdin
alagoas
alain
alan
alar
alarm
alarma
alarmante
alarmar
alas
alaska
alate
alauda
alba
albacete
albanese
albania
albany
albatros
albe
alberga
albergar
albergero
albergo
albert
alberta
alberto
albiflor
albin
albino
albrecht
albrekt
albricoc
albricoches
albricochiero
album
albumes
albumina
alca
alcaic
alcalde
alcali
alcalin
alcalino
alcalisar
alce
alces
alchimia
alchimic
alco
alcohol
alcoholic
alcoholico
alcoholisate
alcoholismo
alcun
alcunes
alcuno
alcunos
aldea
aldeanueva
aldehyde
ale
aleatori
alegre
alejandro
aleksandr
alema
alemania
alert
alerta
alerte
alessandria
alessandro
aletta
alettas
aleut
aleutian
alex
alexander
alexandra
alexandre
alexandria
alexandrian
alexandrin
alexandrino
alexandro
alexei
alexopoulos
alf
alfabeto
alfaguara
alfalfa
alfil
alfonic
alfonso
alfred
alfredo
alg
alga
algas
alge
algebra
algebraic
algebras
algebric
alger
algeria
algerian
algesia
algia
algic
algo
algol
algonquian
algorithm
algorithmic
algorithmo
algorithmos
algu
alguien
alguna
algunas
alguno
algunos
ali
alia
alias
alibi
alibile
alicante
alice
alicia
alicubi
alicun
alicunes
alicuno
alicunos
alie
alien
alienar
alienate
alienation
alienator
alienista
alighieri
alight
alike
alimenta
alimentar
alimentari
alimentate
alimentation
alimento
alimentos
alinea
alineamento
alinear
alineate
aliphatic
aliqua
aliquam
aliquando
aliquanto
alique
aliquet
aliquot
aliseo
alive
alizarina
alkali
all
alla
allactamento
allactar
allactate
allah
allan
allargamento
allargar
alle
allegar
allegation
allegoria
allegoric
allegrar
allegre
allegressa
allegretto
allegro
alleles
alleluia
allemagne
allen
allende
aller
allergia
allergic
allerta
allerte
alleviar
alleviate
alleviation
alley
alli
alliacee
alliance
alliantia
alliantias
alliar
alliate
alliato
alliatos
alliava
alligar
alligate
alligato
alligator
alligatos
allio
alliteration
allium
allmusic
allo
allocate
allocation
allocution
allogiamento
allogiar
allogiate
allogio
allongamento
allongar
allongate
allontanava
allot
allotment
allotrope
allotropic
allow
allowed
alloy
allude
alluder
alludeva
allusion
allusiones
allusive
alluvial
alluvion
alluviones
ally
alma
almanac
almeria
almond
almosna
almosnero
almost
alms
alno
aloe
alone
along
alonso
alopecuro
alora
alors
alpaca
alpes
alpestre
alpha
alphabet
alphabetic
alphabeticamente
alphabetisation
alphabeto
alphabetos
alphanumeric
alphonse
alphonso
alpin
alpine
alpinista
alquando
alquanto
alque
already
alrededor
als
alsatia
alsatian
alsi
also
alt
alta
altai
altaic
altar
altas
alte
altemente
alter
altera
alterar
alteras
alterate
alteration
alterationes
altercar
altercation
altere
alteremente
alteres
alternante
alternantia
alternar
alternate
alternating
alternation
alternativa
alternativas
alternative
alternativemente
alternativitate
alterne
altero
alteros
alterubi
altessa
although
altiamento
altiar
altimetro
altisonante
altisone
altissime
altitude
altitudes
alto
altocumulo
altoparlator
altor
altos
altostrato
altra
altre
altres
altri
altro
altruista
altruistic
altura
aluminato
aluminium
alumno
alumnos
alun
alveo
alveolar
alveolata
alveolate
alveolo
alveolos
alves
always
alzheimer
am
ama
amabile
amabilitate
amadeus
amado
amala
amalasuntha
amalgama
amalgamar
amalgamation
amandola
amandolas
amandoliero
amanita
amante
amantes
amar
amarantho
amarillo
amaritude
amaro
amas
amassamento
amassar
amata
amate
amateur
amateurs
amator
amatores
amatori
amava
amazed
amazing
amazon
amazonas
amazonaws
amazonie
ambas
ambassada
ambassador
ambassator
ambe
ambes
ambidextre
ambiental
ambiente
ambientes
ambigue
ambiguitate
ambiguitates
ambir
ambition
ambitiones
ambitions
ambitiose
ambito
ambitos
ambivalente
amblyopia
ambos
ambra
ambroise
ambrosia
ambrosial
ambrosian
ambrosio
ambula
ambulance
ambulante
ambulantia
ambular
ambulatori
ambulatura
ambush
ame
ameboide
ameliorar
amelioration
amen
amenitate
amento
amer
america
american
americana
americano
americanos
americanus
americas
americium
amerindian
amet
amianto
amic
amica
amicabile
amicabilitate
amical
amicar
amicitate
amico
amicos
amido
amiens
amigo
amigos
amiki
amiko
amin
amino
aminoacidos
amita
ammad
amman
ammarrage
ammon
ammonia
ammoniac
ammoniacal
ammoniaco
ammonic
ammonium
amnesia
amnestia
amnesty
amniota
amniotic
amo
amoebozoa
amok
among
amonta
amontar
amontas
amor
amoral
amoras
amore
amores
amoretto
amorose
amorosemente
amorphe
amortisabile
amortisar
amortisation
amortisator
amos
amount
amour
amovibile
ampe
amperage
ampere
amperometro
amphi
amphibian
amphibie
amphibio
amphibios
amphitheatro
amphora
ample
amplemente
amplexicaule
ampliar
ampliate
ampliation
amplie
amplificar
amplification
amplificator
amplitude
ampulla
ampullose
amputar
amputation
amsterdam
amusamento
amusante
amusar
amuse
amusement
amy
amygdala
amylic
amylo
an
ana
anabaptista
anabasis
anabolic
anachoreta
anachronic
anachronistic
anacreonte
anacreontic
anaerobe
anaerobic
anai
anakin
anal
analgesia
analgesic
analgia
analoge
analogia
analogias
analogic
analogo
analphabete
analphabetic
analphabetismo
analysa
analysar
analysate
analysator
analysava
analyse
analyses
analysis
analysta
analytic
ananas
anapestic
anaphylactic
anarchia
anarchic
anarchismo
anarchist
anarchista
anarchistas
anarchistic
anarcho
anarchy
anas
anat
anate
anates
anathema
anatolia
anatomia
anatomic
anatomica
anatomical
anatomie
anatomy
anc
ancestor
ancestral
ancestre
ancestres
anche
anchieta
anchise
anchor
anchorage
anchova
ancian
ancianitate
ancianos
ancien
anciena
ancient
ancillar
ancona
ancora
ancorage
and
andalus
andaluse
andalusia
andalusian
andante
anders
andersen
anderson
anderssen
andersson
andes
andin
andna
andorra
andrade
andre
andrea
andreas
andres
andrew
andria
andriette
androgyne
android
andromeda
androphobia
andross
andy
ane
anecdota
anecdotas
anecdotic
anellar
anellate
anello
anellos
anemia
anemic
anemone
anesthesia
anesthesiar
anesthetic
anew
ang
ange
angel
angela
angeles
angelic
angelica
angelina
angelo
angelos
angelov
angels
angelus
anger
angina
angl
anglaterra
angle
angled
angles
anglese
angleses
angleterre
anglia
anglic
anglican
anglicanismo
anglo
angloamerican
anglomania
anglophile
anglophobe
anglophobia
anglophone
anglosaxone
angola
angora
angostura
angry
angue
anguilla
anguillas
anguish
angular
angulate
angulo
angulos
angulose
angustia
angustifolie
angustiose
anhalt
anhelar
anhydrido
aniconic
anil
anilina
anima
animadverter
animal
animales
animalia
animals
animar
animas
animate
animated
animation
animator
anime
animismo
animista
animistic
animo
anion
anis
anisotrope
anisotropia
anita
ankara
anke
ankore
ann
anna
annales
anne
annelida
annellos
annex
annexar
annexate
annexe
annexed
annexion
annexionista
annexo
anni
annie
annihilar
annihilate
annihilation
anniversari
anniversario
anniversary
anno
annos
annotar
annotate
annotation
annotationes
announce
announcement
announces
annoy
annoyance
annoying
annual
annualmente
annuario
annue
annuitates
annul
annular
annullabile
annullar
annullation
annulment
annuncia
annunciar
annunciate
annunciation
annunciator
annunciatori
annunciava
annuncio
annuncios
annunzio
ano
anodic
anodin
anodo
anomale
anomalia
anomalistic
anonymato
anonyme
anonymitate
anorganic
anormal
anormalitate
anos
another
anovulatori
anque
ans
ansa
ansan
ansate
ansere
anserin
ansi
answer
answers
ant
anta
antagonismo
antagonista
antagonistic
antananarivo
antarctic
antarctica
ante
antea
antebracio
antecamera
antecedent
antecedente
antecedentes
anteceder
antecessor
antedatar
antediluvian
anteguerra
antenatal
antenna
antennas
antepenultime
anteponer
anterior
anteriores
anteriormente
antes
antesala
antestomachos
anthelminthic
anthemis
antheraea
antho
anthologia
anthology
anthony
anthrace
anthracen
anthracite
anthracitic
anthrax
anthropocentric
anthropogenese
anthropogenesis
anthropoide
anthropol
anthropologia
anthropologic
anthropologo
anthropology
anthropometria
anthropometric
anthropomorphe
anthropomorphic
anthropomorphismo
anthropomorphista
anthroponymic
anthropophage
anthropophagia
anthropophago
anti
antiaeree
antialcoholic
antiatomic
antiballas
antibiotic
antibiotico
antibioticos
anticancerose
antichoc
anticholeric
antichristian
antichristo
anticipar
anticipate
anticipatemente
anticipation
anticlinal
anticonceptional
anticonstitutional
anticorpores
anticorrosive
anticyclonal
antidemocratic
antiderapante
antidiphtheric
antidoping
antidroga
antidumping
antifascista
antifriction
antifurto
antiga
antigas
antigelo
antigenos
antigrippal
antigua
antiguo
antihorologic
antillas
antilope
antimilitarista
antimissile
antimonial
antimonio
antinodos
antinomia
antinomic
antioch
antiochia
antipathia
antipathic
antipatriotic
antipersonal
antiphonal
antiphrase
antipode
antipollution
antiq
antiqua
antiqualia
antiqualias
antiquario
antiquark
antiquate
antique
antiquitate
antiquitates
antiquity
antiquos
antirabic
antireligiose
antiretroviral
antirheumatic
antiruito
antiscorbutic
antiseismic
antisemitic
antisemitismo
antiseptic
antisero
antiskating
antisocial
antisol
antisolar
antisportive
antistatic
antitank
antitetanic
antithese
antithesis
antitrust
antituberculose
antivariolic
anto
antoine
antologie
anton
antoni
antonia
antonio
antonymo
antro
antwerpen
anular
anulo
anxie
anxietate
any
anyone
anything
anywhere
ao
aol
aoristic
aorta
aortic
aosta
ap
apa
apache
apart
aparte
apartheid
apatheism
apathia
ape
apena
apenninos
aperi
aperibile
aperient
aperiente
aperiodic
aperir
aperite
aperitive
aperitivo
aperiva
aperte
apertemente
apertura
apes
aphasia
aphasic
aphonia
aphonic
aphorism
aphorismo
aphoristic
aphrodisiac
aphrodite
aphroditic
aphtha
aphthose
api
apiario
apical
apice
apicultor
apicultura
apio
apis
apiu
apivore
aplomb
apo
apocalypse
apocalyptic
apocryphe
apocryphos
apode
apodictic
apogee
apogeo
apolline
apollo
apollon
apolo
apologetic
apologetica
apologia
apologista
apophonia
apophyse
apophysis
apoplectic
apoplexia
apostasia
apostata
apostles
apostolato
apostolic
apostolicitate
apostolo
apostolos
apostrophe
apothecario
apotheosis
app
appaciamento
appaciar
apparato
apparatos
apparatus
appare
apparent
apparentar
apparente
apparentemente
apparentia
apparentias
apparer
appareva
apparite
apparition
apparitiones
appartamento
appartamentos
appartar
appeal
appear
appearance
appears
appease
appelate
appella
appellabile
appellante
appellar
appellate
appellation
appellative
appellativo
appellatos
appellava
appello
appellos
append
appendage
appender
appendice
appendicectomia
appendices
appendicitis
appendix
apperception
apperciper
appertinente
appetente
appeter
appetibile
appetite
appetitive
appetito
appetitose
applanar
applattar
applaud
applauder
applaudite
applauso
apple
apples
applet
appleton
applets
applica
applicabile
applicabilitate
applicable
applicante
applicar
applicate
application
applicationes
applications
applicava
applied
applies
apply
appoia
appoiante
appoiar
appoiate
appoiava
appoint
appointment
appoio
appoios
apponer
apporta
apportar
apportate
apportava
apporto
apposite
apposition
appraisal
appreciabile
appreciar
appreciate
appreciation
apprehend
apprehender
apprehension
apprehensive
apprende
apprender
apprendeva
apprendimento
apprendite
apprentissage
apprentisse
apprestar
appresto
approach
approachable
approbabile
approbar
approbate
approbation
approbative
approbatori
approbava
approcha
approchabile
approchar
approche
approches
approfundamento
approfundar
appropriar
appropriate
appropriation
approval
approve
approvisionamento
approvisionar
approxima
approximar
approximate
approximatemente
approximation
approximative
approximativemente
approximava
appuncta
appunctamento
appunctar
appunctate
appunctava
appuramento
apre
aprender
aprendizaje
apricot
april
aprioristic
apsidal
apt
apte
apted
aptitude
aptitudes
apud
apulia
aqdas
aqua
aqual
aquarella
aquario
aquas
aquatic
aquatile
aqueducto
aquee
aquel
aquella
aquellas
aquelle
aquello
aquellos
aqui
aquiero
aquila
aquilas
aquilin
aquino
aquisgrana
aquisgrano
aquo
aquose
ar
ara
arab
arabe
arabes
arabesque
arabia
arabic
arabile
arabo
arachide
arachidic
arago
aragon
aragone
aragonese
aragorn
arahau
aramaic
aramaico
aranea
araquari
arar
ararangua
arato
aratori
aratro
aratura
arau
arbitrage
arbitral
arbitrar
arbitrari
arbitration
arbitrator
arbitrio
arbitro
arbore
arboree
arbores
arborescente
arbori
arbusto
arbustos
arc
arca
arcada
arcadia
arcadian
arcano
arcar
arcate
arch
archaea
archaeology
archaeopteryx
archaic
archaismo
archangelo
arche
archeol
archeologia
archeologic
archeologo
archeologos
archeos
archer
archetto
archidiocese
archiepiscopal
archiepiscopo
archimedes
archipelago
archipelagos
architecto
architectonic
architectos
architectura
architectural
architecture
archivate
archive
archived
archives
archivista
archivo
archivos
arco
arcos
arctic
arctica
arctocephalus
arctos
arcu
arde
ardea
ardennes
ardente
arder
ardesia
ardimento
ardite
arditura
ardituras
ardor
ardue
are
area
areas
arena
arenacee
arenar
arenari
arenas
arenose
arequipa
ares
arezzo
argentano
argentate
argentee
argenteria
argentifere
argentin
argentina
argentine
argentino
argento
argilla
argillacee
argillose
argo
argon
argonauta
argos
argot
argotic
argue
arguer
argueva
arguite
argument
argumenta
argumentar
argumentation
argumentative
argumento
argumentos
argute
argutia
argyroneta
ari
aria
arianismo
aride
ariel
aries
arietar
arietation
ariete
ario
arioso
arise
aristocrate
aristocratia
aristocratic
aristonico
aristotele
aristoteles
aristotelic
arith
arithmetic
arithmetica
arivava
arizona
arkansas
arm
arma
armada
armamento
armamentos
armar
armario
armas
armate
armatura
arme
armea
armeas
armenia
armeniaca
armenian
armenie
armenio
armenios
armillaria
armistitio
armor
arms
armstrong
army
arn
arno
arnold
arnsberg
aro
aroma
aromanian
aromaniano
aromatic
around
arpanet
arquitectura
arragiamento
arrange
arrangement
arrangia
arrangiamento
arrangiamentos
arrangiar
arrangiate
arrangiator
arras
array
arrentamento
arrentar
arrest
arrestar
arrestate
arrestation
arresto
arretrar
arretrate
arretrato
arriba
arriva
arrival
arrivante
arrivar
arrivara
arrivata
arrivate
arrivava
arrive
arrogante
arrogantia
arrogar
arrogate
arroio
arrotundar
arrow
arroyo
arrugar
arrugate
ars
arse
arsenal
arsenic
arsenico
arsenium
art
arte
artefacto
artefactos
artemisia
arteria
arterial
arterias
arteriosclerosis
artes
arthritic
arthritis
arthropodo
arthropodos
arthur
arti
article
articles
articular
articulate
articulation
articulatori
articulista
articulo
articulos
artifice
artificial
artificialmente
artificio
artificiose
artigo
artilleria
artimon
artiodactyla
artiodactylos
artist
artista
artistas
artistic
artists
artivist
arts
artsakh
aruba
arvense
arya
aryan
as
asbesto
ascendente
ascendentia
ascender
ascendeva
ascension
ascensional
ascensor
ascent
ascetic
ascetismo
ascii
ascoli
ascolta
ascoltar
ascoltator
ascoltava
ascribe
ascriber
ascribite
aseptic
asexual
asexuate
asgard
ash
ashes
ashkenazi
ashoka
asi
asia
asian
asiatic
aside
asimov
asino
ask
asked
asleep
asmara
asociacio
asp
asparago
asparagos
aspect
aspecto
aspectos
aspects
aspere
asperger
asperitate
aspersion
asphaltate
asphalto
asphyxia
asphyxiante
asphyxiar
aspira
aspirante
aspirar
aspirate
aspiration
aspirator
aspirava
aspirina
aspx
ass
assai
assail
assailant
assalir
assalite
assaltar
assalto
assassin
assassinamento
assassinar
assassinate
assassination
assassinato
assassinatos
assassino
assassinos
assatis
assault
asse
assecura
assecurantia
assecurantias
assecurar
assecurate
assecurator
assecurava
assediate
assedio
assemblage
assemblar
assemblate
assemblava
assemble
assemblea
assembleas
assembly
assent
assentimento
assentir
assere
asserente
asserer
assereva
assert
assertion
assertiones
assertive
assessment
assessor
assets
asseverative
assez
assi
assidue
assiduitate
assign
assigna
assignar
assignate
assignation
assimilar
assimilate
assimilated
assimilation
assimilative
assist
assistant
assiste
assistente
assistentes
assistentia
assister
assisteva
assistite
associa
associar
associate
associated
association
associationes
associations
associative
associativitate
associato
associava
assortimento
assortir
assortite
assume
assumed
assumer
assumeva
assumite
assumption
assurance
assurdante
assurdar
assyria
assyrian
assyrie
ast
astana
astatic
astato
astere
asterisco
asteroid
asteroide
asteroides
asthenia
asthenic
asthma
asthmatic
asti
astigmatic
astral
astray
astringente
astro
astrol
astrolabio
astrologi
astrologia
astrologic
astrologie
astrology
astron
astronauta
astronautas
astronautica
astronave
astronomer
astronomia
astronomic
astronomical
astronomie
astronomo
astronomos
astronomy
astrophysic
astrophysica
astros
asturian
asturiana
asturiano
asturias
astute
astutia
astutiose
asuncio
asylo
asylum
asymmetric
asymptotic
asynchrone
at
ata
atakis
atalanta
atavistic
atavo
ataxia
ate
atelier
athanasian
athee
atheismo
atheista
athematic
athena
athenas
atheneo
atheniese
athens
atheo
atheos
atherstone
athleta
athletas
athletic
athletismo
ation
ativismo
atla
atlango
atlanta
atlante
atlantic
atlantico
atlantida
atlantique
atlantis
atlas
atmo
atmosphera
atmosphere
atmospheric
ato
atollo
atom
atomic
atomicitate
atomisator
atomistic
atomo
atomos
atone
atonic
atque
atra
atrabile
atrabiliari
atroce
atrocemente
atrocitates
atrophia
atrophic
attacca
attaccabile
attaccamento
attaccante
attaccar
attaccate
attaccava
attacco
attaccos
attach
attacha
attachar
attachate
attache
attached
attachment
attack
attacker
attempt
attempto
attend
attendance
attende
attendente
attender
attendeva
attentar
attentato
attentatori
attentatos
attente
attention
attentive
attentivemente
attenuante
attenuar
attenuate
attenuation
atterrage
attesta
attestar
attestate
attestation
attic
attila
attinge
attingente
attinger
attingeva
attingimento
attingimentos
attingite
attire
attisar
attitude
attitudes
attorney
attract
attraction
attractiones
attractive
attractiveness
attrahe
attraher
attraheva
attrahite
attrappa
attrappar
attrappate
attribue
attribuer
attribuite
attribute
attribution
attributive
attributo
attributos
attruppamento
attruppar
atypic
au
auckland
auction
auctor
aucune
audace
audacia
audaciose
audi
audibile
audibilitate
audience
audiente
audientia
audio
audiovisual
audir
audis
audite
audition
auditive
audito
auditor
auditores
auditori
auditorio
audiva
auf
auflage
augmenta
augmentar
augmentate
augmentation
augmentative
augmentava
augmento
augsburg
augue
augur
augurar
augurio
augurios
august
augusta
auguste
augustee
augustinian
augustino
augusto
augustus
aulic
aun
aunque
aunt
aura
aural
aurar
aurate
aure
auree
aurelio
aureola
aures
aureus
auricula
auricular
aurifere
aurifice
auro
aurora
aus
auspices
auspicios
aussi
auster
austeritate
austin
austral
australasia
australia
australian
australis
austria
austriac
austriaco
austrian
austro
austrohungare
austronesian
aut
autant
autarchia
autem
authentic
authentication
authenticitate
author
authoritate
authoritative
authority
authors
autismo
auto
autobiographia
autobiographic
autobiography
autobus
autobuses
autocar
autochthone
autoclave
autocratic
autodefensa
autodetermination
autodiagnose
autodidacte
autodidactic
autodromo
autographic
autographos
automatic
automaticamente
automation
automatisar
automatisate
automatisation
automato
automo
automobile
automobiles
automobilismo
automobilista
automobilo
automutilation
autonome
autonomia
autonomic
autonomous
autopagina
autopsia
autopsy
autor
autorato
autores
autorisar
autorisate
autorisation
autoritari
autoritate
autoritates
autos
autostop
autostrata
autre
autres
autumnal
autumno
auvernia
aux
auxiliar
auxiliari
auxiliary
auxilio
av
ava
available
avalanche
avan
avant
avantage
avantages
avantagiose
avantal
avante
avantero
avantia
avantiamento
avantiar
avantias
avantiata
avantiate
avantiava
avar
avaria
avaritia
avaro
avatar
ave
avec
aveline
avellana
avellaniero
aveller
avellino
avena
aventura
aventurar
aventuras
aventurose
avenue
average
avere
avergoniar
avergoniate
aversion
averter
aves
avestruthio
aviar
aviario
aviation
aviator
avicina
avicinar
avide
aviditate
avila
avino
avion
aviones
avis
avisar
avisate
aviso
aviv
avivar
avo
avocato
avoid
avoir
avoirdupois
avon
avraham
avulsion
avunculo
awake
award
awardes
awards
aware
away
ax
axe
axes
axial
axilla
axillar
axillas
axioma
axiomas
axiomatic
axis
ay
ayer
ayuda
az
azal
azalea
azerbaidzhan
azerbaijan
azimuthal
azkaban
aznavour
azores
azul
azur
azure
azuro
azyme
b
ba
baal
baarle
baba
babble
babel
babi
babies
babism
babismo
baby
babylon
babylonia
babylonian
bac
baca
bacca
baccas
bacchanal
bacchetta
bacchic
baccho
bach
bacillo
back
background
backing
backward
backwards
bacon
bacteria
bacterial
bacterio
bacteriologic
bacterios
bad
badajoz
baden
badge
badger
badia
badminton
bado
baez
bag
bagage
bagages
bagatella
bagdad
baggins
baha
bahai
bahaismo
bahamas
bahia
bahrain
bai
baia
baikal
bailey
bait
baixo
baja
bajo
baker
bakonyi
baku
bakunin
bal
balakian
balance
balancia
balanciamento
balanciante
balanciar
balancio
balbutiamento
balbutiar
balcon
balde
baldur
balear
baleares
balena
balenas
balkanes
balkanic
balki
ball
balla
ballada
ballar
ballas
ballerina
ballet
ballistic
ballo
ballon
ballones
balloon
ballot
ballottar
balnea
balsa
balsamic
balsamo
baltasar
balthasar
baltic
baltico
baltimore
balto
balustrada
bamako
bambu
bambuco
ban
bana
banal
banana
bananas
banani
banca
bancari
bancarupta
bancas
banchetto
banco
bancos
band
banda
bandage
bandar
bandas
bandeira
bandiera
bandieras
bandito
banditos
bandore
bang
bangkok
bangladesh
bangui
baniar
baniava
banio
banios
bank
bankruptcy
banks
banner
bannir
banquet
bantu
baobab
baobabes
baptisar
baptisate
baptisava
baptismal
baptismals
baptismo
baptist
baptista
baptiste
bar
bara
barack
barangay
barba
barbados
barbara
barbare
barbaresc
barbaria
barbaric
barbaros
barbate
barbera
barbuda
barca
barcas
barcelona
barco
bardeen
bare
bari
barium
bark
barker
barletta
barn
barnaba
barnard
barney
baroc
baroco
barometric
barometro
baron
baronessa
baronia
barra
barraca
barrage
barrar
barras
barrate
barrel
barrett
barrica
barricadas
barrier
barriera
barrieras
barril
barrio
barry
barthes
bartholomeo
bartitsu
bartolome
bartolomeo
barton
baruch
baryta
bas
basa
basal
basaltic
basalto
basamento
basante
basar
basate
basava
basc
basco
bascula
basculante
base
baseball
based
basel
bases
bashful
basho
basia
basiar
basic
basicamente
basilea
basilica
basilicata
basilio
basilisco
basin
basio
basios
basis
basket
basketball
bass
bassa
bassar
bassaricyon
bassate
basse
bassessa
bassino
bassista
basso
bassos
basta
bastante
bastar
bastarde
bastille
bastion
basto
baston
bastones
bat
bata
batangas
batata
bath
batista
bator
battaglia
battalia
battalias
battalion
battallia
batte
battente
battentes
batter
batteria
batterias
batterista
battery
batteva
battimento
battista
battite
battitor
battle
baudelaire
bauhaus
bauserman
bavarese
bavaria
bay
baya
bayer
bayonetta
bazar
bb
bbc
bc
bce
bd
be
beach
beak
beam
bean
beans
bear
bearing
beast
beasts
beat
beate
beatification
beating
beatitude
beatles
beatrice
beatriz
beau
beaucoup
beaufront
beautiful
beauty
beauvoir
bebe
bebida
bebiendo
bebox
bec
became
because
becco
beck
become
becomes
becoming
bed
bedford
beduines
bee
beef
beefsteak
been
beer
beethoven
beetle
before
beforehand
beg
began
beggar
begin
beginner
beginning
beginnings
behai
behavior
behaviour
behind
behold
bei
beijing
being
beirut
bel
bela
belarus
bele
belfast
belgas
belge
belgica
belgio
belgium
belief
believe
belisario
belize
bell
bella
belle
bellemente
belles
belletristic
bellic
bellicista
bellicose
belligerente
bellissime
bello
bellos
belluno
belmonte
belo
belonging
below
belt
beltate
ben
benche
bend
bendit
bene
beneath
benedetto
benedicte
benedictinos
benediction
benedictiones
benedicto
benedito
benefactor
benefic
beneficentia
beneficia
beneficial
beneficiar
beneficiari
beneficio
beneficios
benefit
benelux
benes
benesser
benevento
benevole
benevolente
benevolentia
bengala
bengali
benidorm
benigne
benignitate
benin
benito
benjamin
bennett
benny
benque
bent
bentley
bento
benvenita
benvenite
benz
benzina
benzoe
benzoin
ber
berber
berg
bergamo
bergen
berger
bergman
berillos
bering
berjero
berkeley
berkelium
berli
berlin
bermuda
bern
berna
bernard
bernardo
bernat
berne
berners
bernhardt
bernstein
berry
bertrand
beryllium
besanc
beside
besides
besonia
besonio
besonios
best
bestia
bestial
bestias
bestio
bet
beta
betas
beth
bethlehem
beton
betonar
better
betting
betty
betula
between
beverage
beverly
beyond
bezonas
bf
bg
bh
bhara
bhutan
bi
bias
bib
bibcode
bibe
bibendum
biber
biberage
biberages
biberon
bibeva
bibita
bibitas
bibitor
bibitura
bible
biblia
biblic
biblical
bibliographia
bibliographic
bibliography
biblioteca
bibliotheca
bibliothecario
bibliothecas
bicario
bicephale
bicicleta
biciklo
bicipite
bicyclar
bicycle
bicycletta
bicyclettas
bid
biden
bidirectional
bidon
bielefeld
biella
bielorussia
bielorusso
bien
biennal
bifide
bifocal
bifurcate
bifurcation
big
bigg
bigot
biguac
bijection
bikini
bilabial
bilateral
bilateria
bilbao
bilbo
bile
biliar
biliardo
biliari
bilieto
bilinear
bilingue
biliose
bill
billboard
billet
billete
billeteria
billetes
billiards
billion
billy
bilthoven
bimestral
bimetallic
bin
binari
binaria
binary
bind
binding
bingen
binh
binocular
binoculo
binomial
bio
biobi
biocentrismo
biochem
biochemistry
biochimia
biochimic
biochimista
biodiversitate
biodiversity
biogenesis
biogenetic
biographia
biographias
biographic
biographical
biographo
biography
biol
biologia
biologic
biological
biologie
biologista
biologo
biology
biophysica
bios
bioscientia
biot
biota
biotechnologia
biotechnology
bipartite
bipede
biphobia
bipm
bipolar
bira
bird
birds
bireria
birmania
birmingham
biro
birth
birthday
bis
bisannual
biscaya
biscocto
biscoctos
biscuit
biscuites
bisello
bisexual
bisexuales
bisexualitate
bishop
bism
bismarck
bismo
bismuth
bison
bisonte
bisontes
bissau
bissextil
biste
bit
bitcoin
bite
bits
bitter
bitumen
bitumine
bituminose
bius
bivalente
bizarre
bla
black
blacksmith
blackwell
blade
blair
blaise
blame
blanc
blanca
blanchimento
blanchir
blanco
blancor
blancos
blande
blandit
blank
blanka
blanke
blasmo
blason
blaspheme
blasphemia
blau
blaze
blazer
bleeder
blica
blico
blind
blindage
blindate
blindness
bliss
blister
blizzard
bloca
blocada
blocage
blocamento
blocar
blocate
block
bloco
blocos
bloemfontein
blog
blonde
blood
bloody
bloom
bloomington
blow
blu
blua
blue
blues
bluff
blumenau
blunt
bluntness
blusa
bnf
bo
boa
board
boarding
boards
boat
bob
bobina
bobinar
bobsleigh
boca
bocaina
bochum
bodhisattva
bodily
body
bogota
bohemia
bohemian
bohr
bohrium
boia
boil
boiler
boiling
boirac
bois
boise
boiteux
boko
bolchevista
bold
boldsymbol
boleto
boli
bolivar
bolivia
bolivian
bolla
bollas
bolletta
bologna
bolognese
bolonia
bolshevik
bolsillo
bolt
boltzmann
bolzano
bom
bomb
bomba
bombard
bombardamento
bombardero
bombas
bombay
bombo
bompiani
bon
bona
bonaire
bonaparte
bonasus
bonbon
bond
bondage
bone
bonetto
bonhomo
bonifa
bonifacio
bonita
bonitate
bonito
bonn
bonne
bono
bonsai
bontate
bonus
bony
book
bookbinding
books
boom
boomerang
boot
booty
borda
bordatura
bordeaux
border
bordo
bordodecorator
bordos
bordura
bore
boreal
borealis
borges
borgo
boric
boring
boris
bormida
born
borne
bornholm
boro
borophaginae
borough
boroughs
borovac
borra
borrar
borussia
bos
boscage
bosco
boscos
bose
bosnia
boson
bosque
boston
bot
bota
botanic
botanica
botanista
botany
boteca
botecas
botella
botelo
both
bother
bots
botswana
botta
bottas
botte
bottilia
bottilias
bottina
bottle
bottom
botuvera
bouillon
boulevard
bound
boundary
bouquet
bourbon
bourdon
bove
boves
bovidae
bovin
bow
bowie
bowks
bowl
bowling
box
boxa
boxator
boxe
boxer
boxes
boxing
boy
boycott
boycottage
boycottar
boyle
boylovers
boys
boywiki
bq
br
bra
brabant
brac
brace
brachial
brachio
bracial
bracialetto
bracio
bracios
bradford
bradley
brahe
brahma
brahman
brahmanic
brahms
braid
braille
brain
brake
bran
branca
brancas
branch
branches
branchial
branco
brand
brandenburg
brandir
brandy
bras
brasil
brasileiro
brasilia
brasilian
brasiliano
brasilianos
brass
brassica
bratislava
braunschweig
brava
bravar
brave
braveria
bravery
bravo
bravura
brazil
brazzaville
bre
bread
breadth
break
breaker
breakfast
breaking
breast
breath
breathe
brecha
breda
breed
breeding
breinstrup
bremen
bremerhaven
brescia
breton
breve
brevemente
breveto
breviario
brew
brey
brian
brianza
brica
bricca
briccas
brick
bricolage
brida
bridge
bridle
brie
brief
brigada
brigantes
brigham
bright
brighten
brightness
brighton
brigitte
brilas
brilla
brillante
brillantia
brillar
brillava
brilliant
brim
brindisi
bring
bringing
brink
brio
brisa
brisk
bristol
brit
britain
britannia
britannic
britannica
britannos
brithenig
british
britone
bro
broad
broadcast
broadcasting
broadway
broca
broccoli
broche
brochure
brodar
broderia
broken
bromo
bromuro
bronchial
bronchitis
brongersma
bronx
bronze
bronzo
brooch
brood
brook
brooklyn
brooks
brossa
brossar
brossetta
brother
brothers
brought
brown
browne
browse
browser
bru
bruce
bruise
bruma
brumose
brun
bruna
brunei
bruno
brunswick
brusc
bruscamente
bruscheria
brush
brusque
brussel
brussels
brutal
brute
bruto
bruxelles
bsd
bt
bu
bubalus
bubo
bubonic
bucarest
bucca
buccal
buccas
buccata
buch
buchanan
buck
bucket
buckingham
buckle
bucla
buclar
buclas
bucolic
bud
buda
budapest
buddha
buddhic
buddhism
buddhismo
buddhismus
buddhist
buddhista
buddhistas
buddhistic
budget
budgetari
buen
buena
buenas
bueno
buenos
bufalo
buffalo
buffet
buffon
bug
build
building
built
bula
bulb
bulbo
bulbos
bulbose
bulgare
bulgaria
bulgaro
bulgaros
bulk
bull
bulla
bullas
bulldog
bulletin
bulliente
bullir
bullite
bullonera
bullough
bulon
bulones
bun
bunch
bundesarchiv
bundesliga
bundle
bungalow
bunyan
buon
bura
burden
bureau
bureaucratia
bureaucratic
bureaus
bureba
burg
burgese
burgesia
burgo
burgomaestro
burgos
burgundia
burial
burkina
burla
burlas
burlesc
burma
burn
burning
burns
burnt
burrows
bursa
burst
burundi
bury
bus
busca
bush
business
bussola
busto
busy
but
butcher
buteo
butiki
butiko
butino
butler
butt
butter
butterworth
buttocks
button
buttones
buttonieras
butyro
buxo
buy
buying
buzz
bxc
bxe
by
bye
byrne
byron
byte
bytecode
bytes
byzantin
byzantine
byzantio
c
ca
cabalistic
caballeros
caballo
caballos
caballus
caban
cabana
cabanas
cabaret
cabestan
cabeza
cabin
cabina
cabinet
cabinetto
cable
cablo
cablos
cabo
cabotage
cac
caca
cacahuete
cacahuetes
cacao
caceres
cache
cachmir
cada
cadaver
cadavere
cadaveres
cadaveric
cade
cadente
cadentia
cader
cadera
cadet
cadette
cadeva
cadie
cadita
cadite
cadmium
cadore
caduc
caesar
caesium
cafe
caffe
caffeina
caffetiera
cage
cai
cairo
caja
cake
cala
calabria
calabro
calais
calamar
calamitate
calandra
calandrar
calcar
calcaree
calcari
calcario
calce
calcea
calceas
calceatura
calceaturas
calceo
calceolo
calceones
calceos
calcetta
calcettas
calcic
calcium
calco
calcula
calcular
calculate
calculation
calculationes
calculator
calculava
calculo
calculos
calcutta
calde
caldiera
caldierero
cale
caledonia
caleface
calefacer
calefacite
calefaction
calefactor
calendar
calendario
calendarios
calendas
calf
calfatar
calgary
cali
calibre
calice
calidad
calide
califato
california
californium
caligula
call
calle
called
calligraphia
calling
callo
callos
calm
calma
calmar
calmate
calme
calor
calorias
caloric
calorific
calorose
caltanissetta
calumnia
calumniatori
calumniose
calvario
calve
calvin
calvinismo
calvinista
calvinistic
calvino
calzada
cam
cama
camargo
cambia
cambiamento
cambiamentos
cambiante
cambiar
cambiara
cambiate
cambiator
cambiava
cambio
cambios
cambodgia
camboriu
cambridge
came
camelidae
camelides
camelo
camelus
camera
camerada
cameras
camerera
camerero
cameron
cameroon
camerun
camino
camio
camion
camionero
camiones
camionista
camisa
camisas
camminar
cammino
camminos
camo
camoce
camomilla
camouflage
camp
campaign
campamento
campana
campanas
campanetta
campania
campanias
campaniforme
campanil
campanula
campator
campbell
campesino
campestre
camphorate
campillo
camping
campion
campionato
campionatos
campiones
campo
campobasso
campos
campus
camus
can
cana
canaan
canada
canadensis
canadese
canadian
canadiano
canal
canales
canalia
canari
canaria
canario
canary
cancel
cancellar
cancellate
cancellation
cancelleria
cancellero
cancello
cancer
cancere
cancerose
canciones
candela
candelabro
candelas
candidate
candidato
candidatos
candidatura
candide
candite
candle
candomble
candor
candy
cane
canelinha
canes
canicula
canicular
canidae
canides
caniformia
canin
canini
canis
canna
cannabe
cannabis
cannas
cannella
cannellar
cannellatura
cannibal
cannon
cannones
cannot
canoa
canoe
canon
canone
canones
canonic
canonical
canonisate
canor
canta
cantabile
cantabria
cantabric
cantante
cantar
cantata
cantate
cantator
cantatores
cantatrice
cantautor
cantava
canteen
canterbury
cantico
cantidad
cantier
cantilever
cantina
cantion
cantiones
canto
canton
cantonal
cantones
cantor
cantos
canvas
canyon
cap
capa
capabile
capabilitate
capabilitates
capable
capace
capacitate
capacitates
capacity
capaz
cape
capecchi
caper
capernaum
capetian
capillar
capillatura
capillo
capillos
capillute
capinzal
capita
capital
capitales
capitalismo
capitalista
capitanias
capitano
capitate
capite
capitello
capites
capitol
capitolin
capitolio
capitular
capitulation
capitulava
capitulo
capitulos
capo
capoeira
cappa
cappadocia
cappella
cappellano
cappello
cappucietto
cappucio
cappucito
capra
capras
capri
caprice
capricio
capricios
capriciose
capricorno
caprin
capro
capsula
capsular
captain
captar
captiose
captivate
captive
captivitate
captura
capturar
capturate
capturava
capture
car
cara
carabas
carabina
caracal
caracas
caracol
caramello
carapace
carat
caravana
carbohydratos
carbon
carbonato
carbonero
carbones
carbonic
carbonifere
carbonisate
carbono
carboxylation
carburante
carburator
carburo
carcassa
carcerari
carcere
carcerero
carcinoma
card
cardamine
cardan
cardanic
cardate
cardboard
carden
cardenal
cardiac
cardialgia
cardiff
cardinal
cardinales
cardinalicie
cardinalitate
cardine
cardiologia
cardiopulmonar
cardiovascular
cardo
cards
care
careful
carefully
carente
carentia
carer
caressar
carex
carga
cargamento
cargar
cargas
cargate
cargator
cargava
cargo
cari
cariate
caribbean
caribe
caricatura
caricatural
carice
carie
carillon
carinthia
carinthian
caritabile
caritate
carl
carlo
carlos
carmen
carnage
carnal
carnation
carnaval
carnavalesc
carne
carnegie
carnet
carneval
carnifice
carnivora
carnivore
carnivoros
carnose
caro
carol
carolina
caroline
carolinge
carolingian
carolo
carolus
caronia
carotas
carpa
carpenter
carpenteria
carpentero
carpentier
carpet
carpetta
carpo
carrafa
carrara
carre
carretta
carriage
carried
carrier
carriera
carrieras
carro
carroll
carros
carrossa
carrosseria
carry
carrying
cart
carta
cartagena
cartas
carte
cartel
carter
cartesian
cartesio
carthagine
carthago
cartiera
cartilagine
cartilaginose
cartographia
cartographic
carton
cartonage
cartones
cartoon
cartridge
cartucha
cas
casa
casablanca
casale
casas
cascada
cascadas
casco
case
caseo
caseos
caserna
caserta
cases
cash
cashier
casi
casino
cask
casket
caso
casos
caspian
caspie
cassa
cassandra
cassano
cassar
cassas
cassation
cassero
casserola
cassetta
cast
casta
castanias
caste
castel
castellano
castelletto
castellina
castello
castellos
castelnuovo
castelo
castigamento
castigar
castigation
castiglione
castilia
castilian
castiliano
castilla
castillo
castitate
castle
castor
castores
castrate
castration
castrillo
castro
casual
casualitate
casualmente
cat
cata
catacombas
catafalco
catala
catalan
catalana
catalano
catalogo
catalogue
catalonia
catalunya
catalysator
catalyse
catalytic
catania
catanzaro
cataracta
cataractas
catarina
catarrh
catarrhal
catarrho
catastral
catastro
catastrophe
catastrophes
catastrophic
catch
catechismo
catechistic
catedral
categoria
categorias
categoric
categoricamente
category
catena
catenari
catenas
catharina
cathartic
cathedra
cathedral
cathedrales
catherine
catheter
cathodic
catholic
catholica
catholicismo
catholico
catholicos
cation
cato
caton
catoptric
catran
catranate
cats
catta
cattle
catto
cattos
catullo
cauca
caucasian
caucaso
caucasus
cauchu
cauda
caudal
caudas
caudate
caude
caule
caules
causa
causal
causalitate
causante
causar
causas
causate
causative
causava
cause
caused
causes
causing
caustic
caute
cautela
caution
cava
cavalcabile
cavalcar
cavalleresc
cavalleria
cavallero
cavalleros
cavalletto
cavallin
cavallo
cavallos
cavar
cave
caverna
cavernas
cavernose
cavia
caviar
cavil
cavilia
cavitate
cavitates
cavite
cavity
cavo
cavos
cavour
cayley
cayo
cb
cbc
cbs
cc
cd
cdc
cdot
cdots
ce
ceara
cease
cebu
cec
ceca
cecar
cecate
ceci
cecilia
cecitate
ceco
cecos
ced
cede
ceder
cedeva
cedite
cedro
cedros
cee
cel
cela
celar
celate
celava
celebra
celebrante
celebrar
celebrate
celebration
celebrationes
celebrava
celebre
celebritate
celebritates
celere
celeritate
celeste
celestial
celibatari
celibatario
celibato
celibe
celine
cell
cella
cellario
celle
celles
cello
cellos
cells
cellula
cellular
cellulas
cellulosa
cellulosic
celo
celos
celsius
celso
celta
celtas
celtic
celtico
celui
cementar
cemento
cemeterio
cemetery
cen
cena
cenar
cenozoic
cens
censer
censimento
censo
censor
censos
censura
censurar
censure
census
cent
centaurea
centauro
centena
centenario
centenarios
centenas
centennial
center
centesimal
centesime
centesimo
centigrade
centimetro
centimetros
cento
centos
centra
central
centrale
centrales
centralisar
centralisate
centralisation
centrar
centrate
centrava
centre
centrifuga
centrifuge
centro
centroafrican
centros
cents
centuplicate
century
ceo
cephalanthera
cephalic
cept
cera
ceramic
ceramica
cerate
cerca
cercante
cercar
cercate
cercator
cercava
cereal
cereales
cerebral
cerebritis
cerebro
cerebrospinal
ceremonia
ceremonial
ceremonias
cereo
cerere
ceres
ceresia
ceresias
ceresiero
cerium
cern
cero
cerrato
cerreto
cerrito
cerro
certain
certainly
certe
certemente
certena
certifica
certificate
certification
certificato
certitude
certo
cervantes
cerveza
cervical
cervo
ces
cesar
cesare
cesarea
cesaree
cesena
cesium
cess
cessa
cessaire
cessar
cessate
cessation
cessava
cessibile
cession
cestodo
cet
cetacea
cetera
cetere
cetero
ceterum
cette
ceuta
ceux
ceylon
cf
cfr
cg
cgi
ch
cha
chacal
chachiero
chaco
chacos
chad
chagall
chahine
chain
chair
chairman
chaise
chalet
challenge
chamber
chambro
champagne
champignon
champignones
champignons
champion
championship
champollion
chan
chance
chances
chang
change
changes
changing
channel
chantage
chante
chaos
chaotic
chap
chapeco
chapel
chapelle
chaplin
chapman
chapter
char
character
characteres
characterisa
characterisar
characterisate
characterisation
characterisava
characteristic
characteristica
characteristicas
characteristics
characterized
charge
charges
charisma
charismatic
charity
charivari
charlatan
charles
charleston
charlie
charlotte
charm
charme
chart
charta
charter
chartres
charybdis
chasas
chase
chasing
chassa
chassar
chassate
chassator
chassatores
chassava
chassis
chat
chatter
chaucer
chauffeur
chaus
chavacano
che
cheap
cheat
chec
check
checo
checoslovachia
cheer
cheerful
cheese
chef
chefes
chefo
chefs
chem
chemical
chemin
chemistry
chemnitz
chenopodio
chepelare
cheque
cheques
cher
chera
cherokee
cherry
chess
chest
chesterman
chesterton
chestnut
chez
chi
chic
chica
chicago
chicas
chiche
chichibio
chicken
chico
chief
chiefly
chiesa
chieti
child
childhood
children
chile
chilean
chilen
chili
chill
chilling
chiloe
chimeric
chimes
chimia
chimic
chimicamente
chimico
chimista
chimney
chimpanze
chimpanzee
chimpanzes
chimps
chin
china
chinchilla
chinese
chineses
chino
chip
chipa
chipolata
chips
chiptune
chironex
chiroptera
chirurgia
chirurgic
chirurgo
chis
chlorhydric
chlorido
chloro
chloruro
cho
choc
choccante
choccar
chocolate
choice
choir
choke
cholera
choleric
cholesterol
chomsky
chop
chopping
choral
chorda
chordas
chordata
chordatos
chorea
choreic
choreographo
choro
chose
chosen
chr
chris
christ
christi
christian
christiana
christianismo
christianitate
christianity
christiano
christianos
christina
christine
christmas
christo
christologia
christologic
christopher
christophoro
christus
chrom
chromatic
chrome
chromium
chromo
chromosoma
chromosomas
chromosomic
chronic
chronica
chronicas
chronicles
chronista
chrono
chronologia
chronologic
chronologicky
chronometria
chronometro
chronos
chrysalide
chrysanthemo
chu
chuchundra
chuck
church
churches
churchill
ci
cia
ciao
cibolla
cibollas
cicatrice
cicero
ciceron
ciceronian
ciconia
cicuta
cid
cidade
cido
cidra
cie
ciel
cielo
cien
ciencia
ciencias
cienti
ciento
cierta
ciertamente
cierto
cifra
cifras
cifrate
cigar
cigarretta
cigarrettas
cigarro
cigarros
cii
cil
cilento
ciliar
cilios
cilmente
cima
cimice
cimices
cinchona
cinchonism
cincinnati
cinco
cinctura
cincturon
cine
cineasta
cinema
cinemas
cinematic
cinematographia
cinematographic
cinematographo
cinemo
cinere
cineree
cineres
cinetic
cinger
cinquanta
cinquantesime
cinque
cio
cip
circa
circle
circo
circuir
circuit
circuito
circuitos
circuitous
circula
circular
circulation
circulatori
circulo
circulos
circum
circumcision
circumfere
circumferente
circumferentia
circumferer
circumferite
circumnavigation
circumscription
circumspecte
circumspection
circumstances
circumstantia
circumstantial
circumstantias
circumvallate
circumvallation
circumvenir
circumvolution
circus
cirkum
cirrhose
cirrhosis
cirro
cirrostrato
cirsio
cis
cisello
cisjordania
cisorios
cisterna
cit
cita
citadella
citar
citatanitate
citatano
citatanos
citate
citates
citation
citationen
citationes
citava
cite
cities
citizen
citizenship
cito
citric
citro
citta
city
citypopulation
ciudad
ciutat
cive
cives
civic
civil
civiles
civilisate
civilisation
civilisationes
civilization
civismo
civitas
civitate
civitella
ck
cken
cl
cla
claccar
cladistica
clado
claim
claims
claire
clama
clamar
clamor
clamorose
clamp
clan
clandestin
clandestinitate
clandestinmente
clanes
claque
clar
clara
claramente
clarar
clarificar
clarification
clarify
clarinetto
clarino
claritate
clarity
clarividente
clark
clarke
clarmente
claro
clary
clase
clases
clasma
clasp
class
classamento
classar
classe
classes
classic
classical
classicismo
classico
classicos
classifica
classificar
classificate
classification
classificationes
classificator
classis
classix
clastic
claude
clauder
claudeva
claudia
claudicar
claudimento
claudio
claudite
claudius
claus
clause
claustral
clausula
clausura
clausurar
clavar
clavate
clave
claves
clavicula
clavicular
clavicymbalo
clavierista
claviero
clavieros
clavo
clavos
clay
cle
clean
cleaner
cleaning
cleanliness
cleanse
cleansing
clear
clearing
clearly
cleary
cleij
clemente
clementia
cleopatra
clerical
clerico
clerk
clero
cleveland
clic
clicca
cliche
click
cliente
clientela
clientes
cliff
clima
climate
climatic
climatologia
climatologic
climax
climb
climber
clinar
clinic
clinica
clinical
clinkers
clinton
clip
clique
cloaca
cloacal
cloacas
clock
clocks
clon
clonage
clones
close
closed
closely
closet
cloth
clothes
clothing
cloud
clouds
clown
club
clubes
clubs
clud
clus
cluster
clusters
clyster
cm
cmm
cnn
co
coach
coaction
coager
coagulate
coagulation
coal
coalisate
coalition
coarde
coardia
coarse
coarseness
coast
coat
coaxial
cobalt
cobaltic
coblenz
cobol
cobra
cobras
coc
coca
cocaina
cocer
coche
cochi
cochiero
cochietto
cochlea
cocina
cocinar
cocinas
cocinera
cocinero
cocite
cock
cocktail
coclea
coclear
coclearata
coco
cocon
coconut
cocte
coction
coda
code
codex
codice
codices
codificar
codificate
codification
codificationes
codo
codominio
coefficiente
coerce
coercibile
coercion
coercition
coercitive
coexistentia
coffee
coffin
coffretto
coffro
cofia
cofundator
coge
cognac
cognate
cogniscite
cognite
cognition
cognitive
cognocite
cognomine
cognosce
cognoscentia
cognoscentias
cognoscer
cognosceva
cognoscimento
cognoscimentos
cognoscite
cognoscitor
cohabitation
cohen
coherent
coherente
coherentia
coherer
coheritor
cohesion
cohesor
cohn
coil
coimbra
coin
coincide
coincidentia
coincideva
coito
coke
col
cola
colar
colatorio
cold
coldness
cole
coleccio
colegio
coleoptero
coler
colic
colica
colin
colitis
coll
colla
collaber
collabeva
collabora
collaborar
collaboration
collaborationes
collaborator
collaboratores
collaborava
collapse
collapso
collar
collate
collateral
collationar
colle
collect
collecta
collected
collection
collectionar
collectionator
collectiones
collections
collective
collectively
collectivemente
collectivisation
collectivista
collectivitate
collectivo
collector
collectores
collega
collegas
college
collegial
collegio
collegios
collegium
colles
collete
collide
collige
colliger
colligeva
colligite
collina
collinas
collins
collinson
collision
collisiones
collo
collocar
collocation
collocava
colloidal
colloquial
collusion
collusive
colo
colocar
cologne
colombia
colombian
colombo
colon
colonello
colonia
colonial
colonialismo
colonias
colonisar
colonisate
colonisation
colonisatores
colonna
colonnas
colonnello
colono
colonos
colony
color
colorado
colorante
colorantes
colorar
colorate
coloration
colored
colores
colorimetric
colors
colossal
colosseo
colosso
colour
colours
colpa
colpar
colpate
colpava
colpo
colpos
columba
columbari
columbas
columbia
columbian
columbiera
columbo
column
columna
columnas
colza
com
coma
comb
combat
combatte
combattente
combattentes
combatter
combatteva
combattive
combatto
combattos
combina
combinante
combinar
combinate
combination
combinationes
combinatori
combinava
combine
comburer
combustibile
combustibiles
combustible
combustion
come
comedia
comedian
comedias
comedo
comedy
comencia
comenciamento
comenciante
comenciantes
comenciar
comenciate
comenciava
comencio
comer
comercial
comercio
comes
comestibile
cometa
cometari
cometas
comfort
comfortable
comic
comico
comics
comida
comiendo
comienza
coming
comisio
comite
comma
command
commanda
commandamento
commandamentos
commandante
commandar
commandate
commandava
commander
commanditari
commando
commandos
commatrage
comme
commedia
commemora
commemorar
commemorate
commemoration
commemorative
commendabile
commendar
comment
commentar
commentario
commentarios
commentary
commentator
commentatores
commentava
commento
commentos
comments
commer
commerce
commerciabile
commercial
commercialisate
commercialisation
commercialmente
commerciante
commerciantes
commerciar
commercio
comminatori
commissariato
commissario
commission
commissionate
commissionava
commissiones
commisso
commit
committe
committee
committees
committer
committite
commode
commoditate
commodo
commodore
common
commonly
commons
commonwealth
commotion
commun
communa
communal
communas
commune
communes
communica
communicante
communicar
communicate
communication
communicationes
communications
communicative
communicato
communicator
communion
communism
communismo
communist
communista
communistas
communistic
communitari
communitate
communitates
community
communmente
commutar
commutation
commutative
commutator
commutatores
como
comocunque
comores
comp
compact
compacte
compan
compania
companias
companion
companiones
company
compara
comparabile
comparable
comparante
comparar
comparate
comparation
comparationes
comparative
comparativo
compare
comparer
comparison
comparti
compartimento
compartir
compartite
compass
compassion
compasso
compatibile
compatibilitate
compatible
compatiente
compel
compendio
compendiose
compensar
compensate
compensation
compensatori
compete
competente
competentia
competentias
competer
competition
competitiones
competitive
competitor
compiere
compilar
compilate
compilation
compilator
complacente
complacentia
complacer
comple
complementari
complemento
compler
completa
completamente
completamento
completar
completate
completava
complete
completely
completemente
completion
completo
complex
complexe
complexion
complexitate
complexo
compli
complica
complicar
complicate
complicated
complication
complicationes
complice
complices
complicitate
complimento
complimentos
complir
complite
compliva
complot
complotar
compone
component
componente
componentes
componer
componeva
componite
comporta
comportamental
comportamento
comportamentos
comportar
comportava
compose
composer
composite
composites
composition
compositiones
composito
compositor
compositores
compositos
composte
compostela
composto
compostos
compota
compound
compounds
compra
comprar
compras
comprate
comprator
comprava
comprehend
comprehende
comprehendente
comprehender
comprehendite
comprehension
comprehensive
comprende
comprendente
comprender
comprendeva
comprendite
comprensibile
comprension
comprensive
compress
compression
compressor
comprimer
comprimite
comprimito
comprise
compro
compromise
compromisso
compromitter
compulsar
compulsion
compulsive
compulsori
computar
computation
computational
computator
computatores
computatorial
computer
computo
comte
comu
comun
comune
comunes
comunicacio
comunidad
comunitate
con
conakry
conan
concatenate
concatenation
concave
conceal
concede
conceder
concedeva
concedite
conceited
conceive
concentra
concentrar
concentrate
concentration
concentrationes
concentrator
concentrava
concentric
concepcio
concept
conception
conceptiones
concepto
conceptos
concepts
conceptual
concern
concernant
concerne
concerned
concernente
concerneva
concerning
concernite
concert
concertante
concerto
concertos
concession
concessiones
concessive
concha
conchas
conciliabile
conciliante
conciliar
conciliation
conciliator
conciliatori
concilio
concipe
conciper
concipeva
concipite
concise
concision
conclave
conclude
concludente
concluder
concludeva
concludite
conclusion
conclusiones
conclusive
conco
concolor
concomitante
concorda
concordante
concordantia
concordantias
concordar
concorde
concordia
concrete
concretemente
concretion
concreto
concubinage
concurrente
concurrentia
concurrer
concurso
condado
conde
condemna
condemnabile
condemnar
condemnate
condemnation
condemnato
condemnava
condensar
condensate
condensation
condensator
condicional
condimentar
condimentate
condimento
condimentum
condir
condita
condition
conditiona
conditional
conditionamento
conditionate
conditiones
conditions
condivide
condolentia
condolentias
conduce
conducer
conduceva
conducite
conduct
conducta
conductas
conductibilitate
conduction
conductivitate
conducto
conductor
conductores
conductos
cone
conepatus
conf
confabular
confabulation
confecteria
confection
confectionar
confectionate
confectura
confederate
confederation
confer
confere
conference
conferences
conferentia
conferentias
conferer
conferite
confessar
confession
confessional
confessiones
confessor
confidence
confidente
confidentia
confidential
confider
confidibile
configurar
configuration
configurationes
confina
confinar
confinate
confine
confinement
confinio
confinios
confirm
confirma
confirmar
confirmate
confirmation
confirmava
confiscar
confiscate
confiscation
confitura
conflagration
conflict
conflicto
conflictos
conflictual
conflue
confluente
confluentia
conforma
conformable
conformar
conformate
conformation
conforme
conformemente
conformista
conformitate
conformity
confortabile
conforto
confraternal
confronta
confrontar
confrontate
confrontation
confrontava
confucian
confucianismo
confucio
confunde
confunder
confundite
confuse
confused
confusion
confutar
confutation
congedo
congelamento
congelar
congelate
congelation
congenital
congenite
congerie
congestion
congo
congratulation
congratulatori
congre
congregation
congregational
congregationes
congreso
congress
congressional
congresso
congressos
congruente
congruentia
congue
conic
coniferas
coniliera
conilio
conilios
conj
conjectura
conjectural
conjecturas
conjecture
conjugal
conjugar
conjugate
conjugation
conjugationes
conjuge
conjuncte
conjunctemente
conjunction
conjunctiones
conjunctive
conjunctivitis
conjuncto
conjunctura
conjunctural
conjunger
conjunto
conjurar
conjure
connect
connecte
connected
connecter
connecticut
connecting
connection
connectite
connective
conner
connexe
connexion
connexiones
conniventia
connotation
connotationes
cono
conquest
conquesta
conquestas
conquirer
conquireva
conquirite
conquisitor
conquista
conrad
consacrate
consanguinee
consanguinitate
conscie
consciente
conscientia
conscientiose
conscious
consciousness
conscription
conse
consecrar
consecrate
consecration
consectetur
consecutive
consecutivemente
conseguenza
consejo
consenso
consensual
consent
consentimento
consentir
consentite
consentiva
consequat
conseque
consequence
consequente
consequentemente
consequentia
consequentias
consequently
consequer
conserva
conservar
conservas
conservate
conservation
conservatismo
conservative
conservator
conservatores
conservatori
conservatorio
conservava
consider
considera
considerabile
considerabilemente
considerable
considerante
considerar
considerate
consideration
considerationes
considerava
considered
consignation
consiguiente
consilia
consiliabile
consiliar
consiliate
consiliator
consiliero
consilieros
consilio
consilios
consiste
consistente
consistentia
consister
consisteva
consisting
consola
consolar
consolas
consolation
consolatori
console
consolida
consolidar
consolidate
consolidation
consolidava
consonant
consonante
consonantes
consonantic
consonants
consorte
consortium
conspicue
conspicuous
conspiracy
conspirar
conspiration
conspirator
consta
constant
constante
constantemente
constantes
constantia
constantino
constantinople
constantinopole
constants
constata
constatar
constellation
constellationes
consternation
constipate
constitucio
constitue
constituente
constituentes
constituer
constitueva
constitui
constituite
constitute
constitution
constitutional
constitutiones
constitutive
constituyente
constituyentes
constriction
constrictor
constringe
constringer
construccio
construcciones
construct
constructe
constructed
construction
constructiones
constructive
constructor
constructores
construe
construer
construeva
construir
construite
consubstantial
consubstantiation
consuetude
consul
consular
consulato
consule
consules
consulta
consultar
consultate
consultation
consultative
consultive
consultor
consume
consumer
consumite
consumitor
consumitores
consummate
consummation
consumo
consumption
conta
contabile
contabilitate
contact
contactar
contacto
contactos
contacts
contagion
contagiose
contain
container
containers
containing
contains
contaminate
contamination
contante
contar
contate
contato
contator
contatos
contava
conte
contea
contemner
contemplar
contemplation
contemplative
contemporanee
contemporaneo
contemporaneos
contemporari
contemporary
contempto
contender
contene
content
contenta
contentamento
contentar
contente
contented
contention
contentiose
contento
contentos
contents
contes
contessa
contest
contestar
contestate
contestation
contestava
context
contexto
contextos
contextual
contiene
contigue
contine
continent
continental
continente
continentes
continentia
continer
contineva
contingency
contingente
continger
continite
continua
continuacio
continuante
continuar
continuate
continuation
continuava
continue
continued
continuemente
continueva
continuitate
continuity
continuo
continuous
continuum
conto
contornar
contorno
contornos
contorquer
contortion
contos
contra
contraattacco
contrabandero
contrabandista
contrabando
contrabasso
contraception
contraceptive
contract
contractar
contractile
contraction
contractiones
contracto
contractos
contractual
contractura
contracurrente
contradansa
contradice
contradicer
contradiction
contradictiones
contradictori
contrafacer
contrafacte
contrafaction
contrahe
contrahente
contraher
contralto
contraluce
contraoffensiva
contraponer
contraposition
contraproducente
contraproductive
contrapuncto
contrari
contrariar
contrarimente
contrario
contrary
contrasigno
contrast
contrasta
contrastante
contrastar
contrastate
contrasto
contrastos
contratempore
contraveni
contravention
contre
contribue
contribuente
contribuer
contribueva
contribuite
contributing
contribution
contributiones
contributions
contributor
contrite
control
controla
controlar
controlate
controlator
controlava
controlled
controlo
controlos
controls
controverse
controversia
controversial
controversias
controversy
controvertite
contumacia
contunder
contuse
contusion
convalescentia
convallis
convection
convective
conveni
convenibile
convenibilemente
convenience
convenient
conveniente
convenientia
convenientias
convenir
conveniva
convention
conventional
conventionalmente
conventiones
convento
conventual
converge
convergente
convergentia
conversacio
conversar
conversation
conversationes
converse
conversion
convert
converte
converter
convertera
converteva
convertibile
convertirse
convertite
convertitor
convertiva
convexe
convey
conviction
convictiones
convictos
convincente
convincer
convinceva
convincite
convio
convitar
convoca
convocar
convocate
convocation
convocava
convolute
convoy
convoyo
convulsion
convulsiones
convulsive
conway
cook
cookery
cooking
cool
coolie
coolness
cooper
cooperar
cooperation
cooperativa
cooperative
cooptar
cooptation
coordinar
coordinatas
coordinate
coordination
coordinator
cope
copenhagen
coperculo
coperi
coperir
coperite
coperiva
copernican
copernicium
copernico
coperte
copertor
copertura
coperturas
copia
copiar
copias
copiate
copies
copiose
copista
copper
copra
coproprietate
copte
copula
copular
copulas
copulate
copulation
copulative
copulator
copy
copyleft
copyright
copyrightes
coquette
cor
corage
coragiose
coral
corallifere
corallin
corallo
corallos
coram
corazo
corbata
corbe
corbes
corbetta
corbusier
corco
corcos
cord
corda
cordas
corde
cordes
cordial
cordialmente
cordillera
cordis
cordon
cordova
cordovan
core
corea
corean
coreano
corfu
corinthie
corinthios
corintho
corio
cork
cormoran
corn
cornamusa
cornamusas
cornea
cornee
cornelio
cornelius
cornell
corner
corneria
cornetta
cornic
cornice
cornico
corno
cornos
cornuallia
cornute
cornwell
corolla
corollario
corona
coronal
coronar
coronari
coronas
coronate
coronation
coronavirus
coronel
corpo
corporal
corporation
corporative
corporatura
corpore
corporee
corpores
corporis
corps
corpse
corpulente
corpus
corpuscular
corpusculo
corral
correct
correcte
correctemente
correctessa
correction
correctional
correctiones
corrective
corrector
corregia
correia
correlate
correlation
correlative
correr
corresponde
correspondence
correspondente
correspondentia
corresponder
correspondeva
corresponding
corridor
corriere
corrige
corriger
corrigite
corroborar
corroborate
corrode
corrosion
corrosive
corrugar
corrugate
corrumpe
corrumper
corrupt
corrupte
corruptibile
corruption
corruptor
corsage
corse
corset
corsica
corso
corte
cortes
cortesana
cortesar
cortese
cortesia
cortical
cortice
cortina
cortinas
corto
corvo
corvus
cos
cosa
cosas
coscribeva
cosenza
cosi
cosina
cosino
cosinus
cosme
cosmetic
cosmetics
cosmic
cosmo
cosmoglotta
cosmogonic
cosmologia
cosmologic
cosmopolita
cosmos
cossinetto
cossino
cost
costa
costal
costalago
costar
costari
costas
costate
costava
costear
costo
costos
costose
costs
costumari
costume
costumes
cotelette
coton
cotonari
cotta
cottage
cotton
cottrell
cough
couguar
could
coulisse
coulomb
council
counsel
count
countenance
counter
counterbalance
counterfeit
countries
country
county
coup
coupe
couple
couplet
coupon
cour
courage
courier
course
court
cousin
cout
couturat
covar
covenant
cover
covered
covid
cow
cowboy
cox
coxa
coxal
coxalgia
cp
cpu
cr
crabba
crabro
crac
crack
cracker
cracovia
cradle
crafoord
craft
craig
cramp
crampa
crampar
crampo
crangon
crangones
cranial
cranian
cranio
crank
cras
crash
crasse
crater
cravata
crawl
crazy
crc
cre
crea
creacio
cream
creante
crear
crease
create
created
creating
creation
creationes
creationismo
creative
creator
creatores
creatura
creaturas
creava
crede
credente
credentes
credentia
credentias
creder
credeva
credibile
credibilitate
credit
creditate
credite
credito
creditor
creditores
creditos
credo
credos
creed
creep
crei
crema
cremation
cremona
cremose
creo
creol
creole
creolo
creophage
creosoto
crepar
crepe
crepitante
crepuscular
crepusculo
cresce
crescente
crescentia
crescer
cresceva
crescimento
crescita
crescite
cresta
creta
cretacee
cretese
cretose
crew
cri
crib
cribrar
cribro
cric
criciu
crick
cricket
cries
crime
crimea
crimes
criminal
criminales
criminalitate
crimine
crimines
criniera
crise
crises
crisis
crisp
crispar
crispate
crispe
crista
cristate
cristina
cristo
crita
critante
critar
critava
criterio
criterios
critic
critica
criticabile
critical
criticamente
criticar
criticas
criticate
criticava
criticism
criticismo
critico
criticos
crito
critos
croate
croatia
croatian
croato
croc
croce
crochet
crocodilo
crocodylus
crocus
crocuta
cromwell
crop
croquet
croquette
crosby
cross
crossarchus
crossing
crotone
crow
crowd
crown
cruce
crucia
cruciada
cruciadas
crucial
cruciamento
cruciar
cruciata
cruciate
cruciator
cruciera
crucifigite
crucifixion
cruciforme
crude
cruel
cruelitate
crueltate
cruise
crural
crush
crusta
crustose
cruz
cry
cryogene
cryogenic
cryptic
crypto
cryptographia
cryptographic
cryst
crystal
crystallin
crystallisation
crystallo
crystallographia
crystallographic
crystallos
cs
css
csv
ct
ctica
cu
cua
cual
cuales
cualquier
cualquiera
cuando
cuarenta
cuarto
cuatro
cub
cuba
cuban
cubar
cube
cubettos
cubic
cubiculo
cubil
cubismo
cubista
cubito
cubo
cubos
cucu
cucumbres
cucumeres
cucurbita
cudgel
cue
cuello
cuenca
cuenta
cuerda
cuerpo
cuesta
cueva
cuirassate
cuirassato
cuirassero
cuje
cul
cula
culice
culices
culinari
culminante
culmination
culminava
culmine
culo
culos
culpa
culpabile
culpabilitate
cult
culte
cultello
cultellos
cultivabile
cultivar
cultivate
cultivation
cultivator
culto
cultor
cultos
cultual
cultura
cultural
culturalmente
culturas
culture
cultures
cum
cumino
cumplir
cumula
cumular
cumuliforme
cumulo
cuna
cunar
cune
cuneage
cunear
cuneate
cuneiforme
cuneo
cunha
cunnilingus
cup
cupa
cupboard
cupide
cupido
cupola
cuppa
cuprifere
cupro
cuprose
cura
curabile
curabitur
curac
curar
curas
curate
curatela
curation
curative
curato
curator
curb
cure
curettage
curia
curial
curie
curiose
curiositate
curiositates
curiosity
curitiba
curitibanos
curium
curl
curling
curr
currado
curre
currency
current
currente
currentemente
currentes
currer
currero
curreva
curritor
curritores
curry
curs
cursa
cursas
curse
cursive
curso
cursor
cursos
cursus
curtain
curte
curtis
curva
curvar
curvas
curvate
curvatura
curve
curved
curvilinee
cuspidate
cuspide
cuss
custode
custodia
custody
custom
customary
customs
cut
cutanee
cute
cutter
cutting
cutugno
cy
cyano
cyanosis
cyanuro
cybele
cybernetic
cycle
cyclic
cyclismo
cyclista
cyclistic
cyclo
cyclon
cyclonal
cyclone
cyclones
cyclonic
cyclos
cygno
cygnus
cylinder
cylindric
cylindro
cylindros
cyma
cynegetic
cynic
cynismo
cypresso
cypriano
cypriota
cypro
cyprus
cyrillic
cystic
cytologia
cytoplasma
cz
czar
czech
cœur
d
da
dabney
dacca
dactylo
dactylographar
dactylographia
dactylographo
dactyloscopia
dada
dadaismo
dado
daejeon
dagger
dahlia
dahlias
dai
daily
daire
dairy
dakota
dal
dalai
dale
dalecarlia
dali
dall
dallas
dalmatia
dalton
dam
dama
damage
damas
damasco
damascus
dame
damiano
damnation
damnificar
damnificate
damno
damnos
damnose
damo
damzelo
dan
dance
dancer
dancing
dandy
dane
danese
daneses
danet
danger
dangerous
dania
daniel
danish
dankas
danko
danmark
danny
dano
dans
dansa
dansar
dansas
dansator
dansatores
dante
dantesc
danubio
dapibus
dar
dara
dardano
dare
darfas
dari
daring
dario
dark
darkness
darmstadt
darmstadtium
darsena
darth
dartmouth
darwin
darwinian
darwinismo
darzee
darzi
das
dash
dasyprocta
data
database
databaze
datar
datas
datate
datation
date
dates
dative
dativo
dato
dator
datos
dattilo
dattilos
daughter
dava
davanti
dave
david
davis
davy
dawn
day
days
db
dblp
dbpedia
dc
de
dea
deacon
dead
deaf
deal
dealer
dealing
deambulation
dean
dear
deas
death
debajo
debate
debatte
debatter
debattite
debatto
debattos
debe
deben
deber
debera
deberea
deberes
debes
debeva
debian
debido
debile
debilemente
debilitar
debilitate
debilitation
debilitava
debita
debitas
debite
debito
debitor
debitores
debitori
debo
debt
debussy
debut
debutava
dec
decade
decadente
decadentia
decader
decades
decalogo
decano
decapitar
decathlon
decay
decayed
dece
decease
deceased
deceder
decedeva
decedite
deceduo
deceive
decelerar
december
decembre
decenas
decency
decennio
decennios
decent
decente
decentia
deception
deceptive
deces
decesso
deci
decide
decided
decider
decideva
decidite
decidiva
deciframento
decifrar
decima
decimal
decimation
decime
decimetro
decimo
decine
decir
decise
decision
decisiones
decisive
deck
declamar
declamation
declamatori
declara
declaracio
declarante
declarar
declarate
declaration
declarationes
declarative
declaratori
declarava
declina
declinar
declinate
declination
declinationes
declinava
decline
declino
declive
declivitate
decolonisation
decompone
decomponer
decompose
decomposition
decompression
deconstruction
decorar
decorate
decoration
decorationes
decorative
decorator
decorticar
decorticate
decorum
decrease
decree
decrepite
decrescente
decrescentia
decretar
decretate
decretava
decreto
decretos
decubito
decuple
dedalo
dedekind
dedica
dedicar
dedicate
dedication
dedicava
deduce
deducer
deducibile
deducite
deduction
deductive
deed
deep
deepin
deeply
deer
def
defaite
defalcar
default
defeat
defect
defection
defective
defecto
defectos
defectuose
defence
defend
defende
defender
defendeva
defendibile
defendite
defensa
defensas
defense
defensive
defensor
defensores
defer
deferente
deferentia
deferer
defia
defiar
defiava
deficiente
deficientia
deficit
deficitari
defilata
defini
definido
definir
definite
definition
definitiones
definitions
definitive
definitivemente
definitor
definiva
deflagration
deflation
deflexion
deforestation
deformar
deformate
deformation
deforme
defraudar
defuncte
defuncto
defunctos
degenerate
degeneration
degenerative
degenerescentia
degli
deglutition
degradar
degradation
degree
degrees
dei
deification
deinde
deismo
deitate
deitates
deixis
deja
dejection
dejo
dejuneto
dek
del
dela
delante
delaware
delay
delectabile
delectation
delecto
delectos
delegate
delegation
delegato
delegatos
deler
deletion
delgado
delhi
deliberate
deliberatemente
deliberation
deliberationes
deliberative
delicate
delicatessa
delicia
delicias
deliciose
delicto
delictos
delictuose
delight
delimitar
delimitate
delimitation
delinear
delinquente
delinquentes
delinquentia
delirante
delirio
deliver
delivery
delivrantia
delivrar
delivrate
dell
della
delle
dello
delmas
delphi
delphino
delphos
dels
delta
deltoide
dem
dema
demagogic
demagogy
demain
deman
demand
demanda
demandar
demandas
demandate
demandava
demarcation
demasiado
demente
dementia
demeter
demi
demo
democracy
democrate
democratia
democratic
demographia
demographic
demolir
demolition
demolitor
demon
demone
demones
demoniac
demonio
demonstra
demonstrante
demonstrar
demonstrate
demonstration
demonstrative
demonstrator
demonstrava
demora
demorar
demotic
den
denali
dendritic
denega
denegar
denegation
dengue
denial
denigrar
denip
denis
denise
denisova
denmark
dennis
denoe
denomina
denominar
denominate
denomination
denominationes
denominator
denominava
denota
denotar
denotate
denotation
dense
densitate
densitates
density
dent
dental
dentari
dentate
dentatura
dente
dentella
dentellate
dentes
dentifricio
dentist
dentista
dentisto
dentition
dentro
denudar
denuncia
denunciar
denunciation
denunciava
denver
deny
deo
deos
depart
departamento
departimento
departimentos
department
depende
dependente
dependentia
depender
dependeva
deperir
depicte
depiction
depinger
depingite
deplorabile
depois
depone
deponente
deponer
deponeva
deponite
deportate
deportation
deportivo
depos
deposit
depositario
depositate
deposition
deposito
depositos
depost
depravar
depravate
depravation
depraved
depreciar
depreciate
depreciation
depredar
depression
depressionari
depressive
deprimente
deprive
depth
depuis
depuration
depurative
deputation
deputato
deputatos
deputy
der
derailar
derange
derapage
derapar
derby
derecha
derecho
derechos
derecta
derecte
derecto
derectos
derelicte
deride
derider
derision
derisori
deriva
derivar
derivate
derivation
derivational
derivationes
derivative
derivatives
derivato
derivatos
derivava
derived
derma
derogar
derogation
derogatori
derrida
des
desarrollo
descanso
descartes
descende
descendente
descendentes
descendentia
descender
descendeva
descendita
descendite
descension
descent
describe
describente
describer
describes
describeva
describite
descripte
description
descriptiones
descriptive
descriptor
desde
desea
deseo
desert
deserte
desertic
desertion
deserto
desertos
desiccar
desiccation
desidera
desiderar
desiderata
desideratum
desiderio
desiderios
desiderose
design
designa
designar
designate
designation
designator
designava
designo
designos
desinentia
desinentias
desinformation
desira
desirabile
desirar
desirate
desirava
desire
desiro
desiros
desirose
desister
desk
desolate
desolation
desoxyribonucleic
despair
despecto
desperate
desperatemente
desperation
despero
despise
despite
despota
despotic
despotismo
despue
dessert
destina
destinate
destination
destino
destituer
destituite
destitute
destitution
destroy
destroyer
destruction
destructive
destructor
destrue
destruer
destrueva
destruite
desuete
desuetude
detached
detail
detailed
details
detain
detaliar
detaliate
detalio
detalios
detalle
detect
detectar
detection
detective
detector
deteger
detegite
detener
detention
detentor
detergente
deteriorar
deterioration
determina
determinante
determinar
determinate
determination
determinava
determine
determined
determinismo
determinista
deterministic
detestabile
detestar
detestation
detmold
detonation
detra
detract
detractores
detraher
detrimento
detrito
detritos
detroit
detruite
deus
deuterium
deuterocanonic
deuteronomio
deuterostomia
deutsch
deutsche
deutschen
deutscher
deutsches
deutschland
deux
dev
devant
devas
devastante
devastate
devastation
devastationes
develop
developed
developing
development
developpa
developpamento
developpar
developpate
developpava
deveni
deveniente
devenir
devenira
devenirea
devenite
deveniva
deviante
deviar
deviate
deviating
deviation
device
devices
devil
devilish
devisa
devisas
devise
devolution
devolver
devorar
devorate
devotar
devote
devoted
devotion
devoto
dewey
dextera
dextere
dexteritate
dextra
dextre
dextrina
dextrogyr
deziras
deɪ
df
dfb
dharma
di
dia
diabete
diabetes
diabetic
diable
diabolic
diabolo
diachronic
diacritic
diacritico
diadema
diagnose
diagnosis
diagnostic
diagnosticar
diagnostico
diagonal
diagramma
dialect
dialectal
dialectic
dialectica
dialecto
dialectos
dialog
dialogar
dialogic
dialogo
dialogos
dialogue
dialyse
diam
diamante
diamantes
diamantifere
diametro
diamond
diana
diantho
diapason
diaphane
diaphragma
diapositiva
diapositivas
diario
diarista
diarrhea
diary
dias
diaspora
diastase
diatomic
diatonic
diaz
dic
dica
dicar
dicas
diccionario
dice
dicente
dicer
dicernar
diceva
dicez
dichotomia
diciembre
dicis
dicit
dicite
dick
dickens
dico
dict
dicta
dictamine
dictar
dictate
dictator
dictatorial
dictatura
dicte
diction
dictionaries
dictionario
dictionarios
dictionarium
dictionary
dictionnaire
dicto
dictos
dictum
did
didactic
didactica
didascalic
diderot
didn
didon
die
died
diego
dielectric
dies
diesel
dieta
dietate
dieter
dietetic
dietrich
dietro
diez
diferencia
diferentes
diffamar
diffamation
diffamatori
differ
differe
difference
differences
different
differente
differentemente
differentes
differentia
differential
differentiar
differentias
differentiate
differentiation
differer
difficile
difficilemente
difficult
difficultate
difficultates
difficulty
diffidente
diffidentia
diffider
diffraction
diffunder
diffundeva
diffundite
diffuse
diffusion
difi
dig
digerer
digest
digestion
digestive
digit
digital
digitalisate
digitigrade
digito
digitos
digna
digne
dignissim
dignitate
dignitatum
dignity
digo
digrapho
digression
dii
dijo
dil
dilapidar
dilapidation
dilatation
dilatori
dilemma
dilettante
diligentia
diluer
dilution
diluvian
diluvio
dim
dimension
dimensional
dimensiones
diminish
diminue
diminuente
diminuer
diminueva
diminuite
diminution
diminutive
diminutivo
dimission
dimitter
dimitteva
dimittite
din
dinamarca
dinar
dine
dinero
dinger
dining
dinner
dinosauro
dinosauros
dio
diocesan
diocese
diocesis
diocletiano
diodo
dioic
dion
dionysiac
dionysio
dionyso
diophanto
dioptric
dios
dioxide
dioxina
dioxydo
dip
diphteric
diphthong
diphthongation
diphthongo
diphthongos
diploma
diplomate
diplomatia
diplomatic
diplomatico
dipolar
diprosopo
dir
dirac
dire
direccio
direct
directamente
directe
directemente
direction
directional
directiones
directiva
directivas
directive
directly
directo
director
directores
directori
directorio
directorios
directory
directrice
direito
dirige
dirigente
dirigentes
diriger
dirigeva
dirigir
dirigite
diritto
dirt
dirty
dis
disabled
disabonar
disaccopular
disaccordo
disagradabile
disagreement
disambiguation
disapprendite
disapprobar
disapprobation
disapprobatori
disappunctamento
disappunctate
disaquamento
disaquar
disarmamento
disarticulate
disarticulation
disassociar
disaster
disastro
disastros
disastrose
disavantage
disavantages
disavantagiar
disavantagiose
disbarcamento
disbarcar
disbordamento
disbordar
disbucca
disbursar
disc
discalceate
discarga
discargamento
discargar
discargas
discargate
discargatorio
discarnate
discassar
discatena
discatenar
discentralisation
discerner
discernimento
discharge
disciplina
disciplinari
disciplinas
discipline
discipulo
discipulos
disco
discographic
discolorar
disconcertar
disconcertate
disconnecter
disconsiliate
disconsolate
discontent
discontentamento
discontente
discontento
discontinuar
discontinue
discontinuitate
disconto
discoperi
discoperir
discoperite
discoperitor
discoperiva
discoperta
discopertas
discoperte
discoragiamento
discoragiar
discoragiate
discordante
discordantia
discordia
discordo
discortese
discos
discourse
discover
discovery
discreditar
discredito
discrepantia
discrete
discretion
discriminante
discrimination
discriminatori
disculpar
discurrer
discursive
discurso
discursos
discuss
discussion
discussiones
discute
discuter
discuteva
discutibile
discutite
disdicer
disdicimento
disdignar
disdigno
disdignose
disdoanamento
disease
diseases
disembarassar
disembracage
disequilibrar
disequilibrate
disface
disfacer
disfaceva
disfacite
disfacta
disfacte
disfavor
disfavorabile
disfigurar
disfiguration
disfoliar
disgelar
disgelo
disgrace
disgranar
disgratia
disgratiose
disgregation
disguisar
disguisate
disguise
disgusto
disgustose
dish
dishabituar
disharmonia
dishonestate
dishoneste
dishonestitate
dishonor
dishonorar
disillusion
disimballar
disimbarcation
disinfectante
disinfectar
disinfection
disinflate
disinrolar
disintegration
disinteressate
disintoxicar
disintoxication
disinvolte
disinvoltura
disjunction
disjunger
disk
dislaciar
disligar
dislocar
dislocate
dislocation
disloyal
dismantellar
dismascar
dismembrava
dismentir
dismesurate
dismesuratemente
dismiss
dismontar
dismontate
disney
disobedientia
disobedir
disobligante
disoccupate
disoccupation
disorder
disorders
disordinar
disordinate
disordine
disordines
disorientate
disown
disparate
dispare
disparer
dispareva
disparitate
disparite
disparition
dispatch
dispenalisation
dispender
dispendiose
dispensa
dispensar
dispensas
dispensate
dispensation
dispensero
dispersa
dispersar
dispersate
dispersava
disperse
dispersion
displace
displacia
displaciamento
displaciar
displaciate
display
displaystyle
displicamento
displicar
displicate
dispone
disponer
disponeva
disponibile
disponibilitate
disponite
disposal
disposed
disposite
disposition
dispositiones
dispositivo
dispositivos
disposseder
dispossession
disprecio
disproportion
disproportionate
disproviste
dispulverar
disputa
disputar
disputas
disputate
disputava
dispute
disqualificar
disrangiar
disregulamento
disregular
disregulate
disrolar
disruptive
dissecar
dissection
disseminar
dissemination
dissension
dissensiones
dissent
dissentimento
disserra
disserrar
dissertar
dissertation
dissidente
dissimilar
dissimilation
dissimile
dissimular
dissimulate
dissipar
dissipate
dissipation
dissociabile
dissociar
dissociate
dissociation
dissolute
dissolution
dissolve
dissolvente
dissolver
dissolveva
dissolvite
dissonantia
dissuader
dissuasion
dissuasive
dissuer
dissyllabic
dissyllable
distacca
distaccar
distaccate
distachar
distachate
distance
distancia
distant
distante
distantia
distantiar
distantias
distantiate
distemper
distemperar
distender
distension
disthronar
disthronava
distillate
distillation
distillator
distilleria
distinct
distincte
distinction
distinctiones
distinctive
distinger
distingue
distinguer
distingueva
distinguir
distinguish
distinguished
distinguite
distorquer
distorsion
distorte
distortion
distracte
distraction
distractive
distraher
distraheva
distress
distribue
distribuer
distribueva
distribuite
distribute
distribution
distributismo
distributive
distributor
district
districto
districtos
distrito
disturb
disturbance
disturbantia
disturbar
disturbate
disunion
disuso
disvelar
disvellopamento
disvellopate
disveloppa
disveloppamento
disveloppamentos
disveloppante
disveloppar
disveloppate
disveloppator
disveloppatores
disveloppava
disviar
disviate
disyllabic
disyllable
ditch
diterrane
dition
ditions
dits
ditto
diurne
divagar
divagation
divan
dive
diveller
divenar
divenas
divenis
diverge
divergente
divergentia
diverse
diversemente
diversificar
diversion
diversitate
diversity
divert
divertente
diverter
divertimento
divide
divided
dividendo
dividendos
divider
divideva
dividite
divin
divina
divinar
divination
divine
diving
divinitate
divinitates
divino
divisa
divise
divisibile
divisibilitate
division
divisiones
divisions
divisor
divisores
divisori
divorce
divorciar
divorciate
divorcio
divulgar
divulgate
divulgation
diwali
dixit
diz
dizionario
dj
dk
dl
dle
dm
dna
dnl
dns
do
doana
doanal
doaner
dobkin
doc
doce
docente
docer
docile
dock
docs
docte
doctor
doctoral
doctorato
doctores
doctors
doctrina
doctrinal
doctrinari
doctrinas
doctrine
document
documenta
documental
documentar
documentari
documentario
documentary
documentate
documentation
documento
documentos
documents
dodecatheic
dodo
dodoma
does
doesn
dog
doge
dogma
dogmas
dogmatic
dogs
doha
doi
doing
dois
dole
doler
dolgoff
dollar
dollares
dollars
dolo
dolor
dolores
dolorose
dom
domain
domar
domator
dome
domenica
domestic
domestica
domesticar
domesticate
domestication
domestico
domi
domiciliari
domicilio
domina
dominante
dominantia
dominar
dominate
domination
dominator
dominava
domingo
domingos
domini
dominial
dominica
dominical
dominican
dominicas
dominio
dominion
dominios
dominique
domino
dominos
domitiano
domo
domos
don
dona
donald
donante
donar
donate
donatello
donation
donationes
donato
donator
donava
donde
done
donec
donez
dong
donis
donjon
donkey
donna
donne
dono
donor
donos
doo
doom
door
doors
dop
dopamina
dophile
dophilie
dopo
doppler
dor
dorate
dorator
dore
doric
dorje
dorking
dormar
dormas
dormeyo
dormi
dormiente
dormir
dormis
dormitive
dormitorio
dormiva
dormo
dorothy
dorsal
dorso
dortmund
doryphora
dos
dosage
dosar
dosator
dose
dosis
dossier
dot
dotal
dotar
dotate
dotation
dote
doto
dots
douard
double
doubleday
doubt
doubtful
douce
douche
douglas
doutor
dove
dover
down
download
doyle
dozena
dozenas
dpa
dpal
dq
dr
draco
dracon
dracones
draconian
draft
drag
draga
dragage
drago
dragon
drain
drainage
drake
drama
dramas
dramatic
dramatisar
dramaturgo
dramaturgos
drank
drappo
drastic
draught
draw
drawer
drawing
dre
dread
dream
dresden
dress
dresser
dressing
drift
drill
drink
drinkajo
drinkas
drinkerio
drinking
drinkis
drip
drive
driver
droga
drogas
droit
drone
droop
drop
drought
drug
drugs
druidic
drum
drunk
dry
ds
dsm
dt
dtd
du
duadek
dual
dualista
dualistic
dualitate
duas
dubita
dubitar
dubitas
dubitose
dublin
dubnium
duc
ducal
ducato
duce
ducente
ducer
duceva
ducha
duchar
duchessa
ducite
duck
duct
ductile
ductilitate
ducto
duda
dudley
due
duello
duero
duesma
duhamel
dui
duimo
duis
duisburg
duke
dulce
dulcemente
dulciastre
dulcificar
dulcification
dulcor
dull
dum
dumas
dumb
dumping
dumpty
duna
dunas
dune
dung
dunque
duo
duodece
duodecimal
duong
duos
dupar
duplar
duple
duplicar
duplicate
duplication
duplice
duplicitate
dur
dura
durabile
durabilitate
durante
durar
durata
durate
duration
durava
durban
duressa
during
durkheim
duro
durstas
dushanbe
dust
dusty
dutch
duty
duvert
dux
dvd
dwarf
dwelling
dwight
dx
dye
dying
dylan
dynamic
dynamica
dynamicamente
dynamicitate
dynamismo
dynamite
dynamo
dynastia
dynastias
dynasty
dysfunction
dysprosium
dz
e
ea
each
eager
eagle
ear
earl
earlier
early
earnest
ears
earth
earthenware
earthquake
ease
easily
east
easter
eastern
easy
eat
eater
eating
eaton
eau
ebenista
ebing
ebner
ebola
eboraci
ebore
ebrie
ebrietate
ebu
ebullition
ec
ecce
eccentric
eccetto
eccl
eccles
ecclesia
ecclesias
ecclesiastic
ecclesiastical
ecdysozoa
echelon
echinococcus
echinodermata
echo
eclectic
eclipsa
eclipsar
eclipse
eclipsis
ecliptic
eco
ecologia
ecologic
ecologismo
ecology
econo
economia
economias
economic
economica
economicamente
economisar
economisation
economista
economistas
economy
ecosocialismo
ecosystema
ecosystemas
ecstase
ecstasiar
ecstatic
ectopic
ecuador
ecumenic
eczema
ed
edad
edam
eddie
edema
eden
eder
edgar
edge
edibile
edible
edicio
ediciones
edicions
edicto
edificante
edificar
edificate
edification
edificava
edificio
edificios
edimburgo
edinburgh
edipo
edison
edit
edita
editar
editate
editava
editio
edition
editiones
editor
editores
editorial
editors
edizioni
edmund
edo
eds
edu
eduard
eduardo
educacio
educar
educate
education
educational
educative
educator
edward
edwin
ee
een
eerdmans
eeten
ef
effect
effective
effectivemente
effectivo
effecto
effectos
effects
effectua
effectuar
effectuate
effectuava
effeminate
effendi
effervescente
effervescentia
efficace
efficacemente
efficacia
efficacitate
efficiente
efficientia
efficitur
effigie
effort
effortia
effortiar
effortiate
effortio
effortios
efforts
effraction
effunder
effuse
effusion
egee
egeo
egestas
eget
egg
eggs
egide
egli
egman
ego
egocentric
egoismo
egoista
egoistic
egunkaria
egypt
egyptian
egyptiano
egyptianos
egyptie
egypto
eh
ei
eifel
eiffel
eight
eighteen
eighth
ein
eine
einer
einfu
einheitsreligion
einstein
einsteinium
either
ej
ejaculation
ejaculatori
ejb
ejectabile
ejection
ejemplo
ejemplos
ejercicio
ejercicios
ek
eklund
ekspreso
el
ela
elaborar
elaborate
elaboration
elaborava
elas
elastic
elasticitate
elastico
elba
elder
ele
elec
elect
electe
election
electiones
elective
elector
electoral
electorato
electores
electric
electrical
electricitate
electricity
electrisation
electro
electrochimic
electrochoc
electrodo
electrodynamica
electrolyse
electrolytic
electromagnete
electromagnetic
electromagnetismo
electron
electrones
electronic
electronica
electronics
electrostatic
elefante
elefanto
elegante
elegantia
elegiac
elegite
eleifend
element
elemental
elementari
elementary
elemento
elementos
elements
elementtype
elementum
elephant
elephante
elephantes
elephantin
eleva
elevamento
elevar
elevate
elevation
elevationes
elevator
elevatori
elevava
elf
elfes
eli
elia
elias
elige
eliger
eligeva
eligibile
eligibilitate
eligibility
eligite
eligitos
elijah
elimina
eliminante
eliminar
eliminate
elimination
eliminava
elisabeth
elisha
elit
elite
elixir
elizabeth
ella
ellas
elle
ellen
elleore
elles
ellipse
ellipsoide
elliptic
ellison
ello
ellos
elocution
elogio
elogios
elogiose
elongate
elongation
eloquente
eloquentia
els
else
elsevier
elsewhere
elu
elua
elucidar
eluder
elusive
elvis
em
emaciate
emacs
email
emanate
emanation
emanationes
emancipar
emancipation
embarasso
embarassose
embargo
emblema
emblemas
emblematic
embodied
embolia
embracage
embrace
embryogenesis
embryon
embryonal
embryonari
embryonic
embryophyta
emendamento
emer
emerald
emerge
emergency
emergente
emergentia
emerger
emergeva
emerite
emersion
emetic
emi
emigrantes
emigration
emigratos
emigrava
emil
emilia
emiliano
emilio
emily
eminent
eminente
eminentia
emirato
emiratos
emissario
emission
emissiones
emissor
emissores
emit
emitte
emitter
emitteva
emittite
emma
emmanuel
emmy
emo
emotion
emotional
emotionante
emotiones
emotive
emover
empathia
emperor
emphase
emphasis
emphatic
emphatisa
emphatisava
emphysema
emphyteotic
empire
empires
empiric
empirical
emplastro
emplea
emplean
emplear
empleate
empleato
empleator
empleatores
empleatos
empleava
empleo
empleos
employ
employed
employment
empt
emptiness
emption
emptiones
emptor
empty
emptyset
empu
emular
emulate
emulation
emulator
emulsion
en
enable
enamel
encephalic
encephalitis
encephalopathia
enciclopedia
enclave
enclose
enclosed
enclosure
encontrar
encore
encounter
encyclica
encyclopaedia
encyclope
encyclopedia
encyclopedias
encyclopedic
encyclopædia
end
endeavor
endeavour
endemic
ending
endivia
endl
endocrin
endocrine
endogene
endorheic
endorsement
endowment
ends
endure
enea
eneas
eneide
enemy
energetic
energetica
energi
energia
energias
energic
energy
enero
enervate
enfance
enfant
enfants
enfermo
eng
engage
engaged
engelbert
engels
engine
engineer
engineering
engines
england
englewood
english
engraving
engrossed
enigma
enigmas
enigmatic
enim
enjoy
enlargement
enlightenment
enna
enne
eno
enoiar
enoiava
enoio
enoiose
enorme
enormemente
enormitate
enormous
enough
enquire
enrico
enrique
ensemble
ensembles
ensen
entangle
ente
entente
enter
enteric
enteron
enterprise
entertain
entertainment
enthusiasmo
enthusiastic
entire
entitate
entitates
entom
entonces
entra
entrai
entrance
entrar
entrata
entratas
entrate
entrava
entravar
entre
entreat
entreaty
entresol
entries
entropia
entrust
entry
enumeration
enunciar
enunciation
envi
enviar
enviate
enviava
environment
environmental
envoy
enz
enzyma
enzymas
enzymatic
eo
eocen
eolic
eolie
eolo
eosinophile
ep
eph
ephemere
ephemeride
ephesios
epi
epic
epica
epicentro
epicteto
epicuree
epicuro
epicyclo
epidemia
epidemias
epidemic
epidemiologic
epidermis
epigramma
epigrammatic
epigraphia
epilepsia
epileptic
epilogo
episcopal
episcopato
episcopo
episcopos
episod
episode
episodes
episodio
episodios
epistemologia
epistle
epistola
epistolari
epistolas
epitaphio
epithelial
epithelium
epitome
epizootic
epoca
epocha
epochas
eponyme
epopeia
epos
epsilon
epurar
epuration
equal
equala
equalar
equalitari
equalitate
equality
equalmente
equation
equationes
equator
equatorial
eque
equestre
equidistante
equilateral
equilatere
equilibrar
equilibrate
equilibrio
equilibrium
equin
equinoctial
equinoctio
equip
equipa
equipage
equipamento
equipar
equipas
equipate
equipment
equitabile
equitate
equitation
equivale
equivalent
equivalente
equivalentes
equivalentia
equivoc
equivoco
equo
equus
er
era
eran
eras
erasmian
erasmo
erasmus
erat
erbil
erbium
ere
erechim
erecte
erection
eremita
eres
erfurt
ergative
ergo
eri
eric
erica
erich
erie
eriger
erigite
erik
eriksson
eriophoro
eris
eritrea
erlangen
ermine
ernest
ernesto
ernst
ero
erode
eros
erosion
erosive
erotic
erotica
erotismo
errante
errar
erratic
erronee
error
errores
errors
eruca
erucas
eructation
erudite
erudition
erudito
eruditos
erumper
erumpeva
erumpite
eruption
eruptiones
eruptive
erwin
es
esa
esar
esas
esca
escalar
escamotar
escampar
escape
escappa
escappada
escappamento
escappar
escappata
escappava
eschatologia
eschatologic
eschimo
eschweiler
eschylo
esclusa
escola
escolamento
escolar
escorta
escribe
escrito
esctoday
escudo
escuela
ese
esez
esgueva
esime
esis
eskimo
eso
esophago
esopo
esos
esoteric
esox
esp
espacio
espada
espan
espania
espaniol
espaniola
espanioles
espaventabile
espaventar
especial
especially
especialmente
espejo
esperantista
esperantistas
esperanto
esperanza
esperar
esperas
espero
espi
espinosa
espoir
esposa
esposo
espresso
esquadra
esque
esqui
essa
essay
essaya
essayage
essayar
essayate
essayava
essayista
essayo
essayos
essays
esse
essen
essente
essentia
essential
essentialmente
esser
essera
essere
esserea
esseres
esseva
essex
essite
esso
essugar
est
esta
establi
establiente
establimento
establimentos
establir
establish
established
establishment
establite
establiva
estacio
estadi
estado
estados
estar
estas
estate
estates
este
esteban
esteem
estelada
ester
esterhill
esther
esthetic
esthetica
estheticamente
estilo
estima
estimar
estimate
estimates
estimation
estimationes
estimava
estive
esto
estonia
estonian
estos
estoy
estrade
estranie
estranier
estraniero
estranieros
estu
estuario
estudio
estudios
estufa
esturdite
estuve
estuvo
esus
eswatini
et
eta
etage
etages
etan
etape
etapes
etate
etates
etc
etcetera
eternal
eterne
eternisar
eternitate
ethere
ethic
ethica
ethics
ethiope
ethiopia
ethiopic
ethnic
ethnicitate
ethnographic
ethnologue
ethos
ethylic
etiam
etiquetta
etiquettar
etiquettas
etiquettate
etna
etruria
etrusc
etrusco
etruscos
etsi
etui
etymologia
etymologic
etymological
etymologicamente
etymology
eu
eucalypto
eucaryote
eucaryotes
eucaryotic
eucharistia
eucharistic
euclide
euclidian
euge
eugen
eugene
eugenic
euh
euismod
eukaryota
euler
eum
euphemic
euphemismo
euphemistic
euphorbia
euphoria
eur
eurasia
eurasian
eurasiatic
euratom
euripides
euro
europa
europaea
europanto
europe
europea
european
europeana
europee
europeia
europeo
europeos
europeu
europium
europol
euros
eurovision
eurozona
eutectic
euthanasia
eutheria
eux
ev
eva
evacua
evacuar
evacuate
evacuation
evade
evader
evalutar
evalutate
evalutation
evanescente
evangelic
evangelical
evangelicales
evangelicalismo
evangelio
evangelios
evangelisation
evangelista
evangelium
evangelo
evans
evaporar
evaporation
evas
evasion
evasive
eve
evelia
eveliar
eveliate
eveliator
eveliava
eveller
even
eveni
evenimento
evenimentos
evening
evenir
evenite
eveniva
event
eventis
evento
eventos
eventrar
events
eventual
eventualitate
eventualmente
ever
everest
eversion
everter
every
everybody
everyone
everything
everywhere
eviction
evidence
evidente
evidentemente
evidentia
evidentias
evil
evincer
evita
evitar
evitation
evitava
evo
evoca
evocar
evocation
evocatori
evolution
evolutionari
evolutionismo
evolutionistic
evolutive
evolve
evolver
evolveva
evolvite
ex
exacerbation
exact
exactamente
exacte
exactemente
exactitude
exactly
exaggerar
exaggerate
exaltar
exaltate
exaltation
examina
examinar
examinate
examination
examinator
examine
examiner
examines
example
examples
examplo
exanime
exarchato
exasperar
excambiar
excambiator
excambio
excavar
excavate
excavation
excavationes
excavator
excede
excedente
exceder
exceed
exceedingly
excel
excellence
excellent
excellente
excellentia
exceller
except
excepte
excepting
exception
exceptional
exceptiones
excepto
excess
excessive
excessivemente
excesso
excessos
exchange
exchequer
excider
excision
excitamento
excitante
excitar
excitate
excitation
excite
excited
exclamation
exclamative
exclaramento
exclarar
exclude
excludente
excluder
excludeva
excludite
exclusion
exclusive
exclusively
exclusivemente
excommunication
excoriate
excremento
excrementos
excretion
excretori
excursion
excusa
excusar
excusas
excuse
execrabile
executa
executabile
executante
executar
executate
executava
execute
execution
executiones
executive
executor
executori
exegese
exegetic
exemplar
exemplares
exemplarmente
exemple
exempli
exemplificar
exemplificative
exemplo
exemplos
exempt
exemptar
exempte
exemption
exeque
exequer
exequeva
exequite
exerce
exercer
exerceva
exercise
exercises
exercitar
exercitation
exercite
exercitio
exercitios
exerco
exert
exf
exh
exhala
exhalar
exhaurir
exhaurite
exhaust
exhauste
exhaustion
exhaustive
exhaustivemente
exhiber
exhibi
exhibir
exhibit
exhibite
exhibition
exhibitionista
exhibitions
exhibitionslist
exhortar
exhortation
exhortava
exhumar
exige
exigente
exigentia
exigentias
exiger
exigeva
exigite
exigue
exile
exiliate
exiliava
exilio
eximer
exir
exist
exista
existe
existence
existente
existentia
existential
existentialismo
existentialista
exister
existeva
existing
existite
existiva
exists
exit
exito
exiva
exo
exocrin
exodo
exonerar
exoperante
exoperantes
exopero
exoperos
exorbitante
exotic
exoticitate
expande
expander
expandeva
expandite
expansion
expansionismo
expansive
expecta
expectante
expectar
expectate
expectation
expectationes
expectativa
expected
expectorante
expectoration
expedient
expediente
expedir
expedite
expedition
expeditionari
expeditiones
expeditor
expediva
expeller
expelleva
expellite
expend
expender
expensa
expensas
expensive
experience
experientia
experientias
experiment
experimental
experimentar
experimentate
experimentation
experimentava
experimento
experimentos
expert
experte
expertise
experto
expertos
expiar
expiation
expiatori
expira
expirar
expiration
expiratori
expire
expl
explain
explanar
explanation
explanatory
explica
explicar
explicate
explication
explicationes
explicative
explicava
explicite
explicitemente
explode
exploder
explodeva
explodite
exploit
exploita
exploitar
exploitate
exploitation
explora
explorar
explorate
exploration
explorationes
explorator
exploratores
exploratori
explorava
explore
explorer
explosion
explosiones
explosive
explosivo
expone
exponente
exponentes
exponential
exponer
exponeva
exponite
exportar
exportate
exportation
exportationes
exportator
expose
exposition
expositiones
expositions
expositor
expresar
expresio
express
expressa
expressar
expresse
expressed
expressemente
expression
expressiones
expressionista
expressive
expresso
exprime
exprimer
exprimeva
exprimibile
exprimite
exprimitor
expropriation
expugnabile
expugnar
expulsar
expulsate
expulsion
exquisite
exsangue
ext
exte
extemporanee
extend
extende
extended
extendente
extender
extendeva
extendibile
extendite
extends
extense
extensemente
extensibile
extensibilitate
extensible
extension
extensiones
extensive
extensivemente
extenso
extensor
extent
extenuar
extenuate
extere
exterior
exteriorisar
extermination
external
externe
extero
exterritorial
extincte
extinction
extinctor
extinguer
extingueva
extinguite
extirar
extirpar
extirpation
extirpator
extorquer
extorsion
extra
extract
extraction
extracto
extractor
extractos
extradition
extraher
extrahite
extrajudicial
extrajudiciari
extranee
extranier
extraordinari
extraordinarimente
extraordinary
extraparlamentari
extrapolation
extraterrestre
extraterrestres
extraterritorial
extravagante
extravagantia
extre
extremadura
extreme
extrememente
extremismo
extremista
extremistic
extremitate
extremitates
extremo
extremos
extrinsec
exuberante
exuberantia
exultant
eye
eyed
eyes
ez
f
fa
faba
fabas
fable
fabric
fabrica
fabricante
fabricantes
fabricar
fabricas
fabricate
fabrication
fabrikerio
fabula
fabulas
fabulose
fac
facar
facas
face
facebook
facente
facer
facera
facerea
faces
facete
facetia
facetiose
faceva
faciada
facial
facibile
facie
faciente
facies
faciettas
facila
facile
facilemente
facilisis
facilita
facilitar
facilitate
facilitates
facilitava
facis
facite
facitor
facsimile
fact
factbook
facte
facticie
faction
factiones
facto
factor
factores
factorial
factory
factos
facts
factual
factura
facula
facultate
facultates
facultative
faculty
fading
fago
fagotto
fagottos
fahrenheit
fail
failure
fair
fairly
fairo
fairy
faisan
fait
faith
faithful
fajita
fakir
fakte
falar
falcar
falce
falco
falcon
falis
falko
fall
fallace
fallacia
faller
falleva
fallia
fallimento
falling
fallite
falls
falsar
false
falsehood
falsetto
falsificar
falsificate
falsification
falsificator
falsify
falsitate
falso
falta
faltar
faltas
fam
fama
fame
famelic
fames
fami
famiglia
familia
familial
familiar
familiarisar
familiaritate
familias
families
familio
family
famose
famosemente
famous
fan
fanatic
fanatico
fanatismo
fancy
fango
fangose
fans
fantaisie
fantasma
fantastic
fantasy
faq
far
faraday
farce
farcite
fardar
fardello
fardo
fare
farewell
farina
farinose
farm
farmer
farming
faro
faroe
farsa
farsighted
farsightedness
farther
fasce
fasces
fascia
fascias
fascina
fascinante
fascination
fascino
fascism
fascismo
fascist
fascista
fasciste
fashion
fashionable
faso
fast
fasten
fastening
fastidiose
fat
fata
fatal
fatalista
fatalitate
fate
father
fathom
fatidic
fatiga
fatigante
fatigar
fatigate
fato
fatty
fatue
fatuitate
faucibus
fault
fauna
faunistic
fauno
faure
favo
favor
favora
favorabile
favorable
favorar
favorava
favori
favorir
favorite
favorito
fax
faxinal
fbi
fc
fe
fear
fearful
feast
feather
feathers
feature
features
febre
febrero
febrifuge
febril
februario
februaro
february
fecal
fece
feces
fecula
fecundation
fecunde
fecunditate
fede
federal
federalismo
federalista
federate
federation
federative
federico
feditate
fee
feed
feel
feeling
fees
feet
feign
feijoa
feira
felice
felicitar
felicitate
felicitation
felidae
felide
felides
feliformes
felin
felino
felinos
felipe
felis
felix
feliz
fell
fellow
fellowship
felt
feltro
fem
female
femenino
femina
feminas
feminin
feminine
femininitate
feminino
feminismo
feminista
femme
femoral
femore
fence
fencing
fend
fender
fenestra
fenestraabstracte
fenestradecorator
fenestras
fenestretta
fenestro
feno
fenuculo
fer
ferdinand
ferdinando
ferenc
feretro
feria
ferial
feriate
ferir
ferita
feritate
ferite
ferma
fermas
ferment
fermentar
fermentate
fermentation
fermento
fermentum
fermero
fermeros
fermi
fermiones
fermium
fermo
ferna
fernando
fernsehserien
feroce
ferralia
ferrar
ferrara
ferree
ferrer
ferreria
ferrero
ferric
ferritic
ferro
ferromagnetic
ferrose
ferrovia
ferroviari
ferrovias
ferrugine
ferruginose
ferry
fertile
fertilisante
fertilisation
fertilitate
ferus
fervente
fervor
festa
festar
festas
fester
festival
festive
festivitate
festivitates
festo
feston
festoon
festschrift
festuca
fetal
fetide
feto
feudal
feudalismo
feudo
feugiat
fever
feverish
few
ff
fi
fiance
fiasco
fiber
fibra
fibras
fibrose
fibula
fic
fica
ficato
ficicchia
fico
ficos
ficticie
fiction
fictional
fictive
fidantiamento
fidantiar
fide
fidel
fideles
fidelitate
fidelmente
fider
fiducia
fiducial
fiduciari
field
fields
fierce
fiesta
fifteen
fifth
fiftieth
fifty
fig
figaro
figer
fight
fighter
fighting
figura
figurante
figurar
figuras
figurate
figurative
figurava
figure
figures
fiji
fil
fila
filamento
filamentose
filanda
filanderia
filar
filas
filator
filatura
file
files
filet
filetto
filho
filia
filial
filiar
filias
filiastro
filiation
filice
filices
filiforme
filiino
filio
filios
filipinas
filipino
filiulo
filius
fill
fille
filled
fillet
film
filmabile
filmar
filmate
filme
filmes
films
filo
filon
filos
filosofi
filosofia
fils
filter
filtrar
filtrato
filtrava
filtro
fin
final
finala
finale
finalemente
finales
finalista
finalitate
finally
finalmente
finance
financia
financial
financiamento
financiar
financiari
financias
financiate
financiation
financiero
find
finde
finder
findings
finditor
fine
fines
finge
finger
fingite
fini
finibus
finiente
finir
finish
finished
finite
finiva
finland
finlandese
finlandia
finnese
finno
fino
fionia
fiord
fir
fire
firebird
firefox
firenze
firm
firma
firmamento
firmar
firmas
firmate
firmava
firme
firmemente
firmessa
firmitate
firmly
first
firth
fiscal
fiscalisar
fiscalisation
fischer
fisco
fish
fisher
fishing
fisho
fisica
fisk
fissile
fission
fissipede
fissura
fissuras
fistula
fit
fitting
fitzgerald
fiume
five
fix
fixa
fixar
fixate
fixation
fixava
fixe
fixed
fixemente
fjord
fla
flabellate
flabello
flaccide
flacon
flag
flagellar
flagellate
flagellation
flagello
flagrante
flagrar
flame
flamenco
flaminge
flamingo
flamma
flammante
flammar
flammarion
flammas
flammava
flammee
flammifero
flammiferos
flan
flanagan
flanar
flanco
flancos
flandra
flanella
flangia
flasco
flash
flask
flat
flatten
flatulence
flatulentia
flauta
flava
flave
flavio
flavor
flax
flecha
flechas
fleckeri
flecter
fleet
fleetwood
fleming
flerovium
flesh
flex
flexibile
flexibilitate
flexion
flexional
flexione
flexo
flexuose
flexura
flight
flint
flip
flirt
float
floating
flocco
floccos
floccose
flock
flood
floor
flop
floppy
flor
flora
floral
floration
florence
florentia
florentin
florentino
florer
flores
floresce
florescer
floresceva
floretto
flori
florian
florida
floride
florimento
florino
florinos
florista
floro
flotta
flottante
flottar
flottator
flour
flourish
flourishing
flow
flower
flowers
flowing
flu
fluctuante
fluctuar
fluctuation
fluctuationes
flue
fluente
fluer
flueva
fluid
fluide
fluiditate
fluido
fluidos
fluor
fluorescente
fluorescentia
fluorisation
flush
flute
flutter
fluvial
fluviatile
fluvio
fluvios
flux
fluxo
fly
flying
fm
fmatches
fmi
fo
foam
foc
focal
focalisa
focalisar
focalisate
focalisation
focar
foco
focos
focose
focus
foder
fodero
foerster
fog
foggia
foil
fois
fold
folding
foliacee
foliage
foliar
foliate
folio
folios
foliose
folk
folkho
folklore
folkloric
folle
folles
follia
folliculo
follow
followed
follower
following
follows
fomentar
fomentava
fond
fondo
fondue
fono
fonseca
font
fontaine
fontal
fontana
fontanella
fonte
fontes
fontolinguas
food
fool
foolish
foot
football
footballista
footed
for
fora
forage
forall
foramine
foramines
forar
foras
forate
forator
forbes
force
forced
ford
fore
foreign
forense
foresight
forest
foresta
forestal
foreste
forestes
foresto
forever
forewarn
foreword
forfeit
forge
forget
forgia
forgiar
forgiate
foris
fork
forketo
forli
form
forma
formal
formalismo
formalitates
formally
formalmente
forman
formante
formar
formas
format
formatar
formate
formation
formationes
formations
formative
formato
formatos
formava
forme
formed
former
formerly
formic
formica
formicar
formicas
formidabile
formosa
forms
formula
formular
formulario
formulas
formulate
formulation
formulationes
formulava
fornace
forni
fornimento
fornir
fornite
fornitor
fornitura
forniva
foro
foros
forrage
forsan
fort
forta
fortalessa
fortalessas
forte
fortemente
forth
fortia
fortiante
fortiar
fortias
fortiate
fortiava
fortif
fortificar
fortificate
fortification
fortificationes
fortify
fortitude
fortran
fortuite
fortuna
fortunas
fortunate
fortune
forty
forum
forward
fossa
fossas
fossato
fossetta
fossil
fossile
fossilees
fossiles
fossilifere
fossilisate
foster
foucault
foul
found
foundation
foundations
founded
founder
founding
four
fourier
fourth
fowl
fox
foyer
fr
fra
frac
fracassar
fracassate
fracasso
fractal
fraction
fractional
fractionari
fractionate
fractiones
fractura
fracturar
fraga
fragas
fragile
fragilitate
fragmentar
fragmentari
fragmentation
fragmento
fragmentos
fragrante
fragrantia
fraiburgo
frambese
frambeses
frame
framework
frameworks
franc
franca
francamente
francatura
france
frances
francesa
francesc
francesca
francesco
francese
franceses
franchise
franchitia
francia
francic
francico
francis
franciscan
francisco
francium
franco
francoforte
franconia
francophile
francophobe
francophone
francos
frangia
frank
frankfurt
franklin
franz
frase
frases
frashe
frate
frater
fraternal
fraterne
fraternitate
fratino
fratre
fratres
fratulo
fraud
fraudar
fraudator
fraude
fraudulente
fraxino
fray
frazi
frazo
fre
freak
fred
frederick
frederico
frederik
free
freedom
freestyle
freetown
freeze
fregola
freguesia
freiburg
freight
freitas
fremen
fremer
fremito
frenage
frenar
french
freno
frenos
frente
frenulo
freon
frequency
frequent
frequentar
frequentate
frequentation
frequentative
frequentava
frequente
frequentemente
frequentia
frequentias
frequently
fresa
fresar
fresc
fresco
frescor
frescos
fresh
fresha
fresno
fretamento
frete
freud
fri
fricamento
fricar
fricassee
fricative
friction
friday
fried
friedrich
friend
friendly
friends
friendship
friger
frigidar
frigide
frigido
frigorifere
frigorific
fringe
fringes
fringilla
frir
frisia
frisian
frison
frite
frits
fritura
friuli
frivole
fro
frodo
frog
from
fronda
frondifere
front
frontal
fronte
frontera
frontier
frontiera
frontieras
frontispicio
frosinone
frost
froth
frozen
frr
fru
fructal
fructero
fructifere
fructifica
fructo
fructos
fructuose
frue
fruer
frugal
fruit
fruition
frukto
frumentari
frumento
frustrar
frustration
fry
frying
ft
ftp
fu
fuco
fudge
fue
fuego
fuente
fuentes
fuera
fuerte
fuga
fugace
fugacitate
fugi
fugir
fugita
fugite
fugitive
fugiva
fui
fuji
fulgor
fulgurante
fulgure
fuligine
fuliginose
full
fullar
fuller
fully
fulminante
fulminato
fulmine
fuma
fumac
fumar
fumate
fumator
fumatores
fumigene
fumo
fumose
fun
funafuti
func
funcio
function
functiona
functional
functionalitate
functionalitates
functionamento
functionante
functionar
functionario
functionarios
functionava
functiones
functions
fund
funda
fundamental
fundamentales
fundamentalismo
fundamentalista
fundamentalistas
fundamentalmente
fundamento
fundamentos
fundar
fundate
fundation
fundationes
fundator
fundatores
fundatrice
fundava
funde
funder
funderia
fundeva
fundite
funditor
fundo
fundos
funebre
funeral
funerales
funerari
funere
funeres
funeste
fungal
fungi
fungic
fungiforme
fungo
fungos
funicular
funk
funny
fuori
fur
furar
furca
furcate
furchetta
fures
furetto
furfure
furgon
furia
furibunde
furiose
furious
furnish
furniture
furno
furor
furry
further
furthermore
furtive
furtivemente
furto
furunculo
fury
fus
fusc
fusce
fuse
fusibile
fusil
fusilate
fusiles
fusillate
fusion
fusionar
fusionate
fuso
fusos
fussball
fuste
fustigar
fustigation
futile
futilitate
futur
future
futurista
futuro
g
ga
gabarra
gabon
gaborone
gabriel
gabriela
gabrielle
gaddafi
gado
gadolinimum
gadolinium
gaelic
gaelico
gaetana
gagarin
gagate
gai
gaia
gain
gainesville
gaio
gal
gala
galactic
galatas
galaxia
galaxias
galaxy
gale
galea
galena
galenic
galera
galerella
galeri
galeria
galerias
galicia
galician
galilea
galilee
galilei
galileo
galimatias
galion
gall
gallecia
gallecian
galleciano
galleco
gallego
gallegos
galleria
gallery
galles
gallese
galletto
galley
gallia
galliarde
gallic
gallimard
gallina
gallinas
gallium
gallo
gallomania
gallophile
gallophobe
gallophobia
gallos
gallus
galocha
galon
galopar
galvanic
galvanometro
galveston
gama
gamba
gambas
gambia
gambon
game
games
gameta
gamma
gana
gandalf
gandhi
gang
ganges
ganglion
ganglionar
gangrena
gangrenose
gangster
gania
ganiante
ganiar
ganiate
ganiator
ganiatores
ganiava
ganio
ganios
gans
gap
garage
garancia
garante
garanti
garantia
garantir
garantite
garantiva
garbas
garc
garci
garda
garde
garden
gardeno
gardner
garibaldi
garland
garment
garnison
garrett
garrison
garrote
garrular
garry
garson
garsones
garsono
gary
gas
gaseous
gases
gasolina
gasoline
gasose
gaspar
gaston
gastric
gastrointestinal
gastronomia
gastronomic
gata
gate
gates
gateway
gather
gathering
gato
gatos
gatto
gaude
gauder
gaudeva
gaudi
gaudimento
gaudio
gaudios
gaudiose
gauss
gaussian
gautama
gave
gavin
gay
gays
gaz
gaza
gazon
gb
gdan
ge
gea
gear
gedenkbuch
gefilte
geisha
gela
gelar
gelate
gelatina
gelato
gelatos
geldria
gelea
gelide
gelo
gem
gemer
gemimento
geminate
gemine
gemini
gemino
geminos
gemito
gemma
gemmar
gemmas
gemmate
gemmation
gen
gena
genal
genas
gender
gene
genealogia
genealogic
genera
general
generale
generales
generalisate
generalisation
generalitat
generalitate
generally
generalmente
generante
generar
generate
generation
generationes
generative
generator
genere
generes
generic
generis
genero
generose
generositate
generous
genes
genese
genesis
genetic
genetica
geneticamente
genetics
genetta
geneva
gengis
genial
genic
geniculo
genio
genista
genital
genitales
genitive
genitivo
genitor
genitores
genitori
genius
geno
genocidio
genoma
genre
gens
gent
gente
gentes
gentiana
gentil
gentile
gentiles
gentilhomine
gentle
gentleman
genu
genua
genuflexion
genuin
genuine
genuinitate
genus
geo
geocentric
geodesic
geoffroy
geog
geogra
geografi
geografia
geographia
geographic
geographical
geographicamente
geographo
geography
geol
geologia
geologic
geological
geologo
geology
geom
geometra
geometri
geometria
geometric
geometrie
geometry
geomorphologia
geophysic
geopolitic
georg
george
georges
georgetown
georgia
georgian
georgiano
georgio
geos
geoscientia
geothermal
geothermic
gepardo
geq
ger
gerais
gerald
geranio
gere
gerente
gerentia
gerer
gerite
germ
german
germana
germania
germanic
germanico
germanium
germano
germanos
germany
germinal
germinar
germination
germinative
germine
germines
gershwin
gerundio
geschichte
gesellschaft
gesta
gestapo
gestas
gestation
gesticulatori
gestion
gesto
gestos
gesture
get
getbasecost
gets
getting
gettysburg
getu
geyser
ghana
ghetto
ghil
ghost
ghusn
gi
gia
giacomo
giant
gibbose
gibraltar
gibran
gibson
gica
gico
gide
gif
gigante
gigantes
gigantesc
gigantopithecus
gil
gilbert
gilet
gilgamesh
gilles
gin
gina
gingibre
ginny
ginsberg
gion
giorgio
giorno
giovanni
gira
girar
giration
giratori
gird
girdle
girl
girls
giro
girona
gis
giss
gitarra
giulia
giuseppe
giusto
give
given
giving
giza
gl
glabre
glace
glacial
glaciari
glaciate
glacie
glaciero
glacieros
glacis
gladio
glance
gland
glands
glandula
glandular
glandulas
glandulose
glas
glasgow
glaso
glass
glauc
glaucoma
glaze
glen
glenn
gli
glide
glise
glissamento
glissamentos
glissante
glissar
glissatores
glitter
global
globale
globalmente
globe
globo
globose
globular
globulo
gloom
gloomy
gloria
glorificar
glorificate
gloriose
glory
glosa
gloss
glossa
glossario
glossarios
glossary
glotta
glottal
glu
glucosa
glue
glutinose
glutir
glutton
glyceria
gn
gnathostomata
gnomic
gnoseologia
gnostic
gnosticismo
gnu
go
goa
goal
goals
goat
gobierno
goblet
god
goddard
gode
gods
goes
goethe
gogh
goia
going
gold
golden
goldman
goldsmith
goldstein
goletta
golf
golfo
goliardic
gollum
goma
gomez
gon
gonde
gondica
gondor
gondwana
gone
gong
gonna
gonnella
gono
gonza
gonzalo
good
goodall
goodman
goods
google
googol
googolplex
goose
gopher
gopsill
gordian
gordo
gordon
gore
gorga
gorge
gorilla
gorillas
gorilo
gorizia
gorrio
gospel
got
gota
gotas
gotha
gothic
gothico
gothos
gotland
gottfried
gourmand
gourmet
gov
govern
governa
governaculo
governamental
governamento
governamentos
governante
governar
governate
governator
governatorato
governatores
governava
government
governmento
governo
gown
goya
gpl
gr
gra
grace
gracias
gracile
grad
grade
gradiente
grado
grados
gradual
gradually
gradualmente
graduar
graduate
graduation
graduato
graduava
graffar
graffiti
graffo
grafo
graham
grain
gral
gram
grama
gramatiko
gramma
grammar
grammas
grammatic
grammatica
grammatical
grammaticas
grammatico
grammatik
grammophono
grammy
gran
grana
granada
granas
granata
grand
granda
grande
grandega
grandemente
grandes
grandfather
grandine
grandiose
grandissime
grandmother
grandor
grandordine
granfilia
granfilio
granger
granitic
granito
granivore
granmamma
granmatre
grano
granos
granpatre
grant
granular
granulate
granuloma
granulose
grape
grapefruit
grapes
graphia
graphic
graphicamente
graphico
graphicos
graphics
graphite
grapho
grapo
grappa
grasp
grass
grasse
grassia
grassias
grata
grate
grateful
gratia
gratias
gratification
grating
gratiose
gratis
gratitude
gratta
grattar
gratuite
gratuitemente
gratulation
gratulatori
grau
grava
gravar
gravatal
gravate
gravator
grave
gravella
gravemente
graves
gravida
gravide
graviditate
gravita
gravitate
gravitation
gravitational
gravity
gravure
gravures
gray
graze
gre
grease
great
greater
greatest
greatly
grec
greca
grecia
grecisate
greco
grecoroman
grecos
gred
gredin
gredos
greece
greedy
greek
green
greenhouse
greenwich
greenwood
greet
grefrath
gregari
grege
greges
gregorian
gregorio
gregory
grek
grenada
grenoble
gres
gress
grey
griffin
grill
grillet
grillhofer
grillia
grilliage
grilliate
grillo
grim
grimace
grimasse
grindelwald
grip
grippe
gris
grisastre
grizzly
groan
groenlandese
groenlandia
groningen
groom
groove
grosa
gross
grossa
grosse
grosseria
grosseto
grossier
grosso
grossula
grotta
grottesc
groucho
ground
group
groupe
groups
grove
grow
growing
growth
gru
grue
grues
grumo
grumose
grundtvig
gruner
grupo
grupos
gruppa
gruppamento
gruppar
gruppate
gruppe
gruppo
gruppoide
gruppos
gryffindor
gskola
gtr
gu
gua
guadalajara
guadeloupe
guai
guaido
guam
guanaco
guangdong
guano
guantanamera
guanto
guantos
guaraciaba
guarani
guarantee
guard
guarda
guardacostas
guardar
guardas
guardate
guardia
guardian
guardiano
guardianship
guarita
guarnir
guarnition
guarnitura
guas
guastar
guastate
guatemala
guayaba
gue
guedes
guerra
guerras
guerre
guerrero
guerreros
guerrier
guerrilla
guerrillero
guess
guest
guevara
guez
guglielmo
guiana
guida
guidance
guidar
guidate
guide
guigna
guild
guilda
guilhelmo
guillaume
guillermo
guillotine
guilty
guine
guinea
guinness
guisa
guitar
guitarra
guitarras
guitarrista
gulf
gulielmo
gullet
gum
gumma
gummate
gummo
gun
gundam
gunter
guo
gurgite
guru
gusta
gustar
gustation
gustative
gustav
gustave
gustavo
gusto
gustos
gustose
gut
gutenberg
guti
guto
gutta
guttar
guttas
guttettas
guttural
guy
guyana
gymnasio
gymnastic
gymnastica
gynecologia
gynecologic
gypsero
gypso
gypsum
gypsy
gyro
gyroscopic
gyrostatic
h
ha
haag
haagsma
haar
hab
habe
habente
haber
habera
haberea
habeva
habi
habile
habilemente
habilita
habilitar
habilitate
habilitates
habiru
habit
habita
habitabile
habitacio
habitante
habitantes
habitar
habitas
habitat
habitate
habitates
habitation
habitationes
habitava
habite
habito
habitos
habits
habitual
habitualmente
habituar
habitude
habitudes
habla
hablar
hablo
habra
habri
habsburgo
hac
hace
hacer
hacha
hachamento
hachar
hachate
hachatoria
hachette
hacia
hack
hacker
had
hada
hades
hadj
haemophile
haemophiliac
hafnium
haga
hago
hagrid
haifa
haiku
hail
hair
hairon
hairy
haiti
haitian
halen
half
halito
hall
halle
hallelujah
halley
hallo
hallomundo
halloween
hallucination
hallucinatori
halo
halogenos
halt
halto
ham
hamaca
haman
hambre
hamburg
hamburger
hamburgo
hamilton
hamlet
hammer
hammond
hamo
hampshire
hamster
han
hanca
hand
handball
handbook
handbuch
handed
handi
handicap
handicapate
handicapatos
handle
hands
handwriting
handy
hang
hanging
hannah
hannover
hano
hanoi
hanover
hans
hanse
hanseatic
happen
happened
happening
happy
hara
harald
haram
harare
harbor
hard
hardite
hardly
hardware
hardy
hare
haringo
haringos
harlem
harm
harmful
harmonia
harmonic
harmonica
harmoniose
harmonisar
harmonium
harmonize
harmony
harnese
harness
harold
harpa
harper
harpercollins
harpo
harriet
harris
harrison
harry
harsh
harum
harvard
harvest
harvey
harvnb
harzer
has
hasardar
hasardate
hasardo
hasardose
hasbro
hash
hassium
hast
hasta
hastar
hastate
haste
hasten
hastive
hat
hatch
hate
hath
hatred
haul
haurir
haus
haut
haute
hautes
hav
havana
havar
havas
have
haven
haver
haveva
havilland
having
havis
hawai
hawaian
hawaiano
hawaii
hawaiian
hawk
hawking
haworth
hay
haya
haydn
hazard
haze
hbar
hd
hdl
he
head
headed
heal
healing
health
healthy
heap
hear
heard
hearing
heart
hearted
heat
heathen
heating
heaven
heavenly
heavily
heavy
heb
hebdo
hebdomadari
heberita
heberitas
hebraic
hebree
hebreo
hebreos
hebrew
hecho
hectares
hector
hectore
hedera
hedgehog
hegel
hegelian
hegemonia
hehlrath
heidegger
heidelberg
height
heimdal
heinrich
heinsberg
heinz
held
helen
helena
heleno
heliantho
helice
helicoidal
helicoide
helicoptero
heliocentric
heliogravures
helios
helium
helix
hell
helleboro
hellenic
hellenismo
hellenistic
hello
help
helper
helpful
helsingborg
helsinki
helvetia
helvetic
hem
hematic
hematosis
heme
hemingway
hemiplegia
hemiplegic
hemispherio
hemistichio
hemoglobina
hemophile
hemophilia
hemophiliac
hemophilo
hemorrhage
hemorrhagia
hemos
hemostatic
hemp
hen
henares
hence
henceforth
hendrerit
hennen
henri
henrico
henrik
henriko
henrique
henry
henson
hepate
hepatic
hepatitis
her
hera
heracles
herald
heraldic
heraldica
heraldo
heraldry
herb
herba
herbacee
herbage
herbal
herbas
herbert
herbivore
herborisar
herbose
herculee
hercules
herd
here
herede
heredes
heredita
hereditage
hereditar
hereditari
hereditario
hereditate
hereditava
herero
heresia
heresias
heretic
heretico
hereticos
heri
heritage
herman
hermana
hermann
hermano
hermaphrodite
hermeneutic
hermeneutica
hermes
hermetic
hermeticamente
hermione
hermosa
hermoso
herna
hernia
herniari
hero
herodoto
heroe
heroes
heroic
heroina
heroismo
herpestes
herpestidae
herpete
herpetic
herpetologia
herrera
herschel
herself
hertog
hertz
hertzian
herval
herzegovina
herzogenrath
hes
heschel
hesiodo
hesitante
hesitar
hesitation
hesse
hestia
het
heteroclite
heterodoxe
heterodoxia
heterodyne
heterogene
heterogenee
heterosexual
heterosexualitate
heure
heuristic
hex
hexagonal
hi
hiato
hibernal
hibernation
hiberno
hic
hidalgo
hidden
hide
hier
hierarchia
hierarchic
hieratic
hiere
hieroglyphic
high
higher
highest
highland
highlands
highly
highway
hija
hijo
hijos
hike
hilaritate
hilbert
hildegard
hill
hillary
hills
hilo
him
himalaya
himself
hinc
hind
hindenburg
hinder
hindi
hindrance
hindu
hinduismo
hindus
hindustani
hinnimento
hinstance
hip
hippic
hippopotamo
hiragana
hire
hiroshima
hirsute
hirundine
his
hispan
hispania
hispanic
hispaniola
hispano
hispanoamerican
hispanophone
hispida
hiss
hissar
hist
histo
histoire
histologia
historia
historias
historic
historica
historical
historicamente
historico
historicos
historietta
historiographia
history
histropedia
hit
hitherto
hitler
hitlerian
hits
hittita
hizo
hjalmar
hl
hm
hms
ho
hoa
hob
hobbit
hobbites
hobby
hoc
hockey
hocquenghem
hodie
hodierne
hodometro
hogan
hogben
hogrogian
hogwarts
hoi
holanda
holarctic
holberg
hold
holder
holding
hole
holiday
holland
hollanda
hollandese
hollandeses
hollow
hollywood
holmes
holmium
holocaust
holocausto
holographic
holstein
holy
homage
homaro
homaros
hombre
hombres
home
homeopathia
homeopathic
homeopathy
homer
homeric
homero
homi
homicida
homicidio
homine
hominem
homines
hominidae
hominides
homme
homo
homogene
homogenee
homogeneitate
homographic
homomorphismo
homonyme
homonymo
homophobia
homophone
homophonia
homosexual
homosexuales
homosexualitate
homosexuality
hondal
honduras
honest
honestate
honeste
honestitate
honey
hong
honolulu
honor
honora
honorabile
honorar
honorari
honorario
honorary
honorate
honores
honorific
honoris
hood
hook
hop
hope
hopkins
hora
horari
horario
horarios
horas
horatio
hordeo
horizon
horizontal
horizontalitate
horizonte
hormon
hormonal
hormones
horn
horo
horologic
horologieria
horologiero
horologio
horologios
horoscopo
horrende
horribile
horrible
horripilante
horripilation
horrisone
horror
horrores
hors
horse
horses
horst
hort
horta
horticole
horticultura
horus
hose
hospital
hospitalari
hospitales
hospitalisation
hospitalitate
hospite
hospites
host
hostage
hostages
hoste
hostil
hostilitate
hostilitates
hot
hotel
hotelo
hound
hour
hours
house
household
housepian
housing
houston
how
howard
however
hoy
href
hrung
htm
html
http
https
hu
hua
huang
hub
hubert
hudson
hue
hufflepuff
huge
hugh
hugo
hui
hull
hum
humain
human
humana
humanes
humanismo
humanista
humanistic
humanitari
humanitarian
humanitate
humanitates
humano
humanos
humans
humble
hume
humectar
humeral
humero
humeros
humide
humidificar
humiditate
humile
humilemente
humiliar
humiliation
humilitate
humor
humoristic
humorose
humorous
humour
humpty
humus
hundi
hundo
hundred
hungare
hungaria
hungarian
hungaro
hungary
hunger
hungras
hungry
hunt
hunter
hunting
huracan
hurd
hurl
huron
hurricane
hurry
hurt
husband
husk
hut
hutter
huxley
huygens
hwnd
hyacintho
hyacinthos
hyaenidae
hybrida
hybridas
hybridation
hybride
hyde
hydra
hydrangea
hydratos
hydraulic
hydric
hydrocarburo
hydrocarburos
hydrodynamic
hydroelectric
hydrogen
hydrogeno
hydrographic
hydrologia
hydrologic
hydrolytic
hydromel
hydrophile
hydropisia
hydropneumatic
hydrostatic
hydroxydo
hyemal
hyena
hygiene
hygienic
hygrometro
hymno
hymnos
hypatia
hyperbola
hyperbolic
hypercarbonic
hypergeometric
hyperinflation
hypersonic
hypertension
hypertexto
hypertrophia
hypertrophic
hyphas
hypnagogic
hypnotic
hypochondria
hypochondriac
hypocrisia
hypocrita
hypodermic
hypogee
hypothalamus
hypotheca
hypothecari
hypothecate
hypothenusa
hypothese
hypotheses
hypothesis
hypothetic
hypsometric
hysteria
hysteric
hz
i
ia
iaculis
ial
iala
iambic
ian
iau
ibaan
ibe
iberia
iberian
iberic
ibero
iberos
ibge
ibi
ibicare
ibid
ibidem
ibirama
ibm
ibn
ibrahim
ibtracs
ic
ica
icd
ice
iceberg
icelandic
ich
ichthyol
ici
ico
icon
icone
icones
iconic
iconoclastic
icq
id
ida
idaho
ide
idea
ideal
ideales
idealisate
idealisation
idealismo
idealista
idealistic
idear
ideario
ideas
ideate
idem
idempotente
identic
identical
identifica
identificabile
identificar
identificate
identification
identificator
identificatores
identificava
identified
identitate
identity
ideographic
ideologia
ideologias
ideologic
ideologicamente
ideology
idiom
idioma
idiomaji
idiomas
idiomatic
idiota
idista
idistas
idisti
idisto
idle
idleness
ido
idolatria
idolatric
idolo
idolos
idonee
ids
idus
idyllic
ie
iec
ied
ieee
ieri
iesus
ietf
if
ifenestraabstracte
ig
igitur
iglesia
ignacio
ignatio
igne
ignee
ignite
ignition
ignobile
ignominia
ignora
ignorante
ignorantia
ignorar
ignorate
ignorava
ignore
igor
igual
ihs
ii
iii
ike
il
ile
iles
ilga
ili
iliac
iliade
ilice
ill
illa
illac
illas
ille
illegal
illegalitate
illegalmente
illegibile
illegitime
illes
illese
illi
illic
illicite
illimitate
illinois
illiterate
illness
illo
illos
illumina
illuminante
illuminar
illuminate
illumination
illuminismo
illusion
illusiones
illusori
illustra
illustrar
illustrate
illustrated
illustration
illustrationes
illustrative
illustrator
illustre
illyric
ilo
ilos
ils
ilu
ilua
ilulissat
im
ima
image
imagen
images
imagina
imaginabile
imaginar
imaginari
imaginary
imaginate
imagination
imaginative
imagine
imagines
imago
imam
imarui
imballage
imballar
imbalsamar
imbarcamento
imbarcar
imbarcatorio
imbecille
imbellir
imbiber
imbibite
imboscada
imbottiliate
imbracia
imbraciar
imbraciava
imbricate
imbroliamento
imbroliar
imbruti
imbucca
imbuccar
imbuccatura
imdb
imitabile
imitar
imitate
imitation
imitative
imitator
immaculate
immagazina
immagazinage
immagazinar
immagazinate
immancabile
immanentia
immanuel
immaterial
immatur
immaturitate
immediate
immediately
immediatemente
immemorial
immense
immensemente
immensitate
immerger
immergite
immeritate
immerse
immersion
immigrante
immigrantes
immigrate
immigration
imminente
immiscer
immixtion
immobile
immobiliari
immobilisation
immobilitate
immoderate
immodeste
immolar
immoral
immoralitate
immortal
immortalitate
immovibile
immun
immunde
immunditia
immunditias
immunitari
immunitate
immunodeficientia
immunologic
immutabile
immutabilitate
impacchettar
impact
impacto
impar
impardonabile
impare
imparitate
impart
impartial
impartialitate
impartir
impartite
impasse
impassibile
impastar
impatientia
impavide
impe
impeccabile
impedantia
impedi
impedimento
impedir
impediva
impejorar
impellente
impenetrabile
impenitente
imperative
imperativo
imperator
imperatores
imperatrice
imperatriz
imperceptibile
imperdiet
imperfecte
imperfection
imperfective
imperfecto
imperia
imperial
imperialismo
imperialista
imperio
imperios
imperiose
imperium
impermeabile
impersonal
impertinente
imperturbabile
impeto
impetuose
impie
impietate
impietose
implacabile
implantation
implementa
implementar
implementate
implementation
implementationes
implements
implica
implicar
implicate
implication
implicationes
implicava
implicite
implies
implorar
imply
impolite
impolitessa
impone
imponente
imponer
imponeva
imponite
impopular
import
importa
importance
important
importante
importantes
importantia
importantissime
importar
importate
importation
importationes
importator
importunar
imposition
impossibile
impossibilitate
impossible
imposto
impostor
impostos
impotente
impotentia
impovrimento
impovrite
impracticabile
imprecise
impregnar
imprendibile
impresario
impress
impresse
impression
impressionante
impressionar
impressiones
impressionismo
impressionista
impressionistic
impressive
impressor
imprestar
impresto
imprevisibile
impreviste
imprime
imprimer
imprimeria
imprimite
imprimitor
imprimitores
imprimitos
imprint
imprisionamento
imprisionar
imprisionate
improbabile
improductive
impromptu
impronunciabile
improper
improprie
improve
improvisar
improvisate
improvisation
improvisava
improvise
imprudente
imprudentia
impudente
impudentia
impudic
impugnar
impugnatura
impulsate
impulsion
impulsive
impulso
impulsos
impur
impuritates
imputabile
imputation
in
ina
inabordabile
inacceptabile
inaccessibile
inaccostumate
inactive
inactivitate
inadaptabile
inadequate
inadmissibile
inadvertentia
inalienabile
inalterabile
inalterate
inamical
inamora
inamorar
inamorate
inamorava
inamovibile
inanimate
inanitate
inappaciabile
inapplicabile
inapplication
inappropriate
inapte
inari
inarrestabile
inarticulate
inattaccabile
inattente
inaudite
inaugural
inaugurar
inaugurate
inauguration
inaugurava
inauthentic
inborn
inc
inca
incalculabile
incancellabile
incandescente
incandescentia
incantamento
incantate
incantation
incantator
incapabile
incapable
incapace
incapacitate
incarcerate
incarceration
incarga
incargar
incargate
incargava
incarnar
incarnate
incarnation
incassamento
incassar
incastrar
incastrate
incatenar
incaute
incender
incendiar
incendiari
incendio
incendios
incense
incenso
inception
incerte
incertitude
incertitudes
incessante
incesto
inch
incidental
incidente
incidentes
incidentia
incider
incinerar
incineration
incinerator
incipiente
incirculamento
incircular
incirculate
incisar
incision
incisive
incitar
incitation
incite
inclassificabile
inclemente
inclementia
inclina
inclinar
inclinate
inclination
inclined
include
included
includente
includer
includes
includeva
including
includite
incluse
inclusion
inclusive
incluso
incluyendo
incognite
incognito
incognoscibile
incognoscite
incoherente
incoherentia
incolor
incombrar
incombustibile
incommodar
incommode
incommoditate
incomparabile
incompatibile
incompatibilitate
incompetente
incomplete
incomprehensibile
incomprehension
incomprensibile
incomprension
inconciliabile
inconcipibile
inconditional
inconditionalmente
inconditionate
incongrue
inconsciente
inconscientia
inconsequente
inconsiderate
inconsistente
inconstante
inconstantia
incontestabile
incontestate
incontra
incontrar
incontrara
incontrate
incontrava
incontro
incontrolabile
incontros
incontrovertibile
inconvenience
inconveniente
inconvenientes
inconvertibile
incoragia
incoragiamento
incoragiar
incoragiate
incoragiava
incorpora
incorporal
incorporar
incorporate
incorporated
incorporation
incorporava
incorrect
incorrecte
incorrigibile
incorruptibile
increase
increasing
incredibile
incredibilemente
incremental
incrementar
incremento
incrustar
incrustate
incrustation
incubation
inculcar
inculcate
inculte
incumbe
incumbentia
incurabile
incurrer
incursion
incursiones
indaial
inde
indebitate
indecente
indecifrabile
indecise
indeclinabile
indecorose
indeed
indef
indefectibile
indefendibile
indefense
indefinibile
indefinite
indefinitemente
indelibile
indelibilemente
indemne
indemnisation
indemnitate
indemonstrabile
inden
independent
independente
independentemente
independentia
independentista
indescriptibile
indesiderabile
indesirabile
indestructibile
indeterminabile
indeterminado
indeterminate
index
indexation
india
indian
indiana
indianapolis
indiano
indianos
indias
indic
indica
indican
indicante
indicar
indicate
indicated
indicates
indication
indicationes
indicative
indicativo
indicator
indicava
indice
indices
indicibile
indicio
indicios
indie
indifferente
indifferentia
indigena
indigenas
indigene
indigente
indigentia
indigeste
indignar
indignate
indignation
indigne
indignitate
indigo
indikas
indirecte
indirectemente
indisciplinate
indiscrete
indiscretion
indiscutibile
indiscutibilemente
indispensabile
indispensable
indisposite
indisposition
indissolubile
indissolubilemente
indissolubilitate
indistincte
indistinctemente
indistinguibile
indium
individual
individualismo
individualista
individualitate
individuals
individuo
individuos
indivise
indivisibile
indo
indochina
indocile
indoeuropee
indoeuropeo
indolor
indomabile
indonesia
indonesian
indoor
indorsamento
indorsator
indubitabile
induce
inducer
induceva
inducite
inductantia
induction
inductive
inductor
indulgente
indulgentia
indura
indurar
indurate
induration
indus
indust
industria
industrial
industrialisar
industrialisate
industrialisation
industrias
industry
ine
inebriar
inebriation
inedite
ineffabile
inefficace
inefficiente
ineluctabile
inepte
inequal
inequalitate
inerte
inertia
inertial
inestimabile
inevitabile
inexacte
inexactitude
inexcusabile
inexhauribile
inexistente
inexorabile
inexpectate
inexperientia
inexperimentate
inexpiate
inexplicabile
inexplicabilitate
inexplicate
inexplorate
inexpressive
inexprimibile
inexpugnabile
inextensibile
inextinguibile
inextirpabile
inextricabile
inf
infallibile
infallibilitate
infamante
infame
infamia
infamous
infant
infanta
infante
infanteria
infantes
infanti
infantia
infanticida
infantil
infantin
infanto
infarcto
infatigabile
infecta
infectar
infectate
infecte
infection
infectiones
infectiose
infectious
infective
infecunde
infecunditate
infelice
infer
inferior
inferiore
inferioritate
infermitate
infernal
inferno
infertile
infestate
infidel
infidelitate
infilar
infiltrar
infiltration
infime
infimo
infini
infinitate
infinite
infinitemente
infinitesimal
infinitive
infinitives
infinitivo
infinitivos
infinito
infirm
infirmar
infirmation
infirme
infirmera
infirmeria
infirmero
infirmitate
infirmitates
inflabile
inflamed
inflammabile
inflammabilitate
inflammable
inflammar
inflammate
inflammation
inflammatori
inflar
inflate
inflation
inflationista
inflecter
inflection
inflectite
inflexibile
inflexion
infliger
influence
influenced
influente
influentia
influential
influentiar
influentias
influentiate
influentiava
influenza
influer
influeva
influite
influxo
info
infobox
infope
inform
informa
informacio
informal
informalmente
informante
informar
informate
informatic
informatica
informatico
information
informationes
informatise
informative
informator
informava
informe
infortuna
infortunate
infortunatemente
infra
infraction
infrarubie
infrastructura
infrastructuras
infrequente
infringe
infringer
infringimento
infructuose
infty
infundate
infunder
infundibulo
infuriate
infusion
ing
ingagia
ingagiamento
ingagiar
ingagiate
ingenerar
ingenieria
ingeniero
ingenieros
ingenio
ingeniose
ingeniositate
ingenue
ingenuemente
ingenuitate
ingerentia
ingerer
ingestion
inghilterra
inglaterra
ingle
inglese
ingloba
ingloriose
ingloriosemente
inglutir
inglutite
ingovernabile
ingranage
ingrassar
ingrassiar
ingrate
ingrediente
ingredientes
ingresso
ingressos
inguinal
inguine
ingurgitar
ingvar
inhabile
inhabilitate
inhabitabile
inhabitant
inhabitantes
inhabitants
inhabitate
inherent
inherente
inheritance
inhibition
inhibitor
inhospital
inhuman
inhumar
inhumation
inimaginabile
inimic
inimicar
inimicitate
inimico
inimicos
inimitabile
inintelligente
inintelligibile
ininterrumpite
ininterrupte
inique
iniquitate
initia
initial
initialmente
initiante
initiar
initiate
initiation
initiativa
initiativas
initiative
initiato
initiator
initiava
initio
initios
injectar
injectate
injection
injector
injicer
injunction
injure
injured
injuria
injuriar
injurias
injuriose
injury
injuste
injustemente
injustificabile
injustificate
injustitia
inmediatos
inn
innate
innatural
inner
innocent
innocente
innocentia
innocue
innovation
innovationes
innovative
innovator
innumerabile
ino
inobservabile
inobservate
inoccupate
inocular
inoculation
inodor
inoffensive
inoperante
inopinate
inopportun
inopportunitate
inorganic
inoxydabile
input
inquadramento
inquadrar
inqualificabile
inquesta
inquietante
inquietar
inquiete
inquietude
inquire
inquirer
inquiry
inquisition
inquisitorial
inricchimento
inricchir
inrolamento
inrolar
inrolate
inrolava
ins
insablamento
insalubre
insanabile
insanity
insatiabile
insatiate
insatisfaction
insatisfactori
insaturate
inscribe
inscriber
inscribite
inscripte
inscription
inscriptiones
inscrupulose
insecar
insect
insectivore
insecto
insectos
insecur
insecuritate
insellar
insemination
insenia
inseniamento
inseniamentos
inseniante
inseniar
inseniate
inseniator
inseniava
insensate
insensibile
insensibilitate
inseparabile
inseparabilitate
insere
inserer
inserite
insert
insertar
insertion
inside
insidia
insidiose
insieme
insignia
insignias
insignificante
insimul
insimules
insinuar
insinuation
insipid
insipide
insipiditate
insiste
insistente
insistentia
insister
insisteva
insolation
insolente
insolite
insolubile
insolubilitate
insomnia
insondabile
inspect
inspectar
inspection
inspector
insperate
inspira
inspirar
inspirate
inspiration
inspirava
inspire
inspissation
instabile
instabilitate
installa
installar
installate
installation
installationes
installator
installava
instance
instances
instant
instantanee
instante
instantia
instantias
instaurar
instaurate
instauration
instead
instigation
instigator
instillar
instinctive
instincto
instinctos
instituciones
instituer
institueva
instituite
institut
institute
institution
institutional
institutionalisate
institutionalisation
institutiones
institutions
instituto
institutor
institutos
instruct
instruction
instructiones
instructive
instructor
instruer
instruite
instruktisto
instrument
instrumental
instrumentation
instrumento
instrumentos
instruments
insubstituibile
insuccesso
insufficiente
insufficientia
insufflator
insula
insulae
insular
insulas
insulate
insulation
insulator
insulina
insult
insultante
insultar
insulting
insulto
insultos
insuperabile
insupportabile
insurance
insurger
insurmontabile
insurrection
insurrectional
insustenibile
int
intacte
intal
intalio
intangibile
inte
integer
integr
integra
integral
integrante
integrar
integrate
integration
integrava
integre
integremente
integritate
intel
inteligenta
intellect
intellecto
intellectual
intellectuales
intelligence
intelligent
intelligente
intelligentia
intelligentsia
intelligibile
intelligibilitate
intemperante
intemperate
intempestive
intencas
intencio
intend
intende
intended
intender
intendeva
intendimento
intendite
intenibile
intenibilitate
intense
intensemente
intensificar
intensification
intensificava
intensitate
intensity
intensive
intensivemente
intent
intentar
intention
intentional
intentionate
intentiones
intento
intentos
inter
interaction
interactiones
interactive
interage
interager
interatomic
intercalar
intercalari
intercalate
intercalation
intercambiabile
intercambiabilitate
intercambiar
intercambio
interceder
intercellular
interceptar
interceptate
interception
intercession
interchange
interconnectite
intercontinental
intercostal
intercurrente
interdependente
interdependentia
interdicer
interdicite
interdicte
interdiction
interdigital
interdisciplinari
interdum
interea
interesanta
interesante
interessa
interessante
interessar
interessate
interessatos
interessava
interesse
interesses
interest
interested
interface
interfacie
interfacies
interfere
interference
interferentia
interferentias
interferer
intergenerational
interglossa
intergovernamental
interim
interimari
interime
interior
interiores
interj
interjection
interlardar
interlexico
interlinear
interling
interlingua
interlingual
interlingue
interlinguista
interlinguistas
interlinguistic
interlinguistica
interlinguistics
interlocutor
intermediari
intermediario
intermediate
intermedie
intermedio
interminabile
intermingle
intermission
intermittente
internacia
internaciona
internacional
internacionales
internal
internamento
international
internationale
internationales
internationalisar
internationalitate
internationality
internationalmente
internato
internazionale
interne
internet
interno
interpersonal
interplanetari
interpolation
interponer
interprender
interprendeva
interprenditor
interpreta
interpretabile
interpretar
interpretate
interpretation
interpretationes
interpretative
interpretava
interprete
interpretes
interprisa
interprisas
interprise
interramento
interrar
interrate
interrava
interrete
interrobang
interrogar
interrogation
interrogative
interrogativos
interrogatorio
interrumper
interrumpite
interrupte
interruption
interruptiones
interruptor
intersection
interslave
interslavo
interstellar
interstitial
intertanto
intertener
intertenimento
interurban
intervallo
intervallos
interveni
intervenir
interveniva
intervention
interversion
intervertebral
intervider
interview
interviewer
interviews
intervista
intestate
intestato
intestinal
intestine
intestino
intestinos
intimacy
intimate
intime
intimidar
intimidation
intimitate
intitulate
into
intolerabile
intolerante
intolerantia
intonar
intonation
intoxicar
intoxication
intra
intractabile
intraducibile
intransigente
intransitive
intrauterin
intravenose
intre
intrepide
intricacy
intricar
intricate
intrication
intriga
intrigante
intrigar
intrigas
intrigue
intrinsec
intrinsic
intro
introduce
introduced
introducer
introduceva
introducite
introduction
introductive
introductor
introductori
introductory
introspection
introspective
introvabile
intruder
intrusion
intruso
intuer
intuition
intuitive
intus
inuit
inundar
inundate
inundation
inundationes
inusual
inutile
inutilisabile
invade
invader
invadeva
invadite
invaginate
invalid
invalidar
invalidation
invalide
invaliditate
invariabile
invariante
invasion
invasiones
invasive
invasor
invective
inveloppa
inveloppar
inveloppe
invenenamento
invenenar
inventar
inventario
inventate
inventava
invented
invention
inventiones
inventor
inverificabile
inverisimile
inverno
inversa
inverse
inversemente
inversion
inverso
invertebrate
inverter
invertibile
invertite
invest
investiga
investigar
investigate
investigation
investigationes
investigator
investigatores
investigava
investimento
investimentos
investir
inveterate
invia
inviar
inviate
inviato
inviava
invicte
invidia
invidiabile
invidiose
invierno
invincibile
invio
inviolabile
inviolate
invirgatura
invisibile
invita
invitar
invitate
invitation
invitato
invitatos
invitava
invocar
invocate
invocation
involuntari
involute
involution
involve
involved
involver
involveva
involving
involvite
inward
io
iodo
iohannes
ion
iones
ionic
ionisante
ionisation
iota
iowa
ip
ipa
ipce
iphigenia
ipira
ipora
ipsa
ipse
ipso
ipsum
ipumirim
ir
ira
iraceminha
irak
iran
irani
iranian
iranica
iraq
irar
iras
irascibile
irate
irati
irc
ire
ireland
irene
irga
iride
iridium
irineo
iris
irisa
irish
irlanda
irlandese
irma
iron
ironia
ironic
ironicamente
iroquoian
iros
irpino
irradiar
irradiation
irrational
irreal
irrealisabile
irreconciliabile
irrecovrabile
irrecusabile
irreducibile
irreducibilitate
irreflexive
irrefrenabile
irrefutabile
irregular
irregularitate
irregularitates
irreimplaciabile
irrelevante
irremediabile
irremissibile
irreparabile
irreprehensibile
irreprimibile
irreprochabile
irresistibile
irresolute
irresolution
irresponsabile
irreverentia
irreversibile
irrevocabile
irrigabile
irrigation
irrigatori
irrisori
irrita
irritabile
irritante
irritar
irritate
irritation
irrumper
irruption
irwin
is
isa
isaac
isabel
isaia
isaiah
isbn
ische
ischemia
ischer
ise
iser
isernia
isis
isla
islam
islamabad
islamic
islamisation
islamismo
islamista
island
islanda
islandese
islands
isle
ism
ismo
isn
iso
isobare
isobaric
isoclinal
isola
isolamento
isolante
isolar
isolate
isolated
isolation
isolator
isometric
isomorphismo
isoscele
isotherme
isotope
isotopic
isotopo
isotopos
israel
israeli
israelita
israelitas
isse
issn
isso
issue
issues
ist
ista
istanbul
istas
iste
istes
isthmo
isto
istos
istrategia
isuresults
it
ita
itaio
itajai
italia
italian
italiana
italiano
italianos
italic
italica
italo
italy
itate
ite
item
items
iteration
iterative
itero
ithaca
itinerante
itinerario
itinere
ito
its
itself
itsf
ituporanga
itza
iu
iucn
iupac
ius
iv
iva
ivan
ivory
ivy
ix
iz
izanagi
izquierda
izquierdo
j
ja
jabora
jace
jacer
jaceva
jachetta
jacimento
jacimentos
jacinto
jack
jacket
jackson
jaco
jacob
jacobo
jacobs
jacques
jaculatori
jada
jade
jadraque
jae
jaguar
jah
jail
jaime
jainismo
jakarta
jakob
jakub
jalne
jam
jamaica
jamaican
jamais
jamblicho
james
jamie
jammais
jan
jane
janeiro
jano
jansen
janta
januario
januaro
january
japan
japanese
japo
japon
japonese
japoneses
japonia
jar
jara
jaragua
jardi
jardim
jardin
jardinage
jardines
jargon
jaro
jaros
jarra
jasmin
jason
jaspe
jaume
java
javabeans
javanicus
javascript
javelotto
javier
jaw
jay
jazz
jdr
je
jean
jeanne
jeans
jecta
jectar
jectata
jectate
jectava
jecto
jedi
jefe
jeff
jefferson
jeffrey
jehovah
jeju
jejunar
jejuno
jejunos
jelling
jelose
jelosia
jena
jenkins
jenner
jennifer
jensen
jentaculo
jentar
jer
jeremia
jeremy
jerk
jeroen
jerome
jeronimo
jerry
jersey
jerusalem
jespersen
jest
jesu
jesuita
jesuitas
jesuitic
jesus
jet
jetty
jewel
jewish
jews
jhvh
ji
jihad
jim
jime
jimmy
jingo
jk
jo
joa
joac
joachim
joan
joanna
joaquim
job
jobs
joca
jocar
jocate
jocator
jocatores
jocava
jockey
joco
jocos
jocose
jocular
joculo
joculos
joe
joel
jogging
joh
johan
johann
johanna
johannes
johannesburg
john
johnny
johns
johnson
joia
joiel
joieles
joiels
join
joined
joining
joint
jointly
joinville
joiose
joke
joker
jon
jonas
jonathan
jones
jong
jorda
jordan
jordania
jorge
jornal
jornales
jornalismo
jornalista
jornalistas
jornalistic
jornata
jornatas
jorno
jornos
jose
josef
josep
joseph
joshua
josu
joule
jour
journ
journal
journalist
journals
journey
jove
jovedi
joven
jovial
joy
joyce
jp
jpg
jr
jsp
ju
juan
juana
jubatus
jubilar
jubilation
jubilee
jubilo
juda
judaic
judaismo
judas
judea
judee
judeo
judeogermano
judeos
judge
judgment
judicamento
judicamentos
judicar
judicate
judice
judices
judicial
judicialmente
judiciari
judicio
judicios
judiciose
judith
judo
jueves
juggler
jugo
jugular
juice
jujitsu
jules
julia
julian
juliana
juliano
julien
julietta
julio
julius
july
jumbo
jump
jumper
jumping
junco
junct
juncte
junctemente
junction
juncto
junctura
june
juneteenth
jung
junge
junger
jungeva
jungla
jungle
junio
junior
junk
juno
junon
junta
junto
jupiter
jupo
jur
jura
juramento
jurar
jurassic
jurate
jurato
juratos
jure
juridic
juridicamente
jurisdiction
jurisdictional
jurisdictiones
jurisprudentia
jurista
jury
jus
jusqu
just
juste
justemente
justessa
justice
justicia
justifica
justificar
justificate
justification
justificative
justinian
justiniano
justino
justitia
justo
jut
jute
jutlandia
juvena
juvene
juvenes
juvenil
juventus
juventute
juxta
juxtaponer
juxtaposition
jvm
k
ka
kabul
kaczyn
kad
kafeerio
kafeo
kafka
kage
kai
kaiser
kaj
kajo
kaki
kal
kalium
kalmar
kam
kama
kami
kamioni
kamiono
kampala
kampf
kan
kana
kande
kanji
kansas
kant
kantas
kanto
kapok
kar
kara
karabakh
karachi
karait
karate
karchen
kardec
karel
karen
karl
karlsruhe
karma
karman
karno
karstic
karti
kasher
kasparov
kassel
katakana
katherine
kathmandu
kati
katipunan
kato
katowice
katrina
kavali
kavalo
kayak
kazakhstan
kazan
kb
kc
ke
keen
keep
keeper
keeping
keith
keiun
kel
kelka
kelke
kelly
kelvin
kempen
ken
kendo
kennedy
kenneth
kenobi
kent
kentucky
kenya
kenyan
kepler
kept
kermesse
kernel
kerry
ket
kets
kettle
kevin
key
kg
kh
khag
khagim
khaki
khan
khayyam
kho
khwarizmi
ki
kib
kick
kickboxing
kicker
kid
kids
kiel
kierkegaard
kiev
kigali
kiir
kill
killed
killer
killing
kills
kilo
kilogramma
kilogrammas
kilometric
kilometro
kilometros
kim
kimono
kin
kinadek
kind
kinderen
kindle
kindness
kinds
king
kingdom
kings
kingsley
kingston
kinsey
kinshasa
kiosque
kippur
kirchheimbolanden
kirghizistan
kiribati
kirk
kirko
kiss
kit
kita
kitchen
kitsune
kitts
kiwi
klaus
klaxon
klein
kleinste
klier
klimero
klingon
klingones
kloki
kloko
km
knee
knew
knife
knight
knit
knitted
knock
know
knowing
knowledge
known
ko
koblenz
kodak
koine
kolda
kolombo
kom
komo
komprar
kompras
komprenas
komprenende
kompris
kon
konduktas
kong
konocas
konor
kontenta
kontoro
konversado
kopi
koquas
koqueyo
koquisto
korach
korakh
koran
koranic
korea
korean
korfball
kosher
kosovo
kotapedia
kotava
kovrili
kr
krafft
kravmaga
krayono
kredar
kredas
krefeld
kreis
kremlin
kring
krishna
kristian
kristofer
kronborg
kruif
krypton
ks
ku
kuala
kubrick
kubuntu
kuko
kukulca
kun
kung
kunming
kurdistan
kurt
kurta
kurzgesagt
kuwait
kuzo
kw
kwe
kyo
kyoto
kyu
l
la
lab
laba
labe
label
laber
labial
labio
labiodental
labios
labor
labora
laboral
laborante
laborar
laboras
laborate
laborator
laboratores
laboratorio
laboratorios
laboratory
laborava
laborema
labores
laboriose
laboro
labour
labrador
labyrinthic
labyrintho
lac
lacai
lacca
lace
lacerar
lacerate
laceration
lacerda
lacerta
lacertas
lacetto
laciar
lacinia
lacio
lacios
lack
lacking
laco
laconic
lacos
lacrima
lacrimal
lacrimas
lacrimogene
lacte
lactee
lactic
lactifere
lactose
lactuca
lacuna
lacunar
lacunas
lacunose
lacus
lacustre
lad
ladino
lado
lady
laga
lages
lago
lagos
laguna
lahore
lai
laic
laical
laicismo
laico
laicos
laid
lake
lakto
lali
lam
lama
lamarck
lambda
lamber
lame
lament
lamentabile
lamentar
lamentation
lamentationes
lamento
lamina
laminas
laminate
laminatorio
lamio
lamp
lampa
lampreda
lan
lana
lanas
lancaster
lance
lancea
lanceamento
lancear
lanceate
lanceator
lanceava
lanceolate
lancha
land
landi
landing
lando
landrut
lands
landscape
lane
lang
langle
language
languages
langue
languer
langues
languide
langusta
langustas
lanka
lanose
lansel
lanterna
lanthanidos
lanthano
lanugine
lanuginose
lanza
lao
laoreet
laos
lapidar
lapidari
lapide
lapides
lapillo
laplace
lapse
lapso
lapsus
lapu
lara
lardar
lardo
laredo
lares
large
largemente
larger
largessa
largest
largo
largor
larice
lario
lark
laro
larousse
larry
lars
larva
larval
larvate
larynge
las
lascive
laser
lash
lasis
lassa
lassante
lassar
lassate
lassava
lasse
lassitude
lasso
last
lasta
lasting
lat
late
lately
latemente
latente
latentia
later
lateral
lateralmente
latere
lateres
latest
latex
lati
latifolie
latin
latina
latine
latinisate
latinisation
latino
latinoamerican
latinos
latio
latitude
latitudes
lato
laton
latrar
latrato
latta
latte
latter
lattes
lattice
latvia
lauda
laudabile
laudar
laudate
laudation
laudative
laudatori
laudava
laude
laudes
launch
laura
laureate
laureato
laureatos
laurel
laurence
laurent
laurentio
lauriero
lauro
lauros
laute
lava
lavage
lavamento
lavanda
lavanderia
lavandula
lavar
lavas
lavash
lavate
lavator
lavatorio
lavatory
lavic
lavin
law
lawful
lawn
lawrence
lawrencium
laws
lawsuit
laxar
laxate
laxative
laxava
laxe
lay
layer
laying
layton
lazaro
lazio
lb
lbt
lc
lcs
le
lea
lead
leader
leaders
leadership
leading
leaf
league
leak
leal
lean
leap
learn
learned
learning
leasing
least
leather
leau
leave
leaves
lebanon
leben
leblanc
leccar
lecce
leccio
lecciones
lecco
lech
leche
leciono
lect
lectiera
lection
lectiones
lecto
lector
lectores
lectos
lectura
lecturas
lecture
lectures
lectus
led
leda
leder
ledite
lee
leeds
leer
left
leftrightarrow
leg
lega
legacy
legal
legalisar
legalisate
legalisation
legalitate
legalmente
legar
legatario
legation
legato
lege
legend
legenda
legendari
legendas
leger
leges
legeva
legibile
legier
legieressa
legiermente
legion
legiones
legislacio
legislation
legislative
legislator
legislatura
legite
legitimar
legitimate
legitimation
legitime
legitimitate
legumine
legumines
lehre
lei
leibniz
leiden
leif
leipzig
lejano
lejos
lektajo
lektas
lektis
lektolibro
leland
lemma
lemna
lemon
lemures
lena
lenape
length
lengua
lenguaje
lenguas
lenin
leningrad
leninismo
lennon
lens
lent
lente
lentemente
lentes
lenticular
lenticulas
lentor
leo
leoberto
leon
leona
leonard
leonardo
leone
leones
leonese
leonhard
leonidas
leonin
leono
leopardi
leopardo
leopardus
leopold
leopoldo
lepidio
lepido
lepore
lepra
leq
lequal
lequales
lernar
lernas
lernolibro
les
lesbian
lesbiana
lesbianas
lesbic
lese
lesion
lesiones
lesotho
less
lessen
lesson
lessons
let
lethal
lethalitate
lethargic
leto
letras
letri
letro
lette
letter
lettera
letters
letterweight
letton
lettonia
lettre
lettres
leucemia
leucemic
leucocyto
leur
lev
leva
levante
levar
levate
levator
levatori
levatura
levava
leve
level
lever
leverkusen
levi
levine
levitico
levitt
levogyr
levy
lewd
lewis
lex
lexic
lexical
lexico
lexicographia
lexicographic
lexicographo
lexicon
lexique
ley
lez
lfn
lgbt
lgebra
lhc
lheim
li
lia
liable
liaison
lias
lib
libanese
libano
libe
liber
libera
liberal
liberalisation
liberalismo
liberar
liberate
liberation
liberator
liberava
libere
liberemente
liberia
liberian
libero
libertad
libertari
libertate
libertates
liberte
libertin
libertino
liberty
libidinose
libra
library
libras
libre
libreria
librerias
libresc
libretto
libreville
libri
libris
libro
libros
libya
libyan
libyc
lica
licence
license
licentia
licentiamento
licentiar
licentias
licentiate
licentiose
lich
lichen
licite
lid
lider
lido
lie
liebe
liechtenstein
lied
lieder
lies
lieu
life
liffey
lift
lifting
lig
liga
ligamento
ligamentos
ligamine
ligamines
ligante
ligar
ligate
ligation
ligatura
light
lighten
lighter
lighting
lightning
lights
lightyear
lignite
ligno
lignose
ligo
ligula
ligure
liguria
ligustro
like
likely
likeness
likes
likewise
liking
lil
lilac
lilio
lilios
lily
lim
lima
limace
limaces
limar
limatura
limba
limburg
lime
limerick
liminar
limine
limit
limita
limitar
limitate
limitation
limitationes
limitative
limitava
limite
limited
limites
limitrophe
limits
limo
limon
limonada
limose
limpide
limpiditate
lin
lincoln
linda
lindo
lindon
lindows
line
linea
lineage
lineal
linear
lineas
linen
lines
linger
lingerie
lingoto
lingu
lingua
linguae
linguage
linguages
lingual
linguas
lingue
linguetta
lingui
linguist
linguista
linguistas
linguistic
linguistica
linguistics
linguistique
linguists
linguo
linimento
link
links
linnaeus
linne
lino
linoleum
linus
linux
lio
lion
lionel
lip
lipides
lippe
liquefacer
liquid
liquidar
liquidation
liquide
liquido
liquidos
liquiritia
liquor
liquores
lira
lis
lisa
lisboa
lisbona
lisiar
lisie
lisp
list
lista
listas
listate
listed
listening
listerabot
listeriabot
listo
liszt
lit
litania
lite
litera
literal
literally
literalmente
literari
literary
literate
literatura
literature
lites
lithiasis
lithic
lithium
lithographia
lithographic
lithuania
litigio
litigiose
lito
litoral
litore
litro
litros
litt
litte
litter
littera
litteral
litteralmente
litterari
litteras
litterate
litteratura
little
littoral
lituan
lituania
lituano
liturgia
liturgic
liturgy
liv
live
lived
lively
liver
liverpool
lives
livia
livide
living
livio
livorno
livrar
livration
livrator
livre
livrea
livro
lix
lixivia
ll
lla
llama
llar
llave
llegar
llengua
ller
llevar
llo
llorenc
lloyd
llui
ln
lo
load
loan
lobamba
lobar
lobate
lobby
lobo
lobortis
lobulo
lobulos
loc
loca
local
locales
localisar
localisate
localisation
localitate
localitates
localmente
locar
locatario
locate
location
locationes
locative
locator
loch
lock
locke
loco
locomotion
locomotiva
locomotivas
locomotor
locos
locotenente
locustas
locut
locution
locutiones
locutor
locutores
lodge
lodging
lodi
lodigiano
lofty
log
logarithmic
logarithmo
logarithmos
loge
logia
logic
logica
logical
logicamente
logico
logikeso
logique
logistic
loglan
logo
logogramma
logos
lohn
loi
loin
loire
lois
lojas
lojban
loki
lol
lolio
lolita
lombardia
lombardo
lombardos
lome
lomellina
lon
london
londres
lonely
long
longa
longe
longemente
longer
longeve
longevitate
longitude
longitudes
longitudinal
longo
longor
lontan
lontanantia
lontande
lontano
lontra
lontras
look
looked
looking
looks
loop
loose
loosen
lop
lope
lopes
lopez
loqu
loquace
lor
lord
lords
lore
lorem
lorena
lorentz
lorenzo
loro
lorry
los
lose
loss
lost
lot
lotes
lotion
loto
lotor
lotteria
lotto
lotus
lou
loud
loudspeaker
louis
louise
louisiana
louisville
lounge
lourdes
louvre
love
loved
lover
lovers
loves
loving
low
lowe
lowell
lower
lowering
loxodonta
loxodromic
loyal
loyalitate
lp
lpich
lsf
lt
ltd
ltima
ltimo
lts
lu
lua
luanda
lublin
lubos
lubric
lubricante
lubrication
lubrificante
lubrification
luc
luca
lucano
lucas
lucca
luce
lucente
lucentia
lucer
lucerna
luces
lucia
lucide
luciditate
lucifer
lucio
lucius
luck
lucrative
lucro
lucta
luctar
luctas
luctate
luctator
luctava
lucto
luctos
luctus
lucy
lud
ludic
ludis
ludo
ludos
ludovico
ludwig
ludwik
lugano
lugar
lugo
lugubre
lui
luigi
luis
luiz
luke
lukla
lula
lulas
lulu
lumbar
lumie
luminal
luminar
lumine
lumines
luminose
luminositate
lump
lumpur
luna
lunar
lunas
lunate
lunatic
lunch
lund
lunedi
lunes
lunisolar
luogo
lupa
lupin
lupinos
lupo
lupos
lupulo
lupus
lurch
lus
lusaka
luster
lustrar
lustro
lustrose
lut
lute
lutetium
luther
lutheran
lutheranismo
lutra
luwak
lux
luxar
luxation
luxemburg
luxemburgese
luxemburgo
luxo
luxuose
luxuria
luxuriose
luz
luzon
lv
lvaro
ly
lycalopex
lycaon
lyceo
lycopodio
lydia
lying
lympha
lymphatic
lymphoide
lymphoma
lynx
lyon
lyra
lyric
lyrica
lyse
lysimachia
lysis
lytic
m
ma
maarten
maastricht
mac
macabre
macao
macaroni
macaronic
macau
maccabeos
macdonald
macedone
macedonia
macellar
macellation
macelleria
macellero
macello
maceoin
macerata
maceration
mach
machado
machairodontinae
machete
machina
machinario
machinas
machine
machineria
machinery
machines
machinista
macho
machu
macintosh
macmillan
macro
macrobiotic
macron
macros
macroscelia
macroscopic
macula
macular
maculas
maculate
mad
madagascar
maddie
made
madeira
madeleine
mader
madhyamaka
madison
madness
madonna
madre
madrid
maduro
mae
maecenas
maestra
maestral
maestramento
maestrar
maestria
maestro
maestros
mafra
maga
magas
magazin
magazine
magazines
magdeburg
magellan
magellanes
maggiore
magia
magic
magical
magician
magis
magister
magistral
magistrato
magistratos
magistratura
magistro
magliano
magma
magmatic
magna
magnanime
magnate
magne
magnesium
magnet
magnete
magnetic
magnetismo
magneto
magnetophono
magnetostrictive
magnific
magnificente
magnificentia
magniloquente
magnitude
magnitudes
magno
magnus
mago
magos
magra
magre
magrimento
magrir
magyar
maha
mahatma
mahayana
mahdi
mahler
mahomet
mai
maia
mail
mailing
main
maine
maintain
maintenant
mainz
maio
maior
mais
maius
majestate
majestatic
majestic
majestose
major
majorca
majoria
majoritari
majoritarimente
majoritate
majority
majormente
majusculas
majuscule
make
maker
makes
making
mal
mala
malabo
malada
malade
maladia
maladias
malado
malala
malaria
malawi
malaxator
malay
malaya
malaysia
malcolm
maldivas
male
maledicte
malediction
malefic
males
malesuada
malevole
malevolente
malfactor
malformation
malfoy
malgrado
malgre
mali
malia
malias
maligne
malina
malitia
malitiose
malleabile
malleo
mallorca
malo
malos
malsan
malt
malta
maltese
malthus
maltractamento
maltractar
malus
malveillant
mama
mamma
mammal
mammales
mammalia
mammari
mammifere
mammifero
mammiferos
mammoth
mammut
mammuthus
man
mana
manage
management
manager
managua
manama
manaus
manca
mancante
mancantia
mancar
mancava
mancha
manchester
manchu
manchuria
manco
manda
mandar
mandara
mandarin
mandate
mandato
mandatos
mandava
mandela
mandibula
mandibular
mandola
mandolin
mandora
mandriva
mane
manea
maneabile
maneamento
manear
maneo
manera
manes
manga
mangabeira
manganese
manganic
mangia
mangiabile
mangiar
mangiate
mangiator
mangiatoria
mangiava
mango
mangusta
manhattan
mania
maniac
maniaco
manica
manicas
manichetto
manico
maniera
manieras
manierismo
manifest
manifesta
manifestantes
manifestar
manifestate
manifestation
manifestationes
manifestava
manifeste
manifesto
manila
manioc
manipular
manipulate
manipulation
manipulationes
manivella
manjajo
manjar
manjas
manjis
mankind
mann
manna
mannequin
manner
mannese
mano
manolito
manometro
manos
manovra
manovrar
manovras
mansuete
manta
mante
mantello
mantene
mantenentia
mantener
manteneva
mantenimento
mantenite
mantissa
mantle
manto
mantova
manual
manuales
manuel
manuela
manufactura
manufacture
manufacturer
manuo
manure
manuscript
manuscripte
manuscripto
manuscriptos
many
manzana
manzanas
manzarek
mao
maori
map
maple
mappa
mappamento
mappas
maps
maputo
maquerello
mar
mara
maradona
maranha
marano
marathon
maravilha
marble
marc
marca
marcar
marcas
marcate
marcation
marcator
marcava
marcel
marcello
marcer
marcescer
march
marcha
marchar
marchas
marchava
marche
marchese
marchioness
marcia
marcide
marco
marconi
marcos
marcus
mare
marea
mareas
marechal
mares
margaret
margareta
margarina
margarita
margin
marginal
marginate
margine
marguerite
mari
maria
marial
marian
marie
marijuana
marilyn
marin
marina
marinada
marinar
marinate
marine
mariner
marinero
marineros
marino
mario
marion
marionette
marionettes
marisco
marita
maritage
maritages
marital
maritar
maritate
maritava
maritime
maritimus
marito
marjorie
mark
marked
market
marks
markup
marlene
marmara
marmelada
marmita
marmore
marmores
marmota
marna
marne
marnose
maro
marocchin
marocco
marquis
marquise
marrakech
marriage
married
marro
marry
mars
marseille
marsh
marshal
marshall
marta
martara
marte
martedi
martel
martello
martes
marti
martial
martijn
martin
martineau
martinet
martinho
martinica
martino
martins
martio
martius
marto
martyr
martyre
martyres
martyrio
marvel
marx
marxism
marxismo
marxista
mary
maryland
marzo
mas
masc
masca
mascara
mascheroni
mascule
masculin
masculine
masculino
masculo
masculos
maseru
mash
mashini
mashtots
mask
mason
masoneria
masonic
masonry
mass
massa
massachusetts
massacrar
massacro
massage
massar
massaranduba
massas
massive
massivo
mast
master
mastes
masticar
mastico
mastiff
mastin
masturbation
mat
mata
matador
matar
matava
match
matches
mate
matema
matematica
mater
matera
materia
material
materiales
materialismo
materialista
materialistic
materials
materias
maternal
materne
maternitate
math
mathbb
mathbf
mathcal
mathe
mathematic
mathematica
mathematical
mathematicas
mathematico
mathematicos
mathematics
mathematik
mathfrak
mathrm
mathsf
matico
matilde
matinal
matinata
matinee
matino
matique
matiques
matisse
mato
matras
matrastra
matre
matres
matrice
matrices
matricial
matricula
matriculation
matrimonial
matrimonio
matrimonios
matrix
matro
matroska
matsuo
matt
matta
mattas
matter
matters
mattheo
matthew
mattis
matur
maturar
maturation
maturitate
matutin
matutinal
matza
matzneff
mau
mauresc
maurice
mauris
mauritania
mauritio
mauritius
mauro
max
maxi
maxilla
maxillar
maxim
maxima
maximal
maxime
maximilian
maximo
maximus
maxwell
may
maya
mayas
maybe
mayer
mayo
mayon
mayonnaise
mayor
mays
mb
mbabane
mbox
mc
mccartney
mccloskey
mccloud
mcdonald
mcgonagall
mcgraw
mckinley
mcreynolds
md
me
mea
meal
mean
meandro
meaning
meanings
means
meantime
meanwhile
meas
measure
measurement
measuring
meat
meato
mecca
mech
mechanic
mechanica
mechanical
mechanicamente
mechanico
mechanics
mechanismo
mechanismos
mecklenburg
mecklenburgo
med
medal
medalia
medalias
mede
medelli
media
medial
median
mediano
mediante
medias
mediate
mediatic
mediation
mediator
medic
medica
medical
medicamento
medicamentos
medication
medici
medicina
medicinal
medicinas
medicine
medicis
medico
medicos
medie
mediedie
medienocte
medietate
medieval
medievo
mediko
medina
medio
mediocre
mediocritate
medios
meditar
meditation
meditative
mediterra
mediterranean
mediterranee
mediterraneo
medium
medulla
medullar
medullose
medusa
meer
meet
meeting
meetings
meg
megalithic
megatokyo
meilleur
mein
meio
meireles
meitnerium
mejor
mel
melancholia
melancholic
melancholy
melanchton
melassa
meleiro
meles
melilla
melio
melior
meliorar
meliorate
melioration
meliorationes
meliorava
melle
mellifere
melodia
melodias
melodic
melodiose
melodrama
melodramatic
melogale
melon
melones
melt
melville
mem
member
members
membership
membrana
membranas
membranose
membrato
membro
membros
memento
memo
memora
memorabile
memorandum
memorar
memoria
memorial
memorias
memory
men
mena
menace
menacia
menaciante
menaciar
menacias
menaciate
menaciava
menage
menar
mend
menda
mendace
mendacio
mendacios
mendel
mendelevium
mendelian
mendicante
mendicar
mendico
menelao
meningitis
meno
menopausa
menor
menora
menos
mensa
mense
menses
menstrual
menstruation
mensual
mensura
mensurar
mensurate
mensuration
ment
mental
mentalitate
mentally
mentalmente
mente
mentes
mentha
mention
mentiona
mentionar
mentionate
mentionava
mentir
mentita
mentitas
mentite
mentitor
mento
mentor
menu
menudo
menuetto
meow
mephitis
mer
meravilia
meravilias
meraviliose
mercado
mercanci
mercante
mercantes
mercantia
mercantias
mercantil
mercar
mercato
mercator
mercatores
mercatos
merce
mercede
mercedes
mercenari
mercenarios
merces
merchant
mercurial
mercuridi
mercurio
mercury
mercy
merda
mere
merely
merge
merger
meridian
meridiano
meridie
meridional
merindad
meringue
merit
merita
meritar
meritate
merito
meritocratic
meritori
meritos
merkel
merla
mermente
mero
meropia
meros
merriam
merry
mers
mes
mesa
meschin
meschineria
mesenterio
meses
mesma
mesme
mesmo
mesoamerica
meson
mesopotamia
mess
message
messageria
messagero
messageros
messages
messe
messenger
messia
messiah
messianic
messier
mestiero
mesura
mesurabile
mesurar
mesuras
mesurate
mesuration
mesurationes
mesurator
mesures
met
meta
metabolic
metabolismo
metal
metalingua
metallic
metallifere
metallo
metalloide
metalloides
metallos
metallurgia
metallurgic
metals
metamorphe
metamorphic
metamorphose
metamorphoses
metaphora
metaphoras
metaphoric
metaphoricamente
metaphysic
metaphysica
metarex
metastabile
metastase
meteo
meteoric
meteorol
meteorologia
meteorologic
meteorological
meteorologista
meteorologo
meteorology
meter
meters
methano
method
methode
methodic
methodicamente
methodicitate
methodismo
methodista
methodo
methodologia
methodologic
methodos
methods
methylic
meti
meticulose
metir
metonymia
metrage
metric
metrica
metro
metropole
metropolitan
metropolitana
metropolitano
metros
metus
metz
mexican
mexicana
mexicano
mexico
meyer
mez
mezzo
mg
mhz
mi
mia
miami
miaow
miasmas
miasmatic
mica
micacee
micca
mice
michael
michel
michelangelo
michele
michell
michelle
michigan
mickey
mico
micre
micro
microbe
microbic
microbio
microbiologia
microbiologo
microbiology
microbios
microfiche
micrometric
micrometro
micron
micronation
micronesia
microphonic
microphono
microprocessor
microscopic
microscopio
microsoft
microstatos
microsulco
microsystems
mid
middle
midgard
midi
midnight
midsummer
mie
miembros
mientras
might
mighty
migliore
migraine
migration
migrationes
migratori
migrava
miguel
mike
mikhail
mikra
mil
mila
milan
milanese
milano
mild
mildew
mile
miles
mileto
milieu
milita
militante
militantes
militar
militares
militari
military
milite
militia
milito
milk
mill
mille
millenari
millennio
millennios
millennium
miller
milles
millesime
millia
milliardo
milliardos
milliari
millias
millicent
millimetro
millimetros
million
milliones
millionesime
millions
millones
milton
mime
mimesis
mimetic
mimetismo
mimic
mimica
mimicry
mimosa
min
mina
minar
minas
minator
mind
mindanao
minded
mine
miner
mineral
minerales
mineralogia
minerari
minerva
ming
mingora
minh
mini
miniatura
miniature
minim
minima
minimal
minimalista
minime
minimisar
minimo
minimum
mining
minio
minister
ministerial
ministerio
ministerios
ministers
ministro
ministros
ministry
minneapolis
minnesota
minoan
minor
minores
minoritari
minoritate
minoritates
minos
minsk
mint
minting
minuer
minuit
minus
minuscule
minuta
minutas
minute
minutes
minutiose
minutos
mio
miquel
mir
mira
mirabel
miraculo
miraculos
miraculose
mirage
miranda
mirandese
mirando
mirar
miro
mirror
mis
misanthrope
miscarriage
misce
miscer
mischief
miscite
mise
miserabile
miserable
misere
miseria
misericorde
misericordia
misericordiose
misinformation
misinterpretation
miskito
misma
misme
mismo
mismos
miss
missa
missile
missiles
missing
mission
missionari
missionario
missiones
mississippi
missouri
mist
mistake
mistress
misuse
misuso
mit
mitad
mitchell
mithras
mitigar
mitigation
mitochondrial
mitotic
mitra
mitraliatrice
mitraliatrices
mitt
mitte
mitter
mitteva
mittite
mix
mixed
mixer
mixt
mixte
mixtion
mixtura
mixture
ml
mln
mm
mmel
mnemogenesis
mnemonic
mnemonics
mnemotechnic
mnemotechny
mo
moai
mob
mobilate
mobile
mobiles
mobiliario
mobilisar
mobilisation
mobilitate
mock
mod
moda
modal
modalitate
modalitates
modas
mode
model
modellar
modellate
modello
modellos
modelo
modena
moderar
moderate
moderation
moderator
modern
moderna
moderne
modernisar
modernisation
modernismo
modernista
moderno
modest
modeste
modestia
modesty
modi
modic
modifica
modificabile
modificar
modificate
modification
modificationes
modificative
modificator
modificava
modiolo
modismos
modo
modos
modular
modulate
modulation
modulator
module
modulo
modulos
moeno
moffetta
mohammed
mohammedan
mohawk
moi
moins
moka
mol
mola
molar
mold
moldavia
moldy
mole
molecula
molecular
moleculas
moler
molestar
moleste
molestia
molestie
molie
molina
molino
molinos
molise
molite
molle
molliar
molliate
molliatura
mollis
mollusca
mollusco
molluscos
molly
molotov
molto
moluccas
molybdenum
moment
momentanee
momento
momentos
mon
mona
monacha
monachal
monachas
monacho
monachos
monachus
monaco
monarcha
monarchas
monarchia
monarchias
monarchic
monasterial
monasterio
monasterios
monastic
monato
monday
monde
mondial
mondiale
mondo
mondovi
monero
monet
moneta
monetage
monetari
monetary
monetas
money
monferrato
mongol
mongoles
mongolia
mongolic
mongoose
monica
monistic
monitor
monk
monkey
monnes
mono
monochromatic
monochrome
monocular
monoide
monolingual
monolingue
monolithic
monophyletic
monopolar
monopolio
monopolisar
monopolistic
monorail
monotheismo
monotheista
monotheistic
monotone
monotonia
monoxydo
monroe
monrovia
mons
monson
monstra
monstrante
monstrar
monstras
monstrate
monstrava
monstro
monstros
monstruose
mont
monta
montage
montan
montana
montania
montanias
montaniose
montante
montar
montata
montate
montatura
montava
monte
montenegro
montes
montessori
montevideo
montgomery
month
montherlant
monthly
months
monti
monticulo
monto
montre
montreal
montuose
monty
monument
monumental
monumento
monumentos
monza
mood
moon
moor
moore
mora
moral
morales
moralitate
moralmente
morar
moras
moratorio
moravia
morbi
morbide
morbiditate
morbo
morbos
mordace
mordente
morder
mordite
mordor
more
morena
moreno
moreover
mores
moresby
moresnet
morgan
morgana
morge
morgen
morgue
mori
moriente
morir
moriscos
morite
moriva
mormon
mormones
mormonismo
mornas
morning
moro
morocco
moroni
morose
morositate
morphema
morphemas
morphina
morphologia
morphologic
morris
morrison
morro
morsa
morse
morsello
morsellos
morsura
mort
mortal
mortales
mortalitate
mortalmente
morte
mortero
mortes
mortifere
mortis
mortiz
morto
mortos
mortuari
mos
mosa
mosaic
mosaico
moschea
moscova
moscow
mosella
moses
mosfilm
moslem
moslemes
mosquito
mosquitos
most
mostra
mot
motacilla
mother
motin
motinar
motion
motivate
motivation
motive
motivo
motivos
moto
motocycletta
motocyclista
motor
motorcyclo
motores
motoring
motorisate
motta
motto
motu
mould
mount
mountain
mountains
mournful
mourning
mourut
mouse
mouskouri
mouth
mouvement
mov
move
moved
movement
movements
movente
mover
moveva
movibile
movie
movimente
movimento
movimentos
movimiento
moving
movite
mox
mozambique
mozarabe
mozarabic
mozart
mozilla
mp
mpla
mr
mrs
ms
msg
msx
mt
mtv
mu
much
mucha
muchas
mucho
muchos
mucide
muco
mucor
mucores
mucosa
mucose
mucositate
mud
muddy
muerte
muflon
muggle
mugir
muh
muhammad
mujer
mujeres
mulaik
mulcta
mulger
mulgitor
mulher
mulier
mulieres
muliero
muller
mulo
multa
multe
multejocator
multes
multi
multiarticulate
multicaule
multicellular
multicolor
multiflor
multilateral
multilingual
multilingue
multilinguismo
multimedia
multinational
multipede
multiple
multiplica
multiplicar
multiplicate
multiplication
multiplicative
multiplicitate
multiplo
multiplos
multiply
multissime
multissimo
multitude
multo
multos
mumbai
mumble
mumia
mun
mundan
mundar
munde
mundi
mundial
mundialmente
mundificar
mundification
mundo
mundos
munich
municipal
municipalitate
municipalitates
municipio
municipios
munir
munition
munitiones
muon
mur
mural
muralia
muralias
murar
murate
murcia
murder
murderer
murders
mure
mures
murmur
murmurar
murmuration
murmure
muro
muros
murray
mus
musa
musado
musas
musca
muscas
muscate
muscle
musco
muscular
musculate
musculo
musculos
musculose
muse
musee
musello
museo
museos
muses
museto
museu
museum
musi
music
musica
musical
musicale
musicales
musicante
musicar
musico
musicos
musik
musique
musk
muslim
muso
mussolini
must
mustachio
mustachios
mustang
mustard
mustarda
mustas
mustela
musulman
musulmanes
muta
mutabile
mutagene
mutar
mutate
mutation
mutationes
mute
mutilar
mutilate
mutilation
mutual
mutualmente
mutue
mutuemente
muy
muzzle
mwl
my
myanmar
mycene
mycologia
myopia
myosotis
myrrha
myrtillos
myrto
myself
myspace
myste
mysterio
mysterios
mysteriose
mysteriosemente
mysterious
mystery
mystic
mystica
mysticismo
mystico
mystificar
mystification
myth
mythic
mytho
mythol
mythologia
mythologic
mythologie
mythology
mythos
n
na
nabla
nabokov
nach
nachislamischen
naci
nacio
nacional
naciones
nacre
nada
nadar
nadie
naerssen
nag
nagaina
nagasaki
nagorno
nagra
nahuatl
nail
nairobi
naive
naked
nam
nambla
name
named
names
namibia
nan
nana
nanak
nancy
nang
nano
nanos
nantes
nap
napier
napole
napoleon
napoleonic
napoli
narcisso
narcose
narcotic
narcoticos
nariz
narra
narrar
narrate
narration
narrationes
narrativa
narrative
narrator
narrava
narrow
naruto
nas
nasa
nasal
nasce
nascente
nascentia
nascentias
nascer
nasceva
nascimento
nascite
naskis
naso
nassa
nassau
nasua
nat
nata
natal
natalitate
natar
natation
natator
natatori
nate
nation
national
nationale
nationalgallery
nationalisation
nationalismo
nationalista
nationalistas
nationalitate
nationalitates
nationes
nations
native
nativitate
nativo
nativos
nato
natrium
natura
naturae
natural
naturala
naturale
naturales
naturaleza
naturalisate
naturalisation
naturalismo
naturalista
naturalistic
naturalitate
naturally
naturalmente
naturas
nature
naturista
naturistas
naturo
naufragar
naufragate
naufragio
naufragos
naught
nauru
nausea
nauseabunde
nauseas
naut
nautic
nav
nava
navajo
naval
navarra
navas
nave
naves
navetta
navigabile
navigante
navigar
navigate
navigation
navigator
navigatores
navigava
naviglio
navo
navy
naya
nazareth
nazi
nazis
nazismo
nazista
nazo
nbc
nc
ncbi
nchen
nchengladbach
nchez
ncia
ncipe
nd
nde
ndez
ndia
ndo
ndose
ne
neanderthalensis
neapole
neapolitan
near
nearly
nebraska
nebrija
nebula
nebulosa
nebulose
nec
necar
necate
necesario
necessari
necessarily
necessarimente
necessario
necessary
necesse
necessemente
necessita
necessitar
necessitate
necessitates
necessitava
necessity
neck
necro
necrologic
necrophage
necropole
necrose
necrosis
necun
necuna
necuno
nederland
nederlandese
nederlandeses
nederlandia
nederlandse
need
needed
needle
needs
neerlandese
nefaste
nega
negacio
negar
negate
negation
negativa
negative
negativemente
negativo
negava
negibacteria
neglect
neglecte
neglige
negligente
negligentia
negliger
negligibile
negligite
negotiante
negotiar
negotiate
negotiation
negotiationes
negotio
negotios
negro
negros
neighbor
neighboring
neil
neither
nek
nel
nelson
nematoda
nemesis
nemo
neo
neoclassic
neodymium
neofelis
neolatin
neolatino
neolithic
neologic
neologismo
neologismos
neon
neonate
neonato
neoplatonic
neoplatonismo
neoptolemo
neozelandese
nepal
nephi
nephite
nephritic
nepote
nepta
nepto
neptunium
neptuno
neq
neque
nereu
nero
neron
nerve
nervo
nervos
nervose
nervous
nervura
nes
nessuno
nest
nestor
nestorian
net
neta
netboxe
netflix
netherlands
neto
netscape
netsukuku
nettar
nettation
nette
nettetal
nettitate
nettle
network
networks
neu
neubronner
neumann
neunkirchen
neur
neural
neuralgia
neurochirurgia
neurologic
neurologist
neuron
neurones
neurose
neurosis
neurotic
neutral
neutralisar
neutralisation
neutralitate
neutre
neutrino
neutro
neutron
neutrones
neva
nevada
neve
never
nevertheless
neville
nevis
nevo
new
newly
news
newsletter
newspaper
newspapers
newt
newton
newtonian
nexo
next
nez
nf
ng
ngc
ngel
ngua
ngulo
nh
nha
nhat
nhk
ni
nia
niagara
niamey
nibh
nic
nica
nicaragua
nicaraguan
niccolo
nice
niche
nicholas
nick
nickel
nickelodeon
nico
nicola
nicolas
nicolaus
nicomacho
nicosia
nicotiana
nicotina
nido
nie
niels
nietzsche
nietzschean
nieve
niger
nigeria
nigerian
night
nightingale
nights
nigra
nigre
nigro
nih
nihil
nikola
nikolai
nil
nilo
nilpotente
nimbate
nimble
nimbleness
nimbostrato
nimie
nimis
nimo
nimoy
nimzowitsch
nin
nina
nine
nineteen
nineteenth
ningu
ninguna
ninja
nintendo
ninth
nio
niobium
nippon
nirvana
nis
nishi
nisi
nisl
nist
nitide
nitrato
nitric
nitrogeno
nitroglycerina
nival
nivar
nive
nivel
nivellamento
nivellar
nivello
nivellos
nives
nivo
nivose
nixon
nj
nko
nl
nlm
nm
no
noaa
noam
nobel
nobelium
nobelprize
nobile
nobiles
nobiliari
nobilitate
nobis
noble
nobleman
nobody
noce
nocer
noche
noches
nocive
nocte
noctes
nocturne
node
nodo
nodos
nodose
noe
noi
noir
noire
noise
nokto
noli
nom
noma
nomade
nomadic
nombre
nombres
nome
nomen
nomenclatura
nomenclature
nomes
nomesas
nomina
nominal
nominalismo
nominalmente
nominar
nominate
nomination
nominative
nominativo
nominava
nomine
nomines
nomo
non
nona
nonas
nonchalance
nonchalant
nondum
none
nonmetallo
nonmetallos
nonne
nonobstante
nonsense
nonsenso
noon
nor
nord
nordamerican
nordest
nordic
nordico
nordwest
norfolk
norfuk
norm
norma
normal
normalisation
normally
normalmente
norman
normande
normandia
normanne
normanno
normannos
normas
normative
norte
north
northern
norton
norvega
norvegia
norvegian
norvegiano
norway
norwegian
norwich
nos
nose
nosotros
nostalgia
nostalgic
nostr
nostra
nostre
nostres
nostri
nostro
nostros
not
nota
notabile
notabilemente
notable
notar
notarial
notario
notarstefano
notas
notate
notation
notationes
notava
note
notes
nothing
notice
noticia
noticias
notificar
notification
notion
notiones
notitia
notitias
notori
notorietate
notre
notte
notwithstanding
nougat
noun
nouns
nourishing
nous
nouveau
nouveaux
nouvelle
nouvelles
nov
nova
novanta
novas
nove
novel
novela
novella
novellas
novelle
novellista
novelty
novem
november
novembre
novemente
noventa
novesime
novi
novial
novicios
noviembre
novilunio
novitate
novo
novos
novosibirsk
now
nowhere
np
npl
npr
nprf
nprm
nps
nr
nro
ns
nster
nsula
nt
ntara
nte
ntese
ntesis
ntgen
ntico
nto
ntos
nu
nuance
nuances
nube
nubes
nuca
nuce
nuces
nucleal
nuclear
nucleic
nucleo
nucleones
nucleos
nucleotides
nucleus
nuda
nudas
nude
nudes
nudistas
nuditate
nudo
nudos
nuestra
nuestras
nuestro
nuestros
nueva
nuevas
nueve
nuevo
nuit
nul
nula
null
nulla
nullam
nulle
nullemente
nullification
nullitate
nullo
nulo
num
numa
number
numbers
numeral
numerales
numerar
numerario
numerate
numeration
numeric
numericamente
numero
numeros
numerose
numerous
numerus
numisma
numismatic
nun
nunavut
nunc
nunca
nuncio
nunquam
nuovo
nuper
nuptial
nuptias
nur
nuremberg
nurse
nursery
nursing
nus
nusquam
nut
nutation
nutriente
nutrientes
nutrimento
nutrimentos
nutrir
nutrition
nutritive
nuwas
nvsh
nwt
ny
nyc
nyctereutes
nyingma
nylon
nympha
nymphal
nytimes
nyu
o
oa
oahu
oak
oared
oasis
oath
ob
obama
obedi
obediente
obedientia
obedir
obelisco
oberhausen
oberon
obeti
obi
obito
obituaries
obituario
obj
object
objectar
objection
objectiones
objective
objectivitate
objectivo
objectivos
objecto
objectos
objects
objetivo
objeto
oblast
oblidar
oblidate
oblidava
oblido
obligacio
obligante
obligar
obligate
obligation
obligationes
obligatori
obligatorimente
obligava
obliquar
oblique
obliquemente
obliquitate
obliterar
obliterate
obliteration
oblivion
oblonge
obnubilate
oboe
oboes
obra
obras
obrer
obrero
obreros
obscen
obscene
obscenitate
obscur
obscura
obscurar
obscurate
obscure
obscuritate
obsequiose
observa
observabile
observante
observantia
observar
observate
observation
observationes
observations
observator
observatores
observatorio
observatory
observava
observe
observer
observing
observite
obsession
obsessive
obsolescent
obsolescente
obsolescentia
obsolete
obstacle
obstaculo
obstaculos
obstante
obstetric
obstetrice
obstetricia
obstinar
obstinate
obstinatemente
obstinato
obstruct
obstruction
obstructive
obstruer
obstruite
obtemperar
obtene
obtenente
obtener
obteneva
obtenibile
obtenite
obtention
obtunder
obturar
obturation
obturator
obtuse
obviar
obvie
obviemente
oc
oca
ocas
occ
occasion
occasional
occasionalmente
occasionar
occasiones
occide
occidental
occidentalista
occidentalistas
occidente
occider
occideva
occidite
occipital
occitan
occitano
occlusion
occlusiva
occlusive
occult
occulta
occultar
occultation
occulte
occultista
occupa
occupante
occupar
occupate
occupation
occupational
occupationes
occupava
occupied
occur
occure
occureva
occurre
occurrence
occurrente
occurrentia
occurrer
occurrera
occurreva
occurring
occurrite
occurs
oce
ocean
oceania
oceanic
oceano
oceanographia
oceanographic
oceanos
ocellate
och
ocho
oclc
oct
octano
octanta
octantesime
octava
octavas
octave
octaviano
octavio
octavo
octesime
octo
october
octobre
octubre
octuple
ocular
oculo
oculos
ocurre
od
odd
oddness
odds
ode
odense
oder
odessa
odia
odiar
odin
odio
odiose
odjezdu
odoacre
odontologia
odor
odorante
odorate
odorose
odot
odum
odyssea
odysseo
odysseus
odyssey
oeste
oeuvre
of
off
offend
offender
offenders
offensa
offense
offensiva
offensive
offer
offere
offerente
offerer
offereva
offerite
offerta
offertas
office
officer
official
officiales
officialmente
officiero
officieros
officina
officinal
officio
officios
officiose
offset
offside
offspring
oficial
ofte
often
og
ogden
ogival
ogni
ographie
ogro
oh
ohio
ohm
oi
oil
ointment
ois
oise
ojeda
ojo
ojos
ok
okeh
oklahoma
ol
ola
old
olda
ole
oleaginose
oleate
oleo
oleos
oleose
oler
olfacer
olfaction
olfactive
olfactori
oli
oligarchic
olim
oliva
olive
oliveira
olivenza
oliver
olivia
olivier
olivo
olla
olleria
ollivander
olmo
olof
ologie
olona
olsen
oltre
olu
olua
olympia
olympiad
olympiade
olympic
olympie
om
oman
omar
omaso
ombudsman
ome
omega
omegat
omen
omission
omit
omitte
omitted
omitter
omittite
omna
omne
omnes
omni
omnibus
omnidirectional
omniglot
omnipotente
omnipotentia
omnipresente
omnisciente
omnivore
omno
omnu
omoplate
oms
on
ona
onca
once
oncle
one
onere
oneres
onerose
ones
oneself
onklino
onklulo
online
only
ono
onomastic
ontario
ontogenesis
ontogeny
ontologia
ontologic
onu
oo
oomoto
op
opac
open
opening
openly
opera
operando
operandos
operante
operar
operari
operas
operate
operating
operation
operational
operationes
operative
operator
operatores
operatori
operava
operetta
operose
ophiuchus
ophrys
ophthalmic
ophthalmologic
ophthalmologo
opina
opinabile
opinar
opinion
opinionas
opiniones
opium
oplus
oppone
opponente
opponentes
opponer
opponeva
opponite
opportun
opportunista
opportunistic
opportunitate
opportunitates
opportunity
oppose
opposed
opposing
opposite
opposition
opposito
oppression
oppressive
opprimite
opprobio
ops
opt
optar
optava
optic
optica
optimal
optime
optimismo
optimista
optimo
option
optional
optionally
optionalmente
optiones
opulente
opulentia
opus
or
ora
oracio
oraciones
oracle
oracular
oraculo
oraculos
oral
oralitate
oralmente
orang
orange
orangeria
oranges
orangutanes
oranje
orar
oration
orationes
orator
oratori
oratoria
oratorio
orbi
orbicular
orbit
orbita
orbital
orbitari
orbitas
orchestra
orchestral
orchestras
orchis
orci
ordalia
orden
order
orderly
ordina
ordinal
ordinales
ordinamento
ordinantia
ordinantias
ordinar
ordinari
ordinary
ordinate
ordination
ordinator
ordinava
ordine
ordines
ordir
ordo
ore
oregon
oreli
ores
org
organ
organic
organisa
organisar
organisate
organisation
organisationes
organisative
organisator
organisava
organismo
organismos
organista
organization
organizations
organize
organized
organo
organogenesis
organos
orgiastic
orgolio
orgoliose
ori
orient
orientabile
oriental
orientalis
orientar
orientate
orientation
oriente
orificio
origen
origin
origina
original
originalitate
originalmente
originar
originari
originarimente
originate
originator
originava
origine
origines
origins
orion
orita
orle
orleans
orlo
ornament
ornamental
ornamentar
ornamentation
ornamento
ornamentos
ornar
ornare
ornate
ornith
ornithogalo
ornithologic
oro
orographic
orphano
orphanos
orphic
orsay
orthodox
orthodoxe
orthodoxia
orthodoxos
orthogonal
orthographe
orthographia
orthographias
orthographic
orthography
orthopedic
ortografia
orwell
os
osa
osaka
osar
osate
oscar
oscillante
oscillar
oscillation
oscillationes
oscillator
oscillatori
oscillographo
osculo
oscuro
osiris
oslo
osmium
osmotic
osnabru
ossatura
ossee
ossetia
ossiculo
ossification
osso
ossos
ossose
ostage
ostentar
ostentation
ostentatiose
ostrea
ostreas
ostrogothos
ostwald
otaci
otan
othello
other
others
otherwise
otio
otra
otras
otro
otros
ots
ottawa
otto
ottoman
ou
oud
ought
oui
our
ouro
ours
out
outbreak
outer
outlaw
outline
output
outre
outside
outsider
outstanding
oval
ovarian
ovario
ovation
ove
ovenden
over
overcoat
overcome
overdose
overthrow
overview
oves
ovi
ovibos
ovidio
oviedo
ovin
ovis
ovo
ovoide
ovos
owen
owing
owl
own
owner
ownership
ox
oxalamide
oxalide
oxamide
oxford
oxide
oxyda
oxydante
oxydar
oxydation
oxydo
oxydos
oxygen
oxygeno
oyster
oz
ozono
p
pa
pablo
pacchetto
pacchettos
pacco
paccos
pace
pacibile
paciente
pacific
pacifico
pacifismo
pacifista
pacioli
pack
package
packet
paco
pacto
pad
paddle
paddock
padma
padmasambhava
padre
padres
padua
paedophile
paedophilia
pag
paga
pagaia
pagamento
pagamentos
pagan
paganism
paganismo
pagano
paganos
pagar
pagate
pagator
pagava
page
pager
pages
pagina
paginas
pago
pagoda
pai
paid
paidika
pain
painel
paint
painter
painting
pair
pais
paisage
paisages
paisano
paisanos
paises
paiute
pakistan
pakistani
pal
pala
palabra
palabras
palace
palacio
palacios
palais
palanti
palas
palata
palatal
palatalisar
palatalisation
palatin
palatinato
palatio
palato
palau
palavra
palavras
palazzo
pale
palea
palencia
palentia
paleochristian
paleographic
paleolithic
paleontol
paleontologia
paleozoic
palermo
palestin
palestina
palestinian
paletta
palgrave
pali
palingenesis
palissada
palladio
palladium
pallas
palliative
pallide
pallor
palm
palma
palmas
palmate
palo
paloma
palos
palpa
palpabile
palpebra
palpebras
palpitante
palpitar
palpitation
palude
paludes
paludic
paludose
palustre
pamphleto
pan
panacea
panama
pancia
pancreas
pancreatic
pancreatitis
panda
pandemia
pandemic
pandora
pandore
pane
panel
panentheismo
panetero
paneteros
panetto
paneuropee
pangloss
panic
panico
paniculate
paniero
panification
panjabi
pankhurst
panna
pannello
pannellos
panno
pannos
pano
panorama
panoramic
pantagruel
pantalo
pantalon
pantalones
pantheismo
pantheista
pantheistic
pantheon
panthera
pantomima
pantomime
paolo
pap
papa
papagai
papal
papanduva
papas
papato
papavere
papaya
papel
paper
paperback
papers
paperweight
papiamento
papilion
papilionar
papiliones
papilla
papillar
papiro
papiros
papista
pappa
papua
papyro
par
para
parabola
parabolic
paraboloide
parabrisa
paracadita
paracaditistas
paracolpos
parada
paradar
parade
paradigma
paradise
paradisiac
paradiso
paradox
paradoxal
paradoxe
paradoxes
paradoxo
paradoxos
paradoxurus
paraffin
paragon
paragraph
paragrapho
paragraphos
paraguas
paraguay
parai
parallaxe
parallel
parallelmente
parallelo
parallelogramma
paralysa
paralysar
paralysate
paralyse
paralysis
paramaribo
parametric
parametro
parametros
paramilitar
paramount
parana
parangon
paranormal
paraphrase
paraphyletic
parapluvia
parapluvo
parar
parasite
parasitic
parasitismo
parasito
parasitos
paravento
parc
parcamento
parcar
parcel
parcella
parcellas
parco
parcos
pardofelis
pardon
pardona
pardonar
pardono
pardus
pare
parece
parenchyma
parent
parental
parentato
parente
parentela
parentes
parenthese
parentheses
parenthetic
parer
pares
pareva
pari
parietal
pariete
parietes
paris
parish
parisian
paritate
park
parker
parking
parkinson
parko
parks
parl
parla
parlamentari
parlamentarios
parlamento
parlamentos
parlante
parlantes
parlar
parlate
parlator
parlatores
parlava
parliament
parma
paro
parochia
parochial
parochias
parocho
parodia
parodiar
parodic
parody
parola
parolar
parolas
parole
paroles
parolis
paroxysmo
parque
parquet
parrot
parsec
parsi
parsimonia
parsimoniose
part
parte
partenario
partenarios
parterre
partes
parthenogenesis
parti
partial
partialmente
participa
participante
participantes
participar
participate
participation
participava
participe
participial
participio
participios
particle
particula
particular
particulares
particularitate
particularitates
particularly
particularmente
particulas
particulo
partido
partio
partir
partisan
partisano
partisanos
partita
partitario
partitas
partite
partition
partitiones
partitive
partito
partitos
partitura
partiva
partner
partners
parto
partout
parts
parturi
parturiente
parturir
parturition
parturiva
party
parva
parve
parvo
pas
pasa
pasadena
pasado
pasar
pascal
pascer
pascha
paschal
pasero
paso
pass
passa
passabile
passable
passage
passager
passagero
passageros
passages
passante
passaporto
passar
passate
passatempore
passato
passava
passe
passer
passere
passeres
passim
passing
passion
passional
passionate
passionatemente
passiones
passive
passivo
passo
passos
past
pasta
pastata
paste
pastel
pastello
pasteur
pastilla
pastisseria
pastissero
pastor
pastoral
pastores
pastry
pastura
pasturas
pasture
pasty
pat
pata
patas
patata
patatas
patch
patella
patent
patentate
patente
patentes
pater
paternal
paterne
paternitate
path
pathetic
pathogene
pathogenesis
pathogenic
pathol
pathologia
pathologic
pathos
patiala
patibular
patience
patient
patiente
patientes
patientia
patil
patin
patinage
patinar
patinatorio
patines
patio
patir
patois
patre
patrenostre
patres
patri
patria
patriarcha
patriarchal
patriarchas
patriarchato
patricie
patricio
patrick
patrimonial
patrimonio
patrino
patriota
patriotic
patristic
patro
patroclo
patrologia
patron
patronage
patronal
patronisava
patrono
patronos
patronymic
patronymico
patrulia
pattern
patterns
patterson
pau
pauc
pauches
pauco
paul
paula
paulatim
pauling
paulist
paulo
paupere
pauperes
pauperitate
paupertate
pausa
pause
pavement
pavia
pavilion
pavimento
pavlov
pavon
pavor
pawn
pax
pay
payment
pays
paysage
paz
pbs
pc
pdf
pe
peace
peak
peano
pear
pearl
pearson
peccar
peccato
peccator
peccatores
peccatos
pecia
pecias
pecietta
peciettas
peco
pectinate
pectinatura
pectine
pectoral
pectore
peculiar
peculiaritate
pecunia
pecuniari
pedage
pedagogia
pedagogic
pedagogo
pedal
pedante
pedanteria
pede
pedemonte
pedemontese
peder
pederastas
pederastia
pederastic
pedes
pedestallo
pedestre
pedestrian
pediatric
pedica
pedicular
pediculo
pedigree
pedo
pedofilia
pedon
pedones
pedophile
pedophiles
pedophilia
pedophilic
pedophilo
pedophilos
pedras
pedro
pedunculo
peel
peer
pei
peignoir
pejo
pejor
pejorar
pejorative
peking
pekunio
pelage
pelagian
pelagic
pelayo
pelegrinage
pelegrino
peleo
pell
pellar
pellate
pellaturas
pelle
pellentesque
pelles
pellicia
pellicias
pellicula
pelliculas
pelo
peloponneso
pelota
peloton
peltate
pelve
pelvic
pema
pen
pena
penal
penalitate
penalty
penang
penas
penates
pencil
pend
pendant
pende
pendente
pender
pendula
pendular
pendule
pendulo
pene
penelope
penetrante
penetrar
penetrate
penetration
penetrative
penetrava
pengo
penguin
penh
peni
penicillina
penicillium
penicillo
peninsula
peninsular
penis
penitentia
penitential
penitentiari
penna
pennachio
pennate
pennsylvania
penny
penose
pens
pensa
pensamento
pensamentos
pensamiento
pensante
pensar
pensata
pensatas
pensate
pensative
pensator
pensatores
pensava
pensile
pension
pensionario
pentagonal
pentagono
pentametro
pentateucho
pentathlon
pentecostal
pentecoste
penultime
penumbra
penuria
peon
people
peoples
peor
pepita
pepitas
pepper
peppy
peptic
pequen
per
perak
perca
perceive
percent
percentage
percentos
percentual
perceptibile
perception
perceptive
percha
perche
perciar
percipe
perciper
percipite
percurre
percurrer
percurso
percussion
percussionista
percutente
percuter
percy
perde
perdente
perder
perdeva
perdice
perdices
perdio
perdita
perditas
perdite
perdition
perditor
pere
peregrination
peregrino
pereira
perek
peremptori
perenne
perez
perfect
perfecte
perfectemente
perfection
perfectionamento
perfectionar
perfective
perfecto
perfectos
perfide
perforar
perforate
perforated
perforation
perforator
perform
performance
performing
perfume
perfumo
perfunctori
pergamena
pergamon
pergola
perhaps
peri
pericles
periculo
periculos
periculose
peril
perimer
perimetral
perimetro
perimite
perio
period
periodic
periodical
periodicamente
periodico
periodicos
periodo
periodos
peripetias
peripheria
peripheric
periphrase
periphrastic
perir
periscopic
perissodactyla
peristaltic
peritonitis
perl
perla
perlas
perlate
perm
permane
permanecer
permanent
permanente
permanentemente
permanentia
permaner
permanera
permeabile
permeabilitate
permeate
permiso
permission
permissive
permisso
permit
permite
permitte
permittente
permitter
permittera
permitterea
permitteva
permittite
permulte
permulto
permutar
permutation
pernambuco
perniciose
pernoctar
pero
peroxydo
perpendicular
perpendiculo
perpetrar
perpetrate
perpetration
perpetrator
perpetual
perpetuar
perpetuation
perpetue
perpetuitate
perpinia
perplexe
perque
perquirer
perquisition
perrault
perro
perron
perros
perrucca
[...]
